{
  "version": "1.0",
  "truncation": null,
  "padding": null,
  "added_tokens": [
    {
      "id": 0,
      "content": "<pad>",
      "single_word": false,
      "lstrip": false,
      "rstrip": false,
      "normalized": false,
      "special": true
    },
    {
      "id": 1,
      "content": "<unk>",
      "single_word": false,
      "lstrip": false,
      "rstrip": false,
      "normalized": false,
      "special": true
    },
    {
      "id": 2,
      "content": "<s>",
      "single_word": false,
      "lstrip": false,
      "rstrip": false,
      "normalized": false,
      "special": true
    },
    {
      "id": 3,
      "content": "</s>",
      "single_word": false,
      "lstrip": false,
      "rstrip": false,
      "normalized": false,
      "special": true
    }
  ],
  "normalizer": null,
  "pre_tokenizer": {
    "type": "Sequence",
    "pretokenizers": [
      {
        "type": "Whitespace"
      },
      {
        "type": "Split",
        "pattern": {
          "Regex": "(?<=[ऀ-ॿ஀-௿฀-๿຀-໿က-႟ក-៿一-鿿꤀-꤯])(?=[A-Za-z0-9])|(?<=[A-Za-z0-9])(?=[ऀ-ॿ஀-௿฀-๿຀-໿က-႟ក-៿一-鿿꤀-꤯])"
        },
        "behavior": "Isolated",
        "invert": false
      }
    ]
  },
  "post_processor": null,
  "decoder": null,
  "model": {
    "type": "BPE",
    "dropout": null,
    "unk_token": "<unk>",
    "continuing_subword_prefix": null,
    "end_of_word_suffix": null,
    "fuse_unk": false,
    "byte_fallback": false,
    "ignore_merges": false,
    "vocab": {
      "<pad>": 0,
      "<unk>": 1,
      "<s>": 2,
      "</s>": 3,
      "!": 4,
      "'": 5,
      "(": 6,
      ")": 7,
      ",": 8,
      "-": 9,
      ".": 10,
      "0": 11,
      "1": 12,
      "2": 13,
      "4": 14,
      "5": 15,
      "7": 16,
      "8": 17,
      "9": 18,
      ":": 19,
      ";": 20,
      "?": 21,
      "A": 22,
      "B": 23,
      "C": 24,
      "D": 25,
      "E": 26,
      "F": 27,
      "G": 28,
      "H": 29,
      "I": 30,
      "J": 31,
      "K": 32,
      "L": 33,
      "M": 34,
      "N": 35,
      "O": 36,
      "P": 37,
      "R": 38,
      "S": 39,
      "T": 40,
      "U": 41,
      "V": 42,
      "W": 43,
      "Z": 44,
      "[": 45,
      "]": 46,
      "a": 47,
      "b": 48,
      "c": 49,
      "d": 50,
      "e": 51,
      "f": 52,
      "g": 53,
      "h": 54,
      "i": 55,
      "j": 56,
      "k": 57,
      "l": 58,
      "m": 59,
      "n": 60,
      "o": 61,
      "p": 62,
      "r": 63,
      "s": 64,
      "t": 65,
      "u": 66,
      "v": 67,
      "w": 68,
      "y": 69,
      "z": 70,
      "Ṭ": 71,
      "ṭ": 72,
      "—": 73,
      "‘": 74,
      "’": 75,
      "“": 76,
      "”": 77,
      "…": 78,
      "an": 79,
      "ah": 80,
      "na": 81,
      "ng": 82,
      "cu": 83,
      "aw": 84,
      "kh": 85,
      "ih": 86,
      "in": 87,
      "hna": 88,
      "th": 89,
      "mi": 90,
      "ang": 91,
      "la": 92,
      "kha": 93,
      "ka": 94,
      "nih": 95,
      "ti": 96,
      "le": 97,
      "ch": 98,
      "si": 99,
      "pa": 100,
      "al": 101,
      "tu": 102,
      "lai": 103,
      "nak": 104,
      "ung": 105,
      "am": 106,
      "un": 107,
      "lo": 108,
      "te": 109,
      "um": 110,
      "thi": 111,
      "ak": 112,
      "ei": 113,
      "awi": 114,
      "cun": 115,
      "hm": 116,
      "se": 117,
      "nan": 118,
      "law": 119,
      "ṭh": 120,
      "ca": 121,
      "uh": 122,
      "khan": 123,
      "ia": 124,
      "anh": 125,
      "kan": 126,
      "hi": 127,
      "ua": 128,
      "tiah": 129,
      "awipa": 130,
      "Bawipa": 131,
      "pi": 132,
      "im": 133,
      "chung": 134,
      "ra": 135,
      "mah": 136,
      "seh": 137,
      "caah": 138,
      "hr": 139,
      "ko": 140,
      "ai": 141,
      "Pa": 142,
      "thian": 143,
      "el": 144,
      "kah": 145,
      "tuah": 146,
      "vi": 147,
      "khat": 148,
      "Cun": 149,
      "ph": 150,
      "Pathian": 151,
      "bia": 152,
      "fa": 153,
      "awh": 154,
      "sin": 155,
      "ing": 156,
      "pe": 157,
      "ar": 158,
      "lei": 159,
      "cung": 160,
      ",”": 161,
      "ong": 162,
      "ter": 163,
      "ram": 164,
      "ru": 165,
      "lak": 166,
      "ihm": 167,
      "khua": 168,
      "li": 169,
      "pah": 170,
      "vial": 171,
      "hnak": 172,
      "dah": 173,
      "vialte": 174,
      "ihmanh": 175,
      "tuk": 176,
      "tl": 177,
      "chim": 178,
      "rang": 179,
      "oh": 180,
      "Je": 181,
      "Cu": 182,
      "hng": 183,
      "ri": 184,
      "kal": 185,
      "ul": 186,
      "pek": 187,
      "he": 188,
      "zei": 189,
      "ut": 190,
      "sa": 191,
      "inn": 192,
      "ban": 193,
      "sinah": 194,
      "awk": 195,
      "aa": 196,
      "chu": 197,
      "nu": 198,
      "rak": 199,
      "bantuk": 200,
      "pahrang": 201,
      "angpahrang": 202,
      "awng": 203,
      "ṭha": 204,
      "sehlaw": 205,
      "ihmanhsehlaw": 206,
      "pakhat": 207,
      "su": 208,
      "tikah": 209,
      "dih": 210,
      "Is": 211,
      "cang": 212,
      "fapa": 213,
      "va": 214,
      "on": 215,
      "bi": 216,
      "awn": 217,
      "amah": 218,
      "thil": 219,
      "chungah": 220,
      "zong": 221,
      "awl": 222,
      "lung": 223,
      "rael": 224,
      "Israel": 225,
      "hl": 226,
      "ser": 227,
      "ni": 228,
      "siangpahrang": 229,
      "eih": 230,
      "cungah": 231,
      "ral": 232,
      "hmanh": 233,
      "hin": 234,
      "hmuh": 235,
      "lam": 236,
      "hngal": 237,
      "en": 238,
      "bawi": 239,
      "uan": 240,
      "za": 241,
      "iah": 242,
      "ummi": 243,
      "chuah": 244,
      "nga": 245,
      "angmah": 246,
      "uk": 247,
      "awkah": 248,
      "thawh": 249,
      "ve": 250,
      "naw": 251,
      "or": 252,
      "ngai": 253,
      "min": 254,
      "Ka": 255,
      "mh": 256,
      "ahcun": 257,
      "hmun": 258,
      "hmai": 259,
      "phun": 260,
      "duh": 261,
      "Cucaah": 262,
      "sual": 263,
      "de": 264,
      "annih": 265,
      "Mi": 266,
      "cah": 267,
      "ding": 268,
      "tein": 269,
      "tlang": 270,
      "An": 271,
      "tak": 272,
      "ir": 273,
      "maw": 274,
      "Sihmanhsehlaw": 275,
      "ṭhan": 276,
      "Jes": 277,
      "leng": 278,
      "kut": 279,
      "eu": 280,
      "piak": 281,
      "tnak": 282,
      "lawng": 283,
      "nawl": 284,
      "ci": 285,
      "chia": 286,
      "thl": 287,
      "Na": 288,
      "Jesuh": 289,
      "hngalh": 290,
      "nangmah": 291,
      "tin": 292,
      "hrim": 293,
      "eimah": 294,
      "ning": 295,
      "Hi": 296,
      "awm": 297,
      "thla": 298,
      "er": 299,
      "hlah": 300,
      "ngei": 301,
      "sh": 302,
      "ip": 303,
      "Zei": 304,
      "awlei": 305,
      "sihmanhsehlaw": 306,
      "kho": 307,
      "dang": 308,
      "sal": 309,
      "bantukin": 310,
      "bu": 311,
      "siseh": 312,
      "ruah": 313,
      "hung": 314,
      "ta": 315,
      "Ju": 316,
      "thin": 317,
      "paoh": 318,
      "khawh": 319,
      "ngan": 320,
      "lang": 321,
      "zul": 322,
      "mang": 323,
      "ho": 324,
      "tiang": 325,
      "ze": 326,
      "thiang": 327,
      "thawi": 328,
      "Judah": 329,
      "lawm": 330,
      "cahtiah": 331,
      "lomi": 332,
      "keimah": 333,
      "ose": 334,
      "vawlei": 335,
      "lh": 336,
      "rian": 337,
      "ha": 338,
      "chimh": 339,
      "tam": 340,
      "ṭi": 341,
      "biak": 342,
      "hun": 343,
      "Da": 344,
      "zoh": 345,
      "ṭhat": 346,
      "ṭuan": 347,
      "tla": 348,
      "em": 349,
      "ro": 350,
      "bang": 351,
      "thawinak": 352,
      "kam": 353,
      "aho": 354,
      "vid": 355,
      "David": 356,
      "theih": 357,
      "ṭhi": 358,
      "upa": 359,
      "kum": 360,
      "nun": 361,
      "loin": 362,
      "ihnak": 363,
      "van": 364,
      "thah": 365,
      "lem": 366,
      "chan": 367,
      "mei": 368,
      "zal": 369,
      "rawl": 370,
      "ek": 371,
      "tuahmi": 372,
      "eng": 373,
      "pum": 374,
      "khi": 375,
      "dan": 376,
      "hla": 377,
      "zung": 378,
      ",’": 379,
      "deuh": 380,
      "hnga": 381,
      "hnu": 382,
      "bik": 383,
      "chungin": 384,
      "chuak": 385,
      "zeihmanh": 386,
      "chiah": 387,
      "Si": 388,
      "kap": 389,
      "hmaiah": 390,
      "sar": 391,
      "mit": 392,
      "ui": 393,
      "tlak": 394,
      "thawng": 395,
      "caan": 396,
      "zum": 397,
      "ruang": 398,
      "ihi": 399,
      "uat": 400,
      "tang": 401,
      "lio": 402,
      "nung": 403,
      "thum": 404,
      "zungzal": 405,
      "cio": 406,
      "Nan": 407,
      "oses": 408,
      "kong": 409,
      "dihlak": 410,
      "Moses": 411,
      "Jeru": 412,
      "Jo": 413,
      "lengmang": 414,
      "salem": 415,
      "Jerusalem": 416,
      "uai": 417,
      "cheu": 418,
      "lu": 419,
      "tlangbawi": 420,
      "daw": 421,
      "leh": 422,
      "nau": 423,
      "dong": 424,
      "?”": 425,
      "hal": 426,
      "thang": 427,
      "sawm": 428,
      "sak": 429,
      "ngeih": 430,
      "lonak": 431,
      "lon": 432,
      "nakh": 433,
      "simi": 434,
      "ba": 435,
      "Iz": 436,
      "nakhnga": 437,
      "har": 438,
      "cam": 439,
      "ngaih": 440,
      "bangin": 441,
      "hihi": 442,
      "et": 443,
      "hei": 444,
      "nain": 445,
      "nannih": 446,
      "ipt": 447,
      "Izipt": 448,
      "hmu": 449,
      "hrimhrim": 450,
      "tampi": 451,
      "puan": 452,
      "rel": 453,
      "miphun": 454,
      "chin": 455,
      "zu": 456,
      "Sa": 457,
      "thiam": 458,
      "zeitin": 459,
      "zeicahtiah": 460,
      "pahnih": 461,
      "ahnak": 462,
      "Kan": 463,
      "do": 464,
      "hrih": 465,
      "Amah": 466,
      "thong": 467,
      "Khrih": 468,
      "pawl": 469,
      "khar": 470,
      "ṭhal": 471,
      "hlan": 472,
      "hlei": 473,
      "tha": 474,
      "hma": 475,
      "par": 476,
      "ruangah": 477,
      "hnaw": 478,
      "sualnak": 479,
      "da": 480,
      "Ab": 481,
      "ṭhalo": 482,
      "thlah": 483,
      "Siangpahrang": 484,
      "angh": 485,
      "din": 486,
      "ahohmanh": 487,
      "tum": 488,
      "rh": 489,
      "ralkap": 490,
      "thu": 491,
      "dir": 492,
      "rih": 493,
      "Ba": 494,
      "bo": 495,
      "kaa": 496,
      "thing": 497,
      "hlaw": 498,
      "lakah": 499,
      "enh": 500,
      "anmah": 501,
      "hn": 502,
      "rat": 503,
      "nam": 504,
      "thei": 505,
      "phung": 506,
      "chanh": 507,
      "ke": 508,
      "re": 509,
      "caw": 510,
      "kir": 511,
      "ṭhiam": 512,
      "chimmi": 513,
      "tefa": 514,
      "bal": 515,
      "sarih": 516,
      "kul": 517,
      "nunnak": 518,
      "sur": 519,
      "Annih": 520,
      "chiat": 521,
      "chang": 522,
      "umnak": 523,
      "tuu": 524,
      "zulh": 525,
      "cawn": 526,
      "phan": 527,
      "atu": 528,
      "nawlbia": 529,
      "khin": 530,
      "hter": 531,
      "rau": 532,
      "nupi": 533,
      "ṭial": 534,
      "minung": 535,
      "nanmah": 536,
      "fim": 537,
      "ṭih": 538,
      "cawnpiak": 539,
      "chungkhar": 540,
      "pekmi": 541,
      "Am": 542,
      "Khi": 543,
      "uang": 544,
      "fi": 545,
      "fak": 546,
      "Kh": 547,
      "pang": 548,
      "doh": 549,
      "di": 550,
      "unau": 551,
      "hnih": 552,
      "Mah": 553,
      "tawn": 554,
      "vancung": 555,
      "hram": 556,
      "khangh": 557,
      "len": 558,
      "tho": 559,
      "tluk": 560,
      "au": 561,
      "tan": 562,
      "chun": 563,
      "sui": 564,
      "zumh": 565,
      "biakam": 566,
      "mon": 567,
      "sinin": 568,
      "ngaingai": 569,
      "Le": 570,
      "Nangmah": 571,
      "rai": 572,
      "cucaah": 573,
      "Be": 574,
      "ili": 575,
      "sang": 576,
      "cucu": 577,
      "zar": 578,
      "co": 579,
      "fan": 580,
      "ab": 581,
      "fet": 582,
      "tlun": 583,
      "rofet": 584,
      "thangṭhat": 585,
      "khamh": 586,
      "Maw": 587,
      "hrawh": 588,
      "kalpi": 589,
      "timi": 590,
      "Zeicahtiah": 591,
      "let": 592,
      "chi": 593,
      "zan": 594,
      "cahdah": 595,
      "oi": 596,
      "ṭhawn": 597,
      "tlaih": 598,
      "ceih": 599,
      "hnuah": 600,
      "zapi": 601,
      "mipa": 602,
      "hnawh": 603,
      "run": 604,
      "tlai": 605,
      "ual": 606,
      "ṭhawng": 607,
      "ṭheng": 608,
      "hrin": 609,
      "lioah": 610,
      "lut": 611,
      "pawng": 612,
      "biakamnak": 613,
      "sinain": 614,
      "innchungkhar": 615,
      "Tlang": 616,
      "vai": 617,
      "ticun": 618,
      "pei": 619,
      "biakṭheng": 620,
      "phak": 621,
      "hmi": 622,
      "sau": 623,
      "profet": 624,
      "fanu": 625,
      "tei": 626,
      "Fa": 627,
      "ngak": 628,
      "Saul": 629,
      "pekchanh": 630,
      "phaw": 631,
      "kip": 632,
      "rah": 633,
      "sawh": 634,
      "zaang": 635,
      "tlawm": 636,
      "put": 637,
      "hman": 638,
      "piin": 639,
      "ton": 640,
      "pathian": 641,
      "Nannih": 642,
      "ṭil": 643,
      "thih": 644,
      "zeitintiah": 645,
      "phi": 646,
      "sermi": 647,
      "ṭhawnnak": 648,
      "duhmi": 649,
      "luh": 650,
      "ob": 651,
      "tlung": 652,
      "ki": 653,
      "nakin": 654,
      "aan": 655,
      "riah": 656,
      "thlua": 657,
      "khika": 658,
      "vel": 659,
      "khenh": 660,
      "mitsur": 661,
      "taktak": 662,
      "He": 663,
      "pupa": 664,
      "zeidah": 665,
      "Ral": 666,
      "Thi": 667,
      "She": 668,
      "than": 669,
      "Thla": 670,
      "tiva": 671,
      "Levi": 672,
      "ṭhut": 673,
      "zultu": 674,
      "om": 675,
      "Khua": 676,
      "Ze": 677,
      "So": 678,
      "Th": 679,
      "harnak": 680,
      "thli": 681,
      "Bi": 682,
      "she": 683,
      "thawngin": 684,
      "thawk": 685,
      "aron": 686,
      "Aaron": 687,
      "hawi": 688,
      "sen": 689,
      "zing": 690,
      "ngun": 691,
      "thim": 692,
      "Keimah": 693,
      "bawipa": 694,
      "zaangf": 695,
      "awhnak": 696,
      "zam": 697,
      "hmasa": 698,
      "thluachuah": 699,
      "thlam": 700,
      "lungthin": 701,
      "chuahpi": 702,
      "kung": 703,
      "uhnak": 704,
      "tiin": 705,
      "Aho": 706,
      "ṭhatnak": 707,
      "Me": 708,
      "Jak": 709,
      "kawl": 710,
      "Fili": 711,
      "zongah": 712,
      "dam": 713,
      "can": 714,
      "him": 715,
      "pal": 716,
      "ruk": 717,
      "fawn": 718,
      "Jakob": 719,
      "saṭil": 720,
      "dawt": 721,
      "uah": 722,
      "hring": 723,
      "mu": 724,
      "uar": 725,
      "kannih": 726,
      "bilon": 727,
      "Babilon": 728,
      "Gi": 729,
      "kun": 730,
      "philh": 731,
      "kai": 732,
      "mer": 733,
      "hruai": 734,
      "biakinn": 735,
      "Pe": 736,
      "Sam": 737,
      "bawm": 738,
      "hmang": 739,
      "fale": 740,
      "cuka": 741,
      "chih": 742,
      "Eli": 743,
      "vung": 744,
      "leiah": 745,
      "thinhun": 746,
      "ṭhu": 747,
      "as": 748,
      "hran": 749,
      "Ni": 750,
      "auh": 751,
      "reu": 752,
      "dawtnak": 753,
      "ria": 754,
      "luat": 755,
      "khuaruah": 756,
      "tlunter": 757,
      "be": 758,
      "tah": 759,
      "sia": 760,
      "zaw": 761,
      "lawmhnak": 762,
      "man": 763,
      "rili": 764,
      "ad": 765,
      "Zeitin": 766,
      "sun": 767,
      "sawng": 768,
      "ralkapbu": 769,
      "oih": 770,
      "uktu": 771,
      "vainam": 772,
      "ṭung": 773,
      "lomon": 774,
      "kutka": 775,
      "Solomon": 776,
      "Filis": 777,
      "fek": 778,
      "hle": 779,
      "eh": 780,
      "lan": 781,
      "ṭhiamṭhiam": 782,
      "hri": 783,
      "zeitindah": 784,
      "rung": 785,
      "rem": 786,
      "parnak": 787,
      "Ng": 788,
      "dar": 789,
      "sih": 790,
      "Zeicahdah": 791,
      "Thlarau": 792,
      "ceu": 793,
      "tung": 794,
      "tling": 795,
      "Jose": 796,
      "dum": 797,
      "kuang": 798,
      "langhter": 799,
      "Filistin": 800,
      "Josef": 801,
      "hmuhmi": 802,
      "sam": 803,
      "Abrah": 804,
      "Abraham": 805,
      "hau": 806,
      "ṭam": 807,
      "naa": 808,
      "herh": 809,
      "sunparnak": 810,
      "vancungmi": 811,
      "aro": 812,
      "dawi": 813,
      "timh": 814,
      "Jeho": 815,
      "Ne": 816,
      "cawh": 817,
      "kei": 818,
      "chaw": 819,
      "ullam": 820,
      "chiti": 821,
      "nihin": 822,
      "hrem": 823,
      "rawn": 824,
      "sinum": 825,
      "cik": 826,
      "zohkhenh": 827,
      "Beth": 828,
      "vut": 829,
      "Cuticun": 830,
      "lawmh": 831,
      "khuami": 832,
      "ennak": 833,
      "Vawlei": 834,
      "cikc": 835,
      "Zoh": 836,
      "cawtum": 837,
      "thuh": 838,
      "lek": 839,
      "Atu": 840,
      "me": 841,
      "Ha": 842,
      "Asinain": 843,
      "rawk": 844,
      "Fapa": 845,
      "ruat": 846,
      "changreu": 847,
      "Ram": 848,
      "ap": 849,
      "rianṭuan": 850,
      "Van": 851,
      "chawn": 852,
      "laksawng": 853,
      "anngan": 854,
      "thinhunnak": 855,
      "thlai": 856,
      "hlawt": 857,
      "sha": 858,
      "awmh": 859,
      "thihnak": 860,
      "rum": 861,
      "tat": 862,
      "Zohhmanh": 863,
      "pakhatkhat": 864,
      "Faro": 865,
      "dingah": 866,
      "Zi": 867,
      "duhnak": 868,
      "thar": 869,
      "thlarau": 870,
      "Bia": 871,
      "Ti": 872,
      "voi": 873,
      "pen": 874,
      "ngeimi": 875,
      "vui": 876,
      "bochan": 877,
      "daihnak": 878,
      "otu": 879,
      "anih": 880,
      "zumhnak": 881,
      "ngakchia": 882,
      "pu": 883,
      "kaltak": 884,
      "ssi": 885,
      "dawh": 886,
      "tai": 887,
      "shua": 888,
      "lonh": 889,
      "men": 890,
      "ol": 891,
      "ther": 892,
      "orh": 893,
      "pumh": 894,
      "kiah": 895,
      "tlin": 896,
      "chunhnak": 897,
      "tlawmpal": 898,
      "khiah": 899,
      "raithawinak": 900,
      "ramlak": 901,
      "khatte": 902,
      "Ca": 903,
      "ampang": 904,
      "chuahlei": 905,
      "dai": 906,
      "pathum": 907,
      "Paul": 908,
      "lawnglawng": 909,
      "haotu": 910,
      "sullam": 911,
      "paohpaoh": 912,
      "tiangin": 913,
      "fimnak": 914,
      "Ben": 915,
      "rami": 916,
      "cikcek": 917,
      "ṭhutdan": 918,
      "fung": 919,
      "sung": 920,
      "vun": 921,
      "Joshua": 922,
      "Mo": 923,
      "heh": 924,
      "ruahnak": 925,
      "tangka": 926,
      "tertu": 927,
      "holh": 928,
      "no": 929,
      "zat": 930,
      "zohhmanh": 931,
      "ratpi": 932,
      "Ralkap": 933,
      "hu": 934,
      "kua": 935,
      "vampang": 936,
      "changvut": 937,
      "tal": 938,
      "Ef": 939,
      "chum": 940,
      "zang": 941,
      "phang": 942,
      "zuam": 943,
      "Aha": 944,
      "hra": 945,
      "lamkal": 946,
      "fial": 947,
      "lih": 948,
      "siasal": 949,
      "hlanah": 950,
      "khuapi": 951,
      "awktlak": 952,
      "donghnak": 953,
      "val": 954,
      "khawhnak": 955,
      "kar": 956,
      "ohan": 957,
      "phunglam": 958,
      "pali": 959,
      "chawnh": 960,
      "jah": 961,
      "biaceih": 962,
      "Peter": 963,
      "bawmh": 964,
      "don": 965,
      "peng": 966,
      "Jor": 967,
      "zi": 968,
      "ihmui": 969,
      "ath": 970,
      "nang": 971,
      "miah": 972,
      "dingmi": 973,
      "ihnih": 974,
      "saram": 975,
      "zaangfahnak": 976,
      "bba": 977,
      "zak": 978,
      "amin": 979,
      "Jordan": 980,
      "Johan": 981,
      "hlonh": 982,
      "kheng": 983,
      "cawk": 984,
      "umh": 985,
      "umter": 986,
      "innka": 987,
      "thazang": 988,
      "hang": 989,
      "thlak": 990,
      "elrawn": 991,
      "dom": 992,
      "mhnak": 993,
      "zihmui": 994,
      "hmel": 995,
      "thluachuahnak": 996,
      "hringhran": 997,
      "Moab": 998,
      "midang": 999,
      "chiatnak": 1000,
      "chuakmi": 1001,
      "ngeihmi": 1002,
      "Re": 1003,
      "por": 1004,
      "miṭhalo": 1005,
      "nichuahlei": 1006,
      "hlo": 1007,
      "jamin": 1008,
      "zeicahdah": 1009,
      "velchum": 1010,
      "hmelchunhnak": 1011,
      "Ma": 1012,
      "cin": 1013,
      "alh": 1014,
      "kanmah": 1015,
      "hika": 1016,
      "thlacam": 1017,
      "asinain": 1018,
      "fih": 1019,
      "ihin": 1020,
      "thanh": 1021,
      "thilri": 1022,
      "deng": 1023,
      "rual": 1024,
      "zeitluk": 1025,
      "zumhawktlak": 1026,
      "Benjamin": 1027,
      "fate": 1028,
      "ralr": 1029,
      "Man": 1030,
      "Min": 1031,
      "vo": 1032,
      "lawn": 1033,
      "iria": 1034,
      "nganpi": 1035,
      "puai": 1036,
      "zawn": 1037,
      "ahm": 1038,
      "khuh": 1039,
      "tikh": 1040,
      "cawng": 1041,
      "mizapi": 1042,
      "sinak": 1043,
      "coh": 1044,
      "kawh": 1045,
      "biatak": 1046,
      "ulh": 1047,
      "ngaiin": 1048,
      "dinnak": 1049,
      "Tlangbawi": 1050,
      "meheh": 1051,
      "Kei": 1052,
      "ez": 1053,
      "ulrang": 1054,
      "hleihnih": 1055,
      "Ralkapbu": 1056,
      "tik": 1057,
      "mui": 1058,
      "tawng": 1059,
      "Mipa": 1060,
      "hlantiang": 1061,
      "nungmi": 1062,
      "thuam": 1063,
      "pasarih": 1064,
      "kalter": 1065,
      "hmunthiang": 1066,
      "Zeitintiah": 1067,
      "san": 1068,
      "mith": 1069,
      "ramri": 1070,
      "lianngan": 1071,
      "hnek": 1072,
      "ceunak": 1073,
      "Assi": 1074,
      "Tu": 1075,
      "aih": 1076,
      "rim": 1077,
      "zah": 1078,
      "tel": 1079,
      "that": 1080,
      "riahhmun": 1081,
      "Dan": 1082,
      "nai": 1083,
      "cuticun": 1084,
      "thai": 1085,
      "chak": 1086,
      "pak": 1087,
      "serh": 1088,
      "pekchanhmi": 1089,
      "Li": 1090,
      "bel": 1091,
      "fe": 1092,
      "tim": 1093,
      "tangmi": 1094,
      "ron": 1095,
      "rut": 1096,
      "kulh": 1097,
      "hruaitu": 1098,
      "ṭap": 1099,
      "khual": 1100,
      "ihrut": 1101,
      "thianh": 1102,
      "car": 1103,
      "Jere": 1104,
      "hlen": 1105,
      "thaw": 1106,
      "mithm": 1107,
      "Assiria": 1108,
      "Jeremiah": 1109,
      "thisen": 1110,
      "khuazei": 1111,
      "rangleng": 1112,
      "pennak": 1113,
      "Efra": 1114,
      "nuam": 1115,
      "hngalhnak": 1116,
      "Cathiang": 1117,
      "Va": 1118,
      "uel": 1119,
      "laa": 1120,
      "ningin": 1121,
      "pumhnak": 1122,
      "ṭah": 1123,
      "ngaihthiam": 1124,
      "dip": 1125,
      "oth": 1126,
      "khal": 1127,
      "Kanaan": 1128,
      "lamkaltu": 1129,
      "tual": 1130,
      "boam": 1131,
      "Thiang": 1132,
      "Ahohmanh": 1133,
      "zahnak": 1134,
      "tuahnak": 1135,
      "ya": 1136,
      "pawngah": 1137,
      "Nawl": 1138,
      "cia": 1139,
      "manh": 1140,
      "nem": 1141,
      "cuar": 1142,
      "tuknak": 1143,
      "Cuka": 1144,
      "Biak": 1145,
      "ken": 1146,
      "tmi": 1147,
      "khaan": 1148,
      "palawng": 1149,
      "hmailei": 1150,
      "chuahter": 1151,
      "orhlei": 1152,
      "zaangfah": 1153,
      "Zion": 1154,
      "Hihi": 1155,
      "angmi": 1156,
      "sifak": 1157,
      "asseh": 1158,
      "bbath": 1159,
      "Manasseh": 1160,
      "Abi": 1161,
      "nitlak": 1162,
      "hmuhsak": 1163,
      "ahodah": 1164,
      "remh": 1165,
      "karlak": 1166,
      "Efraim": 1167,
      "Kannih": 1168,
      "hni": 1169,
      "naih": 1170,
      "ukawng": 1171,
      "minu": 1172,
      "Joab": 1173,
      "unh": 1174,
      "ṭhit": 1175,
      "Bik": 1176,
      "remnak": 1177,
      "ahmaan": 1178,
      "Lam": 1179,
      "nelrawn": 1180,
      "lead": 1181,
      "thir": 1182,
      "veng": 1183,
      "upatnak": 1184,
      "Rili": 1185,
      "kuat": 1186,
      "tong": 1187,
      "khulrang": 1188,
      "khuaruahhar": 1189,
      "zawtnak": 1190,
      "sah": 1191,
      "tlangval": 1192,
      "thlan": 1193,
      "fihnung": 1194,
      "thaizing": 1195,
      "zeizong": 1196,
      "Isak": 1197,
      "Samuel": 1198,
      "pakpalawng": 1199,
      "Lung": 1200,
      "ruak": 1201,
      "chimhmi": 1202,
      "thingkung": 1203,
      "Ge": 1204,
      "fir": 1205,
      "tlon": 1206,
      "tuukawng": 1207,
      "hme": 1208,
      "inh": 1209,
      "alnak": 1210,
      "phungbia": 1211,
      "Nawlbia": 1212,
      "Hm": 1213,
      "khun": 1214,
      "thlet": 1215,
      "anglei": 1216,
      "thau": 1217,
      "Ra": 1218,
      "che": 1219,
      "pil": 1220,
      "hnulei": 1221,
      "Heb": 1222,
      "fahnak": 1223,
      "ṭhen": 1224,
      "cangmi": 1225,
      "cawnpiaknak": 1226,
      "porhlaw": 1227,
      "chaklei": 1228,
      "mithmuh": 1229,
      "Za": 1230,
      "ṭum": 1231,
      "onh": 1232,
      "Miphun": 1233,
      "Jona": 1234,
      "El": 1235,
      "Siria": 1236,
      "nah": 1237,
      "zia": 1238,
      "kom": 1239,
      "aiah": 1240,
      "phorh": 1241,
      "aria": 1242,
      "hmaika": 1243,
      "dik": 1244,
      "Samaria": 1245,
      "Vancung": 1246,
      "Phung": 1247,
      "Pennak": 1248,
      "kamah": 1249,
      "thur": 1250,
      "tuufa": 1251,
      "nge": 1252,
      "innak": 1253,
      "thianglo": 1254,
      "Minung": 1255,
      "Ham": 1256,
      "deih": 1257,
      "andeih": 1258,
      "ruahchan": 1259,
      "chinchin": 1260,
      "hlawh": 1261,
      "panga": 1262,
      "Sim": 1263,
      "tar": 1264,
      "thuk": 1265,
      "chiatser": 1266,
      "fiang": 1267,
      "kau": 1268,
      "Thil": 1269,
      "Zeitindah": 1270,
      "hua": 1271,
      "tangah": 1272,
      "Thawng": 1273,
      "thlacamnak": 1274,
      "Shi": 1275,
      "den": 1276,
      "huat": 1277,
      "silo": 1278,
      "hmui": 1279,
      "ṭhek": 1280,
      "anhngan": 1281,
      "biah": 1282,
      "zohkhenhtu": 1283,
      "huh": 1284,
      "ziah": 1285,
      "lengah": 1286,
      "zual": 1287,
      "ṭialmi": 1288,
      "thimmi": 1289,
      "Har": 1290,
      "kel": 1291,
      "thlei": 1292,
      "thet": 1293,
      "angki": 1294,
      "lakin": 1295,
      "luhpi": 1296,
      "riat": 1297,
      "thetse": 1298,
      "Edom": 1299,
      "bawk": 1300,
      "ntai": 1301,
      "cauk": 1302,
      "Jentai": 1303,
      "Ammon": 1304,
      "ṭhawngmi": 1305,
      "ngaknu": 1306,
      "Jentail": 1307,
      "La": 1308,
      "Nu": 1309,
      "ṭhawl": 1310,
      "thawhter": 1311,
      "thiangmi": 1312,
      "Baal": 1313,
      "Jonathan": 1314,
      "fang": 1315,
      "lianhngan": 1316,
      "lunglawmhnak": 1317,
      "tatnak": 1318,
      "zekiah": 1319,
      "kongah": 1320,
      "Hezekiah": 1321,
      "tlonnak": 1322,
      "nihsawh": 1323,
      "chawk": 1324,
      "lawh": 1325,
      "Miṭhalo": 1326,
      "ningzahnak": 1327,
      "it": 1328,
      "laimi": 1329,
      "phu": 1330,
      "Cucu": 1331,
      "ril": 1332,
      "In": 1333,
      "ngol": 1334,
      "far": 1335,
      "ramdang": 1336,
      "khomi": 1337,
      "rihmi": 1338,
      "pummi": 1339,
      "khuai": 1340,
      "riak": 1341,
      "sertu": 1342,
      "dohnak": 1343,
      "tonnak": 1344,
      "cohlan": 1345,
      "Thawngṭha": 1346,
      "var": 1347,
      "pipi": 1348,
      "salpa": 1349,
      "Khrihfa": 1350,
      "damter": 1351,
      "buar": 1352,
      "hnan": 1353,
      "kalnak": 1354,
      "thlanglei": 1355,
      "kulhnak": 1356,
      "khattelei": 1357,
      "hnanak": 1358,
      "ruh": 1359,
      "khamhnak": 1360,
      "langhnak": 1361,
      "ṭuanmi": 1362,
      "lengmangmi": 1363,
      "Tuu": 1364,
      "Biakinn": 1365,
      "Ahi": 1366,
      "dor": 1367,
      "hmaan": 1368,
      "Ar": 1369,
      "dantatnak": 1370,
      "hnawmh": 1371,
      "zanlei": 1372,
      "muko": 1373,
      "kangh": 1374,
      "petu": 1375,
      "tlu": 1376,
      "nawn": 1377,
      "phawt": 1378,
      "Inn": 1379,
      "Ch": 1380,
      "tihin": 1381,
      "mithi": 1382,
      "karh": 1383,
      "lunglawm": 1384,
      "der": 1385,
      "Nanmah": 1386,
      "Gilead": 1387,
      "cawngtu": 1388,
      ").": 1389,
      "fah": 1390,
      "ngam": 1391,
      "kalmi": 1392,
      "biaknak": 1393,
      "tlau": 1394,
      "vengtu": 1395,
      "Aa": 1396,
      "ur": 1397,
      "khah": 1398,
      "peh": 1399,
      "erh": 1400,
      "shekel": 1401,
      "Reu": 1402,
      "ash": 1403,
      "fuh": 1404,
      "lah": 1405,
      "mihrut": 1406,
      "mibu": 1407,
      "pem": 1408,
      "lila": 1409,
      "lianhngannak": 1410,
      "Bar": 1411,
      "saya": 1412,
      "chanhnak": 1413,
      "uahmah": 1414,
      "hneksak": 1415,
      "tete": 1416,
      "hrawk": 1417,
      "rul": 1418,
      "bawiṭhutdan": 1419,
      "hngalhter": 1420,
      "ṭihnung": 1421,
      "cawnpiaktu": 1422,
      "ngaingaimi": 1423,
      "miding": 1424,
      "pale": 1425,
      "teh": 1426,
      "pekchanhnak": 1427,
      "salom": 1428,
      "hlat": 1429,
      "thiamnak": 1430,
      "Absalom": 1431,
      "tlinter": 1432,
      "Mar": 1433,
      "Jero": 1434,
      "fapale": 1435,
      "Ama": 1436,
      "luatter": 1437,
      "fekmi": 1438,
      "Jeroboam": 1439,
      "tehna": 1440,
      "Khika": 1441,
      "Nebu": 1442,
      "ralring": 1443,
      "tli": 1444,
      "thup": 1445,
      "Pi": 1446,
      "dn": 1447,
      "khang": 1448,
      "luhnak": 1449,
      "bawmhnak": 1450,
      "zakip": 1451,
      "hloh": 1452,
      "rualchan": 1453,
      "Esau": 1454,
      "Lo": 1455,
      "ben": 1456,
      "umtu": 1457,
      "hmul": 1458,
      "liam": 1459,
      "pahra": 1460,
      "chuan": 1461,
      "tuurun": 1462,
      "chiandeih": 1463,
      "Elijah": 1464,
      "!”": 1465,
      "khor": 1466,
      "rasi": 1467,
      "khuad": 1468,
      "chimtu": 1469,
      "Hika": 1470,
      "camcin": 1471,
      "theitlai": 1472,
      "tawnmi": 1473,
      "Farasi": 1474,
      "lim": 1475,
      "ali": 1476,
      "hlang": 1477,
      "phunphun": 1478,
      "ṭhial": 1479,
      "hnah": 1480,
      "dengmang": 1481,
      "fehter": 1482,
      "bah": 1483,
      "eo": 1484,
      "amm": 1485,
      "cunglei": 1486,
      "thurh": 1487,
      "hawikom": 1488,
      "nitlaklei": 1489,
      "tehte": 1490,
      "paw": 1491,
      "to": 1492,
      "hruang": 1493,
      "muihnak": 1494,
      "tikhmanh": 1495,
      "thleidan": 1496,
      "khuate": 1497,
      "vawleicung": 1498,
      "chiahmi": 1499,
      "hriam": 1500,
      "Ngan": 1501,
      "siloah": 1502,
      "vang": 1503,
      "Ṭha": 1504,
      "tinak": 1505,
      "iat": 1506,
      "pial": 1507,
      "phor": 1508,
      "innpa": 1509,
      "sarihnak": 1510,
      "Gad": 1511,
      "Han": 1512,
      "Tho": 1513,
      "hrai": 1514,
      "ok": 1515,
      "kamh": 1516,
      "rial": 1517,
      "lungvar": 1518,
      "hoih": 1519,
      "saupi": 1520,
      ".”": 1521,
      "bul": 1522,
      "ṭem": 1523,
      "fat": 1524,
      "veve": 1525,
      "mangṭam": 1526,
      "upat": 1527,
      "deuhmi": 1528,
      "thangṭhatnak": 1529,
      "thlaici": 1530,
      "Ahab": 1531,
      "cuarpar": 1532,
      "Asa": 1533,
      "Her": 1534,
      "cawm": 1535,
      "sik": 1536,
      "sernak": 1537,
      "nawh": 1538,
      "Gibe": 1539,
      "Kut": 1540,
      "Rawl": 1541,
      "Zan": 1542,
      "zuar": 1543,
      "mifim": 1544,
      "hngi": 1545,
      "hngawng": 1546,
      "hmunkhat": 1547,
      "covo": 1548,
      "Reuben": 1549,
      "dal": 1550,
      "eb": 1551,
      "anhtak": 1552,
      "fater": 1553,
      "tinhmi": 1554,
      "shan": 1555,
      "salnu": 1556,
      "thiammi": 1557,
      "hmangmi": 1558,
      "vaa": 1559,
      "ralṭha": 1560,
      "luchin": 1561,
      "hnipuan": 1562,
      "danh": 1563,
      "sum": 1564,
      "misual": 1565,
      "lee": 1566,
      "ngeihnak": 1567,
      "samh": 1568,
      "?’": 1569,
      "lin": 1570,
      "rawi": 1571,
      "ṭawl": 1572,
      "awhr": 1573,
      "thal": 1574,
      "khadn": 1575,
      "hitihin": 1576,
      "phuan": 1577,
      "cungin": 1578,
      "zeitikhmanh": 1579,
      "raltuknak": 1580,
      "chuahnak": 1581,
      "Amor": 1582,
      "ezzar": 1583,
      "Nebukhadn": 1584,
      "thurhhnawmh": 1585,
      "Nebukhadnezzar": 1586,
      "Ele": 1587,
      "air": 1588,
      "arfi": 1589,
      "lungre": 1590,
      "dingin": 1591,
      "Anmah": 1592,
      "teinak": 1593,
      "Gali": 1594,
      "so": 1595,
      "ṭang": 1596,
      "tipil": 1597,
      "phenh": 1598,
      "rit": 1599,
      "sabbath": 1600,
      "Mit": 1601,
      "zuah": 1602,
      "pawngkam": 1603,
      "tlawmte": 1604,
      "shafat": 1605,
      "Phungbia": 1606,
      "Galilee": 1607,
      "Uz": 1608,
      "elek": 1609,
      "khon": 1610,
      "Lianngan": 1611,
      "hngilh": 1612,
      "khuah": 1613,
      "palh": 1614,
      "rub": 1615,
      "serpiak": 1616,
      "chiahnak": 1617,
      "hranchaw": 1618,
      "hremnak": 1619,
      "bei": 1620,
      "buai": 1621,
      "kual": 1622,
      "zer": 1623,
      "lat": 1624,
      "ṭhia": 1625,
      "elh": 1626,
      "phah": 1627,
      "ralbawi": 1628,
      "Zeidah": 1629,
      "Jehoshafat": 1630,
      "rianṭuannak": 1631,
      "bawh": 1632,
      "pawi": 1633,
      "cham": 1634,
      "phoih": 1635,
      "ngaimi": 1636,
      "tlangram": 1637,
      "biaceihtu": 1638,
      "serhsa": 1639,
      "Elea": 1640,
      "Bawi": 1641,
      "Zu": 1642,
      "iel": 1643,
      "od": 1644,
      "oah": 1645,
      "tahnak": 1646,
      "tlawn": 1647,
      "tham": 1648,
      "cabuai": 1649,
      "riam": 1650,
      "dongh": 1651,
      "hleiah": 1652,
      "kirpi": 1653,
      "hramthawk": 1654,
      "herhmi": 1655,
      "ziaza": 1656,
      "Ashe": 1657,
      "Chi": 1658,
      "ran": 1659,
      "shi": 1660,
      "inmi": 1661,
      "chuh": 1662,
      "hmei": 1663,
      "lamh": 1664,
      "ngeitu": 1665,
      "himnak": 1666,
      "dawtmi": 1667,
      "chawva": 1668,
      "biaceihnak": 1669,
      "bunh": 1670,
      "thilnu": 1671,
      "enhnak": 1672,
      "minmei": 1673,
      "meiinn": 1674,
      "luang": 1675,
      "zinglei": 1676,
      "Ngak": 1677,
      "cawhmi": 1678,
      "hriamnam": 1679,
      "ṭhumh": 1680,
      "hruk": 1681,
      "khatnak": 1682,
      "rangtum": 1683,
      "ralhau": 1684,
      "ralvengtu": 1685,
      "khotu": 1686,
      "puanzar": 1687,
      "canter": 1688,
      "Bethel": 1689,
      "tikhor": 1690,
      "umtuning": 1691,
      "Ja": 1692,
      "Khal": 1693,
      "tuh": 1694,
      "loh": 1695,
      "umkheng": 1696,
      "tuahtu": 1697,
      "tuahpiak": 1698,
      "cangka": 1699,
      "hnihnak": 1700,
      "Ahodah": 1701,
      "Hebron": 1702,
      "awhralnak": 1703,
      "khuahrum": 1704,
      "Ri": 1705,
      "thimi": 1706,
      "elah": 1707,
      "leidip": 1708,
      "cheukhat": 1709,
      "huhphenh": 1710,
      "Harnak": 1711,
      "Eleazar": 1712,
      "Sh": 1713,
      "zummi": 1714,
      "khim": 1715,
      "ihkhun": 1716,
      "milem": 1717,
      "kas": 1718,
      "ṭhang": 1719,
      "Shem": 1720,
      "Simon": 1721,
      "Kutka": 1722,
      "Cung": 1723,
      "Nihin": 1724,
      "Sal": 1725,
      "eth": 1726,
      "sining": 1727,
      "liv": 1728,
      "dantat": 1729,
      "Daniel": 1730,
      "ruahchannak": 1731,
      "Ai": 1732,
      "Dam": 1733,
      "keng": 1734,
      "rua": 1735,
      "khu": 1736,
      "thlen": 1737,
      "Pakhat": 1738,
      "liang": 1739,
      "zau": 1740,
      "hler": 1741,
      "khiahnak": 1742,
      "at": 1743,
      "hrawm": 1744,
      "phuh": 1745,
      "cit": 1746,
      "ṭuantu": 1747,
      "tlakmi": 1748,
      "dinhnak": 1749,
      "Leban": 1750,
      "sahrang": 1751,
      "hlawhhlang": 1752,
      "Pilat": 1753,
      "Khaldi": 1754,
      "Ke": 1755,
      "cong": 1756,
      "fei": 1757,
      "mawh": 1758,
      "toih": 1759,
      "khem": 1760,
      "lungpi": 1761,
      "lawngah": 1762,
      "lawngin": 1763,
      "langh": 1764,
      "theihpiak": 1765,
      "bikbik": 1766,
      "hawile": 1767,
      "palhnak": 1768,
      "Ara": 1769,
      "Mor": 1770,
      "Puai": 1771,
      "Profet": 1772,
      "bar": 1773,
      "cawi": 1774,
      "kaw": 1775,
      "lua": 1776,
      "olh": 1777,
      "rumnak": 1778,
      "ṭihnak": 1779,
      "thleh": 1780,
      "ruam": 1781,
      "ralchanh": 1782,
      "thumnak": 1783,
      "diam": 1784,
      "hmanmi": 1785,
      "Tiva": 1786,
      "ssiah": 1787,
      "ammam": 1788,
      "Lebanon": 1789,
      "Kar": 1790,
      "ven": 1791,
      "hnar": 1792,
      "paruk": 1793,
      "hrang": 1794,
      "lian": 1795,
      "Jeri": 1796,
      "ciammam": 1797,
      "zulmi": 1798,
      "theihmi": 1799,
      "thahmi": 1800,
      "Shekhem": 1801,
      "Messiah": 1802,
      "fialmi": 1803,
      "Kum": 1804,
      "tlo": 1805,
      "zun": 1806,
      "zua": 1807,
      "ṭhunh": 1808,
      "rap": 1809,
      "thianter": 1810,
      "Jehu": 1811,
      "ṭhiang": 1812,
      "tuukhal": 1813,
      "rianṭuantu": 1814,
      "ramdangmi": 1815,
      "Ash": 1816,
      "lawi": 1817,
      "tawi": 1818,
      "ramh": 1819,
      "khuachia": 1820,
      "khuazakip": 1821,
      "ralhruang": 1822,
      "vemi": 1823,
      "Midi": 1824,
      "dab": 1825,
      "Khuazei": 1826,
      "Reho": 1827,
      "Khrihfabu": 1828,
      "Midian": 1829,
      "Sha": 1830,
      "sidar": 1831,
      "umhnak": 1832,
      "imelek": 1833,
      "biakhiahnak": 1834,
      "nuhmei": 1835,
      "Sabbath": 1836,
      "zarh": 1837,
      "hrinpiak": 1838,
      "hmanung": 1839,
      "Jehoia": 1840,
      "Mat": 1841,
      "Herod": 1842,
      "Hor": 1843,
      "Hlan": 1844,
      "Se": 1845,
      "rawhralnak": 1846,
      "toi": 1847,
      "ahmah": 1848,
      "cuai": 1849,
      "miṭhawng": 1850,
      "misifak": 1851,
      "khariah": 1852,
      "chel": 1853,
      "chawh": 1854,
      "chap": 1855,
      "tem": 1856,
      "iar": 1857,
      "ṭhami": 1858,
      "lenglei": 1859,
      "thinphang": 1860,
      "tlap": 1861,
      "hnuk": 1862,
      "bau": 1863,
      "thinghmui": 1864,
      "hninh": 1865,
      "santlai": 1866,
      "Mary": 1867,
      "ṭhiangṭhunh": 1868,
      "Nang": 1869,
      "Per": 1870,
      "Sar": 1871,
      "az": 1872,
      "kkhatte": 1873,
      "khumh": 1874,
      "lehnak": 1875,
      "cheh": 1876,
      "paih": 1877,
      "hem": 1878,
      "satu": 1879,
      "dekai": 1880,
      "dekiah": 1881,
      "ningcang": 1882,
      "halmi": 1883,
      "pahnihnak": 1884,
      "dad": 1885,
      "vailam": 1886,
      "Zedekiah": 1887,
      "hlennak": 1888,
      "Mordekai": 1889,
      "Jeriko": 1890,
      "Anih": 1891,
      "Ki": 1892,
      "Kor": 1893,
      "Tair": 1894,
      "sami": 1895,
      "hling": 1896,
      "kammi": 1897,
      "ngaihchiatnak": 1898,
      "relnak": 1899,
      "dinh": 1900,
      "khamhtu": 1901,
      "Zekhariah": 1902,
      "cherub": 1903,
      "zuarh": 1904,
      "Kha": 1905,
      "asiloah": 1906,
      "bon": 1907,
      "foih": 1908,
      "ner": 1909,
      "zai": 1910,
      "zuan": 1911,
      "ting": 1912,
      "pheng": 1913,
      "tlanh": 1914,
      "ngat": 1915,
      "erah": 1916,
      "Abner": 1917,
      "theimi": 1918,
      "Elisha": 1919,
      "askas": 1920,
      "Ṭhat": 1921,
      "Damaskas": 1922,
      "Es": 1923,
      "Nah": 1924,
      "buk": 1925,
      "tih": 1926,
      "laam": 1927,
      "lauk": 1928,
      "amh": 1929,
      "iao": 1930,
      "raldohnak": 1931,
      "chuahtak": 1932,
      "Abimelek": 1933,
      "hnin": 1934,
      "dohtu": 1935,
      "tonh": 1936,
      "kil": 1937,
      "hmangṭhia": 1938,
      "khuaruahharnak": 1939,
      "tingtang": 1940,
      "Nun": 1941,
      "zin": 1942,
      "ihpi": 1943,
      "ihli": 1944,
      "kauh": 1945,
      "uhmi": 1946,
      "ngaithiam": 1947,
      "bikmi": 1948,
      "Job": 1949,
      "bad": 1950,
      "camcawh": 1951,
      "ngaihpiak": 1952,
      "Abram": 1953,
      "ngunkhuai": 1954,
      "ralrinnak": 1955,
      "ezer": 1956,
      "Mitsur": 1957,
      "Azar": 1958,
      "gi": 1959,
      "sor": 1960,
      "miak": 1961,
      "kham": 1962,
      "laifang": 1963,
      "hrawng": 1964,
      "tlan": 1965,
      "suk": 1966,
      "Ishma": 1967,
      "hmaizah": 1968,
      "khawhmi": 1969,
      "thlahmi": 1970,
      "Bashan": 1971,
      "tannak": 1972,
      "putmi": 1973,
      "bawmtu": 1974,
      "hup": 1975,
      "Mei": 1976,
      "eon": 1977,
      "hor": 1978,
      "kuai": 1979,
      "rawhnak": 1980,
      "chah": 1981,
      "eimi": 1982,
      "Isaiah": 1983,
      "hlum": 1984,
      "chimhhrin": 1985,
      "ṭuannak": 1986,
      "tlaihnak": 1987,
      "dok": 1988,
      "kehlei": 1989,
      "tali": 1990,
      "liannganmi": 1991,
      "Zadok": 1992,
      "Laban": 1993,
      "khuadawm": 1994,
      "Ishmael": 1995,
      "Sual": 1996,
      "hak": 1997,
      "mak": 1998,
      "sai": 1999,
      "siah": 2000,
      "tuak": 2001,
      "amnak": 2002,
      "thiah": 2003,
      "akim": 2004,
      "ṭheo": 2005,
      "hrui": 2006,
      "hmunmi": 2007,
      "Naf": 2008,
      "Hit": 2009,
      "shon": 2010,
      "saknak": 2011,
      "Satan": 2012,
      "pangpar": 2013,
      "Khuachia": 2014,
      "zingka": 2015,
      "zik": 2016,
      "ciami": 2017,
      "kenkip": 2018,
      "Simeon": 2019,
      "hlawhhlangnu": 2020,
      "temhin": 2021,
      "Esther": 2022,
      "Lanhtak": 2023,
      "Mihrut": 2024,
      "non": 2025,
      "ush": 2026,
      "khih": 2027,
      "thleng": 2028,
      "kalauk": 2029,
      "tuai": 2030,
      "hren": 2031,
      "chimnak": 2032,
      "hen": 2033,
      "mhta": 2034,
      "Josiah": 2035,
      "hmur": 2036,
      "Zebul": 2037,
      "zawmhta": 2038,
      "lawmhter": 2039,
      "Biatak": 2040,
      "toiah": 2041,
      "serhsat": 2042,
      "Tim": 2043,
      "Vai": 2044,
      "du": 2045,
      "khrih": 2046,
      "lehem": 2047,
      "phai": 2048,
      "rik": 2049,
      "innleng": 2050,
      "lungkua": 2051,
      "theihnak": 2052,
      "dirmi": 2053,
      "Bethlehem": 2054,
      "kamhmi": 2055,
      "khrihfa": 2056,
      ".)": 2057,
      "Mu": 2058,
      "Noah": 2059,
      "oliv": 2060,
      "nganh": 2061,
      "tuahsernak": 2062,
      "lakmi": 2063,
      "zongin": 2064,
      "kholh": 2065,
      "sakmi": 2066,
      "changtu": 2067,
      "phakter": 2068,
      "sawhsawh": 2069,
      "ahmaanmi": 2070,
      "Hanan": 2071,
      "Ngakchia": 2072,
      "Naftali": 2073,
      "Ga": 2074,
      "Jei": 2075,
      "dawn": 2076,
      "hlam": 2077,
      "kuh": 2078,
      "khuk": 2079,
      "sing": 2080,
      "khuaihli": 2081,
      "Miding": 2082,
      "ruahmi": 2083,
      "thahnak": 2084,
      "das": 2085,
      "theipi": 2086,
      "fakmi": 2087,
      "bochanmi": 2088,
      "Rehoboam": 2089,
      "Azariah": 2090,
      "benh": 2091,
      "soi": 2092,
      "cuahmah": 2093,
      "thnem": 2094,
      "chunglei": 2095,
      "ras": 2096,
      "ingmi": 2097,
      "zeipaoh": 2098,
      "saphaw": 2099,
      "ṭhathnem": 2100,
      "hlim": 2101,
      "thlalang": 2102,
      "nganmi": 2103,
      "hoi": 2104,
      "Amen": 2105,
      "tlukin": 2106,
      "Hag": 2107,
      "Biaceih": 2108,
      "lihchim": 2109,
      "cohlang": 2110,
      "Haman": 2111,
      "tipilnak": 2112,
      "Jehoiada": 2113,
      "Asi": 2114,
      "Chun": 2115,
      "Ho": 2116,
      "lum": 2117,
      "suai": 2118,
      "tle": 2119,
      "tlawng": 2120,
      "ngal": 2121,
      "lok": 2122,
      "ail": 2123,
      "hngak": 2124,
      "Midang": 2125,
      "thlum": 2126,
      "Nathan": 2127,
      "tlami": 2128,
      "hnawm": 2129,
      "aunak": 2130,
      "Beer": 2131,
      "Zeru": 2132,
      "thlitu": 2133,
      "timhmi": 2134,
      "thuhmi": 2135,
      "Cauk": 2136,
      "Rachel": 2137,
      "cherubim": 2138,
      "Fim": 2139,
      "gal": 2140,
      "rawh": 2141,
      "tlam": 2142,
      "us": 2143,
      "vak": 2144,
      "ṭanh": 2145,
      "ihter": 2146,
      "miṭha": 2147,
      "umpi": 2148,
      "ping": 2149,
      "chungmi": 2150,
      "phawh": 2151,
      "lakpiak": 2152,
      "khuakhan": 2153,
      "bil": 2154,
      "thilnung": 2155,
      "thluan": 2156,
      "tas": 2157,
      "Sidon": 2158,
      "bat": 2159,
      "Balaam": 2160,
      "ṭhumi": 2161,
      "Hmun": 2162,
      "Hebru": 2163,
      "Tuufa": 2164,
      "khahter": 2165,
      "thleidannak": 2166,
      "huppheng": 2167,
      "temhinnak": 2168,
      "Zebulun": 2169,
      "Jab": 2170,
      "Nelrawn": 2171,
      "The": 2172,
      "ana": 2173,
      "khir": 2174,
      "char": 2175,
      "ias": 2176,
      "lungtho": 2177,
      "chuahhnawh": 2178,
      "dea": 2179,
      "dem": 2180,
      "Judea": 2181,
      "nupile": 2182,
      "hrial": 2183,
      "Elia": 2184,
      "Shimei": 2185,
      "Amalek": 2186,
      "Bo": 2187,
      "Koh": 2188,
      "khenhnak": 2189,
      "tit": 2190,
      "biapi": 2191,
      "khuar": 2192,
      "hngah": 2193,
      "peknak": 2194,
      "bantukte": 2195,
      "danghnak": 2196,
      "Judas": 2197,
      "nunter": 2198,
      "liomi": 2199,
      "Saya": 2200,
      "chunh": 2201,
      "colh": 2202,
      "Sodom": 2203,
      "khrihfabu": 2204,
      "khuaihliti": 2205,
      "Kohath": 2206,
      "Sih": 2207,
      "To": 2208,
      "kanh": 2209,
      "ma": 2210,
      "pon": 2211,
      "puar": 2212,
      "zpah": 2213,
      "naiah": 2214,
      "thawl": 2215,
      "theh": 2216,
      "tuam": 2217,
      "biathli": 2218,
      "Jez": 2219,
      "thilpuan": 2220,
      "nawng": 2221,
      "deon": 2222,
      "Jesse": 2223,
      "mitcaw": 2224,
      "bas": 2225,
      "dot": 2226,
      "kirter": 2227,
      "ṭialtu": 2228,
      "Mera": 2229,
      "Mesh": 2230,
      "Gil": 2231,
      "Gideon": 2232,
      "Zuf": 2233,
      "zawmhtaih": 2234,
      "Ger": 2235,
      "Khe": 2236,
      "cerh": 2237,
      "geb": 2238,
      "ne": 2239,
      "neh": 2240,
      "ṭan": 2241,
      "khum": 2242,
      "tilet": 2243,
      "khatmi": 2244,
      "hlau": 2245,
      "ngaihchia": 2246,
      "hnang": 2247,
      "hnuh": 2248,
      "reel": 2249,
      "cawnpiakmi": 2250,
      "comi": 2251,
      "Thihnak": 2252,
      "Chan": 2253,
      "Gibeah": 2254,
      "luatnak": 2255,
      "Jezreel": 2256,
      "Kiria": 2257,
      "celh": 2258,
      "esh": 2259,
      "kuar": 2260,
      "zor": 2261,
      "tikulh": 2262,
      "lehr": 2263,
      "tuan": 2264,
      "biami": 2265,
      "hngan": 2266,
      "ritmi": 2267,
      "zeirel": 2268,
      "zeizat": 2269,
      "hlun": 2270,
      "Mithi": 2271,
      "kutdong": 2272,
      "bus": 2273,
      "luangmi": 2274,
      "hleili": 2275,
      "ṭihmi": 2276,
      "Benaiah": 2277,
      "hrinmi": 2278,
      "fanule": 2279,
      "tlungmi": 2280,
      "sheba": 2281,
      "hlorh": 2282,
      "tawngh": 2283,
      "Caw": 2284,
      "Nung": 2285,
      "Rom": 2286,
      "Sai": 2287,
      "Zung": 2288,
      "hawh": 2289,
      "hleng": 2290,
      "po": 2291,
      "ṭiao": 2292,
      "nal": 2293,
      "ngiat": 2294,
      "awlok": 2295,
      "mirum": 2296,
      "lau": 2297,
      "chom": 2298,
      "choih": 2299,
      "cazual": 2300,
      "hitin": 2301,
      "hrut": 2302,
      "rangcung": 2303,
      "Jebus": 2304,
      "rilh": 2305,
      "sakhar": 2306,
      "awkin": 2307,
      "duhning": 2308,
      "Mizapi": 2309,
      "lawngte": 2310,
      "ningpi": 2311,
      "thlaih": 2312,
      "khish": 2313,
      "Joash": 2314,
      "thangchiat": 2315,
      "chinh": 2316,
      "thlahtu": 2317,
      "hno": 2318,
      "phungbuar": 2319,
      "luatmi": 2320,
      "vutcam": 2321,
      "taisawm": 2322,
      "pathumnak": 2323,
      "Ahaz": 2324,
      "Gibeon": 2325,
      "Asher": 2326,
      "dia": 2327,
      "es": 2328,
      "kek": 2329,
      "mih": 2330,
      "mifir": 2331,
      "siter": 2332,
      "tes": 2333,
      "rates": 2334,
      "uknak": 2335,
      "deu": 2336,
      "desh": 2337,
      "Mifim": 2338,
      "Mizpah": 2339,
      "nawlnak": 2340,
      "thlapa": 2341,
      "mitthli": 2342,
      "zuang": 2343,
      "ṭhawnter": 2344,
      "mertak": 2345,
      "khuadei": 2346,
      "Shemaiah": 2347,
      "santlailo": 2348,
      "Zufrates": 2349,
      "Puan": 2350,
      "Sui": 2351,
      "bung": 2352,
      "ceo": 2353,
      "ee": 2354,
      "fing": 2355,
      "inu": 2356,
      "cazin": 2357,
      "chungchin": 2358,
      "phawi": 2359,
      "Issakhar": 2360,
      "hluahmah": 2361,
      "hngalhmi": 2362,
      "bur": 2363,
      "ngaihchih": 2364,
      "hmaih": 2365,
      "Thing": 2366,
      "Khuapi": 2367,
      "kainak": 2368,
      "Nichuahlei": 2369,
      "thilrit": 2370,
      "sifakmi": 2371,
      "Hmai": 2372,
      "mawhchiat": 2373,
      "hruitu": 2374,
      "Ad": 2375,
      "Cuh": 2376,
      "Sen": 2377,
      "Zing": 2378,
      "fel": 2379,
      "iakim": 2380,
      "son": 2381,
      "mithiang": 2382,
      "cho": 2383,
      "sil": 2384,
      "biading": 2385,
      "khuachung": 2386,
      "chuk": 2387,
      "nuk": 2388,
      "ṭhaṭha": 2389,
      "thluahmah": 2390,
      "ningzak": 2391,
      "Zeitluk": 2392,
      "Sinai": 2393,
      "thawngṭha": 2394,
      "hmumi": 2395,
      "hmutu": 2396,
      "hmuhnak": 2397,
      "hlawn": 2398,
      "Khamh": 2399,
      "tahchunhnak": 2400,
      "rimthaw": 2401,
      "thurter": 2402,
      "Rian": 2403,
      "Merari": 2404,
      "zeirello": 2405,
      "Cuhleiah": 2406,
      "Chang": 2407,
      "Grik": 2408,
      "Sei": 2409,
      "ephah": 2410,
      "fual": 2411,
      "hut": 2412,
      "luan": 2413,
      "vah": 2414,
      "hnabei": 2415,
      "sio": 2416,
      "hreng": 2417,
      "phar": 2418,
      "phulh": 2419,
      "zeitik": 2420,
      "lungsau": 2421,
      "hmuhter": 2422,
      "piakmi": 2423,
      "thluk": 2424,
      "talen": 2425,
      "zuangmi": 2426,
      "Kanmah": 2427,
      "dap": 2428,
      "thuhnak": 2429,
      "Zeihmanh": 2430,
      "Thli": 2431,
      "hauka": 2432,
      "Negeb": 2433,
      "porhlawt": 2434,
      "porhlawtnak": 2435,
      "Vancungmi": 2436,
      "hlatpi": 2437,
      "Jeim": 2438,
      "Chanrelnak": 2439,
      "Gath": 2440,
      "ipi": 2441,
      "zuh": 2442,
      "zuk": 2443,
      "milam": 2444,
      "khau": 2445,
      "nakkhan": 2446,
      "hruh": 2447,
      "phanh": 2448,
      "ramcar": 2449,
      "sualmi": 2450,
      "cil": 2451,
      "Hil": 2452,
      "Zeizong": 2453,
      "cawfa": 2454,
      "chuahpitu": 2455,
      "Samson": 2456,
      "cikcin": 2457,
      "ngakchiapa": 2458,
      "putu": 2459,
      "Ahaziah": 2460,
      "pehtlaihnak": 2461,
      "Amaziah": 2462,
      "Lot": 2463,
      "hnahnaw": 2464,
      "tlong": 2465,
      "Fimnak": 2466,
      "Gilgal": 2467,
      "Go": 2468,
      "Mal": 2469,
      "Voi": 2470,
      "forh": 2471,
      "leb": 2472,
      "chalh": 2473,
      "tupi": 2474,
      "eiah": 2475,
      "hruhnak": 2476,
      "hrolh": 2477,
      "per": 2478,
      "pechan": 2479,
      "riang": 2480,
      "innchung": 2481,
      "Kaleb": 2482,
      "hmaitonh": 2483,
      "Mikah": 2484,
      "mawhnak": 2485,
      "thladem": 2486,
      "shbon": 2487,
      "hlapi": 2488,
      "dawr": 2489,
      "relmi": 2490,
      "chikkhatte": 2491,
      "Heshbon": 2492,
      "zamtak": 2493,
      "tahmi": 2494,
      "thattu": 2495,
      "chiatsernak": 2496,
      "phuhlam": 2497,
      "Kiriath": 2498,
      "khaubawk": 2499,
      "Az": 2500,
      "Ahim": 2501,
      "Jah": 2502,
      "Ramah": 2503,
      "Shal": 2504,
      "Zerah": 2505,
      "emh": 2506,
      "kuk": 2507,
      "linh": 2508,
      "pin": 2509,
      "poi": 2510,
      "ihmi": 2511,
      "chong": 2512,
      "ṭhah": 2513,
      "termi": 2514,
      "innsang": 2515,
      "thilthuam": 2516,
      "ralthuam": 2517,
      "thawhlawm": 2518,
      "hngalhthiamnak": 2519,
      "dangdang": 2520,
      "taza": 2521,
      "dotla": 2522,
      "kehnak": 2523,
      "tlaimi": 2524,
      "hrinthlak": 2525,
      "Filip": 2526,
      "Jehoiakim": 2527,
      "hremtu": 2528,
      "daiah": 2529,
      "doni": 2530,
      "chiatserhnak": 2531,
      "hmaanmi": 2532,
      "linhnak": 2533,
      "hnarcheu": 2534,
      "phaisa": 2535,
      "khuakhannak": 2536,
      "Sihon": 2537,
      "hmaihum": 2538,
      "Khamhtu": 2539,
      "Seir": 2540,
      "Hilkiah": 2541,
      "Adoni": 2542,
      "Baa": 2543,
      "Tam": 2544,
      "pia": 2545,
      "uam": 2546,
      "Ṭih": 2547,
      "khawl": 2548,
      "las": 2549,
      "sel": 2550,
      "set": 2551,
      "eli": 2552,
      "phei": 2553,
      "phel": 2554,
      "ṭhannak": 2555,
      "shai": 2556,
      "eman": 2557,
      "theihter": 2558,
      "nunning": 2559,
      "zalh": 2560,
      "pumsa": 2561,
      "tanglei": 2562,
      "Joram": 2563,
      "dawhnak": 2564,
      "luhhnawh": 2565,
      "Sheol": 2566,
      "ṭhutnak": 2567,
      "sheth": 2568,
      "bekah": 2569,
      "Rebekah": 2570,
      "lawnnak": 2571,
      "ziar": 2572,
      "barli": 2573,
      "Sarah": 2574,
      "Vainam": 2575,
      "thlalangawng": 2576,
      "tleu": 2577,
      "bungh": 2578,
      "Asiloah": 2579,
      "Dar": 2580,
      "Maa": 2581,
      "Ruah": 2582,
      "Te": 2583,
      "Uriah": 2584,
      "lanh": 2585,
      "ṭahnak": 2586,
      "khawng": 2587,
      "telh": 2588,
      "anhram": 2589,
      "lungtlap": 2590,
      "piaktu": 2591,
      "citmi": 2592,
      "ere": 2593,
      "salle": 2594,
      "taan": 2595,
      "tiangah": 2596,
      "meikhu": 2597,
      "hlasatu": 2598,
      "zungthiam": 2599,
      "dolh": 2600,
      "thongtla": 2601,
      "surter": 2602,
      "tuuhmul": 2603,
      "fimmi": 2604,
      "ṭamh": 2605,
      "Ramlak": 2606,
      "Lamkal": 2607,
      "tongh": 2608,
      "dornak": 2609,
      "Persia": 2610,
      "Korah": 2611,
      "sortu": 2612,
      "riangmang": 2613,
      "ṭhahnem": 2614,
      "Lu": 2615,
      "Obe": 2616,
      "Rang": 2617,
      "Thl": 2618,
      "ce": 2619,
      "fawi": 2620,
      "ku": 2621,
      "nim": 2622,
      "sanh": 2623,
      "ṭa": 2624,
      "ṭin": 2625,
      "cuk": 2626,
      "khrawl": 2627,
      "hnamh": 2628,
      "theng": 2629,
      "mipem": 2630,
      "til": 2631,
      "pakul": 2632,
      "facang": 2633,
      "rus": 2634,
      "dahra": 2635,
      "zaam": 2636,
      "chuahtertu": 2637,
      "thlauh": 2638,
      "uico": 2639,
      "zungzalmi": 2640,
      "camh": 2641,
      "suimilam": 2642,
      "hringsortu": 2643,
      "tungpi": 2644,
      "cawhnuk": 2645,
      "khualipi": 2646,
      "cheuh": 2647,
      "Hamath": 2648,
      "khanghnak": 2649,
      "Asaf": 2650,
      "daliah": 2651,
      "khonnak": 2652,
      "),": 2653,
      "Ak": 2654,
      "Abia": 2655,
      "De": 2656,
      "Ez": 2657,
      "Tar": 2658,
      "cim": 2659,
      "fon": 2660,
      "kang": 2661,
      "ppa": 2662,
      "sawhnak": 2663,
      "tleng": 2664,
      "tom": 2665,
      "nadab": 2666,
      "nabas": 2667,
      "tilian": 2668,
      "pakan": 2669,
      "hrum": 2670,
      "komi": 2671,
      "biachim": 2672,
      "ariah": 2673,
      "ulhnak": 2674,
      "nawlngeihnak": 2675,
      "Daihnak": 2676,
      "tlaknak": 2677,
      "pariat": 2678,
      "dirter": 2679,
      "both": 2680,
      "kedan": 2681,
      "zulhmi": 2682,
      "tlunhnawh": 2683,
      "tlaihmi": 2684,
      "chuahpimi": 2685,
      "ṭhuro": 2686,
      "hleing": 2687,
      "Ngun": 2688,
      "cinken": 2689,
      "Gedaliah": 2690,
      "Hma": 2691,
      "Zaang": 2692,
      "Barnabas": 2693,
      "gilead": 2694,
      "Sualnak": 2695,
      "Di": 2696,
      "Ethi": 2697,
      "Naa": 2698,
      "Shim": 2699,
      "ceng": 2700,
      "dei": 2701,
      "lanhtak": 2702,
      "opia": 2703,
      "rin": 2704,
      "khuang": 2705,
      "kaan": 2706,
      "tupa": 2707,
      "lainak": 2708,
      "thianhnak": 2709,
      "phum": 2710,
      "rammi": 2711,
      "hngia": 2712,
      "riahnak": 2713,
      "zeital": 2714,
      "chuahkehnak": 2715,
      "Mika": 2716,
      "Nazar": 2717,
      "khoi": 2718,
      "taang": 2719,
      "meizik": 2720,
      "lehlam": 2721,
      "thonglawi": 2722,
      "daihter": 2723,
      "Leah": 2724,
      "lutmi": 2725,
      "velngeihnak": 2726,
      "send": 2727,
      "kawlmi": 2728,
      "puam": 2729,
      "rimhmui": 2730,
      "nuamhnak": 2731,
      "khuaruahharmi": 2732,
      "dikmi": 2733,
      "Shiloh": 2734,
      "chommi": 2735,
      "Hmailei": 2736,
      "hnahnawhnak": 2737,
      "Abiathar": 2738,
      "Ethiopia": 2739,
      "Nazareth": 2740,
      "Dai": 2741,
      "Dinnak": 2742,
      "hih": 2743,
      "zir": 2744,
      "titu": 2745,
      "caṭialtu": 2746,
      "hrenh": 2747,
      "likuk": 2748,
      "onah": 2749,
      "chuahmi": 2750,
      "chiaṭha": 2751,
      "tami": 2752,
      "pumlawnnak": 2753,
      "zumtu": 2754,
      "campiak": 2755,
      "anmahle": 2756,
      "kedanh": 2757,
      "fian": 2758,
      "Khulrang": 2759,
      "damnak": 2760,
      "chihmi": 2761,
      "palinak": 2762,
      "ahmul": 2763,
      "biahngal": 2764,
      "hrawktu": 2765,
      "Zanlei": 2766,
      "Uzzi": 2767,
      "Chiandeih": 2768,
      "phuhri": 2769,
      "tlamtling": 2770,
      "hupphengtu": 2771,
      "Zungzal": 2772,
      "Changreu": 2773,
      "Shallum": 2774,
      "Lamkaltu": 2775,
      "Elam": 2776,
      "Hna": 2777,
      "banh": 2778,
      "beng": 2779,
      "fonh": 2780,
      "hliam": 2781,
      "cuan": 2782,
      "ine": 2783,
      "mingan": 2784,
      "lainawng": 2785,
      "akah": 2786,
      "hro": 2787,
      "linak": 2788,
      "lungchung": 2789,
      "Kain": 2790,
      "Miṭha": 2791,
      "tining": 2792,
      "nganfah": 2793,
      "thawngpang": 2794,
      "hlanlio": 2795,
      "hnim": 2796,
      "Ammi": 2797,
      "Tlangval": 2798,
      "phakpi": 2799,
      "Sheba": 2800,
      "ṭhutter": 2801,
      "ngaihthiamnak": 2802,
      "lunglawmmi": 2803,
      "kauhlei": 2804,
      "badiah": 2805,
      "camcawhfung": 2806,
      "pingah": 2807,
      "Boaz": 2808,
      "Meshullam": 2809,
      "kekual": 2810,
      "Tamar": 2811,
      "Gom": 2812,
      "Zumhnak": 2813,
      "cal": 2814,
      "cawl": 2815,
      "cem": 2816,
      "erus": 2817,
      "mel": 2818,
      "ote": 2819,
      "pthah": 2820,
      "vennak": 2821,
      "khul": 2822,
      "thawn": 2823,
      "leti": 2824,
      "nakcun": 2825,
      "ratnak": 2826,
      "phiar": 2827,
      "arim": 2828,
      "Jepthah": 2829,
      "suerus": 2830,
      "veh": 2831,
      "Kadesh": 2832,
      "Jeshua": 2833,
      "thinlinhnak": 2834,
      "rawlṭam": 2835,
      "chiahpiak": 2836,
      "sawmmi": 2837,
      "thlahhnawh": 2838,
      "hnemh": 2839,
      "Nethan": 2840,
      "pur": 2841,
      "menmen": 2842,
      "Ahasuerus": 2843,
      "mehehtum": 2844,
      "hmete": 2845,
      "thletmi": 2846,
      "thukmi": 2847,
      "huatu": 2848,
      "karhter": 2849,
      "tlik": 2850,
      "Uzziah": 2851,
      "Karmel": 2852,
      "Timote": 2853,
      "ṭhathnemnak": 2854,
      "titsa": 2855,
      "Gershon": 2856,
      "Ag": 2857,
      "Jonah": 2858,
      "Lih": 2859,
      "Mang": 2860,
      "cek": 2861,
      "fun": 2862,
      "king": 2863,
      "meh": 2864,
      "puh": 2865,
      "pom": 2866,
      "naut": 2867,
      "khuhnak": 2868,
      "thlo": 2869,
      "kate": 2870,
      "imai": 2871,
      "khuavang": 2872,
      "liah": 2873,
      "rianh": 2874,
      "inncung": 2875,
      "lampi": 2876,
      "sualter": 2877,
      "takmi": 2878,
      "saltannak": 2879,
      "taangmi": 2880,
      "nganak": 2881,
      "has": 2882,
      "kamnak": 2883,
      "hlauh": 2884,
      "ciomi": 2885,
      "donghter": 2886,
      "baoh": 2887,
      "bosheth": 2888,
      "khinh": 2889,
      "Amnon": 2890,
      "sungmi": 2891,
      "sunglawi": 2892,
      "Biakṭheng": 2893,
      "Nupi": 2894,
      "Tuukhal": 2895,
      "Baruk": 2896,
      "tawite": 2897,
      "Baasha": 2898,
      "anhramdeng": 2899,
      "Mikaiah": 2900,
      "Caan": 2901,
      "Hu": 2902,
      "Oho": 2903,
      "Su": 2904,
      "Selah": 2905,
      "Uk": 2906,
      "go": 2907,
      "hel": 2908,
      "kawi": 2909,
      "khing": 2910,
      "hnam": 2911,
      "thut": 2912,
      "nihsawhnak": 2913,
      "temhnak": 2914,
      "ṭheh": 2915,
      "cat": 2916,
      "thiannak": 2917,
      "phuang": 2918,
      "riz": 2919,
      "dihtu": 2920,
      "Ish": 2921,
      "biana": 2922,
      "phunzai": 2923,
      "dangmi": 2924,
      "zeng": 2925,
      "hadad": 2926,
      "Jotham": 2927,
      "relpiak": 2928,
      "hramhram": 2929,
      "chit": 2930,
      "tlaitu": 2931,
      "thlichia": 2932,
      "zawmi": 2933,
      "Benhadad": 2934,
      "Minu": 2935,
      "nuamh": 2936,
      "Abijah": 2937,
      "thurhnawm": 2938,
      "Arabah": 2939,
      "Hananiah": 2940,
      "khumla": 2941,
      "hawhra": 2942,
      "tildi": 2943,
      "Ezra": 2944,
      "sendung": 2945,
      "biahngaltu": 2946,
      "As": 2947,
      "Ek": 2948,
      "Fi": 2949,
      "Im": 2950,
      "Kal": 2951,
      "Kush": 2952,
      "Lawng": 2953,
      "Nail": 2954,
      "Zumh": 2955,
      "bak": 2956,
      "ddo": 2957,
      "ham": 2958,
      "omi": 2959,
      "roh": 2960,
      "tse": 2961,
      "anak": 2962,
      "thawm": 2963,
      "chonh": 2964,
      "sidon": 2965,
      "aklei": 2966,
      "tuksa": 2967,
      "vate": 2968,
      "lungpang": 2969,
      "nifate": 2970,
      "hngalmi": 2971,
      "tlangpar": 2972,
      "Anti": 2973,
      "taklawng": 2974,
      "cite": 2975,
      "Hiv": 2976,
      "bubu": 2977,
      "taleti": 2978,
      "zulhnak": 2979,
      "hunter": 2980,
      "Balak": 2981,
      "ratter": 2982,
      "retheihnak": 2983,
      "ngakṭah": 2984,
      "sheme": 2985,
      "sawngkhoi": 2986,
      "Ngai": 2987,
      "tlingmi": 2988,
      "Vawleicung": 2989,
      "Haza": 2990,
      "Ramoth": 2991,
      "thlainak": 2992,
      "dawhmi": 2993,
      "donh": 2994,
      "Masidon": 2995,
      "belh": 2996,
      "Abishai": 2997,
      "tlangvalpa": 2998,
      "Chaklei": 2999,
      "ṭawlnak": 3000,
      "Chikkhatte": 3001,
      "congoih": 3002,
      "conglawmh": 3003,
      "ruamkai": 3004,
      "Mattan": 3005,
      "chawhlawn": 3006,
      "zuanhnawh": 3007,
      "Zeruiah": 3008,
      "Thetse": 3009,
      "Sairas": 3010,
      "Adonijah": 3011,
      "khawltu": 3012,
      "hleinga": 3013,
      "shemesh": 3014,
      "Masidonia": 3015,
      "Do": 3016,
      "Din": 3017,
      "Kaa": 3018,
      "Lang": 3019,
      "Ru": 3020,
      "Ser": 3021,
      "Sho": 3022,
      "Tah": 3023,
      "Um": 3024,
      "bai": 3025,
      "bor": 3026,
      "mar": 3027,
      "ring": 3028,
      "seiah": 3029,
      "awtnak": 3030,
      "awinu": 3031,
      "khong": 3032,
      "khri": 3033,
      "khnawh": 3034,
      "karah": 3035,
      "tili": 3036,
      "siang": 3037,
      "eitu": 3038,
      "laknak": 3039,
      "pakhatnak": 3040,
      "bawile": 3041,
      "duhduh": 3042,
      "dep": 3043,
      "Naam": 3044,
      "awmhnak": 3045,
      "hunnak": 3046,
      "vannak": 3047,
      "naule": 3048,
      "Siangpahrangnu": 3049,
      "dirnak": 3050,
      "cawrun": 3051,
      "kulhmi": 3052,
      "dil": 3053,
      "Hez": 3054,
      "cantiang": 3055,
      "Nebat": 3056,
      "chawdawr": 3057,
      "Tipil": 3058,
      "nolh": 3059,
      "bbabel": 3060,
      "cawkmi": 3061,
      "Lib": 3062,
      "mithmai": 3063,
      "cohlanpiak": 3064,
      "Arnon": 3065,
      "derthawm": 3066,
      "phortu": 3067,
      "tlawnnak": 3068,
      "liangluang": 3069,
      "kuhthing": 3070,
      "Zerubbabel": 3071,
      "lehrulh": 3072,
      "Cawtum": 3073,
      "pinah": 3074,
      "Uktu": 3075,
      "Ana": 3076,
      "Aram": 3077,
      "Adam": 3078,
      "Asilo": 3079,
      "Esh": 3080,
      "Pumhnak": 3081,
      "Shu": 3082,
      "Tha": 3083,
      "Thei": 3084,
      "Zo": 3085,
      "ep": 3086,
      "esa": 3087,
      "fong": 3088,
      "huah": 3089,
      "ius": 3090,
      "kawng": 3091,
      "lul": 3092,
      "nennak": 3093,
      "ṭe": 3094,
      "ani": 3095,
      "anri": 3096,
      "khawn": 3097,
      "leihnih": 3098,
      "sivai": 3099,
      "raiah": 3100,
      "phih": 3101,
      "orah": 3102,
      "hmaizahnak": 3103,
      "Mil": 3104,
      "ṭhanmi": 3105,
      "ningzah": 3106,
      "pumpi": 3107,
      "hlasak": 3108,
      "chiahtak": 3109,
      "Silas": 3110,
      "tlakter": 3111,
      "dawmi": 3112,
      "dod": 3113,
      "thonginn": 3114,
      "cawih": 3115,
      "zumhtlak": 3116,
      "saulei": 3117,
      "taktakmi": 3118,
      "Jehoash": 3119,
      "rianṭuanmi": 3120,
      "khiahmi": 3121,
      "Efesa": 3122,
      "Johanan": 3123,
      "cawngh": 3124,
      "ruahchanmi": 3125,
      "Lakhish": 3126,
      "Ahijah": 3127,
      "lungrethei": 3128,
      "Ashdod": 3129,
      "khirh": 3130,
      "cerhti": 3131,
      "Zinglei": 3132,
      "Darius": 3133,
      "Ekron": 3134,
      "Antiok": 3135,
      "Hazael": 3136,
      "Bere": 3137,
      "Che": 3138,
      "Fak": 3139,
      "Hng": 3140,
      "Upa": 3141,
      "ciah": 3142,
      "cer": 3143,
      "kawm": 3144,
      "rennak": 3145,
      "zel": 3146,
      "ahaz": 3147,
      "ngia": 3148,
      "tilawng": 3149,
      "lel": 3150,
      "ching": 3151,
      "alm": 3152,
      "capo": 3153,
      "kanah": 3154,
      "koth": 3155,
      "khatkhat": 3156,
      "phuah": 3157,
      "pahleihnih": 3158,
      "Jeze": 3159,
      "innkhar": 3160,
      "nuchun": 3161,
      "lamhlatpi": 3162,
      "orrah": 3163,
      "sualphawt": 3164,
      "ṭhantu": 3165,
      "thluang": 3166,
      "Nabal": 3167,
      "Naomi": 3168,
      "shur": 3169,
      "buri": 3170,
      "nganfahnak": 3171,
      "ṭimi": 3172,
      "biakmi": 3173,
      "hunpiak": 3174,
      "theihlo": 3175,
      "vansang": 3176,
      "chanmi": 3177,
      "meiphu": 3178,
      "Joel": 3179,
      "thangchiatnak": 3180,
      "sakpiak": 3181,
      "Abel": 3182,
      "hnem": 3183,
      "phungthluk": 3184,
      "teitu": 3185,
      "luhter": 3186,
      "thannak": 3187,
      "Thai": 3188,
      "Periz": 3189,
      "langhternak": 3190,
      "rawkmi": 3191,
      "tlinnak": 3192,
      "Makhir": 3193,
      "Maakah": 3194,
      "feth": 3195,
      "Gera": 3196,
      "porhlawmi": 3197,
      "Elkanah": 3198,
      "huatnak": 3199,
      "dormi": 3200,
      "hngawngkual": 3201,
      "Seraiah": 3202,
      "Gaza": 3203,
      "Biaceihnak": 3204,
      "Beersheba": 3205,
      "Jabesh": 3206,
      "hnangam": 3207,
      "hnangamnak": 3208,
      "nimtlau": 3209,
      "cenghngia": 3210,
      "Gomorrah": 3211,
      "Hezron": 3212,
      "Jezebel": 3213,
      "thluangthluan": 3214,
      "Lai": 3215,
      "Mel": 3216,
      "Nine": 3217,
      "Og": 3218,
      "San": 3219,
      "Zim": 3220,
      "bing": 3221,
      "ber": 3222,
      "bawinu": 3223,
      "duahmah": 3224,
      "os": 3225,
      "sawmh": 3226,
      "ud": 3227,
      "zzar": 3228,
      "cut": 3229,
      "inter": 3230,
      "thak": 3231,
      "thlek": 3232,
      "chon": 3233,
      "sian": 3234,
      "sera": 3235,
      "lawk": 3236,
      "hrual": 3237,
      "pemi": 3238,
      "leiba": 3239,
      "tukmi": 3240,
      "chimchung": 3241,
      "rib": 3242,
      "inntual": 3243,
      "niam": 3244,
      "lamhruang": 3245,
      "uanak": 3246,
      "duhtu": 3247,
      "deh": 3248,
      "thlu": 3249,
      "Naboth": 3250,
      "ruahning": 3251,
      "ṭian": 3252,
      "zohtu": 3253,
      "Sisera": 3254,
      "puanchia": 3255,
      "chanhtu": 3256,
      "kiak": 3257,
      "beth": 3258,
      "rilikam": 3259,
      "samhmi": 3260,
      "Hada": 3261,
      "cawknak": 3262,
      "hnik": 3263,
      "huami": 3264,
      "biahrennak": 3265,
      "tlaumi": 3266,
      "phorhmi": 3267,
      "khonmi": 3268,
      "Asherah": 3269,
      "Shelah": 3270,
      "Perez": 3271,
      "Kish": 3272,
      "tihal": 3273,
      "miaknak": 3274,
      "hrawngah": 3275,
      "zingkate": 3276,
      "Malkhi": 3277,
      "ceuh": 3278,
      "cukmak": 3279,
      "Zaangfahnak": 3280,
      "Susa": 3281,
      "bianabia": 3282,
      "Thaizing": 3283,
      "Nineveh": 3284,
      "Chim": 3285,
      "En": 3286,
      "Itham": 3287,
      "Lak": 3288,
      "Ner": 3289,
      "Tang": 3290,
      "Tung": 3291,
      "Tir": 3292,
      "dim": 3293,
      "del": 3294,
      "fam": 3295,
      "fer": 3296,
      "gai": 3297,
      "kin": 3298,
      "met": 3299,
      "nenh": 3300,
      "pawn": 3301,
      "ṭuang": 3302,
      "ṭol": 3303,
      "naupa": 3304,
      "ngerh": 3305,
      "khawmh": 3306,
      "lal": 3307,
      "kao": 3308,
      "tia": 3309,
      "hranh": 3310,
      "pheh": 3311,
      "khuari": 3312,
      "khuazing": 3313,
      "kalpah": 3314,
      "vale": 3315,
      "bili": 3316,
      "thawhmi": 3317,
      "phunhawi": 3318,
      "dek": 3319,
      "Nadab": 3320,
      "Hiram": 3321,
      "ṭuanpiak": 3322,
      "vanchiatnak": 3323,
      "khiak": 3324,
      "luak": 3325,
      "dawtu": 3326,
      "hleiruk": 3327,
      "hleiriat": 3328,
      "thingtan": 3329,
      "res": 3330,
      "zaruh": 3331,
      "kalpimi": 3332,
      "zanriah": 3333,
      "phawlawng": 3334,
      "Thah": 3335,
      "cannak": 3336,
      "tluntermi": 3337,
      "Nga": 3338,
      "Jehoram": 3339,
      "Jehoahaz": 3340,
      "rawknak": 3341,
      "Biakamnak": 3342,
      "vuinak": 3343,
      "sungh": 3344,
      "zil": 3345,
      "vok": 3346,
      "kawhmi": 3347,
      "hnekmi": 3348,
      "kuatmi": 3349,
      "Lungthin": 3350,
      "thurhnawmh": 3351,
      "Lazaruh": 3352,
      "hngalhternak": 3353,
      "khangtu": 3354,
      "hoihmi": 3355,
      "siknak": 3356,
      "serhsatnak": 3357,
      "khuahrumbo": 3358,
      "Hagar": 3359,
      "suaimi": 3360,
      "Thingkung": 3361,
      "nauta": 3362,
      "sunglawimi": 3363,
      "tuksapur": 3364,
      "Mattaniah": 3365,
      "Sertu": 3366,
      "Melkhi": 3367,
      "Hadade": 3368,
      "Ithamar": 3369,
      "Akhish": 3370,
      "Bu": 3371,
      "Ceu": 3372,
      "Hung": 3373,
      "Laa": 3374,
      "Leng": 3375,
      "Nim": 3376,
      "Oliv": 3377,
      "Obadiah": 3378,
      "Phin": 3379,
      "Rab": 3380,
      "Sah": 3381,
      "Suk": 3382,
      "Teman": 3383,
      "Zak": 3384,
      "ehas": 3385,
      "panh": 3386,
      "tawl": 3387,
      "vawl": 3388,
      "vorh": 3389,
      "vanhramdeng": 3390,
      "Ṭh": 3391,
      "awt": 3392,
      "khahmul": 3393,
      "khai": 3394,
      "chut": 3395,
      "sir": 3396,
      "pakua": 3397,
      "naklai": 3398,
      "einak": 3399,
      "chungle": 3400,
      "phal": 3401,
      "riel": 3402,
      "saih": 3403,
      "oni": 3404,
      "raldoh": 3405,
      "hngaltu": 3406,
      "ngaihnak": 3407,
      "dedom": 3408,
      "thlau": 3409,
      "buin": 3410,
      "tamnak": 3411,
      "rothil": 3412,
      "Sifakmi": 3413,
      "harmi": 3414,
      "Safan": 3415,
      "Abih": 3416,
      "dinter": 3417,
      "rethei": 3418,
      "phanmi": 3419,
      "phanter": 3420,
      "khanghmi": 3421,
      "thoth": 3422,
      "thophel": 3423,
      "sangpi": 3424,
      "sangphawlawng": 3425,
      "ceihtu": 3426,
      "hnawhmi": 3427,
      "hrinnak": 3428,
      "Thisen": 3429,
      "Thlam": 3430,
      "Media": 3431,
      "mupi": 3432,
      "zawt": 3433,
      "hrilh": 3434,
      "Ngaih": 3435,
      "thuamh": 3436,
      "Lampi": 3437,
      "kaupi": 3438,
      "Haran": 3439,
      "Ahithophel": 3440,
      "hneksaknak": 3441,
      "cawmnak": 3442,
      "rawitu": 3443,
      "rawinak": 3444,
      "Aize": 3445,
      "luaimai": 3446,
      "tlanhnak": 3447,
      "Muihnak": 3448,
      "Eliab": 3449,
      "Maaseiah": 3450,
      "Obededom": 3451,
      "Hmasa": 3452,
      "tilditmi": 3453,
      "Naaman": 3454,
      "Anathoth": 3455,
      "lulhm": 3456,
      "Tangka": 3457,
      "pawnchuah": 3458,
      "Hadadezer": 3459,
      "Ceunak": 3460,
      "Phinehas": 3461,
      "Aro": 3462,
      "Asia": 3463,
      "Bel": 3464,
      "Ci": 3465,
      "Dawtnak": 3466,
      "Eno": 3467,
      "Hush": 3468,
      "Jar": 3469,
      "Ko": 3470,
      "Lei": 3471,
      "Om": 3472,
      "Ph": 3473,
      "Pal": 3474,
      "Pum": 3475,
      "Sia": 3476,
      "Zar": 3477,
      "bun": 3478,
      "cel": 3479,
      "hah": 3480,
      "mawng": 3481,
      "nel": 3482,
      "nor": 3483,
      "tawk": 3484,
      "ule": 3485,
      "ṭim": 3486,
      "ṭek": 3487,
      "anah": 3488,
      "ihnam": 3489,
      "tiput": 3490,
      "chet": 3491,
      "choi": 3492,
      "siam": 3493,
      "sifahnak": 3494,
      "eitlung": 3495,
      "hmin": 3496,
      "seihnam": 3497,
      "ṭhenh": 3498,
      "chungchung": 3499,
      "hramah": 3500,
      "hrenhnak": 3501,
      "tlum": 3502,
      "tluang": 3503,
      "her": 3504,
      "awnh": 3505,
      "lunglawmh": 3506,
      "ralṭhatnak": 3507,
      "ralvennak": 3508,
      "minthannak": 3509,
      "phunmi": 3510,
      "Mirum": 3511,
      "chiami": 3512,
      "Hitihin": 3513,
      "mangki": 3514,
      "zedek": 3515,
      "hunpi": 3516,
      "tlar": 3517,
      "rokhrawl": 3518,
      "Sisar": 3519,
      "bauh": 3520,
      "thongthong": 3521,
      "hleithum": 3522,
      "dinlonak": 3523,
      "retheimi": 3524,
      "chiatserh": 3525,
      "Amon": 3526,
      "Amariah": 3527,
      "Khual": 3528,
      "obah": 3529,
      "thanuam": 3530,
      "tivate": 3531,
      "hawiko": 3532,
      "zamnak": 3533,
      "Elish": 3534,
      "riatnak": 3535,
      "rilipi": 3536,
      "aroth": 3537,
      "Hasha": 3538,
      "Hazor": 3539,
      "therphang": 3540,
      "sunghter": 3541,
      "zuammi": 3542,
      "Refa": 3543,
      "ralrin": 3544,
      "nahchuah": 3545,
      "nahchuahnak": 3546,
      "Tuurun": 3547,
      "Chaw": 3548,
      "cuarpartan": 3549,
      "shish": 3550,
      "Saram": 3551,
      "tuamtu": 3552,
      "camhthiam": 3553,
      "Tarshish": 3554,
      "bengh": 3555,
      "Sahrang": 3556,
      "Sukkoth": 3557,
      "Omri": 3558,
      "Sisaria": 3559,
      "Hashabiah": 3560,
      ");": 3561,
      "Al": 3562,
      "Anak": 3563,
      "Asah": 3564,
      "Bani": 3565,
      "Cawn": 3566,
      "Pah": 3567,
      "Rak": 3568,
      "Rim": 3569,
      "Rai": 3570,
      "Ste": 3571,
      "Tab": 3572,
      "corh": 3573,
      "earim": 3574,
      "for": 3575,
      "jearim": 3576,
      "mo": 3577,
      "nin": 3578,
      "oihnak": 3579,
      "pel": 3580,
      "taroth": 3581,
      "ub": 3582,
      "uamnak": 3583,
      "anu": 3584,
      "naum": 3585,
      "thro": 3586,
      "thawhnak": 3587,
      "angtu": 3588,
      "tub": 3589,
      "laileng": 3590,
      "ama": 3591,
      "hmah": 3592,
      "lawlaw": 3593,
      "capawl": 3594,
      "rath": 3595,
      "rauh": 3596,
      "sehmi": 3597,
      "zeimaw": 3598,
      "sazuk": 3599,
      "lungphun": 3600,
      "hlanh": 3601,
      "serter": 3602,
      "raltuk": 3603,
      "chuahtu": 3604,
      "ngaichih": 3605,
      "Kaper": 3606,
      "Mik": 3607,
      "ṭhanter": 3608,
      "ningte": 3609,
      "khoih": 3610,
      "ṭuanter": 3611,
      "ahopaoh": 3612,
      "nunchung": 3613,
      "meiṭil": 3614,
      "Jok": 3615,
      "ngeihter": 3616,
      "dotu": 3617,
      "domh": 3618,
      "thaim": 3619,
      "thathu": 3620,
      "hnawmhnak": 3621,
      "tumkung": 3622,
      "chiatter": 3623,
      "sangmi": 3624,
      "cotu": 3625,
      "ceihpiak": 3626,
      "phawtu": 3627,
      "phiah": 3628,
      "riahbuk": 3629,
      "Thong": 3630,
      "zammi": 3631,
      "Meso": 3632,
      "Pele": 3633,
      "ṭamhnak": 3634,
      "Ramdangmi": 3635,
      "Zik": 3636,
      "holhtheihlo": 3637,
      "note": 3638,
      "hur": 3639,
      "bbaal": 3640,
      "khengkuar": 3641,
      "thlakmi": 3642,
      "Mag": 3643,
      "Keilah": 3644,
      "muisam": 3645,
      "tawngtu": 3646,
      "hniang": 3647,
      "Lungpi": 3648,
      "Geba": 3649,
      "cheuhmi": 3650,
      "denmi": 3651,
      "farnu": 3652,
      "Ahikam": 3653,
      "dermi": 3654,
      "Ṭhatnak": 3655,
      "rankin": 3656,
      "shib": 3657,
      "Nahor": 3658,
      "Vailam": 3659,
      "Eliashib": 3660,
      "Tobiah": 3661,
      "potami": 3662,
      "hluahmahmi": 3663,
      "Thlichia": 3664,
      "Thlanglei": 3665,
      "fianter": 3666,
      "Uzziel": 3667,
      "cawlcang": 3668,
      "hell": 3669,
      "depde": 3670,
      "Libnah": 3671,
      "Cherub": 3672,
      "Laksawng": 3673,
      "lulhmalh": 3674,
      "Siasal": 3675,
      "Refaim": 3676,
      "Asahel": 3677,
      "forhnak": 3678,
      "Kapernaum": 3679,
      "Mesopotami": 3680,
      "rankinsen": 3681,
      "Mesopotamia": 3682,
      "Athal": 3683,
      "Ding": 3684,
      "Eg": 3685,
      "Eden": 3686,
      "Hla": 3687,
      "Ku": 3688,
      "Rul": 3689,
      "buan": 3690,
      "dawm": 3691,
      "duah": 3692,
      "eah": 3693,
      "gon": 3694,
      "gail": 3695,
      "hawipa": 3696,
      "humh": 3697,
      "kuanak": 3698,
      "pung": 3699,
      "puhmi": 3700,
      "sua": 3701,
      "sawk": 3702,
      "tlek": 3703,
      "von": 3704,
      "zelh": 3705,
      "ṭawm": 3706,
      "nalh": 3707,
      "khoh": 3708,
      "khen": 3709,
      "thle": 3710,
      "thuan": 3711,
      "thor": 3712,
      "miruak": 3713,
      "tiel": 3714,
      "sis": 3715,
      "sianh": 3716,
      "almon": 3717,
      "tuhmi": 3718,
      "sem": 3719,
      "hreitlung": 3720,
      "aiawh": 3721,
      "dahkaw": 3722,
      "chimter": 3723,
      "Jehi": 3724,
      "rialnak": 3725,
      "kalning": 3726,
      "sathau": 3727,
      "suan": 3728,
      "serhmi": 3729,
      "ralchan": 3730,
      "ralbawipa": 3731,
      "ralveng": 3732,
      "zabad": 3733,
      "tinh": 3734,
      "shom": 3735,
      "shad": 3736,
      "had": 3737,
      "bangkhan": 3738,
      "vanmi": 3739,
      "konglam": 3740,
      "Joppa": 3741,
      "uaitu": 3742,
      "lehhmah": 3743,
      "baan": 3744,
      "bath": 3745,
      "cammi": 3746,
      "hmual": 3747,
      "zur": 3748,
      "Sarai": 3749,
      "hleikhat": 3750,
      "tumnak": 3751,
      "phannak": 3752,
      "ṭialnak": 3753,
      "chunzan": 3754,
      "Bela": 3755,
      "tlunpi": 3756,
      "tluninn": 3757,
      "teimi": 3758,
      "velh": 3759,
      "thani": 3760,
      "thanuamnak": 3761,
      "Khuaruah": 3762,
      "zamter": 3763,
      "Meshe": 3764,
      "damh": 3765,
      "Pekah": 3766,
      "Eliezer": 3767,
      "tahchunh": 3768,
      "manna": 3769,
      "Hadad": 3770,
      "tlinh": 3771,
      "lawnmi": 3772,
      "tawngmi": 3773,
      "telmi": 3774,
      "naite": 3775,
      "Abigail": 3776,
      "kaumi": 3777,
      "Thilnu": 3778,
      "chawkmi": 3779,
      "Ahitub": 3780,
      "ngamh": 3781,
      "Amasa": 3782,
      "hnahnawh": 3783,
      "pialter": 3784,
      "bultawl": 3785,
      "paruknak": 3786,
      "hrinpiakmi": 3787,
      "Horeb": 3788,
      "Hlanlio": 3789,
      "Gershom": 3790,
      "lehrul": 3791,
      "Ahimelek": 3792,
      "Amminadab": 3793,
      "Oholi": 3794,
      "Hngalh": 3795,
      "Tirzah": 3796,
      "Melkhizedek": 3797,
      "Cite": 3798,
      "hawikomhnak": 3799,
      "Athaliah": 3800,
      "Cerh": 3801,
      "Hur": 3802,
      "Heman": 3803,
      "Ken": 3804,
      "Mak": 3805,
      "Or": 3806,
      "Thin": 3807,
      "ag": 3808,
      "fu": 3809,
      "fenh": 3810,
      "frankinsen": 3811,
      "hlawm": 3812,
      "ju": 3813,
      "ks": 3814,
      "mas": 3815,
      "otho": 3816,
      "sawn": 3817,
      "tor": 3818,
      "uak": 3819,
      "vuan": 3820,
      "Ṭhal": 3821,
      "naz": 3822,
      "cua": 3823,
      "awṭawm": 3824,
      "khaw": 3825,
      "thun": 3826,
      "mizaw": 3827,
      "lag": 3828,
      "lath": 3829,
      "khab": 3830,
      "khael": 3831,
      "tian": 3832,
      "cha": 3833,
      "chem": 3834,
      "alan": 3835,
      "tua": 3836,
      "teo": 3837,
      "hmih": 3838,
      "ṭhum": 3839,
      "radan": 3840,
      "chimning": 3841,
      "Jedaiah": 3842,
      "Jefun": 3843,
      "Cuti": 3844,
      "ulhmi": 3845,
      "aaz": 3846,
      "nule": 3847,
      "lamhla": 3848,
      "zaradan": 3849,
      "hmunhter": 3850,
      "hmaichiatnak": 3851,
      "Mikhal": 3852,
      "Mikhael": 3853,
      "hngat": 3854,
      "bab": 3855,
      "zuri": 3856,
      "Saṭil": 3857,
      "kebei": 3858,
      "Amram": 3859,
      "fakpi": 3860,
      "Maha": 3861,
      "tawntu": 3862,
      "tawnnak": 3863,
      "auhnak": 3864,
      "chuntlung": 3865,
      "coter": 3866,
      "fano": 3867,
      "chianu": 3868,
      "phawtnak": 3869,
      "Ralvengtu": 3870,
      "shen": 3871,
      "ruknak": 3872,
      "Eliakim": 3873,
      "remter": 3874,
      "ṭamhmi": 3875,
      "timhcia": 3876,
      "lawmhpi": 3877,
      "shazzar": 3878,
      "Ziba": 3879,
      "hringhranmi": 3880,
      "Rekhab": 3881,
      "Manoah": 3882,
      "zawnh": 3883,
      "aihram": 3884,
      "naihmi": 3885,
      "Elah": 3886,
      "Martha": 3887,
      "Nebuzaradan": 3888,
      "camcinnak": 3889,
      "pialtak": 3890,
      "ṭemnak": 3891,
      "sumsel": 3892,
      "phuanmi": 3893,
      "ṭangbenh": 3894,
      "toidornak": 3895,
      "Nunnak": 3896,
      "horkuang": 3897,
      "duak": 3898,
      "ṭiaotakmi": 3899,
      "ngiatthlai": 3900,
      "chukcho": 3901,
      "lungsaunak": 3902,
      "Ahimaaz": 3903,
      "Thlua": 3904,
      "thengte": 3905,
      "zirziar": 3906,
      "Berekhiah": 3907,
      "Zimri": 3908,
      "Aroer": 3909,
      "Elishama": 3910,
      "Rimmon": 3911,
      "Ziklag": 3912,
      "humhak": 3913,
      "jubili": 3914,
      "Jefunneh": 3915,
      "Anan": 3916,
      "Ari": 3917,
      "Cuar": 3918,
      "Eber": 3919,
      "Fes": 3920,
      "Gezer": 3921,
      "Him": 3922,
      "Has": 3923,
      "Pen": 3924,
      "Rem": 3925,
      "Vampang": 3926,
      "drak": 3927,
      "ean": 3928,
      "edn": 3929,
      "ego": 3930,
      "lia": 3931,
      "ling": 3932,
      "pres": 3933,
      "ret": 3934,
      "tter": 3935,
      "ṭet": 3936,
      "cuanh": 3937,
      "hnatlaknak": 3938,
      "tikam": 3939,
      "lemiah": 3940,
      "pam": 3941,
      "laiah": 3942,
      "loth": 3943,
      "chungril": 3944,
      "hrawhnak": 3945,
      "komh": 3946,
      "ainak": 3947,
      "phong": 3948,
      "pherh": 3949,
      "faz": 3950,
      "fatiah": 3951,
      "rup": 3952,
      "khuasik": 3953,
      "chimhring": 3954,
      "bir": 3955,
      "hmuhpiak": 3956,
      "lamhlat": 3957,
      "lamhlapi": 3958,
      "bawiluchin": 3959,
      "ukmi": 3960,
      "duhdanh": 3961,
      "Misual": 3962,
      "Miriam": 3963,
      "thlang": 3964,
      "Zeitik": 3965,
      "tazak": 3966,
      "langta": 3967,
      "thawimi": 3968,
      "hunh": 3969,
      "hngami": 3970,
      "Izhar": 3971,
      "Sadu": 3972,
      "hmakhatte": 3973,
      "Abedn": 3974,
      "rathnawh": 3975,
      "panganak": 3976,
      "diriam": 3977,
      "Mahli": 3978,
      "tanter": 3979,
      "Bethani": 3980,
      "ṭhawngṭhawng": 3981,
      "hrinsor": 3982,
      "teirul": 3983,
      "phawnam": 3984,
      "putnak": 3985,
      "thluachuak": 3986,
      "Raltuknak": 3987,
      "Sheal": 3988,
      "Shefatiah": 3989,
      "Bilh": 3990,
      "muih": 3991,
      "merh": 3992,
      "Eliza": 3993,
      "tluntertu": 3994,
      "tungtu": 3995,
      "dawitu": 3996,
      "lawmhmi": 3997,
      "Hazar": 3998,
      "lihnin": 3999,
      "khualtlawnnak": 4000,
      "Geha": 4001,
      "Geshur": 4002,
      "thukpi": 4003,
      "Artazak": 4004,
      "pemmi": 4005,
      "rulpi": 4006,
      "thupmi": 4007,
      "Hannah": 4008,
      "Hermon": 4009,
      "Mitcaw": 4010,
      "hramthawknak": 4011,
      "lamhbak": 4012,
      "Ngaknu": 4013,
      "ruaram": 4014,
      "attu": 4015,
      "Ashke": 4016,
      "Shadrak": 4017,
      "baunak": 4018,
      "vailamtahnak": 4019,
      "horon": 4020,
      "chimhhrinnak": 4021,
      "dawnh": 4022,
      "Meshak": 4023,
      "burbuk": 4024,
      "Goshen": 4025,
      "khawngsil": 4026,
      "hrokhrawl": 4027,
      "Nethaniah": 4028,
      "Zumhawktlak": 4029,
      "chingchiah": 4030,
      "thakpherh": 4031,
      "lawkihmi": 4032,
      "Steven": 4033,
      "tuavon": 4034,
      "Festas": 4035,
      "Sadusi": 4036,
      "Abednego": 4037,
      "Artazaksis": 4038,
      "Ap": 4039,
      "Chung": 4040,
      "Dum": 4041,
      "Er": 4042,
      "Hr": 4043,
      "Hlawh": 4044,
      "Mer": 4045,
      "Pu": 4046,
      "Phun": 4047,
      "Rah": 4048,
      "Sin": 4049,
      "baa": 4050,
      "cing": 4051,
      "dak": 4052,
      "mual": 4053,
      "molh": 4054,
      "oz": 4055,
      "tawh": 4056,
      "unaupa": 4057,
      "ṭotho": 4058,
      "ngh": 4059,
      "ngang": 4060,
      "khuan": 4061,
      "thlung": 4062,
      "mipuar": 4063,
      "kat": 4064,
      "nihchuak": 4065,
      "alhmi": 4066,
      "tuamm": 4067,
      "nakding": 4068,
      "ṭhing": 4069,
      "ṭhuat": 4070,
      "ṭhep": 4071,
      "caahdah": 4072,
      "koa": 4073,
      "kolh": 4074,
      "Pash": 4075,
      "fas": 4076,
      "pemh": 4077,
      "khuasak": 4078,
      "litin": 4079,
      "chimhnak": 4080,
      "chimhnawh": 4081,
      "Jedu": 4082,
      "kalhnawh": 4083,
      "hmaichia": 4084,
      "Misifak": 4085,
      "And": 4086,
      "ruahpi": 4087,
      "thinhung": 4088,
      "hacang": 4089,
      "biakchawnh": 4090,
      "vanrang": 4091,
      "vanṭhatnak": 4092,
      "channak": 4093,
      "liopi": 4094,
      "Jerubbaal": 4095,
      "halnak": 4096,
      "bok": 4097,
      "keh": 4098,
      "kehram": 4099,
      "kirtak": 4100,
      "ṭihzah": 4101,
      "fibosheth": 4102,
      "tluknak": 4103,
      "raithawi": 4104,
      "coih": 4105,
      "tlaihlan": 4106,
      "ngakchianu": 4107,
      "tonmi": 4108,
      "Khuadawm": 4109,
      "Meri": 4110,
      "Mefibosheth": 4111,
      "dawtte": 4112,
      "Elifaz": 4113,
      "hril": 4114,
      "remhnak": 4115,
      "ceumi": 4116,
      "Nebo": 4117,
      "ruatmi": 4118,
      "thlaimi": 4119,
      "rumra": 4120,
      "rumter": 4121,
      "dawhdawh": 4122,
      "pengmi": 4123,
      "thuammi": 4124,
      "khaltu": 4125,
      "thaumi": 4126,
      "Zapi": 4127,
      "thleidang": 4128,
      "Miṭhalopa": 4129,
      "phuchim": 4130,
      "Barak": 4131,
      "camcinmi": 4132,
      "limkeng": 4133,
      "vangpalh": 4134,
      "lungretheihnak": 4135,
      "Asherim": 4136,
      "Jazer": 4137,
      "Shamm": 4138,
      "Cunglei": 4139,
      "khuam": 4140,
      "baumi": 4141,
      "hlingbur": 4142,
      "Nahshon": 4143,
      "tlanval": 4144,
      "hornak": 4145,
      "saipres": 4146,
      "phaikung": 4147,
      "soisel": 4148,
      "anaim": 4149,
      "awlokchong": 4150,
      "choihmi": 4151,
      "tlongmi": 4152,
      "Gog": 4153,
      "phuhlamtu": 4154,
      "Tekoa": 4155,
      "Obed": 4156,
      "kuli": 4157,
      "Debir": 4158,
      "Nethanel": 4159,
      "Langhnak": 4160,
      "Rabbah": 4161,
      "vawlh": 4162,
      "Hushai": 4163,
      "aihramnak": 4164,
      "Shealtiel": 4165,
      "Pashhur": 4166,
      "Jeduthun": 4167,
      "!’": 4168,
      "Hel": 4169,
      "Hremnak": 4170,
      "Ib": 4171,
      "Ith": 4172,
      "Iddo": 4173,
      "Lawmhnak": 4174,
      "Mam": 4175,
      "Men": 4176,
      "Mangki": 4177,
      "No": 4178,
      "Pak": 4179,
      "Ta": 4180,
      "Tem": 4181,
      "Thlan": 4182,
      "Zobah": 4183,
      "bahnak": 4184,
      "cenh": 4185,
      "erib": 4186,
      "gah": 4187,
      "gad": 4188,
      "ot": 4189,
      "rei": 4190,
      "reng": 4191,
      "zuat": 4192,
      "zok": 4193,
      "anan": 4194,
      "nath": 4195,
      "cul": 4196,
      "khel": 4197,
      "kher": 4198,
      "miel": 4199,
      "kath": 4200,
      "sial": 4201,
      "aliah": 4202,
      "tutu": 4203,
      "amhnak": 4204,
      "hmet": 4205,
      "kanto": 4206,
      "hirh": 4207,
      "hrawl": 4208,
      "koni": 4209,
      "tuahning": 4210,
      "phalh": 4211,
      "phok": 4212,
      "cungnung": 4213,
      "ramchung": 4214,
      "khuaawng": 4215,
      "rangmi": 4216,
      "zeidang": 4217,
      "innom": 4218,
      "lungdong": 4219,
      "serchommi": 4220,
      "sersiam": 4221,
      "niel": 4222,
      "zadak": 4223,
      "chuahpiak": 4224,
      "phuntungtu": 4225,
      "tlangpang": 4226,
      "Anah": 4227,
      "Nau": 4228,
      "Nazir": 4229,
      "thlar": 4230,
      "saltang": 4231,
      "saltangmi": 4232,
      "bual": 4233,
      "langmi": 4234,
      "lawmmi": 4235,
      "Dagon": 4236,
      "ṭhio": 4237,
      "ṭhitu": 4238,
      "nuncan": 4239,
      "thangpi": 4240,
      "nakherib": 4241,
      "ngaihchiat": 4242,
      "dothla": 4243,
      "hlanpi": 4244,
      "tumtu": 4245,
      "Bath": 4246,
      "bonak": 4247,
      "thingthei": 4248,
      "hlawmi": 4249,
      "cawla": 4250,
      "kulul": 4251,
      "Amoz": 4252,
      "Khor": 4253,
      "lente": 4254,
      "faniah": 4255,
      "Thir": 4256,
      "Zefaniah": 4257,
      "shea": 4258,
      "senmi": 4259,
      "hringtu": 4260,
      "mura": 4261,
      "kaipi": 4262,
      "Nitlak": 4263,
      "bed": 4264,
      "langhtermi": 4265,
      "langhtertu": 4266,
      "ṭammi": 4267,
      "Neko": 4268,
      "chawlet": 4269,
      "thuhtak": 4270,
      "Zif": 4271,
      "Zil": 4272,
      "Zikhri": 4273,
      "Titas": 4274,
      "fungfek": 4275,
      "Efron": 4276,
      "zuamnak": 4277,
      "palik": 4278,
      "hleihnihnak": 4279,
      "zahpi": 4280,
      "thatmi": 4281,
      "naisai": 4282,
      "thianhpiak": 4283,
      "hlenter": 4284,
      "khuazeika": 4285,
      "sahlawh": 4286,
      "Nuhmei": 4287,
      "ngolter": 4288,
      "nawnnak": 4289,
      "nawncek": 4290,
      "pehtlai": 4291,
      "Reuel": 4292,
      "Barzil": 4293,
      "ritter": 4294,
      "Chimh": 4295,
      "Jafeth": 4296,
      "Sham": 4297,
      "ruamkainak": 4298,
      "Kareah": 4299,
      "tlolh": 4300,
      "ramhtu": 4301,
      "Timnah": 4302,
      "Ngakchiapa": 4303,
      "Jeiel": 4304,
      "dawntu": 4305,
      "Hoshea": 4306,
      "hrutmi": 4307,
      "Sennakherib": 4308,
      "Agag": 4309,
      "phunzainak": 4310,
      "Ruth": 4311,
      "Enok": 4312,
      "bunhmi": 4313,
      "Eglon": 4314,
      "pungsan": 4315,
      "Jehiel": 4316,
      "Thluachuahnak": 4317,
      "Gehazi": 4318,
      "Apol": 4319,
      "Andru": 4320,
      "vawlhpa": 4321,
      "Mamre": 4322,
      "hirhiar": 4323,
      "Barzillai": 4324,
      "Adaiah": 4325,
      "Cam": 4326,
      "Dong": 4327,
      "Elih": 4328,
      "Fih": 4329,
      "Hak": 4330,
      "Hei": 4331,
      "Hawi": 4332,
      "Jair": 4333,
      "Net": 4334,
      "Pek": 4335,
      "Rawhralnak": 4336,
      "Shar": 4337,
      "Terah": 4338,
      "Uri": 4339,
      "Zorah": 4340,
      "Zalm": 4341,
      "aamah": 4342,
      "bih": 4343,
      "blah": 4344,
      "dorh": 4345,
      "dron": 4346,
      "ea": 4347,
      "kangmi": 4348,
      "mash": 4349,
      "osh": 4350,
      "ofah": 4351,
      "pan": 4352,
      "rummi": 4353,
      "ttai": 4354,
      "uih": 4355,
      "vom": 4356,
      "zaa": 4357,
      "Ṭhi": 4358,
      "cuang": 4359,
      "ihphah": 4360,
      "thlawh": 4361,
      "mithinghmui": 4362,
      "tirawl": 4363,
      "tidil": 4364,
      "chihnak": 4365,
      "patling": 4366,
      "pasarihnak": 4367,
      "alon": 4368,
      "unna": 4369,
      "lotu": 4370,
      "umtertu": 4371,
      "lawt": 4372,
      "cazi": 4373,
      "khanmi": 4374,
      "fath": 4375,
      "rulh": 4376,
      "chimpiak": 4377,
      "Jerah": 4378,
      "Jethro": 4379,
      "rippa": 4380,
      "zeilo": 4381,
      "zeiruaram": 4382,
      "saf": 4383,
      "suang": 4384,
      "dihmi": 4385,
      "dihumnak": 4386,
      "siangpahrangnu": 4387,
      "bawifung": 4388,
      "duhdawtnak": 4389,
      "dinglo": 4390,
      "lengkekual": 4391,
      "ngeimipa": 4392,
      "Zeicah": 4393,
      "thinfual": 4394,
      "thianghlim": 4395,
      "tamter": 4396,
      "ṭinak": 4397,
      "zohkhenhnak": 4398,
      "ṭhatter": 4399,
      "rocotu": 4400,
      "ṭhitnak": 4401,
      "rawlh": 4402,
      "khit": 4403,
      "deuhdeuh": 4404,
      "Sib": 4405,
      "lupawng": 4406,
      "bami": 4407,
      "harter": 4408,
      "thuel": 4409,
      "Khangh": 4410,
      "Mahanaim": 4411,
      "auter": 4412,
      "Beriah": 4413,
      "tlunh": 4414,
      "kalpitu": 4415,
      "saumi": 4416,
      "thihter": 4417,
      "Zebe": 4418,
      "Zebah": 4419,
      "Megi": 4420,
      "hringmi": 4421,
      "kaimi": 4422,
      "merhnawh": 4423,
      "beh": 4424,
      "timhtuah": 4425,
      "hremmi": 4426,
      "melek": 4427,
      "chawnhnak": 4428,
      "tlawmpalte": 4429,
      "daite": 4430,
      "hrap": 4431,
      "dengteo": 4432,
      "Minmei": 4433,
      "zawnruahnak": 4434,
      "khuhtu": 4435,
      "aihmi": 4436,
      "tongmi": 4437,
      "firmi": 4438,
      "Heber": 4439,
      "Jonadab": 4440,
      "ṭhekmi": 4441,
      "varek": 4442,
      "Innsang": 4443,
      "pehtlaimi": 4444,
      "Thomas": 4445,
      "zuarmi": 4446,
      "dalin": 4447,
      "soser": 4448,
      "somei": 4449,
      "tuhtu": 4450,
      "Riblah": 4451,
      "Cungnung": 4452,
      "Kedar": 4453,
      "Kedesh": 4454,
      "Arab": 4455,
      "Arabia": 4456,
      "Ashtaroth": 4457,
      "Jehoiachin": 4458,
      "Hlanah": 4459,
      "Kidron": 4460,
      "Kornel": 4461,
      "Meiinn": 4462,
      "Muko": 4463,
      "kuhkulul": 4464,
      "Haggai": 4465,
      "Biaceihtu": 4466,
      "Beeroth": 4467,
      "maim": 4468,
      "luanter": 4469,
      "pechantu": 4470,
      "phuhlamnak": 4471,
      "taannak": 4472,
      "Dibon": 4473,
      "Agrippa": 4474,
      "Huram": 4475,
      "Ishbosheth": 4476,
      "nuamhpi": 4477,
      "thurhnawmmi": 4478,
      "Malkhijah": 4479,
      "Leidip": 4480,
      "mawngtu": 4481,
      "herhnak": 4482,
      "Magdalin": 4483,
      "Cherubim": 4484,
      "buanchukcho": 4485,
      "Cuarpar": 4486,
      "Ashkelon": 4487,
      "Rahab": 4488,
      "dothlat": 4489,
      "Nitlaklei": 4490,
      "Netofah": 4491,
      "Zalmunna": 4492,
      "Zebedi": 4493,
      "Megiddo": 4494,
      "Kornelias": 4495,
      ".’": 4496,
      "Aw": 4497,
      "Alek": 4498,
      "Bawm": 4499,
      "Bawmhnak": 4500,
      "Deu": 4501,
      "Ehu": 4502,
      "Ebed": 4503,
      "Gol": 4504,
      "Hal": 4505,
      "Hngal": 4506,
      "Jaa": 4507,
      "Khau": 4508,
      "Ofir": 4509,
      "Riah": 4510,
      "Sun": 4511,
      "Sawm": 4512,
      "Tlak": 4513,
      "Tlawm": 4514,
      "Tual": 4515,
      "Teh": 4516,
      "Zip": 4517,
      "Zab": 4518,
      "bek": 4519,
      "ed": 4520,
      "foihnak": 4521,
      "hliah": 4522,
      "ii": 4523,
      "kur": 4524,
      "mal": 4525,
      "mat": 4526,
      "nen": 4527,
      "oam": 4528,
      "pras": 4529,
      "rinh": 4530,
      "st": 4531,
      "sul": 4532,
      "ttu": 4533,
      "toh": 4534,
      "cuh": 4535,
      "hnatlak": 4536,
      "hnakhaw": 4537,
      "milung": 4538,
      "milihchim": 4539,
      "khakha": 4540,
      "khalh": 4541,
      "kaih": 4542,
      "kari": 4543,
      "timhnak": 4544,
      "chaan": 4545,
      "chat": 4546,
      "sifah": 4547,
      "pas": 4548,
      "tuar": 4549,
      "tuzan": 4550,
      "laici": 4551,
      "lopi": 4552,
      "lofe": 4553,
      "umning": 4554,
      "umhnawh": 4555,
      "eilo": 4556,
      "seng": 4557,
      "koin": 4558,
      "Paran": 4559,
      "kahcham": 4560,
      "tuahter": 4561,
      "pho": 4562,
      "phen": 4563,
      "favui": 4564,
      "pet": 4565,
      "utlak": 4566,
      "chuang": 4567,
      "nuphung": 4568,
      "lunghno": 4569,
      "zalel": 4570,
      "thawhtertu": 4571,
      "ngaikuang": 4572,
      "Mis": 4573,
      "tlangkawm": 4574,
      "piaknak": 4575,
      "Hiti": 4576,
      "thinlinh": 4577,
      "nganngan": 4578,
      "langhngan": 4579,
      "roth": 4580,
      "upatmi": 4581,
      "vanlai": 4582,
      "meifar": 4583,
      "meilaknak": 4584,
      "rawlret": 4585,
      "pumpak": 4586,
      "dannak": 4587,
      "Joah": 4588,
      "Joia": 4589,
      "camnak": 4590,
      "relning": 4591,
      "dotlak": 4592,
      "hlankan": 4593,
      "cawtter": 4594,
      "ballat": 4595,
      "fimchimtu": 4596,
      "Ammih": 4597,
      "diel": 4598,
      "khanghthawinak": 4599,
      "Beor": 4600,
      "Bethuel": 4601,
      "hrawhmi": 4602,
      "tlaihter": 4603,
      "phawtmi": 4604,
      "kiang": 4605,
      "Raldohnak": 4606,
      "Sheb": 4607,
      "Shelemiah": 4608,
      "Zelofe": 4609,
      "Thih": 4610,
      "Thlaici": 4611,
      "Bil": 4612,
      "Git": 4613,
      "Eliel": 4614,
      "ṭhup": 4615,
      "hranter": 4616,
      "mansung": 4617,
      "dawimi": 4618,
      "Nehe": 4619,
      "Hash": 4620,
      "rianṭuanning": 4621,
      "ngakchiate": 4622,
      "pumi": 4623,
      "sannak": 4624,
      "sanlei": 4625,
      "Tupi": 4626,
      "nemnak": 4627,
      "Abiram": 4628,
      "Abinadab": 4629,
      "hmuhsakmi": 4630,
      "ṭhitpiak": 4631,
      "Hamor": 4632,
      "hlawhtling": 4633,
      "chiatserhmi": 4634,
      "Harim": 4635,
      "mibupi": 4636,
      "tlinternak": 4637,
      "hlangnu": 4638,
      "dengmangmi": 4639,
      "thurhhnawmhnak": 4640,
      "Hanun": 4641,
      "phuannak": 4642,
      "sop": 4643,
      "zuahmi": 4644,
      "bawhte": 4645,
      "riamruam": 4646,
      "Aij": 4647,
      "citter": 4648,
      "Kenaz": 4649,
      "mawhchiatnak": 4650,
      "thiantermi": 4651,
      "cuaithlainak": 4652,
      "chahmi": 4653,
      "ziknawh": 4654,
      "Mushi": 4655,
      "nganhmi": 4656,
      "Hanani": 4657,
      "tlerh": 4658,
      "tlawngmi": 4659,
      "khuakhanmi": 4660,
      "Jabin": 4661,
      "ṭanpi": 4662,
      "Saipras": 4663,
      "mihrokhrawl": 4664,
      "zuangzam": 4665,
      "Adullam": 4666,
      "Ruahchannak": 4667,
      "Dedan": 4668,
      "Hmakhatte": 4669,
      "Thazang": 4670,
      "Theipi": 4671,
      "Milkah": 4672,
      "ngiatu": 4673,
      "phungthlukbia": 4674,
      "thlulo": 4675,
      "thurhnawmhter": 4676,
      "Lenglei": 4677,
      "Zakkur": 4678,
      "Ṭhawng": 4679,
      "Abihu": 4680,
      "Zarh": 4681,
      "Cawnpiaknak": 4682,
      "Raithawinak": 4683,
      "Mikmash": 4684,
      "Ornan": 4685,
      "Ananias": 4686,
      "Bilhah": 4687,
      "Elizabeth": 4688,
      "Hlawhhlangnu": 4689,
      "Pakpalawng": 4690,
      "Bathsheba": 4691,
      "Apollo": 4692,
      "Elihu": 4693,
      "zeiruaramlo": 4694,
      "Alekzan": 4695,
      "Ehud": 4696,
      "Khaubawk": 4697,
      "Sunparnak": 4698,
      "Zippor": 4699,
      "Ammihud": 4700,
      "Zelofehad": 4701,
      "Cab": 4702,
      "Deb": 4703,
      "Ezer": 4704,
      "Feli": 4705,
      "Hrem": 4706,
      "Holh": 4707,
      "Jash": 4708,
      "Kir": 4709,
      "Lawk": 4710,
      "Po": 4711,
      "Rung": 4712,
      "Tuah": 4713,
      "Zin": 4714,
      "Zer": 4715,
      "ael": 4716,
      "diah": 4717,
      "enai": 4718,
      "fia": 4719,
      "kem": 4720,
      "kiao": 4721,
      "lhnak": 4722,
      "luk": 4723,
      "neng": 4724,
      "puah": 4725,
      "sei": 4726,
      "suat": 4727,
      "taw": 4728,
      "nas": 4729,
      "ngaw": 4730,
      "cum": 4731,
      "khe": 4732,
      "mil": 4733,
      "miluat": 4734,
      "angai": 4735,
      "kauhnak": 4736,
      "unu": 4737,
      "unah": 4738,
      "ṭhangh": 4739,
      "iatnak": 4740,
      "iafas": 4741,
      "hiti": 4742,
      "raim": 4743,
      "hrawn": 4744,
      "thianlo": 4745,
      "phenhnak": 4746,
      "faphal": 4747,
      "arba": 4748,
      "cungkhuh": 4749,
      "lili": 4750,
      "tukforhnak": 4751,
      "chimchungmi": 4752,
      "zeicah": 4753,
      "Iskari": 4754,
      "vat": 4755,
      "amahte": 4756,
      "lungpumh": 4757,
      "hlih": 4758,
      "nika": 4759,
      "veth": 4760,
      "minthlak": 4761,
      "Kaiafas": 4762,
      "hmunthur": 4763,
      "hmaisuang": 4764,
      "duhdim": 4765,
      "Mig": 4766,
      "Mifir": 4767,
      "Miruamkai": 4768,
      "Jesh": 4769,
      "ciruang": 4770,
      "shti": 4771,
      "Zeitikhmanh": 4772,
      "saloni": 4773,
      "thinhnawh": 4774,
      "lomipa": 4775,
      "zohchun": 4776,
      "upadi": 4777,
      "nunnem": 4778,
      "rawldanghnak": 4779,
      "hlatnak": 4780,
      "chiahpiakmi": 4781,
      "tlakrawh": 4782,
      "Jozabad": 4783,
      "lengmangtu": 4784,
      "halpiak": 4785,
      "simipa": 4786,
      "baal": 4787,
      "hleisarih": 4788,
      "hleikhatnak": 4789,
      "daih": 4790,
      "thlahpiak": 4791,
      "dinmi": 4792,
      "anmahte": 4793,
      "rep": 4794,
      "zulhter": 4795,
      "pangeilo": 4796,
      "dohmi": 4797,
      "hramh": 4798,
      "lennak": 4799,
      "aumi": 4800,
      "autu": 4801,
      "raioth": 4802,
      "tlaihchan": 4803,
      "runpi": 4804,
      "phaknak": 4805,
      "phing": 4806,
      "obul": 4807,
      "Hefer": 4808,
      "hmasami": 4809,
      "Meraioth": 4810,
      "dammi": 4811,
      "Nifate": 4812,
      "luattertu": 4813,
      "Filistia": 4814,
      "herhbaunak": 4815,
      "Neriah": 4816,
      "cawhlek": 4817,
      "meel": 4818,
      "rumro": 4819,
      "tharmi": 4820,
      "puak": 4821,
      "purh": 4822,
      "kaltakmi": 4823,
      "ziel": 4824,
      "cinmi": 4825,
      "thanhmi": 4826,
      "zawnhnak": 4827,
      "Tubal": 4828,
      "aihter": 4829,
      "belte": 4830,
      "kulhtu": 4831,
      "Efrath": 4832,
      "nuammi": 4833,
      "Vashti": 4834,
      "hmuhsaknak": 4835,
      "Lamhlatpi": 4836,
      "tlonter": 4837,
      "khunmi": 4838,
      "ṭumchuk": 4839,
      "Thilnung": 4840,
      "biahalnak": 4841,
      "angkileng": 4842,
      "Marka": 4843,
      "chuannak": 4844,
      "aliel": 4845,
      "nawhthuh": 4846,
      "thurhhnawmhter": 4847,
      "tuahpiakmi": 4848,
      "kengtu": 4849,
      "Rehob": 4850,
      "Shaul": 4851,
      "Shafan": 4852,
      "zuanzamnak": 4853,
      "tuakmi": 4854,
      "tuakning": 4855,
      "thiahmi": 4856,
      "Thesaloni": 4857,
      "Boz": 4858,
      "Tofeth": 4859,
      "maveth": 4860,
      "nea": 4861,
      "tuanbia": 4862,
      "launak": 4863,
      "Tefa": 4864,
      "lanhter": 4865,
      "tlengh": 4866,
      "phiarmi": 4867,
      "Immer": 4868,
      "Ruahnak": 4869,
      "derthawmmi": 4870,
      "Zoar": 4871,
      "Upatnak": 4872,
      "hnemtu": 4873,
      "Gerar": 4874,
      "Sanballat": 4875,
      "kaoter": 4876,
      "hahter": 4877,
      "Tabor": 4878,
      "pelpawi": 4879,
      "shaddai": 4880,
      "Hngalhthiamnak": 4881,
      "Remaliah": 4882,
      "mipuarhrang": 4883,
      "Meribah": 4884,
      "cenhmi": 4885,
      "vawlhpamh": 4886,
      "aamahkhan": 4887,
      "Jerahmeel": 4888,
      "Aijalon": 4889,
      "Cabuai": 4890,
      "Deborah": 4891,
      "Iskariot": 4892,
      "Thesalonika": 4893,
      "Aza": 4894,
      "Adar": 4895,
      "Ahmaanmi": 4896,
      "Buk": 4897,
      "Ceng": 4898,
      "Ed": 4899,
      "Ei": 4900,
      "Ethan": 4901,
      "Fung": 4902,
      "Fing": 4903,
      "Gam": 4904,
      "Hinnom": 4905,
      "Jan": 4906,
      "Mas": 4907,
      "Ning": 4908,
      "Oth": 4909,
      "Rumnak": 4910,
      "Shuh": 4911,
      "Tuk": 4912,
      "Tro": 4913,
      "Tili": 4914,
      "Tap": 4915,
      "Vok": 4916,
      "Zihmui": 4917,
      "bamah": 4918,
      "cak": 4919,
      "cet": 4920,
      "ceh": 4921,
      "dua": 4922,
      "frah": 4923,
      "hning": 4924,
      "hleh": 4925,
      "mam": 4926,
      "nut": 4927,
      "ppi": 4928,
      "raw": 4929,
      "sobul": 4930,
      "tlawt": 4931,
      "zo": 4932,
      "Ṭihnak": 4933,
      "ṭangmi": 4934,
      "naan": 4935,
      "nathan": 4936,
      "naunu": 4937,
      "cuti": 4938,
      "awkh": 4939,
      "miporhlaw": 4940,
      "mizeng": 4941,
      "miruamkai": 4942,
      "laang": 4943,
      "khaa": 4944,
      "chaih": 4945,
      "pat": 4946,
      "paz": 4947,
      "almi": 4948,
      "teshazzar": 4949,
      "umhmun": 4950,
      "ṭhinh": 4951,
      "caṭial": 4952,
      "kaniah": 4953,
      "uatnak": 4954,
      "pit": 4955,
      "mahle": 4956,
      "kol": 4957,
      "phut": 4958,
      "faah": 4959,
      "khualak": 4960,
      "khuarit": 4961,
      "lisia": 4962,
      "chimbu": 4963,
      "Jeh": 4964,
      "Jerem": 4965,
      "Jeush": 4966,
      "Jeroh": 4967,
      "hngar": 4968,
      "pekning": 4969,
      "sakhi": 4970,
      "pakhatte": 4971,
      "vacung": 4972,
      "zaih": 4973,
      "zaza": 4974,
      "zapei": 4975,
      "ummim": 4976,
      "Kad": 4977,
      "cip": 4978,
      "shah": 4979,
      "shak": 4980,
      "shbe": 4981,
      "nganter": 4982,
      "chimhning": 4983,
      "Dathan": 4984,
      "zohpiak": 4985,
      "emuel": 4986,
      "rolh": 4987,
      "rocar": 4988,
      "kamter": 4989,
      "theihhngalh": 4990,
      "ṭhirual": 4991,
      "kumvoi": 4992,
      "Sifahnak": 4993,
      "Silisia": 4994,
      "tlakning": 4995,
      "Jobab": 4996,
      "lengmangnak": 4997,
      "reltu": 4998,
      "chinmi": 4999,
      "hlannak": 5000,
      "Baanah": 5001,
      "thingthluan": 5002,
      "theipar": 5003,
      "keuh": 5004,
      "kepi": 5005,
      "kedah": 5006,
      "keza": 5007,
      "reth": 5008,
      "cawtu": 5009,
      "kirmi": 5010,
      "khinhmi": 5011,
      "nanmahle": 5012,
      "ṭihphannak": 5013,
      "fik": 5014,
      "Khamhnak": 5015,
      "dohpiak": 5016,
      "unaule": 5017,
      "tawne": 5018,
      "thomi": 5019,
      "tholung": 5020,
      "tlukter": 5021,
      "auhnawh": 5022,
      "chunte": 5023,
      "suiluchin": 5024,
      "Beel": 5025,
      "Bezalel": 5026,
      "zanṭim": 5027,
      "kiptuh": 5028,
      "ṭiltlawt": 5029,
      "phit": 5030,
      "riahcaw": 5031,
      "Shef": 5032,
      "Shere": 5033,
      "Shekaniah": 5034,
      "Zebadiah": 5035,
      "Big": 5036,
      "Bikhri": 5037,
      "kawlpiak": 5038,
      "Babilonia": 5039,
      "Peor": 5040,
      "Pedaiah": 5041,
      "Elife": 5042,
      "Niko": 5043,
      "auhmi": 5044,
      "ehum": 5045,
      "rungrul": 5046,
      "timhtuahnak": 5047,
      "chawlehnak": 5048,
      "sinumpa": 5049,
      "thuhkanh": 5050,
      "hlawtmi": 5051,
      "dawhcah": 5052,
      "olhnak": 5053,
      "pumhhnawh": 5054,
      "daithl": 5055,
      "Molek": 5056,
      "Rezin": 5057,
      "zawntu": 5058,
      "santlaihnak": 5059,
      "carmi": 5060,
      "Biaknak": 5061,
      "Lamek": 5062,
      "hmeinu": 5063,
      "chep": 5064,
      "chehnak": 5065,
      "ṭheknak": 5066,
      "zualko": 5067,
      "farle": 5068,
      "buarnak": 5069,
      "hmaanlo": 5070,
      "Arpak": 5071,
      "Innleng": 5072,
      "fuhmi": 5073,
      "Maresh": 5074,
      "phorhter": 5075,
      "cawmmi": 5076,
      "Zanriah": 5077,
      "Uzza": 5078,
      "Bawiṭhutdan": 5079,
      "Zuri": 5080,
      "Chiti": 5081,
      "khimh": 5082,
      "thlennak": 5083,
      "Araunah": 5084,
      "barnea": 5085,
      "Karmi": 5086,
      "Hormah": 5087,
      "cuainak": 5088,
      "Korin": 5089,
      "phengphel": 5090,
      "maknak": 5091,
      "zawmhtaihnak": 5092,
      "Gaal": 5093,
      "cuahmahmi": 5094,
      "vakmi": 5095,
      "Sihlah": 5096,
      "nehmi": 5097,
      "ṭanṭinak": 5098,
      "phungbuarnak": 5099,
      "fingrilh": 5100,
      "Changvut": 5101,
      "luannak": 5102,
      "Jahath": 5103,
      "ered": 5104,
      "Luz": 5105,
      "Rangtum": 5106,
      "Aksah": 5107,
      "thutnak": 5108,
      "rohmi": 5109,
      "Shobal": 5110,
      "Shunam": 5111,
      "fonghlei": 5112,
      "Belteshazzar": 5113,
      "Palhnak": 5114,
      "hlanhmi": 5115,
      "Peleth": 5116,
      "khohter": 5117,
      "Khuaruahhar": 5118,
      "Meshek": 5119,
      "Oholibamah": 5120,
      "Makkedah": 5121,
      "Hruaitu": 5122,
      "Camcawh": 5123,
      "maimaw": 5124,
      "Riahhmun": 5125,
      "Tehte": 5126,
      "Feliks": 5127,
      "Cenghngia": 5128,
      "hninghno": 5129,
      "Jeroham": 5130,
      "Mareshah": 5131,
      "Au": 5132,
      "Akh": 5133,
      "Adah": 5134,
      "Afek": 5135,
      "Dor": 5136,
      "Evi": 5137,
      "Elon": 5138,
      "Ebal": 5139,
      "Gir": 5140,
      "Haro": 5141,
      "Ira": 5142,
      "Ittai": 5143,
      "Krit": 5144,
      "Khem": 5145,
      "Mem": 5146,
      "Mad": 5147,
      "Nai": 5148,
      "Onan": 5149,
      "Pang": 5150,
      "Por": 5151,
      "Rehum": 5152,
      "Tel": 5153,
      "Taan": 5154,
      "Teitu": 5155,
      "Unau": 5156,
      "Urim": 5157,
      "Vanhramdeng": 5158,
      "Zul": 5159,
      "asi": 5160,
      "asilo": 5161,
      "dummi": 5162,
      "eg": 5163,
      "fut": 5164,
      "gar": 5165,
      "hli": 5166,
      "huk": 5167,
      "hlon": 5168,
      "ik": 5169,
      "iang": 5170,
      "map": 5171,
      "moth": 5172,
      "neli": 5173,
      "opa": 5174,
      "odi": 5175,
      "puang": 5176,
      "pok": 5177,
      "sahmul": 5178,
      "vuih": 5179,
      "zim": 5180,
      "ṭeng": 5181,
      "ahem": 5182,
      "cuhleiah": 5183,
      "khawm": 5184,
      "khumhnak": 5185,
      "hnatonh": 5186,
      "hnachet": 5187,
      "then": 5188,
      "miralṭha": 5189,
      "latu": 5190,
      "khap": 5191,
      "sibawi": 5192,
      "sias": 5193,
      "pau": 5194,
      "tun": 5195,
      "ungkung": 5196,
      "ten": 5197,
      "teng": 5198,
      "tenai": 5199,
      "tekem": 5200,
      "umtak": 5201,
      "umruang": 5202,
      "sek": 5203,
      "ṭhih": 5204,
      "ṭhennak": 5205,
      "cakhenh": 5206,
      "iau": 5207,
      "Pale": 5208,
      "phuat": 5209,
      "phulhmi": 5210,
      "biar": 5211,
      "biatu": 5212,
      "biachimnak": 5213,
      "fapawi": 5214,
      "faiar": 5215,
      "ternak": 5216,
      "khuasaknak": 5217,
      "pahlei": 5218,
      "Jether": 5219,
      "rikam": 5220,
      "kalh": 5221,
      "sathi": 5222,
      "safaiar": 5223,
      "innpi": 5224,
      "nutling": 5225,
      "nuhmeinu": 5226,
      "pakhatpa": 5227,
      "surh": 5228,
      "vaim": 5229,
      "awnnak": 5230,
      "lungkhat": 5231,
      "lunghrinnak": 5232,
      "hlinh": 5233,
      "hliau": 5234,
      "raltu": 5235,
      "hmuhhngan": 5236,
      "lamnai": 5237,
      "bawinak": 5238,
      "thawhṭhannak": 5239,
      "venak": 5240,
      "minthang": 5241,
      "minkhenhnak": 5242,
      "hmunh": 5243,
      "tlangngaikuang": 5244,
      "hngalhpiak": 5245,
      "tinvo": 5246,
      "Zeicaahdah": 5247,
      "bupi": 5248,
      "taol": 5249,
      "thinlung": 5250,
      "zeel": 5251,
      "zebul": 5252,
      "hauh": 5253,
      "ṭit": 5254,
      "zohchih": 5255,
      "rop": 5256,
      "ṭhimi": 5257,
      "kumvui": 5258,
      "nunh": 5259,
      "rawlṭuantu": 5260,
      "chiahhnawh": 5261,
      "tangin": 5262,
      "liote": 5263,
      "cheumi": 5264,
      "cheuchum": 5265,
      "dawp": 5266,
      "ngaihchihnak": 5267,
      "Sau": 5268,
      "Abdon": 5269,
      "thuah": 5270,
      "dirh": 5271,
      "rihter": 5272,
      "Basem": 5273,
      "boa": 5274,
      "thingkuang": 5275,
      "cawmi": 5276,
      "cawleng": 5277,
      "chiathnawh": 5278,
      "Amos": 5279,
      "tanmi": 5280,
      "zumhmi": 5281,
      "thangṭhatmi": 5282,
      "lettu": 5283,
      "pawngin": 5284,
      "pawngte": 5285,
      "ngakchiat": 5286,
      "putter": 5287,
      "thihtak": 5288,
      "phir": 5289,
      "kik": 5290,
      "kian": 5291,
      "riahhnawh": 5292,
      "Hele": 5293,
      "Shemi": 5294,
      "thanhnak": 5295,
      "Khuachung": 5296,
      "Soko": 5297,
      "Thang": 5298,
      "Filipi": 5299,
      "muvanlai": 5300,
      "hruainak": 5301,
      "beuh": 5302,
      "beon": 5303,
      "siapi": 5304,
      "tungvangpalh": 5305,
      "samfa": 5306,
      "dawinak": 5307,
      "Jehozadak": 5308,
      "chawr": 5309,
      "chawhrawl": 5310,
      "rawnram": 5311,
      "lawmhtertu": 5312,
      "Hara": 5313,
      "Vanchiatnak": 5314,
      "shael": 5315,
      "Zibeon": 5316,
      "khiahpiak": 5317,
      "sunghnak": 5318,
      "kuaih": 5319,
      "ohanan": 5320,
      "ziam": 5321,
      "Maon": 5322,
      "lianngannak": 5323,
      "Tuzan": 5324,
      "rimmon": 5325,
      "Dantatnak": 5326,
      "Libia": 5327,
      "khualtlawn": 5328,
      "carter": 5329,
      "thawthaw": 5330,
      "chuahtermi": 5331,
      "Abiezer": 5332,
      "remhmi": 5333,
      "Zabad": 5334,
      "Elim": 5335,
      "Phungthluk": 5336,
      "chinchinmi": 5337,
      "huatmi": 5338,
      "huhphenhnak": 5339,
      "rilhnak": 5340,
      "Chiat": 5341,
      "Pis": 5342,
      "ralṭhami": 5343,
      "beimi": 5344,
      "chuhmi": 5345,
      "lamhchih": 5346,
      "Ngakṭah": 5347,
      "Shema": 5348,
      "ralchanhmi": 5349,
      "Shafat": 5350,
      "Matti": 5351,
      "Herodias": 5352,
      "Sefar": 5353,
      "toidor": 5354,
      "Nahash": 5355,
      "chuahtakmi": 5356,
      "chahlei": 5357,
      "makmi": 5358,
      "tuainak": 5359,
      "Haggi": 5360,
      "cohlangmi": 5361,
      "phawher": 5362,
      "Tola": 5363,
      "Gilboa": 5364,
      "Khereth": 5365,
      "kutdonghrolh": 5366,
      "silla": 5367,
      "Rianṭuantu": 5368,
      "Thlitu": 5369,
      "Azrikam": 5370,
      "Rangleng": 5371,
      "kub": 5372,
      "Akkub": 5373,
      "tlenghnak": 5374,
      "Tlangvalpa": 5375,
      "Lihchim": 5376,
      "Asaiah": 5377,
      "hammi": 5378,
      "Dinah": 5379,
      "dildel": 5380,
      "Aramean": 5381,
      "Eshtaol": 5382,
      "hnemhnak": 5383,
      "Santlai": 5384,
      "cutmat": 5385,
      "ṭuangpi": 5386,
      "Ngaihmanh": 5387,
      "Nimtlau": 5388,
      "Peleg": 5389,
      "cawlcanghter": 5390,
      "suaum": 5391,
      "Oholibah": 5392,
      "Cerhti": 5393,
      "hngatchan": 5394,
      "hngatchanmi": 5395,
      "Mahala": 5396,
      "khuamui": 5397,
      "Menahem": 5398,
      "phokphawher": 5399,
      "Zilpah": 5400,
      "Chimhhrinnak": 5401,
      "Shammah": 5402,
      "Sharon": 5403,
      "Hngalhnak": 5404,
      "Nehemiah": 5405,
      "Bozrah": 5406,
      "Edrei": 5407,
      "Gamaliel": 5408,
      "Othniel": 5409,
      "Tappuah": 5410,
      "cakuat": 5411,
      "Jeremoth": 5412,
      "zaihnawh": 5413,
      "Kadmiel": 5414,
      "Beelzebul": 5415,
      "Shefelah": 5416,
      "Sherebiah": 5417,
      "Khemosh": 5418,
      "asilole": 5419,
      "nelian": 5420,
      "Basemath": 5421,
      "Ang": 5422,
      "Ain": 5423,
      "Akhan": 5424,
      "Ahin": 5425,
      "Aze": 5426,
      "Bah": 5427,
      "Binn": 5428,
      "Biah": 5429,
      "Chu": 5430,
      "Dir": 5431,
      "Deli": 5432,
      "Ezi": 5433,
      "Gal": 5434,
      "Gab": 5435,
      "Hun": 5436,
      "Hnu": 5437,
      "Hrawk": 5438,
      "Hod": 5439,
      "Hrin": 5440,
      "Jamin": 5441,
      "Kulhnak": 5442,
      "Lim": 5443,
      "Ore": 5444,
      "Ofrah": 5445,
      "Pri": 5446,
      "Put": 5447,
      "Ro": 5448,
      "Rawk": 5449,
      "Sair": 5450,
      "Seth": 5451,
      "Ting": 5452,
      "Ui": 5453,
      "bim": 5454,
      "dulh": 5455,
      "ga": 5456,
      "gash": 5457,
      "glah": 5458,
      "hlai": 5459,
      "hum": 5460,
      "jas": 5461,
      "ker": 5462,
      "kawhnak": 5463,
      "menh": 5464,
      "nek": 5465,
      "pong": 5466,
      "ponh": 5467,
      "taa": 5468,
      "ttim": 5469,
      "tawhr": 5470,
      "urim": 5471,
      "vuai": 5472,
      "ṭummi": 5473,
      "anka": 5474,
      "annak": 5475,
      "nar": 5476,
      "naim": 5477,
      "ngu": 5478,
      "nguh": 5479,
      "ngel": 5480,
      "ini": 5481,
      "thung": 5482,
      "mis": 5483,
      "milu": 5484,
      "mingiatu": 5485,
      "laih": 5486,
      "khaka": 5487,
      "nihnak": 5488,
      "titlang": 5489,
      "sirah": 5490,
      "alhter": 5491,
      "uni": 5492,
      "lolak": 5493,
      "lotlau": 5494,
      "lothlo": 5495,
      "teim": 5496,
      "thitlawn": 5497,
      "eiter": 5498,
      "cafung": 5499,
      "cakhenhnak": 5500,
      "iap": 5501,
      "iath": 5502,
      "hrolhnak": 5503,
      "kotu": 5504,
      "Par": 5505,
      "thiantertu": 5506,
      "vilah": 5507,
      "biachawn": 5508,
      "bialehnak": 5509,
      "favai": 5510,
      "leithuan": 5511,
      "cungdot": 5512,
      "terran": 5513,
      "ruhnak": 5514,
      "khuasa": 5515,
      "khuazeihmanh": 5516,
      "tukter": 5517,
      "tukforh": 5518,
      "Jekoni": 5519,
      "zeiti": 5520,
      "saduh": 5521,
      "inner": 5522,
      "baniah": 5523,
      "chuih": 5524,
      "nuel": 5525,
      "awngsil": 5526,
      "Isshi": 5527,
      "cangpa": 5528,
      "vaar": 5529,
      "vaihnak": 5530,
      "lungsi": 5531,
      "lungṭhawng": 5532,
      "lunghrin": 5533,
      "lungdai": 5534,
      "lungpuam": 5535,
      "hluan": 5536,
      "serhnawh": 5537,
      "ralnak": 5538,
      "ralca": 5539,
      "ralthawh": 5540,
      "hmuhning": 5541,
      "zao": 5542,
      "zatlang": 5543,
      "chuahka": 5544,
      "nawhmi": 5545,
      "hmunte": 5546,
      "duhmipa": 5547,
      "Miporhlaw": 5548,
      "Mithathu": 5549,
      "Mishael": 5550,
      "cahang": 5551,
      "tlangrawn": 5552,
      "taksa": 5553,
      "lengmi": 5554,
      "kutke": 5555,
      "kutkhih": 5556,
      "lawngcawng": 5557,
      "nawlpiak": 5558,
      "nawlngeitu": 5559,
      "cirik": 5560,
      "thling": 5561,
      "thlahnak": 5562,
      "hngalhtertu": 5563,
      "buṭit": 5564,
      "hungmi": 5565,
      "langak": 5566,
      "homer": 5567,
      "tama": 5568,
      "biakchawnhnak": 5569,
      "zohchunh": 5570,
      "zohchuk": 5571,
      "ṭuanpiaktu": 5572,
      "eme": 5573,
      "roi": 5574,
      "rok": 5575,
      "kamor": 5576,
      "theihhngan": 5577,
      "pumhter": 5578,
      "hlasa": 5579,
      "hngauh": 5580,
      "biktu": 5581,
      "Sifak": 5582,
      "uila": 5583,
      "luthlung": 5584,
      "hrimhrimmi": 5585,
      "zureu": 5586,
      "domi": 5587,
      "hrihrual": 5588,
      "daang": 5589,
      "datha": 5590,
      "Abbas": 5591,
      "dinhter": 5592,
      "tummi": 5593,
      "dirhnawh": 5594,
      "ṭialpiak": 5595,
      "Khinner": 5596,
      "Khawngsil": 5597,
      "diterran": 5598,
      "aupi": 5599,
      "chilh": 5600,
      "zanter": 5601,
      "teipiak": 5602,
      "phawih": 5603,
      "phawhnak": 5604,
      "tlawmtam": 5605,
      "hmanthlak": 5606,
      "tonter": 5607,
      "thluachuakmi": 5608,
      "Hena": 5609,
      "Shebaniah": 5610,
      "omer": 5611,
      "Khuavang": 5612,
      "Zebo": 5613,
      "thliahmah": 5614,
      "hawidang": 5615,
      "Mede": 5616,
      "Methu": 5617,
      "Meheh": 5618,
      "Mediterran": 5619,
      "muth": 5620,
      "Gib": 5621,
      "hruaimi": 5622,
      "Pela": 5623,
      "Penuel": 5624,
      "hranak": 5625,
      "auhter": 5626,
      "hleih": 5627,
      "rungmi": 5628,
      "timhpiak": 5629,
      "cawhdeh": 5630,
      "Bethsai": 5631,
      "Havilah": 5632,
      "Tishbe": 5633,
      "therh": 5634,
      "cikcekmi": 5635,
      "holhmi": 5636,
      "ratpimi": 5637,
      "husop": 5638,
      "kuaihnak": 5639,
      "fialtu": 5640,
      "Tuukawng": 5641,
      "timmi": 5642,
      "khaanmi": 5643,
      "ṭhitter": 5644,
      "Lunglawm": 5645,
      "Lunglawmhnak": 5646,
      "Gedor": 5647,
      "ṭhentu": 5648,
      "Elnathan": 5649,
      "Phungchimtu": 5650,
      "thurhnawmhnak": 5651,
      "Shil": 5652,
      "Shishak": 5653,
      "biahleng": 5654,
      "Ladan": 5655,
      "Laodi": 5656,
      "nihsawhtu": 5657,
      "Arki": 5658,
      "tlumi": 5659,
      "Innka": 5660,
      "ngammi": 5661,
      "urmar": 5662,
      "khahtertu": 5663,
      "pemnak": 5664,
      "Lotan": 5665,
      "fehtertu": 5666,
      "pawcawmnak": 5667,
      "topaz": 5668,
      "phormi": 5669,
      "Hanok": 5670,
      "hngilhnak": 5671,
      "serpiakmi": 5672,
      "zeroth": 5673,
      "riamhter": 5674,
      "ngeitupa": 5675,
      "hrukmi": 5676,
      "cangkate": 5677,
      "Shaa": 5678,
      "tawiter": 5679,
      "Matthai": 5680,
      "Hlanpi": 5681,
      "kauhter": 5682,
      "khamtu": 5683,
      "tlantu": 5684,
      "hakmi": 5685,
      "saikamor": 5686,
      "temhinter": 5687,
      "hrenmi": 5688,
      "dup": 5689,
      "nganhtami": 5690,
      "Gala": 5691,
      "hngakmi": 5692,
      "Hmunthiang": 5693,
      "Jabbok": 5694,
      "puarhran": 5695,
      "Khebar": 5696,
      "nehsawh": 5697,
      "Kiriathaim": 5698,
      "hlunmi": 5699,
      "Zungthiam": 5700,
      "mirumpa": 5701,
      "hnahnawk": 5702,
      "Malluk": 5703,
      "Azmaveth": 5704,
      "Jahaz": 5705,
      "tazacuai": 5706,
      "Ṭihnung": 5707,
      "ṭale": 5708,
      "Akuila": 5709,
      "Delaiah": 5710,
      "hleinganak": 5711,
      "Dishon": 5712,
      "Shimron": 5713,
      "Mangṭam": 5714,
      "nautat": 5715,
      "thlop": 5716,
      "zengmipa": 5717,
      "tildit": 5718,
      "Dinlonak": 5719,
      "Tahath": 5720,
      "Tahpanh": 5721,
      "Libni": 5722,
      "That": 5723,
      "Zoan": 5724,
      "Millo": 5725,
      "lawkih": 5726,
      "Tungpi": 5727,
      "famua": 5728,
      "Abihail": 5729,
      "Belshazzar": 5730,
      "Jarmuth": 5731,
      "Phai": 5732,
      "Zare": 5733,
      "ṭeklung": 5734,
      "tluangkhawn": 5735,
      "Mirumpa": 5736,
      "Hassh": 5737,
      "Chungchin": 5738,
      "tuammuai": 5739,
      "tuammuaitu": 5740,
      "Ithra": 5741,
      "rengh": 5742,
      "hmetngan": 5743,
      "Zabdi": 5744,
      "Joiarib": 5745,
      "Shebna": 5746,
      "Alekzandar": 5747,
      "Lawkihmi": 5748,
      "Poti": 5749,
      "Tukforhnak": 5750,
      "Jehohanan": 5751,
      "Elifelet": 5752,
      "daithlanh": 5753,
      "Arpakshad": 5754,
      "Korinth": 5755,
      "Girgash": 5756,
      "Zultu": 5757,
      "Pisgah": 5758,
      "Mattithiah": 5759,
      "Sefarvaim": 5760,
      "Angki": 5761,
      "Ahinoam": 5762,
      "Azekah": 5763,
      "Binnui": 5764,
      "Delilah": 5765,
      "Limkeng": 5766,
      "Oreb": 5767,
      "Prisilla": 5768,
      "Sairin": 5769,
      "Tingtang": 5770,
      "jasper": 5771,
      "tawhrolh": 5772,
      "ngelcel": 5773,
      "Jekoniah": 5774,
      "Mediterranean": 5775,
      "Bethsaida": 5776,
      "Laodisia": 5777,
      "Tahpanhes": 5778,
      "Aiah": 5779,
      "Ahmaan": 5780,
      "Ataroth": 5781,
      "Athen": 5782,
      "Bak": 5783,
      "Camh": 5784,
      "Duh": 5785,
      "Dem": 5786,
      "Fo": 5787,
      "Fine": 5788,
      "Gih": 5789,
      "Gem": 5790,
      "Hul": 5791,
      "Hlen": 5792,
      "Hab": 5793,
      "Hmu": 5794,
      "Hnang": 5795,
      "Hrawh": 5796,
      "Hling": 5797,
      "Huatnak": 5798,
      "Ikoni": 5799,
      "Kam": 5800,
      "Ker": 5801,
      "Kuang": 5802,
      "Loth": 5803,
      "Ming": 5804,
      "Mui": 5805,
      "Nob": 5806,
      "Paw": 5807,
      "Pon": 5808,
      "Run": 5809,
      "Rek": 5810,
      "Spa": 5811,
      "Sur": 5812,
      "Tei": 5813,
      "Toi": 5814,
      "Tat": 5815,
      "Talm": 5816,
      "Teinak": 5817,
      "Ur": 5818,
      "Zuar": 5819,
      "Zur": 5820,
      "alak": 5821,
      "azu": 5822,
      "aven": 5823,
      "aziel": 5824,
      "buh": 5825,
      "bong": 5826,
      "buhmi": 5827,
      "eam": 5828,
      "ese": 5829,
      "fni": 5830,
      "feih": 5831,
      "fom": 5832,
      "feh": 5833,
      "ftor": 5834,
      "gel": 5835,
      "hawng": 5836,
      "hrat": 5837,
      "mai": 5838,
      "nuar": 5839,
      "puhnak": 5840,
      "rinnak": 5841,
      "tanh": 5842,
      "trik": 5843,
      "uanh": 5844,
      "yamah": 5845,
      "Ṭiao": 5846,
      "ṭawn": 5847,
      "ṭuak": 5848,
      "ngur": 5849,
      "kheu": 5850,
      "khet": 5851,
      "thelah": 5852,
      "mizeiruaramlo": 5853,
      "angrang": 5854,
      "khami": 5855,
      "khaat": 5856,
      "kak": 5857,
      "chahnak": 5858,
      "chok": 5859,
      "sivang": 5860,
      "pad": 5861,
      "palak": 5862,
      "lainawnnak": 5863,
      "amhmi": 5864,
      "lopa": 5865,
      "lomoth": 5866,
      "techin": 5867,
      "tengh": 5868,
      "thias": 5869,
      "hmihnak": 5870,
      "naniah": 5871,
      "lawhter": 5872,
      "ṭhim": 5873,
      "anhring": 5874,
      "pis": 5875,
      "pimi": 5876,
      "pitu": 5877,
      "sehchih": 5878,
      "hriah": 5879,
      "hrom": 5880,
      "hrennak": 5881,
      "hrelh": 5882,
      "hranhram": 5883,
      "airawl": 5884,
      "Paro": 5885,
      "elu": 5886,
      "viah": 5887,
      "phinnak": 5888,
      "biachimmi": 5889,
      "biachahnak": 5890,
      "pehnak": 5891,
      "pehmi": 5892,
      "ramhnak": 5893,
      "ramkung": 5894,
      "tluan": 5895,
      "Jerim": 5896,
      "Jedia": 5897,
      "rith": 5898,
      "zeicaahdah": 5899,
      "sas": 5900,
      "innah": 5901,
      "innlo": 5902,
      "fapar": 5903,
      "vaih": 5904,
      "amahle": 5905,
      "lungtak": 5906,
      "lungput": 5907,
      "lungherh": 5908,
      "lungfahnak": 5909,
      "lungawṭawm": 5910,
      "nithla": 5911,
      "ralzam": 5912,
      "lamhmi": 5913,
      "uanthlar": 5914,
      "zaoh": 5915,
      "ukang": 5916,
      "nawm": 5917,
      "Kaftor": 5918,
      "duhsah": 5919,
      "dehmi": 5920,
      "demu": 5921,
      "Mib": 5922,
      "Mith": 5923,
      "dingte": 5924,
      "ṭhancho": 5925,
      "Jeshi": 5926,
      "thlatu": 5927,
      "thlauhmi": 5928,
      "dangh": 5929,
      "ruahtu": 5930,
      "ruahchih": 5931,
      "ruahchihmi": 5932,
      "zek": 5933,
      "hat": 5934,
      "tammi": 5935,
      "hunmi": 5936,
      "hunhnawh": 5937,
      "hunhmi": 5938,
      "ṭuanning": 5939,
      "emoth": 5940,
      "romi": 5941,
      "rokuang": 5942,
      "kumfate": 5943,
      "thahter": 5944,
      "chantling": 5945,
      "chanrelnak": 5946,
      "meialh": 5947,
      "zalmi": 5948,
      "khiangrang": 5949,
      "hlathlai": 5950,
      "hlasaknak": 5951,
      "Sidar": 5952,
      "kapza": 5953,
      "thawngthanhnak": 5954,
      "cheuhnak": 5955,
      "sakter": 5956,
      "ngaihmi": 5957,
      "puanki": 5958,
      "zualnak": 5959,
      "dol": 5960,
      "doram": 5961,
      "thongh": 5962,
      "pariatnak": 5963,
      "damiah": 5964,
      "Abarim": 5965,
      "thuang": 5966,
      "rihning": 5967,
      "thingah": 5968,
      "cawhnak": 5969,
      "hternak": 5970,
      "nupichun": 5971,
      "ṭialning": 5972,
      "Amas": 5973,
      "Bebai": 5974,
      "Bekher": 5975,
      "hrawhpiak": 5976,
      "zaniah": 5977,
      "saunak": 5978,
      "sauter": 5979,
      "ngaknut": 5980,
      "sawhmi": 5981,
      "hmannak": 5982,
      "phiak": 5983,
      "phichuak": 5984,
      "velhnak": 5985,
      "khenhchih": 5986,
      "Ralhruang": 5987,
      "Shelomi": 5988,
      "Shelomoth": 5989,
      "thanter": 5990,
      "Zeeb": 5991,
      "Thummim": 5992,
      "Biangai": 5993,
      "shem": 5994,
      "shean": 5995,
      "thawkmi": 5996,
      "thawknak": 5997,
      "muihter": 5998,
      "Gid": 5999,
      "Pedah": 6000,
      "sunpar": 6001,
      "remrel": 6002,
      "Ngol": 6003,
      "darik": 6004,
      "tlingte": 6005,
      "Nebai": 6006,
      "zohkhenhmi": 6007,
      "lektak": 6008,
      "Hazeroth": 6009,
      "Ramdang": 6010,
      "chawntu": 6011,
      "tatmi": 6012,
      "Biading": 6013,
      "Tig": 6014,
      "Tikhor": 6015,
      "vuimi": 6016,
      "vuitu": 6017,
      "vuiter": 6018,
      "dawhte": 6019,
      "menpiak": 6020,
      "pumhkhawmh": 6021,
      "chumh": 6022,
      "lihbia": 6023,
      "valpa": 6024,
      "karlakah": 6025,
      "karnelian": 6026,
      "zib": 6027,
      "thlaknak": 6028,
      "Ref": 6029,
      "fihmi": 6030,
      "zumhawktlakmi": 6031,
      "muimi": 6032,
      "tawngtham": 6033,
      "List": 6034,
      "ṭapmi": 6035,
      "thawmi": 6036,
      "Abib": 6037,
      "Abishua": 6038,
      "Gede": 6039,
      "Hmuh": 6040,
      "ṭhenmi": 6041,
      "hlawhhlannak": 6042,
      "tarpa": 6043,
      "Shilon": 6044,
      "Shittim": 6045,
      "Shinar": 6046,
      "luhpitu": 6047,
      "Baalah": 6048,
      "Ahio": 6049,
      "Ahiezer": 6050,
      "Arpad": 6051,
      "nawnmi": 6052,
      "fahter": 6053,
      "pehtlaih": 6054,
      "tlimi": 6055,
      "Pirath": 6056,
      "thleidanmi": 6057,
      "Rawlṭam": 6058,
      "zuartu": 6059,
      "linmi": 6060,
      "ṭawlpiak": 6061,
      "zuahmah": 6062,
      "zernak": 6063,
      "chamnak": 6064,
      "ranak": 6065,
      "Jael": 6066,
      "Jakhin": 6067,
      "Rial": 6068,
      "khimter": 6069,
      "khup": 6070,
      "zaumi": 6071,
      "zaunak": 6072,
      "congoihnak": 6073,
      "Matta": 6074,
      "Kib": 6075,
      "Kishon": 6076,
      "tlanhmi": 6077,
      "tihang": 6078,
      "tihnawh": 6079,
      "Azarel": 6080,
      "miakmi": 6081,
      "hmaizahmi": 6082,
      "kuaimi": 6083,
      "hakkauhnak": 6084,
      "khihmi": 6085,
      "Timna": 6086,
      "Mupi": 6087,
      "nganhta": 6088,
      "hlampiak": 6089,
      "hngaktu": 6090,
      "Nathanael": 6091,
      "hnawmpon": 6092,
      "rawhmi": 6093,
      "ṭanhmi": 6094,
      "charmi": 6095,
      "Eliasaf": 6096,
      "maakah": 6097,
      "dottu": 6098,
      "geber": 6099,
      "hleilinak": 6100,
      "hawhawt": 6101,
      "mihring": 6102,
      "siling": 6103,
      "Rianṭuan": 6104,
      "Azel": 6105,
      "Zerahiah": 6106,
      "setsai": 6107,
      "luhhnawhmi": 6108,
      "Maakath": 6109,
      "Lud": 6110,
      "Ngunkhuai": 6111,
      "Shimea": 6112,
      "cengceh": 6113,
      "lainawngmi": 6114,
      "hronak": 6115,
      "Ammiel": 6116,
      "Gomer": 6117,
      "Mangbawi": 6118,
      "cekce": 6119,
      "thlongh": 6120,
      "sualternak": 6121,
      "Asshur": 6122,
      "Eshtem": 6123,
      "Shur": 6124,
      "Shuthelah": 6125,
      "Milkom": 6126,
      "cawihtu": 6127,
      "chingchiahnak": 6128,
      "Laish": 6129,
      "ostrik": 6130,
      "bethon": 6131,
      "Tungvangpalh": 6132,
      "mettu": 6133,
      "khuazingnu": 6134,
      "vawlpam": 6135,
      "Ngaihchia": 6136,
      "Ngaihchiatnak": 6137,
      "Enosh": 6138,
      "Pallu": 6139,
      "Chawdawr": 6140,
      "Pahath": 6141,
      "moab": 6142,
      "Joktan": 6143,
      "thlep": 6144,
      "vuanzi": 6145,
      "zirziarnak": 6146,
      "Ariok": 6147,
      "Himnak": 6148,
      "Meremoth": 6149,
      "Sinum": 6150,
      "molhter": 6151,
      "ngangngan": 6152,
      "ngakchianute": 6153,
      "Shammua": 6154,
      "Shammai": 6155,
      "zokzok": 6156,
      "sialpiak": 6157,
      "Fihnung": 6158,
      "Pekchanh": 6159,
      "khitkhet": 6160,
      "Sibmah": 6161,
      "Bawmtu": 6162,
      "Goliath": 6163,
      "Zarhpi": 6164,
      "Hremmi": 6165,
      "diahmah": 6166,
      "Migdol": 6167,
      "Jeshaiah": 6168,
      "Bukki": 6169,
      "Troas": 6170,
      "mizengpa": 6171,
      "Bigvai": 6172,
      "Nikodemu": 6173,
      "Naioth": 6174,
      "Taanak": 6175,
      "ṭengnge": 6176,
      "tengtung": 6177,
      "chawhrawlnak": 6178,
      "suaumau": 6179,
      "Bahurim": 6180,
      "Chuak": 6181,
      "Ezion": 6182,
      "Hodiah": 6183,
      "inisia": 6184,
      "Isshiah": 6185,
      "Gibbethon": 6186,
      "Hasshub": 6187,
      "Athens": 6188,
      "Foinisia": 6189,
      "Finehas": 6190,
      "Gihon": 6191,
      "Ikonium": 6192,
      "Spain": 6193,
      "Talmai": 6194,
      "Parosh": 6195,
      "Jerimoth": 6196,
      "Jediael": 6197,
      "Amasai": 6198,
      "Listra": 6199,
      "Pirathon": 6200,
      "Av": 6201,
      "Ater": 6202,
      "Akhor": 6203,
      "Ber": 6204,
      "Cang": 6205,
      "Cuai": 6206,
      "Der": 6207,
      "Em": 6208,
      "Epa": 6209,
      "Enan": 6210,
      "Ebia": 6211,
      "Etam": 6212,
      "Eder": 6213,
      "Elath": 6214,
      "Gai": 6215,
      "Guni": 6216,
      "Hau": 6217,
      "Hnah": 6218,
      "Hrokhrawl": 6219,
      "Hnek": 6220,
      "Hnawm": 6221,
      "Ir": 6222,
      "Jas": 6223,
      "Jad": 6224,
      "Kit": 6225,
      "On": 6226,
      "Okh": 6227,
      "Ono": 6228,
      "One": 6229,
      "Ofel": 6230,
      "Pam": 6231,
      "Phuh": 6232,
      "Sung": 6233,
      "Shun": 6234,
      "Soi": 6235,
      "Tum": 6236,
      "Tli": 6237,
      "Tuan": 6238,
      "Ter": 6239,
      "Thar": 6240,
      "Talmon": 6241,
      "Zah": 6242,
      "Zam": 6243,
      "Zumtu": 6244,
      "Zalmon": 6245,
      "bbe": 6246,
      "dennak": 6247,
      "deiah": 6248,
      "ddim": 6249,
      "enan": 6250,
      "ehmi": 6251,
      "eath": 6252,
      "fo": 6253,
      "fuk": 6254,
      "giel": 6255,
      "haw": 6256,
      "hawl": 6257,
      "ith": 6258,
      "iim": 6259,
      "itmi": 6260,
      "ja": 6261,
      "jam": 6262,
      "kih": 6263,
      "keu": 6264,
      "kui": 6265,
      "lun": 6266,
      "mua": 6267,
      "mihm": 6268,
      "nuai": 6269,
      "neiah": 6270,
      "oa": 6271,
      "pul": 6272,
      "pelh": 6273,
      "pelah": 6274,
      "star": 6275,
      "unaunu": 6276,
      "via": 6277,
      "vamh": 6278,
      "vurmar": 6279,
      "zon": 6280,
      "Ṭah": 6281,
      "Ṭek": 6282,
      "ṭak": 6283,
      "ṭuk": 6284,
      "ṭom": 6285,
      "ṭeh": 6286,
      "anṭam": 6287,
      "annim": 6288,
      "ahath": 6289,
      "naanah": 6290,
      "kheth": 6291,
      "khep": 6292,
      "khnawhmi": 6293,
      "ihthiam": 6294,
      "ino": 6295,
      "inpi": 6296,
      "hnalh": 6297,
      "the": 6298,
      "mina": 6299,
      "michia": 6300,
      "milh": 6301,
      "mitling": 6302,
      "milianngan": 6303,
      "mirethei": 6304,
      "mithathu": 6305,
      "lazu": 6306,
      "laomer": 6307,
      "lapis": 6308,
      "kalai": 6309,
      "nihlawh": 6310,
      "tikuang": 6311,
      "tivarek": 6312,
      "leam": 6313,
      "leel": 6314,
      "chawng": 6315,
      "chor": 6316,
      "alo": 6317,
      "turah": 6318,
      "tuhmui": 6319,
      "laite": 6320,
      "lainawn": 6321,
      "nakzik": 6322,
      "unim": 6323,
      "temis": 6324,
      "umsertu": 6325,
      "awinak": 6326,
      "hmum": 6327,
      "hminmi": 6328,
      "selah": 6329,
      "cau": 6330,
      "cafang": 6331,
      "pithlung": 6332,
      "chungthin": 6333,
      "chungchuak": 6334,
      "razim": 6335,
      "hrel": 6336,
      "hreu": 6337,
      "hrawkh": 6338,
      "kok": 6339,
      "kon": 6340,
      "kor": 6341,
      "kos": 6342,
      "koz": 6343,
      "Pagiel": 6344,
      "khatlei": 6345,
      "phol": 6346,
      "biakamhmi": 6347,
      "peor": 6348,
      "ari": 6349,
      "arah": 6350,
      "leitu": 6351,
      "terte": 6352,
      "ramro": 6353,
      "rug": 6354,
      "ruannak": 6355,
      "lakter": 6356,
      "lakkanh": 6357,
      "khualeng": 6358,
      "pahranak": 6359,
      "ris": 6360,
      "kaltertu": 6361,
      "kalhnawhmi": 6362,
      "pekter": 6363,
      "saza": 6364,
      "sayamah": 6365,
      "innte": 6366,
      "inning": 6367,
      "chuangtu": 6368,
      "dihnak": 6369,
      "Ishi": 6370,
      "cangai": 6371,
      "vaam": 6372,
      "onnak": 6373,
      "thilṭha": 6374,
      "thilṭhalo": 6375,
      "awlnak": 6376,
      "lungtum": 6377,
      "lungfim": 6378,
      "lungṭhawnnak": 6379,
      "lungrual": 6380,
      "lungriam": 6381,
      "lungpon": 6382,
      "lungkhong": 6383,
      "lungtekem": 6384,
      "hluai": 6385,
      "sertermi": 6386,
      "nichuah": 6387,
      "nizan": 6388,
      "lamnak": 6389,
      "lamkalai": 6390,
      "hngalthiam": 6391,
      "zabok": 6392,
      "ngaphaw": 6393,
      "thawhpi": 6394,
      "mino": 6395,
      "Kalauk": 6396,
      "duhter": 6397,
      "det": 6398,
      "demh": 6399,
      "deuhnak": 6400,
      "deur": 6401,
      "Mipuar": 6402,
      "cahmi": 6403,
      "tlangpi": 6404,
      "Annas": 6405,
      "ṭhantertu": 6406,
      "lengnu": 6407,
      "kutro": 6408,
      "kuttum": 6409,
      "kuttlaihnak": 6410,
      "nawlngaihnak": 6411,
      "thlangh": 6412,
      "Naamah": 6413,
      "thlachiat": 6414,
      "shal": 6415,
      "Zeipaoh": 6416,
      "salchuak": 6417,
      "ruahpiak": 6418,
      "Jubili": 6419,
      "thintawi": 6420,
      "nganfak": 6421,
      "langhlat": 6422,
      "holah": 6423,
      "zem": 6424,
      "zez": 6425,
      "thiangte": 6426,
      "lawmmam": 6427,
      "hag": 6428,
      "haz": 6429,
      "habiah": 6430,
      "tlakhnawh": 6431,
      "ṭhitumnak": 6432,
      "nunnuam": 6433,
      "thahpiak": 6434,
      "lemeth": 6435,
      "meivannak": 6436,
      "rawlṭuan": 6437,
      "pumhmi": 6438,
      "danhnak": 6439,
      "hlatmi": 6440,
      "Sizar": 6441,
      "mitleh": 6442,
      "mitfang": 6443,
      "mithnawm": 6444,
      "zumhter": 6445,
      "ruangmang": 6446,
      "nungdam": 6447,
      "zungzaltu": 6448,
      "Jozadak": 6449,
      "cheutu": 6450,
      "lud": 6451,
      "bara": 6452,
      "zeitindik": 6453,
      "kharvar": 6454,
      "kharkanh": 6455,
      "hleimi": 6456,
      "hleiriatnak": 6457,
      "thap": 6458,
      "hnawn": 6459,
      "daviah": 6460,
      "thlahdorh": 6461,
      "thumi": 6462,
      "thuangtu": 6463,
      "dirhmun": 6464,
      "Bara": 6465,
      "namte": 6466,
      "nambar": 6467,
      "theitu": 6468,
      "kep": 6469,
      "keph": 6470,
      "kemh": 6471,
      "kechi": 6472,
      "cawpi": 6473,
      "balmi": 6474,
      "balsam": 6475,
      "tuutum": 6476,
      "cawnnak": 6477,
      "ṭihnunnak": 6478,
      "fis": 6479,
      "fiak": 6480,
      "fidim": 6481,
      "filia": 6482,
      "Khuah": 6483,
      "dis": 6484,
      "dit": 6485,
      "Mahlah": 6486,
      "chuncha": 6487,
      "Lehi": 6488,
      "Levia": 6489,
      "Bezer": 6490,
      "cozah": 6491,
      "khamhmi": 6492,
      "oiim": 6493,
      "hnawhpiak": 6494,
      "runven": 6495,
      "pawngri": 6496,
      "vaireu": 6497,
      "Fater": 6498,
      "tlawmmi": 6499,
      "ṭilva": 6500,
      "khikas": 6501,
      "Helon": 6502,
      "Hegai": 6503,
      "Ralbawi": 6504,
      "Ralhau": 6505,
      "Ralrinnak": 6506,
      "Shethar": 6507,
      "Sheshan": 6508,
      "Shedeur": 6509,
      "thantu": 6510,
      "Thlapa": 6511,
      "tivakam": 6512,
      "ṭhuttertu": 6513,
      "Khuari": 6514,
      "Khuazing": 6515,
      "Khuasik": 6516,
      "Khuaihli": 6517,
      "zingfate": 6518,
      "Mehe": 6519,
      "Meshi": 6520,
      "Meunim": 6521,
      "kawltu": 6522,
      "palpah": 6523,
      "dawtle": 6524,
      "muel": 6525,
      "mernak": 6526,
      "Elizur": 6527,
      "asah": 6528,
      "beo": 6529,
      "mandar": 6530,
      "Nge": 6531,
      "ceuter": 6532,
      "Nefe": 6533,
      "rawnh": 6534,
      "lekmi": 6535,
      "meon": 6536,
      "Haotu": 6537,
      "Hattu": 6538,
      "rawkral": 6539,
      "Ramcar": 6540,
      "Ramese": 6541,
      "shag": 6542,
      "shath": 6543,
      "tharte": 6544,
      "penmi": 6545,
      "bochannak": 6546,
      "Moza": 6547,
      "karhnak": 6548,
      "pengtu": 6549,
      "bbas": 6550,
      "cawkpiak": 6551,
      "innkaba": 6552,
      "Rehabiah": 6553,
      "Refidim": 6554,
      "miṭhalopa": 6555,
      "hlok": 6556,
      "Mago": 6557,
      "cinthlakmi": 6558,
      "Manahath": 6559,
      "mehehfa": 6560,
      "tawnghmi": 6561,
      "Assir": 6562,
      "serhtu": 6563,
      "Lianhngan": 6564,
      "Lidia": 6565,
      "feas": 6566,
      "timtu": 6567,
      "khualpa": 6568,
      "khualtlawng": 6569,
      "thianhtu": 6570,
      "nuamter": 6571,
      "ciar": 6572,
      "manhmi": 6573,
      "Abidan": 6574,
      "Abijam": 6575,
      "Abishag": 6576,
      "hmuhsaktu": 6577,
      "remhtu": 6578,
      "hnit": 6579,
      "Lamhlat": 6580,
      "Rilikam": 6581,
      "Lungpang": 6582,
      "Lungthli": 6583,
      "hmemi": 6584,
      "inhliam": 6585,
      "thauthau": 6586,
      "Raamah": 6587,
      "ṭhenning": 6588,
      "Zattu": 6589,
      "Elimelek": 6590,
      "nahchuak": 6591,
      "hlawhtlinnak": 6592,
      "tarh": 6593,
      "thuknak": 6594,
      "ṭhawlthiam": 6595,
      "thawhtermi": 6596,
      "thawhternak": 6597,
      "fangkha": 6598,
      "fangvoi": 6599,
      "Ahira": 6600,
      "Ahilud": 6601,
      "dorlaomer": 6602,
      "Arfi": 6603,
      "Artemis": 6604,
      "dernak": 6605,
      "ngamter": 6606,
      "lahrual": 6607,
      "mihrutpa": 6608,
      "sayapa": 6609,
      "tlikhnawh": 6610,
      "chuankhan": 6611,
      "chuanpiak": 6612,
      "ṭhialpiak": 6613,
      "fehtermi": 6614,
      "pawt": 6615,
      "pawlai": 6616,
      "rialmi": 6617,
      "cuarpartannak": 6618,
      "cawmtu": 6619,
      "Zanoah": 6620,
      "Zanṭim": 6621,
      "danhpiak": 6622,
      "ṭawlning": 6623,
      "thalkah": 6624,
      "thalbawm": 6625,
      "Eleasah": 6626,
      "Anmahle": 6627,
      "somh": 6628,
      "Uzzah": 6629,
      "palhmi": 6630,
      "chambau": 6631,
      "serhsatmi": 6632,
      "Elealeh": 6633,
      "Javan": 6634,
      "Jafia": 6635,
      "Shelu": 6636,
      "Salmon": 6637,
      "Saltannak": 6638,
      "cittu": 6639,
      "Keturah": 6640,
      "congh": 6641,
      "conglawmhnak": 6642,
      "toihmi": 6643,
      "Arad": 6644,
      "tlor": 6645,
      "Shaal": 6646,
      "Seba": 6647,
      "Serug": 6648,
      "hnuktu": 6649,
      "hnuktlai": 6650,
      "Kil": 6651,
      "Kore": 6652,
      "zuanpi": 6653,
      "Nahath": 6654,
      "hninhmi": 6655,
      "ihpimi": 6656,
      "tlanter": 6657,
      "ṭheoṭheo": 6658,
      "kenkiplo": 6659,
      "thlengtu": 6660,
      "tuaitam": 6661,
      "hmurka": 6662,
      "Galal": 6663,
      "hlimh": 6664,
      "Hosah": 6665,
      "Hofni": 6666,
      "Hodaviah": 6667,
      "lungthote": 6668,
      "Gideoni": 6669,
      "Khenaanah": 6670,
      "Khedorlaomer": 6671,
      "khumlahrual": 6672,
      "tuante": 6673,
      "ṭiaotak": 6674,
      "rilhter": 6675,
      "mertakmi": 6676,
      "Puanzar": 6677,
      "Admah": 6678,
      "Zingka": 6679,
      "hutmi": 6680,
      "ngakchiapate": 6681,
      "Gozan": 6682,
      "zamtakmi": 6683,
      "Jahaziel": 6684,
      "khawlh": 6685,
      "tleumi": 6686,
      "taanter": 6687,
      "Tarsas": 6688,
      "Zaangfah": 6689,
      "Dishan": 6690,
      "Shimri": 6691,
      "rinkuar": 6692,
      "senduk": 6693,
      "Ammishaddai": 6694,
      "kingh": 6695,
      "Hushath": 6696,
      "Oholah": 6697,
      "Oholia": 6698,
      "gotha": 6699,
      "Ishvi": 6700,
      "Fiang": 6701,
      "Imnah": 6702,
      "Dodo": 6703,
      "Doeg": 6704,
      "chawdawrnak": 6705,
      "kawngh": 6706,
      "zumhtlaklo": 6707,
      "Berea": 6708,
      "zelṭuang": 6709,
      "siannak": 6710,
      "Malkhishua": 6711,
      "nenhmi": 6712,
      "Buz": 6713,
      "Nimshi": 6714,
      "Zakia": 6715,
      "oniks": 6716,
      "Jared": 6717,
      "celhnak": 6718,
      "mawngh": 6719,
      "awnhhnawh": 6720,
      "Khualipi": 6721,
      "Alfeas": 6722,
      "Pahnih": 6723,
      "Hlasatu": 6724,
      "Kushan": 6725,
      "buanbara": 6726,
      "bultawltu": 6727,
      "Makpelah": 6728,
      "Thinhun": 6729,
      "Ṭhalopa": 6730,
      "khawpi": 6731,
      "Aristar": 6732,
      "Purim": 6733,
      "pemhter": 6734,
      "Hell": 6735,
      "Taza": 6736,
      "Tema": 6737,
      "Temhnak": 6738,
      "phoktu": 6739,
      "Hakkoz": 6740,
      "Urijah": 6741,
      "Golgotha": 6742,
      "hnatlakpi": 6743,
      "senghnak": 6744,
      "Bildad": 6745,
      "Hashum": 6746,
      "Zipporah": 6747,
      "Holhtheihlo": 6748,
      "Jashub": 6749,
      "ṭumchuknak": 6750,
      "Tilian": 6751,
      "khaatnak": 6752,
      "Zurishaddai": 6753,
      "Memfis": 6754,
      "hlonhmi": 6755,
      "pahleikhat": 6756,
      "Helez": 6757,
      "Haggith": 6758,
      "Mahalalel": 6759,
      "Gabriel": 6760,
      "Uico": 6761,
      "taavah": 6762,
      "teima": 6763,
      "thitlawnthiam": 6764,
      "saduhthah": 6765,
      "lunghrinh": 6766,
      "emeral": 6767,
      "Zeboiim": 6768,
      "Medeba": 6769,
      "Methuselah": 6770,
      "Pelatiah": 6771,
      "hleihlak": 6772,
      "Tishbemi": 6773,
      "Bakbuk": 6774,
      "Gemariah": 6775,
      "Hnangam": 6776,
      "Rekem": 6777,
      "anhringso": 6778,
      "hattaavah": 6779,
      "Shelomith": 6780,
      "Pedahzur": 6781,
      "Nebaioth": 6782,
      "Kibroth": 6783,
      "Eshtemoa": 6784,
      "Derbe": 6785,
      "Epaf": 6786,
      "Ebiasaf": 6787,
      "Gaius": 6788,
      "Hneksaknak": 6789,
      "Hnawmpon": 6790,
      "Jason": 6791,
      "Okhran": 6792,
      "Onesi": 6793,
      "Pamfilia": 6794,
      "ṭukṭak": 6795,
      "lazuli": 6796,
      "kechik": 6797,
      "Khuahrum": 6798,
      "Leviathan": 6799,
      "Khuaihliti": 6800,
      "Meshil": 6801,
      "mandarek": 6802,
      "Hattush": 6803,
      "Rameses": 6804,
      "Magog": 6805,
      "Lianhngannak": 6806,
      "Shelumiel": 6807,
      "Oholiab": 6808,
      "Aristarkas": 6809,
      "Azu": 6810,
      "Adin": 6811,
      "Are": 6812,
      "Arah": 6813,
      "Arim": 6814,
      "Ashan": 6815,
      "Abad": 6816,
      "Attai": 6817,
      "Adiel": 6818,
      "Alemeth": 6819,
      "Bam": 6820,
      "Buan": 6821,
      "Benh": 6822,
      "Belh": 6823,
      "Can": 6824,
      "Cawh": 6825,
      "Dinh": 6826,
      "Eth": 6827,
      "Elo": 6828,
      "Elh": 6829,
      "Elio": 6830,
      "Enge": 6831,
      "Etham": 6832,
      "Far": 6833,
      "Gar": 6834,
      "Gaa": 6835,
      "Hus": 6836,
      "Hnuk": 6837,
      "Ih": 6838,
      "Iri": 6839,
      "Itali": 6840,
      "Jai": 6841,
      "Kon": 6842,
      "Klau": 6843,
      "Kulhmi": 6844,
      "Lili": 6845,
      "Luhnak": 6846,
      "Mih": 6847,
      "Nih": 6848,
      "Nal": 6849,
      "Nak": 6850,
      "Nemuel": 6851,
      "Onam": 6852,
      "Oboth": 6853,
      "Peng": 6854,
      "Pur": 6855,
      "Rel": 6856,
      "Rawhnak": 6857,
      "Rap": 6858,
      "Rosh": 6859,
      "Sang": 6860,
      "Tai": 6861,
      "Tahnak": 6862,
      "Tob": 6863,
      "Tlan": 6864,
      "Tanglei": 6865,
      "Tlaih": 6866,
      "Tonnak": 6867,
      "Ulam": 6868,
      "Uriel": 6869,
      "Vung": 6870,
      "Vel": 6871,
      "Zun": 6872,
      "Zem": 6873,
      "Zuah": 6874,
      "Zawtnak": 6875,
      "Zered": 6876,
      "ao": 6877,
      "ara": 6878,
      "abi": 6879,
      "but": 6880,
      "bawhnak": 6881,
      "borh": 6882,
      "bzeel": 6883,
      "bbim": 6884,
      "bawlnak": 6885,
      "cor": 6886,
      "cingmi": 6887,
      "dul": 6888,
      "dut": 6889,
      "dda": 6890,
      "dria": 6891,
      "epal": 6892,
      "feng": 6893,
      "flet": 6894,
      "fur": 6895,
      "ge": 6896,
      "gob": 6897,
      "gas": 6898,
      "gerah": 6899,
      "hawk": 6900,
      "hlung": 6901,
      "hmit": 6902,
      "jair": 6903,
      "jes": 6904,
      "kiar": 6905,
      "lhrel": 6906,
      "oli": 6907,
      "pih": 6908,
      "ranh": 6909,
      "sawi": 6910,
      "tti": 6911,
      "tte": 6912,
      "tlem": 6913,
      "tlen": 6914,
      "tlawh": 6915,
      "uz": 6916,
      "zut": 6917,
      "Ṭuan": 6918,
      "Ṭahnak": 6919,
      "Ṭhu": 6920,
      "ṭei": 6921,
      "ṭual": 6922,
      "ṭawt": 6923,
      "ṭuanh": 6924,
      "anfah": 6925,
      "cumh": 6926,
      "awih": 6927,
      "awdawh": 6928,
      "ining": 6929,
      "inoam": 6930,
      "intuar": 6931,
      "hnatla": 6932,
      "thru": 6933,
      "thep": 6934,
      "mim": 6935,
      "mir": 6936,
      "mithim": 6937,
      "midawh": 6938,
      "milunglawm": 6939,
      "midepde": 6940,
      "mikhep": 6941,
      "ladah": 6942,
      "ladan": 6943,
      "khabe": 6944,
      "khacer": 6945,
      "tiam": 6946,
      "tira": 6947,
      "titnak": 6948,
      "tisor": 6949,
      "tius": 6950,
      "lekah": 6951,
      "leser": 6952,
      "chawhnak": 6953,
      "sim": 6954,
      "siar": 6955,
      "sidia": 6956,
      "alter": 6957,
      "tuuk": 6958,
      "unganfah": 6959,
      "amel": 6960,
      "loam": 6961,
      "lote": 6962,
      "loral": 6963,
      "lome": 6964,
      "tep": 6965,
      "akan": 6966,
      "hmal": 6967,
      "hmung": 6968,
      "seah": 6969,
      "sefer": 6970,
      "ṭhin": 6971,
      "cathiang": 6972,
      "cathiam": 6973,
      "cabawm": 6974,
      "iatu": 6975,
      "iatira": 6976,
      "hiam": 6977,
      "pim": 6978,
      "pipa": 6979,
      "pileser": 6980,
      "rabbim": 6981,
      "mahtihin": 6982,
      "caahtiah": 6983,
      "hrua": 6984,
      "koih": 6985,
      "aik": 6986,
      "Pathro": 6987,
      "Paseah": 6988,
      "kahmi": 6989,
      "pher": 6990,
      "pelet": 6991,
      "perazim": 6992,
      "ramsa": 6993,
      "ramhring": 6994,
      "ramoth": 6995,
      "ramhno": 6996,
      "rambur": 6997,
      "rubi": 6998,
      "khualai": 6999,
      "khuachiat": 7000,
      "khuaceu": 7001,
      "khuakhangtu": 7002,
      "liak": 7003,
      "pahlek": 7004,
      "Jeka": 7005,
      "Jezer": 7006,
      "rimi": 7007,
      "ritnak": 7008,
      "risha": 7009,
      "rius": 7010,
      "heres": 7011,
      "sat": 7012,
      "sazam": 7013,
      "sakhnawh": 7014,
      "inntling": 7015,
      "innkhaan": 7016,
      "innkil": 7017,
      "cangh": 7018,
      "canghter": 7019,
      "cangcel": 7020,
      "fapate": 7021,
      "vad": 7022,
      "vaihter": 7023,
      "biangai": 7024,
      "awnter": 7025,
      "lungrang": 7026,
      "lungfak": 7027,
      "lungton": 7028,
      "lungthli": 7029,
      "lungnge": 7030,
      "hluah": 7031,
      "serning": 7032,
      "nir": 7033,
      "niz": 7034,
      "nizarh": 7035,
      "eihthiam": 7036,
      "eihol": 7037,
      "ralmi": 7038,
      "ralṭhat": 7039,
      "ralthawhnak": 7040,
      "hngalthiammi": 7041,
      "zap": 7042,
      "zabel": 7043,
      "chuahkeh": 7044,
      "ngaihmanh": 7045,
      "ngatlaitu": 7046,
      "ukter": 7047,
      "ukbawi": 7048,
      "thawhhnawh": 7049,
      "thawhkehnak": 7050,
      "vek": 7051,
      "nawi": 7052,
      "hmunking": 7053,
      "hmunphiah": 7054,
      "hmaikhuh": 7055,
      "phunhran": 7056,
      "duhfahnak": 7057,
      "duhdanhnak": 7058,
      "sualtertu": 7059,
      "debar": 7060,
      "Mibu": 7061,
      "Micheu": 7062,
      "Milu": 7063,
      "Miṭhawng": 7064,
      "Mijamin": 7065,
      "Anri": 7066,
      "taktu": 7067,
      "takpum": 7068,
      "irah": 7069,
      "lengin": 7070,
      "lengtu": 7071,
      "nawlpek": 7072,
      "nawlngaih": 7073,
      "cianak": 7074,
      "chiathru": 7075,
      "thlummi": 7076,
      "Naarah": 7077,
      "hngalhpi": 7078,
      "hngalhthiam": 7079,
      "ningani": 7080,
      "shar": 7081,
      "shual": 7082,
      "Zeicaahtiah": 7083,
      "khoihmi": 7084,
      "bub": 7085,
      "ruahthiamnak": 7086,
      "talet": 7087,
      "tabel": 7088,
      "tappi": 7089,
      "Jus": 7090,
      "langin": 7091,
      "mangbawi": 7092,
      "mangihnak": 7093,
      "holhrel": 7094,
      "zenai": 7095,
      "zebub": 7096,
      "haar": 7097,
      "ṭilh": 7098,
      "huntertu": 7099,
      "zohthiam": 7100,
      "zohcho": 7101,
      "ṭuanvo": 7102,
      "roih": 7103,
      "roco": 7104,
      "rogel": 7105,
      "ṭhitmi": 7106,
      "vanṭha": 7107,
      "vanchiat": 7108,
      "thahri": 7109,
      "thahiah": 7110,
      "rawlkung": 7111,
      "rawlhrawn": 7112,
      "pumpek": 7113,
      "pumlawng": 7114,
      "hlaat": 7115,
      "zungthiammi": 7116,
      "zeihmanhlo": 7117,
      "Siang": 7118,
      "Siddim": 7119,
      "Siloam": 7120,
      "sarh": 7121,
      "mitkuh": 7122,
      "tlakphuat": 7123,
      "tangnung": 7124,
      "zungzalnak": 7125,
      "kongh": 7126,
      "Jot": 7127,
      "Joiakim": 7128,
      "lukheng": 7129,
      "lukhuh": 7130,
      "ludomh": 7131,
      "lehtama": 7132,
      "thangmi": 7133,
      "sawmtu": 7134,
      "baoth": 7135,
      "bazzar": 7136,
      "puanter": 7137,
      "relrul": 7138,
      "chinhmi": 7139,
      "Sab": 7140,
      "Sazuk": 7141,
      "Salekah": 7142,
      "Kana": 7143,
      "kharuh": 7144,
      "hleisarihnak": 7145,
      "hleithumnak": 7146,
      "hleikuanak": 7147,
      "thainu": 7148,
      "parmi": 7149,
      "parpahlek": 7150,
      "Abdi": 7151,
      "Abinoam": 7152,
      "dirkamh": 7153,
      "bomi": 7154,
      "bozenai": 7155,
      "thingphel": 7156,
      "hlawtnak": 7157,
      "hnor": 7158,
      "theikung": 7159,
      "phungning": 7160,
      "kelawng": 7161,
      "kedong": 7162,
      "kelamh": 7163,
      "red": 7164,
      "kulnak": 7165,
      "nanmahte": 7166,
      "ṭihtu": 7167,
      "cawnpiakning": 7168,
      "Amzi": 7169,
      "uangthlar": 7170,
      "fifik": 7171,
      "faknak": 7172,
      "dohter": 7173,
      "dohhmang": 7174,
      "Mahlon": 7175,
      "Mahath": 7176,
      "hrampi": 7177,
      "lenmi": 7178,
      "lenhmui": 7179,
      "thok": 7180,
      "tholome": 7181,
      "aukhuan": 7182,
      "tanpah": 7183,
      "chuntu": 7184,
      "chunlai": 7185,
      "moni": 7186,
      "Lebo": 7187,
      "tlaihpiak": 7188,
      "tlaihhrem": 7189,
      "ceihmi": 7190,
      "mipam": 7191,
      "runrun": 7192,
      "runvennak": 7193,
      "tlaiter": 7194,
      "Tlangpar": 7195,
      "vaimi": 7196,
      "phakmi": 7197,
      "teiter": 7198,
      "Facang": 7199,
      "Faphir": 7200,
      "ṭilṭawt": 7201,
      "phio": 7202,
      "riahmah": 7203,
      "riahter": 7204,
      "Heth": 7205,
      "Ralbawipa": 7206,
      "Ralring": 7207,
      "Shesh": 7208,
      "Shemer": 7209,
      "Thlalang": 7210,
      "Thlacam": 7211,
      "ṭhutpi": 7212,
      "Khuazakip": 7213,
      "Thiatira": 7214,
      "thawktu": 7215,
      "zampi": 7216,
      "Ahohi": 7217,
      "kawlnak": 7218,
      "damtertu": 7219,
      "canphio": 7220,
      "himte": 7221,
      "himoth": 7222,
      "mumi": 7223,
      "merter": 7224,
      "Pethahiah": 7225,
      "Samlah": 7226,
      "hmangtu": 7227,
      "vungmang": 7228,
      "reumi": 7229,
      "bez": 7230,
      "bekai": 7231,
      "mane": 7232,
      "manuel": 7233,
      "sunlawi": 7234,
      "ṭhiamṭhiammi": 7235,
      "hriang": 7236,
      "hriim": 7237,
      "tungtai": 7238,
      "dumdang": 7239,
      "haumi": 7240,
      "timhpiakmi": 7241,
      "Jehozabad": 7242,
      "zohkhenhpiak": 7243,
      "Zohar": 7244,
      "medatha": 7245,
      "Hati": 7246,
      "Hathak": 7247,
      "Hadoram": 7248,
      "Vanmi": 7249,
      "Biakhiahnak": 7250,
      "Til": 7251,
      "menmi": 7252,
      "thermi": 7253,
      "therter": 7254,
      "Cazual": 7255,
      "Bene": 7256,
      "sunghmi": 7257,
      "sungsung": 7258,
      "Moladah": 7259,
      "nomi": 7260,
      "huam": 7261,
      "Efer": 7262,
      "athea": 7263,
      "hloi": 7264,
      "thanhtu": 7265,
      "voth": 7266,
      "zawnruah": 7267,
      "khuhmi": 7268,
      "tawnghnak": 7269,
      "thuamhnak": 7270,
      "kaltermi": 7271,
      "santer": 7272,
      "mithram": 7273,
      "Tuchan": 7274,
      "zahan": 7275,
      "naimi": 7276,
      "pakuanak": 7277,
      "Lian": 7278,
      "Likuk": 7279,
      "Lisias": 7280,
      "Lidda": 7281,
      "fehnak": 7282,
      "khualtlung": 7283,
      "thianhhlimh": 7284,
      "hlenhmang": 7285,
      "Thiangmi": 7286,
      "nemmi": 7287,
      "nemter": 7288,
      "kenmi": 7289,
      "Abiel": 7290,
      "Lamhlapi": 7291,
      "thirfung": 7292,
      "Rilipi": 7293,
      "Lungkua": 7294,
      "Lungvar": 7295,
      "Lungtlap": 7296,
      "Lungkil": 7297,
      "Gebal": 7298,
      "Geriz": 7299,
      "firah": 7300,
      "firtu": 7301,
      "thauter": 7302,
      "pilter": 7303,
      "Zatlang": 7304,
      "onhtu": 7305,
      "thurmi": 7306,
      "Hamul": 7307,
      "Hammedatha": 7308,
      "huatter": 7309,
      "hmuichon": 7310,
      "zualhma": 7311,
      "ṭhawlmi": 7312,
      "nihsawhmi": 7313,
      "chawkvai": 7314,
      "riakmi": 7315,
      "buarmi": 7316,
      "buartu": 7317,
      "Ard": 7318,
      "Argob": 7319,
      "Arvad": 7320,
      "Innchungkhar": 7321,
      "Chiatnak": 7322,
      "mithipa": 7323,
      "derter": 7324,
      "tlaunak": 7325,
      "fuhpanh": 7326,
      "pemter": 7327,
      "Bartholome": 7328,
      "rulhnak": 7329,
      "tliang": 7330,
      "Pisidia": 7331,
      "hlohpiak": 7332,
      "Lod": 7333,
      "Lodebar": 7334,
      "benhnak": 7335,
      "chuanmi": 7336,
      "chimtupa": 7337,
      "phorhnak": 7338,
      "Hanamel": 7339,
      "rialchih": 7340,
      "samhhnawh": 7341,
      "ṭangphaw": 7342,
      "bawhter": 7343,
      "bawhkhuh": 7344,
      "pawimi": 7345,
      "phoihtu": 7346,
      "odak": 7347,
      "thamtham": 7348,
      "riamh": 7349,
      "hramthawkte": 7350,
      "hrukter": 7351,
      "Jalam": 7352,
      "Jaflet": 7353,
      "Jatti": 7354,
      "Rizpah": 7355,
      "ṭhangcho": 7356,
      "Shemariah": 7357,
      "Salm": 7358,
      "Saltang": 7359,
      "Sallu": 7360,
      "Salma": 7361,
      "kengmi": 7362,
      "kengdan": 7363,
      "ruaih": 7364,
      "Pakhatkhat": 7365,
      "hrawmmi": 7366,
      "Kehlei": 7367,
      "Kedem": 7368,
      "Keniz": 7369,
      "Ararat": 7370,
      "thlehbaoh": 7371,
      "hnartonh": 7372,
      "ciammammi": 7373,
      "tlok": 7374,
      "Jehudi": 7375,
      "Ashbel": 7376,
      "Rehoboth": 7377,
      "Shamir": 7378,
      "Matthat": 7379,
      "Mattenai": 7380,
      "Matred": 7381,
      "Hormi": 7382,
      "Horesh": 7383,
      "Sela": 7384,
      "Senir": 7385,
      "cuaimi": 7386,
      "cuaitu": 7387,
      "misifakpa": 7388,
      "chawhpi": 7389,
      "chawhkanh": 7390,
      "thinghmuimi": 7391,
      "paihmi": 7392,
      "Kishi": 7393,
      "hlingkung": 7394,
      "zuarhmi": 7395,
      "Khaan": 7396,
      "foihmi": 7397,
      "foihter": 7398,
      "Naha": 7399,
      "kilven": 7400,
      "zinan": 7401,
      "Meiṭil": 7402,
      "Meikhu": 7403,
      "kuainak": 7404,
      "tuaktan": 7405,
      "henh": 7406,
      "Hananel": 7407,
      "hlamtu": 7408,
      "Hoglah": 7409,
      "Hmunkhat": 7410,
      "Jabez": 7411,
      "Theihnak": 7412,
      "khuarter": 7413,
      "puarmi": 7414,
      "mitcawpa": 7415,
      "Merab": 7416,
      "Khefirah": 7417,
      "ṭanter": 7418,
      "zorter": 7419,
      "lauter": 7420,
      "thlaihmi": 7421,
      "Suimilam": 7422,
      "Zingkate": 7423,
      "silhnalh": 7424,
      "hnabeidong": 7425,
      "Golan": 7426,
      "Azgad": 7427,
      "Tampi": 7428,
      "selsul": 7429,
      "bunghhnawh": 7430,
      "nimte": 7431,
      "zaamtak": 7432,
      "fonhmi": 7433,
      "kanghnak": 7434,
      "Shimshai": 7435,
      "khoika": 7436,
      "biahngalhternak": 7437,
      "Hnachet": 7438,
      "cuanter": 7439,
      "Kainan": 7440,
      "rawlṭamnak": 7441,
      "khingkhang": 7442,
      "phuangtu": 7443,
      "Asriel": 7444,
      "Firuk": 7445,
      "Fizang": 7446,
      "Imlah": 7447,
      "hamath": 7448,
      "donhhlei": 7449,
      "conglawmhtu": 7450,
      "Dothan": 7451,
      "Dinhnak": 7452,
      "Langta": 7453,
      "Shobab": 7454,
      "Naamath": 7455,
      "derthawmnak": 7456,
      "Aramaik": 7457,
      "Eshkol": 7458,
      "Theitlai": 7459,
      "Zofar": 7460,
      "huahmi": 7461,
      "ṭeka": 7462,
      "Cheu": 7463,
      "kothrolh": 7464,
      "phuahchommi": 7465,
      "Zimmah": 7466,
      "bingtalet": 7467,
      "chonhmi": 7468,
      "kiakmi": 7469,
      "Malkhiel": 7470,
      "Chimbu": 7471,
      "Nergal": 7472,
      "lalhnawh": 7473,
      "Rabbi": 7474,
      "Ṭhawnnak": 7475,
      "khaimi": 7476,
      "phalhmi": 7477,
      "zawtter": 7478,
      "Husham": 7479,
      "Phaw": 7480,
      "Phulh": 7481,
      "bunhnak": 7482,
      "Chawlehnak": 7483,
      "Cawnpiaktu": 7484,
      "Pahra": 7485,
      "Jokshan": 7486,
      "Vailamtahnak": 7487,
      "Kue": 7488,
      "thler": 7489,
      "thormi": 7490,
      "Khuaruahharnak": 7491,
      "Khuaruahharmi": 7492,
      "Meshelemiah": 7493,
      "Meshezabel": 7494,
      "hlawmtu": 7495,
      "vuanthok": 7496,
      "Bilhan": 7497,
      "Elizafan": 7498,
      "Chunglei": 7499,
      "Meribbaal": 7500,
      "Ibleam": 7501,
      "Nekoda": 7502,
      "chawlettu": 7503,
      "tlolhmi": 7504,
      "Donghnak": 7505,
      "Hawikom": 7506,
      "Ṭhiotu": 7507,
      "Sibbekai": 7508,
      "Cuarpartan": 7509,
      "Deuel": 7510,
      "Jaazaniah": 7511,
      "Tlawmpal": 7512,
      "milungṭhawng": 7513,
      "phonak": 7514,
      "Mishma": 7515,
      "Joiada": 7516,
      "kiangah": 7517,
      "Shebnah": 7518,
      "Alekzandria": 7519,
      "Zeresh": 7520,
      "nengtu": 7521,
      "aamahkhannak": 7522,
      "Azazel": 7523,
      "Massa": 7524,
      "duale": 7525,
      "ppim": 7526,
      "awkhlawh": 7527,
      "rocarnak": 7528,
      "fikfa": 7529,
      "Harod": 7530,
      "Pangpar": 7531,
      "Porhlawt": 7532,
      "garmah": 7533,
      "tenh": 7534,
      "Saupi": 7535,
      "Shemida": 7536,
      "Shemiramoth": 7537,
      "Sokoh": 7538,
      "Thangṭhatnak": 7539,
      "Gallim": 7540,
      "Hnulei": 7541,
      "Hrawktu": 7542,
      "Khinneroth": 7543,
      "Henadad": 7544,
      "Galatia": 7545,
      "puarhrannak": 7546,
      "Phaisa": 7547,
      "Zarefath": 7548,
      "tluangkhawnnak": 7549,
      "Potifar": 7550,
      "Huldah": 7551,
      "Hmutu": 7552,
      "Mingiatu": 7553,
      "Teirul": 7554,
      "Tattenai": 7555,
      "buhri": 7556,
      "Ṭiaotakmi": 7557,
      "Jeshimon": 7558,
      "Giddel": 7559,
      "Tiglath": 7560,
      "Refaiah": 7561,
      "Mattathias": 7562,
      "cekcekhnawh": 7563,
      "Tlik": 7564,
      "mihme": 7565,
      "aloes": 7566,
      "Khuazingnu": 7567,
      "Mehetabel": 7568,
      "Nefeg": 7569,
      "Azubah": 7570,
      "Arimathea": 7571,
      "Abaddon": 7572,
      "Bamoth": 7573,
      "Buanchukcho": 7574,
      "Cantiang": 7575,
      "Elhanan": 7576,
      "Elioenai": 7577,
      "Engedi": 7578,
      "Gaash": 7579,
      "Hushim": 7580,
      "Jairu": 7581,
      "Koniah": 7582,
      "Zuahmi": 7583,
      "arabah": 7584,
      "dulmal": 7585,
      "fengbeo": 7586,
      "jeshimoth": 7587,
      "olis": 7588,
      "ṭeifiak": 7589,
      "ṭualmal": 7590,
      "ṭuanhawi": 7591,
      "mikhepkha": 7592,
      "Pathros": 7593,
      "rishathaim": 7594,
      "chiathrutnak": 7595,
      "Gerizim": 7596,
      "Bartholomew": 7597,
      "Jattir": 7598,
      "Kedemoth": 7599,
      "Ah": 7600,
      "At": 7601,
      "Ase": 7602,
      "Azal": 7603,
      "Arel": 7604,
      "Anam": 7605,
      "Bun": 7606,
      "Bawinu": 7607,
      "Cawng": 7608,
      "Dal": 7609,
      "Dei": 7610,
      "Dim": 7611,
      "Dawh": 7612,
      "Ela": 7613,
      "Eri": 7614,
      "Esar": 7615,
      "Eben": 7616,
      "Ephah": 7617,
      "Eras": 7618,
      "Eloth": 7619,
      "Ezem": 7620,
      "Emim": 7621,
      "Fri": 7622,
      "Fir": 7623,
      "Fur": 7624,
      "Gah": 7625,
      "Ginn": 7626,
      "Gen": 7627,
      "Hah": 7628,
      "Hawh": 7629,
      "Hram": 7630,
      "Hri": 7631,
      "Hose": 7632,
      "Huat": 7633,
      "Hrai": 7634,
      "Had": 7635,
      "Hoth": 7636,
      "Hnem": 7637,
      "Hran": 7638,
      "Hlennak": 7639,
      "Hruhnak": 7640,
      "Hirah": 7641,
      "If": 7642,
      "Ij": 7643,
      "Ik": 7644,
      "Iv": 7645,
      "Iy": 7646,
      "Igal": 7647,
      "Jam": 7648,
      "Joh": 7649,
      "Jul": 7650,
      "Joses": 7651,
      "Kuh": 7652,
      "Kho": 7653,
      "Kol": 7654,
      "Keb": 7655,
      "Khoi": 7656,
      "Keli": 7657,
      "Kemuel": 7658,
      "Luh": 7659,
      "Luatnak": 7660,
      "Minn": 7661,
      "Nawh": 7662,
      "Nawn": 7663,
      "Nobah": 7664,
      "Ode": 7665,
      "Ome": 7666,
      "Omar": 7667,
      "Pul": 7668,
      "Puah": 7669,
      "Rum": 7670,
      "Ruh": 7671,
      "Ruat": 7672,
      "Rawinak": 7673,
      "Sem": 7674,
      "Sullam": 7675,
      "Shua": 7676,
      "Serah": 7677,
      "Shup": 7678,
      "Sahmul": 7679,
      "Sered": 7680,
      "Tih": 7681,
      "Tawng": 7682,
      "Thlah": 7683,
      "Thal": 7684,
      "Un": 7685,
      "Vei": 7686,
      "Veng": 7687,
      "Zih": 7688,
      "Zaan": 7689,
      "ate": 7690,
      "araim": 7691,
      "bla": 7692,
      "bni": 7693,
      "cih": 7694,
      "con": 7695,
      "duk": 7696,
      "dias": 7697,
      "ethi": 7698,
      "esar": 7699,
      "eden": 7700,
      "esheth": 7701,
      "fai": 7702,
      "fuhnak": 7703,
      "fuam": 7704,
      "gam": 7705,
      "gum": 7706,
      "gath": 7707,
      "ggai": 7708,
      "gub": 7709,
      "gannim": 7710,
      "han": 7711,
      "hai": 7712,
      "helh": 7713,
      "hiar": 7714,
      "hamnak": 7715,
      "hanan": 7716,
      "htama": 7717,
      "ib": 7718,
      "id": 7719,
      "iamin": 7720,
      "kihnak": 7721,
      "kuah": 7722,
      "kingmi": 7723,
      "lumnak": 7724,
      "lumh": 7725,
      "lulh": 7726,
      "mcaw": 7727,
      "meihol": 7728,
      "othai": 7729,
      "onaim": 7730,
      "pun": 7731,
      "poih": 7732,
      "piat": 7733,
      "pchap": 7734,
      "rhnak": 7735,
      "sonh": 7736,
      "tlei": 7737,
      "ukan": 7738,
      "urh": 7739,
      "vih": 7740,
      "vim": 7741,
      "venh": 7742,
      "vuak": 7743,
      "vvoth": 7744,
      "zawng": 7745,
      "zawm": 7746,
      "zzah": 7747,
      "Ṭang": 7748,
      "Ṭap": 7749,
      "ṭemh": 7750,
      "’,": 7751,
      "”,": 7752,
      "anath": 7753,
      "anfangkha": 7754,
      "ahmi": 7755,
      "naah": 7756,
      "namh": 7757,
      "nger": 7758,
      "ngalnak": 7759,
      "nganhtak": 7760,
      "cur": 7761,
      "khahnak": 7762,
      "khangmi": 7763,
      "khiat": 7764,
      "khiar": 7765,
      "ihor": 7766,
      "hnalei": 7767,
      "hnatlakmi": 7768,
      "thupa": 7769,
      "thonh": 7770,
      "mirang": 7771,
      "mithla": 7772,
      "mish": 7773,
      "mizu": 7774,
      "mirun": 7775,
      "mirawi": 7776,
      "milian": 7777,
      "miramh": 7778,
      "mithattu": 7779,
      "mikhong": 7780,
      "minauta": 7781,
      "mizuangzam": 7782,
      "mithintawi": 7783,
      "lap": 7784,
      "lami": 7785,
      "khaih": 7786,
      "khaangtu": 7787,
      "kara": 7788,
      "titer": 7789,
      "tidong": 7790,
      "tikhal": 7791,
      "tilaknak": 7792,
      "tikik": 7793,
      "lef": 7794,
      "leuh": 7795,
      "letnak": 7796,
      "lethai": 7797,
      "letas": 7798,
      "chawl": 7799,
      "situ": 7800,
      "sirang": 7801,
      "pai": 7802,
      "paal": 7803,
      "pasal": 7804,
      "pacheu": 7805,
      "patar": 7806,
      "alah": 7807,
      "aloth": 7808,
      "algum": 7809,
      "tur": 7810,
      "tumi": 7811,
      "tule": 7812,
      "tuhnak": 7813,
      "tunaite": 7814,
      "laim": 7815,
      "laikhat": 7816,
      "lailak": 7817,
      "nakmi": 7818,
      "nakpi": 7819,
      "nakkhin": 7820,
      "amon": 7821,
      "amethi": 7822,
      "amfuam": 7823,
      "uning": 7824,
      "lohter": 7825,
      "teuh": 7826,
      "teom": 7827,
      "tekos": 7828,
      "umhar": 7829,
      "umpu": 7830,
      "thiel": 7831,
      "thiar": 7832,
      "hmar": 7833,
      "hmawng": 7834,
      "hmawm": 7835,
      "hmeh": 7836,
      "sed": 7837,
      "ṭhul": 7838,
      "ṭhip": 7839,
      "ṭhet": 7840,
      "caak": 7841,
      "caṭialmi": 7842,
      "caphortu": 7843,
      "khanh": 7844,
      "khanpiak": 7845,
      "imon": 7846,
      "chungte": 7847,
      "chungpi": 7848,
      "chungkhat": 7849,
      "raang": 7850,
      "ramipa": 7851,
      "hrulh": 7852,
      "hrangmi": 7853,
      "elchunhnak": 7854,
      "tuahpi": 7855,
      "tuahtertu": 7856,
      "khatrep": 7857,
      "phehmi": 7858,
      "biakhiah": 7859,
      "biathuk": 7860,
      "biatlaknak": 7861,
      "biakhiak": 7862,
      "falai": 7863,
      "faath": 7864,
      "faphir": 7865,
      "leitlang": 7866,
      "tertar": 7867,
      "ramhmi": 7868,
      "rammelek": 7869,
      "ihmang": 7870,
      "ihmai": 7871,
      "khuadang": 7872,
      "liim": 7873,
      "lion": 7874,
      "liza": 7875,
      "pahau": 7876,
      "hnakkar": 7877,
      "dahngai": 7878,
      "tlah": 7879,
      "Jeuel": 7880,
      "Jearim": 7881,
      "Jetur": 7882,
      "hngerh": 7883,
      "rioth": 7884,
      "utal": 7885,
      "sathar": 7886,
      "chupchap": 7887,
      "ṭhate": 7888,
      "vaca": 7889,
      "vatter": 7890,
      "onoth": 7891,
      "bial": 7892,
      "bitum": 7893,
      "thilthiang": 7894,
      "thilpon": 7895,
      "lunglai": 7896,
      "lungmit": 7897,
      "lunghmu": 7898,
      "lungthu": 7899,
      "lungrawn": 7900,
      "lungthuh": 7901,
      "lungnem": 7902,
      "lunghmul": 7903,
      "lungthleng": 7904,
      "lungthawhnak": 7905,
      "lungnemnak": 7906,
      "hluat": 7907,
      "hluang": 7908,
      "serah": 7909,
      "nis": 7910,
      "nite": 7911,
      "nifa": 7912,
      "nikhua": 7913,
      "nichuak": 7914,
      "ralpa": 7915,
      "ralchia": 7916,
      "raltho": 7917,
      "lammi": 7918,
      "lamding": 7919,
      "lamhter": 7920,
      "lamnaite": 7921,
      "zami": 7922,
      "zalam": 7923,
      "ummipa": 7924,
      "ngaan": 7925,
      "ngatlai": 7926,
      "ukning": 7927,
      "ukmak": 7928,
      "ver": 7929,
      "nawhnak": 7930,
      "ortu": 7931,
      "ngaite": 7932,
      "minchiatnak": 7933,
      "minthlakmi": 7934,
      "Kau": 7935,
      "Kabzeel": 7936,
      "mham": 7937,
      "hmunsang": 7938,
      "phundang": 7939,
      "sualtermi": 7940,
      "Miruak": 7941,
      "Mipem": 7942,
      "Mizzah": 7943,
      "Miletas": 7944,
      "tlangcung": 7945,
      "tlangrel": 7946,
      "Aner": 7947,
      "ṭhantermi": 7948,
      "Jeshu": 7949,
      "kutzeng": 7950,
      "eus": 7951,
      "thlim": 7952,
      "thlur": 7953,
      "Nafi": 7954,
      "Nafath": 7955,
      "tinhnak": 7956,
      "hrimhter": 7957,
      "ninghngal": 7958,
      "thlazung": 7959,
      "thlakhnawh": 7960,
      "shab": 7961,
      "khol": 7962,
      "saling": 7963,
      "buel": 7964,
      "ruahter": 7965,
      "hungkainak": 7966,
      "hungcho": 7967,
      "taim": 7968,
      "takhup": 7969,
      "thinphan": 7970,
      "khawhning": 7971,
      "ngandam": 7972,
      "mangṭhia": 7973,
      "hoze": 7974,
      "hoglah": 7975,
      "zep": 7976,
      "zet": 7977,
      "zeba": 7978,
      "zefon": 7979,
      "vawleite": 7980,
      "chimhchung": 7981,
      "tamar": 7982,
      "Dap": 7983,
      "Dabe": 7984,
      "zohmi": 7985,
      "zohter": 7986,
      "ṭuanpah": 7987,
      "rod": 7988,
      "roter": 7989,
      "theihpi": 7990,
      "theihngal": 7991,
      "ṭhiṭhalo": 7992,
      "ṭhiotu": 7993,
      "ṭhitupa": 7994,
      "nuntertu": 7995,
      "nunchimhnak": 7996,
      "vanluh": 7997,
      "vanluhnak": 7998,
      "vanchiami": 7999,
      "lemtu": 8000,
      "lemoth": 8001,
      "meici": 8002,
      "tuahmipa": 8003,
      "pumtu": 8004,
      "pumte": 8005,
      "pumrua": 8006,
      "pumpul": 8007,
      "khilah": 8008,
      "hlami": 8009,
      "deuhtu": 8010,
      "hnur": 8011,
      "hnuang": 8012,
      "bikpa": 8013,
      "chuakmipa": 8014,
      "chiahtakmi": 8015,
      "sartlam": 8016,
      "mitthi": 8017,
      "tlaktertu": 8018,
      "ciocio": 8019,
      "Jog": 8020,
      "cheubang": 8021,
      "luri": 8022,
      "lehpiak": 8023,
      "naute": 8024,
      "dongmi": 8025,
      "haltu": 8026,
      "sawmpalak": 8027,
      "ngeihchun": 8028,
      "ngeihchunte": 8029,
      "baz": 8030,
      "bael": 8031,
      "bathah": 8032,
      "batmi": 8033,
      "Izrah": 8034,
      "harh": 8035,
      "camter": 8036,
      "etrius": 8037,
      "puanfual": 8038,
      "chintu": 8039,
      "zuun": 8040,
      "zurit": 8041,
      "zucua": 8042,
      "Sala": 8043,
      "Salem": 8044,
      "thiamtlang": 8045,
      "thiamcoh": 8046,
      "Kanah": 8047,
      "doṭhiang": 8048,
      "dotlami": 8049,
      "kharkhumh": 8050,
      "hlanmi": 8051,
      "thath": 8052,
      "hmape": 8053,
      "hmapu": 8054,
      "parte": 8055,
      "hnawhnak": 8056,
      "hnawhnam": 8057,
      "daimon": 8058,
      "tumpah": 8059,
      "tumbul": 8060,
      "dirpi": 8061,
      "rihai": 8062,
      "Baalh": 8063,
      "Baana": 8064,
      "Baladan": 8065,
      "bom": 8066,
      "thingram": 8067,
      "thingtum": 8068,
      "thingthu": 8069,
      "thingmui": 8070,
      "thingrua": 8071,
      "thingzarh": 8072,
      "thinghreu": 8073,
      "hlawtu": 8074,
      "hlawrh": 8075,
      "hnuai": 8076,
      "namtu": 8077,
      "phungchim": 8078,
      "phungchimmi": 8079,
      "kesh": 8080,
      "kehlan": 8081,
      "kedil": 8082,
      "cawt": 8083,
      "cawihmi": 8084,
      "kirhnawh": 8085,
      "surmi": 8086,
      "changper": 8087,
      "atute": 8088,
      "ṭialpiakmi": 8089,
      "fimter": 8090,
      "fimas": 8091,
      "pekmipa": 8092,
      "Khis": 8093,
      "Khilion": 8094,
      "Khimham": 8095,
      "filim": 8096,
      "fiamfuam": 8097,
      "Khum": 8098,
      "Khel": 8099,
      "Khuam": 8100,
      "dohpiaktu": 8101,
      "did": 8102,
      "dibla": 8103,
      "hnihchunte": 8104,
      "hramtu": 8105,
      "tluktertu": 8106,
      "tlukrilh": 8107,
      "tanpi": 8108,
      "tanbo": 8109,
      "tanhnawhmi": 8110,
      "Lehtama": 8111,
      "Bera": 8112,
      "Bezai": 8113,
      "Besor": 8114,
      "Bezek": 8115,
      "sangsang": 8116,
      "comcaw": 8117,
      "tlunnak": 8118,
      "thangṭhattu": 8119,
      "letmi": 8120,
      "tlaihchanmi": 8121,
      "tlaihchannak": 8122,
      "ceihnak": 8123,
      "hrinter": 8124,
      "profetnu": 8125,
      "fanute": 8126,
      "Fale": 8127,
      "phawte": 8128,
      "zaangmi": 8129,
      "zaangthupa": 8130,
      "tonhmi": 8131,
      "luhpah": 8132,
      "obeam": 8133,
      "khenhmi": 8134,
      "khenhteo": 8135,
      "Helek": 8136,
      "Ralṭha": 8137,
      "Raldoh": 8138,
      "Sheshai": 8139,
      "Shefu": 8140,
      "Shebuel": 8141,
      "Thlachiat": 8142,
      "omau": 8143,
      "Khuadei": 8144,
      "Zefon": 8145,
      "Thanh": 8146,
      "Thawh": 8147,
      "Thahnak": 8148,
      "thlir": 8149,
      "thlite": 8150,
      "thlizil": 8151,
      "senh": 8152,
      "Ahopaoh": 8153,
      "Mehi": 8154,
      "Mesha": 8155,
      "Mefaath": 8156,
      "kawlmipa": 8157,
      "canthum": 8158,
      "canceo": 8159,
      "himbawm": 8160,
      "muihmai": 8161,
      "kunpiak": 8162,
      "kunhnawh": 8163,
      "philhmi": 8164,
      "philhter": 8165,
      "kaiter": 8166,
      "mermi": 8167,
      "hruaiter": 8168,
      "Pelon": 8169,
      "Pelaiah": 8170,
      "Elishua": 8171,
      "aseiah": 8172,
      "hranthawl": 8173,
      "Nizan": 8174,
      "khuaruahnak": 8175,
      "bep": 8176,
      "beril": 8177,
      "berith": 8178,
      "bezek": 8179,
      "tahtlem": 8180,
      "mantu": 8181,
      "adiah": 8182,
      "addar": 8183,
      "oihmi": 8184,
      "uktupa": 8185,
      "ṭungmi": 8186,
      "lanmi": 8187,
      "ceutertu": 8188,
      "tungdanh": 8189,
      "dumpi": 8190,
      "langhterning": 8191,
      "samak": 8192,
      "samthlai": 8193,
      "herhning": 8194,
      "dawiter": 8195,
      "timhning": 8196,
      "timhlamh": 8197,
      "timhtuahpiak": 8198,
      "Jehoad": 8199,
      "Jehonadab": 8200,
      "Neariah": 8201,
      "Nefilim": 8202,
      "chawkhonnak": 8203,
      "rawnmi": 8204,
      "rawnhter": 8205,
      "sinumnu": 8206,
      "Bethshan": 8207,
      "Bethfeih": 8208,
      "lekter": 8209,
      "Atute": 8210,
      "meholah": 8211,
      "Haz": 8212,
      "Havvoth": 8213,
      "Hakhilah": 8214,
      "Hadid": 8215,
      "Ramath": 8216,
      "thlaitu": 8217,
      "shaf": 8218,
      "Tiber": 8219,
      "Tibni": 8220,
      "voimi": 8221,
      "penes": 8222,
      "puamnak": 8223,
      "dawhter": 8224,
      "tlintertu": 8225,
      "Capawl": 8226,
      "ratpitu": 8227,
      "huz": 8228,
      "kuatnak": 8229,
      "chumhmi": 8230,
      "chumhmui": 8231,
      "zuamcawh": 8232,
      "Ahava": 8233,
      "fialnak": 8234,
      "lihchimmi": 8235,
      "bawmhmi": 8236,
      "zit": 8237,
      "zipeng": 8238,
      "umtermi": 8239,
      "thlakawk": 8240,
      "Reaiah": 8241,
      "Retheimi": 8242,
      "hlomh": 8243,
      "fihnunnak": 8244,
      "fihnungmi": 8245,
      "thanhpiak": 8246,
      "dengtu": 8247,
      "Miniamin": 8248,
      "cawnghnak": 8249,
      "cawnghter": 8250,
      "tawngca": 8251,
      "tawnghter": 8252,
      "sanna": 8253,
      "sanning": 8254,
      "Tunaite": 8255,
      "zahab": 8256,
      "Dantat": 8257,
      "naidem": 8258,
      "serhpiak": 8259,
      "fera": 8260,
      "hlenthawinak": 8261,
      "Efrathah": 8262,
      "nuamhter": 8263,
      "nuamnuam": 8264,
      "Vale": 8265,
      "laapi": 8266,
      "dipdep": 8267,
      "ciaomau": 8268,
      "nemmam": 8269,
      "kenter": 8270,
      "keneh": 8271,
      "kenret": 8272,
      "chuahternak": 8273,
      "zaangfahtu": 8274,
      "Abiana": 8275,
      "Geshem": 8276,
      "tlonlennak": 8277,
      "hmetuai": 8278,
      "Hmaiah": 8279,
      "Hmelchunhnak": 8280,
      "chehmi": 8281,
      "Elte": 8282,
      "Elpaal": 8283,
      "nahchuahter": 8284,
      "ziathiam": 8285,
      "kommi": 8286,
      "Phungbuar": 8287,
      "Hamutal": 8288,
      "hlawhhlan": 8289,
      "hlawhtlin": 8290,
      "tarmi": 8291,
      "Thilpuan": 8292,
      "hmuizum": 8293,
      "ṭhektu": 8294,
      "angkifual": 8295,
      "ṭhawltu": 8296,
      "ṭhawlpiak": 8297,
      "phuzep": 8298,
      "khuaiseng": 8299,
      "cohlanmi": 8300,
      "cohlannak": 8301,
      "Khrihfami": 8302,
      "Tuuhmul": 8303,
      "Ahisamak": 8304,
      "hmaante": 8305,
      "Arba": 8306,
      "kanghtu": 8307,
      "Inncung": 8308,
      "Cham": 8309,
      "mithikhua": 8310,
      "karhcho": 8311,
      "cawngtunu": 8312,
      "lahmangṭhia": 8313,
      "uahmahmi": 8314,
      "umtuzia": 8315,
      "liammi": 8316,
      "hlangfang": 8317,
      "pawpi": 8318,
      "toihnak": 8319,
      "Ṭhatlo": 8320,
      "pialmi": 8321,
      "pialhnawh": 8322,
      "pialtertu": 8323,
      "rialhnawh": 8324,
      "hoihter": 8325,
      "Heres": 8326,
      "zuarnak": 8327,
      "hngawngdih": 8328,
      "rawiphiar": 8329,
      "ṭangṭimi": 8330,
      "khonter": 8331,
      "hngilhmi": 8332,
      "hngilhter": 8333,
      "bawhmi": 8334,
      "Zuun": 8335,
      "ranter": 8336,
      "Jaar": 8337,
      "Jabal": 8338,
      "Khaldia": 8339,
      "Shihor": 8340,
      "khimmi": 8341,
      "milempi": 8342,
      "kassia": 8343,
      "ṭhangṭhat": 8344,
      "Cungdot": 8345,
      "Salnu": 8346,
      "siningte": 8347,
      "Damnak": 8348,
      "kenglei": 8349,
      "ruakhuang": 8350,
      "hlerpiak": 8351,
      "Kenan": 8352,
      "Kerioth": 8353,
      "toihtu": 8354,
      "langhning": 8355,
      "langhhnawh": 8356,
      "Moreh": 8357,
      "Moresheth": 8358,
      "barah": 8359,
      "cawimi": 8360,
      "luao": 8361,
      "thlehmi": 8362,
      "Tivate": 8363,
      "Tivapi": 8364,
      "Karkhe": 8365,
      "thianternak": 8366,
      "Ashtor": 8367,
      "tawimi": 8368,
      "Shabbe": 8369,
      "Horon": 8370,
      "Horkuang": 8371,
      "Horonaim": 8372,
      "Sele": 8373,
      "Segub": 8374,
      "toidormi": 8375,
      "chawhhnawh": 8376,
      "santlaimi": 8377,
      "Perga": 8378,
      "Saruak": 8379,
      "Sardis": 8380,
      "ningcanglo": 8381,
      "dinhdorh": 8382,
      "Khaka": 8383,
      "Khatte": 8384,
      "zuannak": 8385,
      "Nahum": 8386,
      "Nahchuahnak": 8387,
      "kilveng": 8388,
      "Nunnuam": 8389,
      "ihpitu": 8390,
      "khammi": 8391,
      "khamnak": 8392,
      "Meiphu": 8393,
      "horduh": 8394,
      "chimhhrinmi": 8395,
      "hakkauh": 8396,
      "hakkaumi": 8397,
      "tuakpiak": 8398,
      "khihchih": 8399,
      "tuaiter": 8400,
      "lawmhternak": 8401,
      "serhsattu": 8402,
      "Timnath": 8403,
      "Mura": 8404,
      "sawhsawhmi": 8405,
      "Gatam": 8406,
      "dawnkhan": 8407,
      "rashim": 8408,
      "Chunzan": 8409,
      "Hori": 8410,
      "Holon": 8411,
      "thlumthlum": 8412,
      "hnawmtam": 8413,
      "vakvai": 8414,
      "umpitu": 8415,
      "batter": 8416,
      "Hmunmi": 8417,
      "Thebez": 8418,
      "Eliada": 8419,
      "hngahhlang": 8420,
      "puarhrang": 8421,
      "mitcawmi": 8422,
      "mitcawtnak": 8423,
      "ṭannak": 8424,
      "lehrulhnak": 8425,
      "zeirellonak": 8426,
      "Cawla": 8427,
      "hlengtu": 8428,
      "nalmi": 8429,
      "awlokchonh": 8430,
      "thangchiatmi": 8431,
      "thangchiattu": 8432,
      "chinhkanh": 8433,
      "hnonak": 8434,
      "mihlen": 8435,
      "fingrei": 8436,
      "ngaihchihmi": 8437,
      "hmaihngalnak": 8438,
      "Thingtan": 8439,
      "Adrammelek": 8440,
      "rimthawmi": 8441,
      "vahpi": 8442,
      "vahvaih": 8443,
      "hnabeidonghnak": 8444,
      "hrengmi": 8445,
      "hrengtu": 8446,
      "pharnak": 8447,
      "porhlawtmi": 8448,
      "hruhter": 8449,
      "cilnak": 8450,
      "Malkhiah": 8451,
      "pechanmi": 8452,
      "Azmon": 8453,
      "Azriel": 8454,
      "Ahiman": 8455,
      "Jahzeel": 8456,
      "Jahleel": 8457,
      "Adonikam": 8458,
      "Baalath": 8459,
      "lanhpi": 8460,
      "ṭhahnemmi": 8461,
      "Luka": 8462,
      "Rangcung": 8463,
      "cep": 8464,
      "ṭinter": 8465,
      "cheuhning": 8466,
      "Akbor": 8467,
      "Akrabbim": 8468,
      "Shimeah": 8469,
      "Shimeath": 8470,
      "deiter": 8471,
      "deirel": 8472,
      "puammi": 8473,
      "Dairus": 8474,
      "hrenhkhumh": 8475,
      "hrenhkanh": 8476,
      "Chiandeihpi": 8477,
      "hliammi": 8478,
      "hliamnak": 8479,
      "lainawngtu": 8480,
      "phakpitu": 8481,
      "cemchih": 8482,
      "rawlṭammi": 8483,
      "Lihchimmi": 8484,
      "funtom": 8485,
      "kinglang": 8486,
      "puhtu": 8487,
      "pommi": 8488,
      "Huppim": 8489,
      "kawiter": 8490,
      "hnamngei": 8491,
      "thutter": 8492,
      "zengmi": 8493,
      "Fikol": 8494,
      "Imri": 8495,
      "Lawngcawng": 8496,
      "Zumhtlak": 8497,
      "Dot": 8498,
      "Sermi": 8499,
      "Shomer": 8500,
      "Tahan": 8501,
      "Tahchunhnak": 8502,
      "Tahpenes": 8503,
      "marlei": 8504,
      "depmap": 8505,
      "Shubael": 8506,
      "khawnhnawh": 8507,
      "almuk": 8508,
      "Gerasa": 8509,
      "Lairel": 8510,
      "Lainawng": 8511,
      "Lainawnnak": 8512,
      "chonkanh": 8513,
      "hrualmi": 8514,
      "ceuhtu": 8515,
      "Endor": 8516,
      "metmi": 8517,
      "hranhtu": 8518,
      "Thahmi": 8519,
      "thurhnawmhtertu": 8520,
      "nautatnak": 8521,
      "Buri": 8522,
      "Lengah": 8523,
      "Nimrod": 8524,
      "Ṭhangh": 8525,
      "luaimaimi": 8526,
      "Jarib": 8527,
      "Koz": 8528,
      "Kolaiah": 8529,
      "Konaniah": 8530,
      "Pumsa": 8531,
      "Khualtlung": 8532,
      "Khualtlawngmi": 8533,
      "Elishah": 8534,
      "Chawleh": 8535,
      "Alfa": 8536,
      "Almon": 8537,
      "Cawnningani": 8538,
      "mot": 8539,
      "nincan": 8540,
      "rauhter": 8541,
      "Mikloth": 8542,
      "Thonginn": 8543,
      "Thongtla": 8544,
      "hnianghnuang": 8545,
      "cawlcangh": 8546,
      "Dingthlu": 8547,
      "Kushi": 8548,
      "sawksam": 8549,
      "thletnak": 8550,
      "almond": 8551,
      "tinhning": 8552,
      "haddon": 8553,
      "damhpiak": 8554,
      "Pekahiah": 8555,
      "agate": 8556,
      "chaang": 8557,
      "chaangtu": 8558,
      "chemmi": 8559,
      "Maharai": 8560,
      "humhaknak": 8561,
      "Hasse": 8562,
      "Peninnah": 8563,
      "Pentekos": 8564,
      "phongh": 8565,
      "Ashkenaz": 8566,
      "Dumah": 8567,
      "Puvah": 8568,
      "khuannak": 8569,
      "chimhnawhchan": 8570,
      "biakchawnhpiak": 8571,
      "khuamuih": 8572,
      "Heldai": 8573,
      "Helkath": 8574,
      "Ibhar": 8575,
      "Nof": 8576,
      "Taleti": 8577,
      "khelbo": 8578,
      "ngaihchiattertu": 8579,
      "lentecelhnak": 8580,
      "Zillah": 8581,
      "zahpimi": 8582,
      "vawlhpamhnak": 8583,
      "Sharezer": 8584,
      "Ṭhitumnak": 8585,
      "tlunhtu": 8586,
      "Halah": 8587,
      "Tlakrawh": 8588,
      "Tlawmte": 8589,
      "milungpuam": 8590,
      "milungkhong": 8591,
      "phentu": 8592,
      "kiangkap": 8593,
      "Bilgah": 8594,
      "ṭhupmi": 8595,
      "Nehelam": 8596,
      "Jashobeam": 8597,
      "Lawkih": 8598,
      "Rungrul": 8599,
      "luklak": 8600,
      "millo": 8601,
      "ṭhanghter": 8602,
      "Jeshanah": 8603,
      "Azaziah": 8604,
      "Janoah": 8605,
      "Massah": 8606,
      "Ningzak": 8607,
      "Shuham": 8608,
      "Trofimas": 8609,
      "nutar": 8610,
      "rawchok": 8611,
      "cipkhap": 8612,
      "Nikolas": 8613,
      "Camcawhfung": 8614,
      "Akhshaf": 8615,
      "Harosheth": 8616,
      "Memukan": 8617,
      "Panga": 8618,
      "Porhlawtnak": 8619,
      "Telhlo": 8620,
      "hliti": 8621,
      "hlonhnak": 8622,
      "opagas": 8623,
      "pokmi": 8624,
      "vuiho": 8625,
      "tenhmi": 8626,
      "dawpter": 8627,
      "Thangṭhat": 8628,
      "Harar": 8629,
      "Santlailo": 8630,
      "Ainias": 8631,
      "Gallio": 8632,
      "Khinnereth": 8633,
      "Shillem": 8634,
      "Shaaraim": 8635,
      "Galati": 8636,
      "Zarethan": 8637,
      "Potifera": 8638,
      "Camhthiam": 8639,
      "Demas": 8640,
      "Demetrius": 8641,
      "Habor": 8642,
      "Kereth": 8643,
      "Lothlo": 8644,
      "Lothlopa": 8645,
      "Pontas": 8646,
      "Pontius": 8647,
      "bongh": 8648,
      "feihlung": 8649,
      "tluanter": 8650,
      "lungherhchehnak": 8651,
      "uanthlarmi": 8652,
      "Mibsam": 8653,
      "Gederah": 8654,
      "Chawdawrnak": 8655,
      "Avvim": 8656,
      "Bernis": 8657,
      "Hnahnawhnak": 8658,
      "Jaddua": 8659,
      "Kittim": 8660,
      "Phuhlam": 8661,
      "Sunghno": 8662,
      "Shuni": 8663,
      "Zahan": 8664,
      "jaakan": 8665,
      "keuṭe": 8666,
      "Ṭeklung": 8667,
      "khethuan": 8668,
      "hmumbor": 8669,
      "aris": 8670,
      "mitlehthiam": 8671,
      "hnawnter": 8672,
      "Barabbas": 8673,
      "kepha": 8674,
      "tuaitamtu": 8675,
      "Bakbukiah": 8676,
      "Epafras": 8677,
      "Onesimas": 8678,
      "Khuahrumbo": 8679,
      "Meshillemoth": 8680,
      "Areopagas": 8681,
      "Gareb": 8682,
      "Irijah": 8683,
      "Klaudias": 8684,
      "Mihrokhrawl": 8685,
      "Taikhikas": 8686,
      "Tobram": 8687,
      "corhter": 8688,
      "sawisam": 8689,
      "Ṭhuro": 8690,
      "tuukawm": 8691,
      "hruaih": 8692,
      "liakmi": 8693,
      "Jekamiah": 8694,
      "zaptu": 8695,
      "sharezer": 8696,
      "Justas": 8697,
      "Jotbathah": 8698,
      "Sheshbazzar": 8699,
      "Asenath": 8700,
      "Areli": 8701,
      "Bunni": 8702,
      "Cawngtu": 8703,
      "Esarhaddon": 8704,
      "Ebenezer": 8705,
      "Erastas": 8706,
      "Frizia": 8707,
      "Genesar": 8708,
      "Hawhra": 8709,
      "Hosea": 8710,
      "Hotham": 8711,
      "Hranchaw": 8712,
      "Iftah": 8713,
      "Ijon": 8714,
      "Ikkesh": 8715,
      "Ivvah": 8716,
      "Kolhoze": 8717,
      "Kelita": 8718,
      "Nawhthuh": 8719,
      "Nawncek": 8720,
      "Oded": 8721,
      "Omega": 8722,
      "Shuppim": 8723,
      "Vengtu": 8724,
      "Ziha": 8725,
      "zawmtai": 8726,
      "Ṭangbenh": 8727,
      "ngerhmi": 8728,
      "mizuram": 8729,
      "mizuangzamnu": 8730,
      "karao": 8731,
      "amethist": 8732,
      "teomao": 8733,
      "ṭhipṭhep": 8734,
      "bitumen": 8735,
      "lunghmuih": 8736,
      "lungthuhreng": 8737,
      "Jeshurun": 8738,
      "Nafish": 8739,
      "Daberath": 8740,
      "pumpuluk": 8741,
      "Baalhanan": 8742,
      "Khuamui": 8743,
      "diblathaim": 8744,
      "comcawroi": 8745,
      "Tiberias": 8746,
      "kenretmi": 8747,
      "Karkhemish": 8748,
      "Ashtoreth": 8749,
      "Shabbethai": 8750,
      "Genesaret": 8751,
      "Kolhozeh": 8752,
      "!)": 8753,
      "):": 8754,
      ".]": 8755,
      "Aih": 8756,
      "Avi": 8757,
      "Aen": 8758,
      "Ata": 8759,
      "Amit": 8760,
      "Alu": 8761,
      "Ahar": 8762,
      "Ada": 8763,
      "Adi": 8764,
      "Arum": 8765,
      "Akhim": 8766,
      "Aven": 8767,
      "Anaiah": 8768,
      "Azor": 8769,
      "Appa": 8770,
      "Ahih": 8771,
      "Ahlai": 8772,
      "Aanka": 8773,
      "Adoram": 8774,
      "Ahuz": 8775,
      "Bai": 8776,
      "Bir": 8777,
      "Bet": 8778,
      "Bawmh": 8779,
      "Bohan": 8780,
      "Bine": 8781,
      "Co": 8782,
      "Dang": 8783,
      "Dawt": 8784,
      "Ether": 8785,
      "Eran": 8786,
      "Enaim": 8787,
      "Fei": 8788,
      "Fawi": 8789,
      "Fon": 8790,
      "Fek": 8791,
      "Fanu": 8792,
      "Frankinsen": 8793,
      "Gob": 8794,
      "Gur": 8795,
      "Gaz": 8796,
      "Gud": 8797,
      "Goiim": 8798,
      "Hy": 8799,
      "Hlang": 8800,
      "Hriam": 8801,
      "Helah": 8802,
      "Heli": 8803,
      "Hlawt": 8804,
      "Hnihnak": 8805,
      "Ika": 8806,
      "Iram": 8807,
      "Iezer": 8808,
      "Isakhar": 8809,
      "Ithiel": 8810,
      "Jut": 8811,
      "Jaro": 8812,
      "Kai": 8813,
      "Kul": 8814,
      "Kawl": 8815,
      "Kuar": 8816,
      "Kulh": 8817,
      "Kris": 8818,
      "Lawh": 8819,
      "Len": 8820,
      "Luk": 8821,
      "Lem": 8822,
      "Luat": 8823,
      "Launak": 8824,
      "Leitu": 8825,
      "Lemuel": 8826,
      "Mawh": 8827,
      "Mual": 8828,
      "Mered": 8829,
      "Nam": 8830,
      "Nel": 8831,
      "Noh": 8832,
      "Neh": 8833,
      "Oz": 8834,
      "Ohad": 8835,
      "Ozem": 8836,
      "Pin": 8837,
      "Pun": 8838,
      "Phu": 8839,
      "Pub": 8840,
      "Rau": 8841,
      "Rod": 8842,
      "Sm": 8843,
      "Seme": 8844,
      "Tanh": 8845,
      "Tua": 8846,
      "Toh": 8847,
      "Tri": 8848,
      "Thlei": 8849,
      "Tad": 8850,
      "Thau": 8851,
      "Tlin": 8852,
      "Toah": 8853,
      "Tuknak": 8854,
      "Tlanh": 8855,
      "Tlap": 8856,
      "Ul": 8857,
      "Ulai": 8858,
      "Uzal": 8859,
      "Utlak": 8860,
      "Uthai": 8861,
      "Vo": 8862,
      "Vui": 8863,
      "Zum": 8864,
      "Zaa": 8865,
      "Zawn": 8866,
      "Ziah": 8867,
      "Zual": 8868,
      "Zere": 8869,
      "Zeus": 8870,
      "akh": 8871,
      "azeihmanh": 8872,
      "abas": 8873,
      "arath": 8874,
      "buat": 8875,
      "bet": 8876,
      "bres": 8877,
      "bawt": 8878,
      "cei": 8879,
      "canh": 8880,
      "ddai": 8881,
      "dgad": 8882,
      "ef": 8883,
      "ete": 8884,
      "eel": 8885,
      "ehnak": 8886,
      "eri": 8887,
      "een": 8888,
      "fkah": 8889,
      "fawh": 8890,
      "fiah": 8891,
      "fzi": 8892,
      "foth": 8893,
      "fto": 8894,
      "fos": 8895,
      "gem": 8896,
      "hul": 8897,
      "hon": 8898,
      "hlio": 8899,
      "huai": 8900,
      "hhnawh": 8901,
      "hual": 8902,
      "humhnak": 8903,
      "hamh": 8904,
      "hinnom": 8905,
      "if": 8906,
      "il": 8907,
      "ial": 8908,
      "ilh": 8909,
      "iangtu": 8910,
      "jael": 8911,
      "kawipa": 8912,
      "kim": 8913,
      "kfa": 8914,
      "kawmh": 8915,
      "klah": 8916,
      "kvah": 8917,
      "lmi": 8918,
      "lfial": 8919,
      "llas": 8920,
      "mau": 8921,
      "maan": 8922,
      "mom": 8923,
      "mennak": 8924,
      "math": 8925,
      "melah": 8926,
      "nua": 8927,
      "nul": 8928,
      "net": 8929,
      "nenhnak": 8930,
      "ninu": 8931,
      "ofi": 8932,
      "pawh": 8933,
      "pual": 8934,
      "peli": 8935,
      "pmap": 8936,
      "rna": 8937,
      "rnak": 8938,
      "rthla": 8939,
      "rek": 8940,
      "rawhr": 8941,
      "rorah": 8942,
      "rver": 8943,
      "sumnak": 8944,
      "sluh": 8945,
      "ssah": 8946,
      "ssop": 8947,
      "sthen": 8948,
      "srok": 8949,
      "smai": 8950,
      "tsa": 8951,
      "tihnak": 8952,
      "ttah": 8953,
      "tphu": 8954,
      "ttil": 8955,
      "ufa": 8956,
      "utha": 8957,
      "vaw": 8958,
      "vam": 8959,
      "vua": 8960,
      "voh": 8961,
      "vuang": 8962,
      "vual": 8963,
      "vuah": 8964,
      "vuanh": 8965,
      "yah": 8966,
      "yrna": 8967,
      "zawi": 8968,
      "zawhnak": 8969,
      "zkiah": 8970,
      "zuhmi": 8971,
      "Ṭuang": 8972,
      "Ṭhut": 8973,
      "Ṭotho": 8974,
      "Ṭuak": 8975,
      "ṭawh": 8976,
      "ṭumnak": 8977,
      "ṭinmi": 8978,
      "ṭuam": 8979,
      "ṭiap": 8980,
      "anna": 8981,
      "anter": 8982,
      "anem": 8983,
      "anhnawh": 8984,
      "aneh": 8985,
      "ahter": 8986,
      "ahba": 8987,
      "naang": 8988,
      "naloin": 8989,
      "naias": 8990,
      "naunganfah": 8991,
      "ngor": 8992,
      "nguhmi": 8993,
      "cucun": 8994,
      "cutin": 8995,
      "cuhmi": 8996,
      "cuangmi": 8997,
      "awka": 8998,
      "khut": 8999,
      "khria": 9000,
      "kheh": 9001,
      "khnem": 9002,
      "khonh": 9003,
      "kherh": 9004,
      "hnap": 9005,
      "thse": 9006,
      "thmah": 9007,
      "thri": 9008,
      "thon": 9009,
      "thalnak": 9010,
      "theth": 9011,
      "thlehnak": 9012,
      "thlok": 9013,
      "thrus": 9014,
      "miz": 9015,
      "mili": 9016,
      "minga": 9017,
      "mizul": 9018,
      "micheu": 9019,
      "misaram": 9020,
      "mithianglo": 9021,
      "mitlu": 9022,
      "mizer": 9023,
      "misantlai": 9024,
      "mising": 9025,
      "mithahnak": 9026,
      "mirawitu": 9027,
      "mimolh": 9028,
      "miramhtu": 9029,
      "mirummi": 9030,
      "miteima": 9031,
      "midohhmang": 9032,
      "miziathiam": 9033,
      "mivakvai": 9034,
      "angṭhunh": 9035,
      "lad": 9036,
      "laf": 9037,
      "lalai": 9038,
      "later": 9039,
      "lalang": 9040,
      "lathah": 9041,
      "lasar": 9042,
      "ladel": 9043,
      "khak": 9044,
      "khas": 9045,
      "khath": 9046,
      "khaang": 9047,
      "khati": 9048,
      "kaihter": 9049,
      "kaboth": 9050,
      "kaliah": 9051,
      "kashah": 9052,
      "tilak": 9053,
      "tinga": 9054,
      "tidin": 9055,
      "tithan": 9056,
      "tidai": 9057,
      "tidinnak": 9058,
      "tithuk": 9059,
      "tisik": 9060,
      "tiezer": 9061,
      "tivak": 9062,
      "tithawl": 9063,
      "tibual": 9064,
      "tithantu": 9065,
      "tisartlam": 9066,
      "lea": 9067,
      "lev": 9068,
      "leth": 9069,
      "lemh": 9070,
      "leet": 9071,
      "lemith": 9072,
      "lekhnawh": 9073,
      "lelel": 9074,
      "lekheth": 9075,
      "cher": 9076,
      "siel": 9077,
      "siangmi": 9078,
      "siahmah": 9079,
      "sicannak": 9080,
      "sifia": 9081,
      "pauh": 9082,
      "pater": 9083,
      "pathir": 9084,
      "padap": 9085,
      "pavuan": 9086,
      "pavuah": 9087,
      "altu": 9088,
      "tus": 9089,
      "tufa": 9090,
      "tuchan": 9091,
      "tutan": 9092,
      "tuamnak": 9093,
      "tullas": 9094,
      "laicer": 9095,
      "lailing": 9096,
      "nakcha": 9097,
      "ammi": 9098,
      "amte": 9099,
      "amṭuam": 9100,
      "amtiezer": 9101,
      "lothi": 9102,
      "loter": 9103,
      "lohe": 9104,
      "loning": 9105,
      "temi": 9106,
      "teka": 9107,
      "tekel": 9108,
      "tetuai": 9109,
      "umpiak": 9110,
      "umcamcin": 9111,
      "umeth": 9112,
      "umhnawhmi": 9113,
      "umkalning": 9114,
      "thia": 9115,
      "thichuah": 9116,
      "thimipa": 9117,
      "thichuahnak": 9118,
      "aktlak": 9119,
      "akkau": 9120,
      "akkuk": 9121,
      "akṭuak": 9122,
      "hmawh": 9123,
      "hmuar": 9124,
      "hmalnak": 9125,
      "hmonah": 9126,
      "sengh": 9127,
      "seino": 9128,
      "sepmap": 9129,
      "nannan": 9130,
      "lawhnak": 9131,
      "ṭhai": 9132,
      "ṭhom": 9133,
      "ṭhulh": 9134,
      "ṭhumhnak": 9135,
      "ṭhehmi": 9136,
      "ṭhehnak": 9137,
      "caang": 9138,
      "cathiammi": 9139,
      "khannak": 9140,
      "anhnah": 9141,
      "hiroth": 9142,
      "uap": 9143,
      "pianh": 9144,
      "imaw": 9145,
      "imael": 9146,
      "chungtu": 9147,
      "chungnawh": 9148,
      "raan": 9149,
      "razin": 9150,
      "rafel": 9151,
      "radis": 9152,
      "mahka": 9153,
      "mahte": 9154,
      "mahticun": 9155,
      "hre": 9156,
      "hrun": 9157,
      "hrul": 9158,
      "hreih": 9159,
      "hrawmh": 9160,
      "hrinning": 9161,
      "kod": 9162,
      "koral": 9163,
      "koliah": 9164,
      "korath": 9165,
      "aize": 9166,
      "aipat": 9167,
      "Pat": 9168,
      "Padon": 9169,
      "Pafos": 9170,
      "Pathrus": 9171,
      "Paradis": 9172,
      "kahter": 9173,
      "kahram": 9174,
      "kahpiak": 9175,
      "kahpathir": 9176,
      "tuahto": 9177,
      "virver": 9178,
      "pham": 9179,
      "phoh": 9180,
      "phawk": 9181,
      "phinter": 9182,
      "biaruah": 9183,
      "biachimtu": 9184,
      "biachah": 9185,
      "biakhiahmi": 9186,
      "biathlek": 9187,
      "biacahmi": 9188,
      "biathlehnak": 9189,
      "fachin": 9190,
      "ingal": 9191,
      "ingui": 9192,
      "perh": 9193,
      "pere": 9194,
      "pehter": 9195,
      "pehang": 9196,
      "penaz": 9197,
      "artlang": 9198,
      "ariel": 9199,
      "arhli": 9200,
      "leiro": 9201,
      "leileh": 9202,
      "cungte": 9203,
      "cungpi": 9204,
      "cungcang": 9205,
      "cungchin": 9206,
      "ramte": 9207,
      "ramking": 9208,
      "lakmak": 9209,
      "ihmung": 9210,
      "ihmur": 9211,
      "khuacaan": 9212,
      "khuaruat": 9213,
      "khuafing": 9214,
      "khuaingal": 9215,
      "lianh": 9216,
      "lileng": 9217,
      "lius": 9218,
      "pahchih": 9219,
      "hnakruh": 9220,
      "tukum": 9221,
      "tukpiak": 9222,
      "tlumh": 9223,
      "chimram": 9224,
      "chimthiam": 9225,
      "chimpiaktu": 9226,
      "chimpit": 9227,
      "ohmi": 9228,
      "oham": 9229,
      "Jekam": 9230,
      "Jehal": 9231,
      "Jedi": 9232,
      "Jekhon": 9233,
      "Jekhariah": 9234,
      "Jemuel": 9235,
      "Jetheth": 9236,
      "Jekoliah": 9237,
      "Cuan": 9238,
      "hngahnak": 9239,
      "hngete": 9240,
      "rion": 9241,
      "kalmipa": 9242,
[...]
