{
  "version": "1.0",
  "truncation": null,
  "padding": null,
  "added_tokens": [
    {
      "id": 0,
      "content": "<pad>",
      "single_word": false,
      "lstrip": false,
      "rstrip": false,
      "normalized": false,
      "special": true
    },
    {
      "id": 1,
      "content": "<unk>",
      "single_word": false,
      "lstrip": false,
      "rstrip": false,
      "normalized": false,
      "special": true
    },
    {
      "id": 2,
      "content": "<s>",
      "single_word": false,
      "lstrip": false,
      "rstrip": false,
      "normalized": false,
      "special": true
    },
    {
      "id": 3,
      "content": "</s>",
      "single_word": false,
      "lstrip": false,
      "rstrip": false,
      "normalized": false,
      "special": true
    }
  ],
  "normalizer": null,
  "pre_tokenizer": {
    "type": "Sequence",
    "pretokenizers": [
      {
        "type": "Whitespace"
      },
      {
        "type": "Split",
        "pattern": {
          "Regex": "(?<=[ऀ-ॿ஀-௿฀-๿຀-໿က-႟ក-៿一-鿿꤀-꤯])(?=[A-Za-z0-9])|(?<=[A-Za-z0-9])(?=[ऀ-ॿ஀-௿฀-๿຀-໿က-႟ក-៿一-鿿꤀-꤯])"
        },
        "behavior": "Isolated",
        "invert": false
      }
    ]
  },
  "post_processor": null,
  "decoder": null,
  "model": {
    "type": "BPE",
    "dropout": null,
    "unk_token": "<unk>",
    "continuing_subword_prefix": null,
    "end_of_word_suffix": null,
    "fuse_unk": false,
    "byte_fallback": false,
    "ignore_merges": false,
    "vocab": {
      "<pad>": 0,
      "<unk>": 1,
      "<s>": 2,
      "</s>": 3,
      "!": 4,
      "\"": 5,
      "#": 6,
      "$": 7,
      "%": 8,
      "&": 9,
      "'": 10,
      "(": 11,
      ")": 12,
      "*": 13,
      "+": 14,
      ",": 15,
      "-": 16,
      ".": 17,
      "/": 18,
      "0": 19,
      "1": 20,
      "2": 21,
      "3": 22,
      "4": 23,
      "5": 24,
      "6": 25,
      "7": 26,
      "8": 27,
      "9": 28,
      ":": 29,
      ";": 30,
      "<": 31,
      "=": 32,
      ">": 33,
      "?": 34,
      "@": 35,
      "A": 36,
      "B": 37,
      "C": 38,
      "D": 39,
      "E": 40,
      "F": 41,
      "G": 42,
      "H": 43,
      "I": 44,
      "J": 45,
      "K": 46,
      "L": 47,
      "M": 48,
      "N": 49,
      "O": 50,
      "P": 51,
      "Q": 52,
      "R": 53,
      "S": 54,
      "T": 55,
      "U": 56,
      "V": 57,
      "W": 58,
      "X": 59,
      "Y": 60,
      "Z": 61,
      "[": 62,
      "\\": 63,
      "]": 64,
      "^": 65,
      "_": 66,
      "`": 67,
      "a": 68,
      "b": 69,
      "c": 70,
      "d": 71,
      "e": 72,
      "f": 73,
      "g": 74,
      "h": 75,
      "i": 76,
      "j": 77,
      "k": 78,
      "l": 79,
      "m": 80,
      "n": 81,
      "o": 82,
      "p": 83,
      "q": 84,
      "r": 85,
      "s": 86,
      "t": 87,
      "u": 88,
      "v": 89,
      "w": 90,
      "x": 91,
      "y": 92,
      "z": 93,
      "{": 94,
      "|": 95,
      "}": 96,
      "~": 97,
      "": 98,
      "¡": 99,
      "¢": 100,
      "£": 101,
      "¤": 102,
      "¥": 103,
      "¦": 104,
      "§": 105,
      "©": 106,
      "«": 107,
      "¬": 108,
      "­": 109,
      "®": 110,
      "°": 111,
      "±": 112,
      "²": 113,
      "³": 114,
      "´": 115,
      "µ": 116,
      "¶": 117,
      "·": 118,
      "¸": 119,
      "¹": 120,
      "º": 121,
      "»": 122,
      "½": 123,
      "¿": 124,
      "À": 125,
      "Á": 126,
      "Â": 127,
      "Ã": 128,
      "Ä": 129,
      "Å": 130,
      "Æ": 131,
      "Ç": 132,
      "È": 133,
      "É": 134,
      "Ê": 135,
      "Ë": 136,
      "Ì": 137,
      "Í": 138,
      "Î": 139,
      "Ï": 140,
      "Ð": 141,
      "Ñ": 142,
      "Ò": 143,
      "Ó": 144,
      "Ô": 145,
      "Õ": 146,
      "Ö": 147,
      "×": 148,
      "Ø": 149,
      "Ù": 150,
      "Ú": 151,
      "Û": 152,
      "Ü": 153,
      "Ý": 154,
      "Þ": 155,
      "ß": 156,
      "à": 157,
      "á": 158,
      "â": 159,
      "ã": 160,
      "ä": 161,
      "å": 162,
      "æ": 163,
      "ç": 164,
      "è": 165,
      "é": 166,
      "ê": 167,
      "ë": 168,
      "ì": 169,
      "í": 170,
      "î": 171,
      "ï": 172,
      "ð": 173,
      "ñ": 174,
      "ò": 175,
      "ó": 176,
      "ô": 177,
      "õ": 178,
      "ö": 179,
      "÷": 180,
      "ø": 181,
      "ù": 182,
      "ú": 183,
      "û": 184,
      "ü": 185,
      "ý": 186,
      "þ": 187,
      "ÿ": 188,
      "Ā": 189,
      "ā": 190,
      "Ă": 191,
      "ă": 192,
      "Ą": 193,
      "ą": 194,
      "Ć": 195,
      "ć": 196,
      "Ĉ": 197,
      "ĉ": 198,
      "Ċ": 199,
      "ċ": 200,
      "Č": 201,
      "č": 202,
      "Ď": 203,
      "ď": 204,
      "Đ": 205,
      "đ": 206,
      "Ē": 207,
      "ē": 208,
      "Ĕ": 209,
      "ĕ": 210,
      "Ė": 211,
      "ė": 212,
      "Ę": 213,
      "ę": 214,
      "Ě": 215,
      "ě": 216,
      "Ĝ": 217,
      "ĝ": 218,
      "Ğ": 219,
      "ğ": 220,
      "Ġ": 221,
      "ġ": 222,
      "Ģ": 223,
      "ģ": 224,
      "Ĥ": 225,
      "ĥ": 226,
      "Ħ": 227,
      "ħ": 228,
      "Ĩ": 229,
      "ĩ": 230,
      "Ī": 231,
      "ī": 232,
      "Ĭ": 233,
      "ĭ": 234,
      "Į": 235,
      "į": 236,
      "İ": 237,
      "ı": 238,
      "Ĵ": 239,
      "ĵ": 240,
      "Ķ": 241,
      "ķ": 242,
      "Ĺ": 243,
      "ĺ": 244,
      "Ļ": 245,
      "ļ": 246,
      "Ľ": 247,
      "ľ": 248,
      "Ŀ": 249,
      "ŀ": 250,
      "Ł": 251,
      "ł": 252,
      "Ń": 253,
      "ń": 254,
      "Ņ": 255,
      "ņ": 256,
      "Ň": 257,
      "ň": 258,
      "Ŋ": 259,
      "ŋ": 260,
      "Ō": 261,
      "ō": 262,
      "Ŏ": 263,
      "ŏ": 264,
      "Ő": 265,
      "ő": 266,
      "Œ": 267,
      "œ": 268,
      "Ŕ": 269,
      "ŕ": 270,
      "Ŗ": 271,
      "ŗ": 272,
      "Ř": 273,
      "ř": 274,
      "Ś": 275,
      "ś": 276,
      "Ŝ": 277,
      "ŝ": 278,
      "Ş": 279,
      "ş": 280,
      "Š": 281,
      "š": 282,
      "Ţ": 283,
      "ţ": 284,
      "Ť": 285,
      "ť": 286,
      "ŧ": 287,
      "Ũ": 288,
      "ũ": 289,
      "Ū": 290,
      "ū": 291,
      "Ŭ": 292,
      "ŭ": 293,
      "Ů": 294,
      "ů": 295,
      "Ű": 296,
      "ű": 297,
      "Ų": 298,
      "ų": 299,
      "Ŵ": 300,
      "ŵ": 301,
      "Ŷ": 302,
      "ŷ": 303,
      "Ÿ": 304,
      "Ź": 305,
      "ź": 306,
      "Ż": 307,
      "ż": 308,
      "Ž": 309,
      "ž": 310,
      "Ɔ": 311,
      "ƈ": 312,
      "Ǝ": 313,
      "Ə": 314,
      "Ɛ": 315,
      "ƒ": 316,
      "ƕ": 317,
      "ƙ": 318,
      "ƛ": 319,
      "Ơ": 320,
      "ơ": 321,
      "ƥ": 322,
      "ƭ": 323,
      "Ư": 324,
      "ư": 325,
      "ƿ": 326,
      "ǀ": 327,
      "ǁ": 328,
      "ǂ": 329,
      "ǃ": 330,
      "Ǆ": 331,
      "Ǎ": 332,
      "ǎ": 333,
      "Ǐ": 334,
      "ǐ": 335,
      "Ǒ": 336,
      "ǒ": 337,
      "Ǔ": 338,
      "ǔ": 339,
      "Ǖ": 340,
      "ǖ": 341,
      "Ǘ": 342,
      "ǘ": 343,
      "Ǚ": 344,
      "ǚ": 345,
      "Ǜ": 346,
      "ǜ": 347,
      "ǝ": 348,
      "Ǣ": 349,
      "ǣ": 350,
      "Ǫ": 351,
      "ǫ": 352,
      "Ƕ": 353,
      "ȁ": 354,
      "ȅ": 355,
      "ȉ": 356,
      "Ȍ": 357,
      "ȍ": 358,
      "Ȏ": 359,
      "ȏ": 360,
      "Ȕ": 361,
      "ȕ": 362,
      "Ȗ": 363,
      "ȗ": 364,
      "Ș": 365,
      "ș": 366,
      "Ț": 367,
      "ț": 368,
      "ȡ": 369,
      "Ȳ": 370,
      "ȳ": 371,
      "ȴ": 372,
      "ȵ": 373,
      "ȶ": 374,
      "ȷ": 375,
      "Ɂ": 376,
      "ɂ": 377,
      "ɏ": 378,
      "ɐ": 379,
      "ɑ": 380,
      "ɒ": 381,
      "ɓ": 382,
      "ɔ": 383,
      "ɕ": 384,
      "ɖ": 385,
      "ɗ": 386,
      "ɘ": 387,
      "ə": 388,
      "ɚ": 389,
      "ɛ": 390,
      "ɜ": 391,
      "ɝ": 392,
      "ɞ": 393,
      "ɟ": 394,
      "ɠ": 395,
      "ɡ": 396,
      "ɢ": 397,
      "ɣ": 398,
      "ɤ": 399,
      "ɥ": 400,
      "ɦ": 401,
      "ɧ": 402,
      "ɨ": 403,
      "ɪ": 404,
      "ɫ": 405,
      "ɬ": 406,
      "ɭ": 407,
      "ɮ": 408,
      "ɯ": 409,
      "ɰ": 410,
      "ɱ": 411,
      "ɲ": 412,
      "ɳ": 413,
      "ɴ": 414,
      "ɵ": 415,
      "ɶ": 416,
      "ɸ": 417,
      "ɹ": 418,
      "ɺ": 419,
      "ɻ": 420,
      "ɽ": 421,
      "ɾ": 422,
      "ʀ": 423,
      "ʁ": 424,
      "ʂ": 425,
      "ʃ": 426,
      "ʄ": 427,
      "ʇ": 428,
      "ʈ": 429,
      "ʉ": 430,
      "ʊ": 431,
      "ʋ": 432,
      "ʌ": 433,
      "ʍ": 434,
      "ʎ": 435,
      "ʏ": 436,
      "ʐ": 437,
      "ʑ": 438,
      "ʒ": 439,
      "ʔ": 440,
      "ʕ": 441,
      "ʖ": 442,
      "ʗ": 443,
      "ʘ": 444,
      "ʙ": 445,
      "ʛ": 446,
      "ʜ": 447,
      "ʝ": 448,
      "ʟ": 449,
      "ʠ": 450,
      "ʡ": 451,
      "ʢ": 452,
      "ʣ": 453,
      "ʤ": 454,
      "ʥ": 455,
      "ʦ": 456,
      "ʧ": 457,
      "ʨ": 458,
      "ʰ": 459,
      "ʱ": 460,
      "ʲ": 461,
      "ʳ": 462,
      "ʶ": 463,
      "ʷ": 464,
      "ʹ": 465,
      "ʻ": 466,
      "ʼ": 467,
      "ʽ": 468,
      "ʾ": 469,
      "ʿ": 470,
      "ˀ": 471,
      "ˁ": 472,
      "ˈ": 473,
      "ˌ": 474,
      "ː": 475,
      "ˑ": 476,
      "˒": 477,
      "˓": 478,
      "˔": 479,
      "˕": 480,
      "˖": 481,
      "˗": 482,
      "˙": 483,
      "˞": 484,
      "ˠ": 485,
      "ˡ": 486,
      "ˤ": 487,
      "˥": 488,
      "˦": 489,
      "˧": 490,
      "˨": 491,
      "˩": 492,
      "˭": 493,
      "̀": 494,
      "́": 495,
      "̂": 496,
      "̃": 497,
      "̄": 498,
      "̆": 499,
      "̈": 500,
      "̊": 501,
      "̋": 502,
      "̌": 503,
      "̍": 504,
      "̎": 505,
      "̏": 506,
      "̑": 507,
      "̘": 508,
      "̙": 509,
      "̚": 510,
      "̜": 511,
      "̝": 512,
      "̞": 513,
      "̟": 514,
      "̠": 515,
      "̢": 516,
      "̣": 517,
      "̤": 518,
      "̥": 519,
      "̩": 520,
      "̪": 521,
      "̫": 522,
      "̬": 523,
      "̯": 524,
      "̰": 525,
      "̱": 526,
      "̴": 527,
      "̹": 528,
      "̺": 529,
      "̻": 530,
      "̼": 531,
      "̽": 532,
      "͆": 533,
      "͇": 534,
      "͈": 535,
      "͉": 536,
      "͊": 537,
      "͍": 538,
      "͎": 539,
      "͑": 540,
      "͗": 541,
      "͜": 542,
      "͡": 543,
      "Ά": 544,
      "Έ": 545,
      "Ή": 546,
      "Ί": 547,
      "Ό": 548,
      "Ύ": 549,
      "Ώ": 550,
      "ΐ": 551,
      "Α": 552,
      "Β": 553,
      "Γ": 554,
      "Δ": 555,
      "Ε": 556,
      "Ζ": 557,
      "Η": 558,
      "Θ": 559,
      "Ι": 560,
      "Κ": 561,
      "Λ": 562,
      "Μ": 563,
      "Ν": 564,
      "Ξ": 565,
      "Ο": 566,
      "Π": 567,
      "Ρ": 568,
      "Σ": 569,
      "Τ": 570,
      "Υ": 571,
      "Φ": 572,
      "Χ": 573,
      "Ψ": 574,
      "Ω": 575,
      "Ϊ": 576,
      "Ϋ": 577,
      "ά": 578,
      "έ": 579,
      "ή": 580,
      "ί": 581,
      "ΰ": 582,
      "α": 583,
      "β": 584,
      "γ": 585,
      "δ": 586,
      "ε": 587,
      "ζ": 588,
      "η": 589,
      "θ": 590,
      "ι": 591,
      "κ": 592,
      "λ": 593,
      "μ": 594,
      "ν": 595,
      "ξ": 596,
      "ο": 597,
      "π": 598,
      "ρ": 599,
      "ς": 600,
      "σ": 601,
      "τ": 602,
      "υ": 603,
      "φ": 604,
      "χ": 605,
      "ψ": 606,
      "ω": 607,
      "ϊ": 608,
      "ϋ": 609,
      "ό": 610,
      "ύ": 611,
      "ώ": 612,
      "ϐ": 613,
      "ϑ": 614,
      "ϕ": 615,
      "Ϛ": 616,
      "Ϝ": 617,
      "ϝ": 618,
      "ϰ": 619,
      "ϱ": 620,
      "ϲ": 621,
      "ϵ": 622,
      "Ё": 623,
      "Ђ": 624,
      "Ѓ": 625,
      "Є": 626,
      "Ѕ": 627,
      "І": 628,
      "Ї": 629,
      "Ј": 630,
      "Љ": 631,
      "Њ": 632,
      "Ћ": 633,
      "Ќ": 634,
      "Ў": 635,
      "Џ": 636,
      "А": 637,
      "Б": 638,
      "В": 639,
      "Г": 640,
      "Д": 641,
      "Е": 642,
      "Ж": 643,
      "З": 644,
      "И": 645,
      "Й": 646,
      "К": 647,
      "Л": 648,
      "М": 649,
      "Н": 650,
      "О": 651,
      "П": 652,
      "Р": 653,
      "С": 654,
      "Т": 655,
      "У": 656,
      "Ф": 657,
      "Х": 658,
      "Ц": 659,
      "Ч": 660,
      "Ш": 661,
      "Щ": 662,
      "Ъ": 663,
      "Ы": 664,
      "Ь": 665,
      "Э": 666,
      "Ю": 667,
      "Я": 668,
      "а": 669,
      "б": 670,
      "в": 671,
      "г": 672,
      "д": 673,
      "е": 674,
      "ж": 675,
      "з": 676,
      "и": 677,
      "й": 678,
      "к": 679,
      "л": 680,
      "м": 681,
      "н": 682,
      "о": 683,
      "п": 684,
      "р": 685,
      "с": 686,
      "т": 687,
      "у": 688,
      "ф": 689,
      "х": 690,
      "ц": 691,
      "ч": 692,
      "ш": 693,
      "щ": 694,
      "ъ": 695,
      "ы": 696,
      "ь": 697,
      "э": 698,
      "ю": 699,
      "я": 700,
      "ё": 701,
      "ђ": 702,
      "ѓ": 703,
      "є": 704,
      "ѕ": 705,
      "і": 706,
      "ї": 707,
      "ј": 708,
      "љ": 709,
      "њ": 710,
      "ћ": 711,
      "ќ": 712,
      "ў": 713,
      "џ": 714,
      "Ґ": 715,
      "ґ": 716,
      "Ғ": 717,
      "ғ": 718,
      "Ҕ": 719,
      "ҕ": 720,
      "Җ": 721,
      "җ": 722,
      "Ҙ": 723,
      "ҙ": 724,
      "Қ": 725,
      "қ": 726,
      "Ҝ": 727,
      "ҝ": 728,
      "Ҟ": 729,
      "ҟ": 730,
      "Ҡ": 731,
      "ҡ": 732,
      "Ң": 733,
      "ң": 734,
      "Ҥ": 735,
      "ҥ": 736,
      "Ҧ": 737,
      "ҧ": 738,
      "Ҩ": 739,
      "ҩ": 740,
      "Ҫ": 741,
      "ҫ": 742,
      "Ҭ": 743,
      "ҭ": 744,
      "Ү": 745,
      "ү": 746,
      "Ұ": 747,
      "ұ": 748,
      "Ҳ": 749,
      "ҳ": 750,
      "Ҵ": 751,
      "ҵ": 752,
      "Ҷ": 753,
      "ҷ": 754,
      "Ҹ": 755,
      "ҹ": 756,
      "Һ": 757,
      "һ": 758,
      "Ҽ": 759,
      "ҽ": 760,
      "Ҿ": 761,
      "ҿ": 762,
      "Ӏ": 763,
      "Ӂ": 764,
      "ӂ": 765,
      "Ӄ": 766,
      "ӄ": 767,
      "Ӈ": 768,
      "ӈ": 769,
      "Ӌ": 770,
      "ӌ": 771,
      "ӏ": 772,
      "Ӑ": 773,
      "ӑ": 774,
      "Ӓ": 775,
      "ӓ": 776,
      "Ӕ": 777,
      "ӕ": 778,
      "Ӗ": 779,
      "ӗ": 780,
      "Ә": 781,
      "ә": 782,
      "Ӛ": 783,
      "ӛ": 784,
      "Ӝ": 785,
      "ӝ": 786,
      "Ӟ": 787,
      "ӟ": 788,
      "Ӡ": 789,
      "ӡ": 790,
      "Ӣ": 791,
      "ӣ": 792,
      "Ӥ": 793,
      "ӥ": 794,
      "Ӧ": 795,
      "ӧ": 796,
      "Ө": 797,
      "ө": 798,
      "Ӫ": 799,
      "ӫ": 800,
      "Ӯ": 801,
      "ӯ": 802,
      "Ӱ": 803,
      "ӱ": 804,
      "Ӳ": 805,
      "ӳ": 806,
      "Ӵ": 807,
      "ӵ": 808,
      "Ӹ": 809,
      "ӹ": 810,
      "Հ": 811,
      "ա": 812,
      "յ": 813,
      "ն": 814,
      "ս": 815,
      "տ": 816,
      "ք": 817,
      "֑": 818,
      "֖": 819,
      "֗": 820,
      "֜": 821,
      "֣": 822,
      "֥": 823,
      "֨": 824,
      "ְ": 825,
      "ֱ": 826,
      "ִ": 827,
      "ֵ": 828,
      "ֶ": 829,
      "ַ": 830,
      "ָ": 831,
      "ֹ": 832,
      "ֻ": 833,
      "ּ": 834,
      "ֽ": 835,
      "־": 836,
      "ׁ": 837,
      "ׂ": 838,
      "א": 839,
      "ב": 840,
      "ג": 841,
      "ד": 842,
      "ה": 843,
      "ו": 844,
      "ז": 845,
      "ח": 846,
      "ט": 847,
      "י": 848,
      "ך": 849,
      "כ": 850,
      "ל": 851,
      "ם": 852,
      "מ": 853,
      "ן": 854,
      "נ": 855,
      "ס": 856,
      "ע": 857,
      "ף": 858,
      "פ": 859,
      "ץ": 860,
      "צ": 861,
      "ק": 862,
      "ר": 863,
      "ש": 864,
      "ת": 865,
      "װ": 866,
      "ױ": 867,
      "ײ": 868,
      "׳": 869,
      "״": 870,
      "،": 871,
      "؛": 872,
      "؟": 873,
      "ء": 874,
      "أ": 875,
      "ؤ": 876,
      "إ": 877,
      "ئ": 878,
      "ا": 879,
      "ب": 880,
      "ة": 881,
      "ت": 882,
      "ث": 883,
      "ج": 884,
      "ح": 885,
      "خ": 886,
      "د": 887,
      "ذ": 888,
      "ر": 889,
      "ز": 890,
      "س": 891,
      "ش": 892,
      "ص": 893,
      "ض": 894,
      "ط": 895,
      "ظ": 896,
      "ع": 897,
      "غ": 898,
      "ف": 899,
      "ق": 900,
      "ك": 901,
      "ل": 902,
      "م": 903,
      "ن": 904,
      "ه": 905,
      "و": 906,
      "ى": 907,
      "ي": 908,
      "ً": 909,
      "َ": 910,
      "ِ": 911,
      "ْ": 912,
      "٠": 913,
      "١": 914,
      "٢": 915,
      "٣": 916,
      "٤": 917,
      "٥": 918,
      "٦": 919,
      "٧": 920,
      "٨": 921,
      "٩": 922,
      "ٹ": 923,
      "پ": 924,
      "ک": 925,
      "گ": 926,
      "ی": 927,
      "ە": 928,
      "۲": 929,
      "۳": 930,
      "۴": 931,
      "۵": 932,
      "۶": 933,
      "۹": 934,
      "ހ": 935,
      "ބ": 936,
      "ވ": 937,
      "ދ": 938,
      "ސ": 939,
      "ަ": 940,
      "ި": 941,
      "ެ": 942,
      "ް": 943,
      "ँ": 944,
      "ं": 945,
      "ः": 946,
      "अ": 947,
      "आ": 948,
      "इ": 949,
      "ई": 950,
      "उ": 951,
      "ऊ": 952,
      "ऋ": 953,
      "ए": 954,
      "ऐ": 955,
      "ओ": 956,
      "औ": 957,
      "क": 958,
      "ख": 959,
      "ग": 960,
      "घ": 961,
      "ङ": 962,
      "च": 963,
      "छ": 964,
      "ज": 965,
      "झ": 966,
      "ञ": 967,
      "ट": 968,
      "ठ": 969,
      "ड": 970,
      "ढ": 971,
      "ण": 972,
      "त": 973,
      "थ": 974,
      "द": 975,
      "ध": 976,
      "न": 977,
      "प": 978,
      "फ": 979,
      "ब": 980,
      "भ": 981,
      "म": 982,
      "य": 983,
      "र": 984,
      "ल": 985,
      "व": 986,
      "श": 987,
      "ष": 988,
      "स": 989,
      "ह": 990,
      "़": 991,
      "ा": 992,
      "ि": 993,
      "ी": 994,
      "ु": 995,
      "ू": 996,
      "ृ": 997,
      "ॅ": 998,
      "े": 999,
      "ै": 1000,
      "ॉ": 1001,
      "ो": 1002,
      "ौ": 1003,
      "्": 1004,
      "ॠ": 1005,
      "।": 1006,
      "॥": 1007,
      "०": 1008,
      "१": 1009,
      "२": 1010,
      "३": 1011,
      "४": 1012,
      "५": 1013,
      "६": 1014,
      "७": 1015,
      "८": 1016,
      "९": 1017,
      "ং": 1018,
      "আ": 1019,
      "ক": 1020,
      "খ": 1021,
      "গ": 1022,
      "ঙ": 1023,
      "চ": 1024,
      "জ": 1025,
      "ঠ": 1026,
      "ঢ": 1027,
      "ণ": 1028,
      "ত": 1029,
      "দ": 1030,
      "ধ": 1031,
      "ন": 1032,
      "প": 1033,
      "ব": 1034,
      "ভ": 1035,
      "ম": 1036,
      "য": 1037,
      "র": 1038,
      "ল": 1039,
      "শ": 1040,
      "ষ": 1041,
      "স": 1042,
      "হ": 1043,
      "়": 1044,
      "া": 1045,
      "ি": 1046,
      "ী": 1047,
      "ু": 1048,
      "ূ": 1049,
      "ে": 1050,
      "ৈ": 1051,
      "ো": 1052,
      "্": 1053,
      "০": 1054,
      "১": 1055,
      "২": 1056,
      "৩": 1057,
      "৪": 1058,
      "৫": 1059,
      "৬": 1060,
      "৭": 1061,
      "৮": 1062,
      "৯": 1063,
      "ৰ": 1064,
      "৳": 1065,
      "ਖ": 1066,
      "ਚ": 1067,
      "ਣ": 1068,
      "ਤ": 1069,
      "ਨ": 1070,
      "ਮ": 1071,
      "ਰ": 1072,
      "ਲ": 1073,
      "ਸ": 1074,
      "ਿ": 1075,
      "ੀ": 1076,
      "ੂ": 1077,
      "ੇ": 1078,
      "੦": 1079,
      "੧": 1080,
      "੨": 1081,
      "੩": 1082,
      "੪": 1083,
      "੫": 1084,
      "੬": 1085,
      "੭": 1086,
      "੮": 1087,
      "੯": 1088,
      "ੰ": 1089,
      "ੱ": 1090,
      "ੴ": 1091,
      "ક": 1092,
      "ચ": 1093,
      "ત": 1094,
      "ર": 1095,
      "ા": 1096,
      "ૈ": 1097,
      "્": 1098,
      "૦": 1099,
      "૧": 1100,
      "૨": 1101,
      "૩": 1102,
      "૪": 1103,
      "૫": 1104,
      "૬": 1105,
      "૭": 1106,
      "૮": 1107,
      "૯": 1108,
      "ଆ": 1109,
      "କ": 1110,
      "ଖ": 1111,
      "ଢ": 1112,
      "ଣ": 1113,
      "ତ": 1114,
      "ଦ": 1115,
      "ଧ": 1116,
      "ପ": 1117,
      "ବ": 1118,
      "ଭ": 1119,
      "ମ": 1120,
      "ର": 1121,
      "ଶ": 1122,
      "ଷ": 1123,
      "ା": 1124,
      "ି": 1125,
      "ୁ": 1126,
      "ୂ": 1127,
      "ୈ": 1128,
      "୍": 1129,
      "୦": 1130,
      "୧": 1131,
      "୨": 1132,
      "୩": 1133,
      "୪": 1134,
      "୫": 1135,
      "୬": 1136,
      "୭": 1137,
      "୮": 1138,
      "୯": 1139,
      "அ": 1140,
      "ஆ": 1141,
      "இ": 1142,
      "ஈ": 1143,
      "உ": 1144,
      "ஊ": 1145,
      "எ": 1146,
      "ஏ": 1147,
      "ஐ": 1148,
      "ஒ": 1149,
      "ஓ": 1150,
      "க": 1151,
      "ங": 1152,
      "ச": 1153,
      "ஜ": 1154,
      "ஞ": 1155,
      "ட": 1156,
      "ண": 1157,
      "த": 1158,
      "ந": 1159,
      "ன": 1160,
      "ப": 1161,
      "ம": 1162,
      "ய": 1163,
      "ர": 1164,
      "ற": 1165,
      "ல": 1166,
      "ள": 1167,
      "ழ": 1168,
      "வ": 1169,
      "ஷ": 1170,
      "ஸ": 1171,
      "ஹ": 1172,
      "ா": 1173,
      "ி": 1174,
      "ீ": 1175,
      "ு": 1176,
      "ூ": 1177,
      "ெ": 1178,
      "ே": 1179,
      "ை": 1180,
      "ொ": 1181,
      "ோ": 1182,
      "ௌ": 1183,
      "்": 1184,
      "௦": 1185,
      "௧": 1186,
      "௨": 1187,
      "௩": 1188,
      "௪": 1189,
      "௫": 1190,
      "௬": 1191,
      "௭": 1192,
      "௮": 1193,
      "௯": 1194,
      "ం": 1195,
      "క": 1196,
      "ఖ": 1197,
      "చ": 1198,
      "ణ": 1199,
      "త": 1200,
      "ద": 1201,
      "ధ": 1202,
      "ప": 1203,
      "బ": 1204,
      "మ": 1205,
      "ర": 1206,
      "వ": 1207,
      "శ": 1208,
      "ా": 1209,
      "ి": 1210,
      "ీ": 1211,
      "ు": 1212,
      "ై": 1213,
      "ౌ": 1214,
      "్": 1215,
      "౦": 1216,
      "౧": 1217,
      "౨": 1218,
      "౩": 1219,
      "౪": 1220,
      "౫": 1221,
      "౬": 1222,
      "౭": 1223,
      "౮": 1224,
      "౯": 1225,
      "ಕ": 1226,
      "ಖ": 1227,
      "ಚ": 1228,
      "ಣ": 1229,
      "ತ": 1230,
      "ದ": 1231,
      "ಧ": 1232,
      "ಪ": 1233,
      "ಬ": 1234,
      "ಮ": 1235,
      "ರ": 1236,
      "ವ": 1237,
      "ಶ": 1238,
      "ಾ": 1239,
      "ಿ": 1240,
      "ು": 1241,
      "ೈ": 1242,
      "ೌ": 1243,
      "್": 1244,
      "೦": 1245,
      "೧": 1246,
      "೨": 1247,
      "೩": 1248,
      "೪": 1249,
      "೫": 1250,
      "೬": 1251,
      "೭": 1252,
      "೮": 1253,
      "೯": 1254,
      "ം": 1255,
      "ക": 1256,
      "ച": 1257,
      "ട": 1258,
      "ണ": 1259,
      "ത": 1260,
      "പ": 1261,
      "മ": 1262,
      "യ": 1263,
      "ര": 1264,
      "റ": 1265,
      "ല": 1266,
      "ള": 1267,
      "വ": 1268,
      "ഷ": 1269,
      "സ": 1270,
      "ി": 1271,
      "ൂ": 1272,
      "െ": 1273,
      "ൈ": 1274,
      "്": 1275,
      "൦": 1276,
      "൧": 1277,
      "൨": 1278,
      "൩": 1279,
      "൪": 1280,
      "൫": 1281,
      "൬": 1282,
      "൭": 1283,
      "൮": 1284,
      "൯": 1285,
      "අ": 1286,
      "ඇ": 1287,
      "ඉ": 1288,
      "උ": 1289,
      "ඔ": 1290,
      "ඕ": 1291,
      "ක": 1292,
      "ග": 1293,
      "ඩ": 1294,
      "ණ": 1295,
      "ත": 1296,
      "ද": 1297,
      "ධ": 1298,
      "න": 1299,
      "ඳ": 1300,
      "ප": 1301,
      "බ": 1302,
      "ම": 1303,
      "ය": 1304,
      "ර": 1305,
      "ල": 1306,
      "ව": 1307,
      "ස": 1308,
      "හ": 1309,
      "ළ": 1310,
      "්": 1311,
      "ා": 1312,
      "ැ": 1313,
      "ෑ": 1314,
      "ි": 1315,
      "ී": 1316,
      "ු": 1317,
      "ෙ": 1318,
      "ේ": 1319,
      "ො": 1320,
      "ෝ": 1321,
      "ก": 1322,
      "ข": 1323,
      "ฃ": 1324,
      "ค": 1325,
      "ฅ": 1326,
      "ฆ": 1327,
      "ง": 1328,
      "จ": 1329,
      "ฉ": 1330,
      "ช": 1331,
      "ซ": 1332,
      "ฌ": 1333,
      "ญ": 1334,
      "ฎ": 1335,
      "ฏ": 1336,
      "ฐ": 1337,
      "ฑ": 1338,
      "ฒ": 1339,
      "ณ": 1340,
      "ด": 1341,
      "ต": 1342,
      "ถ": 1343,
      "ท": 1344,
      "ธ": 1345,
      "น": 1346,
      "บ": 1347,
      "ป": 1348,
      "ผ": 1349,
      "ฝ": 1350,
      "พ": 1351,
      "ฟ": 1352,
      "ภ": 1353,
      "ม": 1354,
      "ย": 1355,
      "ร": 1356,
      "ฤ": 1357,
      "ล": 1358,
      "ว": 1359,
      "ศ": 1360,
      "ษ": 1361,
      "ส": 1362,
      "ห": 1363,
      "ฬ": 1364,
      "อ": 1365,
      "ฮ": 1366,
      "ฯ": 1367,
      "ะ": 1368,
      "ั": 1369,
      "า": 1370,
      "ำ": 1371,
      "ิ": 1372,
      "ี": 1373,
      "ึ": 1374,
      "ื": 1375,
      "ุ": 1376,
      "ู": 1377,
      "ฺ": 1378,
      "฿": 1379,
      "เ": 1380,
      "แ": 1381,
      "โ": 1382,
      "ใ": 1383,
      "ไ": 1384,
      "ๅ": 1385,
      "ๆ": 1386,
      "็": 1387,
      "่": 1388,
      "้": 1389,
      "๊": 1390,
      "๋": 1391,
      "์": 1392,
      "ํ": 1393,
      "๐": 1394,
      "๑": 1395,
      "๒": 1396,
      "๓": 1397,
      "๔": 1398,
      "๕": 1399,
      "๖": 1400,
      "๗": 1401,
      "๘": 1402,
      "๙": 1403,
      "ກ": 1404,
      "ຂ": 1405,
      "ຄ": 1406,
      "ງ": 1407,
      "ຈ": 1408,
      "ຊ": 1409,
      "ຍ": 1410,
      "ດ": 1411,
      "ຕ": 1412,
      "ຖ": 1413,
      "ທ": 1414,
      "ນ": 1415,
      "ບ": 1416,
      "ປ": 1417,
      "ຜ": 1418,
      "ຝ": 1419,
      "ພ": 1420,
      "ຟ": 1421,
      "ມ": 1422,
      "ຢ": 1423,
      "ຣ": 1424,
      "ລ": 1425,
      "ວ": 1426,
      "ສ": 1427,
      "ຫ": 1428,
      "ອ": 1429,
      "ຮ": 1430,
      "ະ": 1431,
      "ັ": 1432,
      "າ": 1433,
      "ຳ": 1434,
      "ິ": 1435,
      "ີ": 1436,
      "ຶ": 1437,
      "ື": 1438,
      "ຸ": 1439,
      "ູ": 1440,
      "ົ": 1441,
      "ຼ": 1442,
      "ຽ": 1443,
      "ເ": 1444,
      "ແ": 1445,
      "ໂ": 1446,
      "ໃ": 1447,
      "ໄ": 1448,
      "ໆ": 1449,
      "່": 1450,
      "້": 1451,
      "໋": 1452,
      "ໍ": 1453,
      "໐": 1454,
      "໑": 1455,
      "໒": 1456,
      "໓": 1457,
      "໔": 1458,
      "໕": 1459,
      "໖": 1460,
      "໗": 1461,
      "໘": 1462,
      "໙": 1463,
      "ໜ": 1464,
      "ໝ": 1465,
      "་": 1466,
      "།": 1467,
      "༠": 1468,
      "༡": 1469,
      "༢": 1470,
      "༣": 1471,
      "༤": 1472,
      "༥": 1473,
      "༦": 1474,
      "༧": 1475,
      "༨": 1476,
      "༩": 1477,
      "ཀ": 1478,
      "ག": 1479,
      "ཆ": 1480,
      "ད": 1481,
      "ན": 1482,
      "པ": 1483,
      "བ": 1484,
      "མ": 1485,
      "ཛ": 1486,
      "ཟ": 1487,
      "འ": 1488,
      "ར": 1489,
      "ཤ": 1490,
      "ས": 1491,
      "ཱ": 1492,
      "ི": 1493,
      "ུ": 1494,
      "ེ": 1495,
      "ོ": 1496,
      "ྟ": 1497,
      "ྱ": 1498,
      "ྲ": 1499,
      "ླ": 1500,
      "က": 1501,
      "ခ": 1502,
      "ဂ": 1503,
      "ဃ": 1504,
      "င": 1505,
      "စ": 1506,
      "ဆ": 1507,
      "ဇ": 1508,
      "ဈ": 1509,
      "ဉ": 1510,
      "ည": 1511,
      "ဋ": 1512,
      "ဌ": 1513,
      "ဍ": 1514,
      "ဎ": 1515,
      "ဏ": 1516,
      "တ": 1517,
      "ထ": 1518,
      "ဒ": 1519,
      "ဓ": 1520,
      "န": 1521,
      "ပ": 1522,
      "ဖ": 1523,
      "ဗ": 1524,
      "ဘ": 1525,
      "မ": 1526,
      "ယ": 1527,
      "ရ": 1528,
      "လ": 1529,
      "ဝ": 1530,
      "သ": 1531,
      "ဟ": 1532,
      "ဠ": 1533,
      "အ": 1534,
      "ဢ": 1535,
      "ဣ": 1536,
      "ဤ": 1537,
      "ဥ": 1538,
      "ဦ": 1539,
      "ဧ": 1540,
      "ဨ": 1541,
      "ဩ": 1542,
      "ဪ": 1543,
      "ါ": 1544,
      "ာ": 1545,
      "ိ": 1546,
      "ီ": 1547,
      "ု": 1548,
      "ူ": 1549,
      "ေ": 1550,
      "ဲ": 1551,
      "ဳ": 1552,
      "ဴ": 1553,
      "ဵ": 1554,
      "ံ": 1555,
      "့": 1556,
      "း": 1557,
      "္": 1558,
      "်": 1559,
      "ျ": 1560,
      "ြ": 1561,
      "ွ": 1562,
      "ှ": 1563,
      "ဿ": 1564,
      "၀": 1565,
      "၁": 1566,
      "၂": 1567,
      "၃": 1568,
      "၄": 1569,
      "၅": 1570,
      "၆": 1571,
      "၇": 1572,
      "၈": 1573,
      "၉": 1574,
      "၊": 1575,
      "။": 1576,
      "၌": 1577,
      "၍": 1578,
      "၎": 1579,
      "၏": 1580,
      "ၐ": 1581,
      "ၑ": 1582,
      "ၒ": 1583,
      "ၓ": 1584,
      "ၔ": 1585,
      "ၕ": 1586,
      "ၖ": 1587,
      "ၗ": 1588,
      "ၘ": 1589,
      "ၙ": 1590,
      "ၚ": 1591,
      "ၛ": 1592,
      "ၜ": 1593,
      "ၝ": 1594,
      "ၞ": 1595,
      "ၟ": 1596,
      "ၠ": 1597,
      "ၡ": 1598,
      "ၢ": 1599,
      "ၣ": 1600,
      "ၤ": 1601,
      "ၥ": 1602,
      "ၦ": 1603,
      "ၧ": 1604,
      "ၨ": 1605,
      "ၩ": 1606,
      "ၪ": 1607,
      "ၫ": 1608,
      "ၬ": 1609,
      "ၭ": 1610,
      "ၮ": 1611,
      "ၯ": 1612,
      "ၰ": 1613,
      "ၱ": 1614,
      "ၲ": 1615,
      "ၳ": 1616,
      "ၴ": 1617,
      "ၵ": 1618,
      "ၶ": 1619,
      "ၷ": 1620,
      "ၸ": 1621,
      "ၹ": 1622,
      "ၺ": 1623,
      "ၻ": 1624,
      "ၼ": 1625,
      "ၽ": 1626,
      "ၾ": 1627,
      "ၿ": 1628,
      "ႀ": 1629,
      "ႁ": 1630,
      "ႂ": 1631,
      "ႃ": 1632,
      "ႄ": 1633,
      "ႅ": 1634,
      "ႆ": 1635,
      "ႇ": 1636,
      "ႈ": 1637,
      "ႉ": 1638,
      "ႊ": 1639,
      "ႋ": 1640,
      "ႌ": 1641,
      "ႍ": 1642,
      "ႎ": 1643,
      "ႏ": 1644,
      "႐": 1645,
      "႑": 1646,
      "႒": 1647,
      "႓": 1648,
      "႔": 1649,
      "႕": 1650,
      "႖": 1651,
      "႗": 1652,
      "႘": 1653,
      "႙": 1654,
      "ႚ": 1655,
      "ႛ": 1656,
      "ႜ": 1657,
      "ႝ": 1658,
      "႞": 1659,
      "႟": 1660,
      "ა": 1661,
      "ე": 1662,
      "ვ": 1663,
      "თ": 1664,
      "კ": 1665,
      "ლ": 1666,
      "ო": 1667,
      "რ": 1668,
      "ს": 1669,
      "ქ": 1670,
      "ღ": 1671,
      "ᅪ": 1672,
      "ቡ": 1673,
      "አ": 1674,
      "ዳ": 1675,
      "ጊ": 1676,
      "፩": 1677,
      "፪": 1678,
      "፫": 1679,
      "፬": 1680,
      "፭": 1681,
      "፮": 1682,
      "፯": 1683,
      "፰": 1684,
      "፱": 1685,
      "ᐁ": 1686,
      "ᕕ": 1687,
      "ᖃ": 1688,
      "ក": 1689,
      "ខ": 1690,
      "គ": 1691,
      "ឃ": 1692,
      "ង": 1693,
      "ច": 1694,
      "ឆ": 1695,
      "ជ": 1696,
      "ឈ": 1697,
      "ញ": 1698,
      "ដ": 1699,
      "ឋ": 1700,
      "ឌ": 1701,
      "ឍ": 1702,
      "ណ": 1703,
      "ត": 1704,
      "ថ": 1705,
      "ទ": 1706,
      "ធ": 1707,
      "ន": 1708,
      "ប": 1709,
      "ផ": 1710,
      "ព": 1711,
      "ភ": 1712,
      "ម": 1713,
      "យ": 1714,
      "រ": 1715,
      "ល": 1716,
      "វ": 1717,
      "ស": 1718,
      "ហ": 1719,
      "ឡ": 1720,
      "អ": 1721,
      "ឤ": 1722,
      "ឥ": 1723,
      "ឧ": 1724,
      "ឪ": 1725,
      "ឫ": 1726,
      "ឬ": 1727,
      "ឭ": 1728,
      "ឮ": 1729,
      "ឯ": 1730,
      "ឱ": 1731,
      "ឲ": 1732,
      "ា": 1733,
      "ិ": 1734,
      "ី": 1735,
      "ឹ": 1736,
      "ឺ": 1737,
      "ុ": 1738,
      "ូ": 1739,
      "ួ": 1740,
      "ើ": 1741,
      "ឿ": 1742,
      "ៀ": 1743,
      "េ": 1744,
      "ែ": 1745,
      "ៃ": 1746,
      "ោ": 1747,
      "ៅ": 1748,
      "ំ": 1749,
      "ះ": 1750,
      "ៈ": 1751,
      "៉": 1752,
      "៊": 1753,
      "់": 1754,
      "៌": 1755,
      "៍": 1756,
      "៎": 1757,
      "៏": 1758,
      "័": 1759,
      "្": 1760,
      "។": 1761,
      "៕": 1762,
      "៖": 1763,
      "ៗ": 1764,
      "៛": 1765,
      "០": 1766,
      "១": 1767,
      "២": 1768,
      "៣": 1769,
      "៤": 1770,
      "៥": 1771,
      "៦": 1772,
      "៧": 1773,
      "៨": 1774,
      "៩": 1775,
      "᠐": 1776,
      "᠑": 1777,
      "᠒": 1778,
      "᠓": 1779,
      "᠔": 1780,
      "᠕": 1781,
      "᠖": 1782,
      "᠗": 1783,
      "᠘": 1784,
      "᠙": 1785,
      "᥆": 1786,
      "᥇": 1787,
      "᥈": 1788,
      "᥉": 1789,
      "᥊": 1790,
      "᥋": 1791,
      "᥌": 1792,
      "᥍": 1793,
      "᥎": 1794,
      "᥏": 1795,
      "᧐": 1796,
      "᧑": 1797,
      "᧒": 1798,
      "᧓": 1799,
      "᧔": 1800,
      "᧕": 1801,
      "᧖": 1802,
      "᧗": 1803,
      "᧘": 1804,
      "᧙": 1805,
      "ᨥ": 1806,
      "ᴳ": 1807,
      "ᵇ": 1808,
      "ᵈ": 1809,
      "ᵊ": 1810,
      "ᵍ": 1811,
      "ᵏ": 1812,
      "ᵐ": 1813,
      "ᵑ": 1814,
      "ᵖ": 1815,
      "ᵗ": 1816,
      "ᵝ": 1817,
      "ᵡ": 1818,
      "ᵬ": 1819,
      "ᵭ": 1820,
      "ᵮ": 1821,
      "ᵯ": 1822,
      "ᵰ": 1823,
      "ᵱ": 1824,
      "ᵲ": 1825,
      "ᵳ": 1826,
      "ᵴ": 1827,
      "ᵵ": 1828,
      "ᵶ": 1829,
      "ᵸ": 1830,
      "ᵻ": 1831,
      "ᵿ": 1832,
      "ᶑ": 1833,
      "ᶜ": 1834,
      "ᶡ": 1835,
      "ᶢ": 1836,
      "ᶣ": 1837,
      "ᶬ": 1838,
      "ᶮ": 1839,
      "ᶯ": 1840,
      "ᶰ": 1841,
      "᷂": 1842,
      "᷄": 1843,
      "᷅": 1844,
      "᷆": 1845,
      "᷇": 1846,
      "᷈": 1847,
      "᷉": 1848,
      "᷽": 1849,
      "ḁ": 1850,
      "ḅ": 1851,
      "Ḍ": 1852,
      "ḍ": 1853,
      "ḏ": 1854,
      "ḗ": 1855,
      "ḛ": 1856,
      "Ḥ": 1857,
      "ḥ": 1858,
      "ḩ": 1859,
      "ḫ": 1860,
      "ḭ": 1861,
      "Ḷ": 1862,
      "ḷ": 1863,
      "Ḹ": 1864,
      "ḹ": 1865,
      "ṁ": 1866,
      "Ṃ": 1867,
      "ṃ": 1868,
      "ṅ": 1869,
      "Ṇ": 1870,
      "ṇ": 1871,
      "ṓ": 1872,
      "ṗ": 1873,
      "Ṛ": 1874,
      "ṛ": 1875,
      "Ṝ": 1876,
      "ṝ": 1877,
      "ṡ": 1878,
      "Ṣ": 1879,
      "ṣ": 1880,
      "Ṭ": 1881,
      "ṭ": 1882,
      "ṯ": 1883,
      "ṳ": 1884,
      "ṵ": 1885,
      "ṽ": 1886,
      "ẓ": 1887,
      "ẕ": 1888,
      "ẖ": 1889,
      "ẗ": 1890,
      "ẘ": 1891,
      "ẙ": 1892,
      "Ạ": 1893,
      "ạ": 1894,
      "Ả": 1895,
      "ả": 1896,
      "Ấ": 1897,
      "ấ": 1898,
      "ầ": 1899,
      "ẩ": 1900,
      "ẫ": 1901,
      "ậ": 1902,
      "Ắ": 1903,
      "ắ": 1904,
      "ằ": 1905,
      "ẳ": 1906,
      "Ẵ": 1907,
      "ẵ": 1908,
      "ặ": 1909,
      "Ẹ": 1910,
      "ẹ": 1911,
      "ẻ": 1912,
      "Ẽ": 1913,
      "ẽ": 1914,
      "Ế": 1915,
      "ế": 1916,
      "ề": 1917,
      "ể": 1918,
      "ễ": 1919,
      "ệ": 1920,
      "ỉ": 1921,
      "Ị": 1922,
      "ị": 1923,
      "Ọ": 1924,
      "ọ": 1925,
      "ỏ": 1926,
      "Ố": 1927,
      "ố": 1928,
      "Ồ": 1929,
      "ồ": 1930,
      "ổ": 1931,
      "ỗ": 1932,
      "ộ": 1933,
      "ớ": 1934,
      "ờ": 1935,
      "Ở": 1936,
      "ở": 1937,
      "ỡ": 1938,
      "ợ": 1939,
      "Ụ": 1940,
      "ụ": 1941,
      "Ủ": 1942,
      "ủ": 1943,
      "Ứ": 1944,
      "ứ": 1945,
      "ừ": 1946,
      "ử": 1947,
      "ữ": 1948,
      "ự": 1949,
      "ỳ": 1950,
      "ỵ": 1951,
      "ỷ": 1952,
      "Ỹ": 1953,
      "ỹ": 1954,
      "ἀ": 1955,
      "ἁ": 1956,
      "ἂ": 1957,
      "ἃ": 1958,
      "ἄ": 1959,
      "ἅ": 1960,
      "ἆ": 1961,
      "ἇ": 1962,
      "Ἀ": 1963,
      "Ἁ": 1964,
      "Ἂ": 1965,
      "Ἃ": 1966,
      "Ἄ": 1967,
      "Ἅ": 1968,
      "Ἆ": 1969,
      "Ἇ": 1970,
      "ἐ": 1971,
      "ἑ": 1972,
      "ἒ": 1973,
      "ἓ": 1974,
      "ἔ": 1975,
      "ἕ": 1976,
      "Ἐ": 1977,
      "Ἑ": 1978,
      "Ἒ": 1979,
      "Ἓ": 1980,
      "Ἔ": 1981,
      "Ἕ": 1982,
      "ἠ": 1983,
      "ἡ": 1984,
      "ἢ": 1985,
      "ἣ": 1986,
      "ἤ": 1987,
      "ἥ": 1988,
      "ἦ": 1989,
      "ἧ": 1990,
      "Ἠ": 1991,
      "Ἡ": 1992,
      "Ἢ": 1993,
      "Ἣ": 1994,
      "Ἤ": 1995,
      "Ἥ": 1996,
      "Ἦ": 1997,
      "Ἧ": 1998,
      "ἰ": 1999,
      "ἱ": 2000,
      "ἲ": 2001,
      "ἳ": 2002,
      "ἴ": 2003,
      "ἵ": 2004,
      "ἶ": 2005,
      "ἷ": 2006,
      "Ἰ": 2007,
      "Ἱ": 2008,
      "Ἲ": 2009,
      "Ἳ": 2010,
      "Ἴ": 2011,
      "Ἵ": 2012,
      "Ἶ": 2013,
      "Ἷ": 2014,
      "ὀ": 2015,
      "ὁ": 2016,
      "ὂ": 2017,
      "ὃ": 2018,
      "ὄ": 2019,
      "ὅ": 2020,
      "Ὀ": 2021,
      "Ὁ": 2022,
      "Ὂ": 2023,
      "Ὃ": 2024,
      "Ὄ": 2025,
      "Ὅ": 2026,
      "ὐ": 2027,
      "ὑ": 2028,
      "ὒ": 2029,
      "ὓ": 2030,
      "ὔ": 2031,
      "ὕ": 2032,
      "ὖ": 2033,
      "ὗ": 2034,
      "Ὑ": 2035,
      "Ὓ": 2036,
      "Ὕ": 2037,
      "Ὗ": 2038,
      "ὠ": 2039,
      "ὡ": 2040,
      "ὢ": 2041,
      "ὣ": 2042,
      "ὤ": 2043,
      "ὥ": 2044,
      "ὦ": 2045,
      "ὧ": 2046,
      "Ὠ": 2047,
      "Ὡ": 2048,
      "Ὢ": 2049,
      "Ὣ": 2050,
      "Ὤ": 2051,
      "Ὥ": 2052,
      "Ὦ": 2053,
      "Ὧ": 2054,
      "ὰ": 2055,
      "ὲ": 2056,
      "ὴ": 2057,
      "ὶ": 2058,
      "ὸ": 2059,
      "ὺ": 2060,
      "ὼ": 2061,
      "ᾀ": 2062,
      "ᾁ": 2063,
      "ᾂ": 2064,
      "ᾃ": 2065,
      "ᾄ": 2066,
      "ᾅ": 2067,
      "ᾆ": 2068,
      "ᾇ": 2069,
      "ᾈ": 2070,
      "ᾉ": 2071,
      "ᾊ": 2072,
      "ᾋ": 2073,
      "ᾌ": 2074,
      "ᾍ": 2075,
      "ᾎ": 2076,
      "ᾏ": 2077,
      "ᾐ": 2078,
      "ᾑ": 2079,
      "ᾒ": 2080,
      "ᾓ": 2081,
      "ᾔ": 2082,
      "ᾕ": 2083,
      "ᾖ": 2084,
      "ᾗ": 2085,
      "ᾘ": 2086,
      "ᾙ": 2087,
      "ᾚ": 2088,
      "ᾛ": 2089,
      "ᾜ": 2090,
      "ᾝ": 2091,
      "ᾞ": 2092,
      "ᾟ": 2093,
      "ᾠ": 2094,
      "ᾡ": 2095,
      "ᾢ": 2096,
      "ᾣ": 2097,
      "ᾤ": 2098,
      "ᾥ": 2099,
      "ᾦ": 2100,
      "ᾧ": 2101,
      "ᾨ": 2102,
      "ᾩ": 2103,
      "ᾪ": 2104,
      "ᾫ": 2105,
      "ᾬ": 2106,
      "ᾭ": 2107,
      "ᾮ": 2108,
      "ᾯ": 2109,
      "ᾰ": 2110,
      "ᾱ": 2111,
      "ᾲ": 2112,
      "ᾳ": 2113,
      "ᾴ": 2114,
      "ᾶ": 2115,
      "ᾷ": 2116,
      "Ᾰ": 2117,
      "Ᾱ": 2118,
      "Ὰ": 2119,
      "ᾼ": 2120,
      "ῂ": 2121,
      "ῃ": 2122,
      "ῄ": 2123,
      "ῆ": 2124,
      "ῇ": 2125,
      "Ὲ": 2126,
      "Ὴ": 2127,
      "ῌ": 2128,
      "ῐ": 2129,
      "ῑ": 2130,
      "ῒ": 2131,
      "ῖ": 2132,
      "ῗ": 2133,
      "Ῐ": 2134,
      "Ῑ": 2135,
      "Ὶ": 2136,
      "ῠ": 2137,
      "ῡ": 2138,
      "ῢ": 2139,
      "ῤ": 2140,
      "ῥ": 2141,
      "ῦ": 2142,
      "ῧ": 2143,
      "Ῠ": 2144,
      "Ῡ": 2145,
      "Ὺ": 2146,
      "Ῥ": 2147,
      "ῲ": 2148,
      "ῳ": 2149,
      "ῴ": 2150,
      "ῶ": 2151,
      "ῷ": 2152,
      "Ὸ": 2153,
      "Ὼ": 2154,
      "ῼ": 2155,
      "​": 2156,
      "‌": 2157,
      "‍": 2158,
      "‎": 2159,
      "‏": 2160,
      "‐": 2161,
      "‑": 2162,
      "–": 2163,
      "—": 2164,
      "―": 2165,
      "‖": 2166,
      "‘": 2167,
      "’": 2168,
      "‚": 2169,
      "“": 2170,
      "”": 2171,
      "„": 2172,
      "†": 2173,
      "‡": 2174,
      "•": 2175,
      "…": 2176,
      "‧": 2177,
      "‰": 2178,
      "′": 2179,
      "″": 2180,
      "‹": 2181,
      "›": 2182,
      "‼": 2183,
      "‽": 2184,
      "‿": 2185,
      "⁄": 2186,
      "⁠": 2187,
      "⁶": 2188,
      "ⁿ": 2189,
      "₁": 2190,
      "₂": 2191,
      "₠": 2192,
      "₡": 2193,
      "₢": 2194,
      "₣": 2195,
      "₤": 2196,
      "₥": 2197,
      "₦": 2198,
      "₧": 2199,
      "₨": 2200,
      "₩": 2201,
      "₪": 2202,
      "₫": 2203,
      "€": 2204,
      "₭": 2205,
      "₮": 2206,
      "₯": 2207,
      "₰": 2208,
      "₱": 2209,
      "₳": 2210,
      "₴": 2211,
      "₵": 2212,
      "₽": 2213,
      "₿": 2214,
      "⃣": 2215,
      "ℂ": 2216,
      "ℍ": 2217,
      "ℕ": 2218,
      "№": 2219,
      "ℙ": 2220,
      "ℚ": 2221,
      "ℝ": 2222,
      "™": 2223,
      "ℤ": 2224,
      "ℳ": 2225,
      "ℵ": 2226,
      "⅔": 2227,
      "ↀ": 2228,
      "←": 2229,
      "↑": 2230,
      "→": 2231,
      "↓": 2232,
      "↔": 2233,
      "↕": 2234,
      "↗": 2235,
      "↘": 2236,
      "↦": 2237,
      "↳": 2238,
      "↵": 2239,
      "⇌": 2240,
      "⇐": 2241,
      "⇒": 2242,
      "⇔": 2243,
      "⇪": 2244,
      "∀": 2245,
      "∂": 2246,
      "∃": 2247,
      "∅": 2248,
      "∆": 2249,
      "∇": 2250,
      "∈": 2251,
      "∉": 2252,
      "∋": 2253,
      "∏": 2254,
      "∐": 2255,
      "∑": 2256,
      "−": 2257,
      "∓": 2258,
      "∕": 2259,
      "∗": 2260,
      "∘": 2261,
      "√": 2262,
      "∝": 2263,
      "∞": 2264,
      "∠": 2265,
      "∤": 2266,
      "∧": 2267,
      "∨": 2268,
      "∩": 2269,
      "∪": 2270,
      "∫": 2271,
      "∬": 2272,
      "∭": 2273,
      "∮": 2274,
      "∴": 2275,
      "∵": 2276,
      "≀": 2277,
      "≃": 2278,
      "≅": 2279,
      "≈": 2280,
      "≐": 2281,
      "≜": 2282,
      "≝": 2283,
      "≠": 2284,
      "≡": 2285,
      "≣": 2286,
      "≤": 2287,
      "≥": 2288,
      "≪": 2289,
      "≫": 2290,
      "⊂": 2291,
      "⊃": 2292,
      "⊄": 2293,
      "⊅": 2294,
      "⊆": 2295,
      "⊇": 2296,
      "⊈": 2297,
      "⊉": 2298,
      "⊊": 2299,
      "⊋": 2300,
      "⊕": 2301,
      "⊗": 2302,
      "⊢": 2303,
      "⊣": 2304,
      "⊤": 2305,
      "⊥": 2306,
      "⊧": 2307,
      "⊻": 2308,
      "⋅": 2309,
      "⋈": 2310,
      "⋉": 2311,
      "⋊": 2312,
      "⋮": 2313,
      "⌈": 2314,
      "⌉": 2315,
      "⌊": 2316,
      "⌋": 2317,
      "⎈": 2318,
      "␥": 2319,
      "─": 2320,
      "▂": 2321,
      "▉": 2322,
      "□": 2323,
      "▸": 2324,
      "►": 2325,
      "▻": 2326,
      "◅": 2327,
      "◆": 2328,
      "○": 2329,
      "◌": 2330,
      "●": 2331,
      "◼": 2332,
      "◾": 2333,
      "☀": 2334,
      "☃": 2335,
      "☉": 2336,
      "☎": 2337,
      "☙": 2338,
      "☠": 2339,
      "☸": 2340,
      "☾": 2341,
      "♀": 2342,
      "♂": 2343,
      "♠": 2344,
      "♣": 2345,
      "♥": 2346,
      "♦": 2347,
      "♭": 2348,
      "♮": 2349,
      "♯": 2350,
      "⚔": 2351,
      "⚕": 2352,
      "⚖": 2353,
      "⚙": 2354,
      "⚛": 2355,
      "⚜": 2356,
      "⚡": 2357,
      "⚧": 2358,
      "⚽": 2359,
      "⛪": 2360,
      "✈": 2361,
      "✍": 2362,
      "✏": 2363,
      "✓": 2364,
      "✝": 2365,
      "✤": 2366,
      "✨": 2367,
      "✮": 2368,
      "✵": 2369,
      "❀": 2370,
      "❁": 2371,
      "❄": 2372,
      "❖": 2373,
      "❤": 2374,
      "❧": 2375,
      "➡": 2376,
      "➲": 2377,
      "⟨": 2378,
      "⟩": 2379,
      "⬛": 2380,
      "ⱱ": 2381,
      "、": 2382,
      "。": 2383,
      "〃": 2384,
      "〇": 2385,
      "《": 2386,
      "》": 2387,
      "「": 2388,
      "」": 2389,
      "『": 2390,
      "』": 2391,
      "〔": 2392,
      "〕": 2393,
      "〡": 2394,
      "〢": 2395,
      "〣": 2396,
      "〤": 2397,
      "〥": 2398,
      "〦": 2399,
      "〧": 2400,
      "〨": 2401,
      "〩": 2402,
      "が": 2403,
      "き": 2404,
      "く": 2405,
      "っ": 2406,
      "つ": 2407,
      "と": 2408,
      "は": 2409,
      "み": 2410,
      "ゃ": 2411,
      "り": 2412,
      "を": 2413,
      "ア": 2414,
      "イ": 2415,
      "ェ": 2416,
      "エ": 2417,
      "カ": 2418,
      "キ": 2419,
      "ケ": 2420,
      "ゾ": 2421,
      "タ": 2422,
      "ダ": 2423,
      "ノ": 2424,
      "フ": 2425,
      "マ": 2426,
      "ワ": 2427,
      "ン": 2428,
      "・": 2429,
      "ー": 2430,
      "ㄱ": 2431,
      "ㄲ": 2432,
      "ㄴ": 2433,
      "ㄷ": 2434,
      "ㄸ": 2435,
      "ㄹ": 2436,
      "ㅃ": 2437,
      "ㅎ": 2438,
      "ㅏ": 2439,
      "ㅐ": 2440,
      "ㅑ": 2441,
      "ㅒ": 2442,
      "ㅓ": 2443,
      "ㅖ": 2444,
      "ㅗ": 2445,
      "䍁": 2446,
      "一": 2447,
      "丁": 2448,
      "七": 2449,
      "万": 2450,
      "丈": 2451,
      "三": 2452,
      "上": 2453,
      "下": 2454,
      "不": 2455,
      "与": 2456,
      "丐": 2457,
      "丑": 2458,
      "专": 2459,
      "且": 2460,
      "世": 2461,
      "丘": 2462,
      "业": 2463,
      "丛": 2464,
      "东": 2465,
      "丝": 2466,
      "丟": 2467,
      "丢": 2468,
      "两": 2469,
      "严": 2470,
      "並": 2471,
      "丧": 2472,
      "个": 2473,
      "中": 2474,
      "丰": 2475,
      "串": 2476,
      "临": 2477,
      "丸": 2478,
      "丹": 2479,
      "为": 2480,
      "主": 2481,
      "丽": 2482,
      "举": 2483,
      "乃": 2484,
      "久": 2485,
      "么": 2486,
      "义": 2487,
      "之": 2488,
      "乌": 2489,
      "乎": 2490,
      "乏": 2491,
      "乐": 2492,
      "乔": 2493,
      "乖": 2494,
      "乘": 2495,
      "九": 2496,
      "乞": 2497,
      "也": 2498,
      "习": 2499,
      "乡": 2500,
      "书": 2501,
      "买": 2502,
      "乱": 2503,
      "乳": 2504,
      "乾": 2505,
      "亂": 2506,
      "了": 2507,
      "予": 2508,
      "争": 2509,
      "事": 2510,
      "二": 2511,
      "于": 2512,
      "亏": 2513,
      "云": 2514,
      "互": 2515,
      "五": 2516,
      "井": 2517,
      "亘": 2518,
      "亙": 2519,
      "亚": 2520,
      "些": 2521,
      "亞": 2522,
      "亡": 2523,
      "亢": 2524,
      "交": 2525,
      "亥": 2526,
      "亦": 2527,
      "产": 2528,
      "亨": 2529,
      "亩": 2530,
      "享": 2531,
      "京": 2532,
      "亭": 2533,
      "亮": 2534,
      "亲": 2535,
      "亵": 2536,
      "人": 2537,
      "亿": 2538,
      "什": 2539,
      "仁": 2540,
      "仃": 2541,
      "仅": 2542,
      "仆": 2543,
      "仇": 2544,
      "今": 2545,
      "介": 2546,
      "仍": 2547,
      "从": 2548,
      "仏": 2549,
      "仑": 2550,
      "仓": 2551,
      "仔": 2552,
      "他": 2553,
      "仗": 2554,
      "付": 2555,
      "仙": 2556,
      "代": 2557,
      "令": 2558,
      "以": 2559,
      "仪": 2560,
      "们": 2561,
      "仮": 2562,
      "仰": 2563,
      "仲": 2564,
      "件": 2565,
      "价": 2566,
      "任": 2567,
      "份": 2568,
      "仿": 2569,
      "企": 2570,
      "伊": 2571,
      "伍": 2572,
      "伏": 2573,
      "伐": 2574,
      "休": 2575,
      "众": 2576,
      "优": 2577,
      "伙": 2578,
      "会": 2579,
      "伞": 2580,
      "伟": 2581,
      "传": 2582,
      "伤": 2583,
      "伦": 2584,
      "伪": 2585,
      "伯": 2586,
      "估": 2587,
      "伴": 2588,
      "伶": 2589,
      "伸": 2590,
      "伺": 2591,
      "似": 2592,
      "伽": 2593,
      "佃": 2594,
      "但": 2595,
      "佈": 2596,
      "位": 2597,
      "低": 2598,
      "住": 2599,
      "佐": 2600,
      "佑": 2601,
      "体": 2602,
      "佔": 2603,
      "何": 2604,
      "余": 2605,
      "佛": 2606,
      "作": 2607,
      "你": 2608,
      "佣": 2609,
      "佤": 2610,
      "佩": 2611,
      "佯": 2612,
      "佳": 2613,
      "併": 2614,
      "使": 2615,
      "侄": 2616,
      "來": 2617,
      "侈": 2618,
      "例": 2619,
      "侍": 2620,
      "侏": 2621,
      "供": 2622,
      "依": 2623,
      "侣": 2624,
      "侦": 2625,
      "侧": 2626,
      "侨": 2627,
      "侮": 2628,
      "侯": 2629,
      "侵": 2630,
      "侶": 2631,
      "便": 2632,
      "係": 2633,
      "促": 2634,
      "俄": 2635,
      "俊": 2636,
      "俏": 2637,
      "俗": 2638,
      "俘": 2639,
      "保": 2640,
      "信": 2641,
      "俩": 2642,
      "修": 2643,
      "俯": 2644,
      "俱": 2645,
      "俸": 2646,
      "倉": 2647,
      "個": 2648,
      "倍": 2649,
      "們": 2650,
      "倒": 2651,
      "倔": 2652,
      "倖": 2653,
      "倘": 2654,
      "候": 2655,
      "倚": 2656,
      "借": 2657,
      "倡": 2658,
      "倦": 2659,
      "倫": 2660,
      "倭": 2661,
      "债": 2662,
      "值": 2663,
      "倾": 2664,
      "假": 2665,
      "偉": 2666,
      "偎": 2667,
      "偏": 2668,
      "做": 2669,
      "停": 2670,
      "健": 2671,
      "側": 2672,
      "偵": 2673,
      "偶": 2674,
      "偷": 2675,
      "偽": 2676,
      "偿": 2677,
      "傅": 2678,
      "傍": 2679,
      "傑": 2680,
      "傘": 2681,
      "備": 2682,
      "傢": 2683,
      "储": 2684,
      "催": 2685,
      "傭": 2686,
      "傲": 2687,
      "傳": 2688,
      "債": 2689,
      "傷": 2690,
      "傻": 2691,
      "傾": 2692,
      "僅": 2693,
      "像": 2694,
      "僑": 2695,
      "僕": 2696,
      "僚": 2697,
      "僭": 2698,
      "僮": 2699,
      "僵": 2700,
      "價": 2701,
      "僻": 2702,
      "儀": 2703,
      "億": 2704,
      "儒": 2705,
      "儘": 2706,
      "償": 2707,
      "優": 2708,
      "儲": 2709,
      "儿": 2710,
      "允": 2711,
      "元": 2712,
      "兄": 2713,
      "充": 2714,
      "兆": 2715,
      "兇": 2716,
      "先": 2717,
      "光": 2718,
      "克": 2719,
      "兌": 2720,
      "免": 2721,
      "兑": 2722,
      "兒": 2723,
      "兔": 2724,
      "党": 2725,
      "兜": 2726,
      "兢": 2727,
      "入": 2728,
      "內": 2729,
      "全": 2730,
      "兩": 2731,
      "八": 2732,
      "公": 2733,
      "六": 2734,
      "兰": 2735,
      "共": 2736,
      "关": 2737,
      "兴": 2738,
      "兵": 2739,
      "其": 2740,
      "具": 2741,
      "典": 2742,
      "兹": 2743,
      "养": 2744,
      "兼": 2745,
      "兽": 2746,
      "内": 2747,
      "冈": 2748,
      "冊": 2749,
      "册": 2750,
      "再": 2751,
      "冒": 2752,
      "冕": 2753,
      "冗": 2754,
      "写": 2755,
      "军": 2756,
      "农": 2757,
      "冠": 2758,
      "冤": 2759,
      "冥": 2760,
      "冬": 2761,
      "冰": 2762,
      "冲": 2763,
      "决": 2764,
      "况": 2765,
      "冶": 2766,
      "冷": 2767,
      "冻": 2768,
      "净": 2769,
      "凄": 2770,
      "准": 2771,
      "凉": 2772,
      "凋": 2773,
      "凌": 2774,
      "减": 2775,
      "凝": 2776,
      "几": 2777,
      "凡": 2778,
      "凤": 2779,
      "凭": 2780,
      "凯": 2781,
      "凱": 2782,
      "凳": 2783,
      "凶": 2784,
      "凸": 2785,
      "凹": 2786,
      "出": 2787,
      "击": 2788,
      "函": 2789,
      "凿": 2790,
      "刀": 2791,
      "刃": 2792,
      "分": 2793,
      "切": 2794,
      "刊": 2795,
      "刍": 2796,
      "刑": 2797,
      "划": 2798,
      "列": 2799,
      "刘": 2800,
      "则": 2801,
      "刚": 2802,
      "创": 2803,
      "初": 2804,
      "删": 2805,
      "判": 2806,
      "別": 2807,
      "刨": 2808,
      "利": 2809,
      "刪": 2810,
      "别": 2811,
      "刮": 2812,
      "到": 2813,
      "制": 2814,
      "刷": 2815,
      "刹": 2816,
      "刺": 2817,
      "刻": 2818,
      "刽": 2819,
      "剃": 2820,
      "則": 2821,
      "削": 2822,
      "剋": 2823,
      "前": 2824,
      "剎": 2825,
      "剐": 2826,
      "剑": 2827,
      "剔": 2828,
      "剖": 2829,
      "剛": 2830,
      "剜": 2831,
      "剝": 2832,
      "剥": 2833,
      "剧": 2834,
      "剩": 2835,
      "剪": 2836,
      "副": 2837,
      "割": 2838,
      "創": 2839,
      "剷": 2840,
      "剿": 2841,
      "劃": 2842,
      "劇": 2843,
      "劈": 2844,
      "劍": 2845,
      "力": 2846,
      "劝": 2847,
      "办": 2848,
      "功": 2849,
      "加": 2850,
      "务": 2851,
      "劣": 2852,
      "动": 2853,
      "助": 2854,
      "努": 2855,
      "劫": 2856,
      "励": 2857,
      "劳": 2858,
      "势": 2859,
      "勁": 2860,
      "勃": 2861,
      "勇": 2862,
      "勉": 2863,
      "勒": 2864,
      "動": 2865,
      "務": 2866,
      "勝": 2867,
      "勞": 2868,
      "募": 2869,
      "勢": 2870,
      "勤": 2871,
      "勵": 2872,
      "勸": 2873,
      "勺": 2874,
      "勻": 2875,
      "勾": 2876,
      "勿": 2877,
      "匀": 2878,
      "包": 2879,
      "匆": 2880,
      "匏": 2881,
      "化": 2882,
      "北": 2883,
      "匙": 2884,
      "匠": 2885,
      "匣": 2886,
      "匪": 2887,
      "匯": 2888,
      "匹": 2889,
      "区": 2890,
      "医": 2891,
      "匿": 2892,
      "區": 2893,
      "十": 2894,
      "千": 2895,
      "升": 2896,
      "午": 2897,
      "半": 2898,
      "华": 2899,
      "协": 2900,
      "卑": 2901,
      "卒": 2902,
      "卓": 2903,
      "協": 2904,
      "单": 2905,
      "卖": 2906,
      "南": 2907,
      "博": 2908,
      "卜": 2909,
      "占": 2910,
      "卡": 2911,
      "卢": 2912,
      "卧": 2913,
      "卫": 2914,
      "卯": 2915,
      "印": 2916,
      "危": 2917,
      "即": 2918,
      "却": 2919,
      "卷": 2920,
      "卸": 2921,
      "卻": 2922,
      "卿": 2923,
      "厂": 2924,
      "厄": 2925,
      "厅": 2926,
      "历": 2927,
      "厉": 2928,
      "压": 2929,
      "厌": 2930,
      "厕": 2931,
      "厚": 2932,
      "原": 2933,
      "厢": 2934,
      "厥": 2935,
      "厨": 2936,
      "厩": 2937,
      "厭": 2938,
      "厲": 2939,
      "去": 2940,
      "叁": 2941,
      "参": 2942,
      "參": 2943,
      "又": 2944,
      "叉": 2945,
      "及": 2946,
      "友": 2947,
      "双": 2948,
      "反": 2949,
      "发": 2950,
      "叔": 2951,
      "取": 2952,
      "受": 2953,
      "变": 2954,
      "叙": 2955,
      "叛": 2956,
      "叠": 2957,
      "叢": 2958,
      "口": 2959,
      "古": 2960,
      "句": 2961,
      "另": 2962,
      "叨": 2963,
      "叩": 2964,
      "只": 2965,
      "叫": 2966,
      "召": 2967,
      "叮": 2968,
      "可": 2969,
      "台": 2970,
      "叱": 2971,
      "史": 2972,
      "右": 2973,
      "叶": 2974,
      "号": 2975,
      "司": 2976,
      "叹": 2977,
      "叼": 2978,
      "吁": 2979,
      "吃": 2980,
      "各": 2981,
      "吆": 2982,
      "合": 2983,
      "吉": 2984,
      "吊": 2985,
      "同": 2986,
      "名": 2987,
      "后": 2988,
      "吏": 2989,
      "吐": 2990,
      "向": 2991,
      "吓": 2992,
      "吕": 2993,
      "吗": 2994,
      "君": 2995,
      "吝": 2996,
      "吞": 2997,
      "吟": 2998,
      "吠": 2999,
      "否": 3000,
      "吧": 3001,
      "吩": 3002,
      "含": 3003,
      "听": 3004,
      "吮": 3005,
      "启": 3006,
      "吳": 3007,
      "吴": 3008,
      "吵": 3009,
      "吶": 3010,
      "吸": 3011,
      "吹": 3012,
      "吻": 3013,
      "吼": 3014,
      "吾": 3015,
      "呀": 3016,
      "呂": 3017,
      "呆": 3018,
      "呈": 3019,
      "告": 3020,
      "呐": 3021,
      "呕": 3022,
      "员": 3023,
      "呢": 3024,
      "周": 3025,
      "味": 3026,
      "呵": 3027,
      "呻": 3028,
      "呼": 3029,
      "命": 3030,
      "咀": 3031,
      "咆": 3032,
      "和": 3033,
      "咎": 3034,
      "咐": 3035,
      "咒": 3036,
      "咕": 3037,
      "咖": 3038,
      "咙": 3039,
      "咬": 3040,
      "咳": 3041,
      "咷": 3042,
      "咸": 3043,
      "咽": 3044,
      "哀": 3045,
      "品": 3046,
      "哄": 3047,
      "哇": 3048,
      "哈": 3049,
      "哉": 3050,
      "响": 3051,
      "哎": 3052,
      "哑": 3053,
      "哒": 3054,
      "哗": 3055,
      "員": 3056,
      "哥": 3057,
      "哦": 3058,
      "哨": 3059,
      "哩": 3060,
      "哪": 3061,
      "哭": 3062,
      "哮": 3063,
      "哲": 3064,
      "哺": 3065,
      "哼": 3066,
      "唁": 3067,
      "唆": 3068,
      "唇": 3069,
      "唉": 3070,
      "唤": 3071,
      "唧": 3072,
      "售": 3073,
      "唯": 3074,
      "唱": 3075,
      "唾": 3076,
      "啃": 3077,
      "啄": 3078,
      "商": 3079,
      "啊": 3080,
      "問": 3081,
      "啕": 3082,
      "啞": 3083,
      "啟": 3084,
      "啦": 3085,
      "啬": 3086,
      "啸": 3087,
      "啼": 3088,
      "喀": 3089,
      "喂": 3090,
      "喃": 3091,
      "善": 3092,
      "喇": 3093,
      "喉": 3094,
      "喊": 3095,
      "喋": 3096,
      "喘": 3097,
      "喚": 3098,
      "喜": 3099,
      "喝": 3100,
      "喧": 3101,
      "喪": 3102,
      "單": 3103,
      "喳": 3104,
      "喷": 3105,
      "喻": 3106,
      "嗅": 3107,
      "嗉": 3108,
      "嗎": 3109,
      "嗐": 3110,
      "嗒": 3111,
      "嗜": 3112,
      "嗡": 3113,
      "嗣": 3114,
      "嗤": 3115,
      "嗯": 3116,
      "嘆": 3117,
      "嘈": 3118,
      "嘉": 3119,
      "嘔": 3120,
      "嘗": 3121,
      "嘘": 3122,
      "嘛": 3123,
      "嘩": 3124,
      "嘮": 3125,
      "嘱": 3126,
      "嘲": 3127,
      "嘴": 3128,
      "嘶": 3129,
      "嘹": 3130,
      "噓": 3131,
      "噠": 3132,
      "噥": 3133,
      "器": 3134,
      "噩": 3135,
      "噬": 3136,
      "噴": 3137,
      "嚇": 3138,
      "嚎": 3139,
      "嚏": 3140,
      "嚣": 3141,
      "嚨": 3142,
      "嚮": 3143,
      "嚴": 3144,
      "嚷": 3145,
      "嚼": 3146,
      "囊": 3147,
      "囑": 3148,
      "囚": 3149,
      "四": 3150,
      "回": 3151,
      "因": 3152,
      "团": 3153,
      "囤": 3154,
      "囪": 3155,
      "囫": 3156,
      "园": 3157,
      "困": 3158,
      "図": 3159,
      "围": 3160,
      "囵": 3161,
      "固": 3162,
      "国": 3163,
      "图": 3164,
      "圃": 3165,
      "圆": 3166,
      "圇": 3167,
      "圈": 3168,
      "國": 3169,
      "圍": 3170,
      "園": 3171,
      "圓": 3172,
      "圖": 3173,
      "團": 3174,
      "土": 3175,
      "圣": 3176,
      "在": 3177,
      "地": 3178,
      "场": 3179,
      "圾": 3180,
      "均": 3181,
      "坍": 3182,
      "坎": 3183,
      "坏": 3184,
      "坐": 3185,
      "坑": 3186,
      "块": 3187,
      "坚": 3188,
      "坛": 3189,
      "坟": 3190,
      "坠": 3191,
      "坡": 3192,
      "坦": 3193,
      "垂": 3194,
      "垃": 3195,
      "型": 3196,
      "垒": 3197,
      "垛": 3198,
      "垢": 3199,
      "垣": 3200,
      "垦": 3201,
      "垫": 3202,
      "垮": 3203,
      "埃": 3204,
      "埋": 3205,
      "城": 3206,
      "域": 3207,
      "埠": 3208,
      "執": 3209,
      "培": 3210,
      "基": 3211,
      "堂": 3212,
      "堅": 3213,
      "堆": 3214,
      "堕": 3215,
      "堡": 3216,
      "堤": 3217,
      "堪": 3218,
      "報": 3219,
      "場": 3220,
      "堵": 3221,
      "塊": 3222,
      "塌": 3223,
      "塑": 3224,
      "塔": 3225,
      "塗": 3226,
      "塘": 3227,
      "塞": 3228,
      "填": 3229,
      "塵": 3230,
      "境": 3231,
      "墊": 3232,
      "墓": 3233,
      "墙": 3234,
      "墜": 3235,
      "增": 3236,
      "墟": 3237,
      "墨": 3238,
      "墩": 3239,
      "墳": 3240,
      "墾": 3241,
      "壁": 3242,
      "壇": 3243,
      "壓": 3244,
      "壘": 3245,
      "壞": 3246,
      "壤": 3247,
      "士": 3248,
      "壮": 3249,
      "壯": 3250,
      "声": 3251,
      "壳": 3252,
      "壶": 3253,
      "壺": 3254,
      "壽": 3255,
      "处": 3256,
      "备": 3257,
      "复": 3258,
      "夏": 3259,
      "夕": 3260,
      "外": 3261,
      "夙": 3262,
      "多": 3263,
      "夜": 3264,
      "够": 3265,
      "夠": 3266,
      "夢": 3267,
      "夥": 3268,
      "大": 3269,
      "天": 3270,
      "太": 3271,
      "夫": 3272,
      "夭": 3273,
      "央": 3274,
      "失": 3275,
      "头": 3276,
      "夷": 3277,
      "夸": 3278,
      "夹": 3279,
      "夺": 3280,
      "夾": 3281,
      "奇": 3282,
      "奈": 3283,
      "奉": 3284,
      "奋": 3285,
      "奎": 3286,
      "奏": 3287,
      "契": 3288,
      "奔": 3289,
      "奕": 3290,
      "奖": 3291,
      "套": 3292,
      "奠": 3293,
      "奢": 3294,
      "奥": 3295,
      "奧": 3296,
      "奪": 3297,
      "奮": 3298,
      "女": 3299,
      "奴": 3300,
      "奶": 3301,
      "奸": 3302,
      "她": 3303,
      "好": 3304,
      "如": 3305,
      "妃": 3306,
      "妄": 3307,
      "妆": 3308,
      "妇": 3309,
      "妈": 3310,
      "妒": 3311,
      "妓": 3312,
      "妙": 3313,
      "妝": 3314,
      "妥": 3315,
      "妨": 3316,
      "妮": 3317,
      "妲": 3318,
      "妹": 3319,
      "妻": 3320,
      "妾": 3321,
      "姆": 3322,
      "姊": 3323,
      "始": 3324,
      "姐": 3325,
      "姑": 3326,
      "姓": 3327,
      "委": 3328,
      "姦": 3329,
      "姨": 3330,
      "姪": 3331,
      "姻": 3332,
      "姿": 3333,
      "威": 3334,
      "娃": 3335,
      "娅": 3336,
      "娇": 3337,
      "娈": 3338,
      "娘": 3339,
      "娜": 3340,
      "娢": 3341,
      "娥": 3342,
      "娩": 3343,
      "娱": 3344,
      "娶": 3345,
      "娼": 3346,
      "婆": 3347,
      "婉": 3348,
      "婚": 3349,
      "婢": 3350,
      "婦": 3351,
      "婪": 3352,
      "婴": 3353,
      "婿": 3354,
      "媚": 3355,
      "媳": 3356,
      "媽": 3357,
      "嫁": 3358,
      "嫂": 3359,
      "嫉": 3360,
      "嫌": 3361,
      "嫔": 3362,
      "嫩": 3363,
      "嫻": 3364,
      "嬉": 3365,
      "嬌": 3366,
      "嬪": 3367,
      "嬰": 3368,
      "孀": 3369,
      "子": 3370,
      "孔": 3371,
      "孕": 3372,
      "字": 3373,
      "存": 3374,
      "孙": 3375,
      "孚": 3376,
      "孝": 3377,
      "季": 3378,
      "孤": 3379,
      "学": 3380,
      "孩": 3381,
      "孫": 3382,
      "孳": 3383,
      "孵": 3384,
      "學": 3385,
      "孽": 3386,
      "宁": 3387,
      "它": 3388,
      "宅": 3389,
      "宇": 3390,
      "守": 3391,
      "安": 3392,
      "宋": 3393,
      "完": 3394,
      "宏": 3395,
      "宗": 3396,
      "官": 3397,
      "宙": 3398,
      "定": 3399,
      "宛": 3400,
      "宜": 3401,
      "宝": 3402,
      "实": 3403,
      "宠": 3404,
      "审": 3405,
      "客": 3406,
      "宣": 3407,
      "室": 3408,
      "宫": 3409,
      "宮": 3410,
      "宰": 3411,
      "害": 3412,
      "宴": 3413,
      "家": 3414,
      "容": 3415,
      "宽": 3416,
      "宾": 3417,
      "宿": 3418,
      "寂": 3419,
      "寄": 3420,
      "密": 3421,
      "富": 3422,
      "寒": 3423,
      "寓": 3424,
      "寛": 3425,
      "寝": 3426,
      "察": 3427,
      "寡": 3428,
      "寢": 3429,
      "寥": 3430,
      "實": 3431,
      "寧": 3432,
      "寨": 3433,
      "審": 3434,
      "寫": 3435,
      "寬": 3436,
      "寵": 3437,
      "寶": 3438,
      "寸": 3439,
      "对": 3440,
      "寺": 3441,
      "寻": 3442,
      "导": 3443,
      "寿": 3444,
      "封": 3445,
      "射": 3446,
      "将": 3447,
      "將": 3448,
      "專": 3449,
      "尊": 3450,
      "尋": 3451,
      "對": 3452,
      "導": 3453,
      "小": 3454,
      "少": 3455,
      "尔": 3456,
      "尖": 3457,
      "尘": 3458,
      "尚": 3459,
      "尝": 3460,
      "尤": 3461,
      "尬": 3462,
      "就": 3463,
      "尴": 3464,
      "尸": 3465,
      "尺": 3466,
      "尼": 3467,
      "尽": 3468,
      "尾": 3469,
      "尿": 3470,
      "局": 3471,
      "层": 3472,
      "居": 3473,
      "屈": 3474,
      "屋": 3475,
      "屍": 3476,
      "屏": 3477,
      "屑": 3478,
      "展": 3479,
      "属": 3480,
      "屠": 3481,
      "屡": 3482,
      "屢": 3483,
      "層": 3484,
      "履": 3485,
      "屬": 3486,
      "屯": 3487,
      "山": 3488,
      "屹": 3489,
      "岁": 3490,
      "岂": 3491,
      "岔": 3492,
      "岖": 3493,
      "岗": 3494,
      "岛": 3495,
      "岡": 3496,
      "岩": 3497,
      "岬": 3498,
      "岭": 3499,
      "岳": 3500,
      "岸": 3501,
      "峙": 3502,
      "峭": 3503,
      "峰": 3504,
      "島": 3505,
      "峻": 3506,
      "峽": 3507,
      "崇": 3508,
      "崎": 3509,
      "崖": 3510,
      "崗": 3511,
      "崙": 3512,
      "崛": 3513,
      "崩": 3514,
      "崭": 3515,
      "嵌": 3516,
      "嶇": 3517,
      "嶺": 3518,
      "嶽": 3519,
      "巅": 3520,
      "巔": 3521,
      "巖": 3522,
      "川": 3523,
      "巡": 3524,
      "巢": 3525,
      "工": 3526,
      "左": 3527,
      "巧": 3528,
      "巨": 3529,
      "巩": 3530,
      "巫": 3531,
      "差": 3532,
      "己": 3533,
      "已": 3534,
      "巴": 3535,
      "巷": 3536,
      "巾": 3537,
      "币": 3538,
      "市": 3539,
      "布": 3540,
      "帅": 3541,
      "帆": 3542,
      "师": 3543,
      "希": 3544,
      "帐": 3545,
      "帕": 3546,
      "帖": 3547,
      "帘": 3548,
      "帚": 3549,
      "帜": 3550,
      "帝": 3551,
      "帥": 3552,
      "带": 3553,
      "師": 3554,
      "席": 3555,
      "帮": 3556,
      "帳": 3557,
      "帶": 3558,
      "帷": 3559,
      "常": 3560,
      "幅": 3561,
      "幔": 3562,
      "幕": 3563,
      "幟": 3564,
      "幣": 3565,
      "幫": 3566,
      "干": 3567,
      "平": 3568,
      "年": 3569,
      "并": 3570,
      "幸": 3571,
      "幹": 3572,
      "幻": 3573,
      "幼": 3574,
      "幽": 3575,
      "幾": 3576,
      "广": 3577,
      "庁": 3578,
      "庄": 3579,
      "庆": 3580,
      "庇": 3581,
      "床": 3582,
      "序": 3583,
      "库": 3584,
      "应": 3585,
      "底": 3586,
      "店": 3587,
      "庙": 3588,
      "府": 3589,
      "庞": 3590,
      "废": 3591,
      "度": 3592,
      "座": 3593,
      "庫": 3594,
      "庭": 3595,
      "康": 3596,
      "庸": 3597,
      "廁": 3598,
      "廂": 3599,
      "廈": 3600,
      "廉": 3601,
      "廊": 3602,
      "廓": 3603,
      "廚": 3604,
      "廟": 3605,
      "廠": 3606,
      "廢": 3607,
      "廣": 3608,
      "廩": 3609,
      "廳": 3610,
      "延": 3611,
      "廷": 3612,
      "建": 3613,
      "开": 3614,
      "异": 3615,
      "弃": 3616,
      "弄": 3617,
      "弊": 3618,
      "式": 3619,
      "弑": 3620,
      "弒": 3621,
      "弓": 3622,
      "弔": 3623,
      "引": 3624,
      "弗": 3625,
      "弛": 3626,
      "弟": 3627,
      "张": 3628,
      "弥": 3629,
      "弦": 3630,
      "弯": 3631,
      "弱": 3632,
      "張": 3633,
      "強": 3634,
      "弹": 3635,
      "强": 3636,
      "彈": 3637,
      "彌": 3638,
      "彎": 3639,
      "归": 3640,
      "当": 3641,
      "录": 3642,
      "形": 3643,
      "彩": 3644,
      "彭": 3645,
      "彰": 3646,
      "影": 3647,
      "彷": 3648,
      "役": 3649,
      "彻": 3650,
      "彼": 3651,
      "彿": 3652,
      "往": 3653,
      "征": 3654,
      "径": 3655,
      "待": 3656,
      "徇": 3657,
      "很": 3658,
      "徉": 3659,
      "徊": 3660,
      "律": 3661,
      "後": 3662,
      "徐": 3663,
      "徑": 3664,
      "徒": 3665,
      "得": 3666,
      "徘": 3667,
      "徙": 3668,
      "徜": 3669,
      "從": 3670,
      "御": 3671,
      "復": 3672,
      "循": 3673,
      "微": 3674,
      "徵": 3675,
      "德": 3676,
      "徹": 3677,
      "心": 3678,
      "必": 3679,
      "忆": 3680,
      "忌": 3681,
      "忍": 3682,
      "志": 3683,
      "忘": 3684,
      "忙": 3685,
      "忠": 3686,
      "忡": 3687,
      "忤": 3688,
      "忧": 3689,
      "快": 3690,
      "忱": 3691,
      "念": 3692,
      "忻": 3693,
      "忽": 3694,
      "怀": 3695,
      "态": 3696,
      "怂": 3697,
      "怎": 3698,
      "怒": 3699,
      "怕": 3700,
      "怖": 3701,
      "怜": 3702,
      "思": 3703,
      "怠": 3704,
      "急": 3705,
      "性": 3706,
      "怨": 3707,
      "怪": 3708,
      "怯": 3709,
      "总": 3710,
      "恃": 3711,
      "恆": 3712,
      "恋": 3713,
      "恐": 3714,
      "恒": 3715,
      "恕": 3716,
      "恙": 3717,
      "恢": 3718,
      "恣": 3719,
      "恤": 3720,
      "恥": 3721,
      "恨": 3722,
      "恩": 3723,
      "恭": 3724,
      "息": 3725,
      "恰": 3726,
      "恳": 3727,
      "恶": 3728,
      "恸": 3729,
      "恼": 3730,
      "恿": 3731,
      "悄": 3732,
      "悅": 3733,
      "悉": 3734,
      "悍": 3735,
      "悔": 3736,
      "悖": 3737,
      "悟": 3738,
      "悠": 3739,
      "患": 3740,
      "悦": 3741,
      "您": 3742,
      "悬": 3743,
      "悯": 3744,
      "悲": 3745,
      "悴": 3746,
      "悶": 3747,
      "悼": 3748,
      "悽": 3749,
      "情": 3750,
      "惊": 3751,
      "惑": 3752,
      "惕": 3753,
      "惜": 3754,
      "惟": 3755,
      "惠": 3756,
      "惡": 3757,
      "惧": 3758,
      "惨": 3759,
      "惩": 3760,
      "惫": 3761,
      "惬": 3762,
      "惭": 3763,
      "惮": 3764,
      "惯": 3765,
      "惰": 3766,
      "惱": 3767,
      "想": 3768,
      "惶": 3769,
      "惹": 3770,
      "惻": 3771,
      "愁": 3772,
      "愆": 3773,
      "愈": 3774,
      "愉": 3775,
      "愎": 3776,
      "意": 3777,
      "愕": 3778,
      "愚": 3779,
      "愛": 3780,
      "感": 3781,
      "愤": 3782,
      "愧": 3783,
      "愷": 3784,
      "愿": 3785,
      "慄": 3786,
      "慈": 3787,
      "態": 3788,
      "慌": 3789,
      "慎": 3790,
      "慕": 3791,
      "慘": 3792,
      "慚": 3793,
      "慟": 3794,
      "慢": 3795,
      "慣": 3796,
      "慧": 3797,
      "慨": 3798,
      "慫": 3799,
      "慮": 3800,
      "慰": 3801,
      "慶": 3802,
      "慷": 3803,
      "慾": 3804,
      "憂": 3805,
      "憊": 3806,
      "憎": 3807,
      "憐": 3808,
      "憑": 3809,
      "憔": 3810,
      "憤": 3811,
      "憫": 3812,
      "憶": 3813,
      "憾": 3814,
      "懂": 3815,
      "懇": 3816,
      "懈": 3817,
      "應": 3818,
      "懊": 3819,
      "懒": 3820,
      "懦": 3821,
      "懲": 3822,
      "懶": 3823,
      "懷": 3824,
      "懸": 3825,
      "懼": 3826,
      "戀": 3827,
      "戈": 3828,
      "戏": 3829,
      "成": 3830,
      "我": 3831,
      "戒": 3832,
      "或": 3833,
      "战": 3834,
      "戚": 3835,
      "戛": 3836,
      "截": 3837,
      "戮": 3838,
      "戰": 3839,
      "戲": 3840,
      "戳": 3841,
      "戴": 3842,
      "戶": 3843,
      "户": 3844,
      "戾": 3845,
      "房": 3846,
      "所": 3847,
      "扁": 3848,
      "扇": 3849,
      "手": 3850,
      "才": 3851,
      "扎": 3852,
      "扑": 3853,
      "打": 3854,
      "扔": 3855,
      "托": 3856,
      "扛": 3857,
      "扣": 3858,
      "执": 3859,
      "扩": 3860,
      "扪": 3861,
      "扫": 3862,
      "扬": 3863,
      "扭": 3864,
      "扮": 3865,
      "扯": 3866,
      "扰": 3867,
      "扶": 3868,
      "批": 3869,
      "扼": 3870,
      "找": 3871,
      "承": 3872,
      "技": 3873,
      "抄": 3874,
      "抉": 3875,
      "把": 3876,
      "抑": 3877,
      "抓": 3878,
      "投": 3879,
      "抖": 3880,
      "抗": 3881,
      "折": 3882,
      "抚": 3883,
      "抛": 3884,
      "抟": 3885,
      "抡": 3886,
      "抢": 3887,
      "护": 3888,
      "报": 3889,
      "披": 3890,
      "抬": 3891,
      "抱": 3892,
      "抵": 3893,
      "抹": 3894,
      "押": 3895,
      "抽": 3896,
      "抿": 3897,
      "拃": 3898,
      "拄": 3899,
      "担": 3900,
      "拆": 3901,
      "拇": 3902,
      "拉": 3903,
      "拋": 3904,
      "拌": 3905,
      "拍": 3906,
      "拐": 3907,
      "拒": 3908,
      "拓": 3909,
      "拔": 3910,
      "拖": 3911,
      "拘": 3912,
      "拙": 3913,
      "拚": 3914,
      "招": 3915,
      "拜": 3916,
      "拢": 3917,
      "拣": 3918,
      "拥": 3919,
      "拦": 3920,
      "拧": 3921,
      "拨": 3922,
      "择": 3923,
      "括": 3924,
      "拭": 3925,
      "拯": 3926,
      "拳": 3927,
      "拴": 3928,
      "拷": 3929,
      "拼": 3930,
      "拽": 3931,
      "拾": 3932,
      "拿": 3933,
      "持": 3934,
      "挂": 3935,
      "指": 3936,
      "按": 3937,
      "挑": 3938,
      "挖": 3939,
      "挠": 3940,
      "挡": 3941,
      "挣": 3942,
      "挤": 3943,
      "挥": 3944,
      "挨": 3945,
      "挪": 3946,
      "挫": 3947,
      "振": 3948,
      "挺": 3949,
      "挽": 3950,
      "挾": 3951,
      "捂": 3952,
      "捆": 3953,
      "捉": 3954,
      "捏": 3955,
      "捐": 3956,
      "捕": 3957,
      "捞": 3958,
      "损": 3959,
      "捡": 3960,
      "换": 3961,
      "捣": 3962,
      "捧": 3963,
      "捨": 3964,
      "捫": 3965,
      "据": 3966,
      "捱": 3967,
      "捲": 3968,
      "捶": 3969,
      "捷": 3970,
      "捺": 3971,
      "捻": 3972,
      "掀": 3973,
      "掃": 3974,
      "授": 3975,
      "掉": 3976,
      "掌": 3977,
      "掏": 3978,
      "掐": 3979,
      "排": 3980,
      "掘": 3981,
      "掙": 3982,
      "掛": 3983,
      "掠": 3984,
      "採": 3985,
      "探": 3986,
      "掣": 3987,
      "接": 3988,
      "控": 3989,
      "推": 3990,
      "掩": 3991,
      "措": 3992,
      "掰": 3993,
      "掳": 3994,
      "掷": 3995,
      "掺": 3996,
      "揀": 3997,
      "揉": 3998,
      "描": 3999,
      "提": 4000,
      "插": 4001,
      "揚": 4002,
      "換": 4003,
      "握": 4004,
      "揣": 4005,
      "揪": 4006,
      "揭": 4007,
      "揮": 4008,
      "揲": 4009,
      "援": 4010,
      "搀": 4011,
      "搁": 4012,
      "搂": 4013,
      "搅": 4014,
      "損": 4015,
      "搏": 4016,
      "搓": 4017,
      "搖": 4018,
      "搗": 4019,
      "搜": 4020,
      "搡": 4021,
      "搥": 4022,
      "搧": 4023,
      "搬": 4024,
      "搭": 4025,
      "搶": 4026,
      "摀": 4027,
      "摆": 4028,
      "摇": 4029,
      "摊": 4030,
      "摔": 4031,
      "摘": 4032,
      "摧": 4033,
      "摩": 4034,
      "摸": 4035,
      "摺": 4036,
      "撇": 4037,
      "撐": 4038,
      "撑": 4039,
      "撒": 4040,
      "撓": 4041,
      "撕": 4042,
      "撞": 4043,
      "撤": 4044,
      "撥": 4045,
      "撫": 4046,
      "撬": 4047,
      "播": 4048,
      "撮": 4049,
      "撲": 4050,
      "撻": 4051,
      "撼": 4052,
      "撿": 4053,
      "擁": 4054,
      "擄": 4055,
      "擅": 4056,
      "擇": 4057,
      "擊": 4058,
      "擋": 4059,
      "操": 4060,
      "擒": 4061,
      "擔": 4062,
      "擘": 4063,
      "據": 4064,
      "擛": 4065,
      "擠": 4066,
      "擦": 4067,
      "擬": 4068,
      "擰": 4069,
      "擱": 4070,
      "擲": 4071,
      "擴": 4072,
      "擺": 4073,
      "擾": 4074,
      "攀": 4075,
      "攏": 4076,
      "攔": 4077,
      "攙": 4078,
      "攜": 4079,
      "攥": 4080,
      "攪": 4081,
      "攫": 4082,
      "支": 4083,
      "收": 4084,
      "改": 4085,
      "攻": 4086,
      "放": 4087,
      "政": 4088,
      "故": 4089,
      "效": 4090,
      "敌": 4091,
      "敏": 4092,
      "救": 4093,
      "敕": 4094,
      "敗": 4095,
      "敘": 4096,
      "教": 4097,
      "敛": 4098,
      "敝": 4099,
      "敞": 4100,
      "敢": 4101,
      "散": 4102,
      "敦": 4103,
      "敬": 4104,
      "数": 4105,
      "敲": 4106,
      "整": 4107,
      "敵": 4108,
      "敷": 4109,
      "數": 4110,
      "斂": 4111,
      "斃": 4112,
      "文": 4113,
      "斐": 4114,
      "斑": 4115,
      "斓": 4116,
      "斗": 4117,
      "料": 4118,
      "斜": 4119,
      "斟": 4120,
      "斤": 4121,
      "斥": 4122,
      "斧": 4123,
      "斩": 4124,
      "斬": 4125,
      "断": 4126,
      "斯": 4127,
      "新": 4128,
      "斷": 4129,
      "方": 4130,
      "於": 4131,
      "施": 4132,
      "旁": 4133,
      "旅": 4134,
      "旋": 4135,
      "旌": 4136,
      "族": 4137,
      "旗": 4138,
      "无": 4139,
      "既": 4140,
      "日": 4141,
      "旦": 4142,
      "旧": 4143,
      "旨": 4144,
      "早": 4145,
      "旬": 4146,
      "旱": 4147,
      "时": 4148,
      "旷": 4149,
      "旺": 4150,
      "昂": 4151,
      "昆": 4152,
      "昌": 4153,
      "明": 4154,
      "昏": 4155,
      "易": 4156,
      "昔": 4157,
      "星": 4158,
      "映": 4159,
      "春": 4160,
      "昧": 4161,
      "昨": 4162,
      "昭": 4163,
      "是": 4164,
      "昴": 4165,
      "昼": 4166,
      "显": 4167,
      "時": 4168,
      "晃": 4169,
      "晉": 4170,
      "晒": 4171,
      "晓": 4172,
      "晕": 4173,
      "晖": 4174,
      "晚": 4175,
      "晝": 4176,
      "晨": 4177,
      "普": 4178,
      "景": 4179,
      "晴": 4180,
      "晶": 4181,
      "晷": 4182,
      "智": 4183,
      "暂": 4184,
      "暇": 4185,
      "暑": 4186,
      "暖": 4187,
      "暗": 4188,
      "暢": 4189,
      "暫": 4190,
      "暮": 4191,
      "暴": 4192,
      "暸": 4193,
      "曉": 4194,
      "曙": 4195,
      "曝": 4196,
      "曠": 4197,
      "曦": 4198,
      "曬": 4199,
      "曲": 4200,
      "更": 4201,
      "曷": 4202,
      "書": 4203,
      "曼": 4204,
      "曾": 4205,
      "替": 4206,
      "最": 4207,
      "會": 4208,
      "月": 4209,
      "有": 4210,
      "朋": 4211,
      "服": 4212,
      "朔": 4213,
      "朗": 4214,
      "望": 4215,
      "朝": 4216,
      "期": 4217,
      "木": 4218,
      "未": 4219,
      "末": 4220,
      "本": 4221,
      "术": 4222,
      "朱": 4223,
      "朴": 4224,
      "朵": 4225,
      "机": 4226,
      "朽": 4227,
      "杀": 4228,
      "杂": 4229,
      "权": 4230,
      "杆": 4231,
      "杈": 4232,
      "杉": 4233,
      "李": 4234,
      "杏": 4235,
      "材": 4236,
      "村": 4237,
      "杖": 4238,
      "杜": 4239,
      "束": 4240,
      "杠": 4241,
      "条": 4242,
      "来": 4243,
      "杨": 4244,
      "杯": 4245,
      "杰": 4246,
      "東": 4247,
      "杵": 4248,
      "松": 4249,
      "板": 4250,
      "极": 4251,
      "构": 4252,
      "枉": 4253,
      "枕": 4254,
      "林": 4255,
      "果": 4256,
      "枝": 4257,
      "枣": 4258,
      "枪": 4259,
      "枫": 4260,
      "枯": 4261,
      "枳": 4262,
      "枴": 4263,
      "架": 4264,
      "枷": 4265,
      "柄": 4266,
      "柏": 4267,
      "某": 4268,
      "染": 4269,
      "柔": 4270,
      "柜": 4271,
      "查": 4272,
      "柯": 4273,
      "柱": 4274,
      "柳": 4275,
      "柴": 4276,
      "柺": 4277,
      "柽": 4278,
      "标": 4279,
      "栋": 4280,
      "栏": 4281,
      "树": 4282,
      "栖": 4283,
      "栗": 4284,
      "株": 4285,
      "样": 4286,
      "核": 4287,
      "根": 4288,
      "格": 4289,
      "栽": 4290,
      "桂": 4291,
      "桃": 4292,
      "桅": 4293,
      "框": 4294,
      "案": 4295,
      "桌": 4296,
      "桐": 4297,
      "桑": 4298,
      "档": 4299,
      "桨": 4300,
      "桩": 4301,
      "桶": 4302,
      "桿": 4303,
      "梁": 4304,
      "梅": 4305,
      "梗": 4306,
      "條": 4307,
      "梢": 4308,
      "梦": 4309,
      "梧": 4310,
      "梭": 4311,
      "梯": 4312,
      "械": 4313,
      "梳": 4314,
      "检": 4315,
      "棄": 4316,
      "棉": 4317,
      "棍": 4318,
      "棒": 4319,
      "棕": 4320,
      "棗": 4321,
      "棘": 4322,
      "棚": 4323,
      "棟": 4324,
      "棧": 4325,
      "森": 4326,
      "棱": 4327,
      "棲": 4328,
      "棵": 4329,
      "棺": 4330,
      "椅": 4331,
      "植": 4332,
      "椽": 4333,
      "楊": 4334,
      "楓": 4335,
      "楚": 4336,
      "楠": 4337,
      "楣": 4338,
      "業": 4339,
      "極": 4340,
      "楼": 4341,
      "概": 4342,
      "榄": 4343,
      "榈": 4344,
      "榎": 4345,
      "榜": 4346,
      "榨": 4347,
      "榫": 4348,
      "榮": 4349,
      "榴": 4350,
      "榻": 4351,
      "槁": 4352,
      "槃": 4353,
      "構": 4354,
      "槌": 4355,
      "槍": 4356,
      "槓": 4357,
      "槛": 4358,
      "槳": 4359,
      "槽": 4360,
      "樂": 4361,
      "樓": 4362,
      "標": 4363,
      "樞": 4364,
      "模": 4365,
      "樣": 4366,
      "横": 4367,
      "樸": 4368,
      "樹": 4369,
      "橄": 4370,
      "橛": 4371,
      "機": 4372,
      "橡": 4373,
      "橫": 4374,
      "檀": 4375,
      "檐": 4376,
      "檔": 4377,
      "檢": 4378,
      "檩": 4379,
      "檻": 4380,
      "櫃": 4381,
      "櫓": 4382,
      "欄": 4383,
      "權": 4384,
      "欖": 4385,
      "欠": 4386,
      "次": 4387,
      "欢": 4388,
      "欣": 4389,
      "欧": 4390,
      "欲": 4391,
      "欺": 4392,
      "欽": 4393,
      "款": 4394,
      "歇": 4395,
      "歉": 4396,
      "歌": 4397,
      "歎": 4398,
      "歐": 4399,
      "歛": 4400,
      "歡": 4401,
      "止": 4402,
      "正": 4403,
      "此": 4404,
      "步": 4405,
      "武": 4406,
      "歧": 4407,
      "歪": 4408,
      "歲": 4409,
      "歷": 4410,
      "歸": 4411,
      "歹": 4412,
      "死": 4413,
      "殃": 4414,
      "殆": 4415,
      "殊": 4416,
      "残": 4417,
      "殓": 4418,
      "殖": 4419,
      "殘": 4420,
      "殮": 4421,
      "殯": 4422,
      "殲": 4423,
      "殴": 4424,
      "段": 4425,
      "殷": 4426,
      "殺": 4427,
      "殿": 4428,
      "毀": 4429,
      "毁": 4430,
      "毂": 4431,
      "毅": 4432,
      "毆": 4433,
      "毋": 4434,
      "母": 4435,
      "每": 4436,
      "毒": 4437,
      "比": 4438,
      "毕": 4439,
      "毗": 4440,
      "毙": 4441,
      "毛": 4442,
      "毫": 4443,
      "毯": 4444,
      "氏": 4445,
      "民": 4446,
      "氓": 4447,
      "气": 4448,
      "氣": 4449,
      "水": 4450,
      "永": 4451,
      "氾": 4452,
      "汁": 4453,
      "求": 4454,
      "汇": 4455,
      "汉": 4456,
      "汊": 4457,
      "汗": 4458,
      "汛": 4459,
      "江": 4460,
      "池": 4461,
      "污": 4462,
      "汤": 4463,
      "汪": 4464,
      "汰": 4465,
      "汲": 4466,
      "汶": 4467,
      "汹": 4468,
      "決": 4469,
      "沃": 4470,
      "沉": 4471,
      "沌": 4472,
      "沐": 4473,
      "沒": 4474,
      "沖": 4475,
      "沙": 4476,
      "沛": 4477,
      "沟": 4478,
      "没": 4479,
      "沥": 4480,
      "沦": 4481,
      "沫": 4482,
      "沮": 4483,
      "河": 4484,
      "沸": 4485,
      "油": 4486,
      "治": 4487,
      "沼": 4488,
      "沽": 4489,
      "沾": 4490,
      "沿": 4491,
      "況": 4492,
      "泄": 4493,
      "泉": 4494,
      "泊": 4495,
      "法": 4496,
      "泛": 4497,
      "泞": 4498,
      "泡": 4499,
      "波": 4500,
      "泣": 4501,
      "泥": 4502,
      "注": 4503,
      "泪": 4504,
      "泯": 4505,
      "泰": 4506,
      "泳": 4507,
      "泻": 4508,
      "泼": 4509,
      "泽": 4510,
      "洁": 4511,
      "洋": 4512,
      "洒": 4513,
      "洗": 4514,
      "洛": 4515,
      "洞": 4516,
      "津": 4517,
      "洩": 4518,
      "洪": 4519,
      "洲": 4520,
      "洶": 4521,
      "活": 4522,
      "洼": 4523,
      "派": 4524,
      "流": 4525,
      "浅": 4526,
      "浆": 4527,
      "浇": 4528,
      "浊": 4529,
      "测": 4530,
      "济": 4531,
      "浑": 4532,
      "浓": 4533,
      "浦": 4534,
      "浩": 4535,
      "浪": 4536,
      "浮": 4537,
      "浴": 4538,
      "海": 4539,
      "浸": 4540,
      "涂": 4541,
      "涅": 4542,
      "消": 4543,
      "涉": 4544,
      "涌": 4545,
      "涎": 4546,
      "涓": 4547,
      "涕": 4548,
      "涛": 4549,
      "涤": 4550,
      "润": 4551,
      "涨": 4552,
      "涩": 4553,
      "涯": 4554,
      "液": 4555,
      "涸": 4556,
      "涼": 4557,
      "淋": 4558,
      "淌": 4559,
      "淑": 4560,
      "淒": 4561,
      "淘": 4562,
      "淚": 4563,
      "淡": 4564,
      "淤": 4565,
      "淨": 4566,
      "淪": 4567,
      "淫": 4568,
      "深": 4569,
      "淵": 4570,
      "混": 4571,
      "淹": 4572,
      "淺": 4573,
      "添": 4574,
      "清": 4575,
      "渊": 4576,
      "渍": 4577,
      "渎": 4578,
      "渐": 4579,
      "渔": 4580,
      "渗": 4581,
      "減": 4582,
      "渠": 4583,
      "渡": 4584,
      "渣": 4585,
      "温": 4586,
      "測": 4587,
      "港": 4588,
      "渴": 4589,
      "游": 4590,
      "渺": 4591,
      "渾": 4592,
      "湃": 4593,
      "湊": 4594,
      "湍": 4595,
      "湎": 4596,
      "湖": 4597,
      "湧": 4598,
      "湯": 4599,
      "湾": 4600,
      "湿": 4601,
      "溃": 4602,
      "溅": 4603,
      "溉": 4604,
      "源": 4605,
      "準": 4606,
      "溜": 4607,
      "溝": 4608,
      "溢": 4609,
      "溪": 4610,
      "溫": 4611,
      "溶": 4612,
      "溺": 4613,
      "滄": 4614,
      "滅": 4615,
      "滋": 4616,
      "滌": 4617,
      "滑": 4618,
      "滓": 4619,
      "滔": 4620,
      "滚": 4621,
      "滞": 4622,
      "满": 4623,
      "滤": 4624,
      "滥": 4625,
      "滩": 4626,
      "滲": 4627,
      "滴": 4628,
      "滾": 4629,
      "滿": 4630,
      "漁": 4631,
      "漂": 4632,
      "漆": 4633,
      "漏": 4634,
      "漓": 4635,
      "演": 4636,
      "漠": 4637,
      "漢": 4638,
      "漫": 4639,
      "漲": 4640,
      "漸": 4641,
      "漿": 4642,
      "潑": 4643,
      "潔": 4644,
      "潘": 4645,
      "潛": 4646,
      "潜": 4647,
      "潤": 4648,
      "潦": 4649,
      "潭": 4650,
      "潮": 4651,
      "潰": 4652,
      "澀": 4653,
      "澄": 4654,
      "澆": 4655,
      "澈": 4656,
      "澎": 4657,
      "澡": 4658,
      "澤": 4659,
      "澱": 4660,
      "澳": 4661,
      "激": 4662,
      "濁": 4663,
      "濃": 4664,
      "濕": 4665,
      "濛": 4666,
      "濟": 4667,
      "濠": 4668,
      "濤": 4669,
      "濫": 4670,
      "濯": 4671,
      "濱": 4672,
      "濺": 4673,
      "濾": 4674,
      "瀆": 4675,
      "瀉": 4676,
      "瀑": 4677,
      "瀝": 4678,
      "瀰": 4679,
      "瀾": 4680,
      "灌": 4681,
      "灑": 4682,
      "灘": 4683,
      "灣": 4684,
      "火": 4685,
      "灭": 4686,
      "灯": 4687,
      "灰": 4688,
      "灵": 4689,
      "灶": 4690,
      "灼": 4691,
      "災": 4692,
      "灾": 4693,
      "灿": 4694,
      "炉": 4695,
      "炎": 4696,
      "炒": 4697,
      "炙": 4698,
      "炫": 4699,
      "炬": 4700,
      "炭": 4701,
      "点": 4702,
      "為": 4703,
      "炼": 4704,
      "炽": 4705,
      "烁": 4706,
      "烂": 4707,
      "烈": 4708,
      "烏": 4709,
      "烘": 4710,
      "烙": 4711,
      "烟": 4712,
      "烤": 4713,
      "烦": 4714,
      "烧": 4715,
      "烫": 4716,
      "烬": 4717,
      "热": 4718,
      "烹": 4719,
      "烽": 4720,
      "焉": 4721,
      "焊": 4722,
      "焕": 4723,
      "焙": 4724,
      "焚": 4725,
      "無": 4726,
      "焦": 4727,
      "焰": 4728,
      "然": 4729,
      "煉": 4730,
      "煌": 4731,
      "煎": 4732,
      "煙": 4733,
      "煞": 4734,
      "煤": 4735,
      "照": 4736,
      "煩": 4737,
      "煮": 4738,
      "煽": 4739,
      "熄": 4740,
      "熊": 4741,
      "熏": 4742,
      "熔": 4743,
      "熟": 4744,
      "熠": 4745,
      "熬": 4746,
      "熱": 4747,
      "燃": 4748,
      "燈": 4749,
      "燒": 4750,
      "燔": 4751,
      "燕": 4752,
      "燙": 4753,
      "營": 4754,
      "燥": 4755,
      "燦": 4756,
      "燧": 4757,
      "燬": 4758,
      "燼": 4759,
      "爆": 4760,
      "爍": 4761,
      "爐": 4762,
      "爛": 4763,
      "爪": 4764,
      "爬": 4765,
      "爭": 4766,
      "爱": 4767,
      "爵": 4768,
      "父": 4769,
      "爸": 4770,
      "爽": 4771,
      "爾": 4772,
      "牆": 4773,
      "片": 4774,
      "版": 4775,
      "牌": 4776,
      "牙": 4777,
      "牛": 4778,
      "牝": 4779,
      "牠": 4780,
      "牢": 4781,
      "牧": 4782,
      "物": 4783,
      "牲": 4784,
      "牴": 4785,
      "牵": 4786,
      "特": 4787,
      "牺": 4788,
      "牽": 4789,
      "犁": 4790,
      "犄": 4791,
      "犊": 4792,
      "犒": 4793,
      "犢": 4794,
      "犧": 4795,
      "犬": 4796,
      "犯": 4797,
      "状": 4798,
      "犹": 4799,
      "狀": 4800,
      "狂": 4801,
      "狄": 4802,
      "狈": 4803,
      "狍": 4804,
      "狐": 4805,
      "狗": 4806,
      "狠": 4807,
      "狡": 4808,
      "独": 4809,
      "狭": 4810,
      "狮": 4811,
      "狱": 4812,
      "狸": 4813,
      "狹": 4814,
      "狼": 4815,
      "猎": 4816,
      "猛": 4817,
      "猜": 4818,
      "猪": 4819,
      "猫": 4820,
      "献": 4821,
      "猴": 4822,
      "猶": 4823,
      "猾": 4824,
      "猿": 4825,
      "獄": 4826,
      "獅": 4827,
      "獎": 4828,
      "獠": 4829,
      "獨": 4830,
      "獲": 4831,
      "獵": 4832,
      "獸": 4833,
      "獻": 4834,
      "獾": 4835,
      "玄": 4836,
      "率": 4837,
      "玉": 4838,
      "王": 4839,
      "玎": 4840,
      "玛": 4841,
      "玩": 4842,
      "玫": 4843,
      "环": 4844,
      "现": 4845,
      "玳": 4846,
      "玷": 4847,
      "玺": 4848,
      "玻": 4849,
      "珀": 4850,
      "珉": 4851,
      "珊": 4852,
      "珍": 4853,
      "珠": 4854,
      "珥": 4855,
      "班": 4856,
      "現": 4857,
      "球": 4858,
      "琅": 4859,
      "理": 4860,
      "琉": 4861,
      "琐": 4862,
      "琢": 4863,
      "琥": 4864,
      "琳": 4865,
      "琴": 4866,
      "琶": 4867,
      "瑕": 4868,
      "瑙": 4869,
      "瑚": 4870,
      "瑞": 4871,
      "瑟": 4872,
      "瑣": 4873,
      "瑩": 4874,
      "瑪": 4875,
      "瑰": 4876,
      "瑾": 4877,
      "璃": 4878,
      "璉": 4879,
      "璐": 4880,
      "璧": 4881,
      "璫": 4882,
      "環": 4883,
      "璽": 4884,
      "瓜": 4885,
      "瓣": 4886,
      "瓦": 4887,
      "瓶": 4888,
      "瓷": 4889,
      "甘": 4890,
      "甚": 4891,
      "甜": 4892,
      "生": 4893,
      "產": 4894,
      "甥": 4895,
      "甦": 4896,
      "用": 4897,
      "甩": 4898,
      "田": 4899,
      "由": 4900,
      "甲": 4901,
      "申": 4902,
      "电": 4903,
      "男": 4904,
      "甸": 4905,
      "画": 4906,
      "畅": 4907,
      "界": 4908,
      "畏": 4909,
      "畔": 4910,
      "留": 4911,
      "畜": 4912,
      "畝": 4913,
      "畢": 4914,
      "略": 4915,
      "畦": 4916,
      "番": 4917,
      "畫": 4918,
      "異": 4919,
      "當": 4920,
      "畸": 4921,
      "疆": 4922,
      "疊": 4923,
      "疏": 4924,
      "疑": 4925,
      "疗": 4926,
      "疚": 4927,
      "疤": 4928,
      "疥": 4929,
      "疫": 4930,
      "疮": 4931,
      "疯": 4932,
      "疲": 4933,
      "疵": 4934,
      "疹": 4935,
      "疼": 4936,
      "疾": 4937,
      "病": 4938,
      "症": 4939,
      "痊": 4940,
      "痒": 4941,
      "痔": 4942,
      "痕": 4943,
      "痛": 4944,
      "痢": 4945,
      "痨": 4946,
      "痪": 4947,
      "痫": 4948,
      "痲": 4949,
      "痴": 4950,
      "瘀": 4951,
      "瘋": 4952,
      "瘍": 4953,
      "瘓": 4954,
      "瘟": 4955,
      "瘠": 4956,
      "瘡": 4957,
      "瘤": 4958,
      "瘦": 4959,
      "瘪": 4960,
      "瘫": 4961,
      "瘸": 4962,
      "癆": 4963,
      "癇": 4964,
      "癒": 4965,
      "癞": 4966,
      "癢": 4967,
      "癣": 4968,
      "癫": 4969,
      "癬": 4970,
      "癱": 4971,
      "癲": 4972,
      "発": 4973,
      "登": 4974,
      "發": 4975,
      "白": 4976,
      "百": 4977,
      "皂": 4978,
      "的": 4979,
      "皆": 4980,
      "皇": 4981,
      "皈": 4982,
      "皎": 4983,
      "皮": 4984,
      "皱": 4985,
      "皺": 4986,
      "皿": 4987,
      "盆": 4988,
      "盈": 4989,
      "益": 4990,
      "盏": 4991,
      "盐": 4992,
      "监": 4993,
      "盒": 4994,
      "盔": 4995,
      "盖": 4996,
      "盗": 4997,
      "盘": 4998,
      "盛": 4999,
      "盜": 5000,
      "盞": 5001,
      "盟": 5002,
      "盡": 5003,
      "監": 5004,
      "盤": 5005,
      "盪": 5006,
      "目": 5007,
      "盯": 5008,
      "盲": 5009,
      "直": 5010,
      "相": 5011,
      "盹": 5012,
      "盼": 5013,
      "盾": 5014,
      "省": 5015,
      "眉": 5016,
      "看": 5017,
      "真": 5018,
      "眠": 5019,
      "眨": 5020,
      "眯": 5021,
      "眶": 5022,
      "眷": 5023,
      "眸": 5024,
      "眼": 5025,
      "眾": 5026,
      "着": 5027,
      "睁": 5028,
      "睚": 5029,
      "睛": 5030,
      "睜": 5031,
      "睡": 5032,
      "督": 5033,
      "睦": 5034,
      "睪": 5035,
      "睬": 5036,
      "睹": 5037,
      "睽": 5038,
      "睾": 5039,
      "瞄": 5040,
      "瞎": 5041,
      "瞒": 5042,
      "瞞": 5043,
      "瞥": 5044,
      "瞩": 5045,
      "瞪": 5046,
      "瞬": 5047,
      "瞭": 5048,
      "瞳": 5049,
      "瞻": 5050,
      "矇": 5051,
      "矗": 5052,
      "矛": 5053,
      "矜": 5054,
      "矢": 5055,
      "知": 5056,
      "矩": 5057,
      "矫": 5058,
      "短": 5059,
      "矮": 5060,
      "石": 5061,
      "矶": 5062,
      "矿": 5063,
      "码": 5064,
      "砌": 5065,
      "砍": 5066,
      "研": 5067,
      "砖": 5068,
      "砝": 5069,
      "砣": 5070,
      "砧": 5071,
      "破": 5072,
      "砸": 5073,
      "砺": 5074,
      "础": 5075,
      "硃": 5076,
      "硕": 5077,
      "硝": 5078,
      "硫": 5079,
      "硬": 5080,
      "确": 5081,
      "碉": 5082,
      "碌": 5083,
      "碍": 5084,
      "碎": 5085,
      "碑": 5086,
      "碗": 5087,
      "碟": 5088,
      "碧": 5089,
      "碰": 5090,
      "碱": 5091,
      "確": 5092,
      "碼": 5093,
      "碾": 5094,
      "磐": 5095,
      "磙": 5096,
      "磚": 5097,
      "磨": 5098,
      "磯": 5099,
      "磴": 5100,
      "磺": 5101,
      "礁": 5102,
      "礎": 5103,
      "礙": 5104,
      "礦": 5105,
      "礫": 5106,
      "示": 5107,
      "礼": 5108,
      "社": 5109,
      "祀": 5110,
      "祈": 5111,
      "祉": 5112,
      "祕": 5113,
      "祖": 5114,
      "祝": 5115,
      "神": 5116,
      "祥": 5117,
      "票": 5118,
      "祭": 5119,
      "祷": 5120,
      "祸": 5121,
      "祿": 5122,
      "禀": 5123,
      "禁": 5124,
      "禄": 5125,
      "禍": 5126,
      "福": 5127,
      "禦": 5128,
      "禧": 5129,
      "禮": 5130,
      "禱": 5131,
      "离": 5132,
      "禽": 5133,
      "禾": 5134,
      "禿": 5135,
      "秀": 5136,
      "私": 5137,
      "秃": 5138,
      "秆": 5139,
      "秉": 5140,
      "秋": 5141,
      "种": 5142,
      "科": 5143,
      "秕": 5144,
      "秘": 5145,
      "租": 5146,
      "秤": 5147,
      "秧": 5148,
      "秩": 5149,
      "积": 5150,
      "称": 5151,
      "秸": 5152,
      "移": 5153,
      "秽": 5154,
      "稀": 5155,
      "稅": 5156,
      "稈": 5157,
      "程": 5158,
      "稍": 5159,
      "税": 5160,
      "稗": 5161,
      "稟": 5162,
      "稠": 5163,
      "稣": 5164,
      "種": 5165,
      "稱": 5166,
      "稳": 5167,
      "稻": 5168,
      "稼": 5169,
      "稽": 5170,
      "穀": 5171,
      "穆": 5172,
      "穌": 5173,
      "積": 5174,
      "穑": 5175,
      "穗": 5176,
      "穢": 5177,
      "穩": 5178,
      "穫": 5179,
      "穴": 5180,
      "究": 5181,
      "穷": 5182,
      "穹": 5183,
      "空": 5184,
      "穿": 5185,
      "突": 5186,
      "窃": 5187,
      "窄": 5188,
      "窍": 5189,
      "窑": 5190,
      "窒": 5191,
      "窖": 5192,
      "窗": 5193,
      "窘": 5194,
      "窜": 5195,
      "窝": 5196,
      "窥": 5197,
      "窩": 5198,
      "窪": 5199,
      "窮": 5200,
      "窯": 5201,
      "窺": 5202,
      "窿": 5203,
      "竄": 5204,
      "竅": 5205,
      "竊": 5206,
      "立": 5207,
      "竖": 5208,
      "站": 5209,
      "竞": 5210,
      "竟": 5211,
      "章": 5212,
      "童": 5213,
      "竭": 5214,
      "端": 5215,
      "競": 5216,
      "竹": 5217,
      "竿": 5218,
      "笆": 5219,
      "笏": 5220,
      "笑": 5221,
      "笔": 5222,
      "笛": 5223,
      "符": 5224,
      "笨": 5225,
      "第": 5226,
      "笼": 5227,
      "筆": 5228,
      "等": 5229,
      "筋": 5230,
      "筏": 5231,
      "筐": 5232,
      "筑": 5233,
      "筒": 5234,
      "答": 5235,
      "策": 5236,
      "筛": 5237,
      "筵": 5238,
      "筹": 5239,
      "签": 5240,
      "简": 5241,
      "箍": 5242,
      "箏": 5243,
      "箐": 5244,
      "箕": 5245,
      "算": 5246,
      "管": 5247,
      "箭": 5248,
      "箱": 5249,
      "箴": 5250,
      "節": 5251,
      "範": 5252,
      "篇": 5253,
      "築": 5254,
      "篝": 5255,
      "篡": 5256,
      "篤": 5257,
      "篩": 5258,
      "篮": 5259,
      "篱": 5260,
      "篷": 5261,
      "篾": 5262,
      "簇": 5263,
      "簍": 5264,
      "簡": 5265,
      "簫": 5266,
      "簷": 5267,
      "簸": 5268,
      "簽": 5269,
      "簾": 5270,
      "籃": 5271,
      "籌": 5272,
      "籍": 5273,
      "籠": 5274,
      "籤": 5275,
      "籬": 5276,
      "籲": 5277,
      "米": 5278,
      "类": 5279,
      "籽": 5280,
      "粉": 5281,
      "粒": 5282,
      "粗": 5283,
      "粘": 5284,
      "粟": 5285,
      "粪": 5286,
      "粮": 5287,
      "精": 5288,
      "糊": 5289,
      "糞": 5290,
      "糟": 5291,
      "糠": 5292,
      "糧": 5293,
      "系": 5294,
      "糾": 5295,
      "紀": 5296,
      "約": 5297,
      "紅": 5298,
      "紋": 5299,
      "納": 5300,
      "純": 5301,
      "紗": 5302,
      "紙": 5303,
      "級": 5304,
      "紛": 5305,
      "素": 5306,
      "紡": 5307,
      "索": 5308,
      "紧": 5309,
      "紫": 5310,
      "紮": 5311,
      "累": 5312,
      "細": 5313,
      "紳": 5314,
      "紹": 5315,
      "終": 5316,
      "組": 5317,
      "絆": 5318,
      "結": 5319,
      "絕": 5320,
      "絞": 5321,
      "絡": 5322,
      "給": 5323,
      "絨": 5324,
      "絮": 5325,
      "統": 5326,
      "絲": 5327,
      "綁": 5328,
      "經": 5329,
      "綠": 5330,
      "綢": 5331,
      "維": 5332,
      "綱": 5333,
      "網": 5334,
      "綸": 5335,
      "綹": 5336,
      "綻": 5337,
      "綿": 5338,
      "緊": 5339,
      "緒": 5340,
      "緘": 5341,
      "線": 5342,
      "締": 5343,
      "緣": 5344,
      "編": 5345,
      "緩": 5346,
      "緬": 5347,
      "緯": 5348,
      "練": 5349,
      "緻": 5350,
      "縋": 5351,
      "縛": 5352,
      "縫": 5353,
      "縮": 5354,
      "縱": 5355,
      "縵": 5356,
      "總": 5357,
      "繁": 5358,
      "繃": 5359,
      "織": 5360,
      "繞": 5361,
      "繡": 5362,
      "繩": 5363,
      "繫": 5364,
      "繳": 5365,
      "繸": 5366,
      "繼": 5367,
      "繽": 5368,
      "續": 5369,
      "纍": 5370,
      "纏": 5371,
      "纜": 5372,
      "纠": 5373,
      "红": 5374,
      "纣": 5375,
      "约": 5376,
      "级": 5377,
      "纪": 5378,
      "纬": 5379,
      "纯": 5380,
      "纱": 5381,
      "纳": 5382,
      "纵": 5383,
      "纷": 5384,
      "纸": 5385,
      "纹": 5386,
      "纺": 5387,
      "线": 5388,
      "练": 5389,
      "组": 5390,
      "细": 5391,
      "织": 5392,
      "终": 5393,
      "绊": 5394,
      "经": 5395,
      "绑": 5396,
      "结": 5397,
      "绕": 5398,
      "绘": 5399,
      "给": 5400,
      "络": 5401,
      "绝": 5402,
      "绞": 5403,
      "统": 5404,
      "绣": 5405,
      "继": 5406,
      "绩": 5407,
      "绪": 5408,
      "续": 5409,
      "绳": 5410,
      "维": 5411,
      "绵": 5412,
      "绷": 5413,
      "绸": 5414,
      "绺": 5415,
      "绽": 5416,
      "绿": 5417,
      "缀": 5418,
      "缄": 5419,
      "缅": 5420,
      "缆": 5421,
      "缎": 5422,
      "缒": 5423,
      "缓": 5424,
      "缔": 5425,
      "编": 5426,
      "缘": 5427,
      "缚": 5428,
      "缝": 5429,
      "缠": 5430,
      "缤": 5431,
      "缦": 5432,
      "缨": 5433,
      "缩": 5434,
      "缮": 5435,
      "缸": 5436,
      "缺": 5437,
      "罈": 5438,
      "罐": 5439,
      "网": 5440,
      "罕": 5441,
      "罗": 5442,
      "罚": 5443,
      "罢": 5444,
      "罩": 5445,
      "罪": 5446,
      "置": 5447,
      "罰": 5448,
      "署": 5449,
      "罵": 5450,
      "罷": 5451,
      "羅": 5452,
      "羈": 5453,
      "羊": 5454,
      "美": 5455,
      "羔": 5456,
      "羚": 5457,
      "羞": 5458,
      "羡": 5459,
      "群": 5460,
      "羨": 5461,
      "義": 5462,
      "羱": 5463,
      "羹": 5464,
      "羽": 5465,
      "翁": 5466,
      "翅": 5467,
      "翎": 5468,
      "習": 5469,
      "翔": 5470,
      "翠": 5471,
      "翡": 5472,
      "翰": 5473,
      "翱": 5474,
      "翹": 5475,
      "翻": 5476,
      "翼": 5477,
      "耀": 5478,
      "老": 5479,
      "考": 5480,
      "者": 5481,
      "而": 5482,
      "耍": 5483,
      "耐": 5484,
      "耕": 5485,
      "耗": 5486,
      "耘": 5487,
      "耙": 5488,
      "耳": 5489,
      "耶": 5490,
      "耸": 5491,
      "耻": 5492,
      "耽": 5493,
      "聂": 5494,
      "聆": 5495,
      "聋": 5496,
      "职": 5497,
      "联": 5498,
      "聖": 5499,
      "聘": 5500,
      "聚": 5501,
      "聞": 5502,
      "聪": 5503,
      "聯": 5504,
      "聰": 5505,
      "聲": 5506,
      "聳": 5507,
      "聶": 5508,
      "職": 5509,
      "聽": 5510,
      "聾": 5511,
      "肃": 5512,
      "肅": 5513,
      "肆": 5514,
      "肉": 5515,
      "肋": 5516,
      "肌": 5517,
      "肘": 5518,
      "肚": 5519,
      "肝": 5520,
      "肠": 5521,
      "股": 5522,
      "肢": 5523,
      "肤": 5524,
      "肥": 5525,
      "肩": 5526,
      "肪": 5527,
      "肮": 5528,
      "肯": 5529,
      "肱": 5530,
      "育": 5531,
      "肴": 5532,
      "肺": 5533,
      "肾": 5534,
      "肿": 5535,
      "胀": 5536,
      "胁": 5537,
      "胃": 5538,
      "胆": 5539,
      "背": 5540,
      "胎": 5541,
      "胖": 5542,
      "胛": 5543,
      "胜": 5544,
      "胞": 5545,
      "胡": 5546,
      "胫": 5547,
      "胯": 5548,
      "胳": 5549,
      "胶": 5550,
      "胸": 5551,
      "能": 5552,
      "脂": 5553,
      "脅": 5554,
      "脆": 5555,
      "脈": 5556,
      "脊": 5557,
      "脏": 5558,
      "脐": 5559,
      "脑": 5560,
      "脓": 5561,
      "脖": 5562,
      "脚": 5563,
      "脫": 5564,
      "脯": 5565,
      "脱": 5566,
      "脸": 5567,
      "脹": 5568,
      "脾": 5569,
      "腊": 5570,
      "腋": 5571,
      "腌": 5572,
      "腎": 5573,
      "腐": 5574,
      "腑": 5575,
      "腓": 5576,
      "腔": 5577,
      "腕": 5578,
      "腥": 5579,
      "腦": 5580,
      "腫": 5581,
      "腮": 5582,
      "腰": 5583,
      "腱": 5584,
      "腳": 5585,
      "腸": 5586,
      "腹": 5587,
      "腻": 5588,
      "腾": 5589,
      "腿": 5590,
      "膀": 5591,
      "膊": 5592,
      "膏": 5593,
      "膚": 5594,
      "膛": 5595,
      "膜": 5596,
      "膝": 5597,
      "膠": 5598,
      "膨": 5599,
      "膩": 5600,
      "膳": 5601,
      "膺": 5602,
      "膽": 5603,
      "膿": 5604,
      "臀": 5605,
      "臂": 5606,
      "臉": 5607,
      "臍": 5608,
      "臘": 5609,
      "臟": 5610,
      "臣": 5611,
      "臥": 5612,
      "臨": 5613,
      "自": 5614,
      "臭": 5615,
      "至": 5616,
      "致": 5617,
      "臺": 5618,
      "臼": 5619,
      "舀": 5620,
      "舅": 5621,
      "與": 5622,
      "興": 5623,
      "舉": 5624,
      "舊": 5625,
      "舌": 5626,
      "舍": 5627,
      "舒": 5628,
      "舔": 5629,
      "舖": 5630,
      "舜": 5631,
      "舞": 5632,
      "舟": 5633,
      "航": 5634,
      "般": 5635,
      "舰": 5636,
      "舱": 5637,
      "舵": 5638,
      "舶": 5639,
      "船": 5640,
      "艇": 5641,
      "艘": 5642,
      "艙": 5643,
      "艮": 5644,
      "良": 5645,
      "艰": 5646,
      "艱": 5647,
      "色": 5648,
      "艳": 5649,
      "艺": 5650,
      "艾": 5651,
      "节": 5652,
      "芒": 5653,
      "芜": 5654,
      "芥": 5655,
      "芦": 5656,
      "芫": 5657,
      "芬": 5658,
      "芭": 5659,
      "芯": 5660,
      "花": 5661,
      "芳": 5662,
      "芸": 5663,
      "芹": 5664,
      "芻": 5665,
      "芽": 5666,
      "苇": 5667,
      "苍": 5668,
      "苏": 5669,
      "苗": 5670,
      "苛": 5671,
      "苞": 5672,
      "苟": 5673,
      "若": 5674,
      "苦": 5675,
      "英": 5676,
      "苹": 5677,
      "茁": 5678,
      "茂": 5679,
      "范": 5680,
      "茄": 5681,
      "茅": 5682,
      "茉": 5683,
      "茎": 5684,
      "茜": 5685,
      "茨": 5686,
      "茫": 5687,
      "茬": 5688,
      "茴": 5689,
      "茵": 5690,
      "茶": 5691,
      "茸": 5692,
      "茹": 5693,
      "荆": 5694,
      "草": 5695,
      "荊": 5696,
      "荐": 5697,
      "荒": 5698,
      "荚": 5699,
      "荡": 5700,
      "荣": 5701,
      "荫": 5702,
      "药": 5703,
      "荷": 5704,
      "荻": 5705,
      "荽": 5706,
      "莉": 5707,
      "莊": 5708,
      "莎": 5709,
      "莢": 5710,
      "莫": 5711,
      "莱": 5712,
      "莲": 5713,
      "莳": 5714,
      "获": 5715,
      "莽": 5716,
      "菇": 5717,
      "菌": 5718,
      "菖": 5719,
      "菜": 5720,
      "菢": 5721,
      "華": 5722,
      "菱": 5723,
      "菲": 5724,
      "菴": 5725,
      "萃": 5726,
      "萄": 5727,
      "萊": 5728,
      "萌": 5729,
      "萍": 5730,
      "萎": 5731,
      "萝": 5732,
      "营": 5733,
      "萨": 5734,
      "萬": 5735,
      "萼": 5736,
      "落": 5737,
      "葉": 5738,
      "著": 5739,
      "葡": 5740,
      "葦": 5741,
      "葬": 5742,
      "葱": 5743,
      "蒂": 5744,
      "蒙": 5745,
      "蒜": 5746,
      "蒲": 5747,
      "蒸": 5748,
      "蒺": 5749,
      "蒼": 5750,
      "蓄": 5751,
      "蓋": 5752,
      "蓖": 5753,
      "蓝": 5754,
      "蓬": 5755,
      "蓮": 5756,
      "蓿": 5757,
      "蔑": 5758,
      "蔓": 5759,
      "蔥": 5760,
      "蔬": 5761,
      "蔭": 5762,
      "蔯": 5763,
      "蔻": 5764,
      "蔽": 5765,
      "蕁": 5766,
      "蕊": 5767,
      "蕩": 5768,
      "蕪": 5769,
      "蕴": 5770,
      "蕾": 5771,
      "薄": 5772,
      "薛": 5773,
      "薦": 5774,
      "薩": 5775,
      "薪": 5776,
      "薰": 5777,
      "藉": 5778,
      "藍": 5779,
      "藏": 5780,
      "藐": 5781,
      "藜": 5782,
      "藝": 5783,
      "藤": 5784,
      "藥": 5785,
      "蘆": 5786,
      "蘇": 5787,
      "蘊": 5788,
      "蘋": 5789,
      "蘭": 5790,
      "蘸": 5791,
      "虎": 5792,
      "虏": 5793,
      "虐": 5794,
      "虑": 5795,
      "虔": 5796,
      "處": 5797,
      "虚": 5798,
      "虛": 5799,
      "虜": 5800,
      "號": 5801,
      "虧": 5802,
      "虫": 5803,
      "虹": 5804,
      "虺": 5805,
      "虻": 5806,
      "虽": 5807,
      "蚀": 5808,
      "蚁": 5809,
      "蚂": 5810,
      "蚊": 5811,
      "蚋": 5812,
      "蚤": 5813,
      "蚱": 5814,
      "蛀": 5815,
      "蛆": 5816,
      "蛇": 5817,
      "蛋": 5818,
      "蛙": 5819,
      "蛛": 5820,
      "蛭": 5821,
      "蛮": 5822,
      "蛻": 5823,
      "蛾": 5824,
      "蜂": 5825,
      "蜒": 5826,
      "蜓": 5827,
      "蜗": 5828,
      "蜘": 5829,
      "蜚": 5830,
      "蜜": 5831,
      "蜡": 5832,
      "蜢": 5833,
      "蜥": 5834,
      "蜴": 5835,
      "蜷": 5836,
      "蜿": 5837,
      "蝇": 5838,
      "蝎": 5839,
      "蝕": 5840,
      "蝗": 5841,
      "蝘": 5842,
      "蝙": 5843,
      "蝠": 5844,
      "蝮": 5845,
      "蝰": 5846,
      "蝶": 5847,
      "蝸": 5848,
      "蝻": 5849,
      "融": 5850,
      "螞": 5851,
      "螫": 5852,
      "螺": 5853,
      "蟀": 5854,
      "蟋": 5855,
      "蟥": 5856,
      "蟲": 5857,
      "蟻": 5858,
      "蠅": 5859,
      "蠍": 5860,
      "蠓": 5861,
      "蠟": 5862,
      "蠢": 5863,
      "蠹": 5864,
      "血": 5865,
      "衅": 5866,
      "行": 5867,
      "衍": 5868,
      "術": 5869,
      "衔": 5870,
      "街": 5871,
      "衙": 5872,
      "衛": 5873,
      "衝": 5874,
      "衡": 5875,
      "衣": 5876,
      "补": 5877,
      "表": 5878,
      "衫": 5879,
      "衮": 5880,
      "衰": 5881,
      "衲": 5882,
      "袋": 5883,
      "袍": 5884,
      "袒": 5885,
      "袖": 5886,
      "袞": 5887,
      "被": 5888,
      "袭": 5889,
      "袱": 5890,
      "裁": 5891,
      "裂": 5892,
      "装": 5893,
      "裏": 5894,
      "裔": 5895,
      "裕": 5896,
      "裙": 5897,
      "補": 5898,
      "裝": 5899,
      "裤": 5900,
      "裳": 5901,
      "裸": 5902,
      "裹": 5903,
      "製": 5904,
      "複": 5905,
      "褐": 5906,
      "褓": 5907,
      "褥": 5908,
      "褪": 5909,
      "褲": 5910,
      "褶": 5911,
      "褻": 5912,
      "襁": 5913,
      "襟": 5914,
      "襬": 5915,
      "襲": 5916,
      "西": 5917,
      "要": 5918,
      "覆": 5919,
      "見": 5920,
      "規": 5921,
      "覓": 5922,
      "視": 5923,
      "親": 5924,
      "覲": 5925,
      "観": 5926,
      "覷": 5927,
      "覺": 5928,
      "覽": 5929,
      "觀": 5930,
      "见": 5931,
      "观": 5932,
      "规": 5933,
      "觅": 5934,
      "视": 5935,
      "觉": 5936,
      "觐": 5937,
      "角": 5938,
      "解": 5939,
      "触": 5940,
      "觸": 5941,
      "言": 5942,
      "訂": 5943,
      "計": 5944,
      "討": 5945,
      "訓": 5946,
      "託": 5947,
      "記": 5948,
      "訝": 5949,
      "訟": 5950,
      "訣": 5951,
      "訥": 5952,
      "訪": 5953,
      "設": 5954,
      "許": 5955,
      "訴": 5956,
      "註": 5957,
      "詆": 5958,
      "詐": 5959,
      "詔": 5960,
      "評": 5961,
      "詛": 5962,
      "詞": 5963,
      "詠": 5964,
      "詢": 5965,
      "試": 5966,
      "詩": 5967,
      "詫": 5968,
      "詭": 5969,
      "話": 5970,
      "該": 5971,
      "詳": 5972,
      "誇": 5973,
      "誌": 5974,
      "認": 5975,
      "誓": 5976,
      "誕": 5977,
      "誘": 5978,
      "誚": 5979,
      "語": 5980,
      "誠": 5981,
      "誡": 5982,
      "誣": 5983,
      "誤": 5984,
      "誦": 5985,
      "誨": 5986,
      "說": 5987,
      "誰": 5988,
      "課": 5989,
      "誼": 5990,
      "調": 5991,
      "諂": 5992,
      "談": 5993,
      "諉": 5994,
      "請": 5995,
      "諒": 5996,
      "論": 5997,
      "諧": 5998,
      "諫": 5999,
      "諭": 6000,
      "諷": 6001,
      "諸": 6002,
      "諺": 6003,
      "諾": 6004,
      "謀": 6005,
      "謁": 6006,
      "謂": 6007,
      "謄": 6008,
      "謊": 6009,
      "謎": 6010,
      "謗": 6011,
      "謙": 6012,
      "講": 6013,
      "謝": 6014,
      "謠": 6015,
      "謬": 6016,
      "謹": 6017,
      "謾": 6018,
      "證": 6019,
      "譏": 6020,
      "識": 6021,
      "譜": 6022,
      "警": 6023,
      "譬": 6024,
      "譯": 6025,
      "議": 6026,
      "譴": 6027,
      "護": 6028,
      "譽": 6029,
      "讀": 6030,
      "變": 6031,
      "讒": 6032,
      "讓": 6033,
      "讚": 6034,
      "计": 6035,
      "订": 6036,
      "认": 6037,
      "讥": 6038,
      "讨": 6039,
      "让": 6040,
      "训": 6041,
      "议": 6042,
      "讯": 6043,
      "记": 6044,
      "讲": 6045,
      "讶": 6046,
      "讷": 6047,
      "许": 6048,
      "论": 6049,
      "讼": 6050,
      "讽": 6051,
      "设": 6052,
      "访": 6053,
      "诀": 6054,
      "证": 6055,
      "评": 6056,
      "诅": 6057,
      "识": 6058,
      "诈": 6059,
      "诉": 6060,
      "诋": 6061,
      "词": 6062,
      "诏": 6063,
      "译": 6064,
      "试": 6065,
      "诗": 6066,
      "诚": 6067,
      "话": 6068,
      "诞": 6069,
      "诡": 6070,
      "询": 6071,
      "该": 6072,
      "详": 6073,
      "诧": 6074,
      "诫": 6075,
      "诬": 6076,
      "语": 6077,
      "诮": 6078,
      "误": 6079,
      "诱": 6080,
      "诲": 6081,
      "说": 6082,
      "诵": 6083,
      "请": 6084,
      "诸": 6085,
      "诺": 6086,
      "读": 6087,
      "诽": 6088,
      "诿": 6089,
      "谁": 6090,
      "调": 6091,
      "谄": 6092,
      "谅": 6093,
      "谈": 6094,
      "谋": 6095,
      "谎": 6096,
      "谏": 6097,
      "谐": 6098,
      "谓": 6099,
      "谕": 6100,
      "谗": 6101,
      "谚": 6102,
      "谜": 6103,
      "谢": 6104,
      "谣": 6105,
      "谤": 6106,
      "谦": 6107,
      "谨": 6108,
      "谬": 6109,
      "谱": 6110,
      "谴": 6111,
      "谷": 6112,
      "豁": 6113,
      "豆": 6114,
      "豈": 6115,
      "豎": 6116,
      "豐": 6117,
      "象": 6118,
      "豪": 6119,
      "豫": 6120,
      "豬": 6121,
      "豹": 6122,
      "豺": 6123,
      "貌": 6124,
      "貓": 6125,
      "貝": 6126,
      "貞": 6127,
      "負": 6128,
      "財": 6129,
      "貢": 6130,
      "貧": 6131,
      "貨": 6132,
      "販": 6133,
      "貪": 6134,
      "貫": 6135,
      "責": 6136,
      "貴": 6137,
      "貶": 6138,
      "買": 6139,
      "貸": 6140,
      "費": 6141,
      "貼": 6142,
      "貿": 6143,
      "賀": 6144,
      "賂": 6145,
      "賄": 6146,
      "資": 6147,
      "賈": 6148,
      "賊": 6149,
      "賓": 6150,
      "賙": 6151,
      "賜": 6152,
      "賞": 6153,
      "賠": 6154,
      "賢": 6155,
      "賣": 6156,
      "賤": 6157,
      "質": 6158,
      "賬": 6159,
      "賭": 6160,
      "賴": 6161,
      "賺": 6162,
      "購": 6163,
      "賽": 6164,
      "贈": 6165,
      "贊": 6166,
      "贏": 6167,
      "贓": 6168,
      "贖": 6169,
      "贝": 6170,
      "贞": 6171,
      "负": 6172,
      "贡": 6173,
      "财": 6174,
      "责": 6175,
      "贤": 6176,
      "败": 6177,
      "账": 6178,
      "货": 6179,
      "质": 6180,
      "贩": 6181,
      "贪": 6182,
      "贫": 6183,
      "贬": 6184,
      "购": 6185,
      "贯": 6186,
      "贱": 6187,
      "贴": 6188,
      "贵": 6189,
      "贷": 6190,
      "贸": 6191,
      "费": 6192,
      "贺": 6193,
      "贼": 6194,
      "贿": 6195,
      "赂": 6196,
      "赃": 6197,
      "资": 6198,
      "赉": 6199,
      "赋": 6200,
      "赌": 6201,
      "赎": 6202,
      "赏": 6203,
      "赐": 6204,
      "赔": 6205,
      "赖": 6206,
      "赚": 6207,
      "赛": 6208,
      "赞": 6209,
      "赠": 6210,
      "赢": 6211,
      "赤": 6212,
      "赦": 6213,
      "赫": 6214,
      "走": 6215,
      "赴": 6216,
      "赶": 6217,
      "起": 6218,
      "趁": 6219,
      "超": 6220,
      "越": 6221,
      "趕": 6222,
      "趟": 6223,
      "趨": 6224,
      "足": 6225,
      "趴": 6226,
      "趾": 6227,
      "跃": 6228,
      "跄": 6229,
      "跌": 6230,
      "跑": 6231,
      "跚": 6232,
      "距": 6233,
      "跟": 6234,
      "跡": 6235,
      "跤": 6236,
      "跨": 6237,
      "跪": 6238,
      "路": 6239,
      "跳": 6240,
      "践": 6241,
      "跺": 6242,
      "踉": 6243,
      "踊": 6244,
      "踏": 6245,
      "踐": 6246,
      "踝": 6247,
      "踞": 6248,
      "踢": 6249,
      "踩": 6250,
      "踪": 6251,
      "踴": 6252,
      "踹": 6253,
      "踼": 6254,
      "蹂": 6255,
      "蹄": 6256,
      "蹈": 6257,
      "蹋": 6258,
      "蹒": 6259,
      "蹚": 6260,
      "蹟": 6261,
      "蹤": 6262,
      "蹦": 6263,
      "蹲": 6264,
      "躁": 6265,
      "躍": 6266,
      "躪": 6267,
      "身": 6268,
      "躬": 6269,
      "躯": 6270,
      "躲": 6271,
      "躺": 6272,
      "軀": 6273,
      "車": 6274,
      "軋": 6275,
      "軌": 6276,
      "軍": 6277,
      "軛": 6278,
      "軟": 6279,
      "軸": 6280,
      "較": 6281,
      "載": 6282,
      "輔": 6283,
      "輕": 6284,
      "輛": 6285,
      "輜": 6286,
      "輝": 6287,
      "輞": 6288,
      "輦": 6289,
      "輩": 6290,
      "輪": 6291,
      "輻": 6292,
      "轂": 6293,
      "轄": 6294,
      "轆": 6295,
      "轉": 6296,
      "轎": 6297,
      "轟": 6298,
      "轡": 6299,
      "车": 6300,
      "轧": 6301,
      "轨": 6302,
      "转": 6303,
      "轭": 6304,
      "轮": 6305,
      "软": 6306,
      "轰": 6307,
      "轴": 6308,
      "轻": 6309,
      "载": 6310,
      "轿": 6311,
      "较": 6312,
      "辅": 6313,
      "辆": 6314,
      "辈": 6315,
      "辉": 6316,
      "辎": 6317,
      "辐": 6318,
      "辑": 6319,
      "辔": 6320,
      "辖": 6321,
      "辗": 6322,
      "辘": 6323,
      "辛": 6324,
      "辜": 6325,
      "辞": 6326,
      "辟": 6327,
      "辣": 6328,
      "辦": 6329,
      "辨": 6330,
      "辩": 6331,
      "辫": 6332,
      "辭": 6333,
      "辮": 6334,
      "辯": 6335,
      "辰": 6336,
      "辱": 6337,
      "農": 6338,
      "边": 6339,
      "辽": 6340,
      "达": 6341,
      "迁": 6342,
      "迅": 6343,
      "过": 6344,
      "迈": 6345,
      "迎": 6346,
      "运": 6347,
      "近": 6348,
      "返": 6349,
      "还": 6350,
      "这": 6351,
      "进": 6352,
      "远": 6353,
      "违": 6354,
      "连": 6355,
      "迟": 6356,
      "迦": 6357,
      "迪": 6358,
      "迫": 6359,
      "述": 6360,
      "迴": 6361,
      "迷": 6362,
      "迸": 6363,
      "迹": 6364,
      "追": 6365,
      "退": 6366,
      "送": 6367,
      "适": 6368,
      "逃": 6369,
      "逆": 6370,
      "选": 6371,
      "逊": 6372,
      "逍": 6373,
      "透": 6374,
      "逐": 6375,
      "递": 6376,
      "途": 6377,
      "逗": 6378,
      "這": 6379,
      "通": 6380,
      "逛": 6381,
      "逝": 6382,
      "逞": 6383,
      "速": 6384,
      "造": 6385,
      "逢": 6386,
      "連": 6387,
      "逮": 6388,
      "週": 6389,
      "進": 6390,
      "逸": 6391,
      "逼": 6392,
      "逾": 6393,
      "遁": 6394,
      "遂": 6395,
      "遇": 6396,
      "遊": 6397,
      "運": 6398,
      "遍": 6399,
      "過": 6400,
      "遏": 6401,
      "道": 6402,
      "達": 6403,
      "違": 6404,
      "遗": 6405,
      "遙": 6406,
      "遜": 6407,
      "遞": 6408,
      "遠": 6409,
      "遣": 6410,
      "遥": 6411,
      "適": 6412,
      "遭": 6413,
      "遮": 6414,
      "遲": 6415,
      "遵": 6416,
      "遷": 6417,
      "選": 6418,
      "遺": 6419,
      "遼": 6420,
      "避": 6421,
      "邀": 6422,
      "邁": 6423,
      "還": 6424,
      "邊": 6425,
      "邏": 6426,
      "邑": 6427,
      "那": 6428,
      "邦": 6429,
      "邪": 6430,
      "邻": 6431,
      "郊": 6432,
      "郎": 6433,
      "郑": 6434,
      "部": 6435,
      "郭": 6436,
      "都": 6437,
      "鄉": 6438,
      "鄙": 6439,
      "鄭": 6440,
      "鄰": 6441,
      "酊": 6442,
      "酌": 6443,
      "配": 6444,
      "酒": 6445,
      "酗": 6446,
      "酝": 6447,
      "酣": 6448,
      "酩": 6449,
      "酪": 6450,
      "酬": 6451,
      "酵": 6452,
      "酷": 6453,
      "酸": 6454,
      "酿": 6455,
      "醃": 6456,
      "醇": 6457,
      "醉": 6458,
      "醋": 6459,
      "醒": 6460,
      "醜": 6461,
      "醡": 6462,
      "醫": 6463,
      "釀": 6464,
      "釁": 6465,
      "采": 6466,
      "释": 6467,
      "釋": 6468,
      "里": 6469,
      "重": 6470,
      "野": 6471,
      "量": 6472,
      "金": 6473,
      "釘": 6474,
      "釜": 6475,
      "針": 6476,
      "釣": 6477,
      "鈍": 6478,
      "鈕": 6479,
      "鈴": 6480,
      "鈸": 6481,
      "鉋": 6482,
      "鉗": 6483,
      "鉛": 6484,
      "鉤": 6485,
      "鉴": 6486,
      "銀": 6487,
      "銅": 6488,
      "銘": 6489,
      "銜": 6490,
      "銬": 6491,
      "銲": 6492,
      "銳": 6493,
      "銷": 6494,
      "銹": 6495,
      "鋒": 6496,
      "鋤": 6497,
      "鋪": 6498,
      "鋸": 6499,
      "錄": 6500,
      "錐": 6501,
      "錘": 6502,
      "錚": 6503,
      "錠": 6504,
      "錢": 6505,
      "錦": 6506,
      "錨": 6507,
      "錫": 6508,
      "錯": 6509,
      "鍊": 6510,
      "鍋": 6511,
      "鍍": 6512,
      "鍛": 6513,
      "鍬": 6514,
      "鎔": 6515,
      "鎖": 6516,
      "鎚": 6517,
      "鎧": 6518,
      "鎮": 6519,
      "鏈": 6520,
      "鏟": 6521,
      "鏡": 6522,
      "鐃": 6523,
      "鐐": 6524,
      "鐘": 6525,
      "鐮": 6526,
      "鐲": 6527,
      "鐵": 6528,
      "鐺": 6529,
      "鑄": 6530,
      "鑑": 6531,
      "鑒": 6532,
      "鑰": 6533,
      "鑲": 6534,
      "鑼": 6535,
      "鑽": 6536,
      "鑿": 6537,
      "针": 6538,
      "钉": 6539,
      "钓": 6540,
      "钝": 6541,
      "钟": 6542,
      "钥": 6543,
      "钩": 6544,
      "钱": 6545,
      "钳": 6546,
      "钵": 6547,
      "钹": 6548,
      "钻": 6549,
      "铁": 6550,
      "铃": 6551,
      "铅": 6552,
      "铐": 6553,
      "铛": 6554,
      "铜": 6555,
      "铠": 6556,
      "铭": 6557,
      "铮": 6558,
      "铰": 6559,
      "铲": 6560,
      "银": 6561,
      "铸": 6562,
      "铺": 6563,
      "链": 6564,
      "销": 6565,
      "锁": 6566,
      "锄": 6567,
      "锅": 6568,
      "锆": 6569,
      "锈": 6570,
      "锋": 6571,
      "锐": 6572,
      "错": 6573,
      "锚": 6574,
      "锡": 6575,
      "锣": 6576,
      "锤": 6577,
      "锥": 6578,
      "锨": 6579,
      "锭": 6580,
      "锯": 6581,
      "镀": 6582,
      "镇": 6583,
      "镌": 6584,
      "镐": 6585,
      "镖": 6586,
      "镜": 6587,
      "镣": 6588,
      "镯": 6589,
      "镰": 6590,
      "镶": 6591,
      "長": 6592,
      "长": 6593,
      "門": 6594,
      "閂": 6595,
      "閃": 6596,
      "閉": 6597,
      "開": 6598,
      "閒": 6599,
      "間": 6600,
      "閘": 6601,
      "閣": 6602,
      "閱": 6603,
      "閹": 6604,
      "闊": 6605,
      "闔": 6606,
      "闖": 6607,
      "關": 6608,
      "闡": 6609,
      "闢": 6610,
      "门": 6611,
      "闩": 6612,
      "闪": 6613,
      "闭": 6614,
      "问": 6615,
      "闯": 6616,
      "闲": 6617,
      "间": 6618,
      "闷": 6619,
      "闸": 6620,
      "闹": 6621,
      "闺": 6622,
      "闻": 6623,
      "阁": 6624,
      "阅": 6625,
      "阉": 6626,
      "阐": 6627,
      "阔": 6628,
      "队": 6629,
      "阱": 6630,
      "防": 6631,
      "阳": 6632,
      "阴": 6633,
      "阵": 6634,
      "阶": 6635,
      "阻": 6636,
      "阿": 6637,
      "陀": 6638,
      "附": 6639,
      "际": 6640,
      "陆": 6641,
      "陈": 6642,
      "陋": 6643,
      "陌": 6644,
      "降": 6645,
      "限": 6646,
      "陛": 6647,
      "陡": 6648,
      "院": 6649,
      "陣": 6650,
      "除": 6651,
      "险": 6652,
      "陪": 6653,
      "陰": 6654,
      "陳": 6655,
      "陵": 6656,
      "陶": 6657,
      "陷": 6658,
      "陸": 6659,
      "陽": 6660,
      "隆": 6661,
      "隊": 6662,
      "階": 6663,
      "随": 6664,
      "隐": 6665,
      "隔": 6666,
      "隘": 6667,
      "隙": 6668,
      "際": 6669,
      "障": 6670,
      "隨": 6671,
      "險": 6672,
      "隱": 6673,
      "隶": 6674,
      "隸": 6675,
      "隻": 6676,
      "隼": 6677,
      "难": 6678,
      "雀": 6679,
      "雄": 6680,
      "雅": 6681,
      "集": 6682,
      "雇": 6683,
      "雌": 6684,
      "雏": 6685,
      "雕": 6686,
      "雖": 6687,
      "雙": 6688,
      "雛": 6689,
      "雜": 6690,
      "雞": 6691,
      "離": 6692,
      "難": 6693,
      "雨": 6694,
      "雪": 6695,
      "雲": 6696,
      "零": 6697,
      "雷": 6698,
      "雹": 6699,
      "電": 6700,
      "雾": 6701,
      "需": 6702,
      "霄": 6703,
      "霆": 6704,
      "震": 6705,
      "霉": 6706,
      "霍": 6707,
      "霎": 6708,
      "霖": 6709,
      "霜": 6710,
      "霧": 6711,
      "霪": 6712,
      "露": 6713,
      "霸": 6714,
      "靈": 6715,
      "青": 6716,
      "静": 6717,
      "靜": 6718,
      "非": 6719,
      "靠": 6720,
      "靡": 6721,
      "面": 6722,
      "革": 6723,
      "靴": 6724,
      "靶": 6725,
      "鞋": 6726,
      "鞍": 6727,
      "鞏": 6728,
      "鞘": 6729,
      "鞭": 6730,
      "韁": 6731,
      "韋": 6732,
      "韦": 6733,
      "韭": 6734,
      "音": 6735,
      "響": 6736,
      "頁": 6737,
      "頂": 6738,
      "頃": 6739,
      "項": 6740,
      "順": 6741,
      "須": 6742,
      "頌": 6743,
      "預": 6744,
      "頑": 6745,
      "頒": 6746,
      "頓": 6747,
      "領": 6748,
      "頭": 6749,
      "頰": 6750,
      "頸": 6751,
      "顆": 6752,
      "題": 6753,
      "額": 6754,
      "顎": 6755,
      "顏": 6756,
      "願": 6757,
      "顛": 6758,
      "類": 6759,
      "顧": 6760,
      "顫": 6761,
      "顯": 6762,
      "顱": 6763,
      "页": 6764,
      "顶": 6765,
      "顷": 6766,
      "项": 6767,
      "顺": 6768,
      "须": 6769,
      "顽": 6770,
      "顾": 6771,
      "顿": 6772,
      "颁": 6773,
      "颂": 6774,
      "预": 6775,
      "颅": 6776,
      "领": 6777,
      "颇": 6778,
      "颈": 6779,
      "颊": 6780,
      "颗": 6781,
      "题": 6782,
      "颚": 6783,
      "颜": 6784,
      "额": 6785,
      "颠": 6786,
      "颤": 6787,
      "風": 6788,
      "颳": 6789,
      "颼": 6790,
      "飄": 6791,
      "风": 6792,
      "飓": 6793,
      "飘": 6794,
      "飛": 6795,
      "飞": 6796,
      "食": 6797,
      "飢": 6798,
      "飯": 6799,
      "飲": 6800,
      "飼": 6801,
      "飽": 6802,
      "飾": 6803,
      "餅": 6804,
      "餉": 6805,
      "養": 6806,
      "餐": 6807,
      "餓": 6808,
      "餘": 6809,
      "館": 6810,
      "餬": 6811,
      "餵": 6812,
      "餽": 6813,
      "饈": 6814,
      "饉": 6815,
      "饋": 6816,
      "饑": 6817,
      "饒": 6818,
      "饜": 6819,
      "饥": 6820,
      "饭": 6821,
      "饮": 6822,
      "饰": 6823,
      "饱": 6824,
      "饲": 6825,
      "饵": 6826,
      "饶": 6827,
      "饷": 6828,
      "饼": 6829,
      "饿": 6830,
      "馆": 6831,
      "馐": 6832,
      "首": 6833,
      "香": 6834,
      "馨": 6835,
      "馬": 6836,
      "馱": 6837,
      "馳": 6838,
      "馴": 6839,
      "駁": 6840,
      "駐": 6841,
      "駒": 6842,
      "駕": 6843,
      "駛": 6844,
      "駝": 6845,
      "駭": 6846,
      "駱": 6847,
      "駿": 6848,
      "騁": 6849,
      "騎": 6850,
      "騙": 6851,
      "騰": 6852,
      "騷": 6853,
      "騾": 6854,
      "驅": 6855,
      "驕": 6856,
      "驗": 6857,
      "驚": 6858,
      "驢": 6859,
      "马": 6860,
      "驭": 6861,
      "驮": 6862,
      "驯": 6863,
      "驰": 6864,
      "驱": 6865,
      "驳": 6866,
      "驴": 6867,
      "驶": 6868,
      "驹": 6869,
      "驻": 6870,
      "驼": 6871,
      "驾": 6872,
      "驿": 6873,
      "骂": 6874,
      "骄": 6875,
      "骆": 6876,
      "骇": 6877,
      "骈": 6878,
      "骋": 6879,
      "验": 6880,
      "骏": 6881,
      "骑": 6882,
      "骗": 6883,
      "骚": 6884,
      "骟": 6885,
      "骡": 6886,
      "骨": 6887,
      "骯": 6888,
      "骷": 6889,
      "骸": 6890,
      "骼": 6891,
      "髅": 6892,
      "髏": 6893,
      "髑": 6894,
      "髒": 6895,
      "髓": 6896,
      "體": 6897,
      "高": 6898,
      "髮": 6899,
      "鬃": 6900,
      "鬆": 6901,
      "鬍": 6902,
      "鬓": 6903,
      "鬚": 6904,
      "鬢": 6905,
      "鬥": 6906,
      "鬧": 6907,
      "鬨": 6908,
      "鬼": 6909,
      "魁": 6910,
      "魂": 6911,
      "魄": 6912,
      "魅": 6913,
      "魔": 6914,
      "魚": 6915,
      "魯": 6916,
      "鮮": 6917,
      "鰭": 6918,
      "鱗": 6919,
      "鱼": 6920,
      "鲁": 6921,
      "鲜": 6922,
      "鳍": 6923,
      "鳞": 6924,
      "鳢": 6925,
      "鳥": 6926,
      "鳩": 6927,
      "鳳": 6928,
      "鳴": 6929,
      "鴉": 6930,
      "鴕": 6931,
      "鴞": 6932,
      "鴟": 6933,
      "鴣": 6934,
      "鴻": 6935,
      "鴿": 6936,
      "鵀": 6937,
      "鵜": 6938,
      "鵪": 6939,
      "鵰": 6940,
      "鶉": 6941,
      "鶘": 6942,
      "鶴": 6943,
      "鶿": 6944,
      "鷂": 6945,
      "鷓": 6946,
      "鷙": 6947,
      "鷥": 6948,
      "鷹": 6949,
      "鷺": 6950,
      "鸇": 6951,
      "鸕": 6952,
      "鸛": 6953,
      "鸟": 6954,
      "鸠": 6955,
      "鸡": 6956,
      "鸢": 6957,
      "鸣": 6958,
      "鸥": 6959,
      "鸦": 6960,
      "鸪": 6961,
      "鸬": 6962,
      "鸮": 6963,
      "鸵": 6964,
      "鸶": 6965,
      "鸽": 6966,
      "鸿": 6967,
      "鹈": 6968,
      "鹌": 6969,
      "鹑": 6970,
      "鹕": 6971,
      "鹗": 6972,
      "鹚": 6973,
      "鹞": 6974,
      "鹤": 6975,
      "鹧": 6976,
      "鹫": 6977,
      "鹭": 6978,
      "鹰": 6979,
      "鹳": 6980,
      "鹹": 6981,
      "鹼": 6982,
      "鹽": 6983,
      "鹿": 6984,
      "麃": 6985,
      "麗": 6986,
      "麥": 6987,
      "麦": 6988,
      "麵": 6989,
      "麻": 6990,
      "麼": 6991,
      "黃": 6992,
      "黄": 6993,
      "黎": 6994,
      "黏": 6995,
      "黑": 6996,
      "默": 6997,
      "黜": 6998,
      "黝": 6999,
      "點": 7000,
      "黨": 7001,
      "黯": 7002,
      "鼎": 7003,
      "鼓": 7004,
      "鼠": 7005,
      "鼫": 7006,
      "鼬": 7007,
      "鼹": 7008,
      "鼻": 7009,
      "齊": 7010,
      "齋": 7011,
      "齐": 7012,
      "齒": 7013,
      "齡": 7014,
      "齿": 7015,
      "龄": 7016,
      "龍": 7017,
      "龐": 7018,
      "龕": 7019,
      "龙": 7020,
      "龛": 7021,
      "ꜛ": 7022,
      "ꜜ": 7023,
      "꞉": 7024,
      "Ꞌ": 7025,
      "ꞌ": 7026,
      "ꞎ": 7027,
      "ꞏ": 7028,
      "ꞵ": 7029,
      "꤀": 7030,
      "꤁": 7031,
      "꤂": 7032,
      "꤄": 7033,
      "꤈": 7034,
      "ꤊ": 7035,
      "ꤋ": 7036,
      "ꤌ": 7037,
      "ꤍ": 7038,
      "ꤎ": 7039,
      "ꤏ": 7040,
      "ꤐ": 7041,
      "ꤑ": 7042,
      "ꤒ": 7043,
      "ꤓ": 7044,
      "ꤔ": 7045,
      "ꤕ": 7046,
      "ꤖ": 7047,
      "ꤗ": 7048,
      "ꤘ": 7049,
      "ꤙ": 7050,
      "ꤚ": 7051,
      "ꤛ": 7052,
      "ꤜ": 7053,
      "ꤝ": 7054,
      "ꤞ": 7055,
      "ꤟ": 7056,
      "ꤠ": 7057,
      "ꤡ": 7058,
      "ꤢ": 7059,
      "ꤣ": 7060,
      "ꤤ": 7061,
      "ꤥ": 7062,
      "ꤦ": 7063,
      "ꤧ": 7064,
      "ꤨ": 7065,
      "ꤩ": 7066,
      "ꤪ": 7067,
      "꤫": 7068,
      "꤬": 7069,
      "꤭": 7070,
      "꤮": 7071,
      "꤯": 7072,
      "ꦁ": 7073,
      "ꦔ": 7074,
      "ꦕ": 7075,
      "ꦤ": 7076,
      "ꦭ": 7077,
      "ꦺ": 7078,
      "꧀": 7079,
      "꧐": 7080,
      "꧑": 7081,
      "꧒": 7082,
      "꧓": 7083,
      "꧔": 7084,
      "꧕": 7085,
      "꧖": 7086,
      "꧗": 7087,
      "꧘": 7088,
      "꧙": 7089,
      "ꧠ": 7090,
      "ꧡ": 7091,
      "ꧢ": 7092,
      "ꧣ": 7093,
      "ꧤ": 7094,
      "ꧥ": 7095,
      "ꧦ": 7096,
      "ꧧ": 7097,
      "ꧨ": 7098,
      "ꧩ": 7099,
      "ꧪ": 7100,
      "ꧫ": 7101,
      "ꧬ": 7102,
      "ꧭ": 7103,
      "ꧮ": 7104,
      "ꧯ": 7105,
      "꧰": 7106,
      "꧱": 7107,
      "꧲": 7108,
      "꧳": 7109,
      "꧴": 7110,
      "꧵": 7111,
      "꧶": 7112,
      "꧷": 7113,
      "꧸": 7114,
      "꧹": 7115,
      "ꧺ": 7116,
      "ꧻ": 7117,
      "ꧼ": 7118,
      "ꧽ": 7119,
      "ꧾ": 7120,
      "ꨁ": 7121,
      "ꨅ": 7122,
      "꨸": 7123,
      "ꩠ": 7124,
      "ꩡ": 7125,
      "ꩢ": 7126,
      "ꩣ": 7127,
      "ꩤ": 7128,
      "ꩥ": 7129,
      "ꩦ": 7130,
      "ꩧ": 7131,
      "ꩨ": 7132,
      "ꩩ": 7133,
      "ꩪ": 7134,
      "ꩫ": 7135,
      "ꩬ": 7136,
      "ꩭ": 7137,
      "ꩮ": 7138,
      "ꩯ": 7139,
      "ꩰ": 7140,
      "ꩱ": 7141,
      "ꩲ": 7142,
      "ꩳ": 7143,
      "ꩴ": 7144,
      "ꩵ": 7145,
      "ꩶ": 7146,
      "꩷": 7147,
      "꩸": 7148,
      "꩹": 7149,
      "ꩺ": 7150,
      "ꩻ": 7151,
      "ꩼ": 7152,
      "ꩽ": 7153,
      "ꩾ": 7154,
      "ꩿ": 7155,
      "ꭓ": 7156,
      "가": 7157,
      "감": 7158,
      "거": 7159,
      "건": 7160,
      "경": 7161,
      "국": 7162,
      "굴": 7163,
      "글": 7164,
      "날": 7165,
      "님": 7166,
      "대": 7167,
      "등": 7168,
      "딴": 7169,
      "말": 7170,
      "문": 7171,
      "민": 7172,
      "발": 7173,
      "버": 7174,
      "부": 7175,
      "상": 7176,
      "생": 7177,
      "석": 7178,
      "선": 7179,
      "섯": 7180,
      "세": 7181,
      "시": 7182,
      "신": 7183,
      "않": 7184,
      "암": 7185,
      "았": 7186,
      "약": 7187,
      "양": 7188,
      "어": 7189,
      "연": 7190,
      "오": 7191,
      "왕": 7192,
      "이": 7193,
      "일": 7194,
      "임": 7195,
      "정": 7196,
      "조": 7197,
      "종": 7198,
      "찌": 7199,
      "찰": 7200,
      "처": 7201,
      "탄": 7202,
      "팽": 7203,
      "한": 7204,
      "활": 7205,
      "회": 7206,
      "희": 7207,
      "": 7208,
      "": 7209,
      "": 7210,
      "": 7211,
      "︎": 7212,
      "️": 7213,
      "﹪": 7214,
      "ﺁ": 7215,
      "﻿": 7216,
      "！": 7217,
      "＂": 7218,
      "（": 7219,
      "）": 7220,
      "，": 7221,
      "－": 7222,
      "．": 7223,
      "：": 7224,
      "；": 7225,
      "？": 7226,
      "～": 7227,
      "￼": 7228,
      "�": 7229,
      "𐍈": 7230,
      "𐞄": 7231,
      "𐞋": 7232,
      "𐞖": 7233,
      "𐞪": 7234,
      "𐞯": 7235,
      "𐞳": 7236,
      "𐞴": 7237,
      "𑀓": 7238,
      "𑀔": 7239,
      "𑀢": 7240,
      "𑀯": 7241,
      "𑀲": 7242,
      "𑀸": 7243,
      "𑁄": 7244,
      "𑁆": 7245,
      "𑇡": 7246,
      "𑇢": 7247,
      "𑇣": 7248,
      "𑇤": 7249,
      "𑇥": 7250,
      "𑇦": 7251,
      "𑇧": 7252,
      "𑇨": 7253,
      "𑇩": 7254,
      "𓏺": 7255,
      "𓏻": 7256,
      "𓏼": 7257,
      "𓏽": 7258,
      "𓏾": 7259,
      "𓏿": 7260,
      "𓐀": 7261,
      "𓐁": 7262,
      "𓐂": 7263,
      "𝐂": 7264,
      "𝐬": 7265,
      "𝝂": 7266,
      "𝼄": 7267,
      "𝼅": 7268,
      "𝼆": 7269,
      "𝼈": 7270,
      "𝼉": 7271,
      "𝼊": 7272,
      "𞤁": 7273,
      "𞤢": 7274,
      "𞤣": 7275,
      "𞤫": 7276,
      "𞤯": 7277,
      "𞤲": 7278,
      "𞤴": 7279,
      "🇫": 7280,
      "🇱": 7281,
      "🇲": 7282,
      "🇳": 7283,
      "🇷": 7284,
      "🌈": 7285,
      "🌋": 7286,
      "🌌": 7287,
      "🌍": 7288,
      "🌎": 7289,
      "🌏": 7290,
      "🌐": 7291,
      "🌙": 7292,
      "🌟": 7293,
      "🌦": 7294,
      "🌫": 7295,
      "🌾": 7296,
      "🌿": 7297,
      "🍎": 7298,
      "🍳": 7299,
      "🍼": 7300,
      "🎄": 7301,
      "🎓": 7302,
      "🎤": 7303,
      "🎧": 7304,
      "🎨": 7305,
      "🎭": 7306,
      "🎵": 7307,
      "🎸": 7308,
      "🏅": 7309,
      "🏆": 7310,
      "🏋": 7311,
      "🏓": 7312,
      "🏔": 7313,
      "🏗": 7314,
      "🏛": 7315,
      "🏢": 7316,
      "🏫": 7317,
      "🏭": 7318,
      "👉": 7319,
      "👍": 7320,
      "👑": 7321,
      "👤": 7322,
      "👥": 7323,
      "👦": 7324,
      "👧": 7325,
      "👨": 7326,
      "👩": 7327,
      "👶": 7328,
      "👷": 7329,
      "💃": 7330,
      "💋": 7331,
      "💡": 7332,
      "💨": 7333,
      "💪": 7334,
      "💫": 7335,
      "💰": 7336,
      "💶": 7337,
      "💻": 7338,
      "💼": 7339,
      "💾": 7340,
      "📁": 7341,
      "📂": 7342,
      "📄": 7343,
      "📅": 7344,
      "📆": 7345,
      "📈": 7346,
      "📊": 7347,
      "📋": 7348,
      "📌": 7349,
      "📍": 7350,
      "📑": 7351,
      "📓": 7352,
      "📖": 7353,
      "📘": 7354,
      "📚": 7355,
      "📜": 7356,
      "📝": 7357,
      "📢": 7358,
      "📦": 7359,
      "📱": 7360,
      "🔄": 7361,
      "🔍": 7362,
      "🔒": 7363,
      "🔗": 7364,
      "🔢": 7365,
      "🔥": 7366,
      "🔧": 7367,
      "🔬": 7368,
      "🔭": 7369,
      "🔸": 7370,
      "🕊": 7371,
      "🕌": 7372,
      "🖼": 7373,
      "🗂": 7374,
      "🗓": 7375,
      "🗣": 7376,
      "🗨": 7377,
      "🗳": 7378,
      "🗺": 7379,
      "😁": 7380,
      "🙋": 7381,
      "🙏": 7382,
      "🚀": 7383,
      "🚒": 7384,
      "🚩": 7385,
      "🛑": 7386,
      "🛕": 7387,
      "🛠": 7388,
      "🛡": 7389,
      "🜨": 7390,
      "🟪": 7391,
      "🤔": 7392,
      "🤖": 7393,
      "🤘": 7394,
      "🤝": 7395,
      "🦁": 7396,
      "🦚": 7397,
      "🦯": 7398,
      "🦰": 7399,
      "🦱": 7400,
      "🦲": 7401,
      "🦳": 7402,
      "🦺": 7403,
      "🦼": 7404,
      "🦽": 7405,
      "🧑": 7406,
      "🧓": 7407,
      "🧚": 7408,
      "🧠": 7409,
      "🧬": 7410,
      "🧲": 7411,
      "🩹": 7412,
      "🪖": 7413,
      "🫲": 7414,
      "an": 7415,
      "င်": 7416,
      "ng": 7417,
      "ို": 7418,
      "ang": 7419,
      "ka": 7420,
      "in": 7421,
      "ah": 7422,
      "်း": 7423,
      "sa": 7424,
      "တ်": 7425,
      "ော": 7426,
      "at": 7427,
      "န်": 7428,
      "na": 7429,
      "ဝ်": 7430,
      "ၣ်": 7431,
      "aw": 7432,
      "ai": 7433,
      "un": 7434,
      "th": 7435,
      "က်": 7436,
      "er": 7437,
      "ar": 7438,
      "ၼ်": 7439,
      "ak": 7440,
      "al": 7441,
      "ၚ်": 7442,
      "ှ်": 7443,
      "di": 7444,
      "am": 7445,
      "ၢ်": 7446,
      "ွံ": 7447,
      "င်း": 7448,
      "tu": 7449,
      "en": 7450,
      "ti": 7451,
      "pa": 7452,
      "si": 7453,
      "hi": 7454,
      "ပ်": 7455,
      "ဵု": 7456,
      "ma": 7457,
      "te": 7458,
      "da": 7459,
      "ာ်": 7460,
      "ih": 7461,
      "မ်": 7462,
      "்க": 7463,
      "ung": 7464,
      "ဂှ်": 7465,
      "le": 7466,
      "ta": 7467,
      "ီး": 7468,
      "ya": 7469,
      "ိူ": 7470,
      "kan": 7471,
      "ing": 7472,
      "mi": 7473,
      "se": 7474,
      "ကဵု": 7475,
      "ၼ်း": 7476,
      "ိုင်": 7477,
      "on": 7478,
      "kh": 7479,
      "တု": 7480,
      "ပ္": 7481,
      "လီ": 7482,
      "ွဲ": 7483,
      "ႃႈ": 7484,
      "uh": 7485,
      "လၢ": 7486,
      "um": 7487,
      "ni": 7488,
      "the": 7489,
      "ga": 7490,
      "ke": 7491,
      "la": 7492,
      "ဟ်": 7493,
      "ပြ": 7494,
      "ား": 7495,
      "me": 7496,
      "ra": 7497,
      "ur": 7498,
      "pe": 7499,
      "sh": 7500,
      "or": 7501,
      "்த": 7502,
      "တီ": 7503,
      "ိုတ်": 7504,
      "ன்": 7505,
      "mu": 7506,
      "ꤢꤩ": 7507,
      "su": 7508,
      "ba": 7509,
      "yang": 7510,
      "ီု": 7511,
      "ch": 7512,
      "ပ္ဍ": 7513,
      "li": 7514,
      "ane": 7515,
      "ku": 7516,
      "့ၣ်": 7517,
      "ပ္ဍဲ": 7518,
      "ကျ": 7519,
      "ကြ": 7520,
      "pi": 7521,
      "ꤣꤧ": 7522,
      "ong": 7523,
      "မ်း": 7524,
      "ၵ်": 7525,
      "ki": 7526,
      "တုဲ": 7527,
      "တၢ်": 7528,
      "ம்": 7529,
      "အ်": 7530,
      "ယ်": 7531,
      "မ္": 7532,
      "ော်": 7533,
      "လၧ": 7534,
      "ဒှ်": 7535,
      "ာန်": 7536,
      "อง": 7537,
      "cu": 7538,
      "bi": 7539,
      "ၩ့": 7540,
      "ri": 7541,
      "ၼႆ": 7542,
      "bu": 7543,
      "မွဲ": 7544,
      "de": 7545,
      "lo": 7546,
      "အာ": 7547,
      "လိ": 7548,
      "ုင်": 7549,
      "ကို": 7550,
      "ကၠ": 7551,
      "ွင်": 7552,
      "lah": 7553,
      "ꤢꤩ꤬": 7554,
      "ရေ": 7555,
      "ီၪ": 7556,
      "க்க": 7557,
      "้า": 7558,
      "to": 7559,
      "ဝ်း": 7560,
      "ay": 7561,
      "້າ": 7562,
      "ႃး": 7563,
      "and": 7564,
      "ဂး": 7565,
      "ောန်": 7566,
      "ည်": 7567,
      "ပါ": 7568,
      "ꤢꤧ": 7569,
      "မိူ": 7570,
      "မိ": 7571,
      "dan": 7572,
      "nga": 7573,
      "man": 7574,
      "သ္": 7575,
      "ုံ": 7576,
      "ာံ": 7577,
      "lu": 7578,
      "ၵူ": 7579,
      "ag": 7580,
      "ကေ": 7581,
      "ချ": 7582,
      "ၢႆ": 7583,
      "စ်": 7584,
      "လီၤ": 7585,
      "ும்": 7586,
      "ဆၧ": 7587,
      "pun": 7588,
      "ဲ့": 7589,
      "တိ": 7590,
      "ဂွံ": 7591,
      "့်": 7592,
      "မၠ": 7593,
      "ding": 7594,
      "ႃႇ": 7595,
      "ari": 7596,
      "்கள": 7597,
      "တွ": 7598,
      "တီႈ": 7599,
      "ဒီး": 7600,
      "ရာ": 7601,
      "ระ": 7602,
      "တ်း": 7603,
      "ဝဲ": 7604,
      "ber": 7605,
      "ဝ်ႈ": 7606,
      "ပွ": 7607,
      "ိုၚ်": 7608,
      "လူ": 7609,
      "ကု": 7610,
      "ဟွံ": 7611,
      "ဝွံ": 7612,
      "el": 7613,
      "မှ": 7614,
      "ອງ": 7615,
      "ၢၼ်": 7616,
      "့ၢ်": 7617,
      "ꤢ꤬": 7618,
      "ja": 7619,
      "ꤣꤧ꤬": 7620,
      "န့ၣ်": 7621,
      "du": 7622,
      "ီၤ": 7623,
      "လု": 7624,
      "re": 7625,
      "mang": 7626,
      "gi": 7627,
      "ပို": 7628,
      "த்த": 7629,
      "ပေ": 7630,
      "hna": 7631,
      "ၪ့": 7632,
      "လေ": 7633,
      "us": 7634,
      "of": 7635,
      "wa": 7636,
      "တေ": 7637,
      "မၞ": 7638,
      "ညး": 7639,
      "men": 7640,
      "่า": 7641,
      "ப்": 7642,
      "be": 7643,
      "ၢင်": 7644,
      "ီၣ်": 7645,
      "hte": 7646,
      "့ၫ": 7647,
      "ို့": 7648,
      "အခ": 7649,
      "ၼ်ႉ": 7650,
      "ara": 7651,
      "pag": 7652,
      "it": 7653,
      "သၟ": 7654,
      "ல்": 7655,
      "hpe": 7656,
      "he": 7657,
      "ႂ်": 7658,
      "သွ": 7659,
      "nh": 7660,
      "သေ": 7661,
      "ိုက်": 7662,
      "ere": 7663,
      "ုၚ်": 7664,
      "ၵ်း": 7665,
      "ာဲ": 7666,
      "ၫ့": 7667,
      "မိူင်း": 7668,
      "ိၣ်": 7669,
      "gaw": 7670,
      "ci": 7671,
      "ut": 7672,
      "ைய": 7673,
      "ၵေ": 7674,
      "မ္ဂး": 7675,
      "พระ": 7676,
      "ရှ": 7677,
      "က္": 7678,
      "ဝႃႈ": 7679,
      "ဝ့ၫ": 7680,
      "के": 7681,
      "ၵူၼ်း": 7682,
      "ႄႈ": 7683,
      "ဘာ": 7684,
      "ဘၣ်": 7685,
      "ဂမၠ": 7686,
      "ံင်": 7687,
      "တူ": 7688,
      "angin": 7689,
      "il": 7690,
      "မျ": 7691,
      "မဳ": 7692,
      "ႆး": 7693,
      "သူ": 7694,
      "ၼႆႉ": 7695,
      "ົ້າ": 7696,
      "ႆႈ": 7697,
      "ரு": 7698,
      "ကွ": 7699,
      "မု": 7700,
      "as": 7701,
      "တအ်": 7702,
      "और": 7703,
      "nak": 7704,
      "လဝ်": 7705,
      "ັນ": 7706,
      "ဒး": 7707,
      "pat": 7708,
      "ၵ်ႈ": 7709,
      "ிய": 7710,
      "mah": 7711,
      "ने": 7712,
      "ப்ப": 7713,
      "အိုတ်": 7714,
      "per": 7715,
      "သု": 7716,
      "்ட": 7717,
      "သာ": 7718,
      "နီၪ": 7719,
      "နူ": 7720,
      "သၞ": 7721,
      "ႁူ": 7722,
      "ပှ": 7723,
      "ကာ": 7724,
      "ံၚ်": 7725,
      "ခမဳ": 7726,
      "ဵၼ်": 7727,
      "akan": 7728,
      "itu": 7729,
      "တၭ": 7730,
      "ter": 7731,
      "ောံ": 7732,
      "່າ": 7733,
      "ယူ": 7734,
      "rai": 7735,
      "sin": 7736,
      "mat": 7737,
      "ဍုင်": 7738,
      "pu": 7739,
      "ꤢꤨ": 7740,
      "ဲၤ": 7741,
      "တ္": 7742,
      "ຂອງ": 7743,
      "ဂၠ": 7744,
      "မူ": 7745,
      "au": 7746,
      "nih": 7747,
      "ဖြ": 7748,
      "သိ": 7749,
      "ph": 7750,
      "ko": 7751,
      "ံၤ": 7752,
      "sha": 7753,
      "ແລ": 7754,
      "tan": 7755,
      "mga": 7756,
      "Is": 7757,
      "ເຈ": 7758,
      "ru": 7759,
      "yu": 7760,
      "မန်": 7761,
      "lam": 7762,
      "nan": 7763,
      "ua": 7764,
      "ကျာ်": 7765,
      "ႃႉ": 7766,
      "manga": 7767,
      "່ງ": 7768,
      "ကေု": 7769,
      "ကေုာံ": 7770,
      "သည်": 7771,
      "ပှၤ": 7772,
      "မ်ႇ": 7773,
      "ເຈົ້າ": 7774,
      "is": 7775,
      "ၢင်း": 7776,
      "ของ": 7777,
      "င့်": 7778,
      "เจ": 7779,
      "ဂက": 7780,
      "ne": 7781,
      "om": 7782,
      "ဖိ": 7783,
      "lang": 7784,
      "ောင်": 7785,
      ".”": 7786,
      "pan": 7787,
      "တို": 7788,
      "mag": 7789,
      "သို": 7790,
      "နာ": 7791,
      "တယ်": 7792,
      "awl": 7793,
      "ring": 7794,
      "ர்கள": 7795,
      "ົາ": 7796,
      "anak": 7797,
      "lai": 7798,
      "ပူ": 7799,
      "pada": 7800,
      "ၥံ": 7801,
      "လႆႈ": 7802,
      "တာ": 7803,
      "တဖ": 7804,
      "asa": 7805,
      "နွံ": 7806,
      "ယွ": 7807,
      "ந்த": 7808,
      "ဒေ": 7809,
      "ban": 7810,
      "nu": 7811,
      "แล": 7812,
      "ညာ": 7813,
      "ပဵၼ်": 7814,
      "orang": 7815,
      "ດ້": 7816,
      "tr": 7817,
      "ရဴ": 7818,
      "ों": 7819,
      "เจ้า": 7820,
      "taw": 7821,
      "ວກ": 7822,
      "pang": 7823,
      "ကီု": 7824,
      "တဖၣ်": 7825,
      "ີ່": 7826,
      "ိုင်ႈ": 7827,
      "मे": 7828,
      "့ၤ": 7829,
      "san": 7830,
      "kaw": 7831,
      "ພວກ": 7832,
      "kha": 7833,
      "ha": 7834,
      "လီၫ": 7835,
      "မႃး": 7836,
      "ၼၼ်ႉ": 7837,
      "နှ": 7838,
      "dai": 7839,
      "es": 7840,
      "ႂ်း": 7841,
      "မြ": 7842,
      "ူး": 7843,
      "အဲ": 7844,
      "ေံ": 7845,
      "ီၢ်": 7846,
      "ောက်": 7847,
      "ၼႂ်း": 7848,
      "မီး": 7849,
      "တြ": 7850,
      "ဂမၠိုၚ်": 7851,
      "bang": 7852,
      "เป": 7853,
      "င်ႇ": 7854,
      "្រ": 7855,
      "ဒဲ": 7856,
      "ဘဲ": 7857,
      "से": 7858,
      "ဇၞ": 7859,
      "awi": 7860,
      "ေး": 7861,
      "ၥံၪ": 7862,
      "dah": 7863,
      "ிற": 7864,
      "அவ": 7865,
      "em": 7866,
      "ိၚ်": 7867,
      "တွေ": 7868,
      "လေဝ်": 7869,
      "ၵ်ႇ": 7870,
      "ိဟ်": 7871,
      "ngan": 7872,
      "နေ": 7873,
      "ທີ່": 7874,
      "လိက်": 7875,
      "ແລະ": 7876,
      "ika": 7877,
      "ời": 7878,
      "ereka": 7879,
      "รา": 7880,
      "ี่": 7881,
      "ဵင်း": 7882,
      "mar": 7883,
      "ဝ်ႉ": 7884,
      "ၢၼ်ႈ": 7885,
      "20": 7886,
      "အလ": 7887,
      "tuk": 7888,
      "aku": 7889,
      "ຣະ": 7890,
      "တ်ႈ": 7891,
      "မၤ": 7892,
      "ဢၼ်": 7893,
      "ရေင်": 7894,
      "ala": 7895,
      "do": 7896,
      "ca": 7897,
      "ພຣະ": 7898,
      "ໄດ້": 7899,
      "เข": 7900,
      "या": 7901,
      "Isra": 7902,
      "ாக": 7903,
      "တံ": 7904,
      "စံ": 7905,
      "လ္": 7906,
      "law": 7907,
      "စာ": 7908,
      "တဴ": 7909,
      "nang": 7910,
      "ွင်ႈ": 7911,
      "တော်": 7912,
      "မာ": 7913,
      "ုပ်": 7914,
      "ับ": 7915,
      "kay": 7916,
      "कर": 7917,
      "ကောန်": 7918,
      "து": 7919,
      "ဒု": 7920,
      "မ်ႈ": 7921,
      "ve": 7922,
      "ိုဟ်": 7923,
      "ုတ်": 7924,
      "ဇၞော်": 7925,
      "ngai": 7926,
      "ค์": 7927,
      "စီၤ": 7928,
      "ောင်း": 7929,
      "je": 7930,
      "mung": 7931,
      "ia": 7932,
      "အဂ": 7933,
      "ဗွဲ": 7934,
      "ู้": 7935,
      "သး": 7936,
      "sane": 7937,
      "လုပ်": 7938,
      "mem": 7939,
      "kah": 7940,
      "အဝဲ": 7941,
      "ina": 7942,
      "An": 7943,
      "ဖျ": 7944,
      "ட்ட": 7945,
      "hk": 7946,
      "ge": 7947,
      "တၢင်း": 7948,
      "nna": 7949,
      "န့ၣ်လီၤ": 7950,
      "rang": 7951,
      "ั้": 7952,
      "ဢမ်ႇ": 7953,
      "ည်း": 7954,
      "ဖြစ်": 7955,
      "မ်ႉ": 7956,
      "ပွမ": 7957,
      "ၵၼ်": 7958,
      "န်း": 7959,
      "bah": 7960,
      "້ນ": 7961,
      "่ง": 7962,
      "န္": 7963,
      "ົນ": 7964,
      "မၞိဟ်": 7965,
      "pawl": 7966,
      "ꤥ꤬": 7967,
      "का": 7968,
      "है": 7969,
      "องค์": 7970,
      "ထီၣ်": 7971,
      "လွ": 7972,
      "ိုပ်": 7973,
      "ab": 7974,
      "dak": 7975,
      "ny": 7976,
      ",”": 7977,
      "ၼ်ႈ": 7978,
      "တၠ": 7979,
      "င်ႈ": 7980,
      "nya": 7981,
      "ဒ်": 7982,
      "ꤢꤧ꤭": 7983,
      "ana": 7984,
      "ိုး": 7985,
      "ali": 7986,
      "ဗြ": 7987,
      "ின்": 7988,
      "ၸိူ": 7989,
      "မၞုံ": 7990,
      "ခြ": 7991,
      "க்கு": 7992,
      "າຍ": 7993,
      "ဟာ": 7994,
      "တႆး": 7995,
      "्र": 7996,
      "ရော": 7997,
      "ati": 7998,
      "kau": 7999,
      "Al": 8000,
      "အီၪ": 8001,
      "mereka": 8002,
      "cun": 8003,
      "အိၣ်": 8004,
      "ເຮ": 8005,
      "သွက်": 8006,
      "မ့ၢ်": 8007,
      "ဝါ": 8008,
      "thu": 8009,
      "များ": 8010,
      "Ida": 8011,
      "တဲ့": 8012,
      "ဒၟ": 8013,
      "ိတ်": 8014,
      "को": 8015,
      "သင်": 8016,
      "ที่": 8017,
      "ங்கள": 8018,
      "ပၠ": 8019,
      "သိုၵ်း": 8020,
      "ဘၪ": 8021,
      "ၵႂ": 8022,
      "Israel": 8023,
      "လႄႈ": 8024,
      "ꤢꤧ꤬": 8025,
      "လၧအ": 8026,
      "ဟီု": 8027,
      "จะ": 8028,
      "id": 8029,
      "ၶႃႈ": 8030,
      "ுட": 8031,
      "ဒါ": 8032,
      "ັດ": 8033,
      "ႁဵ": 8034,
      "ယူႇ": 8035,
      "ပရေင်": 8036,
      "kar": 8037,
      "และ": 8038,
      "tur": 8039,
      "gal": 8040,
      "usa": 8041,
      "ကေတ်": 8042,
      "ဝၼ်း": 8043,
      "่อ": 8044,
      "็น": 8045,
      "என்": 8046,
      "ent": 8047,
      "ပ်း": 8048,
      "ர்": 8049,
      "နကဵု": 8050,
      "ေတ်": 8051,
      "ho": 8052,
      "उस": 8053,
      "မှာ": 8054,
      "awng": 8055,
      "ว่า": 8056,
      "ၵေႃႈ": 8057,
      "sak": 8058,
      "ັບ": 8059,
      "เขา": 8060,
      "ဝ်ႇ": 8061,
      "ꤢꤪ": 8062,
      "ပျ": 8063,
      "shi": 8064,
      "कि": 8065,
      "မၩ": 8066,
      "มา": 8067,
      "வா": 8068,
      "ဝဵင်း": 8069,
      "no": 8070,
      "ၵေႃႉ": 8071,
      "gu": 8072,
      "າມ": 8073,
      "္ဍ": 8074,
      "ານ": 8075,
      "ရှိ": 8076,
      "သ့ၣ်": 8077,
      "ngư": 8078,
      "ate": 8079,
      "ี้": 8080,
      "kamu": 8081,
      "ကိ": 8082,
      "ၢႆး": 8083,
      "ၥၭ": 8084,
      "anu": 8085,
      "စိုတ်": 8086,
      "meng": 8087,
      "वा": 8088,
      "ဒ္": 8089,
      "လၢအ": 8090,
      "ဝႃႈၼႆ": 8091,
      "yi": 8092,
      "ram": 8093,
      "ด้": 8094,
      "့ၪ": 8095,
      "wi": 8096,
      "နိုင်": 8097,
      "par": 8098,
      "ဗ္": 8099,
      "all": 8100,
      "lak": 8101,
      "và": 8102,
      "ဟိုတ်": 8103,
      "ၵ်ႉ": 8104,
      "ိင်": 8105,
      "ၵႂႃႇ": 8106,
      "လဲ": 8107,
      "kani": 8108,
      "Allah": 8109,
      "ထံ": 8110,
      "hu": 8111,
      "ro": 8112,
      "हो": 8113,
      "စီ": 8114,
      "ts": 8115,
      "าม": 8116,
      "nag": 8117,
      "တန်": 8118,
      ".-": 8119,
      "လာ": 8120,
      "Sang": 8121,
      "ၵၢၼ်": 8122,
      "पर": 8123,
      "dang": 8124,
      "သၞာံ": 8125,
      "punika": 8126,
      "နိ": 8127,
      "ရဴဝွံ": 8128,
      "ce": 8129,
      "ผู้": 8130,
      "ဒိ": 8131,
      "ောဝ်": 8132,
      "เป็น": 8133,
      "ထၪ့": 8134,
      "pin": 8135,
      "ên": 8136,
      "คน": 8137,
      "gan": 8138,
      "ັງ": 8139,
      "keun": 8140,
      "tung": 8141,
      "ဂကူ": 8142,
      "ေါ": 8143,
      "ဳၤ": 8144,
      "ຈະ": 8145,
      "ေၚ်": 8146,
      "าย": 8147,
      "kepada": 8148,
      "yo": 8149,
      "bo": 8150,
      "में": 8151,
      "ၽူ": 8152,
      "ဢွ": 8153,
      "ရိ": 8154,
      "ác": 8155,
      "ၱာ်": 8156,
      "ဇကု": 8157,
      "Di": 8158,
      "ໍ່": 8159,
      "की": 8160,
      "တၞ": 8161,
      "ເຂ": 8162,
      "ခံ": 8163,
      "tak": 8164,
      "ႆႉ": 8165,
      "လူင်": 8166,
      "anhte": 8167,
      "ပၢင်": 8168,
      "lan": 8169,
      "ู่": 8170,
      "ၧၩ့": 8171,
      "may": 8172,
      "ัน": 8173,
      "้อ": 8174,
      "sung": 8175,
      "သ္ၚ": 8176,
      "ဒဳ": 8177,
      "ဘဲၫ": 8178,
      "im": 8179,
      "ுடைய": 8180,
      "ုံး": 8181,
      "သော": 8182,
      "apa": 8183,
      "ື່": 8184,
      "ye": 8185,
      "ꤢ꤭": 8186,
      "ပိ": 8187,
      "သာ်": 8188,
      "ꤢꤦ": 8189,
      "ယဝ်ႉ": 8190,
      "ือ": 8191,
      "sang": 8192,
      "្ន": 8193,
      "ၸိုင်ႈ": 8194,
      "ir": 8195,
      "ဉ်": 8196,
      "for": 8197,
      "ள்": 8198,
      "awipa": 8199,
      "ல்ல": 8200,
      "ता": 8201,
      "အိုတ်ရ": 8202,
      "ர்கள்": 8203,
      "သံ": 8204,
      "ပတ်": 8205,
      "hat": 8206,
      "ၽူႈ": 8207,
      "வி": 8208,
      "တၟ": 8209,
      "တဳ": 8210,
      "ug": 8211,
      "ဓိ": 8212,
      "ꤞꤤ": 8213,
      "ဆို": 8214,
      "အီၤ": 8215,
      "ယွံ": 8216,
      "hong": 8217,
      "न्": 8218,
      "st": 8219,
      "chi": 8220,
      "that": 8221,
      "ပူၤ": 8222,
      "हा": 8223,
      "ông": 8224,
      "ရေး": 8225,
      "ကွာန်": 8226,
      "လျ": 8227,
      "sam": 8228,
      "ເປ": 8229,
      "ູ້": 8230,
      "Ye": 8231,
      "Pangin": 8232,
      "လိူ": 8233,
      "leh": 8234,
      "min": 8235,
      "ꤔꤣꤧ꤬": 8236,
      "လၟ": 8237,
      "lung": 8238,
      "ีย": 8239,
      "သီု": 8240,
      "Bawipa": 8241,
      "yan": 8242,
      "ဒီ": 8243,
      "ၸွ": 8244,
      "ini": 8245,
      "အစ": 8246,
      "လွင်ႈ": 8247,
      "ना": 8248,
      "ัง": 8249,
      "ອນ": 8250,
      "ႁဝ်း": 8251,
      "tiang": 8252,
      "ပြီး": 8253,
      "ိုန်": 8254,
      "ຫລ": 8255,
      "ှ်ေ": 8256,
      "ရ်": 8257,
      "pah": 8258,
      "ꤣꤧ꤭": 8259,
      "ົງ": 8260,
      "Ng": 8261,
      "ວ່າ": 8262,
      "जा": 8263,
      "kum": 8264,
      "ုမ်း": 8265,
      "ei": 8266,
      "At": 8267,
      "သ္ပ": 8268,
      "atu": 8269,
      "Ma": 8270,
      "siya": 8271,
      "าก": 8272,
      "ႂ်ႈ": 8273,
      "pak": 8274,
      "ံက်": 8275,
      "Se": 8276,
      "ပညာ": 8277,
      "၊၊": 8278,
      "ິດ": 8279,
      "ဝႆႉ": 8280,
      "Ti": 8281,
      "နဲ": 8282,
      "ဂမၠိုင်": 8283,
      "டு": 8284,
      "ဏ်": 8285,
      "တင်း": 8286,
      "là": 8287,
      "耶和": 8288,
      "ယွၤ": 8289,
      "อย": 8290,
      "ဏ္ဍ": 8291,
      "tidak": 8292,
      "ဲး": 8293,
      "ັ້ນ": 8294,
      "ၸႄႈ": 8295,
      "พระองค์": 8296,
      "หม": 8297,
      "ண்ட": 8298,
      "သီ": 8299,
      "ได้": 8300,
      "ေင်": 8301,
      "ပေါ": 8302,
      "ji": 8303,
      "အဖ": 8304,
      "တႄ": 8305,
      "ເປັນ": 8306,
      "alu": 8307,
      "ႁဵတ်း": 8308,
      "ເພ": 8309,
      "eng": 8310,
      "ိၭ": 8311,
      "रा": 8312,
      "ில": 8313,
      "tiah": 8314,
      "ໃຫ": 8315,
      "ใน": 8316,
      "ၟာ": 8317,
      "seh": 8318,
      "ဂကောံ": 8319,
      "ைக": 8320,
      "တ္ၚ": 8321,
      "tah": 8322,
      "ꤢꤨ꤭": 8323,
      "sus": 8324,
      "ပ်ႉ": 8325,
      "သဳ": 8326,
      "က္က": 8327,
      "ိက်": 8328,
      "ဗြဴ": 8329,
      "့ၩ": 8330,
      "ான்": 8331,
      "And": 8332,
      "Na": 8333,
      "tang": 8334,
      "ဍုၚ်": 8335,
      "awa": 8336,
      "ဟိ": 8337,
      "kal": 8338,
      "my": 8339,
      "so": 8340,
      "ꤒꤣꤧ꤬": 8341,
      "con": 8342,
      "ၼ်ႇ": 8343,
      "ဒၪ": 8344,
      "hta": 8345,
      "စိုပ်": 8346,
      "ก็": 8347,
      "လ္ၚ": 8348,
      "ခွ": 8349,
      "ဝၢၼ်ႈ": 8350,
      "mo": 8351,
      "po": 8352,
      "လှ": 8353,
      "Si": 8354,
      "dari": 8355,
      "hin": 8356,
      "kam": 8357,
      "ယု": 8358,
      "တစ်": 8359,
      "lem": 8360,
      "ထဲ": 8361,
      "ညိ": 8362,
      "ၸုမ်း": 8363,
      "ju": 8364,
      "तु": 8365,
      "ရား": 8366,
      "ပီ": 8367,
      "người": 8368,
      "khat": 8369,
      "ကဲ": 8370,
      "ဖိၪ": 8371,
      "ီၩ": 8372,
      "တဲ": 8373,
      "ဆက်": 8374,
      "ໃນ": 8375,
      "တ္ၚဲ": 8376,
      "िय": 8377,
      "ခဲ့": 8378,
      "uhan": 8379,
      "ၸဝ်ႈ": 8380,
      "မိူဝ်ႈ": 8381,
      "ပရ": 8382,
      "ເຮົາ": 8383,
      "ꤢꤩ꤭": 8384,
      "ngu": 8385,
      "မာန်": 8386,
      "ាន": 8387,
      "ते": 8388,
      "hang": 8389,
      "တ်ႇ": 8390,
      "ນັ້ນ": 8391,
      "ั้น": 8392,
      "ႅင်း": 8393,
      "່ນ": 8394,
      "ပြော": 8395,
      "pai": 8396,
      "າເ": 8397,
      "ไป": 8398,
      "dengan": 8399,
      "ံး": 8400,
      "ເຂົາ": 8401,
      "Ch": 8402,
      "ထီး": 8403,
      "ယၢ": 8404,
      "ထု": 8405,
      "လး": 8406,
      "ၸိူဝ်း": 8407,
      "ser": 8408,
      "ႆႇ": 8409,
      "awn": 8410,
      "et": 8411,
      "hian": 8412,
      "தி": 8413,
      "dal": 8414,
      "amu": 8415,
      "aran": 8416,
      "han": 8417,
      "စု": 8418,
      "လၢတ်ႈ": 8419,
      "saw": 8420,
      "မၼ်း": 8421,
      "niya": 8422,
      "tuah": 8423,
      "ောတ်": 8424,
      "ꤘꤣ": 8425,
      "ၜါ": 8426,
      "று": 8427,
      "າກ": 8428,
      "pen": 8429,
      "ໃຫ້": 8430,
      "တိုန်": 8431,
      "တဲၤ": 8432,
      "သၠ": 8433,
      "Pat": 8434,
      "vi": 8435,
      "စ္": 8436,
      "မှု": 8437,
      "jaw": 8438,
      "လဵ": 8439,
      "အရာ": 8440,
      "ေန်": 8441,
      "ข้า": 8442,
      "khi": 8443,
      "၂၀": 8444,
      "က္ခ": 8445,
      "လ်": 8446,
      "ủa": 8447,
      "ယာ": 8448,
      "ဇြ": 8449,
      "ड़": 8450,
      "တိတ်": 8451,
      "ให": 8452,
      "ຜູ້": 8453,
      "ဂၤ": 8454,
      "ံၭ": 8455,
      "idi": 8456,
      "သွက်ဂွံ": 8457,
      "रे": 8458,
      "ul": 8459,
      "ພວກເຂົາ": 8460,
      "ான": 8461,
      "້ອ": 8462,
      "ခြင်း": 8463,
      "့ၬ": 8464,
      "ກໍ": 8465,
      "ၵူၼ်းမိူင်း": 8466,
      "Ka": 8467,
      "Hyang": 8468,
      "ိုၼ်း": 8469,
      "của": 8470,
      "செ": 8471,
      "ဏအ်": 8472,
      "ေဟ်": 8473,
      "ꤚꤣꤧ꤬": 8474,
      "ၺ်း": 8475,
      "ဘု": 8476,
      "သမ္": 8477,
      "Pathian": 8478,
      "வே": 8479,
      "ꤢꤦ꤬": 8480,
      "ຄົນ": 8481,
      "các": 8482,
      "าร": 8483,
      "ตร": 8484,
      "အံၤ": 8485,
      "ထား": 8486,
      "Sa": 8487,
      "กับ": 8488,
      "အဝဲသ့ၣ်": 8489,
      "အဝ့ၫ": 8490,
      "ဂြ": 8491,
      "cho": 8492,
      "เรา": 8493,
      "နာဲ": 8494,
      "ရး": 8495,
      "လဖ": 8496,
      "အံ": 8497,
      "hm": 8498,
      "ພຣະເຈົ້າ": 8499,
      "หล": 8500,
      "လံ": 8501,
      "co": 8502,
      "ယိ": 8503,
      "सा": 8504,
      "າວ": 8505,
      "ꤔꤢꤧ": 8506,
      "သၟိၚ်": 8507,
      "Aku": 8508,
      "kang": 8509,
      "ဒၞ": 8510,
      "တက": 8511,
      "ไม": 8512,
      "ami": 8513,
      "angah": 8514,
      "tho": 8515,
      "နဲ့": 8516,
      "bal": 8517,
      "ôi": 8518,
      "kaniyang": 8519,
      "ၸႂ်": 8520,
      "ဗွဲမ": 8521,
      "ໄປ": 8522,
      "kata": 8523,
      "Cu": 8524,
      "ꤒꤢꤩ꤬": 8525,
      "19": 8526,
      "ுக்கு": 8527,
      "မၢၼ်ႈ": 8528,
      "ည့်": 8529,
      "masha": 8530,
      "amah": 8531,
      "ႁူမ်ႈ": 8532,
      "ပၞ": 8533,
      "္ဂ": 8534,
      "00": 8535,
      "untuk": 8536,
      "ၧၫ့": 8537,
      "ကတ": 8538,
      "ມາ": 8539,
      "ယဲ": 8540,
      "dat": 8541,
      "Pa": 8542,
      "ၜး": 8543,
      "တင်": 8544,
      "ၢႆႇ": 8545,
      "ဘာသာ": 8546,
      "lun": 8547,
      "စရ": 8548,
      "หน": 8549,
      "्य": 8550,
      "ဇာ": 8551,
      "လို": 8552,
      "ama": 8553,
      "ிரு": 8554,
      "kei": 8555,
      "गा": 8556,
      "we": 8557,
      "သြ": 8558,
      "นั้น": 8559,
      "စၟ": 8560,
      "စဲ": 8561,
      "ပၼ်": 8562,
      "ၶၢ": 8563,
      "up": 8564,
      "รง": 8565,
      "တႄႉ": 8566,
      "mal": 8567,
      "ູ່": 8568,
      "ில்": 8569,
      "ဆူ": 8570,
      "မေ": 8571,
      "yong": 8572,
      "နံ": 8573,
      "วก": 8574,
      "ိန်": 8575,
      "Widi": 8576,
      "ให้": 8577,
      "ही": 8578,
      "အကြ": 8579,
      "eta": 8580,
      "ອົງ": 8581,
      "ၶဝ်": 8582,
      "ဥပ": 8583,
      "sing": 8584,
      "ၼိုင်ႈ": 8585,
      "Da": 8586,
      "ပိုဉ်": 8587,
      "มี": 8588,
      "ບໍ່": 8589,
      "လၩ့": 8590,
      "လည်း": 8591,
      "thi": 8592,
      "ព្រ": 8593,
      "?”": 8594,
      "are": 8595,
      "ၶူ": 8596,
      "ມີ": 8597,
      "kita": 8598,
      "दे": 8599,
      "ၶဝ်ႈ": 8600,
      "ื่อ": 8601,
      "Wasa": 8602,
      "The": 8603,
      "ையும்": 8604,
      "ယီၩ": 8605,
      "ကစ": 8606,
      "ၼမ်ႉ": 8607,
      "တ်ႉ": 8608,
      "ၥိၭ": 8609,
      "ဝၼ်းတီႈ": 8610,
      "ိၪ": 8611,
      "ုဟ်": 8612,
      "ting": 8613,
      "ဗီု": 8614,
      "tin": 8615,
      "ဦး": 8616,
      "ကဏ္ဍ": 8617,
      "လက်": 8618,
      "ကၠုၚ်": 8619,
      "ꤖꤚ": 8620,
      "မွ": 8621,
      "ဒၟံင်": 8622,
      "ꤥ꤭": 8623,
      "แต": 8624,
      "போ": 8625,
      "gin": 8626,
      "ꤞꤤ꤭": 8627,
      "ले": 8628,
      "ဍာ်": 8629,
      "hen": 8630,
      "ွင်ႇ": 8631,
      "ciangin": 8632,
      ")။": 8633,
      "अप": 8634,
      "ပါ်": 8635,
      "मा": 8636,
      "இரு": 8637,
      "้ว": 8638,
      "ပၠန်": 8639,
      "တႃႇ": 8640,
      "hari": 8641,
      "လဖၪ": 8642,
      "his": 8643,
      "ani": 8644,
      "ပၢႆ": 8645,
      "ார": 8646,
      "နု": 8647,
      "ၸႄႈဝဵင်း": 8648,
      "ထ္": 8649,
      "ahi": 8650,
      "ဝိ": 8651,
      "ทรง": 8652,
      "ၵၢင်": 8653,
      "Ta": 8654,
      "jadi": 8655,
      "Dai": 8656,
      "ၾၢႆႇ": 8657,
      "နဳၤ": 8658,
      "shall": 8659,
      "ကၠောန်": 8660,
      "ထိုင်": 8661,
      "Dane": 8662,
      "oh": 8663,
      "他们": 8664,
      "கோ": 8665,
      "ຢູ່": 8666,
      "่น": 8667,
      "မဒှ်": 8668,
      "ၸၢႆး": 8669,
      "ச்": 8670,
      "ài": 8671,
      "oon": 8672,
      "ပိုဲ": 8673,
      "kat": 8674,
      "To": 8675,
      "khua": 8676,
      "ညာတ်": 8677,
      "ဒၟံၚ်": 8678,
      "kin": 8679,
      "คว": 8680,
      "အာပတ်": 8681,
      "ake": 8682,
      "ไม่": 8683,
      "เม": 8684,
      "အတ": 8685,
      "ิน": 8686,
      "inn": 8687,
      "ສະ": 8688,
      "naw": 8689,
      "eu": 8690,
      "စံး": 8691,
      "os": 8692,
      "ဝ်ႊ": 8693,
      "ui": 8694,
      "ຂ້າ": 8695,
      "jeung": 8696,
      "maka": 8697,
      "မံ": 8698,
      "hp": 8699,
      "khan": 8700,
      "ဖဲ": 8701,
      "ene": 8702,
      "ႁူဝ်": 8703,
      "ထႅ": 8704,
      "od": 8705,
      "ပေး": 8706,
      "အဓိ": 8707,
      "ဟု": 8708,
      "ၸၢ": 8709,
      "พวก": 8710,
      "ီၩ့": 8711,
      "က့ၤ": 8712,
      "har": 8713,
      "urang": 8714,
      "ꤣ꤬": 8715,
      "ื้อ": 8716,
      "မၢ": 8717,
      "ဍေံ": 8718,
      "သက်": 8719,
      "่าน": 8720,
      "ပြည်": 8721,
      "buat": 8722,
      "oi": 8723,
      "kap": 8724,
      "သိး": 8725,
      "ဢဝ်": 8726,
      "သတ်": 8727,
      "ဝင်": 8728,
      "ั้ง": 8729,
      "Tua": 8730,
      "erusa": 8731,
      "าน": 8732,
      "คร": 8733,
      "செய": 8734,
      "ဘိ": 8735,
      "Tuhan": 8736,
      "တၞဟ်": 8737,
      "ရို့": 8738,
      "ဂိ": 8739,
      "ၢင်ႈ": 8740,
      "Gi": 8741,
      "த்து": 8742,
      "ထ္ၜး": 8743,
      "muah": 8744,
      "wu": 8745,
      "unto": 8746,
      "ພຣະອົງ": 8747,
      "မုၢ်": 8748,
      "ห์": 8749,
      "ந்து": 8750,
      "gen": 8751,
      "ស់": 8752,
      "တော": 8753,
      "จาก": 8754,
      "ကၠုင်": 8755,
      "Hi": 8756,
      "ิด": 8757,
      "pek": 8758,
      "ân": 8759,
      "bin": 8760,
      "ရု": 8761,
      "လၢတၢ်": 8762,
      "ယျ": 8763,
      "ꤟꤢꤩ꤬": 8764,
      "sida": 8765,
      "தே": 8766,
      "sẽ": 8767,
      "him": 8768,
      "ဂျ": 8769,
      "erusalem": 8770,
      "ႁႂ်ႈ": 8771,
      "တဳလ": 8772,
      "aja": 8773,
      "ນີ": 8774,
      "ကာလ": 8775,
      "ဂှ်ရ": 8776,
      "ິນ": 8777,
      "တွင်": 8778,
      "angan": 8779,
      "pagka": 8780,
      "ဂၩ": 8781,
      "ကၠာ": 8782,
      "para": 8783,
      "မဲ": 8784,
      "မည်": 8785,
      "ပ်ႇ": 8786,
      "ရွ": 8787,
      "ထိ": 8788,
      "နၥံၪ": 8789,
      "zong": 8790,
      "ဂၞ": 8791,
      "Ku": 8792,
      "ဒြ": 8793,
      "ဒေသ": 8794,
      "ver": 8795,
      "ாவ": 8796,
      "ກັບ": 8797,
      "เอ": 8798,
      "ື່ອ": 8799,
      "ព្រះ": 8800,
      "他們": 8801,
      "ol": 8802,
      "ကမၠ": 8803,
      "ht": 8804,
      "kota": 8805,
      "လော": 8806,
      "စံၭ": 8807,
      "ဘုရား": 8808,
      "Je": 8809,
      "ယၤ": 8810,
      "အတၢ်": 8811,
      "ຄວ": 8812,
      "แล้ว": 8813,
      "rak": 8814,
      "ham": 8815,
      "úng": 8816,
      "sai": 8817,
      "uk": 8818,
      "ꤖꤚꤢꤩ꤬": 8819,
      "တဂၤ": 8820,
      "သား": 8821,
      "ơi": 8822,
      "ton": 8823,
      "र्": 8824,
      "້ອຍ": 8825,
      "ின": 8826,
      "အၥၭ": 8827,
      "ကြီး": 8828,
      "ၼင်ႇ": 8829,
      "matu": 8830,
      "စေ": 8831,
      "အား": 8832,
      "tem": 8833,
      "gam": 8834,
      "စၟတ်": 8835,
      "ရင်": 8836,
      "shanhte": 8837,
      "ங்கள்": 8838,
      "kun": 8839,
      "แต่": 8840,
      "hn": 8841,
      "thei": 8842,
      "ပာ်": 8843,
      "sum": 8844,
      "ေက်": 8845,
      "din": 8846,
      "ປະ": 8847,
      "ပြု": 8848,
      "၁၉": 8849,
      "மு": 8850,
      "iki": 8851,
      "ເມ": 8852,
      "rah": 8853,
      "ဏာ": 8854,
      "เพ": 8855,
      "၏။": 8856,
      "้น": 8857,
      "ဟွံသေ": 8858,
      "yus": 8859,
      "ဒၣ်": 8860,
      "maw": 8861,
      "ဂု": 8862,
      "တြဲ": 8863,
      "ပွင်": 8864,
      "दि": 8865,
      "ဢွၵ်ႇ": 8866,
      "เย": 8867,
      "sim": 8868,
      "chung": 8869,
      "jah": 8870,
      "စိ": 8871,
      "ပု": 8872,
      "ၟု": 8873,
      "qu": 8874,
      "ัก": 8875,
      "anh": 8876,
      "အက": 8877,
      "စၞ": 8878,
      "நீ": 8879,
      "အတွ": 8880,
      "ရေဝ်": 8881,
      "ႁႅင်း": 8882,
      "ရေၚ်": 8883,
      "டி": 8884,
      "ကျာ်တြဲ": 8885,
      "ความ": 8886,
      "sar": 8887,
      "တို့": 8888,
      "မၞုံကဵု": 8889,
      "ပေႃး": 8890,
      "ிர": 8891,
      "ထူ": 8892,
      "cang": 8893,
      "မတ်": 8894,
      "ជា": 8895,
      "ตี้": 8896,
      "teh": 8897,
      "raja": 8898,
      "ed": 8899,
      "ဒဒှ်": 8900,
      "க்கிற": 8901,
      "နှင့်": 8902,
      "னுடைய": 8903,
      "aking": 8904,
      "ến": 8905,
      "जो": 8906,
      "uru": 8907,
      "aris": 8908,
      "हे": 8909,
      "ꤒꤣꤧ꤬ꤟꤢꤩ꤬": 8910,
      "ရာဇ": 8911,
      "ယၢမ်း": 8912,
      "ນີ້": 8913,
      "tawh": 8914,
      "dia": 8915,
      "bar": 8916,
      "ິ່ງ": 8917,
      "ại": 8918,
      "ကၞ": 8919,
      "๋น": 8920,
      "စား": 8921,
      "ꤤ꤬": 8922,
      "າດ": 8923,
      "ပိူ": 8924,
      "ခင်": 8925,
      "ata": 8926,
      "ၽွ": 8927,
      "ကလိ": 8928,
      "sina": 8929,
      "တႅ": 8930,
      "ึง": 8931,
      "ຄວາມ": 8932,
      "อยู่": 8933,
      "không": 8934,
      "ယၟု": 8935,
      "ဒက်": 8936,
      "ள்ள": 8937,
      "လို့": 8938,
      "າງ": 8939,
      "ေႃႈ": 8940,
      "ကွံ": 8941,
      "tôi": 8942,
      "वह": 8943,
      "ant": 8944,
      "ဆိ": 8945,
      "ၸွမ်း": 8946,
      "bab": 8947,
      "อก": 8948,
      "ຈາກ": 8949,
      "လိၵ်ႈ": 8950,
      "ခု": 8951,
      "你们": 8952,
      "ႁဝ်းၶႃႈ": 8953,
      "put": 8954,
      "ழு": 8955,
      "ကစၢ်": 8956,
      "हु": 8957,
      "enten": 8958,
      "eri": 8959,
      "Nang": 8960,
      "ဵုဒှ်": 8961,
      "Yesus": 8962,
      "ພວກເຈົ້າ": 8963,
      "ယဟိ": 8964,
      "Topa": 8965,
      "ဂပ်": 8966,
      "ad": 8967,
      "tun": 8968,
      "uun": 8969,
      "ရန်": 8970,
      "lian": 8971,
      "ၵူၺ်း": 8972,
      "AN": 8973,
      "Me": 8974,
      "bangsa": 8975,
      "मै": 8976,
      "လၧဆၧ": 8977,
      "ႂ်ႇ": 8978,
      "ꤒꤣ꤬": 8979,
      "wah": 8980,
      "கிற": 8981,
      "အၪ့": 8982,
      "pal": 8983,
      "เล": 8984,
      "ला": 8985,
      "ခဲ": 8986,
      "င်ႉ": 8987,
      "Ke": 8988,
      "မ္မ": 8989,
      "स्": 8990,
      "atan": 8991,
      "tsun": 8992,
      "Le": 8993,
      "ပွဲ": 8994,
      "peuh": 8995,
      "້ວ": 8996,
      "tay": 8997,
      "ால்": 8998,
      "dingin": 8999,
      "ရဲ့": 9000,
      "னை": 9001,
      "mite": 9002,
      "Mi": 9003,
      "ประ": 9004,
      "လဵဝ်": 9005,
      "ອກ": 9006,
      "ဗၠ": 9007,
      "Ngài": 9008,
      "hal": 9009,
      "tikah": 9010,
      "ற்": 9011,
      "):": 9012,
      "អ្ន": 9013,
      "bag": 9014,
      "អ្នក": 9015,
      "ဒၞာဲ": 9016,
      "पा": 9017,
      "ကမၠောန်": 9018,
      "าง": 9019,
      "was": 9020,
      "ရောၚ်": 9021,
      "zi": 9022,
      "duh": 9023,
      "úa": 9024,
      "ဒေါ": 9025,
      "उन": 9026,
      "ယေ": 9027,
      "လောန်": 9028,
      "kami": 9029,
      "aman": 9030,
      "ท่าน": 9031,
      "າເວ": 9032,
      "TU": 9033,
      "प्र": 9034,
      "ꤟꤢꤩ": 9035,
      "သို့": 9036,
      "Panginuun": 9037,
      "Madu": 9038,
      "HAN": 9039,
      "मैं": 9040,
      "TUHAN": 9041,
      "ဍိုက်": 9042,
      "gay": 9043,
      "ပၞာန်": 9044,
      "with": 9045,
      "ဝန်": 9046,
      "ran": 9047,
      "बा": 9048,
      "Ab": 9049,
      "myit": 9050,
      "va": 9051,
      "သၚ်": 9052,
      "inda": 9053,
      "यहो": 9054,
      "த்": 9055,
      "sama": 9056,
      "aha": 9057,
      "miwah": 9058,
      "ức": 9059,
      "အီၣ်": 9060,
      "ເຊ": 9061,
      "ແຕ": 9062,
      "ิส": 9063,
      "ယဝ်": 9064,
      "sian": 9065,
      "ကွံာ်": 9066,
      "ၶိူ": 9067,
      "ipun": 9068,
      "ကၱာ်": 9069,
      "လီု": 9070,
      "dane": 9071,
      "ation": 9072,
      "Th": 9073,
      "្ដ": 9074,
      "not": 9075,
      "Panginoon": 9076,
      "ượ": 9077,
      "ึ่ง": 9078,
      "wat": 9079,
      "꤫ꤢꤦ꤬": 9080,
      "telah": 9081,
      "စ္စ": 9082,
      "ங்க": 9083,
      "hnen": 9084,
      "dapat": 9085,
      "พระเจ้า": 9086,
      "အသး": 9087,
      "manh": 9088,
      "sia": 9089,
      "யெ": 9090,
      "ဂပ်ဝ်": 9091,
      "ၵွ": 9092,
      "ဂိတု": 9093,
      "သဘ": 9094,
      "đã": 9095,
      "In": 9096,
      "ướ": 9097,
      "ັກ": 9098,
      "သ္ဂး": 9099,
      "री": 9100,
      "meny": 9101,
      "ခီ": 9102,
      "था": 9103,
      "耶和华": 9104,
      "你們": 9105,
      "sem": 9106,
      "ဗု": 9107,
      "꤫ꤢꤩ꤬": 9108,
      "ဝၩ": 9109,
      "ชา": 9110,
      "หมู่": 9111,
      "ချက်": 9112,
      "ud": 9113,
      "้อง": 9114,
      "ီၪ့": 9115,
      "ார்": 9116,
      "ႁွ": 9117,
      "ကိုယ်": 9118,
      "ဖၧၩ့": 9119,
      "耶和華": 9120,
      "caah": 9121,
      "ker": 9122,
      "them": 9123,
      "အပူၤ": 9124,
      "ဂၠိုင်": 9125,
      "lei": 9126,
      "ူၣ်": 9127,
      "ပွတ်း": 9128,
      "ညံင်": 9129,
      "ဓရ်": 9130,
      "they": 9131,
      "awh": 9132,
      "စပ်": 9133,
      "त्र": 9134,
      "นี้": 9135,
      "கொ": 9136,
      "สิ": 9137,
      "ပဲ": 9138,
      "ada": 9139,
      "Kami": 9140,
      "ၵျ": 9141,
      "วย": 9142,
      "အခိင်": 9143,
      "ပန်": 9144,
      "ைகள": 9145,
      "lih": 9146,
      "မျိုး": 9147,
      "pahrang": 9148,
      "angpahrang": 9149,
      "इस": 9150,
      "ເອ": 9151,
      "semu": 9152,
      "Chúa": 9153,
      "go": 9154,
      "Mo": 9155,
      "ken": 9156,
      "ပၟ": 9157,
      "ຶ່ງ": 9158,
      "Pang": 9159,
      "sen": 9160,
      "အကျ": 9161,
      "အရ": 9162,
      "diri": 9163,
      "ine": 9164,
      "กล": 9165,
      "ຢາເວ": 9166,
      "ခွံ": 9167,
      "arai": 9168,
      "za": 9169,
      "geus": 9170,
      "Ba": 9171,
      "यहोवा": 9172,
      "รร": 9173,
      "sun": 9174,
      "chúng": 9175,
      "RD": 9176,
      "Diyus": 9177,
      "ết": 9178,
      "LO": 9179,
      "ကလေ": 9180,
      "ဘၣ်တၢ်": 9181,
      "ကော်": 9182,
      "ွန်": 9183,
      "யெகோ": 9184,
      "đi": 9185,
      "ấy": 9186,
      "အခိၚ်": 9187,
      "အဃ": 9188,
      "jan": 9189,
      "ทำ": 9190,
      "Raja": 9191,
      "sih": 9192,
      "लिय": 9193,
      "mai": 9194,
      "ແລ້ວ": 9195,
      "jang": 9196,
      "lalu": 9197,
      "လီၢ်": 9198,
      "န့": 9199,
      "uan": 9200,
      "ောင့်": 9201,
      "kur": 9202,
      "ဘူး": 9203,
      "eran": 9204,
      "တိုက်": 9205,
      "န္တ": 9206,
      "mes": 9207,
      "CH": 9208,
      "rum": 9209,
      "meton": 9210,
      "เส": 9211,
      "க்கும்": 9212,
      "ral": 9213,
      "လာန်": 9214,
      "aneh": 9215,
      "bia": 9216,
      "LORD": 9217,
      "fe": 9218,
      "Jo": 9219,
      "ꤗꤢꤩ꤬": 9220,
      "ပြင်": 9221,
      "ၸိုင်ႈတႆး": 9222,
      "tam": 9223,
      "ling": 9224,
      "ယၫ": 9225,
      "ဂ့ၤ": 9226,
      "ၸိူဝ်းၼႆႉ": 9227,
      "ÚA": 9228,
      "CHÚA": 9229,
      "ꤢꤨ꤬": 9230,
      "sampun": 9231,
      "ဟဲ": 9232,
      "ခရ": 9233,
      "ဆောင်": 9234,
      "่าง": 9235,
      "လိုက်": 9236,
      "अपने": 9237,
      "တ့ၢ်": 9238,
      "iyong": 9239,
      "သၞာ": 9240,
      "ဒုင်": 9241,
      "ၧၩ": 9242,
      "ꤛꤢꤩ꤬": 9243,
      "bat": 9244,
      "၁၃": 9245,
      "18": 9246,
      "လၢႆး": 9247,
      "ning": 9248,
      "อา": 9249,
      "jal": 9250,
      "श्": 9251,
      "ႁိူ": 9252,
      "kanda": 9253,
      "ငါ": 9254,
      "ரி": 9255,
      "စီာ်": 9256,
      "ất": 9257,
      "အိ": 9258,
      "နှစ်": 9259,
      "யெகோவா": 9260,
      "တူဝ်": 9261,
      "ဗၟာ": 9262,
      "dam": 9263,
      "तुम": 9264,
      "တက့ၢ်": 9265,
      "ால": 9266,
      "န့ၢ်": 9267,
      "မနွံ": 9268,
      "beri": 9269,
      "lal": 9270,
      "ິງ": 9271,
      "Ju": 9272,
      "တအ်ဂှ်": 9273,
      "tum": 9274,
      ")၊": 9275,
      "ရုပ်": 9276,
      "பு": 9277,
      "bai": 9278,
      "့ၭ": 9279,
      "lakar": 9280,
      "Nya": 9281,
      "စဲာ်": 9282,
      "ၶိုၼ်း": 9283,
      "ார்கள்": 9284,
      "khem": 9285,
      "rin": 9286,
      "puniki": 9287,
      "စွံ": 9288,
      "ทั้ง": 9289,
      "ap": 9290,
      "ris": 9291,
      "လႅ": 9292,
      "pakhat": 9293,
      "SS": 9294,
      "ကဲၤ": 9295,
      "!”": 9296,
      "Sau": 9297,
      "by": 9298,
      "ilang": 9299,
      "ແຕ່": 9300,
      "ဆံ": 9301,
      "trong": 9302,
      "tungah": 9303,
      "้าน": 9304,
      "cung": 9305,
      "Cun": 9306,
      "နံၤ": 9307,
      "awm": 9308,
      "ခိၣ်": 9309,
      "ကီၢ်": 9310,
      "ယဟိဝၩ": 9311,
      "ທັງ": 9312,
      "ပ္ဍဲကဵု": 9313,
      "ới": 9314,
      "က္ဍ": 9315,
      "ako": 9316,
      "amau": 9317,
      "သ္ၚိ": 9318,
      "ົດ": 9319,
      "ဳး": 9320,
      "ထီ": 9321,
      "ရာဇ်": 9322,
      "fi": 9323,
      "တေႃႇ": 9324,
      "ခွံၬ": 9325,
      "បាន": 9326,
      "teng": 9327,
      "semeton": 9328,
      "ပိုန်": 9329,
      "दा": 9330,
      "အရေဝ်": 9331,
      "ယို": 9332,
      "sir": 9333,
      "လုၢ်": 9334,
      "சு": 9335,
      "ົ່ງ": 9336,
      "ột": 9337,
      "niku": 9338,
      "lin": 9339,
      "ကောံ": 9340,
      "ោះ": 9341,
      "Pangeran": 9342,
      "ဒုၚ်": 9343,
      "hnak": 9344,
      "ဓဝ်": 9345,
      "una": 9346,
      "ாய": 9347,
      "்கு": 9348,
      "சொ": 9349,
      "ການ": 9350,
      "ယွံခမဳ": 9351,
      "hiam": 9352,
      "ັ່ງ": 9353,
      "သွား": 9354,
      "eun": 9355,
      "້ອງ": 9356,
      "ses": 9357,
      "ၼႃႈ": 9358,
      "ချူ": 9359,
      "ညံၚ်": 9360,
      "ၢၤ": 9361,
      "ဟိုတ်နူ": 9362,
      "ကၠေံ": 9363,
      "but": 9364,
      "Be": 9365,
      "भी": 9366,
      "tal": 9367,
      "မံၤ": 9368,
      "ဒိၣ်": 9369,
      "awk": 9370,
      "raris": 9371,
      "berkata": 9372,
      "လူင်ပွင်": 9373,
      "ဂေတ်": 9374,
      "的人": 9375,
      "ပႃႇ": 9376,
      "nam": 9377,
      "luh": 9378,
      "bun": 9379,
      "ဖို့": 9380,
      "ูก": 9381,
      "ory": 9382,
      "ើយ": 9383,
      "hmuah": 9384,
      "Ulun": 9385,
      "พระผู้": 9386,
      "သမ်ႉ": 9387,
      "bangin": 9388,
      "ကျာ်ဇၞော်": 9389,
      "ကောင်း": 9390,
      "pra": 9391,
      "່າງ": 9392,
      "वि": 9393,
      "ကလိဂွံ": 9394,
      "မုက်": 9395,
      "yen": 9396,
      "အဆၧ": 9397,
      "ဒးအာပတ်": 9398,
      "kut": 9399,
      "တပ်ႉ": 9400,
      "hanggan": 9401,
      "one": 9402,
      "တွေကို": 9403,
      "चा": 9404,
      "လူင်ပွင်ၸိုင်ႈ": 9405,
      "你的": 9406,
      "tawu": 9407,
      "ကၟ": 9408,
      "ເຮັດ": 9409,
      "ပ်ႈ": 9410,
      "biak": 9411,
      "ပွိုင်": 9412,
      "ꤟꤣꤧ": 9413,
      "ິ່ນ": 9414,
      "sudah": 9415,
      "ꤠꤢꤧ꤭": 9416,
      "အဂီၢ်": 9417,
      "မဟ": 9418,
      "န္ဒ": 9419,
      "ững": 9420,
      "ாகிய": 9421,
      "aya": 9422,
      "ວຍ": 9423,
      "ກະ": 9424,
      "dalam": 9425,
      "nó": 9426,
      "ယူႇတီႈ": 9427,
      "ႁိူၼ်း": 9428,
      "အတွက်": 9429,
      "ကျမ်း": 9430,
      "ày": 9431,
      "khempeuh": 9432,
      "ငံ": 9433,
      "như": 9434,
      "ဂၠိုၚ်": 9435,
      "ောဲ": 9436,
      "我的": 9437,
      "ၼမ်": 9438,
      "nanhte": 9439,
      "vid": 9440,
      "ိုလ်": 9441,
      "ထႅင်ႈ": 9442,
      "ခိၪ": 9443,
      "ယက": 9444,
      "đến": 9445,
      "वे": 9446,
      "ாம": 9447,
      "พเจ้า": 9448,
      "เป็นเจ้า": 9449,
      "พระผู้เป็นเจ้า": 9450,
      "can": 9451,
      "စဵု": 9452,
      "နိုင်ငံ": 9453,
      "sila": 9454,
      "mas": 9455,
      "ட்டு": 9456,
      "hih": 9457,
      "கள": 9458,
      "ນ້ອຍ": 9459,
      "စိတ်": 9460,
      "တုပ်": 9461,
      "ခိုဟ်": 9462,
      "ထဲၩ့": 9463,
      "ဗော်": 9464,
      "teu": 9465,
      "အ့ၬ": 9466,
      "pay": 9467,
      "လူၬ": 9468,
      "တ္တ": 9469,
      "ဟေၚ်": 9470,
      "लिये": 9471,
      "အဝ့ၫၥံၪ": 9472,
      "வன": 9473,
      "ကိုပ်": 9474,
      "တီႇ": 9475,
      "ထွ": 9476,
      "ဂရ": 9477,
      "Pasian": 9478,
      "ာတ်": 9479,
      "ບັນ": 9480,
      "ติ": 9481,
      "ဂတ": 9482,
      "အသ": 9483,
      "họ": 9484,
      "သၟဝ်": 9485,
      "ước": 9486,
      "ahan": 9487,
      "perti": 9488,
      "ข้าพเจ้า": 9489,
      "மே": 9490,
      "hing": 9491,
      "ထဝ်": 9492,
      "Israi": 9493,
      "ညီ": 9494,
      "အဂဲး": 9495,
      "sal": 9496,
      "பெ": 9497,
      "David": 9498,
      "အခေါ": 9499,
      "ေဝ်": 9500,
      "အခါ": 9501,
      "လၢႆ": 9502,
      "क्": 9503,
      "မၞုံပိုဉ်": 9504,
      "thil": 9505,
      "ပရူ": 9506,
      "ເລ": 9507,
      "yak": 9508,
      "ꤜꤢꤪ": 9509,
      "तब": 9510,
      "ដែ": 9511,
      "ၶွ": 9512,
      "ယွံခမဳတအ်": 9513,
      "ပၤ": 9514,
      "ထႆး": 9515,
      "10": 9516,
      "တော့": 9517,
      "ູກ": 9518,
      "ခေတ်": 9519,
      "ရပ်": 9520,
      "ကြောင်း": 9521,
      "menjadi": 9522,
      "လၤ": 9523,
      "Tr": 9524,
      "以色": 9525,
      "ược": 9526,
      "以色列": 9527,
      "तो": 9528,
      "ង្": 9529,
      "သဵ": 9530,
      "ကျာ": 9531,
      "ld": 9532,
      "ဟံ": 9533,
      "semua": 9534,
      "Pag": 9535,
      "ဝၤ": 9536,
      "ဢွၼ်": 9537,
      "သခင်": 9538,
      "ပြာ": 9539,
      "ိူဝ်": 9540,
      "ပွၵ်ႈ": 9541,
      "ều": 9542,
      "他的": 9543,
      "ရူ": 9544,
      "sat": 9545,
      "nei": 9546,
      "mara": 9547,
      "ใจ": 9548,
      "ahih": 9549,
      "သမ္တီ": 9550,
      "ย์": 9551,
      "ႁူင်း": 9552,
      "ဗၞ": 9553,
      "kit": 9554,
      "op": 9555,
      "အဃိ": 9556,
      "ညါ": 9557,
      "siangpahrang": 9558,
      "Kas": 9559,
      "ဘျ": 9560,
      "ဒ္ဓ": 9561,
      "နူကဵု": 9562,
      "hand": 9563,
      "တိုၵ်း": 9564,
      "bur": 9565,
      "pam": 9566,
      "được": 9567,
      "္စာ": 9568,
      "amyu": 9569,
      "ဂဲ": 9570,
      "hindi": 9571,
      "her": 9572,
      "าห์": 9573,
      "ဝ့ၢ်": 9574,
      "သၞောတ်": 9575,
      "ဘဲာ်": 9576,
      "một": 9577,
      "rig": 9578,
      "အဖၧၩ့": 9579,
      "စွ": 9580,
      "ល់": 9581,
      "ခွါ": 9582,
      "ဟွံသေင်": 9583,
      "dahil": 9584,
      "ဂလာန်": 9585,
      "ၡၩ": 9586,
      "ဗဒှ်": 9587,
      "ဒတဴ": 9588,
      "pas": 9589,
      "ညးမ": 9590,
      "ထောင်": 9591,
      "làm": 9592,
      "เก": 9593,
      "စရ့": 9594,
      "ខ្": 9595,
      "ꤗꤢ꤬": 9596,
      "ပြန်": 9597,
      "အဓိက": 9598,
      "อบ": 9599,
      "Mu": 9600,
      "ၵု": 9601,
      "တေံ": 9602,
      "fapa": 9603,
      "ၸဵ": 9604,
      "Yo": 9605,
      "sungah": 9606,
      "အ္စာ": 9607,
      "नी": 9608,
      "ဏံ": 9609,
      "kanyu": 9610,
      "cam": 9611,
      "ဂ့ၩ": 9612,
      "hai": 9613,
      "यह": 9614,
      "tus": 9615,
      "வர": 9616,
      "ွင်ႉ": 9617,
      "với": 9618,
      "ဆု": 9619,
      "္ဌ": 9620,
      "ัส": 9621,
      "လဂၩ": 9622,
      "bak": 9623,
      "ကား": 9624,
      "dua": 9625,
      "bih": 9626,
      "ิต": 9627,
      "ဟတ်": 9628,
      "တၟိ": 9629,
      "ကီုရ": 9630,
      "galaw": 9631,
      "majaw": 9632,
      "हैं": 9633,
      "ကော": 9634,
      "kai": 9635,
      "shang": 9636,
      "ဂုဏ်": 9637,
      "ကံ": 9638,
      "whi": 9639,
      "kanilang": 9640,
      "nge": 9641,
      "ပလ": 9642,
      "ဂါ": 9643,
      "có": 9644,
      "tim": 9645,
      "နီး": 9646,
      "titiang": 9647,
      "ngươi": 9648,
      "21": 9649,
      "ຂ້ານ້ອຍ": 9650,
      "ther": 9651,
      "sel": 9652,
      "kanmu": 9653,
      "ၺ်": 9654,
      "वर": 9655,
      "ၶိူဝ်း": 9656,
      "ၢင်ႇ": 9657,
      "ꤢ꤬ꤋ": 9658,
      "ंग": 9659,
      "ကြောင့်": 9660,
      "ອາ": 9661,
      "ဟ့ၣ်": 9662,
      "wal": 9663,
      "ꤡꤢꤪ": 9664,
      "ัว": 9665,
      "theih": 9666,
      "ဂၠး": 9667,
      "ເພິ່ນ": 9668,
      "masa": 9669,
      "daw": 9670,
      "அத": 9671,
      "ဆှ": 9672,
      "unman": 9673,
      "ình": 9674,
      "mati": 9675,
      "wil": 9676,
      "ຊາ": 9677,
      "အၥိၭ": 9678,
      "လိူၼ်": 9679,
      "ိၼ်": 9680,
      "ကစၢ်ယွၤ": 9681,
      "jeun": 9682,
      "dun": 9683,
      "thum": 9684,
      "အုပ်": 9685,
      "အောင်": 9686,
      "ាំ": 9687,
      "မိက်": 9688,
      "လတူ": 9689,
      "ၶႅ": 9690,
      "anake": 9691,
      "เป๋น": 9692,
      "လ္ၚတ်": 9693,
      "hkam": 9694,
      "Re": 9695,
      "leng": 9696,
      "Myan": 9697,
      "Karai": 9698,
      "He": 9699,
      "umat": 9700,
      "ten": 9701,
      "Đức": 9702,
      "Myanmar": 9703,
      "tanah": 9704,
      "க்": 9705,
      "ूं": 9706,
      "เร": 9707,
      "လပါ်": 9708,
      "Kasang": 9709,
      "่ว": 9710,
      "တၢႆ": 9711,
      "แก": 9712,
      "lain": 9713,
      "ကတဵုဒှ်": 9714,
      "လုၵ်ႈ": 9715,
      "နၤ": 9716,
      "hnenah": 9717,
      "ຸກ": 9718,
      "ອບ": 9719,
      "ယႃ": 9720,
      "ிலே": 9721,
      "Dia": 9722,
      "ိတ်ႉ": 9723,
      "ống": 9724,
      "ngar": 9725,
      "ரா": 9726,
      "ꤊꤣꤧ꤬": 9727,
      "င့်": 9728,
      "ento": 9729,
      "fr": 9730,
      "son": 9731,
      "မယ်": 9732,
      "dar": 9733,
      "အင်": 9734,
      "ဝဳ": 9735,
      "ລາວ": 9736,
      "ngal": 9737,
      "ကြဴ": 9738,
      "gun": 9739,
      "လၢာ်": 9740,
      "ပါတယ်": 9741,
      "laku": 9742,
      "ုဲ": 9743,
      "những": 9744,
      "zo": 9745,
      "என்று": 9746,
      "လဲၤ": 9747,
      "ဒါန်": 9748,
      "मु": 9749,
      "အတိုင်": 9750,
      "seperti": 9751,
      "ண்டு": 9752,
      "မံၚ်": 9753,
      "ဋ္ဌ": 9754,
      "မို": 9755,
      "ဎွ": 9756,
      "သ်": 9757,
      "ைக்": 9758,
      "ရက်": 9759,
      "oleh": 9760,
      "ကအ်": 9761,
      "န့်": 9762,
      "ဆံၭ": 9763,
      "ဟွံမွဲ": 9764,
      "Am": 9765,
      "လါ": 9766,
      "ລູກ": 9767,
      "khal": 9768,
      "တံဂှ်": 9769,
      "ဘုရားသခင်": 9770,
      "saya": 9771,
      "အသိး": 9772,
      "ၵႃႈ": 9773,
      "သ္ဂ": 9774,
      "ကုခမဳ": 9775,
      "நான்": 9776,
      "စုတ်": 9777,
      "ဘဝ": 9778,
      "लो": 9779,
      "thy": 9780,
      "မတ": 9781,
      "လၢ်": 9782,
      "ပႃႇတီႇ": 9783,
      "kung": 9784,
      "หื้อ": 9785,
      "လွှ": 9786,
      "thou": 9787,
      "သၟဟ်": 9788,
      "พวกเขา": 9789,
      "ສັດ": 9790,
      "ၢၣ်": 9791,
      "அவர்கள": 9792,
      "เฮ": 9793,
      "ateg": 9794,
      "ဒီးတၢ်": 9795,
      "ပၢႆႈ": 9796,
      "ຈົ່ງ": 9797,
      "ႁၢ": 9798,
      "အဝ": 9799,
      "ေဒ": 9800,
      "ၢၢ်": 9801,
      "vua": 9802,
      "ꤟꤢꤨ": 9803,
      "การ": 9804,
      "ဂီၢ်": 9805,
      "पु": 9806,
      "्यों": 9807,
      "reng": 9808,
      "nngai": 9809,
      "ven": 9810,
      "ôn": 9811,
      "ၼႄ": 9812,
      "bali": 9813,
      "ၥ့ၪ": 9814,
      "လဲၣ်": 9815,
      "Sh": 9816,
      "ယွၩ": 9817,
      "ເວ": 9818,
      "လူင်း": 9819,
      "alte": 9820,
      "ຸດ": 9821,
      "ကဝ်": 9822,
      "mak": 9823,
      "နယ်": 9824,
      "ၶၢဝ်း": 9825,
      "：「": 9826,
      "paya": 9827,
      "အလဵု": 9828,
      "အ့ၪ": 9829,
      "नि": 9830,
      "ແມ": 9831,
      "ပႃး": 9832,
      "လၧၦ": 9833,
      "gih": 9834,
      "ດາ": 9835,
      "รับ": 9836,
      "ṭhe": 9837,
      "Times": 9838,
      "ပ္ပ": 9839,
      "king": 9840,
      "ဥပမာ": 9841,
      "mer": 9842,
      "sur": 9843,
      "kasa": 9844,
      "ប់": 9845,
      "ben": 9846,
      "pt": 9847,
      "ၸတ်း": 9848,
      "kali": 9849,
      "သိုၵ်းမၢၼ်ႈ": 9850,
      "ဘဲၫယီၩ": 9851,
      "ze": 9852,
      "ၵဵ": 9853,
      "တဳလမၞုံပိုဉ်": 9854,
      "တွၼ်ႈ": 9855,
      "van": 9856,
      "amaute": 9857,
      "အဆ": 9858,
      "ꤊ꤫ꤢꤦ꤬": 9859,
      "ခါ": 9860,
      "என்ற": 9861,
      "Dau": 9862,
      "guh": 9863,
      "உன்": 9864,
      "ꤝꤢ": 9865,
      "fa": 9866,
      "indi": 9867,
      "niyu": 9868,
      "sana": 9869,
      "ပွိုင်ဍုင်": 9870,
      "day": 9871,
      "ယုက်": 9872,
      "त्": 9873,
      "မပ": 9874,
      "ົກ": 9875,
      "ற்ற": 9876,
      "အစာ": 9877,
      "panin": 9878,
      "மாக": 9879,
      "ောအ်": 9880,
      "chim": 9881,
      "စကာ": 9882,
      "ဗက်": 9883,
      "mare": 9884,
      "அப்ப": 9885,
      "she": 9886,
      "which": 9887,
      "tua": 9888,
      "்த்த": 9889,
      "꤫ꤢꤧ꤬": 9890,
      "ុំ": 9891,
      "ဝံ": 9892,
      "उसके": 9893,
      "ဆဵု": 9894,
      "”.": 9895,
      "រប": 9896,
      "tapi": 9897,
      "dih": 9898,
      "ord": 9899,
      "တက်": 9900,
      "ကိး": 9901,
      "ပ္တန်": 9902,
      "ໃດ": 9903,
      "စက်": 9904,
      "သ္ဒး": 9905,
      "gum": 9906,
      "ꤒꤥ꤬": 9907,
      "antuk": 9908,
      "Daud": 9909,
      "လုံး": 9910,
      "နာနာ": 9911,
      "atur": 9912,
      "Mereka": 9913,
      "हीं": 9914,
      "ဝ့ၫဒၪ": 9915,
      "பி": 9916,
      "လၭ": 9917,
      "ဗျ": 9918,
      "ယော": 9919,
      "တင်ႈ": 9920,
      "Eli": 9921,
      "သၟတ်": 9922,
      "Pe": 9923,
      "Shi": 9924,
      "chu": 9925,
      "जि": 9926,
      "သည့်": 9927,
      "ကျွန်": 9928,
      "မၱာ်": 9929,
      "တၢင်းပဵၼ်": 9930,
      "ियों": 9931,
      "rat": 9932,
      "ကတ်": 9933,
      "nye": 9934,
      "မၢႆ": 9935,
      "ម្": 9936,
      "ဖန်": 9937,
      "ထို": 9938,
      "rim": 9939,
      "ກ່": 9940,
      "ၼၢင်း": 9941,
      "ဂကူမန်": 9942,
      "ၺႃး": 9943,
      "bil": 9944,
      "Israe": 9945,
      "အန": 9946,
      "လၧယ": 9947,
      "kala": 9948,
      "nyane": 9949,
      "ၵမ်း": 9950,
      "De": 9951,
      "เมื่อ": 9952,
      "Jerusalem": 9953,
      "ရီု": 9954,
      "စှ်": 9955,
      "ၵူၼ်းဝၢၼ်ႈ": 9956,
      "ति": 9957,
      "kong": 9958,
      "Yerusalem": 9959,
      "្នា": 9960,
      "isang": 9961,
      "အချ": 9962,
      "ဒ္ဂေတ်": 9963,
      "kiangah": 9964,
      "ว้": 9965,
      "အမ": 9966,
      "तू": 9967,
      "ahcun": 9968,
      "ကူ": 9969,
      "ုက်": 9970,
      "ải": 9971,
      "າະ": 9972,
      "ာန": 9973,
      "ly": 9974,
      "ဆီ": 9975,
      "ஒரு": 9976,
      "လၟုဟ်": 9977,
      "dian": 9978,
      "juga": 9979,
      "တွႆႇ": 9980,
      "ဆၣ်": 9981,
      "dom": 9982,
      "ຊາຍ": 9983,
      "ꤙꤢꤩ꤬": 9984,
      "hkaw": 9985,
      "ငိုၼ်း": 9986,
      "ၵူႈ": 9987,
      "自己": 9988,
      "အၫ": 9989,
      "ၜိုတ်": 9990,
      "Israil": 9991,
      "Dios": 9992,
      "sinabi": 9993,
      "ဆါ": 9994,
      "ot": 9995,
      "12": 9996,
      "ꤛꤢꤩ꤬ꤞꤤ꤭": 9997,
      "ဏီ": 9998,
      "நா": 9999,
      "awin": 10000,
      "bung": 10001,
      "ဍိက်": 10002,
      "လျှ": 10003,
      "द्": 10004,
      "နီ": 10005,
      "ती": 10006,
      "ယွၼ်ႉ": 10007,
      "၁၀": 10008,
      "there": 10009,
      "របស់": 10010,
      "from": 10011,
      "เห": 10012,
      "Teta": 10013,
      "vialte": 10014,
      "เด": 10015,
      "Tetapi": 10016,
      "ไว้": 10017,
      "hpa": 10018,
      "သီႇ": 10019,
      "னி": 10020,
      "ຕໍ່": 10021,
      "မည": 10022,
      "saking": 10023,
      "တှ်ေ": 10024,
      "่อง": 10025,
      "ành": 10026,
      "कहा": 10027,
      "एक": 10028,
      "ໄວ": 10029,
      "tat": 10030,
      "sabi": 10031,
      "ၸိူဝ်ႉ": 10032,
      "ហើយ": 10033,
      "श्वर": 10034,
      "စှ်ေ": 10035,
      "နဲကဲ": 10036,
      "သႅ": 10037,
      "dosa": 10038,
      "ိုဝ်": 10039,
      "သ့": 10040,
      "သနာ": 10041,
      "ꤤ꤭": 10042,
      "unan": 10043,
      "த்தில்": 10044,
      "ထာ": 10045,
      "Categ": 10046,
      "Saul": 10047,
      "ဓမ္မ": 10048,
      "ကလ": 10049,
      "မပ္": 10050,
      "jaga": 10051,
      "ႁွၵ်ႈ": 10052,
      "mam": 10053,
      "tos": 10054,
      "Ama": 10055,
      "kitu": 10056,
      "တိုင်း": 10057,
      "သက္က": 10058,
      "လိၼ်": 10059,
      "िर": 10060,
      "khu": 10061,
      "nida": 10062,
      "เอล": 10063,
      "တမ်": 10064,
      "မံၩ့": 10065,
      "let": 10066,
      "ដែល": 10067,
      "Judah": 10068,
      "dung": 10069,
      "anya": 10070,
      "shal": 10071,
      "tempat": 10072,
      "ၽူႈတွႆႇ": 10073,
      "ၶူဝ်ႊ": 10074,
      "ண்": 10075,
      "ꤛꤢꤧ꤭": 10076,
      "ili": 10077,
      "க்கொ": 10078,
      "nun": 10079,
      "ဂ္ဂ": 10080,
      "sali": 10081,
      "လီၩ့": 10082,
      "ពួ": 10083,
      "ពួក": 10084,
      "မၢၵ်ႇ": 10085,
      "lahat": 10086,
      "सब": 10087,
      "ဆုံး": 10088,
      "datang": 10089,
      "Category": 10090,
      "gang": 10091,
      "ပိုၼ်ႉ": 10092,
      "Kh": 10093,
      "sawm": 10094,
      "လၧန": 10095,
      "ង្គ": 10096,
      "ီႈ": 10097,
      "peng": 10098,
      "เช": 10099,
      "ุก": 10100,
      "ံၪ့": 10101,
      "上帝": 10102,
      "ဒုၭ": 10103,
      "ရဳ": 10104,
      "မ္ဂးဂှ်": 10105,
      "God": 10106,
      "တွဵု": 10107,
      "ႁဵၼ်း": 10108,
      "ၶို": 10109,
      "Yu": 10110,
      "tion": 10111,
      "kadi": 10112,
      "ထီးအ": 10113,
      "deui": 10114,
      "செய்த": 10115,
      "Hu": 10116,
      "ต้าน": 10117,
      "nung": 10118,
      "ွဲ့": 10119,
      "So": 10120,
      "क्यों": 10121,
      "sual": 10122,
      "ပၠၤ": 10123,
      "မူတ်း": 10124,
      "àn": 10125,
      "ប្រ": 10126,
      "ၽွင်း": 10127,
      "ស្": 10128,
      "ကျမ်းစာ": 10129,
      "மக": 10130,
      "သၟိင်": 10131,
      "hpang": 10132,
      "ထာ်": 10133,
      "ဢိူ": 10134,
      "ဖအိုတ်": 10135,
      "တောန်": 10136,
      "មាន": 10137,
      "ṭha": 10138,
      "said": 10139,
      "ດ້ວຍ": 10140,
      "ဒုး": 10141,
      "ền": 10142,
      "Trời": 10143,
      "have": 10144,
      "ၽူႈတွႆႇႁွၵ်ႈ": 10145,
      "ຳລ": 10146,
      "တ္တိ": 10147,
      "လၢတ်ႈတီႈ": 10148,
      "ဇိုင်": 10149,
      "their": 10150,
      "บา": 10151,
      "မဲၤ": 10152,
      "ꤊꤣꤧ꤬ꤛꤢꤧ꤭": 10153,
      "မရ": 10154,
      "အီၪက": 10155,
      "supaya": 10156,
      "Su": 10157,
      "bas": 10158,
      "raw": 10159,
      "சி": 10160,
      "တဳလမၞုံပိုဉ်ကျာ်တြဲ": 10161,
      "Per": 10162,
      "จง": 10163,
      "ப்போ": 10164,
      "say": 10165,
      "ãy": 10166,
      "ขึ": 10167,
      ",’": 10168,
      "ขึ้น": 10169,
      "bawa": 10170,
      "လွှတ်": 10171,
      "ႁူႉ": 10172,
      "သာ်ဝွံ": 10173,
      "ၶမ်း": 10174,
      "dân": 10175,
      "្យ": 10176,
      "ကြား": 10177,
      "ထေက်": 10178,
      "kawu": 10179,
      "စၟတ်သမ္တီ": 10180,
      "ây": 10181,
      "ခွၫ": 10182,
      "ໄວ້": 10183,
      "baw": 10184,
      "tanan": 10185,
      "anan": 10186,
      "ပေၚ်": 10187,
      "ဋ်": 10188,
      "ပရာ": 10189,
      "ดา": 10190,
      "tai": 10191,
      "Ne": 10192,
      "ndai": 10193,
      "ၵဵင်း": 10194,
      "ၽၢ": 10195,
      "nimu": 10196,
      "ຕາມ": 10197,
      "လဵု": 10198,
      "နဳ": 10199,
      "່ວ": 10200,
      "langai": 10201,
      "တိူ": 10202,
      "aa": 10203,
      "buh": 10204,
      "ကဴ": 10205,
      "seorang": 10206,
      "ယေန်": 10207,
      "ဗုဒ္ဓ": 10208,
      "வன்": 10209,
      "pina": 10210,
      "我们": 10211,
      "cen": 10212,
      "စာ်": 10213,
      "will": 10214,
      "သာသနာ": 10215,
      "chy": 10216,
      "เหล": 10217,
      "gid": 10218,
      "လွဳ": 10219,
      "。」": 10220,
      "မဟာ": 10221,
      "บ่": 10222,
      "：“": 10223,
      "ல்லா": 10224,
      "daripada": 10225,
      "ၵႃး": 10226,
      "சே": 10227,
      "ရဲ": 10228,
      "ss": 10229,
      "மா": 10230,
      "mana": 10231,
      "꤫ꤥ꤬": 10232,
      "lagi": 10233,
      "pei": 10234,
      "ren": 10235,
      "ព្រះអ": 10236,
      "ek": 10237,
      "စီၤပၤ": 10238,
      "परमे": 10239,
      "។​": 10240,
      "परमेश्वर": 10241,
      "ເພາະ": 10242,
      "lakukan": 10243,
      "ꤜꤢꤨ꤭": 10244,
      "ဟွံသေင်မ္ဂး": 10245,
      "ារ": 10246,
      "ito": 10247,
      "ahu": 10248,
      "hun": 10249,
      "dup": 10250,
      "လဳ": 10251,
      "အဖိၪ": 10252,
      "ပႆႇ": 10253,
      "ꤒꤣ꤬ꤖꤚꤢꤩ꤬": 10254,
      "ேன்": 10255,
      "bakal": 10256,
      "ကယဲ": 10257,
      "ဒီၣ်": 10258,
      "नहीं": 10259,
      "pad": 10260,
      "uli": 10261,
      "hmuh": 10262,
      "ราะ": 10263,
      "ၸေ": 10264,
      "នៅ": 10265,
      "phun": 10266,
      "စူ": 10267,
      "ຫລາຍ": 10268,
      "ပွဲၤ": 10269,
      "sinah": 10270,
      "Jes": 10271,
      "ႁိုဝ်": 10272,
      "cih": 10273,
      "ໂລ": 10274,
      "လိူဝ်": 10275,
      "ၽေး": 10276,
      "teken": 10277,
      "မာန်ရ": 10278,
      "ကာယ": 10279,
      "Eng": 10280,
      "တြုံ": 10281,
      "ဒြပ်": 10282,
      "வெ": 10283,
      "த்தை": 10284,
      "องค์พระผู้เป็นเจ้า": 10285,
      "ொழு": 10286,
      "บุ": 10287,
      "မဟုတ်": 10288,
      "ၼု": 10289,
      "สั": 10290,
      "ຮັບ": 10291,
      "နွံကဵု": 10292,
      "ထတ်း": 10293,
      "မၞး": 10294,
      "ໃຈ": 10295,
      "ဝိတ်ႉ": 10296,
      "tawn": 10297,
      "လၢတ်ႈဝႃႈ": 10298,
      "out": 10299,
      "wan": 10300,
      "thee": 10301,
      "piak": 10302,
      "diman": 10303,
      "ပိုတ်": 10304,
      "ꤢꤪ꤬": 10305,
      "wenten": 10306,
      "ဆ့": 10307,
      "တုမ်": 10308,
      "เพราะ": 10309,
      "ပိုၼ်": 10310,
      "ခဲလၢာ်": 10311,
      "Pra": 10312,
      "puan": 10313,
      "လ့ၩ": 10314,
      "Ia": 10315,
      "ၸွႆႈ": 10316,
      "ပဒတဴ": 10317,
      "Nh": 10318,
      "intah": 10319,
      "ຖື": 10320,
      "கு": 10321,
      "ด้วย": 10322,
      "ဝေ": 10323,
      "我們": 10324,
      "နီၪလီၫ": 10325,
      "ဗ္ဗ": 10326,
      "ຈຶ່ງ": 10327,
      "खा": 10328,
      "တုန်": 10329,
      "ဌာန်": 10330,
      "ero": 10331,
      "ၵျွ": 10332,
      "တဳလပိုဉ်": 10333,
      "ယ့ၣ်": 10334,
      "ဂဲၫ": 10335,
      "သုန်": 10336,
      "sami": 10337,
      "ຄື": 10338,
      "ပ္ဍဲအခိၚ်": 10339,
      "ດັ່ງ": 10340,
      "သန": 10341,
      "မ္ၚ": 10342,
      "အထ": 10343,
      "သူ့": 10344,
      "harus": 10345,
      "yawng": 10346,
      "ချဲ": 10347,
      "၀၀": 10348,
      "နး": 10349,
      "ເຢ": 10350,
      "နီၢ်": 10351,
      "ꤖꤢꤨ": 10352,
      "மக்க": 10353,
      "โล": 10354,
      "lh": 10355,
      "ສິ່ງ": 10356,
      "loin": 10357,
      "နောက်": 10358,
      "ဖြင့်": 10359,
      "บั": 10360,
      "မိူင်းတႆး": 10361,
      "ဆၢ": 10362,
      "ဗော": 10363,
      "ப்பட்ட": 10364,
      "အကြာ": 10365,
      "อน": 10366,
      "ဗေဒ": 10367,
      "सी": 10368,
      "ၢၼ်း": 10369,
      "ႄး": 10370,
      "hada": 10371,
      "Mag": 10372,
      "ົ່າ": 10373,
      "သၟာန်": 10374,
      "hati": 10375,
      "တရား": 10376,
      "ပင်": 10377,
      "dum": 10378,
      "ꤚꤢꤧ꤬": 10379,
      "मि": 10380,
      "ាំង": 10381,
      "hampay": 10382,
      "सु": 10383,
      "မြို့": 10384,
      "เฮา": 10385,
      "ဌာန": 10386,
      "waya": 10387,
      "gala": 10388,
      "atay": 10389,
      "Musa": 10390,
      "້ງ": 10391,
      "ເພື່ອ": 10392,
      "hangin": 10393,
      "တႃႈ": 10394,
      "Sam": 10395,
      "ុង": 10396,
      "Bi": 10397,
      "ဇ္": 10398,
      "தன்": 10399,
      "တော်မူ": 10400,
      "ခၞ": 10401,
      "ပိုဒ်": 10402,
      "cả": 10403,
      "ၶူဝ်ႊဝိတ်ႉ": 10404,
      "ဢိူင်ႇ": 10405,
      "inyo": 10406,
      "အဲဒီ": 10407,
      ".’": 10408,
      "ihan": 10409,
      "bagi": 10410,
      "சொல்ல": 10411,
      "ကဳ": 10412,
      "ပါဲ": 10413,
      "ဖော်": 10414,
      "ၶၢဝ်ႇ": 10415,
      "ອອກ": 10416,
      "ื่อง": 10417,
      "မပ္တံ": 10418,
      "တုၤ": 10419,
      "mon": 10420,
      "ต่อ": 10421,
      "သူၣ်": 10422,
      "Jesuh": 10423,
      "để": 10424,
      "கா": 10425,
      "ເຄ": 10426,
      "ဟွံဂွံ": 10427,
      "ယေန်သၞာ": 10428,
      "mun": 10429,
      "ิง": 10430,
      "15": 10431,
      "டிய": 10432,
      "ႁႃ": 10433,
      "ခြာ": 10434,
      "alah": 10435,
      "ືອນ": 10436,
      "upang": 10437,
      "ເທ": 10438,
      "pung": 10439,
      "ဢေႃႈ": 10440,
      "ရောက်": 10441,
      "လိၤ": 10442,
      "หลาย": 10443,
      "ပြဲ": 10444,
      "จึง": 10445,
      "ွေ": 10446,
      "ဒပ်": 10447,
      "ယောက်": 10448,
      "စဴ": 10449,
      "Tu": 10450,
      "ພວກເຮົາ": 10451,
      "ซึ่ง": 10452,
      "akin": 10453,
      "suk": 10454,
      "ၶႄ": 10455,
      "ၽၢဝ်ႇ": 10456,
      "செய்": 10457,
      "ဂေါ": 10458,
      "tar": 10459,
      "அவன்": 10460,
      "အလး": 10461,
      "ဍုင်ကွာန်": 10462,
      "ꤗꤣꤧ꤬": 10463,
      "lawng": 10464,
      "ढ़": 10465,
      "thin": 10466,
      "အဂဲးဘဲၫယီၩ": 10467,
      "araw": 10468,
      "ือน": 10469,
      "ꤡꤢꤪꤗꤣꤧ꤬": 10470,
      "ꤡꤢꤪꤗꤣꤧ꤬ꤚꤢꤧ꤬": 10471,
      "ທຸກ": 10472,
      "fore": 10473,
      "dika": 10474,
      "2020": 10475,
      "ယူၭ": 10476,
      "အလုံ": 10477,
      "อย่าง": 10478,
      "nasa": 10479,
      "Moses": 10480,
      "ဓါ": 10481,
      "kaniya": 10482,
      "dingah": 10483,
      "ဟး": 10484,
      "သုင်": 10485,
      "ၼုမ်ႇ": 10486,
      "สิ่ง": 10487,
      "ဍာံ": 10488,
      "ဢူ": 10489,
      "သက္ကရာဇ်": 10490,
      "မူင်း": 10491,
      "အံာ်": 10492,
      "sy": 10493,
      "ဘၣ်ဆၣ်": 10494,
      "ဂှ်တုဲ": 10495,
      "က္ဍိုပ်": 10496,
      "ꤕꤢꤩ꤬": 10497,
      "လင်": 10498,
      "படி": 10499,
      "lại": 10500,
      "क्योंकि": 10501,
      "hmai": 10502,
      "ihsin": 10503,
      "ထောံ": 10504,
      "engkau": 10505,
      "war": 10506,
      "ាល់": 10507,
      "ொழுது": 10508,
      "ပိုၼ်ၽၢဝ်ႇ": 10509,
      "เข้า": 10510,
      "tawm": 10511,
      "tri": 10512,
      "ဂီၢ်မုၢ်": 10513,
      "ဒ္ဒ": 10514,
      "were": 10515,
      "ລະ": 10516,
      "ùng": 10517,
      "chị": 10518,
      "စောဲ": 10519,
      "ၚ်ပ": 10520,
      "່າວ": 10521,
      "அவர்கள்": 10522,
      "วัน": 10523,
      "உங்கள": 10524,
      "ពី": 10525,
      "hkrum": 10526,
      "ကတိ": 10527,
      "sapuniki": 10528,
      "hmun": 10529,
      "ແດ": 10530,
      "လား": 10531,
      "ၸိူင်ႉ": 10532,
      "ánh": 10533,
      "gy": 10534,
      "ၽူႈတွႆႇႁွၵ်ႈဝႃႈ": 10535,
      "uruh": 10536,
      "ஸ்": 10537,
      "တၞဟ်န": 10538,
      "ออก": 10539,
      "ty": 10540,
      "ဘယ်": 10541,
      "မှတ်": 10542,
      "ថា": 10543,
      "ရှင်": 10544,
      "ထႅမ်": 10545,
      "ႁွင်ႇ": 10546,
      "Amah": 10547,
      "သြန်": 10548,
      "ยัง": 10549,
      "မိူၼ်": 10550,
      "ดี": 10551,
      "ဟော": 10552,
      "แก่": 10553,
      "ida": 10554,
      "bantuk": 10555,
      "ဆာန်": 10556,
      "၁၂": 10557,
      "ႁၼ်": 10558,
      "ិត": 10559,
      "zawn": 10560,
      "लि": 10561,
      "ဂိုန်": 10562,
      "မ့်": 10563,
      "hku": 10564,
      "म्": 10565,
      "နည်း": 10566,
      "ũng": 10567,
      "ရာမည": 10568,
      "ம்ம": 10569,
      "mei": 10570,
      "သ္ၚာ": 10571,
      "ဢုပ်": 10572,
      "က္ခာ": 10573,
      "。”": 10574,
      "ພະ": 10575,
      "றி": 10576,
      "ဒက်ပ္တန်": 10577,
      "မွဲမွဲ": 10578,
      "ပုံ": 10579,
      "ဇန်": 10580,
      "ராஜ": 10581,
      "၂၀၂": 10582,
      "vì": 10583,
      "လညာတ်": 10584,
      "គ្នា": 10585,
      "Nu": 10586,
      "ဒ်သိး": 10587,
      "ဖက်": 10588,
      "ဂီၤ": 10589,
      "ိုတ်း": 10590,
      "လ့ၤ": 10591,
      "၁၈": 10592,
      "ruangah": 10593,
      "लोग": 10594,
      "teʼ": 10595,
      "အကြောင်း": 10596,
      "pur": 10597,
      "នោះ": 10598,
      "Ag": 10599,
      "ເຖ": 10600,
      "ပှၤဂီၢ်မုၢ်": 10601,
      "ungguh": 10602,
      "ကမ်": 10603,
      "ၱး": 10604,
      "ဒၤ": 10605,
      "မွၵ်ႈ": 10606,
      "कार": 10607,
      "gur": 10608,
      "mus": 10609,
      "သျ": 10610,
      "No": 10611,
      "ိမ်း": 10612,
      "သော်": 10613,
      "thing": 10614,
      "bagai": 10615,
      "ဝေါ": 10616,
      "ွေး": 10617,
      "ပၢႆး": 10618,
      "aki": 10619,
      "ိၤ": 10620,
      "့း": 10621,
      "လူႉ": 10622,
      "ເມື່ອ": 10623,
      "luar": 10624,
      "ເຫ": 10625,
      "வும்": 10626,
      "ဗၠး": 10627,
      "ပိုယ်": 10628,
      "ကွၢ်": 10629,
      "patut": 10630,
      "ခမဳဗြဴ": 10631,
      "hukum": 10632,
      "ຊີ": 10633,
      "ပၟိက်": 10634,
      "အခြ": 10635,
      "ဩဝ်": 10636,
      "bayan": 10637,
      "inyong": 10638,
      "ယိုဝ်း": 10639,
      "အာယုက်": 10640,
      "sau": 10641,
      "ខ្ញ": 10642,
      "ខ្ញុំ": 10643,
      "ညဳ": 10644,
      "ली": 10645,
      "tetapi": 10646,
      "Engkau": 10647,
      "เว": 10648,
      "လၟိဟ်": 10649,
      "အဂး": 10650,
      "ဗွဲမဂၠိုင်": 10651,
      "ிற்கு": 10652,
      "ထံၣ်": 10653,
      "ธิ": 10654,
      "ꤊꤢꤧ꤭": 10655,
      "ၚ်ရ": 10656,
      "ihu": 10657,
      "Ang": 10658,
      "ตาม": 10659,
      "တႅၼ်း": 10660,
      "ၵေႃႉၼိုင်ႈ": 10661,
      "ຶ້ນ": 10662,
      "သိုပ်ႇ": 10663,
      "ຂຶ້ນ": 10664,
      "ព្រះអង្គ": 10665,
      "េះ": 10666,
      "人的": 10667,
      "ແມ່ນ": 10668,
      "ummi": 10669,
      "ꤛꤢ꤭": 10670,
      "တိယ": 10671,
      "ၶိုၼ်ႈ": 10672,
      "ัตร": 10673,
      "မႄး": 10674,
      "kerana": 10675,
      "Pal": 10676,
      "သ္ဂးရ": 10677,
      "ອິດ": 10678,
      "nenten": 10679,
      "ဢုပ်ႇ": 10680,
      "Ratu": 10681,
      "ື່ອງ": 10682,
      "ထီးအလူၬ": 10683,
      "ဒေဝ": 10684,
      "တေအ်": 10685,
      "len": 10686,
      "shangun": 10687,
      "Ki": 10688,
      "bel": 10689,
      "လေပ်": 10690,
      "வர்கள": 10691,
      "ၥု": 10692,
      "11": 10693,
      "သတိ": 10694,
      "หน้า": 10695,
      "CSS": 10696,
      "ok": 10697,
      "ကၠံ": 10698,
      "လမ်း": 10699,
      "ၶၢႆ": 10700,
      "ၵိၼ်": 10701,
      "ဘဲၫၥိၭ": 10702,
      "ahnak": 10703,
      "တူၵ်း": 10704,
      "ပၢင်တိုၵ်း": 10705,
      "လိူၵ်ႈ": 10706,
      "Bag": 10707,
      "ົບ": 10708,
      "mudian": 10709,
      "usti": 10710,
      "ầy": 10711,
      "iba": 10712,
      "တၟအ်": 10713,
      "၁၄": 10714,
      "ật": 10715,
      "က္တ": 10716,
      "ဒဵု": 10717,
      "အမိ": 10718,
      "sisi": 10719,
      "ຊາວ": 10720,
      "မာဲ": 10721,
      "သွင်": 10722,
      "ဝဲလၢ": 10723,
      "ချပ်": 10724,
      "nal": 10725,
      "this": 10726,
      "ved": 10727,
      "ဃု": 10728,
      "lupa": 10729,
      "ယဝ်ရ": 10730,
      "အိမ်": 10731,
      "aga": 10732,
      "ဝူ": 10733,
      "thành": 10734,
      "मन": 10735,
      "သပ်": 10736,
      "ပေါ်": 10737,
      "ແກ່": 10738,
      "တရဴ": 10739,
      "ឲ្យ": 10740,
      "ဍေဟ်": 10741,
      "sareng": 10742,
      "hka": 10743,
      "နဒဒှ်": 10744,
      "就是": 10745,
      "ໜ້າ": 10746,
      "อิส": 10747,
      "ယၢမ်းလဵဝ်": 10748,
      "ဗောဓိ": 10749,
      "chye": 10750,
      "หร": 10751,
      "cal": 10752,
      "ाए": 10753,
      "ဗွ": 10754,
      "ngam": 10755,
      "ၸပ်း": 10756,
      "ရွက်": 10757,
      "ထၢ": 10758,
      "များကို": 10759,
      "pro": 10760,
      "ເຫລ": 10761,
      "manin": 10762,
      "ើង": 10763,
      "--": 10764,
      "luk": 10765,
      "ບັນດາ": 10766,
      "gar": 10767,
      "ဎွၩ": 10768,
      "batu": 10769,
      "လွှတ်တော်": 10770,
      "ပိူင်": 10771,
      "ပူဂ": 10772,
      "ần": 10773,
      "လ္ၚဵု": 10774,
      "ဖး": 10775,
      "ဇာတ်": 10776,
      "ၼၼ်": 10777,
      "ချဲၩ့": 10778,
      "der": 10779,
      "ၶေႃႈ": 10780,
      "គេ": 10781,
      "ginan": 10782,
      "balaw": 10783,
      "အီၪက့ၪ": 10784,
      "baba": 10785,
      "တွဵုရး": 10786,
      "sehlaw": 10787,
      "ပြံင်": 10788,
      "bawi": 10789,
      "ယႃႈ": 10790,
      "manhsehlaw": 10791,
      "abdi": 10792,
      "ှေ": 10793,
      "tong": 10794,
      "Ngai": 10795,
      "duk": 10796,
      "သီုဖအိုတ်": 10797,
      "hidup": 10798,
      "အု": 10799,
      "ญญ": 10800,
      "ាប់": 10801,
      "လိာ်": 10802,
      "pia": 10803,
      "ือง": 10804,
      "ဖု": 10805,
      "၁၅": 10806,
      "Prabu": 10807,
      "กำ": 10808,
      "နံၩ": 10809,
      "မောဝ်": 10810,
      "ႁူမ်ႈၵၼ်": 10811,
      "บุตร": 10812,
      "ươ": 10813,
      "လွႆ": 10814,
      "berikan": 10815,
      "ầu": 10816,
      "ကိစ္စ": 10817,
      "கே": 10818,
      "ဍုင်မန်": 10819,
      "magka": 10820,
      "कु": 10821,
      "เน": 10822,
      "ິບ": 10823,
      "ဝ့ၫလၧ": 10824,
      "ၸၢဝ်း": 10825,
      "ဒိၪ": 10826,
      "ၸၢင်ႈ": 10827,
      "ꤟꤢꤧ꤭": 10828,
      "ထေ": 10829,
      "ပတိုန်": 10830,
      "भा": 10831,
      "ถูก": 10832,
      "đó": 10833,
      "ຄຳ": 10834,
      "မၧၫ့": 10835,
      "num": 10836,
      "မဲ့": 10837,
      "မျှ": 10838,
      "ပၢ": 10839,
      "ເຖິງ": 10840,
      "ซู": 10841,
      "sapagka": 10842,
      "หรือ": 10843,
      "သ္ဍိုက်": 10844,
      "အာစိုပ်": 10845,
      "फिर": 10846,
      "ກ່າວ": 10847,
      "သၢ": 10848,
      "စစ်": 10849,
      "ຖືກ": 10850,
      "ဝတ်ႉ": 10851,
      "တၞံ": 10852,
      "သုံး": 10853,
      "ဒီးပှၤ": 10854,
      "Nan": 10855,
      "မူႇ": 10856,
      "ၸိုင်ႈတႆးပွတ်း": 10857,
      "ဂစိုတ်": 10858,
      "ယမိ": 10859,
      "जाए": 10860,
      "ၼွင်ႉ": 10861,
      "ging": 10862,
      "jak": 10863,
      "og": 10864,
      "ກັນ": 10865,
      "jalan": 10866,
      "ဘါ": 10867,
      "ົວ": 10868,
      "2021": 10869,
      "baik": 10870,
      "ချုပ်": 10871,
      "ꤔꤢꤧ꤬": 10872,
      "ဂ်": 10873,
      "hman": 10874,
      "Con": 10875,
      "ិន": 10876,
      "ເວົ້າ": 10877,
      "कह": 10878,
      "bahan": 10879,
      "သန်": 10880,
      "မြင်": 10881,
      "เยซู": 10882,
      "Ar": 10883,
      "ဗ္ဒ": 10884,
      "မဲာ်": 10885,
      "သဝ်": 10886,
      "တီႉ": 10887,
      "သေံ": 10888,
      "न्तु": 10889,
      "อด": 10890,
      "ချိုတ်": 10891,
      "திய": 10892,
      "ရို့သည်": 10893,
      "ကြည်": 10894,
      "သမ": 10895,
      "ဆိုတာ": 10896,
      "ဥပဒေ": 10897,
      "ลา": 10898,
      "ဂှ်လေဝ်": 10899,
      "ໜຶ່ງ": 10900,
      "ဍောတ်": 10901,
      "maraneh": 10902,
      "ႁူမ်ႈတုမ်": 10903,
      "hou": 10904,
      "Gusti": 10905,
      "Yehu": 10906,
      "โร": 10907,
      "bul": 10908,
      "วง": 10909,
      "ໝົດ": 10910,
      "nhtawm": 10911,
      "ைப்": 10912,
      "မသုန်": 10913,
      "மான": 10914,
      "ດີ": 10915,
      "rau": 10916,
      "neg": 10917,
      "ဟာရ": 10918,
      "အဒ": 10919,
      "las": 10920,
      "ເຂົ້າ": 10921,
      "เพื่อ": 10922,
      "ဇိုၚ်": 10923,
      "ပ္ဍဲဘာ": 10924,
      "ทุก": 10925,
      "amin": 10926,
      "လ္ပ": 10927,
      "သင့်": 10928,
      "rek": 10929,
      "ၸတ်းႁဵတ်း": 10930,
      "mula": 10931,
      "ခမဳဂမၠိုၚ်": 10932,
      "hlah": 10933,
      "ast": 10934,
      "ဖျိ": 10935,
      "ၵူတ်ႇ": 10936,
      "တပ်ႉသိုၵ်း": 10937,
      "ឹង": 10938,
      "ัด": 10939,
      "takin": 10940,
      "RCSS": 10941,
      "ဢွၼ်ၵၼ်": 10942,
      "wak": 10943,
      "ၵူၼ်းၼုမ်ႇ": 10944,
      "னக்கு": 10945,
      "เต": 10946,
      "ແຫ": 10947,
      "မဆ": 10948,
      "ပီႈ": 10949,
      "ဝှ်": 10950,
      "ungan": 10951,
      "ဖိတဖၣ်": 10952,
      "ဘၪဆၧ": 10953,
      "zu": 10954,
      "rag": 10955,
      "ាត": 10956,
      "anehna": 10957,
      "သိက္ခာ": 10958,
      "າບ": 10959,
      "ன்ன": 10960,
      "அப்பொழுது": 10961,
      "lim": 10962,
      "agi": 10963,
      "hkan": 10964,
      "atau": 10965,
      "laki": 10966,
      "mình": 10967,
      "พระเยซู": 10968,
      "ຢ່າງ": 10969,
      "ပံင်": 10970,
      "shag": 10971,
      "ပလိၵ်ႈ": 10972,
      "្វ": 10973,
      "ꤕꤢ꤭": 10974,
      "lema": 10975,
      "2018": 10976,
      "ဓါတ်": 10977,
      "เมือง": 10978,
      "Zi": 10979,
      "ညးတအ်": 10980,
      "ກະສັດ": 10981,
      "မံက်": 10982,
      "ပြကာ": 10983,
      "ទៅ": 10984,
      "bawl": 10985,
      "fir": 10986,
      "ຂໍ": 10987,
      "ယေန်သၞာင်": 10988,
      "இர": 10989,
      "ꤜꤢꤪ꤭": 10990,
      "အီၤလၢ": 10991,
      "မုက်လိက်": 10992,
      "因为": 10993,
      "ted": 10994,
      "ီႊ": 10995,
      "一切": 10996,
      "ꤓꤢꤧ꤬": 10997,
      "မး": 10998,
      "ằng": 10999,
      "ဇၟာ": 11000,
      "ꤜꤢ꤭": 11001,
      "itan": 11002,
      "யெகோவாவ": 11003,
      "တပ်": 11004,
      "hmuahhmuah": 11005,
      "ຕົນ": 11006,
      "ṭuan": 11007,
      "လႂ်": 11008,
      "သ္ဂောံ": 11009,
      "និ": 11010,
      "uri": 11011,
      "जब": 11012,
      "တီၢ်": 11013,
      "phải": 11014,
      "dos": 11015,
      "ຊົນ": 11016,
      "Mesir": 11017,
      "ကီုလေဝ်": 11018,
      "တရ": 11019,
      "ၵႅ": 11020,
      "nói": 11021,
      "ຍັງ": 11022,
      "ถึง": 11023,
      "ộc": 11024,
      "မ်ႊ": 11025,
      "ကၟိန်": 11026,
      "ဇၟာပ်": 11027,
      "Giê": 11028,
      "ၶႄႇ": 11029,
      "रह": 11030,
      "ลง": 11031,
      "ngah": 11032,
      "တႄႇ": 11033,
      "အင်္ဂ": 11034,
      "ခၞံ": 11035,
      "แด": 11036,
      "່ານ": 11037,
      "ပရေၚ်": 11038,
      "ၵုမ်": 11039,
      "ရှု": 11040,
      "परन्तु": 11041,
      "30": 11042,
      "ပတိတ်": 11043,
      "สา": 11044,
      "suak": 11045,
      "com": 11046,
      "ဖဵု": 11047,
      "lis": 11048,
      "rika": 11049,
      "க்கி": 11050,
      "တြေံ": 11051,
      "về": 11052,
      "ႁပ်ႉ": 11053,
      "khaw": 11054,
      "ဝတ်": 11055,
      "át": 11056,
      "trên": 11057,
      "ிலும்": 11058,
      "janji": 11059,
      "ต้อง": 11060,
      "adi": 11061,
      "Bang": 11062,
      "ဖျေံ": 11063,
      "hkra": 11064,
      "Abrah": 11065,
      "ရိယ": 11066,
      "ပါယ်": 11067,
      "ၼွ": 11068,
      "မိတ်": 11069,
      "பா": 11070,
      "led": 11071,
      "देश": 11072,
      "Abraham": 11073,
      "our": 11074,
      "သၽ": 11075,
      "သၢင်ႈ": 11076,
      "အကၠ": 11077,
      "้ำ": 11078,
      "சத்த": 11079,
      "pum": 11080,
      "ய்": 11081,
      "ືອງ": 11082,
      "kem": 11083,
      "bị": 11084,
      "ன்ற": 11085,
      "shing": 11086,
      "kumpi": 11087,
      "இருக்கிற": 11088,
      "လေး": 11089,
      "ரிய": 11090,
      "ชน": 11091,
      "กษ": 11092,
      "စဳ": 11093,
      "ၵွင်ႈ": 11094,
      "kul": 11095,
      "သူင်ႇ": 11096,
      "Kris": 11097,
      "ယၧၩ": 11098,
      "າເອນ": 11099,
      "ယ့်": 11100,
      "တုဲရ": 11101,
      "ကိုပ်ကၠာ": 11102,
      "லை": 11103,
      "pergi": 11104,
      "way": 11105,
      "ទាំង": 11106,
      "မာတ်": 11107,
      "किया": 11108,
      "pih": 11109,
      "အအိၣ်": 11110,
      "တၢ်လၢ": 11111,
      "စကား": 11112,
      "ាស់": 11113,
      "စၞောန်": 11114,
      "lum": 11115,
      "ကဆ": 11116,
      "you": 11117,
      "້າຍ": 11118,
      "मेरे": 11119,
      "cũng": 11120,
      "dengar": 11121,
      "án": 11122,
      "tulu": 11123,
      "အဝ့ၫဒၪ": 11124,
      "ဘဒ္ဒ": 11125,
      "ဒဳၣ်": 11126,
      "tlang": 11127,
      "မ့": 11128,
      "နှင့်": 11129,
      "chungah": 11130,
      "Mar": 11131,
      "ပှ်": 11132,
      "ขอ": 11133,
      "ṭheh": 11134,
      "kana": 11135,
      "imam": 11136,
      "ặt": 11137,
      "kudu": 11138,
      "ပ္ဍဲသၞာံ": 11139,
      "000": 11140,
      "kham": 11141,
      "kad": 11142,
      "้าง": 11143,
      "ក៏": 11144,
      "ဗောဓိသတ်": 11145,
      "ອິດສະ": 11146,
      "မဂွံ": 11147,
      "ဒဲး": 11148,
      "ထဲၢ်": 11149,
      "သၠး": 11150,
      "ောပ်": 11151,
      "นา": 11152,
      "ội": 11153,
      "တင်းမူတ်း": 11154,
      "မၚ်": 11155,
      "ꤛꤢꤨ": 11156,
      "suba": 11157,
[...]
