{
  "version": "1.0",
  "truncation": null,
  "padding": null,
  "added_tokens": [
    {
      "id": 0,
      "content": "<pad>",
      "single_word": false,
      "lstrip": false,
      "rstrip": false,
      "normalized": false,
      "special": true
    },
    {
      "id": 1,
      "content": "<unk>",
      "single_word": false,
      "lstrip": false,
      "rstrip": false,
      "normalized": false,
      "special": true
    },
    {
      "id": 2,
      "content": "<s>",
      "single_word": false,
      "lstrip": false,
      "rstrip": false,
      "normalized": false,
      "special": true
    },
    {
      "id": 3,
      "content": "</s>",
      "single_word": false,
      "lstrip": false,
      "rstrip": false,
      "normalized": false,
      "special": true
    }
  ],
  "normalizer": null,
  "pre_tokenizer": {
    "type": "Sequence",
    "pretokenizers": [
      {
        "type": "Whitespace"
      },
      {
        "type": "Split",
        "pattern": {
          "Regex": "(?<=[ऀ-ॿ஀-௿฀-๿຀-໿က-႟ក-៿一-鿿꤀-꤯])(?=[A-Za-z0-9])|(?<=[A-Za-z0-9])(?=[ऀ-ॿ஀-௿฀-๿຀-໿က-႟ក-៿一-鿿꤀-꤯])"
        },
        "behavior": "Isolated",
        "invert": false
      }
    ]
  },
  "post_processor": null,
  "decoder": null,
  "model": {
    "type": "BPE",
    "dropout": null,
    "unk_token": "<unk>",
    "continuing_subword_prefix": null,
    "end_of_word_suffix": null,
    "fuse_unk": false,
    "byte_fallback": false,
    "ignore_merges": false,
    "vocab": {
      "<pad>": 0,
      "<unk>": 1,
      "<s>": 2,
      "</s>": 3,
      "!": 4,
      "(": 5,
      ")": 6,
      ",": 7,
      "-": 8,
      ".": 9,
      "0": 10,
      "1": 11,
      "2": 12,
      "3": 13,
      "4": 14,
      "5": 15,
      "6": 16,
      "7": 17,
      "8": 18,
      "9": 19,
      ":": 20,
      ";": 21,
      "?": 22,
      "[": 23,
      "]": 24,
      "ກ": 25,
      "ຂ": 26,
      "ຄ": 27,
      "ງ": 28,
      "ຈ": 29,
      "ຊ": 30,
      "ຍ": 31,
      "ດ": 32,
      "ຕ": 33,
      "ຖ": 34,
      "ທ": 35,
      "ນ": 36,
      "ບ": 37,
      "ປ": 38,
      "ຜ": 39,
      "ຝ": 40,
      "ພ": 41,
      "ຟ": 42,
      "ມ": 43,
      "ຢ": 44,
      "ຣ": 45,
      "ລ": 46,
      "ວ": 47,
      "ສ": 48,
      "ຫ": 49,
      "ອ": 50,
      "ຮ": 51,
      "ະ": 52,
      "ັ": 53,
      "າ": 54,
      "ຳ": 55,
      "ິ": 56,
      "ີ": 57,
      "ຶ": 58,
      "ື": 59,
      "ຸ": 60,
      "ູ": 61,
      "ົ": 62,
      "ຼ": 63,
      "ຽ": 64,
      "ເ": 65,
      "ແ": 66,
      "ໂ": 67,
      "ໃ": 68,
      "ໄ": 69,
      "ໆ": 70,
      "່": 71,
      "້": 72,
      "໋": 73,
      "ໍ": 74,
      "ໜ": 75,
      "ໝ": 76,
      "​": 77,
      "–": 78,
      "—": 79,
      "‘": 80,
      "’": 81,
      "“": 82,
      "”": 83,
      "…": 84,
      "້າ": 85,
      "ອງ": 86,
      "ົ້າ": 87,
      "ັນ": 88,
      "່າ": 89,
      "ຂອງ": 90,
      "ແລ": 91,
      "ເຈ": 92,
      "່ງ": 93,
      "ເຈົ້າ": 94,
      "ົາ": 95,
      "ດ້": 96,
      "ວກ": 97,
      "ີ່": 98,
      "ພວກ": 99,
      "ທີ່": 100,
      "ແລະ": 101,
      "ຣະ": 102,
      "ພຣະ": 103,
      "ໄດ້": 104,
      "້ນ": 105,
      "ົນ": 106,
      "າຍ": 107,
      "ເຮ": 108,
      "ັດ": 109,
      "ັບ": 110,
      "າມ": 111,
      "ານ": 112,
      "ັງ": 113,
      "ຈະ": 114,
      "ໍ່": 115,
      "ເຂ": 116,
      "ື່": 117,
      "ເປ": 118,
      "ູ້": 119,
      "ອນ": 120,
      "ຫລ": 121,
      "ົງ": 122,
      "ວ່າ": 123,
      "ິດ": 124,
      "ັ້ນ": 125,
      "ເປັນ": 126,
      "ເພ": 127,
      "ໃຫ": 128,
      "ໃນ": 129,
      "ເຮົາ": 130,
      "ນັ້ນ": 131,
      "່ນ": 132,
      "າເ": 133,
      "ເຂົາ": 134,
      "າກ": 135,
      "ໃຫ້": 136,
      "ຜູ້": 137,
      "ພວກເຂົາ": 138,
      "້ອ": 139,
      "ກໍ": 140,
      "ຄົນ": 141,
      "ພຣະເຈົ້າ": 142,
      "າວ": 143,
      "ໄປ": 144,
      "ມາ": 145,
      "ູ່": 146,
      "ອົງ": 147,
      "ບໍ່": 148,
      "ມີ": 149,
      "ຢູ່": 150,
      "ສະ": 151,
      "ຂ້າ": 152,
      "ພຣະອົງ": 153,
      "ນີ": 154,
      "ິນ": 155,
      "ກັບ": 156,
      "ື່ອ": 157,
      "ຄວ": 158,
      "້ອຍ": 159,
      "ປະ": 160,
      "ເມ": 161,
      "ນີ້": 162,
      "ິ່ງ": 163,
      "າດ": 164,
      "ຄວາມ": 165,
      "າງ": 166,
      "ຈາກ": 167,
      "ພວກເຈົ້າ": 168,
      "້ວ": 169,
      "ອກ": 170,
      "າເວ": 171,
      "ແຕ": 172,
      "ເຊ": 173,
      "ັກ": 174,
      "ເອ": 175,
      "ຶ່ງ": 176,
      "ຢາເວ": 177,
      "ແລ້ວ": 178,
      "ິງ": 179,
      "ແຕ່": 180,
      "ທັງ": 181,
      "ົດ": 182,
      "ົ່ງ": 183,
      "ການ": 184,
      "ັ່ງ": 185,
      "້ອງ": 186,
      "່າງ": 187,
      "ເຮັດ": 188,
      "ິ່ນ": 189,
      "ວຍ": 190,
      "ກະ": 191,
      "ນ້ອຍ": 192,
      "ບັນ": 193,
      "ເລ": 194,
      "ູກ": 195,
      "ຂ້ານ້ອຍ": 196,
      "ເພິ່ນ": 197,
      "ອາ": 198,
      "ຊາ": 199,
      "ຸກ": 200,
      "ອບ": 201,
      "ລາວ": 202,
      "ລູກ": 203,
      "ສັດ": 204,
      "ຈົ່ງ": 205,
      "ເວ": 206,
      "ຸດ": 207,
      "ແມ": 208,
      "ດາ": 209,
      "ົກ": 210,
      "ໃດ": 211,
      "ກ່": 212,
      "າະ": 213,
      "ຊາຍ": 214,
      "ຕໍ່": 215,
      "ໄວ": 216,
      "”.": 217,
      "ດ້ວຍ": 218,
      "ຳລ": 219,
      "ໄວ້": 220,
      "ຕາມ": 221,
      "່ວ": 222,
      "ເພາະ": 223,
      "ຫລາຍ": 224,
      "ໂລ": 225,
      "ຮັບ": 226,
      "ໃຈ": 227,
      "ຖື": 228,
      "ຈຶ່ງ": 229,
      "ຄື": 230,
      "ດັ່ງ": 231,
      "ເຢ": 232,
      "ສິ່ງ": 233,
      "ົ່າ": 234,
      "້ງ": 235,
      "ເພື່ອ": 236,
      "ອອກ": 237,
      "ເຄ": 238,
      "ືອນ": 239,
      "ເທ": 240,
      "ພວກເຮົາ": 241,
      "ທຸກ": 242,
      "່າວ": 243,
      "ແດ": 244,
      "ລະ": 245,
      "ພະ": 246,
      "ເຖ": 247,
      "ເມື່ອ": 248,
      "ເຫ": 249,
      "ຊີ": 250,
      "ຶ້ນ": 251,
      "ຂຶ້ນ": 252,
      "ແມ່ນ": 253,
      "ອິດ": 254,
      "ື່ອງ": 255,
      "ົບ": 256,
      "ຊາວ": 257,
      "ແກ່": 258,
      "ໜ້າ": 259,
      "ເຫລ": 260,
      "ບັນດາ": 261,
      "ິບ": 262,
      "ຄຳ": 263,
      "ເຖິງ": 264,
      "ກ່າວ": 265,
      "ຖືກ": 266,
      "ກັນ": 267,
      "ົວ": 268,
      "ເວົ້າ": 269,
      "ໜຶ່ງ": 270,
      "ໝົດ": 271,
      "ດີ": 272,
      "ເຂົ້າ": 273,
      "ແຫ": 274,
      "າບ": 275,
      "ຢ່າງ": 276,
      "ກະສັດ": 277,
      "ຂໍ": 278,
      "ຕົນ": 279,
      "ຊົນ": 280,
      "ຍັງ": 281,
      "່ານ": 282,
      "ືອງ": 283,
      "າເອນ": 284,
      "້າຍ": 285,
      "ອິດສະ": 286,
      "ອີ": 287,
      "ເອົາ": 288,
      "ດິນ": 289,
      "ອິດສະຣ": 290,
      "ອິດສະຣາເອນ": 291,
      "ເມືອງ": 292,
      "ທາງ": 293,
      "ລູກຊາຍ": 294,
      "ເກ": 295,
      "ເບ": 296,
      "ວັນ": 297,
      "ຫານ": 298,
      "ະນ": 299,
      "ທັງໝົດ": 300,
      "ຽງ": 301,
      "ລາ": 302,
      "ຢາ": 303,
      "ເໝ": 304,
      "ລົງ": 305,
      "ທຳ": 306,
      "ເສ": 307,
      "ອດ": 308,
      "ວາຍ": 309,
      "ຊ້": 310,
      "ບໍ": 311,
      "ນາງ": 312,
      "ໃຊ້": 313,
      "ົມ": 314,
      "ຫາ": 315,
      "ແຫ່ງ": 316,
      "ມື": 317,
      "ເໝືອນ": 318,
      "ໂມ": 319,
      "ໂດ": 320,
      "ັ້ງ": 321,
      "ພຣະເຈົ້າຢາເວ": 322,
      "ຕ້ອງ": 323,
      "ີຍ": 324,
      "້າງ": 325,
      "ເຄື່ອງ": 326,
      "ທ່ານ": 327,
      "ໂຕ": 328,
      "ປະຊາ": 329,
      "້ຳ": 330,
      "ນຳ": 331,
      "ຫລື": 332,
      "່ອນ": 333,
      "້ານ": 334,
      "ເຫັນ": 335,
      "ແດນ": 336,
      "ີນ": 337,
      "ມັນ": 338,
      "ປະຊາຊົນ": 339,
      "ຖ້າ": 340,
      "ເຫລົ່າ": 341,
      "ອີກ": 342,
      "ຮູ້": 343,
      "ທັງຫລາຍ": 344,
      "ບູ": 345,
      "ຕ່າງ": 346,
      "ີດ": 347,
      "້ອມ": 348,
      "ສຸດ": 349,
      "ົ່ວ": 350,
      "ຜູ້ໃດ": 351,
      "ົ້ນ": 352,
      "ດັ່ງນັ້ນ": 353,
      "ໂດຍ": 354,
      "ື່ນ": 355,
      "ຮ້າຍ": 356,
      "ືອ": 357,
      "ສັນ": 358,
      "ເຕ": 359,
      "ຳນ": 360,
      "ຕັ້ງ": 361,
      "ເດ": 362,
      "້ມ": 363,
      "ຊູ": 364,
      "ວິດ": 365,
      "ຊີວິດ": 366,
      "ອັນ": 367,
      "ທະ": 368,
      "ຕະ": 369,
      "ພະເຈົ້າ": 370,
      "ເອງ": 371,
      "ທີ": 372,
      "ຂ້າພະເຈົ້າ": 373,
      "ຂ້ອຍ": 374,
      "ສາມ": 375,
      "ຖວາຍ": 376,
      "ບູຊາ": 377,
      "ຕາຍ": 378,
      "ໂຢ": 379,
      "ເຊິ່ງ": 380,
      "ໃສ": 381,
      "ຍ່": 382,
      "ບ່ອນ": 383,
      "ເຜ": 384,
      "ປະຕ": 385,
      "ຮັກ": 386,
      "ເທິງ": 387,
      "ວງ": 388,
      "ຽວ": 389,
      "ບາບ": 390,
      "ນ້ຳ": 391,
      "ັມ": 392,
      "ສະຫ": 393,
      "ຈົນ": 394,
      "ສາ": 395,
      "ຢ່າ": 396,
      "ດິນແດນ": 397,
      "ໃຫຍ່": 398,
      "ຮ້ອງ": 399,
      "ກຳລ": 400,
      "ກຳລັງ": 401,
      "ຍິນ": 402,
      "ແທ": 403,
      "ເຢຊູ": 404,
      "ໍາ": 405,
      "ເບິ່ງ": 406,
      "ຊາດ": 407,
      "ຫລັງ": 408,
      "ອມ": 409,
      "ຕາ": 410,
      "ຕອບ": 411,
      "ສັ່ງ": 412,
      "ປົກ": 413,
      "ື້ອ": 414,
      "ສອງ": 415,
      "ນາ": 416,
      "ພໍ່": 417,
      "ສຳລ": 418,
      "ຮັບໃຊ້": 419,
      "ອະ": 420,
      "ຈັກ": 421,
      "ວິ": 422,
      "ໃສ່": 423,
      "ພຣະເຢຊູ": 424,
      "ຊົ່ວ": 425,
      "ດາວ": 426,
      "ກາງ": 427,
      "ແຜ": 428,
      "ຕ່າງໆ": 429,
      "ບອກ": 430,
      "ໂຣ": 431,
      "ມອບ": 432,
      "ເນ": 433,
      "ເວລາ": 434,
      "ຖານ": 435,
      "ຟັງ": 436,
      "ວນ": 437,
      "ລີ": 438,
      "ຊື່": 439,
      "ຄືນ": 440,
      "ຸມ": 441,
      "ຊະ": 442,
      "ປີ": 443,
      "ຍາ": 444,
      "ໂຊ": 445,
      "ຄອງ": 446,
      "ດາວິດ": 447,
      "່ວຍ": 448,
      "ສຳລັບ": 449,
      "ໂລກ": 450,
      "ສາວ": 451,
      "ກິນ": 452,
      "້ອນ": 453,
      "ຍານ": 454,
      "ບັດ": 455,
      "ເກີດ": 456,
      "ພຣະເຢຊູເຈົ້າ": 457,
      "ູງ": 458,
      "່ມ": 459,
      "ເຫລົ່ານີ້": 460,
      "ສ້າງ": 461,
      "ະນະ": 462,
      "ກວ່າ": 463,
      "ຕໍ່ໜ້າ": 464,
      "່ວນ": 465,
      "ພູ": 466,
      "ຣາ": 467,
      "ເຣ": 468,
      "ລິ": 469,
      "ເຊື່ອ": 470,
      "ໂລຫ": 471,
      "ພົບ": 472,
      "ກາດ": 473,
      "ພາ": 474,
      "ນ້ອງ": 475,
      "ໂລຫິດ": 476,
      "ຸນ": 477,
      "າເລ": 478,
      "ກາຍ": 479,
      "ປະໂລຫິດ": 480,
      "ສາຍ": 481,
      "ສ່ວນ": 482,
      "ນາຍ": 483,
      "ອານ": 484,
      "ໄມ": 485,
      "ຣູ": 486,
      "ສູ້": 487,
      "ບາ": 488,
      "ຢູ": 489,
      "ສິບ": 490,
      "ເຫດ": 491,
      "ໄມ້": 492,
      "ຫົວ": 493,
      "ຍິ່ງ": 494,
      "ຕິ": 495,
      "ວິຫານ": 496,
      "ບໍລິ": 497,
      "ແຂ": 498,
      "ແມ່": 499,
      "ຊ່ວຍ": 500,
      "ຕີ": 501,
      "ພ້ອມ": 502,
      "ກົດ": 503,
      "ຫຍັງ": 504,
      "ຍິງ": 505,
      "ອື່ນ": 506,
      "ຽດ": 507,
      "ແກະ": 508,
      "ພຣະຜູ້": 509,
      "ແດ່": 510,
      "ສີ": 511,
      "ທຸກຄົນ": 512,
      "ເລີຍ": 513,
      "?”": 514,
      "ລິດ": 515,
      "ດຽວ": 516,
      "ອຍ": 517,
      "ສົ່ງ": 518,
      "ໂມເຊ": 519,
      "ຕົກ": 520,
      "ໄສ": 521,
      "ສຽງ": 522,
      "ຽນ": 523,
      "ແຜ່ນ": 524,
      "ພັນ": 525,
      "ືນ": 526,
      "ປົກຄອງ": 527,
      "ຊາເລ": 528,
      "ບໍລິສຸດ": 529,
      "ອາດ": 530,
      "ເຢຣູ": 531,
      "ຊາເລັມ": 532,
      "ອາຫານ": 533,
      "ເຢຣູຊາເລັມ": 534,
      "ປະກາດ": 535,
      "ຜິດ": 536,
      "ພວກເພິ່ນ": 537,
      "ໂກ": 538,
      "ສົມ": 539,
      "ເລື": 540,
      "ຕະຫລ": 541,
      "ເປັນເຈົ້າ": 542,
      "ອັບ": 543,
      "ິບັດ": 544,
      "ງານ": 545,
      "ອົງພຣະຜູ້": 546,
      "ອົງພຣະຜູ້ເປັນເຈົ້າ": 547,
      "ຕະຫລອດ": 548,
      "ຍິ່ງໃຫຍ່": 549,
      "ອາໄສ": 550,
      "ເຫລົ່ານັ້ນ": 551,
      "ມານ": 552,
      "ສັນຍາ": 553,
      "ນະ": 554,
      "ຕົ້ນ": 555,
      "ເລື່ອງ": 556,
      "ແບ": 557,
      "ຢິບ": 558,
      "ໂຮ": 559,
      "ດັ່ງນີ້": 560,
      "ເອຢິບ": 561,
      "ຶກ": 562,
      "ກີ": 563,
      "ຊອບ": 564,
      "ກ້": 565,
      "ຖາມ": 566,
      "ຳລາຍ": 567,
      "ພິ": 568,
      "ເອນ": 569,
      "ບັດນີ້": 570,
      "ຂະນະ": 571,
      "ິມ": 572,
      "ເຮືອນ": 573,
      "ສາມາດ": 574,
      "ຮູ": 575,
      "ກຳ": 576,
      "ທຳລາຍ": 577,
      "ອຳນ": 578,
      "ອຳນາດ": 579,
      "ມະນ": 580,
      "ມະນຸດ": 581,
      "ປ່": 582,
      "ຸ່ນ": 583,
      "ພົ້ນ": 584,
      "ຊົນຊາດ": 585,
      "ເຊື້ອ": 586,
      "ໜີ": 587,
      "ແນ": 588,
      "ຟ້າ": 589,
      "ຫລັງຈາກ": 590,
      "ອາບ": 591,
      "ເງ": 592,
      "ສູ່": 593,
      "ເອີ": 594,
      "ແຜ່ນດິນ": 595,
      "ທຳນ": 596,
      "່າມ": 597,
      "ຄຣ": 598,
      "ຕັດ": 599,
      "ວາງ": 600,
      "ອາຍ": 601,
      "ຢ້ານ": 602,
      "ສິດ": 603,
      "ເຜົາ": 604,
      "ກອງ": 605,
      "ກຽດ": 606,
      "ຍັດ": 607,
      "ຖ້ອຍ": 608,
      "ເໜ": 609,
      "ໂທ": 610,
      "ບັນຍັດ": 611,
      "ແປ": 612,
      "ຍົກ": 613,
      "ທ່າມ": 614,
      "ິ້ມ": 615,
      "ໂມນ": 616,
      "ຸ່ງ": 617,
      "ພື": 618,
      "ສະຫວັນ": 619,
      "ວມ": 620,
      "ເອີ້ນ": 621,
      "ທ່າມກາງ": 622,
      "ຖິ້ມ": 623,
      "ປະຕູ": 624,
      "ຸ່ມ": 625,
      "ພວກຂ້ານ້ອຍ": 626,
      "ກົດບັນຍັດ": 627,
      "ປາກ": 628,
      "ວິນ": 629,
      "ຄິດ": 630,
      "ດາຍ": 631,
      "ຫວ": 632,
      "ຕໍ່ສູ້": 633,
      "ເຫລືອ": 634,
      "ຄອບ": 635,
      "ດ້ານ": 636,
      "ວິນຍານ": 637,
      "ຣີ": 638,
      "ໄພ": 639,
      "ັດສະ": 640,
      "ຜູ້ຮັບໃຊ້": 641,
      "ທະຫານ": 642,
      "ໝັ້ນ": 643,
      "ທຳນວາຍ": 644,
      "ຜົນ": 645,
      "ແຮ": 646,
      "ຫາຍ": 647,
      "ຮ່ວ": 648,
      "ຮ່ວມ": 649,
      "ຕູ": 650,
      "ເຜົ່າ": 651,
      "ຈັດ": 652,
      "ໝາຍ": 653,
      "ຶດ": 654,
      "ໄລ": 655,
      "ຄວນ": 656,
      "ຍິນດີ": 657,
      "ຝູງ": 658,
      "ເໜືອ": 659,
      "ໂທດ": 660,
      "ຜ່ານ": 661,
      "ຮົບ": 662,
      "ແທ່ນ": 663,
      "ສະນັ້ນ": 664,
      "ຢູດາຍ": 665,
      "ພີ່": 666,
      "ເທົ່າ": 667,
      "ພີ່ນ້ອງ": 668,
      "ພັກ": 669,
      "ເງິນ": 670,
      "ສອນ": 671,
      "ລັງ": 672,
      "ສຳ": 673,
      "ເຊື້ອສາຍ": 674,
      "ຊອບທຳ": 675,
      "ຈິງ": 676,
      "ຢືນ": 677,
      "ເຈັດ": 678,
      "ຟາ": 679,
      "ງຸ່ນ": 680,
      "ັ່ນ": 681,
      "ອະງຸ່ນ": 682,
      "ໂຣນ": 683,
      "ຈັບ": 684,
      "ນາມ": 685,
      "ກ່ອນ": 686,
      "ໄຟ": 687,
      "ຜ້າ": 688,
      "ເດີ": 689,
      "ຫີນ": 690,
      "ິກ": 691,
      "ສັດຕູ": 692,
      "ຍອມ": 693,
      "ສະຫງ": 694,
      "ຄຣິດ": 695,
      "ແດງ": 696,
      "ີ້": 697,
      "ໃກ້": 698,
      "ແຕ່ງ": 699,
      "ຄຣິດເຈົ້າ": 700,
      "ົນທ": 701,
      "ທັບ": 702,
      "ເຕັມ": 703,
      "ຂ້າແດ່": 704,
      "ຈຳນ": 705,
      "ກວ": 706,
      "ໝາກ": 707,
      "ເຄີຍ": 708,
      "ຫຍ": 709,
      "ອາມ": 710,
      "ຽບ": 711,
      "ພຽງ": 712,
      "ໂລນ": 713,
      "ຈຳນວນ": 714,
      "’.": 715,
      "ເຕັນ": 716,
      "ງົວ": 717,
      "ດານ": 718,
      "ພໍ": 719,
      "ທິດ": 720,
      "ເກັບ": 721,
      "ແຮງ": 722,
      "ຕາເວ": 723,
      "ຕາເວັນ": 724,
      "່າຍ": 725,
      "ສະຫລ": 726,
      "ຕະກ": 727,
      "ຮັກສາ": 728,
      "ບາງ": 729,
      "ແຍ": 730,
      "ໂຄ": 731,
      "ໂບ": 732,
      "ຮູບ": 733,
      "ເອລີ": 734,
      "ປະຕິບັດ": 735,
      "ໂຊນ": 736,
      "ລ້": 737,
      "ຽມ": 738,
      "ວ່າງ": 739,
      "ເມຍ": 740,
      "ສີ່": 741,
      "່ວງ": 742,
      "ບຸ": 743,
      "ເຈົ້ານາຍ": 744,
      "ເອີຍ": 745,
      "ລາຍ": 746,
      "ິວ": 747,
      "ພາກ": 748,
      "ີ່ມ": 749,
      "ຊື່ນ": 750,
      "ໂສ": 751,
      "ແຫ້ງ": 752,
      "ມື້": 753,
      "ໍລະ": 754,
      "ື່ມ": 755,
      "ເໝືອນດັ່ງ": 756,
      "ລໍ": 757,
      "ທະເລ": 758,
      "ພູເຂົາ": 759,
      "ລ້ຽງ": 760,
      "ຄົວ": 761,
      "ຣາມ": 762,
      "ສູງ": 763,
      "ຊາກ": 764,
      "ຕົວ": 765,
      "ຂໍ້": 766,
      "ທົ່ວ": 767,
      "ສິນ": 768,
      "ມົນທ": 769,
      "ົ້ມ": 770,
      "ຖ້ອຍຄຳ": 771,
      "ມະ": 772,
      "ຈິດ": 773,
      "ເຄື່ອງບູຊາ": 774,
      "ລຸດ": 775,
      "ຽວກ": 776,
      "ຄຳສັ່ງ": 777,
      "ຊົ່ວຮ້າຍ": 778,
      "ອານາ": 779,
      "ວີ": 780,
      "ມົນທິນ": 781,
      "ເດີນ": 782,
      "ທິ": 783,
      "ຄໍາ": 784,
      "ຫ້າ": 785,
      "ູນ": 786,
      "ດູ": 787,
      "ຕ້": 788,
      "ຜູ້ທຳນວາຍ": 789,
      "ບ້ານ": 790,
      "!”": 791,
      "ບຸລຸດ": 792,
      "ດື່ມ": 793,
      "ນອກ": 794,
      "ສົບ": 795,
      "ບັນພະ": 796,
      "ເສີນ": 797,
      "ຄຸມ": 798,
      "ບັນພະບຸລຸດ": 799,
      "ສາວົກ": 800,
      "ຢາກ": 801,
      "ພວກທ່ານ": 802,
      "ຫັນ": 803,
      "ໃຕ້": 804,
      "ທົ່ງ": 805,
      "ປ່ອຍ": 806,
      "ນັ່ງ": 807,
      "00": 808,
      "ອ້ອມ": 809,
      "ນອນ": 810,
      "ວະ": 811,
      "ີບ": 812,
      "ໍານ": 813,
      "ລະເສີນ": 814,
      "ສັນລະເສີນ": 815,
      "ແທ່ນບູຊາ": 816,
      "ວດ": 817,
      "ບຸດ": 818,
      "ລຸກ": 819,
      "ເນີ": 820,
      "ທຸກສິ່ງ": 821,
      "ລູກສາວ": 822,
      "ເຫດສະນັ້ນ": 823,
      "ຊົມ": 824,
      "ື່ອນ": 825,
      "ຟີ": 826,
      "ສື": 827,
      "ຮາມ": 828,
      "ອາຮ": 829,
      "ເລືອດ": 830,
      "ໂອນ": 831,
      "ຸບ": 832,
      "ໂຜ": 833,
      "ຢາໂຄ": 834,
      "ຢາໂຄບ": 835,
      "ຄອບຄົວ": 836,
      "ໜັງ": 837,
      "ໄລ່": 838,
      "ຖິ່ນ": 839,
      "ປັນ": 840,
      "ລົບ": 841,
      "ຄາ": 842,
      "ທານ": 843,
      "ໂຜດ": 844,
      "ຖ່": 845,
      "ອານາຈັກ": 846,
      "ນໍາ": 847,
      "ສາບ": 848,
      "ແມ່ນ້ຳ": 849,
      "ຽກ": 850,
      "ອະທິ": 851,
      "ດາບ": 852,
      "ກາ": 853,
      "ຕິດ": 854,
      "ີໂລນ": 855,
      "ບາບີໂລນ": 856,
      "ອະທິຖານ": 857,
      "ສົງ": 858,
      "ຊາມ": 859,
      "ເລວີ": 860,
      "ປາ": 861,
      "ຽວກັບ": 862,
      "ກ່ຽວກັບ": 863,
      "ນັກ": 864,
      "ສຸກ": 865,
      "ຫລານ": 866,
      "ສະແດງ": 867,
      "ແທນ": 868,
      "ພາຍ": 869,
      "ພຣະຄຣິດເຈົ້າ": 870,
      "ໝ່": 871,
      "ຈຳ": 872,
      "ຫລວງ": 873,
      "ົ່ມ": 874,
      "ໃໝ່": 875,
      "ເທວະ": 876,
      "ເທວະດາ": 877,
      "ຢ່າງໃດ": 878,
      "ໂຊໂລ": 879,
      "ຄັ້ງ": 880,
      "ໂອ": 881,
      "ຍາດ": 882,
      "ອື່ນໆ": 883,
      "ອາໂຣນ": 884,
      "ເທດ": 885,
      "ມ້າ": 886,
      "ທີ່ສຸດ": 887,
      "ຊື່ນຊົມ": 888,
      "ຕີນ": 889,
      "ຂ້າງ": 890,
      "ເນີນ": 891,
      "ໜັກ": 892,
      "ເສື້ອ": 893,
      "ຄົງ": 894,
      "ຢຶດ": 895,
      "ເດັກ": 896,
      "ຊຸມ": 897,
      "ສະຖານ": 898,
      "ຢູດາ": 899,
      "ຄ່າ": 900,
      "ແຂງ": 901,
      "ເມດ": 902,
      "ເຄື່ອງຖວາຍ": 903,
      "ພອນ": 904,
      "ະໜ": 905,
      "ປະຕິ": 906,
      "ຕໍ່ໄປ": 907,
      "ເຄົາ": 908,
      "ດຮ້າຍ": 909,
      "ຂ່າວ": 910,
      "າເຊ": 911,
      "ພັນທະ": 912,
      "ພໍໃຈ": 913,
      "ຄຸນ": 914,
      "ລ້າງ": 915,
      "ເດືອນ": 916,
      "ປັນຍາ": 917,
      "ຫລັງຈາກນັ້ນ": 918,
      "ເຄົາລົບ": 919,
      "ຍາກ": 920,
      "ເລືອກ": 921,
      "ເດີນທາງ": 922,
      "ມັດສະ": 923,
      "ໂຈ": 924,
      "ອາຍຸ": 925,
      "ມັດສະການ": 926,
      "ເບັນ": 927,
      "ເຂດ": 928,
      "ເປັນຫຍັງ": 929,
      "ສັດຊື່": 930,
      "ນະມັດສະການ": 931,
      "ຂີ້": 932,
      "ນັບ": 933,
      "ເມັດ": 934,
      "ຕະກຸນ": 935,
      "ທາ": 936,
      "ໄກ": 937,
      "ພືດ": 938,
      "ພຣະວິນຍານ": 939,
      "ໂຊໂລໂມນ": 940,
      "ຂຽນ": 941,
      "ຍາມ": 942,
      "ບິດ": 943,
      "ເຢໂຮ": 944,
      "ຄອນ": 945,
      "ເບັດ": 946,
      "ປ້ອງ": 947,
      "ໂປ": 948,
      "ວຽກ": 949,
      "ິ້ນ": 950,
      "່ຳ": 951,
      "ແສ": 952,
      "ເປີດ": 953,
      "ແຄ": 954,
      "ເມດຕາ": 955,
      "ຍຸ": 956,
      "ວັງ": 957,
      "ໄຫ": 958,
      "ໜຸ່ມ": 959,
      "ນະຄອນ": 960,
      "ນົກ": 961,
      "ແຊ": 962,
      "ຸ້ນ": 963,
      "ຮ່າງ": 964,
      "ເຊັບ": 965,
      "ຝັງ": 966,
      "ສັກ": 967,
      "ໂນ": 968,
      "ລິດອຳນາດ": 969,
      "ສະໜ": 970,
      "ຮູ້ຈັກ": 971,
      "ນຸ່ງ": 972,
      "ຢິວ": 973,
      "ລົງໂທດ": 974,
      "ເຂົ້າໃຈ": 975,
      "ດົນ": 976,
      "ທັນ": 977,
      "ຫລວງຫລາຍ": 978,
      "ຮາ": 979,
      "ໄຖ່": 980,
      "ອາກ": 981,
      "ແລ້ງ": 982,
      "ໃຈຮ້າຍ": 983,
      "ເສຍ": 984,
      "ໂຢເຊັບ": 985,
      "ຕອນ": 986,
      "ລວມ": 987,
      "ຄ້າຍ": 988,
      "ກະທຳ": 989,
      "ຜູ": 990,
      "ແຫ້ງແລ້ງ": 991,
      "ຜູ້ນ": 992,
      "ຫອມ": 993,
      "ເຊື່ອຟັງ": 994,
      "ສະຫງ່າ": 995,
      "ຊື່ນຊົມຍິນດີ": 996,
      "ກໍາ": 997,
      "ອິມ": 998,
      "ແພ": 999,
      "ຮອດ": 1000,
      "ກອງທັບ": 1001,
      "ໂຈມ": 1002,
      "ບິດາ": 1003,
      "ເຝ": 1004,
      "ຜູ້ຊາຍ": 1005,
      "ສິ່ງໃດ": 1006,
      "ູດ": 1007,
      "ເຝົ້າ": 1008,
      "ໜ້າທີ່": 1009,
      "ສັກສິດ": 1010,
      "ຊັງ": 1011,
      "ເທື່ອ": 1012,
      "ຮູບເຄົາລົບ": 1013,
      "ໍ້າ": 1014,
      "ແນ່ນ": 1015,
      "ແຈ": 1016,
      "ເຫລົ້າ": 1017,
      "ແນ່ນອນ": 1018,
      "ຈີ່": 1019,
      "ບົດ": 1020,
      "ເໝືອນກັນ": 1021,
      "ສອກ": 1022,
      "ໂຫ": 1023,
      "ຝ່າຍ": 1024,
      "ໄໝ": 1025,
      "ກ້ອນ": 1026,
      "ວາ": 1027,
      "ີມ": 1028,
      "້ວນ": 1029,
      "ໂກດຮ້າຍ": 1030,
      "ອ້າຍ": 1031,
      "ອີຢາ": 1032,
      "ຕຽມ": 1033,
      "ີຢາ": 1034,
      "ພຣະຄຸນ": 1035,
      "ຄວາມຈິງ": 1036,
      "ຈິດໃຈ": 1037,
      "ແກ": 1038,
      "ພັນທະສັນຍາ": 1039,
      "ດຳລ": 1040,
      "ເປັນມົນທິນ": 1041,
      "ລາສີ": 1042,
      "ກີຢາ": 1043,
      "ຟາໂຣ": 1044,
      "ບາງຄົນ": 1045,
      "ສະຫງ່າລາສີ": 1046,
      "ສະຕ": 1047,
      "ອຸດ": 1048,
      "ຂ້າມ": 1049,
      "ອັບອາຍ": 1050,
      "ພະຍານ": 1051,
      "ລຳ": 1052,
      "ລົ້ມ": 1053,
      "ເພື່ອນ": 1054,
      "າເຣ": 1055,
      "ຟີລິດ": 1056,
      "ຣິ": 1057,
      "ປະຖິ້ມ": 1058,
      "ກັນດານ": 1059,
      "ເຂົ້າຈີ່": 1060,
      "ແບບ": 1061,
      "ກໍາລັງ": 1062,
      "ຍ່າງ": 1063,
      "ດັງ": 1064,
      "ແທ້": 1065,
      "ແມ່ຍິງ": 1066,
      "ອາວ": 1067,
      "ເຊັ່ນ": 1068,
      "ເພາະວ່າ": 1069,
      "ລົມ": 1070,
      "ເລັດ": 1071,
      "ສູ້ຮົບ": 1072,
      "ພິທີ": 1073,
      "ເທົ່ານັ້ນ": 1074,
      "ໄຫ້": 1075,
      "ຫວ່າງ": 1076,
      "ສະຕິນ": 1077,
      "ຟີລິດສະຕິນ": 1078,
      "ຫີບ": 1079,
      "ເຊົ້າ": 1080,
      "ກາຍເປັນ": 1081,
      "ພື້ນ": 1082,
      "ກຽດຊັງ": 1083,
      "ໂປໂລ": 1084,
      "ກຳນ": 1085,
      "ສວນ": 1086,
      "ຫົວໜ້າ": 1087,
      "ກຳນົດ": 1088,
      "ຄັນ": 1089,
      "ດວງ": 1090,
      "ອັດ": 1091,
      "ຄວາມເຊື່ອ": 1092,
      "ເລີ່ມ": 1093,
      "ພຣະບິດາ": 1094,
      "ລະບ": 1095,
      "ຊັບ": 1096,
      "ພວກມັນ": 1097,
      "ເສົາ": 1098,
      "ຢຸດ": 1099,
      "ຣາຮາມ": 1100,
      "ຫວັງ": 1101,
      "ຊະນະ": 1102,
      "ລຸ": 1103,
      "ອັບຣາຮາມ": 1104,
      "ກ້າ": 1105,
      "ງາມ": 1106,
      "ເຮືອ": 1107,
      "ຮ້ອງໄຫ້": 1108,
      "ຮ່າງກາຍ": 1109,
      "ຮ້ອຍ": 1110,
      "ື້ອງ": 1111,
      "ເດັກນ້ອຍ": 1112,
      "ໂຈມຕີ": 1113,
      "ຜູ້ນຳ": 1114,
      "ກົວ": 1115,
      "ດຳ": 1116,
      "ໂງ": 1117,
      "ເຈັບ": 1118,
      "ພວກສາວົກ": 1119,
      "ກ່ຽວ": 1120,
      "ລັບ": 1121,
      "ຕັ້ງແຕ່": 1122,
      "ຂາຍ": 1123,
      "ຖະໜ": 1124,
      "ື້": 1125,
      "ເສດ": 1126,
      "ຊຳລ": 1127,
      "ທໍລະ": 1128,
      "ມັດ": 1129,
      "ຊຳລະ": 1130,
      "ຖິ່ນແຫ້ງແລ້ງ": 1131,
      "ຫໍ": 1132,
      "ແພງ": 1133,
      "ຢາມ": 1134,
      "ອ່ອນ": 1135,
      "ທາດ": 1136,
      "ເບື້ອງ": 1137,
      "ມືດ": 1138,
      "ປິດ": 1139,
      "ຕັດສິນ": 1140,
      "ເພງ": 1141,
      "ໂຢຊ": 1142,
      "ແຂວງ": 1143,
      "ພຣະຄຳ": 1144,
      "ໂຢຊວຍ": 1145,
      "ຂອບ": 1146,
      "ແຜ່ນດິນໂລກ": 1147,
      "ລົດ": 1148,
      "ຮ້ອນ": 1149,
      "ມໍລະ": 1150,
      "ແຕກ": 1151,
      "ຕຳ": 1152,
      "ບັງ": 1153,
      "ັ້ມ": 1154,
      "ທົນ": 1155,
      "ທໍາ": 1156,
      "ເລິກ": 1157,
      "ເຄື່ອງເຜົາ": 1158,
      "ສຳເລັດ": 1159,
      "ດົກ": 1160,
      "ຂັບ": 1161,
      "ຕໍ່ມາ": 1162,
      "ຖິ່ນແຫ້ງແລ້ງກັນດານ": 1163,
      "ຊະເລີຍ": 1164,
      "ໂງ່": 1165,
      "ພິພາກ": 1166,
      "ໝັ້ນຄົງ": 1167,
      "ພິພາກສາ": 1168,
      "ຂາດ": 1169,
      "ມິດ": 1170,
      "ຫ້ອງ": 1171,
      "ເກງ": 1172,
      "ຢຳ": 1173,
      "ລະຫວ່າງ": 1174,
      "ປາກົດ": 1175,
      "ກິດ": 1176,
      "ຈິບ": 1177,
      "ປະຈຳ": 1178,
      "ກຳແພງ": 1179,
      "ແຕ່ງຕັ້ງ": 1180,
      "ຢຳເກງ": 1181,
      "ຈິບຫາຍ": 1182,
      "ທົ່ງນາ": 1183,
      "ເຫລັກ": 1184,
      "ຢ້ານກົວ": 1185,
      "ແຍກ": 1186,
      "ຕິດຕາມ": 1187,
      "ທະນ": 1188,
      "ປານ": 1189,
      "ສານ": 1190,
      "ຮາກ": 1191,
      "່ອງ": 1192,
      "ຍຸຕິ": 1193,
      "ດຳເນີນ": 1194,
      "ເປໂຕ": 1195,
      "ຄົນຕ່າງ": 1196,
      "ທ້ອງ": 1197,
      "ປ່າ": 1198,
      "ລາຊະ": 1199,
      "ຫັກ": 1200,
      "ຫລະ": 1201,
      "ບັນລັງ": 1202,
      "ແຍງ": 1203,
      "ເຟ": 1204,
      "ຂ້າທາດ": 1205,
      "ຊັ້ນ": 1206,
      "ຍາວ": 1207,
      "ລື": 1208,
      "ແປ້ງ": 1209,
      "ເຂັ້ມ": 1210,
      "ສະຫວ່າງ": 1211,
      "ອວຍ": 1212,
      "ໂມອາບ": 1213,
      "ເບິ່ງແຍງ": 1214,
      "ເຊີນ": 1215,
      "ເອຟ": 1216,
      "ມໍລະດົກ": 1217,
      "ອວຍພອນ": 1218,
      "ອົດ": 1219,
      "ໄຂ": 1220,
      "ລວງ": 1221,
      "ອາບີ": 1222,
      "ສືບ": 1223,
      "ຮາດ": 1224,
      "ມີຊີວິດ": 1225,
      "ຊີ້ນ": 1226,
      "ແຂນ": 1227,
      "ແບ້": 1228,
      "ຕ້ອງການ": 1229,
      "ແບ່ງ": 1230,
      "ໜັງສື": 1231,
      "ຍຸຕິທຳ": 1232,
      "ຄະ": 1233,
      "ພາບ": 1234,
      "ສິງ": 1235,
      "ຮຸ່ງ": 1236,
      "ໄຫລ": 1237,
      "ພຣະບິດາເຈົ້າ": 1238,
      "ຂົ່ມ": 1239,
      "ີກ": 1240,
      "ຶງ": 1241,
      "ແລ່ນ": 1242,
      "ຕົ້ນໄມ້": 1243,
      "ຈໍ": 1244,
      "ນໍ້າ": 1245,
      "ໂຫຍ": 1246,
      "ອຳ": 1247,
      "ຊີຢາ": 1248,
      "ຄ່ຳ": 1249,
      "ຮ່": 1250,
      "ແຜນ": 1251,
      "ຸ້ມ": 1252,
      "ໂຢຮ": 1253,
      "ນ້ຳມັນ": 1254,
      "ປ່ຽນ": 1255,
      "ນຶກ": 1256,
      "ຄົນຮັບໃຊ້": 1257,
      "ທຳອິດ": 1258,
      "ອັນໃດ": 1259,
      "ຂວາ": 1260,
      "ຂັບໄລ່": 1261,
      "ກົງ": 1262,
      "ມັກ": 1263,
      "ູເອນ": 1264,
      "ໄຫວ": 1265,
      "ບູນ": 1266,
      "ຈົດ": 1267,
      "ີ່ນ": 1268,
      "ລີ້": 1269,
      "ສັນຕິ": 1270,
      "ຣາອິມ": 1271,
      "ແຊ່ງ": 1272,
      "ໍ້": 1273,
      "ເດີ່ນ": 1274,
      "ຈໍແດນ": 1275,
      "ທຸກຍາກ": 1276,
      "ກວ້າງ": 1277,
      "ປ້ອງກັນ": 1278,
      "ຢາມິນ": 1279,
      "ຖືກຕ້ອງ": 1280,
      "ອມພູ": 1281,
      "ຫຍ້າ": 1282,
      "ຫົກ": 1283,
      "ໝູ່": 1284,
      "ລະນຶກ": 1285,
      "ສາບແຊ່ງ": 1286,
      "ໂດມ": 1287,
      "ໝັ້ນສັນຍາ": 1288,
      "ແຕ່ງງານ": 1289,
      "ຫໍເຕັນ": 1290,
      "ຮວມ": 1291,
      "ຫລັກ": 1292,
      "ສຳຄັນ": 1293,
      "ພາກັນ": 1294,
      "ຂັດ": 1295,
      "ແກ້": 1296,
      "ໄຊ": 1297,
      "ຫູ": 1298,
      "ສົມບັດ": 1299,
      "ອະນ": 1300,
      "ປະມານ": 1301,
      "ແຕ່ລະ": 1302,
      "ລາຊະການ": 1303,
      "ຂີ່": 1304,
      "ພັງ": 1305,
      "ລັກ": 1306,
      "ປະໂຫຍ": 1307,
      "ຮ່ອມພູ": 1308,
      "ປະໂຫຍດ": 1309,
      "ໜິ": 1310,
      "ກູ້": 1311,
      "ບານ": 1312,
      "ເນື່ອງ": 1313,
      "ເນື້ອ": 1314,
      "ເອຟຣາອິມ": 1315,
      "ກໍ່": 1316,
      "ຊອກ": 1317,
      "ເປົ່າ": 1318,
      "ຫລອກ": 1319,
      "ຕະຫລອດໄປ": 1320,
      "ເບັນຢາມິນ": 1321,
      "ພັດ": 1322,
      "ກະຈ": 1323,
      "ໂລມ": 1324,
      "ຊີໂອນ": 1325,
      "ພິບັດ": 1326,
      "ລ່ວງ": 1327,
      "ມີຢາ": 1328,
      "ຂ້າລາຊະການ": 1329,
      "ສົມບູນ": 1330,
      "ໄພພິບັດ": 1331,
      "ປ້ອມ": 1332,
      "ນາທານ": 1333,
      "ກອບ": 1334,
      "ສັ່ນ": 1335,
      "ເຫດການ": 1336,
      "ຜິດຊອບ": 1337,
      "ຄອບຄອງ": 1338,
      "ປະຕິຍານ": 1339,
      "ນິ": 1340,
      "ອຸ": 1341,
      "ໂຢຮັນ": 1342,
      "ກະຈາຍ": 1343,
      "ທຶກ": 1344,
      "”,": 1345,
      "ສະຕິ": 1346,
      "ກະບົດ": 1347,
      "ຮັບຜິດຊອບ": 1348,
      "ຊ່ວຍເຫລືອ": 1349,
      "ສະຫງົບ": 1350,
      "ໃບ": 1351,
      "ກະດ": 1352,
      "ສາບານ": 1353,
      "ເພີ່ມ": 1354,
      "ເຄື່ອງນຸ່ງ": 1355,
      "ນຳເອົາ": 1356,
      "ອໍານ": 1357,
      "ປະຕິເສດ": 1358,
      "ອໍານາດ": 1359,
      "ຊ່ວງ": 1360,
      "ທອງ": 1361,
      "ພິນ": 1362,
      "ຮ້າງ": 1363,
      "ອາຊາ": 1364,
      "ໂບອາມ": 1365,
      "ຊັບສົມບັດ": 1366,
      "ຕຳໜິ": 1367,
      "ບາດ": 1368,
      "ການາ": 1369,
      "ລູກແກະ": 1370,
      "ນ້ອງຊາຍ": 1371,
      "ຄ້າຍພັກ": 1372,
      "ຄໍ": 1373,
      "ຮັ່ງ": 1374,
      "ແຄມ": 1375,
      "ຮັ່ງມີ": 1376,
      "ອັກ": 1377,
      "ສະຖ": 1378,
      "ເຣຍ": 1379,
      "ຊ່າງ": 1380,
      "ປູກ": 1381,
      "ສົນ": 1382,
      "ຣີຢາ": 1383,
      "ກາບ": 1384,
      "ຖີ": 1385,
      "ລອດ": 1386,
      "ຶບ": 1387,
      "ຊະບາ": 1388,
      "ແສງ": 1389,
      "ຫລອກລວງ": 1390,
      "ບຸກ": 1391,
      "ເສື້ອຄຸມ": 1392,
      "ບັນທຶກ": 1393,
      "ຄານ": 1394,
      "່ຽງ": 1395,
      "ປະຊາຊາດ": 1396,
      "ຄືນມາ": 1397,
      "ເມກ": 1398,
      "ເຫັງ": 1399,
      "ທໍລະມານ": 1400,
      "ຊະບາໂຕ": 1401,
      "ຈັນ": 1402,
      "ລັນ": 1403,
      "ຮານ": 1404,
      "ເຢເຣ": 1405,
      "ຊີເຣຍ": 1406,
      "ຜູ້ປົກຄອງ": 1407,
      "ບັບ": 1408,
      "ປຸ້ນ": 1409,
      "ຸໂສ": 1410,
      "ເກີນ": 1411,
      "ຊາການ": 1412,
      "ອາວຸໂສ": 1413,
      "ບັນຊາການ": 1414,
      "ຂົ່ມເຫັງ": 1415,
      "ຜົວ": 1416,
      "ສິ້ນ": 1417,
      "ປະເສ": 1418,
      "ເຕືອນ": 1419,
      "ເຜີຍ": 1420,
      "ມານາເຊ": 1421,
      "ດຳລົງ": 1422,
      "ເຂັ້ມແຂງ": 1423,
      "ປະເສີດ": 1424,
      "ຍ້ອນ": 1425,
      "ຝົນ": 1426,
      "ເຢເຣມີຢາ": 1427,
      "ບາກ": 1428,
      "ໂຍ": 1429,
      "ສະແຫ": 1430,
      "ອາຣາມ": 1431,
      "ສົມຄວນ": 1432,
      "າເຣຍ": 1433,
      "ສະແຫວງ": 1434,
      "ກົກ": 1435,
      "ແມ່ນແຕ່": 1436,
      "ພຣະເຢຊູຄຣິດເຈົ້າ": 1437,
      "ແຈ້ງ": 1438,
      "ຸງ": 1439,
      "ໂຢອາບ": 1440,
      "ສະຫລາດ": 1441,
      "ດັບ": 1442,
      "ດອກ": 1443,
      "ອັດສະ": 1444,
      "ໂຍນ": 1445,
      "ຂະ": 1446,
      "ສອບ": 1447,
      "ປະເທດ": 1448,
      "ວິຖີ": 1449,
      "ເຂດແດນ": 1450,
      "ເຫລົ້າອະງຸ່ນ": 1451,
      "ກອກ": 1452,
      "ນັດ": 1453,
      "ວບ": 1454,
      "ແອ": 1455,
      "ີ້ຍ": 1456,
      "ໄໝ້": 1457,
      "ອັດຊີເຣຍ": 1458,
      "ທະນູ": 1459,
      "ຊັກ": 1460,
      "ລຶບ": 1461,
      "ເປັນຄືນມາ": 1462,
      "ບາອານ": 1463,
      "ຈາ": 1464,
      "ຕັກ": 1465,
      "ສະເໝ": 1466,
      "ເຢາະ": 1467,
      "ສຳລິດ": 1468,
      "ໝາກກອກ": 1469,
      "ອຸດົມ": 1470,
      "ຖະໜາ": 1471,
      "ສະເໝີ": 1472,
      "ຍາຍ": 1473,
      "ຍ້ອງ": 1474,
      "ຣຸບ": 1475,
      "ຮວບ": 1476,
      "ອີຊາກ": 1477,
      "ປາຖະໜາ": 1478,
      "ຫລັບ": 1479,
      "ຊາມູເອນ": 1480,
      "ຖ້ວ": 1481,
      "ແຖ": 1482,
      "ເລອາດ": 1483,
      "ເຖົ້າ": 1484,
      "ສັ່ງສອນ": 1485,
      "ສະຫລອງ": 1486,
      "ສັນຕິສຸກ": 1487,
      "ອັດສະຈັນ": 1488,
      "ຮວບຮວມ": 1489,
      "?’": 1490,
      "ກັດ": 1491,
      "ຍົດ": 1492,
      "ເອໂດມ": 1493,
      "ຄົບ": 1494,
      "ຊື້": 1495,
      "ພີ": 1496,
      "ຜູ້ອາວຸໂສ": 1497,
      "ສະການ": 1498,
      "ທອງສຳລິດ": 1499,
      "ຄາມ": 1500,
      "ເອົາໃຈ": 1501,
      "ກາງຄືນ": 1502,
      "ກີເລອາດ": 1503,
      "ຂາ": 1504,
      "ທົດ": 1505,
      "ເທດສະການ": 1506,
      "ເນີນພູ": 1507,
      "ການາອານ": 1508,
      "ເຢີ້ຍ": 1509,
      "ໂຮມ": 1510,
      "ກຳມະ": 1511,
      "ໝາຍສຳຄັນ": 1512,
      "ນັດພົບ": 1513,
      "ຫລິ້ນ": 1514,
      "ເກນ": 1515,
      "ຂ່າວປະເສີດ": 1516,
      "ພຣະວິນຍານບໍລິສຸດ": 1517,
      "ເຈັບປ": 1518,
      "ປອດ": 1519,
      "ຝັນ": 1520,
      "ໝິ່ນ": 1521,
      "ຊາຟ": 1522,
      "ເກາະ": 1523,
      "ຕະກຽງ": 1524,
      "ຊາມາເຣຍ": 1525,
      "ພາຍໃຕ້": 1526,
      "ສະຕິປັນຍາ": 1527,
      "ເຢາະເຢີ້ຍ": 1528,
      "ປອດໄພ": 1529,
      "ເຮເຊ": 1530,
      "ເສົ້າ": 1531,
      "ແນະນ": 1532,
      "ຍອມຮັບ": 1533,
      "ຂອບພຣະຄຸນ": 1534,
      "ເຮເຊກີຢາ": 1535,
      "ອ້າງ": 1536,
      "ຮອບ": 1537,
      "ພະຍາຍ": 1538,
      "ພາລະ": 1539,
      "ຊຸມຊົນ": 1540,
      "ເພື່ອນບ້ານ": 1541,
      "ພະຍາຍາມ": 1542,
      "ຈົບ": 1543,
      "ຊານ": 1544,
      "ນຸມ": 1545,
      "ໃດໆ": 1546,
      "ລະອ": 1547,
      "ພະຍາດ": 1548,
      "ແມ່ນວ່າ": 1549,
      "ແນວ": 1550,
      "ຕົວະ": 1551,
      "ຄອຍ": 1552,
      "ດ້າ": 1553,
      "ທໍານ": 1554,
      "ຝາ": 1555,
      "ອາຮີ": 1556,
      "ນັກຮົບ": 1557,
      "ຊຸມນຸມ": 1558,
      "ກຳມະສິດ": 1559,
      "ລະອຽດ": 1560,
      "ຈານ": 1561,
      "ຊະນ": 1562,
      "ເມີ": 1563,
      "ເຕັນນັດພົບ": 1564,
      "ໂສກ": 1565,
      "ສົງຄາມ": 1566,
      "ກອບກູ້": 1567,
      "ຈອງ": 1568,
      "ເຮືອງ": 1569,
      "ຖ້ອຍຄໍາ": 1570,
      "ເອລີຊາ": 1571,
      "ທໍານວາຍ": 1572,
      "ຊິດ": 1573,
      "ຕ້ອນ": 1574,
      "ນິມ": 1575,
      "ສະໄໝ": 1576,
      "ປະສົງ": 1577,
      "ເອລີຢາ": 1578,
      "ລືມ": 1579,
      "ລຶບລ້າງ": 1580,
      "ລົ້ນ": 1581,
      "ພຣະບຸດ": 1582,
      "ເຄິ່ງ": 1583,
      "ເກີດຂຶ້ນ": 1584,
      "ທັນທີ": 1585,
      "ຊອກຫາ": 1586,
      "ຊະນິດ": 1587,
      "ຂຸມ": 1588,
      "ຄັບ": 1589,
      "ທ່ຽງ": 1590,
      "ອຶດ": 1591,
      "ິສ": 1592,
      "ືອດ": 1593,
      "ແກວ": 1594,
      "ສະມາ": 1595,
      "ຄຣິສ": 1596,
      "000": 1597,
      "ແກວ່ງ": 1598,
      "ສໍາ": 1599,
      "ແໜ": 1600,
      "ແຫລະ": 1601,
      "ເກົ່າ": 1602,
      "ສິບສອງ": 1603,
      "ພິທີຕັດ": 1604,
      "ຄີ": 1605,
      "ຮຸນ": 1606,
      "ຜູ້ບັນຊາການ": 1607,
      "ບໍ່ແມ່ນ": 1608,
      "ໂຢນາທານ": 1609,
      "ອະໄພ": 1610,
      "ເປີດເຜີຍ": 1611,
      "ກ້ອນຫີນ": 1612,
      "ພຣະວິນຍານບໍລິສຸດເຈົ້າ": 1613,
      "ງຽບ": 1614,
      "ຟາດ": 1615,
      "ອວດ": 1616,
      "ເຂົ້າໄປ": 1617,
      "ວັນຊະບາໂຕ": 1618,
      "ຕະຈັກ": 1619,
      "ຮ້ອງເພງ": 1620,
      "ປົກປ້ອງ": 1621,
      "ດ້າວ": 1622,
      "ຄຣິສຕະຈັກ": 1623,
      "ປົດ": 1624,
      "ວິບັດ": 1625,
      "ກະລຸ": 1626,
      "ເຄື່ອງຫອມ": 1627,
      "ມະຫາ": 1628,
      "ຮຸ່ງເຮືອງ": 1629,
      "ກະລຸນາ": 1630,
      "ຕາບ": 1631,
      "ຖູກ": 1632,
      "ເຊື່ອງ": 1633,
      "ມານຮ້າຍ": 1634,
      "ແຄ້ນ": 1635,
      "ພື້ນດິນ": 1636,
      "ຊັດ": 1637,
      "ຫອງ": 1638,
      "ເຢໂຣ": 1639,
      "ເກັບກ່ຽວ": 1640,
      "ດູຖູກ": 1641,
      "ໂນນ": 1642,
      "ອຳໂມນ": 1643,
      "ຮຸນແຮງ": 1644,
      "ກົ້ມ": 1645,
      "ສັບ": 1646,
      "ເຮັບ": 1647,
      "ເຕົ້າ": 1648,
      "ແປກ": 1649,
      "ເຢໂຮຍ": 1650,
      "ຈອງຫອງ": 1651,
      "ຈ້າ": 1652,
      "ຫາມ": 1653,
      "ໜ້ອຍ": 1654,
      "ວິທີ": 1655,
      "ສາຍຕາ": 1656,
      "ຫ່າງ": 1657,
      "ກະຕ": 1658,
      "ຄຳໝັ້ນສັນຍາ": 1659,
      "ໂຕະ": 1660,
      "ດຳລັດ": 1661,
      "ໄຫວ້": 1662,
      "ເພດ": 1663,
      "ໂຣດ": 1664,
      "ກະດູກ": 1665,
      "ກຸ່ມ": 1666,
      "ໝາດ": 1667,
      "ຫລົງ": 1668,
      "ປະໝາດ": 1669,
      "ເລີນ": 1670,
      "ເວັນ": 1671,
      "ລະວັງ": 1672,
      "ທາງເຂົ້າ": 1673,
      "ກັ້ງ": 1674,
      "ປາຍ": 1675,
      "ສູນ": 1676,
      "ຄວາມຄິດ": 1677,
      "ຜ້າກັ້ງ": 1678,
      "ທໍາລາຍ": 1679,
      "ຈຸດ": 1680,
      "້ວງ": 1681,
      "ຊີເມ": 1682,
      "ຍົກຍ້ອງ": 1683,
      "ນິລັນ": 1684,
      "ຕື່ນ": 1685,
      "ຢຽບ": 1686,
      "ຈະເລີນ": 1687,
      "ຖານະ": 1688,
      "ໂສກເສົ້າ": 1689,
      "ຈໍານ": 1690,
      "ລາດ": 1691,
      "ືອກ": 1692,
      "ລະດູ": 1693,
      "ເດືອດ": 1694,
      "ລີ້ໄພ": 1695,
      "ເຕົ້າໂຮມ": 1696,
      "ອູ": 1697,
      "ຊາໂລມ": 1698,
      "ຊາວຢິວ": 1699,
      "ເຖິງແມ່ນວ່າ": 1700,
      "ລົດມ້າ": 1701,
      "ໝິ່ນປະໝາດ": 1702,
      "ຕານ": 1703,
      "ອຸບ": 1704,
      "ພາສາ": 1705,
      "ກົດຂີ່": 1706,
      "ແປງ": 1707,
      "ສະຖິດ": 1708,
      "ຝຸ່ນ": 1709,
      "ຣັດ": 1710,
      "ໜ່ວຍ": 1711,
      "ເຈີມ": 1712,
      "ເຊັດ": 1713,
      "ແທກ": 1714,
      "ອັບຊາໂລມ": 1715,
      "ຈັດຕຽມ": 1716,
      "ພຣະຄຳພີ": 1717,
      "ຄົນຕ່າງຊາດ": 1718,
      "ເອົາໃຈໃສ່": 1719,
      "ເຢໂຣໂບອາມ": 1720,
      "ກ້ອງ": 1721,
      "ຂະໜ": 1722,
      "ຄ້າ": 1723,
      "ຄົມ": 1724,
      "ຊ້າ": 1725,
      "ຍະ": 1726,
      "ທ້າຍ": 1727,
      "ຜີ": 1728,
      "ີເອນ": 1729,
      "ຄວາມບາບ": 1730,
      "ອາໂມ": 1731,
      "ທົ່ງຫຍ້າ": 1732,
      "ອາຮາບ": 1733,
      "ພາຍໃນ": 1734,
      "ອົດທົນ": 1735,
      "ອະນຸ": 1736,
      "ຕ້ານ": 1737,
      "ປວງ": 1738,
      "ຄວາມຕາຍ": 1739,
      "ທັງປວງ": 1740,
      "ລໍຖ້າ": 1741,
      "ລຳບາກ": 1742,
      "ນິມິດ": 1743,
      "ຄູ": 1744,
      "ຊັນ": 1745,
      "ລາມ": 1746,
      "ວອນ": 1747,
      "ອ້ອນ": 1748,
      "ເອຊາວ": 1749,
      "ແປດ": 1750,
      "ບັງຄັບ": 1751,
      "ຈົດໝາຍ": 1752,
      "ຂົນ": 1753,
      "ຟາກ": 1754,
      "ິ້ງ": 1755,
      "ໃນຂະນະ": 1756,
      "ປະທານ": 1757,
      "ເວັ້ນ": 1758,
      "ເຄຣຸບ": 1759,
      "ທຳມະ": 1760,
      "ຶກສາ": 1761,
      "ອຶດຢາກ": 1762,
      "ຄ້ອນ": 1763,
      "ດອນ": 1764,
      "ຮົກ": 1765,
      "ເຈົ້າໜ້າທີ່": 1766,
      "ເພນີ": 1767,
      "ປີກ": 1768,
      "ນິລັນດອນ": 1769,
      "ສວມ": 1770,
      "່ຽວ": 1771,
      "ກະຈັດ": 1772,
      "ຫົວໃຈ": 1773,
      "ຟ້າວ": 1774,
      "ລໍ້": 1775,
      "ຫ້າມ": 1776,
      "ຄົນຕ່າງດ້າວ": 1777,
      "ບັບຕິ": 1778,
      "ບ້ວງ": 1779,
      "ລິບ": 1780,
      "ເຮັດວຽກ": 1781,
      "ເລົ່າ": 1782,
      "ສັນໃດ": 1783,
      "ເນັດ": 1784,
      "ຕົກໃຈ": 1785,
      "ອາມາ": 1786,
      "ຖິ່ນຖານ": 1787,
      "ຊາຟັດ": 1788,
      "ຈໍານວນ": 1789,
      "ຄຸກ": 1790,
      "ຈ້າງ": 1791,
      "ລິນ": 1792,
      "ລ້ອມ": 1793,
      "ຫົນ": 1794,
      "ຮອງ": 1795,
      "ໝ້າຍ": 1796,
      "ລະເມີ": 1797,
      "ເນບ": 1798,
      "ຂໍ້ຄວາມ": 1799,
      "ແຜນການ": 1800,
      "ຝັ່ງ": 1801,
      "ອາເ": 1802,
      "ູກາດ": 1803,
      "ພືດຜົນ": 1804,
      "ອ້ອນວອນ": 1805,
      "ລະເມີດ": 1806,
      "ຈອກ": 1807,
      "ຊູ້": 1808,
      "ນິດ": 1809,
      "ເມເຫລັກ": 1810,
      "ເຊບາ": 1811,
      "ປົກຄຸມ": 1812,
      "ກາງເວັນ": 1813,
      "ຣີຊາຍ": 1814,
      "ຟາຣີຊາຍ": 1815,
      "ກວາດ": 1816,
      "ອາວຸດ": 1817,
      "ທ້ອງຟ້າ": 1818,
      "ສະແຫວງຫາ": 1819,
      "ເນັດຊາ": 1820,
      "ເນບູກາດ": 1821,
      "ເນບູກາດເນັດຊາ": 1822,
      "ຈີກ": 1823,
      "ດັກ": 1824,
      "ໂອກ": 1825,
      "ຄວາມພົ້ນ": 1826,
      "ຈາກຕາຍ": 1827,
      "ເສັ້ນ": 1828,
      "ຟ້າສະຫວັນ": 1829,
      "ວຽກງານ": 1830,
      "ໂຫ່": 1831,
      "ດຳເນີນຊີວິດ": 1832,
      "ແນະນຳ": 1833,
      "ເດືອດຮ້ອນ": 1834,
      "ມ້ວນ": 1835,
      "ໝໍ້": 1836,
      "ສະອາດ": 1837,
      "ອັກຄະ": 1838,
      "ຮົກຮ້າງ": 1839,
      "ລິນິນ": 1840,
      "ບໍ່ມີ": 1841,
      "ອາສາ": 1842,
      "ເຢຮູ": 1843,
      "ເຄື່ອນ": 1844,
      "ສໍາລັບ": 1845,
      "ອັກຄະສາວົກ": 1846,
      "ຈ່າຍ": 1847,
      "ປຶກສາ": 1848,
      "ສະເທ": 1849,
      "ກີເບ": 1850,
      "ຈັດການ": 1851,
      "ເມັດພືດ": 1852,
      "ຄ່ຳຄວນ": 1853,
      "ອຸທິດ": 1854,
      "ເປັນຄືນມາຈາກຕາຍ": 1855,
      ").": 1856,
      "ຈຸ": 1857,
      "ສ່ອງ": 1858,
      "ອາເຊ": 1859,
      "ເຄື": 1860,
      "ເມືອ": 1861,
      "ສະຫລາກ": 1862,
      "ສູງສຸດ": 1863,
      "ຖ່ອມ": 1864,
      "ປັກ": 1865,
      "ລ້ວນ": 1866,
      "ຫິວ": 1867,
      "ຮັດ": 1868,
      "ັກຄີ": 1869,
      "ສາມັກຄີ": 1870,
      "ບຸດມະນຸດ": 1871,
      "ຂວາງ": 1872,
      "ດ້ວຍເຫດ": 1873,
      "ສັນນັ້ນ": 1874,
      "ຫາຍດີ": 1875,
      "ແຂງແຮງ": 1876,
      "ຖະໜົນ": 1877,
      "ແຕ່ລະຄົນ": 1878,
      "ຄູ່": 1879,
      "ຖອຍ": 1880,
      "ຫລາດ": 1881,
      "ກຳຈັດ": 1882,
      "ລາຍງານ": 1883,
      "ເຢໂຮຊາຟັດ": 1884,
      "ຂະໜາດ": 1885,
      "ອະນຸຍາດ": 1886,
      "ນານ": 1887,
      "ປັ້ນ": 1888,
      "ປັດສະ": 1889,
      "ຫວ່າ": 1890,
      "ເຂວ": 1891,
      "ເຊເຂວ": 1892,
      "ລູກຫລານ": 1893,
      "ຊາຍແດນ": 1894,
      "ພະບາອານ": 1895,
      "ໂສເພນີ": 1896,
      "ປັດສະຄາ": 1897,
      "ຫວ່ານ": 1898,
      "ຖອກ": 1899,
      "ຜົມ": 1900,
      "ຫຸ້ມ": 1901,
      "ປະຫລາດ": 1902,
      "ລຸງ": 1903,
      "ແນວໃດ": 1904,
      "ຊຸດ": 1905,
      "ໜາ": 1906,
      "ເອເລ": 1907,
      "ໂລ່": 1908,
      "ທຸກທໍລະມານ": 1909,
      "ເຖິກ": 1910,
      "ໄມ້ຄ້ອນ": 1911,
      "ແນມ": 1912,
      "ຄາລີ": 1913,
      "ບັບຕິສະມາ": 1914,
      "ຝ້າຍ": 1915,
      "ທີ່ນັ້ນ": 1916,
      "ຄຳເວົ້າ": 1917,
      "ອິດສະຫລະ": 1918,
      "ຣູເບັນ": 1919,
      "ສາມັກຄີທຳ": 1920,
      "ໂຟ": 1921,
      "ຄວາມຜິດ": 1922,
      "າບາ": 1923,
      "າບານ": 1924,
      "ລຸກຂຶ້ນ": 1925,
      "ສົງສານ": 1926,
      "ສະຖານທີ່": 1927,
      "ຕາບອດ": 1928,
      "ຍອດ": 1929,
      "ຖຽງ": 1930,
      "ບິນ": 1931,
      "ຫາກ": 1932,
      "້ຽມ": 1933,
      "ຕໍ່ຕ້ານ": 1934,
      "ອອກຈາກ": 1935,
      "ເຝົ້າຍາມ": 1936,
      "ລະບຽບ": 1937,
      "ໄຊຊະນະ": 1938,
      "ງູ": 1939,
      "ຍ້າຍ": 1940,
      "ລອງ": 1941,
      "ປະຊຸມ": 1942,
      "ອອກໄປ": 1943,
      "ພະຍຸ": 1944,
      "ເຄື່ອງໃຊ້": 1945,
      "ນ້ອງສາວ": 1946,
      "ຖ້ວມ": 1947,
      "ເຖົ້າແກ່": 1948,
      "ຕ້ອນຮັບ": 1949,
      "ຜີມານຮ້າຍ": 1950,
      "ຜ່ອນ": 1951,
      "ອ່ານ": 1952,
      "ຮີ": 1953,
      "ໄຮ": 1954,
      "ສະດ": 1955,
      "ເທົ້າ": 1956,
      "ໂມດ": 1957,
      "ອາດາ": 1958,
      "ຝູງສັດ": 1959,
      "ເດີມ": 1960,
      "ຂີ້ຝຸ່ນ": 1961,
      "ຄະດີ": 1962,
      "ຫົນທາງ": 1963,
      "!’": 1964,
      "20": 1965,
      "ກິ່ນ": 1966,
      "ຍື່ນ": 1967,
      "ຖອນ": 1968,
      "ຮຽນ": 1969,
      "ໝາ": 1970,
      "ສຸດທ້າຍ": 1971,
      "ກາງແຂນ": 1972,
      "ດານີເອນ": 1973,
      "ຄູສອນ": 1974,
      "ຂົມ": 1975,
      "ຄວາມຊອບທຳ": 1976,
      "ສິ່ງຂອງ": 1977,
      "ໄມ້ກາງແຂນ": 1978,
      "ຮາກຖານ": 1979,
      "ຄາລີເລ": 1980,
      "ນົມ": 1981,
      "ໍ່າ": 1982,
      "ຄວາມຫວັງ": 1983,
      "ແຕະ": 1984,
      "ແຜ່": 1985,
      "ແມ່ໝ້າຍ": 1986,
      "ແກະຜູ້": 1987,
      "ໄລຍະ": 1988,
      "ກວດ": 1989,
      "ຂາວ": 1990,
      "ຄົດ": 1991,
      "ຈົມ": 1992,
      "ລຸ່ມ": 1993,
      "ສັງ": 1994,
      "ສຳນ": 1995,
      "ຫອກ": 1996,
      "ໂອບ": 1997,
      "ື່ອມ": 1998,
      "ຕັ້ງໃຈ": 1999,
      "ແບກ": 2000,
      "ຕາເວັນອອກ": 2001,
      "ໂສ້": 2002,
      "ໂນອາ": 2003,
      "ກົງກັນ": 2004,
      "ເຈັບປວດ": 2005,
      "ກະຈັດກະຈາຍ": 2006,
      "ປະຫລາດໃຈ": 2007,
      "ຂັງ": 2008,
      "ຢ້ຽມ": 2009,
      "ເປັນນິດ": 2010,
      "ສະບ": 2011,
      "ຜ້າຝ້າຍ": 2012,
      "ມິດງຽບ": 2013,
      "ໄຂມັນ": 2014,
      "ແກ້ແຄ້ນ": 2015,
      "ແອວ": 2016,
      "ສະດຸດ": 2017,
      "ຄັງ": 2018,
      "ງ່າ": 2019,
      "ງອກ": 2020,
      "ຕ່ຳ": 2021,
      "ເມົາ": 2022,
      "ເອິກ": 2023,
      "ເລົ້າ": 2024,
      "ອັນຕະ": 2025,
      "ລ້ຽງດູ": 2026,
      "ອາຮາດ": 2027,
      "ຝັງສົບ": 2028,
      "ຈາລະ": 2029,
      "ເຮັບໂຣນ": 2030,
      "ເອເລອາຊາ": 2031,
      "ອັນຕະລາຍ": 2032,
      "ກຸດ": 2033,
      "ຂັນ": 2034,
      "ພຶດ": 2035,
      "ັບທາ": 2036,
      "ຊີໂມນ": 2037,
      "ພ້ອມທັງ": 2038,
      "ໂງ່ຈ້າ": 2039,
      "ງົດ": 2040,
      "ດຶງ": 2041,
      "ທູດ": 2042,
      "ວົນ": 2043,
      "ູບ": 2044,
      "ເພິ່ງ": 2045,
      "ປະທັບ": 2046,
      "ເວນ": 2047,
      "ທຸກໆ": 2048,
      "ບາລາ": 2049,
      "ເຊື້ອແປ້ງ": 2050,
      "ຈິດວິນຍານ": 2051,
      "ເບັດເອນ": 2052,
      "ໝູ່ບ້ານ": 2053,
      "ພິນາດ": 2054,
      "ຫລິ້ນຊູ້": 2055,
      "ຖົງ": 2056,
      "ປັດ": 2057,
      "ເຈົ້າຂອງ": 2058,
      "ເຊເດ": 2059,
      "ເອື": 2060,
      "ເຄື່ອງດື່ມ": 2061,
      "ໂຢບ": 2062,
      "ສີລາ": 2063,
      "ພິຈາລະ": 2064,
      "ສີ່ສິບ": 2065,
      "ນອກຈາກ": 2066,
      "ທໍລະຍົດ": 2067,
      "ພາລະກິດ": 2068,
      "ປົດປ່ອຍ": 2069,
      "ເຄືອ": 2070,
      "ສຳນຶກ": 2071,
      "ກົງກັນຂ້າມ": 2072,
      "ບາລາອາມ": 2073,
      "ພິຈາລະນາ": 2074,
      "ຕົບ": 2075,
      "ໜາມ": 2076,
      "ປະສົມ": 2077,
      "ໂດນ": 2078,
      "ເດື່ອ": 2079,
      "ເຜິ້ງ": 2080,
      "ໝາກເດື່ອ": 2081,
      "ທັນໃດ": 2082,
      "ປຽບ": 2083,
      "ຜານ": 2084,
      "ສ້ອມ": 2085,
      "ຄວບ": 2086,
      "ເອເຊ": 2087,
      "ອາຣ": 2088,
      "ະນາ": 2089,
      "ສາລາ": 2090,
      "ຂາບ": 2091,
      "ດຽວກ": 2092,
      "ທຸບ": 2093,
      "ລານ": 2094,
      "ຮອຍ": 2095,
      "ື້ນ": 2096,
      "້ຽນ": 2097,
      "ກັບຄືນ": 2098,
      "ປະພຶດ": 2099,
      "ສິ່ງທີ່": 2100,
      "ສິດອຳນາດ": 2101,
      "ຝູງແກະ": 2102,
      "ລ້ຽງແກະ": 2103,
      "ດຽວກັນ": 2104,
      "ຄຶງ": 2105,
      "ຍຸກ": 2106,
      "ມົງ": 2107,
      "ຫ່ຽວ": 2108,
      "ມີດີ": 2109,
      "ຄວາມມືດ": 2110,
      "້ວາງ": 2111,
      "ເຊືອກ": 2112,
      "ໄວ້ວາງ": 2113,
      "ຕ່າງຊາດ": 2114,
      "ພືດພັນ": 2115,
      "ກາບໄຫວ້": 2116,
      "ຮານານ": 2117,
      "ໄມ້ຄ້ອນເທົ້າ": 2118,
      "ມີດີອານ": 2119,
      "ກູ": 2120,
      "ຂັ້ນ": 2121,
      "ນິນ": 2122,
      "ຝາກ": 2123,
      "ມໍ": 2124,
      "ສູດ": 2125,
      "ອ່າງ": 2126,
      "ຫລຸດ": 2127,
      "ມີກາ": 2128,
      "ປະດັບ": 2129,
      "ຄວາມໝາຍ": 2130,
      "ຈາກນັ້ນ": 2131,
      "ກະສອບ": 2132,
      "ເລບານ": 2133,
      "ອາຊະ": 2134,
      "ກ່າວຫາ": 2135,
      "ເສື່ອມ": 2136,
      "ລີ້ນ": 2137,
      "ແໜ້ນ": 2138,
      "ໄຮ້": 2139,
      "ເຊເດກີຢາ": 2140,
      "ເອື້ອຍ": 2141,
      "ສ້ອມແປງ": 2142,
      "ໄວ້ວາງໃຈ": 2143,
      "ຍືນ": 2144,
      "ມຸງ": 2145,
      "ສຶກ": 2146,
      "້ຍ": 2147,
      "ໝໍ": 2148,
      "ມາຣີ": 2149,
      "ອອກມາ": 2150,
      "ໂດດ": 2151,
      "ປີລາດ": 2152,
      "ຄໍາໝັ້ນສັນຍາ": 2153,
      "ພຣະຄຣິດເຈົ້າເຢຊູ": 2154,
      "ດົນນານ": 2155,
      "ໂຫດຮ້າຍ": 2156,
      "ອຸດົມສົມບູນ": 2157,
      "ທ່ຽງທຳ": 2158,
      "ຄວບຄຸມ": 2159,
      "ຈູດ": 2160,
      "ປາດ": 2161,
      "ປິ່ນ": 2162,
      "າດາບ": 2163,
      "ສັດລ້ຽງ": 2164,
      "ທຸກໃຈ": 2165,
      "ລີຢາ": 2166,
      "ພິສູດ": 2167,
      "ນັບຖື": 2168,
      "ຂັດສົນ": 2169,
      "ວິຖີທາງ": 2170,
      "ອຸບມຸງ": 2171,
      "ທຳມະສາລາ": 2172,
      "ຜ້າຝ້າຍລິນິນ": 2173,
      "ມົງກຸດ": 2174,
      "ເລບານອນ": 2175,
      "ຄາດ": 2176,
      "ຄ້າງ": 2177,
      "ຢຽດ": 2178,
      "ລູ": 2179,
      "ຮິນ": 2180,
      "ແລງ": 2181,
      "ເອັດ": 2182,
      "ເຢຣິ": 2183,
      "ຂໍຮ້ອງ": 2184,
      "ເດໄກ": 2185,
      "ບໍລິເວນ": 2186,
      "ໝັ້ນໃຈ": 2187,
      "ລະບາດ": 2188,
      "ກ້າຫານ": 2189,
      "ມໍເດໄກ": 2190,
      "ກືນ": 2191,
      "ຊາເຣ": 2192,
      "ຕ່ອນ": 2193,
      "ຟື້ນ": 2194,
      "ຢັນ": 2195,
      "ິ່ມ": 2196,
      "ແອກ": 2197,
      "ທີ່ດິນ": 2198,
      "າເນ": 2199,
      "ຜູ້ທໍານວາຍ": 2200,
      "ນ້ຳສ້າງ": 2201,
      "ຫາຍໃຈ": 2202,
      "ລະບຽງ": 2203,
      "ນໍ": 2204,
      "ຜູກ": 2205,
      "ວຸ້ນ": 2206,
      "ອິນ": 2207,
      "ອູດ": 2208,
      "ຫລຽວ": 2209,
      "ເຊົາ": 2210,
      "ເລັກ": 2211,
      "ເຄມ": 2212,
      "ເຫຍ": 2213,
      "ຊີນີ": 2214,
      "ຊາວເລວີ": 2215,
      "ອັບຣາມ": 2216,
      "ຢືນຢັນ": 2217,
      "ສະຫລັກ": 2218,
      "ອາບີເມເຫລັກ": 2219,
      "ສືບຕໍ່": 2220,
      "ຄູສອນກົດບັນຍັດ": 2221,
      "ວຸ້ນວາຍ": 2222,
      "ຊ້າຍ": 2223,
      "ຕຽງ": 2224,
      "ຖ້ວນ": 2225,
      "ສະພາບ": 2226,
      "ຖືພາ": 2227,
      "ຕົນເອງ": 2228,
      "ລາຊີນີ": 2229,
      "ບາຣ": 2230,
      "ກົດເກນ": 2231,
      "ຕົກລົງ": 2232,
      "ແຊມ": 2233,
      "ແທ້ຈິງ": 2234,
      "ອຸປະ": 2235,
      "ແສງສະຫວ່າງ": 2236,
      "ເຢໂຮຍອາກ": 2237,
      "ງົດງາມ": 2238,
      "ກິ່ງ": 2239,
      "ດື້": 2240,
      "ປອມ": 2241,
      "ລາບານ": 2242,
      "ສະທ": 2243,
      "ຄຳສອນ": 2244,
      "ດີດ": 2245,
      "ໂຕສິງ": 2246,
      "ນຳພາ": 2247,
      "ເດໂອນ": 2248,
      "ຊື່ສຽງ": 2249,
      "ສີແດງ": 2250,
      "ທົດລອງ": 2251,
      "ເລົ້າໂລມ": 2252,
      "ແຊມຊັນ": 2253,
      "ຊິມ": 2254,
      "ມຸ່ງ": 2255,
      "ຮິດ": 2256,
      "ເຮໂຣດ": 2257,
      "ອິດຊະ": 2258,
      "ຜົນລະ": 2259,
      "ເສື້ອຜ້າ": 2260,
      ".)": 2261,
      "ຕາກ": 2262,
      "ທາຍ": 2263,
      "ຜິວ": 2264,
      "ວັດ": 2265,
      "າເກ": 2266,
      "ໂລດ": 2267,
      "ຊີເຄມ": 2268,
      "ທາງເພດ": 2269,
      "ເກົ້າ": 2270,
      "ຮູ້ສຶກ": 2271,
      "ຮ້ອງຂໍ": 2272,
      "ເຣໂຫ": 2273,
      "ແຮ້ວ": 2274,
      "ໜັງສືມ້ວນ": 2275,
      "ຜົນລະປູກ": 2276,
      "ເຣໂຫໂບອາມ": 2277,
      "12": 2278,
      "ຂັ": 2279,
      "ຂື່ນ": 2280,
      "ດາມ": 2281,
      "ທາມ": 2282,
      "ລາກ": 2283,
      "ຫົ່ມ": 2284,
      "ັສ": 2285,
      "ກໍຕາມ": 2286,
      "ປະເຊີນ": 2287,
      "ຄວາມສະຫວ່າງ": 2288,
      "ອາຈານ": 2289,
      "ເໝາະ": 2290,
      "ໂມງ": 2291,
      "ໂຕ້": 2292,
      "ຕອບແທນ": 2293,
      "ຕິຍົດ": 2294,
      "ຕີເຣ": 2295,
      "ສະໜາ": 2296,
      "ຫັກພັງ": 2297,
      "ເຢຣິໂກ": 2298,
      "ອິດຊະມ": 2299,
      "ຂັວນ": 2300,
      "10": 2301,
      "ຂ້ຽນ": 2302,
      "ພົນ": 2303,
      "ແຫລ": 2304,
      "ຜູ້ທີ່": 2305,
      "ສັດປ່າ": 2306,
      "ແມນ": 2307,
      "ທຸກຢ່າງ": 2308,
      "ຢ່າງນັ້ນ": 2309,
      "ບາຊານ": 2310,
      "ກີເດໂອນ": 2311,
      "ໜີ້": 2312,
      "ຜ່ານທາງ": 2313,
      "ຂົມຂື່ນ": 2314,
      "ຮິດຕີ": 2315,
      "ອິດຊະມາເອນ": 2316,
      "ຈົ່ມ": 2317,
      "ມາດ": 2318,
      "ເຊກາ": 2319,
      "ອັບເນ": 2320,
      "ພັກຜ່ອນ": 2321,
      "ດວງດາວ": 2322,
      "ທະນາ": 2323,
      "ເນື້ອໜັງ": 2324,
      "ຖ້ວຍ": 2325,
      "ເຊກາຣີຢາ": 2326,
      "50": 2327,
      "ຍົວ": 2328,
      "ທູນ": 2329,
      "ໄຖ": 2330,
      "ຄົນບາບ": 2331,
      "ເອຟາ": 2332,
      "ດ້ວຍວ່າ": 2333,
      "ຫລາຍກວ່າ": 2334,
      "ເກດ": 2335,
      "ມອບໝາຍ": 2336,
      "ແຂ້ວ": 2337,
      "ສະຖາ": 2338,
      "ເຈັບປ່ວຍ": 2339,
      "ດາມັສ": 2340,
      "ຍົວະ": 2341,
      "ດາມັສກັດ": 2342,
      "ສຸ": 2343,
      "ສົນທ": 2344,
      "ອິ່ມ": 2345,
      "ເປີ": 2346,
      "ປະການ": 2347,
      "ແຕນ": 2348,
      "ທັງສອງ": 2349,
      "ກະຕິ": 2350,
      "ຊົ່ວຊ້າ": 2351,
      "ຊະໂບ": 2352,
      "ເງົາ": 2353,
      "ກຽດຕິຍົດ": 2354,
      "ລັງກຽດ": 2355,
      "ບາດແຜ": 2356,
      "ຕັກແຕນ": 2357,
      "ໂຟດ": 2358,
      "ດື້ດ້ານ": 2359,
      "ກາເ": 2360,
      "ຄາງ": 2361,
      "ຄ້ຳ": 2362,
      "ຊຳນ": 2363,
      "ຕັນ": 2364,
      "ບວນ": 2365,
      "ມ່ວງ": 2366,
      "ສາດ": 2367,
      "ໄດ້ຮັບ": 2368,
      "ກະຫາຍ": 2369,
      "ືອຍ": 2370,
      "ນ້ຳເຜິ້ງ": 2371,
      "ປົກກະຕິ": 2372,
      "ໝາກອະງຸ່ນ": 2373,
      "ຮາມານ": 2374,
      "ອາຮາ": 2375,
      "ຍາດພີ່ນ້ອງ": 2376,
      "ຂະບວນ": 2377,
      "ທົດສອບ": 2378,
      "ສັງເກດ": 2379,
      "ຫ່ຽວແຫ້ງ": 2380,
      "ສະທ້ານ": 2381,
      "ນາດາບ": 2382,
      "ຟືນ": 2383,
      "ຟຣັດ": 2384,
      "ເອຊາ": 2385,
      "ອາແມນ": 2386,
      "ເຕົາ": 2387,
      "ເຕີມ": 2388,
      "ໂຢອາດ": 2389,
      "ເອີຟຣັດ": 2390,
      "ພຽງແຕ່": 2391,
      "ຫ້າສິບ": 2392,
      "ດົນຕີ": 2393,
      "ເນື່ອງຈາກ": 2394,
      "ດ້ວຍເຫດນີ້": 2395,
      "ຊຳນານ": 2396,
      "ເອຊາຢາ": 2397,
      ",”": 2398,
      "ຂຸດ": 2399,
      "ຄົ້ນ": 2400,
      "ຖ້ຳ": 2401,
      "ປຸກ": 2402,
      "ພຸ": 2403,
      "ວານ": 2404,
      "ໄນ": 2405,
      "ປະນາ": 2406,
      "ກະຖ": 2407,
      "ເຢຊີ": 2408,
      "ໂມທະນາ": 2409,
      "ຊາດົກ": 2410,
      "ເຣັດ": 2411,
      "ສີມ່ວງ": 2412,
      "ປ່ອງ": 2413,
      "ວາງໃຈ": 2414,
      "ສິ້ນສຸດ": 2415,
      "ເຢໂຮຍອາດາ": 2416,
      "ແຕະຕ້ອງ": 2417,
      "ຈັງ": 2418,
      "ຈື່": 2419,
      "ປູ": 2420,
      "ຜືນ": 2421,
      "ພຸ່ງ": 2422,
      "ຸ້ງ": 2423,
      "ທີ່ຮັກ": 2424,
      "ເຮັມ": 2425,
      "ເຂົ່າ": 2426,
      "ຄວາມຝັນ": 2427,
      "ເຊມາ": 2428,
      "ຊາຕານ": 2429,
      "ເມື່ອຍ": 2430,
      "ລາຄາ": 2431,
      "ເດັດ": 2432,
      "ພຣະຜູ້ຊ່ວຍ": 2433,
      "ຄໍາສັ່ງ": 2434,
      "ຊັບສິນ": 2435,
      "ອ່ອນແອ": 2436,
      "ຈົດຈຳ": 2437,
      "ອາຊາຣີຢາ": 2438,
      "ຂະຫຍ": 2439,
      "ຄອຍຖ້າ": 2440,
      "ເໝາະສົມ": 2441,
      "ສະຖາປະນາ": 2442,
      "ຊິນ": 2443,
      "ມົນ": 2444,
      "ຣິມ": 2445,
      "ລ້ຳ": 2446,
      "ເອກ": 2447,
      "’,": 2448,
      "ເປືອຍ": 2449,
      "ຄົນຕາຍ": 2450,
      "ປະຫານ": 2451,
      "ຄວາມຊື່ນຊົມຍິນດີ": 2452,
      "ເອໂຟດ": 2453,
      "ເລເຮັມ": 2454,
      "ອາທາ": 2455,
      "ສັດຮ້າຍ": 2456,
      "ໄວ້ທຸກ": 2457,
      "ອິດສາ": 2458,
      "ເກດາ": 2459,
      "ເນັບທາ": 2460,
      "ອາມາເ": 2461,
      "ເບື້ອງຂວາ": 2462,
      "ຊີເມໂອນ": 2463,
      "ຂ້ຽນຕີ": 2464,
      "ອາຮາຊີຢາ": 2465,
      "ຂະຫຍາຍ": 2466,
      "ເນັບທາລີ": 2467,
      "ຄະນະ": 2468,
      "ຊັ່ງ": 2469,
      "ຊິກ": 2470,
      "ຣາເຊ": 2471,
      "ຮຽກ": 2472,
      "ພຣະພອນ": 2473,
      "ເຊບູ": 2474,
      "ກະທໍາ": 2475,
      "ສີຟ້າ": 2476,
      "ເລື້ອຍ": 2477,
      "ແປວ": 2478,
      "ຍາກຈົນ": 2479,
      "ເບັດເລເຮັມ": 2480,
      "ຕອນເຊົ້າ": 2481,
      "ລົດຮົບ": 2482,
      "ສະຫງົບສຸກ": 2483,
      "ອາມາເຫລັກ": 2484,
      "ຮຽກຮ້ອງ": 2485,
      "ບີ": 2486,
      "ວົງ": 2487,
      "ສອດ": 2488,
      "ທີ່ພັກ": 2489,
      "ເປັ່ງ": 2490,
      "ສະສົມ": 2491,
      "ເອສະເທ": 2492,
      "່າງາມ": 2493,
      "ແມບ": 2494,
      "ເຖິງຢ່າງໃດ": 2495,
      "ໂຢຊີຢາ": 2496,
      "ສີດາ": 2497,
      "ໂກຮາດ": 2498,
      "ເທົ່າໃດ": 2499,
      "ອ້ອມຮອບ": 2500,
      "ໂນນພູ": 2501,
      "ເຫຍື່ອ": 2502,
      "ອຸປະມາ": 2503,
      "ເອສະເທີ": 2504,
      "ກັງ": 2505,
      "ຄັດ": 2506,
      "ບຳ": 2507,
      "ມາກ": 2508,
      "ມູນ": 2509,
      "ລາງ": 2510,
      "ຫົດ": 2511,
      "ະວະ": 2512,
      "ົ່ນ": 2513,
      "ໄດ": 2514,
      "ໄວຍ": 2515,
      "ແລກ": 2516,
      "້ອວດ": 2517,
      "ຄົນຊອບທຳ": 2518,
      "ຄວັນ": 2519,
      "ເອຊະ": 2520,
      "ການກະທຳ": 2521,
      "ເພື່ອວ່າ": 2522,
      "ເສຣາ": 2523,
      "ຮ້າຍແຮງ": 2524,
      "ເດຍ": 2525,
      "ອະໄວຍ": 2526,
      "ຊະປາ": 2527,
      "ພາສີ": 2528,
      "ຜິດຖຽງ": 2529,
      "ເນີດ": 2530,
      "ໂອ້ອວດ": 2531,
      "ແທ້ໆ": 2532,
      "ກ້າວ": 2533,
      "ທົນທຸກ": 2534,
      "ອົດອາຫານ": 2535,
      "ລັກສະ": 2536,
      "ກີເບອາ": 2537,
      "ອະໄວຍະວະ": 2538,
      "ຄ້ານ": 2539,
      "ທິບ": 2540,
      "ປົບ": 2541,
      "ຜະ": 2542,
      "ຢິດ": 2543,
      "ືລື": 2544,
      "ໜູນ": 2545,
      "ຂອງຂັວນ": 2546,
      "ພວກຫົວໜ້າ": 2547,
      "ື່ອຍ": 2548,
      "ເມຣາ": 2549,
      "ເຊຍ": 2550,
      "ຊີໂດນ": 2551,
      "ຈັກເທື່ອ": 2552,
      "ຊະເຣ": 2553,
      "ເຫດຜົນ": 2554,
      "ເໜັດ": 2555,
      "ສະຫງ່າງາມ": 2556,
      "ແຍ້ງ": 2557,
      "ຟີລິບ": 2558,
      "ຮາຊ": 2559,
      "ກິດຈະ": 2560,
      "ເນື້ອລະອຽດ": 2561,
      "ແຖບ": 2562,
      "ແຖວ": 2563,
      "ກະຕືລື": 2564,
      "ຊີເມອີ": 2565,
      "ຢຽບຢ": 2566,
      "ອາມາຊີຢາ": 2567,
      "ຣາເຊັນ": 2568,
      "ເຊບູໂລນ": 2569,
      "ບຳເໜັດ": 2570,
      "ກະຕືລືລົ້ນ": 2571,
      "),": 2572,
      "500": 2573,
      "ທຽບ": 2574,
      "ຢາເ": 2575,
      "ື້ອນ": 2576,
      "ເປົ້າ": 2577,
      "ເປື້ອນ": 2578,
      "ຜູ້ຊອບທຳ": 2579,
      "ໂລກລະບາດ": 2580,
      "ທົ່ງພຽງ": 2581,
      "ໄລ່ຕາມ": 2582,
      "ຫລັກຕະກຽງ": 2583,
      "ລ່ວງລັບ": 2584,
      "ກີເບໂອນ": 2585,
      "ລັກສະນະ": 2586,
      "ຢິດຊະເຣ": 2587,
      "ໜູນໃຈ": 2588,
      "ຢິດຊະເຣນ": 2589,
      "ຖອດ": 2590,
      "ນອງ": 2591,
      "ລຸ້ນ": 2592,
      "ຫລົບ": 2593,
      "ເຊັນ": 2594,
      "ອາໂດ": 2595,
      "ຄຳອຸປະມາ": 2596,
      "ຈົນກວ່າ": 2597,
      "ໂຊໂດມ": 2598,
      "ຈຳເປັນ": 2599,
      "ເຄື່ອງຖວາຍບູຊາ": 2600,
      "ຫໍຄອຍ": 2601,
      "ຮາດາດ": 2602,
      "ໂອກາດ": 2603,
      "ຜະລິດ": 2604,
      "ກິດຈະການ": 2605,
      "ກວນ": 2606,
      "ຂວັນ": 2607,
      "ຂຸນ": 2608,
      "ຄຸ": 2609,
      "ບ່າ": 2610,
      "ບີຢາ": 2611,
      "ຣານ": 2612,
      "ໝອບ": 2613,
      "ຄົນໃດ": 2614,
      "ຄົນລ້ຽງແກະ": 2615,
      "ສະໝ": 2616,
      "ຄວາມຮູ້": 2617,
      "ອາອີ": 2618,
      "ອາສັບ": 2619,
      "ເຖົ່າ": 2620,
      "ແມ່ນໍ້າ": 2621,
      "ບາຣະ": 2622,
      "ຄຳສັ່ງສອນ": 2623,
      "ເຄື່ອງເຜົາບູຊາ": 2624,
      "ກະດ້າງ": 2625,
      "ສົນໃຈ": 2626,
      "ລັນຕົນ": 2627,
      "ສະເທືອນ": 2628,
      "ສະບາຍ": 2629,
      "ເພິ່ງພາ": 2630,
      "ຂາບໄຫວ້": 2631,
      "ວັດແທກ": 2632,
      "ອາໂດນີ": 2633,
      "ຂຸນນາງ": 2634,
      "ຈູບ": 2635,
      "ດ້າຍ": 2636,
      "ທໍ້": 2637,
      "ພ້າ": 2638,
      "ພິດ": 2639,
      "ຟູ": 2640,
      "ຫ່ວງ": 2641,
      "ອົບ": 2642,
      "ຂອງປະທານ": 2643,
      "ແລະກັນ": 2644,
      "ຫລອມ": 2645,
      "ເປັນເມັດ": 2646,
      "ຄວາມເມດຕາ": 2647,
      "ຄວາມໂກດຮ້າຍ": 2648,
      "ຖືສິນ": 2649,
      "ເຢບຸດ": 2650,
      "ກັນແລະກັນ": 2651,
      "ເບນາ": 2652,
      "ເສີມ": 2653,
      "ພໍ່ແມ່": 2654,
      "ອະທິບ": 2655,
      "ເຣີ": 2656,
      "ກຳເນີດ": 2657,
      "ເງີຍ": 2658,
      "ວາງແຜນ": 2659,
      "ງົວຜູ້": 2660,
      "ຕາເວັນຕົກ": 2661,
      "ຂີ້ເຖົ່າ": 2662,
      "ແພ້": 2663,
      "ແກ່ນ": 2664,
      "ຂັດຂວາງ": 2665,
      "ອະທິບາຍ": 2666,
      "ກຸມ": 2667,
      "ຈອນ": 2668,
      "ທຽວ": 2669,
      "ຮາບ": 2670,
      "ໃຫ້ພົ້ນ": 2671,
      "ມີຊະປາ": 2672,
      "ເລີກ": 2673,
      "ຖືວ່າ": 2674,
      "ຢາໂກ": 2675,
      "ເຕີບ": 2676,
      "ນ້ຳພຸ": 2677,
      "ເກີດຜົນ": 2678,
      "ແນ່": 2679,
      "ທຳນຽມ": 2680,
      "ຫວີດ": 2681,
      "ພາຍຫລັງ": 2682,
      "ຢຶດຄອງ": 2683,
      "ແສ່ວ": 2684,
      "ແຈກ": 2685,
      "ເລີ່ມຕົ້ນ": 2686,
      "ປິດບັງ": 2687,
      "ແໜ່ງ": 2688,
      "ເຮັບເຣີ": 2689,
      "ຄວາມຄິດເຖິງ": 2690,
      "ອູຣິ": 2691,
      "ກິ່ນຫອມ": 2692,
      "ເບນາອີຢາ": 2693,
      "ຢາໂກໂບ": 2694,
      "ທ່າ": 2695,
      "ພ່າຍ": 2696,
      "ຢື": 2697,
      "ຫລາກ": 2698,
      "ຫລັ່ງ": 2699,
      "ຜູ້ຍິງ": 2700,
      "ຊາຄາ": 2701,
      "ເບເອນ": 2702,
      "ບ່ອນນີ້": 2703,
      "ແທງ": 2704,
      "ໂກງ": 2705,
      "ພິເສດ": 2706,
      "ກຳພ້າ": 2707,
      "ເຜົາໄໝ້": 2708,
      "ເຕັມໃຈ": 2709,
      "ນັກໂທດ": 2710,
      "ບົດເພງ": 2711,
      "ສວນອະງຸ່ນ": 2712,
      "ເລິກລັບ": 2713,
      "ລ່ວງລະເມີດ": 2714,
      "ຄົບຖ້ວນ": 2715,
      "ກະຕ່າ": 2716,
      "ກູເຊ": 2717,
      "ກັ້ນ": 2718,
      "ກາເລ": 2719,
      "ດຕ": 2720,
      "ບົວ": 2721,
      "ພາດ": 2722,
      "ມ່ວນ": 2723,
      "ລ່າມ": 2724,
      "ເຈດຕ": 2725,
      "ຫລີກ": 2726,
      "ກັບໃຈ": 2727,
      "ຄວາມສຸກ": 2728,
      "າເວົ້າ": 2729,
      "ເຊຣາ": 2730,
      "ເລືອ": 2731,
      "ຊາວກ": 2732,
      "ອິດຊາຄາ": 2733,
      "ຊ້ຳ": 2734,
      "ຫຍຸ້ງ": 2735,
      "ລາຍຊື່": 2736,
      "ຄົວເຮືອນ": 2737,
      "ແຂງກະດ້າງ": 2738,
      "ສະໜາມ": 2739,
      "ຂາຍໜ້າ": 2740,
      "ຄໍາເວົ້າ": 2741,
      "ສູນເສຍ": 2742,
      "ເຊມາອີຢາ": 2743,
      "ພຣະຜູ້ຊ່ວຍໃຫ້ພົ້ນ": 2744,
      "ເລື້ອຍໆ": 2745,
      "ກາເລັບ": 2746,
      "30": 2747,
      "ຮື້": 2748,
      "ຫລວດ": 2749,
      "ປະຫວ": 2750,
      "ເຮັດໃຫ້": 2751,
      "ບັນຊາ": 2752,
      "ໂລບ": 2753,
      "ຄຳພະຍານ": 2754,
      "ເຂົ້າຫວີດ": 2755,
      "ບາຫລາກ": 2756,
      "ຫລານຊາຍ": 2757,
      "ໂຈນ": 2758,
      "ແສນ": 2759,
      "ອາກາ": 2760,
      "ຕຳແໜ່ງ": 2761,
      "ແບ່ງປັນ": 2762,
      "ຕັກເຕືອນ": 2763,
      "ຮອງຮັບ": 2764,
      "ເຈດຕະນາ": 2765,
      "ປະຫວັດ": 2766,
      ",’": 2767,
      "100": 2768,
      "ວ່ອງ": 2769,
      "ສັ້ນ": 2770,
      "ຫ້ວ": 2771,
      "ຶ້ມ": 2772,
      "າເບ": 2773,
      "ຄົນງານ": 2774,
      "ສະບັບ": 2775,
      "ຊາຣາ": 2776,
      "ໜຶ່ງສ່ວນ": 2777,
      "ເສອີ": 2778,
      "ຖວາຍບູຊາ": 2779,
      "ນ້ຳນົມ": 2780,
      "ອະດີດ": 2781,
      "ກິນການ": 2782,
      "ເຜົາຜານ": 2783,
      "ສຳຫລວດ": 2784,
      "ຊາກສົບ": 2785,
      "ສິນທຳ": 2786,
      "ຄຸນຄ່າ": 2787,
      "ອາການ": 2788,
      "ໄຂ່": 2789,
      "ລ່ວງໜ້າ": 2790,
      "ນິ້ວ": 2791,
      "ອວດອ້າງ": 2792,
      "ເຕົ້າໂຮມກັນ": 2793,
      "ບ້ວງແຮ້ວ": 2794,
      "ອາເຊຣາ": 2795,
      "ກັງວົນ": 2796,
      "ພ່າຍແພ້": 2797,
      "ປະຫວັດສາດ": 2798,
      "ຫ້ວຍ": 2799,
      "ກິ": 2800,
      "ງ່າຍ": 2801,
      "ຈູງ": 2802,
      "ຊົດ": 2803,
      "ຕ້ອຍ": 2804,
      "ຕໍ່າ": 2805,
      "ທອດ": 2806,
      "ຝີ": 2807,
      "ຫວງ": 2808,
      "ຮົ່ມ": 2809,
      "ືອບ": 2810,
      "ຫລຽນ": 2811,
      "ຜູ້ພິພາກສາ": 2812,
      "ບໍ່ໄດ້": 2813,
      "ບໍ່ເຊື່ອ": 2814,
      "ເລີດ": 2815,
      "ຄື້ນ": 2816,
      "ຊີນາຍ": 2817,
      "ສາມສິບ": 2818,
      "ຫລັງຄາ": 2819,
      "ເນເກັບ": 2820,
      "ໂຄ່ນ": 2821,
      "ທະເລຊາຍ": 2822,
      "ຮາມັດ": 2823,
      "ເບັນຮາດາດ": 2824,
      "ສະໜິດ": 2825,
      "ແບບຢ່າງ": 2826,
      "ຂົ່ມຂ": 2827,
      "ຖ່ອມຕົວ": 2828,
      "ເຢໂຮຍອາກິມ": 2829,
      "ຊະໂບນ": 2830,
      "ຕັນຫາ": 2831,
      "ວ່ອງໄວ": 2832,
      "ຂ້ອງ": 2833,
      "ຄຽງ": 2834,
      "ຖັດ": 2835,
      "ທັກ": 2836,
      "ນາບາ": 2837,
      "ຣິບ": 2838,
      "ິຈັງ": 2839,
      "ເຈນ": 2840,
      "ເຮນ": 2841,
      "ຄວາມດີ": 2842,
      "ເຮັດຊະໂບນ": 2843,
      "ເລອາ": 2844,
      "ເລຂາ": 2845,
      "ຊີໂລ": 2846,
      "ອິດເມື່ອຍ": 2847,
      "ເກໂຊນ": 2848,
      "ເກີບ": 2849,
      "ເບກາ": 2850,
      "ທະວີ": 2851,
      "ຍ່ອມ": 2852,
      "ສາລະ": 2853,
      "ທຳນອງ": 2854,
      "ຍົກໂທດ": 2855,
      "ຫວານ": 2856,
      "ໂບດ": 2857,
      "ແນະນໍາ": 2858,
      "ຊັດເຈນ": 2859,
      "ສັບສົນ": 2860,
      "ຮຽນຮູ້": 2861,
      "ຄຸເຂົ່າ": 2862,
      "ບາຣະນາບາ": 2863,
      "ຝ່າ": 2864,
      "ຟ້ອງ": 2865,
      "ຮວງ": 2866,
      "ຮີມ": 2867,
      "າຄົດ": 2868,
      "ສະຈາກ": 2869,
      "ລູກທະນູ": 2870,
      "ົກກະ": 2871,
      "ໄວໆ": 2872,
      "ຮັບປະທານ": 2873,
      "ເຫັບ": 2874,
      "ທຳຮ້າຍ": 2875,
      "ໂຢນາ": 2876,
      "ໂຢຣາມ": 2877,
      "ສະຫາຍ": 2878,
      "ຸນລຳ": 2879,
      "ແຕ່ງກາຍ": 2880,
      "ໝາກໄມ້": 2881,
      "ໝາກເຫັບ": 2882,
      "ໂບອາດ": 2883,
      "ຣາມາ": 2884,
      "ນອນຫລັບ": 2885,
      "ພັນທະມິດ": 2886,
      "ໂຫນ": 2887,
      "ອະນາຄົດ": 2888,
      "ປັກແສ່ວ": 2889,
      "ເຄືອອະງຸ່ນ": 2890,
      "ເປີເຊຍ": 2891,
      "ປ່ອງຢ້ຽມ": 2892,
      "ມູນຄ່າ": 2893,
      "ລາງວັນ": 2894,
      "ແລກປ່ຽນ": 2895,
      "ຢືມ": 2896,
      "ກຣາມ": 2897,
      "ຂຽວ": 2898,
      "ຊິບ": 2899,
      "ບາເລ": 2900,
      "ມົດ": 2901,
      "ລ່າ": 2902,
      "ລຶກ": 2903,
      "ສົດ": 2904,
      "ອີ່ມ": 2905,
      "ຮັງ": 2906,
      "ຮິມ": 2907,
      "ຮີບ": 2908,
      "ໃຍ": 2909,
      "່ຍ": 2910,
      "ໜ່ວງ": 2911,
      "ຜູ້ໃຫຍ່": 2912,
      "ປະສົບ": 2913,
      "ປະກອບ": 2914,
      "ຄຳສາບານ": 2915,
      "ຕາລັນຕົນ": 2916,
      "ກົດລະບຽບ": 2917,
      "ໂກຣາ": 2918,
      "ຂະນະທີ່": 2919,
      "ຣີກ": 2920,
      "ຜົນປະໂຫຍດ": 2921,
      "ຮ່ວມກັນ": 2922,
      "ແຮງງານ": 2923,
      "ໂອເບັດ": 2924,
      "ເສຍໃຈ": 2925,
      "ອະນິຈັງ": 2926,
      "ໃບໜ້າ": 2927,
      "ຢ້ຽມຢາມ": 2928,
      "ສະໝັກ": 2929,
      "ມ່ວນຊື່ນ": 2930,
      "ສະໜາມຮົບ": 2931,
      "ດັດ": 2932,
      "ຖາ": 2933,
      "ທຽມ": 2934,
      "ບ່າວ": 2935,
      "ປຶ້ມ": 2936,
      "ຜາ": 2937,
      "ມາຍ": 2938,
      "ມົວ": 2939,
      "ຢາຍ": 2940,
      "ລຸນ": 2941,
      "ສົ້ນ": 2942,
      "ຮຽບ": 2943,
      "ມາອາກາ": 2944,
      "ສະພາ": 2945,
      "ເຊເບ": 2946,
      "ແມງ": 2947,
      "ຊາວອາໂມ": 2948,
      "ເກືອ": 2949,
      "ເນົ່າ": 2950,
      "ພູມ": 2951,
      "ກົດໝາຍ": 2952,
      "ສີໂຫນ": 2953,
      "ງານລ້ຽງ": 2954,
      "ໂຮເຣ": 2955,
      "ອາບີຢາ": 2956,
      "ຂໍ້ຄຳສັ່ງ": 2957,
      "ສິນຄ້າ": 2958,
      "ນົກເຂົາ": 2959,
      "ສະມາຊິກ": 2960,
      "ປະທັບຕາ": 2961,
      "ປົບໜີ": 2962,
      "25": 2963,
      "ຍົງ": 2964,
      "ຕື່ມ": 2965,
      "ບົນ": 2966,
      "ບາຍ": 2967,
      "ບົກ": 2968,
      "ປົ່ງ": 2969,
      "ຟັນ": 2970,
      "ບໍ່ສັດຊື່": 2971,
      "ເຮັດຫຍັງ": 2972,
      "ອາໂຣ": 2973,
      "ລະອາຍ": 2974,
      "ພະເນ": 2975,
      "ໃສ່ຮ້າຍ": 2976,
      "ໂຣມ": 2977,
      "ໂຊມ": 2978,
      "ເຣເບກາ": 2979,
      "ຜິດສິນທຳ": 2980,
      "ດູແລ": 2981,
      "ຢຶດໝັ້ນ": 2982,
      "ຂີ້ຄ້ານ": 2983,
      "ອຸດຊີ": 2984,
      "ລະບາຍ": 2985,
      "ປິດລ້ອມ": 2986,
      "ແຕກຕ່າງ": 2987,
      "ຫລັບນອນ": 2988,
      "ຫ່າງໄກ": 2989,
      "ລໍ້ລວງ": 2990,
      "ແນມເບິ່ງ": 2991,
      "ຕົບແຕ່ງ": 2992,
      "ອາຣາບາ": 2993,
      "ປາດສະຈາກ": 2994,
      "ຮິນກີຢາ": 2995,
      "ຊາເຣັດ": 2996,
      "ສົນທະນາ": 2997,
      "ເມຣາຣິ": 2998,
      "ເບເອນເຊບາ": 2999,
      "ຮີມສົບ": 3000,
      "ຮຽບຮ້ອຍ": 3001,
      "ພະເນຈອນ": 3002,
      "ກວາງ": 3003,
      "ຈອມ": 3004,
      "ຊວນ": 3005,
      "ຖ່ານ": 3006,
      "ທຸງ": 3007,
      "ປິ": 3008,
      "ປຸງ": 3009,
      "ຝຶກ": 3010,
      "ພົວ": 3011,
      "ພອຍ": 3012,
      "ຣຸດ": 3013,
      "ສາເ": 3014,
      "່ອຍ": 3015,
      "ໜ່າງ": 3016,
      "ຫລໍ່": 3017,
      "ເພພັງ": 3018,
      "ຄົນຊົ່ວ": 3019,
      "ເຫວ": 3020,
      "ດີໃຈ": 3021,
      "ເກັ່ງ": 3022,
      "ນາອາມ": 3023,
      "ນາໂອ": 3024,
      "ຣາໂມດ": 3025,
      "ແຂກ": 3026,
      "ພຽງພໍ": 3027,
      "ຊົມຊື່ນ": 3028,
      "ຄາຖາ": 3029,
      "ເຢໂຮຣາມ": 3030,
      "ສະໜັບ": 3031,
      "ຕອນແລງ": 3032,
      "ບາດເຈັບ": 3033,
      "ຈາລຶກ": 3034,
      "ແປກໆ": 3035,
      "ຈຸບັນ": 3036,
      "ສະບຽງ": 3037,
      "ປັດຈຸບັນ": 3038,
      "ນາໂອມີ": 3039,
      "ກຣີກ": 3040,
      "ຄາວ": 3041,
      "ຍໍ": 3042,
      "ດຸ": 3043,
      "ທ່ອນ": 3044,
      "ຟະ": 3045,
      "ມນ": 3046,
      "ຣິດ": 3047,
      "ຣິນ": 3048,
      "ລ້າ": 3049,
      "ສົກກະ": 3050,
      "ຫດ": 3051,
      "ື້ອມ": 3052,
      "ບໍ່ເປັນມົນທິນ": 3053,
      "ຄວາມອົດທົນ": 3054,
      "ເອລາມ": 3055,
      "ບັນຈຸ": 3056,
      "ອາຣີ": 3057,
      "ເວດ": 3058,
      "ລະບັດ": 3059,
      "ຄຳແນະນຳ": 3060,
      "ຕາໜ່າງ": 3061,
      "ພໍ່ຄ້າ": 3062,
      "ເນຍ": 3063,
      "ກິນລ້ຽງ": 3064,
      "ຕີສອນ": 3065,
      "ແກະສະຫລັກ": 3066,
      "ທະເລສາບ": 3067,
      "ສົງໄສ": 3068,
      "ເຢໂຮອາດ": 3069,
      "ສະໜູນ": 3070,
      "ອຸດຊີຢາ": 3071,
      "ຕັດສິນໃຈ": 3072,
      "ໝູ່ເພື່ອນ": 3073,
      "ເພີ່ມເຕີມ": 3074,
      "ແປກໜ້າ": 3075,
      "ອາເສ": 3076,
      "ສີແດງເຂັ້ມ": 3077,
      "ມຸ່ງໜ້າ": 3078,
      "ຜິວໜັງ": 3079,
      "ອາໂດນີຢາ": 3080,
      "ທໍ້ຖອຍ": 3081,
      "ບົວລະບັດ": 3082,
      "ທັກທາຍ": 3083,
      "ປິຕິ": 3084,
      "ພົວພັນ": 3085,
      "ສາເຫດ": 3086,
      "ສົກກະປົກ": 3087,
      "ກອນ": 3088,
      "ນູນ": 3089,
      "ມູ": 3090,
      "ມາເ": 3091,
      "ຣາກ": 3092,
      "ລອຍ": 3093,
      "ເຍ": 3094,
      "ໂຫລ": 3095,
      "່ຽມ": 3096,
      "ໝີ": 3097,
      "ໝູ": 3098,
      "ໝອກ": 3099,
      "ຄົນຍາກຈົນ": 3100,
      "ນີເນ": 3101,
      "ນ້ອຍໆ": 3102,
      "ຕາມາ": 3103,
      "ເທີດ": 3104,
      "ເຫລື້ອມ": 3105,
      "ຄຳອະທິຖານ": 3106,
      "ເກືອບ": 3107,
      "ບໍລິບ": 3108,
      "ເຕັ້ນ": 3109,
      "ໂຢທາມ": 3110,
      "ນາຊາເຣັດ": 3111,
      "ອະທຳ": 3112,
      "ເຊື່ອຖື": 3113,
      "ສ່ວນແບ່ງ": 3114,
      "ສີຢາ": 3115,
      "ວາງມື": 3116,
      "ສຳພັດ": 3117,
      "ຈິດສຳນຶກ": 3118,
      "ຫັນໜີ": 3119,
      "ຂີ້ທູດ": 3120,
      "ແສ້": 3121,
      "ນົກອິນ": 3122,
      "ອາບີອາທາ": 3123,
      "ອຳໂນນ": 3124,
      "ກົງກັບ": 3125,
      "ຄານຫາມ": 3126,
      "ຂັ້ນໄດ": 3127,
      "ປິ່ນປ": 3128,
      "ອູຣິຢາ": 3129,
      "ເລືອຄານ": 3130,
      "ນາອາມານ": 3131,
      "ນີເນເວ": 3132,
      "ບໍລິບູນ": 3133,
      "ນົກອິນຊີ": 3134,
      "ຈ້ອງ": 3135,
      "ດ່າ": 3136,
      "ດົມ": 3137,
      "ຕຸ": 3138,
      "ຜັກ": 3139,
      "ມອງ": 3140,
      "ມຸດ": 3141,
      "ຢັ້ງ": 3142,
      "ລັດ": 3143,
      "ຮົນ": 3144,
      "ໜາວ": 3145,
      "ພວກຄົນ": 3146,
      "ຫລົ້ມ": 3147,
      "ກໍລະ": 3148,
      "ປະກັນ": 3149,
      "ເຊມ": 3150,
      "ການປະຕິບັດ": 3151,
      "ກະແສ": 3152,
      "ບັນດານ": 3153,
      "ເລງ": 3154,
      "ອາທິດ": 3155,
      "ໃຈເກົ່າ": 3156,
      "ທຸກລຳບາກ": 3157,
      "ຄຳນັບ": 3158,
      "ອີຊະ": 3159,
      "ໂມຣາ": 3160,
      "ໂມທຽວ": 3161,
      "ເຄື່ອງຂອງ": 3162,
      "ເຄື່ອງໝາຍ": 3163,
      "ໂຕເຟ": 3164,
      "ຊູອາ": 3165,
      "ຍ່ອງ": 3166,
      "ຢ່າຮ້າງ": 3167,
      "ຕາປະທັບ": 3168,
      "ປົກເອິກ": 3169,
      "ຕີໂມທຽວ": 3170,
      "ແຜ່ນປົກເອິກ": 3171,
      "ໂກດ": 3172,
      "ຍົກເວັ້ນ": 3173,
      "ຖິ້ມໃຈເກົ່າ": 3174,
      "ໃກ້ຊິດ": 3175,
      "ງົວເຖິກ": 3176,
      "ຮູບປັ້ນ": 3177,
      "ເມຍນ້ອຍ": 3178,
      "ພາຍນອກ": 3179,
      "ເສື້ອເອໂຟດ": 3180,
      "ສະໜອງ": 3181,
      "ແກ້ວ": 3182,
      "ລົ້ມລົງ": 3183,
      "ປານໃດ": 3184,
      "ສືບທອດ": 3185,
      "ລອດພົ້ນ": 3186,
      "ຊັກຊວນ": 3187,
      "ເອົາໃຈໃໝ່": 3188,
      "ຊາຟານ": 3189,
      "ລຶບລ້າງບາບ": 3190,
      "ບໍ່ມີຕຳໜິ": 3191,
      "ລູມ": 3192,
      "ຕ່ອນໆ": 3193,
      "ເລັກນ້ອຍ": 3194,
      "ພົນລະ": 3195,
      "ຜູ້ທີ່ເຊື່ອ": 3196,
      "ແປວໄຟ": 3197,
      "ເອຊະຣາ": 3198,
      "ຫ່ວງໃຍ": 3199,
      "າເບນ": 3200,
      "ສະໜັບສະໜູນ": 3201,
      "ເທີດທູນ": 3202,
      "ປິ່ນປົວ": 3203,
      "ກໍລະນີ": 3204,
      "ຖິ້ມໃຈເກົ່າເອົາໃຈໃໝ່": 3205,
      "ຄຸ້ມ": 3206,
      "ຊໍ": 3207,
      "ຊຸກ": 3208,
      "ຕົ້ມ": 3209,
      "ຖາວ": 3210,
      "ທົບ": 3211,
      "ປ້າຍ": 3212,
      "ຜາກ": 3213,
      "ພ້": 3214,
      "ລວດ": 3215,
      "ໃພ້": 3216,
      "ໄຕ": 3217,
      "ໝູບ": 3218,
      "ເຈົ້າບ່າວ": 3219,
      "ເປື່ອຍ": 3220,
      "ສະເ": 3221,
      "ຄວາມຍຸຕິທຳ": 3222,
      "ເຊເຊັດ": 3223,
      "ອາຄານ": 3224,
      "ລະເວັ້ນ": 3225,
      "ໜ້າຜາກ": 3226,
      "ກ່າວໂທດ": 3227,
      "ອີງ": 3228,
      "ໂມ້": 3229,
      "ບ່ອນນອນ": 3230,
      "ເນໂກ": 3231,
      "ກາຍຊາ": 3232,
      "ບາອາຊາ": 3233,
      "ສິບສີ່": 3234,
      "ຕົ້ນເຫດ": 3235,
      "ໂຮຍ": 3236,
      "ເຊື້ອລາ": 3237,
      "ຜົນຜະລິດ": 3238,
      "ຈັດຫາ": 3239,
      "ສະຫລະ": 3240,
      "ສິນບົນ": 3241,
      "ເທດສະໜາ": 3242,
      "ລົມຫາຍໃຈ": 3243,
      "ເຟືອງ": 3244,
      "ຮຸ່ງເຊົ້າ": 3245,
      "ປ່ຽນແປງ": 3246,
      "ຂັດແຍ້ງ": 3247,
      "ສັ່ນສະເທືອນ": 3248,
      "ຍ້ອງຍໍ": 3249,
      "ອຸບາຍ": 3250,
      "ສ່ອງແສງ": 3251,
      "ຮານານີຢາ": 3252,
      "ມີກາອີຢາ": 3253,
      "ບາຣຸກ": 3254,
      "ກະຖິນ": 3255,
      "ລ້ຳຄ່າ": 3256,
      "ເກດາລີຢາ": 3257,
      "ຮາຊາເອນ": 3258,
      "ເຕີບໃຫຍ່": 3259,
      "ມົດລູກ": 3260,
      "ພົນລະເມືອງ": 3261,
      "ຊໍລູມ": 3262,
      "ຖາວອນ": 3263,
      "ກັກ": 3264,
      "ຂົງ": 3265,
      "ຈໍາ": 3266,
      "ບີບ": 3267,
      "ປົນ": 3268,
      "ປາບ": 3269,
      "ປ່ວຍ": 3270,
      "ມອດ": 3271,
      "ອົມ": 3272,
      "ທີ່ປຶກສາ": 3273,
      "ຫລ່ຽມ": 3274,
      "າເດ": 3275,
      "ດາຣິ": 3276,
      "ຊາຍໜຸ່ມ": 3277,
      "ຮັບພິທີຕັດ": 3278,
      "ເທາະ": 3279,
      "ລະດົມ": 3280,
      "ຊາວສີ່": 3281,
      "ທີເຈັດ": 3282,
      "ນ້ຳຕາ": 3283,
      "ນ້ຳຫອມ": 3284,
      "ພໍ່ເຖົ້າ": 3285,
      "ສາວບໍລິສຸດ": 3286,
      "ລິ້ນ": 3287,
      "ພາຊະນະ": 3288,
      "ນາຍຮ້ອຍ": 3289,
      "ໂກກ": 3290,
      "ມານາ": 3291,
      "ປ່ຽງ": 3292,
      "ກອງທະຫານ": 3293,
      "ສຳພັນ": 3294,
      "ທິດຕາເວັນອອກ": 3295,
      "ຮູບຮ່າງ": 3296,
      "ອາກີ": 3297,
      "ວາລະ": 3298,
      "ລຳດັບ": 3299,
      "ກວາດລ້າງ": 3300,
      "ຟື້ນຟູ": 3301,
      "ຫລົ້ມຈົມ": 3302,
      "ສະເໜີ": 3303,
      "ຂົງເຂດ": 3304,
      "ດາຣິອຸດ": 3305,
      "ກອດ": 3306,
      "ຄຽດ": 3307,
      "ຖິງ": 3308,
      "ນວດ": 3309,
      "ປີນ": 3310,
      "ຜ່າ": 3311,
      "ຟຸ່ມ": 3312,
      "ມວນ": 3313,
      "ມຸມ": 3314,
      "ມິກ": 3315,
      "ມາເກ": 3316,
      "ຣັບ": 3317,
      "ສໍ": 3318,
      "ຫໍ່": 3319,
      "ອໍ": 3320,
      "’?": 3321,
      "ັນນາ": 3322,
      "ຫລົ່ນ": 3323,
      "ຄົນຢິວ": 3324,
      "ບໍ່ນ້ຳ": 3325,
      "ສະເພາະ": 3326,
      "ເມຊ": 3327,
      "ເຊຣູ": 3328,
      "ເອັນ": 3329,
      "ເອັກ": 3330,
      "ການຖວາຍ": 3331,
      "ລູກສິດ": 3332,
      "ລະມີ": 3333,
      "ຊີ້": 3334,
      "ເບືອນ": 3335,
      "ລາຊາ": 3336,
      "ໂດເນຍ": 3337,
      "ເຫັນຮຸ່ງ": 3338,
      "ໂຢສີຢາ": 3339,
      "ນ້ຳໜັກ": 3340,
      "ນາໂບດ": 3341,
      "ເຣຟາ": 3342,
      "ບາລະມີ": 3343,
      "ເອນການາ": 3344,
      "ກຳໄລ": 3345,
      "ລຸກໄໝ້": 3346,
      "ໜັກໜ່ວງ": 3347,
      "ຄ່າຈ້າງ": 3348,
      "ສະໜຸກ": 3349,
      "ອ່ອນແຮງ": 3350,
      "ຮ້ອນຮົນ": 3351,
      "ຮີຣາມ": 3352,
      "ປຽບທຽບ": 3353,
      "ສິ່ງທີ່ມີຊີວິດ": 3354,
      "ຍືນຍາວ": 3355,
      "ເຢໂຮຍອາກິນ": 3356,
      "ເດັດຂາດ": 3357,
      "ຢຽບຢ່ຳ": 3358,
      "ນິ້ວມື": 3359,
      "ພູມໃຈ": 3360,
      "ເວດມົນ": 3361,
      "ມາເກໂດເນຍ": 3362,
      "60": 3363,
      "ກົນ": 3364,
      "ຂວານ": 3365,
      "ຄອກ": 3366,
      "ຈຸ່ມ": 3367,
      "ດໍາ": 3368,
      "ຕັບ": 3369,
      "ບາເບນ": 3370,
      "ປັ່ນ": 3371,
      "ຣາດ": 3372,
      "ຣາເນ": 3373,
      "ຮຸກ": 3374,
      "ພຣະບັນຍັດ": 3375,
      "ເປ້ຍ": 3376,
      "ຄົນອື່ນ": 3377,
      "ຄົນແປກໜ້າ": 3378,
      "ປະເພດ": 3379,
      "ຄວາມເຂົ້າໃຈ": 3380,
      "ຄວາມປາຖະໜາ": 3381,
      "ເຊີຍ": 3382,
      "ເອເຟ": 3383,
      "ລູກກົກ": 3384,
      "ໄວ້ໃຈ": 3385,
      "ເຢັບທາ": 3386,
      "ຂໍເກາະ": 3387,
      "ເຊິ່ງກັນແລະກັນ": 3388,
      "ຊົ່ວໂມງ": 3389,
      "ເນຮາ": 3390,
      "ລີອາດ": 3391,
      "ໄມ້ສີດາ": 3392,
      "ໄມ້ກະຖິນ": 3393,
      "ສີຂາວ": 3394,
      "ມານຊາຕານ": 3395,
      "ພິລາ": 3396,
      "ວິນຍານສົກກະປົກ": 3397,
      "ຕູບ": 3398,
      "ຄວນຄາງ": 3399,
      "ຟີເນຮາ": 3400,
      "ນັກຮ້ອງ": 3401,
      "ພັນທະກິດ": 3402,
      "ຣິອາດ": 3403,
      "ກ່ຽວຂ້ອງ": 3404,
      "ອາບີໄຊ": 3405,
      "ໂຫ່ຮ້ອງ": 3406,
      "ເລົ້າໂລມໃຈ": 3407,
      "ກາເດັດ": 3408,
      "ມາເຖິງ": 3409,
      "ລວດລາຍ": 3410,
      "ເມຊຸນລຳ": 3411,
      "ເຊຣູອີຢາ": 3412,
      "ຢາງ": 3413,
      "ຫາງ": 3414,
      "ຮຸດ": 3415,
      "ໝອງ": 3416,
      "ໝື່ນ": 3417,
      "ໝວດ": 3418,
      "ເຮຊະ": 3419,
      "ໃນທັນໃດ": 3420,
      "ມີດ": 3421,
      "ກັບດັກ": 3422,
      "ແຕຣາເນ": 3423,
      "ເຊົ່າ": 3424,
      "ເຊຣຸບ": 3425,
      "ກະວາຍ": 3426,
      "ກະວົນ": 3427,
      "ບັນທຸກ": 3428,
      "ບັນຊີ": 3429,
      "ອາໂມນ": 3430,
      "ຊາບັດ": 3431,
      "ໃຈຄົດ": 3432,
      "ເຢັນ": 3433,
      "ເຄົ້າ": 3434,
      "ຊາວອິດສະຣາເອນ": 3435,
      "ໜ້າຊື່": 3436,
      "ຄຳຕອບ": 3437,
      "ຕັ້ງໝັ້ນຄົງ": 3438,
      "ເນບັດ": 3439,
      "ນາຍພັນ": 3440,
      "ໄມ້ແສ້": 3441,
      "ແຂວນ": 3442,
      "ສີມື": 3443,
      "ດຽວນີ້": 3444,
      "ສຽງດັງ": 3445,
      "ອາດາມ": 3446,
      "ໂກນ": 3447,
      "ພິການ": 3448,
      "ຟ້າຮ້ອງ": 3449,
      "ຍົກເລີກ": 3450,
      "ກວຽນ": 3451,
      "ໝາກໄຂ່": 3452,
      "ເກັບພາສີ": 3453,
      "ບາງທີ": 3454,
      "ລົບກວນ": 3455,
      "ນັກປາດ": 3456,
      "ໂອໂຮ": 3457,
      "ບິດເບືອນ": 3458,
      "ແຄບ": 3459,
      "ອາກໂນນ": 3460,
      "ລວມທັງ": 3461,
      "ອ້າຍນ້ອງ": 3462,
      "ຕຽມພ້ອມ": 3463,
      "ກວ້າງຂວາງ": 3464,
      "ໄຊຣັດ": 3465,
      "ຄໍ່າ": 3466,
      "ດ້ວຍເຫດໃດ": 3467,
      "ຮີວີ": 3468,
      "ແຫລມ": 3469,
      "ມາກີ": 3470,
      "ແນ່ໃຈ": 3471,
      "ຊົດໃຊ້": 3472,
      "ຂົ່ມຂູ່": 3473,
      "ຮິມສົບ": 3474,
      "ອາເສອີຢາ": 3475,
      "ປິຕິຍິນດີ": 3476,
      "ເຊຣຸບບາເບນ": 3477,
      "ໜ້າຊື່ໃຈຄົດ": 3478,
      "ຊຸ່ມ": 3479,
      "ບ້າ": 3480,
      "ຫຶງ": 3481,
      "ອໍ້": 3482,
      "ຮະ": 3483,
      "ໝຸ່ນ": 3484,
      "ເຈາະ": 3485,
      "ານົດ": 3486,
      "ເປເຣັດ": 3487,
      "ຫລ້າ": 3488,
      "ກໍານົດ": 3489,
      "ເຊເມດ": 3490,
      "ເອເດ": 3491,
      "ຫລາຍຄົນ": 3492,
      "ເຂົ້າບາເລ": 3493,
      "ເບຍ": 3494,
      "ຊ້ອນ": 3495,
      "ເຄື່ອງເທດ": 3496,
      "ນຳໜ້າ": 3497,
      "ສຸດໃຈ": 3498,
      "ໂຢເອນ": 3499,
      "ເບິ່ງແມ": 3500,
      "ສົ່ງຂ່າວ": 3501,
      "ຟ້າແມບ": 3502,
      "ຜົນງານ": 3503,
      "ຜ້າກະສອບ": 3504,
      "ເຕັມທີ່": 3505,
      "ໂບກ": 3506,
      "ທິການ": 3507,
      "ກາຊາ": 3508,
      "ເຢໂຮອາຮາດ": 3509,
      "ອາກາດ": 3510,
      "ຜູ້ນໍາ": 3511,
      "ແຈງ": 3512,
      "ແຕກແຍກ": 3513,
      "ລາຊະວັງ": 3514,
      "ໂຢຮານ": 3515,
      "ແກ້ໄຂ": 3516,
      "ສັບພະ": 3517,
      "ກະຕຸ້ນ": 3518,
      "ຄ້າຂາຍ": 3519,
      "ລາກິດ": 3520,
      "ເປືອຍກາຍ": 3521,
      "ແຈກຢາຍ": 3522,
      "ໜຶ່ງສ່ວນສິບ": 3523,
      "ເລຂາທິການ": 3524,
      "ກົນອຸບາຍ": 3525,
      "ຮຸກຮານ": 3526,
      "ກະວົນກະວາຍ": 3527,
      "ໝາກໄຂ່ຫລັງ": 3528,
      "ຫຶງຫວງ": 3529,
      "ຕົມ": 3530,
      "ນາບານ": 3531,
      "ປ້ອຍ": 3532,
      "ຢັ່ງ": 3533,
      "ຢ່ອນ": 3534,
      "ຣາຍ": 3535,
      "ສຽບ": 3536,
      "ຫິມ": 3537,
      "ໜຳ": 3538,
      "ໜວດ": 3539,
      "າເນີ": 3540,
      "ຄົນໂງ່": 3541,
      "ມາອາເສອີຢາ": 3542,
      "ເມດີ": 3543,
      "ຄວາມຊົ່ວ": 3544,
      "ການພິພາກສາ": 3545,
      "ອາຄົມ": 3546,
      "ພະນັກ": 3547,
      "ຊີລາ": 3548,
      "ຊາວເອຢິບ": 3549,
      "ເຂົ້າມາ": 3550,
      "າບາກ": 3551,
      "ເຫັນແກ່": 3552,
      "ບູຮານ": 3553,
      "ເດ່": 3554,
      "ຊູຊາ": 3555,
      "ອັນຕີ": 3556,
      "ປົກປິດ": 3557,
      "ກາງແກ": 3558,
      "ລີລາ": 3559,
      "ຊະໂຕ": 3560,
      "າເລັດ": 3561,
      "ສິບເອັດ": 3562,
      "ສີເສຣາ": 3563,
      "ໄສ້": 3564,
      "ອາດຈະ": 3565,
      "ໂກໂມຣາ": 3566,
      "ໂກລີອາດ": 3567,
      "ຕົ້ນໂອກ": 3568,
      "ກີຣິອາດ": 3569,
      "ຫວັ່ນ": 3570,
      "ພັກພວກ": 3571,
      "ໝາກພິລາ": 3572,
      "ລໍາບາກ": 3573,
      "ມະນີ": 3574,
      "ອາຮີຢາ": 3575,
      "ນົກເຄົ້າ": 3576,
      "ນົກກາງແກ": 3577,
      "ຮາຊາ": 3578,
      "ເສຍຫາຍ": 3579,
      "ຢຸດຕິ": 3580,
      "ໄຂ້": 3581,
      "ຟາດເຂົ້າ": 3582,
      "ອາເບັນ": 3583,
      "ຜູກມັດ": 3584,
      "ກາເມນ": 3585,
      "ຢາເບັດ": 3586,
      "ສໍາເລັດ": 3587,
      "ຫິມະ": 3588,
      "ພະນັກງານ": 3589,
      "400": 3590,
      "ກົບ": 3591,
      "ຊິງ": 3592,
      "ດາດ": 3593,
      "ຕອງ": 3594,
      "ຕຶກ": 3595,
      "ມນາ": 3596,
      "ຢັບ": 3597,
      "ລົກ": 3598,
      "ສໍ້": 3599,
      "ໜຽວ": 3600,
      "ພວກນາງ": 3601,
      "ພວກທະຫານ": 3602,
      "ພຣະທຳ": 3603,
      "ເຮດ": 3604,
      "ານາ": 3605,
      "ເປັນພະຍານ": 3606,
      "ຜູ້ຊ່ວຍ": 3607,
      "ຄົນເກັບພາສີ": 3608,
      "າດີຢາ": 3609,
      "ຄວາມອັບອາຍ": 3610,
      "ເຊໂລ": 3611,
      "ການຊຳລະ": 3612,
      "ບັນເລງ": 3613,
      "ຄືກັນ": 3614,
      "ເຢເຊເບ": 3615,
      "ເຄາະ": 3616,
      "ລະມັດ": 3617,
      "ເມື່ອໃດ": 3618,
      "ທຳງານ": 3619,
      "ົມມະ": 3620,
      "ສັນຍານ": 3621,
      "ເດອາ": 3622,
      "ທະລຸ": 3623,
      "ທີສາມ": 3624,
      "ຈົນເຖິງ": 3625,
      "ເຢຊູອາ": 3626,
      "ນາຍທະຫານ": 3627,
      "ຕົ້ນປ": 3628,
      "ຕົ້ນອໍ້": 3629,
      "ກີເຊ": 3630,
      "ກຳບັງ": 3631,
      "ດ້ານໜ້າ": 3632,
      "ເຈັດສິບ": 3633,
      "ໃກ້ໆ": 3634,
      "ດູໝິ່ນ": 3635,
      "ເດັກຊາຍ": 3636,
      "ຮາຣານ": 3637,
      "ພິທີກຳ": 3638,
      "ຫວ່າງເປົ່າ": 3639,
      "ໂງ່ນ": 3640,
      "ອຳມີ": 3641,
      "ສັ່ນສະທ້ານ": 3642,
      "ອາໂມດ": 3643,
      "ໝາໄນ": 3644,
      "ໂອບາດີຢາ": 3645,
      "ຢຽບຢໍ່າ": 3646,
      "ສາລະພາບ": 3647,
      "ຄຸ້ມຄອງ": 3648,
      "ເມດີແຕຣາເນ": 3649,
      "22": 3650,
      "ຄຽນ": 3651,
      "ງັບ": 3652,
      "ດ່າງ": 3653,
      "ບັ້ນ": 3654,
      "ບຽນ": 3655,
      "ລຽບ": 3656,
      "ຫັດ": 3657,
      "້ຽວ": 3658,
      "ພວກຕົນ": 3659,
      "ເຂຍ": 3660,
      "ເປິ": 3661,
      "ເປຣີ": 3662,
      "ເປກາ": 3663,
      "ເຂົາສັດ": 3664,
      "າການ": 3665,
      "ຜູ້ສົ່ງຂ່າວ": 3666,
      "້ອື່ນ": 3667,
      "ສະຫລາຍ": 3668,
      "ສະເຫລ": 3669,
      "ເຊລາ": 3670,
      "ເອລາ": 3671,
      "ບັນຫາ": 3672,
      "ດາອີຢາ": 3673,
      "ໜ້າຢ້ານ": 3674,
      "ແຫວນ": 3675,
      "ອີທາມ": 3676,
      "ເກັດ": 3677,
      "ເບົາ": 3678,
      "ຢາອີ": 3679,
      "ມື້ນ": 3680,
      "ມື້ອື່ນ": 3681,
      "ເຫັນດີ": 3682,
      "ສຸດປາຍ": 3683,
      "ບ່ອນທີ່": 3684,
      "ສາສະໜາ": 3685,
      "ກຳລັງໃຈ": 3686,
      "ແຜດ": 3687,
      "ເກີດລູກ": 3688,
      "ອາໄສຢູ່": 3689,
      "ຕົ້ນແປກ": 3690,
      "ກີບ": 3691,
      "ເອລີອາບ": 3692,
      "ກາອິນ": 3693,
      "ໂອເຂຍ": 3694,
      "ຂີ້ລັກ": 3695,
      "ລິດອຳນາດຍິ່ງໃຫຍ່": 3696,
      "ສະໜານ": 3697,
      "ຮາໂຊ": 3698,
      "ຮາດາເດ": 3699,
      "ສັນຕິພາບ": 3700,
      "ເມີນ": 3701,
      "ທຳມະຊາດ": 3702,
      "ອາຊະໂດດ": 3703,
      "ໝໍດູ": 3704,
      "ຊິມຣີ": 3705,
      "ສຸພາບ": 3706,
      "ຜິດຖຽງກັນ": 3707,
      "ຫຍຸ້ງຍາກ": 3708,
      "ໂຕເຟນ": 3709,
      "ເອັກໂຣນ": 3710,
      "ລາຊາໂຣ": 3711,
      "ເອເຟໂຊ": 3712,
      "ເຮຊະໂຣນ": 3713,
      "ໂຢຮານານ": 3714,
      "ອັນຕີໂອເຂຍ": 3715,
      "ຫວັ່ນໄຫວ": 3716,
      "ເຢເຊເບນ": 3717,
      "ໂງ່ນຫີນ": 3718,
      "ສະເຫລີມ": 3719,
      "ອີທາມາ": 3720,
      "ຮາດາເດເຊ": 3721,
      "18": 3722,
      "200": 3723,
      "ຊ່ອງ": 3724,
      "ດໍ": 3725,
      "ນເຮດ": 3726,
      "ພຸ່ມ": 3727,
      "ອ້າ": 3728,
      "ອົ່ງ": 3729,
      "ອຸ້ມ": 3730,
      "ອູເອນ": 3731,
      "ົ້ວ": 3732,
      "ໄກ່": 3733,
      "ໜໍ່": 3734,
      "ໜິ່ນ": 3735,
      "ຣະຊາ": 3736,
      "ເຮີ": 3737,
      "ຜູ້ຕັດສິນ": 3738,
      "ຄົນຮັ່ງມີ": 3739,
      "ມາອາດ": 3740,
      "ບໍ່ຮູ້ຈັກ": 3741,
      "ກັບມາ": 3742,
      "ປະກາຍ": 3743,
      "ເລັບ": 3744,
      "ຖືຮັກສາ": 3745,
      "ເຄັ່ງ": 3746,
      "ຊີບາ": 3747,
      "ເກຮາຊ": 3748,
      "ເສິກ": 3749,
      "ໂຕບີຢາ": 3750,
      "ອັນຍະ": 3751,
      "ທະລາຍ": 3752,
      "ທະບຽນ": 3753,
      "ໂຢກ": 3754,
      "ໂຢດ": 3755,
      "ບ່ອນນັ່ງ": 3756,
      "ເບິ່ງເຫັນ": 3757,
      "ເນທານ": 3758,
      "ໂລຫະ": 3759,
      "ໄມ້ຫອມ": 3760,
      "ຕີຢາ": 3761,
      "ຕີໂຕ": 3762,
      "ແກະເຖິກ": 3763,
      "ພຣະຜູ້ໄຖ່": 3764,
      "ກ້ຽງ": 3765,
      "ທະຫານມ້າ": 3766,
      "ເຕັມລົ້ນ": 3767,
      "ອານາທົດ": 3768,
      "ບ້ານເກີດ": 3769,
      "ແຊນເຮດ": 3770,
      "ພະຍານາກ": 3771,
      "ມັດຕານ": 3772,
      "ເບື້ອງເທິງ": 3773,
      "ທົນທຸກທໍລະມານ": 3774,
      "ໃບໄມ້": 3775,
      "ອາຮີໂຕເຟນ": 3776,
      "ອວດອົ່ງ": 3777,
      "ສັງຫານ": 3778,
      "ນິນທາ": 3779,
      "ເສື່ອມຊາມ": 3780,
      "ໂຕ້ຖຽງ": 3781,
      "ແຫລ່ງ": 3782,
      "ຄ້ຳປະກັນ": 3783,
      "ເສຣາອີຢາ": 3784,
      "ຜິດສິນທຳທາງເພດ": 3785,
      "ອົມຣິ": 3786,
      "ອາກີເຊ": 3787,
      "ປ້ອຍດ່າ": 3788,
      "າເນີນ": 3789,
      "ສໍ້ໂກງ": 3790,
      "ລະມັດລະວັງ": 3791,
      "ເປຣີຊີ": 3792,
      "ດໍາເນີນ": 3793,
      "ບໍ່ຮູ້ຈັກຄິດ": 3794,
      "ເກຮາຊິ": 3795,
      "ອັນຍະມະນີ": 3796,
      "ເນທານີຢາ": 3797,
      "ແຊນເຮດຣິນ": 3798,
      "40": 3799,
      "600": 3800,
      "ຈີ້": 3801,
      "ຊາເຣຍ": 3802,
      "ຕຸບ": 3803,
      "ຕຸ້ມ": 3804,
      "ທ້າ": 3805,
      "ນາເກ": 3806,
      "ປ່ວນ": 3807,
      "ປູນ": 3808,
      "ຝືນ": 3809,
      "ລາເ": 3810,
      "ສວຍ": 3811,
      "ຮາວ": 3812,
      "ຮີຢາ": 3813,
      "ຶນ": 3814,
      "ໃຜ": 3815,
      "ໜວກ": 3816,
      "ໜອນ": 3817,
      "——": 3818,
      "ເຈົ້າສາວ": 3819,
      "ເຂີນ": 3820,
      "ເພັດ": 3821,
      "ຄົນເປ້ຍ": 3822,
      "ມາຮະ": 3823,
      "ມີການ": 3824,
      "ເມນ": 3825,
      "ເມເດຍ": 3826,
      "ເຊເຣ": 3827,
      "ການປົກຄອງ": 3828,
      "ການທົດລອງ": 3829,
      "ຊາຣາຍ": 3830,
      "ລູກຍິງ": 3831,
      "ສັດເລືອຄານ": 3832,
      "ລະບຸ": 3833,
      "ຄຳປະຕິຍານ": 3834,
      "ຢ່າງນີ້": 3835,
      "ອີລາ": 3836,
      "ອີຊະໂບ": 3837,
      "ເກອີລາ": 3838,
      "ມືນ": 3839,
      "ເຄື່ອງປະດັບ": 3840,
      "ຕ່າງດ້າວ": 3841,
      "ເຕຣາ": 3842,
      "ເຕມານ": 3843,
      "ບ່ອນໃດ": 3844,
      "ນາໂຮ": 3845,
      "ຊົ່ວຄາວ": 3846,
      "ເນອາ": 3847,
      "ລີບ": 3848,
      "ສ້າງຂຶ້ນ": 3849,
      "ພູດ": 3850,
      "ພາສິດ": 3851,
      "ກາຍຊາເຣຍ": 3852,
      "ໄມ້ແປກ": 3853,
      "ເລື່ອງລາວ": 3854,
      "ສິດທິ": 3855,
      "ກ່ອນໜ້າ": 3856,
      "ໂບນ": 3857,
      "ລ້ຽງສັດ": 3858,
      "ດູໜິ່ນ": 3859,
      "ບ້ານເມືອງ": 3860,
      "ຊາມາ": 3861,
      "ແຂງແກ່ນ": 3862,
      "ຂີ້ຕົມ": 3863,
      "ຜູ້ນຳຂ່າວ": 3864,
      "ຂອບເຂດ": 3865,
      "ສືບສວນ": 3866,
      "ນໍ້າມັນ": 3867,
      "ກໍ່ສ້າງ": 3868,
      "ແຄມຝັ່ງ": 3869,
      "ຊັກຊ້າ": 3870,
      "ອາຮີເມເຫລັກ": 3871,
      "ຈຸດປະສົງ": 3872,
      "ເອເຊຍ": 3873,
      "ຕາກຊິດ": 3874,
      "ໂຕ້ແຍ້ງ": 3875,
      "ສຸພາສິດ": 3876,
      "ສົນທິ": 3877,
      "ຄົ້ນຫາ": 3878,
      "ກະຖາງ": 3879,
      "ເຖິງຢ່າງໃດກໍຕາມ": 3880,
      "ເປື້ອນເປິ": 3881,
      "ຕໍ່າຕ້ອຍ": 3882,
      "ສະໝັກໃຈ": 3883,
      "ຝຶກຝົນ": 3884,
      "ຢາງໄມ້ຫອມ": 3885,
      "ເອເດນ": 3886,
      "ພຸ່ມໄມ້": 3887,
      "ເຄັ່ງຄັດ": 3888,
      "ນາເກຣິບ": 3889,
      "ອີຊະໂບເຊັດ": 3890,
      "ກາກ": 3891,
      "ຄາບ": 3892,
      "ຈູ": 3893,
      "ຊ່າ": 3894,
      "ຕໍາ": 3895,
      "ນ້": 3896,
      "ປຽກ": 3897,
      "ພິບ": 3898,
      "ສົ້ມ": 3899,
      "ອາເລ": 3900,
      "ອຸ່ນ": 3901,
      "ແວ": 3902,
      "ໂອດ": 3903,
      "ໝັນ": 3904,
      "າມາ": 3905,
      "ເປັນສຸກ": 3906,
      "ໃຫ້ເປັນ": 3907,
      "ຄົນທີ່": 3908,
      "ຄົນຕາບອດ": 3909,
      "ມາຫາ": 3910,
      "ສະໂຕ": 3911,
      "ຄວາມຢ້ານ": 3912,
      "ຄວາມຮັ່ງມີ": 3913,
      "ຄວາມເຈັບປວດ": 3914,
      "ລູກກຳພ້າ": 3915,
      "ອອກເດີນທາງ": 3916,
      "ລະນະ": 3917,
      "ຊີຣີ": 3918,
      "ເຫລັ້ມ": 3919,
      "ເຖິງປານ": 3920,
      "ໜຶ່ງພັນ": 3921,
      "ແຫງ": 3922,
      "ເບ້ຍ": 3923,
      "ເສີຍ": 3924,
      "ໂດເຣ": 3925,
      "ເຄື່ອງແຕ່ງກາຍ": 3926,
      "ຮູ້ວ່າ": 3927,
      "ຕັ້ງຊື່": 3928,
      "ເດັ່ນ": 3929,
      "ບູຊາຣາດ": 3930,
      "ນາຊີຣີ": 3931,
      "ເນບູຊາຣາດ": 3932,
      "ຖານຮອງຮັບ": 3933,
      "ຊື່ສັດ": 3934,
      "ເຣກາບ": 3935,
      "ຫົວປີ": 3936,
      "ແຂ່ງ": 3937,
      "ຕີຣະຊາ": 3938,
      "ພຣະຜູ້ສ້າງ": 3939,
      "ຄິດວ່າ": 3940,
      "ຮ່ວມງານ": 3941,
      "ຜ່ານພົ້ນ": 3942,
      "ທິດໃຕ້": 3943,
      "ທິດຕາເວັນຕົກ": 3944,
      "ໂບເຊັດ": 3945,
      "ເອລີຊາມາ": 3946,
      "ຊື່ນໃຈ": 3947,
      "ທະເລແດງ": 3948,
      "ຍາກລຳບາກ": 3949,
      "ທາລຸນ": 3950,
      "ໂປ້": 3951,
      "ນຸ່ງເຄື່ອງ": 3952,
      "ອາກິມ": 3953,
      "ແກບ": 3954,
      "ຂາດເຂີນ": 3955,
      "ຮາກາ": 3956,
      "ແບ້ຜູ້": 3957,
      "ນໍ້າສ້າງ": 3958,
      "ຫົກສິບ": 3959,
      "ຫລັກຖານ": 3960,
      "ດອກໄມ້": 3961,
      "ອາຮີຕຸບ": 3962,
      "ອຶດຫິວ": 3963,
      "ຊັດຊາເຣ": 3964,
      "ລິບນາ": 3965,
      "ອາສາເຮນ": 3966,
      "ຫລຸດພົ້ນ": 3967,
      "ເສື່ອມສູນ": 3968,
      "າເນນ": 3969,
      "ຄ້ຳຊູ": 3970,
      "ເຕົາໄຟ": 3971,
      "ຢາເຟ": 3972,
      "ເປົ້າໝາຍ": 3973,
      "ເຊັນນາເກຣິບ": 3974,
      "ໂຄ່ນລົ້ມ": 3975,
      "ໂຮເຣັບ": 3976,
      "ໂຫລາ": 3977,
      "ຊຸກໂກດ": 3978,
      "ປ້າຍສີ": 3979,
      "ອີງຕາມ": 3980,
      "ເຣຟາອິມ": 3981,
      "ສະໜຸກສະໜານ": 3982,
      "ນ້ຳລາຍ": 3983,
      "ເນບູຊາຣາດານ": 3984,
      "110": 3985,
      "ຄ້ຽວ": 3986,
      "ຈຳລ": 3987,
      "ຊາເ": 3988,
      "ຍ່າ": 3989,
      "ດັນ": 3990,
      "ດິ້ນ": 3991,
      "ຕໍ": 3992,
      "ທຸ້ມ": 3993,
      "ບວມ": 3994,
      "ຝັກ": 3995,
      "ມ້າງ": 3996,
      "ສື່": 3997,
      "ອ້ວນ": 3998,
      "ຮັນນາ": 3999,
      "ໄອ": 4000,
      "ໜ່ຳ": 4001,
      "ພວກຂ້າພະເຈົ້າ": 4002,
      "ເຮມານ": 4003,
      "ຈະເຮັດ": 4004,
      "ຈະແຈ້ງ": 4005,
      "ຜູ້ມີ": 4006,
      "ຜູ້ດູແລ": 4007,
      "ຄົນອະທຳ": 4008,
      "ມີເອນ": 4009,
      "ເມເຊ": 4010,
      "ເມຟີ": 4011,
      "ຄວາມບໍລິສຸດ": 4012,
      "ຄວາມຍິນດີ": 4013,
      "ຄວາມທຸກທໍລະມານ": 4014,
      "ເອເບ": 4015,
      "ກະໂດດ": 4016,
      "ກະໜ່ຳ": 4017,
      "ບັນເທ": 4018,
      "ອາຣາ": 4019,
      "ອາລຸນ": 4020,
      "ລູກໃພ້": 4021,
      "ຮັບເອົາ": 4022,
      "ທຸກບ່ອນ": 4023,
      "ແດດ": 4024,
      "ລະລາຍ": 4025,
      "ເຫງ": 4026,
      "ຊີອາ": 4027,
      "ຊາວຢູດາ": 4028,
      "ດິນຊາຍ": 4029,
      "ໂຕຜູ້": 4030,
      "ເຕຟາ": 4031,
      "ນ້ຳໝອກ": 4032,
      "ນາຮາດ": 4033,
      "ເນຣະ": 4034,
      "ຊະເຕຟາ": 4035,
      "ອານາກ": 4036,
      "ບໍລິຫານ": 4037,
      "ຕົກຕ່ຳ": 4038,
      "ໂຮເຊ": 4039,
      "ໂຮໂຣນ": 4040,
      "ພັກສະຫງົບ": 4041,
      "ຈັບສະຫລາກ": 4042,
      "ຈັບກຸມ": 4043,
      "ຜ້າເຕັນ": 4044,
      "ສະຫງວນ": 4045,
      "ບາງສ່ວນ": 4046,
      "ເອລີອາ": 4047,
      "ໜັກແໜ້ນ": 4048,
      "ຢຶດຖື": 4049,
      "ສະໜົມ": 4050,
      "ສະໜັ່ນ": 4051,
      "ໄຖ່ຄືນ": 4052,
      "ດວງຕາເວັນ": 4053,
      "ອັດຊະ": 4054,
      "ອ່ອນໂຍນ": 4055,
      "ມໍລະນາ": 4056,
      "ເລິກເຊິ່ງ": 4057,
      "ເຟຊະໂຕ": 4058,
      "ອາບີກາຍ": 4059,
      "ບຸກຄົນ": 4060,
      "ຂຸມຝັງສົບ": 4061,
      "ອູມ": 4062,
      "ທຳມະດາ": 4063,
      "ອາມາຣີຢາ": 4064,
      "ເຄື່ອນຍ້າຍ": 4065,
      "ຕ່ຳຕ້ອຍ": 4066,
      "ປຽບເໝືອນ": 4067,
      "ເປີ້ນ": 4068,
      "ຣິມໂມນ": 4069,
      "ອາທາລີຢາ": 4070,
      "ເສີມສ້າງ": 4071,
      "ຊາວການາ": 4072,
      "ໂອເບັດເອໂດມ": 4073,
      "ອຸດຊີເອນ": 4074,
      "ເຫວເລິກ": 4075,
      "ເກັ່ງກ້າ": 4076,
      "ເປື່ອຍເນົ່າ": 4077,
      "ປັ່ນປ່ວນ": 4078,
      "ຕຶກຕອງ": 4079,
      "ຕຸ້ມຫູ": 4080,
      "ຊ່າລື": 4081,
      "ເຖິງປານນັ້ນ": 4082,
      "ຈຳລອງ": 4083,
      "ສື່ສານ": 4084,
      "ເມຟີໂບເຊັດ": 4085,
      "ຊະເຕຟາໂນ": 4086,
      "ຊາວການາອານ": 4087,
      "45": 4088,
      "ກິ້ງ": 4089,
      "ຄ່ອຍ": 4090,
      "ຕອດ": 4091,
      "ຕາເຊ": 4092,
      "ທຸ": 4093,
      "ປິວ": 4094,
      "ປວດ": 4095,
      "ຜ່ອງ": 4096,
      "ຟານ": 4097,
      "ຟ້ອນ": 4098,
      "ຟຸນ": 4099,
      "ມຳ": 4100,
      "ລ້ານ": 4101,
      "ວຽນ": 4102,
      "ສໍ່າ": 4103,
      "ຫ້ອຍ": 4104,
      "ອິບ": 4105,
      "າອິມ": 4106,
      "ືດ": 4107,
      "ພວກແມ່ຍິງ": 4108,
      "ເປນາ": 4109,
      "າເອ": 4110,
      "ຄົນໜ້າຊື່ໃຈຄົດ": 4111,
      "ມາທາ": 4112,
      "ຢູ່ທີ່ນັ້ນ": 4113,
      "ນີເອນ": 4114,
      "ເຊອານ": 4115,
      "ການສູ້ຮົບ": 4116,
      "ການເປັນຄືນມາຈາກຕາຍ": 4117,
      "ເຮັດບາບ": 4118,
      "ເຮັດຜິດ": 4119,
      "ເລື່ອນ": 4120,
      "ອາຣະ": 4121,
      "ດັ່ງກ່າວ": 4122,
      "ເຢຟຸນ": 4123,
      "ລະງັບ": 4124,
      "ແມ່ນຫຍັງ": 4125,
      "ຊາວຮິດຕີ": 4126,
      "ດີໆ": 4127,
      "ຊົນເຜົ່າ": 4128,
      "ເກບາ": 4129,
      "ເບື່ອ": 4130,
      "ວັນນີ້": 4131,
      "ຢາຮາດ": 4132,
      "ເຄື່ອງໃນ": 4133,
      "ສັນເສີນ": 4134,
      "ຕັ້ງຖິ່ນຖານ": 4135,
      "ຊູເຣ": 4136,
      "ທີຫ້າສິບ": 4137,
      "ສຳລານ": 4138,
      "ຈັກກະ": 4139,
      "ຄືນດີ": 4140,
      "ເຣໂຮ": 4141,
      "ລິມ": 4142,
      "ສາຍແອວ": 4143,
      "ສ່ວນຮ່ວມ": 4144,
      "ຕີເອນ": 4145,
      "ສຽງແກ": 4146,
      "ແຜ່ນຫີນ": 4147,
      "ນະລົກ": 4148,
      "ກອງແຊ": 4149,
      "ໝາຍຄວາມ": 4150,
      "ສຳມະ": 4151,
      "ລ້ຽວ": 4152,
      "ສູງສົ່ງ": 4153,
      "ກາເປນາ": 4154,
      "ໂອ້": 4155,
      "ເບັດເຊເມດ": 4156,
      "ສັກສີ": 4157,
      "ໂນດ": 4158,
      "ອາກຕາເຊ": 4159,
      "ເຊົ້າໆ": 4160,
      "ເອຟະ": 4161,
      "ຕົ້ນໄມ້ສີດາ": 4162,
      "ອຳຣາມ": 4163,
      "ຊັກຈູງ": 4164,
      "ອາຮີມາອາດ": 4165,
      "ກົ້ມກາບ": 4166,
      "ໜ້ອຍໜຶ່ງ": 4167,
      "ຫ່າງໆ": 4168,
      "ຫລົງຜິດ": 4169,
      "ສູນຫາຍ": 4170,
      "ອະນຸສອນ": 4171,
      "ເສັ້ນທາງ": 4172,
      "ຂັນທີ": 4173,
      "ເສື່ອມເສຍ": 4174,
      "ຍືນຍົງ": 4175,
      "ຜູກພັນ": 4176,
      "ເຫຍື້ອ": 4177,
      "ຖືສິນອົດອາຫານ": 4178,
      "ກັບໃຈໃໝ່": 4179,
      "ອາໂຣເອ": 4180,
      "ອາໂຣນາ": 4181,
      "ຕຸ້ຍ": 4182,
      "ມື້ນີ້": 4183,
      "ເຮີໂມນ": 4184,
      "ໂຫລາຈານ": 4185,
      "ບັນເທົາ": 4186,
      "ເຢຟຸນເນ": 4187,
      "ກອງແຊັກ": 4188,
      "ສຳມະໂນ": 4189,
      "ກາເປນາອູມ": 4190,
      "ອາກຕາເຊເຊັດ": 4191,
      "32": 4192,
      "800": 4193,
      "ກາເຣ": 4194,
      "ງ່ຽງ": 4195,
      "ຈາງ": 4196,
      "ຊຳ": 4197,
      "ຕັ່ງ": 4198,
      "ຖັງ": 4199,
      "ທ້ອນ": 4200,
      "ນາການ": 4201,
      "ປອກ": 4202,
      "ປຣັດ": 4203,
      "ພວງ": 4204,
      "ຟັດ": 4205,
      "ມິມ": 4206,
      "ມຶນ": 4207,
      "ຢາເຊ": 4208,
      "ລໍາ": 4209,
      "ອູ້": 4210,
      "ື່ງ": 4211,
      "ໂພ": 4212,
      "ໄຣ": 4213,
      "ໜົມ": 4214,
      "ໝວກ": 4215,
      "ຂອງຕົນ": 4216,
      "ພວກລູກ": 4217,
      "ທີ່ຢູ່": 4218,
      "ທີ່ໝັ້ນ": 4219,
      "ພຣະເມ": 4220,
      "ເປລາ": 4221,
      "ຫລູ່": 4222,
      "າເສ": 4223,
      "ຜູ້ໜຶ່ງ": 4224,
      "ຜູ້ລ້ຽງ": 4225,
      "ຜູ້ບັນຊາ": 4226,
      "ພວກເຂົາເອງ": 4227,
      "ຄົນນັ້ນ": 4228,
      "ຄົນໜຶ່ງ": 4229,
      "ຄົນເຈັບປ່ວຍ": 4230,
      "ມີກ": 4231,
      "ມີຣີ": 4232,
      "ຂ້າຄົນ": 4233,
      "ປະນາມ": 4234,
      "ຄວາມທຸກ": 4235,
      "ຄວາມສຳພັນ": 4236,
      "ເຊຟາ": 4237,
      "ກະຣີ": 4238,
      "ກະບຸ": 4239,
      "ບັນນາການ": 4240,
      "ູກາຍ": 4241,
      "ອາໄລ": 4242,
      "ເວລານ": 4243,
      "ຮັບຮູ້": 4244,
      "ເຢຣຸບ": 4245,
      "ສິ່ງມີຊີວິດ": 4246,
      "ເທີ": 4247,
      "ເທີນ": 4248,
      "ລະເລີຍ": 4249,
      "ອິດໂດ": 4250,
      "ເຂົ້າໜົມ": 4251,
      "ດິນຈີ່": 4252,
      "ເກືອກ": 4253,
      "ເບເອ": 4254,
      "ເບລາ": 4255,
      "ເບໂອນ": 4256,
      "ຢາອາ": 4257,
      "ເໝັນ": 4258,
      "ເສລີ": 4259,
      "ໂມຍ": 4260,
      "ຊາດູກາຍ": 4261,
      "ປົກປັກ": 4262,
      "ວິລະ": 4263,
      "ເນມ": 4264,
      "ເນໂບ": 4265,
      "ໂຊບາ": 4266,
      "ສາຍຮັດ": 4267,
      "ຫົວຂວັນ": 4268,
      "ຕິມນາ": 4269,
      "ໂກເຊັນ": 4270,
      "ກີຣີ": 4271,
      "ຮູເຣ": 4272,
      "ກອງຮ້ອຍ": 4273,
      "ໂທນ": 4274,
      "ຝູງງົວ": 4275,
      "ຕະກອນ": 4276,
      "ເອລີເອເຊ": 4277,
      "ຄາທາ": 4278,
      "ນັກດົນຕີ": 4279,
      "ຕີນພູ": 4280,
      "ຂີ້ເຫຍື້ອ": 4281,
      "ອຸດຊາ": 4282,
      "ລົມພະຍຸ": 4283,
      "ມືດມົນ": 4284,
      "ທໍາອິດ": 4285,
      "ມິດສະຫາຍ": 4286,
      "ປະຈຳວັນ": 4287,
      "ທ້ອງຖິ່ນ": 4288,
      "ຊັ້ນໃນ": 4289,
      "ສືບເຊື້ອສາຍ": 4290,
      "ໄຊປຣັດ": 4291,
      "ບານີ": 4292,
      "ອັກສອນ": 4293,
      "ເສື້ອຄຸມຍາວ": 4294,
      "ດອກຈູ": 4295,
      "ຂະໂມຍ": 4296,
      "ອາຮີກຳ": 4297,
      "ສໍາແດງ": 4298,
      "ກົດຂີ່ຂົ່ມເຫັງ": 4299,
      "ລາມົກ": 4300,
      "ໃນຂະນະທີ່": 4301,
      "ບັບຕິສະໂຕ": 4302,
      "ອຸທິດຖວາຍ": 4303,
      "ຂີ້ຝຸ່ນດິນ": 4304,
      "ງ່າໄມ້": 4305,
      "ປັດຊູ": 4306,
      "ນໍາເອ": 4307,
      "ບາຣັກ": 4308,
      "ຊິກລັກ": 4309,
      "ເງີຍໜ້າ": 4310,
      "ລ່າມໂສ້": 4311,
      "ໃສ່ຮ້າຍປ້າຍສີ": 4312,
      "ເຊື່ອຖືໄດ້": 4313,
      "ຄຽດແຄ້ນ": 4314,
      "ຣັບບາ": 4315,
      "ມາຮະລີ": 4316,
      "ທຸ້ມເທ": 4317,
      "ເອລີອາຊິບ": 4318,
      "ອູ້ມ": 4319,
      "ພຣະເມຊີອາ": 4320,
      "ມີຣີອາມ": 4321,
      "ກະບຸງ": 4322,
      "ເສລີພາບ": 4323,
      "ກີຣີອາດ": 4324,
      "ດອກຈູມ": 4325,
      "ນໍາເອົາ": 4326,
      "13": 4327,
      "15": 4328,
      "ກ້ານ": 4329,
      "ຄາຍ": 4330,
      "ງອດ": 4331,
      "ຊິ": 4332,
      "ຊຸບ": 4333,
      "ຖົ່ມ": 4334,
      "ທາເນນ": 4335,
      "ບັກ": 4336,
      "ບຳລ": 4337,
      "ປອບ": 4338,
      "ພັບ": 4339,
      "ພົມມະ": 4340,
      "ຢົບ": 4341,
      "ສຸບ": 4342,
      "ຫມາຍ": 4343,
      "ອຽງ": 4344,
      "ຮາງ": 4345,
      "ໄຕ້": 4346,
      "ໝຸນ": 4347,
      "ໝັ່ນ": 4348,
      "ໝົ່ນ": 4349,
      "ເປອໍ": 4350,
      "ເພຍ": 4351,
      "ຜູ້ເຖົ້າ": 4352,
      "ຜູ້ລ້ຽງແກະ": 4353,
      "ຜູ້ຊຳນານ": 4354,
      "ຄົນໜຸ່ມ": 4355,
      "ຄົນທຸກຍາກ": 4356,
      "ມາໂນອາ": 4357,
      "ປະຄອງ": 4358,
      "ປະເພນີ": 4359,
      "ເມຊາກ": 4360,
      "ເມຄີ": 4361,
      "ຄວາມຈິບຫາຍ": 4362,
      "ຄວາມທຸກລຳບາກ": 4363,
      "ເຊເດັກ": 4364,
      "ການເດີນທາງ": 4365,
      "ເລມີຢາ": 4366,
      "ລູກງົວ": 4367,
      "ເຢອາຣີ": 4368,
      "ເຢດາອີຢາ": 4369,
      "ເທບ": 4370,
      "ພະໂມ": 4371,
      "ພະລັງ": 4372,
      "ຊີມ": 4373,
      "ຊີກະຣີ": 4374,
      "ຊາວອຳໂມນ": 4375,
      "ໜ້າລັງກຽດ": 4376,
      "ເກເຊ": 4377,
      "ເກເດ": 4378,
      "ເກຊູ": 4379,
      "ເກຣາ": 4380,
      "ຫານາອິມ": 4381,
      "ີນາດາບ": 4382,
      "ມັນກີຢາ": 4383,
      "ຕ່າງຫາກ": 4384,
      "ເຕກົວ": 4385,
      "ອັນເດອາ": 4386,
      "ໂຢອີ": 4387,
      "ຮັກກິດ": 4388,
      "ຮ້ອງຫາ": 4389,
      "ໃສ່ໃຈ": 4390,
      "ຊົ່ວອາຍຸ": 4391,
      "ເນລະ": 4392,
      "ເນທາເນນ": 4393,
      "ລີໂອ": 4394,
      "ຊະຕາກ": 4395,
      "ບັດເນໂກ": 4396,
      "ເຣດ": 4397,
      "ລິກ": 4398,
      "ພ້ອມກັບ": 4399,
      "ຍິງໂສເພນີ": 4400,
      "ຕົ້ນຕານ": 4401,
      "ກອງພັນ": 4402,
      "ອາມມີ": 4403,
      "ງົວແມ່": 4404,
      "ເອລີອາກິມ": 4405,
      "ເອລີຟັດ": 4406,
      "ຕົວແທນ": 4407,
      "ມະຫານາອິມ": 4408,
      "ຖິ່ນກັນດານ": 4409,
      "ທານີ": 4410,
      "ນັກສືບ": 4411,
      "ໂອຟີ": 4412,
      "ແຊບ": 4413,
      "ຮາໂມ": 4414,
      "ຕອນທ່ຽງ": 4415,
      "ຄ້າຍຄື": 4416,
      "ລັບໆ": 4417,
      "ເປົ່າແກ": 4418,
      "ເຄື່ອງນຸ່ງຫົ່ມ": 4419,
      "ຮານູນ": 4420,
      "ຈາລີ": 4421,
      "ເກນິດ": 4422,
      "ແໜງ": 4423,
      "ຊັດຣາກ": 4424,
      "ຈຸດຈົບ": 4425,
      "ອຸບໂມງ": 4426,
      "ຂົນແກະ": 4427,
      "ອາມາສາ": 4428,
      "ອາເບັດເນໂກ": 4429,
      "ເຄືອງ": 4430,
      "ຫິວເຂົ້າ": 4431,
      "ຊຸດໂຊມ": 4432,
      "ຖົງໜັງ": 4433,
      "ແໜ້ນໜາ": 4434,
      "ໄຮ້ປະໂຫຍດ": 4435,
      "ຄ້າງຄືນ": 4436,
      "າເນຍ": 4437,
      "ປູອາ": 4438,
      "ລ້ຳເລີດ": 4439,
      "ຄັດຄ້ານ": 4440,
      "ຂົ່ມຂືນ": 4441,
      "ຝ່າຝືນ": 4442,
      "ແມງງອດ": 4443,
      "ບົກຜ່ອງ": 4444,
      "ລ້າໆ": 4445,
      "ປ່ຽງໆ": 4446,
      "ດໍາລົງ": 4447,
      "ເຊົ່າສວນ": 4448,
      "ຮາຊາບີຢາ": 4449,
      "ຕົ້ນປາມ": 4450,
      "ອຳມີນາດາບ": 4451,
      "ມັດຕານີຢາ": 4452,
      "ສຳມະໂນຄົວ": 4453,
      "ກາເຣຢາ": 4454,
      "ເຊຟາຕີຢາ": 4455,
      "ບຳລຸງ": 4456,
      "ພົມມະຈາລີ": 4457,
      "ຢົບປາ": 4458,
      "ເມຄີເຊເດັກ": 4459,
      "ເຢອາຣີມ": 4460,
      "300": 4461,
      "ກົ່ງ": 4462,
      "ກີດ": 4463,
      "ຄ່ອງ": 4464,
      "ງາ": 4465,
      "ຊ້ອງ": 4466,
      "ຊ້າງ": 4467,
      "ດາກ": 4468,
      "ດິບ": 4469,
      "ຕຽນ": 4470,
      "ຖາດ": 4471,
      "ທູ": 4472,
      "ບຽດ": 4473,
      "ບຶງ": 4474,
      "ປື": 4475,
      "ປັບ": 4476,
      "ຟັກ": 4477,
      "ສ່ຽງ": 4478,
      "ຫອບ": 4479,
      "ອຶກ": 4480,
      "ອູນ": 4481,
      "ຮີເອນ": 4482,
      "ີປາ": 4483,
      "ໂຂ": 4484,
      "ໜອງ": 4485,
      "ໝູນ": 4486,
      "ເຮເຟ": 4487,
      "ເປເລັດ": 4488,
      "ວ່າການ": 4489,
      "ເປັນຈິງ": 4490,
      "ໃນທີ່ສຸດ": 4491,
      "າກັນ": 4492,
      "ຜູ້ສື່ສານ": 4493,
      "ຜູ້ວ່າການ": 4494,
      "ມາລີຢາ": 4495,
      "ບໍ່ເຊື່ອຟັງ": 4496,
      "ບໍ່ໄດ້ຮັບ": 4497,
      "ປະດາ": 4498,
      "ປະສານ": 4499,
      "ຄວາມສາມັກຄີທຳ": 4500,
      "ຄວາມໂລບ": 4501,
      "ຄວາມຍາກລຳບາກ": 4502,
      "ເຊບູນ": 4503,
      "ເອຮຸດ": 4504,
      "ເລຍ": 4505,
      "ເລາະ": 4506,
      "ເລັມ": 4507,
      "ເລໂບ": 4508,
      "ລູກນ້ອຍ": 4509,
      "ເຢທະ": 4510,
      "ເຢດູ": 4511,
      "ສິ່ງນີ້": 4512,
      "ລະກິດ": 4513,
      "ແມ່ນແລ້ວ": 4514,
      "ຊາວມີດີອານ": 4515,
      "ຄຳທຳນວາຍ": 4516,
      "ຄຳສາບແຊ່ງ": 4517,
      "ກ່າວວ່າ": 4518,
      "ໝົດສິ້ນ": 4519,
      "ດີໂບນ": 4520,
      "ຊົນນະ": 4521,
      "ເກໂລນ": 4522,
      "ເບນ": 4523,
      "ເບເຣ": 4524,
      "ເສນ": 4525,
      "ເສລາ": 4526,
      "ເສີບ": 4527,
      "ໂຕຟາ": 4528,
      "ທີແປດ": 4529,
      "ສາທາ": 4530,
      "ຊາດັກ": 4531,
      "ສອງຮ້ອຍ": 4532,
      "ນາໂຊນ": 4533,
      "ເນໂຕຟາ": 4534,
      "ຊະຣາ": 4535,
      "ປີ້ງ": 4536,
      "ໂຊກ": 4537,
      "ເຣອູເອນ": 4538,
      "ເຣມາລີຢາ": 4539,
      "ສາຍຄໍ": 4540,
      "ອານາເນຍ": 4541,
      "ບາອານາ": 4542,
      "ແມ່ຍ່າ": 4543,
      "ຍິງສາວ": 4544,
      "ລິດອໍານາດ": 4545,
      "ຜິດພາດ": 4546,
      "ສົມມຸດ": 4547,
      "ມານດາ": 4548,
      "ສັນຍາລັກ": 4549,
      "ຖາມວ່າ": 4550,
      "ເອນົກ": 4551,
      "ຮູຣາມ": 4552,
      "ຄຣີປາ": 4553,
      "ຝູງຊົນ": 4554,
      "ຝູງແບ້": 4555,
      "ຫີນເສົາ": 4556,
      "ຈຳນົນ": 4557,
      "ໂບຣາ": 4558,
      "ພາກພູມໃຈ": 4559,
      "ລໍນ້ອຍ": 4560,
      "ຊົມເຊີຍ": 4561,
      "ໜັງສັດ": 4562,
      "ລົບລ້າງ": 4563,
      "ແທນທີ່": 4564,
      "ຂ້າງນອກ": 4565,
      "ແສ່ງ": 4566,
      "ໂນມ": 4567,
      "ອັບອາຍຂາຍໜ້າ": 4568,
      "ລຳພັງ": 4569,
      "ເຊັ່ນນີ້": 4570,
      "ບັງເກີດ": 4571,
      "ທໍາຮ້າຍ": 4572,
      "ຍຸຕິທໍາ": 4573,
      "ເຟລິກ": 4574,
      "ຮາດັດ": 4575,
      "ຫລັກແຫລມ": 4576,
      "ເນື້ອກາຍ": 4577,
      "ອັກຄຣີປາ": 4578,
      "ບາກຊິນ": 4579,
      "ດອກເບ້ຍ": 4580,
      "ແອ້ມ": 4581,
      "ໂຮມຊຸມນຸມ": 4582,
      "ຮອບຄອບ": 4583,
      "ມະຫາສານ": 4584,
      "ເຢໂຣຮາມ": 4585,
      "ສູນສິ້ນ": 4586,
      "ອຸທິດຕົນ": 4587,
      "ກວດສອບ": 4588,
      "ຄາດຕະກອນ": 4589,
      "ຮິນໂນມ": 4590,
      "ອຸປະກອນ": 4591,
      "ເອກໂລນ": 4592,
      "ສອດແນມ": 4593,
      "ຫລັ່ງໄຫລ": 4594,
      "ປະສົບການ": 4595,
      "ແມງໄມ້": 4596,
      "ໂມ້ແປ້ງ": 4597,
      "ຟຸ່ມໜາມ": 4598,
      "ເວດມົນຄາຖາ": 4599,
      "ສັບພະສິ່ງ": 4600,
      "ພູດອຍ": 4601,
      "ຕໍາໜິ": 4602,
      "ແວ່": 4603,
      "ຄົນທີ່ບໍ່ເຊື່ອ": 4604,
      "ຢາເຟດ": 4605,
      "ເຊອານຕີເອນ": 4606,
      "ໝົ່ນໝອງ": 4607,
      "ປື້ມ": 4608,
      "ບໍ່ໄດ້ຮັບພິທີຕັດ": 4609,
      "ເຢທະໂຣ": 4610,
      "ເຢດູທູນ": 4611,
      "ຊົນນະບົດ": 4612,
      "ເບເຣກີຢາ": 4613,
      "ສາທາລະນະ": 4614,
      "ຫີນເສົາເອກ": 4615,
      "ບາກຊິນໄລ": 4616,
      "14": 4617,
      "120": 4618,
      "ກຸບ": 4619,
      "ຂຸ": 4620,
      "ຈໍ່": 4621,
      "ຈືດ": 4622,
      "ດ່ຽວ": 4623,
      "ຖໍ້າ": 4624,
      "ປອງ": 4625,
      "ປີ່": 4626,
      "ປິ້ງ": 4627,
      "ພາວ": 4628,
      "ຢໍ": 4629,
      "ຣາເ": 4630,
      "ລອບ": 4631,
      "ຮົ້ວ": 4632,
      "ະການ": 4633,
      "ແຝ": 4634,
      "ໂຖ": 4635,
      "’?”": 4636,
      "ເຈົ້າຊາຍ": 4637,
      "ີ່ຍ": 4638,
      "ພວກຂ້ອຍ": 4639,
      "ທີ່ນີ້": 4640,
      "ໄດ້ຍິນ": 4641,
      "ເຮເບ": 4642,
      "ເຂີຍ": 4643,
      "ເປນ": 4644,
      "ຜູ້ຮັບ": 4645,
      "ຜູ້ຈັດການ": 4646,
      "ຄົນຂີ້ລັກ": 4647,
      "ມີນາ": 4648,
      "ປະເວ": 4649,
      "ເມນາ": 4650,
      "ເມກິດ": 4651,
      "ຄວາມທຸກຍາກ": 4652,
      "ຄວາມໂສກເສົ້າ": 4653,
      "ຄວາມຫມາຍ": 4654,
      "ເຊດ": 4655,
      "ເຊຟານ": 4656,
      "ເອີ່ຍ": 4657,
      "ການຮັບໃຊ້": 4658,
      "ການຮັກສາ": 4659,
      "ການລົງໂທດ": 4660,
      "ກະແຈ": 4661,
      "ເລດ": 4662,
      "ເລື່ອຍ": 4663,
      "ອາໂປໂລ": 4664,
      "ຊາອີຢາ": 4665,
      "ລູກສອນ": 4666,
      "ລູກເຂີຍ": 4667,
      "ດາລາ": 4668,
      "ເຢຮີເອນ": 4669,
      "ເຄັມ": 4670,
      "ເຫື່ອ": 4671,
      "ຊີເອນ": 4672,
      "ແກ່ວງ": 4673,
      "ໜ້າກຽດ": 4674,
      "ໜ້າເອິກ": 4675,
      "ເຫລີດ": 4676,
      "ຄຳຂຽນ": 4677,
      "ໜຶ່ງອັນ": 4678,
      "ດີກວ່າ": 4679,
      "ແຫນ": 4680,
      "ອີເອນ": 4681,
      "ທາງໃດ": 4682,
      "ເກຍ": 4683,
      "ເບີກ": 4684,
      "ລາຄະ": 4685,
      "ເຄື່ອງມື": 4686,
      "ນຳໃຊ້": 4687,
      "ເດບີ": 4688,
      "ເດໂບຣາ": 4689,
      "ອັນໜຶ່ງອັນ": 4690,
      "ຕະເຫລີດ": 4691,
      "ໂຢອາ": 4692,
      "ໂຢນາດາບ": 4693,
      "ບ່ອນນັ້ນ": 4694,
      "ນ້ຳຄ້າງ": 4695,
      "ຕອບສະໜອງ": 4696,
      "ປີ້ນ": 4697,
      "ໂຊເຊ": 4698,
      "ໂຊຣາ": 4699,
      "ເຊື່ອມ": 4700,
      "ບາອາ": 4701,
      "ສິບພັນ": 4702,
      "ຫົວຂັວນ": 4703,
      "ຫົວເຂົ່າ": 4704,
      "ບໍລິຈາກ": 4705,
      "ແມ່ທັບ": 4706,
      "ສົມລົດ": 4707,
      "ຕົ້ນໝາກເດື່ອ": 4708,
      "ຮູຊາຍ": 4709,
      "ກຳມື": 4710,
      "ແນບ": 4711,
      "ອາບີນາດາບ": 4712,
      "ເງື່ອນ": 4713,
      "ແຜ່ນດິນໄຫວ": 4714,
      "ໂທມາ": 4715,
      "ຄິດໄລ່": 4716,
      "ແຮ່": 4717,
      "ຈິງໃຈ": 4718,
      "ຜ້າປົກ": 4719,
      "ທິດເໜືອ": 4720,
      "ບາງຢ່າງ": 4721,
      "ເອລີເອນ": 4722,
      "ເອລີຮູ": 4723,
      "ທະເລຕາຍ": 4724,
      "ຕົວຢ່າງ": 4725,
      "ຂໍ້ກຳນົດ": 4726,
      "ອ້ອມຂ້າງ": 4727,
      "ອ້ອມແອ້ມ": 4728,
      "ແມ່ນ້ຳຈໍແດນ": 4729,
      "ປາຣານ": 4730,
      "ຍາດຕິ": 4731,
      "ຂີ້ຕົວະ": 4732,
      "ທາອິມ": 4733,
      "ເບັດໂຮໂຣນ": 4734,
      "ເບັດທານີ": 4735,
      "ຍຸຍົງ": 4736,
      "ນຸ່ງຫົ່ມ": 4737,
      "ດົນໃຈ": 4738,
      "ຕອນຄ່ຳ": 4739,
      "ແກ້ມ": 4740,
      "ເຊັ່ນດຽວ": 4741,
      "ຢຸດພັກ": 4742,
      "ເສດຖີ": 4743,
      "ອ່ອນເພຍ": 4744,
      "ກິດໂຣນ": 4745,
      "ປະຈຳການ": 4746,
      "ປະຈຳເດືອນ": 4747,
      "ປານີ": 4748,
      "ອາບີຮູ": 4749,
      "ມັກດາລາ": 4750,
      "ຫູສົບ": 4751,
      "ແຕ່ລະຢ່າງ": 4752,
      "ເກີນໄປ": 4753,
      "ດອກລີລາ": 4754,
      "ກັດກິນ": 4755,
      "ຝາຫີບ": 4756,
      "ລົ້ນເຫລືອ": 4757,
      "ທ່ຽງຄືນ": 4758,
      "ສິບສອງພັນ": 4759,
      "ອວດດີ": 4760,
      "ຊີເມອາ": 4761,
      "ລາດານ": 4762,
      "ຂະໜົມ": 4763,
      "ເວັ້ນໄວ້": 4764,
      "ຫິວນ້ຳ": 4765,
      "ໂຟນ": 4766,
      "ແຜ່ລາມ": 4767,
      "ງອກງາມ": 4768,
      "ທຸບຕີ": 4769,
      "ອາຊະເກໂລນ": 4770,
      "ຫລຽວເບິ່ງ": 4771,
      "ບາຣາບາ": 4772,
      "າເກງ": 4773,
      "ອິ່ມໜຳ": 4774,
      "ໜຶ່ງສ່ວນສາມ": 4775,
      "ເຊເບດາຍ": 4776,
      "ຖ່ານໄຟ": 4777,
      "ດຸເດືອດ": 4778,
      "ມູມ": 4779,
      "ອີຊະຮາດ": 4780,
      "ທ້າທາຍ": 4781,
      "ລາເມັກ": 4782,
      "ຜູ້ມີອຳນາດ": 4783,
      "ທຸລະກິດ": 4784,
      "ເຣໂຮບ": 4785,
      "ເອຟະໂຣນ": 4786,
      "ຕຸ້ຍພີ": 4787,
      "ເຢຣຸບບາອານ": 4788,
      "ເນລະເທດ": 4789,
      "ງາຊ້າງ": 4790,
      "ຢໍາເກງ": 4791,
      "ປະເວນີ": 4792,
      "ເມກິດໂດ": 4793,
      "ເຊຟານີຢາ": 4794,
      "28": 4795,
      "66": 4796,
      "ກື": 4797,
      "ກົມ": 4798,
      "ຂີ": 4799,
      "ຂີດ": 4800,
      "ຄ້ອງ": 4801,
      "ງຳ": 4802,
      "ຊິ້ນ": 4803,
      "ຊຸ້ມ": 4804,
      "ຍູ້": 4805,
      "ຍຸດ": 4806,
      "ຍິ້ມ": 4807,
      "ດຶກ": 4808,
      "ຕຶບ": 4809,
      "ຖີ່": 4810,
      "ທວນ": 4811,
      "ທູເອນ": 4812,
      "ນຶງ": 4813,
      "ບອດ": 4814,
      "ບ່າຍ": 4815,
      "ຜອງ": 4816,
      "ພຸ້ນ": 4817,
      "ຟ່ອນ": 4818,
      "ວາດ": 4819,
      "ສຸມ": 4820,
      "ຫ່າ": 4821,
      "ຫງອກ": 4822,
      "ໍດີ": 4823,
      "ເຈົ້າແມ່": 4824,
      "ເປັນຢູ່": 4825,
      "ເພດານ": 4826,
      "ຜູ້ດຽວ": 4827,
      "ຜູ້ບໍລິສຸດ": 4828,
      "ຄົນດຽວ": 4829,
      "ມາຣະ": 4830,
      "ບໍ່ວ່າ": 4831,
      "ມີຄວາມ": 4832,
      "ມີລະ": 4833,
      "ເມຣີ": 4834,
      "ຄວາມສາມາດ": 4835,
      "ຄວາມໝັ້ນໃຈ": 4836,
      "ຄວາມວຸ້ນວາຍ": 4837,
      "າເວດ": 4838,
      "ເຊີດ": 4839,
      "ເອເບັດ": 4840,
      "ເອື້ອງ": 4841,
      "ກະທຶກ": 4842,
      "ບັນລຸ": 4843,
      "ບັນລັດ": 4844,
      "ອາອີຢາ": 4845,
      "ດາໂກນ": 4846,
      "ໄວວາ": 4847,
      "ຕາມໃຈ": 4848,
      "ຄືບ": 4849,
      "ເຢອີເອນ": 4850,
      "ສິ່ງນັ້ນ": 4851,
      "ລະດັບ": 4852,
      "ຊາວນາ": 4853,
      "ໜ້າດິນ": 4854,
      "ຄຳສັນຍາ": 4855,
      "ຄຳນຶງ": 4856,
      "າບໍດີ": 4857,
      "ອິດສະກາ": 4858,
      "ທາງນອກ": 4859,
      "ເກຟາ": 4860,
      "ເກເດັດ": 4861,
      "ເບັ່ງ": 4862,
      "ເບຊາເລ": 4863,
      "ຢາໂລນ": 4864,
      "ຕັ້ງໝັ້ນ": 4865,
      "ເດດານ": 4866,
      "ຊູເນມ": 4867,
      "ໂຢຊາບັດ": 4868,
      "ຮັກກາຍ": 4869,
      "ນ້ຳຖ້ວມ": 4870,
      "ສັ່ງຫ້າມ": 4871,
      "ອະຂາ": 4872,
      "ເນົາ": 4873,
      "ໂຊອາ": 4874,
      "ເຣຊິນ": 4875,
      "ສ່ວນຕົວ": 4876,
      "ສິບຫ້າ": 4877,
      "ຊ່ວຍກູ້": 4878,
      "ອາດຸນລຳ": 4879,
      "ໂກຣິນ": 4880,
      "ໂກເມນ": 4881,
      "ຕະຫລາດ": 4882,
      "ຕົ້ນຫຍ້າ": 4883,
      "ກີລີ": 4884,
      "ຍົກທັບ": 4885,
      "ປາກກື": 4886,
      "ຄອບງຳ": 4887,
      "ຣີເອນ": 4888,
      "ໄພທູນ": 4889,
      "ຜ່ານມາ": 4890,
      "ນາມຊື່": 4891,
      "ຕະກູນ": 4892,
      "ບາງໆ": 4893,
      "ບາງເມັດ": 4894,
      "ໂຄງ": 4895,
      "ເອລີເຟ": 4896,
      "ເອລີຊາເ": 4897,
      "ລໍຄອຍ": 4898,
      "ຂໍ້ປະຕິບັດ": 4899,
      "ທົ່ວໄປ": 4900,
      "ມົນທົນ": 4901,
      "ລົບຫລູ່": 4902,
      "ຊາມມາ": 4903,
      "ໂອ່ຍ": 4904,
      "ສະຖານະການ": 4905,
      "ໂນ້ມ": 4906,
      "ໂນອາມ": 4907,
      "ຮາຣິມ": 4908,
      "ຣິຢາ": 4909,
      "ເຊັ່ນກັນ": 4910,
      "ດວງເດືອນ": 4911,
      "ດຳບັນ": 4912,
      "ອ່ອນຫວານ": 4913,
      "ເບື້ອງລຸ່ມ": 4914,
      "ເບື້ອງຊ້າຍ": 4915,
      "ມືດມົວ": 4916,
      "ຮ້ອນແຮງ": 4917,
      "ແຕກແຫງ": 4918,
      "ອາບີຣາມ": 4919,
      "ຊີ້ນຳ": 4920,
      "ແບ້ໜຸ່ມ": 4921,
      "ຈົດຈໍ່": 4922,
      "ກູ້ຢືມ": 4923,
      "ຫລອກຫລວງ": 4924,
      "ເກີນກວ່າ": 4925,
      "ອາຣາມິກ": 4926,
      "ເກນານ": 4927,
      "ເກນາດ": 4928,
      "ອວດຕົວ": 4929,
      "ເຊື່ອງຊ້ອນ": 4930,
      "ກົ້ມລົງ": 4931,
      "ຄົມດາບ": 4932,
      "ອາເຕ": 4933,
      "ໜາແໜ້ນ": 4934,
      "ບິນຮາ": 4935,
      "ເມົາເຫລົ້າ": 4936,
      "ພິນາດຈິບຫາຍ": 4937,
      "ປັດດານ": 4938,
      "ຮານານີ": 4939,
      "ກະສອບເຂົ້າ": 4940,
      "ເສື່ອມໂຊມ": 4941,
      "ຢຽດຢາມ": 4942,
      "ແທ້ຈິງແລ້ວ": 4943,
      "ໂຕ້ຕອບ": 4944,
      "ແຫລວ": 4945,
      "ມາດຕາ": 4946,
      "ສອດຄ່ອງ": 4947,
      "ຫລົບລີ້": 4948,
      "ງົວຜູ້ໜຸ່ມ": 4949,
      "ຮາບພຽງ": 4950,
      "ຫວງແຫນ": 4951,
      "ຣິບລາ": 4952,
      "ມູຊີ": 4953,
      "ເຍືອງ": 4954,
      "ໂຫລກ": 4955,
      "ແກ້ວໄພທູນ": 4956,
      "ໝູບໜ້າ": 4957,
      "ມິກມາດ": 4958,
      "ຢັບຢັ້ງ": 4959,
      "ໂຮເຊອາ": 4960,
      "ຟ້ອນລຳ": 4961,
      "ມີກາເອນ": 4962,
      "ອຶກກະທຶກ": 4963,
      "ເສນາບໍດີ": 4964,
      "ຂຸ່ຍ": 4965,
      "ດຶກດຳບັນ": 4966,
      "ມີລະກາ": 4967,
      "ເບຊາເລນ": 4968,
      "ໂກຣິນໂທ": 4969,
      "ປາກກືກ": 4970,
      "ເອລີຊາເບັດ": 4971,
      "ໂອ່ຍຄາງ": 4972,
      "17": 4973,
      "52": 4974,
      "70": 4975,
      "ກຽມ": 4976,
      "ຂີ່ມ": 4977,
      "ຈອດ": 4978,
      "ຈ່ອຍ": 4979,
      "ຊາເອນ": 4980,
      "ຍຶດ": 4981,
      "ຖົກ": 4982,
      "ຖົມ": 4983,
      "ທອນ": 4984,
      "ນ້າ": 4985,
      "ບອງ": 4986,
      "ບັ່ນ": 4987,
      "ບິກ": 4988,
      "ຜັນ": 4989,
      "ຝັດ": 4990,
      "ມອນ": 4991,
      "ມເອນ": 4992,
      "ຢົດ": 4993,
      "ຢ້ຳ": 4994,
      "ລອກ": 4995,
      "ລຽງ": 4996,
      "ສຶກສາ": 4997,
      "ຫູກ": 4998,
      "ອົນ": 4999,
      "ຮົມ": 5000,
      "ີລາ": 5001,
      "ແຍ່": 5002,
      "ໄທ": 5003,
      "”?": 5004,
      "ຂອງຖວາຍ": 5005,
      "ພວກອ້າຍ": 5006,
      "ພວກຜູ້ນຳ": 5007,
      "ຈະຕ້ອງ": 5008,
      "ຫລຸ": 5009,
      "ເປັນເຫດ": 5010,
      "ເຮົາເອງ": 5011,
      "ຜູ້ອື່ນ": 5012,
      "ຜູ້ຄຸມ": 5013,
      "ຄົນລ້ຽງສັດ": 5014,
      "ບໍ່ຈິງ": 5015,
      "ຢູ່ໃສ": 5016,
      "ສະລາ": 5017,
      "ປະຈໍາ": 5018,
      "ນີ້ວ": 5019,
      "ຄວາມຮັກ": 5020,
      "ຄວາມເຄົາລົບ": 5021,
      "ຄວາມທຸກໃຈ": 5022,
      "ຄວາມອ່ອນແອ": 5023,
      "ຄວາມເລິກລັບ": 5024,
      "ພວກເຈົ້າເອງ": 5025,
      "ເຊມີ": 5026,
      "ເຊການ": 5027,
      "ເຊເລມີຢາ": 5028,
      "ເອຣະ": 5029,
      "ເອື້ອ": 5030,
      "ເອທານ": 5031,
      "ການງານ": 5032,
      "ການອະທິຖານ": 5033,
      "ການກະບົດ": 5034,
      "ການລ່ວງລະເມີດ": 5035,
      "ກະທົບ": 5036,
      "ກະໂຫລກ": 5037,
      "ກະບອງ": 5038,
      "ອາລະ": 5039,
      "ລາວດີ": 5040,
      "ດາທານ": 5041,
      "ຕໍ່ຕາ": 5042,
      "ດ້ວຍກັນ": 5043,
      "ຮັບຮອງ": 5044,
      "ເຢຣາເ": 5045,
      "ເທສະ": 5046,
      "ເຫາະ": 5047,
      "ຊີຊາກ": 5048,
      "ຊາວໂມອາບ": 5049,
      "ໜ້າອັບອາຍ": 5050,
      "ເຫລືອກ": 5051,
      "ຄຳແນະນໍາ": 5052,
      "ໜຶ່ງຮ້ອຍ": 5053,
      "ເຂົ້ານົກ": 5054,
      "ຢ່າງດີ": 5055,
      "ຂໍທານ": 5056,
      "ອີມ": 5057,
      "ເກມ": 5058,
      "ເກຣາກ": 5059,
      "ເບເຊ": 5060,
      "ເບທູເອນ": 5061,
      "ຢາຣະ": 5062,
      "ໂມໂຫ": 5063,
      "ມັນກີ": 5064,
      "ຖ້າຫາກ": 5065,
      "ສຸດຈິດ": 5066,
      "ເຕຊັດຊາເຣ": 5067,
      "ເດນາ": 5068,
      "ເດລີລາ": 5069,
      "ຕະລັນຕົນ": 5070,
      "ບ່ອນຢູ່": 5071,
      "ສາຫັດ": 5072,
      "ຮ້ອງຂຶ້ນ": 5073,
      "ຊົ່ວໄລຍະ": 5074,
      "ກາງທາງ": 5075,
      "ເນຣີຢາ": 5076,
      "ເນລີໂອ": 5077,
      "ຊະຕີ": 5078,
      "ບັດເຊບາ": 5079,
      "່ມຸກ": 5080,
      "ຣາຮາບ": 5081,
      "ສາຍນ້ຳ": 5082,
      "ສິບແປດ": 5083,
      "ພ້ອມດ້ວຍ": 5084,
      "ສົ່ງເສີມ": 5085,
      "ໂກເນລີໂອ": 5086,
      "ສົມທົບ": 5087,
      "ງານກິນລ້ຽງ": 5088,
      "ເງື່ອມ": 5089,
      "ແປ້ນ": 5090,
      "ດ້ານຫລັງ": 5091,
      "ແຮ້ງ": 5092,
      "ຫາຍະນະ": 5093,
      "ສຳຣິດ": 5094,
      "ຢືນຢູ່": 5095,
      "ຫຍິບ": 5096,
      "ຮູບຈຳລອງ": 5097,
      "ລາຍໄດ້": 5098,
      "ລາຍຈຸດ": 5099,
      "ຂໍ້ກ່າວຫາ": 5100,
      "ຄໍາແນະນໍາ": 5101,
      "ບຸດສະລາ": 5102,
      "ກາອານ": 5103,
      "ຕິດຕັ້ງ": 5104,
      "ມ້າລໍ": 5105,
      "ສະຖານສັກສິດ": 5106,
      "ເບັນເຕຊັດຊາເຣ": 5107,
      "ເຢໂຮຮານານ": 5108,
      "ຜູ້ນັ້ນ": 5109,
      "ເຝົ້າເບິ່ງ": 5110,
      "ວາຊະຕີ": 5111,
      "ແກງ": 5112,
      "ຣິອົນ": 5113,
      "ດັງໆ": 5114,
      "ຊຳລະລ້າງ": 5115,
      "ປິດສະໜາ": 5116,
      "ເພງສັນລະເສີນ": 5117,
      "ສານບັນລັດ": 5118,
      "ເຟື້ອ": 5119,
      "ເຟຮັດ": 5120,
      "ອົດກັ້ນ": 5121,
      "ໄຂ່ມຸກ": 5122,
      "ອາບີເອເຊ": 5123,
      "ແຕ່ລະວັນ": 5124,
      "ທອງສຳຣິດ": 5125,
      "ບາດກ້າວ": 5126,
      "ປູກຝັງ": 5127,
      "ບຸກລຸກ": 5128,
      "ບາກເນອາ": 5129,
      "ຂະພາບ": 5130,
      "ຊັກກູ": 5131,
      "ເຢາະເຍ": 5132,
      "ຊັດດາຍ": 5133,
      "ຈໍານົນ": 5134,
      "ລະດູການ": 5135,
      "ຊັນມູນ": 5136,
      "ບັງຄັບບັນຊາ": 5137,
      "ເຄື່ອນໄຫວ": 5138,
      "ຖ່ອມໃຈ": 5139,
      "ຖ່ອມໂຕ": 5140,
      "ງູພິດ": 5141,
      "ຜ່ອນຜັນ": 5142,
      "ແບກຫາມ": 5143,
      "ອາຣັບ": 5144,
      "ລານຟາດເຂົ້າ": 5145,
      "ໝໍຜີ": 5146,
      "ມາດຕະ": 5147,
      "ສຸຂະພາບ": 5148,
      "ກຸມມານ": 5149,
      "ຫລີກໜີ": 5150,
      "ຫ້ວຍນ້ຳ": 5151,
      "ສົດຊື່ນ": 5152,
      "ມວນມະນຸດ": 5153,
      "ເຊໂລເຟຮັດ": 5154,
      "ຄຽນຫົວ": 5155,
      "ບັ້ນປາຍ": 5156,
      "ເມີນເສີຍ": 5157,
      "ເພັດພອຍ": 5158,
      "ສົນທິສັນຍາ": 5159,
      "ໂອດນີເອນ": 5160,
      "ໄອຢາໂລນ": 5161,
      "ເມເຊັກ": 5162,
      "ເຫງົ້າ": 5163,
      "ອານາກິມ": 5164,
      "ມຳເຣ": 5165,
      "ມຶນເມົາ": 5166,
      "ໂພກ": 5167,
      "ເບເອໂຣດ": 5168,
      "ສາຍຮັດແອວ": 5169,
      "ຊະຕາກຳ": 5170,
      "ຊ້ອງໜ້າ": 5171,
      "ລາຄະຕັນຫາ": 5172,
      "ເງື່ອນໄຂ": 5173,
      "ຜ້າປົກໜ້າ": 5174,
      "ຍຸດທະ": 5175,
      "ອະຂາຢາ": 5176,
      "ປັດດານອາຣາມ": 5177,
      "ຂີ່ມ້າ": 5178,
      "ຖົກຖຽງ": 5179,
      "ເຊການີຢາ": 5180,
      "ເຢຣາເມເອນ": 5181,
      "ເດນາຣິອົນ": 5182,
      "ບຸດສະລາຄຳ": 5183,
      "ຊັກກູເຣ": 5184,
      "ເຢາະເຍີ້ຍ": 5185,
      "ຊັນມູນນາ": 5186,
      "250": 5187,
      "35": 5188,
      "42": 5189,
      "62": 5190,
      "ກຶ່ງ": 5191,
      "ກິບ": 5192,
      "ກຽງ": 5193,
      "ກົ່ວ": 5194,
      "ກາມາ": 5195,
      "ຂູ່": 5196,
      "ຂືນ": 5197,
      "ຂຸ່ນ": 5198,
      "ຂູດ": 5199,
      "ຊົງ": 5200,
      "ຊ້ວນ": 5201,
      "ດົງ": 5202,
      "ດິ່ງ": 5203,
      "ຕອກ": 5204,
      "ຖັກ": 5205,
      "ຖົ່ວ": 5206,
      "ຖ່າຍ": 5207,
      "ທ່ອງ": 5208,
      "ນູ": 5209,
      "ບີກ": 5210,
      "ປອຍ": 5211,
      "ຜົງ": 5212,
      "ຝ່ອນ": 5213,
      "ພົງ": 5214,
      "ພຽນ": 5215,
      "ຟອງ": 5216,
      "ມາເວດ": 5217,
      "ຢະ": 5218,
      "ລົນ": 5219,
      "ລຸມ": 5220,
      "ສິ": 5221,
      "ສູ": 5222,
      "ຫງ": 5223,
      "ຫິ": 5224,
      "ິຢາ": 5225,
      "ົ້ງ": 5226,
      "ແອບ": 5227,
      "ໄຮ່": 5228,
      "”;": 5229,
      "ເຈຍ": 5230,
      "ພວກລູກຊາຍ": 5231,
      "ພວກຜູ້ຊາຍ": 5232,
      "ເຮມ": 5233,
      "ເປັນໜີ້": 5234,
      "ເປັນຕົ້ນເຫດ": 5235,
      "ຜູ້ຕາຍ": 5236,
      "ຜູ້ສ້າງ": 5237,
      "ຜູ້ຕົ້ນ": 5238,
      "ຜູ້ຕິດຕາມ": 5239,
      "ຜູ້ປາຍ": 5240,
      "ຄົນເປັນ": 5241,
      "ຄົນເຊົ່າສວນ": 5242,
      "ມາຈາກ": 5243,
      "ປະທະ": 5244,
      "ປະເມີນ": 5245,
      "ຄວາມຢ້ານກົວ": 5246,
      "ເຊບາດ": 5247,
      "ັກຊັນ": 5248,
      "ເອໂລນ": 5249,
      "ການອະໄພ": 5250,
      "ການໝີ": 5251,
      "ການຜິດຖຽງກັນ": 5252,
      "ກະທະ": 5253,
      "ກະເຣ": 5254,
      "ກະແຈກ": 5255,
      "ອາລົມ": 5256,
      "ຊາອູນ": 5257,
      "ລູກອ່ອນ": 5258,
      "ລູກຈ້າງ": 5259,
      "ເຢອຸດ": 5260,
      "ສິ່ງເຫລົ່ານັ້ນ": 5261,
      "ເຄໂມດ": 5262,
      "ທຸກຈົນ": 5263,
      "ເຫົ່າ": 5264,
      "ເຫມີຢາ": 5265,
      "ຊີບ": 5266,
      "ອິດໄຕ": 5267,
      "ຊາວຮີວີ": 5268,
      "ເຫລວ": 5269,
      "ຄຳຖາມ": 5270,
      "ດີມ": 5271,
      "ດີນາ": 5272,
      "ດີພະຍາດ": 5273,
      "ຢ່າງໜັກ": 5274,
      "ດິນດາກ": 5275,
      "ທາງໃນ": 5276,
      "ເກເບ": 5277,
      "ເບອໍ": 5278,
      "ລາອີຢາ": 5279,
      "ລົງມາ": 5280,
      "ເຄື່ອງຜອງ": 5281,
      "ໂຕນ": 5282,
      "ຫລືບ": 5283,
      "ອັນມອນ": 5284,
      "ທີສີ່": 5285,
      "ຕາຍໄປ": 5286,
      "ໂຢບັບ": 5287,
      "ຕາໂບ": 5288,
      "ນາອາມາ": 5289,
      "ເນເຫມີຢາ": 5290,
      "ໂຊບານ": 5291,
      "ເຣອີ": 5292,
      "ຕີທີ": 5293,
      "ສີເຟ": 5294,
      "ສຽງຮ້ອງ": 5295,
      "ພັນລະ": 5296,
      "ສົມຮູ້": 5297,
      "ມານຊົ່ວຮ້າຍ": 5298,
      "ເລື່ອງນີ້": 5299,
      "ໂຮມາ": 5300,
      "ກີຣະ": 5301,
      "ຍົກຍ້າຍ": 5302,
      "ເຫລືອລົ້ນ": 5303,
      "ຣີອົດ": 5304,
      "ເທົ່າກັນ": 5305,
      "ລັງເລ": 5306,
      "ສຳເນົາ": 5307,
      "ຜ້າຄຽນຫົວ": 5308,
      "ໂລນິກ": 5309,
      "ງົວປ່າ": 5310,
      "ບາງສິ່ງ": 5311,
      "ໂບຊະຣາ": 5312,
      "ຮູບແບບ": 5313,
      "ຄໍາສັນຍາ": 5314,
      "ຫ້າພັນ": 5315,
      "ດູດ": 5316,
      "ດື່ມນ້ຳ": 5317,
      "ຢາກິນ": 5318,
      "ນັ່ງລົງ": 5319,
      "ນໍາພາ": 5320,
      "ກາຊີ": 5321,
      "ກາຢະ": 5322,
      "ນັກຫລິ້ນ": 5323,
      "ໃໝ່ໆ": 5324,
      "ໂອເຣ": 5325,
      "ໂອຟະ": 5326,
      "ເສື້ອຊັ້ນໃນ": 5327,
      "ເມັດເຂົ້າ": 5328,
      "ໂປຕີ": 5329,
      "ເຊັບນາ": 5330,
      "ອາກບາ": 5331,
      "ຜູ້ນ້ອຍ": 5332,
      "ກໍາແພງ": 5333,
      "ອິມເມ": 5334,
      "ເຝົ້າລະວັງ": 5335,
      "ໂຫດ": 5336,
      "ວາຈາ": 5337,
      "ລຳອຽງ": 5338,
      "ລົ້ມເຫລວ": 5339,
      "ເສົາໄມ້": 5340,
      "ມັດແອວ": 5341,
      "ມັດຕີທີ": 5342,
      "ຕຳແຍ": 5343,
      "ຫ້ອງນອນ": 5344,
      "ປານີດ": 5345,
      "ຊັ້ນເທິງ": 5346,
      "ນໍ້າຫອມ": 5347,
      "ມັກເກດາ": 5348,
      "ເນື້ອໃນ": 5349,
      "ກໍ່ຕາມ": 5350,
      "ປ້ອມປ້ອງກັນ": 5351,
      "ທອງແດງ": 5352,
      "ແສງຕາເວັນ": 5353,
      "ບາກບັ່ນ": 5354,
      "ອັດສະຕາກ": 5355,
      "ເສົ້າໝອງ": 5356,
      "ໜ້ອຍດຽວ": 5357,
      "ເພດສຳພັນ": 5358,
      "ນິລັນການ": 5359,
      "ຊັນນາ": 5360,
      "ອາເຟັກ": 5361,
      "ປັກຊາດ": 5362,
      "ດ້ວຍເຫດນັ້ນ": 5363,
      "ອາດາອີຢາ": 5364,
      "ໝາປ່າ": 5365,
      "ວົນວຽນ": 5366,
      "ທັນໃດນັ້ນ": 5367,
      "ອາຊະມາເວດ": 5368,
      "ໝໍຕຳແຍ": 5369,
      "ຫລາຍກວ່ານັ້ນ": 5370,
      "ກັງວານ": 5371,
      "ຄັດເລືອກ": 5372,
      "ຫົດສົງ": 5373,
      "ອົບອຸ່ນ": 5374,
      "ທ່າທີ": 5375,
      "ຊົດເຊີຍ": 5376,
      "ຊົມຊື່ນຍິນດີ": 5377,
      "ດຸໝັ່ນ": 5378,
      "ທໍ້ຖອຍໃຈ": 5379,
      "ໂຕເຟັດ": 5380,
      "ຈໍາເປັນ": 5381,
      "ຣັບບີ": 5382,
      "ຊີ້ແຈງ": 5383,
      "ມີດຕັດ": 5384,
      "————": 5385,
      "ເຊເຣບີຢາ": 5386,
      "ອາເລັກຊັນ": 5387,
      "ແຂ່ງຂັນ": 5388,
      "ເປີ້ນພູ": 5389,
      "ຄ່ອຍໆ": 5390,
      "ເທບພະເຈົ້າ": 5391,
      "ພະໂມເລັກ": 5392,
      "ເຄືອງໃຈ": 5393,
      "ປອງຮ້າຍ": 5394,
      "ພາວັນນາ": 5395,
      "ເມນາເຮມ": 5396,
      "ອັນໜຶ່ງອັນດຽວກັນ": 5397,
      "ມາຣະໂກ": 5398,
      "ເມຣີບາ": 5399,
      "ເຊີດຊູ": 5400,
      "ອິດສະກາຣີອົດ": 5401,
      "ເອື້ອເຟື້ອ": 5402,
      "ເທສະໂລນິກ": 5403,
      "ມາດຕະຖານ": 5404,
      "ບີກຣີ": 5405,
      "ເຊບາດີຢາ": 5406,
      "ກະເຣເຕ": 5407,
      "ກະແຈກກະຈາຍ": 5408,
      "ກາຢະຟາ": 5409,
      "36": 5410,
      "37": 5411,
      "80": 5412,
      "ກົ້ນ": 5413,
      "ຂົບ": 5414,
      "ຂ່າຍ": 5415,
      "ຄຸບ": 5416,
      "ຄຸ້ນ": 5417,
      "ງວດ": 5418,
      "ຈົກ": 5419,
      "ຊໍາ": 5420,
      "ຊໍ້າ": 5421,
      "ຊ່ຽວ": 5422,
      "ຊິ່ມ": 5423,
      "ຍ້ອຍ": 5424,
      "ຕຍ": 5425,
      "ຕວງ": 5426,
      "ຖົມມະ": 5427,
      "ທວາຍ": 5428,
      "ທົນທ": 5429,
      "ນັນ": 5430,
      "ນວມ": 5431,
      "ປູ່": 5432,
      "ປ່ອນ": 5433,
      "ພານ": 5434,
      "ພົ່ນ": 5435,
      "ຟິດ": 5436,
      "ມິນ": 5437,
      "ມາເຣ": 5438,
      "ຢັດ": 5439,
      "ຢາດ": 5440,
      "ຢາບ": 5441,
      "ຢາເອນ": 5442,
      "ລາບ": 5443,
      "ລາເລ": 5444,
      "ສາງ": 5445,
      "ສຶບ": 5446,
      "ສ້ຽນ": 5447,
      "ຫຼ": 5448,
      "ອາເຣ": 5449,
      "ຮີດ": 5450,
      "ຮຸ້ງ": 5451,
      "າໄລ": 5452,
      "ູເຊ": 5453,
      "ໜ່າຍ": 5454,
      "ເຈົ້າເອງ": 5455,
      "ພວກລູກສິດ": 5456,
      "ພຣະສີລາ": 5457,
      "າມື": 5458,
      "ເປເລັກ": 5459,
      "ເປັນໄປ": 5460,
      "ຜູ້ຕໍ່ຕ້ານ": 5461,
      "ຜູ້ສືບທອດ": 5462,
      "້ອາໄລ": 5463,
      "ກໍໄດ້": 5464,
      "ຄົນຍາມ": 5465,
      "ຄົນເຈັບ": 5466,
      "ຄົນສະຫລາດ": 5467,
      "ໄປມາ": 5468,
      "ມາໂອນ": 5469,
      "ບໍ່ດັ່ງນັ້ນ": 5470,
      "ມີຊາເອນ": 5471,
      "ຢູ່ທີ່": 5472,
      "ສະນ້ຳ": 5473,
      "ສະກາ": 5474,
      "ສະໂພກ": 5475,
      "ຄວັດ": 5476,
      "ປະຈົບ": 5477,
      "ປະແຈງ": 5478,
      "ປະຖົມມະ": 5479,
      "ເມທູ": 5480,
      "າດັບ": 5481,
      "ຄວາມສັດຊື່": 5482,
      "ຄວາມລັບ": 5483,
      "ຄວາມຮ້ອນ": 5484,
      "ຄວາມໂງ່": 5485,
      "ຄວາມຕ້ອງການ": 5486,
      "ຄວາມຊ່ວຍເຫລືອ": 5487,
      "ຄວາມກະລຸນາ": 5488,
      "ຄວາມສະໝັກໃຈ": 5489,
      "ເຊເອ": 5490,
      "ເອບານ": 5491,
      "ເອື່ອຍ": 5492,
      "ເອໂນດ": 5493,
      "ການຕາຍ": 5494,
      "ການປະກາດ": 5495,
      "ການເຊື່ອຟັງ": 5496,
      "ການຕັດສິນ": 5497,
      "ການຄວບຄຸມ": 5498,
      "ເຮັດດີ": 5499,
      "ເລ້": 5500,
      "ອາຊາເຣ": 5501,
      "ອາບາຣ": 5502,
      "ຊາອີ": 5503,
      "ຊາໂຣນ": 5504,
      "ແມັດ": 5505,
      "ຕໍ່ວ່າ": 5506,
      "ໄວ້ອາໄລ": 5507,
      "ດ້ວຍນ້ຳ": 5508,
      "ຮັບຟັງ": 5509,
      "ຮັບຈ້າງ": 5510,
      "ເຢດີ": 5511,
      "ເຢຊາອີຢາ": 5512,
      "ເມື່ອກ່ອນ": 5513,
      "ເຫຼ": 5514,
      "ຊີກ": 5515,
      "ຊີເບໂອນ": 5516,
      "ຊາວອາມາເຫລັກ": 5517,
      "ຊາວເຢບຸດ": 5518,
      "ເຖິງແມ່ນ": 5519,
      "ເວົ້າວ່າ": 5520,
      "ດີເລີດ": 5521,
      "ທາງໜ້າ": 5522,
      "ເກບາກ": 5523,
      "ເກເຣັດ": 5524,
      "ເບົ້າ": 5525,
      "ລົງໄປ": 5526,
      "ເສືອດ": 5527,
      "ຫາປາ": 5528,
      "ຫາລື": 5529,
      "ໂຕລາ": 5530,
      "ເຫັນໃຈ": 5531,
      "ແດນມໍລະນາ": 5532,
      "ເດດ": 5533,
      "ເດບາ": 5534,
      "ຕະລ": 5535,
      "ຕະລອດ": 5536,
      "ຕະປູ": 5537,
      "ທີຫົກ": 5538,
      "ຕາອານ": 5539,
      "ຕາໂອນ": 5540,
      "ຕາຮາດ": 5541,
      "ນາຮາ": 5542,
      "ຈັກຄົນ": 5543,
      "ວິຕົກ": 5544,
      "ຊົ່ວຂະນະ": 5545,
      "ວນໍ້າ": 5546,
      "ຊະຕາ": 5547,
      "ຊະກີ": 5548,
      "ໂຊໂກ": 5549,
      "ໂລກຣາມ": 5550,
      "ກິນໂບ": 5551,
      "ເຣັກ": 5552,
      "ກາດມີເອນ": 5553,
      "ສ່ວນໜຶ່ງ": 5554,
      "ສູ້ຕໍ່": 5555,
      "ສິບສາມ": 5556,
      "ໄມ້ເທົ້າ": 5557,
      "ຕິຕຽນ": 5558,
      "ກົດດັນ": 5559,
      "ລິດເດດ": 5560,
      "ຕົກດິນ": 5561,
      "ອາດາກ": 5562,
      "ໂກເມ": 5563,
      "ອັບໂດນ": 5564,
      "ຕົ້ນໝາກກອກ": 5565,
      "ໂຮນ": 5566,
      "ໂຮຣີ": 5567,
      "ກີເຣ": 5568,
      "ກຳປັ້ນ": 5569,
      "ຕັດອອກ": 5570,
      "ຕັດຂາດ": 5571,
      "ຜົນທຳອິດ": 5572,
      "ຕູບານ": 5573,
      "ຈິງຈັງ": 5574,
      "ຈັບຜິດ": 5575,
      "ເຕັມບໍລິບູນ": 5576,
      "ປະຕິບັດຕາມ": 5577,
      "ສີ່ຮ້ອຍ": 5578,
      "ສີ່ຫລ່ຽມ": 5579,
      "ລໍາດັບ": 5580,
      "ຕົວອັກສອນ": 5581,
      "ມະຫ": 5582,
      "ຄໍາຕອບ": 5583,
      "ຫລານສາວ": 5584,
      "ຈຳກັດ": 5585,
      "ຄັ້ງໜຶ່ງ": 5586,
      "ໂອເມ": 5587,
      "ຂ້າງໜ້າ": 5588,
      "ເສື້ອເກາະ": 5589,
      "ເບັນຊັດຊາເຣ": 5590,
      "ຂີ້ເມົາ": 5591,
      "ເມັດພັນ": 5592,
      "ຮາຊີເອນ": 5593,
      "ອາກປັກຊາດ": 5594,
      "ເສຍສະຕິ": 5595,
      "ແຈ່ມ": 5596,
      "ວາອິມ": 5597,
      "ເພື່ອນຮ່ວມງານ": 5598,
      "ເຊັ່ນນັ້ນ": 5599,
      "ພື້ນທີ່": 5600,
      "ພື້ນຖານ": 5601,
      "ດວງອາທິດ": 5602,
      "ລະບົບ": 5603,
      "ຢຸດຢັ້ງ": 5604,
      "ທໍລະນີ": 5605,
      "ຕັດສິນລົງໂທດ": 5606,
      "ໄຫລອອກ": 5607,
      "ຫລັກປັກ": 5608,
      "ຂັດຂືນ": 5609,
      "ຫູໜວກ": 5610,
      "ອຸທອນ": 5611,
      "ໃບສັນຍາ": 5612,
      "ແຄມທະເລ": 5613,
      "ອັກກຸບ": 5614,
      "ຄານເດອາ": 5615,
      "ຂະແໜງ": 5616,
      "ເສົ້າໃຈ": 5617,
      "ພະຍາດຂີ້ທູດ": 5618,
      "ດ້າມ": 5619,
      "ທ່ຽງແທ້": 5620,
      "ງຽບໆ": 5621,
      "ມະຫາລາເລ": 5622,
      "ຫລົງທາງ": 5623,
      "ຕ້ານທານ": 5624,
      "ຂົນແບ້": 5625,
      "ຄ້ອນຕີ": 5626,
      "ອາສາອີຢາ": 5627,
      "ສ່ອງສະຫວ່າງ": 5628,
      "ອາເຊນ": 5629,
      "ຫິວໂຫຍ": 5630,
      "ປັ້ນໝໍ້": 5631,
      "ບິນນູ": 5632,
      "ລະບຽບການ": 5633,
      "ຂັງຄຸກ": 5634,
      "ໄຮ້ຄ່າ": 5635,
      "ໂດດດ່ຽວ": 5636,
      "ຄາດຫວັງ": 5637,
      "ເອັດຊະ": 5638,
      "ເອັດເຣອີ": 5639,
      "ກືນກິນ": 5640,
      "ນໍາກັນ": 5641,
      "ຕຽງນອນ": 5642,
      "ສະທ້ອນ": 5643,
      "ເຕົາອົບ": 5644,
      "ປຸກຕູບ": 5645,
      "ຈື່ຈຳ": 5646,
      "ປູຣິມ": 5647,
      "ເອຊະຕາໂອນ": 5648,
      "ເມຣາອີ": 5649,
      "ເນື້ອລະອຽດດີ": 5650,
      "ອົບຮົມ": 5651,
      "ຊາວກູເຊ": 5652,
      "ຫຍຸ້ງກ່ຽວ": 5653,
      "ໂລບມາກ": 5654,
      "ກິໂລກຣາມ": 5655,
      "ຄື້ນທະເລ": 5656,
      "ສາລະພັດ": 5657,
      "ມາຍັງ": 5658,
      "ປຸງແຕ່ງ": 5659,
      "ທ່ອນໄມ້": 5660,
      "ໂກກທານ": 5661,
      "ຕັບປູອາ": 5662,
      "ໂອໂຮລີບ": 5663,
      "ສັບພະທຸກສິ່ງ": 5664,
      "ເຊໂລມິດ": 5665,
      "ໃບໄມ້ປົ່ງ": 5666,
      "ຄ້ຽວເອື້ອງ": 5667,
      "ອ້ວນພີ": 5668,
      "ເວລານັ້ນ": 5669,
      "ອາມມີຮຸດ": 5670,
      "ໂຖງ": 5671,
      "ເຫື່ອແຮງ": 5672,
      "ກີລີເກຍ": 5673,
      "ເອລີເຟເລັດ": 5674,
      "ຍຸດທະພັນ": 5675,
      "ຂູດຮີດ": 5676,
      "ພົງພັນ": 5677,
      "ຫິວນໍ້າ": 5678,
      "ພັນລະຍາ": 5679,
      "ໂອຟະຣາ": 5680,
      "ມັດຕີທີຢາ": 5681,
      "ຊໍາລະ": 5682,
      "ຊ່ຽວຊານ": 5683,
      "ທົນທານ": 5684,
      "ມາເຣຊາ": 5685,
      "ຢາບິນ": 5686,
      "ປະຖົມມະການ": 5687,
      "ອາບາຣິມ": 5688,
      "ເສືອດາວ": 5689,
      "ກິນໂບອາ": 5690,
      "ມະຫາລາເລນ": 5691,
      "ບິນນູອີ": 5692,
      "ໂອໂຮລີບາມາ": 5693,
      ");": 5694,
      "77": 5695,
      "ກ່ານ": 5696,
      "ກວມ": 5697,
      "ຂື່": 5698,
      "ຄັກ": 5699,
      "ຄາເອນ": 5700,
      "ຄະນ": 5701,
      "ຄຶກ": 5702,
      "ຈິ": 5703,
      "ຈິນ": 5704,
      "ຈອມພູ": 5705,
      "ຍັນ": 5706,
      "ຍາງ": 5707,
      "ຍົບ": 5708,
      "ຍ້ອມ": 5709,
      "ຕິ່ງ": 5710,
      "ຕາດ": 5711,
      "ຖູ": 5712,
      "ທໍ": 5713,
      "ທ່ຽວ": 5714,
      "ນ້ອມ": 5715,
      "ບາເສ": 5716,
      "ປິມ": 5717,
      "ຜັງ": 5718,
      "ຝ່": 5719,
      "ຟາມ": 5720,
      "ມິບ": 5721,
      "ມື່ນ": 5722,
      "ຢາເຣ": 5723,
      "ຣົດ": 5724,
      "ສິມ": 5725,
      "ຫ້າງ": 5726,
      "ຫ້ວງ": 5727,
      "ຫ້ຽມ": 5728,
      "ອິ": 5729,
      "ອົກ": 5730,
      "ອ່ຽງ": 5731,
      "ຮ່ອນ": 5732,
      "ຮ່ອງ": 5733,
      "ະສານ": 5734,
      "ີງ": 5735,
      "ໄຈ": 5736,
      "ໄບ": 5737,
      "້ແຍກ": 5738,
      "ໍປາ": 5739,
      "ໜູ": 5740,
      "່ງດັງ": 5741,
      "ເຮໂຣ": 5742,
      "ເຮເຣັດ": 5743,
      "າມະ": 5744,
      "ເປດາ": 5745,
      "ເປືອກ": 5746,
      "ເປດາອີຢາ": 5747,
      "ເປັນການ": 5748,
      "ຜູ້ປົກປ້ອງ": 5749,
      "ຄົນກຣີກ": 5750,
      "ຄົນທ້ອງຖິ່ນ": 5751,
      "ມາຣາ": 5752,
      "ມາພົບ": 5753,
      "ອົງພຣະເຈົ້າ": 5754,
      "ບໍ່ຮູ້": 5755,
      "ບໍ່ນ້ຳພຸ": 5756,
      "ມີຄາເອນ": 5757,
      "ສະເໜ": 5758,
      "ສະນໍ້າ": 5759,
      "ນີໂກ": 5760,
      "ຄວ້າ": 5761,
      "ປະຈານ": 5762,
      "ຄວາມເຫັນ": 5763,
      "ຄວາມພໍໃຈ": 5764,
      "ຄວາມຢຳເກງ": 5765,
      "ຄວາມຕົວະ": 5766,
      "ຄວາມເດືອດຮ້ອນ": 5767,
      "ຄວາມຕັ້ງໃຈ": 5768,
      "ຄວາມອຸດົມສົມບູນ": 5769,
      "ຄວາມອິດສາ": 5770,
      "ເຊບານ": 5771,
      "ເຊເຣັດ": 5772,
      "ເຊບົວ": 5773,
      "ເຊືອບ": 5774,
      "ເອົ້າ": 5775,
      "ເອີນ": 5776,
      "ເອຊີໂອນ": 5777,
      "ເອລາດ": 5778,
      "ການສະແດງ": 5779,
      "ການຮ້ອງໄຫ້": 5780,
      "ການແຕ່ງງານ": 5781,
      "ການສັ່ງສອນ": 5782,
      "ການເປີດເຜີຍ": 5783,
      "ການຍົກຍ້ອງ": 5784,
      "ການເຈີມ": 5785,
      "ການອຶດຢາກ": 5786,
      "ການພົວພັນ": 5787,
      "ອາຊູ": 5788,
      "ອາຕາ": 5789,
      "ອາຄາດ": 5790,
      "ດາທາ": 5791,
      "ຳລາ": 5792,
      "ຕາມຫລັງ": 5793,
      "ໂລຕັນ": 5794,
      "ໃຈກາງ": 5795,
      "ໃຈກວ້າງຂວາງ": 5796,
      "ເຢເທີ": 5797,
      "ທຸກວັນ": 5798,
      "ທຸກຄັ້ງ": 5799,
      "ລະປາ": 5800,
      "ພະຍົບ": 5801,
      "ຊີຊາ": 5802,
      "ຊີລະປາ": 5803,
      "ຊາວເປເລັດ": 5804,
      "ຊາວເກເຣັດ": 5805,
      "ຄຳສັນລະເສີນ": 5806,
      "ຄຳເຕືອນ": 5807,
      "ຄຳຕົວະ": 5808,
      "ເຖິງວ່າ": 5809,
      "ດີຢາ": 5810,
      "ດີເອນ": 5811,
      "ດີໂຊນ": 5812,
      "ແຫ່": 5813,
      "ອີໂກ": 5814,
      "ທາງຍ່າງ": 5815,
      "ລູກຊາຍກົກ": 5816,
      "ເກອາ": 5817,
      "ເກໂດເຣ": 5818,
      "ເບເຣຍ": 5819,
      "ເບຣິຢາ": 5820,
      "ທຳທ່າ": 5821,
      "ເສອາ": 5822,
      "ໂດ່ງດັງ": 5823,
      "ນຳກັນ": 5824,
      "້ານົມ": 5825,
      "ເຫັນພ້ອມ": 5826,
      "ີດານ": 5827,
      "ເຕະ": 5828,
      "ເຕມາ": 5829,
      "ເຕໄນ": 5830,
      "ເດັນ": 5831,
      "ເດລາອີຢາ": 5832,
      "ອັນດັບ": 5833,
      "ທີຫ້າ": 5834,
      "ສາມພັນ": 5835,
      "ໂຢຊາດັກ": 5836,
      "ຮ້ອງທຸກ": 5837,
      "ຕາປັນ": 5838,
      "ອະສຸ": 5839,
      "ໂຣນາ": 5840,
      "ລີບາ": 5841,
      "ລີເອນ": 5842,
      "ລີເບຍ": 5843,
      "ປີສະກາ": 5844,
      "ປີຊະກີ": 5845,
      "ກິນເນ": 5846,
      "ຣາຟາ": 5847,
      "ຣາທາ": 5848,
      "ເຣເກມ": 5849,
      "ກາຍມາ": 5850,
      "ສ່ວນຫລາຍ": 5851,
      "ນາຍພານ": 5852,
      "ບາຮູ": 5853,
      "ຕິມ": 5854,
      "ສີຂຽວ": 5855,
      "ໂກບ": 5856,
      "ຕົ້ນໜາມ": 5857,
      "ໂຮດາວ": 5858,
      "ກີ້": 5859,
      "ກີໂຊນ": 5860,
      "ຊອບທໍາ": 5861,
      "ພິກ": 5862,
      "ເອນໂຕ": 5863,
      "ເອນນາທານ": 5864,
      "ຮູດ": 5865,
      "ເໜັງ": 5866,
      "ຄິດເຖິງ": 5867,
      "ັດສະຈັນ": 5868,
      "ໝັ້ນຍືນ": 5869,
      "ເທົ່າທຽມ": 5870,
      "ຜ້າລິນິນ": 5871,
      "ໃກ້ຄຽງ": 5872,
      "ຫຍັບ": 5873,
      "ສະຫລັບ": 5874,
      "ສະຫລຸບ": 5875,
      "ແຍ່ງ": 5876,
      "ໂຄນ": 5877,
      "ໂຄຣະ": 5878,
      "ເອລີໂອນ": 5879,
      "ລາຍລະອຽດ": 5880,
      "ລາຍດ່າງ": 5881,
      "ຊາກສັດ": 5882,
      "ຂໍ້ບົກຜ່ອງ": 5883,
      "ອານາເຂດ": 5884,
      "ບ້ານເຮືອນ": 5885,
      "ໂອນານ": 5886,
      "ໂຜ່": 5887,
      "ຄາລາເ": 5888,
      "ນໍາໃຊ້": 5889,
      "ໂອໂນ": 5890,
      "ໂອເມີ": 5891,
      "ເດັກອ່ອນ": 5892,
      "ຄຸນງາມ": 5893,
      "ຄຸນສົມບັດ": 5894,
      "ຂີ້ໝ": 5895,
      "ທາໂຣດ": 5896,
      "ເບັດຊາອີ": 5897,
      "ໂປລີ": 5898,
      "ເປີດອອກ": 5899,
      "ນົກຍາງ": 5900,
      "ໂນບ": 5901,
      "ຕອນຕົ້ນ": 5902,
      "ກ້ອນເມກ": 5903,
      "ຄວາມຈິງໃຈ": 5904,
      "ແກ້ງ": 5905,
      "ແບບນີ້": 5906,
      "ຄັນຄູ": 5907,
      "ອັດຊີ": 5908,
      "ອັດຊູ": 5909,
      "ອັດຕາ": 5910,
      "ຖະໜອມ": 5911,
      "ມັດທາຍ": 5912,
      "ອ່ອນກຳລັງ": 5913,
      "ມືດມິດ": 5914,
      "ຮ້ອນກ້າ": 5915,
      "ແຕກສະຫລາຍ": 5916,
      "ບັງເອີນ": 5917,
      "ປ່າໄມ້": 5918,
      "ເຟືອ": 5919,
      "ຊັ້ນນອກ": 5920,
      "ເຂັ້ມງວດ": 5921,
      "ສືບໄປ": 5922,
      "ແລ່ນເຮືອ": 5923,
      "ແຜນຜັງ": 5924,
      "ທຸກຍາກລຳບາກ": 5925,
      "ກວ້າງໃຫຍ່": 5926,
      "ພັງທະລາຍ": 5927,
      "ກໍ່ກວນ": 5928,
      "ກະດິງ": 5929,
      "ຮ້າງເປົ່າ": 5930,
      "ບາດານ": 5931,
      "ອັກໂບ": 5932,
      "ຊ່າງສີມື": 5933,
      "ຮານົກ": 5934,
      "ເຕືອນສະຕິ": 5935,
      "ຝົນຕົກ": 5936,
      "ດອກບານ": 5937,
      "ຄົບຫາ": 5938,
      "ຮອບຮູ້": 5939,
      "ອາຮີໂນອາມ": 5940,
      "ງຽບສະຫງົບ": 5941,
      "ໂຕະອາຫານ": 5942,
      "ຫລົງໄຫລ": 5943,
      "ອູເຣ": 5944,
      "ຟາກວາອິມ": 5945,
      "ຄູ່ໝັ້ນ": 5946,
      "ອິດສະຫລະພາບ": 5947,
      "ກວດກາ": 5948,
      "ອາຣິບ": 5949,
      "ໂດດເດັ່ນ": 5950,
      "ນໍ້ານົມ": 5951,
      "ຊິມໂຣນ": 5952,
      "ປະເຊີນໜ້າ": 5953,
      "ເອກະສານ": 5954,
      "ເອຊະເຕ": 5955,
      "ຟີລິບປອຍ": 5956,
      "ອົບພະຍົບ": 5957,
      "ເບເອນເຊບູນ": 5958,
      "ຫລີກລ້ຽງ": 5959,
      "ຫລີກເວັ້ນ": 5960,
      "ຊາວກີ": 5961,
      "ຊາວກາດ": 5962,
      "ສັ້ນໆ": 5963,
      "ກິໂລ": 5964,
      "ຝີງ": 5965,
      "ຄຽງຂ້າງ": 5966,
      "ຊິບໂປ": 5967,
      "ສົດໃສ": 5968,
      "ອີ່ມໜຳ": 5969,
      "ຮີບສົບ": 5970,
      "ເຕັ້ນລຳ": 5971,
      "ກັກຂັງ": 5972,
      "ອາກີລາ": 5973,
      "ໂອໂຮລີບາ": 5974,
      "ຄໍ່າຄວນ": 5975,
      "ແຜດສຽງ": 5976,
      "ເລັບຕີນ": 5977,
      "ຮາວີລາ": 5978,
      "ອັດຊະທາໂຣດ": 5979,
      "ຈາງຫາຍ": 5980,
      "ເວລານີ້": 5981,
      "ວິລະກຳ": 5982,
      "ປອບໃຈ": 5983,
      "ບຶງໄຟ": 5984,
      "ປັບປຸງ": 5985,
      "ເບີກບານ": 5986,
      "ເບັ່ງບານ": 5987,
      "ລາວດີເກອາ": 5988,
      "ຢາຣະມຸດ": 5989,
      "ໂອເຣັບ": 5990,
      "ຂົບແຂ້ວ": 5991,
      "ຄຸ້ນເຄີຍ": 5992,
      "ເລ້ຫລ່ຽມ": 5993,
      "ຕະລຶງ": 5994,
      "ຕາອານັກ": 5995,
      "ກີເຣເນ": 5996,
      "ມະຫັດສະຈັນ": 5997,
      "ປຸກຕູບຢູ່": 5998,
      "ບາເສມາດ": 5999,
      "ຢາເຣັດ": 6000,
      "ສະເໜ່": 6001,
      "ເຊບານີຢາ": 6002,
      "ເຊບົວອິມ": 6003,
      "ເອຊີໂອນເກເບ": 6004,
      "ຕາປັນເຮັດ": 6005,
      "ອະສຸຈິ": 6006,
      "ປີຊະກີລາ": 6007,
      "ເອລີໂອນາຍ": 6008,
      "ຄາລາເຕຍ": 6009,
      "ເບັດຊາອີດາ": 6010,
      "16": 6011,
      "150": 6012,
      "29": 6013,
      "74": 6014,
      "ກາມ": 6015,
      "ກຽນ": 6016,
      "ກິມ": 6017,
      "ຂວ": 6018,
      "ຂໍ່": 6019,
      "ຂຸ້ມ": 6020,
      "ຄູນ": 6021,
      "ຈົງ": 6022,
      "ຊອດ": 6023,
      "ຊໍານ": 6024,
      "ຍອຍ": 6025,
      "ດະ": 6026,
      "ດັ້ງ": 6027,
      "ດ່ວນ": 6028,
      "ຕາເ": 6029,
      "ຕາງ": 6030,
      "ຕຸ່ມ": 6031,
      "ທໍ່": 6032,
      "ທິມ": 6033,
      "ນວນ": 6034,
      "ບົ່ງ": 6035,
      "ຜຽນ": 6036,
      "ຟອກ": 6037,
      "ຟົດ": 6038,
      "ມຍ": 6039,
      "ຢາວ": 6040,
      "ຣຸກ": 6041,
      "ຫາດ": 6042,
      "ອາເວ": 6043,
      "ອາເອນ": 6044,
      "ອໍາ": 6045,
      "ຮຸມ": 6046,
      "ີທະ": 6047,
      "ຸຖະໜອມ": 6048,
      "ແອັບ": 6049,
      "ໄຄ": 6050,
      "ໜ່ຽວ": 6051,
      "’;": 6052,
      "ເຈລະ": 6053,
      "ເຈົ້າໜີ້": 6054,
      "ົານອນ": 6055,
      "ພວກຜູ້ປົກຄອງ": 6056,
      "ພວກໂຈນ": 6057,
      "ພວກໂຫລາຈານ": 6058,
      "ທີ່ຍອມຮັບ": 6059,
      "ເຮື້ອ": 6060,
      "ເຮໄກ": 6061,
      "ເຮເລັດ": 6062,
      "ເຂັນ": 6063,
      "ເຂັມ": 6064,
      "ເຂ່ຍ": 6065,
      "ເປຍ": 6066,
      "ເປັນເໝືອນ": 6067,
      "ເປັນພຽງ": 6068,
      "ໃນໃຈ": 6069,
      "ໃນເວລານັ້ນ": 6070,
      "າເອັນ": 6071,
      "ຜູ້ຮ່ວມງານ": 6072,
      "ຜູ້ຂ້າຄົນ": 6073,
      "ຜູ້ຂີ່ມ້າ": 6074,
      "ຄົນນີ້": 6075,
      "ຄົນບໍລິສຸດ": 6076,
      "ຄົນແຂງແຮງ": 6077,
      "ຄົນຫລິ້ນຊູ້": 6078,
      "ບໍ່ດີ": 6079,
      "ສະເຕ": 6080,
      "ສະກັດ": 6081,
      "ສະໝໍ": 6082,
      "ຂ້າພຣະເຈົ້າ": 6083,
      "ນີອົມ": 6084,
      "ປະລິ": 6085,
      "ເມຊາ": 6086,
      "ເມເຣ": 6087,
      "ເມໂອນ": 6088,
      "ຄວາມໃຈຮ້າຍ": 6089,
      "ຄວາມສົມບູນ": 6090,
      "ຄວາມຮັບຜິດຊອບ": 6091,
      "ຄວາມປະສົງ": 6092,
      "ຄວາມຮຸນແຮງ": 6093,
      "ຄວາມແຕກຕ່າງ": 6094,
      "ເຊເມ": 6095,
      "ເຊື່ອນ": 6096,
      "ເຊເຟ": 6097,
      "ເຊໂຟນ": 6098,
      "ເອບີ": 6099,
      "ແຕ່ວ່າ": 6100,
      "ການທຳລາຍ": 6101,
      "ການຕໍ່ສູ້": 6102,
      "ການຕີສອນ": 6103,
      "ກະລາ": 6104,
      "ກະທັນ": 6105,
      "ກະລາດ": 6106,
      "ເລກ": 6107,
      "ເລ່": 6108,
      "ເລເສ": 6109,
      "ອາໂຮ": 6110,
      "ອາແຖ": 6111,
      "ຊາອານ": 6112,
      "ລູກເຮືອ": 6113,
      "ຫລາຍຂຶ້ນ": 6114,
      "ຮັບກຽດ": 6115,
      "ຮັບປະກັນ": 6116,
      "ເຢຣີ": 6117,
      "ເຢອາຣ": 6118,
      "ເຢອູເອນ": 6119,
      "ອອກໜ້າ": 6120,
      "ອອກແບບ": 6121,
      "ເທັດ": 6122,
      "ເທເບັດ": 6123,
      "ທຸກດ້ານ": 6124,
      "ລະສານ": 6125,
      "ລະໄນ": 6126,
      "ເຫືອດ": 6127,
      "ຊີດ": 6128,
      "ຊາວດານ": 6129,
      "ຊາວເກໂຊນ": 6130,
      "ຊາວເປຣີຊີ": 6131,
      "ໜ້າກຽດຊັງ": 6132,
      "ໜ້າຢ້ານກົວ": 6133,
      "ເຫລືອງ": 6134,
      "ເຂົ້າສະໜິດ": 6135,
      "ຢ່າງແນ່ນອນ": 6136,
      "ຍັງເຫລືອ": 6137,
      "ອີຣາ": 6138,
      "ທາງນັ້ນ": 6139,
      "ທາງດ້ານ": 6140,
      "ເກມາ": 6141,
      "ເກດີ": 6142,
      "ເກລີ": 6143,
      "ເກໂຊມ": 6144,
      "ເບດ": 6145,
      "ເບຣີຢາ": 6146,
      "ເບບາຍ": 6147,
      "ລາອິດ": 6148,
      "ເສຟາກວາອິມ": 6149,
      "ເສຣຸກ": 6150,
      "ໂມເຣ": 6151,
      "ໂດເອກ": 6152,
      "ເຄື່ອງບັນນາການ": 6153,
      "ໂຕໜຶ່ງ": 6154,
      "ໂຕແມ່": 6155,
      "ນຳມາ": 6156,
      "ສັນຊາດ": 6157,
      "ເດມ": 6158,
      "ຊູນ": 6159,
      "ຊູອານ": 6160,
      "ທະເຍ": 6161,
      "ທີສິບ": 6162,
      "ໂຢເຊ": 6163,
      "ສະຫວັດ": 6164,
      "ສະຫມຸດ": 6165,
      "ໃຫຍ່ຫລວງ": 6166,
      "ແທ່ງ": 6167,
      "ຕາລີ": 6168,
      "ນາໂຢດ": 6169,
      "ວິຊາ": 6170,
      "ວິໄນ": 6171,
      "ມອບໃຫ້": 6172,
      "ມອບໄວ້": 6173,
      "ເນອີຢາ": 6174,
      "ລີສະຕ": 6175,
      "ຸມມິມ": 6176,
      "ຊະເບ": 6177,
      "ປີເລເສ": 6178,
      "ໂຊພາ": 6179,
      "ເຣອູ": 6180,
      "ພົບກະສັດ": 6181,
      "ສ່ວນໂຕ": 6182,
      "ນາຍຍິງ": 6183,
      "ສິບລົດ": 6184,
      "ສິບຫົກ": 6185,
      "ໄມ້ຄານ": 6186,
      "ບໍລິວານ": 6187,
      "ຕີກະລາດ": 6188,
      "ຕີຊະເບ": 6189,
      "ພ້ອມກັນ": 6190,
      "ຍິງໝ້າຍ": 6191,
      "ຕົກໃສ່": 6192,
      "ຜິດປົກກະຕິ": 6193,
      "ນະທານ": 6194,
      "ຕົ້ນເດີມ": 6195,
      "ໂຮງ": 6196,
      "ໂຮຟະ": 6197,
      "ໂຮຊັນນາ": 6198,
      "ໂຮດີຢາ": 6199,
      "ໂຮເສອາ": 6200,
      "ກີກາຊີ": 6201,
      "ເອນເກດີ": 6202,
      "ຮູມ": 6203,
      "ຮູຊາ": 6204,
      "ທຳລາຍລ້າງ": 6205,
      "ເຊື້ອໄຟ": 6206,
      "ເຊື້ອວົງ": 6207,
      "ໜີໄປ": 6208,
      "ແນກ": 6209,
      "ອາບນ້ຳ": 6210,
      "ກອງໄຟ": 6211,
      "ໂທອາດ": 6212,
      "ຄິດຮອດ": 6213,
      "ຫວ່ງ": 6214,
      "ດ້ານນອກ": 6215,
      "ວິນຍານຊົ່ວຮ້າຍ": 6216,
      "ຣີກຳ": 6217,
      "ໝັ້ນໝາຍ": 6218,
      "ຮ່ວມຊາດ": 6219,
      "ຈັດສັນ": 6220,
      "ຈັດແຈງ": 6221,
      "ຢືນຂຶ້ນ": 6222,
      "ຜ້າຄຸມ": 6223,
      "ທັບທິມ": 6224,
      "ຫຍາບ": 6225,
      "ບາງເທື່ອ": 6226,
      "ເອລີເມເຫລັກ": 6227,
      "ເອລີອາສັບ": 6228,
      "ສີ່ພັນ": 6229,
      "ພາກພຽນ": 6230,
      "ຄໍາທໍານວາຍ": 6231,
      "ເນີຍ": 6232,
      "ອາຮິ": 6233,
      "ຊາມມາຍ": 6234,
      "ເລວີອາ": 6235,
      "ປາຮາດ": 6236,
      "ປາຣົດ": 6237,
      "ພາຍຸ": 6238,
      "ຈຳແນກ": 6239,
      "ປັນຍາຈານ": 6240,
      "ຂີ້ແຮ່": 6241,
      "ເມັດຊາຍ": 6242,
      "ເຢໂຮນາດາບ": 6243,
      "ຍຸແຍ່": 6244,
      "ນົກກະ": 6245,
      "ນົກຂຸ້ມ": 6246,
      "ອາກັກ": 6247,
      "ອາກກິດ": 6248,
      "ເສຍປະໂຫຍດ": 6249,
      "ຕອນນີ້": 6250,
      "ກະທຳຜິດ": 6251,
      "ບົດຮຽນ": 6252,
      "ຝ່າຍໂລກ": 6253,
      "ເສົາເມກ": 6254,
      "ລຸຍ": 6255,
      "ກ້າມ": 6256,
      "ເຈັບທ້ອງ": 6257,
      "ເຈັບໄຂ້": 6258,
      "ລັບລີ້": 6259,
      "ມັດຈຳ": 6260,
      "ອ່ອນສຸພາບ": 6261,
      "ເບື້ອງຕົ້ນ": 6262,
      "ທະນຸຖະໜອມ": 6263,
      "ປານລູ": 6264,
      "ຊັ້ນສູງ": 6265,
      "ເອຟຣາທາ": 6266,
      "ອາບີໄຮ": 6267,
      "ອາບີຊູອາ": 6268,
      "ນໍ້າພຸ": 6269,
      "ຮ່ອມ": 6270,
      "ກົງລໍ້": 6271,
      "ມັກເປລາ": 6272,
      "ໃບ້": 6273,
      "ໃບຫູສົບ": 6274,
      "ແຄມທາງ": 6275,
      "ອັກປັດ": 6276,
      "ບຸກກີ": 6277,
      "ຜົວເມຍ": 6278,
      "ກົກຂາ": 6279,
      "ຂະໝ": 6280,
      "ສອບຖາມ": 6281,
      "ເຫລົ້າອະງຸ່ນສົ້ມ": 6282,
      "ອາຮີໂອ": 6283,
      "ອາຮີເອເຊ": 6284,
      "ຄີງ": 6285,
      "ມະຫາສະຫມຸດ": 6286,
      "ຕາບໃດ": 6287,
      "ສັບປະດາ": 6288,
      "ວິທີການ": 6289,
      "ວິທີທາງ": 6290,
      "ຕື່ນຕົກໃຈ": 6291,
      "ລະດູໜາວ": 6292,
      "ອູຣີຢາ": 6293,
      "ຕານໄມ": 6294,
      "ຂົນສັດ": 6295,
      "ລິບນີ": 6296,
      "ອາມາໄສ": 6297,
      "ຮອງຕີນ": 6298,
      "ຈີກຂາດ": 6299,
      "ດັກຊຸ້ມ": 6300,
      "ໝໍ້ດິນ": 6301,
      "ໝໍ້ກະທະ": 6302,
      "ເຄືອບ": 6303,
      "ຮັດຊຸບ": 6304,
      "ຖອກເທ": 6305,
      "ຫຸ້ມຮັດ": 6306,
      "ຫຸ້ມຫໍ່": 6307,
      "ເອເລອາສາ": 6308,
      "ຮີ້ນ": 6309,
      "ກິ່ນເໝັນ": 6310,
      "ຍື່ນຖວາຍ": 6311,
      "ຄົດລ້ຽວ": 6312,
      "ເຄື່ອງດື່ມບູຊາ": 6313,
      "ອາຣາດ": 6314,
      "ກູນີ": 6315,
      "ອາຊະຣີກຳ": 6316,
      "ຄາດຄິດ": 6317,
      "ປອມຕົວ": 6318,
      "ເຕົາຫລອມ": 6319,
      "ກະຖຸນ": 6320,
      "ເປັ່ງປະກາຍ": 6321,
      "ແມບເຫລື້ອມ": 6322,
      "ເດຍລະສານ": 6323,
      "ເມຣາຣີ": 6324,
      "ເຕີບໂຕ": 6325,
      "ຢືດ": 6326,
      "ເຊຣາຮີຢາ": 6327,
      "ຮວງເຂົ້າ": 6328,
      "ລ່າສັດ": 6329,
      "ຜາສຸກ": 6330,
      "ມົວເມົາ": 6331,
      "ລະອາຍໃຈ": 6332,
      "ອາຣີເອນ": 6333,
      "ຈ້ອງຕາ": 6334,
      "ກະແສນ້ຳ": 6335,
      "ຄຸ້ມກັນ": 6336,
      "ມິກໂດນ": 6337,
      "ເຣຟາອີຢາ": 6338,
      "ດໍາລັດ": 6339,
      "ກາເດັດບາກເນອາ": 6340,
      "ເຫັນແກ່ຕົວ": 6341,
      "ກີຣິອາດທາອິມ": 6342,
      "ຢັບໂບກ": 6343,
      "ຢາອີໂຣ": 6344,
      "ສະເຫລີມສະຫລອງ": 6345,
      "ຊ່ອງແຄບ": 6346,
      "ໂຢກທານ": 6347,
      "ສວຍງາມ": 6348,
      "ຮາວຜ້າກັ້ງ": 6349,
      "ມືນເມົາ": 6350,
      "ກາກເມນ": 6351,
      "ຄ້ຽວຟັນ": 6352,
      "ເຫງົານອນ": 6353,
      "ກິ້ງເກືອກ": 6354,
      "ມຳຟິດ": 6355,
      "ສໍ່າໃດ": 6356,
      "ອາຣະເບຍ": 6357,
      "ເບື່ອໜ່າຍ": 6358,
      "ຈັກກະພົບ": 6359,
      "ຈັກກະພັດ": 6360,
      "ໝວກເກາະ": 6361,
      "ຄວາມທຸກໂສກ": 6362,
      "ເທີ້ນ": 6363,
      "ກີດຂວາງ": 6364,
      "ໂຊກຊະຕາ": 6365,
      "ແຝດ": 6366,
      "ເປນູເອນ": 6367,
      "ຄວາມທຸກຍາກລໍາບາກ": 6368,
      "ບາອາລາ": 6369,
      "ທວນໄຟ": 6370,
      "ຟ່ອນເຂົ້າ": 6371,
      "ອາເຕມາ": 6372,
      "ບິກໄຫວ": 6373,
      "ນີ້ວມື": 6374,
      "ເງື່ອມມື": 6375,
      "ເຈຍລະໄນ": 6376,
      "ໂຫດຫ້ຽມ": 6377,
      "ເມທູເສລາ": 6378,
      "ເຊເອັບ": 6379,
      "ອາຊາເຣນ": 6380,
      "ເຢດີອາເອນ": 6381,
      "ແຈ່ມໃສ": 6382,
      "ເອັດຊະໂຄນ": 6383,
      "ເມຣາອີໂຢດ": 6384,
      "ຄະນອງ": 6385,
      "ຄຶກຄະນອງ": 6386,
      "ໄຈ້ແຍກ": 6387,
      "ເຮໂຣເດຍ": 6388,
      "ນີໂກເດມ": 6389,
      "ອາຕາໂຣດ": 6390,
      "ອີໂກນີອົມ": 6391,
      "ບາຮູຣິມ": 6392,
      "ອັດຊູຣະ": 6393,
      "ເອຊະເຕມົວ": 6394,
      "ອີ່ມໜຳສຳລານ": 6395,
      "ຂົບແຂ້ວຄ້ຽວຟັນ": 6396,
      "ອາເວນ": 6397,
      "ີທະຍານ": 6398,
      "ແອັບເປີ້ນ": 6399,
      "ເຈລະຈາ": 6400,
      "ປະລິມານ": 6401,
      "ເມເຣໂມດ": 6402,
      "ເອບີອາສັບ": 6403,
      "ອາແຖນ": 6404,
      "ເຢອາຣິມ": 6405,
      "ທະເຍີທະຍານ": 6406,
      "ສະຫວັດດີ": 6407,
      "ລີສະຕຣາ": 6408,
      "ນະທານາເອັນ": 6409,
      ".’": 6410,
      "24": 6411,
      "27": 6412,
      "41": 6413,
      "700": 6414,
      "90": 6415,
      "ກມາ": 6416,
      "ກ້ຳ": 6417,
      "ກຸ້ມ": 6418,
      "ຂົ້ວ": 6419,
      "ຄຶ້ມ": 6420,
      "ງໍ": 6421,
      "ງົມ": 6422,
      "ດອງ": 6423,
      "ຖະ": 6424,
      "ຖຸ": 6425,
      "ທ້ວງ": 6426,
      "ນາດ": 6427,
      "ນຸ້ມ": 6428,
      "ບິມ": 6429,
      "ປຳ": 6430,
      "ປ້າ": 6431,
      "ຜື່ນ": 6432,
      "ຝາມື": 6433,
      "ຟາຍ": 6434,
      "ມູເອນ": 6435,
      "ຣັນ": 6436,
      "ຣາບ": 6437,
      "ຣາເຣ": 6438,
      "ລັດສະ": 6439,
      "ວັດສະ": 6440,
      "ສາກ": 6441,
      "ສາເລ": 6442,
      "ຫ່ອນ": 6443,
      "ຫຽນ": 6444,
      "ຫມາກ": 6445,
      "ອ່າວ": 6446,
      "ອິກ": 6447,
      "ອົກກະ": 6448,
      "ອຳລາ": 6449,
      "ຮາເຊ": 6450,
      "ັ້ຍ": 6451,
      "ຸພາບ": 6452,
      "ເຄວ": 6453,
      "ໄຝ່": 6454,
      "ໝັກ": 6455,
      "ຂອງຝາກ": 6456,
      "ເຈີດ": 6457,
      "ເຈື່ອນ": 6458,
      "ເຈົ້າພາບ": 6459,
      "ພວກນ້ອງ": 6460,
      "ທີ່ໄດ້": 6461,
      "ທີ່ສະຖິດ": 6462,
      "ໄດ້ປ່ວຍ": 6463,
      "ເຮໂລນ": 6464,
      "ເຮລາມ": 6465,
      "ເປຣາ": 6466,
      "ເປນິນ": 6467,
      "ເປັ້ຍ": 6468,
      "ຫລົກ": 6469,
      "ຫລຸມ": 6470,
      "ິດຕາ": 6471,
      "ເປັນດັ່ງ": 6472,
      "ເປັນທຸກໃຈ": 6473,
      "ຜູ້ຖືກ": 6474,
      "ຜູ້ປະກາດ": 6475,
      "ຜູ້ທຳອິດ": 6476,
      "ຜູ້ບັນທຶກ": 6477,
      "ຜູ້ແກ້ແຄ້ນ": 6478,
      "ຜູ້ກະທຳຜິດ": 6479,
      "ຄົນທຸກ": 6480,
      "ຄົນຊົ່ວຮ້າຍ": 6481,
      "ຄົນຂາ": 6482,
      "ຄົນບໍ່ເຊື່ອ": 6483,
      "ຄົນພິການ": 6484,
      "ຄົນນາຊີຣີ": 6485,
      "າວາ": 6486,
      "ມາບ": 6487,
      "ມາລາ": 6488,
      "ມາສູ່": 6489,
      "ມາຮາ": 6490,
      "ບໍ່ດົນ": 6491,
      "ບໍ່ຍຸຕິທຳ": 6492,
      "ສະບູ": 6493,
      "ສະຕີນ": 6494,
      "ພຣະອົງໄດ້": 6495,
      "ນີເກ": 6496,
      "ນີເຊຍ": 6497,
      "ປະຈໍ": 6498,
      "ເມໂລ": 6499,
      "ເມໂຮ": 6500,
      "ເມເດບາ": 6501,
      "ເມດາທາ": 6502,
      "ຄວາມຍາວ": 6503,
      "ຄວາມກວ້າງ": 6504,
      "ຄວາມທໍລະມານ": 6505,
      "ຄວາມເຈັບປ່ວຍ": 6506,
      "ຄວາມກັງວົນ": 6507,
      "ຄວາມບໍລິບູນ": 6508,
      "ຄວາມຫ່ວງໃຍ": 6509,
      "ຄວາມເປັນຈິງ": 6510,
      "ຈາກໃສ": 6511,
      "ແຕ້ມ": 6512,
      "ເຊລູ": 6513,
      "ເຊເຄວ": 6514,
      "ເອຕາມ": 6515,
      "ເອປາ": 6516,
      "ເອວາ": 6517,
      "ເອລິມ": 6518,
      "ການເຮັດ": 6519,
      "ການກິນ": 6520,
      "ການສ້າງ": 6521,
      "ການສັນລະເສີນ": 6522,
      "ການແຕ່ງຕັ້ງ": 6523,
      "ການຂົ່ມເຫັງ": 6524,
      "ການເກັບກ່ຽວ": 6525,
      "ການຫລິ້ນຊູ້": 6526,
      "ການປົດປ່ອຍ": 6527,
      "ການທົດສອບ": 6528,
      "ການສິ້ນສຸດ": 6529,
      "ການປ່ຽນແປງ": 6530,
      "ການເສີມສ້າງ": 6531,
      "ເຮັດຕາມ": 6532,
      "ກະທ": 6533,
      "ບັນລະ": 6534,
      "ເລນ": 6535,
      "ເລໂມດ": 6536,
      "ອາໂຄ": 6537,
      "ອາຊານ": 6538,
      "ອາຈົມ": 6539,
      "ອາອິນ": 6540,
      "ຊາຮາ": 6541,
      "ຊາໂນອາ": 6542,
      "ຊາຕາກ": 6543,
      "ລາວໄດ້": 6544,
      "ລູກລໍ": 6545,
      "ລູກແບ້": 6546,
      "ຈົ່ງໄປ": 6547,
      "ຫລາຍໆ": 6548,
      "ຫລາຍຢ່າງ": 6549,
      "ຮັບບາບ": 6550,
      "ຮັບໂທດ": 6551,
      "ເຢເຊ": 6552,
      "ສິ່ງເຫລົ່າ": 6553,
      "ສິ່ງເຫລົ່ານີ້": 6554,
      "ເຄໂດ": 6555,
      "ເຄນາ": 6556,
      "ເທລາ": 6557,
      "ພະລາຊີນີ": 6558,
      "ເຖື່ອນ": 6559,
      "ເຫັດ": 6560,
      "ອິດທິ": 6561,
      "ອິດຊີຢາ": 6562,
      "ອິດໄຣ": 6563,
      "ຊາວສວນ": 6564,
      "ຊາວອາຣາມ": 6565,
      "ກ່າວເຖິງ": 6566,
      "ໜຶ່ງໃຈ": 6567,
      "ໝົດຫວັງ": 6568,
      "ດີຊານ": 6569,
      "ອີຕາລີ": 6570,
      "ເອົາມາ": 6571,
      "ເກນາ": 6572,
      "ເກຣິ": 6573,
      "ເບອາ": 6574,
      "ເບເກ": 6575,
      "ເບກາຍ": 6576,
      "ເບເອີ": 6577,
      "ເບໂທນ": 6578,
      "ະນາກັນ": 6579,
      "ລາໂອເມ": 6580,
      "ຢາຊຸບ": 6581,
      "ຢາຮາຊີເອນ": 6582,
      "ນາງສະໜົມ": 6583,
      "ໂມຊາ": 6584,
      "ໂມນາ": 6585,
      "ໂດໂດ": 6586,
      "ໂຕເອງ": 6587,
      "ໂຕສັ່ນ": 6588,
      "ໂຕເລກ": 6589,
      "ນຳໄປ": 6590,
      "ແດນໄກ": 6591,
      "ມັນລຸກ": 6592,
      "ບູລຸດ": 6593,
      "ສັນຈອນ": 6594,
      "ເດນ": 6595,
      "ເດອີຢາ": 6596,
      "ຊູບ": 6597,
      "ຊູຣິດ": 6598,
      "ຊູເທລາ": 6599,
      "ອັນນາ": 6600,
      "ຕະພາບ": 6601,
      "ທີໂອ": 6602,
      "ຖວາຍກຽດ": 6603,
      "ໂຢນ": 6604,
      "ບ່ອນຊຸມນຸມ": 6605,
      "ບ່ອນຮອງຕີນ": 6606,
      "ຮັກເງິນ": 6607,
      "ຮັກເຊິ່ງກັນແລະກັນ": 6608,
      "ນ້ຳອະງຸ່ນ": 6609,
      "ນ້ຳບີ": 6610,
      "ນ້ຳອະສຸຈິ": 6611,
      "ສະຫຼ": 6612,
      "ຈົນຮອດ": 6613,
      "ຕາໂຊ": 6614,
      "ຕາຊິງ": 6615,
      "ຕາຂ່າຍ": 6616,
      "ວິວາດ": 6617,
      "ບອກວ່າ": 6618,
      "ເນບາ": 6619,
      "ເນເຟ": 6620,
      "ລີເດຍ": 6621,
      "ຸມັດ": 6622,
      "ປີຣາ": 6623,
      "ປີທີຫ້າສິບ": 6624,
      "ໂຊເບ": 6625,
      "ໂຊອານ": 6626,
      "ໂຊຮາ": 6627,
      "ໂຊບັບ": 6628,
      "ໂຊບັກ": 6629,
      "ຄອງນໍ້າ": 6630,
      "ສາວໃຊ້": 6631,
      "ກິນອາຫານ": 6632,
      "ກິນຫຍ້າ": 6633,
      "ບັດຊາ": 6634,
      "ຣາອາມາ": 6635,
      "ເຣຟີ": 6636,
      "ເຣອາອີຢາ": 6637,
      "ລິອາບ": 6638,
      "ສາຍເລືອດ": 6639,
      "ສາຍແຂນ": 6640,
      "ສ່ວນສິບ": 6641,
      "ອານາມ": 6642,
      "ອານາດ": 6643,
      "ສິບມາ": 6644,
      "ສິບເຈັດ": 6645,
      "ສິບເກົ້າ": 6646,
      "ສິບເບກາຍ": 6647,
      "ໄມ້ຈັນ": 6648,
      "ຫົວລ້ານ": 6649,
      "ຕີຄວາມໝາຍ": 6650,
      "ຕີຂີ": 6651,
      "ຍິງທະນູ": 6652,
      "ສົ່ງສຽງ": 6653,
      "ແຜ່ນແພ": 6654,
      "ໂກເຣ": 6655,
      "ໂກຊານ": 6656,
      "ນະພາບ": 6657,
      "ຕົ້ນສົນ": 6658,
      "ຕົ້ນຂາ": 6659,
      "ໂຮເມ": 6660,
      "ໂຮໂຣນາ": 6661,
      "ກີໂຮນ": 6662,
      "ພິໄນ": 6663,
      "ກຳຍານ": 6664,
      "ອາບີດານ": 6665,
      "ວາງໄວ້": 6666,
      "ຍົກຂຶ້ນ": 6667,
      "ຖິ້ມລົງ": 6668,
      "ປາກີເອນ": 6669,
      "ຫວະ": 6670,
      "ດ້ານໃນ": 6671,
      "ວິນຍານຊົ່ວ": 6672,
      "ຜົນດີ": 6673,
      "ຮ່ວມເພດ": 6674,
      "ເຜົ່າພັນ": 6675,
      "ໝາຍເຖິງ": 6676,
      "ຝູງລໍ": 6677,
      "ຝູງມ້າ": 6678,
      "ພັກດີ": 6679,
      "ພັກເຊົາ": 6680,
      "ສຳແດງ": 6681,
      "ຜ້າຖັກ": 6682,
      "ຫີນອ່ອນ": 6683,
      "ຫີນໂມ້ແປ້ງ": 6684,
      "ໃກ້ສິດ": 6685,
      "ຫຍໍ້": 6686,
      "ຈຳນວນໜຶ່ງ": 6687,
      "ງົວໜຸ່ມ": 6688,
      "ແຮງກ້າ": 6689,
      "ແຮງຈູງ": 6690,
      "ເອລີຊູ": 6691,
      "ເອລີອາດາ": 6692,
      "ຣາມາເຊ": 6693,
      "ຕົວເອງ": 6694,
      "ທົ່ວທັງ": 6695,
      "ດູເອນ": 6696,
      "ນອກເໜືອ": 6697,
      "ຫັນຫລັງ": 6698,
      "ນັ່ງເອນໂຕ": 6699,
      "ບຸດກົກ": 6700,
      "ຟີຣາ": 6701,
      "ຟີເລຍ": 6702,
      "ຮາມເມດາທາ": 6703,
      "ໜັງແກະ": 6704,
      "ກາລະ": 6705,
      "ຊາມມູ": 6706,
      "ນັກທະນູ": 6707,
      "ນັກປັກແສ່ວ": 6708,
      "ຄັ້ງໃຫຍ່": 6709,
      "ໂອປາ": 6710,
      "ໂອເຟ": 6711,
      "ຄ່າໄຖ່": 6712,
      "ຄ່າຕອບແທນ": 6713,
      "ຄ່າແຮງງານ": 6714,
      "ຄຸນນະພາບ": 6715,
      "ເຄົາລົບນັບຖື": 6716,
      "ໂຈດ": 6717,
      "ຂີ້ສັດ": 6718,
      "ຂີ້ດິນ": 6719,
      "ຂີ້ແກບ": 6720,
      "ຂີ້ເລື່ອຍ": 6721,
      "ໂປ່ງ": 6722,
      "ນົກຈອກ": 6723,
      "ແຊ່": 6724,
      "ຮາສາ": 6725,
      "ຮາໂບ": 6726,
      "ຮາຊຸມ": 6727,
      "ຮາຣາເຣ": 6728,
      "ອາກອນ": 6729,
      "ອາກີມ": 6730,
      "ຜູ້ນີ້": 6731,
      "ເທື່ອລະ": 6732,
      "ລົ້ມຕາຍ": 6733,
      "ຟີລິດສະຕີນ": 6734,
      "ເຊັ່ນດຽວກັນ": 6735,
      "ຫີບພັນທະສັນຍາ": 6736,
      "ພື້ນເມືອງ": 6737,
      "ຄັນທະນູ": 6738,
      "ອັດມາ": 6739,
      "ອັດດາ": 6740,
      "ມັດສາ": 6741,
      "ເບື້ອງໜຶ່ງ": 6742,
      "ລົດຊາດ": 6743,
      "ມໍລະກົດ": 6744,
      "ແຕກຫັກ": 6745,
      "ແຕກໝຸ່ນ": 6746,
      "ບັງຫຽນ": 6747,
      "ທໍາທ່າ": 6748,
      "ມິດຕະພາບ": 6749,
      "ປ່າດົງ": 6750,
      "ຍາວນານ": 6751,
      "ເອຟຣັດ": 6752,
      "ອາບີຊາກ": 6753,
      "ໄຫລ່": 6754,
      "ປ່ຽນໃຈ": 6755,
      "ເດີ່ນບ້ານ": 6756,
      "ລະນຶກເຖິງ": 6757,
      "ຂັດແຍ່ງ": 6758,
      "ແກ້ໂຕ": 6759,
      "ອະນຸມັດ": 6760,
      "ພັດພາກ": 6761,
      "ນິໄສ": 6762,
      "ພິນໃຫຍ່": 6763,
      "ອັກຊາ": 6764,
      "ຊ່າງໄມ້": 6765,
      "ບຸກໂຈມຕີ": 6766,
      "ເຕືອນໃຈ": 6767,
      "ເຜີຍແຜ່": 6768,
      "ໂຍນຖິ້ມ": 6769,
      "ຊັກດິ້ນ": 6770,
      "ບາອານຮານານ": 6771,
      "ເທດສະການປຸກຕູບຢູ່": 6772,
      "ພາລະໜັກ": 6773,
      "ແນວທາງ": 6774,
      "ອາຮີຣາ": 6775,
      "ອາຮີລຸດ": 6776,
      "ຊິດເລືອດ": 6777,
      "ຊິດຕິມ": 6778,
      "ນິມຊີ": 6779,
      "ນິມໂຣດ": 6780,
      "ເຄິ່ງໜຶ່ງ": 6781,
      "ທ່ຽງທໍາ": 6782,
      "ສໍາຄັນ": 6783,
      "ເກົ່າແກ່": 6784,
      "ອວດໂຕ": 6785,
      "ຈຸດໝາຍ": 6786,
      "ອູເຊ": 6787,
      "ຕານໂມນ": 6788,
      "ຝຸ່ນດິນ": 6789,
      "ເຊັດບັດຊາ": 6790,
      "ຂະໜານ": 6791,
      "ຜີວ": 6792,
      "ຕົກໃຈຢ້ານ": 6793,
      "ຄຸກຄາມ": 6794,
      "ບໍ່ມີເຊື້ອແປ້ງ": 6795,
      "ຮັດຕຸ": 6796,
      "ຖະໜົນຫົນທາງ": 6797,
      "ຖອຍຫລັງ": 6798,
      "ເອເລອາເລ": 6799,
      "ບິນດາດ": 6800,
      "ງູເຫົ່າ": 6801,
      "ຄະດີຄວາມ": 6802,
      "ຈົມນ້ຳ": 6803,
      "ສຳນຽງ": 6804,
      "ນອກຈາກນີ້": 6805,
      "ອາຣິດຕາ": 6806,
      "ຮອຍແຜ": 6807,
      "ຄວາມມືດມົວ": 6808,
      "ອາຊະກາດ": 6809,
      "ອາຊະຣີເອນ": 6810,
      "ໄຮ້ສາລະ": 6811,
      "ເອື້ອຍນ້ອງ": 6812,
      "ປິ່ນໜ້າ": 6813,
      "ລູເຊ": 6814,
      "ຟື້ນຄືນ": 6815,
      "ຊິມມາ": 6816,
      "ວັດຖຸ": 6817,
      "ແມນດະ": 6818,
      "ກີເດໂອນີ": 6819,
      "ສົນທະນາກັນ": 6820,
      "ເຕີມເຕັມ": 6821,
      "ຄົ້ນພົບ": 6822,
      "ຈັງຫວະ": 6823,
      "ຄະນະທູດ": 6824,
      "ເຖິງຢ່າງໃດກໍ່ຕາມ": 6825,
      "ຫົດນ້ຳ": 6826,
      "ຄວັນໄຟ": 6827,
      "ທຽບເທົ່າ": 6828,
      "ຢາເບ": 6829,
      "ສະບາຍດີ": 6830,
      "ອາໂດນີຣາມ": 6831,
      "ອູຣິເອນ": 6832,
      "ກັງວົນໃຈ": 6833,
      "ກິເລດ": 6834,
      "ທຳນອງດຽວກັນ": 6835,
      "ໜ່ວງໜ່ຽວ": 6836,
      "ປະກອບອາວຸດ": 6837,
      "ດັດແປງ": 6838,
      "ຣາກາ": 6839,
      "ຜັກກາດ": 6840,
      "ຢັ້ງຢືນ": 6841,
      "ພວກຄົນເຊົ່າສວນ": 6842,
      "ຈຸ່ມລົງ": 6843,
      "ໂອໂຮລາ": 6844,
      "ໂອໂຮລິອາບ": 6845,
      "ຟ້າແມບເຫລື້ອມ": 6846,
      "ເຄາະຮ້າຍ": 6847,
      "ອຳມີຊັດດາຍ": 6848,
      "ເປກາຮີຢາ": 6849,
      "ມື້ນັ້ນ": 6850,
      "ພິບຕາ": 6851,
      "ໂປ້ມື": 6852,
      "ໂປ້ຕີນ": 6853,
      "ຢາເຟຍ": 6854,
      "ດິ້ນລົນ": 6855,
      "ຊຳເຮື້ອ": 6856,
      "ລໍາອຽງ": 6857,
      "ເປລາຕີຢາ": 6858,
      "ກີຣີອາດເຢອາຣີມ": 6859,
      "ບັກບຸກ": 6860,
      "ໂຢອີອາດາ": 6861,
      "ໂຢອີອາຣິບ": 6862,
      "ຜູ້ຮັບມໍລະດົກ": 6863,
      "ຄວາມທຸກຍາກລຳບາກ": 6864,
      "ເຊື່ອມຕໍ່": 6865,
      "ມີຄວາມເຊື່ອນ": 6866,
      "ຍຶດເອົາ": 6867,
      "ກະໂຫລກຫົວ": 6868,
      "ອາລະຟາຍ": 6869,
      "ເບເຊັກ": 6870,
      "ມັນກີເອນ": 6871,
      "ມັນກີຊູອາ": 6872,
      "ຖ່ອມໂຕລົງ": 6873,
      "ກິບເບໂທນ": 6874,
      "ກາມາລີເອນ": 6875,
      "ສູເຟ": 6876,
      "ໂປຕີຟາ": 6877,
      "ອາເລັກຊັນເດີ": 6878,
      "ວິຕົກກັງວົນ": 6879,
      "ຊົ່ວຂະນະໜຶ່ງ": 6880,
      "ຄັກແນ່": 6881,
      "ຕິ່ງຫູ": 6882,
      "ທໍາມະ": 6883,
      "ເປດາຊູ": 6884,
      "ອາຊູບາ": 6885,
      "ໂຮດາວີຢາ": 6886,
      "ອັດຊີເຣ": 6887,
      "ຊາວກີເບໂອນ": 6888,
      "ຊໍານານ": 6889,
      "ດັ້ງເດີມ": 6890,
      "ໄຄໂຢ": 6891,
      "ກະທັນຫັນ": 6892,
      "ຊູນສະດຸດ": 6893,
      "ໂຮຟະນີ": 6894,
      "ປຳຟີເລຍ": 6895,
      "ລັດສະໝີ": 6896,
      "ວັດສະດຸ": 6897,
      "ອົກກະຣັນ": 6898,
      "ຮາເຊໂຣດ": 6899,
      "ເປນິນນາ": 6900,
      "ຜູ້ຖືກກ່າວຫາ": 6901,
      "ເມໂຮລາ": 6902,
      "ເຊລູມີເອນ": 6903,
      "ບັນລະຍາຍ": 6904,
      "ເຄໂດລາໂອເມ": 6905,
      "ເຄນາອານາ": 6906,
      "ຊູຣິດຊັດດາຍ": 6907,
      "ເນບາໂຢດ": 6908,
      "ປີຣາໂທນ": 6909,
      "ເຣຟີດີມ": 6910,
      "ຕີຂີໂກ": 6911,
      "ໂຮໂຣນາອິມ": 6912,
      "ພິໄນກຳ": 6913,
      "ແຮງຈູງໃຈ": 6914,
      "ຣາມາເຊັດ": 6915,
      "ຊາມມູອາ": 6916,
      "ໂອເຟນ": 6917,
      "ອາຣິດຕາໂຂ": 6918,
      "ແມນດະເຣັກ": 6919,
      "ກິເລດຕັນຫາ": 6920,
      "ມີຄວາມເຊື່ອນ້ອຍ": 6921,
      "ທໍາມະດາ": 6922,
      "23": 6923,
      "34": 6924,
      "337": 6925,
      "53": 6926,
      "550": 6927,
      "67": 6928,
      "95": 6929,
      "ກຸນ": 6930,
      "ກຶກ": 6931,
      "ຂ້ວ": 6932,
      "ຂຸ້ນ": 6933,
      "ຂາເສ": 6934,
      "ຄັ້ນ": 6935,
      "ຄໍ້າ": 6936,
      "ຄີມ": 6937,
      "ຄຸງ": 6938,
      "ງັດ": 6939,
      "ງົງ": 6940,
      "ຈອບ": 6941,
      "ຈ່ອງ": 6942,
      "ຈິ້ງ": 6943,
      "ຊການ": 6944,
      "ຊົກ": 6945,
      "ຊື່ງ": 6946,
      "ຍື": 6947,
      "ຍາເ": 6948,
      "ຍືດ": 6949,
      "ດ່ານ": 6950,
      "ດິມ": 6951,
      "ຕິບ": 6952,
      "ຕາເບ": 6953,
      "ຕື່ງ": 6954,
      "ຖ່ວງ": 6955,
      "ທາກ": 6956,
      "ທາວ": 6957,
      "ທົວ": 6958,
      "ທຶນ": 6959,
      "ບະ": 6960,
      "ບີນ": 6961,
      "ບຸນ": 6962,
      "ປ່ານ": 6963,
      "ປ້ຳ": 6964,
      "ປ້ອນ": 6965,
      "ປາເສ": 6966,
      "ຜອມ": 6967,
      "ພົມ": 6968,
      "ຟາເ": 6969,
      "ມິ": 6970,
      "ມຶກ": 6971,
      "ມຸ່ນ": 6972,
      "ຣຸນ": 6973,
      "ຣກມາ": 6974,
      "ລາເຊ": 6975,
      "ຫະ": 6976,
      "ຫັບ": 6977,
      "ຫອນ": 6978,
      "ຫາບ": 6979,
      "ຫມົດ": 6980,
      "ຮື": 6981,
      "ຮັນ": 6982,
      "ຮາເລ": 6983,
      "ິ້ວ": 6984,
      "ຶ້ງ": 6985,
      "ໂອມ": 6986,
      "ໂວດ": 6987,
      "້ຽງ": 6988,
      "ໜ່ອງ": 6989,
      "ເຈົ້າແຂວງ": 6990,
      "ທີ່ໃດ": 6991,
      "ທີ່ຈິງ": 6992,
      "ທີ່ນັ່ງ": 6993,
      "ທີ່ລະນຶກ": 6994,
      "ຣະເບ": 6995,
      "ພຣະຄຣິດ": 6996,
      "ພຣະປະສົງ": 6997,
      "ພຣະທີ່ນັ່ງ": 6998,
      "ເຮຣະ": 6999,
      "ເຮລາ": 7000,
      "ເຮເສ": 7001,
      "ເຮືອກ": 7002,
      "ເຮ່ຍ": 7003,
      "ເຂັດ": 7004,
      "ເປທາ": 7005,
      "ູ້ໄພ": 7006,
      "ຫລອນ": 7007,
      "ເປັນໝັນ": 7008,
      "ໃນເວລາ": 7009,
      "່ນາ": 7010,
      "່ນ້ອຍ": 7011,
      "າເມນ": 7012,
      "ເຂົາຄູ່": 7013,
      "າກັດ": 7014,
      "ໃຫ້ກຽດ": 7015,
      "ໃຫ້ລອດພົ້ນ": 7016,
      "ຜູ້ຮ້າຍ": 7017,
      "ຜູ້ກາງ": 7018,
      "ຜູ້ຍິ່ງໃຫຍ່": 7019,
      "ຜູ້ທຳລາຍ": 7020,
      "ຜູ້ຮັບຜິດຊອບ": 7021,
      "ຜູ້ຕົວະ": 7022,
      "ຜູ້ເກັບກ່ຽວ": 7023,
      "ຜູ້ຫວ່ານ": 7024,
      "ຜູ້ຕໍ່າຕ້ອຍ": 7025,
      "ຄົນເອຢິບ": 7026,
      "ຄົນລ້ຽງ": 7027,
      "ຄົນນອກ": 7028,
      "ຄົນຂີ້ຕົວະ": 7029,
      "ຄົນຂີ່ມ້າ": 7030,
      "ຄົນຮັບຈ້າງ": 7031,
      "ມາໂລນ": 7032,
      "ມາຮາດ": 7033,
      "ມາທາຍ": 7034,
      "ອົງເຈົ້ານາຍ": 7035,
      "ບໍ່ເປັນ": 7036,
      "ບໍ່ເຫັນ": 7037,
      "ບໍ່ຮັບພິທີຕັດ": 7038,
      "ມີຄົນ": 7039,
      "ມີຊະ": 7040,
      "ມີຢາມິນ": 7041,
      "ມີໄຊ": 7042,
      "ຢູ່ກິນ": 7043,
      "ນີຊິດ": 7044,
      "ກັບເຊ": 7045,
      "ປະຄັບ": 7046,
      "ປະໄຕ": 7047,
      "ປະເດັນ": 7048,
      "ເມຟາ": 7049,
      "ເມເລັກ": 7050,
      "ເມຣາບ": 7051,
      "າດາດ": 7052,
      "ຄວາມເປັນ": 7053,
      "ຄວາມງາມ": 7054,
      "ຄວາມສຳເລັດ": 7055,
      "ຄວາມລຳບາກ": 7056,
      "ຄວາມພິນາດ": 7057,
      "ຄວາມກ້າຫານ": 7058,
      "ຄວາມງົດງາມ": 7059,
      "ຄວາມສະຫງົບສຸກ": 7060,
      "ຄວາມກະຕືລືລົ້ນ": 7061,
      "ຄວາມສັບສົນ": 7062,
      "ຄວາມເສຍຫາຍ": 7063,
      "ຄວາມຊື່ສັດ": 7064,
      "ຄວາມທະເຍີທະຍານ": 7065,
      "ຈາກໄປ": 7066,
      "້ວານ": 7067,
      "ເຊນາ": 7068,
      "ເຊບຸ": 7069,
      "ເຊຊານ": 7070,
      "ເຊໂຟ": 7071,
      "ເຊຕາກ": 7072,
      "ເຊໄນ": 7073,
      "ເອເສ": 7074,
      "ເອທາມ": 7075,
      "ແຕ່ກ່ອນ": 7076,
      "ທັງເປັນ": 7077,
      "ທັງນັ້ນ": 7078,
      "ການເວົ້າ": 7079,
      "ການບາບ": 7080,
      "ການສອນ": 7081,
      "ການນະມັດສະການ": 7082,
      "ການລະນຶກ": 7083,
      "ການຫລອກລວງ": 7084,
      "ການຍອມຮັບ": 7085,
      "ການຂອບພຣະຄຸນ": 7086,
      "ການດຳເນີນຊີວິດ": 7087,
      "ການລ້ຽງດູ": 7088,
      "ການພິສູດ": 7089,
      "ການໂມທະນາ": 7090,
      "ການອິດສາ": 7091,
      "ການທົນທຸກ": 7092,
      "ການເລົ້າໂລມໃຈ": 7093,
      "ການອຸທິດຕົນ": 7094,
      "ການສະເຫລີມສະຫລອງ": 7095,
      "ກະເປ": 7096,
      "ກະໄຕ": 7097,
      "ກະພິບ": 7098,
      "ກະໂປ່ງ": 7099,
      "ເລໂຕ": 7100,
      "ເລອາມ": 7101,
      "ເລຮີ": 7102,
      "ອາສະ": 7103,
      "ອາໂຊ": 7104,
      "ລູກສັດ": 7105,
      "ຈົ່ງຟັງ": 7106,
      "ແມວ": 7107,
      "ກ່ຳ": 7108,
      "ຕໍ່ເນື່ອງ": 7109,
      "ໂລ່ງ": 7110,
      "ໂລອາມ": 7111,
      "ຮັບການ": 7112,
      "ໃຈອ່ອນ": 7113,
      "ຄື້ມ": 7114,
      "ເຢືອກ": 7115,
      "ເຢຊິ": 7116,
      "ເຄັດ": 7117,
      "ພວກເຮົາເອງ": 7118,
      "ແດຣກມາ": 7119,
      "ພະຍາ": 7120,
      "ພະເຄໂມດ": 7121,
      "ພະອາເຕມາ": 7122,
      "ຊີງ": 7123,
      "ຊີນ": 7124,
      "ຊີນາ": 7125,
      "ຂຶ້ນໄປ": 7126,
      "ຊາວເມືອງ": 7127,
      "ຊາວສາມ": 7128,
      "ຊາວເອັດ": 7129,
      "ຊາວເຣຟາອິມ": 7130,
      "ຊາວເມຣາຣີ": 7131,
      "ໜ້າຮັກ": 7132,
      "ໜ້າຕາ": 7133,
      "ໜ້າຊັງ": 7134,
      "ໜ້າເຊື່ອຖື": 7135,
      "ເຫລັນ": 7136,
      "ຄຳກ່າວ": 7137,
      "ຄຳປາ": 7138,
      "ຄຳຈາລຶກ": 7139,
      "ຄຳທັກທາຍ": 7140,
      "ຄຳເທດສະໜາ": 7141,
      "ເວົ້າຕົວະ": 7142,
      "ດີ້ນ": 7143,
      "ເຂົ້າກັນ": 7144,
      "ເຂົ້າຮ່ວມ": 7145,
      "ຢ່າງດຽວກັນ": 7146,
      "ຍັງມີ": 7147,
      "ອີຊີ": 7148,
      "ອີວາ": 7149,
      "ເອົາຊະນະ": 7150,
      "ດິນເຜົາ": 7151,
      "ທາງຫລັງ": 7152,
      "ທາງກາງ": 7153,
      "ເກຕູ": 7154,
      "ເກເຊມ": 7155,
      "ເກຟີຣາ": 7156,
      "ເກນີຊິດ": 7157,
      "ເບເນ": 7158,
      "ວັນນັ້ນ": 7159,
      "ຢາຊາ": 7160,
      "ຢາຊົນ": 7161,
      "ຢາລາມ": 7162,
      "ຢາຟະ": 7163,
      "ເສນີ": 7164,
      "ມືລີບ": 7165,
      "ມື້ວານ": 7166,
      "ໂມນີ": 7167,
      "ໂມລາດ": 7168,
      "ໂດຣາມ": 7169,
      "ຕ້ອງຫ້າມ": 7170,
      "ເຄື່ອງໄນ": 7171,
      "ເຄື່ອງບໍລິຈາກ": 7172,
      "ໂຕບ": 7173,
      "ໂຕອີ": 7174,
      "ໂຕໜອນ": 7175,
      "ໂຕກາມາ": 7176,
      "ເຫັນອົກ": 7177,
      "ອີກຕໍ່ໄປ": 7178,
      "ບູລະນະ": 7179,
      "ໂດຍມີ": 7180,
      "ສັນຍາເ": 7181,
      "ເຕລາ": 7182,
      "ເຕ້ຍ": 7183,
      "ເດກາ": 7184,
      "ເດຣະເບ": 7185,
      "ອັນດຽວ": 7186,
      "ທະຜາ": 7187,
      "ທີສິບຫ້າ": 7188,
      "ຮັກພັກດີ": 7189,
      "ຽວຢາ": 7190,
      "ນ້ຳຢາ": 7191,
      "ນ້ຳຝົນ": 7192,
      "ສາຂາ": 7193,
      "ເຢຊູຣຸນ": 7194,
      "ຕາຮານ": 7195,
      "ຕອບໂຕ້": 7196,
      "ສອງສາມ": 7197,
      "ສອງພັນ": 7198,
      "ສອງເທົ່າ": 7199,
      "ນາໂຟດ": 7200,
      "ນາອາຣາ": 7201,
      "ອະມະ": 7202,
      "ວິເຄາະ": 7203,
      "ຊົ່ວຄົນ": 7204,
      "ກາງແຈ້ງ": 7205,
      "ໂຣເກນ": 7206,
      "ເນັ່ງ": 7207,
      "ເນອາມ": 7208,
      "ເນຟີ": 7209,
      "ລີງ": 7210,
      "ຊະຍາ": 7211,
      "ປີຮາ": 7212,
      "ໂຊດ": 7213,
      "ໂລກນີ້": 7214,
      "ກິນເຂົ້າ": 7215,
      "ພູນ": 7216,
      "ຣາຊະໂຕ": 7217,
      "ຣາຊການ": 7218,
      "ເຣຊົນ": 7219,
      "ເຣເຊັບ": 7220,
      "ເຣຮາບ": 7221,
      "ເຣຮຸມ": 7222,
      "ເຣຮູມ": 7223,
      "ເຊື່ອໝັ້ນ": 7224,
      "ພົບປະ": 7225,
      "າເລຍ": 7226,
      "ສາຍໂສ້": 7227,
      "ນາຍຄັງ": 7228,
      "ອານານ": 7229,
      "ບາທາ": 7230,
      "ບາລາດານ": 7231,
      "ສິບໂປ": 7232,
      "ໄມ້ຄານຫາມ": 7233,
      "ໄມ້ແປ້ນ": 7234,
      "ຫົວແຂງ": 7235,
      "ຫົວເຮືອ": 7236,
      "ຫົວຄ່ຳ": 7237,
      "ຕິກຳ": 7238,
      "ວິຫານຂອງ": 7239,
      "ພ້ອມໜ້າ": 7240,
      "ພຣະຜູ້ລ້ຽງ": 7241,
      "ສີຄ້ຳ": 7242,
      "ສີເຫລືອງ": 7243,
      "ສີໂລອາມ": 7244,
      "ລິດດາ": 7245,
      "ຕົກແຕ່ງ": 7246,
      "ຕົກຕໍ່າ": 7247,
      "ຕົກຕະລຶງ": 7248,
      "ແຜ່ນໜັງ": 7249,
      "ພັນໆ": 7250,
      "ອາດິນ": 7251,
      "ອາດີເອນ": 7252,
      "ອາຫານແລງ": 7253,
      "ຜິດບາບ": 7254,
      "ໂກລານ": 7255,
      "ສົມສູ່": 7256,
      "ອັບດີ": 7257,
      "ງານສະຫລອງ": 7258,
      "ງານສົມລົດ": 7259,
      "ມານະ": 7260,
      "ຕົ້ນຊາກ": 7261,
      "ເລື່ອງໃດ": 7262,
      "ໂຮສາ": 7263,
      "ໂຮເຣັດ": 7264,
      "ໂຮກະລາ": 7265,
      "ກ້ຽວ": 7266,
      "ເອນານ": 7267,
      "ເອນຮານານ": 7268,
      "ເອນໂຣເກນ": 7269,
      "ຮູຊາມ": 7270,
      "ຮູດັງ": 7271,
      "ຮູຊິມ": 7272,
      "ກຳກັບ": 7273,
      "ມະນຸດຊາດ": 7274,
      "ເຊື້ອຊາດ": 7275,
      "ອາບີບ": 7276,
      "ຕັດສິດ": 7277,
      "ຕັດຕອນ": 7278,
      "ຕັດເຕໄນ": 7279,
      "ຢ້ານວ່າ": 7280,
      "ກຽດສັກສີ": 7281,
      "ໂທໂລມ": 7282,
      "ແປວ່າ": 7283,
      "ຍົກຊູ": 7284,
      "ເອີ້ນວ່າ": 7285,
      "ຖິ້ມຮ້າງ": 7286,
      "ຄິດໃນໃຈ": 7287,
      "ດ້ານເທິງ": 7288,
      "ໄພ້": 7289,
      "ແຮມ": 7290,
      "ຝູງນົກ": 7291,
      "ເທົ່າກັບ": 7292,
      "ພັກອາໄສ": 7293,
      "ຈັບເອົາ": 7294,
      "ກ່ອນໆ": 7295,
      "ກ່ອນອື່ນ": 7296,
      "ໄຟໄໝ້": 7297,
      "ຜ້າຮັດ": 7298,
      "ຜ້າຫົ່ມ": 7299,
      "ຜ້າມັດແອວ": 7300,
      "ຍອມຈຳນົນ": 7301,
      "ແຕ່ງໂຕ": 7302,
      "ໝາກດິ່ງ": 7303,
      "ໝາກຖົ່ວ": 7304,
      "ຈຳນວນຫລາຍ": 7305,
      "ດານຫີນ": 7306,
      "ບາງຄັ້ງ": 7307,
      "ໂຄຈອນ": 7308,
      "ໂບເຊໄນ": 7309,
      "ເອລີຊາຟ": 7310,
      "ປະຕິບັດວຽກງານ": 7311,
      "ພາກໃຕ້": 7312,
      "ຊື່ນບານ": 7313,
      "ມື້ທີ": 7314,
      "ລໍປ່າ": 7315,
      "ຕົວເມືອງ": 7316,
      "ຕົວສັ່ນ": 7317,
      "ຂໍ້ຫາ": 7318,
      "ຂໍ້ຕົກລົງ": 7319,
      "ຄຸມໂຕ": 7320,
      "ຫັນໜ້າ": 7321,
      "ປ່ອຍໂຕ": 7322,
      "ອ້ອມແຂນ": 7323,
      "ຮາມູນ": 7324,
      "ອາຮະ": 7325,
      "ເລືອດໄຫລອອກ": 7326,
      "ໂອນາມ": 7327,
      "ກາອາດ": 7328,
      "ກາລານ": 7329,
      "ຊາມລາ": 7330,
      "ນັກປຸ້ນ": 7331,
      "ນັກເລງ": 7332,
      "ສຸກໃສ": 7333,
      "ຈຳພວກ": 7334,
      "ຈຳຈອງ": 7335,
      "ໂອເນ": 7336,
      "ໂອໂບດ": 7337,
      "ທີ່ສຸດປາຍ": 7338,
      "ຢຶດມາ": 7339,
      "ຂ່າວດີ": 7340,
      "ພັນທະສັນຍາເ": 7341,
      "ຍາກຳ": 7342,
      "ຂີ້ຖີ່": 7343,
      "ນັບວ່າ": 7344,
      "ໄກໆ": 7345,
      "ເຢໂຮເຊບາ": 7346,
      "ເຢໂຮຊາບັດ": 7347,
      "ເບັດຊານ": 7348,
      "ເບັດຊູເຣ": 7349,
      "ແຄງ": 7350,
      "ນົກກະຈ": 7351,
      "ຮາຕີ": 7352,
      "ຮາໂຣດ": 7353,
      "ຮາໂດຣາມ": 7354,
      "ໄຖ່ບາບ": 7355,
      "ເສຍພາສີ": 7356,
      "ສະຫງ່າຜ່າ": 7357,
      "ກໍາຈັດ": 7358,
      "ກໍາໄລ": 7359,
      "ອິມລາ": 7360,
      "ອິມນາ": 7361,
      "ບົດບັນທຶກ": 7362,
      "ອ້າຍກົກ": 7363,
      "ຕຽມໂຕ": 7364,
      "ຕຽມຕົວ": 7365,
      "າເຣັບ": 7366,
      "ຣິຊີ": 7367,
      "ຣິຊະປາ": 7368,
      "ດັງກ້ອງ": 7369,
      "ລົມຫາຍ": 7370,
      "ລົມພັດ": 7371,
      "ອັດໄຕ": 7372,
      "ຫວັງວ່າ": 7373,
      "ງາມສະຫງ່າ": 7374,
      "ລັບເລິກ": 7375,
      "ເບື້ອງໜ້າ": 7376,
      "ເບື້ອງປາຍ": 7377,
      "ແຕກກະຈາຍ": 7378,
      "ດົກໜາ": 7379,
      "ປາກົດແຈ້ງ": 7380,
      "ກິດເດນ": 7381,
      "ປານາ": 7382,
      "ສານໂມນ": 7383,
      "ສານລູ": 7384,
      "ປ່າເຖື່ອນ": 7385,
      "ລາຊະບັນລັງ": 7386,
      "ເຟຍ": 7387,
      "ເຟືອຍ": 7388,
      "ອາບີໂນອາມ": 7389,
      "ຊີ້ນສັດ": 7390,
      "ແບ້ປ່າ": 7391,
      "ແບ້ເຖິກ": 7392,
      "ແບ້ຮັບບາບ": 7393,
      "ແບ່ງແຍກ": 7394,
      "ຮຸ່ງອາລຸນ": 7395,
      "ໄຫລແຮງ": 7396,
      "ໄຫລລົ້ນ": 7397,
      "ຈໍາກັດ": 7398,
      "ນໍ້າຕາ": 7399,
      "ນໍ້າອະງຸ່ນ": 7400,
      "ນໍ້າທະເລ": 7401,
      "ນໍ້າໜັກ": 7402,
      "ນໍ້າໝອກ": 7403,
      "ໂຫຍຫາ": 7404,
      "ນ້ຳມັນເຈີມ": 7405,
      "ໄຫວພິບ": 7406,
      "ຈົດທະບຽນ": 7407,
      "ຫລັກການ": 7408,
      "ຫລັກຄຳສອນ": 7409,
      "ຫລັກສຽບ": 7410,
      "ແຕ່ລະໂຕ": 7411,
      "ເນື້ອທີ່": 7412,
      "ປ້ອມປ້ອງ": 7413,
      "ສັ່ນເຊັນ": 7414,
      "ນິຍາຍ": 7415,
      "ກະດົ້ງ": 7416,
      "ເພີ່ມພູນ": 7417,
      "ພິນນ້ອຍ": 7418,
      "ອາຊາຊີຢາ": 7419,
      "ອັກຊິບ": 7420,
      "ອັກໂກບ": 7421,
      "ຊ່າງປັ້ນໝໍ້": 7422,
      "ຖີ້ມ": 7423,
      "ຮານາເນນ": 7424,
      "ຮານາເມນ": 7425,
      "ສິ້ນໃຈ": 7426,
      "ສິ້ນຫວັງ": 7427,
      "ວິຖີຊີວິດ": 7428,
      "ແອ່ນ": 7429,
      "ສະເໝີພາບ": 7430,
      "ພີລາ": 7431,
      "ກຳມະກອນ": 7432,
      "ຊານໂມນ": 7433,
      "ຊານີຢາ": 7434,
      "ອາຮີມານ": 7435,
      "ຄັບຟະ": 7436,
      "ຄັບແຄບ": 7437,
      "ຄັບຣີເອນ": 7438,
      "ສະມາຄົມ": 7439,
      "ມະຫາຊົນ": 7440,
      "ຊັດຕຸ": 7441,
      "ກົ້ມໜ້າ": 7442,
      "ແປກປະຫລາດ": 7443,
      "ກະຕ່າຍ": 7444,
      "ຫລົງເສຍ": 7445,
      "ສູນກາງ": 7446,
      "ຕື່ນເຕັ້ນ": 7447,
      "ອູລາມ": 7448,
      "ອູຣິມ": 7449,
      "ກ້ອງສະໜັ່ນ": 7450,
      "ທ້າຍເຮືອ": 7451,
      "ອາມາຊາ": 7452,
      "ອາເນ": 7453,
      "ອ້ອນວອນຂໍ": 7454,
      "ບໍ່ມີປະໂຫຍດ": 7455,
      "ສ່ອງແຈ້ງ": 7456,
      "ລ້ວນແຕ່": 7457,
      "ສາມັກຄີທໍາ": 7458,
      "ຜົມຫງອກ": 7459,
      "ໂຟນີເຊຍ": 7460,
      "ຄວາມຜິດພາດ": 7461,
      "ບິນຮານ": 7462,
      "ຕ້ອນຮັບແຂກ": 7463,
      "ຮີໂຣດ": 7464,
      "ໄຮ່ນາ": 7465,
      "ໝາຈິ້ງ": 7466,
      "ແຜ່ຂະຫຍາຍ": 7467,
      "ໄລຍະໜຶ່ງ": 7468,
      "ໄລຍະທາງ": 7469,
      "ຄົດໂກງ": 7470,
      "ໂອບກອດ": 7471,
      "ພຶດຕິກຳ": 7472,
      "ທຸກໆສິ່ງ": 7473,
      "ຖົງເງິນ": 7474,
      "ປັດຊະຍາ": 7475,
      "ເອື້ອມ": 7476,
      "ຕົບແສ່ງ": 7477,
      "ເອເຊກຽນ": 7478,
      "ຂາບລົງ": 7479,
      "ຍຸກສຸດທ້າຍ": 7480,
      "ກູເອ": 7481,
      "ປະດັບປະດາ": 7482,
      "ລູຢາ": 7483,
      "ເຢຣິໂມດ": 7484,
      "ຊາເຣທານ": 7485,
      "ອິນທະຜາ": 7486,
      "ກິ່ງໄມ້": 7487,
      "ຊິມໄຊ": 7488,
      "ເກົ້າສິບເກົ້າ": 7489,
      "127": 7490,
      "128": 7491,
      "ຈົ່ມທຸກ": 7492,
      "ສະຖາປານາ": 7493,
      "ຄາງກະໄຕ": 7494,
      "ເນື່ອງຈາກວ່າ": 7495,
      "ປຸກລະດົມ": 7496,
      "ເຢຊີໂມດ": 7497,
      "ເຊມາຣີຢາ": 7498,
      "ຊິນເລ": 7499,
      "ບີເນອາ": 7500,
      "ວົງກົບ": 7501,
      "ມາກົກ": 7502,
      "ກ້າວໜ້າ": 7503,
      "ຫລົບໜີ": 7504,
      "ຫລົບຫລູ່": 7505,
      "ຄຸຍ": 7506,
      "ສະໝຸດ": 7507,
      "ບາຣະໂທໂລມ": 7508,
      "ທໍ້ຖ້ອຍ": 7509,
      "ຟູມ": 7510,
      "ອົບເຊີຍ": 7511,
      "ແກ່ນຕາ": 7512,
      "ກິເດໂອນ": 7513,
      "ຕໍ່າຜ້າ": 7514,
      "ຖ່ອມຕົວລົງ": 7515,
      "ເຮນາດາດ": 7516,
      "ຝ່າມື": 7517,
      "ຮິມໂມນ": 7518,
      "ສົ້ນໜ່ອງ": 7519,
      "254": 7520,
      "ແຕກຕ່າງກັນ": 7521,
      "ອາຣີໂອກ": 7522,
      "ອາຣີມາທາຍ": 7523,
      "ອາເສກາ": 7524,
      "ເຫລື້ອມໃສ": 7525,
      "ຜັກຊີ": 7526,
      "ອີຊະວີ": 7527,
      "ໂກດແຄ້ນ": 7528,
      "ທົບທວນ": 7529,
      "ໝູບລົງ": 7530,
      "ເນໂກດາ": 7531,
      "ມານາຮາດ": 7532,
      "ອໍາມ": 7533,
      "ຊຸ່ມຊື່ນ": 7534,
      "ຜ້າກະສອບເຂົ້າ": 7535,
      "ແຕກແຍກກັນ": 7536,
      "ຕົ້ນປໍປາ": 7537,
      "ແຜດເຜົາ": 7538,
      "ສຸພາບອ່ອນໂຍນ": 7539,
      "180": 7540,
      "ຊ່ອງທາງ": 7541,
      "ໂຢກຊານ": 7542,
      "ໂຢກເນອາມ": 7543,
      "ດໍາເນີນຊີວິດ": 7544,
      "ປູນຂາວ": 7545,
      "ມາຮະລາ": 7546,
      "ເຊເຣເຊ": 7547,
      "ແວ່ນ": 7548,
      "ເສີຍຊາ": 7549,
      "ຊາເມຍ": 7550,
      "ເມເຊເລມີຢາ": 7551,
      "ອາຣາຣັດ": 7552,
      "ໂຮເຊຢາ": 7553,
      "ອັດຊະເບັນ": 7554,
      "ຈັກກະວານ": 7555,
      "ເຣໂຮໂບດ": 7556,
      "ໂອ້ລົມ": 7557,
      "ຕັ່ງນວມ": 7558,
      "ປອກແຂນ": 7559,
      "ພວງມາລາ": 7560,
      "ມີກໂລດ": 7561,
      "ປົກປັກຮັກສາ": 7562,
      "ເນມູເອນ": 7563,
      "ຮາງຫຍ້າ": 7564,
      "ເກເດໂມດ": 7565,
      "ໂຢອີອາກິມ": 7566,
      "ຊະຕາກໍາ": 7567,
      "ອາມມີຮູດ": 7568,
      "ບຳລຸງລ້ຽງ": 7569,
      "ເລໂບຮາມັດ": 7570,
      "ເບນຮິນໂນມ": 7571,
      "ແຝງ": 7572,
      "ອິ່ມໜຳສຳລານ": 7573,
      "666": 7574,
      "ໂນ້ມນ້າ": 7575,
      "ກຽມພ້ອມ": 7576,
      "ຫລຸລູກ": 7577,
      "ເຊມີດາ": 7578,
      "ເຊມີຣາໂມດ": 7579,
      "ຊົ່ວໄລຍະໜຶ່ງ": 7580,
      "ທ່ອງທ່ຽວ": 7581,
      "ຝ່ອນເຂົ້າ": 7582,
      "ກີຣະເຮເຣັດ": 7583,
      "ລັງເລໃຈ": 7584,
      "————————": 7585,
      "ອາເລັກຊັນເດຍ": 7586,
      "ຢັດທີ": 7587,
      "ຢາດາ": 7588,
      "ສຶບຕໍ່": 7589,
      "ຜູ້ສືບທອດມໍລະດົກ": 7590,
      "ຈິນດາ": 7591,
      "ຕາດໂມ": 7592,
      "ກິນເນເຣດ": 7593,
      "ຂີ້ໝ້ຽງ": 7594,
      "ກິໂລແມັດ": 7595,
      "ກິມຮາມ": 7596,
      "ຈົງຮັກພັກດີ": 7597,
      "ຢາວານ": 7598,
      "ຫາດຊາຍ": 7599,
      "ເຢຣີໂມດ": 7600,
      "ໂຢເຊບ": 7601,
      "ຫຍາບຄາຍ": 7602,
      "ອາຮິກຳ": 7603,
      "ເລວີອາທັນ": 7604,
      "ຂະໝັບ": 7605,
      "ສະຫວັດດີພາບ": 7606,
      "ສາເລກາ": 7607,
      "ຫມາກໄມ້": 7608,
      "ເປຣາຊິມ": 7609,
      "ອິດທິພົນ": 7610,
      "ໜຶ່ງໃຈດຽວກັນ": 7611,
      "ເກຣິໂອດ": 7612,
      "ເນເຟັກ": 7613,
      "ກາລະບູນ": 7614,
      "ຜີວໜັງ": 7615,
      "ຮັດຕຸຊະ": 7616,
      "ຢາເບດ": 7617,
      "ກຶກກ້ອງ": 7618,
      "ຂ້ວມ": 7619,
      "ຂາເສັ້ງ": 7620,
      "ຍືມ": 7621,
      "ຍືດຍາວ": 7622,
      "ທົວເຕຣາ": 7623,
      "ບະບົນ": 7624,
      "ຮາເລລູຢາ": 7625,
      "ເຮເສກີຢາ": 7626,
      "ເຮືອກູ້ໄພ": 7627,
      "ເປທາຮີຢາ": 7628,
      "ກັບເຊເອນ": 7629,
      "ເມຟາອາດ": 7630,
      "ເຊບຸບ": 7631,
      "ເຢຊິໂມນ": 7632,
      "ຄຳປາໄສ": 7633,
      "ເກຕູຣາ": 7634,
      "ຢາຟະເລດ": 7635,
      "ໂມລາດາ": 7636,
      "ເຫັນອົກເຫັນໃຈ": 7637,
      "ອະມະຕະ": 7638,
      "ປີຮາຮີໂຣດ": 7639,
      "ເຣຮາບີຢາ": 7640,
      "ສິບໂປຣາ": 7641,
      "ຜ້າຮັດແອວ": 7642,
      "ເອລີຊາຟັນ": 7643,
      "ພັນທະສັນຍາເດີມ": 7644,
      "ນົກກະຈອກ": 7645,
      "ສະຫງ່າຜ່າເຜີຍ": 7646,
      "ຄັບຟະໂທ": 7647,
      "ໝາຈິ້ງຈອກ": 7648,
      "ບາຣະໂທໂລມາຍ": 7649,
      "ໂນ້ມນ້າວ": 7650,
      "):": 7651,
      "11": 7652,
      "130": 7653,
      "245": 7654,
      "31": 7655,
      "33": 7656,
      "46": 7657,
      "450": 7658,
      "430": 7659,
      "55": 7660,
      "64": 7661,
      "650": 7662,
      "72": 7663,
      "730": 7664,
      "760": 7665,
      "98": 7666,
      ";”": 7667,
      "?”.": 7668,
      "ກຽ": 7669,
      "ກີນ": 7670,
      "ກຣິດ": 7671,
      "ກື່ງ": 7672,
      "ຂາງ": 7673,
      "ຂວິດ": 7674,
      "ຂື້ນ": 7675,
      "ຄົກ": 7676,
      "ຄິ້ວ": 7677,
      "ຄາເຣັບ": 7678,
      "ຈູ່": 7679,
      "ຈ້ຳ": 7680,
      "ຊືນ": 7681,
      "ຊາເບນ": 7682,
      "ຊາເດ": 7683,
      "ຍັບ": 7684,
      "ຍົມ": 7685,
      "ຍັ້ງ": 7686,
      "ຍິກ": 7687,
      "ດິດ": 7688,
      "ດົ້ນ": 7689,
      "ດາເບ": 7690,
      "ຕູ້": 7691,
      "ຕິນ": 7692,
      "ຕະນ": 7693,
      "ຕອມ": 7694,
      "ຕອຍ": 7695,
      "ຖາງ": 7696,
      "ທຍ": 7697,
      "ທັດ": 7698,
      "ທວງ": 7699,
      "ທຽນ": 7700,
      "ທັດສະ": 7701,
      "ທຸມມິມ": 7702,
      "ນ່ອງ": 7703,
      "ບນ": 7704,
      "ບິ່ງ": 7705,
      "ບຶດ": 7706,
      "ບົ່ມ": 7707,
      "ປາເ": 7708,
      "ປິນ": 7709,
      "ປ່າວ": 7710,
      "ປຶກ": 7711,
      "ປົນທ": 7712,
      "ປໍ້າ": 7713,
      "ປໍປາ": 7714,
      "ຜື": 7715,
      "ພິງ": 7716,
      "ພວນ": 7717,
      "ພ່ອງ": 7718,
      "ຟາງ": 7719,
      "ຟີດ": 7720,
      "ຟຸມ": 7721,
      "ຟິມ": 7722,
      "ຟານາ": 7723,
      "ມັ້ນ": 7724,
      "ມຸກ": 7725,
      "ມືອນ": 7726,
      "ມ້ຽນ": 7727,
      "ມາເນ": 7728,
      "ຢອດ": 7729,
      "ຢາເລ": 7730,
      "ຢໍ່າ": 7731,
      "ຢຽວຢາ": 7732,
      "ຣອຍ": 7733,
      "ຣິກ": 7734,
      "ລິງ": 7735,
      "ລີນ": 7736,
      "ລີດ": 7737,
      "ລື່ນ": 7738,
      "ລູດ": 7739,
      "ລ່ອງ": 7740,
      "ລ່ຽມ": 7741,
      "ວ່": 7742,
      "ວ່ນ": 7743,
      "ສຽດ": 7744,
      "ສໍານ": 7745,
      "ສວ່ນ": 7746,
      "ຫີ": 7747,
      "ຫວນ": 7748,
      "ຫັ່ນ": 7749,
      "ຫມັ້ນ": 7750,
      "ອາງ": 7751,
      "ອຸນ": 7752,
      "ອົ້ງ": 7753,
      "ຮູກ": 7754,
      "ຮົ່ວ": 7755,
      "ຮາບາ": 7756,
      "າທີ": 7757,
      "ິແຕຣາເນ": 7758,
      "ີທາ": 7759,
      "ືບ": 7760,
      "ູຕານ": 7761,
      "ົວກ": 7762,
      "ຼີ": 7763,
      "ເນີ້": 7764,
      "ເສັດ": 7765,
      "ເກ່": 7766,
      "ເກັນ": 7767,
      "ໄກ້": 7768,
      "ໄກວ": 7769,
      "່ຽນ": 7770,
      "່ຕອງ": 7771,
      "ໜານ": 7772,
      "ໜື່ງ": 7773,
      "້າຄ່າ": 7774,
      "ັນເຕ": 7775,
      "ັນເນ": 7776,
      "ຂອງເພິ່ນ": 7777,
      "ຂອງລາວ": 7778,
      "ວກໍ": 7779,
      "ວກັບ": 7780,
      "ພວກທີ່": 7781,
      "ພວກສັດຕູ": 7782,
      "ພວກແມ່ໝ້າຍ": 7783,
      "ພວກຊາຍໜຸ່ມ": 7784,
      "ທີ່ມາ": 7785,
      "ທີ່ຕັ້ງ": 7786,
      "ທີ່ປະຊຸມ": 7787,
      "ພຣະນາມ": 7788,
      "ເຮນາ": 7789,
      "ເຮເຫລັກ": 7790,
      "ັດແທກ": 7791,
      "ຈະໄດ້": 7792,
      "ຈະປະທານ": 7793,
      "ເປວ": 7794,
      "ເປໂລນ": 7795,
      "ເປເນັດ": 7796,
      "ເປຣິຊີ": 7797,
      "ຫລາວ": 7798,
      "ຫລາບ": 7799,
      "ຫລ່ຽນ": 7800,
      "ເປັນທຸກ": 7801,
      "ເປັນທາດ": 7802,
      "ເພົາ": 7803,
      "ເພທາຍ": 7804,
      "ເພັນເຕ": 7805,
      "ໃຫ້ແກ່": 7806,
      "ໃຫ້ຊີວິດ": 7807,
      "ຜູ້ສອນ": 7808,
      "ຜູ້ເບິ່ງແຍງ": 7809,
      "ຜູ້ກ່າວຫາ": 7810,
      "ກໍາມື": 7811,
      "ຄົນດີ": 7812,
      "ຄົນເຫລົ່ານັ້ນ": 7813,
      "ຄົນສັດຊື່": 7814,
      "ຄົນເຝົ້າ": 7815,
      "ຄົນເຝົ້າຍາມ": 7816,
      "ຄົນໂລບ": 7817,
      "ຄົນຂີ້ທູດ": 7818,
      "ຄົນປາກກືກ": 7819,
      "ຄົນທຸກຈົນ": 7820,
      "ຄົນຫາປາ": 7821,
      "ຄົນຫູໜວກ": 7822,
      "ຄົນເປັ້ຍ": 7823,
      "ຄົນຂາເສັ້ງ": 7824,
      "າວັນ": 7825,
      "ມາອາ": 7826,
      "ບໍ່ໃຫ້": 7827,
      "ບໍ່ນໍ້າ": 7828,
      "ບໍ່ສະອາດ": 7829,
      "ບໍ່ສະບາຍ": 7830,
      "ມີນີ": 7831,
      "ມີສ່ວນ": 7832,
      "ມີປັນຍາ": 7833,
      "ມີເລໂຕ": 7834,
      "ຢູ່ໃນ": 7835,
      "ຢູ່ນັ້ນ": 7836,
      "ຢູ່ທີ່ນີ້": 7837,
      "ສະເປນ": 7838,
      "ສະລິງ": 7839,
      "ຂ້າຕາຍ": 7840,
      "ຂ້າຟັນ": 7841,
      "ພຣະອົງໃຊ້": 7842,
      "ນີຢາ": 7843,
      "ປະໄວ້": 7844,
      "ເມລາ": 7845,
      "ເມເນ": 7846,
      "ເມຮີ": 7847,
      "ເມມູ": 7848,
      "ເມເຣດ": 7849,
      "ເມທີໂອ": 7850,
      "ິ່ງຊັນ": 7851,
      "ຄວາມສູງ": 7852,
      "ຄວາມສະຫລາດ": 7853,
      "ຄວາມຈອງຫອງ": 7854,
      "ຄວາມປະຫລາດໃຈ": 7855,
      "ຄວາມປະພຶດ": 7856,
      "ຄວາມນັບຖື": 7857,
      "ຄວາມຈຳເປັນ": 7858,
      "ຄວາມເຕັມໃຈ": 7859,
      "ຄວາມເສຍໃຈ": 7860,
      "ຄວາມຮ້ອນຮົນ": 7861,
      "ຄວາມແຕກແຍກ": 7862,
      "ຄວາມຫຶງຫວງ": 7863,
      "ຄວາມຫຍຸ້ງຍາກ": 7864,
      "ຄວາມເສື່ອມຊາມ": 7865,
      "ຄວາມສະໜຸກສະໜານ": 7866,
      "ຄວາມເຄັມ": 7867,
      "ຄວາມປານີ": 7868,
      "ຄວາມບໍ່ຈິງ": 7869,
      "ຄວາມຖ່ອມໃຈ": 7870,
      "ຄວາມລຳອຽງ": 7871,
      "ຄວາມເອື້ອເຟື້ອ": 7872,
      "ຄວາມເສົ້າໃຈ": 7873,
      "້ວັດແທກ": 7874,
      "ແຕງ": 7875,
      "ເຊີ": 7876,
      "ເຊຊາຍ": 7877,
      "ເຊເຄມ": 7878,
      "ເຊຟາມ": 7879,
      "ເຊີງ": 7880,
      "ເອ້": 7881,
      "ເອໂລ": 7882,
      "ເອສາ": 7883,
      "ເອມານ": 7884,
      "ເອຣີ": 7885,
      "ເອເບັນ": 7886,
      "ເອເລອາດ": 7887,
      "ເອມິມ": 7888,
      "ເອຣາຊະໂຕ": 7889,
      "ທັງໆ": 7890,
      "ການຮັບ": 7891,
      "ການທຳນວາຍ": 7892,
      "ການສາບແຊ່ງ": 7893,
      "ການລັກ": 7894,
      "ການຈັດຕຽມ": 7895,
      "ການຕ້ອນຮັບ": 7896,
      "ການຫົ່ມ": 7897,
      "ການກະທໍາ": 7898,
      "ການຂາບໄຫວ້": 7899,
      "ການລໍ້ລວງ": 7900,
      "ການຢ່າຮ້າງ": 7901,
      "ການສະໜອງ": 7902,
      "ການປິ່ນປົວ": 7903,
      "ການເກີດລູກ": 7904,
      "ການໂຕ້ຖຽງ": 7905,
      "ການຝຶກຝົນ": 7906,
      "ການກົດຂີ່ຂົ່ມເຫັງ": 7907,
      "ການອຸທິດຖວາຍ": 7908,
      "ການໂຮມຊຸມນຸມ": 7909,
      "ການຊີ້ນຳ": 7910,
      "ການປອງຮ້າຍ": 7911,
      "ເຮັດຊົ່ວ": 7912,
      "ກະໂລ": 7913,
      "ກະນາ": 7914,
      "ກະດານ": 7915,
      "ກະສົບ": 7916,
      "ບັນນີ": 7917,
      "ເລຮູ": 7918,
      "ເພິ່ນເອງ": 7919,
      "ອາຣິ": 7920,
      "ອາຊະນ": 7921,
      "ອາຊີບ": 7922,
      "ຊາໂຟນ": 7923,
      "ລາວຈະ": 7924,
      "ລູກາ": 7925,
      "ລູກີ": 7926,
      "ສັດປີກ": 7927,
      "ຈົ່ງຮັກ": 7928,
      "ເວທີ": 7929,
      "ແມ້": 7930,
      "ແມ່ມ": 7931,
      "ດາອີ": 7932,
      "ກ່ອງ": 7933,
      "”.)": 7934,
      "ໂລເອ": 7935,
      "ໂລຄາ": 7936,
      "ໂລເດບາ": 7937,
      "ຮັບໂວດ": 7938,
      "ໃຈຮ້ອນ": 7939,
      "ຄືເກົ່າ": 7940,
      "ເຢເທ": 7941,
      "ເຢໂກ": 7942,
      "ເຢຊານ": 7943,
      "ເຢຮີ": 7944,
      "ເຢຕຸ": 7945,
      "ເຢຊາດັກ": 7946,
      "ເຢອາບາຣິມ": 7947,
      "ເຢກາມ": 7948,
      "ເຢເລໂມດ": 7949,
      "ເພື່ອຈະ": 7950,
      "ເພື່ອແຜ່": 7951,
      "ອອກແຮງ": 7952,
      "ເຄຍ": 7953,
      "ເຄເຣ": 7954,
      "ເຄຣາເຊ": 7955,
      "ເຄັນເນ": 7956,
      "ທຸກແຫ່ງ": 7957,
      "ທຸກຊະນິດ": 7958,
      "ລະປະ": 7959,
      "ລະເບ": 7960,
      "ລະໂຄ": 7961,
      "ພະອົງ": 7962,
      "ພະນະ": 7963,
      "ພະລານ": 7964,
      "ເຖີດ": 7965,
      "ເຖີງ": 7966,
      "ເຫມືອນ": 7967,
      "ຊີຣະ": 7968,
      "ຊີຮາ": 7969,
      "ຊີບີຢາ": 7970,
      "ຊີໂຮເຣ": 7971,
      "ຂຶ້ນມາ": 7972,
      "ຊາວຟີລິດສະຕິນ": 7973,
      "ຊາວຕ່າງດ້າວ": 7974,
      "ຊາວເກນິດ": 7975,
      "ໜ້ານ້ຳ": 7976,
      "ໜ້າຕໍ່ໜ້າ": 7977,
      "ໜ້ານັບຖື": 7978,
      "ໜ້າຜາ": 7979,
      "ເຫລັບ": 7980,
      "ຄຳຮ້ອງ": 7981,
      "ຄຳໝິ່ນປະໝາດ": 7982,
      "ຄຳປຶກສາ": 7983,
      "ຄຳຍ້ອງຍໍ": 7984,
      "ຄຳປຽບທຽບ": 7985,
      "ຄຳສຸພາສິດ": 7986,
      "ຄຳພາວັນນາ": 7987,
      "ກ່າວຮ້າຍ": 7988,
      "ຖືກເອີ້ນ": 7989,
      "ກັນນິມ": 7990,
      "ໝົດແຮງ": 7991,
      "ໝົດກ້ຽງ": 7992,
      "ດີງາມ": 7993,
      "ດີໄດ": 7994,
      "ເຂົ້າສ່ວນ": 7995,
      "ເຂົ້າຂ້າງ": 7996,
      "ເຂົ້າຂົ້ວ": 7997,
      "ຢ່າງດຽວ": 7998,
      "ຂໍ້ມ": 7999,
      "ອີຣະ": 8000,
      "ອີການ": 8001,
      "ອີໂຢນ": 8002,
      "ເອົາປຽບ": 8003,
      "ເມືອງຕ່າງໆ": 8004,
      "ທາງການ": 8005,
      "ທາງຂ້າງ": 8006,
      "ເກເຣ": 8007,
      "ເກຣີ": 8008,
      "ເກມິດ": 8009,
      "ເບໂສ": 8010,
      "ເບໄຊ": 8011,
      "ເບທາຍ": 8012,
      "ເບເຣັດ": 8013,
      "ເບຣິດ": 8014,
      "ເບນີເກ": 8015,
      "ເບຣາກາ": 8016,
      "ວັນເວລາ": 8017,
      "ວັນເກີດ": 8018,
      "ລາໄຮ": 8019,
      "ລາວກໍ": 8020,
      "ຢາໂນອາ": 8021,
      "ຢາອາການ": 8022,
      "ຢາຣິບ": 8023,
      "ຢາຮະ": 8024,
      "ຢາໂຊເບ": 8025,
      "ທຳການ": 8026,
      "ເສກ": 8027,
      "ເສືອ": 8028,
      "ເສເດັກ": 8029,
      "ເໝືອນເດີມ": 8030,
      "ໂດບ": 8031,
      "ໂດທານ": 8032,
      "ເຄື່ອງເງິນ": 8033,
      "ເຄື່ອງດົນຕີ": 8034,
      "ເຄື່ອງວັດແທກ": 8035,
      "ເຄື່ອງມັດຈຳ": 8036,
      "ເຫັນວ່າ": 8037,
      "ແດນຄົນຕາຍ": 8038,
      "ບູດ": 8039,
      "ບູຊີ": 8040,
      "ໂດຍສະເພາະ": 8041,
      "ຮ້າຍກາດ": 8042,
      "ເຕນ": 8043,
      "ເຕບາ": 8044,
      "ເຕເລັມ": 8045,
      "ຕັ້ງຄ້າຍ": 8046,
      "ເດມາ": 8047,
      "ເດອານ": 8048,
      "ເດເມທີໂອ": 8049,
      "ຊູນີ": 8050,
      "ຊູຟາ": 8051,
      "ຊູຮາມ": 8052,
      "ທະນີ": 8053,
      "ທະຣານ": 8054,
      "ຕະຍານ": 8055,
      "ຕະກຳ": 8056,
      "ທີບ": 8057,
      "ທີເກົ້າ": 8058,
      "ທີສິບສີ່": 8059,
      "ສາມັນ": 8060,
      "ສາມຮ້ອຍ": 8061,
      "ຕາຍເປັນ": 8062,
      "ຕາຍບໍ່ເປັນ": 8063,
      "ຍ່ຽວ": 8064,
      "ຮັກກົດ": 8065,
      "ຮັກກີ": 8066,
      "ບາບກຳ": 8067,
      "ນ້ຳໃຈ": 8068,
      "ນ້ຳໜ້າ": 8069,
      "ນ້ຳມຶກ": 8070,
      "ນ້ຳໜຶ່ງໃຈດຽວກັນ": 8071,
      "ສະຫນອງ": 8072,
      "ຕາອາວ": 8073,
      "ຕາຝັ່ງ": 8074,
      "ຕາເປເນັດ": 8075,
      "ຕອບວ່າ": 8076,
      "ຕອບສະຫນອງ": 8077,
      "ສັ່ງໃຫ້": 8078,
      "ປົກບັງ": 8079,
      "ສອງສ່ວນສິບ": 8080,
      "ນາຟີດ": 8081,
      "ພໍ່ປູ່": 8082,
      "ອະຍຸຕິທຳ": 8083,
      "ຈັກໂຕ": 8084,
      "ວິຈາລະ": 8085,
      "ກາງວັນ": 8086,
      "ກາງອາກາດ": 8087,
      "ໂຣເຊັດ": 8088,
      "ເນການ": 8089,
      "ເນເຮລາມ": 8090,
      "ຖານຮາກ": 8091,
      "ຟັງຄວາມ": 8092,
      "ລີອາ": 8093,
      "ລີເຊຍ": 8094,
      "ຊື່ມ": 8095,
      "ຊື່ໆ": 8096,
      "ຊື່ວ່າ": 8097,
      "ຊະຍາກຳ": 8098,
      "ໂຊເມ": 8099,
      "ຄອງລາດ": 8100,
      "ກິນນ້ຳ": 8101,
      "ບັດຕິ": 8102,
      "ເກີດໝາກ": 8103,
      "ເກີດໃໝ່": 8104,
      "ກວ່ານັ້ນ": 8105,
      "ຣາພາ": 8106,
      "ເຣກາ": 8107,
      "ລິຢາ": 8108,
      "ພົບເຫັນ": 8109,
      "ນາຍຊ່າງ": 8110,
      "ໄມ້ວັດແທກ": 8111,
      "ຣູມາ": 8112,
      "ບາຣາ": 8113,
      "ບາໂມດ": 8114,
      "ເຫດນີ້": 8115,
      "ເຫດໃດ": 8116,
      "ຫົວເມືອງ": 8117,
      "ຫົວໜ່ວຍ": 8118,
      "ແມ່ເຖົ້າ": 8119,
      "ແມ່ລູກອ່ອນ": 8120,
      "ຕີງ": 8121,
      "ຕີມນ": 8122,
      "ຕີຣາດ": 8123,
      "ຕີມນາ": 8124,
      "ສີເອນ": 8125,
      "ສີຣິ": 8126,
      "ລິດທານ": 8127,
      "ສຽງຟ້າຮ້ອງ": 8128,
      "ອາດຊະຍາກຳ": 8129,
      "ຜິດຫວັງ": 8130,
      "ໂກນານ": 8131,
      "ສົມນ້ຳໜ້າ": 8132,
      "ຕະຫລົກ": 8133,
      "ອັບບາ": 8134,
      "ມານກີຢາ": 8135,
      "ນະຄະ": 8136,
      "ໂຮຮ້ອງ": 8137,
      "ໂຮບາ": 8138,
      "ໂຮໂລນ": 8139,
      "ໂຮຣິ": 8140,
      "ໂຮຄະ": 8141,
      "ໂຮທາມ": 8142,
      "ໂຮຊາອີຢາ": 8143,
      "ກີຊະ": 8144,
      "ເອນເຕ": 8145,
      "ເອນປາ": 8146,
      "ເອນໂດເຣ": 8147,
      "ຂະນະນັ້ນ": 8148,
      "ປ່ຽວ": 8149,
      "ປ່ຽມ": 8150,
      "ພົ້ນຈາກ": 8151,
      "ພົ້ນໂທດ": 8152,
      "ຕັດຜົມ": 8153,
      "ວາງຮາກ": 8154,
      "ສິດດິມ": 8155,
      "ເຜົາໄຟ": 8156,
      "ກຽດຊື່ສຽງ": 8157,
      "ເໜືອນ": 8158,
      "ໂທຟີ": 8159,
      "ແປ້ວ": 8160,
      "ຍົກໜີ້": 8161,
      "ຍົກຍໍ": 8162,
      "ວິນາທີ": 8163,
      "ດ້ານໃຕ້": 8164,
      "ຣີມ": 8165,
      "ຜົນສຳເລັດ": 8166,
      "ຜົນກໍາໄລ": 8167,
      "ຈັດຕັ້ງ": 8168,
      "ຈັດງານ": 8169,
      "ໄລພິດ": 8170,
      "ຝູງອູດ": 8171,
      "ພັກພິງ": 8172,
      "ເຈັດຮ້ອຍ": 8173,
      "ກ່ອນທີ່": 8174,
      "ຫີນຂາວ": 8175,
      "ຫີນແຮ່": 8176,
      "ຍອມຟັງ": 8177,
      "ຍອມຈໍານົນ": 8178,
      "ສະຫງັດ": 8179,
      "ເຕັມໄປ": 8180,
      "ໝາກອັນມອນ": 8181,
      "ໝາກກະດິງ": 8182,
      "ໝາກພີລາ": 8183,
      "ໝາກຕອຍ": 8184,
      "ໝາກແຕງ": 8185,
      "ໝາກກະສົບ": 8186,
      "ຫຍັນ": 8187,
      "ຫຍ້ຳ": 8188,
      "ອາມິນ": 8189,
      "ອາມຊີ": 8190,
      "ອາມມີເອນ": 8191,
      "ພໍດີ": 8192,
      "ທິດາ": 8193,
      "ແຍ້ມ": 8194,
      "ໂຄ້ງ": 8195,
      "ໂຄລະໂຄ": 8196,
      "ຮູບປິມ": 8197,
      "ເອລີອາກີມ": 8198,
      "ສີ່ສິບສອງ": 8199,
      "ບຸບຽດ": 8200,
      "ໂສມ": 8201,
      "ລໍຊ້າ": 8202,
      "ລໍ້າຄ່າ": 8203,
      "ທະເລາະ": 8204,
      "ລ້ຽງຊີບ": 8205,
      "ຂໍ້ມື": 8206,
      "ຂໍ້ກໍານົດ": 8207,
      "ຂໍ້ຜູກມັດ": 8208,
      "ສິນອົດອາຫານ": 8209,
      "ມະຕິ": 8210,
      "ມະພາດ": 8211,
      "ເດີນໄປ": 8212,
      "ຫ້າຮ້ອຍ": 8213,
      "ດູມາ": 8214,
      "ດູອາ": 8215,
      "ດື່ມເຫລົ້າ": 8216,
      "ດື່ມນໍ້າ": 8217,
      "ຄຸມຂັງ": 8218,
      "ທົ່ງຮາບ": 8219,
      "ລຸກຢືນ": 8220,
      "ຟີໂກນ": 8221,
      "ຟີເຄຍ": 8222,
      "ຮາມູຕານ": 8223,
      "ອາຮາວາ": 8224,
      "ເລືອດຕົກ": 8225,
      "ໜັງບາງໆ": 8226,
      "ໄລ່ລ້າ": 8227,
      "ຄາຕາມ": 8228,
      "ນໍາຂ່າວ": 8229,
      "ອະທິປະໄຕ": 8230,
      "ຕິດໂຕ": 8231,
      "ຊາມັກ": 8232,
      "ປາສະຈາກ": 8233,
      "ນັກຍິງທະນູ": 8234,
      "ນັກປັດຊະຍາ": 8235,
      "ພາຍເຮືອ": 8236,
      "ຈຳເລີຍ": 8237,
      "ຄັ້ງນີ້": 8238,
      "ໂອເດັດ": 8239,
      "ຍາດຊີງ": 8240,
      "ມ້າຮົບ": 8241,
      "ຂ້າງໃນ": 8242,
      "ຄ່າບຳລຸງ": 8243,
      "ເມດິແຕຣາເນ": 8244,
      "ຂ່າວລື": 8245,
      "ລ້າງຕີນ": 8246,
      "ຍາກອນ": 8247,
      "ຍາກິນ": 8248,
      "ຍາກລໍາບາກ": 8249,
      "ເລືອກເອົາ": 8250,
      "ທາໂບ": 8251,
      "ໄກ່ນ້ອຍ": 8252,
      "ຍາມເຊົ້າ": 8253,
      "ເຢໂຮຊາດັກ": 8254,
      "ເຢໂຮຍາກິນ": 8255,
      "ເບັດເປອໍ": 8256,
      "ເບັດຟາເ": 8257,
      "ເບັດເຢຊີໂມດ": 8258,
      "ໄຫນ້ຳ": 8259,
      "ໜຸ່ມນ້ອຍ": 8260,
      "ແຊ່ວ": 8261,
      "ຮ່າງໄມ້": 8262,
      "ໂນບາ": 8263,
      "ດົນປານໃດ": 8264,
      "ຮາລາ": 8265,
      "ຮາໂມນ": 8266,
      "ຮາຊັບ": 8267,
      "ຮາຣິບ": 8268,
      "ຮາທາກ": 8269,
      "ຮາໂຣເຊັດ": 8270,
      "ອາກເດ": 8271,
      "ເສຍເລືອດ": 8272,
      "ຕອນທຳອິດ": 8273,
      "ຕອນຄໍ່າ": 8274,
      "ລວມທັງໝົດ": 8275,
      "ອິມຣີ": 8276,
      "ຝ່າຍວິນຍານ": 8277,
      "ຄວາມຈິງແລ້ວ": 8278,
      "ລົ້ມເລີກ": 8279,
      "ແບບນັ້ນ": 8280,
      "ຫີບສົບ": 8281,
      "ດວງຕາ": 8282,
      "ດວງຈັນ": 8283,
      "ອັດນາ": 8284,
      "ອັດຫູ": 8285,
      "ຊັບດີ": 8286,
      "ຊັບສິ່ງຂອງ": 8287,
      "ຊັບເບທາຍ": 8288,
      "ເສົາໄຟ": 8289,
      "ລຸລ່ວງ": 8290,
      "ຜູ້ນຳທາງ": 8291,
      "ດຳມິມ": 8292,
      "ກ່ຽວເຂົ້າ": 8293,
      "ມັດທານ": 8294,
      "ມັດເຕໄນ": 8295,
      "ອ່ອນນ້ອມ": 8296,
      "ເບື້ອງຫລັງ": 8297,
      "ຂອບປະຕູ": 8298,
      "ຂອບຄຸນ": 8299,
      "ແຕກກະຈັດກະຈາຍ": 8300,
      "ບັງລົມ": 8301,
      "ຂັບຮ້ອງ": 8302,
      "ມິດຊາ": 8303,
      "ຫ້ອງໂຖງ": 8304,
      "ປາກົດການ": 8305,
      "ກິດຕາ": 8306,
      "ແຍກອອກ": 8307,
      "ປານຕີ": 8308,
      "ຮາກີລາ": 8309,
      "ຮາກເຫງົ້າ": 8310,
      "ຄົນຕ່າງຖິ່ນ": 8311,
      "ແປ້ງນວດ": 8312,
      "ເຊີນມາ": 8313,
      "ອາບີເອນ": 8314,
      "ສືບຫາ": 8315,
      "ຮາດິດ": 8316,
      "ຊີ້ນໜ້າເອິກ": 8317,
      "ຕົ້ນໄມ້ຫອມ": 8318,
      "ນໍ້າໜຶ່ງ": 8319,
      "ນໍ້າແຂງ": 8320,
      "ນໍ້າເຜິ້ງ": 8321,
      "ອຳມະພາດ": 8322,
      "ນ້ຳມັນຫອມ": 8323,
      "ຂັດເຄືອງໃຈ": 8324,
      "ແກ້ຕົວ": 8325,
      "ຂີ່ເຮືອ": 8326,
      "ລັກລອບ": 8327,
      "ເປົ່າຫວ່າງ": 8328,
      "ສົມບູນແບບ": 8329,
      "ນິ້ງ": 8330,
      "ນິກາຍ": 8331,
      "ນິໂກ": 8332,
      "ນິຍົມ": 8333,
      "ອຸເຣ": 8334,
      "ອຸບັດຕິ": 8335,
      "ພິນເຂົາຄູ່": 8336,
      "ອາຊາເຮນ": 8337,
      "ຄໍສະເຕ": 8338,
      "ອັກຊັບ": 8339,
      "ຊ່າງຟອກ": 8340,
      "ລອດຊີວິດ": 8341,
      "ແສງແຈ້ງ": 8342,
      "ເຢເຣໂມດ": 8343,
      "ປະເທດຊາດ": 8344,
      "ເຫລົ້າອະງຸ່ນໃໝ່": 8345,
      "ຊັກນໍາ": 8346,
      "ຊັກຂ່າຍ": 8347,
      "ບາອານເມໂອນ": 8348,
      "ບາອານເຊໂຟນ": 8349,
      "ຕັກນ້ຳ": 8350,
      "ແຖໜວດ": 8351,
      "ຂາໂຕ້": 8352,
      "ຮອບໆ": 8353,
      "ຈົບລົງ": 8354,
      "ຈົບງາມ": 8355,
      "ຊານມາເນ": 8356,
      "ພະຍາດຜີວໜັງ": 8357,
      "ພະຍາດໂລຄາ": 8358,
      "ຝາອັດ": 8359,
      "ຝາແຝດ": 8360,
      "ອາຮີອາມ": 8361,
      "ອາຮີຊາມັກ": 8362,
      "ຊຸມນຸມກັນ": 8363,
      "ຈອງຈຳ": 8364,
      "ຊິດໃສ່": 8365,
      "ນິມຣາ": 8366,
      "ຄຣິສຕຽນ": 8367,
      "ສໍາລິດ": 8368,
      "ຄີ້ວ": 8369,
      "ມະຫາໄຣ": 8370,
      "ມະຫາສະໝຸດ": 8371,
      "ສັບກິນ": 8372,
      "ເຕົ້າຫີນຂາວ": 8373,
      "ແປກໃຈ": 8374,
      "ໜ້ອຍຄົນ": 8375,
      "ປາຍທາງ": 8376,
      "ຈຸດເລີ່ມຕົ້ນ": 8377,
      "ຊີເມອາດ": 8378,
      "ຢຽບໝາກອະງຸ່ນ": 8379,
      "ໜ່ວຍຕະກຽງ": 8380,
      "ກ້ອງກັງວານ": 8381,
      "ຄ້າປະເວນີ": 8382,
      "ຊັນໂມນ": 8383,
      "ແປດສິບ": 8384,
      "ຄ້ອນເທົ້າ": 8385,
      "ເລົ່າເລື່ອງ": 8386,
      "ອາເຊີ": 8387,
      "ອາເບນ": 8388,
      "ບໍ່ມີຂໍ້ບົກຜ່ອງ": 8389,
      "ເຢຮູດີ": 8390,
      "ອາເຊກາ": 8391,
      "ປັກແຊ່ວ": 8392,
      "ຮັດໂດນ": 8393,
      "ຮັດຕາອາວ": 8394,
      "ຄູ່ໆ": 8395,
      "ຖອຍໜີ": 8396,
      "ຄາລີໂອ": 8397,
      "ຄວາມຜິດບາບ": 8398,
      "ສະຖານທີ່ສັກສິດ": 8399,
      "ຖຽງກັນ": 8400,
      "ຮີຣາ": 8401,
      "ຖອນຮາກ": 8402,
      "ແຜ່ກະຈາຍ": 8403,
      "ກວດກາເ": 8404,
      "ສະດຸດໃຈ": 8405,
      "ຕ່ຳຜ້າ": 8406,
      "ຕ່ຳຫູກ": 8407,
      "ເລົ້າເຂົ້າ": 8408,
      "ປະທັບໃຈ": 8409,
      "ເວນຍາມ": 8410,
      "ຖົງເຄື່ອງ": 8411,
      "ເຈົ້າຂອງສວນ": 8412,
      "ເຊເດອຸເຣ": 8413,
      "ຕົບມື": 8414,
      "ປະສົມພັນ": 8415,
      "ເອເຊນ": 8416,
      "ອາຣານ": 8417,
      "ອາຣາເບ": 8418,
      "ອ່າງຢຽບໝາກອະງຸ່ນ": 8419,
      "ຫລຸດລົງ": 8420,
      "ອາຊະຣິ": 8421,
      "ແໜ້ນໆ": 8422,
      "ເອື້ອຍລ້ຽງ": 8423,
      "ໂຫດຮ້າຍທາລຸນ": 8424,
      "ຄາດຕະກຳ": 8425,
      "ຢຽດມື": 8426,
      "123": 8427,
      "ແຫລກ": 8428,
      "ຈົ່ມວ່າ": 8429,
      "ຖ້ວຍຊາມ": 8430,
      "ໄຖນາ": 8431,
      "ອິ່ມໃຈ": 8432,
      "ຄົ້ນຄວ້າ": 8433,
      "ຖ້ຳໂຈນ": 8434,
      "ປຸກເສກ": 8435,
      "ຊິນລາ": 8436,
      "ຊິນເລັມ": 8437,
      "ເກດາລິຢາ": 8438,
      "ເຊບູເອນ": 8439,
      "ວົງກົມ": 8440,
      "ເສຣາຟິມ": 8441,
      "ກວນໃຈ": 8442,
      "ບ່າໄຫລ່": 8443,
      "ອາໂດນີກຳ": 8444,
      "ອາໂດນີເບເຊັກ": 8445,
      "ອາໂດນີເສເດັກ": 8446,
      "ດ້າຍແດງ": 8447,
      "ທໍ້ໃຈ": 8448,
      "ແກ່ນສານ": 8449,
      "ຊາວກຣີກ": 8450,
      "ຮື້ຟື້ນ": 8451,
      "ໜຶ່ງສ່ວນຫ້າ": 8452,
      "ຫ້ວຍນໍ້າ": 8453,
      "ກິລາ": 8454,
      "ກິຣິອາດ": 8455,
      "ງ່າຍດາຍ": 8456,
      "ຄື້ນນ້ຳ": 8457,
      "ທັກທ້ວງ": 8458,
      "ເຮນກາດ": 8459,
      "ເຮນດາອີ": 8460,
      "ຟ້ອງຮ້ອງ": 8461,
      "ຮັງເຜິ້ງ": 8462,
      "ຜາສາດ": 8463,
      "ສົ້ນຕີນ": 8464,
      "ເນົ່າເປື່ອຍ": 8465,
      "ບົກພ່ອງ": 8466,
      "ອຸດຊີອາ": 8467,
      "ຝຶກແອບ": 8468,
      "ຫລໍ່ຫລອມ": 8469,
      "ເວດທະນາ": 8470,
      "ອາເສນາດ": 8471,
      "ພວກຄົນຍາມ": 8472,
      "ພວກຄົນໂງ່": 8473,
      "ກະແສລົມ": 8474,
      "ອີຊະມາ": 8475,
      "ອີຊະຣາ": 8476,
      "ແກ້ວຕາ": 8477,
      "ໄຕ່ຕອງ": 8478,
      "ຮາຊາເອນານ": 8479,
      "ປົນໂຕ": 8480,
      "ມິກເນອີຢາ": 8481,
      "ເອັນກັນນິມ": 8482,
      "ເອັກລາ": 8483,
      "603": 8484,
      "ຢາງໝາກຕອຍ": 8485,
      "ຫາງເສືອ": 8486,
      "ໃນທັນໃດນັ້ນ": 8487,
      "ມີດແຖ": 8488,
      "ບ້າໝູ": 8489,
      "ໂຢຮານັນ": 8490,
      "ຢັ່ງຮູ້": 8491,
      "ມະນີໂຊດ": 8492,
      "ຊິງດີ": 8493,
      "ຄວາມອັບອາຍຂາຍໜ້າ": 8494,
      "ເຊໂລໂມດ": 8495,
      "ດ່າງພອຍ": 8496,
      "ໄກ່ເກ່": 8497,
      "ໂຢດບາທາ": 8498,
      "ອວດອົ່ງຈອງຫອງ": 8499,
      "ເຊເຣຟາດ": 8500,
      "ມືນຕາ": 8501,
      "ເນອາຣີຢາ": 8502,
      "ກາກເກມິດ": 8503,
      "ຕໍາແໜ່ງ": 8504,
      "ໄອເນ": 8505,
      "ເມເຊຊາເບນ": 8506,
      "ອັດຊະເກນາດ": 8507,
      "ອິບຮາ": 8508,
      "ອິບຊັນ": 8509,
      "ອິບເລອາມ": 8510,
      "ທ້ອນໂຮມ": 8511,
      "ປອກຂາ": 8512,
      "ຢາເຊເອນ": 8513,
      "ທີ່ຢູ່ອາໄສ": 8514,
      "ເປລາອີຢາ": 8515,
      "ຢາອາຊີຢາ": 8516,
      "ຢາອາຊານີຢາ": 8517,
      "ວິລະຊົນ": 8518,
      "ວິລະບຸລຸດ": 8519,
      "137": 8520,
      "ຊຸບປິມ": 8521,
      "ສຸບໃສ່": 8522,
      "ເທບທິດາ": 8523,
      "ພະໂມເຫລັກ": 8524,
      "ເກເດຣາ": 8525,
      "ກີດກັນ": 8526,
      "ດິບລາ": 8527,
      "ທູມ": 8528,
      "144": 8529,
      "ອັນໜຶ່ງອັນດຽວ": 8530,
      "ບາອາລາດ": 8531,
      "ຍາດຕິພີ່ນ້ອງ": 8532,
      "ຊິ້ນສ່ວນ": 8533,
      "ຍິ້ມແຍ້ມ": 8534,
      "ຖີ່ຖ້ວນ": 8535,
      "ວາດີ": 8536,
      "ກີລີໂອນ": 8537,
      "ໂຄງຮ່າງ": 8538,
      "ເອລີເຟເລຮູ": 8539,
      "ເກນານີຢາ": 8540,
      "172": 8541,
      "ຈ່ອຍແຫ້ງ": 8542,
      "ຍຶດໝັ້ນ": 8543,
      "ນ້າສາວ": 8544,
      "ອາລະຟາ": 8545,
      "ລາວດີໂອ": 8546,
      "ເກມູເອນ": 8547,
      "ສຸຂະພາບດີ": 8548,
      "ຖົກຖຽງກັນ": 8549,
      "ຊົງຜົມ": 8550,
      "ຟອງນ້ຳ": 8551,
      "ສິລະປະ": 8552,
      "ມິນໂລ": 8553,
      "ຢັດດູອາ": 8554,
      "ອາເຣລີ": 8555,
      "ອາເຣໂອປາ": 8556,
      "ປະຈົບປະແຈງ": 8557,
      "ເຫຼັກ": 8558,
      "ໂອເມຄາ": 8559,
      "ເສື້ອເກາະເອິກ": 8560,
      "ຫລັກປັກເຕັນ": 8561,
      "775": 8562,
      "ຈິນຕະນ": 8563,
      "ມິບຊາມ": 8564,
      "ສິມຣີ": 8565,
      "ຄວ້າຈັບ": 8566,
      "ຂີ້ໝິ້ນ": 8567,
      "ອັດຕາສ່ວນ": 8568,
      "ຝີງໄຟ": 8569,
      "ຂວ້ຳ": 8570,
      "ຂວໍ້າ": 8571,
      "ຕາງໜ້າ": 8572,
      "ຕຸ່ມຝີ": 8573,
      "ອໍາໂນນ": 8574,
      "ເຂັນຝ້າຍ": 8575,
      "ສະເຕຟານາ": 8576,
      "ເລ່ລ່ຽມ": 8577,
      "ຊາອານບິມ": 8578,
      "ເຫືອດແຫ້ງ": 8579,
      "ເກມາຣີຢາ": 8580,
      "ເກລີຕາ": 8581,
      "ເກລີໂລດ": 8582,
      "ໂມເຣເຊັດ": 8583,
      "ສັນຊາດຕະຍານ": 8584,
      "ໂຮງແຮມ": 8585,
      "ນົກກະສາ": 8586,
      "ເຈັບໄຂ້ໄດ້ປ່ວຍ": 8587,
      "ອິກເກັດ": 8588,
      "ປະຈໍາການ": 8589,
      "ເອປາຟາ": 8590,
      "ກະທັ້ງ": 8591,
      "ຊາຕາກຳ": 8592,
      "ເບເອີລາໄຮ": 8593,
      "ຊູບາເອນ": 8594,
      "ບ່ອນຊຸມນຸມຊົນ": 8595,
      "ຫຍໍ້ຫຍັນ": 8596,
      "ບັກບຸກີຢາ": 8597,
      "ດ່ານເກັບພາສີ": 8598,
      "ຕິບນີ": 8599,
      "ບີນກາ": 8600,
      "ບຸນຄຸນ": 8601,
      "ປ້ຳສູ້": 8602,
      "ລາເຊມ": 8603,
      "ໂອມາກ": 8604,
      "ທີ່ຈິງແລ້ວ": 8605,
      "ຄົນລ້ຽງໝູ": 8606,
      "ປະຄັບປະຄອງ": 8607,
      "ເອເສມ": 8608,
      "ກະເປົາ": 8609,
      "ເບເນຢາອາການ": 8610,
      "ເດກາໂປລີ": 8611,
      "ເນຟີລິມ": 8612,
      "ໂອເນຊີ": 8613,
      "ຄຸຍໂມ້": 8614,
      "ອໍາມີເອນ": 8615,
      "ດາເບຣັດ": 8616,
      "ທັດສະນະຄະ": 8617,
      "ປົນທຽວ": 8618,
      "ຟຸມເຟືອຍ": 8619,
      "ຢາເລເອນ": 8620,
      "ລີນິນ": 8621,
      "ສຽດສີ": 8622,
      "ຫີວ": 8623,
      "ເນີ້ງ": 8624,
      "ຫລ່ຽນໄຫລ": 8625,
      "ເພັນເຕຄໍສະເຕ": 8626,
      "ມີນີອາມິນ": 8627,
      "ເມມູການ": 8628,
      "ເອສາຮັດໂດນ": 8629,
      "ເອມານູເອນ": 8630,
      "ເອເບັນເອເຊ": 8631,
      "ການຫົ່ມກາຍ": 8632,
      "ອາຊະນາ": 8633,
      "ແມ່ມົດ": 8634,
      "ເຢຊານາ": 8635,
      "ເຢຕຸຣະ": 8636,
      "ເຢກາມີຢາ": 8637,
      "ເຄຣາເຊນ": 8638,
      "ເຄັນເນຊາເຣັດ": 8639,
      "ລະເບີດ": 8640,
      "ດີໄດມັດ": 8641,
      "ຂໍ້ມູນ": 8642,
      "ເກຣີຊິມ": 8643,
      "ຢາໂຊເບອາມ": 8644,
      "ຕີມນາດ": 8645,
      "ສີຣິໂອນ": 8646,
      "ລິດທານຸພາບ": 8647,
      "ໂກນານີຢາ": 8648,
      "ໂຮຄະລາ": 8649,
      "ເອນປາອານ": 8650,
      "ໂທຟີໂມ": 8651,
      "ໝາກກະສົບໄຖ": 8652,
      "ໂຄລະໂຄທາ": 8653,
      "ເບັດຟາເຄ": 8654,
      "ອຸບັດຕິເຫດ": 8655,
      "ຊ່າງຟອກໜັງ": 8656,
      "ຊານມາເນເຊ": 8657,
      "ຮັດຕາອາວາ": 8658,
      "ກວດກາເບິ່ງ": 8659,
      "ອາຣາເບຍ": 8660,
      "ໄກ່ເກ່ຍ": 8661,
      "ອາເຣໂອປາໂຂ": 8662,
      "ຈິນຕະນາການ": 8663,
      "ເບເອີລາໄຮຣອຍ": 8664,
      "ທັດສະນະຄະຕິ": 8665,
      "!,": 8666,
      "!”.": 8667,
      "(“": 8668,
      "017": 8669,
      "052": 8670,
      "112": 8671,
      "220": 8672,
      "39": 8673,
      "320": 8674,
      "360": 8675,
      "345": 8676,
      "390": 8677,
      "44": 8678,
      "435": 8679,
      "54": 8680,
      "56": 8681,
      "57": 8682,
      "59": 8683,
      "61": 8684,
      "65": 8685,
      "630": 8686,
      "652": 8687,
      "642": 8688,
      "73": 8689,
      "720": 8690,
      "750": 8691,
      "736": 8692,
      "85": 8693,
      "96": 8694,
      "99": 8695,
      "930": 8696,
      "973": 8697,
      "ກ່າ": 8698,
      "ກ້ອຍ": 8699,
      "ກຸກ": 8700,
      "ກຽວ": 8701,
      "ກັດສະ": 8702,
      "ກ່າຍ": 8703,
      "ກູນ": 8704,
      "ກາເຊ": 8705,
      "ຂ້ອນ": 8706,
      "ຂວດ": 8707,
      "ຂ້ຽວ": 8708,
      "ຄີບ": 8709,
      "ຄໂລດ": 8710,
      "ງຽ": 8711,
      "ຈາມ": 8712,
      "ຈິ້ມ": 8713,
      "ຊວ": 8714,
      "ຊຸ": 8715,
      "ຊິ່ງ": 8716,
      "ຊຶ້ງ": 8717,
      "ດຸດ": 8718,
      "ຕ້ອ": 8719,
      "ຕ້ອມ": 8720,
      "ຕຳນ": 8721,
      "ຕາເຣ": 8722,
      "ຕື້ນ": 8723,
      "ຕ່ອຍ": 8724,
      "ຕຳລາ": 8725,
      "ຕີດານ": 8726,
      "ຕາວາ": 8727,
      "ຕາເລຍ": 8728,
      "ຕຼີ": 8729,
      "ຖັນ": 8730,
      "ຖາກ": 8731,
      "ທິງ": 8732,
      "ທາະ": 8733,
      "ທາເອນ": 8734,
      "ທົມ": 8735,
      "ທ້ານ": 8736,
      "ທົ້ນ": 8737,
      "ທ່າງາມ": 8738,
      "ນ້ອ": 8739,
      "ນິບ": 8740,
      "ນະນ": 8741,
      "ບິ": 8742,
      "ບັສ": 8743,
      "ບ້ຽວ": 8744,
      "ບິຢາ": 8745,
      "ຜາຍ": 8746,
      "ຜ່າຍ": 8747,
      "ຝອຍ": 8748,
      "ພອກ": 8749,
      "ຟນ": 8750,
      "ຟັ່ງ": 8751,
      "ຟຣາ": 8752,
      "ຟອຍ": 8753,
      "ຟຶດ": 8754,
      "ມັ່ງ": 8755,
      "ມອາມ": 8756,
      "ມຶງ": 8757,
      "ມຸ້ງ": 8758,
      "ມົ້ວ": 8759,
      "ຢານ": 8760,
      "ຢອກ": 8761,
      "ຢົກ": 8762,
      "ຢ່ຳ": 8763,
      "ຣຸ": 8764,
      "ຣັກ": 8765,
      "ຣົບ": 8766,
      "ຣຽມ": 8767,
      "ລັ່ງ": 8768,
      "ລຽນ": 8769,
      "ລຸບ": 8770,
      "ລ່ອຍ": 8771,
      "ລາເດ": 8772,
      "ລິ່ງຊັນ": 8773,
      "ວຫານ": 8774,
      "ສີດ": 8775,
      "ຫູ່": 8776,
      "ຫ້ານ": 8777,
      "ຫອຍ": 8778,
      "ຫຸບ": 8779,
      "ຫງ່າ": 8780,
      "ຫ້ຽນ": 8781,
      "ອຸ່ມ": 8782,
      "ຮຳ": 8783,
      "ຮອນ": 8784,
      "ຮາເ": 8785,
      "ຮິບ": 8786,
      "ຮຸບ": 8787,
      "ຮ່ຳ": 8788,
      "ະເປື້ອນ": 8789,
      "ະໂຣນາ": 8790,
      "ັ່ຍ": 8791,
      "າອນ": 8792,
      "າລິ": 8793,
      "າອິນ": 8794,
      "ິໄສ": 8795,
      "ີ້ນ": 8796,
      "ຶ້ອ": 8797,
      "ຶ່ອງ": 8798,
      "ູຫລ": 8799,
      "ູຢາ": 8800,
      "ູບັດ": 8801,
      "ູຟາ": 8802,
      "ົວຍ": 8803,
      "ເນັ້ນ": 8804,
      "ແດ້": 8805,
      "ໂອຍ": 8806,
      "ໂວຫານ": 8807,
      "ໃໝ": 8808,
      "ໃຝ່": 8809,
      "ໜັດ": 8810,
      "ໝັດ": 8811,
      "ໝອນ": 8812,
      "ໝາງ": 8813,
      "ໝົ້ນ": 8814,
      "ໝຸ່ມ": 8815,
      "”).": 8816,
      "ັນເຟຍ": 8817,
      "ຂອງພຣະອົງ": 8818,
      "ແລມາ": 8819,
      "ເຈົ້າເມືອງ": 8820,
      "ເຈົ້າຈີ່": 8821,
      "ພວກໜຶ່ງ": 8822,
      "ພວກປະໂລຫິດ": 8823,
      "ພວກພີ່ນ້ອງ": 8824,
      "ພວກລູກສາວ": 8825,
      "ພວກເຖົ້າແກ່": 8826,
      "ພວກຜີມານຮ້າຍ": 8827,
      "ພວກໝາ": 8828,
      "ພວກຄູສອນ": 8829,
      "ພວກຜູ້ລ້ຽງແກະ": 8830,
      "ພວກຜູ້ຕິດຕາມ": 8831,
      "ພວກຊາວສວນ": 8832,
      "ທີ່ຈະ": 8833,
      "ທີ່ມີ": 8834,
      "ທີ່ເກີດ": 8835,
      "ທີ່ອາໄສ": 8836,
      "ທີ່ເຫລືອ": 8837,
      "ທີ່ເກີດຂຶ້ນ": 8838,
      "ຣະເຮ": 8839,
      "ຣະກາ": 8840,
      "ຣະບານ": 8841,
      "ໄດ້ໄປ": 8842,
      "ໄດ້ກ່າວ": 8843,
      "ໄດ້ຕັ້ງ": 8844,
      "ໄດ້ຕາຍ": 8845,
      "າຍຄວາມ": 8846,
      "ເຮສະ": 8847,
      "ເຮເສັດ": 8848,
      "ເຮັ່ຍ": 8849,
      "ັບໂທ": 8850,
      "າມຕີ": 8851,
      "ຈະນຳ": 8852,
      "ເຂນ": 8853,
      "ເຂໄອ": 8854,
      "ເປໂທ": 8855,
      "ເປຄາ": 8856,
      "ເປນັດ": 8857,
      "ເປລູ": 8858,
      "ເປໂກດ": 8859,
      "ເປນີເອນ": 8860,
      "ເປເລດ": 8861,
      "ຫລົ່າ": 8862,
      "ຫລຸບ": 8863,
      "ຫລີ້ນ": 8864,
      "ຫລູຫລ": 8865,
      "ິດໄຕ": 8866,
      "ເປັນຄົນ": 8867,
      "ເປັນທຳ": 8868,
      "ເປັນຄວາມຈິງ": 8869,
      "ເປັນຍ້ອນ": 8870,
      "ເປັນຫ່ວງ": 8871,
      "ເພໂທ": 8872,
      "ເພິ່ມ": 8873,
      "ໃຫ່ຍ": 8874,
      "ໃນທີ່ນັ້ນ": 8875,
      "າເດັດ": 8876,
      "າເໜັດ": 8877,
      "າກຸກ": 8878,
      "ຜູ້ເປັນ": 8879,
      "ຜູ້ເວົ້າ": 8880,
      "ຜູ້ຮັກ": 8881,
      "ຜູ້ສາວ": 8882,
      "ຜູ້ໄຖ່": 8883,
      "ຜູ້ຄອບຄອງ": 8884,
      "ຜູ້ປະເສີດ": 8885,
      "ຜູ້ລີ້ໄພ": 8886,
      "ຜູ້ສູງສຸດ": 8887,
      "ຜູ້ທໍລະຍົດ": 8888,
      "ຜູ້ຂາບໄຫວ້": 8889,
      "ຜູ້ເສຍຫາຍ": 8890,
      "ຜູ້ບໍລິຫານ": 8891,
      "ຜູ້ຊ່ຽວຊານ": 8892,
      "້ອໍ້": 8893,
      "ກໍໄປ": 8894,
      "ກໍາບ": 8895,
      "ກໍພາ": 8896,
      "ກໍາເນີ": 8897,
      "ກໍາມະ": 8898,
      "ຄົນໃຊ້": 8899,
      "ຄົນກາງ": 8900,
      "ຄົນຊື່": 8901,
      "ຄົນອື່ນໆ": 8902,
      "ຄົນຂີ້": 8903,
      "ຄົນຂາຍ": 8904,
      "ຄົນຂັບ": 8905,
      "ຄົນມັກ": 8906,
      "ຄົນສຳຄັນ": 8907,
      "ຄົນຫລອກລວງ": 8908,
      "ຄົນຊົ່ວຊ້າ": 8909,
      "ຄົນຂາບໄຫວ້": 8910,
      "ຄົນຂີ້ຄ້ານ": 8911,
      "ຄົນທ່ຽງທໍາ": 8912,
      "ຄົນມີປັນຍາ": 8913,
      "ໄປໆ": 8914,
      "ໄປທີ່": 8915,
      "ມາໆ": 8916,
      "ມາເປັນ": 8917,
      "ມາສາ": 8918,
      "ມາດາຍ": 8919,
      "ມາອິມ": 8920,
      "ມາຣາອິມ": 8921,
      "ມາໂດນ": 8922,
      "ມາເຮີ": 8923,
      "ອົງຜູ້": 8924,
      "ອົງປະກອບ": 8925,
      "ບໍ່ບໍລິສຸດ": 8926,
      "ບໍ່ເຮັດຫຍັງ": 8927,
      "ບໍ່ເປື່ອຍເນົ່າ": 8928,
      "ມີດັ່ງນີ້": 8929,
      "ມີຊັນ": 8930,
      "ມີເດຍ": 8931,
      "ມີເຊຍ": 8932,
      "ສະອ": 8933,
      "ສະກາດ": 8934,
      "ສະບາ": 8935,
      "ສະຕີ": 8936,
      "ສະກົດ": 8937,
      "ສະແປ": 8938,
      "ສະໝາຍ": 8939,
      "ສະພາຍ": 8940,
      "ສະໝ່": 8941,
      "ສະໂປ": 8942,
      "ຂ້າສັດ": 8943,
      "ຂ້າເສິກ": 8944,
      "ຂ້ານ້ອ": 8945,
      "ນີຊານ": 8946,
      "ກັບຄືນມາ": 8947,
      "ື່ອແຜ່": 8948,
      "ປະໂຕ": 8949,
      "ປະຊາກ": 8950,
      "ປະກາ": 8951,
      "ປະມາດ": 8952,
      "ປະສິດທິ": 8953,
      "ປະດິດ": 8954,
      "ປະມຸກ": 8955,
      "ເມນີ": 8956,
      "ເມລະ": 8957,
      "ເມໂຊ": 8958,
      "ເມຮູ": 8959,
      "ເມອາມ": 8960,
      "ເມດານ": 8961,
      "ເມື່ອນ": 8962,
      "ເມໂຣດ": 8963,
      "ເມອູ": 8964,
      "ເມຣິບ": 8965,
      "ເມໂຣມ": 8966,
      "ເມອູນ": 8967,
      "ເມໂອໂນ": 8968,
      "ເມເຫັດ": 8969,
      "ເມຊິນເລ": 8970,
      "ເມທັດ": 8971,
      "ນີ້ແຫລະ": 8972,
      "າດກົວ": 8973,
      "ຄວາມບໍ່": 8974,
      "ຄວາມພ້ອມ": 8975,
      "ຄວາມຍິ່ງໃຫຍ່": 8976,
      "ຄວາມເລິກ": 8977,
      "ຄວາມຫລອກລວງ": 8978,
      "ຄວາມອັດສະຈັນ": 8979,
      "ຄວາມປອດໄພ": 8980,
      "ຄວາມພະຍາຍາມ": 8981,
      "ຄວາມເອົາໃຈໃສ່": 8982,
      "ຄວາມອຶດຢາກ": 8983,
      "ຄວາມໂງ່ຈ້າ": 8984,
      "ຄວາມໄວ້ວາງໃຈ": 8985,
      "ຄວາມເຊົາ": 8986,
      "ຄວາມຂົມຂື່ນ": 8987,
      "ຄວາມຊົ່ວຊ້າ": 8988,
      "ຄວາມຍາກຈົນ": 8989,
      "ຄວາມສົນໃຈ": 8990,
      "ຄວາມຖ່ອມຕົວ": 8991,
      "ຄວາມບໍ່ສັດຊື່": 8992,
      "ຄວາມອະທຳ": 8993,
      "ຄວາມໜາວ": 8994,
      "ຄວາມຄຽດ": 8995,
      "ຄວາມສະໜຸກ": 8996,
      "ຄວາມກະວົນກະວາຍ": 8997,
      "ຄວາມສຸພາບ": 8998,
      "ຄວາມຊື່ນໃຈ": 8999,
      "ຄວາມເສື່ອມເສຍ": 9000,
      "ຄວາມຄຽດແຄ້ນ": 9001,
      "ຄວາມກົດດັນ": 9002,
      "ຄວາມສະເໝີພາບ": 9003,
      "ຄວາມກ້າວໜ້າ": 9004,
      "ຄວາມໂກດແຄ້ນ": 9005,
      "ຄວາມຫມັ້ນ": 9006,
      "ຄວາມຍາກລໍາບາກ": 9007,
      "ພວກເຈົ້າໜ້າທີ່": 9008,
      "ເຊນ": 9009,
      "ເຊອາ": 9010,
      "ເຊຢາ": 9011,
      "ເຊໂຣ": 9012,
      "ເຊລິດ": 9013,
      "ເຊຣີ": 9014,
      "ເຊວາ": 9015,
      "ເຊນັດ": 9016,
      "ເຊຊັກ": 9017,
      "ເຊມາຣີ": 9018,
      "ເຊເລັກ": 9019,
      "ເຊທາມ": 9020,
      "ເຊດາດ": 9021,
      "ເຊເລັບ": 9022,
      "ເອດ": 9023,
      "ເອເທ": 9024,
      "ເອວິນ": 9025,
      "ເອວີ": 9026,
      "ເອຊະບາ": 9027,
      "ເອຣານ": 9028,
      "ເອລາຊາ": 9029,
      "ເອເຣັກ": 9030,
      "ເອທີໂອ": 9031,
      "ເອທະນີ": 9032,
      "ແຕ່ຖ້າ": 9033,
      "ທັງໂຕ": 9034,
      "ທັງສາມ": 9035,
      "ການ້ຳ": 9036,
      "ການຕັ້ງ": 9037,
      "ການຊົ່ວ": 9038,
      "ການເກີດ": 9039,
      "ການຊ່ວຍ": 9040,
      "ການຄິດ": 9041,
      "ການດື່ມ": 9042,
      "ການປະຕິ": 9043,
      "ການຮູ້ຈັກ": 9044,
      "ການໄຖ່": 9045,
      "ການໂຈມຕີ": 9046,
      "ການເຕືອນ": 9047,
      "ການອັດສະຈັນ": 9048,
      "ການໝິ່ນປະໝາດ": 9049,
      "ການຄ້າ": 9050,
      "ການເຮັດວຽກ": 9051,
      "ການອຸທິດ": 9052,
      "ການອ່ານ": 9053,
      "ການແກ້ແຄ້ນ": 9054,
      "ການຝັງສົບ": 9055,
      "ການປະພຶດ": 9056,
      "ການຜິດຖຽງ": 9057,
      "ການໜູນໃຈ": 9058,
      "ການສູນເສຍ": 9059,
      "ການອວດອ້າງ": 9060,
      "ການວາງມື": 9061,
      "ການຍ້ອງຍໍ": 9062,
      "ການຟື້ນຟູ": 9063,
      "ການໂກນ": 9064,
      "ການແຕກແຍກ": 9065,
      "ການທຳງານ": 9066,
      "ການທົນທຸກທໍລະມານ": 9067,
      "ການຈັບສະຫລາກ": 9068,
      "ການຄືນດີ": 9069,
      "ການລິມ": 9070,
      "ການຂ້າຄົນ": 9071,
      "ການໃສ່ຮ້າຍປ້າຍສີ": 9072,
      "ການສຶກສາ": 9073,
      "ການປູກຝັງ": 9074,
      "ການແບກຫາມ": 9075,
      "ການແຂ່ງຂັນ": 9076,
      "ການຮັກເງິນ": 9077,
      "ການເຕືອນໃຈ": 9078,
      "ການແບ່ງແຍກ": 9079,
      "ການຊິດໃສ່": 9080,
      "ເຮັດການ": 9081,
      "ເຮັດໜ້າທີ່": 9082,
      "ເຮັດພິທີ": 9083,
      "ເຮັດຄວາມດີ": 9084,
      "ເຮັດຮັງ": 9085,
      "ວຍການ": 9086,
      "ກະເທ": 9087,
      "ກະບອກ": 9088,
      "ກະແທກ": 9089,
      "ກະປອມ": 9090,
      "ກະທຽມ": 9091,
      "ກະເດັນ": 9092,
      "ກະລາວດີໂອ": 9093,
      "ບັນຍາຍ": 9094,
      "ເລບາ": 9095,
      "ເລຮາບ": 9096,
      "ເລເກັດ": 9097,
      "ເລມູເອນ": 9098,
      "ເລເລນ": 9099,
      "ເພິ່ນຈຶ່ງ": 9100,
      "ອາລາ": 9101,
      "ອາຮູ": 9102,
      "ອາຄະ": 9103,
      "ອາໂຣດ": 9104,
      "ອາລູ": 9105,
      "ອາໄຣ": 9106,
      "ອາຂີ": 9107,
      "ອາຕາດ": 9108,
      "ຊາອາ": 9109,
      "ຊາໂລ": 9110,
      "ຊາລາ": 9111,
      "ຊາໂມ": 9112,
      "ຊາລີ": 9113,
      "ຊາອາບ": 9114,
      "ຊາອາວ": 9115,
      "ຊາບາດ": 9116,
      "ຊາຊັກ": 9117,
      "ຊາຮາບ": 9118,
      "ຊາຣິດ": 9119,
      "ຊາອາຣາ": 9120,
      "ຊາບັກ": 9121,
      "ລາວວ່າ": 9122,
      "ລາວໄປ": 9123,
      "ລູກໆ": 9124,
      "ລູກສິງ": 9125,
      "ລູກຄ້າ": 9126,
      "ລູກຫຼ": 9127,
      "ຈົ່ງເອົາ": 9128,
      "ເວີ່ນ": 9129,
      "ຸດຫງ": 9130,
      "ດາອາ": 9131,
      "ກ່ອມ": 9132,
      "ຊາຍໃດ": 9133,
      "ຊາຍຝັ່ງ": 9134,
      "ຕໍ່ໆ": 9135,
      "ຕາມທາງ": 9136,
      "ຕາມຫາ": 9137,
      "ຕາມຄວາມຈິງ": 9138,
      "ຕາມແບບຢ່າງ": 9139,
      "ໂລເຮັດ": 9140,
      "ໂລເລ": 9141,
      "ໂລທີ": 9142,
      "ໂລຣຸ": 9143,
      "ຮັບມໍລະດົກ": 9144,
      "ຮັບບັບຕິສະມາ": 9145,
      "ຮັບແຂກ": 9146,
      "ໃຈຊອບ": 9147,
      "ໃຈກ້າ": 9148,
      "ຈຶ່ງກ່າວ": 9149,
      "ເຢຣາ": 9150,
      "ເຢຣີຢາ": 9151,
      "ເຢກາເ": 9152,
      "ເຢຮາຊີເອນ": 9153,
      "ເຢເທັດ": 9154,
      "ເຢມູເອນ": 9155,
      "ເຢເດອີຢາ": 9156,
      "ສິ່ງໜຶ່ງ": 9157,
      "ສິ່ງດີ": 9158,
      "ສິ່ງສາລະພັດ": 9159,
      "ອອກໃໝ່": 9160,
      "ອອກແຮງງານ": 9161,
      "ເຄື່ອ": 9162,
      "ເຄເຮລາ": 9163,
      "ເຄຶ່ອງ": 9164,
      "ເທຍ": 9165,
      "ເທເຄ": 9166,
      "ເທເອນ": 9167,
      "ເທໂອຟີ": 9168,
      "ທຸກເມືອງ": 9169,
      "ທຸກຂໍ້": 9170,
      "ທຸກຮ້ອນ": 9171,
      "ທຸກໂສກ": 9172,
      "ທຸກຫົນ": 9173,
      "ລະຄອນ": 9174,
      "ລະທາອິມ": 9175,
      "ພະນາງ": 9176,
      "ພະຊູ": 9177,
      "ພະວິນຍານ": 9178,
      "ພະບຸລຸດ": 9179,
      "ພະບິດາ": 9180,
      "ພະເຊີນ": 9181,
      "ພະລາດ": 9182,
      "ພະທຽມ": 9183,
      "ພະຍາກອນ": 9184,
      "ເຖນ": 9185,
      "ຊີຟາ": 9186,
      "ຊີອົດ": 9187,
      "ຊີອຳ": 9188,
      "ຊີເດຍ": 9189,
      "ຂຶ້ນໃໝ່": 9190,
      "ອິດທະເລ": 9191,
      "ອິດອ່ອນ": 9192,
      "ຊາວຊູ": 9193,
      "ຊາວເຢຣູຊາເລັມ": 9194,
      "ຊາວເຜົ່າ": 9195,
      "ຊາວເຈັດ": 9196,
      "ຊາວຫ້າ": 9197,
      "ຊາວບ້ານ": 9198,
      "ຊາວເບັນຢາມິນ": 9199,
      "ຊາວເກາະ": 9200,
      "ຊາວຊາມາເຣຍ": 9201,
      "ຊາວອາເຊ": 9202,
      "ຊາວຕ່າງຊາດ": 9203,
      "ຊາວໂຣມ": 9204,
      "ຊາວໂຮຣີ": 9205,
      "ຊາວອິດໄຣ": 9206,
      "ຊາວຮາຣາເຣ": 9207,
      "ຊາວຟີລິດສະຕີນ": 9208,
      "ຊາວເອມິມ": 9209,
      "ແກ່ຊະຣາ": 9210,
      "ໜ້າໄປ": 9211,
      "ໜ້າອາຍ": 9212,
      "ໜ້າສົງສານ": 9213,
      "ໜ້າເສົ້າໝອງ": 9214,
      "ໜ້າເວດທະນາ": 9215,
      "ເຫລັດ": 9216,
      "ຄຳຂໍ": 9217,
      "ຄຳພິພາກສາ": 9218,
      "ຄຳອ້ອນວອນ": 9219,
      "ຄຳຈົ່ມ": 9220,
      "ເຖິງທຸກ": 9221,
      "ເຖິງຕາຍ": 9222,
      "ກ່າວຄວາມຈິງ": 9223,
      "ຖືກໂທດ": 9224,
      "ກັນສາດ": 9225,
      "ກັນເດອານ": 9226,
      "ເວົ້າຈາ": 9227,
      "ໜຶ່ງແສນ": 9228,
      "ໝົດກຳລັງໃຈ": 9229,
      "ດີໂຕ": 9230,
      "ດີໂອນ": 9231,
      "ດີກະລາ": 9232,
      "ເຂົ້າໃສ່": 9233,
      "ເຂົ້າສິງ": 9234,
      "ເຂົ້າຮ່ວມກັນ": 9235,
      "ເຂົ້າສະແປ": 9236,
      "ຢ່າງໜຶ່ງ": 9237,
      "ຢ່າງຍິ່ງ": 9238,
      "ຢ່າງຫລວງຫລາຍ": 9239,
      "ຂໍໃຫ້": 9240,
      "ຂໍໂຜດ": 9241,
      "ອີອາ": 9242,
      "ອີຣາມ": 9243,
      "ອີຣີຢາ": 9244,
      "ອີຊະບາ": 9245,
      "ອີເອເຊ": 9246,
      "ອີຣາດ": 9247,
      "ອີມນາ": 9248,
      "ອີເກັດ": 9249,
      "ອີຄາບ": 9250,
      "ເອົາຈິງ": 9251,
      "ເອົາຈັງ": 9252,
      "ດິນນາ": 9253,
      "ດິນຮາບາ": 9254,
      "ອິດສະຣາອນ": 9255,
      "ເມືອງນີ້": 9256,
      "ທາງຫລວງ": 9257,
      "ທາງບົກ": 9258,
      "ເກເຕ": 9259,
      "ເກໂຣ": 9260,
      "ເກຣູ": 9261,
      "ເກລິດ": 9262,
      "ເກເບັດ": 9263,
      "ເກບານ": 9264,
      "ເກຣານ": 9265,
      "ເກລິມ": 9266,
      "ເກເຣດ": 9267,
      "ເກລຸບ": 9268,
[...]
