{
  "version": "1.0",
  "truncation": null,
  "padding": null,
  "added_tokens": [
    {
      "id": 0,
      "content": "<pad>",
      "single_word": false,
      "lstrip": false,
      "rstrip": false,
      "normalized": false,
      "special": true
    },
    {
      "id": 1,
      "content": "<unk>",
      "single_word": false,
      "lstrip": false,
      "rstrip": false,
      "normalized": false,
      "special": true
    },
    {
      "id": 2,
      "content": "<s>",
      "single_word": false,
      "lstrip": false,
      "rstrip": false,
      "normalized": false,
      "special": true
    },
    {
      "id": 3,
      "content": "</s>",
      "single_word": false,
      "lstrip": false,
      "rstrip": false,
      "normalized": false,
      "special": true
    }
  ],
  "normalizer": null,
  "pre_tokenizer": {
    "type": "Sequence",
    "pretokenizers": [
      {
        "type": "Whitespace"
      },
      {
        "type": "Split",
        "pattern": {
          "Regex": "(?<=[ऀ-ॿ஀-௿฀-๿຀-໿က-႟ក-៿一-鿿꤀-꤯])(?=[A-Za-z0-9])|(?<=[A-Za-z0-9])(?=[ऀ-ॿ஀-௿฀-๿຀-໿က-႟ក-៿一-鿿꤀-꤯])"
        },
        "behavior": "Isolated",
        "invert": false
      }
    ]
  },
  "post_processor": null,
  "decoder": null,
  "model": {
    "type": "BPE",
    "dropout": null,
    "unk_token": "<unk>",
    "continuing_subword_prefix": null,
    "end_of_word_suffix": null,
    "fuse_unk": false,
    "byte_fallback": false,
    "ignore_merges": false,
    "vocab": {
      "<pad>": 0,
      "<unk>": 1,
      "<s>": 2,
      "</s>": 3,
      "!": 4,
      "%": 5,
      "'": 6,
      "(": 7,
      ")": 8,
      ",": 9,
      "-": 10,
      ".": 11,
      "/": 12,
      "0": 13,
      "1": 14,
      "2": 15,
      "3": 16,
      "4": 17,
      "5": 18,
      "6": 19,
      "7": 20,
      "8": 21,
      "9": 22,
      ":": 23,
      ";": 24,
      "=": 25,
      "?": 26,
      "A": 27,
      "B": 28,
      "C": 29,
      "D": 30,
      "E": 31,
      "G": 32,
      "H": 33,
      "I": 34,
      "J": 35,
      "K": 36,
      "L": 37,
      "M": 38,
      "N": 39,
      "O": 40,
      "P": 41,
      "Q": 42,
      "R": 43,
      "S": 44,
      "T": 45,
      "U": 46,
      "W": 47,
      "Y": 48,
      "Z": 49,
      "[": 50,
      "]": 51,
      "_": 52,
      "`": 53,
      "a": 54,
      "b": 55,
      "c": 56,
      "d": 57,
      "e": 58,
      "g": 59,
      "h": 60,
      "i": 61,
      "j": 62,
      "k": 63,
      "l": 64,
      "m": 65,
      "n": 66,
      "o": 67,
      "p": 68,
      "r": 69,
      "s": 70,
      "t": 71,
      "u": 72,
      "w": 73,
      "x": 74,
      "y": 75,
      "z": 76,
      "‘": 77,
      "’": 78,
      "“": 79,
      "”": 80,
      "…": 81,
      "ai": 82,
      "ng": 83,
      "aw": 84,
      "sh": 85,
      "ma": 86,
      "na": 87,
      "ht": 88,
      "hp": 89,
      "sha": 90,
      "ka": 91,
      "hte": 92,
      "hpe": 93,
      "ni": 94,
      "la": 95,
      "nga": 96,
      "gaw": 97,
      "ra": 98,
      "ga": 99,
      "hk": 100,
      "sa": 101,
      "mu": 102,
      "rai": 103,
      "da": 104,
      "dai": 105,
      "nhte": 106,
      "nna": 107,
      "um": 108,
      "ya": 109,
      "ngai": 110,
      "yi": 111,
      "mung": 112,
      "wa": 113,
      "un": 114,
      "hta": 115,
      "shi": 116,
      "awng": 117,
      "hka": 118,
      "du": 119,
      "mat": 120,
      "lu": 121,
      "ye": 122,
      "ja": 123,
      "yu": 124,
      "Ka": 125,
      "ts": 126,
      "masha": 127,
      "oi": 128,
      "Sh": 129,
      "ri": 130,
      "hpa": 131,
      "myi": 132,
      "de": 133,
      "jaw": 134,
      "Dai": 135,
      "ch": 136,
      "law": 137,
      "Ma": 138,
      "ru": 139,
      "awn": 140,
      "re": 141,
      "kau": 142,
      "wu": 143,
      "ing": 144,
      "ta": 145,
      "shanhte": 146,
      "kaw": 147,
      "lam": 148,
      "ngu": 149,
      "anhte": 150,
      "nang": 151,
      "matu": 152,
      "tsun": 153,
      "myit": 154,
      "Madu": 155,
      "ung": 156,
      "yang": 157,
      "awm": 158,
      "in": 159,
      "sang": 160,
      "am": 161,
      "nanhte": 162,
      "mi": 163,
      "ti": 164,
      "mare": 165,
      "ba": 166,
      "amyu": 167,
      "majaw": 168,
      "galaw": 169,
      "hkam": 170,
      "hkra": 171,
      "Karai": 172,
      "Kasang": 173,
      ",”": 174,
      "nu": 175,
      "nngai": 176,
      "shang": 177,
      "dan": 178,
      "mara": 179,
      "dat": 180,
      "gu": 181,
      "rum": 182,
      "le": 183,
      "yawng": 184,
      "hpang": 185,
      "sai": 186,
      "li": 187,
      "loi": 188,
      "nht": 189,
      "ndai": 190,
      "langai": 191,
      "su": 192,
      "hku": 193,
      "Shi": 194,
      "raw": 195,
      "tsa": 196,
      "si": 197,
      "hkrum": 198,
      "Ye": 199,
      "di": 200,
      "man": 201,
      "se": 202,
      "sat": 203,
      "chye": 204,
      "ela": 205,
      "ang": 206,
      "ning": 207,
      "hkaw": 208,
      "shangun": 209,
      "rawng": 210,
      "tu": 211,
      "nye": 212,
      "gai": 213,
      "te": 214,
      "amu": 215,
      "zawn": 216,
      "nhtawm": 217,
      "Ngai": 218,
      "sum": 219,
      "rau": 220,
      "chy": 221,
      "lai": 222,
      "hkan": 223,
      "ku": 224,
      "Shanhte": 225,
      "shing": 226,
      "hkang": 227,
      "san": 228,
      "ding": 229,
      "pa": 230,
      "shara": 231,
      "hkru": 232,
      "maga": 233,
      "Is": 234,
      "gum": 235,
      "raela": 236,
      "Israela": 237,
      "dang": 238,
      "hkum": 239,
      "daw": 240,
      "yen": 241,
      "bai": 242,
      "baw": 243,
      "lang": 244,
      "hkawhkam": 245,
      "hkung": 246,
      "gun": 247,
      "shaloi": 248,
      "tai": 249,
      "yin": 250,
      "kasha": 251,
      "sin": 252,
      "she": 253,
      "naw": 254,
      "htang": 255,
      "Rai": 256,
      "jang": 257,
      "shagu": 258,
      "mai": 259,
      "ntsa": 260,
      "rit": 261,
      "dum": 262,
      "tawn": 263,
      "ting": 264,
      "nan": 265,
      "Sha": 266,
      "lamu": 267,
      "Nang": 268,
      "sak": 269,
      "hpyen": 270,
      "bu": 271,
      "rin": 272,
      "on": 273,
      "pru": 274,
      "pra": 275,
      "let": 276,
      "chyawm": 277,
      "ten": 278,
      "ji": 279,
      "shu": 280,
      "maren": 281,
      "hpyi": 282,
      "lata": 283,
      "Nanhte": 284,
      "nit": 285,
      "Yesu": 286,
      "kadai": 287,
      "chyi": 288,
      "shaga": 289,
      "awt": 290,
      "seng": 291,
      "Yu": 292,
      "nawng": 293,
      "htum": 294,
      "Ya": 295,
      "kaja": 296,
      "yam": 297,
      "dung": 298,
      "htan": 299,
      "aten": 300,
      "hpun": 301,
      "hkungga": 302,
      "hkawng": 303,
      "jawng": 304,
      "up": 305,
      "kaga": 306,
      "yan": 307,
      "kaba": 308,
      "Ndai": 309,
      "grau": 310,
      "jan": 311,
      "woi": 312,
      "wi": 313,
      "tara": 314,
      "num": 315,
      "hkrung": 316,
      "Hkaw": 317,
      "teng": 318,
      "nam": 319,
      "madu": 320,
      "Yuda": 321,
      "ring": 322,
      "bung": 323,
      "Na": 324,
      "hpung": 325,
      "Hkawhkam": 326,
      "madat": 327,
      "kam": 328,
      "Hk": 329,
      "lung": 330,
      "asak": 331,
      "tsaw": 332,
      "lahkawng": 333,
      "gara": 334,
      "htoi": 335,
      "mungdan": 336,
      "lem": 337,
      "Ch": 338,
      "hkrit": 339,
      "nta": 340,
      "yaw": 341,
      "shan": 342,
      "mahtang": 343,
      "Ba": 344,
      "ju": 345,
      "hten": 346,
      "tsin": 347,
      "kata": 348,
      "byin": 349,
      "praw": 350,
      "gan": 351,
      "jau": 352,
      "Daw": 353,
      "gasat": 354,
      "et": 355,
      "Dawi": 356,
      "sadi": 357,
      "injawng": 358,
      "Anhte": 359,
      "en": 360,
      "mying": 361,
      "shak": 362,
      "bak": 363,
      "Yo": 364,
      "kawa": 365,
      "lak": 366,
      "ara": 367,
      "shaw": 368,
      "dun": 369,
      "run": 370,
      "lau": 371,
      "rawt": 372,
      "shani": 373,
      "nawku": 374,
      "Yeru": 375,
      "salem": 376,
      "Yerusalem": 377,
      "hkye": 378,
      "shadang": 379,
      "Naw": 380,
      "pyi": 381,
      "yubak": 382,
      "Nye": 383,
      "sing": 384,
      "galoi": 385,
      "Hting": 386,
      "hpu": 387,
      "za": 388,
      "Htingnu": 389,
      "bra": 390,
      "kan": 391,
      "mali": 392,
      "Nawku": 393,
      "Maw": 394,
      "hkawm": 395,
      "arai": 396,
      "pu": 397,
      "hkrang": 398,
      "Mawshe": 399,
      "ak": 400,
      "wan": 401,
      "kang": 402,
      "hpring": 403,
      "shawng": 404,
      "mang": 405,
      "Shaloi": 406,
      "nhtoi": 407,
      "Egu": 408,
      "gyi": 409,
      "Egutu": 410,
      "Hpa": 411,
      "nau": 412,
      "ram": 413,
      "Shing": 414,
      "ha": 415,
      "pyaw": 416,
      "?,”": 417,
      "kum": 418,
      "Shaw": 419,
      "gumlau": 420,
      "nat": 421,
      "Hp": 422,
      "hkinjawng": 423,
      "tup": 424,
      "gam": 425,
      "shapraw": 426,
      "kabu": 427,
      "chying": 428,
      "ari": 429,
      "tinang": 430,
      "htau": 431,
      "we": 432,
      "maw": 433,
      "nhtang": 434,
      "hpraw": 435,
      "hti": 436,
      "byi": 437,
      "mayu": 438,
      "hting": 439,
      "magam": 440,
      "be": 441,
      "shut": 442,
      "hpaji": 443,
      "hkap": 444,
      "kaji": 445,
      "sagu": 446,
      "madun": 447,
      "Sum": 448,
      "taw": 449,
      "lawng": 450,
      "ap": 451,
      "ris": 452,
      "dawng": 453,
      "akyu": 454,
      "karum": 455,
      "hkrat": 456,
      "Hkris": 457,
      "chyeju": 458,
      "sharin": 459,
      "numsha": 460,
      "ran": 461,
      "masin": 462,
      "jahten": 463,
      "sham": 464,
      "Yaw": 465,
      "rim": 466,
      "bang": 467,
      "sen": 468,
      "kaning": 469,
      "prat": 470,
      "saw": 471,
      "Ga": 472,
      "rung": 473,
      "shakawn": 474,
      "sun": 475,
      "lusha": 476,
      "galu": 477,
      "shana": 478,
      ",’": 479,
      "mak": 480,
      "mada": 481,
      "Chya": 482,
      "dawn": 483,
      "kasa": 484,
      "je": 485,
      "chyoi": 486,
      "kap": 487,
      "hkawn": 488,
      "sharawng": 489,
      "pe": 490,
      "tsan": 491,
      "chya": 492,
      "rang": 493,
      "matsan": 494,
      "Masha": 495,
      "gup": 496,
      "gin": 497,
      "lum": 498,
      "Hkristu": 499,
      "manu": 500,
      "ahkang": 501,
      "Am": 502,
      "an": 503,
      "myihtoi": 504,
      "pawt": 505,
      "lawm": 506,
      "hkyi": 507,
      "dam": 508,
      "chyu": 509,
      "nkau": 510,
      "tam": 511,
      "kawp": 512,
      "masum": 513,
      "chyinghka": 514,
      "!,”": 515,
      "sabyi": 516,
      "nsen": 517,
      "ia": 518,
      "jahp": 519,
      "Si": 520,
      "gumhpraw": 521,
      "grai": 522,
      "gru": 523,
      "sanit": 524,
      "shanu": 525,
      "Le": 526,
      "yak": 527,
      "enyi": 528,
      "bye": 529,
      "grup": 530,
      "jahtau": 531,
      "mungga": 532,
      "bum": 533,
      "He": 534,
      "sut": 535,
      "La": 536,
      "hpaw": 537,
      "Sa": 538,
      "tsap": 539,
      "em": 540,
      "hkungri": 541,
      "tsang": 542,
      "shatai": 543,
      "ban": 544,
      "lup": 545,
      "bawsang": 546,
      "lakung": 547,
      "hpan": 548,
      "jin": 549,
      "hpai": 550,
      "Eli": 551,
      "dap": 552,
      "leng": 553,
      "mayawng": 554,
      "salang": 555,
      "tsawm": 556,
      "shingkang": 557,
      "lama": 558,
      "daru": 559,
      "ngut": 560,
      "marai": 561,
      "sumla": 562,
      "palawng": 563,
      "Ab": 564,
      "tsam": 565,
      "hkai": 566,
      "mungkan": 567,
      "hpara": 568,
      "lon": 569,
      "saga": 570,
      "Ha": 571,
      "makoi": 572,
      "ze": 573,
      "ningbaw": 574,
      "lawt": 575,
      "made": 576,
      "htani": 577,
      "tum": 578,
      "masai": 579,
      "wang": 580,
      "shada": 581,
      "ngam": 582,
      "kashu": 583,
      "shaka": 584,
      "manga": 585,
      "htana": 586,
      "laika": 587,
      "dinghku": 588,
      "hpawng": 589,
      "makau": 590,
      "kaya": 591,
      "kanu": 592,
      "tut": 593,
      ".”": 594,
      "majan": 595,
      "garai": 596,
      "do": 597,
      "manit": 598,
      "Tara": 599,
      "aga": 600,
      "lit": 601,
      "maigan": 602,
      "yup": 603,
      "Yaku": 604,
      "grin": 605,
      "muk": 606,
      "shawa": 607,
      "kade": 608,
      "Shawlu": 609,
      "gang": 610,
      "mahkra": 611,
      "atsam": 612,
      "sumsing": 613,
      "Lewi": 614,
      "lagaw": 615,
      "Babe": 616,
      "Babelon": 617,
      "Hka": 618,
      "mau": 619,
      "shaman": 620,
      "matut": 621,
      "htam": 622,
      "hkyen": 623,
      "machyi": 624,
      "makawp": 625,
      "bungli": 626,
      "mayam": 627,
      "Me": 628,
      "Chy": 629,
      "Htum": 630,
      "mahkawn": 631,
      "Yeh": 632,
      "dik": 633,
      "htu": 634,
      "tawng": 635,
      "ntsin": 636,
      "htet": 637,
      "gap": 638,
      "bawng": 639,
      "Gi": 640,
      "nawn": 641,
      "shagrau": 642,
      "dagam": 643,
      "nlung": 644,
      "hprawng": 645,
      "mari": 646,
      "sape": 647,
      "jahtum": 648,
      "Tsaw": 649,
      "tim": 650,
      "Ze": 651,
      "masu": 652,
      "Abra": 653,
      "poi": 654,
      "shata": 655,
      "im": 656,
      "sau": 657,
      "hkun": 658,
      "shayi": 659,
      "ili": 660,
      "htung": 661,
      "hkring": 662,
      "hkying": 663,
      "kung": 664,
      "malai": 665,
      "Arun": 666,
      "mun": 667,
      "lajang": 668,
      "tsi": 669,
      "kumhpa": 670,
      "mani": 671,
      "kayin": 672,
      "htingnu": 673,
      "Wa": 674,
      "Wenyi": 675,
      "htawng": 676,
      "Hpili": 677,
      "rap": 678,
      "luk": 679,
      "awk": 680,
      "hkrap": 681,
      "suk": 682,
      "manam": 683,
      "kanau": 684,
      "shabra": 685,
      "luksuk": 686,
      "karai": 687,
      "marang": 688,
      "lap": 689,
      "Mi": 690,
      "nsa": 691,
      "jing": 692,
      "ham": 693,
      "shangai": 694,
      "shadaw": 695,
      "kahtet": 696,
      "shab": 697,
      "hpyit": 698,
      "htim": 699,
      "lun": 700,
      "gawn": 701,
      "Shawlum": 702,
      "Shawlumon": 703,
      "Mo": 704,
      "ro": 705,
      "ngang": 706,
      "sakse": 707,
      "Abraham": 708,
      "kabai": 709,
      "lasha": 710,
      "Chyahtum": 711,
      "hkraw": 712,
      "yawn": 713,
      "zing": 714,
      "Chyalai": 715,
      "Be": 716,
      "dut": 717,
      "She": 718,
      "ik": 719,
      "kajawng": 720,
      "ep": 721,
      "kalang": 722,
      "00": 723,
      "ala": 724,
      "Kasha": 725,
      "sim": 726,
      "ngwi": 727,
      "marin": 728,
      "nai": 729,
      "hkat": 730,
      "gumra": 731,
      "kri": 732,
      "nni": 733,
      "shaku": 734,
      "matsat": 735,
      "shakut": 736,
      "anglai": 737,
      "Bai": 738,
      "sharawt": 739,
      "graw": 740,
      "bunghku": 741,
      "bo": 742,
      "sep": 743,
      "gyim": 744,
      "sti": 745,
      "shim": 746,
      "magap": 747,
      "kumla": 748,
      "Hpilisti": 749,
      "aya": 750,
      "nkri": 751,
      "gawk": 752,
      "daram": 753,
      "bau": 754,
      "mam": 755,
      "matsun": 756,
      "Yosep": 757,
      "Ben": 758,
      "Hkinjawng": 759,
      "lan": 760,
      "dingsa": 761,
      "shiga": 762,
      "tsindam": 763,
      "din": 764,
      "rawn": 765,
      "shatup": 766,
      "pan": 767,
      "tau": 768,
      "pran": 769,
      "Paw": 770,
      "lapran": 771,
      "Pawlu": 772,
      "hkau": 773,
      "chyang": 774,
      "sawng": 775,
      "hkrai": 776,
      "Da": 777,
      "hpyenla": 778,
      "Lai": 779,
      "yet": 780,
      "chyum": 781,
      "Mung": 782,
      "ginding": 783,
      "yeng": 784,
      "sinpraw": 785,
      "Aha": 786,
      "htap": 787,
      "agyi": 788,
      "mayan": 789,
      "shamying": 790,
      "dit": 791,
      "shinggan": 792,
      "grang": 793,
      "npu": 794,
      "masat": 795,
      "gumrawng": 796,
      "jeyang": 797,
      ".)": 798,
      "ging": 799,
      "kia": 800,
      "gat": 801,
      "gade": 802,
      "Su": 803,
      "kahpu": 804,
      "padang": 805,
      "Amyu": 806,
      "Ne": 807,
      "dumsu": 808,
      "kun": 809,
      "shagun": 810,
      "dusat": 811,
      "ora": 812,
      "nnan": 813,
      "bat": 814,
      "Yawshu": 815,
      "Chyoi": 816,
      "shai": 817,
      "lo": 818,
      "shun": 819,
      "reng": 820,
      "mag": 821,
      "Yawdan": 822,
      "ahk": 823,
      "byeng": 824,
      "anga": 825,
      "nbung": 826,
      "mawn": 827,
      "nem": 828,
      "masham": 829,
      "den": 830,
      "Re": 831,
      "magup": 832,
      "kungdawn": 833,
      "kru": 834,
      "sung": 835,
      "hpawn": 836,
      "nhtu": 837,
      "mawai": 838,
      "dom": 839,
      "Pet": 840,
      "gari": 841,
      "zi": 842,
      "manang": 843,
      "Petru": 844,
      "nsi": 845,
      "sali": 846,
      "sahka": 847,
      "ria": 848,
      "rat": 849,
      "grawp": 850,
      "asai": 851,
      "lea": 852,
      "shajang": 853,
      "Zi": 854,
      "jep": 855,
      "sit": 856,
      "agrawp": 857,
      "rem": 858,
      "Laika": 859,
      "panglai": 860,
      "lachyum": 861,
      "jahpawt": 862,
      "Moba": 863,
      "marit": 864,
      "Ge": 865,
      "jung": 866,
      "sharun": 867,
      "bainam": 868,
      "aja": 869,
      "kawng": 870,
      "awa": 871,
      "hki": 872,
      "sindawng": 873,
      "Bum": 874,
      "Myi": 875,
      "Pra": 876,
      "wenyi": 877,
      "shamyit": 878,
      "chyen": 879,
      "Ai": 880,
      "arung": 881,
      "shinggyim": 882,
      "han": 883,
      "naisi": 884,
      "usu": 885,
      "angawk": 886,
      "dingda": 887,
      "shadawn": 888,
      "ren": 889,
      "tan": 890,
      "len": 891,
      "hkrup": 892,
      "jinghku": 893,
      "ana": 894,
      "moi": 895,
      "yawt": 896,
      "makam": 897,
      "shabyin": 898,
      "nlang": 899,
      "chyaw": 900,
      "dingdung": 901,
      "shawp": 902,
      "ron": 903,
      "nba": 904,
      "nwa": 905,
      "ab": 906,
      "arawng": 907,
      "Yawhan": 908,
      "shaning": 909,
      "ying": 910,
      "nyang": 911,
      "jasan": 912,
      "tsing": 913,
      "lek": 914,
      "ngamai": 915,
      "yamin": 916,
      "aru": 917,
      "dip": 918,
      "mauhpa": 919,
      "ngamu": 920,
      "jahkrat": 921,
      "shaja": 922,
      "Sumpu": 923,
      "Benyamin": 924,
      "Nhtoi": 925,
      "kraw": 926,
      "malu": 927,
      "matsing": 928,
      "tsup": 929,
      "galai": 930,
      "jawn": 931,
      "tingnyang": 932,
      "sawn": 933,
      "me": 934,
      "htawn": 935,
      "Kadai": 936,
      "Gara": 937,
      "kab": 938,
      "mangoi": 939,
      "Ah": 940,
      "shingran": 941,
      "Elia": 942,
      "malap": 943,
      "sara": 944,
      "Kabu": 945,
      "magang": 946,
      "asawng": 947,
      "tsanlun": 948,
      "Edom": 949,
      "shawn": 950,
      "lat": 951,
      "Yona": 952,
      "magri": 953,
      "tin": 954,
      "htai": 955,
      "sharung": 956,
      "Abi": 957,
      "wun": 958,
      "jat": 959,
      "Bet": 960,
      "bun": 961,
      "doi": 962,
      "ngoi": 963,
      "kahtawng": 964,
      "Shan": 965,
      "nsin": 966,
      "hkalem": 967,
      "Mana": 968,
      "laman": 969,
      "lawze": 970,
      "zai": 971,
      "hkoi": 972,
      "matse": 973,
      "ningdang": 974,
      "Yeho": 975,
      "jaseng": 976,
      "Asu": 977,
      "Pe": 978,
      "hpya": 979,
      "hpri": 980,
      "De": 981,
      "Ehp": 982,
      "ne": 983,
      "Ding": 984,
      "roi": 985,
      "kaman": 986,
      "Shaka": 987,
      "dara": 988,
      "tsai": 989,
      "Manashe": 990,
      "Asuri": 991,
      "gala": 992,
      "Suri": 993,
      "jarit": 994,
      "Mare": 995,
      "ninghkap": 996,
      "sumri": 997,
      "Shiga": 998,
      "hkungran": 999,
      "Ti": 1000,
      "shagan": 1001,
      "npawt": 1002,
      "yawm": 1003,
      "shat": 1004,
      "hkawseng": 1005,
      "Elisha": 1006,
      "boam": 1007,
      "labye": 1008,
      "hkrun": 1009,
      "garan": 1010,
      "kanawn": 1011,
      "Chyum": 1012,
      "jet": 1013,
      "shag": 1014,
      "shin": 1015,
      "hpawt": 1016,
      "shamai": 1017,
      "shia": 1018,
      "chyam": 1019,
      "Yoab": 1020,
      "ahkrung": 1021,
      "gyin": 1022,
      "nhpu": 1023,
      "dagup": 1024,
      "Samu": 1025,
      "shahpa": 1026,
      "sharang": 1027,
      "gumtawng": 1028,
      "hkauna": 1029,
      "Ru": 1030,
      "ot": 1031,
      "magaw": 1032,
      "htaw": 1033,
      "hprang": 1034,
      "nda": 1035,
      "zia": 1036,
      "Sumsing": 1037,
      "sumwi": 1038,
      "sumpan": 1039,
      "Samuela": 1040,
      "Isak": 1041,
      "asin": 1042,
      "awu": 1043,
      "jahpoi": 1044,
      "don": 1045,
      "jai": 1046,
      "shayawt": 1047,
      "Amon": 1048,
      "shadung": 1049,
      "myu": 1050,
      "kahpa": 1051,
      "kawsi": 1052,
      "dup": 1053,
      "jahkring": 1054,
      "Hkanan": 1055,
      "mana": 1056,
      "gawng": 1057,
      "hpareng": 1058,
      "Heb": 1059,
      "zingri": 1060,
      "gwi": 1061,
      "kya": 1062,
      "kashun": 1063,
      "tsep": 1064,
      "Bansa": 1065,
      "Samari": 1066,
      "uk": 1067,
      "kanang": 1068,
      "kabye": 1069,
      "katsi": 1070,
      "gawt": 1071,
      "ahkaw": 1072,
      "Kawa": 1073,
      "lwi": 1074,
      "pyen": 1075,
      "hpra": 1076,
      "shalawt": 1077,
      "lamik": 1078,
      "Simun": 1079,
      "Ehprim": 1080,
      "Ke": 1081,
      "maka": 1082,
      "garu": 1083,
      "shinggyin": 1084,
      "shadum": 1085,
      "Hpang": 1086,
      "kayat": 1087,
      "Ahab": 1088,
      "Hi": 1089,
      "Poi": 1090,
      "shachyu": 1091,
      "shabat": 1092,
      "Bala": 1093,
      "Mungdan": 1094,
      "asi": 1095,
      "zup": 1096,
      "tawk": 1097,
      "agrin": 1098,
      "jahpan": 1099,
      "Kadit": 1100,
      "chyit": 1101,
      "sam": 1102,
      "yat": 1103,
      "hkrak": 1104,
      "hkyeng": 1105,
      "gamyet": 1106,
      "Heze": 1107,
      "shachyut": 1108,
      "Hezekia": 1109,
      "shadan": 1110,
      "gadoi": 1111,
      "sinna": 1112,
      "noi": 1113,
      "Ziun": 1114,
      "Sara": 1115,
      "shaden": 1116,
      "jawm": 1117,
      "chyin": 1118,
      "Yonahtan": 1119,
      "Za": 1120,
      "achyin": 1121,
      "shadik": 1122,
      "shabrang": 1123,
      "atsawm": 1124,
      "nhpang": 1125,
      "Shawng": 1126,
      "Nebu": 1127,
      "kadawng": 1128,
      "hkran": 1129,
      ",’”": 1130,
      "lead": 1131,
      "Ama": 1132,
      "Ho": 1133,
      "hpum": 1134,
      "lagu": 1135,
      "dala": 1136,
      "Kaga": 1137,
      "Gilead": 1138,
      "zin": 1139,
      "langa": 1140,
      "gawm": 1141,
      "sanghpaw": 1142,
      "alat": 1143,
      "shaza": 1144,
      "lachyit": 1145,
      "gyit": 1146,
      "Ahi": 1147,
      "Gum": 1148,
      "Ra": 1149,
      "madi": 1150,
      "shadun": 1151,
      "shagrin": 1152,
      "kasi": 1153,
      "sadang": 1154,
      "salo": 1155,
      "yit": 1156,
      "lawan": 1157,
      "ret": 1158,
      "lila": 1159,
      "dne": 1160,
      "Mai": 1161,
      "kadawn": 1162,
      "singkaw": 1163,
      "Yehoi": 1164,
      "jum": 1165,
      "shaprat": 1166,
      "yengdin": 1167,
      "Asa": 1168,
      "Ki": 1169,
      "karan": 1170,
      "sana": 1171,
      "Kaja": 1172,
      "akajawng": 1173,
      "yun": 1174,
      "mahka": 1175,
      "shakap": 1176,
      "Yero": 1177,
      "arat": 1178,
      "nsang": 1179,
      "hkanghkyi": 1180,
      "Pi": 1181,
      "arawn": 1182,
      "rishe": 1183,
      "tang": 1184,
      "shakram": 1185,
      "Hparishe": 1186,
      "nsam": 1187,
      "jahku": 1188,
      "jut": 1189,
      "gumhkawng": 1190,
      "hking": 1191,
      "jahpring": 1192,
      "Absalo": 1193,
      "shagrit": 1194,
      "Absalom": 1195,
      "alai": 1196,
      "yung": 1197,
      "gaida": 1198,
      "shingbyi": 1199,
      "adum": 1200,
      "ori": 1201,
      "hkadne": 1202,
      "jahkrung": 1203,
      "jahkrit": 1204,
      "Kaba": 1205,
      "pahtau": 1206,
      "Nebuhkadne": 1207,
      "Nebuhkadneza": 1208,
      "lakying": 1209,
      "Gali": 1210,
      "hpawk": 1211,
      "Go": 1212,
      "shakum": 1213,
      "put": 1214,
      "mawe": 1215,
      "kataw": 1216,
      "gau": 1217,
      "hkin": 1218,
      "ginwang": 1219,
      "Sagu": 1220,
      "Yeroboam": 1221,
      "bin": 1222,
      "mia": 1223,
      "tawt": 1224,
      "mahkam": 1225,
      "Ar": 1226,
      "Esaw": 1227,
      "ndang": 1228,
      "pyengdin": 1229,
      "majing": 1230,
      "nani": 1231,
      "hkup": 1232,
      "dinggrin": 1233,
      "Gibe": 1234,
      "Galile": 1235,
      "ling": 1236,
      "ahkyak": 1237,
      "Rawng": 1238,
      "amying": 1239,
      "bru": 1240,
      "htawt": 1241,
      "lia": 1242,
      "sumshi": 1243,
      "zingrat": 1244,
      "Se": 1245,
      "Ta": 1246,
      "share": 1247,
      "kangka": 1248,
      "Hpaji": 1249,
      "ho": 1250,
      "nmu": 1251,
      "ut": 1252,
      "malen": 1253,
      "jashawn": 1254,
      "Marai": 1255,
      "!,’": 1256,
      "elek": 1257,
      "hpye": 1258,
      "kat": 1259,
      "lana": 1260,
      "lani": 1261,
      "latsa": 1262,
      "jahkrum": 1263,
      "lawu": 1264,
      "ningnan": 1265,
      "shingdu": 1266,
      "Rubin": 1267,
      "Elea": 1268,
      "Gin": 1269,
      "Ja": 1270,
      "nji": 1271,
      "nak": 1272,
      "kara": 1273,
      "Amori": 1274,
      "zinli": 1275,
      "atsin": 1276,
      "pawng": 1277,
      "kashe": 1278,
      "lajin": 1279,
      "dep": 1280,
      "dingnye": 1281,
      "pat": 1282,
      "shabrai": 1283,
      "zaibru": 1284,
      "ashan": 1285,
      "gung": 1286,
      "kye": 1287,
      "marawn": 1288,
      "shama": 1289,
      "ladaw": 1290,
      "Gad": 1291,
      "Yehu": 1292,
      "kabrim": 1293,
      "Ashe": 1294,
      "Num": 1295,
      "asan": 1296,
      "ahkying": 1297,
      "ke": 1298,
      "htawm": 1299,
      "hko": 1300,
      "hkalup": 1301,
      "Shara": 1302,
      "jahpawng": 1303,
      "tsit": 1304,
      "shadut": 1305,
      "anu": 1306,
      "koi": 1307,
      "nmaw": 1308,
      "katsang": 1309,
      "jahka": 1310,
      "lawang": 1311,
      "pala": 1312,
      "An": 1313,
      "nra": 1314,
      "nli": 1315,
      "oa": 1316,
      "tung": 1317,
      "machyang": 1318,
      "nachying": 1319,
      "kadit": 1320,
      "lahku": 1321,
      "matsa": 1322,
      "rut": 1323,
      "shinggrup": 1324,
      "ashun": 1325,
      "phta": 1326,
      "uru": 1327,
      "udat": 1328,
      "htela": 1329,
      "ningsang": 1330,
      "Yoba": 1331,
      "Myit": 1332,
      "machye": 1333,
      "niela": 1334,
      "000": 1335,
      "wunawng": 1336,
      "Ish": 1337,
      "Te": 1338,
      "bya": 1339,
      "ura": 1340,
      "malang": 1341,
      "hat": 1342,
      "htingrai": 1343,
      "htuk": 1344,
      "Mungkan": 1345,
      "wunli": 1346,
      "nyawm": 1347,
      "pung": 1348,
      "htat": 1349,
      "hkut": 1350,
      "dingnyawm": 1351,
      "Shalai": 1352,
      "imelek": 1353,
      "Hebron": 1354,
      "Esh": 1355,
      "ndan": 1356,
      "lanu": 1357,
      "myin": 1358,
      "Eleaza": 1359,
      "aput": 1360,
      "jen": 1361,
      "ndat": 1362,
      "nhkun": 1363,
      "pum": 1364,
      "masa": 1365,
      "kachyi": 1366,
      "matai": 1367,
      "Lamu": 1368,
      "Panglai": 1369,
      "adup": 1370,
      "laru": 1371,
      "sumpum": 1372,
      "malit": 1373,
      "Myihtoi": 1374,
      "mahku": 1375,
      "htep": 1376,
      "kagat": 1377,
      "Chying": 1378,
      "Hkristan": 1379,
      "Laban": 1380,
      "Behtela": 1381,
      "shahpat": 1382,
      "Pilat": 1383,
      "Ko": 1384,
      "Pa": 1385,
      "joi": 1386,
      "hpaga": 1387,
      "Zede": 1388,
      "Chyinghka": 1389,
      "nden": 1390,
      "shatsang": 1391,
      "shajin": 1392,
      "shatsai": 1393,
      "Yeri": 1394,
      "ninggang": 1395,
      "dingyang": 1396,
      "lunghkrung": 1397,
      "hput": 1398,
      "Hero": 1399,
      "Mihka": 1400,
      "Yehoshahpat": 1401,
      "Zedekia": 1402,
      "Lu": 1403,
      "kyit": 1404,
      "sharu": 1405,
      "laja": 1406,
      "deng": 1407,
      "wudang": 1408,
      "namman": 1409,
      "Hkum": 1410,
      "doni": 1411,
      "Dan": 1412,
      "ila": 1413,
      "maz": 1414,
      "shalan": 1415,
      "hkri": 1416,
      "mungdaw": 1417,
      "kayau": 1418,
      "Meshia": 1419,
      "angak": 1420,
      "tsingdu": 1421,
      "Ginding": 1422,
      "kran": 1423,
      "nrung": 1424,
      "mahtai": 1425,
      "hkrawng": 1426,
      "hkem": 1427,
      "Yoshia": 1428,
      "chyalai": 1429,
      "shatan": 1430,
      "Yerihko": 1431,
      "Ning": 1432,
      "Nam": 1433,
      "maling": 1434,
      "shadam": 1435,
      "hkalum": 1436,
      "Gidon": 1437,
      "lanep": 1438,
      "ndau": 1439,
      "pungding": 1440,
      "Ara": 1441,
      "dawm": 1442,
      "kyang": 1443,
      "nchyi": 1444,
      "shatawng": 1445,
      "shangang": 1446,
      "chyai": 1447,
      "hpunpyen": 1448,
      "Balam": 1449,
      "!”": 1450,
      "azi": 1451,
      "nhtan": 1452,
      "pup": 1453,
      "rwi": 1454,
      "wai": 1455,
      "yai": 1456,
      "hpyan": 1457,
      "shap": 1458,
      "gawla": 1459,
      "dab": 1460,
      "dad": 1461,
      "saia": 1462,
      "buga": 1463,
      "chyip": 1464,
      "shanem": 1465,
      "laknak": 1466,
      "Hpyen": 1467,
      "Shehkem": 1468,
      "manap": 1469,
      "Nawng": 1470,
      "alawan": 1471,
      "ayai": 1472,
      "paw": 1473,
      "madai": 1474,
      "ladawn": 1475,
      "dagraw": 1476,
      "matsi": 1477,
      "Mari": 1478,
      "shinglet": 1479,
      "dingla": 1480,
      "dawhkrawng": 1481,
      "Daniela": 1482,
      "So": 1483,
      "nmai": 1484,
      "wora": 1485,
      "shalai": 1486,
      "kahtap": 1487,
      "manoi": 1488,
      "laklai": 1489,
      "Leban": 1490,
      "Satan": 1491,
      "Lebanon": 1492,
      "Hpu": 1493,
      "hu": 1494,
      "nyan": 1495,
      "op": 1496,
      "hpi": 1497,
      "kashin": 1498,
      "daz": 1499,
      "ine": 1500,
      "hkrithpa": 1501,
      "Herod": 1502,
      "Sin": 1503,
      "grung": 1504,
      "hkaria": 1505,
      "dian": 1506,
      "sumli": 1507,
      "htinggrang": 1508,
      "yungnu": 1509,
      "magawn": 1510,
      "shangut": 1511,
      "nip": 1512,
      "laning": 1513,
      "jahpu": 1514,
      "tingse": 1515,
      "htingbu": 1516,
      "ginhka": 1517,
      "shabran": 1518,
      "Midian": 1519,
      "Numsha": 1520,
      "Ash": 1521,
      "Lam": 1522,
      "Yi": 1523,
      "nri": 1524,
      "rde": 1525,
      "hprat": 1526,
      "shamu": 1527,
      "shachyaw": 1528,
      "kana": 1529,
      "layang": 1530,
      "kajan": 1531,
      "Hkawseng": 1532,
      "Chye": 1533,
      "yawp": 1534,
      "laksan": 1535,
      "chyaru": 1536,
      "Morde": 1537,
      "kabrawng": 1538,
      "Mordehkai": 1539,
      "Turu": 1540,
      "ahtu": 1541,
      "awai": 1542,
      "shadu": 1543,
      "sanu": 1544,
      "tsu": 1545,
      "dim": 1546,
      "Abna": 1547,
      "shabam": 1548,
      "Reho": 1549,
      "dazik": 1550,
      "Esaia": 1551,
      "Uhprat": 1552,
      "bela": 1553,
      "hem": 1554,
      "mahkawng": 1555,
      "sharen": 1556,
      "kajai": 1557,
      "ngau": 1558,
      "sama": 1559,
      "sari": 1560,
      "rep": 1561,
      "but": 1562,
      "hkyep": 1563,
      "Abimelek": 1564,
      "dok": 1565,
      "Abram": 1566,
      "Eshta": 1567,
      "Di": 1568,
      "Sam": 1569,
      "arit": 1570,
      "mayun": 1571,
      "shaba": 1572,
      "lahta": 1573,
      "munggyi": 1574,
      "bala": 1575,
      "lik": 1576,
      "shingdang": 1577,
      "Shata": 1578,
      "Shawa": 1579,
      "sawk": 1580,
      "Sina": 1581,
      "Tinang": 1582,
      "Du": 1583,
      "ahpraw": 1584,
      "nhkan": 1585,
      "shatsawm": 1586,
      "dia": 1587,
      "angun": 1588,
      "shingnip": 1589,
      "akim": 1590,
      "shamyet": 1591,
      "hkaulan": 1592,
      "Asak": 1593,
      "Bu": 1594,
      "asang": 1595,
      "maja": 1596,
      "hprap": 1597,
      "shanat": 1598,
      "shaje": 1599,
      "nia": 1600,
      "sup": 1601,
      "jahprang": 1602,
      "Hebre": 1603,
      "Agyi": 1604,
      "kyet": 1605,
      "nrut": 1606,
      "son": 1607,
      "mas": 1608,
      "sani": 1609,
      "yut": 1610,
      "shanghkawng": 1611,
      "ningma": 1612,
      "Lani": 1613,
      "?,’": 1614,
      "Aza": 1615,
      "Noa": 1616,
      "krin": 1617,
      "kyaw": 1618,
      "shon": 1619,
      "maela": 1620,
      "shachyoi": 1621,
      "lara": 1622,
      "tsasam": 1623,
      "Yere": 1624,
      "sinda": 1625,
      "Yubak": 1626,
      "Damas": 1627,
      "kyem": 1628,
      "Samson": 1629,
      "Damasku": 1630,
      ".’": 1631,
      "Ro": 1632,
      "bon": 1633,
      "rna": 1634,
      "wawt": 1635,
      "makaw": 1636,
      "shapra": 1637,
      "kadu": 1638,
      "kahtam": 1639,
      "lapu": 1640,
      "gut": 1641,
      "Zebu": 1642,
      "Rahk": 1643,
      "ada": 1644,
      "byak": 1645,
      "shung": 1646,
      "maya": 1647,
      "maru": 1648,
      "maroi": 1649,
      "sade": 1650,
      "sumpyi": 1651,
      "Bashan": 1652,
      "Amen": 1653,
      "shabyak": 1654,
      "Zadok": 1655,
      "Amalek": 1656,
      "Ishmaela": 1657,
      "Yeremia": 1658,
      "Rahkela": 1659,
      "?,": 1660,
      "Zo": 1661,
      "adaw": 1662,
      "non": 1663,
      "zim": 1664,
      "shachyen": 1665,
      "ladu": 1666,
      "lahkawn": 1667,
      "Kade": 1668,
      "lehem": 1669,
      "namsi": 1670,
      "Zehkaria": 1671,
      "Betlehem": 1672,
      "Chyeju": 1673,
      "Rehoboam": 1674,
      "gram": 1675,
      "pai": 1676,
      "mayang": 1677,
      "kabaw": 1678,
      "Shime": 1679,
      "sheba": 1680,
      "Naphta": 1681,
      "kandang": 1682,
      "Labau": 1683,
      "zera": 1684,
      "Naphtali": 1685,
      "10": 1686,
      "atsai": 1687,
      "gi": 1688,
      "htawk": 1689,
      "katsan": 1690,
      "kayawp": 1691,
      "dinglik": 1692,
      "Nan": 1693,
      "Naza": 1694,
      "brang": 1695,
      "Gat": 1696,
      "Sidon": 1697,
      "mukdara": 1698,
      "Hpilip": 1699,
      "Per": 1700,
      "anut": 1701,
      "Az": 1702,
      "alu": 1703,
      "zpa": 1704,
      "aia": 1705,
      "mazing": 1706,
      "shanang": 1707,
      "shachyip": 1708,
      "lahpum": 1709,
      "hkik": 1710,
      "hkren": 1711,
      "rela": 1712,
      "leb": 1713,
      "manawn": 1714,
      "Shana": 1715,
      "janmau": 1716,
      "nampan": 1717,
      "Haman": 1718,
      "Hu": 1719,
      "Li": 1720,
      "Ram": 1721,
      "rm": 1722,
      "dabang": 1723,
      "yep": 1724,
      "dek": 1725,
      "Matsan": 1726,
      "langchyi": 1727,
      "Nahtan": 1728,
      "Lama": 1729,
      "lapri": 1730,
      "Sheba": 1731,
      "Ahaza": 1732,
      "Zebulun": 1733,
      "shayu": 1734,
      "shading": 1735,
      "shapyaw": 1736,
      "lali": 1737,
      "labau": 1738,
      "hkrin": 1739,
      "jahtu": 1740,
      "Shem": 1741,
      "shen": 1742,
      "chyat": 1743,
      "hkaia": 1744,
      "Hkaleb": 1745,
      "Ahazia": 1746,
      "Gibea": 1747,
      "Kohat": 1748,
      "Sodom": 1749,
      "20": 1750,
      "kin": 1751,
      "nma": 1752,
      "nasin": 1753,
      "lakap": 1754,
      "lagat": 1755,
      "gale": 1756,
      "unlawng": 1757,
      "sumgawn": 1758,
      "Bara": 1759,
      "singgu": 1760,
      "Gibeon": 1761,
      "hon": 1762,
      "nhku": 1763,
      "sawm": 1764,
      "galang": 1765,
      "daju": 1766,
      "wuwa": 1767,
      "dinghta": 1768,
      "Shinggyim": 1769,
      "Hpung": 1770,
      "Langai": 1771,
      "tsip": 1772,
      "Mizpa": 1773,
      "Amazia": 1774,
      "Rama": 1775,
      "Roma": 1776,
      "Persi": 1777,
      "Ang": 1778,
      "Ela": 1779,
      "To": 1780,
      "ahka": 1781,
      "ahtawk": 1782,
      "lhki": 1783,
      "prwi": 1784,
      "zra": 1785,
      "kahpra": 1786,
      "sata": 1787,
      "timung": 1788,
      "Shilo": 1789,
      "sumhpa": 1790,
      "shingkyit": 1791,
      "hkrudu": 1792,
      "shem": 1793,
      "nammukdara": 1794,
      "arip": 1795,
      "Zeru": 1796,
      "shabawn": 1797,
      "magra": 1798,
      "Maigan": 1799,
      "Yehoiada": 1800,
      "Ashera": 1801,
      "mazum": 1802,
      "Sap": 1803,
      "Uzia": 1804,
      "zunlawng": 1805,
      "shoi": 1806,
      "shatsup": 1807,
      "kadun": 1808,
      "kaleng": 1809,
      "lada": 1810,
      "lashi": 1811,
      "gawp": 1812,
      "sagawn": 1813,
      "yip": 1814,
      "Yez": 1815,
      "Yebu": 1816,
      "manaw": 1817,
      "Hke": 1818,
      "shanhpyi": 1819,
      "shakawng": 1820,
      "kumhpaw": 1821,
      "shamawt": 1822,
      "Mera": 1823,
      "hkisha": 1824,
      "Yisahka": 1825,
      "30": 1826,
      "50": 1827,
      "bi": 1828,
      "mahkai": 1829,
      "machyaw": 1830,
      "katsing": 1831,
      "kamyin": 1832,
      "gawan": 1833,
      "nhten": 1834,
      "jam": 1835,
      "Kam": 1836,
      "Kasa": 1837,
      "dingsen": 1838,
      "hkrut": 1839,
      "maia": 1840,
      "lungpu": 1841,
      "Balak": 1842,
      "manggang": 1843,
      "lupwa": 1844,
      "Benaia": 1845,
      "Teng": 1846,
      "Angawk": 1847,
      "Yezrela": 1848,
      "Lawt": 1849,
      "Tim": 1850,
      "ki": 1851,
      "lgala": 1852,
      "madung": 1853,
      "kanawng": 1854,
      "hkrawn": 1855,
      "jahpun": 1856,
      "Mali": 1857,
      "ningja": 1858,
      "ninghkrin": 1859,
      "nyet": 1860,
      "dangrang": 1861,
      "dawk": 1862,
      "shet": 1863,
      "numraw": 1864,
      "Nat": 1865,
      "lungpa": 1866,
      "Yosha": 1867,
      "htaula": 1868,
      "chyalu": 1869,
      "hpaida": 1870,
      "Hamat": 1871,
      "rot": 1872,
      "Ger": 1873,
      "Adoni": 1874,
      "Law": 1875,
      "Nta": 1876,
      "ko": 1877,
      "ndaw": 1878,
      "mala": 1879,
      "sharai": 1880,
      "shapoi": 1881,
      "lahpa": 1882,
      "nnau": 1883,
      "Kanu": 1884,
      "Kaning": 1885,
      "sea": 1886,
      "bed": 1887,
      "chyarang": 1888,
      "Sabyi": 1889,
      "Hkanani": 1890,
      "Gilgala": 1891,
      "ahkya": 1892,
      "Dingdung": 1893,
      "dengga": 1894,
      "Sape": 1895,
      "Lang": 1896,
      "Yawng": 1897,
      "ahkup": 1898,
      "gri": 1899,
      "pawn": 1900,
      "mabyin": 1901,
      "katsu": 1902,
      "garawt": 1903,
      "hke": 1904,
      "hkala": 1905,
      "hparan": 1906,
      "hkuwawt": 1907,
      "mandan": 1908,
      "sumtsan": 1909,
      "shingyan": 1910,
      "shingtau": 1911,
      "Hesh": 1912,
      "htingnut": 1913,
      "Yebusi": 1914,
      "Ana": 1915,
      "El": 1916,
      "Moi": 1917,
      "Uria": 1918,
      "aprat": 1919,
      "bia": 1920,
      "dwi": 1921,
      "soi": 1922,
      "hpran": 1923,
      "shami": 1924,
      "jahkrai": 1925,
      "Mahka": 1926,
      "Make": 1927,
      "Yoram": 1928,
      "lakle": 1929,
      "Lea": 1930,
      "Yehoiakim": 1931,
      "Bua": 1932,
      "Merari": 1933,
      "Heshbon": 1934,
      "Ehti": 1935,
      "at": 1936,
      "ani": 1937,
      "asum": 1938,
      "nde": 1939,
      "ndum": 1940,
      "nhprang": 1941,
      "mayat": 1942,
      "kahpyan": 1943,
      "yihku": 1944,
      "Masum": 1945,
      "Yese": 1946,
      "shingtai": 1947,
      "shup": 1948,
      "Sihon": 1949,
      "Hanani": 1950,
      "Bera": 1951,
      "Benha": 1952,
      "chyawp": 1953,
      "Hiti": 1954,
      "Kiria": 1955,
      "opi": 1956,
      "Ehtiopi": 1957,
      "Kora": 1958,
      "ashu": 1959,
      "adip": 1960,
      "nten": 1961,
      "madang": 1962,
      "wam": 1963,
      "htak": 1964,
      "Madat": 1965,
      "amyat": 1966,
      "shingna": 1967,
      "Barna": 1968,
      "Hpe": 1969,
      "beka": 1970,
      "bera": 1971,
      "Lasha": 1972,
      "Abia": 1973,
      "Haza": 1974,
      "Rebeka": 1975,
      "Gumlau": 1976,
      "Sinpraw": 1977,
      "Azaria": 1978,
      "Benhadad": 1979,
      "Barnaba": 1980,
      "Ami": 1981,
      "Hte": 1982,
      "Hara": 1983,
      "Wan": 1984,
      "Yam": 1985,
      "ahkyep": 1986,
      "shatsam": 1987,
      "lahpawt": 1988,
      "sangau": 1989,
      "Kalang": 1990,
      "lawk": 1991,
      "Mara": 1992,
      "ningla": 1993,
      "gumshem": 1994,
      "sheng": 1995,
      "namya": 1996,
      "namji": 1997,
      "Yoa": 1998,
      "hkyet": 1999,
      "htauli": 2000,
      "Sinna": 2001,
      "Shemaia": 2002,
      "boshet": 2003,
      "lagut": 2004,
      "alau": 2005,
      "nshang": 2006,
      "nhkoi": 2007,
      "wum": 2008,
      "hto": 2009,
      "hprai": 2010,
      "shatsaw": 2011,
      "shaleng": 2012,
      "lagyim": 2013,
      "sayang": 2014,
      "yem": 2015,
      "jahkrup": 2016,
      "wut": 2017,
      "amya": 2018,
      "lep": 2019,
      "lim": 2020,
      "dingsat": 2021,
      "shua": 2022,
      "ganoi": 2023,
      "lakawn": 2024,
      "Hpara": 2025,
      "hanan": 2026,
      "chyinghkyi": 2027,
      "chyaloi": 2028,
      "Mihkaia": 2029,
      "Abiya": 2030,
      "zuphpawng": 2031,
      "Asap": 2032,
      "Ezra": 2033,
      "Ku": 2034,
      "Nkau": 2035,
      "Uzi": 2036,
      "ahpawt": 2037,
      "nsha": 2038,
      "nnu": 2039,
      "waw": 2040,
      "htun": 2041,
      "shamat": 2042,
      "shalawm": 2043,
      "hpela": 2044,
      "dalia": 2045,
      "Katsan": 2046,
      "hpat": 2047,
      "hpajang": 2048,
      "lawat": 2049,
      "sumpu": 2050,
      "Shaning": 2051,
      "htumpa": 2052,
      "Hkrit": 2053,
      "tsawmra": 2054,
      "Zera": 2055,
      "Nazaret": 2056,
      "Bi": 2057,
      "Hta": 2058,
      "Jum": 2059,
      "Rawt": 2060,
      "Tsan": 2061,
      "abaw": 2062,
      "lkia": 2063,
      "pri": 2064,
      "shalaw": 2065,
      "shatut": 2066,
      "lahput": 2067,
      "galau": 2068,
      "daia": 2069,
      "ruk": 2070,
      "badia": 2071,
      "shanglawt": 2072,
      "manawt": 2073,
      "dinggam": 2074,
      "hpungdim": 2075,
      "Hkyeng": 2076,
      "sutgan": 2077,
      "bora": 2078,
      "ahkin": 2079,
      "Yehoa": 2080,
      "Hilkia": 2081,
      "Yehoiahkin": 2082,
      "Jahpawt": 2083,
      "Gershon": 2084,
      "Elam": 2085,
      "Nila": 2086,
      "Obed": 2087,
      "Tawn": 2088,
      "alaw": 2089,
      "gyem": 2090,
      "nyip": 2091,
      "omi": 2092,
      "mahkrung": 2093,
      "maju": 2094,
      "maza": 2095,
      "katu": 2096,
      "kayut": 2097,
      "lale": 2098,
      "galun": 2099,
      "jasu": 2100,
      "marau": 2101,
      "ninglaw": 2102,
      "shingjawng": 2103,
      "shura": 2104,
      "Naomi": 2105,
      "shawang": 2106,
      "Hpun": 2107,
      "mawru": 2108,
      "maden": 2109,
      "shakat": 2110,
      "Gedalia": 2111,
      "Abishai": 2112,
      "Ruhta": 2113,
      "Kadesha": 2114,
      "Abiahta": 2115,
      "Ak": 2116,
      "Ehpe": 2117,
      "Hkang": 2118,
      "Nine": 2119,
      "eza": 2120,
      "nung": 2121,
      "ohti": 2122,
      "uram": 2123,
      "mahkrum": 2124,
      "kadup": 2125,
      "dahpran": 2126,
      "hkalung": 2127,
      "rik": 2128,
      "maram": 2129,
      "namhtan": 2130,
      "hkritung": 2131,
      "Yohtam": 2132,
      "kawan": 2133,
      "lakum": 2134,
      "haza": 2135,
      "Hpawt": 2136,
      "makyin": 2137,
      "Hkarm": 2138,
      "mazut": 2139,
      "Timohti": 2140,
      "Makedoni": 2141,
      "Kiriat": 2142,
      "Ninewe": 2143,
      "Hkarmela": 2144,
      "12": 2145,
      "500": 2146,
      "Bawng": 2147,
      "Uza": 2148,
      "nshu": 2149,
      "shalun": 2150,
      "kahte": 2151,
      "dakat": 2152,
      "hkarang": 2153,
      "myihprap": 2154,
      "Mar": 2155,
      "Mahki": 2156,
      "hkuwa": 2157,
      "sumru": 2158,
      "maihpang": 2159,
      "chyim": 2160,
      "madup": 2161,
      "Basha": 2162,
      "hazi": 2163,
      "Hpine": 2164,
      "ginra": 2165,
      "Sila": 2166,
      "Meshu": 2167,
      "Sut": 2168,
      "byau": 2169,
      "adawt": 2170,
      "Hpineha": 2171,
      "18": 2172,
      "Grik": 2173,
      "Ham": 2174,
      "Mu": 2175,
      "ajan": 2176,
      "ashin": 2177,
      "bna": 2178,
      "grit": 2179,
      "mawng": 2180,
      "nchyang": 2181,
      "nme": 2182,
      "pdin": 2183,
      "stu": 2184,
      "shatu": 2185,
      "hkalau": 2186,
      "jahkraw": 2187,
      "Karum": 2188,
      "Yephta": 2189,
      "gaina": 2190,
      "hkanse": 2191,
      "gumle": 2192,
      "gumlang": 2193,
      "dawp": 2194,
      "Shani": 2195,
      "prang": 2196,
      "numgaw": 2197,
      "numri": 2198,
      "akrin": 2199,
      "damya": 2200,
      "Hiwi": 2201,
      "kyepdin": 2202,
      "Ningbaw": 2203,
      "Ramot": 2204,
      "Adoniya": 2205,
      "Meshulam": 2206,
      "15": 2207,
      "16": 2208,
      "45": 2209,
      "Asi": 2210,
      "Adam": 2211,
      "Bung": 2212,
      "Jep": 2213,
      "Muk": 2214,
      "ahpyi": 2215,
      "boi": 2216,
      "he": 2217,
      "hi": 2218,
      "hara": 2219,
      "nhk": 2220,
      "nhpaw": 2221,
      "nadab": 2222,
      "shagawp": 2223,
      "raga": 2224,
      "salu": 2225,
      "jarung": 2226,
      "Sho": 2227,
      "lawhpa": 2228,
      "Majan": 2229,
      "baren": 2230,
      "sera": 2231,
      "ninglen": 2232,
      "gumdin": 2233,
      "Shalum": 2234,
      "Bat": 2235,
      "Baruk": 2236,
      "bansa": 2237,
      "Hiram": 2238,
      "Arnon": 2239,
      "Anti": 2240,
      "Lusha": 2241,
      "Sheme": 2242,
      "Berasheba": 2243,
      "Hkanghkyi": 2244,
      "60": 2245,
      "Aten": 2246,
      "Nun": 2247,
      "Ngwi": 2248,
      "Ri": 2249,
      "atsun": 2250,
      "ahkun": 2251,
      "asim": 2252,
      "alep": 2253,
      "byawn": 2254,
      "goi": 2255,
      "gyam": 2256,
      "ip": 2257,
      "iela": 2258,
      "mora": 2259,
      "nja": 2260,
      "nsoi": 2261,
      "uhkan": 2262,
      "ugut": 2263,
      "machyu": 2264,
      "madin": 2265,
      "hpoi": 2266,
      "sagaw": 2267,
      "raia": 2268,
      "jahkru": 2269,
      "Mata": 2270,
      "Masea": 2271,
      "tap": 2272,
      "sanglang": 2273,
      "babela": 2274,
      "saidawng": 2275,
      "angwi": 2276,
      "ningru": 2277,
      "sumnung": 2278,
      "kup": 2279,
      "prut": 2280,
      "Sisera": 2281,
      "shanut": 2282,
      "Abela": 2283,
      "Hada": 2284,
      "maria": 2285,
      "Yehoram": 2286,
      "opo": 2287,
      "Zerubabela": 2288,
      "75": 2289,
      "Dari": 2290,
      "Oga": 2291,
      "alam": 2292,
      "mri": 2293,
      "oki": 2294,
      "rne": 2295,
      "manat": 2296,
      "shaji": 2297,
      "nim": 2298,
      "ladi": 2299,
      "layung": 2300,
      "mut": 2301,
      "wamyi": 2302,
      "Shu": 2303,
      "Shela": 2304,
      "ino": 2305,
      "rawk": 2306,
      "Nah": 2307,
      "Nadab": 2308,
      "Yoela": 2309,
      "shawoi": 2310,
      "zaru": 2311,
      "Gala": 2312,
      "Gaza": 2313,
      "chyasi": 2314,
      "Amnon": 2315,
      "Lazaru": 2316,
      "Sanit": 2317,
      "yuptung": 2318,
      "Melhki": 2319,
      "bot": 2320,
      "Susa": 2321,
      "Gera": 2322,
      "Ahiya": 2323,
      "Golia": 2324,
      "Gomora": 2325,
      "Tama": 2326,
      "Hanania": 2327,
      "Tsanlun": 2328,
      "Ehpesu": 2329,
      "Antioki": 2330,
      "Goliat": 2331,
      "Bo": 2332,
      "Ek": 2333,
      "Yai": 2334,
      "hela": 2335,
      "no": 2336,
      "ndi": 2337,
      "ola": 2338,
      "shum": 2339,
      "mase": 2340,
      "magrau": 2341,
      "magyi": 2342,
      "hkyawn": 2343,
      "lut": 2344,
      "rizi": 2345,
      "Maha": 2346,
      "chyawk": 2347,
      "buk": 2348,
      "tawtap": 2349,
      "Lahkawng": 2350,
      "Lahkisha": 2351,
      "Haz": 2352,
      "tsingman": 2353,
      "Gumrawng": 2354,
      "jahkut": 2355,
      "Seraia": 2356,
      "Lawze": 2357,
      "Hazaela": 2358,
      "Ekron": 2359,
      "Hkau": 2360,
      "Jan": 2361,
      "Kuru": 2362,
      "Obadia": 2363,
      "Tsin": 2364,
      "ama": 2365,
      "ali": 2366,
      "ahkyen": 2367,
      "go": 2368,
      "kyin": 2369,
      "min": 2370,
      "nhka": 2371,
      "ndung": 2372,
      "nep": 2373,
      "nhpye": 2374,
      "awam": 2375,
      "marawng": 2376,
      "shakang": 2377,
      "shazim": 2378,
      "lakang": 2379,
      "mura": 2380,
      "dachyawk": 2381,
      "nnang": 2382,
      "unuk": 2383,
      "deza": 2384,
      "lawai": 2385,
      "tamia": 2386,
      "nuk": 2387,
      "Yeze": 2388,
      "sumwum": 2389,
      "shingma": 2390,
      "gumhpan": 2391,
      "kashak": 2392,
      "Shahpan": 2393,
      "kagam": 2394,
      "Naman": 2395,
      "dawnghkawn": 2396,
      "chyap": 2397,
      "chyangai": 2398,
      "ginlawng": 2399,
      "zedek": 2400,
      "kashuk": 2401,
      "dod": 2402,
      "Hkalup": 2403,
      "Medi": 2404,
      "hkringhtawng": 2405,
      "panep": 2406,
      "kabring": 2407,
      "Kehta": 2408,
      "Gumra": 2409,
      "Gumhpraw": 2410,
      "Ashdod": 2411,
      "Mahkira": 2412,
      "Batsheba": 2413,
      "Hadadeza": 2414,
      "Yezebela": 2415,
      "),": 2416,
      "Aga": 2417,
      "Amu": 2418,
      "Ahta": 2419,
      "Ihta": 2420,
      "Lak": 2421,
      "agalaw": 2422,
      "apyaw": 2423,
      "ahpum": 2424,
      "agung": 2425,
      "nyu": 2426,
      "sopo": 2427,
      "ushat": 2428,
      "ngsi": 2429,
      "shawt": 2430,
      "hpet": 2431,
      "lahpang": 2432,
      "hkak": 2433,
      "lailen": 2434,
      "dinghkren": 2435,
      "pahkam": 2436,
      "gumlawt": 2437,
      "Yabe": 2438,
      "Nabala": 2439,
      "brak": 2440,
      "htingpa": 2441,
      "Hez": 2442,
      "Hanan": 2443,
      "Hagara": 2444,
      "Hagi": 2445,
      "Mesopo": 2446,
      "Ahimelek": 2447,
      "hkinghku": 2448,
      "Zoara": 2449,
      "Haran": 2450,
      "Uziela": 2451,
      "Ihtama": 2452,
      "nyui": 2453,
      "Yabesha": 2454,
      "Mesopotamia": 2455,
      "22": 2456,
      "Ad": 2457,
      "Ari": 2458,
      "Dum": 2459,
      "Eg": 2460,
      "Htaw": 2461,
      "Nbung": 2462,
      "Nik": 2463,
      "Zim": 2464,
      "achye": 2465,
      "byen": 2466,
      "grum": 2467,
      "mya": 2468,
      "nshung": 2469,
      "pye": 2470,
      "tun": 2471,
      "utang": 2472,
      "madum": 2473,
      "masen": 2474,
      "htru": 2475,
      "hpim": 2476,
      "shalen": 2477,
      "shahprang": 2478,
      "kanga": 2479,
      "kadaw": 2480,
      "kanam": 2481,
      "lahkam": 2482,
      "ngarai": 2483,
      "rak": 2484,
      "sare": 2485,
      "dak": 2486,
      "lawban": 2487,
      "Mam": 2488,
      "Masu": 2489,
      "Malhki": 2490,
      "kawt": 2491,
      "tia": 2492,
      "bad": 2493,
      "Shim": 2494,
      "tuk": 2495,
      "sumtsaw": 2496,
      "shep": 2497,
      "namsaw": 2498,
      "Yohanan": 2499,
      "hab": 2500,
      "htingrat": 2501,
      "htinggrum": 2502,
      "Sumwi": 2503,
      "chyahtum": 2504,
      "anoi": 2505,
      "Sat": 2506,
      "hkainu": 2507,
      "lagawn": 2508,
      "Mehpi": 2509,
      "kunghpan": 2510,
      "Mik": 2511,
      "gawkngu": 2512,
      "arut": 2513,
      "Kesare": 2514,
      "Ahihto": 2515,
      "Kisha": 2516,
      "gunglau": 2517,
      "shaprai": 2518,
      "Melhkizedek": 2519,
      "Hazora": 2520,
      "minla": 2521,
      "Mehpiboshet": 2522,
      "Ahihtohpela": 2523,
      "200": 2524,
      "400": 2525,
      "600": 2526,
      "Aro": 2527,
      "Ahkisha": 2528,
      "Do": 2529,
      "Hku": 2530,
      "Nga": 2531,
      "Praw": 2532,
      "ading": 2533,
      "ahpri": 2534,
      "ashep": 2535,
      "oni": 2536,
      "upra": 2537,
      "zara": 2538,
      "malan": 2539,
      "mahkoi": 2540,
      "htot": 2541,
      "shachyi": 2542,
      "shashawn": 2543,
      "kaput": 2544,
      "lag": 2545,
      "lashaw": 2546,
      "dagu": 2547,
      "jasum": 2548,
      "jahkat": 2549,
      "Sham": 2550,
      "rib": 2551,
      "aming": 2552,
      "suru": 2553,
      "Yeshua": 2554,
      "shingdi": 2555,
      "dinghkrawn": 2556,
      "sharat": 2557,
      "gumba": 2558,
      "bawp": 2559,
      "janghkam": 2560,
      "Shabrang": 2561,
      "Hkung": 2562,
      "lungseng": 2563,
      "tsawp": 2564,
      "akroi": 2565,
      "chyingtung": 2566,
      "galup": 2567,
      "jahpye": 2568,
      "Herm": 2569,
      "Hashab": 2570,
      "Hadad": 2571,
      "Dat": 2572,
      "Ahasuru": 2573,
      "Gehazi": 2574,
      "Eliaba": 2575,
      "Abigala": 2576,
      "Peka": 2577,
      "Horon": 2578,
      "Anahtot": 2579,
      "Hpestu": 2580,
      "Yehoasha": 2581,
      "Nahora": 2582,
      "Ahtalia": 2583,
      "Hezron": 2584,
      "Hermon": 2585,
      "27": 2586,
      "?”": 2587,
      "Baw": 2588,
      "Bela": 2589,
      "Eden": 2590,
      "Hamu": 2591,
      "Hura": 2592,
      "Nlung": 2593,
      "Omri": 2594,
      "Rim": 2595,
      "Ste": 2596,
      "San": 2597,
      "ag": 2598,
      "ayang": 2599,
      "bet": 2600,
      "era": 2601,
      "hia": 2602,
      "po": 2603,
      "rawm": 2604,
      "malawk": 2605,
      "shabung": 2606,
      "garet": 2607,
      "hkyin": 2608,
      "hkyam": 2609,
      "hkia": 2610,
      "mungdu": 2611,
      "jahkaw": 2612,
      "jahtam": 2613,
      "rip": 2614,
      "riela": 2615,
      "Mayam": 2616,
      "Yehtru": 2617,
      "shingra": 2618,
      "hkumpup": 2619,
      "numshaw": 2620,
      "Nabot": 2621,
      "kamoi": 2622,
      "shakrwi": 2623,
      "Yok": 2624,
      "Yopa": 2625,
      "kanung": 2626,
      "akraw": 2627,
      "gambum": 2628,
      "jahpyak": 2629,
      "Elieza": 2630,
      "Hana": 2631,
      "maudung": 2632,
      "Bel": 2633,
      "Rehpim": 2634,
      "Geba": 2635,
      "Titu": 2636,
      "Tiza": 2637,
      "Keni": 2638,
      "Kede": 2639,
      "Asahela": 2640,
      "Sena": 2641,
      "Mihkala": 2642,
      "Nazari": 2643,
      "Zeruia": 2644,
      "Stehpan": 2645,
      "84": 2646,
      "As": 2647,
      "Arai": 2648,
      "Iz": 2649,
      "Ni": 2650,
      "No": 2651,
      "Ntsa": 2652,
      "Yoi": 2653,
      "apra": 2654,
      "achyaw": 2655,
      "kra": 2656,
      "uhpung": 2657,
      "mangai": 2658,
      "mayen": 2659,
      "shatsap": 2660,
      "shayawm": 2661,
      "shalut": 2662,
      "hpera": 2663,
      "lahkru": 2664,
      "latup": 2665,
      "lasama": 2666,
      "gamang": 2667,
      "galeng": 2668,
      "garen": 2669,
      "gayut": 2670,
      "hkot": 2671,
      "shib": 2672,
      "duke": 2673,
      "jahtaw": 2674,
      "Kape": 2675,
      "Mag": 2676,
      "red": 2677,
      "kawk": 2678,
      "majawm": 2679,
      "shangwi": 2680,
      "lela": 2681,
      "manai": 2682,
      "chywi": 2683,
      "gumrawt": 2684,
      "Shama": 2685,
      "Shalawt": 2686,
      "namhpun": 2687,
      "kamawng": 2688,
      "kamhtaw": 2689,
      "kumhtaw": 2690,
      "arim": 2691,
      "mawp": 2692,
      "ginhtawng": 2693,
      "Saduke": 2694,
      "Eliakim": 2695,
      "shabya": 2696,
      "shabyawng": 2697,
      "Molek": 2698,
      "Shehpa": 2699,
      "Suhkot": 2700,
      "Ziba": 2701,
      "Aho": 2702,
      "Eliashib": 2703,
      "Yonadab": 2704,
      "Nebuzara": 2705,
      "Ahimaza": 2706,
      "Raba": 2707,
      "Rahab": 2708,
      "nmut": 2709,
      "Mihkaela": 2710,
      "Ashke": 2711,
      "Libna": 2712,
      "Kupru": 2713,
      "Bungli": 2714,
      "Matania": 2715,
      "Yaira": 2716,
      "Niko": 2717,
      "Zimri": 2718,
      "Aroera": 2719,
      "hkyamsa": 2720,
      "Kaperna": 2721,
      "Nebuzaradan": 2722,
      "100": 2723,
      "42": 2724,
      "Al": 2725,
      "Aw": 2726,
      "Aku": 2727,
      "Ataw": 2728,
      "Amaria": 2729,
      "Gawk": 2730,
      "Ngam": 2731,
      "Pu": 2732,
      "Pyengdin": 2733,
      "Sak": 2734,
      "Zai": 2735,
      "aloi": 2736,
      "agru": 2737,
      "alap": 2738,
      "lin": 2739,
      "nse": 2740,
      "hton": 2741,
      "shakau": 2742,
      "shajawn": 2743,
      "katut": 2744,
      "kahkyin": 2745,
      "lasi": 2746,
      "wat": 2747,
      "chyan": 2748,
      "Marang": 2749,
      "nhtum": 2750,
      "ningli": 2751,
      "ningshawng": 2752,
      "dingna": 2753,
      "dingbai": 2754,
      "palin": 2755,
      "langda": 2756,
      "Yarim": 2757,
      "bunghkaw": 2758,
      "lungrawk": 2759,
      "Bani": 2760,
      "Hpan": 2761,
      "Hparet": 2762,
      "htia": 2763,
      "tawa": 2764,
      "Gade": 2765,
      "chyahkyawn": 2766,
      "ginjang": 2767,
      "Amram": 2768,
      "Heman": 2769,
      "Lata": 2770,
      "Meshe": 2771,
      "jingyu": 2772,
      "Mungga": 2773,
      "Nebat": 2774,
      "Goshen": 2775,
      "hud": 2776,
      "kaduk": 2777,
      "Barak": 2778,
      "Tobia": 2779,
      "hkerib": 2780,
      "Marhta": 2781,
      "nhkrem": 2782,
      "Malhkiya": 2783,
      "Hashabia": 2784,
      "Senahkerib": 2785,
      "Izhara": 2786,
      "Sakse": 2787,
      "80": 2788,
      "Anani": 2789,
      "En": 2790,
      "Era": 2791,
      "Ebera": 2792,
      "Ht": 2793,
      "Kawng": 2794,
      "Kre": 2795,
      "Lo": 2796,
      "Sarai": 2797,
      "Spai": 2798,
      "Zik": 2799,
      "asung": 2800,
      "asam": 2801,
      "amaja": 2802,
      "bawm": 2803,
      "gring": 2804,
      "nwai": 2805,
      "sawt": 2806,
      "sho": 2807,
      "mahtaw": 2808,
      "shanga": 2809,
      "shangam": 2810,
      "kadang": 2811,
      "kanan": 2812,
      "kahtum": 2813,
      "kashaw": 2814,
      "kabra": 2815,
      "lahpan": 2816,
      "galan": 2817,
      "hkrep": 2818,
      "hkab": 2819,
      "hkaraw": 2820,
      "jasi": 2821,
      "jahkum": 2822,
      "jahtoi": 2823,
      "ruyak": 2824,
      "taza": 2825,
      "mit": 2826,
      "Yehpu": 2827,
      "diela": 2828,
      "sumdoi": 2829,
      "laia": 2830,
      "shingteng": 2831,
      "shingdep": 2832,
      "dingsi": 2833,
      "Yup": 2834,
      "namtau": 2835,
      "Naha": 2836,
      "hpungtun": 2837,
      "singgawng": 2838,
      "bran": 2839,
      "mawa": 2840,
      "Galoi": 2841,
      "Heti": 2842,
      "Meri": 2843,
      "Behtani": 2844,
      "Beria": 2845,
      "hkauling": 2846,
      "Daru": 2847,
      "Nebo": 2848,
      "zilai": 2849,
      "remot": 2850,
      "Perizi": 2851,
      "Dingda": 2852,
      "Elishama": 2853,
      "Amasa": 2854,
      "Kila": 2855,
      "Artaza": 2856,
      "And": 2857,
      "Ishboshet": 2858,
      "hpira": 2859,
      "Barazilai": 2860,
      "shupsheng": 2861,
      "Eglon": 2862,
      "Rimon": 2863,
      "Kreti": 2864,
      "Spain": 2865,
      "Ziklag": 2866,
      "Yehpuna": 2867,
      "Artazazi": 2868,
      "!,’”": 2869,
      "300": 2870,
      "Arau": 2871,
      "Anak": 2872,
      "Ahkaia": 2873,
      "Agri": 2874,
      "Bila": 2875,
      "Enuk": 2876,
      "Ehud": 2877,
      "Hino": 2878,
      "Jing": 2879,
      "Nli": 2880,
      "Tsa": 2881,
      "ati": 2882,
      "ateng": 2883,
      "azin": 2884,
      "atuk": 2885,
      "drak": 2886,
      "ge": 2887,
      "gran": 2888,
      "mon": 2889,
      "nge": 2890,
      "mahk": 2891,
      "mahpyi": 2892,
      "mahtan": 2893,
      "malawng": 2894,
      "marim": 2895,
      "kats": 2896,
      "kasang": 2897,
      "kapa": 2898,
      "kahkrang": 2899,
      "daidaw": 2900,
      "yau": 2901,
      "shit": 2902,
      "matep": 2903,
      "jasim": 2904,
      "tse": 2905,
      "Shang": 2906,
      "riam": 2907,
      "hpaza": 2908,
      "Mani": 2909,
      "Matu": 2910,
      "Mano": 2911,
      "tar": 2912,
      "tarot": 2913,
      "bara": 2914,
      "lemia": 2915,
      "liba": 2916,
      "rawp": 2917,
      "Yedaia": 2918,
      "angdung": 2919,
      "ningpawt": 2920,
      "sumraw": 2921,
      "gumhpawn": 2922,
      "gumbawm": 2923,
      "shea": 2924,
      "mailak": 2925,
      "Share": 2926,
      "htumbyen": 2927,
      "Yazera": 2928,
      "htanela": 2929,
      "Hkye": 2930,
      "Hkrung": 2931,
      "shannga": 2932,
      "htinglu": 2933,
      "apang": 2934,
      "ginhtim": 2935,
      "Sadi": 2936,
      "Yehiela": 2937,
      "Hpilik": 2938,
      "Miriam": 2939,
      "Nehtanela": 2940,
      "Rehkab": 2941,
      "Gezera": 2942,
      "Abihu": 2943,
      "Ehprat": 2944,
      "Zal": 2945,
      "Hoshea": 2946,
      "Goga": 2947,
      "nlim": 2948,
      "Pashura": 2949,
      "Hpyenla": 2950,
      "Htawma": 2951,
      "Ashkelon": 2952,
      "shangap": 2953,
      "Andre": 2954,
      "Arauna": 2955,
      "Agripa": 2956,
      "Hinom": 2957,
      "Jinghku": 2958,
      "katsut": 2959,
      "Ada": 2960,
      "Ajan": 2961,
      "Apo": 2962,
      "Ezera": 2963,
      "Grau": 2964,
      "Hti": 2965,
      "Htu": 2966,
      "Htim": 2967,
      "Nim": 2968,
      "Oho": 2969,
      "Zu": 2970,
      "achyen": 2971,
      "bla": 2972,
      "byawng": 2973,
      "dron": 2974,
      "kawn": 2975,
      "koa": 2976,
      "nsan": 2977,
      "ndut": 2978,
      "njut": 2979,
      "uela": 2980,
      "zela": 2981,
      "mashi": 2982,
      "madit": 2983,
      "htwi": 2984,
      "shali": 2985,
      "sharim": 2986,
      "shamak": 2987,
      "shakawp": 2988,
      "kahtan": 2989,
      "kahkri": 2990,
      "ladat": 2991,
      "lachyawp": 2992,
      "gali": 2993,
      "sap": 2994,
      "sabet": 2995,
      "duhtun": 2996,
      "Kaya": 2997,
      "Kahtawng": 2998,
      "tsat": 2999,
      "Yeduhtun": 3000,
      "manen": 3001,
      "sumbaw": 3002,
      "shagup": 3003,
      "Yahpet": 3004,
      "Bana": 3005,
      "zabad": 3006,
      "akyang": 3007,
      "had": 3008,
      "Hpri": 3009,
      "bedi": 3010,
      "shamawng": 3011,
      "chyahkyi": 3012,
      "ginsup": 3013,
      "Elisabet": 3014,
      "zebu": 3015,
      "Zehpa": 3016,
      "Zebedi": 3017,
      "Bere": 3018,
      "Shelo": 3019,
      "shaia": 3020,
      "lot": 3021,
      "Zihkri": 3022,
      "melek": 3023,
      "Abiram": 3024,
      "Yehoza": 3025,
      "Delila": 3026,
      "Ehpron": 3027,
      "Kedara": 3028,
      "Zahkaria": 3029,
      "Kidron": 3030,
      "Tekoa": 3031,
      "Korne": 3032,
      "Huram": 3033,
      "Hushai": 3034,
      "Libya": 3035,
      "Baraba": 3036,
      "Elakana": 3037,
      "shoihpa": 3038,
      "kongsi": 3039,
      "Elkana": 3040,
      "Aminadab": 3041,
      "Yoasha": 3042,
      "Gerara": 3043,
      "Mahanim": 3044,
      "Agag": 3045,
      "Dumsu": 3046,
      "agre": 3047,
      "Magdala": 3048,
      "Awng": 3049,
      "Korneli": 3050,
      "25": 3051,
      "32": 3052,
      "36": 3053,
      "Abe": 3054,
      "Adara": 3055,
      "Han": 3056,
      "Hora": 3057,
      "Harim": 3058,
      "Ib": 3059,
      "Ot": 3060,
      "Para": 3061,
      "Sawt": 3062,
      "Tu": 3063,
      "Ting": 3064,
      "ayun": 3065,
      "atang": 3066,
      "bam": 3067,
      "ek": 3068,
      "hum": 3069,
      "nhpan": 3070,
      "maum": 3071,
      "hprut": 3072,
      "shareng": 3073,
      "shalat": 3074,
      "kahp": 3075,
      "katsa": 3076,
      "kakang": 3077,
      "karut": 3078,
      "nila": 3079,
      "ngan": 3080,
      "sahti": 3081,
      "salum": 3082,
      "muela": 3083,
      "mungchying": 3084,
      "wahpang": 3085,
      "hkaleng": 3086,
      "hkania": 3087,
      "jawt": 3088,
      "Mahkawn": 3089,
      "balat": 3090,
      "hkrau": 3091,
      "shangoi": 3092,
      "ninghtan": 3093,
      "ninggam": 3094,
      "hkawp": 3095,
      "tub": 3096,
      "dingren": 3097,
      "Iskarut": 3098,
      "gumpye": 3099,
      "tingsan": 3100,
      "Shat": 3101,
      "Shadrak": 3102,
      "numli": 3103,
      "nammak": 3104,
      "namchyim": 3105,
      "kamhpa": 3106,
      "lunghtawn": 3107,
      "jaugawng": 3108,
      "enai": 3109,
      "shakung": 3110,
      "shakrin": 3111,
      "singwum": 3112,
      "gyip": 3113,
      "mawet": 3114,
      "htinglet": 3115,
      "Galu": 3116,
      "makai": 3117,
      "chyahkring": 3118,
      "Amot": 3119,
      "Lagawn": 3120,
      "bandung": 3121,
      "Meshak": 3122,
      "Megi": 3123,
      "shabrawng": 3124,
      "Behtu": 3125,
      "Beora": 3126,
      "Shehkania": 3127,
      "Dahtan": 3128,
      "Laisha": 3129,
      "magwi": 3130,
      "Zihpa": 3131,
      "Abinadab": 3132,
      "Dedan": 3133,
      "Debi": 3134,
      "shagyeng": 3135,
      "Kena": 3136,
      "Ahitub": 3137,
      "dnego": 3138,
      "Tabora": 3139,
      "Jahtum": 3140,
      "Arabi": 3141,
      "Dibon": 3142,
      "Dusat": 3143,
      "Zoba": 3144,
      "Marku": 3145,
      "Mamre": 3146,
      "Mikmasha": 3147,
      "Hkusha": 3148,
      "Hkungran": 3149,
      "Kedesha": 3150,
      "Shehpatia": 3151,
      "Meriba": 3152,
      "Apolo": 3153,
      "Zehpania": 3154,
      "Abednego": 3155,
      "maumwi": 3156,
      "Megido": 3157,
      "Debira": 3158,
      "!’": 3159,
      "14": 3160,
      "150": 3161,
      "37": 3162,
      "Ahpe": 3163,
      "Adu": 3164,
      "Ale": 3165,
      "Ahkan": 3166,
      "Grai": 3167,
      "Hten": 3168,
      "Htung": 3169,
      "Ido": 3170,
      "Ime": 3171,
      "Ju": 3172,
      "Jaw": 3173,
      "Kili": 3174,
      "Lung": 3175,
      "Sun": 3176,
      "Sang": 3177,
      "Wang": 3178,
      "Yawn": 3179,
      "Zin": 3180,
      "adu": 3181,
      "anang": 3182,
      "ayaw": 3183,
      "ahpu": 3184,
      "amam": 3185,
      "akawk": 3186,
      "dru": 3187,
      "hawm": 3188,
      "kre": 3189,
      "kyip": 3190,
      "lhka": 3191,
      "mye": 3192,
      "nhta": 3193,
      "nhkyi": 3194,
      "ok": 3195,
      "pang": 3196,
      "rma": 3197,
      "ula": 3198,
      "xan": 3199,
      "yum": 3200,
      "ngawn": 3201,
      "shti": 3202,
      "maku": 3203,
      "hproi": 3204,
      "shayaw": 3205,
      "shadawng": 3206,
      "kapru": 3207,
      "kahtep": 3208,
      "htera": 3209,
      "lasa": 3210,
      "lahkum": 3211,
      "lahti": 3212,
      "laban": 3213,
      "gawut": 3214,
      "gare": 3215,
      "galwi": 3216,
      "yalon": 3217,
      "unem": 3218,
      "hkalawk": 3219,
      "jahta": 3220,
      "yupra": 3221,
      "Shangun": 3222,
      "Shunem": 3223,
      "Matsi": 3224,
      "Matse": 3225,
      "reb": 3226,
      "lesa": 3227,
      "Yeiela": 3228,
      "ningngai": 3229,
      "ningtau": 3230,
      "teshaza": 3231,
      "shingnan": 3232,
      "shingban": 3233,
      "shinggang": 3234,
      "gumring": 3235,
      "danghta": 3236,
      "dangbat": 3237,
      "dawraw": 3238,
      "gunhpai": 3239,
      "htumrin": 3240,
      "kaming": 3241,
      "shakya": 3242,
      "shakre": 3243,
      "Yozabad": 3244,
      "lakhtak": 3245,
      "zalela": 3246,
      "Hprawng": 3247,
      "Sumshi": 3248,
      "jahpai": 3249,
      "byet": 3250,
      "Hebera": 3251,
      "Hehpera": 3252,
      "jinu": 3253,
      "Eliela": 3254,
      "Hkar": 3255,
      "Washti": 3256,
      "Mig": 3257,
      "Milhka": 3258,
      "Bezalela": 3259,
      "Shere": 3260,
      "Shebna": 3261,
      "Shelemia": 3262,
      "gumrat": 3263,
      "Nera": 3264,
      "Nehe": 3265,
      "Aiyalon": 3266,
      "Peora": 3267,
      "Debora": 3268,
      "Dinghta": 3269,
      "Dinghku": 3270,
      "saloni": 3271,
      "Kira": 3272,
      "Yeroham": 3273,
      "gungsi": 3274,
      "Lamek": 3275,
      "Dip": 3276,
      ".’”": 3277,
      "Azu": 3278,
      "Htesaloni": 3279,
      "Yoahaza": 3280,
      "Bil": 3281,
      "Yehoahaza": 3282,
      "Mushi": 3283,
      "168": 3284,
      "nhkyau": 3285,
      "rnea": 3286,
      "inoam": 3287,
      "Hkauna": 3288,
      "Hamura": 3289,
      "Sanbalat": 3290,
      "Belteshaza": 3291,
      "Berehkia": 3292,
      "Shelomit": 3293,
      "Hanun": 3294,
      "Otniela": 3295,
      "Adulam": 3296,
      "Alexan": 3297,
      "Imera": 3298,
      "Kiliki": 3299,
      "Sanghpaw": 3300,
      "yumga": 3301,
      "Alexandru": 3302,
      "17": 3303,
      "Aja": 3304,
      "Ahkrung": 3305,
      "Adaia": 3306,
      "Hpyi": 3307,
      "Ira": 3308,
      "Kori": 3309,
      "Lup": 3310,
      "Nmaw": 3311,
      "Nsen": 3312,
      "Pru": 3313,
      "Sing": 3314,
      "Tro": 3315,
      "Up": 3316,
      "Wu": 3317,
      "aza": 3318,
      "agam": 3319,
      "ahkyi": 3320,
      "bni": 3321,
      "bri": 3322,
      "bim": 3323,
      "dmi": 3324,
      "gon": 3325,
      "glat": 3326,
      "ira": 3327,
      "npan": 3328,
      "nbya": 3329,
      "yoi": 3330,
      "male": 3331,
      "marung": 3332,
      "masit": 3333,
      "majoi": 3334,
      "hpia": 3335,
      "shadi": 3336,
      "shabai": 3337,
      "shanan": 3338,
      "shabyi": 3339,
      "shapawt": 3340,
      "shayawn": 3341,
      "shalwi": 3342,
      "kasu": 3343,
      "kashung": 3344,
      "hteng": 3345,
      "hpelet": 3346,
      "hpehad": 3347,
      "lagum": 3348,
      "lahtan": 3349,
      "lakan": 3350,
      "laram": 3351,
      "labo": 3352,
      "galung": 3353,
      "garep": 3354,
      "hkwi": 3355,
      "muna": 3356,
      "dama": 3357,
      "hkadun": 3358,
      "mata": 3359,
      "jahti": 3360,
      "jashai": 3361,
      "jahkyet": 3362,
      "Shet": 3363,
      "dera": 3364,
      "deba": 3365,
      "Mak": 3366,
      "Manam": 3367,
      "Magri": 3368,
      "inu": 3369,
      "hkura": 3370,
      "Yeu": 3371,
      "Yeram": 3372,
      "sek": 3373,
      "ningren": 3374,
      "hkawt": 3375,
      "sumdu": 3376,
      "pagawn": 3377,
      "dawt": 3378,
      "Shagu": 3379,
      "lamum": 3380,
      "tengman": 3381,
      "namlap": 3382,
      "namhtun": 3383,
      "Nashon": 3384,
      "hpungla": 3385,
      "Hkring": 3386,
      "Bar": 3387,
      "Barnea": 3388,
      "shakyang": 3389,
      "arang": 3390,
      "pua": 3391,
      "Shingrai": 3392,
      "makyit": 3393,
      "makret": 3394,
      "kapaw": 3395,
      "Lagaw": 3396,
      "Lapu": 3397,
      "Lachyit": 3398,
      "dora": 3399,
      "Zeba": 3400,
      "Zelo": 3401,
      "Zebadia": 3402,
      "simsa": 3403,
      "krip": 3404,
      "lanyan": 3405,
      "Rezin": 3406,
      "Abieza": 3407,
      "Yehohanan": 3408,
      "Maresha": 3409,
      "Tiglat": 3410,
      "shatmai": 3411,
      "Zahkura": 3412,
      "Horma": 3413,
      "Pis": 3414,
      "Pilesa": 3415,
      "hkinbawng": 3416,
      "Arhpaza": 3417,
      "Talam": 3418,
      "Pahtau": 3419,
      "hkrihkraw": 3420,
      "Arab": 3421,
      "hkyepdin": 3422,
      "Azmawet": 3423,
      "Hkebara": 3424,
      "Gersho": 3425,
      "Amihu": 3426,
      "Htera": 3427,
      "Htama": 3428,
      "Htani": 3429,
      "Ribla": 3430,
      "kyindut": 3431,
      "Bawsang": 3432,
      "Noba": 3433,
      "lasik": 3434,
      "Meshek": 3435,
      "kabrat": 3436,
      "Tsasam": 3437,
      "atik": 3438,
      "Zalmuna": 3439,
      "Htimna": 3440,
      "Kayahpa": 3441,
      "Paran": 3442,
      "kahpret": 3443,
      "Behtuela": 3444,
      "Ahpek": 3445,
      "myek": 3446,
      "Nehemia": 3447,
      "Korinhtu": 3448,
      "Wudang": 3449,
      "Yeramela": 3450,
      "Zelohpehad": 3451,
      "Gershom": 3452,
      "!,": 3453,
      "34": 3454,
      "40": 3455,
      "52": 3456,
      "62": 3457,
      "70": 3458,
      "90": 3459,
      "Aba": 3460,
      "Ashan": 3461,
      "Atsin": 3462,
      "Aram": 3463,
      "Aze": 3464,
      "Asaia": 3465,
      "Ed": 3466,
      "Elon": 3467,
      "Elat": 3468,
      "Ebala": 3469,
      "Ebed": 3470,
      "Gaw": 3471,
      "Hak": 3472,
      "Itai": 3473,
      "Jut": 3474,
      "Kru": 3475,
      "Mura": 3476,
      "Nhtu": 3477,
      "Ohpra": 3478,
      "Urim": 3479,
      "Zab": 3480,
      "ayi": 3481,
      "apru": 3482,
      "apu": 3483,
      "aroi": 3484,
      "agrung": 3485,
      "grawm": 3486,
      "ntsang": 3487,
      "osha": 3488,
      "pin": 3489,
      "preng": 3490,
      "rga": 3491,
      "uli": 3492,
      "ulawng": 3493,
      "wawn": 3494,
      "zura": 3495,
      "manna": 3496,
      "marun": 3497,
      "masing": 3498,
      "nahtan": 3499,
      "hpyu": 3500,
      "shayawng": 3501,
      "shazai": 3502,
      "shachyam": 3503,
      "kayung": 3504,
      "kahpawk": 3505,
      "lahpyen": 3506,
      "labu": 3507,
      "gasit": 3508,
      "gayat": 3509,
      "dau": 3510,
      "jasat": 3511,
      "Kadmi": 3512,
      "myiman": 3513,
      "chyawng": 3514,
      "lawn": 3515,
      "Mang": 3516,
      "Mati": 3517,
      "Machyi": 3518,
      "Maling": 3519,
      "Matsat": 3520,
      "rup": 3521,
      "rea": 3522,
      "reni": 3523,
      "lamawm": 3524,
      "mareng": 3525,
      "nuela": 3526,
      "nhtung": 3527,
      "Shishak": 3528,
      "Yeremot": 3529,
      "Yeshaia": 3530,
      "ningrum": 3531,
      "tek": 3532,
      "tem": 3533,
      "sumsai": 3534,
      "sumtu": 3535,
      "gumgai": 3536,
      "gumwai": 3537,
      "mailung": 3538,
      "Sharon": 3539,
      "Shaula": 3540,
      "Yahkin": 3541,
      "namlaw": 3542,
      "bunglat": 3543,
      "Nahat": 3544,
      "Hkem": 3545,
      "lungbra": 3546,
      "Htingrai": 3547,
      "zan": 3548,
      "hala": 3549,
      "Hpi": 3550,
      "Hponi": 3551,
      "htinggram": 3552,
      "Sumtsan": 3553,
      "Gasat": 3554,
      "manut": 3555,
      "Sib": 3556,
      "Leng": 3557,
      "Here": 3558,
      "hpawa": 3559,
      "Elihpa": 3560,
      "Abdon": 3561,
      "htania": 3562,
      "Mena": 3563,
      "Htumim": 3564,
      "hkringmang": 3565,
      "kungkyang": 3566,
      "lapyin": 3567,
      "Misha": 3568,
      "Bezebu": 3569,
      "Shema": 3570,
      "Nehtania": 3571,
      "Reuela": 3572,
      "Rehum": 3573,
      "shajat": 3574,
      "Pedaia": 3575,
      "shagrawt": 3576,
      "shagrawm": 3577,
      "htawra": 3578,
      "uki": 3579,
      "Zare": 3580,
      "Hori": 3581,
      "Hosea": 3582,
      "Kishon": 3583,
      "Tar": 3584,
      "Tapua": 3585,
      "Jahten": 3586,
      "Kongsi": 3587,
      "Herodia": 3588,
      "Arami": 3589,
      "Sohko": 3590,
      "Ashtarot": 3591,
      "Rehob": 3592,
      "Tohpet": 3593,
      "shoirang": 3594,
      "shoichyum": 3595,
      "Timna": 3596,
      "Langchyi": 3597,
      "Makeda": 3598,
      "Hperizi": 3599,
      "Kureni": 3600,
      "Big": 3601,
      "Akyu": 3602,
      "Shobala": 3603,
      "Bozra": 3604,
      "aprap": 3605,
      "Akub": 3606,
      "Nahasha": 3607,
      "Yehozadak": 3608,
      "Tingnyang": 3609,
      "kapruk": 3610,
      "Sherebia": 3611,
      "azat": 3612,
      "Pisga": 3613,
      "aprup": 3614,
      "pinra": 3615,
      "Kadmiela": 3616,
      "Hkemosha": 3617,
      "Bezebula": 3618,
      "120": 3619,
      "700": 3620,
      "?,’”": 3621,
      "Akajawng": 3622,
      "Akasi": 3623,
      "Binu": 3624,
      "Dara": 3625,
      "Dap": 3626,
      "Dora": 3627,
      "Ez": 3628,
      "Ehtan": 3629,
      "Haw": 3630,
      "II": 3631,
      "Im": 3632,
      "Mem": 3633,
      "Nai": 3634,
      "Nsin": 3635,
      "Nmut": 3636,
      "Ohpira": 3637,
      "Oreb": 3638,
      "Pris": 3639,
      "Sai": 3640,
      "Tana": 3641,
      "Uri": 3642,
      "Wora": 3643,
      "ashi": 3644,
      "ayan": 3645,
      "alak": 3646,
      "ahti": 3647,
      "asep": 3648,
      "esa": 3649,
      "gla": 3650,
      "jup": 3651,
      "kela": 3652,
      "nawm": 3653,
      "ntaw": 3654,
      "nrim": 3655,
      "ndam": 3656,
      "ntawng": 3657,
      "nsung": 3658,
      "nhpat": 3659,
      "oli": 3660,
      "oenai": 3661,
      "st": 3662,
      "swi": 3663,
      "tbaw": 3664,
      "uni": 3665,
      "wawng": 3666,
      "wawm": 3667,
      "awan": 3668,
      "mahti": 3669,
      "masaw": 3670,
      "mahkyi": 3671,
      "majai": 3672,
      "naga": 3673,
      "shadai": 3674,
      "shaya": 3675,
      "shalum": 3676,
      "kamu": 3677,
      "kalaw": 3678,
      "kashawt": 3679,
      "laba": 3680,
      "lahpawk": 3681,
      "lamyin": 3682,
      "ngachyu": 3683,
      "gad": 3684,
      "hkyaw": 3685,
      "salit": 3686,
      "raiot": 3687,
      "dahta": 3688,
      "hkali": 3689,
      "matsaw": 3690,
      "jahkra": 3691,
      "jahting": 3692,
      "jahkyeng": 3693,
      "jahtuk": 3694,
      "jarawp": 3695,
      "Kata": 3696,
      "Kashu": 3697,
      "Kashun": 3698,
      "tsen": 3699,
      "Shut": 3700,
      "Shura": 3701,
      "hpam": 3702,
      "hparim": 3703,
      "hpajet": 3704,
      "dem": 3705,
      "Mahte": 3706,
      "Masa": 3707,
      "Manna": 3708,
      "Manu": 3709,
      "Makam": 3710,
      "taleng": 3711,
      "batan": 3712,
      "Yerim": 3713,
      "ningtsa": 3714,
      "shingnawm": 3715,
      "dingnum": 3716,
      "dinglun": 3717,
      "pale": 3718,
      "pahke": 3719,
      "gumchya": 3720,
      "dangbau": 3721,
      "dawia": 3722,
      "dumbri": 3723,
      "Shada": 3724,
      "Yaela": 3725,
      "Yabo": 3726,
      "Yabin": 3727,
      "Yahat": 3728,
      "Yahaza": 3729,
      "numhkaw": 3730,
      "numshe": 3731,
      "bungsha": 3732,
      "Hkrang": 3733,
      "Bahu": 3734,
      "Hpelek": 3735,
      "arib": 3736,
      "htingnai": 3737,
      "shamwi": 3738,
      "Gamale": 3739,
      "Chyaru": 3740,
      "Chyahkyawn": 3741,
      "pena": 3742,
      "chyahkrung": 3743,
      "chyaren": 3744,
      "gupchyawp": 3745,
      "ginlam": 3746,
      "ginshum": 3747,
      "Amo": 3748,
      "tamya": 3749,
      "jahpaw": 3750,
      "jahprawng": 3751,
      "Hena": 3752,
      "Hele": 3753,
      "Ladok": 3754,
      "hpaia": 3755,
      "Elihu": 3756,
      "Elihpelet": 3757,
      "Elioenai": 3758,
      "Har": 3759,
      "Haze": 3760,
      "Haro": 3761,
      "ganghkau": 3762,
      "Lewihtan": 3763,
      "Meraiot": 3764,
      "Gilabo": 3765,
      "Girga": 3766,
      "Zeboi": 3767,
      "kungla": 3768,
      "lapyen": 3769,
      "Betsai": 3770,
      "Berot": 3771,
      "Dagon": 3772,
      "Nehto": 3773,
      "zio": 3774,
      "Geshura": 3775,
      "Ahinoam": 3776,
      "Abihala": 3777,
      "Penuela": 3778,
      "Delaia": 3779,
      "Zabad": 3780,
      "Hogla": 3781,
      "Hodawia": 3782,
      "Ahikam": 3783,
      "Arba": 3784,
      "kyek": 3785,
      "Tema": 3786,
      "pungkum": 3787,
      "Luda": 3788,
      "Luza": 3789,
      "Lust": 3790,
      "Ashpena": 3791,
      "ngaugran": 3792,
      "Eshtaola": 3793,
      "Dina": 3794,
      "Zoan": 3795,
      "Hpilipi": 3796,
      "Libni": 3797,
      "Shebania": 3798,
      "Elnahtan": 3799,
      "anin": 3800,
      "Kiriahtim": 3801,
      "Hteman": 3802,
      "abawk": 3803,
      "lalela": 3804,
      "haziela": 3805,
      "Bunghku": 3806,
      "Galati": 3807,
      "Mahalalela": 3808,
      "pyek": 3809,
      "Shamai": 3810,
      "Belshaza": 3811,
      "Astar": 3812,
      "Yoiada": 3813,
      "Akula": 3814,
      "Purim": 3815,
      "Htawm": 3816,
      "Anakim": 3817,
      "mahkyu": 3818,
      "libama": 3819,
      "Hkarmi": 3820,
      "Singkaw": 3821,
      "Azeka": 3822,
      "Edri": 3823,
      "Zabdi": 3824,
      "Matihtia": 3825,
      "Sibma": 3826,
      "Akasia": 3827,
      "Binui": 3828,
      "Hawila": 3829,
      "Memhpi": 3830,
      "Tanak": 3831,
      "masawp": 3832,
      "mahkyit": 3833,
      "nagahtoi": 3834,
      "kalawp": 3835,
      "hkyawk": 3836,
      "Yabok": 3837,
      "Ladoki": 3838,
      "Gilaboa": 3839,
      "Girgashi": 3840,
      "Zeboim": 3841,
      "Betsaida": 3842,
      "Nehtohpa": 3843,
      "Lustra": 3844,
      "Astarte": 3845,
      "24": 3846,
      "250": 3847,
      "35": 3848,
      "337": 3849,
      "550": 3850,
      "74": 3851,
      "800": 3852,
      "95": 3853,
      "Anna": 3854,
      "Ahten": 3855,
      "Aris": 3856,
      "Amasai": 3857,
      "Ashura": 3858,
      "Enan": 3859,
      "Ewi": 3860,
      "Etam": 3861,
      "Enge": 3862,
      "Ezio": 3863,
      "Gai": 3864,
      "Hkam": 3865,
      "Htau": 3866,
      "Ishi": 3867,
      "Iko": 3868,
      "Kaw": 3869,
      "Kung": 3870,
      "Ndan": 3871,
      "Nnan": 3872,
      "Nyan": 3873,
      "Net": 3874,
      "Onan": 3875,
      "Ono": 3876,
      "Pela": 3877,
      "Rem": 3878,
      "Sung": 3879,
      "Tin": 3880,
      "Tela": 3881,
      "Tab": 3882,
      "ayu": 3883,
      "adan": 3884,
      "ahkrum": 3885,
      "ajin": 3886,
      "asau": 3887,
      "adit": 3888,
      "ahkyeng": 3889,
      "ahkut": 3890,
      "azim": 3891,
      "atsip": 3892,
      "eb": 3893,
      "lhpa": 3894,
      "mot": 3895,
      "nyi": 3896,
      "nnaw": 3897,
      "nbang": 3898,
      "nbun": 3899,
      "ndup": 3900,
      "ohpa": 3901,
      "toi": 3902,
      "tre": 3903,
      "uhka": 3904,
      "udik": 3905,
      "zon": 3906,
      "awen": 3907,
      "mamu": 3908,
      "mahta": 3909,
      "makan": 3910,
      "madawn": 3911,
      "mahpawng": 3912,
      "magrang": 3913,
      "madoi": 3914,
      "shanaw": 3915,
      "shadoi": 3916,
      "kamang": 3917,
      "laku": 3918,
      "lagup": 3919,
      "lahpran": 3920,
      "gahti": 3921,
      "hkim": 3922,
      "dagap": 3923,
      "dudim": 3924,
      "luhpa": 3925,
      "jahkam": 3926,
      "rikam": 3927,
      "Mala": 3928,
      "Maon": 3929,
      "Maza": 3930,
      "Magam": 3931,
      "Maluk": 3932,
      "Mandan": 3933,
      "tali": 3934,
      "kawoi": 3935,
      "tila": 3936,
      "tira": 3937,
      "tihpa": 3938,
      "hkambum": 3939,
      "shangwang": 3940,
      "Yehtera": 3941,
      "sela": 3942,
      "semat": 3943,
      "ningwa": 3944,
      "ningtawn": 3945,
      "ninghtoi": 3946,
      "ninggawn": 3947,
      "ningwat": 3948,
      "tura": 3949,
      "tera": 3950,
      "temi": 3951,
      "sumsaw": 3952,
      "sumdam": 3953,
      "hkanoi": 3954,
      "pad": 3955,
      "pau": 3956,
      "patamya": 3957,
      "sharam": 3958,
      "gumrin": 3959,
      "gumbyak": 3960,
      "dawwa": 3961,
      "dawdan": 3962,
      "dawhkai": 3963,
      "dumyeng": 3964,
      "Shal": 3965,
      "Shadaw": 3966,
      "Sharin": 3967,
      "Shaji": 3968,
      "Shadung": 3969,
      "Shakum": 3970,
      "Shahpat": 3971,
      "Shakawn": 3972,
      "letma": 3973,
      "shub": 3974,
      "shuri": 3975,
      "Yan": 3976,
      "Yared": 3977,
      "Yahaziela": 3978,
      "Yatira": 3979,
      "upim": 3980,
      "numshawn": 3981,
      "namta": 3982,
      "namnak": 3983,
      "bunghkum": 3984,
      "Hkru": 3985,
      "lungdin": 3986,
      "Bak": 3987,
      "Baren": 3988,
      "Basemat": 3989,
      "malia": 3990,
      "manghkang": 3991,
      "Shinggan": 3992,
      "Shingran": 3993,
      "Hpawk": 3994,
      "htinglai": 3995,
      "htingkung": 3996,
      "beon": 3997,
      "Sumru": 3998,
      "Sumpan": 3999,
      "makun": 4000,
      "makran": 4001,
      "ginsum": 4002,
      "gintawng": 4003,
      "Lehi": 4004,
      "Hel": 4005,
      "Heli": 4006,
      "Lana": 4007,
      "Ladan": 4008,
      "Lagut": 4009,
      "Sal": 4010,
      "banbyau": 4011,
      "Elimelek": 4012,
      "dola": 4013,
      "Hkal": 4014,
      "Mesha": 4015,
      "Meremot": 4016,
      "htusela": 4017,
      "Gihon": 4018,
      "Zeeb": 4019,
      "Mib": 4020,
      "Mish": 4021,
      "jinghkyen": 4022,
      "Moza": 4023,
      "rodak": 4024,
      "hkrawp": 4025,
      "Bebai": 4026,
      "Shemi": 4027,
      "Dagam": 4028,
      "Munggyi": 4029,
      "Remalia": 4030,
      "Zip": 4031,
      "Zilhpa": 4032,
      "Zibeon": 4033,
      "Gedora": 4034,
      "Geshuri": 4035,
      "abrep": 4036,
      "Betawen": 4037,
      "Pelet": 4038,
      "Dinggam": 4039,
      "Hodia": 4040,
      "Ahio": 4041,
      "Rabai": 4042,
      "Artemi": 4043,
      "Arpad": 4044,
      "Sera": 4045,
      "Sehparim": 4046,
      "Yobab": 4047,
      "Eshko": 4048,
      "Eshtem": 4049,
      "Par": 4050,
      "Pahat": 4051,
      "Ninghkrin": 4052,
      "Nammukdara": 4053,
      "Araba": 4054,
      "inea": 4055,
      "Dishon": 4056,
      "Zebula": 4057,
      "Shimea": 4058,
      "gitbaw": 4059,
      "Azrikam": 4060,
      "Husha": 4061,
      "Nahtanela": 4062,
      "Toba": 4063,
      "ahkak": 4064,
      "ndawt": 4065,
      "hkera": 4066,
      "Yamin": 4067,
      "Akbora": 4068,
      "Yairu": 4069,
      "Lakum": 4070,
      "Lakung": 4071,
      "Ariok": 4072,
      "Shimron": 4073,
      "Aholibama": 4074,
      "Lotan": 4075,
      "ngebera": 4076,
      "mahkret": 4077,
      "Oholiba": 4078,
      "Migdola": 4079,
      "Troa": 4080,
      "Hako": 4081,
      "Manggang": 4082,
      "Hponisha": 4083,
      "Menahem": 4084,
      "Mishaela": 4085,
      "Yerimot": 4086,
      "Bahurim": 4087,
      "Engedi": 4088,
      "Eziongebera": 4089,
      "Htauli": 4090,
      "Ikoni": 4091,
      "Netohpa": 4092,
      "Eshkola": 4093,
      "Eshtemoa": 4094,
      "--": 4095,
      "13": 4096,
      "23": 4097,
      "28": 4098,
      "66": 4099,
      "Aya": 4100,
      "Ain": 4101,
      "Asai": 4102,
      "Adi": 4103,
      "Ahkaw": 4104,
      "Ahkang": 4105,
      "Atai": 4106,
      "Awi": 4107,
      "Agung": 4108,
      "Atarot": 4109,
      "Atera": 4110,
      "Byin": 4111,
      "Buki": 4112,
      "Ehpa": 4113,
      "Enu": 4114,
      "Epa": 4115,
      "Edera": 4116,
      "Ishia": 4117,
      "Itali": 4118,
      "Je": 4119,
      "Ji": 4120,
      "Kai": 4121,
      "Loi": 4122,
      "Nu": 4123,
      "Nsi": 4124,
      "Oh": 4125,
      "One": 4126,
      "Ohpela": 4127,
      "Pam": 4128,
      "Pon": 4129,
      "Pyaw": 4130,
      "Pala": 4131,
      "Sela": 4132,
      "Tsawm": 4133,
      "The": 4134,
      "Ura": 4135,
      "Uhkan": 4136,
      "Zak": 4137,
      "Zan": 4138,
      "Zura": 4139,
      "az": 4140,
      "ajaw": 4141,
      "aung": 4142,
      "ahpang": 4143,
      "aman": 4144,
      "apa": 4145,
      "akaja": 4146,
      "ahkawm": 4147,
      "achya": 4148,
      "ashim": 4149,
      "apan": 4150,
      "ajet": 4151,
      "bawn": 4152,
      "byan": 4153,
      "briela": 4154,
      "eg": 4155,
      "ese": 4156,
      "edahta": 4157,
      "kyu": 4158,
      "krum": 4159,
      "kem": 4160,
      "lsam": 4161,
      "mo": 4162,
      "ndu": 4163,
      "nmi": 4164,
      "nchy": 4165,
      "nshan": 4166,
      "nlum": 4167,
      "pi": 4168,
      "pni": 4169,
      "pre": 4170,
      "rbe": 4171,
      "uta": 4172,
      "zen": 4173,
      "aim": 4174,
      "awlaw": 4175,
      "magum": 4176,
      "malet": 4177,
      "masun": 4178,
      "mangam": 4179,
      "htin": 4180,
      "hpru": 4181,
      "shabu": 4182,
      "shalau": 4183,
      "shamau": 4184,
      "shachyang": 4185,
      "kajaw": 4186,
      "kanaw": 4187,
      "kadum": 4188,
      "kashai": 4189,
      "kahprap": 4190,
      "kachyan": 4191,
      "nina": 4192,
      "lamang": 4193,
      "lahkap": 4194,
      "lahtet": 4195,
      "lahtin": 4196,
      "razim": 4197,
      "rahton": 4198,
      "gamu": 4199,
      "yap": 4200,
      "htaning": 4201,
      "luda": 4202,
      "lutu": 4203,
      "Kar": 4204,
      "Kang": 4205,
      "Kana": 4206,
      "Kaman": 4207,
      "Kadum": 4208,
      "Kaji": 4209,
      "Kahpu": 4210,
      "Shamu": 4211,
      "rizim": 4212,
      "hpaya": 4213,
      "dela": 4214,
      "Mau": 4215,
      "Mayun": 4216,
      "Makoi": 4217,
      "Mago": 4218,
      "wung": 4219,
      "wuhpung": 4220,
      "tala": 4221,
      "kawut": 4222,
      "tiela": 4223,
      "balsam": 4224,
      "hkamwam": 4225,
      "hkram": 4226,
      "leda": 4227,
      "Shimaia": 4228,
      "Yearim": 4229,
      "Yediela": 4230,
      "dibu": 4231,
      "ningwan": 4232,
      "ningtam": 4233,
      "ningdim": 4234,
      "ningchyawng": 4235,
      "teni": 4236,
      "amut": 4237,
      "sumra": 4238,
      "shingla": 4239,
      "shingnaw": 4240,
      "shingwang": 4241,
      "shingwung": 4242,
      "hkumbawp": 4243,
      "Sharung": 4244,
      "buela": 4245,
      "Yasun": 4246,
      "Yahpia": 4247,
      "Yashub": 4248,
      "htanbam": 4249,
      "hpundu": 4250,
      "nambat": 4251,
      "Nama": 4252,
      "Nayut": 4253,
      "hpungtang": 4254,
      "Hko": 4255,
      "Hkrun": 4256,
      "lunghpraw": 4257,
      "garang": 4258,
      "lemet": 4259,
      "Balat": 4260,
      "shakrai": 4261,
      "lakli": 4262,
      "singgung": 4263,
      "hpuli": 4264,
      "zau": 4265,
      "zahpan": 4266,
      "zania": 4267,
      "Hpalu": 4268,
      "Shingdu": 4269,
      "chyinghkrang": 4270,
      "htinggaw": 4271,
      "htingwan": 4272,
      "rimon": 4273,
      "Gabriela": 4274,
      "chyalam": 4275,
      "chyalang": 4276,
      "chyazai": 4277,
      "ginrun": 4278,
      "ginlut": 4279,
      "lumila": 4280,
      "anyawp": 4281,
      "Lahta": 4282,
      "Lachyum": 4283,
      "Sar": 4284,
      "Salu": 4285,
      "Elim": 4286,
      "Hatu": 4287,
      "Hagari": 4288,
      "Hahtat": 4289,
      "Hashum": 4290,
      "Hanuk": 4291,
      "agang": 4292,
      "yupku": 4293,
      "Meho": 4294,
      "Medeba": 4295,
      "rosha": 4296,
      "Bezera": 4297,
      "Shebuela": 4298,
      "Shelumila": 4299,
      "tauba": 4300,
      "gingdan": 4301,
      "Rehpi": 4302,
      "Reaia": 4303,
      "Rehpaia": 4304,
      "Rekem": 4305,
      "zib": 4306,
      "Geu": 4307,
      "Gerizim": 4308,
      "hkiku": 4309,
      "abyen": 4310,
      "krawp": 4311,
      "tsupni": 4312,
      "Eliasap": 4313,
      "Abishaga": 4314,
      "Abishua": 4315,
      "Yehosha": 4316,
      "Pere": 4317,
      "Perazim": 4318,
      "Derbe": 4319,
      "Dingnye": 4320,
      "shagrung": 4321,
      "Zatu": 4322,
      "Hosa": 4323,
      "Hopni": 4324,
      "Ahiza": 4325,
      "Ahiluda": 4326,
      "Gumhkawng": 4327,
      "Pirahton": 4328,
      "Gozan": 4329,
      "Arhki": 4330,
      "nania": 4331,
      "Gibehton": 4332,
      "liaba": 4333,
      "Sehpera": 4334,
      "Seira": 4335,
      "Tahpan": 4336,
      "Tahat": 4337,
      "Eleasa": 4338,
      "Eleale": 4339,
      "Ginwang": 4340,
      "Teman": 4341,
      "byap": 4342,
      "Parosha": 4343,
      "Luka": 4344,
      "Ludi": 4345,
      "hkridun": 4346,
      "Ningnan": 4347,
      "shapun": 4348,
      "shapre": 4349,
      "Azarela": 4350,
      "Azazela": 4351,
      "Azela": 4352,
      "Azura": 4353,
      "Ramese": 4354,
      "Elasa": 4355,
      "Adoniram": 4356,
      "Amiela": 4357,
      "hpatwat": 4358,
      "Zerahia": 4359,
      "Aksa": 4360,
      "Hamedahta": 4361,
      "Shua": 4362,
      "Hkaulan": 4363,
      "Tsindam": 4364,
      "Hagit": 4365,
      "Adma": 4366,
      "Dodo": 4367,
      "Doeg": 4368,
      "Hkungga": 4369,
      "Horonaim": 4370,
      "Yoktan": 4371,
      "840": 4372,
      "Yoiarib": 4373,
      "Aholiaba": 4374,
      "Nikodi": 4375,
      "Alhpe": 4376,
      "Gawknu": 4377,
      "tarku": 4378,
      "Shareze": 4379,
      "Ohola": 4380,
      "Tubala": 4381,
      "Tuhkiku": 4382,
      "Lunghkrung": 4383,
      "Makhpela": 4384,
      "Talamai": 4385,
      "Abarim": 4386,
      "Ebedmelek": 4387,
      "Tarshu": 4388,
      "Bigwai": 4389,
      "ahtik": 4390,
      "pyeksan": 4391,
      "Aristarku": 4392,
      "Kawsi": 4393,
      "Pelatia": 4394,
      "Shalman": 4395,
      "Hakoza": 4396,
      "Enusha": 4397,
      "Onesi": 4398,
      "Pamhpuli": 4399,
      "Pontu": 4400,
      "Thebe": 4401,
      "Zake": 4402,
      "nchyun": 4403,
      "utahpaya": 4404,
      "Shamua": 4405,
      "Magoga": 4406,
      "Rehpidim": 4407,
      "11": 4408,
      "110": 4409,
      "450": 4410,
      "65": 4411,
      "760": 4412,
      "?’": 4413,
      "Ahka": 4414,
      "Aru": 4415,
      "Arawng": 4416,
      "Arit": 4417,
      "Adin": 4418,
      "Alawan": 4419,
      "Aput": 4420,
      "Alemet": 4421,
      "Bam": 4422,
      "Brang": 4423,
      "Binea": 4424,
      "Et": 4425,
      "Enga": 4426,
      "Elu": 4427,
      "Elo": 4428,
      "Gwi": 4429,
      "Grup": 4430,
      "Guni": 4431,
      "Hela": 4432,
      "Het": 4433,
      "Hkan": 4434,
      "Klaw": 4435,
      "Kin": 4436,
      "Lawu": 4437,
      "Nra": 4438,
      "Nwa": 4439,
      "Npawt": 4440,
      "Ohkran": 4441,
      "Po": 4442,
      "Pung": 4443,
      "Prang": 4444,
      "Pro": 4445,
      "Prat": 4446,
      "Taw": 4447,
      "Tawng": 4448,
      "Toi": 4449,
      "Tsun": 4450,
      "Tik": 4451,
      "Ulam": 4452,
      "Usu": 4453,
      "Uriela": 4454,
      "asu": 4455,
      "ahkum": 4456,
      "ajang": 4457,
      "ayak": 4458,
      "aleng": 4459,
      "ahpye": 4460,
      "gela": 4461,
      "gila": 4462,
      "jun": 4463,
      "kai": 4464,
      "krung": 4465,
      "kila": 4466,
      "lga": 4467,
      "myat": 4468,
      "moni": 4469,
      "nrum": 4470,
      "nsu": 4471,
      "nhkap": 4472,
      "nnawn": 4473,
      "nying": 4474,
      "nhpra": 4475,
      "prawn": 4476,
      "rgala": 4477,
      "rmut": 4478,
      "sre": 4479,
      "wo": 4480,
      "zam": 4481,
      "zut": 4482,
      "‘‘": 4483,
      "malaw": 4484,
      "maseng": 4485,
      "mayak": 4486,
      "masam": 4487,
      "majen": 4488,
      "machyan": 4489,
      "nahtai": 4490,
      "hpawm": 4491,
      "hprawt": 4492,
      "hprwi": 4493,
      "shari": 4494,
      "shajan": 4495,
      "sharing": 4496,
      "shatsan": 4497,
      "shayup": 4498,
      "shajup": 4499,
      "kani": 4500,
      "kalam": 4501,
      "kadap": 4502,
      "kamun": 4503,
      "karat": 4504,
      "kasit": 4505,
      "kadoi": 4506,
      "kajet": 4507,
      "kadau": 4508,
      "niam": 4509,
      "laka": 4510,
      "layu": 4511,
      "lalam": 4512,
      "lahkun": 4513,
      "gawai": 4514,
      "gama": 4515,
      "hkroi": 4516,
      "salat": 4517,
      "dasang": 4518,
      "danam": 4519,
      "dalau": 4520,
      "wadi": 4521,
      "wakang": 4522,
      "htahia": 4523,
      "hkachyi": 4524,
      "dura": 4525,
      "jahte": 4526,
      "jahtap": 4527,
      "Kau": 4528,
      "Kanang": 4529,
      "Kanau": 4530,
      "Karea": 4531,
      "tsawt": 4532,
      "rishadi": 4533,
      "hpak": 4534,
      "Mad": 4535,
      "Mah": 4536,
      "Man": 4537,
      "Manga": 4538,
      "Makau": 4539,
      "Manang": 4540,
      "Marau": 4541,
      "Masin": 4542,
      "Magrau": 4543,
      "Malon": 4544,
      "Matut": 4545,
      "Mahtat": 4546,
      "Mahtusela": 4547,
      "rek": 4548,
      "resha": 4549,
      "mim": 4550,
      "shanghkawp": 4551,
      "dating": 4552,
      "leka": 4553,
      "letu": 4554,
      "Shimri": 4555,
      "sia": 4556,
      "sidi": 4557,
      "Yeshim": 4558,
      "Yeria": 4559,
      "Yezera": 4560,
      "ningsin": 4561,
      "ningjet": 4562,
      "rawnggawk": 4563,
      "amun": 4564,
      "sumbu": 4565,
      "sumroi": 4566,
      "shingtawn": 4567,
      "shingyun": 4568,
      "shingjut": 4569,
      "shinglim": 4570,
      "dingsang": 4571,
      "dingdaw": 4572,
      "dingnawng": 4573,
      "palik": 4574,
      "gumgun": 4575,
      "dawhpum": 4576,
      "baiyut": 4577,
      "langji": 4578,
      "maihting": 4579,
      "dumbra": 4580,
      "Shala": 4581,
      "Shaga": 4582,
      "Shayi": 4583,
      "Shahpa": 4584,
      "Shaman": 4585,
      "Shadawn": 4586,
      "jiwa": 4587,
      "shuba": 4588,
      "Yalam": 4589,
      "Yabet": 4590,
      "Yarmut": 4591,
      "kajam": 4592,
      "hpunngau": 4593,
      "namela": 4594,
      "madut": 4595,
      "bungga": 4596,
      "Nabaiyut": 4597,
      "Hki": 4598,
      "Hkying": 4599,
      "ntau": 4600,
      "jauwawng": 4601,
      "shakra": 4602,
      "shawk": 4603,
      "shawawm": 4604,
      "akrai": 4605,
      "akawng": 4606,
      "akri": 4607,
      "gying": 4608,
      "Hpaga": 4609,
      "haba": 4610,
      "habia": 4611,
      "chyinghkai": 4612,
      "htinggawt": 4613,
      "beri": 4614,
      "behkai": 4615,
      "Yawan": 4616,
      "Gasha": 4617,
      "Galaw": 4618,
      "makrang": 4619,
      "kapoli": 4620,
      "chyau": 4621,
      "chyahkrai": 4622,
      "chyasam": 4623,
      "ginsa": 4624,
      "ginru": 4625,
      "ginshan": 4626,
      "ginchya": 4627,
      "lume": 4628,
      "chyung": 4629,
      "Sibehkai": 4630,
      "Leba": 4631,
      "Hegai": 4632,
      "Helon": 4633,
      "Ladu": 4634,
      "Lagu": 4635,
      "Lakang": 4636,
      "Sau": 4637,
      "Sala": 4638,
      "Salahti": 4639,
      "Saleka": 4640,
      "Elizura": 4641,
      "Elizahpan": 4642,
      "Haba": 4643,
      "Hahi": 4644,
      "Hanamela": 4645,
      "zek": 4646,
      "zep": 4647,
      "kanut": 4648,
      "doria": 4649,
      "kaden": 4650,
      "Hkana": 4651,
      "Hkala": 4652,
      "Hkalem": 4653,
      "Melek": 4654,
      "Mehi": 4655,
      "Gidoni": 4656,
      "Gidela": 4657,
      "Zehpun": 4658,
      "shayit": 4659,
      "Miza": 4660,
      "Miyamin": 4661,
      "More": 4662,
      "Molada": 4663,
      "rod": 4664,
      "rogela": 4665,
      "zingret": 4666,
      "Beta": 4667,
      "Behkera": 4668,
      "Shehta": 4669,
      "Shemaria": 4670,
      "Shedura": 4671,
      "naim": 4672,
      "Dar": 4673,
      "Dabe": 4674,
      "Neria": 4675,
      "Neko": 4676,
      "Nergala": 4677,
      "Reu": 4678,
      "Rehabia": 4679,
      "Geshem": 4680,
      "Gemaria": 4681,
      "Gedera": 4682,
      "awat": 4683,
      "Myihprap": 4684,
      "nwat": 4685,
      "abya": 4686,
      "abraw": 4687,
      "abrawp": 4688,
      "merodak": 4689,
      "Eliada": 4690,
      "Abidan": 4691,
      "Bethpa": 4692,
      "Betpe": 4693,
      "Betzura": 4694,
      "Manahat": 4695,
      "Pedaz": 4696,
      "Penina": 4697,
      "Pehtahia": 4698,
      "Pesidi": 4699,
      "Tiberi": 4700,
      "htawbat": 4701,
      "Kenan": 4702,
      "Hira": 4703,
      "Baladan": 4704,
      "Balazebu": 4705,
      "Hoba": 4706,
      "Ahira": 4707,
      "Ahiman": 4708,
      "Gumshem": 4709,
      "Maihpang": 4710,
      "Kib": 4711,
      "Goma": 4712,
      "Golan": 4713,
      "Gome": 4714,
      "Golga": 4715,
      "Argo": 4716,
      "Arwadi": 4717,
      "Seba": 4718,
      "hoya": 4719,
      "Jahpan": 4720,
      "Palawng": 4721,
      "Pasea": 4722,
      "Pagila": 4723,
      "Ningsang": 4724,
      "Namhtan": 4725,
      "Arad": 4726,
      "Ararat": 4727,
      "Hpua": 4728,
      "Hputihpa": 4729,
      "Sinda": 4730,
      "liknga": 4731,
      "Duela": 4732,
      "Zohpa": 4733,
      "Zohara": 4734,
      "Azgad": 4735,
      "Hushim": 4736,
      "Shebaza": 4737,
      "Hpungdim": 4738,
      "Hkehpira": 4739,
      "Hkedalau": 4740,
      "Merab": 4741,
      "jamjau": 4742,
      "Langda": 4743,
      "grip": 4744,
      "Elhanan": 4745,
      "Amishadi": 4746,
      "htolume": 4747,
      "Htat": 4748,
      "Ehpera": 4749,
      "128": 4750,
      "Mahkishua": 4751,
      "180": 4752,
      "Hamon": 4753,
      "1680": 4754,
      "Asira": 4755,
      "Shoba": 4756,
      "Shobak": 4757,
      "Rizpa": 4758,
      "goila": 4759,
      "Matahtia": 4760,
      "opoli": 4761,
      "Shuala": 4762,
      "Shuhtela": 4763,
      "Shelatila": 4764,
      "Bohan": 4765,
      "Laklai": 4766,
      "Hananela": 4767,
      "Adna": 4768,
      "dakring": 4769,
      "Shimshai": 4770,
      "Miklot": 4771,
      "lagra": 4772,
      "Shamira": 4773,
      "Pekahia": 4774,
      "Kedemot": 4775,
      "Yoiakim": 4776,
      "Zaibru": 4777,
      "chyanyi": 4778,
      "Enrogela": 4779,
      "Htola": 4780,
      "Loda": 4781,
      "Lodeba": 4782,
      "atira": 4783,
      "Htubala": 4784,
      "Htuatira": 4785,
      "Nimrod": 4786,
      "Zua": 4787,
      "Zurishadi": 4788,
      "Yehozaba": 4789,
      "254": 4790,
      "Iblim": 4791,
      "144": 4792,
      "Azuma": 4793,
      "Azuba": 4794,
      "Yeusha": 4795,
      "Yeusa": 4796,
      "Barhtolume": 4797,
      "Talamon": 4798,
      "Gawla": 4799,
      "Zarehtan": 4800,
      "Zarephta": 4801,
      "Aramik": 4802,
      "Aramiyan": 4803,
      "Imna": 4804,
      "Priskila": 4805,
      "Henadad": 4806,
      "Heleni": 4807,
      "Harsha": 4808,
      "Hazerot": 4809,
      "Ewila": 4810,
      "Kungdawn": 4811,
      "Hkrudu": 4812,
      "Heliopoli": 4813,
      "Salmon": 4814,
      "Hkalde": 4815,
      "Mishma": 4816,
      "Zipora": 4817,
      "Jeyang": 4818,
      "Kainam": 4819,
      "Zanoa": 4820,
      "azu": 4821,
      "bawnu": 4822,
      "Sardi": 4823,
      "Mehola": 4824,
      "Shalmanesa": 4825,
      "Bamot": 4826,
      "asuya": 4827,
      "Yeshimot": 4828,
      "Salahtila": 4829,
      "Hahirot": 4830,
      "Nekoda": 4831,
      "Pedazura": 4832,
      "Golgahta": 4833,
      "Argoba": 4834,
      "Hkedalauma": 4835,
      "!.”": 4836,
      "112": 4837,
      "21": 4838,
      "245": 4839,
      "360": 4840,
      "46": 4841,
      "430": 4842,
      "53": 4843,
      "64": 4844,
      "675": 4845,
      "77": 4846,
      "750": 4847,
      "At": 4848,
      "Au": 4849,
      "Awa": 4850,
      "Are": 4851,
      "Ase": 4852,
      "Anam": 4853,
      "Arung": 4854,
      "Aia": 4855,
      "Ane": 4856,
      "Adiela": 4857,
      "Bik": 4858,
      "Dam": 4859,
      "Dem": 4860,
      "Damya": 4861,
      "Eb": 4862,
      "Ep": 4863,
      "Esa": 4864,
      "Ewa": 4865,
      "Eri": 4866,
      "Ebia": 4867,
      "Emim": 4868,
      "Gun": 4869,
      "Gawng": 4870,
      "Goi": 4871,
      "Gen": 4872,
      "Hum": 4873,
      "Hpru": 4874,
      "Hprang": 4875,
      "Hupim": 4876,
      "It": 4877,
      "Iy": 4878,
      "Iht": 4879,
      "Iri": 4880,
      "Iba": 4881,
      "Igala": 4882,
      "Ike": 4883,
      "Jin": 4884,
      "Kura": 4885,
      "Lawng": 4886,
      "Luk": 4887,
      "Luki": 4888,
      "Mela": 4889,
      "Nni": 4890,
      "Nba": 4891,
      "Nshang": 4892,
      "Nhtang": 4893,
      "Nshu": 4894,
      "Nchyang": 4895,
      "Or": 4896,
      "Oz": 4897,
      "Ode": 4898,
      "Onam": 4899,
      "Pawt": 4900,
      "Pen": 4901,
      "Tsit": 4902,
      "Tut": 4903,
      "Umara": 4904,
      "Uhtai": 4905,
      "Unuk": 4906,
      "Yamut": 4907,
      "Zing": 4908,
      "Zunlawng": 4909,
      "amyit": 4910,
      "asat": 4911,
      "ate": 4912,
      "arau": 4913,
      "ahkan": 4914,
      "alang": 4915,
      "atai": 4916,
      "aji": 4917,
      "ashaga": 4918,
      "aseng": 4919,
      "adung": 4920,
      "abra": 4921,
      "ahtam": 4922,
      "atsing": 4923,
      "akatsi": 4924,
      "alwi": 4925,
      "atsu": 4926,
      "asoi": 4927,
      "ahpat": 4928,
      "eni": 4929,
      "gyeng": 4930,
      "husu": 4931,
      "hura": 4932,
      "ihta": 4933,
      "krau": 4934,
      "kon": 4935,
      "myem": 4936,
      "nlaw": 4937,
      "nbaw": 4938,
      "npra": 4939,
      "nwan": 4940,
      "nyawp": 4941,
      "nmyem": 4942,
      "pun": 4943,
      "rka": 4944,
      "rni": 4945,
      "rdu": 4946,
      "rtu": 4947,
      "rha": 4948,
      "rme": 4949,
      "so": 4950,
      "sri": 4951,
      "udi": 4952,
      "urin": 4953,
      "utsip": 4954,
      "ubyap": 4955,
      "zenai": 4956,
      "shbi": 4957,
      "map": 4958,
      "masawn": 4959,
      "majat": 4960,
      "mayoi": 4961,
      "mahoya": 4962,
      "nana": 4963,
      "hpyaw": 4964,
      "hpram": 4965,
      "hprim": 4966,
      "shade": 4967,
      "shati": 4968,
      "shale": 4969,
      "shapa": 4970,
      "shagum": 4971,
      "shanam": 4972,
      "shagawng": 4973,
      "shagawm": 4974,
      "kala": 4975,
      "kagu": 4976,
      "katen": 4977,
      "kahti": 4978,
      "kangau": 4979,
      "hteden": 4980,
      "hpeg": 4981,
      "nira": 4982,
      "nipa": 4983,
      "lala": 4984,
      "lahka": 4985,
      "ladan": 4986,
      "lashan": 4987,
      "lasaw": 4988,
      "lachyen": 4989,
      "lashoi": 4990,
      "lashum": 4991,
      "lapau": 4992,
      "gawa": 4993,
      "rabim": 4994,
      "gahte": 4995,
      "galam": 4996,
      "gachyi": 4997,
      "ganawng": 4998,
      "hkyu": 4999,
      "hkre": 5000,
      "hkyang": 5001,
      "hkyak": 5002,
      "saman": 5003,
      "samak": 5004,
      "sabya": 5005,
      "sahpat": 5006,
      "muhkan": 5007,
      "dalang": 5008,
      "dakan": 5009,
      "dagawt": 5010,
      "wakin": 5011,
      "hkara": 5012,
      "hkatum": 5013,
      "dua": 5014,
      "duhtau": 5015,
      "jahkung": 5016,
      "jasin": 5017,
      "janat": 5018,
      "jahkoi": 5019,
      "jahtep": 5020,
      "jashum": 5021,
      "yuhkraw": 5022,
      "Kab": 5023,
      "Kara": 5024,
      "Kayin": 5025,
      "Katsi": 5026,
      "tsim": 5027,
      "Shupim": 5028,
      "hpajawng": 5029,
      "Mal": 5030,
      "Maga": 5031,
      "Madai": 5032,
      "Mahku": 5033,
      "Machye": 5034,
      "Maten": 5035,
      "Mahtan": 5036,
      "Matan": 5037,
      "Mahat": 5038,
      "Mazut": 5039,
      "wudat": 5040,
      "wulawng": 5041,
      "wudik": 5042,
      "tat": 5043,
      "tabela": 5044,
      "milo": 5045,
      "majawn": 5046,
      ",”)": 5047,
      "guba": 5048,
      "lip": 5049,
      "lisha": 5050,
      "lita": 5051,
      "lilot": 5052,
      "nhtaw": 5053,
      "Shila": 5054,
      "Shimit": 5055,
      "Yen": 5056,
      "Yeshana": 5057,
      "Yehko": 5058,
      "Yeuela": 5059,
      "Yetura": 5060,
      "Yezania": 5061,
      "digram": 5062,
      "sein": 5063,
      "selutu": 5064,
      "ningmai": 5065,
      "ningmaw": 5066,
      "ningjut": 5067,
      "teko": 5068,
      "sumprat": 5069,
      "shingni": 5070,
      "shingdan": 5071,
      "shingte": 5072,
      "shingtawt": 5073,
      "dinghkrai": 5074,
      "dingshawn": 5075,
      "dingchyung": 5076,
      "para": 5077,
      "palen": 5078,
      "patsip": 5079,
      "gumkan": 5080,
      "gumhpai": 5081,
      "gumhtung": 5082,
      "gumbat": 5083,
      "gumhtawn": 5084,
      "sheme": 5085,
      "shekela": 5086,
      "janghpang": 5087,
      "maina": 5088,
      "maihkawng": 5089,
      "dumhprut": 5090,
      "Shangai": 5091,
      "Shadang": 5092,
      "Shabe": 5093,
      "Sharim": 5094,
      "Shagrit": 5095,
      "bukia": 5096,
      "shuk": 5097,
      "Yustu": 5098,
      "Yak": 5099,
      "Yakan": 5100,
      "Yazi": 5101,
      "Yarib": 5102,
      "Yasho": 5103,
      "Yadua": 5104,
      "numla": 5105,
      "Hkawm": 5106,
      "namsu": 5107,
      "nampu": 5108,
      "Nara": 5109,
      "Naria": 5110,
      "Nahpi": 5111,
      "hpungtau": 5112,
      "hpungyawt": 5113,
      "hpungkraw": 5114,
      "Hkai": 5115,
      "Hkoi": 5116,
      "Hkin": 5117,
      "Hkyen": 5118,
      "Hkim": 5119,
      "Hkili": 5120,
      "ganung": 5121,
      "etri": 5122,
      "eno": 5123,
      "laugung": 5124,
      "Htingbu": 5125,
      "hpura": 5126,
      "kangi": 5127,
      "ramot": 5128,
      "ramelek": 5129,
      "Shinglet": 5130,
      "hadon": 5131,
      "kumba": 5132,
      "Shawoi": 5133,
      "Hpo": 5134,
      "Hpye": 5135,
      "Hpik": 5136,
      "gamawng": 5137,
      "mawan": 5138,
      "htitun": 5139,
      "htingram": 5140,
      "htingbyen": 5141,
      "beam": 5142,
      "apawt": 5143,
      "dawnggawng": 5144,
      "sawse": 5145,
      "Garu": 5146,
      "Gadi": 5147,
      "Galang": 5148,
      "Gahtam": 5149,
      "Gareb": 5150,
      "makrung": 5151,
      "Chyahkyi": 5152,
      "kapya": 5153,
      "ginrawn": 5154,
      "hkyihkyang": 5155,
      "jahpum": 5156,
      "Silum": 5157,
      "Hezi": 5158,
      "Herme": 5159,
      "Latsa": 5160,
      "Laning": 5161,
      "Salem": 5162,
      "Elishua": 5163,
      "Elihpaza": 5164,
      "Abdi": 5165,
      "Abinoam": 5166,
      "hparat": 5167,
      "Hala": 5168,
      "Haga": 5169,
      "Hadi": 5170,
      "Hase": 5171,
      "Hahki": 5172,
      "Habora": 5173,
      "Hatawa": 5174,
      "Hashuba": 5175,
      "agat": 5176,
      "yupmang": 5177,
      "Meshi": 5178,
      "Meon": 5179,
      "Mero": 5180,
      "Meron": 5181,
      "Mehu": 5182,
      "Mehe": 5183,
      "Mered": 5184,
      "Memuhkan": 5185,
      "tawngban": 5186,
      "bawngban": 5187,
      "Gilo": 5188,
      "Zehpu": 5189,
      "htunghking": 5190,
      "Wahpang": 5191,
      "Miniam": 5192,
      "Miletu": 5193,
      "jinghkam": 5194,
      "jinghkang": 5195,
      "Bea": 5196,
      "Beri": 5197,
      "Bero": 5198,
      "Bezai": 5199,
      "Berni": 5200,
      "Behteden": 5201,
      "Sheshan": 5202,
      "Shehpu": 5203,
      "Sheshai": 5204,
      "bona": 5205,
      "Nemuela": 5206,
      "Nehpeg": 5207,
      "kunhting": 5208,
      "Reng": 5209,
      "Rezon": 5210,
      "Zila": 5211,
      "Ziza": 5212,
      "Ziha": 5213,
      "Zibia": 5214,
      "Zihpura": 5215,
      "Gede": 5216,
      "Gelilot": 5217,
      "krawk": 5218,
      "Ahawa": 5219,
      "latung": 5220,
      "Abiela": 5221,
      "Abishura": 5222,
      "Betmilo": 5223,
      "Yehosheba": 5224,
      "Peret": 5225,
      "Pelaia": 5226,
      "hpyau": 5227,
      "Dema": 5228,
      "Dekapoli": 5229,
      "nea": 5230,
      "neam": 5231,
      "Timung": 5232,
      "Tirha": 5233,
      "Tishbi": 5234,
      "shage": 5235,
      "chyamka": 5236,
      "Kehpa": 5237,
      "Keila": 5238,
      "Kemuela": 5239,
      "Ketura": 5240,
      "Kelita": 5241,
      "Holon": 5242,
      "Hohtam": 5243,
      "Hoshaia": 5244,
      "Horesha": 5245,
      "Ahisamak": 5246,
      "Gumle": 5247,
      "Rau": 5248,
      "Rahpa": 5249,
      "yunghkyi": 5250,
      "Galio": 5251,
      "hkintum": 5252,
      "hkindit": 5253,
      "Seruk": 5254,
      "Senira": 5255,
      "Seguba": 5256,
      "Tamara": 5257,
      "Tateni": 5258,
      "Gine": 5259,
      "Gintawng": 5260,
      "Ginhtawng": 5261,
      "Jau": 5262,
      "Yehudi": 5263,
      "Telem": 5264,
      "Esht": 5265,
      "Kore": 5266,
      "hkeme": 5267,
      "Namhpun": 5268,
      "Aramahti": 5269,
      "shapri": 5270,
      "hpimu": 5271,
      "hpilu": 5272,
      "Dishan": 5273,
      "Dibla": 5274,
      "Duma": 5275,
      "Buni": 5276,
      "Buza": 5277,
      "Azazia": 5278,
      "Gatrimon": 5279,
      "Perga": 5280,
      "Azriela": 5281,
      "Ramma": 5282,
      "Tola": 5283,
      "Tobi": 5284,
      "zrahia": 5285,
      "Hkenania": 5286,
      "Hkenana": 5287,
      "jamna": 5288,
      "Timnat": 5289,
      "Adonikam": 5290,
      "Elpala": 5291,
      "Mahkahti": 5292,
      "Berahka": 5293,
      "Htebe": 5294,
      "lawklek": 5295,
      "Hpunpyen": 5296,
      "Akzib": 5297,
      "Akrabim": 5298,
      "123": 5299,
      "Musri": 5300,
      "prangtai": 5301,
      "Shemera": 5302,
      "603": 5303,
      "Nahum": 5304,
      "Bozenai": 5305,
      "Adramelek": 5306,
      "Htawra": 5307,
      "Htawhpilu": 5308,
      "Nikola": 5309,
      "Malhkiela": 5310,
      "Dohtan": 5311,
      "Dorka": 5312,
      "Hamula": 5313,
      "Hamutala": 5314,
      "Yokshan": 5315,
      "Yokneam": 5316,
      "Kenizi": 5317,
      "Aswan": 5318,
      "Asriela": 5319,
      "Ashkena": 5320,
      "Alwan": 5321,
      "Meshelemia": 5322,
      "Endora": 5323,
      "Erastu": 5324,
      "Htoi": 5325,
      "kabram": 5326,
      "Nahala": 5327,
      "Meribala": 5328,
      "Zalmon": 5329,
      "Nimshi": 5330,
      "Ibzan": 5331,
      "Tingse": 5332,
      "!’”": 5333,
      "Hkarhkeme": 5334,
      "Bilga": 5335,
      "172": 5336,
      "Trohpimu": 5337,
      "Heresha": 5338,
      "Ezem": 5339,
      "Priska": 5340,
      "esaret": 5341,
      "Harod": 5342,
      "Haroshet": 5343,
      "Gaida": 5344,
      "Tabihta": 5345,
      "Yanoa": 5346,
      "Bakbukia": 5347,
      "Heldai": 5348,
      "Mibsam": 5349,
      "Shemida": 5350,
      "Shemiramot": 5351,
      "Awim": 5352,
      "Epahpra": 5353,
      "Jiwa": 5354,
      "Hatusha": 5355,
      "Onesimu": 5356,
      "Ahkashahpa": 5357,
      "Enganim": 5358,
      "Klawdi": 5359,
      "Proselutu": 5360,
      "Tikwa": 5361,
      "Maharai": 5362,
      "Shalabim": 5363,
      "Betanat": 5364,
      "Daberat": 5365,
      "Bethpage": 5366,
      "Betpeora": 5367,
      "Kibrot": 5368,
      "Asenat": 5369,
      "Anera": 5370,
      "Bikri": 5371,
      "Demetri": 5372,
      "Esahadon": 5373,
      "Ebiasap": 5374,
      "Genesaret": 5375,
      "Hprugi": 5376,
      "Iyon": 5377,
      "Ikesha": 5378,
      "Kurazin": 5379,
      "Luksuk": 5380,
      "Oded": 5381,
      "Penteko": 5382,
      "husup": 5383,
      "wakintu": 5384,
      "Matenai": 5385,
      "Shabehtai": 5386,
      "Yashobeam": 5387,
      "Nahpisha": 5388,
      "Hkimham": 5389,
      "Hkilion": 5390,
      "Hpikola": 5391,
      "Hahkila": 5392,
      "Mehetabela": 5393,
      "Miniamin": 5394,
      "Bernike": 5395,
      "Tobiya": 5396,
      "Pentekoti": 5397,
      "!)": 5398,
      "(“": 5399,
      ".]": 5400,
      "017": 5401,
      "052": 5402,
      "19": 5403,
      "130": 5404,
      "29": 5405,
      "220": 5406,
      "260": 5407,
      "280": 5408,
      "39": 5409,
      "320": 5410,
      "350": 5411,
      "345": 5412,
      "41": 5413,
      "435": 5414,
      "54": 5415,
      "56": 5416,
      "57": 5417,
      "59": 5418,
      "61": 5419,
      "67": 5420,
      "68": 5421,
      "630": 5422,
      "650": 5423,
      "642": 5424,
      "652": 5425,
      "72": 5426,
      "73": 5427,
      "720": 5428,
      "730": 5429,
      "736": 5430,
      "822": 5431,
      "96": 5432,
      "98": 5433,
      "930": 5434,
      "973": 5435,
      "Anga": 5436,
      "Ade": 5437,
      "Ata": 5438,
      "Alai": 5439,
      "Adum": 5440,
      "Anat": 5441,
      "Aran": 5442,
      "Aprat": 5443,
      "Atsam": 5444,
      "Ahkying": 5445,
      "Anai": 5446,
      "Ashare": 5447,
      "Apai": 5448,
      "Ahpia": 5449,
      "Ahkim": 5450,
      "Ainea": 5451,
      "Api": 5452,
      "Bang": 5453,
      "Byeng": 5454,
      "Buk": 5455,
      "Dawng": 5456,
      "Dawn": 5457,
      "Din": 5458,
      "Dim": 5459,
      "Dik": 5460,
      "Dala": 5461,
      "Emanu": 5462,
      "Eze": 5463,
      "Ehtam": 5464,
      "Esali": 5465,
      "Eme": 5466,
      "Enon": 5467,
      "Eno": 5468,
      "Ehtera": 5469,
      "Eleda": 5470,
      "Erek": 5471,
      "Enaim": 5472,
      "Garai": 5473,
      "Gura": 5474,
      "Hkabu": 5475,
      "Htam": 5476,
      "Htawng": 5477,
      "Huk": 5478,
      "Harip": 5479,
      "In": 5480,
      "Ip": 5481,
      "Iwa": 5482,
      "Ihka": 5483,
      "Iram": 5484,
      "Iphta": 5485,
      "Imri": 5486,
      "Itre": 5487,
      "Izrahia": 5488,
      "Jawng": 5489,
      "Jang": 5490,
      "Kris": 5491,
      "Meno": 5492,
      "Ndaw": 5493,
      "Nchyi": 5494,
      "Ngang": 5495,
      "Nhkun": 5496,
      "Nep": 5497,
      "Nden": 5498,
      "Nhprang": 5499,
      "Nshung": 5500,
      "Nsoi": 5501,
      "Ome": 5502,
      "Obot": 5503,
      "Ohad": 5504,
      "Pahk": 5505,
      "Paru": 5506,
      "Pura": 5507,
      "Pop": 5508,
      "Rak": 5509,
      "Sari": 5510,
      "Sia": 5511,
      "Tru": 5512,
      "Tsang": 5513,
      "Tsing": 5514,
      "Tak": 5515,
      "Tan": 5516,
      "Uni": 5517,
      "Udat": 5518,
      "Ulai": 5519,
      "Wo": 5520,
      "Woi": 5521,
      "Wut": 5522,
      "Zela": 5523,
      "Zup": 5524,
      "Zana": 5525,
      "Zawan": 5526,
      "ahp": 5527,
      "atsa": 5528,
      "atu": 5529,
      "abai": 5530,
      "ahkung": 5531,
      "alet": 5532,
      "akam": 5533,
      "ahtoi": 5534,
      "aju": 5535,
      "ashak": 5536,
      "ashawng": 5537,
      "amang": 5538,
      "akabu": 5539,
      "ataw": 5540,
      "aje": 5541,
      "atsap": 5542,
      "ahkraw": 5543,
      "asit": 5544,
      "ahtat": 5545,
      "azep": 5546,
      "bhta": 5547,
      "braw": 5548,
      "bik": 5549,
      "blo": 5550,
      "eka": 5551,
      "ehpa": 5552,
      "eam": 5553,
      "gem": 5554,
      "het": 5555,
      "hen": 5556,
      "it": 5557,
      "ize": 5558,
      "kyi": 5559,
      "krwi": 5560,
      "lda": 5561,
      "lti": 5562,
      "nng": 5563,
      "nrai": 5564,
      "nbat": 5565,
      "nren": 5566,
      "npaw": 5567,
      "npun": 5568,
      "nbraw": 5569,
      "od": 5570,
      "ona": 5571,
      "pawm": 5572,
      "plet": 5573,
      "pyau": 5574,
      "rti": 5575,
      "rmawet": 5576,
      "slu": 5577,
      "srum": 5578,
      "sle": 5579,
      "sro": 5580,
      "sora": 5581,
      "steni": 5582,
      "to": 5583,
      "tri": 5584,
      "tran": 5585,
      "us": 5586,
      "uyi": 5587,
      "uran": 5588,
      "ugung": 5589,
      "unim": 5590,
      "zo": 5591,
      "zaw": 5592,
      "zun": 5593,
      "zbi": 5594,
      "ngun": 5595,
      "awp": 5596,
      "mamyit": 5597,
      "mashe": 5598,
      "mapru": 5599,
      "mayaw": 5600,
      "malawm": 5601,
      "mahkri": 5602,
      "makup": 5603,
      "marawk": 5604,
      "mahkia": 5605,
      "nayi": 5606,
      "nakru": 5607,
      "najawn": 5608,
      "hpre": 5609,
      "hpon": 5610,
      "hpro": 5611,
      "hpot": 5612,
      "shau": 5613,
      "shalu": 5614,
      "sharaw": 5615,
      "shachye": 5616,
      "shalet": 5617,
      "shayan": 5618,
      "shayak": 5619,
      "shahpan": 5620,
      "shadin": 5621,
      "sharawn": 5622,
      "shatin": 5623,
      "shayat": 5624,
      "shajut": 5625,
      "sharut": 5626,
      "shagying": 5627,
      "kachye": 5628,
      "kayen": 5629,
      "katara": 5630,
      "karing": 5631,
      "kaje": 5632,
      "karang": 5633,
      "katsap": 5634,
      "kayup": 5635,
      "kahkau": 5636,
      "karen": 5637,
      "kagyin": 5638,
      "kamia": 5639,
      "kaprang": 5640,
      "kahpoi": 5641,
      "hperet": 5642,
      "lamyi": 5643,
      "lasang": 5644,
      "lalai": 5645,
      "lashing": 5646,
      "lanam": 5647,
      "labra": 5648,
      "larung": 5649,
      "latsang": 5650,
      "latum": 5651,
      "lanawn": 5652,
      "larawn": 5653,
      "lahpyaw": 5654,
      "ngasa": 5655,
      "ngayawng": 5656,
      "ngasat": 5657,
      "raku": 5658,
      "gadu": 5659,
      "ganan": 5660,
      "gahkrang": 5661,
      "gashoi": 5662,
      "gahkyin": 5663,
      "gaswi": 5664,
      "hkora": 5665,
      "hkyawt": 5666,
      "hkyap": 5667,
      "samyit": 5668,
      "saba": 5669,
      "sabak": 5670,
      "sasana": 5671,
      "saboi": 5672,
      "raim": 5673,
      "dahka": 5674,
      "dahkaw": 5675,
      "dalti": 5676,
      "umim": 5677,
      "yas": 5678,
      "yaela": 5679,
      "wau": 5680,
      "shiya": 5681,
      "shibia": 5682,
      "hkaru": 5683,
      "hkalai": 5684,
      "duk": 5685,
      "duwa": 5686,
      "mati": 5687,
      "matsut": 5688,
      "matsam": 5689,
      "matswi": 5690,
      "lusim": 5691,
      "jap": 5692,
      "jahkan": 5693,
      "jahkang": 5694,
      "jahki": 5695,
      "jarik": 5696,
      "Kapa": 5697,
      "Kachyi": 5698,
      "Kagam": 5699,
      "Kadawng": 5700,
      "Kahtet": 5701,
      "Kagat": 5702,
      "Kayat": 5703,
      "Kandang": 5704,
      "Shin": 5705,
      "Shen": 5706,
      "rion": 5707,
      "riot": 5708,
      "dea": 5709,
      "dehpi": 5710,
      "Masat": 5711,
      "Magum": 5712,
      "Madum": 5713,
      "Malet": 5714,
      "Matsaw": 5715,
      "Marun": 5716,
      "Marim": 5717,
      "Makawp": 5718,
      "Malo": 5719,
      "Mazia": 5720,
      "Madon": 5721,
      "Maat": 5722,
      "Mahazi": 5723,
      "Mahtia": 5724,
      "Matre": 5725,
      "Masre": 5726,
      "Matri": 5727,
      "ruba": 5728,
      "rudi": 5729,
      "reda": 5730,
      "wurin": 5731,
      "tak": 5732,
      "tari": 5733,
      "tarin": 5734,
      "lami": 5735,
      "inon": 5736,
      "amawng": 5737,
      "tita": 5738,
      "galawp": 5739,
      "nua": 5740,
      "marak": 5741,
      "gura": 5742,
      "guyang": 5743,
      "guji": 5744,
      "led": 5745,
      "lema": 5746,
      "liela": 5747,
      "lishiya": 5748,
      "suhpa": 5749,
      "hkuwawn": 5750,
      "Shisha": 5751,
      "Shilem": 5752,
      "Shihpi": 5753,
      "sila": 5754,
      "siela": 5755,
      "Yeshe": 5756,
      "Yekam": 5757,
      "Yeha": 5758,
      "Yehtet": 5759,
      "Yemuela": 5760,
      "Yekamia": 5761,
      "Yedea": 5762,
      "disu": 5763,
      "mane": 5764,
      "manyap": 5765,
      "sed": 5766,
      "ninglam": 5767,
      "ninghpang": 5768,
      "ningchya": 5769,
      "nyen": 5770,
      "nyep": 5771,
      "nyeng": 5772,
      "teke": 5773,
      "sumhkran": 5774,
      "laili": 5775,
      "hkansi": 5776,
      "kuhpa": 5777,
      "shingman": 5778,
      "shingmun": 5779,
      "shingnyeng": 5780,
      "hkangse": 5781,
      "dingshan": 5782,
      "dingtawk": 5783,
      "dinggram": 5784,
      "pata": 5785,
      "sharap": 5786,
      "Iswi": 5787,
      "gumjawt": 5788,
      "baia": 5789,
      "sinwa": 5790,
      "sinpawt": 5791,
      "shel": 5792,
      "nawt": 5793,
      "nawnam": 5794,
      "dumbau": 5795,
      "tinglum": 5796,
      "tinggyeng": 5797,
      "Sharu": 5798,
      "Shading": 5799,
      "Shadum": 5800,
      "Shagrau": 5801,
      "Shagan": 5802,
      "Shashak": 5803,
      "Sharun": 5804,
      "Shaha": 5805,
      "Shalabo": 5806,
      "Shalisha": 5807,
      "hpyendu": 5808,
      "bulu": 5809,
      "bushel": 5810,
      "jit": 5811,
      "shuala": 5812,
      "shagang": 5813,
      "Yuta": 5814,
      "Yuli": 5815,
      "Yahp": 5816,
      "Yala": 5817,
      "Yara": 5818,
      "Yada": 5819,
      "Yadai": 5820,
      "Yanna": 5821,
      "Yaza": 5822,
      "Yazia": 5823,
      "Yalela": 5824,
      "Yazela": 5825,
      "Yazania": 5826,
      "Yaplet": 5827,
      "hpunda": 5828,
      "hpuntawng": 5829,
      "numdu": 5830,
      "numdawn": 5831,
      "numbat": 5832,
      "Nagai": 5833,
      "Nasun": 5834,
      "Nahtam": 5835,
      "Nardu": 5836,
      "hpunggaw": 5837,
      "hpungngang": 5838,
      "hpungnung": 5839,
      "Hkrum": 5840,
      "Hkrap": 5841,
      "Hkrat": 5842,
      "Hkola": 5843,
      "lemot": 5844,
      "Chyu": 5845,
      "Ban": 5846,
      "Baz": 5847,
      "Bandung": 5848,
      "junipa": 5849,
      "katan": 5850,
      "Dawhkrawng": 5851,
      "eneza": 5852,
      "shakraw": 5853,
      "shakyet": 5854,
      "Yog": 5855,
      "Yoda": 5856,
      "Yoha": 5857,
      "Yoshahpat": 5858,
      "Yohke": 5859,
      "Yosek": 5860,
      "Yosahpat": 5861,
      "Yoshibia": 5862,
      "laksama": 5863,
      "lakhpoi": 5864,
      "arak": 5865,
      "shawaw": 5866,
      "shawun": 5867,
      "Yerusha": 5868,
      "singdawng": 5869,
      "hpuru": 5870,
      "zahta": 5871,
      "zabela": 5872,
      "zahaba": 5873,
      "puhtum": 5874,
      "akya": 5875,
      "akrawk": 5876,
      "kangwi": 5877,
      "Shingna": 5878,
      "Shingjawng": 5879,
      "Shingkyit": 5880,
      "kumgyin": 5881,
      "Hpai": 5882,
      "Hpaw": 5883,
      "Hpila": 5884,
      "Hpinon": 5885,
      "chyingdaw": 5886,
      "chyingbau": 5887,
      "htira": 5888,
      "htingra": 5889,
      "htinggap": 5890,
      "htingtsi": 5891,
      "htingkyang": 5892,
      "htingkup": 5893,
      "bea": 5894,
      "bekasha": 5895,
      "beha": 5896,
      "bezek": 5897,
      "Sumtsaw": 5898,
      "Sumnung": 5899,
      "lawngdu": 5900,
      "lawngsap": 5901,
      "apai": 5902,
      "apyet": 5903,
      "Yawnam": 5904,
      "Yawrim": 5905,
      "Gaze": 5906,
      "Gahara": 5907,
      "Galeda": 5908,
      "Gazam": 5909,
      "runghtung": 5910,
      "makrai": 5911,
      "makru": 5912,
      "makrim": 5913,
      "makrut": 5914,
      "madam": 5915,
      "kapyawn": 5916,
      "chyahkra": 5917,
      "chyamai": 5918,
      "chyahkraw": 5919,
      "chyahkat": 5920,
      "ginwan": 5921,
      "gintan": 5922,
      "ginjup": 5923,
      "gindigram": 5924,
      "Amzi": 5925,
      "Amyat": 5926,
      "Amok": 5927,
      "chyup": 5928,
      "jahproi": 5929,
      "Sim": 5930,
      "Sini": 5931,
      "Sidim": 5932,
      "Sirion": 5933,
      "Legi": 5934,
      "Lehab": 5935,
      "Lemuela": 5936,
      "Helek": 5937,
      "Heleb": 5938,
      "Hesrum": 5939,
      "Ladaw": 5940,
      "Lagat": 5941,
      "Lahpawt": 5942,
      "Lasama": 5943,
      "Laugung": 5944,
      "hpawlam": 5945,
      "Sama": 5946,
      "Salai": 5947,
      "Salo": 5948,
      "Sahkara": 5949,
      "Sabhta": 5950,
      "hpaichyau": 5951,
      "Eliu": 5952,
      "Eliam": 5953,
      "Elihon": 5954,
      "Abda": 5955,
      "hkaibang": 5956,
      "Hash": 5957,
      "Haru": 5958,
      "Halak": 5959,
      "Hashut": 5960,
      "Hado": 5961,
      "Halo": 5962,
      "Haniela": 5963,
      "Hahke": 5964,
      "Hadrak": 5965,
      "Hamahti": 5966,
      "Hatila": 5967,
      "Hatihpa": 5968,
      "Hauran": 5969,
      "Hatita": 5970,
      "Hasuhpa": 5971,
      "Hakuhpa": 5972,
      "dokia": 5973,
      "gangbang": 5974,
      "Hkara": 5975,
      "Hkaslu": 5976,
      "Medan": 5977,
      "Melia": 5978,
      "Mepat": 5979,
      "Medad": 5980,
      "Meuni": 5981,
      "Mehtusela": 5982,
      "Merodak": 5983,
      "Meunim": 5984,
      "Mezahaba": 5985,
      "Htumrin": 5986,
      "htuha": 5987,
      "Gitim": 5988,
      "Gidalti": 5989,
      "Zeu": 5990,
      "Zeri": 5991,
      "Zehtam": 5992,
      "Zelek": 5993,
      "Zeret": 5994,
      "Zedad": 5995,
      "Zebi": 5996,
      "Zered": 5997,
      "Zemarim": 5998,
      "Zelutu": 5999,
      "Zereda": 6000,
      "imot": 6001,
      "lapai": 6002,
      "Mis": 6003,
      "Mitre": 6004,
      "Misre": 6005,
      "Mora": 6006,
      "Moria": 6007,
      "Bena": 6008,
      "Besai": 6009,
      "Bedad": 6010,
      "Bered": 6011,
      "Behtera": 6012,
      "Bezek": 6013,
      "Besora": 6014,
      "Shera": 6015,
      "Shewa": 6016,
      "Sheria": 6017,
      "Shelep": 6018,
      "Shelishiya": 6019,
      "naili": 6020,
      "Bainam": 6021,
      "bolet": 6022,
      "mamti": 6023,
      "Bene": 6024,
      "lanoi": 6025,
      "lanlak": 6026,
      "lanem": 6027,
      "Mungdaw": 6028,
      "Suhka": 6029,
      "Suhpa": 6030,
      "Neri": 6031,
      "Nebai": 6032,
      "Nezia": 6033,
      "Nehu": 6034,
      "loe": 6035,
      "ahkrim": 6036,
      "Resa": 6037,
      "Rehpa": 6038,
      "Reba": 6039,
      "Rehu": 6040,
      "Rezep": 6041,
      "Regem": 6042,
      "ziba": 6043,
      "zinia": 6044,
      "Zima": 6045,
      "Ziwa": 6046,
      "Gehta": 6047,
      "Getse": 6048,
      "aruk": 6049,
      "mena": 6050,
      "mehta": 6051,
      "meam": 6052,
      "Ahu": 6053,
      "Ahimot": 6054,
      "Eliahta": 6055,
      "Abiu": 6056,
      "Abida": 6057,
      "Abimaela": 6058,
      "Abitala": 6059,
      "Betbara": 6060,
      "Yehoada": 6061,
      "Pelon": 6062,
      "Pelusim": 6063,
      "neia": 6064,
      "Dingla": 6065,
      "Dingsa": 6066,
      "Tigri": 6067,
      "Tibni": 6068,
      "shagwi": 6069,
      "shagram": 6070,
      "shagreng": 6071,
      "shagroi": 6072,
      "Samurna": 6073,
      "Ruhpu": 6074,
      "Kero": 6075,
      "Keriot": 6076,
      "Hiz": 6077,
      "Balagad": 6078,
      "Zabai": 6079,
      "Zahkai": 6080,
      "Amasia": 6081,
      "Horam": 6082,
      "Hohtira": 6083,
      "Ahisha": 6084,
      "Ahiam": 6085,
      "Ahihud": 6086,
      "Gumhpan": 6087,
      "Ramat": 6088,
      "Ragu": 6089,
      "Rahpaia": 6090,
      "retori": 6091,
      "Yehoiarib": 6092,
      "Pil": 6093,
      "Pihton": 6094,
      "Kabazela": 6095,
      "Galim": 6096,
      "Goba": 6097,
      "hkinchyi": 6098,
      "Arni": 6099,
      "Arda": 6100,
      "Arnan": 6101,
      "Arki": 6102,
      "Semai": 6103,
      "Serak": 6104,
      "Sered": 6105,
      "Seled": 6106,
      "Tahan": 6107,
      "Tabera": 6108,
      "Tarea": 6109,
      "hoze": 6110,
      "home": 6111,
      "Jahkam": 6112,
      "Jahku": 6113,
      "Jasan": 6114,
      "Jahtau": 6115,
      "Yehuhkala": 6116,
      "hkola": 6117,
      "Yobahta": 6118,
      "Ishba": 6119,
      "Ishbak": 6120,
      "Ishmaia": 6121,
      "Tere": 6122,
      "Teba": 6123,
      "Tehi": 6124,
      "Tertu": 6125,
      "punghkum": 6126,
      "Eshban": 6127,
      "Eshbala": 6128,
      "Kolaia": 6129,
      "Pat": 6130,
      "Pahpu": 6131,
      "Padon": 6132,
      "Patiela": 6133,
      "Lusi": 6134,
      "Luhi": 6135,
      "Danela": 6136,
      "Nampan": 6137,
      "shaprawn": 6138,
      "Sotai": 6139,
      "Sosteni": 6140,
      "Ashna": 6141,
      "Ashbela": 6142,
      "Yitran": 6143,
      "ngauring": 6144,
      "Samla": 6145,
      "Bukia": 6146,
      "Buzi": 6147,
      "Azan": 6148,
      "Azalia": 6149,
      "Roda": 6150,
      "Roge": 6151,
      "Romamti": 6152,
      "shaprang": 6153,
      "Pergamu": 6154,
      "Azria": 6155,
      "Azmon": 6156,
      "Hula": 6157,
      "Huri": 6158,
      "Husham": 6159,
      "Hulda": 6160,
      "Lit": 6161,
      "Ramia": 6162,
      "yepdin": 6163,
      "209": 6164,
      "kinsha": 6165,
      "Angdung": 6166,
      "Elateke": 6167,
      "Elamadam": 6168,
      "Togama": 6169,
      "Saphta": 6170,
      "Hkelu": 6171,
      "Hkerit": 6172,
      "Hkeran": 6173,
      "Hkesle": 6174,
      "Hkeruba": 6175,
      "Yoshabekasha": 6176,
      "Adonizedek": 6177,
      "Adonibezek": 6178,
      "Lawhpa": 6179,
      "Lawan": 6180,
      "Langji": 6181,
      "hkeru": 6182,
      "hkerit": 6183,
      "Anab": 6184,
      "Eldad": 6185,
      "Elzabad": 6186,
      "ashuk": 6187,
      "Hpeniela": 6188,
      "Hazazon": 6189,
      "Hazarmawet": 6190,
      "Harahura": 6191,
      "Yamnga": 6192,
      "Yamne": 6193,
      "Kusam": 6194,
      "Zerak": 6195,
      "Bir": 6196,
      "Biblo": 6197,
      "Htap": 6198,
      "Htana": 6199,
      "Htade": 6200,
      "Yehoadin": 6201,
      "122": 6202,
      "127": 6203,
      "Uzala": 6204,
      "Musi": 6205,
      "hesha": 6206,
      "Shobai": 6207,
      "Shome": 6208,
      "Shemed": 6209,
      "601": 6210,
      "Rit": 6211,
      "Ribai": 6212,
      "Rihpat": 6213,
      "goiwat": 6214,
      "Matahta": 6215,
      "7560": 6216,
      "Shuni": 6217,
      "Naharai": 6218,
      "Galala": 6219,
      "Gerasa": 6220,
      "Bohkim": 6221,
      "Bohkeru": 6222,
      "Mahalat": 6223,
      "Hazara": 6224,
      "Hkauling": 6225,
      "Agabu": 6226,
      "Lakle": 6227,
      "Hezro": 6228,
      "223": 6229,
      "Admin": 6230,
      "Adriela": 6231,
      "Egla": 6232,
      "Eglat": 6233,
      "Zimran": 6234,
      "Mikmehta": 6235,
      "Hkuhta": 6236,
      "Hkushi": 6237,
      "Shamga": 6238,
      "Hkungri": 6239,
      "Hashabneia": 6240,
      "270": 6241,
      "273": 6242,
      "agret": 6243,
      "Yokhtela": 6244,
      "Yokmeam": 6245,
      "Kedema": 6246,
      "Nib": 6247,
      "Nisro": 6248,
      "Noga": 6249,
      "Nodia": 6250,
      "Shehpam": 6251,
      "Shehpati": 6252,
      "Alhpa": 6253,
      "Almon": 6254,
      "Almo": 6255,
      "Awen": 6256,
      "Meshezabela": 6257,
      "Anania": 6258,
      "Enha": 6259,
      "Ensheme": 6260,
      "Nahaliela": 6261,
      "Bilahan": 6262,
      "Shanglawt": 6263,
      "Htira": 6264,
      "Htugama": 6265,
      "Nimra": 6266,
      "Nimrim": 6267,
      "Zuhpa": 6268,
      "galip": 6269,
      "365": 6270,
      "humet": 6271,
      "372": 6272,
      "Lungpa": 6273,
      "Lungrawk": 6274,
      "Migron": 6275,
      "Bilshan": 6276,
      "Bilhan": 6277,
      "Bildad": 6278,
      "ahkyik": 6279,
      "Barko": 6280,
      "Barsaba": 6281,
      "403": 6282,
      "621": 6283,
      "Elatola": 6284,
      "Hakmoni": 6285,
      "temsi": 6286,
      "Hponik": 6287,
      "Mishala": 6288,
      "Tarshi": 6289,
      "Bightana": 6290,
      "Ezbon": 6291,
      "Imla": 6292,
      "Saidawng": 6293,
      "Heleza": 6294,
      "Hazebim": 6295,
      "247": 6296,
      "743": 6297,
      "Tabela": 6298,
      "Bakbuk": 6299,
      "Salma": 6300,
      "Mibzara": 6301,
      "288": 6302,
      "666": 6303,
      "Awit": 6304,
      "Epahpro": 6305,
      "Palati": 6306,
      "mona": 6307,
      "pilan": 6308,
      "kanawt": 6309,
      "Karnaim": 6310,
      "Kangka": 6311,
      "Mauhpa": 6312,
      "Hkonania": 6313,
      "Hkozbi": 6314,
      "Arhkipo": 6315,
      "Lukaoni": 6316,
      "Onesihpuru": 6317,
      "Aruma": 6318,
      "Eluma": 6319,
      "Hetlon": 6320,
      "Pohkerit": 6321,
      "Pungkum": 6322,
      "wonang": 6323,
      "hpawmi": 6324,
      "Madmana": 6325,
      "Lebana": 6326,
      "Lebaot": 6327,
      "Habaku": 6328,
      "Habazinia": 6329,
      "Hkalahkola": 6330,
      "Mehira": 6331,
      "Mehida": 6332,
      "Darda": 6333,
      "Darkon": 6334,
      "Atrot": 6335,
      "Auba": 6336,
      "Areli": 6337,
      "Damim": 6338,
      "Ebeneza": 6339,
      "Goim": 6340,
      "Humeni": 6341,
      "Iriya": 6342,
      "Orpa": 6343,
      "Ozem": 6344,
      "abram": 6345,
      "hkyuk": 6346,
      "Kabring": 6347,
      "Shilahi": 6348,
      "Yehkolia": 6349,
      "Yaziela": 6350,
      "Hkainu": 6351,
      "Hezira": 6352,
      "Hagaba": 6353,
      "Hasenua": 6354,
      "Meshilemot": 6355,
      "Merom": 6356,
      "Meronot": 6357,
      "Mehuyaela": 6358,
      "Bealot": 6359,
      "Gederot": 6360,
      "Tirhaka": 6361,
      "Ginehton": 6362,
      "Jaugawng": 6363,
      "Eshton": 6364,
      "Diblahtim": 6365,
      "392": 6366,
      "Adebela": 6367,
      "Atad": 6368,
      "Adumim": 6369,
      "Anaia": 6370,
      "Asharela": 6371,
      "Apaim": 6372,
      "Dinhaba": 6373,
      "Dikla": 6374,
      "Emanuela": 6375,
      "Ezekela": 6376,
      "Emek": 6377,
      "Enosha": 6378,
      "Hkabula": 6379,
      "Hukok": 6380,
      "India": 6381,
      "Ihkabu": 6382,
      "Itream": 6383,
      "Janghkam": 6384,
      "Krispu": 6385,
      "Menohtai": 6386,
      "Nephto": 6387,
      "Omega": 6388,
      "Pahke": 6389,
      "Popli": 6390,
      "Sarid": 6391,
      "Tanhumet": 6392,
      "Zananim": 6393,
      "ahpyawp": 6394,
      "nngawt": 6395,
      "kachyeng": 6396,
      "hkarutum": 6397,
      "Kapadokia": 6398,
      "Malohti": 6399,
      "Mahaziot": 6400,
      "Matreda": 6401,
      "Masreka": 6402,
      "Yekameam": 6403,
      "Yehalela": 6404,
      "Shalabona": 6405,
      "Hkolahoze": 6406,
      "Hpiladehpi": 6407,
      "Salome": 6408,
      "Sabhtahka": 6409,
      "Elihonai": 6410,
      "Hadoram": 6411,
      "Halohesha": 6412,
      "Hkasluha": 6413,
      "Mitredat": 6414,
      "Misrehpot": 6415,
      "Rehubut": 6416,
      "Getsemane": 6417,
      "Tehina": 6418,
      "Tertulu": 6419,
      "Luhit": 6420,
      "Rogelim": 6421,
      "Biblos": 6422,
      "Nisrok": 6423,
      "Almoda": 6424,
      "Enshemesha": 6425,
      "Epahprodi": 6426
    },
    "merges": [
      [
        "a",
        "i"
      ],
      [
        "n",
        "g"
      ],
      [
        "a",
        "w"
      ],
      [
        "s",
        "h"
      ],
      [
        "m",
        "a"
      ],
      [
        "n",
        "a"
      ],
      [
        "h",
        "t"
      ],
      [
        "h",
        "p"
      ],
      [
        "sh",
        "a"
      ],
      [
        "k",
        "a"
      ],
      [
        "ht",
        "e"
      ],
      [
        "hp",
        "e"
      ],
      [
        "n",
        "i"
      ],
      [
        "l",
        "a"
      ],
      [
        "ng",
        "a"
      ],
      [
        "g",
        "aw"
      ],
      [
        "r",
        "a"
      ],
      [
        "g",
        "a"
      ],
      [
        "h",
        "k"
      ],
      [
        "s",
        "a"
      ],
      [
        "m",
        "u"
      ],
      [
        "r",
        "ai"
      ],
      [
        "d",
        "a"
      ],
      [
        "d",
        "ai"
      ],
      [
        "n",
        "hte"
      ],
      [
        "n",
        "na"
      ],
      [
        "u",
        "m"
      ],
      [
        "y",
        "a"
      ],
      [
        "ng",
        "ai"
      ],
      [
        "y",
        "i"
      ],
      [
        "mu",
        "ng"
      ],
      [
        "w",
        "a"
      ],
      [
        "u",
        "n"
      ],
      [
        "ht",
        "a"
      ],
      [
        "sh",
        "i"
      ],
      [
        "aw",
        "ng"
      ],
      [
        "h",
        "ka"
      ],
      [
        "d",
        "u"
      ],
      [
        "ma",
        "t"
      ],
      [
        "l",
        "u"
      ],
      [
        "y",
        "e"
      ],
      [
        "j",
        "a"
      ],
      [
        "y",
        "u"
      ],
      [
        "K",
        "a"
      ],
      [
        "t",
        "s"
      ],
      [
        "ma",
        "sha"
      ],
      [
        "o",
        "i"
      ],
      [
        "S",
        "h"
      ],
      [
        "r",
        "i"
      ],
      [
        "hp",
        "a"
      ],
      [
        "m",
        "yi"
      ],
      [
        "d",
        "e"
      ],
      [
        "j",
        "aw"
      ],
      [
        "D",
        "ai"
      ],
      [
        "c",
        "h"
      ],
      [
        "l",
        "aw"
      ],
      [
        "M",
        "a"
      ],
      [
        "r",
        "u"
      ],
      [
        "aw",
        "n"
      ],
      [
        "r",
        "e"
      ],
      [
        "ka",
        "u"
      ],
      [
        "w",
        "u"
      ],
      [
        "i",
        "ng"
      ],
      [
        "t",
        "a"
      ],
      [
        "sha",
        "nhte"
      ],
      [
        "k",
        "aw"
      ],
      [
        "la",
        "m"
      ],
      [
        "ng",
        "u"
      ],
      [
        "a",
        "nhte"
      ],
      [
        "na",
        "ng"
      ],
      [
        "mat",
        "u"
      ],
      [
        "ts",
        "un"
      ],
      [
        "myi",
        "t"
      ],
      [
        "Ma",
        "du"
      ],
      [
        "u",
        "ng"
      ],
      [
        "ya",
        "ng"
      ],
      [
        "aw",
        "m"
      ],
      [
        "i",
        "n"
      ],
      [
        "sa",
        "ng"
      ],
      [
        "a",
        "m"
      ],
      [
        "na",
        "nhte"
      ],
      [
        "m",
        "i"
      ],
      [
        "t",
        "i"
      ],
      [
        "ma",
        "re"
      ],
      [
        "b",
        "a"
      ],
      [
        "am",
        "yu"
      ],
      [
        "ma",
        "jaw"
      ],
      [
        "ga",
        "law"
      ],
      [
        "hka",
        "m"
      ],
      [
        "hk",
        "ra"
      ],
      [
        "Ka",
        "rai"
      ],
      [
        "Ka",
        "sang"
      ],
      [
        ",",
        "”"
      ],
      [
        "n",
        "u"
      ],
      [
        "n",
        "ngai"
      ],
      [
        "sha",
        "ng"
      ],
      [
        "da",
        "n"
      ],
      [
        "ma",
        "ra"
      ],
      [
        "da",
        "t"
      ],
      [
        "g",
        "u"
      ],
      [
        "r",
        "um"
      ],
      [
        "l",
        "e"
      ],
      [
        "y",
        "awng"
      ],
      [
        "hpa",
        "ng"
      ],
      [
        "s",
        "ai"
      ],
      [
        "l",
        "i"
      ],
      [
        "l",
        "oi"
      ],
      [
        "n",
        "ht"
      ],
      [
        "n",
        "dai"
      ],
      [
        "la",
        "ngai"
      ],
      [
        "s",
        "u"
      ],
      [
        "hk",
        "u"
      ],
      [
        "Sh",
        "i"
      ],
      [
        "r",
        "aw"
      ],
      [
        "t",
        "sa"
      ],
      [
        "s",
        "i"
      ],
      [
        "hk",
        "rum"
      ],
      [
        "Y",
        "e"
      ],
      [
        "d",
        "i"
      ],
      [
        "ma",
        "n"
      ],
      [
        "s",
        "e"
      ],
      [
        "sa",
        "t"
      ],
      [
        "ch",
        "ye"
      ],
      [
        "e",
        "la"
      ],
      [
        "a",
        "ng"
      ],
      [
        "ni",
        "ng"
      ],
      [
        "hk",
        "aw"
      ],
      [
        "shang",
        "un"
      ],
      [
        "r",
        "awng"
      ],
      [
        "t",
        "u"
      ],
      [
        "n",
        "ye"
      ],
      [
        "g",
        "ai"
      ],
      [
        "t",
        "e"
      ],
      [
        "a",
        "mu"
      ],
      [
        "z",
        "awn"
      ],
      [
        "nht",
        "awm"
      ],
      [
        "N",
        "gai"
      ],
      [
        "s",
        "um"
      ],
      [
        "ra",
        "u"
      ],
      [
        "ch",
        "y"
      ],
      [
        "l",
        "ai"
      ],
      [
        "hka",
        "n"
      ],
      [
        "k",
        "u"
      ],
      [
        "Sh",
        "anhte"
      ],
      [
        "shi",
        "ng"
      ],
      [
        "hka",
        "ng"
      ],
      [
        "sa",
        "n"
      ],
      [
        "d",
        "ing"
      ],
      [
        "p",
        "a"
      ],
      [
        "sha",
        "ra"
      ],
      [
        "hk",
        "ru"
      ],
      [
        "ma",
        "ga"
      ],
      [
        "I",
        "s"
      ],
      [
        "g",
        "um"
      ],
      [
        "ra",
        "ela"
      ],
      [
        "Is",
        "raela"
      ],
      [
        "da",
        "ng"
      ],
      [
        "hk",
        "um"
      ],
      [
        "d",
        "aw"
      ],
      [
        "ye",
        "n"
      ],
      [
        "b",
        "ai"
      ],
      [
        "b",
        "aw"
      ],
      [
        "la",
        "ng"
      ],
      [
        "hkaw",
        "hkam"
      ],
      [
        "hk",
        "ung"
      ],
      [
        "g",
        "un"
      ],
      [
        "sha",
        "loi"
      ],
      [
        "t",
        "ai"
      ],
      [
        "yi",
        "n"
      ],
      [
        "ka",
        "sha"
      ],
      [
        "s",
        "in"
      ],
      [
        "sh",
        "e"
      ],
      [
        "n",
        "aw"
      ],
      [
        "hta",
        "ng"
      ],
      [
        "R",
        "ai"
      ],
      [
        "ja",
        "ng"
      ],
      [
        "sha",
        "gu"
      ],
      [
        "m",
        "ai"
      ],
      [
        "n",
        "tsa"
      ],
      [
        "ri",
        "t"
      ],
      [
        "d",
        "um"
      ],
      [
        "t",
        "awn"
      ],
      [
        "t",
        "ing"
      ],
      [
        "na",
        "n"
      ],
      [
        "Sh",
        "a"
      ],
      [
        "la",
        "mu"
      ],
      [
        "N",
        "ang"
      ],
      [
        "sa",
        "k"
      ],
      [
        "hp",
        "yen"
      ],
      [
        "b",
        "u"
      ],
      [
        "ri",
        "n"
      ],
      [
        "o",
        "n"
      ],
      [
        "p",
        "ru"
      ],
      [
        "p",
        "ra"
      ],
      [
        "le",
        "t"
      ],
      [
        "chy",
        "awm"
      ],
      [
        "te",
        "n"
      ],
      [
        "j",
        "i"
      ],
      [
        "sh",
        "u"
      ],
      [
        "mare",
        "n"
      ],
      [
        "hp",
        "yi"
      ],
      [
        "la",
        "ta"
      ],
      [
        "N",
        "anhte"
      ],
      [
        "ni",
        "t"
      ],
      [
        "Ye",
        "su"
      ],
      [
        "ka",
        "dai"
      ],
      [
        "ch",
        "yi"
      ],
      [
        "sha",
        "ga"
      ],
      [
        "aw",
        "t"
      ],
      [
        "se",
        "ng"
      ],
      [
        "Y",
        "u"
      ],
      [
        "n",
        "awng"
      ],
      [
        "ht",
        "um"
      ],
      [
        "Y",
        "a"
      ],
      [
        "ka",
        "ja"
      ],
      [
        "ya",
        "m"
      ],
      [
        "du",
        "ng"
      ],
      [
        "hta",
        "n"
      ],
      [
        "a",
        "ten"
      ],
      [
        "hp",
        "un"
      ],
      [
        "hkung",
        "ga"
      ],
      [
        "hk",
        "awng"
      ],
      [
        "j",
        "awng"
      ],
      [
        "u",
        "p"
      ],
      [
        "ka",
        "ga"
      ],
      [
        "ya",
        "n"
      ],
      [
        "ka",
        "ba"
      ],
      [
        "N",
        "dai"
      ],
      [
        "g",
        "rau"
      ],
      [
        "ja",
        "n"
      ],
      [
        "w",
        "oi"
      ],
      [
        "w",
        "i"
      ],
      [
        "ta",
        "ra"
      ],
      [
        "n",
        "um"
      ],
      [
        "hkru",
        "ng"
      ],
      [
        "H",
        "kaw"
      ],
      [
        "te",
        "ng"
      ],
      [
        "na",
        "m"
      ],
      [
        "ma",
        "du"
      ],
      [
        "Yu",
        "da"
      ],
      [
        "ri",
        "ng"
      ],
      [
        "b",
        "ung"
      ],
      [
        "N",
        "a"
      ],
      [
        "hp",
        "ung"
      ],
      [
        "Hkaw",
        "hkam"
      ],
      [
        "ma",
        "dat"
      ],
      [
        "ka",
        "m"
      ],
      [
        "H",
        "k"
      ],
      [
        "lu",
        "ng"
      ],
      [
        "a",
        "sak"
      ],
      [
        "ts",
        "aw"
      ],
      [
        "la",
        "hkawng"
      ],
      [
        "ga",
        "ra"
      ],
      [
        "ht",
        "oi"
      ],
      [
        "mung",
        "dan"
      ],
      [
        "le",
        "m"
      ],
      [
        "C",
        "h"
      ],
      [
        "hk",
        "rit"
      ],
      [
        "n",
        "ta"
      ],
      [
        "y",
        "aw"
      ],
      [
        "sha",
        "n"
      ],
      [
        "ma",
        "htang"
      ],
      [
        "B",
        "a"
      ],
      [
        "j",
        "u"
      ],
      [
        "hte",
        "n"
      ],
      [
        "ts",
        "in"
      ],
      [
        "ka",
        "ta"
      ],
      [
        "b",
        "yin"
      ],
      [
        "p",
        "raw"
      ],
      [
        "ga",
        "n"
      ],
      [
        "ja",
        "u"
      ],
      [
        "D",
        "aw"
      ],
      [
        "ga",
        "sat"
      ],
      [
        "e",
        "t"
      ],
      [
        "Daw",
        "i"
      ],
      [
        "sa",
        "di"
      ],
      [
        "in",
        "jawng"
      ],
      [
        "A",
        "nhte"
      ],
      [
        "e",
        "n"
      ],
      [
        "myi",
        "ng"
      ],
      [
        "sha",
        "k"
      ],
      [
        "ba",
        "k"
      ],
      [
        "Y",
        "o"
      ],
      [
        "kaw",
        "a"
      ],
      [
        "la",
        "k"
      ],
      [
        "a",
        "ra"
      ],
      [
        "sh",
        "aw"
      ],
      [
        "d",
        "un"
      ],
      [
        "r",
        "un"
      ],
      [
        "la",
        "u"
      ],
      [
        "raw",
        "t"
      ],
      [
        "sha",
        "ni"
      ],
      [
        "naw",
        "ku"
      ],
      [
        "Ye",
        "ru"
      ],
      [
        "sa",
        "lem"
      ],
      [
        "Yeru",
        "salem"
      ],
      [
        "hk",
        "ye"
      ],
      [
        "sha",
        "dang"
      ],
      [
        "N",
        "aw"
      ],
      [
        "p",
        "yi"
      ],
      [
        "yu",
        "bak"
      ],
      [
        "N",
        "ye"
      ],
      [
        "s",
        "ing"
      ],
      [
        "ga",
        "loi"
      ],
      [
        "H",
        "ting"
      ],
      [
        "hp",
        "u"
      ],
      [
        "z",
        "a"
      ],
      [
        "Hting",
        "nu"
      ],
      [
        "b",
        "ra"
      ],
      [
        "ka",
        "n"
      ],
      [
        "ma",
        "li"
      ],
      [
        "Naw",
        "ku"
      ],
      [
        "M",
        "aw"
      ],
      [
        "hk",
        "awm"
      ],
      [
        "a",
        "rai"
      ],
      [
        "p",
        "u"
      ],
      [
        "hkra",
        "ng"
      ],
      [
        "Maw",
        "she"
      ],
      [
        "a",
        "k"
      ],
      [
        "wa",
        "n"
      ],
      [
        "ka",
        "ng"
      ],
      [
        "hp",
        "ring"
      ],
      [
        "sh",
        "awng"
      ],
      [
        "ma",
        "ng"
      ],
      [
        "Sha",
        "loi"
      ],
      [
        "nht",
        "oi"
      ],
      [
        "E",
        "gu"
      ],
      [
        "g",
        "yi"
      ],
      [
        "Egu",
        "tu"
      ],
      [
        "H",
        "pa"
      ],
      [
        "na",
        "u"
      ],
      [
        "ra",
        "m"
      ],
      [
        "Sh",
        "ing"
      ],
      [
        "h",
        "a"
      ],
      [
        "p",
        "yaw"
      ],
      [
        "?",
        ",”"
      ],
      [
        "k",
        "um"
      ],
      [
        "Sh",
        "aw"
      ],
      [
        "gum",
        "lau"
      ],
      [
        "na",
        "t"
      ],
      [
        "H",
        "p"
      ],
      [
        "hk",
        "injawng"
      ],
      [
        "tu",
        "p"
      ],
      [
        "ga",
        "m"
      ],
      [
        "sha",
        "praw"
      ],
      [
        "ka",
        "bu"
      ],
      [
        "chyi",
        "ng"
      ],
      [
        "a",
        "ri"
      ],
      [
        "ti",
        "nang"
      ],
      [
        "hta",
        "u"
      ],
      [
        "w",
        "e"
      ],
      [
        "m",
        "aw"
      ],
      [
        "n",
        "htang"
      ],
      [
        "hp",
        "raw"
      ],
      [
        "ht",
        "i"
      ],
      [
        "b",
        "yi"
      ],
      [
        "ma",
        "yu"
      ],
      [
        "ht",
        "ing"
      ],
      [
        "maga",
        "m"
      ],
      [
        "b",
        "e"
      ],
      [
        "shu",
        "t"
      ],
      [
        "hpa",
        "ji"
      ],
      [
        "hka",
        "p"
      ],
      [
        "ka",
        "ji"
      ],
      [
        "sa",
        "gu"
      ],
      [
        "ma",
        "dun"
      ],
      [
        "S",
        "um"
      ],
      [
        "t",
        "aw"
      ],
      [
        "l",
        "awng"
      ],
      [
        "a",
        "p"
      ],
      [
        "ri",
        "s"
      ],
      [
        "d",
        "awng"
      ],
      [
        "ak",
        "yu"
      ],
      [
        "ka",
        "rum"
      ],
      [
        "hkra",
        "t"
      ],
      [
        "Hk",
        "ris"
      ],
      [
        "chye",
        "ju"
      ],
      [
        "sha",
        "rin"
      ],
      [
        "num",
        "sha"
      ],
      [
        "ra",
        "n"
      ],
      [
        "ma",
        "sin"
      ],
      [
        "ja",
        "hten"
      ],
      [
        "sha",
        "m"
      ],
      [
        "Y",
        "aw"
      ],
      [
        "ri",
        "m"
      ],
      [
        "ba",
        "ng"
      ],
      [
        "se",
        "n"
      ],
      [
        "ka",
        "ning"
      ],
      [
        "pra",
        "t"
      ],
      [
        "s",
        "aw"
      ],
      [
        "G",
        "a"
      ],
      [
        "ru",
        "ng"
      ],
      [
        "shak",
        "awn"
      ],
      [
        "s",
        "un"
      ],
      [
        "lu",
        "sha"
      ],
      [
        "ga",
        "lu"
      ],
      [
        "sha",
        "na"
      ],
      [
        ",",
        "’"
      ],
      [
        "ma",
        "k"
      ],
      [
        "ma",
        "da"
      ],
      [
        "Ch",
        "ya"
      ],
      [
        "d",
        "awn"
      ],
      [
        "ka",
        "sa"
      ],
      [
        "j",
        "e"
      ],
      [
        "chy",
        "oi"
      ],
      [
        "ka",
        "p"
      ],
      [
        "hk",
        "awn"
      ],
      [
        "sha",
        "rawng"
      ],
      [
        "p",
        "e"
      ],
      [
        "tsa",
        "n"
      ],
      [
        "ch",
        "ya"
      ],
      [
        "ra",
        "ng"
      ],
      [
        "mat",
        "san"
      ],
      [
        "Ma",
        "sha"
      ],
      [
        "gu",
        "p"
      ],
      [
        "g",
        "in"
      ],
      [
        "l",
        "um"
      ],
      [
        "Hkris",
        "tu"
      ],
      [
        "ma",
        "nu"
      ],
      [
        "a",
        "hkang"
      ],
      [
        "A",
        "m"
      ],
      [
        "a",
        "n"
      ],
      [
        "myi",
        "htoi"
      ],
      [
        "p",
        "awt"
      ],
      [
        "law",
        "m"
      ],
      [
        "hk",
        "yi"
      ],
      [
        "da",
        "m"
      ],
      [
        "ch",
        "yu"
      ],
      [
        "n",
        "kau"
      ],
      [
        "ta",
        "m"
      ],
      [
        "kaw",
        "p"
      ],
      [
        "ma",
        "sum"
      ],
      [
        "chying",
        "hka"
      ],
      [
        "!",
        ",”"
      ],
      [
        "sa",
        "byi"
      ],
      [
        "n",
        "sen"
      ],
      [
        "i",
        "a"
      ],
      [
        "ja",
        "hp"
      ],
      [
        "S",
        "i"
      ],
      [
        "gum",
        "hpraw"
      ],
      [
        "g",
        "rai"
      ],
      [
        "g",
        "ru"
      ],
      [
        "sa",
        "nit"
      ],
      [
        "sha",
        "nu"
      ],
      [
        "L",
        "e"
      ],
      [
        "ya",
        "k"
      ],
      [
        "en",
        "yi"
      ],
      [
        "b",
        "ye"
      ],
      [
        "gru",
        "p"
      ],
      [
        "ja",
        "htau"
      ],
      [
        "mung",
        "ga"
      ],
      [
        "b",
        "um"
      ],
      [
        "H",
        "e"
      ],
      [
        "su",
        "t"
      ],
      [
        "L",
        "a"
      ],
      [
        "hp",
        "aw"
      ],
      [
        "S",
        "a"
      ],
      [
        "tsa",
        "p"
      ],
      [
        "e",
        "m"
      ],
      [
        "hkung",
        "ri"
      ],
      [
        "t",
        "sang"
      ],
      [
        "sha",
        "tai"
      ],
      [
        "ba",
        "n"
      ],
      [
        "lu",
        "p"
      ],
      [
        "baw",
        "sang"
      ],
      [
        "lak",
        "ung"
      ],
      [
        "hpa",
        "n"
      ],
      [
        "j",
        "in"
      ],
      [
        "hp",
        "ai"
      ],
      [
        "E",
        "li"
      ],
      [
        "da",
        "p"
      ],
      [
        "le",
        "ng"
      ],
      [
        "ma",
        "yawng"
      ],
      [
        "sa",
        "lang"
      ],
      [
        "ts",
        "awm"
      ],
      [
        "shing",
        "kang"
      ],
      [
        "la",
        "ma"
      ],
      [
        "da",
        "ru"
      ],
      [
        "ngu",
        "t"
      ],
      [
        "ma",
        "rai"
      ],
      [
        "sum",
        "la"
      ],
      [
        "pa",
        "lawng"
      ],
      [
        "A",
        "b"
      ],
      [
        "tsa",
        "m"
      ],
      [
        "hk",
        "ai"
      ],
      [
        "mung",
        "kan"
      ],
      [
        "hpa",
        "ra"
      ],
      [
        "l",
        "on"
      ],
      [
        "sa",
        "ga"
      ],
      [
        "H",
        "a"
      ],
      [
        "mak",
        "oi"
      ],
      [
        "z",
        "e"
      ],
      [
        "ning",
        "baw"
      ],
      [
        "law",
        "t"
      ],
      [
        "ma",
        "de"
      ],
      [
        "hta",
        "ni"
      ],
      [
        "t",
        "um"
      ],
      [
        "ma",
        "sai"
      ],
      [
        "wa",
        "ng"
      ],
      [
        "sha",
        "da"
      ],
      [
        "nga",
        "m"
      ],
      [
        "ka",
        "shu"
      ],
      [
        "sha",
        "ka"
      ],
      [
        "ma",
        "nga"
      ],
      [
        "hta",
        "na"
      ],
      [
        "lai",
        "ka"
      ],
      [
        "ding",
        "hku"
      ],
      [
        "hp",
        "awng"
      ],
      [
        "ma",
        "kau"
      ],
      [
        "ka",
        "ya"
      ],
      [
        "ka",
        "nu"
      ],
      [
        "tu",
        "t"
      ],
      [
        ".",
        "”"
      ],
      [
        "ma",
        "jan"
      ],
      [
        "ga",
        "rai"
      ],
      [
        "d",
        "o"
      ],
      [
        "ma",
        "nit"
      ],
      [
        "T",
        "ara"
      ],
      [
        "a",
        "ga"
      ],
      [
        "li",
        "t"
      ],
      [
        "mai",
        "gan"
      ],
      [
        "yu",
        "p"
      ],
      [
        "Ya",
        "ku"
      ],
      [
        "g",
        "rin"
      ],
      [
        "mu",
        "k"
      ],
      [
        "shaw",
        "a"
      ],
      [
        "ka",
        "de"
      ],
      [
        "Shaw",
        "lu"
      ],
      [
        "ga",
        "ng"
      ],
      [
        "ma",
        "hkra"
      ],
      [
        "a",
        "tsam"
      ],
      [
        "sum",
        "sing"
      ],
      [
        "Le",
        "wi"
      ],
      [
        "la",
        "gaw"
      ],
      [
        "Ba",
        "be"
      ],
      [
        "Babe",
        "lon"
      ],
      [
        "H",
        "ka"
      ],
      [
        "ma",
        "u"
      ],
      [
        "sha",
        "man"
      ],
      [
        "matu",
        "t"
      ],
      [
        "hta",
        "m"
      ],
      [
        "hk",
        "yen"
      ],
      [
        "ma",
        "chyi"
      ],
      [
        "ma",
        "kawp"
      ],
      [
        "bung",
        "li"
      ],
      [
        "ma",
        "yam"
      ],
      [
        "M",
        "e"
      ],
      [
        "Ch",
        "y"
      ],
      [
        "H",
        "tum"
      ],
      [
        "ma",
        "hkawn"
      ],
      [
        "Ye",
        "h"
      ],
      [
        "di",
        "k"
      ],
      [
        "ht",
        "u"
      ],
      [
        "t",
        "awng"
      ],
      [
        "n",
        "tsin"
      ],
      [
        "hte",
        "t"
      ],
      [
        "ga",
        "p"
      ],
      [
        "b",
        "awng"
      ],
      [
        "G",
        "i"
      ],
      [
        "n",
        "awn"
      ],
      [
        "sha",
        "grau"
      ],
      [
        "da",
        "gam"
      ],
      [
        "n",
        "lung"
      ],
      [
        "hp",
        "rawng"
      ],
      [
        "ma",
        "ri"
      ],
      [
        "sa",
        "pe"
      ],
      [
        "ja",
        "htum"
      ],
      [
        "T",
        "saw"
      ],
      [
        "ti",
        "m"
      ],
      [
        "Z",
        "e"
      ],
      [
        "ma",
        "su"
      ],
      [
        "A",
        "bra"
      ],
      [
        "p",
        "oi"
      ],
      [
        "sha",
        "ta"
      ],
      [
        "i",
        "m"
      ],
      [
        "sa",
        "u"
      ],
      [
        "hk",
        "un"
      ],
      [
        "sha",
        "yi"
      ],
      [
        "i",
        "li"
      ],
      [
        "ht",
        "ung"
      ],
      [
        "hk",
        "ring"
      ],
      [
        "hkyi",
        "ng"
      ],
      [
        "k",
        "ung"
      ],
      [
        "ma",
        "lai"
      ],
      [
        "A",
        "run"
      ],
      [
        "mu",
        "n"
      ],
      [
        "la",
        "jang"
      ],
      [
        "ts",
        "i"
      ],
      [
        "kum",
        "hpa"
      ],
      [
        "ma",
        "ni"
      ],
      [
        "ka",
        "yin"
      ],
      [
        "hting",
        "nu"
      ],
      [
        "W",
        "a"
      ],
      [
        "W",
        "enyi"
      ],
      [
        "ht",
        "awng"
      ],
      [
        "Hp",
        "ili"
      ],
      [
        "ra",
        "p"
      ],
      [
        "lu",
        "k"
      ],
      [
        "aw",
        "k"
      ],
      [
        "hkra",
        "p"
      ],
      [
        "su",
        "k"
      ],
      [
        "ma",
        "nam"
      ],
      [
        "ka",
        "nau"
      ],
      [
        "sha",
        "bra"
      ],
      [
        "luk",
        "suk"
      ],
      [
        "ka",
        "rai"
      ],
      [
        "mara",
        "ng"
      ],
      [
        "la",
        "p"
      ],
      [
        "M",
        "i"
      ],
      [
        "n",
        "sa"
      ],
      [
        "j",
        "ing"
      ],
      [
        "h",
        "am"
      ],
      [
        "sha",
        "ngai"
      ],
      [
        "sha",
        "daw"
      ],
      [
        "ka",
        "htet"
      ],
      [
        "sha",
        "b"
      ],
      [
        "hpyi",
        "t"
      ],
      [
        "hti",
        "m"
      ],
      [
        "l",
        "un"
      ],
      [
        "gaw",
        "n"
      ],
      [
        "Shaw",
        "lum"
      ],
      [
        "Shawlum",
        "on"
      ],
      [
        "M",
        "o"
      ],
      [
        "r",
        "o"
      ],
      [
        "nga",
        "ng"
      ],
      [
        "sak",
        "se"
      ],
      [
        "Abra",
        "ham"
      ],
      [
        "ka",
        "bai"
      ],
      [
        "la",
        "sha"
      ],
      [
        "Chya",
        "htum"
      ],
      [
        "hk",
        "raw"
      ],
      [
        "y",
        "awn"
      ],
      [
        "z",
        "ing"
      ],
      [
        "Chya",
        "lai"
      ],
      [
        "B",
        "e"
      ],
      [
        "du",
        "t"
      ],
      [
        "Sh",
        "e"
      ],
      [
        "i",
        "k"
      ],
      [
        "ka",
        "jawng"
      ],
      [
        "e",
        "p"
      ],
      [
        "ka",
        "lang"
      ],
      [
        "0",
        "0"
      ],
      [
        "a",
        "la"
      ],
      [
        "Ka",
        "sha"
      ],
      [
        "si",
        "m"
      ],
      [
        "ng",
        "wi"
      ],
      [
        "ma",
        "rin"
      ],
      [
        "n",
        "ai"
      ],
      [
        "hka",
        "t"
      ],
      [
        "gum",
        "ra"
      ],
      [
        "k",
        "ri"
      ],
      [
        "n",
        "ni"
      ],
      [
        "sha",
        "ku"
      ],
      [
        "mat",
        "sat"
      ],
      [
        "shaku",
        "t"
      ],
      [
        "ang",
        "lai"
      ],
      [
        "B",
        "ai"
      ],
      [
        "sha",
        "rawt"
      ],
      [
        "g",
        "raw"
      ],
      [
        "bung",
        "hku"
      ],
      [
        "b",
        "o"
      ],
      [
        "se",
        "p"
      ],
      [
        "gyi",
        "m"
      ],
      [
        "s",
        "ti"
      ],
      [
        "shi",
        "m"
      ],
      [
        "maga",
        "p"
      ],
      [
        "kum",
        "la"
      ],
      [
        "Hpili",
        "sti"
      ],
      [
        "a",
        "ya"
      ],
      [
        "n",
        "kri"
      ],
      [
        "gaw",
        "k"
      ],
      [
        "da",
        "ram"
      ],
      [
        "ba",
        "u"
      ],
      [
        "ma",
        "m"
      ],
      [
        "mat",
        "sun"
      ],
      [
        "Yo",
        "sep"
      ],
      [
        "B",
        "en"
      ],
      [
        "Hk",
        "injawng"
      ],
      [
        "la",
        "n"
      ],
      [
        "ding",
        "sa"
      ],
      [
        "shi",
        "ga"
      ],
      [
        "tsin",
        "dam"
      ],
      [
        "d",
        "in"
      ],
      [
        "r",
        "awn"
      ],
      [
        "sha",
        "tup"
      ],
      [
        "pa",
        "n"
      ],
      [
        "ta",
        "u"
      ],
      [
        "pra",
        "n"
      ],
      [
        "P",
        "aw"
      ],
      [
        "la",
        "pran"
      ],
      [
        "Paw",
        "lu"
      ],
      [
        "hka",
        "u"
      ],
      [
        "ch",
        "yang"
      ],
      [
        "s",
        "awng"
      ],
      [
        "hk",
        "rai"
      ],
      [
        "D",
        "a"
      ],
      [
        "hpyen",
        "la"
      ],
      [
        "L",
        "ai"
      ],
      [
        "ye",
        "t"
      ],
      [
        "chy",
        "um"
      ],
      [
        "M",
        "ung"
      ],
      [
        "gin",
        "ding"
      ],
      [
        "ye",
        "ng"
      ],
      [
        "sin",
        "praw"
      ],
      [
        "A",
        "ha"
      ],
      [
        "hta",
        "p"
      ],
      [
        "a",
        "gyi"
      ],
      [
        "ma",
        "yan"
      ],
      [
        "sha",
        "mying"
      ],
      [
        "di",
        "t"
      ],
      [
        "shing",
        "gan"
      ],
      [
        "g",
        "rang"
      ],
      [
        "n",
        "pu"
      ],
      [
        "ma",
        "sat"
      ],
      [
        "gum",
        "rawng"
      ],
      [
        "je",
        "yang"
      ],
      [
        ".",
        ")"
      ],
      [
        "g",
        "ing"
      ],
      [
        "k",
        "ia"
      ],
      [
        "ga",
        "t"
      ],
      [
        "ga",
        "de"
      ],
      [
        "S",
        "u"
      ],
      [
        "ka",
        "hpu"
      ],
      [
        "pa",
        "dang"
      ],
      [
        "Am",
        "yu"
      ],
      [
        "N",
        "e"
      ],
      [
        "dum",
        "su"
      ],
      [
        "k",
        "un"
      ],
      [
        "sha",
        "gun"
      ],
      [
        "du",
        "sat"
      ],
      [
        "o",
        "ra"
      ],
      [
        "nna",
        "n"
      ],
      [
        "ba",
        "t"
      ],
      [
        "Yaw",
        "shu"
      ],
      [
        "Chy",
        "oi"
      ],
      [
        "sh",
        "ai"
      ],
      [
        "l",
        "o"
      ],
      [
        "sh",
        "un"
      ],
      [
        "re",
        "ng"
      ],
      [
        "ma",
        "g"
      ],
      [
        "Yaw",
        "dan"
      ],
      [
        "a",
        "hk"
      ],
      [
        "bye",
        "ng"
      ],
      [
        "a",
        "nga"
      ],
      [
        "n",
        "bung"
      ],
      [
        "m",
        "awn"
      ],
      [
        "n",
        "em"
      ],
      [
        "masha",
        "m"
      ],
      [
        "de",
        "n"
      ],
      [
        "R",
        "e"
      ],
      [
        "ma",
        "gup"
      ],
      [
        "kung",
        "dawn"
      ],
      [
        "k",
        "ru"
      ],
      [
        "s",
        "ung"
      ],
      [
        "hp",
        "awn"
      ],
      [
        "nht",
        "u"
      ],
      [
        "maw",
        "ai"
      ],
      [
        "do",
        "m"
      ],
      [
        "P",
        "et"
      ],
      [
        "ga",
        "ri"
      ],
      [
        "z",
        "i"
      ],
      [
        "ma",
        "nang"
      ],
      [
        "Pet",
        "ru"
      ],
      [
        "n",
        "si"
      ],
      [
        "sa",
        "li"
      ],
      [
        "sa",
        "hka"
      ],
      [
        "ri",
        "a"
      ],
      [
        "ra",
        "t"
      ],
      [
        "graw",
        "p"
      ],
      [
        "a",
        "sai"
      ],
      [
        "le",
        "a"
      ],
      [
        "sha",
        "jang"
      ],
      [
        "Z",
        "i"
      ],
      [
        "je",
        "p"
      ],
      [
        "si",
        "t"
      ],
      [
        "a",
        "grawp"
      ],
      [
        "re",
        "m"
      ],
      [
        "Lai",
        "ka"
      ],
      [
        "p",
        "anglai"
      ],
      [
        "la",
        "chyum"
      ],
      [
        "jahp",
        "awt"
      ],
      [
        "Mo",
        "ba"
      ],
      [
        "ma",
        "rit"
      ],
      [
        "G",
        "e"
      ],
      [
        "j",
        "ung"
      ],
      [
        "sha",
        "run"
      ],
      [
        "bai",
        "nam"
      ],
      [
        "a",
        "ja"
      ],
      [
        "k",
        "awng"
      ],
      [
        "aw",
        "a"
      ],
      [
        "hk",
        "i"
      ],
      [
        "sin",
        "dawng"
      ],
      [
        "B",
        "um"
      ],
      [
        "M",
        "yi"
      ],
      [
        "P",
        "ra"
      ],
      [
        "w",
        "enyi"
      ],
      [
        "sha",
        "myit"
      ],
      [
        "chye",
        "n"
      ],
      [
        "A",
        "i"
      ],
      [
        "a",
        "rung"
      ],
      [
        "shing",
        "gyim"
      ],
      [
        "ha",
        "n"
      ],
      [
        "nai",
        "si"
      ],
      [
        "u",
        "su"
      ],
      [
        "ang",
        "awk"
      ],
      [
        "ding",
        "da"
      ],
      [
        "sha",
        "dawn"
      ],
      [
        "re",
        "n"
      ],
      [
        "ta",
        "n"
      ],
      [
        "le",
        "n"
      ],
      [
        "hkru",
        "p"
      ],
      [
        "jing",
        "hku"
      ],
      [
        "a",
        "na"
      ],
      [
        "m",
        "oi"
      ],
      [
        "y",
        "awt"
      ],
      [
        "ma",
        "kam"
      ],
      [
        "sha",
        "byin"
      ],
      [
        "n",
        "lang"
      ],
      [
        "chy",
        "aw"
      ],
      [
        "ding",
        "dung"
      ],
      [
        "shaw",
        "p"
      ],
      [
        "r",
        "on"
      ],
      [
        "n",
        "ba"
      ],
      [
        "n",
        "wa"
      ],
      [
        "a",
        "b"
      ],
      [
        "a",
        "rawng"
      ],
      [
        "Yaw",
        "han"
      ],
      [
        "sha",
        "ning"
      ],
      [
        "yi",
        "ng"
      ],
      [
        "n",
        "yang"
      ],
      [
        "ja",
        "san"
      ],
      [
        "ts",
        "ing"
      ],
      [
        "le",
        "k"
      ],
      [
        "nga",
        "mai"
      ],
      [
        "yam",
        "in"
      ],
      [
        "a",
        "ru"
      ],
      [
        "di",
        "p"
      ],
      [
        "mau",
        "hpa"
      ],
      [
        "nga",
        "mu"
      ],
      [
        "ja",
        "hkrat"
      ],
      [
        "sha",
        "ja"
      ],
      [
        "Sum",
        "pu"
      ],
      [
        "Ben",
        "yamin"
      ],
      [
        "N",
        "htoi"
      ],
      [
        "k",
        "raw"
      ],
      [
        "ma",
        "lu"
      ],
      [
        "mat",
        "sing"
      ],
      [
        "ts",
        "up"
      ],
      [
        "ga",
        "lai"
      ],
      [
        "jaw",
        "n"
      ],
      [
        "ting",
        "nyang"
      ],
      [
        "s",
        "awn"
      ],
      [
        "m",
        "e"
      ],
      [
        "ht",
        "awn"
      ],
      [
        "Ka",
        "dai"
      ],
      [
        "G",
        "ara"
      ],
      [
        "ka",
        "b"
      ],
      [
        "mang",
        "oi"
      ],
      [
        "A",
        "h"
      ],
      [
        "shing",
        "ran"
      ],
      [
        "Eli",
        "a"
      ],
      [
        "ma",
        "lap"
      ],
      [
        "sa",
        "ra"
      ],
      [
        "Ka",
        "bu"
      ],
      [
        "maga",
        "ng"
      ],
      [
        "a",
        "sawng"
      ],
      [
        "tsan",
        "lun"
      ],
      [
        "E",
        "dom"
      ],
      [
        "sh",
        "awn"
      ],
      [
        "la",
        "t"
      ],
      [
        "Yo",
        "na"
      ],
      [
        "mag",
        "ri"
      ],
      [
        "t",
        "in"
      ],
      [
        "ht",
        "ai"
      ],
      [
        "sha",
        "rung"
      ],
      [
        "Ab",
        "i"
      ],
      [
        "w",
        "un"
      ],
      [
        "ja",
        "t"
      ],
      [
        "B",
        "et"
      ],
      [
        "b",
        "un"
      ],
      [
        "d",
        "oi"
      ],
      [
        "ng",
        "oi"
      ],
      [
        "ka",
        "htawng"
      ],
      [
        "Sha",
        "n"
      ],
      [
        "n",
        "sin"
      ],
      [
        "hka",
        "lem"
      ],
      [
        "Ma",
        "na"
      ],
      [
        "la",
        "man"
      ],
      [
        "law",
        "ze"
      ],
      [
        "z",
        "ai"
      ],
      [
        "hk",
        "oi"
      ],
      [
        "mat",
        "se"
      ],
      [
        "ning",
        "dang"
      ],
      [
        "Yeh",
        "o"
      ],
      [
        "ja",
        "seng"
      ],
      [
        "A",
        "su"
      ],
      [
        "P",
        "e"
      ],
      [
        "hp",
        "ya"
      ],
      [
        "hp",
        "ri"
      ],
      [
        "D",
        "e"
      ],
      [
        "E",
        "hp"
      ],
      [
        "n",
        "e"
      ],
      [
        "D",
        "ing"
      ],
      [
        "r",
        "oi"
      ],
      [
        "ka",
        "man"
      ],
      [
        "Sha",
        "ka"
      ],
      [
        "da",
        "ra"
      ],
      [
        "ts",
        "ai"
      ],
      [
        "Mana",
        "she"
      ],
      [
        "Asu",
        "ri"
      ],
      [
        "ga",
        "la"
      ],
      [
        "Su",
        "ri"
      ],
      [
        "ja",
        "rit"
      ],
      [
        "Ma",
        "re"
      ],
      [
        "ning",
        "hkap"
      ],
      [
        "sum",
        "ri"
      ],
      [
        "Shi",
        "ga"
      ],
      [
        "hkung",
        "ran"
      ],
      [
        "T",
        "i"
      ],
      [
        "shaga",
        "n"
      ],
      [
        "n",
        "pawt"
      ],
      [
        "y",
        "awm"
      ],
      [
        "sha",
        "t"
      ],
      [
        "hkaw",
        "seng"
      ],
      [
        "Eli",
        "sha"
      ],
      [
        "bo",
        "am"
      ],
      [
        "la",
        "bye"
      ],
      [
        "hk",
        "run"
      ],
      [
        "gara",
        "n"
      ],
      [
        "kan",
        "awn"
      ],
      [
        "Chy",
        "um"
      ],
      [
        "j",
        "et"
      ],
      [
        "sha",
        "g"
      ],
      [
        "shi",
        "n"
      ],
      [
        "hp",
        "awt"
      ],
      [
        "sha",
        "mai"
      ],
      [
        "shi",
        "a"
      ],
      [
        "ch",
        "yam"
      ],
      [
        "Yo",
        "ab"
      ],
      [
        "a",
        "hkrung"
      ],
      [
        "g",
        "yin"
      ],
      [
        "n",
        "hpu"
      ],
      [
        "da",
        "gup"
      ],
      [
        "S",
        "amu"
      ],
      [
        "sha",
        "hpa"
      ],
      [
        "shara",
        "ng"
      ],
      [
        "gum",
        "tawng"
      ],
      [
        "hkau",
        "na"
      ],
      [
        "R",
        "u"
      ],
      [
        "o",
        "t"
      ],
      [
        "ma",
        "gaw"
      ],
      [
        "ht",
        "aw"
      ],
      [
        "hp",
        "rang"
      ],
      [
        "n",
        "da"
      ],
      [
        "z",
        "ia"
      ],
      [
        "Sum",
        "sing"
      ],
      [
        "sum",
        "wi"
      ],
      [
        "sum",
        "pan"
      ],
      [
        "Samu",
        "ela"
      ],
      [
        "I",
        "sak"
      ],
      [
        "a",
        "sin"
      ],
      [
        "aw",
        "u"
      ],
      [
        "jahp",
        "oi"
      ],
      [
        "d",
        "on"
      ],
      [
        "j",
        "ai"
      ],
      [
        "sha",
        "yawt"
      ],
      [
        "Am",
        "on"
      ],
      [
        "sha",
        "dung"
      ],
      [
        "m",
        "yu"
      ],
      [
        "ka",
        "hpa"
      ],
      [
        "kaw",
        "si"
      ],
      [
        "du",
        "p"
      ],
      [
        "ja",
        "hkring"
      ],
      [
        "Hka",
        "nan"
      ],
      [
        "ma",
        "na"
      ],
      [
        "gaw",
        "ng"
      ],
      [
        "hpa",
        "reng"
      ],
      [
        "He",
        "b"
      ],
      [
        "zing",
        "ri"
      ],
      [
        "g",
        "wi"
      ],
      [
        "k",
        "ya"
      ],
      [
        "ka",
        "shun"
      ],
      [
        "ts",
        "ep"
      ],
      [
        "Ba",
        "nsa"
      ],
      [
        "Sa",
        "mari"
      ],
      [
        "u",
        "k"
      ],
      [
        "ka",
        "nang"
      ],
      [
        "ka",
        "bye"
      ],
      [
        "ka",
        "tsi"
      ],
      [
        "gaw",
        "t"
      ],
      [
        "a",
        "hkaw"
      ],
      [
        "K",
        "awa"
      ],
      [
        "l",
        "wi"
      ],
      [
        "p",
        "yen"
      ],
      [
        "hp",
        "ra"
      ],
      [
        "sha",
        "lawt"
      ],
      [
        "lam",
        "ik"
      ],
      [
        "Si",
        "mun"
      ],
      [
        "Ehp",
        "rim"
      ],
      [
        "K",
        "e"
      ],
      [
        "ma",
        "ka"
      ],
      [
        "ga",
        "ru"
      ],
      [
        "shing",
        "gyin"
      ],
      [
        "sha",
        "dum"
      ],
      [
        "Hp",
        "ang"
      ],
      [
        "kaya",
        "t"
      ],
      [
        "Aha",
        "b"
      ],
      [
        "H",
        "i"
      ],
      [
        "P",
        "oi"
      ],
      [
        "sha",
        "chyu"
      ],
      [
        "sha",
        "bat"
      ],
      [
        "Ba",
        "la"
      ],
      [
        "Mung",
        "dan"
      ],
      [
        "a",
        "si"
      ],
      [
        "z",
        "up"
      ],
      [
        "taw",
        "k"
      ],
      [
        "a",
        "grin"
      ],
      [
        "ja",
        "hpan"
      ],
      [
        "Ka",
        "dit"
      ],
      [
        "chyi",
        "t"
      ],
      [
        "sa",
        "m"
      ],
      [
        "ya",
        "t"
      ],
      [
        "hkra",
        "k"
      ],
      [
        "hkye",
        "ng"
      ],
      [
        "gam",
        "yet"
      ],
      [
        "He",
        "ze"
      ],
      [
        "shachyu",
        "t"
      ],
      [
        "Heze",
        "kia"
      ],
      [
        "sha",
        "dan"
      ],
      [
        "ga",
        "doi"
      ],
      [
        "si",
        "nna"
      ],
      [
        "n",
        "oi"
      ],
      [
        "Zi",
        "un"
      ],
      [
        "S",
        "ara"
      ],
      [
        "sha",
        "den"
      ],
      [
        "jaw",
        "m"
      ],
      [
        "ch",
        "yin"
      ],
      [
        "Yona",
        "htan"
      ],
      [
        "Z",
        "a"
      ],
      [
        "a",
        "chyin"
      ],
      [
        "sha",
        "dik"
      ],
      [
        "shabra",
        "ng"
      ],
      [
        "a",
        "tsawm"
      ],
      [
        "n",
        "hpang"
      ],
      [
        "Sh",
        "awng"
      ],
      [
        "Ne",
        "bu"
      ],
      [
        "ka",
        "dawng"
      ],
      [
        "hkra",
        "n"
      ],
      [
        ",’",
        "”"
      ],
      [
        "lea",
        "d"
      ],
      [
        "A",
        "ma"
      ],
      [
        "H",
        "o"
      ],
      [
        "hp",
        "um"
      ],
      [
        "la",
        "gu"
      ],
      [
        "da",
        "la"
      ],
      [
        "Ka",
        "ga"
      ],
      [
        "Gi",
        "lead"
      ],
      [
        "z",
        "in"
      ],
      [
        "la",
        "nga"
      ],
      [
        "gaw",
        "m"
      ],
      [
        "sang",
        "hpaw"
      ],
      [
        "ala",
        "t"
      ],
      [
        "sha",
        "za"
      ],
      [
        "la",
        "chyit"
      ],
      [
        "gyi",
        "t"
      ],
      [
        "Ah",
        "i"
      ],
      [
        "G",
        "um"
      ],
      [
        "R",
        "a"
      ],
      [
        "ma",
        "di"
      ],
      [
        "sha",
        "dun"
      ],
      [
        "sha",
        "grin"
      ],
      [
        "ka",
        "si"
      ],
      [
        "sa",
        "dang"
      ],
      [
        "sa",
        "lo"
      ],
      [
        "yi",
        "t"
      ],
      [
        "law",
        "an"
      ],
      [
        "re",
        "t"
      ],
      [
        "li",
        "la"
      ],
      [
        "d",
        "ne"
      ],
      [
        "M",
        "ai"
      ],
      [
        "ka",
        "dawn"
      ],
      [
        "sing",
        "kaw"
      ],
      [
        "Yeh",
        "oi"
      ],
      [
        "j",
        "um"
      ],
      [
        "sha",
        "prat"
      ],
      [
        "yeng",
        "din"
      ],
      [
        "A",
        "sa"
      ],
      [
        "K",
        "i"
      ],
      [
        "ka",
        "ran"
      ],
      [
        "sa",
        "na"
      ],
      [
        "Ka",
        "ja"
      ],
      [
        "a",
        "kajawng"
      ],
      [
        "y",
        "un"
      ],
      [
        "ma",
        "hka"
      ],
      [
        "sha",
        "kap"
      ],
      [
        "Ye",
        "ro"
      ],
      [
        "ara",
        "t"
      ],
      [
        "n",
        "sang"
      ],
      [
        "hkang",
        "hkyi"
      ],
      [
        "P",
        "i"
      ],
      [
        "a",
        "rawn"
      ],
      [
        "ri",
        "she"
      ],
      [
        "ta",
        "ng"
      ],
      [
        "shak",
        "ram"
      ],
      [
        "Hpa",
        "rishe"
      ],
      [
        "nsa",
        "m"
      ],
      [
        "ja",
        "hku"
      ],
      [
        "ju",
        "t"
      ],
      [
        "gum",
        "hkawng"
      ],
      [
        "hk",
        "ing"
      ],
      [
        "ja",
        "hpring"
      ],
      [
        "Ab",
        "salo"
      ],
      [
        "shag",
        "rit"
      ],
      [
        "Absalo",
        "m"
      ],
      [
        "a",
        "lai"
      ],
      [
        "yu",
        "ng"
      ],
      [
        "gai",
        "da"
      ],
      [
        "shing",
        "byi"
      ],
      [
        "a",
        "dum"
      ],
      [
        "o",
        "ri"
      ],
      [
        "hka",
        "dne"
      ],
      [
        "ja",
        "hkrung"
      ],
      [
        "ja",
        "hkrit"
      ],
      [
        "Ka",
        "ba"
      ],
      [
        "pa",
        "htau"
      ],
      [
        "Nebu",
        "hkadne"
      ],
      [
        "Nebuhkadne",
        "za"
      ],
      [
        "lak",
        "ying"
      ],
      [
        "Ga",
        "li"
      ],
      [
        "hpaw",
        "k"
      ],
      [
        "G",
        "o"
      ],
      [
        "shak",
        "um"
      ],
      [
        "pu",
        "t"
      ],
      [
        "maw",
        "e"
      ],
      [
        "ka",
        "taw"
      ],
      [
        "ga",
        "u"
      ],
      [
        "hk",
        "in"
      ],
      [
        "gin",
        "wang"
      ],
      [
        "Sa",
        "gu"
      ],
      [
        "Yero",
        "boam"
      ],
      [
        "b",
        "in"
      ],
      [
        "mi",
        "a"
      ],
      [
        "t",
        "awt"
      ],
      [
        "ma",
        "hkam"
      ],
      [
        "A",
        "r"
      ],
      [
        "E",
        "saw"
      ],
      [
        "n",
        "dang"
      ],
      [
        "p",
        "yengdin"
      ],
      [
        "ma",
        "jing"
      ],
      [
        "na",
        "ni"
      ],
      [
        "hku",
        "p"
      ],
      [
        "ding",
        "grin"
      ],
      [
        "Gi",
        "be"
      ],
      [
        "Gali",
        "le"
      ],
      [
        "l",
        "ing"
      ],
      [
        "ahk",
        "yak"
      ],
      [
        "R",
        "awng"
      ],
      [
        "a",
        "mying"
      ],
      [
        "b",
        "ru"
      ],
      [
        "ht",
        "awt"
      ],
      [
        "li",
        "a"
      ],
      [
        "sum",
        "shi"
      ],
      [
        "zing",
        "rat"
      ],
      [
        "S",
        "e"
      ],
      [
        "T",
        "a"
      ],
      [
        "sha",
        "re"
      ],
      [
        "kang",
        "ka"
      ],
      [
        "Hpa",
        "ji"
      ],
      [
        "h",
        "o"
      ],
      [
        "n",
        "mu"
      ],
      [
        "u",
        "t"
      ],
      [
        "ma",
        "len"
      ],
      [
        "ja",
        "shawn"
      ],
      [
        "Ma",
        "rai"
      ],
      [
        "!",
        ",’"
      ],
      [
        "e",
        "lek"
      ],
      [
        "hp",
        "ye"
      ],
      [
        "ka",
        "t"
      ],
      [
        "la",
        "na"
      ],
      [
        "la",
        "ni"
      ],
      [
        "la",
        "tsa"
      ],
      [
        "ja",
        "hkrum"
      ],
      [
        "law",
        "u"
      ],
      [
        "ning",
        "nan"
      ],
      [
        "shing",
        "du"
      ],
      [
        "Ru",
        "bin"
      ],
      [
        "E",
        "lea"
      ],
      [
        "G",
        "in"
      ],
      [
        "J",
        "a"
      ],
      [
        "n",
        "ji"
      ],
      [
        "na",
        "k"
      ],
      [
        "ka",
        "ra"
      ],
      [
        "Am",
        "ori"
      ],
      [
        "zin",
        "li"
      ],
      [
        "a",
        "tsin"
      ],
      [
        "p",
        "awng"
      ],
      [
        "ka",
        "she"
      ],
      [
        "la",
        "jin"
      ],
      [
        "de",
        "p"
      ],
      [
        "ding",
        "nye"
      ],
      [
        "pa",
        "t"
      ],
      [
        "shab",
        "rai"
      ],
      [
        "zai",
        "bru"
      ],
      [
        "a",
        "shan"
      ],
      [
        "g",
        "ung"
      ],
      [
        "k",
        "ye"
      ],
      [
        "ma",
        "rawn"
      ],
      [
        "sha",
        "ma"
      ],
      [
        "la",
        "daw"
      ],
      [
        "Ga",
        "d"
      ],
      [
        "Yeh",
        "u"
      ],
      [
        "kab",
        "rim"
      ],
      [
        "A",
        "she"
      ],
      [
        "N",
        "um"
      ],
      [
        "a",
        "san"
      ],
      [
        "a",
        "hkying"
      ],
      [
        "k",
        "e"
      ],
      [
        "ht",
        "awm"
      ],
      [
        "hk",
        "o"
      ],
      [
        "hka",
        "lup"
      ],
      [
        "Sha",
        "ra"
      ],
      [
        "jahp",
        "awng"
      ],
      [
        "tsi",
        "t"
      ],
      [
        "sha",
        "dut"
      ],
      [
        "a",
        "nu"
      ],
      [
        "k",
        "oi"
      ],
      [
        "n",
        "maw"
      ],
      [
        "ka",
        "tsang"
      ],
      [
        "ja",
        "hka"
      ],
      [
        "law",
        "ang"
      ],
      [
        "pa",
        "la"
      ],
      [
        "A",
        "n"
      ],
      [
        "n",
        "ra"
      ],
      [
        "n",
        "li"
      ],
      [
        "o",
        "a"
      ],
      [
        "t",
        "ung"
      ],
      [
        "ma",
        "chyang"
      ],
      [
        "na",
        "chying"
      ],
      [
        "ka",
        "dit"
      ],
      [
        "la",
        "hku"
      ],
      [
        "mat",
        "sa"
      ],
      [
        "ru",
        "t"
      ],
      [
        "shing",
        "grup"
      ],
      [
        "a",
        "shun"
      ],
      [
        "p",
        "hta"
      ],
      [
        "u",
        "ru"
      ],
      [
        "u",
        "dat"
      ],
      [
        "hte",
        "la"
      ],
      [
        "ning",
        "sang"
      ],
      [
        "Yo",
        "ba"
      ],
      [
        "Myi",
        "t"
      ],
      [
        "ma",
        "chye"
      ],
      [
        "ni",
        "ela"
      ],
      [
        "00",
        "0"
      ],
      [
        "wun",
        "awng"
      ],
      [
        "I",
        "sh"
      ],
      [
        "T",
        "e"
      ],
      [
        "b",
        "ya"
      ],
      [
        "u",
        "ra"
      ],
      [
        "ma",
        "lang"
      ],
      [
        "ha",
        "t"
      ],
      [
        "hting",
        "rai"
      ],
      [
        "htu",
        "k"
      ],
      [
        "Mung",
        "kan"
      ],
      [
        "wun",
        "li"
      ],
      [
        "n",
        "yawm"
      ],
      [
        "p",
        "ung"
      ],
      [
        "hta",
        "t"
      ],
      [
        "hku",
        "t"
      ],
      [
        "ding",
        "nyawm"
      ],
      [
        "Sha",
        "lai"
      ],
      [
        "im",
        "elek"
      ],
      [
        "Heb",
        "ron"
      ],
      [
        "E",
        "sh"
      ],
      [
        "n",
        "dan"
      ],
      [
        "la",
        "nu"
      ],
      [
        "myi",
        "n"
      ],
      [
        "Elea",
        "za"
      ],
      [
        "a",
        "put"
      ],
      [
        "j",
        "en"
      ],
      [
        "n",
        "dat"
      ],
      [
        "n",
        "hkun"
      ],
      [
        "p",
        "um"
      ],
      [
        "ma",
        "sa"
      ],
      [
        "ka",
        "chyi"
      ],
      [
        "mat",
        "ai"
      ],
      [
        "L",
        "amu"
      ],
      [
        "P",
        "anglai"
      ],
      [
        "a",
        "dup"
      ],
      [
        "la",
        "ru"
      ],
      [
        "sum",
        "pum"
      ],
      [
        "mali",
        "t"
      ],
      [
        "Myi",
        "htoi"
      ],
      [
        "ma",
        "hku"
      ],
      [
        "hte",
        "p"
      ],
      [
        "kaga",
        "t"
      ],
      [
        "Ch",
        "ying"
      ],
      [
        "Hkris",
        "tan"
      ],
      [
        "La",
        "ban"
      ],
      [
        "Be",
        "htela"
      ],
      [
        "shahpa",
        "t"
      ],
      [
        "Pi",
        "lat"
      ],
      [
        "K",
        "o"
      ],
      [
        "P",
        "a"
      ],
      [
        "j",
        "oi"
      ],
      [
        "hpa",
        "ga"
      ],
      [
        "Ze",
        "de"
      ],
      [
        "Chying",
        "hka"
      ],
      [
        "n",
        "den"
      ],
      [
        "sha",
        "tsang"
      ],
      [
        "sha",
        "jin"
      ],
      [
        "sha",
        "tsai"
      ],
      [
        "Ye",
        "ri"
      ],
      [
        "ning",
        "gang"
      ],
      [
        "ding",
        "yang"
      ],
      [
        "lung",
        "hkrung"
      ],
      [
        "hpu",
        "t"
      ],
      [
        "He",
        "ro"
      ],
      [
        "Mi",
        "hka"
      ],
      [
        "Yeho",
        "shahpat"
      ],
      [
        "Zede",
        "kia"
      ],
      [
        "L",
        "u"
      ],
      [
        "k",
        "yit"
      ],
      [
        "sha",
        "ru"
      ],
      [
        "la",
        "ja"
      ],
      [
        "de",
        "ng"
      ],
      [
        "wu",
        "dang"
      ],
      [
        "nam",
        "man"
      ],
      [
        "Hk",
        "um"
      ],
      [
        "do",
        "ni"
      ],
      [
        "D",
        "an"
      ],
      [
        "i",
        "la"
      ],
      [
        "ma",
        "z"
      ],
      [
        "sha",
        "lan"
      ],
      [
        "hk",
        "ri"
      ],
      [
        "mung",
        "daw"
      ],
      [
        "kaya",
        "u"
      ],
      [
        "Me",
        "shia"
      ],
      [
        "anga",
        "k"
      ],
      [
        "tsing",
        "du"
      ],
      [
        "Gin",
        "ding"
      ],
      [
        "k",
        "ran"
      ],
      [
        "n",
        "rung"
      ],
      [
        "ma",
        "htai"
      ],
      [
        "hk",
        "rawng"
      ],
      [
        "hk",
        "em"
      ],
      [
        "Yo",
        "shia"
      ],
      [
        "chya",
        "lai"
      ],
      [
        "shata",
        "n"
      ],
      [
        "Yeri",
        "hko"
      ],
      [
        "N",
        "ing"
      ],
      [
        "N",
        "am"
      ],
      [
        "ma",
        "ling"
      ],
      [
        "sha",
        "dam"
      ],
      [
        "hka",
        "lum"
      ],
      [
        "Gi",
        "don"
      ],
      [
        "lan",
        "ep"
      ],
      [
        "nda",
        "u"
      ],
      [
        "pung",
        "ding"
      ],
      [
        "A",
        "ra"
      ],
      [
        "d",
        "awm"
      ],
      [
        "k",
        "yang"
      ],
      [
        "n",
        "chyi"
      ],
      [
        "sha",
        "tawng"
      ],
      [
        "sha",
        "ngang"
      ],
      [
        "chy",
        "ai"
      ],
      [
        "hpun",
        "pyen"
      ],
      [
        "Ba",
        "lam"
      ],
      [
        "!",
        "”"
      ],
      [
        "a",
        "zi"
      ],
      [
        "n",
        "htan"
      ],
      [
        "p",
        "up"
      ],
      [
        "r",
        "wi"
      ],
      [
        "w",
        "ai"
      ],
      [
        "y",
        "ai"
      ],
      [
        "hp",
        "yan"
      ],
      [
        "sha",
        "p"
      ],
      [
        "gaw",
        "la"
      ],
      [
        "da",
        "b"
      ],
      [
        "da",
        "d"
      ],
      [
        "sai",
        "a"
      ],
      [
        "bu",
        "ga"
      ],
      [
        "chyi",
        "p"
      ],
      [
        "shan",
        "em"
      ],
      [
        "lak",
        "nak"
      ],
      [
        "Hp",
        "yen"
      ],
      [
        "She",
        "hkem"
      ],
      [
        "mana",
        "p"
      ],
      [
        "N",
        "awng"
      ],
      [
        "a",
        "lawan"
      ],
      [
        "a",
        "yai"
      ],
      [
        "p",
        "aw"
      ],
      [
        "ma",
        "dai"
      ],
      [
        "la",
        "dawn"
      ],
      [
        "da",
        "graw"
      ],
      [
        "mat",
        "si"
      ],
      [
        "Ma",
        "ri"
      ],
      [
        "shing",
        "let"
      ],
      [
        "ding",
        "la"
      ],
      [
        "daw",
        "hkrawng"
      ],
      [
        "Da",
        "niela"
      ],
      [
        "S",
        "o"
      ],
      [
        "n",
        "mai"
      ],
      [
        "w",
        "ora"
      ],
      [
        "sha",
        "lai"
      ],
      [
        "ka",
        "htap"
      ],
      [
        "man",
        "oi"
      ],
      [
        "lak",
        "lai"
      ],
      [
        "Le",
        "ban"
      ],
      [
        "Sa",
        "tan"
      ],
      [
        "Leban",
        "on"
      ],
      [
        "H",
        "pu"
      ],
      [
        "h",
        "u"
      ],
      [
        "n",
        "yan"
      ],
      [
        "o",
        "p"
      ],
      [
        "hp",
        "i"
      ],
      [
        "ka",
        "shin"
      ],
      [
        "da",
        "z"
      ],
      [
        "in",
        "e"
      ],
      [
        "hkrit",
        "hpa"
      ],
      [
        "Hero",
        "d"
      ],
      [
        "S",
        "in"
      ],
      [
        "g",
        "rung"
      ],
      [
        "hka",
        "ria"
      ],
      [
        "di",
        "an"
      ],
      [
        "sum",
        "li"
      ],
      [
        "hting",
        "grang"
      ],
      [
        "yung",
        "nu"
      ],
      [
        "ma",
        "gawn"
      ],
      [
        "sha",
        "ngut"
      ],
      [
        "ni",
        "p"
      ],
      [
        "la",
        "ning"
      ],
      [
        "ja",
        "hpu"
      ],
      [
        "ting",
        "se"
      ],
      [
        "hting",
        "bu"
      ],
      [
        "gin",
        "hka"
      ],
      [
        "shabra",
        "n"
      ],
      [
        "Mi",
        "dian"
      ],
      [
        "Num",
        "sha"
      ],
      [
        "A",
        "sh"
      ],
      [
        "L",
        "am"
      ],
      [
        "Y",
        "i"
      ],
      [
        "n",
        "ri"
      ],
      [
        "r",
        "de"
      ],
      [
        "hp",
        "rat"
      ],
      [
        "sha",
        "mu"
      ],
      [
        "sha",
        "chyaw"
      ],
      [
        "ka",
        "na"
      ],
      [
        "la",
        "yang"
      ],
      [
        "kaja",
        "n"
      ],
      [
        "Hkaw",
        "seng"
      ],
      [
        "Ch",
        "ye"
      ],
      [
        "yaw",
        "p"
      ],
      [
        "lak",
        "san"
      ],
      [
        "chya",
        "ru"
[...]
