{
  "version": "1.0",
  "truncation": null,
  "padding": null,
  "added_tokens": [
    {
      "id": 0,
      "content": "<pad>",
      "single_word": false,
      "lstrip": false,
      "rstrip": false,
      "normalized": false,
      "special": true
    },
    {
      "id": 1,
      "content": "<unk>",
      "single_word": false,
      "lstrip": false,
      "rstrip": false,
      "normalized": false,
      "special": true
    },
    {
      "id": 2,
      "content": "<s>",
      "single_word": false,
      "lstrip": false,
      "rstrip": false,
      "normalized": false,
      "special": true
    },
    {
      "id": 3,
      "content": "</s>",
      "single_word": false,
      "lstrip": false,
      "rstrip": false,
      "normalized": false,
      "special": true
    }
  ],
  "normalizer": null,
  "pre_tokenizer": {
    "type": "Sequence",
    "pretokenizers": [
      {
        "type": "Whitespace"
      },
      {
        "type": "Split",
        "pattern": {
          "Regex": "(?<=[ऀ-ॿ஀-௿฀-๿຀-໿က-႟ក-៿一-鿿꤀-꤯])(?=[A-Za-z0-9])|(?<=[A-Za-z0-9])(?=[ऀ-ॿ஀-௿฀-๿຀-໿က-႟ក-៿一-鿿꤀-꤯])"
        },
        "behavior": "Isolated",
        "invert": false
      }
    ]
  },
  "post_processor": null,
  "decoder": null,
  "model": {
    "type": "BPE",
    "dropout": null,
    "unk_token": "<unk>",
    "continuing_subword_prefix": null,
    "end_of_word_suffix": null,
    "fuse_unk": false,
    "byte_fallback": false,
    "ignore_merges": false,
    "vocab": {
      "<pad>": 0,
      "<unk>": 1,
      "<s>": 2,
      "</s>": 3,
      "!": 4,
      "(": 5,
      ")": 6,
      ",": 7,
      "-": 8,
      ".": 9,
      "7": 10,
      ":": 11,
      ";": 12,
      "[": 13,
      "]": 14,
      "": 15,
      "က": 16,
      "ခ": 17,
      "ဂ": 18,
      "င": 19,
      "စ": 20,
      "ဆ": 21,
      "ဇ": 22,
      "ဎ": 23,
      "တ": 24,
      "ထ": 25,
      "ဒ": 26,
      "န": 27,
      "ပ": 28,
      "ဖ": 29,
      "ဘ": 30,
      "မ": 31,
      "ယ": 32,
      "ရ": 33,
      "လ": 34,
      "ဝ": 35,
      "ဟ": 36,
      "အ": 37,
      "ဧ": 38,
      "ါ": 39,
      "ိ": 40,
      "ီ": 41,
      "ု": 42,
      "ူ": 43,
      "ဲ": 44,
      "ံ": 45,
      "့": 46,
      "း": 47,
      "ျ": 48,
      "ြ": 49,
      "ွ": 50,
      "ှ": 51,
      "၂": 52,
      "၃": 53,
      "၄": 54,
      "၅": 55,
      "၆": 56,
      "၇": 57,
      "ၠ": 58,
      "ၡ": 59,
      "ၤ": 60,
      "ၥ": 61,
      "ၦ": 62,
      "ၧ": 63,
      "ၨ": 64,
      "ၩ": 65,
      "ၪ": 66,
      "ၫ": 67,
      "ၬ": 68,
      "ၭ": 69,
      "ႃ": 70,
      "‘": 71,
      "’": 72,
      "လၧ": 73,
      "ၩ့": 74,
      "ီၪ": 75,
      "ဆၧ": 76,
      "ၪ့": 77,
      "့ၫ": 78,
      "ၫ့": 79,
      "ဝ့ၫ": 80,
      "နီၪ": 81,
      "တၭ": 82,
      "လီ": 83,
      "ံၪ": 84,
      "ိၪ": 85,
      "လီၫ": 86,
      "ၥံၪ": 87,
      "ံၭ": 88,
      "လၧအ": 89,
      "ဲၫ": 90,
      "ဒဲ": 91,
      "အီၪ": 92,
      "ဘၪ": 93,
      "မိ": 94,
      "မၩ": 95,
      "ွဲ": 96,
      "မွဲ": 97,
      "ၥၭ": 98,
      "ိၭ": 99,
      "့ၪ": 100,
      ".-": 101,
      "ထၪ့": 102,
      "ထီ": 103,
      "ၧၩ့": 104,
      "ဘဲၫ": 105,
      "ီၩ": 106,
      "ံၫ": 107,
      "့ၩ": 108,
      "ဒၪ": 109,
      "ဖိၪ": 110,
      "ခွ": 111,
      "ဖၧၩ့": 112,
      "ထီး": 113,
      "လဖ": 114,
      "့ၬ": 115,
      "ဲၩ့": 116,
      "အဝ့ၫ": 117,
      "အဂ": 118,
      "ၧၫ့": 119,
      "လၩ့": 120,
      "ယီၩ": 121,
      "ၥိၭ": 122,
      "လဖၪ": 123,
      "အလ": 124,
      "ီၩ့": 125,
      "မု": 126,
      "ဂၩ": 127,
      "နၥံၪ": 128,
      "စံၭ": 129,
      "အၥၭ": 130,
      "ံၬ": 131,
      "ွၩ": 132,
      "ဲၪ": 133,
      "လၧဆၧ": 134,
      "အၪ့": 135,
      "ူၭ": 136,
      "လၧယ": 137,
      "ီၪ့": 138,
      "ဝၩ": 139,
      "ူၬ": 140,
      "ဟိ": 141,
      "ခိၪ": 142,
      "ုၭ": 143,
      "ဲး": 144,
      "ချ": 145,
      "့ၭ": 146,
      "ၧၩ": 147,
      "ဟိဝၩ": 148,
      "ယၫ": 149,
      "ံၩ": 150,
      "ခွံၬ": 151,
      "ံၪ့": 152,
      "ိၬ": 153,
      "န့": 154,
      "အဆၧ": 155,
      "ထဲၩ့": 156,
      "အ့ၬ": 157,
      "အက": 158,
      "အဝ့ၫၥံၪ": 159,
      "ံၩ့": 160,
      "အဂဲး": 161,
      "ဂ့ၩ": 162,
      "အဖၧၩ့": 163,
      "ၡၩ": 164,
      "လဂၩ": 165,
      "အၥိၭ": 166,
      "ံၫ့": 167,
      "ဖျ": 168,
      "ဆံၭ": 169,
      "ယဟိဝၩ": 170,
      "ၥ့ၪ": 171,
      "အ့ၪ": 172,
      "လၧၦ": 173,
      "ဘဲၫယီၩ": 174,
      "ိၩ့": 175,
      "လၭ": 176,
      "ဝ့ၫဒၪ": 177,
      "ဲၪ့": 178,
      "လၧန": 179,
      "အၫ": 180,
      "အမ": 181,
      "ီၫ": 182,
      "အီၪက": 183,
      "လီၩ့": 184,
      "ဒုၭ": 185,
      "ုၪ့": 186,
      "လ့ၩ": 187,
      "ခွၫ": 188,
      "ဂဲၫ": 189,
      "ယွၩ": 190,
      "အဖိၪ": 191,
      "ဲၩ": 192,
      "ူၪ": 193,
      "နီၪလီၫ": 194,
      "ိၪ့": 195,
      "ယိ": 196,
      "ုၬ": 197,
      "အဂဲးဘဲၫယီၩ": 198,
      "ယူၭ": 199,
      "အလူၬ": 200,
      "ဲၫ့": 201,
      "့လၭ": 202,
      "အဂး": 203,
      "ထီးအလူၬ": 204,
      "မံၩ့": 205,
      "ဘဲၫၥိၭ": 206,
      "ချဲၩ့": 207,
      "ဎွၩ": 208,
      "အခ": 209,
      "အီၪက့ၪ": 210,
      "နံၩ": 211,
      "အစ": 212,
      "ဒိၪ": 213,
      "ၦလၧအ": 214,
      "လါ": 215,
      "ိး": 216,
      "မၧၫ့": 217,
      "လၧစ": 218,
      "အလး": 219,
      "ဆ့": 220,
      "ယမိ": 221,
      "ဘၪဆၧ": 222,
      "စရ": 223,
      "ယၧၩ": 224,
      "အဖ": 225,
      "အကၠ": 226,
      "လု": 227,
      "အဝ့ၫဒၪ": 228,
      "ယဲ": 229,
      "ၥံၫ": 230,
      "ျၩ": 231,
      "ူၫ": 232,
      "အဖိၪခွၫ": 233,
      "ဎွ": 234,
      "လဲၪ": 235,
      "ထံၫ": 236,
      "လၫ့": 237,
      "ခီၫ": 238,
      "အီၪဝ့ၫ": 239,
      "မျ": 240,
      "ဖ့ၪ": 241,
      "အံၫ": 242,
      "ၧး": 243,
      "ဆၧအ": 244,
      "ဒၫ": 245,
      "နး": 246,
      "မျၧး": 247,
      "စရ့လၭ": 248,
      "နၫ့": 249,
      "့ၬယၫ": 250,
      "ဘၭ": 251,
      "ခမျၧး": 252,
      "နီၪတၭ": 253,
      "ဖၭ": 254,
      "ကိၭ": 255,
      "မၪ": 256,
      "မွဲအ": 257,
      ",-": 258,
      "မၩအၥၭ": 259,
      "ဧ့": 260,
      "ဆါ": 261,
      "ကဲၪ": 262,
      "ဆၧၫ့": 263,
      "နၧၩ": 264,
      "ိၩ": 265,
      "ရၫ့": 266,
      "ဆံၫ့": 267,
      "စံၭဝ့ၫဒၪ": 268,
      "မုၪ": 269,
      "လူၬ": 270,
      "ဒု": 271,
      "အကၠီၩ့": 272,
      "ကယဲ": 273,
      "တီၩ": 274,
      "ဂၪ့": 275,
      "ဖ့ၪလၫ့": 276,
      "ခး": 277,
      "လၧနၥံၪ": 278,
      "အၥ": 279,
      "အၪ": 280,
      "လဖၪနီၪ": 281,
      "နံၫ": 282,
      "စဲၪ့": 283,
      "အမိ": 284,
      "အန": 285,
      "ဒဲၦ": 286,
      "လဂ့ၩ": 287,
      "ဒဲစ": 288,
      "အၡၩ": 289,
      "ဒဲဆၧ": 290,
      "ဒိၩ့": 291,
      "ဝ့ၫလၧ": 292,
      "ထုၪ့": 293,
      "အံၫစရ့လၭ": 294,
      "အ့ၪမွဲ": 295,
      "နဲၪ့": 296,
      "ဝ့ၫတၭ": 297,
      "အကျၩ": 298,
      "လခီၫ": 299,
      "ၡါ": 300,
      "ၥ့ၪယၫ": 301,
      "လး": 302,
      "ဒၩ": 303,
      "ခွါ": 304,
      "ထံၭ": 305,
      "မွဲဂ့ၩ": 306,
      "ဆံၫ": 307,
      "ဝ့ၫလီၫ": 308,
      "အထ": 309,
      "ၦၡၩ": 310,
      "ထၪ့ခွံၬ": 311,
      "ၥၪ": 312,
      "ဎွ့ၩ": 313,
      "ိၫ့": 314,
      "အမ့ၬယၫ": 315,
      "လၧမု": 316,
      "တၭစ": 317,
      "ိၫ": 318,
      "ဂၪ့ခိၪ": 319,
      "မၩန့": 320,
      "လိၬ": 321,
      "လၧမ": 322,
      "ီၫ့": 323,
      "ကၠ": 324,
      "လံ": 325,
      "ကဲၪထၪ့": 326,
      "ဧၪ": 327,
      "ဂီၩ့": 328,
      "ဒံၭ": 329,
      "လၧယဟိဝၩ": 330,
      "မၩဆၧ": 331,
      "ဂၭ": 332,
      "ထီးနီၪ": 333,
      "ၥုၭ": 334,
      "ဎံၪ": 335,
      "စ့ၩ": 336,
      "ဘျ": 337,
      "ဝဲ": 338,
      "ဖီၩ့": 339,
      "လါနၫ့": 340,
      "အံ": 341,
      "ယိခွါ": 342,
      "အဖၫ့": 343,
      "အစူၪ": 344,
      "ဂံၪ့": 345,
      "နၩ့": 346,
      "ီး": 347,
      "ဆီၪ့": 348,
      "ဘိၩ့": 349,
      "မွဲဆၧ": 350,
      "ၥုၪ့": 351,
      "ဘံၪ့": 352,
      "လီၩ": 353,
      "ဆဲၫ့": 354,
      "စံၭဝ့ၫ": 355,
      "အဂံၪ့": 356,
      "စဎွၩ": 357,
      "လနံၩ": 358,
      "ဆိၪ": 359,
      "လမံၩ့": 360,
      "လၬ": 361,
      "စူၪ": 362,
      "အၭ": 363,
      "အၧၩ့": 364,
      "ဆံၫ့ဎံၪ": 365,
      "မၩအၥၭဘဲၫ": 366,
      "ဖါ": 367,
      "ဆိၬ": 368,
      "အအီၪ": 369,
      "ထီၫ": 370,
      "နၭ": 371,
      "ဲအၫ": 372,
      "အၥိၭနီၪ": 373,
      "ကဆါ": 374,
      "ၥၧၫ့": 375,
      "အလီၩ့": 376,
      "ၥၫ့": 377,
      "ခိၭ": 378,
      "နုၬ": 379,
      "ထီၩ့": 380,
      "ယု": 381,
      "လၫ": 382,
      "ထၬ": 383,
      "နမိ": 384,
      "လၧအဝ့ၫ": 385,
      "လၩ": 386,
      "အတ": 387,
      "ဖၫ": 388,
      "ဒၪဘၪ": 389,
      "ယ့ၫ": 390,
      "လၧၫ့": 391,
      "ဘီၪ": 392,
      "ၨၩ": 393,
      "ဒုၪ": 394,
      "ဆိၩ": 395,
      "ဆၨၩ": 396,
      "ဒီၪ့": 397,
      "မၪလူၬ": 398,
      "လၧအအီၪ": 399,
      "ဘၪဆဲၫ့": 400,
      "ထိၬ": 401,
      "ဘဲၫၥိၭအမိ": 402,
      "လဖၧၫ့": 403,
      "ဂး": 404,
      "ထိး": 405,
      "နါ": 406,
      "ဖု": 407,
      "ကိၪ့": 408,
      "ဝံၭ": 409,
      "ဘံၭ": 410,
      "လၧပ": 411,
      "နၪ": 412,
      "မၫ": 413,
      "အၪ့မၧၫ့": 414,
      "မ့ၬ": 415,
      "ထၧၫ့": 416,
      "ၧၫ": 417,
      "ွ့ၫ": 418,
      "မုၬ": 419,
      "အခိၪ": 420,
      "ထၫ့": 421,
      "ထီၫ့": 422,
      "ဂၭဂီၩ့": 423,
      "အဖၫ့ခိၪ": 424,
      "ီၭ": 425,
      "ဘိၪ့": 426,
      "ဂၧၫ့": 427,
      "ဖၭဒိၪ": 428,
      "ၥိၪ": 429,
      "အစဎွၩ": 430,
      "လၩ့ထ": 431,
      "စ့ၩရၫ့": 432,
      "ဒၫဝံၭ": 433,
      "မဲၪ": 434,
      "ဖၩ့": 435,
      "ယၥၭ": 436,
      "ကၠၪ": 437,
      "အလူ": 438,
      "ကွ": 439,
      "မိမၩ": 440,
      "မွဲၦ": 441,
      "ဝ့ၫလၧအ": 442,
      "တၭး": 443,
      "ဆၫ": 444,
      "ဒၪဝ့ၫ": 445,
      "ဒ့ၭ": 446,
      "လဂၩနီၪ": 447,
      "အီၪလၧအ": 448,
      "ချဲၩ့ဆၧ": 449,
      "ကျၩ": 450,
      "ရု": 451,
      "ဖျ့ၭ": 452,
      "ဒဲၩ": 453,
      "ဖုဝဲ": 454,
      "အမံၩ့": 455,
      "တၭၦ": 456,
      "အီၪလၧ": 457,
      "ဆၧမၩ": 458,
      "လၧအဝ့ၫၥံၪ": 459,
      "ဎီး": 460,
      "ဘၩ့": 461,
      "ထီးနီၪလဖၧၫ့": 462,
      "လ့ၬ": 463,
      "ဎး": 464,
      "နံၪ့": 465,
      "ီလ": 466,
      "ဝဲၩ": 467,
      "ဝ့ၫနီၪ": 468,
      "စ့ၭ": 469,
      "မၩအၥၭဘဲၫနီၪတၭ": 470,
      "မၬ": 471,
      "ဒိၭ": 472,
      "ရှ": 473,
      "ဒုၩ": 474,
      "ယုဒၫ": 475,
      "မံၫ": 476,
      "မ့ၪ": 477,
      "ဖၧၩ့တၭ": 478,
      "အီၪကီၪ့": 479,
      "လုဆၧ": 480,
      "လံၫ့": 481,
      "ပၧၩ": 482,
      "စအၫ": 483,
      "လီၩဘၪ": 484,
      "ဆ့လီၫ": 485,
      "မ့ၬယၫ": 486,
      "ကျ": 487,
      "နါဂၧၫ့": 488,
      "ဂဲ": 489,
      "အယွၩ": 490,
      "မိဘၪ": 491,
      "မိစ့ၭ": 492,
      "ၥီၪ့": 493,
      "ဒဲၩဘၭ": 494,
      "ဘီၩ့": 495,
      "ထၪ့ဆၧ": 496,
      "ခဲၫ့": 497,
      "ၡၪ့": 498,
      "အၥိၭနီၪလီၫ": 499,
      "ဖၧၩ့လီၫ": 500,
      "မွဲဘၪ": 501,
      "ပျ": 502,
      "စလံၫ့": 503,
      "အမ့ၬ": 504,
      "စစ": 505,
      "ဖိၪၥံၪ": 506,
      "ၥၭမဲၪ": 507,
      "ဇံၭ": 508,
      "ဆၧလၧအ": 509,
      "ခိၭနၪ": 510,
      "ၦခမျၧး": 511,
      "ဘၫ": 512,
      "ဂဲထုၪ့": 513,
      "နၥၭ": 514,
      "အဖၧၩ့နီၪ": 515,
      "ွံၪ": 516,
      "အခိး": 517,
      "ဆၧနီၪ": 518,
      "ထီးအ": 519,
      "လၧယွၩ": 520,
      "ဂု": 521,
      "မွဲပ": 522,
      "ဖၪ": 523,
      "ဘဲၫနီၪ": 524,
      "ဂဲး": 525,
      "အဲၪ": 526,
      "ရုစလံၫ့": 527,
      "မၩၥံၫ": 528,
      "လၧခး": 529,
      "မွဲလါနၫ့": 530,
      "ၧၭ": 531,
      "စီၪ့": 532,
      "ၡၫ": 533,
      "နဲၩ့": 534,
      "နွ့ၫ": 535,
      "ကွ့ၭ": 536,
      "ကူၭ": 537,
      "လၧဂၪ့ခိၪ": 538,
      "ထၪ့ဝ့ၫ": 539,
      "ဖၧၩ့နီၪ": 540,
      "နၫ": 541,
      "အဂးလီၫ": 542,
      "အဖၧၩ့လီၫ": 543,
      "စယ": 544,
      "ူၭခိၪ": 545,
      "ဒဲအ": 546,
      "စဲၪ့ထၪ့ခွံၬ": 547,
      "အၪ့အ": 548,
      "ဘိၩ့နဲၪ့": 549,
      "အခၪ့": 550,
      "ၥံၪ့": 551,
      "လံၩ": 552,
      "အဖါ": 553,
      "လအီၪ": 554,
      "ဝံ": 555,
      "ဆၧတၭ": 556,
      "ဖၫ့": 557,
      "အၪ့ဎ": 558,
      "ဖျါ": 559,
      "လဖျ": 560,
      "ဝ့ၫဒၪယီၩ": 561,
      "မုး": 562,
      "မိအီၪ": 563,
      "ကၫ": 564,
      "နဲၩ": 565,
      "လိၪ": 566,
      "ထၪ့ထဲၩ့": 567,
      "ခိၪလီၩ့": 568,
      "ခၪ့": 569,
      "နၧၫ့": 570,
      "ဖိၪခွၫ": 571,
      "ဖၧၩ့ၥၭ": 572,
      "စဒၫဝံၭ": 573,
      "တဲၩ့": 574,
      "လဘံၪ့": 575,
      "ယၩ": 576,
      "ဘိၩ့နဲၪ့ယီၩ": 577,
      "နးဂၩ": 578,
      "အ့လၭ": 579,
      "ုၩ့": 580,
      "ရၧၫ့": 581,
      "ဘဲၫၥ့ၪ": 582,
      "ဆၧအၧၩ့": 583,
      "ဖံၭ": 584,
      "ဆ့ဧၪ": 585,
      "ပျီၩ": 586,
      "ရၫ": 587,
      "နၪ့": 588,
      "စအ": 589,
      "ကယဲဆၧ": 590,
      "လံၬ": 591,
      "လဖျိၪ့": 592,
      "နီၪဆံၭ": 593,
      "လူ": 594,
      "ဘျၪ": 595,
      "ခၧၫ့": 596,
      "ရံၬ": 597,
      "ဒဲန": 598,
      "အ့ၬး": 599,
      "တၭဆၧ": 600,
      "ဎရံၬ": 601,
      "နၥံၪမိ": 602,
      "ချဲၫ့": 603,
      "ူၫဂၩ": 604,
      "ခ့ၫ": 605,
      "ဆူၭ": 606,
      "မုနံၩ": 607,
      "တဲၩ": 608,
      "လၧထံၫ": 609,
      "အံၫစရ့လၭဖိၪ": 610,
      "ၥၫ": 611,
      "အဆၧမၩ": 612,
      "ဝီၩ": 613,
      "ဝၬ": 614,
      "ဟၫ": 615,
      "လ့ၩနုၬ": 616,
      "ီလူၫ": 617,
      "နဲၪ": 618,
      "ၦမုၪ": 619,
      "ၡုၬ": 620,
      "အၪ့ဎၬ": 621,
      "ထိၪ": 622,
      "ဖျိၪ့": 623,
      "ဎွံၪ": 624,
      "အနဲၩ့": 625,
      "ထၫ့ဒၩ": 626,
      "အၪ့အူၭ": 627,
      "ဘဲၫၥ့ၪလဲၪ": 628,
      "ချိၫ့": 629,
      "ဘိၩ": 630,
      "အၫ့": 631,
      "အဖၧၩ့တၭ": 632,
      "ခွံၬဝ့ၫ": 633,
      "နၩ": 634,
      "ချႃ": 635,
      "ဆၧၫ့ထုၪ့": 636,
      "ဆၧလၧ": 637,
      "မွဲန": 638,
      "ယဆၧ": 639,
      "ထၪ့ထီၫ": 640,
      "ဖိၪဆၧ": 641,
      "ဂုး": 642,
      "ဝၩ့": 643,
      "ဂဲၫထဲၩ့": 644,
      "ဘၩ": 645,
      "လၧၩ့": 646,
      "ဂၬ": 647,
      "အဝ့ၫနီၪ": 648,
      "ဖျီၪ": 649,
      "ၥၭထိၬ": 650,
      "ွ့ၪ": 651,
      "ဒီၭ": 652,
      "အၪ့က": 653,
      "ယၪ": 654,
      "လအီၪဘၪ": 655,
      "ထုၬ": 656,
      "ဟၫ့": 657,
      "ဝ့ၫလၧဆၧ": 658,
      "ဒဲလၧ": 659,
      "ဘူၭ": 660,
      "ၦလ": 661,
      "ခိၬ": 662,
      "နၥံၪအၥၭ": 663,
      "လၧစဎွၩ": 664,
      "ုၪ": 665,
      "မၩဂၭဂီၩ့": 666,
      "အ့ၪလ": 667,
      "လၧအမိ": 668,
      "အီၩ": 669,
      "ဂဲၫဆိၬ": 670,
      "စယိ": 671,
      "ဆုၬ": 672,
      "ထီးဒၪ": 673,
      "ုၫ": 674,
      "လၩ့ထး": 675,
      "ဆၧမိ": 676,
      "ဖိၬ": 677,
      "လိး": 678,
      "ုၩ့လၩ့": 679,
      "ဖိး": 680,
      "လၧအံၫ": 681,
      "စံၭထၪ့": 682,
      "ချီ": 683,
      "ယီၫ": 684,
      "နးမံၩ့": 685,
      "ထၧၫ့ဖုဝဲ": 686,
      "န့ဘၪ": 687,
      "ဖိၪၥၪ": 688,
      "ကိၪ": 689,
      "စမိစ့ၭ": 690,
      "ၦဒိၪ": 691,
      "မၩဝ့ၫ": 692,
      "ၥံၪဧ့": 693,
      "အခ့ၫ": 694,
      "ကြ": 695,
      "လ့ၩထၪ့": 696,
      "ပိၩ့": 697,
      "အံဇံၭ": 698,
      "ဒၫ့": 699,
      "ဘြ": 700,
      "အ့ၬဧၪ": 701,
      "စပ": 702,
      "မံၭ": 703,
      "မီၪ့": 704,
      "ဆၧၩ့": 705,
      "လၩ့အၥၭ": 706,
      "ထၪ့န": 707,
      "ဆ့အ့ၬ": 708,
      "အၪ့ကံၩ့": 709,
      "အဘိၩ့": 710,
      "တရၫ့": 711,
      "ဝၭ": 712,
      "ယ့ၫၡုၬ": 713,
      "ဂဲၫထၪ့": 714,
      "လနံၩနီၪ": 715,
      "ခိ": 716,
      "ခဲၩ": 717,
      "အ့": 718,
      "အထီ": 719,
      "ရှူၬ": 720,
      "ယၫ့": 721,
      "ၥူၪ": 722,
      "နၫ့ဆါ": 723,
      "ကီၪ့": 724,
      "ၥုၭမု": 725,
      "လၧယရုစလံၫ့": 726,
      "ဆီၫ့": 727,
      "ဎါ": 728,
      "ဘဲၫဆၧ": 729,
      "ယဟိဝၩစံၭ": 730,
      "လဒုၩ": 731,
      "မိကဲၪထၪ့": 732,
      "အထၧၫ့": 733,
      "ဟၭ": 734,
      "လၧအၥၭ": 735,
      "ချိၬ": 736,
      "တၩ့": 737,
      "လၧအလး": 738,
      "နဘၪ": 739,
      "ထီးအလူၬနီၪ": 740,
      "ပၧၩ့": 741,
      "နဆၧ": 742,
      "ံး": 743,
      "အကၠီၪ့": 744,
      "နၡၩ": 745,
      "အဆိၩ": 746,
      "ဒဲမၩ": 747,
      "အလၩ": 748,
      "လါလါ": 749,
      "အတၩ": 750,
      "အၪ့မၧၫ့လၩ့": 751,
      "စံၭထၪ့အၪ့အူၭ": 752,
      "တၭအဝ့ၫၥံၪ": 753,
      "ဆိၪဂ့ၩ": 754,
      "လစီၪ့": 755,
      "ဆၧမၩအၥၭ": 756,
      "အကၠီၩ့နီၪ": 757,
      "စမ": 758,
      "ထံၪ": 759,
      "လၧအံၫစရ့လၭ": 760,
      "ဒဲယ": 761,
      "အခ့ၫအၡၩ": 762,
      "လဲ": 763,
      "ၦလဂၩ": 764,
      "န့ၫ": 765,
      "မး": 766,
      "ဆၧၥၫ့": 767,
      "နံၫဂၩ": 768,
      "ဆၧၫ့နၩ့": 769,
      "ရအၫ": 770,
      "မွဲပလၫ": 771,
      "ဝ့ၫဒၪလီၫ": 772,
      "စၪ": 773,
      "နီၪမွဲ": 774,
      "အဖၧၩ့ၥၭ": 775,
      "ဒၧၩ့": 776,
      "ပမိ": 777,
      "အယီၩ": 778,
      "လဒီၪ့": 779,
      "အီၪဝ့ၫလၧ": 780,
      "နီၪး": 781,
      "လၧဆၧလု": 782,
      "လဂၩလဲၪ": 783,
      "ခၫ့": 784,
      "ဘဲၫနီၪတၭ": 785,
      "ယမိဒုၭ": 786,
      "မီၪ": 787,
      "ဖီၩ့ဖျ့ၭ": 788,
      "လၧအဆၧ": 789,
      "န့ၥၫ": 790,
      "ခံၫ့": 791,
      "လၧမူၭခိၪ": 792,
      "မွဲယ": 793,
      "အဖိၪမုၪ": 794,
      "အထၧၫ့ဖုဝဲ": 795,
      "ဝဲၫ": 796,
      "အမၫ": 797,
      "အဖိၪခွၫၥံၪ": 798,
      "ကိၭဂၩ": 799,
      "ဂံ": 800,
      "ၡၭ": 801,
      "အခး": 802,
      "ဇၫ": 803,
      "ထိၭ": 804,
      "ဎုၬ": 805,
      "အုၭ": 806,
      "လၧအမၩ": 807,
      "လိၬအၥၭ": 808,
      "တၩ့ထဲၩ့": 809,
      "လၩ့မ": 810,
      "ဖၫရ": 811,
      "ဆၧအၪ့": 812,
      "ကၥ့ၪ": 813,
      "ဖီၪ့": 814,
      "တၭအဝ့ၫဒၪ": 815,
      "ထဲၩ့ထဲၩ့": 816,
      "လၧၦၡၩ": 817,
      "ဘၪနီၪ": 818,
      "တၡါ": 819,
      "ူၩ": 820,
      "ၥိၫ့": 821,
      "ဂီၩ": 822,
      "လဆံၫ": 823,
      "ထိးထဲၩ့": 824,
      "ဂၩ့": 825,
      "ၦလုဆၧ": 826,
      "စၪ့": 827,
      "မိဘၪဆၧ": 828,
      "ကီၩ့": 829,
      "ထီးန့": 830,
      "လၩ့ဘၪ": 831,
      "အဒိၩ့": 832,
      "အကၠီၩ့လီၫ": 833,
      "အနဲၩ့ထံၭ": 834,
      "တၭယ": 835,
      "ယမိမၩ": 836,
      "အကၠၪ": 837,
      "ၦအ": 838,
      "ထီးအလူၬလီၫ": 839,
      "ဒုၪဒၩ": 840,
      "အခိးအတၩ": 841,
      "ဆမံၭ": 842,
      "မဲ": 843,
      "ဖျဲၪ": 844,
      "မၩဖျ့ၭ": 845,
      "စီၩ့": 846,
      "နၥံၪဝ့ၫ": 847,
      "အဆၧၫ့": 848,
      "ဖိၪဆၧဎါ": 849,
      "လံဝဲၫ": 850,
      "ဒုၭနဲၪ": 851,
      "လနံၩယီၩ": 852,
      "စအံ": 853,
      "လ့ၭ": 854,
      "ဆၧလု": 855,
      "ကိၭဂၩဒ့ၭ": 856,
      "ၨၭ": 857,
      "ဆၧလီၩ့": 858,
      "ယၫကူၭ": 859,
      "နိၭ": 860,
      "အဖျ": 861,
      "အၥီၫ့": 862,
      "ကၠီၩ့": 863,
      "အဂဲးဘဲၫ": 864,
      "ချံၫ": 865,
      "ချဲၩ့ဆၧၫ့": 866,
      "နးဂၩအ့ၬ": 867,
      "လနံၪ့": 868,
      "အၥိၭတၭ": 869,
      "ကိၪ့ၥ့ၪ": 870,
      "မွဲလါနၫ့ဘိၩ": 871,
      "ဇံ": 872,
      "မၩဘိၪ့": 873,
      "ဘဲၫၦ": 874,
      "အဖၩ့": 875,
      "တဲၩ့ဝဲၩ": 876,
      "အလးခဲၫ့": 877,
      "ၥၭလိၪ": 878,
      "အခဲၫ့": 879,
      "ဘၪဝ့ၫ": 880,
      "အနံၪ့": 881,
      "ဆီၫ့မီၪ့": 882,
      "ဎူၫ": 883,
      "လၧအံ": 884,
      "လဖၪလီၫ": 885,
      "လၧအစူၪ": 886,
      "စံၭအဝ့ၫၥံၪ": 887,
      "ဂူၫဂၩ": 888,
      "ဘ့ၪ": 889,
      "ဘလၧၫ့": 890,
      "ဆၧလၧယ": 891,
      "အကၠီၩ့တၭ": 892,
      "ချႃၭ": 893,
      "ၡီၩ့": 894,
      "အလံၩ": 895,
      "ယ့ၫရှူၬ": 896,
      "ဒဲအဆၧ": 897,
      "မၩမၪ": 898,
      "စဲၪ့ထၪ့": 899,
      "ထူၬ": 900,
      "နယွၩ": 901,
      "ယၫ့ၥၭ": 902,
      "လၩ့ခွံၬ": 903,
      "စံၭအဝ့ၫ": 904,
      "ကယဲၦ": 905,
      "လၧအလ": 906,
      "အဂဲးအကၠီၪ့": 907,
      "ဝၬဖီၩ့": 908,
      "လၧအဖၧၩ့": 909,
      "မွဲမၬ": 910,
      "ထၫ့ဒုၪဒၩ": 911,
      "လၧခိၪလီၩ့": 912,
      "အီၪလၧဆၧ": 913,
      "မွဲနၥံၪ": 914,
      "စအံၫ": 915,
      "ဖီၩ့မၩဖျ့ၭ": 916,
      "အစူၪဖၧၩ့": 917,
      "ၥုၭမုခမျၧး": 918,
      "ဘဲၫအ": 919,
      "စံ": 920,
      "ဘုၪ": 921,
      "ယဟိဝၩစံၭဝ့ၫဒၪ": 922,
      "ဆၨၩလဖၪ": 923,
      "ယူ": 924,
      "ဂံၪ့ဖိၪ": 925,
      "့ၬခွံၬ": 926,
      "ထိးထဲၩ့တၩ့ထဲၩ့": 927,
      "စဘံၭ": 928,
      "ဂူၬ": 929,
      "လၧဒိၩ့": 930,
      "ဆၧလီၫ": 931,
      "ဘၩ့မုး": 932,
      "နဝ့ၫ": 933,
      "အီၪက့ၪလၩ့": 934,
      "အမ့ၬယၫလီၫ": 935,
      "ဒၪ့": 936,
      "လါနၫ့တၭ": 937,
      "လဲၩ": 938,
      "ဝ့ၫၥံၪ": 939,
      "ဟံ": 940,
      "ဆၧလ": 941,
      "အမၩ့": 942,
      "ၡံ": 943,
      "ယ့ၫရ": 944,
      "ွံ": 945,
      "လၧအဂး": 946,
      "လၧယု": 947,
      "တီၩဆၧလီၩ့": 948,
      "ဘဲၫနီၪၥိၭ": 949,
      "အဂ့ၩ": 950,
      "ဆၧချဲၩ့": 951,
      "စံၭဆၧၫ့": 952,
      "ခံ": 953,
      "ခီၫ့": 954,
      "ယၬ": 955,
      "အိၭ": 956,
      "ဒုၭၥုၭ": 957,
      "ခးၥံၪ": 958,
      "ဘ့ၭ": 959,
      "အတရၫ့": 960,
      "မူၭခိၪ": 961,
      "ထၭ": 962,
      "လၧအလီၩ့": 963,
      "အဂးနီၪ": 964,
      "အဘိၩ့ဘၭ": 965,
      "လဖၪတၭ": 966,
      "က့ၪ": 967,
      "ဒံၩ့": 968,
      "စအၭ": 969,
      "ဖလံ": 970,
      "မံၫ့": 971,
      "ယၡၩ": 972,
      "အၥိၭလီၫ": 973,
      "ဒၩ့": 974,
      "ၥွံၪ": 975,
      "ၡိၭ": 976,
      "အခၪ့ထံၭ": 977,
      "ဒွ့ၪ": 978,
      "အအီၪတၭ": 979,
      "ီလမၧၫ့": 980,
      "ရှုၫ": 981,
      "ဖၫ့ခိၪ": 982,
      "နၪ့ထၪ့ထဲၩ့": 983,
      "နဲၩ့ထံၭ": 984,
      "ဎၩ့": 985,
      "ံၩဖါ": 986,
      "ကယဲၦလၧအ": 987,
      "လၧနၧၩ": 988,
      "ဆိၪဖၪ": 989,
      "လလီၩ့": 990,
      "မွဲအ့ၬဧၪ": 991,
      "လၩ့မါ": 992,
      "ဂၫ": 993,
      "မိအၪ့": 994,
      "လၧမ့ၪ": 995,
      "အနံၩ": 996,
      "ၥီၪ့ဆၧၥၫ့": 997,
      "လၧၦခမျၧး": 998,
      "နံၫဆံၫ": 999,
      "လီၩလၩ့": 1000,
      "အုၩ့လၩ့": 1001,
      "ကိၭထၪ့": 1002,
      "လဲး": 1003,
      "အဒီၪ့": 1004,
      "ဒၪန့": 1005,
      "ခံၭ": 1006,
      "ဖိၭ": 1007,
      "အၥၭတၭ": 1008,
      "အၪ့လီၫ": 1009,
      "ဒုၭအီၪ": 1010,
      "ဎွ့ၩထၪ့": 1011,
      "ခၫ့ဂၬ": 1012,
      "ဒဲလၧအ": 1013,
      "ၥၭထၪ့": 1014,
      "ၡၫဖိၪ": 1015,
      "လၧဂၪ့ခိၪချိၫ့": 1016,
      "ၦအံၫစရ့လၭဖိၪ": 1017,
      "ၥံၪခးၥံၪ": 1018,
      "ဘၪလိၬ": 1019,
      "မွဲယဟိဝၩ": 1020,
      "ဖျိၭ": 1021,
      "ဆ့ၭ": 1022,
      "ကိၭၡၭ": 1023,
      "အကျၩနီၪ": 1024,
      "ခွံၬၡိၭ": 1025,
      "လ့ၩဆၧ": 1026,
      "ဖၫရိၫ": 1027,
      "လၧယုဒၫ": 1028,
      "ပွ": 1029,
      "ဆၧဒဲၩဘၭ": 1030,
      "ထၪ့ဖိၪ": 1031,
      "ဘၭဘလၧၫ့": 1032,
      "ယဟိဝၩဧ့": 1033,
      "အဖိၪအလံၩ": 1034,
      "အတဲၩ": 1035,
      "ထိးအၥၭ": 1036,
      "ယဟိ": 1037,
      "ဘၪတၭ": 1038,
      "မိၡါ": 1039,
      "ၥၭၡါ": 1040,
      "အဝ့ၫၥံၪမိ": 1041,
      "ယဝ့ၫဒၪယီၩ": 1042,
      "ဖျံၩ": 1043,
      "စၫ": 1044,
      "ယဲၩ့": 1045,
      "ွၪ": 1046,
      "အထံၩ": 1047,
      "ဒုၪဒွ့ၪ": 1048,
      "ပွံၭ": 1049,
      "ဆၬ": 1050,
      "မံၩ့လၬ": 1051,
      "ဆၫလနံၩယီၩ": 1052,
      "စဟ": 1053,
      "နဝ့ၫဒၪ": 1054,
      "အၪ့စၪ့": 1055,
      "ဘၩဆိၪဖၪ": 1056,
      "နီၪမိ": 1057,
      "ဖျီၪထၪ့": 1058,
      "ထး": 1059,
      "ထုၭ": 1060,
      "ဒၧၫ့": 1061,
      "အမုနံၩ": 1062,
      "တီၩလလီၩ့": 1063,
      "ယိလါ": 1064,
      "ပျီၩပျီၩ": 1065,
      "နးမံၩ့အ့ၬ": 1066,
      "ရွံ": 1067,
      "ဘွၩ": 1068,
      "နၧၫ့မၧၫ့": 1069,
      "အဖျဲ": 1070,
      "နမၩ": 1071,
      "ဆံၭး": 1072,
      "လနၩ့": 1073,
      "ဒဲလၧဆၧ": 1074,
      "စယီ": 1075,
      "အိၭလိၬ": 1076,
      "အၥၪ": 1077,
      "လၩ့ထံၩဖါ": 1078,
      "တၧၫ": 1079,
      "ထၪ့နၬ": 1080,
      "ဒၭ": 1081,
      "ပၥၭ": 1082,
      "အၦဒိၪ": 1083,
      "ယၧၩတၭ": 1084,
      "အၪထၪ့": 1085,
      "လမံၩ့လဲၪ": 1086,
      "ဘံ": 1087,
      "ရ့ၭ": 1088,
      "အ့ၫ": 1089,
      "ဆၧအီၪ": 1090,
      "လၧယၧၩ": 1091,
      "ဆၧနၭ": 1092,
      "လထံၪ": 1093,
      "ထီၩ့လၧ": 1094,
      "ဘၩ့အ": 1095,
      "လၧအဝ့ၫဒၪ": 1096,
      "အဆၧချဲၩ့": 1097,
      "အဖိၪခွၫလဖၪ": 1098,
      "ဆၭ": 1099,
      "ဖိၪလဖၪ": 1100,
      "လၧမီၪ": 1101,
      "ယဝ့ၫ": 1102,
      "ယံၬ": 1103,
      "ၨၪ": 1104,
      "အဖၫ့လၬ": 1105,
      "ဘြဟၫ့": 1106,
      "ၥီၫ": 1107,
      "အဂးတၭ": 1108,
      "အဖိၪခွၫစ": 1109,
      "အနါ": 1110,
      "လၧမၫ": 1111,
      "ကွံၩ": 1112,
      "ဝံထၪ့နၬ": 1113,
      "ဆိၫ": 1114,
      "ဒိၭနဲၩ့": 1115,
      "လၩ့ဆိၩ": 1116,
      "လဂၩဂၩ": 1117,
      "အကျၩလီၫ": 1118,
      "ကျံၩ": 1119,
      "အခိးမွဲ": 1120,
      "ရွံန့": 1121,
      "ယရုစလံၫ့": 1122,
      "လဂ့ၩး": 1123,
      "နမိဘၪ": 1124,
      "စၭ": 1125,
      "က့ၭ": 1126,
      "လၩ့လၭ": 1127,
      "လၩ့ကၠၪ": 1128,
      "အၪလ့ၬ": 1129,
      "ဂုးခၧၫ့": 1130,
      "ကြၨၭ": 1131,
      "အၥုၪ့": 1132,
      "ခၫ": 1133,
      "ဆီၩ့": 1134,
      "ပၪ": 1135,
      "ဖၩ": 1136,
      "ဘျံၭ": 1137,
      "ဆုၬဆုၬ": 1138,
      "ၥံၪလီၫ": 1139,
      "စစီလူၫ": 1140,
      "ယမၩ": 1141,
      "ချီဖၫ": 1142,
      "အဘၭ": 1143,
      "အိၫ့": 1144,
      "ဒဲၦလၧအ": 1145,
      "အနိၭ": 1146,
      "လဘီၩ့": 1147,
      "အၪဂၩ": 1148,
      "ဖလံၡၫဖိၪ": 1149,
      "နအ့ၪ": 1150,
      "ယစံၭ": 1151,
      "လၧၫ့ထၪ့": 1152,
      "ဘိ": 1153,
      "လၧအမ့ၬယၫ": 1154,
      "ဒၪလ့ၬ": 1155,
      "ခ့ၫနၡၩ": 1156,
      "ဆီ": 1157,
      "အၪ့ယၫ": 1158,
      "မ့ၬၥၪ": 1159,
      "ဘၩ့အမုး": 1160,
      "လမွဲဘၪ": 1161,
      "ဆၧအီၩ": 1162,
      "နၫ့ထၪ့ခွံၬ": 1163,
      "ၡၫ့": 1164,
      "အီၪဖျဲၪ": 1165,
      "အၡၩဂံၪ့ဖိၪ": 1166,
      "ဖီၪ့ထၬ": 1167,
      "ဝ့ၫလၧၦ": 1168,
      "ၥံၪလ": 1169,
      "အစီၩ့": 1170,
      "ကဲအၫ": 1171,
      "အဒၩ": 1172,
      "ွံၩ": 1173,
      "ဒဲနၥံၪ": 1174,
      "ွဲၪ": 1175,
      "လၧဆၧအ": 1176,
      "ၥံၫကျံၩ": 1177,
      "လၬလၩ့": 1178,
      "ဆၧဖၩ့": 1179,
      "ဒံၭလီၫ": 1180,
      "အနၫ့ဆါ": 1181,
      "ခဲၩထၪ့": 1182,
      "တၫ": 1183,
      "ဘၪလ": 1184,
      "လဖၪယီၩ": 1185,
      "ခုၪ့": 1186,
      "ဘၧၩ့": 1187,
      "ဟီ": 1188,
      "ၦလၧ": 1189,
      "အဂူၫဂၩ": 1190,
      "လၧဆၧနီၪ": 1191,
      "ၡါမု": 1192,
      "ဆၧအလး": 1193,
      "ဎွ့ၩန့": 1194,
      "မၩဆၧၩ့": 1195,
      "ဘၪဆဲၫ့လၧ": 1196,
      "လၧအအီၪဝ့ၫ": 1197,
      "စံၫ": 1198,
      "ၥူၫ": 1199,
      "အီၪအ့ၬ": 1200,
      "လၧနၭ": 1201,
      "လၧအံဇံၭ": 1202,
      "ၦယုဒၫ": 1203,
      "နၧၫ့ဖၫ": 1204,
      "ဆီၩ့ဆီ": 1205,
      "ကၭ": 1206,
      "နီၫ": 1207,
      "လၧနမ့ၬယၫ": 1208,
      "ဎွံၫ": 1209,
      "ကွဲၪ": 1210,
      "အကီၩ့": 1211,
      "ဎီးအၡၩ": 1212,
      "ယး": 1213,
      "ဝါ": 1214,
      "အမ့ၬယၫတၭ": 1215,
      "မွဲဘၪလဲၪ": 1216,
      "ခၪ့ထံၭ": 1217,
      "အနီၪ": 1218,
      "မွဲအအီၪ": 1219,
      "အထုၬ": 1220,
      "ချႃၬ": 1221,
      "ယဟိဝၩအလူ": 1222,
      "ဆိၪအၧၩ့": 1223,
      "အဖၫ့ခိၪလီၫ": 1224,
      "ဖျါခွံၬ": 1225,
      "စၧၩ့": 1226,
      "လိၫ": 1227,
      "လၧၦလၧအ": 1228,
      "လၧစမိစ့ၭ": 1229,
      "အၪနဲၪ့": 1230,
      "ဇ့ၭ": 1231,
      "ဇၧၫ": 1232,
      "ဘိၭ": 1233,
      "ၥၭမု": 1234,
      "စဲၪ့ဒၪ": 1235,
      "ဎိၭ": 1236,
      "ထု": 1237,
      "ဖၬ": 1238,
      "ၡၪ့ဆၧနၭ": 1239,
      "ဖၧၫ့": 1240,
      "မိဂဲၫ": 1241,
      "စယၫကူၭ": 1242,
      "ၥံၪနီၪ": 1243,
      "ဘၪအၥၭ": 1244,
      "အၪ့ဂူၬ": 1245,
      "ရံၭ": 1246,
      "လၩ့ဝ့ၫ": 1247,
      "ယိၭ": 1248,
      "လၧခီၫ့": 1249,
      "မၩလၩ့": 1250,
      "မွဲယွၩ": 1251,
      "လၧဆၧမၩ": 1252,
      "ဆံၫ့ဘၪ": 1253,
      "အၥၫ့": 1254,
      "အဂံၪ့ဖၧၩ့": 1255,
      "မၬလီၫ": 1256,
      "ရှုၫအ့ၫ": 1257,
      "ခါ": 1258,
      "နိၪ": 1259,
      "ယအ့ၪ": 1260,
      "လၧယအီၪ": 1261,
      "ကွ့ၭအၥၭ": 1262,
      "အစီၩ့အမၩ့": 1263,
      "ဒူၭ": 1264,
      "ဒုၪ့": 1265,
      "ဘံၫ့": 1266,
      "ၡါမုနၧၫ့ဖၫ": 1267,
      "ပရၧၫ့": 1268,
      "ထၪ့တၭ": 1269,
      "အၪအၪလ့ၬ": 1270,
      "ဒုၪအဒၩ": 1271,
      "စိၩ": 1272,
      "လၥ့ၪ": 1273,
      "ထီးယီၩ": 1274,
      "အဂၩ့": 1275,
      "လၧယ့ၫ": 1276,
      "ဂၪ": 1277,
      "မံ": 1278,
      "ရၧၭ": 1279,
      "ဒဲလ": 1280,
      "မိဒုၭ": 1281,
      "ယူၭတၭ": 1282,
      "ကိၭန့": 1283,
      "မံၩ့လၬကျၩ": 1284,
      "ဂဲၩ": 1285,
      "မိအၭ": 1286,
      "ယၧၩလီၫ": 1287,
      "အလၩအဖၩ့": 1288,
      "ဝ့ၫအ့ၬ": 1289,
      "အီၪဝ့ၫလၧအ": 1290,
      "ၥုၪ့တဲၩ": 1291,
      "လမံၩ့မံၩ့": 1292,
      "မၭ": 1293,
      "အရ": 1294,
      "ခီၫခီၫ": 1295,
      "ဘီၪး": 1296,
      "ဂုၪ": 1297,
      "လချႃၭ": 1298,
      "အီၪလၩ့ထး": 1299,
      "ၥၭဝံ": 1300,
      "ဘဲၫၥိၭယမိ": 1301,
      "ဘဲၫၥိၭနမိ": 1302,
      "အလးနီၪ": 1303,
      "ထွ့ၪ": 1304,
      "ဒီၩ့": 1305,
      "အဎ": 1306,
      "ဆၧၥ့ၪ": 1307,
      "နၥံၪဘၪ": 1308,
      "လၧနစူၪ": 1309,
      "ကဆါဧ့": 1310,
      "ကြၩ့": 1311,
      "နၧၩ့": 1312,
      "လၧဖၧၩ့ၥၭ": 1313,
      "နအၫ့": 1314,
      "လံၫ": 1315,
      "အထံၫ": 1316,
      "လၧနအီၪ": 1317,
      "အၥွံၪ": 1318,
      "အဆၧၫ့အထီ": 1319,
      "တီၩလလီၩ့ဘၪ": 1320,
      "လၩ့ဆိၩလၩ့ကၠၪ": 1321,
      "အ့ၪမွဲၦ": 1322,
      "ဒၪ့ထ": 1323,
      "ဘၪလိၬအိၭလိၬ": 1324,
      "အဲၫ": 1325,
      "လၧစဒၫဝံၭ": 1326,
      "ဘျၩ့": 1327,
      "ၥုၪ့ထိၬ": 1328,
      "ယဟိဝၩစံၭဘဲၫယီၩ": 1329,
      "လၧယၫ": 1330,
      "စက": 1331,
      "ထီးၦ": 1332,
      "လၧယဂး": 1333,
      "စအၫရၧၫ့": 1334,
      "လနၩ့နၩ့": 1335,
      "ဆၪ့": 1336,
      "ဒူၩ": 1337,
      "ခွး": 1338,
      "ဖ့ၪလၫ့ခွံၬ": 1339,
      "ၥုၭမုခမျၧးအ": 1340,
      "အထံၩအဖျဲ": 1341,
      "စယ့ၫရ": 1342,
      "ထီးမု": 1343,
      "လၧနဂး": 1344,
      "အီၪကိၩ့": 1345,
      "ဂဲၫနုၬ": 1346,
      "ၥုၭဖိၪ": 1347,
      "ယၪ့": 1348,
      "လယၩ": 1349,
      "တၭယမိ": 1350,
      "လၧစအၫ": 1351,
      "နၧၩလီၫ": 1352,
      "မွဲဆၧတီၩ": 1353,
      "အလီၩ့လီၫ": 1354,
      "ဘၩ့မုးဖိၪ": 1355,
      "လၧမၫဆမံၭ": 1356,
      "လၧၥိၪ": 1357,
      "အၥုၭ": 1358,
      "ဂံလ": 1359,
      "ၥ့ၪအ့ၬ": 1360,
      "ထီးအလူၬတၭ": 1361,
      "ကျီၪ့": 1362,
      "အၧၫ့": 1363,
      "လခီၫနီၪ": 1364,
      "လခီၫလီၫ": 1365,
      "ထမး": 1366,
      "ယမံၫ့": 1367,
      "တၭယဟိဝၩ": 1368,
      "ခွၩ့": 1369,
      "န့ဘၪဆၧ": 1370,
      "ယွၩဧ့": 1371,
      "ဆၫ့": 1372,
      "ဆီး": 1373,
      "မုၫ": 1374,
      "အၪ့ဆၧ": 1375,
      "လီၩလၩ့လၬလၩ့": 1376,
      "ထုၫ့": 1377,
      "ခီၫခီၫလဲၪ": 1378,
      "ကၪ": 1379,
      "ဖြ": 1380,
      "ယီၩ့": 1381,
      "လၧခဲၫ့": 1382,
      "ဒဲလၧၦ": 1383,
      "ပျၩ့": 1384,
      "အ့ၪလမွဲဘၪ": 1385,
      "စၧၩ့ထၬ": 1386,
      "ယအီၪ": 1387,
      "မၩအၧၩ့": 1388,
      "စရ့": 1389,
      "လၧမုနံၩ": 1390,
      "စအံၫလဲ": 1391,
      "လၧဂံၪ့": 1392,
      "ဆၧလဖၪ": 1393,
      "ထဲၩ့ဝ့ၫ": 1394,
      "ခၭ": 1395,
      "ယူၬ": 1396,
      "လဲၪ့": 1397,
      "ဒဲဒုၭ": 1398,
      "လံဝဲၫဖိၪ": 1399,
      "စန": 1400,
      "မဲအၫ": 1401,
      "ထၪ့အၥၭ": 1402,
      "အီၪက့ၪဆၧ": 1403,
      "နၩ့ဖၭ": 1404,
      "လၧခးအံဇံၭ": 1405,
      "အဘၩ့အမုး": 1406,
      "လၧအမွဲ": 1407,
      "ဒၪဆၧ": 1408,
      "လုဆၧအ": 1409,
      "ကိၭဝ့ၫ": 1410,
      "လမံၩ့လါလါ": 1411,
      "ဖြံၫ့": 1412,
      "စဘၫ": 1413,
      "ဒံၭဘၪ": 1414,
      "ဆူၭခဲၩ": 1415,
      "ကိၪမုၬ": 1416,
      "ကဒၩ": 1417,
      "အကဆါ": 1418,
      "ထံၫၥံၪခးၥံၪ": 1419,
      "ဘဲၫနီၪအၥိၭ": 1420,
      "ါလၩ့": 1421,
      "ဂဲၫလၩ့": 1422,
      "ကိၪ့ဘၪ": 1423,
      "ဘ့ၭၥ": 1424,
      "စီလူၫ": 1425,
      "မၩဖီၩ့မၩဖျ့ၭ": 1426,
      "ဆၧအုၩ့လၩ့": 1427,
      "ကၩ": 1428,
      "ဒံ": 1429,
      "ဆိၪလၩ့": 1430,
      "ဎးလီၫ": 1431,
      "ဝၫ့": 1432,
      "အလၭ": 1433,
      "အဆၧဒဲၩဘၭ": 1434,
      "ဘံၪ့ယမံၫ့": 1435,
      "ယူၭဆၧ": 1436,
      "လခီၫတၭ": 1437,
      "အဂံၪ့ဒီၪ့": 1438,
      "ၡၪ့ဖိၪ": 1439,
      "ပဒၩ့": 1440,
      "ရဲအၫ": 1441,
      "အချိၬ": 1442,
      "တၭထီး": 1443,
      "လၧအဘၪ": 1444,
      "ၥံၫဝ့ၫ": 1445,
      "ကြၩ့ထမး": 1446,
      "ပံၭ": 1447,
      "အဲအၫ": 1448,
      "အထၫ": 1449,
      "စ့ၫ": 1450,
      "ယလူ": 1451,
      "ထီးနီၪလီၫ": 1452,
      "စံၭဆၧ": 1453,
      "အၥိၭနီၪတၭ": 1454,
      "အၡၩခမျၧး": 1455,
      "ဒံၩ": 1456,
      "ယိၬ": 1457,
      "ယလီၩဘၪ": 1458,
      "ၥံၪတၭ": 1459,
      "နၥံၪအယွၩ": 1460,
      "နၧၩတၭ": 1461,
      "အၥီၫ": 1462,
      "ထၧၫ့ဖျိၪ့": 1463,
      "ကၫနအၫ့": 1464,
      "က့ၭၥၭၡါ": 1465,
      "အထီး": 1466,
      "ၥံၫ့": 1467,
      "လၧဖျ": 1468,
      "ဆၧမၪလူၬ": 1469,
      "မုနၩ": 1470,
      "အအီၪလီၫ": 1471,
      "ကိၭၡၭထၪ့": 1472,
      "ကဲ": 1473,
      "ခိး": 1474,
      "ံတၧၫ": 1475,
      "အဂီၩ့": 1476,
      "အဖၧၩ့နီၪလီၫ": 1477,
      "လုထၪ့": 1478,
      "ဒဲစအ": 1479,
      "ဖီၩ့ခွံၬ": 1480,
      "ဘျၪထဲၩ့": 1481,
      "စ့": 1482,
      "တၩ": 1483,
      "ထံၩ": 1484,
      "လဲၫ": 1485,
      "အဎွ့ၩ": 1486,
      "လၩ့ဖၭ": 1487,
      "အလီၩ့တၭ": 1488,
      "စအၫဘြဟၫ့": 1489,
      "အမ့ၬၥၪ": 1490,
      "ဖိၭဖၫ့": 1491,
      "ဝံထၪ့နၬထၪ့": 1492,
      "လၧၦအံၫစရ့လၭဖိၪ": 1493,
      "ဂဲးဘဲၫယီၩ": 1494,
      "ဆၬလ": 1495,
      "ဆၪ": 1496,
      "ယၥ့ၪယၫ": 1497,
      "လၧၥံၪ့": 1498,
      "အလ့ၩ": 1499,
      "့ၭဇ": 1500,
      "ချဲၩ့ဒုၪ့": 1501,
      "လခီၫဘၩ့မုးဖိၪ": 1502,
      "ဝဲၡါ": 1503,
      "ဆိၪလၩ့အၥၭ": 1504,
      "စအၭဘ": 1505,
      "ဘၪၥၭလိၪ": 1506,
      "နၥံၪအ": 1507,
      "မွဲအမိ": 1508,
      "ထိးဆၧၫ့": 1509,
      "မၫဆမံၭ": 1510,
      "ကၠၪခွံၬ": 1511,
      "ခုၪ့လၩ့": 1512,
      "ဒဲကယဲ": 1513,
      "ဒဲၥိၪ": 1514,
      "မိၥ့ၪ": 1515,
      "ၥၭယီၫ": 1516,
      "အၥၭနီၪ": 1517,
      "အနိၪ": 1518,
      "အကျၩတၭ": 1519,
      "ဂီၩ့တၭ": 1520,
      "ၥၧၫ့ဆံၫ": 1521,
      "ဆိၩအကၠၪ": 1522,
      "ဇံအိၫ့": 1523,
      "ဒၪဘၪဆၧ": 1524,
      "လဖၪနီၪလီၫ": 1525,
      "နၥံၪအ့ၪ": 1526,
      "ဖိၪၥၪခွၫ": 1527,
      "တံၫ": 1528,
      "ဆၧယၪ": 1529,
      "လၧၦလ": 1530,
      "အီၪက့ၪထၪ့ထီၫ": 1531,
      "အီၪက့ၪကီၪ့": 1532,
      "လၧမုဆၫလနံၩယီၩ": 1533,
      "ၥုၪ့ထိၬၥၭထိၬ": 1534,
      "ဆၧယီၩ": 1535,
      "ဒဲပ": 1536,
      "ဖိၪမုၪ": 1537,
      "လၧယမိ": 1538,
      "ၡၩခမျၧး": 1539,
      "ထီၫမၪ": 1540,
      "ဆၧဝီၩ": 1541,
      "အဆၧမၪလူၬ": 1542,
      "လ့ၩလၩ့": 1543,
      "နံၩလနံၩနီၪ": 1544,
      "ယဲဆံၫ": 1545,
      "ၥံၫအနံၩ": 1546,
      "လၧမုလနံၩနီၪ": 1547,
      "စစီလမၧၫ့": 1548,
      "အဆိၩအကၠၪ": 1549,
      ".)": 1550,
      "ထွ့ၫ": 1551,
      "မၩထၪ့": 1552,
      "အၪ့ထုၫ့": 1553,
      "အဆၧလု": 1554,
      "လၩ့ထံး": 1555,
      "စံရအၫ": 1556,
      "ဘိအၫ့": 1557,
      "နိၫ": 1558,
      "အဝၩ့": 1559,
      "တၭအဝ့ၫ": 1560,
      "အီၪလၧန": 1561,
      "လ့ၩဝ့ၫ": 1562,
      "တၭစဎွၩ": 1563,
      "ထီၫမံၫ": 1564,
      "လၩဖၩ့": 1565,
      "စယိၥၭ": 1566,
      "တရံၭ": 1567,
      "ဘၫ့": 1568,
      "အၥၭလၧ": 1569,
      "ခိၪဒၧၩ့": 1570,
      "တီၩအလီၩ့": 1571,
      "ၥုၪ့ဎွံၫ": 1572,
      "ဘဲၫၥိၭအမိမၩ": 1573,
      "မ့ၬမဲ": 1574,
      "အဖၫ့ခိၪတၭ": 1575,
      "ချဲၫ့ချဲၫ့": 1576,
      "လၧၫ့ထၪ့ဎွ့ၩထၪ့": 1577,
      "အကီၩ့အၥိၭ": 1578,
      "ဖ့ၬ": 1579,
      "ဖိၫ": 1580,
      "မလ့ၭ": 1581,
      "လၧအၥိၭ": 1582,
      "ၥီၪ့လိၪ": 1583,
      "မွဲလါနၫ့တၭ": 1584,
      "လၩ့မါပံၭ": 1585,
      "ဆၧမၩဘိၪ့": 1586,
      "အီၪကိၩ့အီၪကီၪ့": 1587,
      "ဆၬလၥၧၫ့": 1588,
      "ဂဲၫဝ့ၫ": 1589,
      "ဖါၥံၪ": 1590,
      "ဖိၪဆၧလံၩ": 1591,
      "စဲ": 1592,
      "စီလမၧၫ့": 1593,
      "နဝ့ၫဒၪယီၩ": 1594,
      "မူၭ": 1595,
      "ၡက": 1596,
      "ၥၭအုၭ": 1597,
      "အၥၭလီၫ": 1598,
      "ၦလၧအမၩ": 1599,
      "ဒဲစအၫ": 1600,
      "အံၫစရ့လၭအယွၩ": 1601,
      "နၭစ့ၫ": 1602,
      "ဎွ့ၩန့ထဲၩ့": 1603,
      "ဘုၭ": 1604,
      "ယီ": 1605,
      "အဎီးအၡၩ": 1606,
      "အပရၧၫ့": 1607,
      "ဆၧလၧန": 1608,
      "ဘၪခိၬ": 1609,
      "ထီးမၩ": 1610,
      "လၩ့ဆ့ၭ": 1611,
      "တၭစဒၫဝံၭ": 1612,
      "ဆိၭ": 1613,
      "အလးခဲၫ့နီၪ": 1614,
      "အရူၫ": 1615,
      "ထၧၫ့ဖျိၪ့ယၫ": 1616,
      "လပိၩ့": 1617,
      "အမု": 1618,
      "လၧက": 1619,
      "ထၪ့နီၪ": 1620,
      "ဖၧၩ့နီၪလီၫ": 1621,
      "အထး": 1622,
      "အၥုၭမု": 1623,
      "ထိၩ့": 1624,
      "လူၫ": 1625,
      "အဆီၪ့": 1626,
      "ထီးလၩ့": 1627,
      "အၪ့နၩ့ဖၭ": 1628,
      "မၧၫ့ဝ့ၫ": 1629,
      "ၦၡၩအဖိၪခွၫ": 1630,
      "ကွ့ၭလံၬ": 1631,
      "ဎီၩ့": 1632,
      "ၦလဖၪနီၪ": 1633,
      "အီၪက့ၪၥူၪ": 1634,
      "လၧစမ": 1635,
      "အဝ့ၫဒၪမိ": 1636,
      "နဲၪ့ဒံၭ": 1637,
      "ဘၫအလၭ": 1638,
      "ကၥ့ၪယီၩ့": 1639,
      "နံ": 1640,
      "နခ့ၫနၡၩ": 1641,
      "ယၧၩ့": 1642,
      "လၧမံၩ့လၬကျၩ": 1643,
      "ဒဲဘ့ၪ": 1644,
      "အီၪထၪ့": 1645,
      "အီၪယူ": 1646,
      "စံၭယၧၩ": 1647,
      "အဝ့ၫၥံၪလီၫ": 1648,
      "ဘဲၫၥိၭနၥံၪမိ": 1649,
      "လံဆံၫ": 1650,
      "စပီလူၫ": 1651,
      "အဘိၩ့ဘၭနီၪ": 1652,
      "လထံၪဎး": 1653,
      "ဆဲၩ": 1654,
      "လၧတ": 1655,
      "လၧကယဲ": 1656,
      "ဆၧၥုၭမုခမျၧးအ": 1657,
      "အဝ့ၫၥံၪတၭ": 1658,
      "လၧၫ့ဎွ့ၩ": 1659,
      "အမံၩ့မွဲ": 1660,
      "ယဲး": 1661,
      "အဲၪ့": 1662,
      "ၦအၫ": 1663,
      "ဆၧအီၪကီၪ့": 1664,
      "ထီးအဝ့ၫၥံၪ": 1665,
      "လၧယမ့ၬယၫ": 1666,
      "အလူအထၫ": 1667,
      "ချႃၬဘံၭ": 1668,
      "လဆိၩ": 1669,
      "ၥူၭ": 1670,
      "ၦဆၨၩလဖၪ": 1671,
      "လၧအဖၫ့ခိၪ": 1672,
      "မၩကဲၪထၪ့": 1673,
      "ခွ့ၩ": 1674,
      "အဝ့ၫၥံၪနီၪ": 1675,
      "ကဲၪစဎွၩ": 1676,
      "အၥိၪ": 1677,
      "လၧမုထၪ့": 1678,
      "ၥီၪ့ထဲၩ့": 1679,
      "မုၫအ့လၭ": 1680,
      "ၡၪ့ဖိၪယၬ": 1681,
      "ၩ့ထၪ့": 1682,
      "လၧနၥံၪအကျၩ": 1683,
      "ကူၭတရံၭ": 1684,
      "ခိဆၧဝီၩ": 1685,
      "ဂံလအၭ": 1686,
      "ဆိၫ့": 1687,
      "တ့ၭ": 1688,
      "ၡိၫ": 1689,
      "ဒဲလၧန": 1690,
      "အီၪခၧၫ့": 1691,
      "မၩစၪ": 1692,
      "လုထၪ့ဆၧ": 1693,
      "ူၫအရူၫ": 1694,
      "တဲၩဆံၫ့ဎံၪ": 1695,
      "ထီၫမံၫထီၫမၪ": 1696,
      "ဘၪယူၭ": 1697,
      "လၧဆၧအီၪကီၪ့": 1698,
      "ဖ့ၪလၫ့ဝ့ၫ": 1699,
      "တၭစမိစ့ၭ": 1700,
      "လါနၫ့ဘိၩ": 1701,
      "အၪ့မၧၫ့ဎီး": 1702,
      "ွၪခိၪ": 1703,
      "ဂဲၫ့": 1704,
      "ယဒၪဘၪ": 1705,
      "ၥံၪမိ": 1706,
      "လၧအဂဲး": 1707,
      "ထီးန": 1708,
      "ဖျၩ": 1709,
      "ဆိၬထၪ့": 1710,
      "စဟၫ": 1711,
      "ဇၫ့": 1712,
      "ရံၫ": 1713,
      "အၪ့ဆၫ": 1714,
      "လၧယစူၪ": 1715,
      "အမ့ၬယၫနီၪ": 1716,
      "လၧမုနၩ": 1717,
      "မၩၥံၫဝ့ၫ": 1718,
      "ဆၧမိမၩအၥၭ": 1719,
      "ချံၫအၥၪ": 1720,
      "ယၡၩခမျၧး": 1721,
      "ၦဆၨၩ": 1722,
      "နီၪအီၪ": 1723,
      "တၭန": 1724,
      "လဖၪအ": 1725,
      "လဂၩလၧအ": 1726,
      "အလးလီၫ": 1727,
      "ဂဲထုၪ့ထဲၩ့": 1728,
      "အၪ့ကံၩ့အၪ့ယၫ": 1729,
      "ခံဖၧၩ့": 1730,
      "ပယွၩ": 1731,
      "ဝံၩ့": 1732,
      "တၭၦလၧအ": 1733,
      "လၧအဒုၭ": 1734,
      "မွဲအ့ၬ": 1735,
      "စံၭဘဲၫယီၩ": 1736,
      "ၥုၪ့ဎွံၫၥၭယီၫ": 1737,
      "လၥ့ၪယၫ": 1738,
      "ဆၧစ့ၩရၫ့": 1739,
      "ဆၧဖိၪဆၧဎါ": 1740,
      "လၧအဘၪဆၧ": 1741,
      "တီၩတီၩ": 1742,
      "စဘံၭထံၫ": 1743,
      "ခွံၬၡိၭခွံၬ": 1744,
      "ဂၪလၩ့": 1745,
      "အၧၭ": 1746,
      "့ရအၫ": 1747,
      "လၧနီၪ": 1748,
      "လၧၡါမုနၧၫ့ဖၫ": 1749,
      "ဆၧလၧၦ": 1750,
      "လီၫ့": 1751,
      "အၪ့ခွံၬ": 1752,
      "လၧနၥံၪအ": 1753,
      "ဎွ့ၩဒိၪ": 1754,
      "ၥုၭဘူၭ": 1755,
      "အစူၪဖၧၩ့လီၫ": 1756,
      "ဘံၪ့ယၫ": 1757,
      "ၥၧၫ့ဂၩ": 1758,
      "ထီၩ့လၩ့": 1759,
      "အတလၫ": 1760,
      "ဆူၭထၪ့ခွံၬ": 1761,
      "အဘိၩ့ဆၧၩ့": 1762,
      "ဆိၩအကၠၪကၠၪ": 1763,
      "စနၫ": 1764,
      "လၨၪ": 1765,
      "အူၪ": 1766,
      "ၦမၩ": 1767,
      "အတဲၩဆံၫ့ဎံၪ": 1768,
      "လၧမီၪအချိၬ": 1769,
      "လၧလိး": 1770,
      "လၧအကျၩ": 1771,
      "မွဲၦလၧအ": 1772,
      "ဒၪနဝ့ၫ": 1773,
      "အၪ့ၥီၪ့": 1774,
      "ဂဲၫထီၩ့": 1775,
      "အီၪက့ၪဝ့ၫ": 1776,
      "ဘျ့ၭ": 1777,
      "အဂံၪ့ဖိၪ": 1778,
      "အခိၪလဖၪ": 1779,
      "စယိအၭ": 1780,
      "ဒၪ့ထ့ၬခွံၬ": 1781,
      "ကဲၪ့": 1782,
      "ယဝ့ၫဒၪ": 1783,
      "နၥံၪအဆၧ": 1784,
      "န့ဝ့ၫ": 1785,
      "လဂၩတၭ": 1786,
      "ၥ့ၪယၫဝ့ၫ": 1787,
      "ဘျဲၩ": 1788,
      "ကိၪ့ဆၧၥ့ၪ": 1789,
      "လါလါနီၪ": 1790,
      "စယီရှုၫအ့ၫ": 1791,
      "နစူၪ": 1792,
      "ပဝ့ၫဒၪယီၩ": 1793,
      "မဲၫ": 1794,
      "အထုၪ့": 1795,
      "ဆၧလဖၪနီၪ": 1796,
      "တၭဘိၩ့နဲၪ့ယီၩ": 1797,
      "တၭနဘၪ": 1798,
      "အီၪခိၭ": 1799,
      "ဘဲၫယဟိဝၩ": 1800,
      "အံဖြံၫ့": 1801,
      "နံၪ့လနံၪ့": 1802,
      "မံၫမး": 1803,
      "ဟံဘြ": 1804,
      "ခုၪ့လၩ့ဘၧၩ့": 1805,
      "လအ့": 1806,
      "အူၭ": 1807,
      "အယၪ": 1808,
      "လၧတရၫ့": 1809,
      "လၧအခၪ့ထံၭ": 1810,
      "လၧစ့ၩ": 1811,
      "ဂဲထုၪ့တၭ": 1812,
      "လၧယရုစလံၫ့အဖၧၩ့": 1813,
      "နံၬ": 1814,
      "ယဖါ": 1815,
      "အဘျၪ": 1816,
      "ၦဖလံၡၫဖိၪ": 1817,
      "ခွံၫ": 1818,
      "အဂဲၫ": 1819,
      "လၩ့ဂၬ": 1820,
      "ဘဲၫၥိၭပမိ": 1821,
      "တၭစအၫ": 1822,
      "မုၬလၩ": 1823,
      "မွဲဘၪနီၫ": 1824,
      "အဖါလဖၪ": 1825,
      "စပံတၧၫ": 1826,
      "ၡၪ့ဖိၪယၬဖိၪ": 1827,
      "ဒိၩ": 1828,
      "ဖ့ၬခွံၬ": 1829,
      "လထီၫ့": 1830,
      "ဟဲ": 1831,
      "ံရအၫ": 1832,
      "ၡၪ": 1833,
      "လၧကယဲဆၧ": 1834,
      "လၧၦလုဆၧ": 1835,
      "လီၩ့ဆီး": 1836,
      "အ့ၪမွဲၦလၧအ": 1837,
      "မ့ၬလဲၩ": 1838,
      "ၦဒိၪဖၭဒိၪ": 1839,
      "လဂၩဂၩနီၪ": 1840,
      "လၥ့ၪဘၪ": 1841,
      "ဇၭ": 1842,
      "နၥၧၫ့": 1843,
      "ဘ့ၫ": 1844,
      "မွံၩ": 1845,
      "အၩ": 1846,
      "လၧအဂံၪ့": 1847,
      "လၧအဖါ": 1848,
      "အဝ့ၫတၭ": 1849,
      "လၧဆၧချဲၩ့": 1850,
      "လၧယဟိ": 1851,
      "ယူၭလီၫ": 1852,
      "စၡ": 1853,
      "စိၭ": 1854,
      "ဆံၬ": 1855,
      "ယအီၪက့ၪ": 1856,
      "ယဖိၪခွၫ": 1857,
      "လၪ": 1858,
      "ၥရ": 1859,
      "့ၭဘ": 1860,
      "အ့ၪအီၪ": 1861,
      "ဒၪဘၪဝ့ၫ": 1862,
      "ဘၪဆဲၫ့လၧဆၧ": 1863,
      "ဂၧၫ့ထၪ့": 1864,
      "လူဒိၪ": 1865,
      "ဂဲၫထဲၩ့ထဲၩ့": 1866,
      "အထံၩအဖျဲၥံၪ": 1867,
      "ကဲၩ့": 1868,
      "ပြ": 1869,
      "ဖံ": 1870,
      "လုၬ": 1871,
      "ၦမိ": 1872,
      "လၧထီၫ့": 1873,
      "ဒဲက": 1874,
      "လၩ့ဒိၩ": 1875,
      "လၧနၥၭ": 1876,
      "လ့ၩထီၩ့": 1877,
      "ဘဲၫၥိၭနၥံၪ": 1878,
      "အခံး": 1879,
      "နံၫဘံၪ့": 1880,
      "စဲၪ့ဖျိၭ": 1881,
      "ထၧၫ့ဘံၪ့ယၫ": 1882,
      "စယဟီ": 1883,
      "ပၩ": 1884,
      "လဆံၫ့ဘၪ": 1885,
      "အဒိၪ": 1886,
      "ထီးဆၧ": 1887,
      "လၧၦမုၪ": 1888,
      "အံၫစရ့": 1889,
      "တီၩၦ": 1890,
      "လၧမုခံၫ့": 1891,
      "ယ့ၫရှူၬဎရံၬ": 1892,
      "ၡက့လၭ": 1893,
      "ဝံၩ့ဝၩ့": 1894,
      "ဎဲၫ့": 1895,
      "ထံၬ": 1896,
      "ယစူၪ": 1897,
      "လိၫ့": 1898,
      "ၥၩ": 1899,
      "အီၪဝၬဖီၩ့": 1900,
      "အဖၫ့ခိၪနီၪ": 1901,
      "ဒ့ၭလီၫ": 1902,
      "ဂုးအီၪခၧၫ့": 1903,
      "စယ့ၫရမဲအၫ": 1904,
      "ဘုၭထၬ": 1905,
      "ကံၭ": 1906,
      "နီၫ့": 1907,
      "ဖံၫ့": 1908,
      "ိအၫ": 1909,
      "လၧယၥၭ": 1910,
      "လဂ့ၩတၭ": 1911,
      "အအီၪနီၪ": 1912,
      "လၧအအီၪတၭ": 1913,
      "ဝဲၩဝ့ၫ": 1914,
      "စီၫ": 1915,
      "ဎၧၫ့": 1916,
      "ထၫ": 1917,
      "ဘဲ": 1918,
      "မၩနၭ": 1919,
      "ဘဲၫန": 1920,
      "ယၧၩဆံၭ": 1921,
      "လၧယဟိဝၩအမ့ၬယၫ": 1922,
      "မၩအၥၭဘဲၫနီၪ": 1923,
      "အၪ့ဂူၬန့": 1924,
      "့ၭဇကဲအၫ": 1925,
      "လၩ့ထံးလၩ့ဆ့ၭ": 1926,
      "ဖိၫလိၫ": 1927,
      "လမၩ": 1928,
      "အွံၪ": 1929,
      "လၧကဆါ": 1930,
      "အဂဲးလီၫ": 1931,
      "လဂၩဎး": 1932,
      "ၥုၪ့က့ၭၥၭၡါ": 1933,
      "ဘံၭထံၫ": 1934,
      "အခိၪလီၩ့": 1935,
      "ဘိၪ့ထၪ့": 1936,
      "ၦလဂၩဂၩ": 1937,
      "စလၧၫ့": 1938,
      "ယမွဲ": 1939,
      "ၥံၪအ": 1940,
      "ထီးယ": 1941,
      "လၩ့ဆၧ": 1942,
      "အဂဲးအဘၭ": 1943,
      "ယမိဖ့ၪလၫ့": 1944,
      "လၧမုဖၩ": 1945,
      "ကျဲၩ့": 1946,
      "ခ့ၫယၡၩ": 1947,
      "ဘၩထၪ့": 1948,
      "ချဲၩ့ဆၧၫ့ဆၧတၭ": 1949,
      "စံၪ": 1950,
      "ဘီၪ့": 1951,
      "လံၭ": 1952,
      "လဂၩယီၩ": 1953,
      "ယိထဲၩ့": 1954,
      "ဆီၪ့ထၪ့": 1955,
      "ၥုၪ့အုၭ": 1956,
      "မံၫနၩ့": 1957,
      "နွ့ၫနံၩ": 1958,
      "ဖိးလၧ": 1959,
      "ဆၧအၪ့ဆၧအီၩ": 1960,
      "စတ": 1961,
      "ဒဲဆၧအ": 1962,
      "လၩ့ဎီး": 1963,
      "လၧဆၧၥံၫ": 1964,
      "ခိၪဎွံၪ": 1965,
      "လၧနဆၧ": 1966,
      "လၧဖျိၩ့": 1967,
      "မၩ့": 1968,
      "ရဲၫ": 1969,
      "ထီးနၥံၪ": 1970,
      "ထီးနီၪတၭ": 1971,
      "လၧဆၧအၧၩ့": 1972,
      "အဆၧအီၪ": 1973,
      "အဆၧအီၪကီၪ့": 1974,
      "ယဟိဝၩချဲၩ့ဆၧ": 1975,
      "လၧၦဆၨၩလဖၪ": 1976,
      "ဆ့တၭ": 1977,
      "မွဲဆၧနီၪ": 1978,
      "ကိၪ့ထၪ့": 1979,
      "လၧပဂး": 1980,
      "အီၪလၧအၥိၭ": 1981,
      "အီၪလၧၩ့": 1982,
      "ဒိၭန့": 1983,
      "အဲၪဝ့ၫ": 1984,
      "ဝၭထိၬ": 1985,
      "တံၫဇၫ့": 1986,
      "တီၩၦလီၩ့": 1987,
      "စံၪစၪ": 1988,
      "ဇဲအၫ": 1989,
      "ပၫ": 1990,
      "ဖီၫ": 1991,
      "လဆၨၩ": 1992,
      "မၩဆၧအၧၩ့": 1993,
      "စအၫမ": 1994,
      "ဝၬဝၬ": 1995,
      "အံဇံၭဖိၪ": 1996,
      "ဆဲၫ": 1997,
      "ဘၪ့": 1998,
      "ဆၧဘျၪ": 1999,
      "ဖျ့ၫ": 2000,
      "ယဟိဝၩနယွၩ": 2001,
      "ယူၭဝ့ၫ": 2002,
      "လဂ့ၩလီၫ": 2003,
      "အဆိၩဆိၩအကၠၪကၠၪ": 2004,
      "အယီၩမွဲ": 2005,
      "ဒၪ့ဎၩ့": 2006,
      "ယိၭဘီၩ့": 2007,
      "ထိၩ့ချိၬ": 2008,
      "့ၭဘူၫ": 2009,
      "မၫ့": 2010,
      "ၥၭဆၧၩ့": 2011,
      "လဖၪမိ": 2012,
      "အၥၭထၪ့": 2013,
      "အလးတၭ": 2014,
      "ဝဲထၪ့": 2015,
      "နၧၩ့မၩစၪ": 2016,
      "ဆူၪ": 2017,
      "ယါလၩ့": 2018,
      "ၥံၭ": 2019,
      "ထဲၩ့ဆၧ": 2020,
      "အစွၪ": 2021,
      "ယမိအီၪက့ၪ": 2022,
      "အဝ့ၫဒၪစံၭ": 2023,
      "လၧနၥံၪအဂး": 2024,
      "နံၫဒုၩ": 2025,
      "လၧမုလနံၩ": 2026,
      "လၧမုဆၫ": 2027,
      "ပိၩ့လပိၩ့": 2028,
      "ၥူၫဝၭ": 2029,
      "ၦယုဒၫဖိၪ": 2030,
      "ဆၪ့လၩ့": 2031,
      "ပြံၩ": 2032,
      "ဂူၫ": 2033,
      "နအ့လၭ": 2034,
      "ၥွၪခိၪ": 2035,
      "ၦခွၫ": 2036,
      "ၫဖိၪ": 2037,
      "ဆၧမၪ": 2038,
      "ဆၧတီၩဆၧလီၩ့": 2039,
      "ဘၪအ": 2040,
      "လၧဆၧအလး": 2041,
      "ဘံၭထၬ": 2042,
      "ဖၩ့ၥံၪ": 2043,
      "ခံၫ": 2044,
      "ယဖ့ၪလၫ့": 2045,
      "ဟံၫ့": 2046,
      "လၧလၩ": 2047,
      "ဒဲကယဲဆၧ": 2048,
      "ဘၪအ့ၬ": 2049,
      "မိဖ့ၪလၫ့": 2050,
      "လၧယီၫ": 2051,
      "ဒုၭဆၧ": 2052,
      "လဲၪနီၪ": 2053,
      "ဎီးမုၪ": 2054,
      "ဖၫ့လၬ": 2055,
      "လၧဆၧလုလး": 2056,
      "အၦဒိၪဖၭဒိၪ": 2057,
      "ဒိၭနဲၩ့အၥၭ": 2058,
      "ၥၭဝံလၩ့ဒိၩ": 2059,
      "ကံၪ": 2060,
      "ဎံၫ": 2061,
      "ရၭ": 2062,
      "လကၫ": 2063,
      "ၥနိၫ": 2064,
      "လၧဎရံၬ": 2065,
      "ဆၧၥံၫ": 2066,
      "ဆၨၩအ": 2067,
      "မၪလူၬဝ့ၫ": 2068,
      "ယီၫဒၫ့": 2069,
      "ယးဒံၩ့": 2070,
      "လူဒိၪဎွ့ၩဒိၪ": 2071,
      "နဲ": 2072,
      "နိၩ့": 2073,
      "ရံ": 2074,
      "အီၪဂုးခၧၫ့": 2075,
      "ဒၪယဝ့ၫ": 2076,
      "ချၪ": 2077,
      "ချီၩ့": 2078,
      "လီၩ့လီၫ": 2079,
      "အဂဲးဘဲၫယီၩယ": 2080,
      "အဖၭ": 2081,
      "ဆၧအဲၪ": 2082,
      "မွဲအထီး": 2083,
      "အစူၪဖၧၩ့တၭ": 2084,
      "အၥိၭနီၪဆံၭ": 2085,
      "ထီၩ့လၧဆၧ": 2086,
      "ၦမုၪနီၪ": 2087,
      "အီၪဖျဲၪန့": 2088,
      "ၥၩလၩ့": 2089,
      "စၡံ": 2090,
      "နဲအၫ": 2091,
      "အဖျါ": 2092,
      "လၧလံၬ": 2093,
      "ဆၧနၧၫ့မၧၫ့": 2094,
      "ၥၭဂဲၫ့": 2095,
      "ၥိၭအမိ": 2096,
      "နၥံၪလီၫ": 2097,
      "ဒဲၦခမျၧး": 2098,
      "စစၫ": 2099,
      "ထိၪဂဲၩ": 2100,
      "ဘျံၭအဘျၪ": 2101,
      "ယါလၩ့ထဲၩ့": 2102,
      "ဆဲၪ့": 2103,
      "မ့ၭ": 2104,
      "မိလ့ၩ": 2105,
      "ဘဲၫယ": 2106,
      "အဝ့ၫလီၫ": 2107,
      "အလံၬ": 2108,
      "လၧစပ": 2109,
      "လုမ့ၪ": 2110,
      "ဘၭတံၫဇၫ့": 2111,
      "ဆိၬထၪ့ခွံၬ": 2112,
      "ဖၩ့ထၪ့": 2113,
      "ကျၩတၭ": 2114,
      "စယ့ၭ": 2115,
      "အၪ့အဆၪ": 2116,
      "အနၫ့ဆါဒၪဝ့ၫ": 2117,
      "ဂူၪ": 2118,
      "နူ": 2119,
      "ၡၧၫ": 2120,
      "ံၪၥံၪ": 2121,
      "ၥၭနၪ့": 2122,
      "ခိၪတၭ": 2123,
      "ယၫတၭ": 2124,
      "န့ဇၫ": 2125,
      "လဂၩလီၫ": 2126,
      "နါဂၧၫ့ဆၧ": 2127,
      "ၥၭမဲၪဆၧ": 2128,
      "ဘဲၫၥ့ၪလဲၪနီၪ": 2129,
      "ၦလတီၩလလီၩ့ဘၪ": 2130,
      "ထွံၩ": 2131,
      "ရူၬ": 2132,
      "လက": 2133,
      "ဟ့": 2134,
      "ဆၧဂၩ့": 2135,
      "ဒဲဂၪ့ခိၪ": 2136,
      "မွဲအက": 2137,
      "ဂၩနီၪ": 2138,
      "အဆၧၥၪ": 2139,
      "ဖျဲၩ့": 2140,
      "အၫဖိၪ": 2141,
      "ဒုၭၥ့ၪယၫ": 2142,
      "ယိၥၭ": 2143,
      "မၧၫ့ဖိၪ": 2144,
      "အီၪဝ့ၫလီၫ": 2145,
      "မွဲအမၩ": 2146,
      "မွဲအဘၪဆၧ": 2147,
      "လၧခးဖၧၩ့": 2148,
      "အဆၧမၩဘိၪ့": 2149,
      "ယလီၩဘၪနၥံၪ": 2150,
      "ခဲး": 2151,
      "ဖံၬ": 2152,
      "ယမ့ၬ": 2153,
      "ၡၧၫ့": 2154,
      "ဒဲအထၧၫ့ဖုဝဲ": 2155,
      "မုလနံၩ": 2156,
      "အၥၭမၧၫ့": 2157,
      "လၧဆၧနဲၩ": 2158,
      "လၧယၥိၭ": 2159,
      "အဆၧန့ၥၫ": 2160,
      "ဘျီၪ": 2161,
      "အၭဘ": 2162,
      "အခိၪဎွံၪ": 2163,
      "လၩ့ထ့ၬ": 2164,
      "တၭၦခမျၧး": 2165,
      "လုၬဘံၭ": 2166,
      "လၧယီၫဒၫ့": 2167,
      "ယိၪ": 2168,
      "တၭယဟိဝၩစံၭ": 2169,
      "ဒဲအၡၩ": 2170,
      "ဘဲၫပ": 2171,
      "နၥံၪမိဘၪ": 2172,
      "အဖံၭ": 2173,
      "လမံၩ့ယီၩ": 2174,
      "လၧအဝ့ၫနီၪ": 2175,
      "လၧအအီၪလၧ": 2176,
      "ဆၧနီၪလဖၪ": 2177,
      "ပၧၩ့ဆၧ": 2178,
      "ဖၫရစံၫ": 2179,
      "အခံးအဂၩ့": 2180,
      "ဂါ": 2181,
      "ပၠ": 2182,
      "ၡၬ": 2183,
      "ဒဲမိ": 2184,
      "န့ယၧၩ": 2185,
      "ဖျႃ": 2186,
      "ဒိၪဖၭဒိၪ": 2187,
      "ဆံၫ့ထၪ့": 2188,
      "လၧထံၫမိၡါ": 2189,
      "ပျၩ့ဖၧၩ့": 2190,
      "နမံၩ့": 2191,
      "ယလ": 2192,
      "ဆၧၥွံၪ": 2193,
      "ဝ့ၫဘဲၫ": 2194,
      "ဒဲအၫ": 2195,
      "မၩဂ့ၩ": 2196,
      "လဖၪအဖၧၩ့": 2197,
      "အဆၧလီၫ": 2198,
      "လဂၩဧ့": 2199,
      "လၧၦဆၨၩ": 2200,
      "နးမၫ": 2201,
      "ဆၧၫ့အထီ": 2202,
      "ဖံၭဆၧယၪ": 2203,
      "ဘၭဘလၧၫ့အစဎွၩ": 2204,
      "ခၫလ": 2205,
      "ၦယုဒၫဖိၪၥံၪ": 2206,
      "ကဲဂီၩ": 2207,
      "စဲၩ": 2208,
      "စဒၫ့": 2209,
      "ယကဆါ": 2210,
      "ဟုၫ": 2211,
      "ဆၧၥီၪ့ဆၧၥၫ့": 2212,
      "မွဲဆၧအ": 2213,
      "စစၪ့": 2214,
      "ယၫ့ၥုၪ့": 2215,
      "လၧဆၧလုမ့ၪ": 2216,
      "ဂၫလ": 2217,
      "ယဟိဝၩအလူလၩ့ဘၪ": 2218,
      "လၧယ့ၫရှူၬ": 2219,
      "ဆဲၫဎၩ့": 2220,
      "ရံၩ": 2221,
      "လီၪ့": 2222,
      "ၡဖၭ": 2223,
      "ဆၧဂ့ၩ": 2224,
      "ဆၧဖ့ၪလၫ့": 2225,
      "အီၪပွံၭ": 2226,
      "ဘၪလီၫ": 2227,
      "ၥၭဖျဲၩ့": 2228,
      "ဖိၪလဒုၩ": 2229,
      "အၪ့ဆၧအီၩ": 2230,
      "ခွံၬဝ့ၫလၧ": 2231,
      "မွဲအဘၪ": 2232,
      "အထူၫအရူၫ": 2233,
      "အလီၩ့နီၪ": 2234,
      "ချဲၫ့မၬ": 2235,
      "ထီးဒၪၦလၧအ": 2236,
      "ဘၪလဘၪ": 2237,
      "ကွဲၪဖျါ": 2238,
      "ကွဲၪဖျါခွံၬ": 2239,
      "လၩ့ဆိၩလၩ့ကၠၪလီၫ": 2240,
      "အၪ့ထုၫ့ကီၪ့": 2241,
      "ၥီၪ့ထဲၩ့ၥၫ့": 2242,
      "ဆၧဖ": 2243,
      "နီၪဘၪ": 2244,
      "လၧအမၩဆၧ": 2245,
      "ဒဲအဝ့ၫၥံၪ": 2246,
      "ဂၩလီၫ": 2247,
      "လ့ၩဖၬ": 2248,
      "ဆၧအၪ": 2249,
      "ကဲၪဎီး": 2250,
      "နံၫခီၫ": 2251,
      "လ့ၬလီၫ": 2252,
      "ထိၭဘီၩ့": 2253,
      "့ၭဘူၫခၭ": 2254,
      "ဘလၭ": 2255,
      "အၧၫ": 2256,
      "ဆၧကွံၩ": 2257,
      "တၭအ": 2258,
      "လၧအဂဲၫ": 2259,
      "ဒဲအံၫစရ့လၭ": 2260,
      "မိအီၪက့ၪ": 2261,
      "ၥိၭနီၪ": 2262,
      "လၧစစီလူၫ": 2263,
      "ဒဲစယ": 2264,
      "လၩအဖၩ့": 2265,
      "ဒုၪန": 2266,
      "ကျၩလီၫ": 2267,
      "ခ့ၫရူၬ": 2268,
      "လၧထံၫၥံၪခးၥံၪ": 2269,
      "ပိၩ့ထၪ့": 2270,
      "လၧအစူၪဖၧၩ့": 2271,
      "စယီဟၫ့": 2272,
      "ၥုၪ့တဲၩအလး": 2273,
      "ကိၪ့ဘၪကိၪ့ၥ့ၪ": 2274,
      "စဂ": 2275,
      "ၩ့ဖံၭ": 2276,
      "ထၪ့ဝ့ၫလၧ": 2277,
      "အၥၭၡါ": 2278,
      "အၪ့ဘၪ": 2279,
      "အဆၧအၧၩ့": 2280,
      "ဂ့ၩနဲၪ့": 2281,
      "ၥ့ၪဆၧ": 2282,
      "ဒိၪနဲၪ့": 2283,
      "ဖ့ၪလၫ့ယၧၩ": 2284,
      "ဒဲစအံ": 2285,
      "လၧအအီၪလၩ့ထး": 2286,
      "လုဆၧဒဲၩဘၭ": 2287,
      "ဂဲၫထဲၩ့ဆိၬ": 2288,
      "မၩဂၭဂီၩ့ခွံၬ": 2289,
      "ကီၩ့ဆၧ": 2290,
      "အဂံၪ့ဒီၪ့လဖၪ": 2291,
      "လၧနီၪအမ့ၬယၫ": 2292,
      "ခၫလဒံ": 2293,
      "ထူၭ": 2294,
      "နမ့ၬ": 2295,
      "ယၩ့ထၪ့": 2296,
      "ၡံၭ": 2297,
      "ဆၧဘၪ": 2298,
      "နီၪထၪ့ဖိၪ": 2299,
      "အီၪလၩ့မါပံၭ": 2300,
      "မိၥ့ၪယၫ": 2301,
      "ယီၩလီၫ": 2302,
      "ဘၪဆၧမၩ": 2303,
      "လးဆီၩ့ဆီ": 2304,
      "ကျၩနီၪ": 2305,
      "ယုဒၫအစဎွၩ": 2306,
      "ဂဲးလိၬ": 2307,
      "ၥၭထိၬအပရၧၫ့": 2308,
      "ခိမၩ": 2309,
      "ၥုၪ့အုၭၥၭအုၭ": 2310,
      "စ့ၪ": 2311,
      "ထွံၪ": 2312,
      "ဘဲၩ့": 2313,
      "ၦလုဆၧအ": 2314,
      "ၭဖိၪ": 2315,
      "့ၪလၫ့": 2316,
      "ထၪ့ယီၫ": 2317,
      "နၥံၪမၩ": 2318,
      "အၪ့လ": 2319,
      "လၧနး": 2320,
      "လၧနၥိၭ": 2321,
      "ယိဆၧ": 2322,
      "အခိၬ": 2323,
      "နးစီၪ့": 2324,
      "လးခဲၫ့": 2325,
      "လၧမုနုၬ": 2326,
      "မၩန့ဝ့ၫ": 2327,
      "လၧယဟိဝၩနယွၩ": 2328,
      "စူၪယၫ": 2329,
      "ယုၫ": 2330,
      "လၩဆၧဖၩ့": 2331,
      "လၧၩ့ဘၪ": 2332,
      "ဖိၬအခဲၫ့": 2333,
      "မံဒ": 2334,
      "ယိထဲၩ့ခွါ": 2335,
      "စမၫ": 2336,
      "ဆိ": 2337,
      "ဆရၫ": 2338,
      "ဘုၪ့": 2339,
      "ယဒၩ": 2340,
      "့ဖၭ": 2341,
      "ၡ့ၭ": 2342,
      "ၦလံဝဲၫဖိၪ": 2343,
      "ဝ့ၫလဖၪ": 2344,
      "လဖၪလၧအ": 2345,
      "ဖျ့ၩ": 2346,
      "ဆံၭယံၬ": 2347,
      "အဂဲးဘဲၫယီၩဆၧ": 2348,
      "ဘဲၫၥိၭအ": 2349,
      "အစံရအၫ": 2350,
      "လုလး": 2351,
      "လဲၪး": 2352,
      "ဆၧအုၪ့": 2353,
      "ကၠီၪ့": 2354,
      "ၥိၪဖၫ": 2355,
      "တၭၦလုဆၧ": 2356,
      "အၪ့ဎူၫ": 2357,
      "စအံစၭ": 2358,
      "ဒုၪနဒၩ": 2359,
      "ဆၩ့": 2360,
      "ထံး": 2361,
      "ဒူၪ": 2362,
      "နလ": 2363,
      "မီၭ": 2364,
      "ရိ": 2365,
      "အဝၩ": 2366,
      "လၧထၭ": 2367,
      "ဆၧမိမၩ": 2368,
      "ၥံၪဝဲ": 2369,
      "မိၫဖိၪ": 2370,
      "အဝ့ၫဒၪနီၪ": 2371,
      "မျါ": 2372,
      "လူၬလီၫ": 2373,
      "ဖါလဖၪ": 2374,
      "ယုၩ့": 2375,
      "အီၪလၧအဖၧၩ့": 2376,
      "နွ့ၫဆံၫ": 2377,
      "လၩ့မဲၩ": 2378,
      "လၧယုဒၫအစဎွၩ": 2379,
      "ဖျ့ၫလံၬ": 2380,
      "ခီး": 2381,
      "ဂူၭ": 2382,
      "နၧၫ": 2383,
      "မီၩ့": 2384,
      "ယဒုၭ": 2385,
      "လၧဖၫရိၫ": 2386,
      "ဆၧထီးအလူၬ": 2387,
      "အီၪလၧနၥံၪ": 2388,
      "မွဲအဝ့ၫၥံၪ": 2389,
      "ထၪ့ဖျိၭ": 2390,
      "ယီၩတၭ": 2391,
      "အၥၭအီၪ": 2392,
      "လၧဆၧစ့ၩရၫ့": 2393,
      "ယဟိဝၩမိ": 2394,
      "အခီၫ့": 2395,
      "ၦလၧအလ": 2396,
      "ခးဖိၪ": 2397,
      "မုၬထၪ့ထဲၩ့": 2398,
      "ခိၭနၪယလူ": 2399,
      "ယီရှုၫအ့ၫ": 2400,
      "ဂၧၫ့ထၪ့ၥၩလၩ့": 2401,
      "ယဟိဝၩချဲၩ့ဆၧလၧစမိစ့ၭ": 2402,
      "စစၪ့နၥၧၫ့": 2403,
      "ကိ": 2404,
      "စၡၫ": 2405,
      "ဖီး": 2406,
      "ၦခိၭ": 2407,
      "ၦလဂၩနီၪ": 2408,
      "တၭအဆၧ": 2409,
      "လၧအနိၭ": 2410,
      "အီၪဒံၭ": 2411,
      "ဘၪနၧၩ": 2412,
      "မၩအ": 2413,
      "ထီးဝီၩ": 2414,
      "အၥၭလၧအ": 2415,
      "ယဟိဝၩအဆၧ": 2416,
      "ဂဲၫဘီၪ": 2417,
      "ယူၭး": 2418,
      "အီၪက့ၪဆံၫ့ဎံၪ": 2419,
      "ၦလၧအဘၪဆၧ": 2420,
      "ၦၡၩၥံၪ": 2421,
      "လၩထၪ့": 2422,
      "မ့ၪဒိၩ့": 2423,
      "နဲၪဖျီၪထၪ့": 2424,
      "ဆၧလုမ့ၪ": 2425,
      "ၥၭမုဆံၫ့ဎံၪ": 2426,
      "တ့ၭလိၬ": 2427,
      "နီၫ့ယါလၩ့ထဲၩ့": 2428,
      "့ၭဘူၫခၭန့ဇၫ": 2429,
      "ခိမၩဝီၩ": 2430,
      "ခၩ့": 2431,
      "စဇ့ၭ": 2432,
      "နၬ": 2433,
      "ပဝ့ၫ": 2434,
      "လဲအၫ": 2435,
      "အအၧၩ့": 2436,
      "အချံၫအၥၪ": 2437,
      "ၡမၫ": 2438,
      "ၦလခီၫဘၩ့မုးဖိၪ": 2439,
      "ဘၪယၧၩ": 2440,
      "မိၥံၫ": 2441,
      "မိမၩအၥၭ": 2442,
      "ခွံၬလၩ့": 2443,
      "အကိၪ": 2444,
      "ဖျၪ့": 2445,
      "ယွၩအဆၧ": 2446,
      "မၧၫ့ဒံၭ": 2447,
      "နံၫယၩ": 2448,
      "လၧယဟိဝၩအဂံၪ့": 2449,
      "ဖုၥံၪဝဲ": 2450,
      "မုၬမုၬ": 2451,
      "ခ့ၫအၡၩ": 2452,
      "မုနံၩလဖၪ": 2453,
      "လအီၪဘၪနီၪ": 2454,
      "စဘံၭမု": 2455,
      "လၧခဲၫ့ထဲၩ့": 2456,
      "လဲၪ့ၥုၭ": 2457,
      "ဒဲစအၫရၧၫ့": 2458,
      "ၦၡၩအဖိၪခွၫဧ့": 2459,
      "ကဘၩ့": 2460,
      "ထဲး": 2461,
      "နဲၫ": 2462,
      "နိၪ့": 2463,
      "ယၧး": 2464,
      "ရံၫ့": 2465,
      "လိ": 2466,
      "အဒုၪအဒၩ": 2467,
      "တၭပ": 2468,
      "အီၪလၧၦ": 2469,
      "ဘၪစ": 2470,
      "ဘဲၫနၥံၪ": 2471,
      "အလဲ": 2472,
      "အဖၧၩ့ဆံၭ": 2473,
      "လဂၩဘၪ": 2474,
      "ဘဲၫၥိၭအထီး": 2475,
      "ဒိၪထၪ့": 2476,
      "ၥၧၫ့နံၩ": 2477,
      "ကၠၪထဲၩ့": 2478,
      "ၥၭမဲၪၥၭဖျဲၩ့": 2479,
      "လံဝဲၫဖိၪၥံၪ": 2480,
      "ဟံဘြၧၫ့": 2481,
      "ခိၫ": 2482,
      "ဎံၩ့": 2483,
      "ဖူၩ": 2484,
      "လအူၭ": 2485,
      "ၦအံၫစရ့လၭ": 2486,
      "ဆၧလၧနၥံၪ": 2487,
      "တၭနၥံၪ": 2488,
      "တၭယွၩ": 2489,
      "လၧအလူ": 2490,
      "မိစံၭ": 2491,
      "ဘဲၫအဝ့ၫၥံၪ": 2492,
      "အဝ့ၫလဂၩ": 2493,
      "လၧဆၧခံၭ": 2494,
      "လၧနိၪ": 2495,
      "ဒုၭကဲၪထၪ့": 2496,
      "အခၫ": 2497,
      "လူၬခွံၬ": 2498,
      "နံၫဖျိၪ့": 2499,
      "လၧမး": 2500,
      "လမံၩ့နီၪ": 2501,
      "ယုဒၫဖိၪ": 2502,
      "ဆ့ဧၪး": 2503,
      "စယိၫ": 2504,
      "အဖိၪအလံၩၥံၪ": 2505,
      "ကဒၩထဲၩ့": 2506,
      "အၩမံၩ့": 2507,
      "ဂၫလလံၫ": 2508,
      "ခီၩ": 2509,
      "နမွဲ": 2510,
      "နၥ့ၪယၫ": 2511,
      "နဖိၪခွၫ": 2512,
      "ဖီ": 2513,
      "ဖစီၩ့": 2514,
      "မၧၩ့": 2515,
      "ယခ့ၫယၡၩ": 2516,
      "ၡုၪ": 2517,
      "ၦအ့ၪ": 2518,
      "တၭနး": 2519,
      "အီၪဘၪ": 2520,
      "မိလၩ့": 2521,
      "ဒၪလီၫ": 2522,
      "ခိၪနီၪ": 2523,
      "့ၭၡ": 2524,
      "အဝ့ၫၥံၪမၩ": 2525,
      "အီၪက့ၪထၪ့": 2526,
      "လၧစူၪ": 2527,
      "ဘၭနီၪ": 2528,
      "မၩန့ခွံၬ": 2529,
      "နံၪ့လီၫ": 2530,
      "စစဲ": 2531,
      "နဲၩထဲၩ့": 2532,
      "ဒၧၩ့လး": 2533,
      "ဘျဲၩအၪ့": 2534,
      "ဆၨၩအဆၬ": 2535,
      "ထွံၩလၩ့": 2536,
      "စယၫ": 2537,
      "နီၩ့": 2538,
      "ယမွဲၦ": 2539,
      "အဒံၭ": 2540,
      "တၭစံၭ": 2541,
      "လၧအခၪ့": 2542,
      "အီၪတၭ": 2543,
      "လၧဆၧလ": 2544,
      "အၪ့ယိၪ": 2545,
      "ချိၪ့": 2546,
      "ယၫလီၫ": 2547,
      "နၧၩလၧ": 2548,
      "ၥၪထၪ့": 2549,
      "လၧမံၪ": 2550,
      "ဂံၪ့ဖၧၩ့": 2551,
      "လၧၫ့အဎွ့ၩ": 2552,
      "ဘီၪထၪ့ယီၫ": 2553,
      "ထၫ့မျါ": 2554,
      "ၡၪ့ဘၪ": 2555,
      "ခိၭနၪဘၪ": 2556,
      "ၥံၪ့ၡိၫ": 2557,
      "နၪ့ထၪ့": 2558,
      "မွဲပလၫလဂၩလဲၪ": 2559,
      "ဂံဘ": 2560,
      "ဖုၥံၪဝဲၥံၪဧ့": 2561,
      "ခူၬ": 2562,
      "ဂူ": 2563,
      "ထ့ဖၭ": 2564,
      "အီၭ": 2565,
      "အနီၪမွဲ": 2566,
      "ၥံၪထီးအလူၬ": 2567,
      "မိအီၪဝ့ၫ": 2568,
      "ဒၪဝ့ၫလီၫ": 2569,
      "နၥံၪဝ့ၫဒၪယီၩ": 2570,
      "လၧဆၧဒဲၩဘၭ": 2571,
      "လၧယဖါ": 2572,
      "ခိၪလီၫ": 2573,
      "အဆၧမၪ": 2574,
      "အမၧၫ့": 2575,
      "လီၩ့တၭ": 2576,
      "လ့ၩခၫ့ဂၬ": 2577,
      "ဆ့း": 2578,
      "လုအီၩ": 2579,
      "အကၠီၩ့နီၪလီၫ": 2580,
      "အၪမံၩ့": 2581,
      "နံၫထီၫ့": 2582,
      "ဒဲၦမုၪ": 2583,
      "လးမံၫ": 2584,
      "ကဲၪထၪ့ဆၧ": 2585,
      "အစူၪလး": 2586,
      "ဘံၪ့လဘံၪ့": 2587,
      "ဒုၪယဒၩ": 2588,
      "နၪၥ့ၪ": 2589,
      "ချဲၩ့ဆၧလၧမီၪအချိၬ": 2590,
      "ၡၪ့လီၫ": 2591,
      "ဂီၩဂီၩ": 2592,
      "ကိၭဂၩဒ့ၭလီၫ": 2593,
      "ထုၭထၪ့": 2594,
      "အမုနံၩလဖၪ": 2595,
      "ဆုၬဆုၬလီၫ": 2596,
      "ယၫ့ၥုၪ့ယၫ့ၥၭ": 2597,
      "ဖျ့ၫလံၬကံၭ": 2598,
      "စဇ": 2599,
      "ဎၬ": 2600,
      "ွၫ": 2601,
      "ၡီၫ့": 2602,
      "ၥီၫ့": 2603,
      "လၧအမိမၩ": 2604,
      "ဘၪမၩ": 2605,
      "မိကဲၪ": 2606,
      "ထီးအလး": 2607,
      "အၪ့လဲၩ": 2608,
      "လဂၩလါလါနီၪ": 2609,
      "အလးဆီၩ့ဆီ": 2610,
      "ဖ့ၪထဲၩ့": 2611,
      "မၩဆၧနီၪ": 2612,
      "နၭနၭ": 2613,
      "တၭၦမုၪ": 2614,
      "ထိၪၥံၪလ": 2615,
      "အ့ရ့ၭ": 2616,
      "မးၥံၫအနံၩ": 2617,
      "စီၩ့ခိၪ": 2618,
      "စအံစီၫ": 2619,
      "ကိၭဝ့ၫအမံၩ့": 2620,
      "စ့လၫ": 2621,
      "ယိထဲၩ့ခွါထဲၩ့": 2622,
      "ဂါလၩ့": 2623,
      "စလၫ": 2624,
      "ထၩ့ဖံၭ": 2625,
      "နဖါ": 2626,
      "အံၫ့": 2627,
      "ၥလၭ": 2628,
      "ၦၥၭ": 2629,
      "ၦယိ": 2630,
      "လၧၥၭ": 2631,
      "တၭစံၭဝ့ၫဒၪ": 2632,
      "ၥံၪလၧအ": 2633,
      "ၥံၪဖၩ့ၥံၪ": 2634,
      "ဒဲဘဲၫ": 2635,
      "အီၪလၧပ": 2636,
      "ဒၪဝ့ၫတၭ": 2637,
      "မုလၩ့ဖၭ": 2638,
      "ဖျိၬ": 2639,
      "ဒုၭဂဲၫ": 2640,
      "အဂဲးဘဲၫယီၩၦ": 2641,
      "ထံၫလၩ့": 2642,
      "မွဲအတီၩ": 2643,
      "ကယဲဆၧလၧအ": 2644,
      "အံၫစရ့လၭအစဎွၩ": 2645,
      "စဎွၩနီၪ": 2646,
      "ၦလဆၨၩ": 2647,
      "စံၭဆၧၫ့ဝ့ၫ": 2648,
      "ကျီၪ့ခွံၬ": 2649,
      "အီၪက့ၪဆၧမၪ": 2650,
      "စံၭဆၧအၥိၭ": 2651,
      "ဖံၫ့ချၪ": 2652,
      "ဂၨၪ": 2653,
      "စဟၭ": 2654,
      "နစံၭ": 2655,
      "နလူ": 2656,
      "ပအ့ၪ": 2657,
      "ဘနၧၫ့": 2658,
      "ရဲ": 2659,
      "လဘၪ": 2660,
      "ဟဲၫ": 2661,
      "ဆၧနၪ": 2662,
      "ၥံၪအဂး": 2663,
      "ၥံၪမံၩ့": 2664,
      "ဒဲအီၪက့ၪ": 2665,
      "လ့ၩလၧ": 2666,
      "ဒိၪမၬလီၫ": 2667,
      "ဒဲၦၡၩ": 2668,
      "နဲၪ့ထၬ": 2669,
      "အတဝၫ့": 2670,
      "စဲၪ့ထၪ့ခွံၬဝ့ၫ": 2671,
      "စအ့": 2672,
      "အဘိၩ့ဘၭတၭ": 2673,
      "လဲးဆၧဘျၪ": 2674,
      "ၥီၫထၪ့": 2675,
      "ဒၪ့ထ့ၬ": 2676,
      "အၪ့ဆၫခွံၬ": 2677,
      "တလၫ": 2678,
      "ပီၩ": 2679,
      "ယမံၩ့": 2680,
      "ၡ့": 2681,
      "ၡဲၫ": 2682,
      "ၦၡၪ့ဖိၪယၬဖိၪ": 2683,
      "ဘဲၫယွၩ": 2684,
      "ၥိၭနီၪလီၫ": 2685,
      "နၥံၪၥ့ၪယၫ": 2686,
      "အဂဲးနီၪ": 2687,
      "ထံၫချိၬ": 2688,
      "နးဆိၭ": 2689,
      "ဂၪ့ခိၪချိၫ့": 2690,
      "အံဒၧၫ့": 2691,
      "ဘၪဆဲၫ့လၧစ": 2692,
      "ဘံၭမု": 2693,
      "မဲၪထၪ့": 2694,
      "နံၪ့တၭ": 2695,
      "ဖၪနီၪ": 2696,
      "လစီၪ့ဎး": 2697,
      "စီၩ့အမၩ့": 2698,
      "ဝံထၪ့နၬထၪ့ဝ့ၫ": 2699,
      "အဎီ": 2700,
      "ဘိၪ့ထၪ့ဘၩထၪ့": 2701,
      "ခီၩလဲး": 2702,
      "ပဲၪ": 2703,
      "ပၥ့ၪယၫ": 2704,
      "ပမိမၩ": 2705,
      "အိ": 2706,
      "ၦၥုၭဖိၪ": 2707,
      "ဆၧတီၩ": 2708,
      "ဝ့ၫး": 2709,
      "ဝ့ၫလၧစ": 2710,
      "ၥံၪလၧ": 2711,
      "စံၭအဝ့ၫဒၪ": 2712,
      "ချံၪ": 2713,
      "အဆၧဂၩ့": 2714,
      "ယိအၭ": 2715,
      "ယူၭယၪ့": 2716,
      "ကိၭမုနံၩ": 2717,
      "ခးအံဇံၭ": 2718,
      "နံၫလၬ": 2719,
      "တၭစစီလူၫ": 2720,
      "အစူၪဝဲၩ": 2721,
      "ဆီၪ့ဆီၪ့": 2722,
      "လ့ၬတၭ": 2723,
      "လံၩလံၩ": 2724,
      "မိကဲၪထၪ့ဆၧ": 2725,
      "ဆၧလုလး": 2726,
      "ဆၧလၧယၫ": 2727,
      "အၪ့လီၫဆၧ": 2728,
      "ဘျံၭချဲၩ့": 2729,
      "ကၫနအၫ့ဖိၪ": 2730,
      "အၥုၭမုခမျၧး": 2731,
      "လၥ့ၪယၫဘၪ": 2732,
      "ကျဲၩ့ဖစီၩ့": 2733,
      "အဖၭထီၫ": 2734,
      "စဒၫ့နအ့လၭ": 2735,
      "ဆၧဖၪ့": 2736,
      "ဂံၭ": 2737,
      "ထိၪ့": 2738,
      "ယယိ": 2739,
      "ယမွဲယဟိဝၩ": 2740,
      "အဒၫ": 2741,
      "ၦအၪဂၩ": 2742,
      "ဆၧအၪ့မၧၫ့": 2743,
      "ဆၧအခိးအတၩ": 2744,
      "နီၪမွဲဆၧ": 2745,
      "တၭယိခွါ": 2746,
      "လၧအနၫ့ဆါ": 2747,
      "အီၪနးဂၩအ့ၬ": 2748,
      "အၪ့ဂူၪ": 2749,
      "လဂၩနီၪလီၫ": 2750,
      "ီၫဒ": 2751,
      "အလးဆံၫ့ဎံၪ": 2752,
      "အံၫလဲ": 2753,
      "လၧယဟိဝၩအဂး": 2754,
      "ၥုၭခွံၬ": 2755,
      "ၥိၪဖိၪ": 2756,
      "ဘြၫ့": 2757,
      "နၡၩခမျၧး": 2758,
      "ဘုၪၥံၪ": 2759,
      "ဖျံၩခွၩ့": 2760,
      "ကၭဘံၭထၬ": 2761,
      "လၧစမ့ရအၫ": 2762,
      "လီၫ့ကီၩ့": 2763,
      "စစၫမုၫအ့လၭ": 2764,
      "ကီၩ့ဆၧၥိၭ": 2765,
      "ချိၪ့ဒိၩ့": 2766,
      "ကၨ": 2767,
      "ဒ့ၪ": 2768,
      "ဘဲၩ": 2769,
      "အမုၬ": 2770,
      "ံမ": 2771,
      "ၥွ့ၫ": 2772,
      "ၦလ့ၩ": 2773,
      "လၧအဂ့ၩ": 2774,
      "ဖိၪတၭ": 2775,
      "ထီးယအ့ၪ": 2776,
      "လဖၪလၧ": 2777,
      "နၥံၪတၭ": 2778,
      "လၧဆၧယီၩ": 2779,
      "အၪ့မၩန့": 2780,
      "န့ကၩ": 2781,
      "အဝ့ၫၥံၪလၧ": 2782,
      "အဖၧၩ့အ့ၬ": 2783,
      "အဂဲးဘဲၫယီၩအဝ့ၫၥံၪ": 2784,
      "မွဲအယီၩ": 2785,
      "နၧၩနီၪ": 2786,
      "အၥံၪ့": 2787,
      "အဂံၪ့ဖၧၩ့တၭ": 2788,
      "ရှု": 2789,
      "ဖိၪၥံၪဧ့": 2790,
      "နံၫဂၩလီၫ": 2791,
      "လၧဒိၩ့ဖၧၩ့": 2792,
      "ရွံန့ဝ့ၫ": 2793,
      "ပၪပဲၪ": 2794,
      "စအၭဘစလၧၫ့": 2795,
      "အၪ့ဎူၫအၪ့ဎၬ": 2796,
      "နၥၪ": 2797,
      "ယဟီ": 2798,
      "လဆၫ့": 2799,
      "အခွၫ": 2800,
      "ၦမ့ၬ": 2801,
      "ဆၧအီၪက့ၪ": 2802,
      "ဝ့ၫဆံၭ": 2803,
      "နီၪဆ့ဧၪ": 2804,
      "မၩကြၩ့ထမး": 2805,
      "ၧၩ့အဎီ": 2806,
      "အလဲၫ": 2807,
      "လၧယမံၩ့": 2808,
      "အီၪက့ၪလၩ့ထး": 2809,
      "အဝ့ၫဒၪလီၫ": 2810,
      "ထံၫမိၡါ": 2811,
      "ဖ့ၪလၫ့ဆၧ": 2812,
      "အနီး": 2813,
      "ဒဲစဎွၩ": 2814,
      "ဂၪ့ခိၪဖိၪ": 2815,
      "စ့ၩၥံၪ": 2816,
      "ဝၩ့ထၬ": 2817,
      "လဲၩဎုၬ": 2818,
      "အဒီၪ့လဖၪ": 2819,
      "လၧယ့ၫၡုၬ": 2820,
      "ယူၬထၪ့": 2821,
      "ဆၧၥုၭမုခမျၧးအယဟိဝၩ": 2822,
      "လအ့ဇၧၫ": 2823,
      "ၥရိၬ": 2824,
      "အၪ့အဆၪအလး": 2825,
      "ၥီၪ့ထဲၩ့ၥၫ့ထဲၩ့": 2826,
      "ဒမၭ": 2827,
      "နအီၪ": 2828,
      "နဒုၭ": 2829,
      "လဆံၭ": 2830,
      "ုၩ": 2831,
      "ၦဂူၫဂၩ": 2832,
      "ဆၧအလူ": 2833,
      "နီၪလဲၪ": 2834,
      "ိၪၥံၪ": 2835,
      "လၧအအီၪဝ့ၫလၧ": 2836,
      "ဒဲအီၪ": 2837,
      "ဘၪဝ့ၫတၭ": 2838,
      "ဘဲၫၦလၧအ": 2839,
      "ဘဲၫအမိ": 2840,
      "အၪ့ဂၬ": 2841,
      "ယဟိဝၩတၭ": 2842,
      "အနၭ": 2843,
      "ဒဲၦလုဆၧ": 2844,
      "အံၫစရ့လၭအၡၩ": 2845,
      "လမံၩ့ဎး": 2846,
      "ဆၫအၧၩ့": 2847,
      "ရုဘံၫ့": 2848,
      "ပၧၩတၭ": 2849,
      "ဂဲးယ": 2850,
      "ဖံၭဆၧမၩ": 2851,
      "တၭဆၧမၩအၥၭ": 2852,
      "ထၧၫ့ဖုဝဲၥံၪ": 2853,
      "အ့စ": 2854,
      "ဆၧမၩအၥၭလၧအ": 2855,
      "ၦလုဆၧလဖၪ": 2856,
      "ဘဲၫနီၪၥိၭလီၫ": 2857,
      "မိအၪ့ခွံၬ": 2858,
      "ၥံၪလွ့ၫ": 2859,
      "ပဝ့ၫဒၪ": 2860,
      "ဘဲၪ့": 2861,
      "ယနါဂၧၫ့": 2862,
      "ၥထံၫ": 2863,
      "ၦဘၪ": 2864,
      "တၭမၩ": 2865,
      "မွဲအဖ": 2866,
      "ထၪ့ဘၭ": 2867,
      "ဒၪခ": 2868,
      "အလယၧး": 2869,
      "နၥံၪလၧ": 2870,
      "လၧဆၧဒုၭၥုၭ": 2871,
      "လၧစယၫကူၭ": 2872,
      "မုၪခီၩလဲး": 2873,
      "အနိၩ့": 2874,
      "ဒိၩ့လဖၪ": 2875,
      "ထုၪ့စူၪယၫ": 2876,
      "ဝ့ၫတၭး": 2877,
      "မၩန့ထၪ့ခွံၬ": 2878,
      "လၧမူၭ": 2879,
      "ဂးလီၫ": 2880,
      "ထၧၫ့ခး": 2881,
      "အလူတၭ": 2882,
      "လီၩဘၪဝ့ၫ": 2883,
      "လဘံၪ့နီၪ": 2884,
      "လဖျိၪ့နီၪ": 2885,
      "တၭအဝ့ၫဒၪစံၭ": 2886,
      "ဎူၫဆံၫ": 2887,
      "ဒံၩ့ခံၫ့": 2888,
      "စအံၫလဲယၫ": 2889,
      "လၧမုထၪ့လခီၫ": 2890,
      "ခဲးထူၬ": 2891,
      "မံဒအၫ့": 2892,
      "ထိၪၥံၪလံၪၥံၪ": 2893,
      "စၩ့": 2894,
      "ထ့ၬ": 2895,
      "န့ၭဘူၫခၭန့ဇၫ": 2896,
      "ဖိၫ့": 2897,
      "အဆံၭ": 2898,
      "အဒီၩ့": 2899,
      "ွ့": 2900,
      "ၦအီၪ": 2901,
      "ၦအံဇံၭဖိၪ": 2902,
      "ဆၧဆံၭ": 2903,
      "ဆၧလၧမုလနံၩနီၪ": 2904,
      "နီၪဆ့လီၫ": 2905,
      "တၭမွဲအ": 2906,
      "တၭကယဲ": 2907,
      "လၧအမ့ၬ": 2908,
      "ဒဲအခၪ့": 2909,
      "ဒဲကယဲၦ": 2910,
      "အီၪဖီၩ့": 2911,
      "ထၪ့ယူၭ": 2912,
      "လၩ့အ": 2913,
      "စံၭဝဲၩ": 2914,
      "ဒုၭကိၪ့": 2915,
      "အီၪက့ၪဖိၫလိၫ": 2916,
      "ယမိလ့ၩ": 2917,
      "စရံ": 2918,
      "ယၧၩလၧ": 2919,
      "ဂၪ့အ": 2920,
      "အထိၬ": 2921,
      "အခိၪဒၧၩ့": 2922,
      "စ့ၩရၫ့စၪ": 2923,
      "ချံၫနၥၪ": 2924,
      "ဎူၫယၩ": 2925,
      "မၩမၪဆၧ": 2926,
      "ဘံမလ့ၭ": 2927,
      "ကံ": 2928,
      "တုၩ့": 2929,
      "ပံ": 2930,
      "ပကဆါ": 2931,
      "ဖၧၫ": 2932,
      "ဘ့": 2933,
      "ရိၫ": 2934,
      "လဝၩ့": 2935,
      "ဧ့ၬ": 2936,
      "ဆၧအ့ၪ": 2937,
      "ဆၧကူၭတရံၭ": 2938,
      "နီၪအီၪဝ့ၫ": 2939,
      "ဒဲနး": 2940,
      "အီၪၥူၪ": 2941,
      "ဘၪလၧ": 2942,
      "အဂၪ့": 2943,
      "လၧဆၧမၩဘိၪ့": 2944,
      "အၪ့ဝ့ၫ": 2945,
      "ဲၪ့ၥုၭ": 2946,
      "ဒုၭနုၬ": 2947,
      "အဖိၪဝဲၡါ": 2948,
      "ဎွၩမုၪ": 2949,
      "ဒိၪၥံၪ": 2950,
      "လဲၪၬ": 2951,
      "လၧမံ": 2952,
      "အၥိၭနီၪး": 2953,
      "ဆၨၩဒ့ၭ": 2954,
      "စ့ၩရၫ့ခွး": 2955,
      "ဘၫၡၫ့": 2956,
      "စဲၪ့ထၪ့ခွံၬလၧ": 2957,
      "လအီၪဘၪတၭ": 2958,
      "ဖီၪ့န့": 2959,
      "အဂဲးအကၠီၪ့နီၪ": 2960,
      "ဂၫလၭ": 2961,
      "ဘွၩဖျ့ၫလံၬကံၭ": 2962,
      "စကၧၭ": 2963,
      "ထံၬထၬ": 2964,
      "ဘီၪထၪ့ယီၫထၪ့": 2965,
      "စဒ": 2966,
      "စဲအၫ": 2967,
      "တဲအၫ": 2968,
      "မၧၫ": 2969,
      "အဘၪ": 2970,
      "ၡဲ": 2971,
      "ၦလၧဆၧ": 2972,
      "ဆၧကွ့ၭအၥၭ": 2973,
      "လီၭ": 2974,
      "ဒဲၥံၪ့": 2975,
      "အီၪဖျီၪ": 2976,
      "လၩ့ဘျ့ၭ": 2977,
      "မုထၪ့": 2978,
      "လၧဆၧမၪလူၬ": 2979,
      "အဝ့ၫၥံၪအယွၩ": 2980,
      "ယဟိဝၩလီၫ": 2981,
      "လၧနမိ": 2982,
      "လ့ၩဖိၬ": 2983,
      "အစဲၪ့": 2984,
      "ဎွံၩ့": 2985,
      "ဖၭလၩ့": 2986,
      "ကိၭထၪ့ဆၧ": 2987,
      "ကဲၪထၪ့ၦ": 2988,
      "လၬဆီၪ့": 2989,
      "ၦခမျၧးၥံၪ": 2990,
      "နဲၪဖျီၪ": 2991,
      "မွဲန့ၫ": 2992,
      "အယီၩမွဲဆၧ": 2993,
      "အဒိၩ့လဖၪ": 2994,
      "အၪ့လီၫန့": 2995,
      "လၧဂၪ့ခိၪချိၫ့ယီၩ": 2996,
      "လၧဆၧနီၪလမံၩ့လဲၪ": 2997,
      "စစဲမၧၫ့": 2998,
      "ဂၨၪထၪ့": 2999,
      "စဇၫ": 3000,
      "တဝၫ့": 3001,
      "ဒကဲအၫ": 3002,
      "နဘၭ": 3003,
      "ဖနံၬ": 3004,
      "ဘံၫ": 3005,
      "ဘၧၫ": 3006,
      "ယ့ၭ": 3007,
      "ယယွၩ": 3008,
      "အမၩ": 3009,
      "အဟၭ": 3010,
      "ံဟုၫ": 3011,
      "ဆၧဘၪဆဲၫ့": 3012,
      "ဆၧၡၪ့": 3013,
      "နီၪမၩ": 3014,
      "တၭနမိ": 3015,
      "လၧအဖၧၩ့တၭ": 3016,
      "ဒဲအဖိၪခွၫ": 3017,
      "အီၪဘူၭ": 3018,
      "မွဲၦၡၩ": 3019,
      "ထၪ့ဝ့ၫတၭ": 3020,
      "ဖိၪလီၫ": 3021,
      "စံၭၦ": 3022,
      "ယဟိဝၩအဂံၪ့": 3023,
      "လ့ၩဝ့ၫလၧ": 3024,
      "ခွၫၥံၪ": 3025,
      "ဂဲၫဝ့ၫတၭ": 3026,
      "ယူၭနၥံၪ": 3027,
      "ကိၭအမံၩ့": 3028,
      "ဖ့ၪလၫ့နၧၩ": 3029,
      "ဒံၭအ့ၬ": 3030,
      "စံၭဝ့ၫဘဲၫယီၩ": 3031,
      "မၪလူၬနၧၩ": 3032,
      "ယုဒၫဖိၪၥံၪ": 3033,
      "မံၫမၪ": 3034,
      "ကျိၭ": 3035,
      "ဘီၩ့ဎး": 3036,
      "လၧအလးခဲၫ့": 3037,
      "စံၭထၪ့အၪ့အူၭယွၩ": 3038,
      "ၦအတီၩအလီၩ့": 3039,
      "လ့ၭဘနၧၫ့": 3040,
      "ဝၬဖီၩ့ဝ့ၫ": 3041,
      "လၧခးအံဇံၭအဖၧၩ့": 3042,
      "စိၭဖျၩ": 3043,
      "ပြံၩလၩ့": 3044,
      "ၥ့ၪဆၧလူၬ": 3045,
      "ယဟိဝၩချဲၩ့ဆၧလၧစမိစ့ၭတၭ": 3046,
      "ဘျံၭချဲၩ့ဘျၪ": 3047,
      "ီၫဒကၫ": 3048,
      "ဘုၪၥံၪဂူၫ": 3049,
      "ဒမၭစကၧၭ": 3050,
      "နထၧၫ့ဖုဝဲ": 3051,
      "ယဘၪဆၧ": 3052,
      "ဟ့ၭဇကဲအၫ": 3053,
      "အထဲၩ့": 3054,
      "အုၪ": 3055,
      "ဲလၭ": 3056,
      "ၦထီးအလူၬ": 3057,
      "ဆၧမွဲဆၧတီၩ": 3058,
      "လၧအဖၧၩ့နီၪ": 3059,
      "ဒဲယဆၧ": 3060,
      "ဒဲထီးန့": 3061,
      "ဒဲအဖိၪခွၫလဖၪ": 3062,
      "မွဲလါ": 3063,
      "ဒၪဆၧလၧယၫ": 3064,
      "နၥံၪစံၭ": 3065,
      "လၧၦအ": 3066,
      "လၧၦအၫ": 3067,
      "ယူၭယၧၩ": 3068,
      "ယူၭနၧၩ": 3069,
      "လၧစအံ": 3070,
      "နးဆံၭ": 3071,
      "ဒံၭဘၪနီၪ": 3072,
      "မၩဆၧဖီၩ့ဖျ့ၭ": 3073,
      "ကဆါယဟိဝၩစံၭဘဲၫယီၩ": 3074,
      "ဒၪဘၪဝ့ၫတၭ": 3075,
      "ဘဲၫၥိၭအမိဒုၭ": 3076,
      "ၡၪ့မၩနၭ": 3077,
      "ၦခမျၧးထီးအလူၬ": 3078,
      "နၩချီၩ့": 3079,
      "တၡါလီၫ": 3080,
      "ၡံခံၫ့": 3081,
      "အီၪက့ၪၥူၪခွံၬ": 3082,
      ",)": 3083,
      "စီ": 3084,
      "ဇဲၫ": 3085,
      "ထူ": 3086,
      "ထွ့": 3087,
      "ယချဲၩ့ဆၧ": 3088,
      "ယထၧၫ့ဖုဝဲ": 3089,
      "လတီၩ": 3090,
      "လနၩ": 3091,
      "ၥလဲၫ": 3092,
      "ၦလဖၪ": 3093,
      "ဆၧၥၭမဲၪ": 3094,
      "နီၪဘီၪ": 3095,
      "ဒဲအလ": 3096,
      "အီၪလၧယ": 3097,
      "ဘၪနၥံၪ": 3098,
      "မွဲနမိ": 3099,
      "ၥၭကွံၩ": 3100,
      "အဝ့ၫလၧ": 3101,
      "ၥိၭတၭ": 3102,
      "ၥိၭလီၫ": 3103,
      "မုဆၫလနံၩယီၩ": 3104,
      "ဆံၭအၪ": 3105,
      "ယွၩအဂံၪ့": 3106,
      "အဂဲးဘဲၫယီၩန": 3107,
      "ဒိၪမၬ": 3108,
      "လၧစစီလမၧၫ့": 3109,
      "ဒိၩ့နီၪ": 3110,
      "မၩန့ဆီၪ့": 3111,
      "ၥၧၫ့ယၩ": 3112,
      "ကျိၪၥံၪ": 3113,
      "ခိၪလီၩ့ဆူၭ": 3114,
      "ခၪ့ခိၪ": 3115,
      "ဆၧအၧၩ့ဆၧၥၫ့": 3116,
      "ဆီၫ့အီၪ": 3117,
      "မီၪလဖၪ": 3118,
      "လဆံၫနံၫ": 3119,
      "ဆၧလဆံၫ့ဘၪ": 3120,
      "စဟ့ၭဇကဲအၫ": 3121,
      "လၧမုနံၩလဖၪနီၪ": 3122,
      "စ့ယၫ": 3123,
      "လၧမးၥံၫအနံၩ": 3124,
      "ၡၪ့ဘၪနၭ": 3125,
      "စဘံ": 3126,
      "စခၩ့": 3127,
      "ဆူၫ": 3128,
      "တလဲး": 3129,
      "ဖီၩ": 3130,
      "မအဲၫ": 3131,
      "မနၭစ့ၫ": 3132,
      "ယ့": 3133,
      "လုၭ": 3134,
      "လၧအၥၫ့": 3135,
      "ဘၪအီၪက့ၪ": 3136,
      "ၥၭဖၭ": 3137,
      "ထၪ့ဝ့ၫလီၫ": 3138,
      "ထီးဘၩ့": 3139,
      "ထီးၥၭမဲၪ": 3140,
      "ခွံၬလၩ့ခွံၬ": 3141,
      "ယဟိဝၩနီၪ": 3142,
      "ဒုၭအီၪကီၪ့": 3143,
      "အီၪဝ့ၫလၧဆၧ": 3144,
      "နးထံၪ": 3145,
      "စရ့လၭဖိၪ": 3146,
      "စံၭဝ့ၫဒၪး": 3147,
      "ဒဲဆၧမၩ": 3148,
      "အ့ၪမွဲဆၧ": 3149,
      "အစူၪဖၧၩ့နီၪ": 3150,
      "အစူၪထွ့ၪ": 3151,
      "စူၪဖၧၩ့": 3152,
      "ထီၫထုၬ": 3153,
      "ကဆါယဟိဝၩစံၭဝ့ၫဒၪ": 3154,
      "ထီၫ့လီၫ": 3155,
      "မိမၩဂၭဂီၩ့": 3156,
      "မံၫဎုၬ": 3157,
      "နၫၡါ": 3158,
      "အဖါၥံၪ": 3159,
      "ကီၩ့ၥိၭ": 3160,
      "လၧအဂးလီၫ": 3161,
      "စၫမုၫအ့လၭ": 3162,
      "အထံၩအၥိၭ": 3163,
      "မွဲအအီၪခီၫခီၫလဲၪ": 3164,
      "အထးဖၧၩ့": 3165,
      "အဂံၪ့ဖိၪလဒီၪ့": 3166,
      "စဲၩနဲၪ့ထၬ": 3167,
      "အလဲအိၫ့": 3168,
      "အ့စတၧၫ": 3169,
      "ဒၪခလူၬ": 3170,
      "စဇံ": 3171,
      "စဖံ": 3172,
      "ဇံၫ့": 3173,
      "ရီၭ": 3174,
      "လဲၫ့": 3175,
      "လကၭ": 3176,
      "ႃၪ့": 3177,
      "လၧမိအၭ": 3178,
      "ဆၧလဂ့ၩ": 3179,
      "ဆၧဆၫ": 3180,
      "ၥံၪအကျၩ": 3181,
      "လၧအၡၩ": 3182,
      "လၧအခး": 3183,
      "လၧအဘၪဆဲၫ့": 3184,
      "လၧအဆၧၫ့အထီ": 3185,
      "မွဲယူၭ": 3186,
      "ဘဲၫကယဲဆၧ": 3187,
      "ဒၪအဆၧ": 3188,
      "လၩ့ဝ့ၫလၧ": 3189,
      "နၥံၪလ": 3190,
      "လၧယမွဲယဟိဝၩ": 3191,
      "အဝ့ၫဒၪမၩ": 3192,
      "ဎွ့": 3193,
      "ဂၪ့ဆၧ": 3194,
      "ထီၫ့ၥံၪလွ့ၫ": 3195,
      "လၧအဝ့ၫၥံၪအ": 3196,
      "ကျီၫ့": 3197,
      "ကွ့ၭန့": 3198,
      "ကွ့ၭနဲၪ့": 3199,
      "ဒဲအီၩ": 3200,
      "နၪ့ၥံၪမံၩ့": 3201,
      "လၧၩ့အ့ၬ": 3202,
      "ဂံဒ": 3203,
      "အခးဖၧၩ့": 3204,
      "အၥီၫ့လဖၪ": 3205,
      "ချဲၩ့ဆၧၫ့ဆၧ": 3206,
      "ဂူၬန့": 3207,
      "ထုၭထၪ့ခွံၬ": 3208,
      "စဲၪ့ဒၪခွံၬ": 3209,
      "ကဒၪ": 3210,
      "တၫ့": 3211,
      "ထ့ၬခွံၬ": 3212,
      "နီး": 3213,
      "ပဆၧ": 3214,
      "ဖး": 3215,
      "ဘ့လၭ": 3216,
      "မဲၩ": 3217,
      "ယနိၭ": 3218,
      "ဝံၪ": 3219,
      "ြံ": 3220,
      "ၡိၬ": 3221,
      "ၦတီၩၦလီၩ့": 3222,
      "လၧဘၭဘလၧၫ့": 3223,
      "ဒဲမၩဆၧ": 3224,
      "ွဲၩ": 3225,
      "မွဲအလ": 3226,
      "ထၪ့ဘၪ": 3227,
      "ၧၩ့ယး": 3228,
      "ဘဲၫနီၪလီၫ": 3229,
      "ံၫစရ့လၭ": 3230,
      "လဖၪအဆၧ": 3231,
      "အမ့ၪ": 3232,
      "အဂဲးဘဲၫယီၩယဟိဝၩ": 3233,
      "လါယၧၩ": 3234,
      "ဆ့အ့ၬး": 3235,
      "ၥံၫဝ့ၫတၭ": 3236,
      "မၪဘၪဆၧ": 3237,
      "ဂၪ့ထိၬ": 3238,
      "ဒဲစ့ၩ": 3239,
      "လံယၩ": 3240,
      "လၧယဟိဝၩအ": 3241,
      "ဂၭဖျိၭ": 3242,
      "တၭၦအံၫစရ့လၭဖိၪ": 3243,
      "အဲၪဘိၩ့": 3244,
      "စယိဘၭ": 3245,
      "စမ့ရအၫ": 3246,
      "လၧမူၭခိၪတၭ": 3247,
      "ကၠီၩ့တၭ": 3248,
      "ကိၪ့ၥ့ၪကိၪ့ဘၪ": 3249,
      "လၧၫ့ထၪ့ဎွ့ၩ": 3250,
      "ခုၪ့လၩ့ဘၧၩ့ခွံၬ": 3251,
      "ကဲဂီၩခိၬ": 3252,
      "ယုၩ့ယဲ": 3253,
      "ကံၫ့": 3254,
      "ခရဲအၫ": 3255,
      "စယုဒၫ": 3256,
      "ဇဲ": 3257,
      "တၧၭ": 3258,
      "တုၩ့လၩ့": 3259,
      "ထၧၩ့": 3260,
      "နၥိၭ": 3261,
      "ယဝ့ၫလီၫ": 3262,
      "အယဟိဝၩ": 3263,
      "ၦဖိၪၥၪခွၫ": 3264,
      "ဆၧလၧဆၧ": 3265,
      "ဆၧဒုၭၥုၭ": 3266,
      "နီၪလဂ့ၩ": 3267,
      "လၧအၭ": 3268,
      "လၧအချဲၩ့ဆၧ": 3269,
      "လၧအဖၧၩ့လီၫ": 3270,
      "မၩဘၪ": 3271,
      "မွဲယမိ": 3272,
      "မွဲအဂ့ၩ": 3273,
      "ဖိၪအ": 3274,
      "လၩ့မုလၩ့ဖၭ": 3275,
      "လၧဆၧထီးအလူၬ": 3276,
      "လၧဆၧတီၩဆၧလီၩ့": 3277,
      "လၧယဆၧ": 3278,
      "အဝ့ၫၥံၪလ့ၩ": 3279,
      "လၧၦဖလံၡၫဖိၪ": 3280,
      "လၧနမၩ": 3281,
      "လၧနမံၩ့": 3282,
      "ဆၧအခိၪ": 3283,
      "လးဆံၫ့ဎံၪ": 3284,
      "စ့ၩရၫ့ဆၧ": 3285,
      "ဒၪဝ့ၫနီၪ": 3286,
      "စအၫဟၭ": 3287,
      "ဘဲၫနီၪအၥိၭလီၫ": 3288,
      "နွ့ၫဂၩ": 3289,
      "စမနၭစ့ၫ": 3290,
      "ကၠီၩ့လီၫ": 3291,
      "ထူၬကၥ့ၪ": 3292,
      "စဘံၭၥၪ": 3293,
      "အဎံၫ": 3294,
      "ထီးလၩ့နၥံၪအၥၭ": 3295,
      "စၧၫ့": 3296,
      "နဒုၪနဒၩ": 3297,
      "အိၩ": 3298,
      "ၦအဂီၩ့": 3299,
      "ၦဖၫရစံၫ": 3300,
      "လၧဂီၩ": 3301,
      "လၧတဲၩဆံၫ့ဎံၪ": 3302,
      "ဆၧခံၭ": 3303,
      "ၥံၪး": 3304,
      "ၥံၪအဆၧ": 3305,
      "လၧအနဲၩ့ထံၭ": 3306,
      "ဒဲလၧစ": 3307,
      "ဒဲဒိၩ့": 3308,
      "ဒဲယုဒၫ": 3309,
      "မိဒၪဘၪ": 3310,
      "မွဲအဂဲၫ": 3311,
      "ထၪ့ခွ့ၩ": 3312,
      "အလံၩ့": 3313,
      "လၧဆၧဂ့ၩ": 3314,
      "အၪ့ဆူၫ": 3315,
      "ယၫၥၭ": 3316,
      "ဒုၭစဲၪ့ထၪ့ခွံၬ": 3317,
      "ဒုၭဂဲၫထၪ့": 3318,
      "ယွၩလၩ့": 3319,
      "အဂးဆံၭ": 3320,
      "အီၪက့ၪဝ့ၫလၧ": 3321,
      "ဒဲဆၧလု": 3322,
      "အကျၩနီၪလီၫ": 3323,
      "ိၫဘ": 3324,
      "ကဲၪထၪ့ဝ့ၫ": 3325,
      "ကဲၪထၪ့စဎွၩ": 3326,
      "မၩဆၧဂ့ၩ": 3327,
      "ခိၭထၬ": 3328,
      "လၧၫ့လၧၫ့ဎွ့ၩ": 3329,
      "ဎီးနၡၩ": 3330,
      "မ့ၬယၫလီၫ": 3331,
      "အဲၪဂါ": 3332,
      "ဒဲအဒၪ့ဎၩ့": 3333,
      "လဖျိၪ့ယီၩ": 3334,
      "နးမံၩ့လဂ့ၩ": 3335,
      "အၪ့ကံၩ့ဆၧ": 3336,
      "ထိၭဘၪ": 3337,
      "စဟ့": 3338,
      "အထးဖၧၩ့နီၪ": 3339,
      "မွဲဆၧနီၪလမံၩ့လဲၪ": 3340,
      "နးမၫရံၫ": 3341,
      "ခၪ": 3342,
      "ထူၫ": 3343,
      "နဒၭ": 3344,
      "မနံၬ": 3345,
      "ယၭ": 3346,
      "လလၬ": 3347,
      "ုး": 3348,
      "နီၪမွဲအ": 3349,
      "လၧအလ့ၩ": 3350,
      "ဒဲလဂၩ": 3351,
      "ဘၪမၩန့": 3352,
      "မိန့ဘၪ": 3353,
      "လၩ့ဘဲၩ": 3354,
      "ချံၭ": 3355,
      "ခွံၬဝ့ၫလီၫ": 3356,
      "အကံၫ့": 3357,
      "အကၥ့ၪ": 3358,
      "ဒိၪဒိၪ": 3359,
      "အလးအီၪ": 3360,
      "ဖ့ၪယု": 3361,
      "နၭၥလဲၫ": 3362,
      "ဒုၪဆၧအၪ့ဆၧအီၩ": 3363,
      "ဘၪဆဲၫ့လၧၦ": 3364,
      "ဘိၪ့လ့ၩဖၬ": 3365,
      "ဒ့ၭတၭ": 3366,
      "ဘဲၫၥ့ၪလဲၪဘဲၫၥ့ၪလဲၪနီၪ": 3367,
      "အၪ့ကိၪ": 3368,
      "ယံၬယံၬ": 3369,
      "လၧဆၧအုၪ့": 3370,
      "အၪနဲၪ့အနီၪ": 3371,
      "မၩလၩ့ဎီး": 3372,
      ".)-": 3373,
      "အွံၪၥၭဆၧၩ့": 3374,
      "ဂဲးလိၬတ့ၭလိၬ": 3375,
      "တုၩ့ထၪ့": 3376,
      "ခ့လၭ": 3377,
      "ဎွဲၩ": 3378,
      "ပလၫ": 3379,
      "မါ": 3380,
      "ယါ": 3381,
      "ယလ့ၩ": 3382,
      "ယဂဲၫ": 3383,
      "ၦကွ့ၭလံၬ": 3384,
      "လၧဘ့ၭၥ": 3385,
      "ဆၧၥၪ": 3386,
      "ဆၧဖံၭ": 3387,
      "ဆၧၥုၭမုခမျၧး": 3388,
      "့ၫလ": 3389,
      "တၭလၧ": 3390,
      "တၭအံၫစရ့လၭ": 3391,
      "တၭအဝ့ၫနီၪ": 3392,
      "ၥံၪအီၪ": 3393,
      "လၧအၫ": 3394,
      "လၧအဖိၪခွၫ": 3395,
      "လၧအမၩဝ့ၫ": 3396,
      "မၩၥၫ့": 3397,
      "မၩဒီၭ": 3398,
      "ဘဲၫထံၫ": 3399,
      "ထီးနအ့ၪ": 3400,
      "အလၨ": 3401,
      "နၥံၪလၧဆၧ": 3402,
      "နၥံၪအဖါ": 3403,
      "အၥၭဘဲၫနီၪတၭ": 3404,
      "့ၭၥ": 3405,
      "လၧနဖၧၩ့": 3406,
      "အမၪ": 3407,
      "လီၩ့လီၩ့": 3408,
      "ဒုၭအၪ့": 3409,
      "ထီးအလူၬအ": 3410,
      "ယဲယၩ": 3411,
      "အီၪဝ့ၫလၧအဖၧၩ့": 3412,
      "ကိၭစီၪ့": 3413,
      "ကဲၪၥၫ့": 3414,
      "ဝ့ၫလၧဒိၩ့": 3415,
      "အ့ၪမွဲဘိၩ့နဲၪ့ယီၩ": 3416,
      "နၩ့နၩ့": 3417,
      "ကဆါယဟိဝၩ": 3418,
      "ၥၫ့နၩချီၩ့": 3419,
      "ဘံၭခွံၬ": 3420,
      "မိမၩၥံၫ": 3421,
      "ထီးအဘၪ": 3422,
      "ဂဲးဆီၪ့": 3423,
      "ခၫ့ဖၬ": 3424,
      "အဖျ့ၩ": 3425,
      "ဆၧလၧယၧၩ": 3426,
      "မၩမၪဘၪ": 3427,
      "အခိးမွဲဘဲၫနီၪတၭ": 3428,
      "ၥံၫကျံၩထၪ့": 3429,
      "လၧအံဇံၭအဖၧၩ့": 3430,
      "ဝါဝ့ၫ": 3431,
      "နိၪယိၭဘီၩ့": 3432,
      "စယ့ၫရဘိအၫ့": 3433,
      "လမံၩ့လါလါနီၪ": 3434,
      "စအၭဘနၧၫ": 3435,
      "လူၫလၩ့": 3436,
      "အမံၩ့မွဲနး": 3437,
      "လၧယစူၪဖၧၩ့": 3438,
      "အဆိၩဆိၩအကၠၪကၠၪလီၫ": 3439,
      "နးစီၪ့အ့ၬ": 3440,
      "ဘဲၪ့လၩ့ခွံၬ": 3441,
      "စဇၫဒီၭ": 3442,
      "ကျိၪၥံၪစ့ၩၥံၪ": 3443,
      "ကံၩ့": 3444,
      "နအီၪက့ၪ": 3445,
      "ဘီၭ": 3446,
      "ယံၭ": 3447,
      "ယယွၩဧ့": 3448,
      "ရၧ": 3449,
      "လမိ": 3450,
      "လိၭ": 3451,
      "လွံ": 3452,
      "ဟု": 3453,
      "ံကၫ": 3454,
      "ၦလၧယ": 3455,
      "ၦအၧၩ့": 3456,
      "ဆၧအ့ၬ": 3457,
      "ဆၧထိးထဲၩ့တၩ့ထဲၩ့": 3458,
      "ဆၧနၬ": 3459,
      "နီၪအ့ၬ": 3460,
      "ဒဲအဖိၪ": 3461,
      "ဒဲခး": 3462,
      "ဘၪယၥၭ": 3463,
      "ၥၭနီၪ": 3464,
      "ၥၭဖိၪ": 3465,
      "ထၪ့အၪ့အူၭ": 3466,
      "ံၫလ": 3467,
      "ဒၪနၥံၪဝ့ၫ": 3468,
      "လၩ့ဆဲၩ": 3469,
      "လဖၪဆံၭ": 3470,
      "လၧယရု": 3471,
      "အဝ့ၫၥံၪအဆၧ": 3472,
      "အၥိၭး": 3473,
      "လၧနလီၩ့": 3474,
      "ယွၩအၥၭ": 3475,
      "ဘဲၫၥိၭၦ": 3476,
      "နံၩနီၪ": 3477,
      "မၧၫ့ထၪ့ထဲၩ့": 3478,
      "လၧစအ": 3479,
      "ယၧၩယီၩ": 3480,
      "အဝ့ၫဒၪစံၭဝ့ၫ": 3481,
      "ဎွ့ၪ": 3482,
      "နီၪတၭး": 3483,
      "ကိၭဆၨၩဒ့ၭ": 3484,
      "လၧနၥံၪအမ့ၬယၫ": 3485,
      "လၧနၥံၪအအီၪ": 3486,
      "လၧနၥံၪအဂးလီၫ": 3487,
      "စဲၪ့တလဲး": 3488,
      "ဒဲၦအၫ": 3489,
      "ဎွ့ၩဝ့ၫ": 3490,
      "လိၬနၥံၪအၥၭ": 3491,
      "ဂၭဖျ့ၭ": 3492,
      "ၥုၪ့လၩ့": 3493,
      "စဎွၩဧ့": 3494,
      "ဖုၫ": 3495,
      "လၧပၧၩ": 3496,
      "ထီၫ့ၥံၪ": 3497,
      "ဆၧနီၪလမံၩ့လဲၪ": 3498,
      "လဖျါ": 3499,
      "နးဂၩလဂ့ၩ": 3500,
      "ပိၩ့ထၪ့ဆၧ": 3501,
      "စပွဲ": 3502,
      "ဆၧမၩအၥၭလၧ": 3503,
      "ၦလဂၩယီၩ": 3504,
      "အထၧၫ့ဖုဝဲမုၪ": 3505,
      "အၥီၫ့လဂၩ": 3506,
      "အခဲၫ့လီၫ": 3507,
      "စအံၫလအ့ဇၧၫ": 3508,
      "ဒုၭအီၪထၪ့": 3509,
      "ပျီၩပျီၩလီၫ": 3510,
      "ၥံၫကျံၩဆၧ": 3511,
      "ၥူၭလၩ": 3512,
      "ၥုၭဘူၭအၥၭ": 3513,
      "ယဖိၪခွၫဧ့": 3514,
      "လၧမုခံၫ့လခီၫ": 3515,
      "ရၧၬ": 3516,
      "ခ့ၬ": 3517,
      "စခၫ": 3518,
      "ဆ့ၬ": 3519,
      "ထူၫအရူၫ": 3520,
      "နနါ": 3521,
      "နိအၫ": 3522,
      "နထၫ": 3523,
      "မ့": 3524,
      "ရ့လၭ": 3525,
      "လထံၭ": 3526,
      "ဟဘိအၫ့": 3527,
      "အဆၨၩအဆၬ": 3528,
      "ွံၫ": 3529,
      "ၦမွံၩ": 3530,
      "ဆၧဒုၭ": 3531,
      "ဆၧၥ့ၪယၫ": 3532,
      "လီး": 3533,
      "လၧအမံၩ့": 3534,
      "ဒဲကယဲၦလၧအ": 3535,
      "အီၪဂုးအီၪခၧၫ့": 3536,
      "ဘၪဝ့ၫနီၪ": 3537,
      "ဘဲၫအဆၧ": 3538,
      "လဖၪအဂး": 3539,
      "လဖၪအကျၩ": 3540,
      "နၥံၪထီး": 3541,
      "အကျ": 3542,
      "လဂၩလါလါ": 3543,
      "ဖျီၫ့": 3544,
      "ယွၩအ": 3545,
      "ယွၩနီၪ": 3546,
      "ယွၩအၡၩ": 3547,
      "အဂဲးဘဲၫယီၩမွဲအ": 3548,
      "ဘဲၫၥိၭန": 3549,
      "အစ့ၩ": 3550,
      "အဖိၪခွၫစအ": 3551,
      "ဆၧအဘိၩ့": 3552,
      "ကိၭကီၪ့": 3553,
      "ဝ့ၫလၧမ့ၪ": 3554,
      "ထံၭခိၪ": 3555,
      "လါနၫ့နီၪ": 3556,
      "ဎးနီၪ": 3557,
      "ၦခမျၧးယီၩ": 3558,
      "နွ့ၫဒုၩ": 3559,
      "နွ့ၫဖျိၪ့": 3560,
      "လ့ၩနုၬလၧ": 3561,
      "နၩရံၩ": 3562,
      "စမၭ": 3563,
      "အဖိၪခွၫၥံၪနီၪး": 3564,
      "တၭအဝ့ၫဒၪစံၭဝ့ၫ": 3565,
      "အနဲၩ့ထံၭနီၪ": 3566,
      "ၦအဆီၪ့": 3567,
      "ဖိၪဆၧဎါအဒိၩ့": 3568,
      "ရ့ၭဖိၪ": 3569,
      "လၧယၫလခီၫ": 3570,
      "ဒံၩဖိၪၥၪ": 3571,
      "ယီဟၫ့": 3572,
      "စယဟီၡဖၭ": 3573,
      "နူထံၫ": 3574,
      "ပၠၪ": 3575,
      "လၧယ့ၫရှူၬဎရံၬ": 3576,
      "လဂၩဘၪလဂၩ": 3577,
      "ၥံၪ့ၡိၫအ့ရ့ၭ": 3578,
      "အဂၪ့ခိၪ": 3579,
      "ခ့": 3580,
      "စဘံၫ့": 3581,
      "ဇအ့လၭ": 3582,
      "ပဂၨၪထၪ့": 3583,
      "ယခဲၫ့": 3584,
      "လဆိ": 3585,
      "အဘၪဆၧ": 3586,
      "ၡံၫ": 3587,
      "ၦလၧန": 3588,
      "လၧဇံအိၫ့": 3589,
      "ဆၧၡၪ့ဆၧနၭ": 3590,
      "့ၫရ": 3591,
      "ဒဲထိၪ": 3592,
      "အီၪထီ": 3593,
      "ဘၪအဝ့ၫၥံၪ": 3594,
      "မၩဘျၪထဲၩ့": 3595,
      "ဖိၪနီၪ": 3596,
      "မုဆၫ": 3597,
      "ယဟိဝၩအံၫစရ့လၭအယွၩ": 3598,
      "လၧၦမၩ": 3599,
      "လၧနခ့ၫနၡၩ": 3600,
      "ဂဲၫလၧ": 3601,
      "ယွၩတၭ": 3602,
      "ဘၪဆၧနီၪ": 3603,
      "ယဲဖျါ": 3604,
      "နးဎွၩမုၪ": 3605,
      "လူၬထူၬ": 3606,
      "ခးလဘံၪ့": 3607,
      "နဲၪ့ယီၩ": 3608,
      "ဆံၫပိၩ့လပိၩ့": 3609,
      "တၭစယီရှုၫအ့ၫ": 3610,
      "ဒံၭဘၪတၭ": 3611,
      "ၥုၪ့ဖၭ": 3612,
      "ဖၭဒိၪတၭ": 3613,
      "ဖၭဒိၪလီၫ": 3614,
      "ယၥၭမၧၫ့": 3615,
      "ခိၭနၪအလူ": 3616,
      "မွဲပလၫမိ": 3617,
      "အဖိၪမုၪၥံၪ": 3618,
      "အလးခဲၫ့တၭ": 3619,
      "ချႃၭန့": 3620,
      "ကိၭၡၭထၪ့ဆၧ": 3621,
      "နဝ့ၫဒၪန": 3622,
      "လၧအမ့ၬယၫလီၫ": 3623,
      "ဘၪလဆိၩ": 3624,
      "လၧနစူၪဖၧၩ့": 3625,
      "နံၪ့လနံၪ့နီၪ": 3626,
      "လၧမုဖၩလခီၫ": 3627,
      "ခၫလဒံအၫဖိၪ": 3628,
      "ဘုၪ့ဖိး": 3629,
      "ၡမၫအ့လၭ": 3630,
      "ဂၪ့အုၩ": 3631,
      "ဆီၫ့အီၪန့": 3632,
      "ဎွဲၩမုၪ": 3633,
      "ကဖး": 3634,
      "စဒၫ": 3635,
      "စၧၫ": 3636,
      "တံ": 3637,
      "မံၪ": 3638,
      "ယချဲၩ့": 3639,
      "ၠၫ": 3640,
      "ၦၡါ": 3641,
      "့ၫမ": 3642,
      "တၭယမိဒုၭ": 3643,
      "ဒဲအၪ့": 3644,
      "ဒဲထံၫ": 3645,
      "ဒဲအတဝၫ့": 3646,
      "အီၪဘိၪ့": 3647,
      "ဘၪဂဲၫဆိၬ": 3648,
      "ဘၪဆိၪဂ့ၩ": 3649,
      "မိမၩအၥၭဘဲၫ": 3650,
      "မၩခါ": 3651,
      "မွဲအဂဲး": 3652,
      "ထီးအီၪ": 3653,
      "စံၭအ": 3654,
      "လၧဆၧဖၩ့": 3655,
      "လၧယမၩ": 3656,
      "အဝ့ၫၥံၪအ": 3657,
      "ဂ့ၩနဲၪ့ဒံၭ": 3658,
      "ဖျၭ": 3659,
      "ဆံၭဒိၪ": 3660,
      "အၫအဖိၪခွၫ": 3661,
      "အမီၪ": 3662,
      "အဖိၪၥံၪ": 3663,
      "ဘဲၫၥိၭဆၧ": 3664,
      "နးဖျိၪ့": 3665,
      "ဖ့ၪလၫ့နၥံၪ": 3666,
      "အမိၡါ": 3667,
      "ဒဲစအၭ": 3668,
      "လၧယဟိဝၩအဂးလီၫ": 3669,
      "မၩဆၧယီၩ": 3670,
      "မုၬဆၧ": 3671,
      "ကၠၪအၥၭ": 3672,
      "ဒၪဝ့ၫဆံၭ": 3673,
      "စစၫ့": 3674,
      "နဲၩဆၧ": 3675,
      "ဖံၭထၬ": 3676,
      "စအဲၫ": 3677,
      "နၥံၪမိၥ့ၪယၫ": 3678,
      "မီၪ့ဎီၩ့": 3679,
      "ဖလံၡၫ": 3680,
      "လၧနၧၩလီၫ": 3681,
      "ဝါလခီၫ": 3682,
      "လံၫဟံၫ့": 3683,
      "လၧဖျႃ": 3684,
      "လၧတလၫ": 3685,
      "ကိၪ့ထၪ့ဖၭလၩ့": 3686,
      "ၥူၫဝၭဆံၫ့": 3687,
      "အၪ့လံၩ့": 3688,
      "ဆံၭယံၬလဲၪ": 3689,
      "ဂံဘအၧၫ့": 3690,
      "အၪ့ဆူၫဝၭ": 3691,
      "ဇရဲအၫ": 3692,
      "ပၧ": 3693,
      "ပအီၪ": 3694,
      "ယၩ့": 3695,
      "ယူၩ": 3696,
      "အ့ၭ": 3697,
      "ၦပၧၩ့": 3698,
      "ၧၡၧၫ့": 3699,
      "လၧဖါ": 3700,
      "ဆၧနဲၩ": 3701,
      "ဝ့ၫလဖၪနီၪ": 3702,
      "လၧအစံၭ": 3703,
      "လၧအမွဲၦ": 3704,
      "ဒဲမီၪ": 3705,
      "ဘၪလနံၩ": 3706,
      "မၩနၧၩ့မၩစၪ": 3707,
      "မွဲစဎွၩ": 3708,
      "ဖိၪဎွ့ၪ": 3709,
      "ဖၧၩ့ဆံၭ": 3710,
      "ထီးအလ့ၩ": 3711,
      "လၩ့ဆါ": 3712,
      "လၩ့ဘူၭ": 3713,
      "ယဟိဝၩနၥံၪအယွၩ": 3714,
      "ၥ့ၪတၭ": 3715,
      "အ့ၪဘၪ": 3716,
      "လၭမူၭ": 3717,
      "လ့ၩဖီၩ့ခွံၬ": 3718,
      "ဂဲၫဆၧၩ့": 3719,
      "ယူၭအၥၭ": 3720,
      "ချဲၩ့ထၪ့": 3721,
      "ဒိၪဝ့ၫ": 3722,
      "အလးလဖၪ": 3723,
      "အလးနီၪလီၫ": 3724,
      "အလးထၪ့ထီၫ": 3725,
      "ၥံၫခွံၬ": 3726,
      "ၥံၫယူၭ": 3727,
      "ဖ့ၪလၫ့ထဲၩ့": 3728,
      "ဒဲဆၧစ့ၩရၫ့": 3729,
      "အထ့ၬ": 3730,
      "တၭစအံ": 3731,
      "ကၠိၩ့": 3732,
      "လၧအအီၪလီၫ": 3733,
      "ဘၪဆဲၫ့လၧယွၩ": 3734,
      "ၥိၪၥံၪ": 3735,
      "ၥိၪလနံၪ့": 3736,
      "ချဲၩ့ဆၧလၧ": 3737,
      "စအၫဘြၫ့": 3738,
      "လၧခးယုဒၫ": 3739,
      "စယံဟုၫ": 3740,
      "ခိၪလီၩ့ထိၩ့ချိၬ": 3741,
      "ဖိၪခွၫၥံၪ": 3742,
      "ရၫခ့လၭ": 3743,
      "ဒဲန့ၫ": 3744,
      "ဟၫနၫ့": 3745,
      "ယဆၧချဲၩ့": 3746,
      "ယ့ၫၡုၬဎရံၬ": 3747,
      "န့ၫဎီၩ့": 3748,
      "တၡါတၭ": 3749,
      "ဘဲၫၦစံၭဆၧအၥိၭ": 3750,
      "လၩ့ထံၩဖါဝ့ၫ": 3751,
      "လၧနမ့ၬယၫလီၫ": 3752,
      "အထုၬနီၪ": 3753,
      "ခိးန": 3754,
      "စံရအၫအစဎွၩ": 3755,
      "ၥူၭဝံၪ": 3756,
      "ၥရဖူၩ": 3757,
      "ထၧၫ့ခးယၫ": 3758,
      "အဎံၫအလၩ": 3759,
      "လၧၫ့လၧၫ့ဎွ့ၩဎွ့ၩ": 3760,
      "ခူၪ": 3761,
      "စယု": 3762,
      "လတီၩလလီၩ့ဘၪ": 3763,
      "လဘျၩ့": 3764,
      "ဟီၫ": 3765,
      "အဘျံၭအဘျၪ": 3766,
      "ွ့ၭ": 3767,
      "ဆၧယိၭ": 3768,
      "ဆၧဘၪလိၬအိၭလိၬ": 3769,
      "တၭမိ": 3770,
      "ံၭၥ": 3771,
      "လၧအခိၪ": 3772,
      "မိအီၪလၧအ": 3773,
      "မိမဲ": 3774,
      "မွဲယဆၧ": 3775,
      "ၥၭမၧၫ့": 3776,
      "ထၪ့လၧ": 3777,
      "အလၫ့": 3778,
      "မုခံၫ့": 3779,
      "မုဖၩ": 3780,
      "လၧဆၧဖၧၩ့": 3781,
      "လၧဆၧမွဲဆၧတီၩ": 3782,
      "လၧယလီၩ့": 3783,
      "လၧယၡၩခမျၧး": 3784,
      "အဆၧတၭ": 3785,
      "အဆၧစ့ၩရၫ့": 3786,
      "အၥိၭဆံၭ": 3787,
      "လၭဖိၪ": 3788,
      "ယွၩလီၫ": 3789,
      "ယွၩမိ": 3790,
      "ယိဆီၫ့မီၪ့": 3791,
      "အဂးမွဲဂ့ၩ": 3792,
      "အီၪက့ၪအၥၭ": 3793,
      "ဆ့ဆံၭ": 3794,
      "စရံၫ": 3795,
      "ၥံၫနီၪ": 3796,
      "အမိအဖါ": 3797,
      "အနိၪ့": 3798,
      "ဒဲၦကွ့ၭလံၬ": 3799,
      "တၭစအ": 3800,
      "ဂၭစၪ": 3801,
      "ဆံၫ့ဎံၪလီၫ": 3802,
      "ဒၪဘၪယူၭ": 3803,
      "ဒိၭဂုၪ": 3804,
      "လၧယွၩအမ့ၬယၫ": 3805,
      "အဆၧမၩလီၫ": 3806,
      "မၩဝ့ၫဘဲၫ": 3807,
      "လၧအၥၭခံ": 3808,
      "ဆၧၫ့နၩ့ဝ့ၫ": 3809,
      "နၥံၪဝ့ၫဧ့": 3810,
      "အဖျံၩ": 3811,
      "စံၭဆၧၫ့ဆၧတၭ": 3812,
      "အၥုၪ့က့ၭၥၭၡါ": 3813,
      "အဘၭဆီၪ့": 3814,
      "ၥံၪလဲၫ့": 3815,
      "လၧဆၧနီၪလဖၪ": 3816,
      "ဘိၭမၩဆၧၩ့": 3817,
      "ထီးမုဂၪလၩ့": 3818,
      "လၧစအၫဘြဟၫ့": 3819,
      "စအံၫလဲၡၫ": 3820,
      "ဆိၪလၩ့ယၥၭ": 3821,
      "ၥံၫ့နံၩ": 3822,
      "ဎဲၫ့ထၬ": 3823,
      "လၧစပွဲ": 3824,
      "ချဲၫ့မၬတၭ": 3825,
      "ဖီၩၬ": 3826,
      "ကလအူၭ": 3827,
      "ထ့ၭ": 3828,
      "နမွဲၦ": 3829,
      "ပဖါ": 3830,
      "ယမ့ၬၥၪ": 3831,
      "လမွဲ": 3832,
      "ဝံၫ့": 3833,
      "ဟဇၭ": 3834,
      "အဝံ": 3835,
      "လၧကယဲၦ": 3836,
      "ဆၧကိၪ့": 3837,
      "ဝ့ၫအ": 3838,
      "ဒဲထီး": 3839,
      "ဒဲလိး": 3840,
      "ဒဲအဖိၪခွၫၥံၪ": 3841,
      "မွဲဝ့ၫ": 3842,
      "ဘဲၫမ့ၪ": 3843,
      "လၧဆၧၥွံၪ": 3844,
      "လၧဆၧပျၩ့ဖၧၩ့": 3845,
      "အဆၧၥီၪ့ဆၧၥၫ့": 3846,
      "အဆၧဖိၪဆၧလံၩ": 3847,
      "အဝ့ၫၥံၪစံၭ": 3848,
      "ယဟိဝၩယီၩ": 3849,
      "ၥ့ၪလဲၪ": 3850,
      "အ့ၪမွဲအ": 3851,
      "လၧၦလဂၩ": 3852,
      "လၧၦၥုၪ့တဲၩအလး": 3853,
      "လ့ၩဆၧလၧ": 3854,
      "ဘဲၫၥိၭယ": 3855,
      "ဒိၪလဖၪ": 3856,
      "ယၧၩလၧဆၧ": 3857,
      "ယဲဒုၩ": 3858,
      "အီၪဝ့ၫထီးနီၪ": 3859,
      "နးစၫ": 3860,
      "ဂၪ့ဝ့ၫ": 3861,
      "ဖ့ၪလၫ့ပၧၩ": 3862,
      "ဝ့ၫလၧထီၫ့": 3863,
      "လၧမုဂၪလၩ့": 3864,
      "မၩန့ဆၧ": 3865,
      "လီၩဘၪဆၧ": 3866,
      "ဂဲထုၪ့ဂီၩဂီၩ": 3867,
      "အဖၧၩ့နီၪဆံၭ": 3868,
      "လၧခးကၫနအၫ့": 3869,
      "ဝံဆၧနၬ": 3870,
      "တဲၩ့လၩ့": 3871,
      "လ့ၩနုၬဝ့ၫ": 3872,
      "ၦမုၪလၧအ": 3873,
      "ၦမုၪနၩ့": 3874,
      "ဆၧၫ့ထုၪ့လၧ": 3875,
      "ထုၬလီၫ": 3876,
      "ၦလနၩ့နၩ့": 3877,
      "ထီးဒၪအလး": 3878,
      "ဖိၬထၪ့": 3879,
      "စပဲလၭ": 3880,
      "ဒဲယရုစလံၫ့": 3881,
      "လၧအဆၧဒဲၩဘၭ": 3882,
      "ဆၧလုအလး": 3883,
      "ဘၪဝ့ၫအ့ၬ": 3884,
      "ဘဲၫအံၩ": 3885,
      "ဘဲၫအိၩ": 3886,
      "ယ့ၫရဘိအၫ့": 3887,
      "ဒၪန့ဝ့ၫ": 3888,
      "ဆၧအီၪလၩ့ထး": 3889,
      "ဒီၩ့လၩ့": 3890,
      "ထီးမုဆၫလနံၩယီၩ": 3891,
      "ကၠၪခွံၬအၥၭ": 3892,
      "အဆၧလုလး": 3893,
      "လၧမုနၩလခီၫ": 3894,
      "အူၪထၪ့ခွ့ၩ": 3895,
      "ဂဲးယဘၭ": 3896,
      "ကွ့ၭနဲၪ့ဆၧ": 3897,
      "ဂံဒအၧၫ့": 3898,
      "ခိးနတၩ": 3899,
      "ကဒုၩ": 3900,
      "ကယၧၩ့": 3901,
      "စကၫ": 3902,
      "ဎ့ၭ": 3903,
      "ဒဲၫ": 3904,
      "ဒံၫ့": 3905,
      "နခၪ့": 3906,
      "ဖံၪ": 3907,
      "ဖလ့ၬ": 3908,
      "ဘုၫ": 3909,
      "ယဆၧအုၩ့လၩ့": 3910,
      "အမုၪ": 3911,
      "အဎွံၪ": 3912,
      "ၦစံရအၫ": 3913,
      "ဆၧမၧၫ့": 3914,
      "ဆၧလၧအဝ့ၫၥံၪ": 3915,
      "တၭၦၡၩ": 3916,
      "ၥံၪအဖၧၩ့": 3917,
      "လၧအအၪ့": 3918,
      "လၧအမၫ": 3919,
      "အီၪမုၬ": 3920,
      "ဘၪပၧၩ": 3921,
      "မၩဆံၫ့": 3922,
      "ၥၭဘဲၫနီၪတၭ": 3923,
      "ဘဲၫၦၡၩ": 3924,
      "ထီးပ": 3925,
      "ယီၩဆံၭ": 3926,
      "လၧဆၧန့ၥၫ": 3927,
      "လၧယနိၭ": 3928,
      "အဝ့ၫၥံၪဆံၭ": 3929,
      "ၡၩခိၬ": 3930,
      "ိၩ့ယ": 3931,
      "ဒုၭအီၩ": 3932,
      "ယွၩလၧအ": 3933,
      "ယိဝ့ၫ": 3934,
      "မံၩ့ဒ့ၭ": 3935,
      "ဘဲၫၥိၭအဝ့ၫၥံၪ": 3936,
      "ချဲၩ့ဘျံၭချဲၩ့ဘျၪ": 3937,
      "အခီၫ": 3938,
      "ၦလၧအအဲၪ": 3939,
      "ဘၪဆၧမၩၥံၫဝ့ၫ": 3940,
      "ၥံၫဝ့ၫလီၫ": 3941,
      "အီၪဝ့ၫလၧၦ": 3942,
      "နၧၩလၧဆၧ": 3943,
      "ဖ့ၪလၫ့ယူၭ": 3944,
      "ဖ့ၪလၫ့ခွံၬဝ့ၫ": 3945,
      "အၪဆၨၩ": 3946,
      "လဖၪနီၪဆံၭ": 3947,
      "နံၫမံၩ့": 3948,
      "ဒဲၦအ": 3949,
      "ဒဲစဘံၭထံၫ": 3950,
      "ဒဲဆၧဝီၩ": 3951,
      "ၥ့ၪယၫဆၧ": 3952,
      "တၭစယၫကူၭ": 3953,
      "မၩန့ထၪ့": 3954,
      "လိၬဆိၭ": 3955,
      "အဂံၪ့ဖၧၩ့လီၫ": 3956,
      "ၥၫ့ထီး": 3957,
      "အခိၪတၭ": 3958,
      "ဆၧမၩနဲၪ့": 3959,
      "မ့ၬယၫတၭ": 3960,
      "အခိးအ": 3961,
      "အဲၪဆၧကွံၩ": 3962,
      "မၩၥံၫၦၡၩ": 3963,
      "လၧခးလဘံၪ့": 3964,
      "စယဟိ": 3965,
      "ရၫရဲၫ": 3966,
      "လဂၩလဲၪး": 3967,
      "လဆံၫလံ": 3968,
      "စံအၫ": 3969,
      "ဘုၪကၠိၩ့": 3970,
      "ၡံဘၫ": 3971,
      "လၧအလီၩ့တၭ": 3972,
      "လၧနၧၩတၭ": 3973,
      "အၪ့စၪ့ဝ့ၫ": 3974,
      "ဇ့ၭဘလၧၫ့": 3975,
      "လၧစအၫရၧၫ့": 3976,
      "လီၩလၩ့လၬလၩ့ဆၧ": 3977,
      "လၧဂံၪ့ဖၧၩ့": 3978,
      "လုဆၧအခိၪ": 3979,
      "စဘၫလၫ့": 3980,
      "ပဒၩ့ထၬ": 3981,
      "ထံၩအဖျဲ": 3982,
      "ချဲၫ့ချဲၫ့တၭ": 3983,
      "အမုလနံၩ": 3984,
      "အခိၪလီၩ့ဆူၭ": 3985,
      "ၦလုဆၧအခိၪ": 3986,
      "ၡီၫ့လၩ့": 3987,
      "နၭနၭလ့ၬ": 3988,
      "စဒိ": 3989,
      "စီဒၧၫ့": 3990,
      "တုၩ့ထၪ့တုၩ့လၩ့": 3991,
      "ကုၬ": 3992,
      "ထံၩဖါ": 3993,
      "နအဲအၫ": 3994,
      "နဎီးနၡၩ": 3995,
      "ပယီၫ": 3996,
      "မီ": 3997,
      "ယဘၪ": 3998,
      "လယၪ့": 3999,
      "လလီၪ့": 4000,
      "ဟဇဲအၫ": 4001,
      "ဟ့ၭၡ": 4002,
      "အချိၫ့": 4003,
      "အၩ့ထၪ့": 4004,
      "ၦအၥၭ": 4005,
      "ၦဂဲၫဆိၬ": 4006,
      "ၦၥထံၫ": 4007,
      "လၧလံၩ": 4008,
      "ဆၧအၥိၭ": 4009,
      "ဆၧအဂး": 4010,
      "ဆၧလၧယဟိဝၩ": 4011,
      "ၥံၪမၫ": 4012,
      "ဒဲမ့ၪ": 4013,
      "ဒဲမၩဂၭဂီၩ့": 4014,
      "ဒဲအမၫ": 4015,
      "ဘၪတၩ": 4016,
      "မိမၧၫ့": 4017,
      "မၩဎွ့ၩ": 4018,
      "ၥၭတၭ": 4019,
      "ဘဲၫအဂံၪ့ဒီၪ့လဖၪ": 4020,
      "ဒၪအၥၭ": 4021,
      "ယီၩမွဲ": 4022,
      "စံၭနၧၩ": 4023,
      "လၧဆၧမၧၫ့": 4024,
      "လၧဆၧဖိၪဆၧဎါ": 4025,
      "လၧဆၧလုဆၧဒဲၩဘၭ": 4026,
      "အဆၧအုၩ့လၩ့": 4027,
      "လဂၩလၧ": 4028,
      "ဖျဲ": 4029,
      "ၥ့ၪလီၫ": 4030,
      "နံၩအၪ": 4031,
      "ၦလၧအဘၪ": 4032,
      "လုအၪ့": 4033,
      "ယဲဂၩ": 4034,
      "ထံၫတၭ": 4035,
      "ဆၧၫ့ထဲၩ့": 4036,
      "ဖ့ၪလၫ့အဝ့ၫၥံၪ": 4037,
      "ဖ့ၪလၫ့ဝ့ၫလၧ": 4038,
      "နံၫဖၧၫ့": 4039,
      "ဒိၩ့ၥံၪ": 4040,
      "အ့ၪမွဲနၥံၪ": 4041,
      "အ့ၪမွဲယဝ့ၫဒၪယီၩ": 4042,
      "အထွ့ၪ": 4043,
      "ၦၡၩလၧအ": 4044,
      "တၭစယိၥၭ": 4045,
      "လိၬပၥၭ": 4046,
      "ဧၪး": 4047,
      "ထၫ့ဒုၪ": 4048,
      "ယၥၭထၪ့": 4049,
      "အီၪလၧအလီၩ့": 4050,
      "နါဂၧၫ့ဝ့ၫတၭ": 4051,
      "မွဲလါနၫ့ဘဲၫနီၪတၭ": 4052,
      "နွ့ၫယၩ": 4053,
      "အခၪ့ခိၪ": 4054,
      "ရၫမၫ": 4055,
      "စအဟဲ": 4056,
      "လၧထံၫချိၬ": 4057,
      "ဟၫဒၭ": 4058,
      "ၦမုၪမဲၫ": 4059,
      "စံၭထၪ့အၪ့အူၭနၧၩ": 4060,
      "ၦအတီၩ": 4061,
      "လၧအမ့ၬယၫတၭ": 4062,
      "အ့ၪလမွဲဘၪဘဲၫနီၪတၭ": 4063,
      "ဆိၪလၩ့နၥၭ": 4064,
      "အီၪယူဝ့ၫ": 4065,
      "ၦအၫမၧၫ့ဖိၪ": 4066,
      "တီၩတီၩလီၩ့လီၩ့": 4067,
      "အၩလါ": 4068,
      "ဒဲအထၧၫ့ဖုဝဲၥံၪ": 4069,
      "အစံရအၫအစဎွၩ": 4070,
      "ၡဲလိၫ": 4071,
      "ဘုၪၥံၪဂူၫၥံၪ": 4072,
      "လကၭလၧၩ့": 4073,
      "ထီၫ့ၥံၪလွ့ၫၥံၪ": 4074,
      "ၥူၭဝံၪၥူၭလၩ": 4075,
      "ဂြံ": 4076,
      "ဇိ": 4077,
      "ဇရၫ": 4078,
      "ဎၧၩ့အဎီ": 4079,
      "တိၪ့": 4080,
      "နနၫ့ဆါ": 4081,
      "နမ့ၬၥၪ": 4082,
      "ပီၩ့": 4083,
      "ပုၭ": 4084,
      "ဖ့ၭ": 4085,
      "အံၪ့": 4086,
      "အမၩဆၧ": 4087,
      "အဒၪ့ဎၩ့": 4088,
      "လၧၭ": 4089,
      "လၧခိၪ": 4090,
      "ဆၧကွ့ၭ": 4091,
      "ဆၧၥၭထၪ့": 4092,
      "နီၪယ": 4093,
      "လၧအခိၪဎွံၪ": 4094,
      "လၧအဖၫ့လၬ": 4095,
      "ဒဲတ": 4096,
      "ဒဲထီၫ့": 4097,
      "မၩလၧမ့ၪ": 4098,
      "မွဲစ": 4099,
      "ၥၭဘီၩ့": 4100,
      "လၧယကဆါ": 4101,
      "လၧနဖါ": 4102,
      "လ့ၩဘီၪ": 4103,
      "အဂဲးဘဲၫယီၩမွဲ": 4104,
      "နံၩလနံၩ": 4105,
      "ယၧၩနီၪ": 4106,
      "လုး": 4107,
      "ယဲထီၫ့": 4108,
      "ကိၭထဲၩ့": 4109,
      "မၪဘၪ": 4110,
      "လၧနၥံၪအၥၭ": 4111,
      "အၥၫ": 4112,
      "ဒဲစအံၫ": 4113,
      "အၡၩဂံၪ့": 4114,
      "အံၫစရ့လၭအ": 4115,
      "အဂံၪ့နီၪ": 4116,
      "ဆိၬခွံၬ": 4117,
      "နါဒံၩ့": 4118,
      "လၧပလၫ": 4119,
      "ကၠၪစိၩ": 4120,
      "ချဲၩ့ဆၧတၭ": 4121,
      "ရှူၪ": 4122,
      "အမ့ၬတၭ": 4123,
      "နွ့ၫနံၩလနံၩနီၪ": 4124,
      "စယ့": 4125,
      "ၥံၪ့ၥံၪ": 4126,
      "တၭဆၧအီၪလၩ့ထး": 4127,
      "ထုၬနီၪ": 4128,
      "ဘဲၫဆၧကွ့ၭအၥၭ": 4129,
      "ဆၧၫ့နၩ့ဒံၩ့ခံၫ့": 4130,
      "အၥီၫ့နီၪ": 4131,
      "ဆၧဒဲၩဘၭဖိၪ": 4132,
      "ဘၩဆိၪဖၪဆၧ": 4133,
      "ဘၩဆိၪဖၪန့": 4134,
      "တီၩလလီၩ့ဘၪနီၪ": 4135,
      "ယစံၭနၥံၪ": 4136,
      "ဇ့ၭဒကဲအၫ": 4137,
      "လၧမၫဆမံၭဖၧၩ့": 4138,
      "ဆူၭခဲၩဆၧနၧၫ့မၧၫ့": 4139,
      "ယဲးလၩ့": 4140,
      "ဟံဘြူၫ": 4141,
      "လကုၭ": 4142,
      "မွဲအကဲၪ": 4143,
      "တၭယဟိဝၩစံၭစမိစ့ၭ": 4144,
      "ဆၩ့ထံၫ": 4145,
      "ဂၪ့ဆၧယၧၩ့": 4146,
      "နၪ့ၥံၪမံၩ့ၥံၪ": 4147,
      "ိၩ့ယိၩ့": 4148,
      "ဂြံစၭ": 4149,
      "ကၫ့": 4150,
      "ဆုး": 4151,
      "ဎၫ့": 4152,
      "တြ": 4153,
      "ထဲၫ": 4154,
      "နမွဲယ": 4155,
      "ပမၩ": 4156,
      "မလီၫ့": 4157,
      "ယဒုၪယဒၩ": 4158,
      "ၡံၫ့": 4159,
      "ၥွၫ": 4160,
      "ဆၧၥၭ": 4161,
      "ဆၧလဂၩ": 4162,
      "ဆၧဎွ့ၩ": 4163,
      "ဆၧဎါ": 4164,
      "ဆၧန့ၥၫ": 4165,
      "တၭပမိ": 4166,
      "လၧအ့": 4167,
      "လၧအမိဘၪ": 4168,
      "လၧအဒုၪအဒၩ": 4169,
      "ဒဲကိၪ": 4170,
      "အီၪယဲၩ့": 4171,
      "မၩဖီၩ့ဖျ့ၭ": 4172,
      "လၩ့လိ": 4173,
      "မုဆဲၪ့": 4174,
      "အၥၭကျၩ": 4175,
      "လၧဆၧအၪ့": 4176,
      "့ၭဒ": 4177,
      "အဆၧအၪ့": 4178,
      "အဆၧဖၩ့": 4179,
      "အဝ့ၫၥံၪဂဲၫ": 4180,
      "အဂဲးဆီၪ့": 4181,
      "ၡၩဂံၪ့ဖိၪ": 4182,
      "အ့ၪမၩ": 4183,
      "ဝ့ၫဒၪတၭ": 4184,
      "ဒုၭၥိၭ": 4185,
      "ဒုၭလ့ၩ": 4186,
      "ယွၩအဂူၫဂၩ": 4187,
      "အဂးနီၪလီၫ": 4188,
      "ထီးအလူၬအဖၧၩ့": 4189,
      "အီၪက့ၪအစူၪ": 4190,
      "လၧစံ": 4191,
      "ယမိစ့ၩရၫ့": 4192,
      "ဖ့ၪယူ": 4193,
      "လူၬတၭ": 4194,
      "လၧနၥံၪအဆၧ": 4195,
      "အၡၩလုဆၧ": 4196,
      "လံဂၩ": 4197,
      "ဂၭဎ့ၭ": 4198,
      "ထီးနီၪလ": 4199,
      "နမိမၩ": 4200,
      "လၩလါ": 4201,
      "ၥိၪလဒီၪ့": 4202,
      "ၥိၪဒဲဘ့ၪ": 4203,
      "ဝ့ၫလၧအလး": 4204,
      "ဆၧမၩအ": 4205,
      "ဒိၭနနါ": 4206,
      "ဖိၪခွၫလဖၪ": 4207,
      "စအံၭ": 4208,
      "စအၧၭ": 4209,
      "အထီနီၪ": 4210,
      "အဆိၩဆိၩ": 4211,
      "လစီၪ့ဒၪ": 4212,
      "စမီၫဒကၫ": 4213,
      "အဖၧၩ့ၥၭနီၪ": 4214,
      "ၦလုဆၧလဂၩနီၪ": 4215,
      "အနံၪ့နံၫဆံၫ": 4216,
      "အဂဲးအကၠီၪ့လီၫ": 4217,
      "နိၪထိၭဘီၩ့": 4218,
      "လၧယဂးလီၫ": 4219,
      "လထံၪဎးဘီၩ့ဎး": 4220,
      "ယဲးထဲး": 4221,
      "အၪ့မၧၫ့ဎီးဝ့ၫ": 4222,
      "ဘ့ၫၥလၭ": 4223,
      "ဘၪစဲၪ": 4224,
      "စလၫဘၫ့": 4225,
      "စအဲၫစ့ယၫ": 4226,
      "ကု": 4227,
      "ကဒံၩ": 4228,
      "ခၧၩ့ယး": 4229,
      "စယုၫ": 4230,
      "ဆရၫ့": 4231,
      "ဎဲၪ့": 4232,
      "ဒံၫ": 4233,
      "ဒိၫ": 4234,
      "နမၩဆၧ": 4235,
      "ရဲး": 4236,
      "ရခိၫ": 4237,
      "အဖျိၪ့": 4238,
      "ၦနံၫဂၩ": 4239,
      "ၦၥၭၡါ": 4240,
      "ၦၥုၪ့က့ၭၥၭၡါ": 4241,
      "ၧလၫ့": 4242,
      "ဆၧဆံၫ့ဎံၪ": 4243,
      "တၭနမိဘၪ": 4244,
      "လၧအဆၧမၩ": 4245,
      "လၧအမၩၥံၫ": 4246,
      "လၧအထၧၫ့ဖုဝဲ": 4247,
      "လၧအကၠီၩ့": 4248,
      "ဒဲထွ့ၫ": 4249,
      "အီၪၡီၩ့": 4250,
      "မိလ့ၩနုၬ": 4251,
      "မွဲဘဲၫၥိၭ": 4252,
      "ၥၭလီၫ": 4253,
      "ဘဲၫဆၬလၥၧၫ့": 4254,
      "ဒၪန": 4255,
      "ဖိၪလဒီၪ့": 4256,
      "လၩ့ပြံၩလၩ့": 4257,
      "လၧဆၧနၪ": 4258,
      "လၧဆၧၥၭမဲၪ": 4259,
      "လၧယမၪလူၬ": 4260,
      "့ၭစ": 4261,
      "ယၫနီၪ": 4262,
      "အဝ့ၫၥံၪစဲၪ့ထၪ့ခွံၬ": 4263,
      "ယဟိဝၩအ": 4264,
      "ယဟိဝၩမၩ": 4265,
      "ယဟိဝၩအၥၭ": 4266,
      "အီၪက့ၪလီၩ့": 4267,
      "ၥံၫလီၫ": 4268,
      "ဖၭထီၫ": 4269,
      "ဆၧၫ့ဆၧအၧၩ့": 4270,
      "လူၬနီၪ": 4271,
      "အမိမၩ": 4272,
      "လဂ့ၩနီၪ": 4273,
      "ဒဲစယၫ": 4274,
      "ဒဲဆၧဂၩ့": 4275,
      "ဒဲဆၧဖိၪဆၧဎါ": 4276,
      "အံၫစရ့လၭဧ့": 4277,
      "ဆံၫဂၩ": 4278,
      "လံနိၪ့": 4279,
      "လၧယဟိဝၩအမ့ၬ": 4280,
      "လၧယဟိဝၩအမ့ၬယၫလီၫ": 4281,
      "လၧယဟိဝၩအမ့ၬယၫတၭ": 4282,
      "လၧယဟိဝၩအဂံၪ့ဖၧၩ့": 4283,
      "မၩဆၧဒဲၩဘၭ": 4284,
      "လနံၩဘၪလနံၩ": 4285,
      "ၥၧၫ့နံၪ့": 4286,
      "ဖၫလဒုၩ": 4287,
      "ထိၬချိၫ့": 4288,
      "ဂးတၭ": 4289,
      "အစဎွၩလဂၩ": 4290,
      "ယၥၭတၭ": 4291,
      "အီၪလၧခး": 4292,
      "မၬကၨ": 4293,
      "နါဂၧၫ့ဘၪ": 4294,
      "အယွၩနီၪ": 4295,
      "စအဘဲ": 4296,
      "လဖျိၪ့တၭ": 4297,
      "တၭဆၧမိ": 4298,
      "ချဲၫ့မၬလီၫ": 4299,
      "လၧအံၫစရ့": 4300,
      "လဒီၪ့နီၪ": 4301,
      "ၥိၫ့ဝ့ၫ": 4302,
      "အနဲၩ့ထံၭဝၬဝၬ": 4303,
      "တၭယစံၭ": 4304,
      "တဲၩ့ဝဲၩအၥၭ": 4305,
      "ဒဲအဆၧအၪ့အဆၪအလး": 4306,
      "လၧအဂးဒၪဝ့ၫ": 4307,
      "လၧအလီၩ့လီၫ": 4308,
      "ဖၬဘဲၩ့": 4309,
      "ၥံၫ့ဆ့ၬ": 4310,
      "စဲနၫ": 4311,
      "ထီးလၩ့နၥၭ": 4312,
      "လဆိၩဒၪ": 4313,
      "ၦဆၨၩၥံၪ": 4314,
      "ၦလဂၩဂၩအ့ၪ": 4315,
      "ခၫလဒံအၫ": 4316,
      "အၪ့လွ့ၫ": 4317,
      "နးဆိၭအ့ၬ": 4318,
      "ကိၭမုနံၩမုနၩ": 4319,
      "ဂံၭဘ": 4320,
      "လၧအနၫ့ဆါဒၪဝ့ၫ": 4321,
      "အလံၩ့အလဲၫ": 4322,
      "မၩဒီၭလဖၧၫ့": 4323,
      "ရၧၬအဆၧ": 4324,
      "ဒဲန့ၫစၩ့": 4325,
      "ဎူၫဂၩ": 4326,
      "တၪ့": 4327,
      "ထမျ": 4328,
      "ပလ့ၩ": 4329,
      "ပထုၬ": 4330,
      "ဖၥၫ": 4331,
      "ဘဲအၫ": 4332,
      "ဘၧၭ": 4333,
      "လဒိၩ့": 4334,
      "လနဲၩ": 4335,
      "အထီၫ": 4336,
      "အဒူၭ": 4337,
      "ဧီၪ": 4338,
      "ၦအီၪဝ့ၫ": 4339,
      "လၧချီဖၫ": 4340,
      "ၩ့ကၩ": 4341,
      "ဆၧပျီၩပျီၩ": 4342,
      "ဝ့ၫနီၪလီၫ": 4343,
      "နီၪဆ့အ့ၬ": 4344,
      "တၭနၥံၪဘၪ": 4345,
      "တၭအယီၩမွဲ": 4346,
      "လၧအယဲၩ့": 4347,
      "ဒဲဘၪ": 4348,
      "မၩခၧၫ့": 4349,
      "ထၪ့အ": 4350,
      "ဖိၪဒံၩဖိၪၥၪ": 4351,
      "အဂူၭ": 4352,
      "ယီၩယ": 4353,
      "နၥံၪနီၪ": 4354,
      "လၧဆၧအီၪ": 4355,
      "လၧဆၧဂၭဂီၩ့": 4356,
      "လၧဆၧၥၭထိၬ": 4357,
      "လၧဆၧၡၪ့ဆၧနၭ": 4358,
      "ခွံၬအဝ့ၫၥံၪ": 4359,
      "ခွံၬဝ့ၫတၭ": 4360,
      "န့ထဲၩ့": 4361,
      "ထဲၩ့ဆိၬ": 4362,
      "အဂဲးတၭ": 4363,
      "ယဟိဝၩဒုၭ": 4364,
      "လၧနဂံၪ့": 4365,
      "ဂဲၫဘၪ": 4366,
      "အဂဲးဘဲၫယီၩပ": 4367,
      "ထီးအလူၬၥံၪ": 4368,
      "ထီးအလူၬၥံၪဧ့": 4369,
      "ဘဲၫၥိၭပ": 4370,
      "လၧစယိၥၭ": 4371,
      "ဘၪဆၧကူၭတရံၭ": 4372,
      "အဖိၪခွၫတၭ": 4373,
      "အဖိၪခွၫလဖၪနီၪ": 4374,
      "အံၫစ": 4375,
      "ဖၭန့": 4376,
      "ဒုၫ": 4377,
      "အၥရ": 4378,
      "ဒိၩ့ဖိၪ": 4379,
      "ဝ့ၫလၧထံၫ": 4380,
      "ၥ့ၪယၫဘၪ": 4381,
      "လးလီၫ": 4382,
      "ၦၡၩမိ": 4383,
      "ဎွ့ၩဝ့ၫလၧဆၧ": 4384,
      "တၭစစၫမုၫအ့လၭ": 4385,
      "ဂီၩ့နီၪ": 4386,
      "ၥုၪ့အတဲၩ": 4387,
      "ကဆါယဟိဝၩစံၭ": 4388,
      "ၥၧၫ့နံၩလနံၩနီၪ": 4389,
      "ကိၪ့ဆၧ": 4390,
      "မၫလီၫ": 4391,
      "ရုၫ": 4392,
      "ဎးတၭ": 4393,
      "စအၫစၫ": 4394,
      "လီၩဘၪအဝ့ၫၥံၪ": 4395,
      "နွ့ၫနံၪ့": 4396,
      "ဒဲနိၪ": 4397,
      "ထိၪလွံ": 4398,
      "အီၩမၧၩ့": 4399,
      "စံၭထၪ့အၪ့": 4400,
      "ချီမိ": 4401,
      "နးမံၩ့အ့ၬး": 4402,
      "အခ့ၫအ": 4403,
      "မီၪ့ဘံၭ": 4404,
      "လဒုၩနီၪ": 4405,
      "စံၭထၪ့အၪ့အူၭယဟိဝၩ": 4406,
      "ဒၧၩ့ထၪ့": 4407,
      "အခးနဲၩ့ထံၭ": 4408,
      "ဆၧအၪ့ဂူၬန့": 4409,
      "ထဲၩ့ထဲၩ့ဝ့ၫ": 4410,
      "အနံၪ့လံဆံၫ": 4411,
      "စဲၪ့ထၪ့တၭ": 4412,
      "လၧခိၪလီၩ့ဆူၭ": 4413,
      "ဘဲၫနီၪၥိၭဆ့လီၫ": 4414,
      "အဖၫ့လၬလီၫ": 4415,
      "လၧဆၧနီၪလမံၩ့": 4416,
      "အၪအၪလ့ၬလီၫ": 4417,
      "ခိးဘၪတၩ": 4418,
      "အနိၪယိၭဘီၩ့": 4419,
      "ဆိၫ့န့ဘၪ": 4420,
      "စဟၫမၫ့": 4421,
      "တီၩတီၩယီၩ": 4422,
      "စနၫၥၫ့": 4423,
      "ဘဲၫၥိၭနၥံၪထီး": 4424,
      "ဘုၭထၬလိၬအၥၭ": 4425,
      "ခံၫထူၬ": 4426,
      "ထီၩ့လၧဆၧဂၭဂီၩ့": 4427,
      "ခီးဘိၩ့နဲၪ့ယီၩ": 4428,
      "စဖံလံၭ": 4429,
      "ဟ့ၭၡဘၫ့": 4430,
      "နံၩအၪၥၫ့": 4431,
      ".(": 4432,
      "စွၩ": 4433,
      "စဇၭ": 4434,
      "ဇ့ၫ": 4435,
      "ယၥိၭ": 4436,
      "ယမၩန့": 4437,
      "ယခၪ့": 4438,
      "လခိၭနၪဘၪ": 4439,
      "ဝၪ": 4440,
      "ဟၧၭ": 4441,
      "အီၩ့": 4442,
      "အဆဲၫ့": 4443,
      "အဆၪ": 4444,
      "ၦဆံၫ့ဎံၪ": 4445,
      "ၦအီၪလၧအ": 4446,
      "ၦကိၭဂၩဒ့ၭ": 4447,
      "ၦကိၪ့ဆၧၥ့ၪ": 4448,
      "လၧဘၫအလၭ": 4449,
      "ဆၧလၧပ": 4450,
      "ဆၧအဂ့ၩ": 4451,
      "ဆၧၥၭဝံလၩ့ဒိၩ": 4452,
      "တၭမွဲ": 4453,
      "လၧအယီၩ": 4454,
      "ဒဲယမိ": 4455,
      "ဒဲအခ့ၫအၡၩ": 4456,
      "ထီးအဂဲၫ": 4457,
      "အဂၩ": 4458,
      "လဖၪအီၪ": 4459,
      "လၧဆၧဖံၭဆၧယၪ": 4460,
      "လၧယလ": 4461,
      "လၧၦအံၫစရ့လၭ": 4462,
      "ယိလၩ့": 4463,
      "ယူၭလၧ": 4464,
      "ချဲၩ့ခွး": 4465,
      "မၧၫ့လၩ့": 4466,
      "ဘၪဆၧတၭ": 4467,
      "ဘၪဆၧမၩၥံၫ": 4468,
      "ဘၪဆၧဆိၪဂ့ၩ": 4469,
      "အဖု": 4470,
      "အဖၫ": 4471,
      "ဘၭဆီၪ့": 4472,
      "ဖၭလဲ": 4473,
      "ဒဲဆၧအီၪဖီၩ့": 4474,
      "တၭစစီလမၧၫ့": 4475,
      "လံခီၫ": 4476,
      "မၩဆၧၥ့ၪ": 4477,
      "ကဆါယ့ၫရှူၬဎရံၬ": 4478,
      "ဒီၪ့လဖၪ": 4479,
      "အဖၫ့ခိၪနီၪလီၫ": 4480,
      "ထီးနီၪလဖၧၫ့စဎွၩ": 4481,
      "နါဂၧၫ့ဝ့ၫ": 4482,
      "မိအီၪဂုးခၧၫ့": 4483,
      "ဖၧၩ့ၥၭတၭ": 4484,
      "နးဂၩအ့ၬး": 4485,
      "အဆၧမၩနီၪ": 4486,
      "ဟၫမၭ": 4487,
      "ဎွံၪဆၧ": 4488,
      "လၧယရုစလံၫ့လီၫ": 4489,
      "လၧအၥၭခံဖၧၩ့": 4490,
      "ၥိၫ့ထၪ့": 4491,
      "နိၭဖျံၩ": 4492,
      "ဘ့ၪၥံၪ": 4493,
      "လဲးၥၭ": 4494,
      "ဘံအၧၫ": 4495,
      "လၧယၧၩတၭ": 4496,
      "ယးကဖး": 4497,
      "ဆၪ့လၩ့အၥၭ": 4498,
      "အီၪက့ၪထၪ့ထီၫအၥၭ": 4499,
      "အီၪလၧနၥိၭ": 4500,
      "လုထၪ့ဆၧလုမ့ၪ": 4501,
      "တၭစအၫရၧၫ့": 4502,
      "ဆံၬၥံၪ": 4503,
      "ဘိၪ့ထၪ့ဘၩ": 4504,
      "နွ့ၫနံၩလီၫ": 4505,
      "အဆၧအီၪဘိၪ့": 4506,
      "ဎံၫအလၩ": 4507,
      "စယိၫစဲအၫ": 4508,
      "ရုဘံၫ့ဖိၪ": 4509,
      "အလယၧးၡက့လၭ": 4510,
      "မဲၩဎွဲၩမုၪ": 4511,
      "လိၬဆိၭချဲၩ့": 4512,
      "လၩ့လိလၩ့လၭ": 4513,
      "ကမၫ": 4514,
      "ခီၩ့": 4515,
      "ခၧၫ": 4516,
      "ဂိ": 4517,
      "ဂိး": 4518,
      "စူၩ": 4519,
      "စဟံ": 4520,
      "ဇပၫ": 4521,
      "ထိ": 4522,
      "ဒၧၫ": 4523,
      "နအၫ": 4524,
      "နဖၧၩ့ၥၭ": 4525,
      "ဖၨၪ": 4526,
      "ဘံၪ": 4527,
      "အဒၩ့": 4528,
      "ၦၥံၫ": 4529,
      "ၦဘၪဆဲၫ့": 4530,
      "ၦခးဖိၪ": 4531,
      "ၦလံဝဲၫဖိၪၥံၪ": 4532,
      "လၧထုၪ့စူၪယၫ": 4533,
      "ဆၧဒဲ": 4534,
      "ဆၧဆိၪဂ့ၩ": 4535,
      "ဆၧဆူၪ": 4536,
      "ဝ့ၫအၥိၭနီၪ": 4537,
      "ဝ့ၫအမံၩ့": 4538,
      "လၧအမ့ၬၥၪ": 4539,
      "ဒဲလၩ": 4540,
      "အီၪထီးနီၪ": 4541,
      "မိဂဲၫထဲၩ့": 4542,
      "မၩဆံၫ့ဎံၪ": 4543,
      "ဖိၪအကျၩ": 4544,
      "လၩ့ဘၧၩ့": 4545,
      "လဖၪး": 4546,
      "အလဂၩ": 4547,
      "နၥံၪမိမၩ": 4548,
      "အၥၭအုၭ": 4549,
      "လၧဆၧအုၩ့လၩ့": 4550,
      "လၧယဖၧၩ့": 4551,
      "အဆၧဆံၫ့ဎံၪ": 4552,
      "ယဟိဝၩအမံၩ့": 4553,
      "လၧၦလခီၫဘၩ့မုးဖိၪ": 4554,
      "ဒုၭအီၪကိၩ့အီၪကီၪ့": 4555,
      "လ့ၩထၪ့ဝ့ၫ": 4556,
      "ယိဝ့ၫတၭ": 4557,
      "ထီးအလူၬအကျၩ": 4558,
      "လၧစဘံၭထံၫ": 4559,
      "နၧၩအ့ၬ": 4560,
      "ခးယဲၩ့": 4561,
      "ထံၭနီၪ": 4562,
      "မၩန့ထဲၩ့": 4563,
      "မၩန့ဝ့ၫလီၫ": 4564,
      "လံဘ": 4565,
      "ဂၭဖိၪ": 4566,
      "နၭမၬလီၫ": 4567,
      "နၭၥံၪဖၩ့ၥံၪ": 4568,
      "ဘဲၫၥိၭအမိမၩဆၧ": 4569,
      "လၧပၥိၭ": 4570,
      "ဝ့ၫလၧအစူၪ": 4571,
      "လၧအဝ့ၫၥံၪအမ့ၬယၫ": 4572,
      "ဘၩ့ၥံၪ": 4573,
      "ပၧၩလီၫ": 4574,
      "လီၩဘၪယၧၩ": 4575,
      "နါဂၧၫ့ယူၭ": 4576,
      "အယွၩလဖၪ": 4577,
      "မိဘၪမၩ": 4578,
      "အမ့ၬမဲ": 4579,
      "ခိၭနၪဆၧ": 4580,
      "နၫပဒၩ့": 4581,
      "မိအီၪယူ": 4582,
      "ပျီၩဖျ့ၭ": 4583,
      "ဆၧၫ့ထုၪ့ဝ့ၫ": 4584,
      "ဂၬထံၫ": 4585,
      "ချီဖိၪ": 4586,
      "ဂဲၫထၪ့လၧ": 4587,
      "လၧယရုစလံၫ့နီၪ": 4588,
      "အလၩၡုၪ": 4589,
      "အၪ့မၧၫ့လၩ့ဆၧ": 4590,
      "လၧအံၫစရ့လၭအစဎွၩ": 4591,
      "ထီးန့ဖံၭထၬ": 4592,
      "အနဲၩ့ထံၭတၭ": 4593,
      "လံဝဲၫဖိၪလဖၪ": 4594,
      "အခဲၫ့တၭ": 4595,
      "အၦဒိၪလဖၪ": 4596,
      "အနါဂၧၫ့": 4597,
      "ဒိၭနဲၩ့နၥၭ": 4598,
      "အၪနဲၪ့ဒံၭ": 4599,
      "စကိ": 4600,
      "ဂံလဂၫလၭ": 4601,
      "ဒဲစအဘဲ": 4602,
      "မိၥ့ၪဧၪ": 4603,
      "လၧၦလဆၨၩ": 4604,
      "ဆၧမၩဘိၪ့ကိၪမုၬ": 4605,
      "စယဟီအဒၫ": 4606,
      "ဆၧအဲၪဆၧကွံၩ": 4607,
      "စယ့ၭစံၫ": 4608,
      "တၭၦမုၪနီၪ": 4609,
      "ဒၪ့ထ့ၬခွံၬဝ့ၫ": 4610,
      "ဒၪဆၧလၧယၫလခီၫ": 4611,
      "အဂံၪ့ဖိၪလဒီၪ့း": 4612,
      "ၥုၪ့ဖၭၥၭဖၭ": 4613,
      "ကလကၫ": 4614,
      "ကၩ့ကၩ": 4615,
      "စၩ": 4616,
      "စူၭ": 4617,
      "စလံဝဲၫ": 4618,
      "ဆွံၪ": 4619,
      "ဒန့": 4620,
      "ဒနဲ": 4621,
      "နမၩ့": 4622,
      "ပဖါၥံၪ": 4623,
      "ဖ့": 4624,
      "ရ့ၫ": 4625,
      "အတီၩ": 4626,
      "အဘံၪ့": 4627,
      "အထီၫ့": 4628,
      "ၡီၫ": 4629,
      "ၦဘၪဆၧ": 4630,
      "လၧကယဲၦလၧအ": 4631,
      "လၧၥၭမု": 4632,
      "ဆၧလၧမု": 4633,
      "ဆၧဒုၪဒွ့ၪ": 4634,
      "နီၪလမံၩ့လဲၪ": 4635,
      "တၭအီၪက့ၪ": 4636,
      "လၧအဝၩ": 4637,
      "လၧအပၧၩ့": 4638,
      "ဒဲကၥ့ၪ": 4639,
      "ဒဲချီဖၫ": 4640,
      "ဘၪအီၪ": 4641,
      "မိအီၪလၧ": 4642,
      "မၩလိၪ": 4643,
      "ဖၧၩ့ၥံၪ": 4644,
      "ဖၧၩ့အ့ၬ": 4645,
      "ထီးၦၡၩ": 4646,
      "ထီးစဎွၩ": 4647,
      "လဖ့ၪလၫ့": 4648,
      "လၩ့နုၬ": 4649,
      "လၩ့ၡၪ": 4650,
      "လၩ့ၥံၭ": 4651,
      "ဂၩလဲၪ": 4652,
      "နၥံၪအ့ၪလ": 4653,
      "စံၭစဎွၩ": 4654,
      "လၧဆၧပျၩ့": 4655,
      "လၧဆၧဖိၭဖၫ့": 4656,
      "န့ခွံၬ": 4657,
      "အဂဲးအ": 4658,
      "လၧၦလံဝဲၫဖိၪ": 4659,
      "လၧၦဒိၪဖၭဒိၪ": 4660,
      "လီၩ့နီၪ": 4661,
      "လ့ၩဆိၬ": 4662,
      "လ့ၩဝ့ၫလၧအ": 4663,
      "လ့ၩဆၧတၭ": 4664,
      "ယိၫ": 4665,
      "ယိမ့ၬ": 4666,
      "ယူၭနီၪ": 4667,
      "အဂးအ့ၬ": 4668,
      "ထီးအလူၬလဖၪ": 4669,
      "ဘဲၫၥိၭယမိမၩ": 4670,
      "ၦလၧအၥၭ": 4671,
      "အလးလၧ": 4672,
      "စရု": 4673,
      "စရၫ": 4674,
      "အဝ့ၫဒၪစံၭအဝ့ၫၥံၪ": 4675,
      "ဎွံ": 4676,
      "ကိၭမံၩ့ဒ့ၭ": 4677,
      "နၧၩလၧန": 4678,
      "လူၬဝ့ၫ": 4679,
      "လၧနၥံၪအၥိၭ": 4680,
      "အၥွၪခိၪ": 4681,
      "အနၩ": 4682,
      "ဒဲစမ": 4683,
      "ဒဲစၡ": 4684,
      "ဝ့ၫလၧဂၪ့ခိၪ": 4685,
      "လခီၫနီၪလီၫ": 4686,
      "ၦၡၩအၥၭ": 4687,
      "လံအၫ": 4688,
      "လံထီၫ့": 4689,
      "အံရၧၭ": 4690,
      "ဆီၪ့နဲၪ့": 4691,
      "အဂံၪ့တၭ": 4692,
      "အဂံၪ့ဖၧၩ့နီၪ": 4693,
      "မၪလူၬလဖၪ": 4694,
      "မၪလူၬစမိစ့ၭ": 4695,
      "ထိးနၥၭ": 4696,
      "မိမၩဖီၩ့မၩဖျ့ၭ": 4697,
      "ဆၧမၩအၧၩ့": 4698,
      "ဒိၭဘၭတံၫဇၫ့": 4699,
      "မၩၥံၫဆၧ": 4700,
      "ထၧၫ့ဖုဝဲမုၪ": 4701,
      "န့ဘၪဝ့ၫ": 4702,
      "လစီၪ့စီၪ့": 4703,
      "လဆံၫယဲ": 4704,
      "နၥံၪဝ့ၫဆံၭ": 4705,
      "ကၠီၩ့နီၪ": 4706,
      "မၩဘိၪ့ကိၪမုၬ": 4707,
      "ဆီၫ့မီၪ့ဆၧ": 4708,
      "လၧအံဒၧၫ့": 4709,
      "လၧအစူၪဖၧၩ့တၭ": 4710,
      "အခၪ့ထံၭနီၪ": 4711,
      "ဖၫ့ခိၪလီၫ": 4712,
      "အနံၩအၥၫ့": 4713,
      "လၧၦခမျၧးအကျၩ": 4714,
      "လၧနၭအနါ": 4715,
      "လၧနၭၥံၪဖၩ့ၥံၪ": 4716,
      "နီၫလဲၪနီၪ": 4717,
      "လၧနမ့ၬယၫတၭ": 4718,
      "အနီၪမွဲဆၧ": 4719,
      "လၧခီၫ့တၭ": 4720,
      "လၧယ့ၫရခိၫ": 4721,
      "အထံၫအခး": 4722,
      "ဖ့ၬခွံၬဝ့ၫ": 4723,
      "လထံၪဎးလဘီၩ့": 4724,
      "လဆိၩဘၪလဆိၩ": 4725,
      "ၥံၭထံၫ": 4726,
      "ဒုၭဆၧထၫ့ဒၩ": 4727,
      "ၥၭမဲၪဆၧလဂ့ၩ": 4728,
      "အၭဘစလၧၫ့": 4729,
      "ဂူၭဖိၫ့": 4730,
      "ကိဟၭ": 4731,
      "မွဲအဖ့ၪလၫ့": 4732,
      "ဘဲၫအံၩဘဲၫအိၩ": 4733,
      "ခ့ၭ": 4734,
      "နံၫ့": 4735,
      "နမၫ": 4736,
      "ဖုၭ": 4737,
      "လကဲၪ": 4738,
      "လထုၪ့": 4739,
      "အဎီး": 4740,
      "အုၩ့": 4741,
      "ြဲၫ": 4742,
      "ြၨၭ": 4743,
      "ၥလဲၩ": 4744,
      "ၦအၪ့": 4745,
      "ၦအီၪလၧ": 4746,
      "ၦဟံ": 4747,
      "ၦလဖၪယီၩ": 4748,
      "ဆၧလၧၫ့": 4749,
      "ဆၧယၫ့ၥၭ": 4750,
      "ဆၧဘွၩ": 4751,
      "ဆၧဝံထၪ့နၬထၪ့": 4752,
      "ဆၧပီၩ": 4753,
      "ၪ့ၡၧၫ့": 4754,
      "နီၪၦ": 4755,
      "တၭလၧစ": 4756,
      "ၥံၪအၥိၭ": 4757,
      "လၧအဖၧၩ့ၥၭ": 4758,
      "ဒဲၥၭ": 4759,
      "ဒဲလၧယ": 4760,
      "ဒဲဘ့ၭၥ": 4761,
      "ဒဲအၡၩခမျၧး": 4762,
      "အီၪလၧအဝ့ၫၥံၪ": 4763,
      "မၩဆီၪ့": 4764,
      "ဒၪပဝ့ၫ": 4765,
      "ထီးအၪ့": 4766,
      "ထီးလၩ့အၥၭ": 4767,
      "လၩ့လၬလၩ့": 4768,
      "လဖၪအၥိၭ": 4769,
      "လၧဆၧလဖၪနီၪ": 4770,
      "လၧဆၧၥ့ၪယၫ": 4771,
      "လၧဆၧနၧၫ့မၧၫ့": 4772,
      "ဟိၫ": 4773,
      "ထဲၩ့တၩ့ထဲၩ့": 4774,
      "ဂ့ၩဘၪစဲၪ": 4775,
      "အဖၧၩ့း": 4776,
      "လဂၩဎးလီၫ": 4777,
      "အီၪကွ့ၭ": 4778,
      "ချဲၩ့ထၪ့ဆၧ": 4779,
      "အခံၫ": 4780,
      "အီၪက့ၪဝ့ၫလၧဆၧ": 4781,
      "လၧစယီရှုၫအ့ၫ": 4782,
      "ဘၪဆၧခိဆၧဝီၩ": 4783,
      "ထံၫၥံၪ": 4784,
      "နၫ့ဘိၩ": 4785,
      "ဖၭဆၧ": 4786,
      "ခးနီၪ": 4787,
      "စဲၪ့ထၪ့ဝ့ၫ": 4788,
      "စဲၪ့ဝံၩ့ဝၩ့": 4789,
      "အံၫစရ့လၭအၡၩဂံၪ့ဖိၪ": 4790,
      "အစူၪတၭ": 4791,
      "အခိၪၥူၫ": 4792,
      "အီၪလၧအခိၪဒၧၩ့": 4793,
      "အမံၩ့ၡါ": 4794,
      "ဆၧမၩဂၭဂီၩ့": 4795,
      "လီၩဘၪအဝ့ၫ": 4796,
      "အယွၩလီၫ": 4797,
      "မိဘၪအီၪ": 4798,
      "အမ့ၬမိမဲ": 4799,
      "စစံ": 4800,
      "ၦခမျၧးနီၪ": 4801,
      "မိအီၪဂုးအီၪခၧၫ့": 4802,
      "စအဘံမလ့ၭ": 4803,
      "တၭဆၧမိမၩအၥၭ": 4804,
      "ထၫ့ဒၩနၧၩ": 4805,
      "ဘဲၫၥ့ၪလဲၪး": 4806,
      "ဖိၬယခဲၫ့": 4807,
      "ထံၪဎး": 4808,
      "စၪ့နၥၧၫ့": 4809,
      "မိဘၪဆၧမၩၥံၫ": 4810,
      "ဖျဲၪန့": 4811,
      "စီၩ့မလီၫ့": 4812,
      "ချဲၩ့ဆၧၫ့ဝ့ၫ": 4813,
      "လၧအလမွဲဘၪ": 4814,
      "ဝၬဖီၩ့ဝ့ၫလီၫ": 4815,
      "ဘုၪမု": 4816,
      "ထးဝ့ၫ": 4817,
      "အၪဂၩလီၫ": 4818,
      "နီၫလဲၪ": 4819,
      "လၧယအီၪတၭ": 4820,
      "ထွ့ၪလခီၫ": 4821,
      "လၧနအီၪတၭ": 4822,
      "စနိအၫ": 4823,
      "ဘံၪ့ယမံၫ့ဖိၪ": 4824,
      "အနိၪထိၭဘီၩ့": 4825,
      "အဖါလဖၪအဂံၪ့": 4826,
      "ဘၪအၡၪ့လီၫ": 4827,
      "ၡ့ရိၫ": 4828,
      "ဆီၪ့ဆီၪ့လ့ၬ": 4829,
      "ဘ့ၥလၭ": 4830,
      "လၧယမွဲယဟိဝၩလီၫ": 4831,
      "စဟ့ရၧၭ": 4832,
      "ံၫလကဲအၫ": 4833,
      "ဂံၭဘအၫ": 4834,
      "ထမျၬ": 4835,
      "လဲးၥၭဘျၪ": 4836,
      "ဆံၬၥံၪနၩ": 4837,
      "စရုဘံၫ့": 4838,
      "ကၧၫ": 4839,
      "ကီၭ": 4840,
      "နအ့ၪလ": 4841,
      "ပဲၩ": 4842,
      "ဘိၫ": 4843,
      "ယမၧၫ့": 4844,
      "ယယၪ": 4845,
      "ရဘ့ၭ": 4846,
      "ဟီၭ": 4847,
      "အၩ့": 4848,
      "အီၫ": 4849,
      "အဝဲၡါ": 4850,
      "အယးဒံၩ့": 4851,
      "အိၩ့ယိၩ့": 4852,
      "ၦထိးအၥၭ": 4853,
      "လၧဂၪ့": 4854,
      "လၧကိၪ": 4855,
      "ဆၧလၩ့လၭ": 4856,
      "ဝ့ၫအၥိၭ": 4857,
      "ဝ့ၫလၧန": 4858,
      "တၭကယဲဆၧ": 4859,
      "ၥံၪနီၪလီၫ": 4860,
      "လၧအနါ": 4861,
      "လၧအခိၬ": 4862,
      "ဒဲအၥၭ": 4863,
      "အီၪဎုၬ": 4864,
      "ဘၪနၥၭ": 4865,
      "ဘၪထၧၩ့": 4866,
      "မၩခွါ": 4867,
      "မၩဘၪၥၭလိၪ": 4868,
      "မွဲနး": 4869,
      "မွဲဎရံၬ": 4870,
      "ထီးဆၧဖၩ့": 4871,
      "မုခမျၧး": 4872,
      "စံၭစဒၫဝံၭ": 4873,
      "အၥၭမိ": 4874,
      "အၥၭအ့ၬ": 4875,
      "လၧဆၧၥၭ": 4876,
      "လၧဆၧဆံၫ့ဎံၪ": 4877,
      "ခွံၬယူၭ": 4878,
      "အဆၧတီၩဆၧလီၩ့": 4879,
      "လ့ၩစိၩ": 4880,
      "ဂဲၫဘူၭ": 4881,
      "ယိထံၫ": 4882,
      "အဂဲးဘဲၫယီၩနၥံၪ": 4883,
      "ယမိအၪ့မၧၫ့လၩ့": 4884,
      "စရိၫ": 4885,
      "ၥံၫတၭ": 4886,
      "အဖိၪခွၫဧ့": 4887,
      "ဎွံၬ": 4888,
      "ဆၧအဘျံၭအဘျၪ": 4889,
      "နၫ့တၭ": 4890,
      "မုၪနၩ့": 4891,
      "ဖ့ၪလၫ့အဝ့ၫ": 4892,
      "အၪထၪ့ဆၧ": 4893,
      "အ့ၪမွဲယ": 4894,
      "အ့ၪမွဲဘဲၫနီၪတၭ": 4895,
      "လးလံၩ": 4896,
      "ထံၭတၭ": 4897,
      "အထံး": 4898,
      "ၦၡၩနီၪ": 4899,
      "မၩန့ဝ့ၫတၭ": 4900,
      "လိၬအ": 4901,
      "မၩဆၧလဲးဆၧဘျၪ": 4902,
      "ဘံၪ့လီၫ": 4903,
      "လမံၩ့ဘၪ": 4904,
      "ၥၧၫ့ဖၧၫ့": 4905,
      "အလီၩ့ဆံၭ": 4906,
      "ယုလၩ့ခွံၬ": 4907,
      "လၧပအီၪ": 4908,
      "အၪ့မၧၫ့အလ့ၩ": 4909,
      "အခိၪလီၫ": 4910,
      "အစဎွၩလဖၪ": 4911,
      "ယၥၭခဲၩထၪ့": 4912,
      "ဝ့ၫလၧအံၫစရ့လၭ": 4913,
      "ကျိၩ့": 4914,
      "ထီးအထီ": 4915,
      "ၥံၪ့မု": 4916,
      "ၥံၪ့ပၪ": 4917,
      "ကၫဒ့ၭ": 4918,
      "အဆၧမၩနဲၪ့": 4919,
      "ဒီၭဝ့ၫ": 4920,
      "မၩဂၭဂီၩ့ဝ့ၫ": 4921,
      "အီၩထံၫ": 4922,
      "လစီၪ့နီၪ": 4923,
      "နံၫဂၩနီၪ": 4924,
      "အထၧၫ့ဖုဝဲၥံၪ": 4925,
      "ထိၭဖၫ": 4926,
      "ကၥ့ၪလဖၪ": 4927,
      "ၦလုဆၧဘၪ": 4928,
      "ကီၩ့ထၪ့": 4929,
      "နၥံၪဝ့ၫယီၩ": 4930,
      "ဒုၭနဲၪယၧၩ": 4931,
      "ဂူၫဂၩလဖၪ": 4932,
      "မၩမၪခွၫ": 4933,
      "အတရၫ့နီၪ": 4934,
      "လၧမ့ၪလီၫ": 4935,
      "ဒုၭအီၪဂုးအီၪခၧၫ့": 4936,
      "အမုနံၩလဖၪနီၪ": 4937,
      "ဆုၬဆုၬတၭ": 4938,
      "နၫ့ထၪ့ခွံၬဝ့ၫ": 4939,
      "ဎိၭဆံၫ": 4940,
      "ခီၫခီၫလဲၪနီၪ": 4941,
      "ယူၬၥိၪ": 4942,
      "စနံ": 4943,
      "ယူၭဆၧယူၭ": 4944,
      "ပဝ့ၫဒၪယီၩပ": 4945,
      "ခုၪ့လၩ့ဘၧၩ့ခွံၬဝ့ၫ": 4946,
      "လၧၦဆၨၩလဖၪအကျၩ": 4947,
      "အဖံၭအယၪ": 4948,
      "စဘံၭမုအလး": 4949,
      "ဎံၩ့ဎံၩ့": 4950,
      "ဆၧအၪ့မၧၫ့ဖိၪ": 4951,
      "ဂၪ့အုၩဂၪ့ထိၬ": 4952,
      "ဒိၭဂုၪအၥၭ": 4953,
      "ရၧၬအဆၧယၬ": 4954,
      "ကၧၭ": 4955,
      "ဂီး": 4956,
      "စၧၭ": 4957,
      "ဆုၪ့": 4958,
      "ဎဲၩ့": 4959,
      "တဲ": 4960,
      "နလၩ": 4961,
      "ပွဲ": 4962,
      "ဘလံၫ": 4963,
      "မအၧၫ့": 4964,
      "ယဖၧၩ့ၥၭ": 4965,
      "ယကိၭထၪ့": 4966,
      "လိၩ့": 4967,
      "လကၠၪ": 4968,
      "အထံၭ": 4969,
      "အၡၪ့": 4970,
      "အတီၩအလီၩ့": 4971,
      "ၡုၭ": 4972,
      "ၦမၫ": 4973,
      "လၧဟံဘြၧၫ့": 4974,
      "ဆၧမဲၪ": 4975,
      "ဆၧၥၭဝံ": 4976,
      "နီၪလဖၧၫ့": 4977,
      "နီၪမွဲၦ": 4978,
      "တၭစံၭဝ့ၫ": 4979,
      "တၭနၥံၪမိ": 4980,
      "ၥံၪအၥၭ": 4981,
      "လၧအချဲၩ့": 4982,
      "လၧအမိအီၪ": 4983,
      "လၧအလၩအဖၩ့": 4984,
      "ဒဲအၭ": 4985,
      "ဘၪၡၪ့ဘၪနၭ": 4986,
      "မိလၩ့ထံၩဖါ": 4987,
      "မိလၧၫ့ထၪ့ဎွ့ၩထၪ့": 4988,
      "မွဲလၧ": 4989,
      "ထၪ့လီၫ": 4990,
      "ထီးဒုၭ": 4991,
      "ထီးအီၪက့ၪ": 4992,
      "ယီၩအဖၧၩ့": 4993,
      "လဖၪထီးအလူၬ": 4994,
      "အဝ့ၫၥံၪမိဘၪ": 4995,
      "ဂ့ၩး": 4996,
      "ဂ့ၩနီၪ": 4997,
      "အ့ၪဘၪဆၧ": 4998,
      "လၧနမ့ၬ": 4999,
      "ဂဲၫလၧအအီၪ": 5000,
      "ယွၩလဖၪ": 5001,
      "ယွၩအဘၩ့အမုး": 5002,
      "အဂဲးဘဲၫယီၩအဝ့ၫ": 5003,
      "အလူၬလီၫ": 5004,
      "အဂးနီၪဆံၭ": 5005,
      "မံၩ့နီၪ": 5006,
      "ၦလၧအအီၪ": 5007,
      "ၦလၧအနဲၩ့ထံၭ": 5008,
      "လၧစံရအၫ": 5009,
      "လၧစအံၫလဲ": 5010,
      "ဘၭတၭ": 5011,
      "ကိၭအဂၩ": 5012,
      "အကၠီၩ့ဆံၭ": 5013,
      "အၪအၪ": 5014,
      "အနဲအၫ": 5015,
      "လံဒုၩ": 5016,
      "ဒံၭတၭ": 5017,
      "ၥုၪ့မံၫ့": 5018,
      "နၭၥံၪ": 5019,
      "ၥၧၫ့ထီၫ့": 5020,
      "ခိၭဆၧ": 5021,
      "ထီၩ့လၧအ": 5022,
      "ထၬဝ့ၫ": 5023,
      "ဒၪဘၪဝ့ၫနီၪ": 5024,
      "ဒုၪပ": 5025,
      "ဘၪဆဲၫ့ဘၪ": 5026,
      "လၧပမိ": 5027,
      "အၪ့မၧၫ့ၦ": 5028,
      "အခိၪၥံၪ": 5029,
      "ကၠၪလီၫ": 5030,
      "အလူနီၪ": 5031,
      "ဝ့ၫလၧအဖၧၩ့": 5032,
      "ဒိၭဆၧ": 5033,
      "ဒိၭဆၧကူၭတရံၭ": 5034,
      "ကူၭဘုၪ": 5035,
      "ကၫမ": 5036,
      "တဲၩ့ဝ့ၫ": 5037,
      "ဖံၭၥိၭ": 5038,
      "အၪ့ကံၩ့အခီၫ့": 5039,
      "အဖၧၩ့ၥၭတၭ": 5040,
      "ယမိဒုၭဂဲၫ": 5041,
      "လၧမူၭခိၪနီၪ": 5042,
      "ယ့ၫရခိၫ": 5043,
      "ဖိၭဘိၭ": 5044,
      "အမုနံၩနီၪ": 5045,
      "ဆၧအီၪၥူၪ": 5046,
      "ဆၭဆၭ": 5047,
      "လဘီၩ့နီၪ": 5048,
      "မၩလၩ့ဘျ့ၭ": 5049,
      "အၪအၪလ့ၬတၭ": 5050,
      "မၩအၧၩ့မၩၥၫ့": 5051,
      "လဲၪ့ပၪ": 5052,
      "ဖိၪမုၪၥံၪ": 5053,
      "အတလၫနီၪ": 5054,
      "ၦဒိၪဖၭဒိၪၥံၪ": 5055,
      "လမၩဘၪ": 5056,
      "ယဟိဝၩအလူလၩ့ဘၪယၧၩတၭ": 5057,
      "ၥွ့ၫထၭ": 5058,
      "ယဟီၡဖၭ": 5059,
      "ၦမ့ၬဘျီၪ": 5060,
      "အဟၭရှုၫ": 5061,
      "လတီၩဘၪ": 5062,
      "ဆၧအဘိၩ့ဘၭနီၪ": 5063,
      "စရံၫဟဘိအၫ့": 5064,
      "လုအၪ့လုအီၩ": 5065,
      "စယ့မံၭ": 5066,
      "ခံး": 5067,
      "ဂံၩ့": 5068,
      "စဂၭ": 5069,
      "ဒိၫ့": 5070,
      "နလ့ၩ": 5071,
      "ဖ့ၫ": 5072,
      "ယဂး": 5073,
      "ယီၭ": 5074,
      "ယဆီၫ့မီၪ့": 5075,
      "လဆံၫ့": 5076,
      "အလၧၫ့အဎွ့ၩ": 5077,
      "ၡိၩ့": 5078,
      "ၥဝံၭ": 5079,
      "ၦၥ့ၪယၫ": 5080,
      "လၧလၬ": 5081,
      "လၧတဲၩ": 5082,
      "လၧဒူၭ": 5083,
      "လၧဂၫလလံၫ": 5084,
      "ဆၧဂၭဂီၩ့": 5085,
      "ဆၧဆိၪအၧၩ့": 5086,
      "ဆၧဖိၪဆၧလံၩ": 5087,
      "ဆၧမံၫမး": 5088,
      "ဆၧကိၪ့ဘၪကိၪ့ၥ့ၪ": 5089,
      "နီၪလ့ၩ": 5090,
      "နီၪမိကဲၪထၪ့": 5091,
      "တၭလၧအ": 5092,
      "လၧအမၧၫ့ဝ့ၫ": 5093,
      "လၧအခ့ၫအၡၩ": 5094,
      "ဒဲဂ": 5095,
      "ဒဲယိ": 5096,
      "ဒဲအဖိၪမုၪ": 5097,
      "ဒဲမူၭခိၪ": 5098,
      "ဘၪၦ": 5099,
      "ဘၪအဝ့ၫ": 5100,
      "မၩအဆၧ": 5101,
      "မၩၡၪ့": 5102,
      "မၩအၪထၪ့": 5103,
      "မွဲနၥၭ": 5104,
      "မွဲအ့ၬး": 5105,
      "မွဲလဆံၫ": 5106,
      "ဘဲၫစဎွၩ": 5107,
      "ထီးဘၪ": 5108,
      "လၩ့ခွံၬဝ့ၫ": 5109,
      "လၩ့ဖံၬ": 5110,
      "လၩ့ဆၩ့": 5111,
      "မုမ့ၬ": 5112,
      "မုဂၪလၩ့": 5113,
      "နၥံၪဝ့ၫဒၪ": 5114,
      "အၪ့ဘၪဆၧ": 5115,
      "အၪ့လၬ": 5116,
      "ချံး": 5117,
      "ခွံၬဆၧ": 5118,
      "န့မၫ": 5119,
      "အဆၧကိၪ့": 5120,
      "အဆၧၥၭထၪ့": 5121,
      "အဆၧၡၪ့ဆၧနၭ": 5122,
      "ထဲၩ့တၭ": 5123,
      "ထဲၩ့ဒီၭ": 5124,
      "အကိၪ့": 5125,
      "အကံကၫ": 5126,
      "ဝ့ၫဒၪဆ့လီၫ": 5127,
      "လၧနံၫ": 5128,
      "လၧနမ့ၬၥၪ": 5129,
      "ဒုၭဆီၪ့ထၪ့": 5130,
      "ဂဲၫလၧအအီၪတၭ": 5131,
      "အဖိၪအ": 5132,
      "ယိၥူၪ": 5133,
      "ထီးအလူၬယီၩ": 5134,
      "ဘဲၫၥိၭဆၧမိ": 5135,
      "အီၪက့ၪတီၩ": 5136,
      "ယမိကဲၪထၪ့": 5137,
      "အီၪဝ့ၫအၥိၭ": 5138,
      "မွဲအဒုၭ": 5139,
      "ရၫ့လီၫ": 5140,
      "လၧနၥံၪမိ": 5141,
      "အ့ၪမွဲထီး": 5142,
      "ဒၩလၩ့": 5143,
      "လၧမုဂီၩ": 5144,
      "လံလၬ": 5145,
      "ၥုၪ့ခိ": 5146,
      "အအီၪနီၪလီၫ": 5147,
      "နၭမၬ": 5148,
      "နုၬဝ့ၫ": 5149,
      "ဖၫဆွံၪ": 5150,
      "ဘီၪၬ": 5151,
      "ကိၪ့လိၬအၥၭ": 5152,
      "အလူတီၩ": 5153,
      "ဒၪဝ့ၫအဖၧၩ့": 5154,
      "ပၧၩလၧ": 5155,
      "ပၧၩဆံၭ": 5156,
      "အယွၩဧ့": 5157,
      "ၦခမျၧးတၭ": 5158,
      "ဂဲထုၪ့လံ": 5159,
      "နၥၭတၭ": 5160,
      "ဆၧနီၪလဲၪ": 5161,
      "လၧယွၩအ": 5162,
      "ဖၧၩ့နီၪဆံၭ": 5163,
      "ဆူၭခဲၩထၪ့": 5164,
      "ထၪ့ထီၫနီၪ": 5165,
      "ဘူၭအထံး": 5166,
      "ၦလဆံၫ": 5167,
      "ဂဲၫဆိၬဝ့ၫ": 5168,
      "ဆၧၩ့လၩ့": 5169,
      "နၫ့ဆါဒၪယဝ့ၫ": 5170,
      "လၧအၥၭၡါ": 5171,
      "လၧအလးလီၫ": 5172,
      "အၪ့မၧၫ့လၩ့န့ယၧၩ": 5173,
      "တၭအဝ့ၫၥံၪစံၭ": 5174,
      "လစီၪ့လါလါ": 5175,
      "အထၧၫ့ဖုဝဲလဖၪ": 5176,
      "အမၫတၭ": 5177,
      "အမၫၥံၪ": 5178,
      "စၪ့ထၪ့": 5179,
      "အခိးအတၩအီၪဝ့ၫ": 5180,
      "လီၩလၩ့လၬ": 5181,
      "ဘၪလိၬအိၭ": 5182,
      "ယဲၩ့ခးယဲၩ့": 5183,
      "အနါဖၧၩ့": 5184,
      "ဒိၭနဲၩ့ယၥၭ": 5185,
      "ဘိအၭ": 5186,
      "အထုၬလီၫ": 5187,
      "ထီးယီၩလီၫ": 5188,
      "လၧနအီၪလီၫ": 5189,
      "လၧစဒၫဝံၭအဒိၩ့": 5190,
      "ၥုၭမုခမျၧးအယဟိဝၩ": 5191,
      "လၧနဂးလီၫ": 5192,
      "ခိးအတၩ": 5193,
      "မလ့ၭဖိၪ": 5194,
      "ၦအၫမိၫဖိၪ": 5195,
      "လၧအဂဲးအကၠီၪ့": 5196,
      "စတံ": 5197,
      "အၥၭထၪ့ခဲၩထၪ့": 5198,
      "ခ့ၫရူၬလဖၪ": 5199,
      "ယၩ့ထၪ့အစူၪ": 5200,
      "ဂူၭဆၫ": 5201,
      "ဇဲဒၧၫ့": 5202,
      "မၩလၩ့ဎီးခွံၬ": 5203,
      "ကိၭစီၪ့ဒ့ၭ": 5204,
      "ၡံၫဘၫ": 5205,
      "မွဲအဂဲးဘဲၫၥ့ၪလဲၪ": 5206,
      "စစၫ့စၧၫ့": 5207,
      "အခီၫပယီၫ": 5208,
      "့ၭဒလဲအၫ": 5209,
      "ဒုၪပဒၩ": 5210,
      "ဂံၩ့ဂၩ့": 5211,
      "ဂီၭ": 5212,
      "စလီၭ": 5213,
      "ဇရၧၭ": 5214,
      "န့ၭၥ": 5215,
      "ပဂး": 5216,
      "ယဒၪ": 5217,
      "ယအၪ့": 5218,
      "ယဝ့ၫတၭ": 5219,
      "ယလၩ": 5220,
      "ယအၪ့ကံၩ့": 5221,
      "ယယိလါ": 5222,
      "ယကဆါဧ့": 5223,
      "ယဂဲးယဘၭ": 5224,
      "လဖၧၩ့": 5225,
      "လံၩ့": 5226,
      "အံၭ": 5227,
      "အုၪ့": 5228,
      "အနီၪတၭ": 5229,
      "အၦၡၩ": 5230,
      "အချံၫ": 5231,
      "ၦၥုၭ": 5232,
      "ၦကၫနအၫ့ဖိၪ": 5233,
      "ၦဂၪ့ခိၪဖိၪ": 5234,
      "လၧဖၧၩ့": 5235,
      "ဆၧကဲၪထၪ့": 5236,
      "ဆၧလၧယွၩ": 5237,
      "ဆၧလမံၩ့မံၩ့": 5238,
      "ဆၧမၩ့": 5239,
      "ဝ့ၫဒဲ": 5240,
      "နီၪလၧ": 5241,
      "နီၪဆ့": 5242,
      "လၧအဝ့ၫတၭ": 5243,
      "လၧအစံၭဝ့ၫ": 5244,
      "လၧအၡၩခမျၧး": 5245,
      "ဒဲဖ့ၪလၫ့": 5246,
      "ဒဲလၧပ": 5247,
      "ဒဲမၩၥံၫ": 5248,
      "အီၪန့ၫ": 5249,
      "ဘၪဝ့ၫလီၫ": 5250,
      "ဘၪဧၪ": 5251,
      "မိၬ": 5252,
      "မၩထၪ့ဆၧ": 5253,
      "မၩဘိၭမၩဆၧၩ့": 5254,
      "မွဲဘဲၫ": 5255,
      "မွဲအလ့ၩ": 5256,
      "ဘဲၫၥံၪ့": 5257,
      "လဖုၬ": 5258,
      "အဝ့ၫလဂၩနီၪ": 5259,
      "လဖၪနီၪတၭ": 5260,
      "မုၥၪ": 5261,
      "မုလနံၩနီၪ": 5262,
      "နၥံၪမွဲၦ": 5263,
      "လၧဆၧဂၩ့": 5264,
      "လၧဆၧအခိးအတၩ": 5265,
      "လၧဆၧၥၭဝံလၩ့ဒိၩ": 5266,
      "လၧယဒုၪယဒၩ": 5267,
      "ဝၩစံၭဝ့ၫဒၪ": 5268,
      "ခွံၬဝ့ၫဒၪလီၫ": 5269,
      "န့ဆၧ": 5270,
      "အဝ့ၫၥံၪစံၭဝ့ၫ": 5271,
      "လဂၩအ": 5272,
      "လၧၦယုဒၫဖိၪၥံၪ": 5273,
      "လၧနံၪ့": 5274,
      "ဂဲၫဝ့ၫလၧ": 5275,
      "ယိဆၭ": 5276,
      "အဂဲးဘဲၫယီၩယွၩ": 5277,
      "ထီးအလူၬလၧ": 5278,
      "ထီးအလူၬလဖၪနီၪ": 5279,
      "အခၪ": 5280,
      "အခံၫ့": 5281,
      "ၦလၧအမၩဆၧ": 5282,
      "မၧၫ့နီၪ": 5283,
      "လၧစဘၫ": 5284,
      "ယမိဘၪ": 5285,
      "ယမိဖ့ၪ": 5286,
      "အဝ့ၫဒၪအ့ၪ": 5287,
      "ထံၫဖၧၩ့": 5288,
      "ထံၫထံၫ": 5289,
      "ထံၫလၪ": 5290,
      "ထံၫထၪ့ဖျိၭ": 5291,
      "လၫ့ဝဲ": 5292,
      "အီၪဝ့ၫအၥိၭနီၪ": 5293,
      "ဆၧအွံၪ": 5294,
      "ကယဲၦၡၩ": 5295,
      "ခးဖၧၩ့": 5296,
      "လၧနၥံၪအလီၩ့": 5297,
      "ဒဲၦလံဝဲၫဖိၪ": 5298,
      "ဒဲစမၫ": 5299,
      "ဒိၩ့လဖျိၪ့": 5300,
      "ဂၪ့ခိၪအဝၩ့": 5301,
      "လိၬအိၭလိၬ": 5302,
      "ဝဲထၪ့အၥၭ": 5303,
      "အစူၪဒူၪ": 5304,
      "ၥုၪ့ဆၭ": 5305,
      "စဎွၩၥံၪ": 5306,
      "အၭၡၧၫ": 5307,
      "အၧၩ့နီၪ": 5308,
      "ဆံၫ့ဎံၪလဖၪ": 5309,
      "နၭဇ": 5310,
      "နၭနဲၪ့": 5311,
      "ဆၨၩၥံၪ": 5312,
      "ဆၨၩဒၪဝ့ၫ": 5313,
      "ဖုး": 5314,
      "လၧပကျၩ": 5315,
      "အၪ့မၧၫ့ၦလ့ၩ": 5316,
      "မ့ၬဘျီၪ": 5317,
      "တၭၦဖလံၡၫဖိၪ": 5318,
      "လၧအဝ့ၫၥံၪအဂး": 5319,
      "လီၩဘၪနၥံၪ": 5320,
      "ၥီၪ့ဆၧ": 5321,
      "အမ့ၬထံၫလၩ့": 5322,
      "ၥၭမဲၪအလး": 5323,
      "ၦခမျၧးဖၭဒိၪ": 5324,
      "အဖၧၩ့နီၪး": 5325,
      "ဂဲးဆါ": 5326,
      "နွ့ၫဘျၩ့": 5327,
      "လဘံၪ့လီၫ": 5328,
      "အ့လၭအဖိၪခွၫ": 5329,
      "ရၫမီၭ": 5330,
      "စအဟ": 5331,
      "လ့ၩနုၬဘၪ": 5332,
      "အၪ့ဎၬဝ့ၫ": 5333,
      "မွဲနဆၧ": 5334,
      "ဒီၭတၭ": 5335,
      "နၥံၪအၥၭတၭ": 5336,
      "စယိနၫ": 5337,
      "စပံ": 5338,
      "နဘၪမၩ": 5339,
      "အၪ့မၧၫ့လၩ့ယၧၩ": 5340,
      "ဆိၪဂ့ၩနၧၩ": 5341,
      "အဖၧၩ့ၥၭလီၫ": 5342,
      "ဖီၩ့ဖျ့ၭဝ့ၫ": 5343,
      "လၧအဆၧန့ၥၫ": 5344,
      "အနဲၩ့ထံၭလီၫ": 5345,
      "ကိၭဂၩဒ့ၭနီၪ": 5346,
      "တဲၩ့ဝဲၩဆၧ": 5347,
      "အဂဲးအကၠီၪ့တၭ": 5348,
      "ထၫ့ဒုၪဒၩယၧၩ": 5349,
      "လၧခိၪလီၩ့ထိၩ့ချိၬ": 5350,
      "အီၪက့ၪလၩ့ဝ့ၫ": 5351,
      "အီၪက့ၪလၩ့ဝ့ၫလၧ": 5352,
      "ယ့ၫရမဲအၫ": 5353,
      "က့ၪလၩ့": 5354,
      "ရှုၫအၫ": 5355,
      "လၧဂၪ့ခိၪချိၫ့တၭ": 5356,
      "ယဝ့ၫဒၪယီၩယ": 5357,
      "တၫမၫ": 5358,
      "ချႃၬလၩ့": 5359,
      "ဘိၭကၠၪ": 5360,
      "ထုး": 5361,
      "လၧယအီၪဆံၭ": 5362,
      "အဎၧၩ့အဎီ": 5363,
      "လၧမၫဆမံၭနဲၩ့": 5364,
      "စဘၫလၭ": 5365,
      "ဆူၭခဲၩနၧၫ့မၧၫ့": 5366,
      "ထံၫၥံၪခးၥံၪနီၪ": 5367,
      "ယဲဆံၫလီၫ": 5368,
      "အဆိၩအကၠၪလီၫ": 5369,
      "စဲဟၫ့": 5370,
      "လၧစမနၭစ့ၫ": 5371,
      "ၡၪၥံၪ": 5372,
      "ယူၭဝ့ၫယူၭ": 5373,
      "ၥူၫဝၭခွံၬ": 5374,
      "စၡံမအဲၫ": 5375,
      "ၡံၭတၫ": 5376,
      "စဇ့ၭခရဲအၫ": 5377,
      "ခူၬလၩ့ခွံၬ": 5378,
      "အစူၪလးအခၪ့ခိၪ": 5379,
      "ရဲအၧၭ": 5380,
      "လၧမူၭဖိၭဖၫ့": 5381,
      "စိၭဖျၩအၥၭ": 5382,
      "ကဲၪၥၫ့စဎွၩနီၪ": 5383,
      "ၦလၧယအဲၪဝ့ၫ": 5384,
      "အကျိၭ": 5385,
      "နးစၫရၫ": 5386,
      "ၦစံရအၫဖိၪ": 5387,
      "ဝၪၥံၪ": 5388,
      "ဘၩ့ၥံၪမုး": 5389,
      "ဒနဲယၫ": 5390,
      "ၥံၭထံၫဂၬထံၫ": 5391,
      "ဘုၪမုယီၩ": 5392,
      "ရဘ့ၭကၫ": 5393,
      "ခဲၫ": 5394,
      "စဟၫ့": 5395,
      "နဂဲၫ": 5396,
      "နဘၪဆၧ": 5397,
      "ယမၪလူၬ": 5398,
      "ယဖၩ့": 5399,
      "ရ့": 5400,
      "လဒၪဘၪ": 5401,
      "လအီၪလၧၩ့": 5402,
      "လထူၫ": 5403,
      "အဲ": 5404,
      "ၦလု": 5405,
      "ၦကိၭ": 5406,
      "ၧဇၫ": 5407,
      "လၧလ": 5408,
      "လၧဘၭဘလၧၫ့အစဎွၩ": 5409,
      "ဆၧဖၧၩ့": 5410,
      "ဆၧဖ့ၪ": 5411,
      "ဆၧယိလါ": 5412,
      "ဆၧလၩဖၩ့": 5413,
      "ဝ့ၫထီး": 5414,
      "ဝ့ၫလၧယ": 5415,
      "ဝ့ၫအၥိၭနီၪလီၫ": 5416,
      "နီၪလ": 5417,
      "နီၪအ့ၪ": 5418,
      "လၧအဝ့ၫလီၫ": 5419,
      "လၧအကဆါ": 5420,
      "လၧအဖံၭ": 5421,
      "ဒဲနၧၩ": 5422,
      "အီၪအၪ": 5423,
      "အီၪအ့ၬး": 5424,
      "ဘၪယွၩ": 5425,
      "ဘၪလနံၪ့": 5426,
      "မိစ့ၩရၫ့": 5427,
      "မိဒုၭနဲၪ": 5428,
      "မၩယူၭ": 5429,
      "မွဲလၧၦ": 5430,
      "မွဲကဆါ": 5431,
      "မွဲဘဲၫနီၪၥိၭ": 5432,
      "မွဲအစဲၪ့": 5433,
      "မွဲကဒၪ": 5434,
      "ၥၭခ့ၬ": 5435,
      "ဒၪယီၩ": 5436,
      "ဖိၪအလံၩ": 5437,
      "ဖၧၩ့အၥိၭနီၪ": 5438,
      "အဝ့ၫဆံၭ": 5439,
      "လၩ့နၥၭ": 5440,
      "လၩ့ယံၭ": 5441,
      "အလၬ": 5442,
      "အလိး": 5443,
      "အလိၫ့": 5444,
      "အလဲၪ့ၥုၭ": 5445,
      "အၥၭထိၬ": 5446,
      "လၧဆၧထၪ့ထီၫ": 5447,
      "ဝၩတၭ": 5448,
      "ဝၩနယွၩ": 5449,
      "ထဲၩ့ကဒၩထဲၩ့": 5450,
      "အဝ့ၫၥံၪအ့ၪ": 5451,
      "ယဟိဝၩပယွၩ": 5452,
      "လၧၦယုဒၫဖိၪ": 5453,
      "လၭတၭ": 5454,
      "လၧနနိၭ": 5455,
      "လ့ၩၥိၫ့": 5456,
      "လ့ၩဎဲၪ့": 5457,
      "ထီးအလူၬဆံၭ": 5458,
      "အစဘံၭမု": 5459,
      "ၦလၧအမိ": 5460,
      "မၧၫ့ဝ့ၫနီၪ": 5461,
      "ယမိမၩဂၭဂီၩ့": 5462,
      "ဘၪဆၧစ့ၩရၫ့": 5463,
      "ယၧၩအ့ၬ": 5464,
      "ယၧၩလဂ့ၩ": 5465,
      "အဝ့ၫဒၪစံၭယၧၩ": 5466,
      "ဆၧအထူၫအရူၫ": 5467,
      "နးဖၧၫ့": 5468,
      "မွဲအဖျါ": 5469,
      "လဖၪနီၪး": 5470,
      "ဒဲၦလံဝဲၫဖိၪၥံၪ": 5471,
      "ဝ့ၫလၧခး": 5472,
      "အံၫစရ့လၭထီးအလူၬ": 5473,
      "အ့ၪမွဲနၥံၪဝ့ၫဒၪယီၩ": 5474,
      "ၦၡၩခမျၧး": 5475,
      "ထၪ့ခွံၬဝ့ၫ": 5476,
      "ကၠႃၪ့": 5477,
      "လၧယဟိဝၩအအီၪ": 5478,
      "ဘျဲၪ": 5479,
      "မွဲဆၧဆံၫ့ဎံၪ": 5480,
      "ၥုၪ့ထၪ့": 5481,
      "ၥုၪ့ဖၧၩ့ၥၭ": 5482,
      "ဆံၫ့ဎံၪအဖၧၩ့": 5483,
      "အလီၩ့နီၪလီၫ": 5484,
      "ထိးၥံၫ": 5485,
      "ထိးယၥၭ": 5486,
      "အစဎွၩၥံၪ": 5487,
      "ဝ့ၫလၧအဂံၪ့": 5488,
      "ချဲၩ့ဆၧချဲၩ့": 5489,
      "အမံၩ့လီၫ": 5490,
      "အီၪလၧဒိၩ့": 5491,
      "နါဂၧၫ့ဆၧနီၪ": 5492,
      "အမ့ၬလီၫ": 5493,
      "ၥၭမဲၪဝ့ၫ": 5494,
      "ဆၧနီၪလမံၩ့": 5495,
      "ထီးအမၩ": 5496,
      "မွဲပလ့ၩ": 5497,
      "စယီၭ": 5498,
      "မိအီၪဘၪ": 5499,
      "စဒၫဝံၭတၭ": 5500,
      "လဘံၪ့တၭ": 5501,
      "စအၫ့": 5502,
      "နီၪဆံၭး": 5503,
      "မုနံၩမုနၩ": 5504,
      "လ့ၩနုၬဝ့ၫလၧ": 5505,
      "အၪ့ဎၬန့": 5506,
      "ၦလတီၩ": 5507,
      "ချီၥံၪ": 5508,
      "ထၪ့နစူၪ": 5509,
      "ယ့ၫၡုၬစံၭအဝ့ၫ": 5510,
      "ယဟိဝၩစံၭယၧၩ": 5511,
      "နဆၧၥီၪ့ဆၧၥၫ့": 5512,
      "အၪ့မၧၫ့လၩ့န့": 5513,
      "ဆၧၫ့နၩ့လၧ": 5514,
      "ယမိဒုၭနဲၪ": 5515,
      "လိၬအၥၭတၭ": 5516,
      "လိၬအၥၭလီၫ": 5517,
      "ဆၧအၪ့ၥီၪ့": 5518,
      "အၥီၫ့ၥံၪ": 5519,
      "အနံၪ့ၥၧၫ့ဆံၫ": 5520,
      "လၧအံဖြံၫ့": 5521,
      "ဂူၫဂၩၥံၪ": 5522,
      "ကယဲၦလၧ": 5523,
      "လၧအဂးတၭ": 5524,
      "အုၩ့လၩ့ဆၧ": 5525,
      "အဒီၪ့နီၪ": 5526,
      "လၧယုဒၫအဒိၩ့": 5527,
      "အၥုၪ့ခိ": 5528,
      "အၥုၪ့အုၭ": 5529,
      "အဘၭဆါ": 5530,
      "တၫၡံၭ": 5531,
      "လၧနၭၥံၪ": 5532,
      "အကီၩ့အၥိၭတၭ": 5533,
      "အၪ့ဂူၬဆီၪ့": 5534,
      "မိအၭဖိၪ": 5535,
      "ယူၭဆၧယၪ့": 5536,
      "ဖီၩ့ခွံၬတၭ": 5537,
      "လၧၦအံၫစရ့လၭဖိၪတၭ": 5538,
      "လၧအဖၫ့ခိၪလီၫ": 5539,
      "လၧၦလုဆၧလဖၪ": 5540,
      "အီၪလၧၩ့အ့ၬ": 5541,
      "ၥနိၫလဖၪ": 5542,
      "ထူၭခွံၬ": 5543,
      "လၧမုနုၬလခီၫ": 5544,
      "ဆရၫဧ့": 5545,
      "ၦခိၭဆၧ": 5546,
      "လၧစူၪစ့ၪ": 5547,
      "ံမအၧၫ့": 5548,
      "ယ့ဘုၫ": 5549,
      "စမၭတ": 5550,
      "ထီးမုဂၪလၩ့လီၫ": 5551,
      "လၧဆၧလုဆၧဒဲၩဘၭအဂး": 5552,
      "ကံၪ့": 5553,
      "ကိၩ့": 5554,
      "ကယီၫ": 5555,
      "ဂၧၡၧၫ့": 5556,
      "စၫ့": 5557,
      "စံၩ့": 5558,
      "ထံမ": 5559,
      "နအၭ": 5560,
      "နကဆါ": 5561,
      "ပလ": 5562,
      "ပံတၧၫ": 5563,
      "ဖ့လၭ": 5564,
      "လဎွ့ၩ": 5565,
      "ဝၫ": 5566,
      "အၡၫ": 5567,
      "အယိၬ": 5568,
      "အဎီးမုၪ": 5569,
      "ၦအံၫ": 5570,
      "လၧၥရိၬ": 5571,
      "ဆၧဘဲၫ": 5572,
      "ဆၧအဖၧၩ့": 5573,
      "ဆၧမွဲဂ့ၩ": 5574,
      "ဆၧကိၪ့ၥ့ၪ": 5575,
      "ဆၧလူဒိၪဎွ့ၩဒိၪ": 5576,
      "ဆၧၥၭထိၬအပရၧၫ့": 5577,
      "နီၪဆၧ": 5578,
      "တၭဆၧမၩ": 5579,
      "တၭကယဲၦလၧအ": 5580,
      "လၧအနီၪ": 5581,
      "လၧအဆိၬ": 5582,
      "ဒဲဘၪဆၧ": 5583,
      "ဒဲအမိ": 5584,
      "ဒဲဂံၪ့": 5585,
      "ဒဲနံၫဆံၫ": 5586,
      "အီၪဂုး": 5587,
      "ဘၪလဂၩ": 5588,
      "ဘၪလၧၩ့": 5589,
      "မိစဲၪ့": 5590,
      "မိမၩဆၧ": 5591,
      "မိဂၭဂီၩ့": 5592,
      "မိဂဲၫထၪ့": 5593,
      "မၩမုၬ": 5594,
      "မၩဖၩ့": 5595,
      "မၩထ့ဖၭ": 5596,
      "မွဲလၧဆၧ": 5597,
      "မွဲနၥံၪမိ": 5598,
      "မွဲဘဲၫၥ့ၪလဲၪ": 5599,
      "ၥၭဆၭ": 5600,
      "ဘဲၫၥိၪ": 5601,
      "ဖိၪန": 5602,
      "ဖၧၩ့း": 5603,
      "အဝ့ၫလဂၩယီၩ": 5604,
      "အလခီၫ": 5605,
      "စံၭနၥံၪ": 5606,
      "အၥၭဝီၩ": 5607,
      "လၧဆၧဘၪ": 5608,
      "အၪ့ဒုၪ့": 5609,
      "လၧယဖ့ၪလၫ့": 5610,
      "ချၩ": 5611,
      "အဆၧဖိၪဆၧဎါ": 5612,
      "ထဲၩ့အၥၭ": 5613,
      "အဝ့ၫၥံၪအီၪက့ၪ": 5614,
      "ဂ့ၩဘၪ": 5615,
      "ဖျ့ၪ": 5616,
      "ၥ့ၪနီၪ": 5617,
      "ၥ့ၪနးဂၩအ့ၬ": 5618,
      "အ့ၪဂဲၫ": 5619,
      "လၧၦလဖၪနီၪ": 5620,
      "လၧနီး": 5621,
      "ဒုၭမၩ": 5622,
      "လ့ၩထီၩ့လၧ": 5623,
      "ယိထၪ့ဆၧ": 5624,
      "ယူၭအဝ့ၫၥံၪ": 5625,
      "အဂးတၭး": 5626,
      "ထီးအလူၬအဂး": 5627,
      "ဘဲၫၥိၭအဝ့ၫၥံၪမိ": 5628,
      "ချဲၩ့မုၬ": 5629,
      "ယမိအီၪ": 5630,
      "အဝ့ၫဒၪတၭ": 5631,
      "ၥံၫဝ့ၫနီၪ": 5632,
      "လၫ့ဎွံၩ့": 5633,
      "အီၪဝ့ၫအလး": 5634,
      "ဆၧအူၪ": 5635,
      "နးရၫခ့လၭ": 5636,
      "အနူ": 5637,
      "အနၫ": 5638,
      "ဒဲၦလၧ": 5639,
      "ဒဲၦၥုၪ့က့ၭၥၭၡါ": 5640,
      "အံၫစရ့လၭတၭ": 5641,
      "အ့ၪမွဲနဝ့ၫဒၪယီၩ": 5642,
      "အထိၪ့": 5643,
      "ိၫ့အဖိၪခွၫ": 5644,
      "လၧမုဆဲၪ့": 5645,
      "ဂၪ့ခိၪအမုၬ": 5646,
      "လၧယဟိဝၩပယွၩ": 5647,
      "ဘျၭ": 5648,
      "လၬလီၫ": 5649,
      "လၬနံၫထီၫ့": 5650,
      "ဖါဧ့": 5651,
      "အၥိၭနီၪအ့ၬ": 5652,
      "ၥၫ့တၭ": 5653,
      "ခိၭၥူၪ": 5654,
      "နမိဘၪဆၧ": 5655,
      "လၧအအီၪနီၪ": 5656,
      "ထၧၫ့ဂၩ": 5657,
      "ယၥၭမဲၪ": 5658,
      "အီၪလၧအစူၪ": 5659,
      "မံၫဝ့ၫလၧအ": 5660,
      "မံၫခ့": 5661,
      "စအၫဟဇဲအၫ": 5662,
      "ၡၪ့ဆၧ": 5663,
      "စစီ": 5664,
      "လၧယွၩအဆၧ": 5665,
      "လၧယွၩအဂံၪ့": 5666,
      "မွဲပမိ": 5667,
      "ၦလဒီၪ့": 5668,
      "ထၧၫ့ဖုဝဲခွၫ": 5669,
      "ဖိၪၥၪနီၪ": 5670,
      "ကြၧၫ့": 5671,
      "လ့ၩထၪ့လၧ": 5672,
      "ခိထၪ့": 5673,
      "ဘဲၫဆၧစ့ၩရၫ့": 5674,
      "လဒုၩတၭ": 5675,
      "စမဲ": 5676,
      "စမံ": 5677,
      "လဲထၪ့": 5678,
      "မီၪၥံၪ": 5679,
      "အထၧၫ့ဖုဝဲခွၫ": 5680,
      "ၦလုဆၧၥံၪ": 5681,
      "ကီၩ့အၥိၭ": 5682,
      "စီၩ့နမၩ့": 5683,
      "ၨၭထီၫ": 5684,
      "ချဲၩ့ဆၧၫ့ဝ့ၫတၭ": 5685,
      "စံမအၧၫ့": 5686,
      "စံၭဆၧၫ့ဆၧ": 5687,
      "စအၭဇရဲအၫ": 5688,
      "အခၪ့ထံၭလီၫ": 5689,
      "ဂၫၥၭ": 5690,
      "နံၫဆံၫလီၫ": 5691,
      "ဒုၭအီၪလၩ့ထး": 5692,
      "လၧဂၪ့ခိၪချိၫ့လီၫ": 5693,
      "ဆၭကံၪ": 5694,
      "အနိၭဖျံၩ": 5695,
      "ဘိၭကၠၪခွံၬ": 5696,
      "လၥ့ၪဘၪနီၪ": 5697,
      "ဒူၩယၪ့": 5698,
      "လၧမုနံၩလဖၪ": 5699,
      "မၩဖီၩ့မၩဖျ့ၭယၧၩ": 5700,
      "နၥံၪအယွၩလီၫ": 5701,
      "တၭစဒၫဝံၭစံၭ": 5702,
      "ဘဲၫယဟိဝၩမၪလူၬ": 5703,
      "မွဲဘၪနီၫလၧနၥံၪ": 5704,
      "စတၧၭ": 5705,
      "အလံၬကွ့ၭနဲၪ့ဆၧ": 5706,
      "လကုၬ": 5707,
      "လၧဆၧလုမ့ၪအဂး": 5708,
      "လၧခဲၫ့ထဲၩ့တၭ": 5709,
      "နလူနထၫ": 5710,
      "ချိၪ့ဒိၩ့ၥၪ": 5711,
      "ကျီၫ့ကျီၫ့": 5712,
      "ၥံၪလဲၫ့ၥံၪ": 5713,
      "ထ့ၭထၪ့ခွံၬ": 5714,
      "ၡိၩ့ၡိၬ": 5715,
      "ခဲအၫ": 5716,
      "ဂ့ၬ": 5717,
      "စဘ": 5718,
      "စယ့ၫ": 5719,
      "တလၭမူၭ": 5720,
      "နမွဲယွၩ": 5721,
      "မရဲၫ": 5722,
      "ယံ": 5723,
      "ယအၪ့ကံၩ့အၪ့ယၫ": 5724,
      "ယကွ့ၭန့": 5725,
      "ဝံၬ": 5726,
      "ဝိၬ": 5727,
      "အပၪ": 5728,
      "အၡၪ့လီၫ": 5729,
      "ၦဖိၪဎွ့ၪ": 5730,
      "ၦဟံဘြူၫ": 5731,
      "လၧၥၭမုဆံၫ့ဎံၪ": 5732,
      "လၧဒမၭစကၧၭ": 5733,
      "ဆၧလဖၪယီၩ": 5734,
      "ဆၧဖံၭဆၧယၪ": 5735,
      "တၭဖၫရိၫ": 5736,
      "လၧအမွဲဆၧ": 5737,
      "လၧအဘူၭ": 5738,
      "လၧအဂဲၫထၪ့": 5739,
      "လၧအထၪ့ဖိၪ": 5740,
      "လၧအကြၨၭ": 5741,
      "ဒဲၪ": 5742,
      "ဒဲတရၫ့": 5743,
      "မၩယၧၩ": 5744,
      "မၩဖီၩ့": 5745,
      "မွဲဘဲၫနီၪတၭ": 5746,
      "ထၪ့လၧဆၧ": 5747,
      "ထၪ့ဝ့ၫလၧအ": 5748,
      "ထၪ့ဖျ့ၭ": 5749,
      "ဒၪနၥံၪ": 5750,
      "ထီးနၥံၪအ့ၪ": 5751,
      "အဂူၫ": 5752,
      "လဖၪလဲၪ": 5753,
      "လဖၪအဖၧၩ့လီၫ": 5754,
      "အလၪ": 5755,
      "အလူၪ": 5756,
      "အလချႃၭ": 5757,
      "ဂၩဒ့ၭ": 5758,
      "အၥၭဘဲၫ": 5759,
      "အၥၭလၧဆၧ": 5760,
      "အၥၭခံ": 5761,
      "လၧယကၠီၩ့": 5762,
      "ခွံၬအၥၭ": 5763,
      "အဆၧနီၪ": 5764,
      "အဆၧဝံဆၧနၬ": 5765,
      "ဂ့ၩလီၫ": 5766,
      "လဂၩဒဲလဂၩ": 5767,
      "အ့ၪလအီၪဘၪ": 5768,
      "လၧနမိဘၪ": 5769,
      "လၧနလးခဲၫ့": 5770,
      "လ့ၩမၩ": 5771,
      "ယွၩဒုၭ": 5772,
      "အစဲအၫ": 5773,
      "စရ့ၭ": 5774,
      "အဖၬ": 5775,
      "အဝ့ၫဒၪလဂၩ": 5776,
      "အဝ့ၫဒၪဒုၭ": 5777,
      "ၥံၫအ": 5778,
      "ၥံၫချဲၫ့": 5779,
      "ၥံၫဝ့ၫဒၪလီၫ": 5780,
      "အဖိၪခွၫနီၪ": 5781,
      "အဖိၪခွၫလီၫ": 5782,
      "ထံၫနီၪ": 5783,
      "ထံၫဖိၪ": 5784,
      "အီၪဝ့ၫတၭ": 5785,
      "နးအ": 5786,
      "နးဘီၩ့": 5787,
      "နၫ့ထၪ့": 5788,
      "ိၩဖၧၩ့": 5789,
      "မုၪၥံၪ": 5790,
      "ဖ့ၪလၫ့ဝ့ၫလၧအ": 5791,
      "အၥနိၫ": 5792,
      "နံၫဒီၪ့": 5793,
      "နံၫဘီၩ့": 5794,
      "နံၫဘျၩ့": 5795,
      "ဒဲၦအံၫစရ့လၭဖိၪ": 5796,
      "ဝ့ၫလၧလိး": 5797,
      "လခီၫဒီၪ့": 5798,
      "အမ့ၬယၫဆံၭ": 5799,
      "စ့ၩလဖျိၪ့": 5800,
      "လနံၩအဂး": 5801,
      "ဆံၫ့ဎံၪဝ့ၫ": 5802,
      "နုၬဘၪ": 5803,
      "မၪလူၬဆၧ": 5804,
      "ထိၬၥၭထိၬ": 5805,
      "လၧပဖါ": 5806,
      "အၪ့မၧၫ့ဖိၪ": 5807,
      "ထၧၫ့ၥိၭ": 5808,
      "မိမၩထၪ့": 5809,
      "အမံၩ့တၭ": 5810,
      "ထီးနီၪလဖၧၫ့ၦ": 5811,
      "ဝဲၩယူၭ": 5812,
      "ဒိၭဘၪဆၧကူၭတရံၭ": 5813,
      "မ့ၪလၪ": 5814,
      "အယွၩတၭ": 5815,
      "လၧယွၩအဘၩ့အမုး": 5816,
      "စီၪ့လစီၪ့": 5817,
      "လၧဂၪ့ခိၪမုၬ": 5818,
      "ဒဲအ့": 5819,
      "လံၩမု": 5820,
      "ဝံဝါဝ့ၫ": 5821,
      "ထၪ့ထဲၩ့ဝ့ၫ": 5822,
      "စအိ": 5823,
      "လဖျိၪ့ဎး": 5824,
      "ဎရံၬနီၪ": 5825,
      "ဎရံၬအဖၧၩ့": 5826,
      "ထိၪလၩ့ထံၩဖါ": 5827,
      "ဂုးထၪ့": 5828,
      "ဂုးမၩခၧၫ့": 5829,
      "ဖျီၪထၪ့ဝ့ၫ": 5830,
      "ခိၬနီၪ": 5831,
      "ခိၬတၭ": 5832,
      "ဂဲၫဆိၬထၪ့ခွံၬ": 5833,
      "ဖိးလၧအ": 5834,
      "စပၫ": 5835,
      "အ့ဖိၭ": 5836,
      "နီၪမွဲအ့ၬဧၪ": 5837,
      "မီၪလဂၩ": 5838,
      "ဎုၬဆၧ": 5839,
      "အဆၧၫ့အထီး": 5840,
      "ဒဲအဆၧလုအီၩ": 5841,
      "လၧအလၥ့ၪယၫ": 5842,
      "စဟု": 5843,
      "ဆၧအီၪယူ": 5844,
      "အဖၫ့လၬတၭ": 5845,
      "ဆိၫဆိ": 5846,
      "အီၪကိၩ့အီၪ": 5847,
      "လယၩအခိၪ": 5848,
      "လၧခဲၫ့ထုၬ": 5849,
      "လၧၦလတီၩလလီၩ့ဘၪ": 5850,
      "ဆၧယီၩလဖၪ": 5851,
      "လၧကလကၫ": 5852,
      "လၧအဖၫ့ခိၪတၭ": 5853,
      "ဆၧဖိၪဆၧဎါအဒိၩ့": 5854,
      "ဆူၭထၪ့ခွံၬဝ့ၫ": 5855,
      "အီၪခိၭၥူၪ": 5856,
      "လၧအခၪ့ထံၭနီၪ": 5857,
      "အၦဒိၪဖၭဒိၪလဖၪ": 5858,
      "ဒဲစအံစၭ": 5859,
      "အီၪလၧနၥံၪအၥိၭ": 5860,
      "ကၠၪထဲၩ့အၥၭ": 5861,
      "ၦယိၥိၪ": 5862,
      "လဘၪဘၪ": 5863,
      "ဒ့ၪၥံၪ": 5864,
      "ဒဲအခၪ့ဖျၪ့": 5865,
      "လၧယရုစ": 5866,
      "အစဎွၩလဂၩး": 5867,
      "အဂူၭဖိၫ့": 5868,
      "အၥရဖူၩ": 5869,
      "ဇ့ၫရုၫ": 5870,
      "ၥလဲၩၥၪ": 5871,
      "ကီၩ့ထၪ့ၥိၭ": 5872,
      "အဟၭရှုၫအံရၧၭ": 5873,
      "ကံၪ့ဘျ့ၭ": 5874,
      "ထံမၥံၫ": 5875,
      "ကိၫ": 5876,
      "ခဲၪ": 5877,
      "ခရဲး": 5878,
      "ဂၫ့": 5879,
      "စုၪ": 5880,
      "စဂံဒအၧၫ့": 5881,
      "ဇံၫ": 5882,
      "တံၭ": 5883,
      "နဝ့ၫလီၫ": 5884,
      "နဖၩ့": 5885,
      "နခဲၫ့": 5886,
      "နမုး": 5887,
      "နနိၭ": 5888,
      "နအိ": 5889,
      "ဖၠၫ": 5890,
      "မ့ၫ": 5891,
      "မီၫ": 5892,
      "ယအဲၪ": 5893,
      "လ့": 5894,
      "လ့ၫ": 5895,
      "လမၧၫ့": 5896,
      "ဟၧ": 5897,
      "အဆၨၩ": 5898,
      "အၥံၪမၫ": 5899,
      "ှူၬ": 5900,
      "ၡ့ၫ": 5901,
      "ၡၧလၫ့": 5902,
      "ၡှူၬ": 5903,
      "ၦမၩဆၧ": 5904,
      "လၧကၥ့ၪယီၩ့": 5905,
      "ဆၧထီး": 5906,
      "ဆၧလၧအအီၪ": 5907,
      "ဆၧၥၭထိၬ": 5908,
      "ဆၧစံၭထၪ့အၪ့အူၭ": 5909,
      "ဆၧလၧမုဆၫလနံၩယီၩ": 5910,
      "ဆၧဂဲၫဆၧၩ့": 5911,
      "ဝ့ၫလဂၩ": 5912,
      "နီၪမွဲဘၪလဲၪ": 5913,
      "တၭဘၪ": 5914,
      "လီခၫ့": 5915,
      "လၧအအၪ": 5916,
      "လၧအဂူၫဂၩ": 5917,
      "လၧအၥီၫ့": 5918,
      "လၧအစီၩ့အမၩ့": 5919,
      "ဒဲလၧနၥံၪ": 5920,
      "ဒဲနမိ": 5921,
      "ဒဲအဖါ": 5922,
      "ဒဲဟၫ": 5923,
      "ဒဲထၫ့ဒၩ": 5924,
      "ဒဲချီ": 5925,
      "ဒဲကၥ့ၪယီၩ့": 5926,
      "အီၪနး": 5927,
      "ဘၪခိးဘၪတၩ": 5928,
      "မိမၩန့": 5929,
      "မိထဲၩ့ထဲၩ့": 5930,
      "မွဲလ": 5931,
      "မွဲဆၧအၧၩ့": 5932,
      "မွဲတၡါ": 5933,
      "ၥၭဒူၩ": 5934,
      "ဒၪနီၪ": 5935,
      "ဖိၪထီးအလူၬ": 5936,
      "ထီးစဒၫဝံၭ": 5937,
      "အဝ့ၫနီၪလီၫ": 5938,
      "ဂၩအ့ၬ": 5939,
      "နၥံၪအနၫ့ဆါ": 5940,
      "လၧဆၧမိ": 5941,
      "လၧဆၧဒုၭ": 5942,
      "လၧဆၧထိးထဲၩ့တၩ့ထဲၩ့": 5943,
      "လၧဆၧၥွၪခိၪ": 5944,
      "ခိၪၥူၫ": 5945,
      "အဝ့ၫၥံၪအၥၭ": 5946,
      "အဝ့ၫၥံၪအၪ့": 5947,
      "အဝ့ၫၥံၪထီးအလူၬ": 5948,
      "လဂၩအဂး": 5949,
      "အၥိၭတၭး": 5950,
      "ဖျံၭ": 5951,
      "ဆံၭထုၬ": 5952,
      "လၧၦခွၫ": 5953,
      "လၧၦဂူၫဂၩ": 5954,
      "လၧနလ": 5955,
      "လၧနတရၫ့": 5956,
      "အမူၭ": 5957,
      "အီၪကဒုၩ": 5958,
      "လ့ၩဝ့ၫတၭ": 5959,
      "လ့ၩဝံၩ့ဝၩ့": 5960,
      "လ့ၩကဲၪဎီး": 5961,
      "ယွၩမၩ": 5962,
      "အဖိၪလဖၪ": 5963,
      "ယိဖၧၩ့": 5964,
      "အလူၬတၭ": 5965,
      "ဘဲၫၥိၭၦမိ": 5966,
      "အီၪက့ၪဝ့ၫလၧအ": 5967,
      "အီၪက့ၪမဲ": 5968,
      "ၦလၧအဂဲၫ": 5969,
      "ၦလၧအအၪ့ဎၬ": 5970,
      "လၧစဘံၭမု": 5971,
      "လၧစယီဟၫ့": 5972,
      "ယမိဖ့ၪလၫ့ခွံၬ": 5973,
      "ဘၪဆၧဂၭဂီၩ့": 5974,
      "စရှ": 5975,
      "လုအလး": 5976,
      "လုထၪ့ဝ့ၫ": 5977,
      "ၥံၫယူၭတၭ": 5978,
      "အီၪဝ့ၫအၥိၭနီၪလီၫ": 5979,
      "ဆၧအဎီးအၡၩ": 5980,
      "နးအ့စတၧၫ": 5981,
      "ဆံၫ့ဘၩ့": 5982,
      "အၥွၫ": 5983,
      "အၪနံၩအၪၥၫ့": 5984,
      "စဲၪ့ဝ့ၫ": 5985,
      "ဒဲၦဒိၪဖၭဒိၪ": 5986,
      "ဒဲစနၫ": 5987,
      "ဒဲစဇၫ": 5988,
      "ဒဲစဇံ": 5989,
      "လးနီၪ": 5990,
      "မွဲဂ့ၩတၭ": 5991,
      "ၥၪထၪ့ဆၧ": 5992,
      "လၧမုအဖၫ့လၬ": 5993,
      "လၧမုဂၪ": 5994,
      "တၭစဘၫ": 5995,
      "မၩန့ၦ": 5996,
      "ဂီၩ့ဖိၪ": 5997,
      "လၧယဟိဝၩတၭ": 5998,
      "လၧယဟိဝၩလီၫ": 5999,
      "အံဇၧၫ": 6000,
      "ဂံၪ့နီၪ": 6001,
      "ဂံၪ့ၥံၪ": 6002,
      "ဆီၪ့ဝ့ၫ": 6003,
      "ဆံၫ့ဎံၪနီၪ": 6004,
      "ထီၩ့ဝ့ၫ": 6005,
      "ယုၩ": 6006,
      "ထိးဆၧ": 6007,
      "ဝံၭဎဲၩ့": 6008,
      "ဖၭဒိၪနီၪ": 6009,
      "ဖၭဒိၪၥံၪ": 6010,
      "အလူအ့ၬ": 6011,
      "အီၪလၧအလၩအဖၩ့": 6012,
      "အမံၩ့နီၪ": 6013,
      "ဎီးဖိၪ": 6014,
      "ဒိၭချိၫ့": 6015,
      "အီၪကီၪ့အတဲၩဆံၫ့ဎံၪ": 6016,
      "လီၩဘၪနၧၩ": 6017,
      "ၥၭမဲၪယွၩ": 6018,
      "ခိၭနၪယဟိဝၩအလူ": 6019,
      "ဘၫဘ့လၭ": 6020,
      "နၥၭမၧၫ့": 6021,
      "ထီးအဒၪဘၪ": 6022,
      "ဂဲးနဘၭ": 6023,
      "စီၪ့ဎး": 6024,
      "လၧဂၪ့ခိၪတၭ": 6025,
      "နးဂၩတၭ": 6026,
      "ရၫလီၫ": 6027,
      "ဆၧၫ့ထုၪ့တၭ": 6028,
      "ထၪ့ထီၫလဖၪ": 6029,
      "ဒဲလၧကယဲ": 6030,
      "ခိၬလၩ့": 6031,
      "တရၫ့ၥံၪ": 6032,
      "လၧယရုစလံၫ့တၭ": 6033,
      "လၧယရုစလံၫ့အဖၧၩ့လီၫ": 6034,
      "မိကဲၪထၪ့ဆၧလဆံၫ့ဘၪ": 6035,
      "လၧအလးနီၪလီၫ": 6036,
      "လၧအလးဒၪဝ့ၫ": 6037,
      "ဒဲမၩဖီၩ့မၩဖျ့ၭ": 6038,
      "လၧအံၫစရ့လၭအ": 6039,
      "အခ့ၫအၡၩလဖၪ": 6040,
      "နံၫဂၩလဂၩ": 6041,
      "လၧဆၧလုအဂံၪ့ဖၧၩ့": 6042,
      "အုၭအၭ": 6043,
      "ဆၧအၪ့လီၫ": 6044,
      "ၥိၫ့ယၧၩ": 6045,
      "ထိးထဲၩ့တၩ့": 6046,
      "မိဘၪဆၧဒၪ့ထ့ၬခွံၬ": 6047,
      "ကီၩ့နၥိၭ": 6048,
      "လနံၪ့ဘၪလနံၪ့": 6049,
      "တဲၩ့ဝဲၩယူၭ": 6050,
      "လၧအစူၪဖၧၩ့လီၫ": 6051,
      "ဘ့ၪဖိၪ": 6052,
      "မၩမၪဘၪယူၭ": 6053,
      "ကယဲၦခွၫ": 6054,
      "လၧဒိၩ့ဖၧၩ့တၭ": 6055,
      "အဒီၪ့ၥံၪ": 6056,
      "စဟံၫလကဲအၫ": 6057,
      "ဆၧအီၪပွံၭ": 6058,
      "လထံၪနီၪ": 6059,
      "အဖၫ့လၬနီၪ": 6060,
      "ၥီၫဖၭဒိၪ": 6061,
      "ယရုစလံၫ့ဖိၪ": 6062,
      "လၩ့လၭလဖၪ": 6063,
      "ဂုးခၧၫ့ခၧၫ့": 6064,
      "လၧခီၫ့လီၫ": 6065,
      "ခါခွံၬ": 6066,
      "ဒီၩ့အထ့ၬ": 6067,
      "မၩအၧၩ့မၩနၭ": 6068,
      "ယူၬစိၩ": 6069,
      "ဒံၩခွံၬ": 6070,
      "ထံၩနၥိၭ": 6071,
      "ထံၩထၧၫ့ၥိၭ": 6072,
      "ဇံအိၫ့အဖိၪမုၪ": 6073,
      "ထၧၫ့ဖျိၪ့ယၫလီၫ": 6074,
      "အဲၪ့ၡၫ့": 6075,
      "လုထၪ့ဆၧလု": 6076,
      "လၧအကျၩလီၫ": 6077,
      "တၭနဘၪမၩ": 6078,
      "ခွံၫဆံၫ": 6079,
      "ဆံၬဖၧၩ့": 6080,
      "စအၫမနၧၫ့": 6081,
      "ကံၪကဲၩ့": 6082,
      "စယ့ၭဖၥၫ": 6083,
      "ဖျႃဖၧၩ့": 6084,
      "ခွံၬဝ့ၫလၧလိး": 6085,
      "အၪ့ယိၪဆၧ": 6086,
      "ၦၥၭဘီၩ့": 6087,
      "ဖျိၬဝ့ၫအမံၩ့": 6088,
      "ယမွဲယဟိဝၩလီၫ": 6089,
      "ဖနံၬဖိၪ": 6090,
      "ကိၭအမံၩ့ဒ့ၭ": 6091,
      "လုၭဖုၭ": 6092,
      "ဒိၪဒိၪလ့ၬ": 6093,
      "ပလၫလဂၩလဲၪ": 6094,
      "လဆိဖိၪ": 6095,
      "ထံၩအဖျဲၥံၪ": 6096,
      "ကုၡၫ": 6097,
      "ကဒံၩကဒၩ": 6098,
      "ဘံအၧၫၡံၫဘၫ": 6099,
      "စူၭဆၧဆၫ": 6100,
      "အဖၬဘဲၩ့": 6101,
      "နအိမံၫ": 6102,
      "ထဲၫ့": 6103,
      "ဒီၩ": 6104,
      "ဒအဲၫ": 6105,
      "နဆၧမၩ": 6106,
      "နၧၭ": 6107,
      "နချံၫနၥၪ": 6108,
      "ဖစၧၭ": 6109,
      "မဟ": 6110,
      "မၪ့": 6111,
      "ယရု": 6112,
      "ယအီၪလၧ": 6113,
      "ယအ့ၪလ": 6114,
      "ယ့ၭဇ": 6115,
      "လဂဲး": 6116,
      "အအ့ၪ": 6117,
      "ၥမါ": 6118,
      "ၥွံၫ": 6119,
      "ၦၥ့ၪ": 6120,
      "ဆၧဘၭ": 6121,
      "ဆၧလမံၩ့": 6122,
      "ဆၧၥုၭမု": 6123,
      "ဆၧမၩဆၧၩ့": 6124,
      "ဆၧအစီၩ့အမၩ့": 6125,
      "ဆၧခိဆၧဝီၩ": 6126,
      "ဝ့ၫလဂၩနီၪ": 6127,
      "ဝ့ၫအ့ၬး": 6128,
      "နီၪအဝ့ၫၥံၪ": 6129,
      "နီၪအၥိၭ": 6130,
      "လၧအယွၩ": 6131,
      "လၧအၥံၫ": 6132,
      "လၧအအဲၪ": 6133,
      "လၧအယးဒံၩ့": 6134,
      "ဒဲၥၧၫ့": 6135,
      "ဒဲဆၧအၧၩ့": 6136,
      "ဒဲအဆၧမၩ": 6137,
      "ဒဲအစီၩ့အမၩ့": 6138,
      "ဒဲအၥိၪ": 6139,
      "အီၪလၧမူၭခိၪ": 6140,
      "အီၪဖျီၪထၪ့": 6141,
      "ဘၪထံၭ": 6142,
      "ဘၪၦၡၩ": 6143,
      "ဘၪမိၥ့ၪဧၪ": 6144,
      "မိဂဲထုၪ့": 6145,
      "မိန့ဘၪဆၧ": 6146,
      "မၩဘံၭ": 6147,
      "မၩစံၪစၪ": 6148,
      "မၩမုၬထၪ့ထဲၩ့": 6149,
      "မွဲအဝ့ၫဒၪ": 6150,
      "ၥၭခံဖၧၩ့": 6151,
      "ဘဲၫလၧ": 6152,
      "ဒၪဆၧလၧ": 6153,
      "ဒၪန့ဘၪ": 6154,
      "ဖၧၩ့လဖၪ": 6155,
      "ထီးအက": 6156,
      "ထီးအအီၪ": 6157,
      "လၩ့ထဲၩ့": 6158,
      "လဖၪဆ့": 6159,
      "လၧဆၧဘၪဆဲၫ့": 6160,
      "လၧဆၧၥၭထၪ့": 6161,
      "လၧဆၧစီၩ့ခိၪ": 6162,
      "အၪ့ဎွံ": 6163,
      "လၧယမိမၩ": 6164,
      "လၧယမၪလူၬနၧၩ": 6165,
      "ဝၩဧ့": 6166,
      "ထဲၩ့ထၪ့": 6167,
      "အဝ့ၫၥံၪအ့ၬ": 6168,
      "အဝ့ၫၥံၪနီၪမွဲ": 6169,
      "အၥိၭအ့ၬ": 6170,
      "ၥ့ၪအ့ၬး": 6171,
      "လၧၦၥံၫ": 6172,
      "အမါ": 6173,
      "အမၫ့": 6174,
      "လ့ၩဆၧလၧအ": 6175,
      "ယွၩအလူအထၫ": 6176,
      "ချဲၩ့လိၬအၥၭ": 6177,
      "အီၪက့ၪဒိၪ": 6178,
      "ၦလၧအအၪ့": 6179,
      "လၧစယိအၭ": 6180,
      "အဝ့ၫဒၪလ့ၩ": 6181,
      "အီၪဝ့ၫနီၪ": 6182,
      "ဆၧအဒုၪအဒၩ": 6183,
      "မွဲအဒိၪ": 6184,
      "မွဲအမိမၩ": 6185,
      "အကၠီၩ့း": 6186,
      "အကၠီၩ့မွဲဂ့ၩ": 6187,
      "အကၠီၩ့နီၪဆံၭ": 6188,
      "တီၩလီၫ": 6189,
      "ဖ့ၪလၫ့ဝ့ၫလၧၦ": 6190,
      "လၧနၥံၪအဖၧၩ့": 6191,
      "အမိအမံၩ့မွဲနး": 6192,
      "ဒဲၦဖၫရစံၫ": 6193,
      "ဒဲစဟၫ": 6194,
      "ဒဲဆၧမွဲဆၧတီၩ": 6195,
      "ဒိၩ့လီၫ": 6196,
      "ဝ့ၫလၧပ": 6197,
      "အံၫစရ့လၭလီၫ": 6198,
      "အကျၩမွဲဂ့ၩ": 6199,
      "လးတၭ": 6200,
      "လးခၪ့ခိၪ": 6201,
      "ထံၭလီၫ": 6202,
      "တၭစယိအၭ": 6203,
      "ဂၪ့ခိၪလဝၩ့": 6204,
      "ဂံၪ့လဖျိၪ့": 6205,
      "ဆီၪ့တၭ": 6206,
      "ဆီၪ့လီၫ": 6207,
      "လီၩဆိၩ": 6208,
      "စဎွၩဒၫဝံၭ": 6209,
      "အအီၪဆံၭ": 6210,
      "နၭဆၧၡၪ့": 6211,
      "နမိဒုၭ": 6212,
      "နမိၥ့ၪယၫ": 6213,
      "လၩၡုၪ": 6214,
      "လၧအအီၪဝၬဖီၩ့": 6215,
      "လၧအအီၪလၧအၥိၭ": 6216,
      "ဘဲၫၥိၭအမိလ့ၩ": 6217,
      "လၧပယွၩ": 6218,
      "ထီၫ့ဆံၫ့": 6219,
      "ဖၭဒိၪလဖၪ": 6220,
      "လၩ့ထ့ၬခွံၬ": 6221,
      "အလူလၩ့ဘၪ": 6222,
      "ကွ့ၩ": 6223,
      "လၧအဝ့ၫၥံၪအၥိၭ": 6224,
      "ဒိၭဘၪ": 6225,
      "ဒိၭအၪ့လံၩ့": 6226,
      "လီၩဘၪပၧၩ": 6227,
      "ကျဲၪ့": 6228,
      "ကျ့ၭစ": 6229,
      "ဆၧလၧအဂး": 6230,
      "ဆၧလၧအမၩဝ့ၫ": 6231,
      "ဂဲထုၪ့ထၫ့ဒုၪဒၩ": 6232,
      "ဂဲးအကၠီၪ့": 6233,
      "နွ့ၫဘံၪ့လဘံၪ့": 6234,
      "ဒဲနၡၩ": 6235,
      "ချဲၫ့ချံၭ": 6236,
      "ထိၪဂဲထုၪ့": 6237,
      "ထၫ့ဒၩယၧၩ": 6238,
      "ယဆၧမၪလူၬ": 6239,
      "ယဆၧစ့ၩရၫ့": 6240,
      "အဝ့ၫနီၪမွဲ": 6241,
      "ဖျီၪထၪ့ဆၧ": 6242,
      "ခိၬထံၭခိၪ": 6243,
      "အီၩဘၪ": 6244,
      "ဂဲၫဆိၬန့": 6245,
      "စယိရၫ့": 6246,
      "စယိၥၫ့": 6247,
      "ထီးဒၪအၥၭ": 6248,
      "ဖိၪၥၪမုၪ": 6249,
      "မၩဝ့ၫဘဲၫနီၪ": 6250,
      "ဝၭဝ့ၫ": 6251,
      "မိကဲၪထၪ့ၦ": 6252,
      "လၧအလးဆီၩ့ဆီ": 6253,
      "နဆၧမၪလူၬ": 6254,
      "လစီၪ့ဎးလီၫ": 6255,
      "လစီၪ့လါလါနီၪ": 6256,
      "ဒၧၩ့ထၪ့တၭ": 6257,
      "အယီၩမွဲၦ": 6258,
      "န့ၥၫဆၧ": 6259,
      "အမၫနး": 6260,
      "လၧအမၩမၪ": 6261,
      "လဆံၫနံၫဂၩ": 6262,
      "ကီၩ့ဒုၭၥိၭ": 6263,
      "အခိးအတၩနီၪ": 6264,
      "စီၩ့ဒိၪ": 6265,
      "စီၩ့ဆၧမၩ့": 6266,
      "ဒဲအဆၧဖိၪဆၧလံၩ": 6267,
      "စံစၧၫ": 6268,
      "အဂ့ၩထုၬ": 6269,
      "ထၭခိၪ": 6270,
      "ဖၫ့ခိၪတၭ": 6271,
      "ဂၫဇၫ": 6272,
      "လၧမ့ၪဒိၩ့": 6273,
      "ခံၭလၩ့": 6274,
      "ဒုၭအီၪထၪ့ဆၧ": 6275,
      "ဒုၪဒွ့ၪအလး": 6276,
      "ပျီၩပျီၩတၭ": 6277,
      "လထံၪဎးလီၫ": 6278,
      "လမွဲဘၪဧၪ": 6279,
      "အီၪဖျဲၪဝ့ၫ": 6280,
      "ဆၧအလးနီၪ": 6281,
      "ၥၭမုနီၪ": 6282,
      "လၥ့ၪဘၪတၭ": 6283,
      "ဂုၪဝ့ၫ": 6284,
      "လၧနစူၪဖၧၩ့လီၫ": 6285,
      "လၧၥိၪဖၫ": 6286,
      "စၧၩ့ထၬဝ့ၫ": 6287,
      "စဘၫရၧၭ": 6288,
      "အမ့ၬၥၪၥံၪ": 6289,
      "ဒဲၥိၪဖၫ": 6290,
      "လ့ၩလၩ့လၧ": 6291,
      "အမုအလၩ": 6292,
      "ဆၧၥုၭမုခမျၧးအယဟိဝၩစံၭဝ့ၫဒၪ": 6293,
      "ၥၧၫ့ဂၩလီၫ": 6294,
      "ၥၧၫ့ဂၩလဂၩ": 6295,
      "လၨၪခၫ့ဖၬ": 6296,
      "ဎဲၫ့ထၪ့ခွံၬ": 6297,
      "လၧယၥၭခံဖၧၩ့": 6298,
      "ခံၫဘၩ့": 6299,
      "ဎံၫလၩ": 6300,
      "ဆၧဂၩ့ဆၧဖၪ့": 6301,
      "မွဲအကိၭ": 6302,
      "လၧဆၧနဲၩအကၠီၩ့": 6303,
      "မၩဂ့ၩထၪ့ဆၧ": 6304,
      "ရိမၫ": 6305,
      "နီၫ့ယါလၩ့ထဲၩ့အၥၭ": 6306,
      "ၥၧၫ့နံၩလနံၩ": 6307,
      "စအ့ဇရၫ": 6308,
      "ထိၪ့ဆၧဖံၭ": 6309,
      "ရှုၡၫ့": 6310,
      "စံၭထၪ့အၪ့အူၭယွၩဆံၭ": 6311,
      "နးဆံၭအ့ၬ": 6312,
      "စဘံၫ့နအဲအၫ": 6313,
      "့ၫမအဲအၫ": 6314,
      "ဆံၭဒိၪလဲၪ": 6315,
      "ဖလံၡၫဖိၪၥံၪ": 6316,
      "ယၩ့ထၪ့အၥၭ": 6317,
      "ၥိၪလနံၪ့ဖိၪ": 6318,
      "စယုဒၭ": 6319,
      "ၥံၫ့နံၩချီၩ့": 6320,
      "ဂဲထုၪ့ဂီၩဂီၩတၭ": 6321,
      "ထီးမုဆၫလနံၩယီၩလီၫ": 6322,
      "စဒိနအၫ": 6323,
      "လုးခိၪ": 6324,
      "ဆုးလီၩ့": 6325,
      "ခံၫထူၬဆၫအၧၩ့": 6326,
      "အီၪကွ့ၭအၥၭ": 6327,
      "မွဲကဒၪယူၭ": 6328,
      "ဖိၪနလံၩ": 6329,
      "ဂ့ၭ": 6330,
      "စတၫ": 6331,
      "တအီၭ": 6332,
      "ဒီၫ": 6333,
      "ဒရဲအၧၭ": 6334,
      "နအၪ့": 6335,
      "ပဒၪဘၪ": 6336,
      "ပယိလါ": 6337,
      "ဘူၪ": 6338,
      "ယနဲၩ": 6339,
      "ယဒၪဘၪဆၧ": 6340,
      "ယထၫ": 6341,
      "ယနါဂၧၫ့ဆၧ": 6342,
      "အဆံၫ့": 6343,
      "အိၫ": 6344,
      "အဒၧၩ့လး": 6345,
      "အၡ့ရိၫ": 6346,
      "ံဇံၭ": 6347,
      "ၡိၫ့": 6348,
      "ၦစံၭ": 6349,
      "ၦကိၪ့ၥ့ၪ": 6350,
      "ၦၡၪ့ဖိၪ": 6351,
      "လၧကွံၩ": 6352,
      "လၧလ့ၭဘနၧၫ့": 6353,
      "ဆၧကိၭ": 6354,
      "ဆၧဘိၪ့": 6355,
      "ဆၧထိးအၥၭ": 6356,
      "ဆၧမ့ၬမဲ": 6357,
      "ဝ့ၫယူၭ": 6358,
      "တၭဒိၩ့": 6359,
      "တၭလၧမု": 6360,
      "တၭယမိမၩ": 6361,
      "လၧအဖိၪ": 6362,
      "ဒဲမၩန့": 6363,
      "ဒဲလၧယုဒၫ": 6364,
      "အီၪနးမံၩ့အ့ၬ": 6365,
      "ဘၪၥၭ": 6366,
      "ဘၪဎွံၪ": 6367,
      "မိစဲၪ့ထၪ့ခွံၬ": 6368,
      "မိဖ့ၪလၫ့ခွံၬ": 6369,
      "မၩထံၬထၬ": 6370,
      "ၥၭခံ": 6371,
      "ထၪ့နၥံၪ": 6372,
      "ဘဲၫအဖါ": 6373,
      "ဘဲၫမူၭခိၪ": 6374,
      "ဘဲၫယဟိဝၩအလူ": 6375,
      "ထီးယဟိဝၩ": 6376,
      "ထီးန့ဘၪ": 6377,
      "ထီးအနါဂၧၫ့": 6378,
      "အဝ့ၫမိ": 6379,
      "အဂဲ": 6380,
      "ယီၩပ": 6381,
      "မုဂီၩ": 6382,
      "နၥံၪဒၪဘၪ": 6383,
      "နၥံၪမိအီၪ": 6384,
      "စံၭယူၭ": 6385,
      "အၥၭလၧထံၫ": 6386,
      "အၥၭအီၪအ့ၬ": 6387,
      "လၧဆၧအဲၪ": 6388,
      "လၧဆၧကိၪ့ၥ့ၪ": 6389,
      "လၧဆၧယိလါ": 6390,
      "ခွံၬနၥံၪ": 6391,
      "အဝ့ၫၥံၪလ": 6392,
      "အဂဲးဆါ": 6393,
      "ဖျိၩ့": 6394,
      "လၧၦဘၪဆၧ": 6395,
      "လၧနထၧၫ့ဖုဝဲ": 6396,
      "လၧနဒုၪနဒၩ": 6397,
      "အၫစၫ": 6398,
      "ယွၩအတလၫ": 6399,
      "ယိနဲၪ့": 6400,
      "ယိၥိၪ": 6401,
      "အဂဲးဘဲၫယီၩအဝ့ၫဒၪ": 6402,
      "အလူၬနီၪ": 6403,
      "မံၩ့လဲၪ": 6404,
      "အီၪက့ၪယၧၩ": 6405,
      "အီၪက့ၪထၪ့ဝ့ၫ": 6406,
      "မၧၫ့ထၪ့": 6407,
      "လၧစဘံၭ": 6408,
      "လၧစယ့ၭ": 6409,
      "အလးမံၫ": 6410,
      "ယမိချဲၩ့ဆၧ": 6411,
      "ယမိစံၭထၪ့အၪ့အူၭ": 6412,
      "ဘၪဆၧနးမံၩ့": 6413,
      "စရၭ": 6414,
      "အဖ့ၪလၫ့": 6415,
      "အဝ့ၫဒၪချဲၩ့ဆၧ": 6416,
      "ဆၧအဒိၪ": 6417,
      "နးဘံၪ့": 6418,
      "ဘၭဆါ": 6419,
      "ဧ့း": 6420,
      "မုၪမၩမၪခွၫ": 6421,
      "တီၩဝ့ၫ": 6422,
      "လၧနၥံၪအကၠီၩ့": 6423,
      "ဒဲၦပၧၩ့": 6424,
      "ဒဲၦပံ": 6425,
      "ဒဲစယၫကူၭ": 6426,
      "ဒဲစၡံ": 6427,
      "ဒဲဆၧအီၪကီၪ့": 6428,
      "ဒဲဆၧတီၩဆၧလီၩ့": 6429,
      "ဒဲဆၧအစီၩ့အမၩ့": 6430,
      "အထိၭ": 6431,
      "ၦၡၩအ": 6432,
      "ၦၡၩအ့ၪ": 6433,
      "မၩန့ဘၪ": 6434,
      "ဂၭဝံၩ့ဝၩ့": 6435,
      "ၥုၪ့ခါ": 6436,
      "စဎွၩတၭ": 6437,
      "အၥိၭနီၪလဂ့ၩ": 6438,
      "ကဆါနီၪ": 6439,
      "လၫခံၭ": 6440,
      "လၩၥၧၫ့": 6441,
      "လၩလဘံၪ့": 6442,
      "လၧၫ့ဆၧဎွ့ၩ": 6443,
      "ဆိၩလၩ့ကၠၪ": 6444,
      "လၧအအီၪဖျဲၪ": 6445,
      "လဖၧၫ့တၭ": 6446,
      "အခိၪထိၭ": 6447,
      "စ့ၩရၫ့တီၩ": 6448,
      "ယၥၭလီၫ": 6449,
      "ကၠၪပဲၩ": 6450,
      "ကၠၪဒိၭချိၫ့": 6451,
      "မွဲၦခမျၧး": 6452,
      "လၧအဝ့ၫၥံၪနီၪ": 6453,
      "လၧအဝ့ၫၥံၪတၭ": 6454,
      "လၧအဝ့ၫၥံၪလီၫ": 6455,
      "ထီးနီၪလဖၧၫ့ယ": 6456,
      "ဝ့ၫနီၪး": 6457,
      "မၬတၭ": 6458,
      "ရှုၭ": 6459,
      "မ့ၪအၧၩ့": 6460,
      "မ့ၪအၪ့ခွံၬ": 6461,
      "လုဆၧလဖၪ": 6462,
      "မိဘၪထိး": 6463,
      "စစံမအၧၫ့": 6464,
      "ၥၭမဲၪယဟိဝၩ": 6465,
      "နၫတၭ": 6466,
      "အၪ့အွံၪ": 6467,
      "မိအီၪထၪ့": 6468,
      "ဖၧၩ့ၥၭနီၪ": 6469,
      "ယၩၥံၪ": 6470,
      "အ့လၭနီၪ": 6471,
      "စအီ": 6472,
      "စအဟံ": 6473,
      "လဖျိၪ့လီၫ": 6474,
      "ခၧၫ့ထၪ့": 6475,
      "ဎရံၬအဆၧ": 6476,
      "ထၫ့ဒၩအဝ့ၫ": 6477,
      "အၪ့အူၭထၪ့": 6478,
      "ဘဲၫၥ့ၪလဲၪၬ": 6479,
      "ဂုးဂုးခၧၫ့ခၧၫ့": 6480,
      "အဝ့ၫနီၪစံၭဝ့ၫဒၪ": 6481,
      "လအီၪဘၪလၧမံၪ": 6482,
      "ၦလတီၩလလီၩ့ဘၪနီၪ": 6483,
      "နၥံၪအၥၭလၧ": 6484,
      "အီၩစဘံၭထံၫ": 6485,
      "ထီးဒၪအ": 6486,
      "ထၧၫ့ဖုဝဲၥံၪဧ့": 6487,
      "န့ဘၪယူၭ": 6488,
      "အံဇံၭအစဎွၩ": 6489,
      "လၩ့အၥၭလၧ": 6490,
      "အထီထီးနီၪ": 6491,
      "လၧအၥၭဘၪ့": 6492,
      "နဘၪမၩန့": 6493,
      "တၭအဝ့ၫၥံၪမိ": 6494,
      "လၧအံၫစရ့လၭအဖၫ့ခိၪ": 6495,
      "ၦလဂၩအ့ၪ": 6496,
      "န့ၫစၩ့": 6497,
      "နံၫဂၩလူၬလီၫ": 6498,
      "နီၪမွဲအ့ၬ": 6499,
      "အယီၩလဂၩ": 6500,
      "လဂၩလဲၪနီၪ": 6501,
      "မီၪအချိၬ": 6502,
      "ဖီၩ့ဖျ့ၭဆၧ": 6503,
      "အဖိၪမုၪလီၫ": 6504,
      "အဖိၪမုၪနး": 6505,
      "အဖိၪခွၫၥံၪနီၪ": 6506,
      "အဖိၪခွၫၥံၪလီၫ": 6507,
      "ဇၫရ": 6508,
      "လဆံၫဎိၭ": 6509,
      "ထီးန့ဝ့ၫ": 6510,
      "အနဲၩ့ထံၭနီၪလီၫ": 6511,
      "တၭယဝ့ၫဒၪယီၩ": 6512,
      "စအံၡမၫအ့လၭ": 6513,
      "လနံၪ့နီၪ": 6514,
      "ဎူၫနံၩ": 6515,
      "လၧအစူၪထွ့ၪ": 6516,
      "ခွံၬၡိၭခွံၬဝ့ၫ": 6517,
      "လၩ့ဆိၩလၩ့": 6518,
      "ဆီၩ့ဆီထၪ့": 6519,
      "လၧနမ့ၬယၫဆံၭ": 6520,
      "ဘိၭထၪ့": 6521,
      "လၧဆၧမၩနဲၪ့": 6522,
      "နိၪထိၭ": 6523,
      "ဂဲၩလိၬ": 6524,
      "လမံၩ့မံၩ့တၭ": 6525,
      "အၥွံၪနီၪ": 6526,
      "ထုၫ့ကီၪ့": 6527,
      "ဒံဒၧၫ့": 6528,
      "အၥီၫနီၪ": 6529,
      "ဝံထၪ့နၬထၪ့အၥိၭ": 6530,
      "အဆၧလုမ့ၪ": 6531,
      "လၩ့ထံးလၩ့": 6532,
      "အမုလနံၩနီၪ": 6533,
      "ဆဲၩလၩ့": 6534,
      "လၧတဝၫ့": 6535,
      "ဆၧအီၪကီၪ့အတဲၩဆံၫ့ဎံၪ": 6536,
      "လၧယမ့ၬယၫလီၫ": 6537,
      "တ့ၭလိၬအၥၭ": 6538,
      "တၭစမိစ့ၭစံၭ": 6539,
      "ထီၩ့လၩ့လၧ": 6540,
      "လၧအကျၩနီၪ": 6541,
      "အွံၪဆၧယိၭ": 6542,
      "လၩ့ဎီးခွံၬ": 6543,
      "အီၪလၧအၥိၭလီၫ": 6544,
      "လၧဆၧအလးဆံၫ့ဎံၪ": 6545,
      "ဆၧၥံၫချဲၫ့": 6546,
      "နဲအၫအဖိၪခွၫ": 6547,
      "လၧစပီလူၫ": 6548,
      "မွဲအဘၪဆၧဆိၪအၧၩ့": 6549,
      "ယလီၩဘၪနၥံၪတီၩတီၩယီၩ": 6550,
      "ကဲဂီၩလနံၩ": 6551,
      "ယၩ့ထၪ့ယစူၪ": 6552,
      "လၧထၭလခီၫ": 6553,
      "အီၪက့ၪဆံၫ့ဎံၪဝ့ၫ": 6554,
      "ဘၪစီၪ": 6555,
      "စယိၫဟၫနၫ့": 6556,
      "လံၩလံၩနီၪ": 6557,
      "ယယိဆၧတၭ": 6558,
      "လၧဆၧယီၩလမံၩ့": 6559,
      "မနၭစ့ၫဖိၪ": 6560,
      "လၧၫ့ထၪ့ဎွ့ၩထၪ့ဝ့ၫ": 6561,
      "လၧဂီၩလခီၫ": 6562,
      "ကံၩ့အၪ့ယၫ": 6563,
      "ဒဲအတဝၫ့လဖၪ": 6564,
      "ဘၪဆိၪဂ့ၩဝ့ၫလီၫ": 6565,
      "လယၪ့ဘၪ": 6566,
      "ဒဲဆၧအီၪဖီၩ့အနဲၩ့ထံၭဝၬဝၬ": 6567,
      "ဆံၬၥံၪနၩၥံၪ": 6568,
      "ယမၧၫ့ယဝ့ၫ": 6569,
      "ယိထံၫယိဆၭ": 6570,
      "နၭဇရ့ၭဖိၪ": 6571,
      "ထိးၥံၫအၥၭ": 6572,
      "အၥုၪ့ခိအၥၭဝီၩ": 6573,
      "ဆၧအူၪဆၧပီၩ": 6574,
      "ဝိၬလိၫ့": 6575,
      "ယုၩယါ": 6576,
      "ကျ့ၭစၨၭ": 6577,
      "က့ၫ": 6578,
      "ဂ့": 6579,
      "စဘ့ၫ": 6580,
      "ဇရၧၫ့": 6581,
      "တ့": 6582,
      "တဲၫ": 6583,
      "နခး": 6584,
      "နချဲၩ့ဆၧ": 6585,
      "ပၭ": 6586,
      "မအၭ": 6587,
      "မၧၭ": 6588,
      "ယဖိၪ": 6589,
      "ယကိၭ": 6590,
      "ယဆၧမၩ": 6591,
      "ယဎွံၪ": 6592,
      "လမဲ": 6593,
      "အၡက့လၭ": 6594,
      "ၡဒီၭ": 6595,
      "ၥဲ": 6596,
      "ၦအီၪဝ့ၫလၧ": 6597,
      "ၧကီၭ": 6598,
      "လၧချီ": 6599,
      "လၧကၥ့ၪ": 6600,
      "လၧဘ့ၪ": 6601,
      "ဆၧလဂၩနီၪ": 6602,
      "ဆၧအီၪလၧ": 6603,
      "ဆၧထီးအလူၬနီၪ": 6604,
      "ဆၧနးမံၩ့အ့ၬ": 6605,
      "ဆၧလမံၩ့ယီၩ": 6606,
      "ဆၧလၧမုနံၩလဖၪနီၪ": 6607,
      "နီၪမိအီၪ": 6608,
      "တၭဒုၭ": 6609,
      "တၭခး": 6610,
      "ၥံၪမွဲ": 6611,
      "လၧအအီၪက့ၪ": 6612,
      "လၧအနဲၩ့": 6613,
      "လၧအဆၧၫ့နၩ့": 6614,
      "လၧအလၩ့ဘၪ": 6615,
      "ဒဲအစူၪ": 6616,
      "ဒဲမိမၩ": 6617,
      "ဒဲလၧအစူၪ": 6618,
      "ဒဲမ့ၪဒိၩ့": 6619,
      "အီၪခီၫခီၫလဲၪ": 6620,
      "အီၪလၧယၥိၭ": 6621,
      "မိလူၬ": 6622,
      "မိခိၭနၪ": 6623,
      "မိပၧၩ့": 6624,
      "မိန့ၥၫ": 6625,
      "မိလၩ့မါ": 6626,
      "မၩဝ့ၫလၧ": 6627,
      "မၩနဲၪ့": 6628,
      "မၩနၧၩ့": 6629,
      "မွဲလၧအ": 6630,
      "မွဲအဆၧ": 6631,
      "ဘဲၫလိး": 6632,
      "ံၫရ": 6633,
      "ဒၪတၭ": 6634,
      "ဒၪခွံၬ": 6635,
      "ဖၧၩ့နီၪတၭ": 6636,
      "ထီးစံၭ": 6637,
      "ထီးလၩ့ဘၪ": 6638,
      "လၩ့လၧ": 6639,
      "လၩ့နၥံၪအၥၭ": 6640,
      "ၥိၭအထီး": 6641,
      "အလၫ": 6642,
      "အလဲၪ့": 6643,
      "မုအလၩ": 6644,
      "စံၭအဝ့ၫနီၪ": 6645,
      "စံၭဝဲၩဝ့ၫ": 6646,
      "အၥၭခံဖၧၩ့": 6647,
      "လၧဆၧမၪ": 6648,
      "လၧဆၧခိ": 6649,
      "လၧဆၧမံၫမး": 6650,
      "အၪ့လီး": 6651,
      "လၧယမ့ၬ": 6652,
      "လၧယခ့ၫယၡၩ": 6653,
      "ဝၩစံၭဘဲၫယီၩ": 6654,
      "ဟိရ့ၭ": 6655,
      "ခိၪချိၫ့": 6656,
      "အဆၧဂ့ၩ": 6657,
      "အဆၧဒုၪဒွ့ၪ": 6658,
      "အဝ့ၫၥံၪၥ့ၪယၫ": 6659,
      "အဝ့ၫၥံၪခိၭနၪ": 6660,
      "အဖၧၩ့နီၪတၭ": 6661,
      "အဖၧၩ့မွဲဂ့ၩ": 6662,
      "အဖၧၩ့တၭး": 6663,
      "ယဟိဝၩအမ့ၬယၫ": 6664,
      "လၧၦထီးအလူၬ": 6665,
      "လၧၦလုဆၧအ": 6666,
      "လၧၦအံဇံၭဖိၪ": 6667,
      "ဝ့ၫဒၪး": 6668,
      "လၧနၡၩ": 6669,
      "လၧနအီၪက့ၪ": 6670,
      "လၧနနဲၩ့ထံၭ": 6671,
      "အၫတ": 6672,
      "လီၩ့ဝ့ၫ": 6673,
      "ဒုၭစဲၪ့": 6674,
      "လ့ၩဒုၭ": 6675,
      "ဂဲၫထီၩ့လၧ": 6676,
      "ယူၭပၧၩ": 6677,
      "အဂးဆ့လီၫ": 6678,
      "ချဲၩ့ဝ့ၫ": 6679,
      "အခိၭ": 6680,
      "အစဘံၭထံၫ": 6681,
      "မၧၫ့ဖိၪၥံၪ": 6682,
      "အလးအီၪအ့ၬ": 6683,
      "ယမိအၪ့": 6684,
      "ယမိဒၪ့ထ့ၬခွံၬ": 6685,
      "ဘၪဆၧၡၪ့ဆၧနၭ": 6686,
      "ယၧၩလၧန": 6687,
      "အဖီၫ": 6688,
      "လုၫ": 6689,
      "အဝ့ၫဒၪအ": 6690,
      "အဝ့ၫဒၪအီၪ": 6691,
      "ယဲနံၪ့တၭ": 6692,
      "ူၫလၩ့": 6693,
      "ဆၧအဒီၪ့": 6694,
      "မွဲအစံၭ": 6695,
      "ဆၧၫ့ဆၧ": 6696,
      "မုၪမဲၫ": 6697,
      "ဂၪ့ကိၭ": 6698,
      "ဖ့ၪလၫ့အခီၫ့": 6699,
      "အၪထၪ့ဝ့ၫ": 6700,
      "အၪထၪ့န": 6701,
      "ဒဲၦၥုၭဖိၪ": 6702,
      "ဒဲစယိ": 6703,
      "ဒဲစဇ့ၭ": 6704,
      "ဒဲစယီဟၫ့": 6705,
      "ဒဲဆၧၥွံၪ": 6706,
      "ဝ့ၫလၧခိၪလီၩ့": 6707,
      "အံၫစရ့လၭနီၪ": 6708,
      "လခီၫဘၩ့မုး": 6709,
      "အထွ့ၫ": 6710,
      "တၭစယိ": 6711,
      "ိၫဖ့လၭ": 6712,
      "ဘိၩ့အလချႃၭ": 6713,
      "စဎွၩလီၫ": 6714,
      "စဎွၩလဖၪ": 6715,
      "လၬကျၩ": 6716,
      "ၥၧၫ့ဘျၩ့": 6717,
      "ၥၫ့ထဲၩ့": 6718,
      "လၫဘၫ့": 6719,
      "ဘဲၫၥိၭအမိကဲၪထၪ့": 6720,
      "နါဖၧၩ့": 6721,
      "ကိၪ့လိၬ": 6722,
      "နၪဝ့ၫ": 6723,
      "ထၧၫ့ဒိၩ့": 6724,
      "ဂၭဂီၩ့ယူၭ": 6725,
      "ကၠၪလီၩ့": 6726,
      "အလူၥီၫ": 6727,
      "မိမၩဝ့ၫ": 6728,
      "အီၪလၧအနဲၩ့ထံၭ": 6729,
      "တၭၦအၫ": 6730,
      "ဆၧမၩၥံၫ": 6731,
      "ဘၩ့နမုး": 6732,
      "ဝ့ၫနီၪဆံၭ": 6733,
      "မံၫဝ့ၫ": 6734,
      "လီၩဘၪဝဲၩ": 6735,
      "ကျၭ": 6736,
      "နၥၭဆံၭ": 6737,
      "ဖၪတၭ": 6738,
      "ဂဲးလီၫ": 6739,
      "ဂဲးဆၧဘၭ": 6740,
      "အဲၪဒိၭ": 6741,
      "နွ့ၫထီၫ့": 6742,
      "လၧဂၪ့ခိၪလီၫ": 6743,
      "စဲၪ့ထၪ့ခွံၬထီးနီၪ": 6744,
      "ဖျါလီၫ": 6745,
      "နဲၩဘၪ": 6746,
      "လၧထံၫထၪ့ဖျိၭ": 6747,
      "ဟၫဂၫ": 6748,
      "ထၫ့ဒၩဝ့ၫ": 6749,
      "ယဆၧၥီၪ့ဆၧၥၫ့": 6750,
      "ဒီၭယၧၩတၭ": 6751,
      "ဘူၭထၪ့": 6752,
      "လၧစဎွၩအ": 6753,
      "အ့ၪလမွဲ": 6754,
      "ဂဲၫဆိၬထၪ့": 6755,
      "ဆၧမိကိၭ": 6756,
      "လ့ၩထၪ့တၭ": 6757,
      "ဝၭတ့ၭ": 6758,
      "ယ့ၫၡုၬချဲၩ့ဆၧၫ့": 6759,
      "ယ့ၫၡုၬချဲၩ့ဆၧၫ့ဆၧတၭ": 6760,
      "အ့စရိၫ": 6761,
      "နံၫဂၩလူၬ": 6762,
      "လၧမူၭခိၪလီၫ": 6763,
      "ဝဲၫဖိၪ": 6764,
      "လၧအမၩဘိၪ့": 6765,
      "တၡါဝ့ၫလီၫ": 6766,
      "ဒုၭနဲၪဝ့ၫ": 6767,
      "လၧခိၪလီၩ့ခိၪ": 6768,
      "ဆၧလၥ့ၪ": 6769,
      "စအၭဇ": 6770,
      "မံၫ့ၥုၪ့မံၫ့": 6771,
      "လလီၩ့ဘၪ": 6772,
      "ဒုၭအီၪပွံၭ": 6773,
      "ပွံၭအၥၭ": 6774,
      "လၧယၧၩလီၫ": 6775,
      "ဒဲနၥံၪအဆၧ": 6776,
      "မၩလၩ့ဖၭ": 6777,
      "အဎၫ့": 6778,
      "အဆၧၫ့အထီထီးနီၪ": 6779,
      "အ့ၪမွဲၦအဂီၩ့": 6780,
      "ကၪယူၭ": 6781,
      "အဲအၫအဖိၪခွၫ": 6782,
      "ယိၬဖၧၩ့": 6783,
      "ယၥ့ၪယၫအ့ၬ": 6784,
      "မိၥ့ၪလဂၩလဲၪ": 6785,
      "ၥၧၫ့ဆံၫလီၫ": 6786,
      "ဖ့ၬထ့ၬ": 6787,
      "စဲရၧၭ": 6788,
      "ၡိၫအ့ရ့ၭ": 6789,
      "လၧဆၧအီၪကီၪ့အတဲၩ": 6790,
      "လၧဆၧအီၪကီၪ့အတဲၩဆံၫ့ဎံၪ": 6791,
      "အဘိၩ့ဆၧၩ့တၭ": 6792,
      "လအ့ဖၭ": 6793,
      "လထီၫ့အခိၪ": 6794,
      "လၧနၥၭခံဖၧၩ့": 6795,
      "နံၫဘံၪ့လဘံၪ့": 6796,
      "လဂၩဎးတၭ": 6797,
      "ဆူၪဆၧမဲၪ": 6798,
      "လၧမုဆၫလခီၫ": 6799,
      "တၭၦခမျၧးထီးအလူၬ": 6800,
      "လုၬဘံၭဆၧ": 6801,
      "စဂၧၡၧၫ့": 6802,
      "ထွံၪမံၩ့": 6803,
      "အခိၬထံၭခိၪ": 6804,
      "စၡၫဖၫ့": 6805,
      "စဇ့ၭဒကဲအၫ": 6806,
      "လၧဆၧခံၭကျၩ": 6807,
      "လၧစူၪထွ့ၪ": 6808,
      "ဒ့ၪအမါ": 6809,
      "မွဲအယီၩး": 6810,
      "အဒီၩ့အထ့ၬ": 6811,
      "လနၩနီၪ": 6812,
      "မနံၬထၫ့မျါ": 6813,
      "မုၬဆၧလၩ": 6814,
      "လၧစပွဲထံၭ": 6815,
      "ဘဲၫၥိၭယထီး": 6816,
      "စကၫလ့ၭ": 6817,
      "လၩလါအ့ၬ": 6818,
      "စယုၫရဲအၫ": 6819,
      "လၧအယီၩလခီၫ": 6820,
      "ကၫမလၭ": 6821,
      "ကိၩ့အီၪကီၪ့": 6822,
      "ယ့ၭဇဘ့လၭ": 6823,
      "အဂဲထုၪ့": 6824,
      "ကဘျၪ": 6825,
      "စနၭ": 6826,
      "စဂၫ": 6827,
      "စဘိအၭ": 6828,
      "ဇဖၫ": 6829,
      "တရ": 6830,
      "နမွဲဆၧ": 6831,
      "ဖဲၩ့": 6832,
      "ဘၡ့ၭ": 6833,
      "မြဲၫ": 6834,
      "ယမၩဆၧ": 6835,
      "ရအၫ့": 6836,
      "လူၪ": 6837,
      "လကဲၩ့": 6838,
      "လဟံၫ့": 6839,
      "အံၩ": 6840,
      "အခွၩ့": 6841,
      "အနးဎွၩမုၪ": 6842,
      "ါဒံၩ့": 6843,
      "ၥဲၫ": 6844,
      "ၦလၧနၥံၪ": 6845,
      "ၦအၪ့လီၫဆၧ": 6846,
      "ၦမံဒအၫ့": 6847,
      "ၦအၪဆၨၩ": 6848,
      "ၦဂြံစၭ": 6849,
      "ၩရံၩ": 6850,
      "လၧဟၫ": 6851,
      "လၧဂံ": 6852,
      "လၧရၫမၫ": 6853,
      "ဆၧဖိၪ": 6854,
      "ဆၧယီၫ": 6855,
      "ဆၧနးမံၩ့": 6856,
      "ဆၧအခ့ၫအၡၩ": 6857,
      "ဆၧၥၭလိၪ": 6858,
      "ဆၧနၪ့ထၪ့ထဲၩ့": 6859,
      "ဆၧအဆၧၫ့အထီ": 6860,
      "ဆၧလၩဆၧဖၩ့": 6861,
      "ဝ့ၫနးဂၩအ့ၬ": 6862,
      "နီၪမိဘၪဆၧ": 6863,
      "ၥံၪမၩ": 6864,
      "ၥံၪအလီၩ့": 6865,
      "လၧအထီ": 6866,
      "လၧအဒိၪ": 6867,
      "လၧအၥ့ၪယၫ": 6868,
      "လၧအမၩန့": 6869,
      "လၧအဒၪဘၪ": 6870,
      "လၧအဆၧၫ့ထုၪ့": 6871,
      "လၧအဖါၥံၪ": 6872,
      "ဒဲလၧအံၫစရ့လၭ": 6873,
      "ဒဲလၧၦခမျၧး": 6874,
      "ဒဲအနိၪ": 6875,
      "အီၪယူၭ": 6876,
      "အီၪအလး": 6877,
      "ဘၪး": 6878,
      "ဘၪအၪ့ဆူၫဝၭ": 6879,
      "မိစံၭဝ့ၫ": 6880,
      "မိချဲၩ့ဆၧ": 6881,
      "မိဆၧၫ့နၩ့": 6882,
      "မိဒၪန့": 6883,
      "မိအၪထၪ့": 6884,
      "မိဂဲထုၪ့ထဲၩ့": 6885,
      "မၩၥၭမဲၪ": 6886,
      "မၩဘၪလိၬအိၭလိၬ": 6887,
      "မွဲအၥၭ": 6888,
      "ၥၭဝီၩ": 6889,
      "ၥၭခဲၩထၪ့": 6890,
      "ၥၭဘၪ့": 6891,
      "ဘဲၫနၧၩ": 6892,
      "ဘဲၫနမိ": 6893,
      "ဒၪထၪ့ထဲၩ့": 6894,
      "ထီးအမိ": 6895,
      "ထီးၦခမျၧး": 6896,
      "လၩ့တၭ": 6897,
      "လၩ့ယွၩ": 6898,
      "ယီၩအဝ့ၫၥံၪ": 6899,
      "လဖၪမွဲဂ့ၩ": 6900,
      "လဖၪအၥိၭနီၪ": 6901,
      "လဖၪအလီၩ့": 6902,
      "လဖၪအကျၩလီၫ": 6903,
      "အလဲၫ့": 6904,
      "မုနီၪ": 6905,
      "ဂၩတၭ": 6906,
      "နၥံၪအဂး": 6907,
      "နၥံၪအမ့ၬ": 6908,
      "နၥံၪအနါ": 6909,
      "စံၭစမိစ့ၭ": 6910,
      "အၥၭဒၪဝ့ၫ": 6911,
      "အၥၭဒူၩ": 6912,
      "အၥၭဘၪ့": 6913,
      "အၥၭနီၩ့": 6914,
      "လၧဆၧလၫ": 6915,
      "လၧဆၧဖံၭ": 6916,
      "လၧဆၧခိဆၧဝီၩ": 6917,
      "လၧယဒၪဘၪ": 6918,
      "န့အမၫ": 6919,
      "အဆၧၥၭ": 6920,
      "အဆၧအၪထၪ့": 6921,
      "အဝ့ၫၥံၪဘၪဆၧ": 6922,
      "အဝ့ၫၥံၪမၩန့": 6923,
      "အဝ့ၫၥံၪမိမၩ": 6924,
      "အဝ့ၫၥံၪအဖါလဖၪ": 6925,
      "ဂ့ၩတၭ": 6926,
      "အဖၧၩ့လး": 6927,
      "ယဟိဝၩဖ့ၪလၫ့": 6928,
      "ယဟိဝၩစံၭဝ့ၫ": 6929,
      "ယဟိဝၩအလၩအဖၩ့": 6930,
      "လၧၦခၫလဒံအၫဖိၪ": 6931,
      "လ့ၩဘၪ": 6932,
      "လ့ၩလီၩဘၪ": 6933,
      "ဂဲၫတၭ": 6934,
      "ဂဲၫထၪ့ခွံၬ": 6935,
      "ဂဲၫစိၩ": 6936,
      "ယွၩအခိးအတၩ": 6937,
      "ယွၩလၩ့ဝ့ၫ": 6938,
      "ယူၭယ": 6939,
      "ထီးအလူၬအဂးလီၫ": 6940,
      "မံၩ့လီၫ": 6941,
      "အီၪက့ၪခွံၬ": 6942,
      "နံၩၥုၭ": 6943,
      "ၦလၧအနါဂၧၫ့": 6944,
      "လါခီၫ": 6945,
      "လါပၧၩ": 6946,
      "အလးဖၧၩ့": 6947,
      "အလးအီၪဝ့ၫ": 6948,
      "ယၧၩလၧယ": 6949,
      "အဝ့ၫဒၪဆံၭ": 6950,
      "အဖိၪခွၫစအၫ": 6951,
      "ဘၭဘ": 6952,
      "ဖၭဝဲၩ": 6953,
      "မွဲအနါဂၧၫ့": 6954,
      "ကဲၪအ့ၬ": 6955,
      "တီၩအီၪက့ၪလီၩ့": 6956,
      "အၪမၬ": 6957,
      "လဖၪနီၪမွဲ": 6958,
      "နံၫနံၩ": 6959,
      "နံၫနံၪ့": 6960,
      "စဲၪ့ဖၭ": 6961,
      "ဒဲၦမၩ": 6962,
      "ဒဲဆၧၥ့ၪယၫ": 6963,
      "ဒဲဆၧခံၭ": 6964,
      "အ့ၪမွဲနဝ့ၫဒၪ": 6965,
      "ၦၡၩအဆၧ": 6966,
      "ၥၪခွၫ": 6967,
      "ဎွ့ၩဆၧ": 6968,
      "တၭစအံၫလဲ": 6969,
      "ဂံၪ့ဖိၪၥံၪဧ့": 6970,
      "မွဲဆၧၥၭလိၪ": 6971,
      "ၥုၪ့က့ၭ": 6972,
      "လီၩဖျီၪထၪ့": 6973,
      "လမံၩ့တၭ": 6974,
      "ဆိၬန့": 6975,
      "အအီၪလၧ": 6976,
      "အအီၪနီၪဆံၭ": 6977,
      "နၭလဘံၪ့": 6978,
      "ကဆါယ့ၫရှူၬ": 6979,
      "ထီၩ့လၧၦ": 6980,
      "နမိဒၪဘၪ": 6981,
      "လၩမၩဖၩ့": 6982,
      "ယ့ၫၡှူၬ": 6983,
      "ဘဲၫၥိၭအမိအၪ့": 6984,
      "ဘဲၫၥိၭအမိမၩဂၭဂီၩ့": 6985,
      "ကိၪ့ဆၧအၧၩ့": 6986,
      "လၧပလီၩ့": 6987,
      "လၧပမ့ၬယၫ": 6988,
      "အၪ့မၧၫ့နၥံၪ": 6989,
      "ထၧၫ့ထံၩထၧၫ့ၥိၭ": 6990,
      "အလူလီၫ": 6991,
      "အလူဆံၭ": 6992,
      "မွဲၦလၧ": 6993,
      "အီၪလၧအစူၪဖၧၩ့": 6994,
      "ဆၧမၩဖီၩ့မၩဖျ့ၭ": 6995,
      "ထီးနီၪလဖၧၫ့အဝ့ၫၥံၪ": 6996,
      "ကျၪ": 6997,
      "အမ့ၬဘျီၪ": 6998,
      "ဆၧလၧအစူၪ": 6999,
      "ၦခမျၧးလီၫ": 7000,
      "လၧခးဖၧၩ့နီၪ": 7001,
      "ၡၫအစဎွၩ": 7002,
      "လၧဂၪ့ခိၪအထုၬ": 7003,
      "နၫနီၪ": 7004,
      "ဒဲအၦဒိၪဖၭဒိၪ": 7005,
      "လံၩၥဝံၭ": 7006,
      "ခၪ့ဖံၭ": 7007,
      "စဒၫဝံၭနီၪ": 7008,
      "စဒၫဝံၭစံၭ": 7009,
      "ဖံၭယယၪ": 7010,
      "လူနထၫ": 7011,
      "မုနံၩလဖၪနီၪ": 7012,
      "အၪ့ဎၬယဟိဝၩ": 7013,
      "အနဲၩ့တၭ": 7014,
      "ဘၩဆိၪ": 7015,
      "ဝ့ၫလၧဆၧလုလး": 7016,
      "လၧစဎွၩအအီၪ": 7017,
      "လၧအမိဖ့ၪလၫ့": 7018,
      "ထီးဒၪၦ": 7019,
      "လ့ၩထၪ့ဝ့ၫလၧ": 7020,
      "လၧယရုစလံၫ့အဖၧၩ့တၭ": 7021,
      "လၧအလးမံၫ": 7022,
      "နဆၧချဲၩ့": 7023,
      "ယမိဒုၭဂဲၫထဲၩ့": 7024,
      "ၡၭဇၫ": 7025,
      "ဆၧအၪ့ဂူၬ": 7026,
      "ယမိမၩဖီၩ့မၩဖျ့ၭ": 7027,
      "စအံလဲၫ": 7028,
      "တဲၩ့ဝဲၩဝ့ၫ": 7029,
      "ဎူၫဘံၪ့": 7030,
      "ဎူၫထီၫ့": 7031,
      "ဘ့ၪဖၫ": 7032,
      "လၧအလချႃၭ": 7033,
      "လၧအဖၧၩ့လခီၫ": 7034,
      "စအံၫလ": 7035,
      "ဘဲၫနီၪၥိၭဆ့": 7036,
      "အဂ့ၩအ": 7037,
      "က့ၪကီၪ့": 7038,
      "အခၪ့ထံၭတၭ": 7039,
      "နံၫဆံၫလံ": 7040,
      "ဆ့ၭဖျီၫ့": 7041,
      "နမၩဖီၩ့မၩဖျ့ၭ": 7042,
      "နမိဘၪမၩ": 7043,
      "ခၫလၭ": 7044,
      "ချီဖၫလဒုၩ": 7045,
      "အဂူၫဂၩလဖၪ": 7046,
      "ကွဲၪလၩ့": 7047,
      "အနီၪဒံၭ": 7048,
      "လၧခီၫ့လခီၫ": 7049,
      "အရံၫ့": 7050,
      "လချႃၭဘၪ": 7051,
      "လၧစအၫဟၭ": 7052,
      "အၥုၭဖိၪ": 7053,
      "ဆၫ့လဆၫ့": 7054,
      "အၪ့ဆၧဒဲအီၩ": 7055,
      "စဘၫနဘၭ": 7056,
      "ကိၪမုၬလဲၩဎုၬ": 7057,
      "ဘ့ၭၥလံၫဟံၫ့": 7058,
      "ဒံၩခွံၬဝ့ၫ": 7059,
      "ၥံၫ့ၥံၫ့နံၩ": 7060,
      "လုထၪ့ယဟိဝၩ": 7061,
      "လၧၥံၪ့ၡံၭတၫ": 7062,
      "အၪ့ထုၫ့ထၪ့": 7063,
      "ၦၡၩအဖိၪခွၫယီၩ": 7064,
      "ၥူၭဆၧမၪ": 7065,
      "လၧအဂဲးအဘၭ": 7066,
      "လၧမုနၩလခီၫတၭ": 7067,
      "အၪ့ကံၩ့အၪ့ယၫဝ့ၫ": 7068,
      "အထုၪ့လဖၪ": 7069,
      "တၭစအၫဘြဟၫ့": 7070,
      "မွဲဘၪနီၫလၫ": 7071,
      "လၥ့ၪဘၪလီၫ": 7072,
      "လၧအဂံၪ့ဖၧၩ့": 7073,
      "လၧထီၫ့ဖၧၩ့": 7074,
      "ဝၭထိၬဝၭတ့ၭ": 7075,
      "စအၫမဇဲအၫ": 7076,
      "လၧမုဆၫလနံၩ": 7077,
      "ရၭဘံၫ": 7078,
      "ထီၩ့လၧဆၧထိးထဲၩ့တၩ့ထဲၩ့": 7079,
      "ဘၭတံၫဇၫ့ဆၧ": 7080,
      "ဘဲၫပစံၭဆၧအၥိၭ": 7081,
      "ဖျႃၭ": 7082,
      "မၩဂ့ၩထၪ့": 7083,
      "လၧၦဆၨၩၥံၪ": 7084,
      "ယဟိဝၩအလူလၩ့ဘၪဒီၭယၧၩတၭ": 7085,
      "အၪ့ဆၧအီၩဆၧ": 7086,
      "လၧထံၫၥံၪခးၥံၪအဖၧၩ့": 7087,
      "ကိရၫ": 7088,
      "ဖီးဘီၩ့": 7089,
      "တၭအဆၧစံၭဝ့ၫဒၪ": 7090,
      "ထဲးယိ": 7091,
      "အစူၪလးခၪ့ခိၪ": 7092,
      "ဖျိၬအမံၩ့": 7093,
      "ဂၪ့ခိၪချိၫ့ယီၩ": 7094,
      "အဆၧဂၩ့ဆၧဖၪ့": 7095,
      "ယူၬထၪ့ယစူၪ": 7096,
      "လၩ့အိၪ့": 7097,
      "ပကဆါယ့ၫရှူၬဎရံၬ": 7098,
      "လၧမံဇပၫ": 7099,
      "ထီးၥၭမဲၪလဂ့ၩ": 7100,
      "ိၫဘဒဲအၫ": 7101,
      "အကၥ့ၪယီၩ့": 7102,
      "ဂဲးဆီၪ့ဘၭဆီၪ့": 7103,
      "လူၬထူၬဆံၫ့ဘၩ့": 7104,
      "ၡီၫ့လၩ့အခိၪ": 7105,
      "ပီၩ့လၩ့": 7106,
      "ၥံၪ့ၥံၪဝၪၥံၪ": 7107,
      "ဘိၪ့ထၪ့ဘၩထၪ့ဆၧ": 7108,
      "ဘံၪဘူၪ": 7109,
      "န့ၭၥနံ": 7110,
      "ထံၫထံၫဆၭဆၭ": 7111,
      "လၫ့ဝဲအဒံၭ": 7112,
      "မွဲပလ့ၩၡီၩ့": 7113,
      "ယ့ဘုၫဖိၪ": 7114,
      "မံၫခ့ယၫ": 7115,
      "ကုၭ": 7116,
      "ကဘျံၭ": 7117,
      "ဂီ": 7118,
      "ဂိၫ": 7119,
      "စအံၫစရ့လၭ": 7120,
      "စဒ့ၭ": 7121,
      "စွၪ": 7122,
      "စထံမၥံၫ": 7123,
      "ထၪ": 7124,
      "နဖ့ၪလၫ့": 7125,
      "နဂး": 7126,
      "နမ့ၬယၫ": 7127,
      "နဖိၪမုၪ": 7128,
      "နဎီးမုၪ": 7129,
      "ပံၩ": 7130,
      "ဖလါ": 7131,
      "ဘၨၩ": 7132,
      "ဘၡၫ": 7133,
      "ဘဒံၫ": 7134,
      "မအ့လၭ": 7135,
      "ယမွဲဆၧ": 7136,
      "ယအၪ့မၧၫ့လၩ့": 7137,
      "ယဒုၭနဲၪ": 7138,
      "ယအီၪက့ၪလၩ့": 7139,
      "ယဆိၫ့": 7140,
      "ယနၫ့ဆါဒၪယဝ့ၫ": 7141,
      "လလၧၫ့": 7142,
      "အဆ": 7143,
      "အနီၪဆံၭ": 7144,
      "ဲရၫ": 7145,
      "ၦအံ": 7146,
      "ၦဆၧဒဲၩဘၭဖိၪ": 7147,
      "လၧဂူၫဂၩ": 7148,
      "လၧဘၫၡၫ့": 7149,
      "လၧၡဲလိၫ": 7150,
      "ဆၧလၩ": 7151,
      "ဆၧထၪ့ထီၫ": 7152,
      "ဆၧဘၪၥၭလိၪ": 7153,
      "ဆၧကီၩ့ဆၧၥိၭ": 7154,
      "ဝ့ၫလၧနၥံၪ": 7155,
      "နီၪၥိၭ": 7156,
      "နီၪစံၭ": 7157,
      "နီၪမိဘၪ": 7158,
      "တၭမၩန့": 7159,
      "တၭလၧမုလနံၩနီၪ": 7160,
      "လီဘၫ့": 7161,
      "လၧအဒိၩ့": 7162,
      "လၧအကဲၪထၪ့": 7163,
      "လၧအဆၧအၧၩ့": 7164,
      "လၧအတဲၩ": 7165,
      "လၧအလ့ၩဆၧ": 7166,
      "လၧအစံရအၫအစဎွၩ": 7167,
      "ဒဲအက": 7168,
      "ဒဲအံ": 7169,
      "ဒဲဖၩ့": 7170,
      "ဒဲနၥၭ": 7171,
      "ဒဲလၧအမိ": 7172,
      "ဒဲဘၫၡၫ့": 7173,
      "အီၪလီၫ": 7174,
      "ဘၪန": 7175,
      "ဘၪယဟိဝၩ": 7176,
      "ဘၪလဲၪ": 7177,
      "ဘၪခီၩ့": 7178,
      "မိၫ": 7179,
      "မိနါဂၧၫ့": 7180,
      "မိဆၧၫ့ထုၪ့": 7181,
      "မိဖီၩ့ဖျ့ၭ": 7182,
      "မၩဎွ့ၩထၪ့": 7183,
      "မွဲဂၪ့ခိၪ": 7184,
      "ၥၭကဲၪ့": 7185,
      "ဘဲၫအမံၩ့": 7186,
      "ဘဲၫၦမုၪ": 7187,
      "ဘဲၫစမိစ့ၭ": 7188,
      "ဘဲၫၦလဂၩ": 7189,
      "ဖိၪလဂၩ": 7190,
      "ဖိၪမွဲဂ့ၩ": 7191,
      "ထီးဘၪဆၧ": 7192,
      "ထီးအဝ့ၫဒၪ": 7193,
      "အဝ့ၫနီၪတၭ": 7194,
      "အဝ့ၫလဂ့ၩ": 7195,
      "လၩ့ၡါ": 7196,
      "လၩ့ပွံၭ": 7197,
      "လဖၪအီၪဝ့ၫ": 7198,
      "အလံၭ": 7199,
      "အလပီၩ": 7200,
      "အၥၭကျၩတၭ": 7201,
      "လၧဆၧဆၫ": 7202,
      "လၧဆၧလမံၩ့မံၩ့": 7203,
      "လၧဆၧဘၪလိၬအိၭလိၬ": 7204,
      "လၧယၡၩ": 7205,
      "ချၩ့": 7206,
      "ဟိဝၩစံၭဝ့ၫဒၪ": 7207,
      "ယၫလခီၫ": 7208,
      "ခွံၬယၧၩ": 7209,
      "အဆၧၥၭထိၬ": 7210,
      "အဆၧဆီၫ့မီၪ့": 7211,
      "ထဲၩ့ဝ့ၫလီၫ": 7212,
      "အကြၨၭ": 7213,
      "အဝ့ၫၥံၪစဲၪ့": 7214,
      "ဂ့ၩဝ့ၫ": 7215,
      "ဂ့ၩထၪ့": 7216,
      "ယဟိဝၩအၥီၫ့": 7217,
      "အ့ၪၥ့ၪတၭ": 7218,
      "လၧၦလၧ": 7219,
      "လၧၦမၩဆၧ": 7220,
      "လၧၦအဂီၩ့": 7221,
      "လၧၦတီၩၦလီၩ့": 7222,
      "လၧနွ့ၫ": 7223,
      "လၧနခၪ့": 7224,
      "လၧနဂံၪ့ဖၧၩ့": 7225,
      "အမဲၪ": 7226,
      "ဒုၭထဲၩ့ထဲၩ့": 7227,
      "ဂဲၫၥိၫ့": 7228,
      "ယူၭန": 7229,
      "ယူၭအဝ့ၫ": 7230,
      "ထီးအလူၬး": 7231,
      "ထီးအလူၬအဖၧၩ့လီၫ": 7232,
      "အခၧၩ့ယး": 7233,
      "အီၪက့ၪဆီၪ့": 7234,
      "အစပွဲ": 7235,
      "ဒိၪဆၧ": 7236,
      "လါဆံၭ": 7237,
      "မၧၫ့လီၫ": 7238,
      "လၧစနၫ": 7239,
      "အလးလံၩ": 7240,
      "ဆ့တၭး": 7241,
      "ယမိစံၭ": 7242,
      "ယမိအၪ့ဎၬ": 7243,
      "ဘၪဆၧနၫ့ထၪ့ခွံၬ": 7244,
      "ဘၪဆၧဝံထၪ့နၬထၪ့ဝ့ၫ": 7245,
      "အဝ့ၫဒၪစံၭအဝ့ၫ": 7246,
      "အဝ့ၫဒၪချဲၩ့ဆၧၫ့ဆၧတၭ": 7247,
      "ဎွံၭ": 7248,
      "ဆၧအဲၪ့": 7249,
      "ဆၧအၥၫ့": 7250,
      "နးဒုၩ": 7251,
      "နးရဘ့ၭကၫ": 7252,
      "ဖၭဝ့ၫ": 7253,
      "ကိၭအ": 7254,
      "မွဲအအီၪက့ၪ": 7255,
      "ဆံၫ့လီၫ": 7256,
      "ဂၪ့ဝ့ၫလၧအ": 7257,
      "လၧနၥံၪမိဘၪ": 7258,
      "အၪဘျၩ့": 7259,
      "နံၫစၩ": 7260,
      "ဒဲၦခွၫ": 7261,
      "ဒဲၦဟံ": 7262,
      "ဒဲၦဂၭဖိၪ": 7263,
      "ဒဲစဘၫ": 7264,
      "ဒဲစၡၫ": 7265,
      "လးဆၧၫ့နၩ့": 7266,
      "လၧမုလနံၩယီၩ": 7267,
      "လၧမၭ": 7268,
      "လၧမ့ၬ": 7269,
      "လၧယဟိဝၩနၥံၪအယွၩ": 7270,
      "မၩဆၧစ့ၩရၫ့": 7271,
      "ၥုၭနံၩၥုၭ": 7272,
      "ဘျႃၪ့": 7273,
      "ဆီၪ့နီၪ": 7274,
      "ဘိၩ့ဆၧၩ့": 7275,
      "ဘိၩ့ဘၭနီၪ": 7276,
      "ၥုၪ့ဆၧၩ့": 7277,
      "စဎွၩစံၭ": 7278,
      "ဆိၬခွံၬဝ့ၫ": 7279,
      "ထီၫနဲၪ့": 7280,
      "ထီၫထီၫ": 7281,
      "နုၬလၧ": 7282,
      "ထီၩ့လၧခး": 7283,
      "ထီၩ့လၧယရုစလံၫ့": 7284,
      "ဒၪဘၪၦ": 7285,
      "လၧအအီၪလၧအ": 7286,
      "ဘဲၫၥိၭအမိမၩၥံၫ": 7287,
      "လၧပၫ": 7288,
      "ဂၭဂီၩ့ခွံၬ": 7289,
      "ယၥၭမိ": 7290,
      "ဒၪဝ့ၫနီၪလီၫ": 7291,
      "အီၪလၧအစီၩ့အမၩ့": 7292,
      "အီၪလၧခီၫ့": 7293,
      "ဎီးခွၫ": 7294,
      "ယုဒၫအၡၩ": 7295,
      "နါဂၧၫ့ဆၧချဲၩ့": 7296,
      "အမ့ၬထံၫ": 7297,
      "ခိၭနၪဆံၭ": 7298,
      "ဂဲထုၪ့ဘီၪ": 7299,
      "နၥၭလၧ": 7300,
      "ကူၭလၩ့အၥၭ": 7301,
      "ထၪ့ဝ့ၫဘဲၫ": 7302,
      "ဖၧၩ့နီၪး": 7303,
      "အခၪ့တၭ": 7304,
      "မိအီၪလၩ့ထး": 7305,
      "ဆၧအၧၩ့နီၪ": 7306,
      "ဆၧအၧၩ့လီၫ": 7307,
      "လံၬကျီၫ့ကျီၫ့": 7308,
      "နၥံၪမိအၪ့": 7309,
      "လၧထံၫကျၩ": 7310,
      "ၦမုၪလဂၩ": 7311,
      "ထိၪၥံၪ": 7312,
      "ထိၪဖျံၭ": 7313,
      "မွဲနၡၩ": 7314,
      "မၩဂၭဂီၩ့ဆၧ": 7315,
      "လၧအမိၡါ": 7316,
      "ၦဒိၪလဖၪ": 7317,
      "ဂဲၫထၪ့တၭ": 7318,
      "လၧယရုစလံၫ့အဖၧၩ့နီၪ": 7319,
      "လၧအၥၭထၪ့": 7320,
      "ပၧၩ့ဘၪ": 7321,
      "အၪ့မၧၫ့လၩ့ဆၧတၭ": 7322,
      "ဆၧမၩအၥၭလၧၦ": 7323,
      "လၧအံၫစရ့လၭအကျၩ": 7324,
      "ပမိလ့ၩ": 7325,
      "အယီၩလခီၫ": 7326,
      "အယီၩလမံၩ့": 7327,
      "လဒီၪ့အကျၩ": 7328,
      "အဖိၪမုၪလဖၪ": 7329,
      "ၥိၫ့ထၪ့ခွံၬ": 7330,
      "လဆံၫဎူၫ": 7331,
      "တၭယဟိ": 7332,
      "ၦအအၧၩ့": 7333,
      "အနံၪ့လယၩ": 7334,
      "မၩမၪဘၪဆၧ": 7335,
      "စဲၪ့ထၪ့ဝ့ၫတၭ": 7336,
      "မွဲနၥံၪထီး": 7337,
      "ဘဲၫအမၩ": 7338,
      "ဘဲၫအဆၨၩ": 7339,
      "ယဟိဝၩစံၭဝ့ၫဒၪး": 7340,
      "စံၭဆၧၫ့ဝ့ၫဒၪ": 7341,
      "အတရၫ့ဖၧၩ့": 7342,
      "စအၭဒနဲယၫ": 7343,
      "မွဲအ့ၬဧၪး": 7344,
      "မိအၪ့ဘၪ": 7345,
      "ခၫ့ဂၬဆၧ": 7346,
      "ယိလါဆၧ": 7347,
      "ပျီၩပျီၩနီၪ": 7348,
      "ထီၩ့လၧဘၭဘလၧၫ့": 7349,
      "အဆၧချဲၩ့လဖၪ": 7350,
      "ဆိၫအ": 7351,
      "ဆိၫဝ့ၫ": 7352,
      "ဆုၬဆုၬဆံၭ": 7353,
      "လၧဆၧအဝၩ့": 7354,
      "ဆၧဖၩ့ထၪ့နီၪ": 7355,
      "လၧနၭတၭ": 7356,
      "လၧအံဇံၭအဖၧၩ့တၭ": 7357,
      "ဝါအ့ၬ": 7358,
      "မၩလၩ့မုလၩ့ဖၭ": 7359,
      "လမံၩ့မံၩ့နီၪ": 7360,
      "လၧနစူၪဖၧၩ့တၭ": 7361,
      "လၧနစူၪထွ့ၪ": 7362,
      "အဆၧၫ့အထီနီၪ": 7363,
      "စကံၫ့": 7364,
      "ထီးမုဆဲၪ့": 7365,
      "လၧနဂးတၭ": 7366,
      "လၧနဂးဒၪနဝ့ၫ": 7367,
      "ကၪဆၧ": 7368,
      "မၩအၧၩ့ဆၧ": 7369,
      "စန့ၭဘူၫခၭန့ဇၫ": 7370,
      "ကဒၩၦမ့ၬ": 7371,
      "ကဲလၫ": 7372,
      "စအၭဘၡဲၫ": 7373,
      "တၭစဎွၩစံၭ": 7374,
      "အီၪကိၩ့အီၪကီၪ့တၭ": 7375,
      "လထံၪဎးဘီၩ့": 7376,
      "လၧတဲအၫ": 7377,
      "လၧယမ့ၬယၫတၭ": 7378,
      "ခွ့ၩအၥီၫ": 7379,
      "ဂံလအၭဖိၪ": 7380,
      "ထီၫမံၫထီၫမၪဝ့ၫ": 7381,
      "ယဒၪဘၪယူၭ": 7382,
      "လၧအဂဲးဆီၪ့": 7383,
      "ဆူၭထၪ့ခွံၬဝ့ၫလၧမ့ၪ": 7384,
      "ၦမၩကၩ": 7385,
      "စၡံၫ": 7386,
      "စိၭအၪ့စၪ့": 7387,
      "လဆံၫ့ဘၪလီၫ": 7388,
      "လဂၩဎးနီၪ": 7389,
      "ယမိဖ့ၪလၫ့နၧၩ": 7390,
      "လၧပဂးလီၫ": 7391,
      "ဒိၭန့ဆၧ": 7392,
      "နဲၭဖိၪ": 7393,
      "စၡံမ": 7394,
      "ဟ့ၥၭဖိၪ": 7395,
      "မွဲအဘၪဆၧဆိၪဂ့ၩ": 7396,
      "အဆၧမၩဘိၪ့ကိၪမုၬ": 7397,
      "အီၪပွံၭဝ့ၫ": 7398,
      "ၦလုဆၧအဒိၪၥံၪ": 7399,
      "လၧနၥိၭတၭ": 7400,
      "စၡၫလၧၫ့": 7401,
      "မုၬမုၬဆံၭ": 7402,
      "စဟၭၡ": 7403,
      "အံဒၧၫ့ဖိၪ": 7404,
      "အီၪက့ၪဖိၫလိၫအၥၭ": 7405,
      "အထိၬချိၫ့": 7406,
      "ဖၧၫနံၫ": 7407,
      "မုထၪ့လခီၫ": 7408,
      "လၧၦအၫမိၫဖိၪ": 7409,
      ",)-": 7410,
      "နးထံၪဘီၪ": 7411,
      "အမ့ၪဒိၩ့": 7412,
      "ၦဖၫရစံၫၥံၪ": 7413,
      "ိၫဘဒံဒၧၫ့": 7414,
      "ဒုၭအၪ့လီး": 7415,
      "အစ့ၩရၫ့": 7416,
      "မုၬဆၧဎၩ့": 7417,
      "ံၭၥိၫဖ့လၭ": 7418,
      "ဒဲၦကွ့ၭလံၬၥံၪ": 7419,
      "ဒဲအဖိၪခွၫၥံၪလီၫ": 7420,
      "အၩ့ထၪ့အနိၭ": 7421,
      "နနၫ့ဆါဒၪနဝ့ၫ": 7422,
      "မွဲအကဲၪထၪ့": 7423,
      "ဂၭဎ့ၭခွံၬ": 7424,
      "ခၫလဒံအၫဖိၪၥံၪ": 7425,
      "ကိၭမုနံၩမုနၩဒ့ၭလီၫ": 7426,
      "စနံဘၭ": 7427,
      "ရၫမီၭဂံလအၭ": 7428,
      "လၧမုဆဲၪ့ထၪ့": 7429,
      "ဒ့ၪၥံၪယၪ": 7430,
      "အထိၭနၫ": 7431,
      "မံၫ့ၥုၪ့မံၫ့ၥၭ": 7432,
      "ဘၡၫက့ၫ": 7433,
      "ကၧၩ့": 7434,
      "ဂံၫ": 7435,
      "တ့ၫ": 7436,
      "ထမၬ": 7437,
      "ဒူၫ": 7438,
      "ဒအၫ့": 7439,
      "နဂံၪ့": 7440,
      "နကၠီၪ့": 7441,
      "နကီၩ့နၥိၭ": 7442,
      "ပဘၪ": 7443,
      "ပမ့ၬ": 7444,
      "ပလူ": 7445,
      "ပဆၧဒဲၩဘၭ": 7446,
      "ဖုၪ့": 7447,
      "ယမၫ": 7448,
      "ယကွ့ၭ": 7449,
      "ယဒၪန့": 7450,
      "ယအၪ့ယၫ": 7451,
      "ယဖိၪမုၪ": 7452,
      "ရီ": 7453,
      "လအၭ": 7454,
      "ဝ့ၪ": 7455,
      "ဟ့ၭ": 7456,
      "ဟဲအၫ": 7457,
      "အၧ": 7458,
      "အဝဲ": 7459,
      "အဘျၩ့": 7460,
      "အခွး": 7461,
      "ၥ့": 7462,
      "ၥီၭ": 7463,
      "ၥွၪ": 7464,
      "ၦထီး": 7465,
      "ၦမဲၩဎွဲၩမုၪ": 7466,
      "ၧၪ့": 7467,
      "ၭၡၧၫ": 7468,
      "လၧဖိၪၥၪ": 7469,
      "လၧဒၫ့": 7470,
      "လၧဂၪ": 7471,
      "လၧဂံလဂၫလၭ": 7472,
      "ဆၧလၧစ": 7473,
      "ဆၧမၩအၥၭဘဲၫ": 7474,
      "ဆၧဆၧၩ့": 7475,
      "ဆၧခိ": 7476,
      "ဆၧလၧၦၡၩ": 7477,
      "ဆၧလၧမီၪအချိၬ": 7478,
      "ဆၧမုၬလၩ": 7479,
      "ၪ့ၥံၪမံၩ့": 7480,
      "ဝ့ၫလ": 7481,
      "ဝ့ၫအဂး": 7482,
      "နီၪထီး": 7483,
      "နီၪနၥံၪ": 7484,
      "နီၪအ့ၪလ": 7485,
      "နီၪဒံၭလီၫ": 7486,
      "တၭလ့ၩ": 7487,
      "တၭဂၪ့ခိၪ": 7488,
      "တၭထီးအ": 7489,
      "တၭစံၭအဝ့ၫၥံၪ": 7490,
      "တၭနဝ့ၫဒၪ": 7491,
      "ၥံၪဆံၭ": 7492,
      "ၥံၪမွဲဂ့ၩ": 7493,
      "လၧအၪ့": 7494,
      "လၧအယိ": 7495,
      "လၧအဆၧၫ့": 7496,
      "လၧအၥၭမဲၪ": 7497,
      "လၧအစဲၪ့ထၪ့ခွံၬ": 7498,
      "လၧအချိၫ့": 7499,
      "လၧအဘၩ့အမုး": 7500,
      "လၧအဘၪဆဲၫ့လၧ": 7501,
      "လၧအစံရအၫ": 7502,
      "ဒဲယွၩ": 7503,
      "ဒဲအဝ့ၫဒၪ": 7504,
      "ဒဲယၥၭ": 7505,
      "ဒဲလၧၦလၧအ": 7506,
      "ဒဲထိၪၥံၪလံၪၥံၪ": 7507,
      "ဒဲအၪနဲၪ့အနီၪ": 7508,
      "အီၪလၧယွၩ": 7509,
      "အီၪချဲၫ့": 7510,
      "အီၪဆၧၫ့ထုၪ့": 7511,
      "ဘၪၥံၫ": 7512,
      "မိယိ": 7513,
      "မိဖီၪ့ထၬ": 7514,
      "မၩအံၫစရ့လၭ": 7515,
      "မၩထၪ့ထဲၩ့": 7516,
      "မွဲလၧန": 7517,
      "ၥၭအီၪ": 7518,
      "ၥၭၡီၩ့": 7519,
      "ဘဲၫကယဲ": 7520,
      "ဒၪဘၨၩ": 7521,
      "ဖိၪအဂး": 7522,
      "ဖၧၩ့လး": 7523,
      "ထီးနဲၪ့": 7524,
      "လၩ့ၡၩ": 7525,
      "ယီၩန": 7526,
      "မုလနံၩယီၩ": 7527,
      "အၥၭဆၭ": 7528,
      "လၧဆၧတီၩ": 7529,
      "လၧဆၧဒီၪ့": 7530,
      "လၧဆၧယၪ": 7531,
      "လၧဆၧဆိၪအၧၩ့": 7532,
      "အၪ့ဆၧလၧ": 7533,
      "အၪ့လဲၪ့": 7534,
      "ဝၩအမ့ၬယၫ": 7535,
      "ခိၪလဖၪ": 7536,
      "အဆၧဒၪဝ့ၫ": 7537,
      "အဆၧၥၭလိၪ": 7538,
      "အဆၧဘၩဆိၪဖၪ": 7539,
      "အဆၧပျၩ့ဖၧၩ့": 7540,
      "ထဲၩ့ယူၭ": 7541,
      "အဝ့ၫၥံၪမိအၪ့": 7542,
      "ံၩ့စံၩ့": 7543,
      "ယဟိဝၩလၧအ": 7544,
      "ယဟိဝၩဆံၭ": 7545,
      "ယဟိဝၩအခ့ၫအၡၩ": 7546,
      "ယဟိဝၩယွၩဧ့": 7547,
      "လၧၦၥုၪ့တဲၩ": 7548,
      "လၧၦအံၫစရ့": 7549,
      "လၧနမၩဆၧ": 7550,
      "လၧနမိမၩ": 7551,
      "လၧနကၠီၩ့": 7552,
      "အၫမ": 7553,
      "အၫတၭ": 7554,
      "အၫဒၫ": 7555,
      "အၫနၫ့": 7556,
      "အမံ": 7557,
      "အမ့": 7558,
      "ဒုၭဂဲၫထဲၩ့": 7559,
      "ုၬဘံၭ": 7560,
      "အဂဲးဘဲၫယီၩအ": 7561,
      "ထီးအလူၬတၭး": 7562,
      "ထီးအလူၬအကျၩနီၪ": 7563,
      "ချဲၩ့ယူၭ": 7564,
      "ချဲၩ့ဝဲၩ": 7565,
      "ချဲၩ့ဒီၩ့": 7566,
      "အီၪက့ၪၦ": 7567,
      "အီၪက့ၪအဝ့ၫ": 7568,
      "ၦလၧအစံၭ": 7569,
      "အဖီၩ့": 7570,
      "အဖံၫ့": 7571,
      "အဝ့ၫဒၪဂဲထုၪ့": 7572,
      "ယဲလၬ": 7573,
      "ယဲဖျိၪ့": 7574,
      "ဖ့ၪဆၧၫ့": 7575,
      "ဆၧအၥီၫ": 7576,
      "နးအၭ": 7577,
      "နးလံအၫ": 7578,
      "အကၠီၩ့လဂ့ၩ": 7579,
      "အၥံၫ့": 7580,
      "အၪလၨၪ": 7581,
      "ဒဲၦၡၪ့ဖိၪယၬဖိၪ": 7582,
      "ဒဲစန": 7583,
      "ဒဲစမံ": 7584,
      "ဒဲဆၧအီၪ": 7585,
      "ဒဲဆၧနၧၫ့မၧၫ့": 7586,
      "ဒိၩ့ဖၧၩ့": 7587,
      "ဒိၩ့ယီၩ": 7588,
      "ဒိၩ့ဖၭဒိၪ": 7589,
      "ထုၪ့လဖၪ": 7590,
      "အံၫစရ့လၭဖိၪၥံၪ": 7591,
      "အ့ၪမွဲယွၩ": 7592,
      "အ့ၪမွဲၦလတီၩလလီၩ့ဘၪ": 7593,
      "တၭစမ": 7594,
      "တၭစယုဒၫ": 7595,
      "ဂၪ့ခိၪမုၬ": 7596,
      "လၧယဟိဝၩမိ": 7597,
      "အစူၪနီၪ": 7598,
      "မွဲဆၧဂ့ၩ": 7599,
      "မွဲဆၧအခိးအတၩ": 7600,
      "အဂံၪ့လီၫ": 7601,
      "အၧၩ့လီၫ": 7602,
      "ကဆါယဟိ": 7603,
      "ၥၧၫ့ဖျိၪ့": 7604,
      "ၥၧၫ့ပိၩ့လပိၩ့": 7605,
      "ၥၫ့နအ့လၭ": 7606,
      "ထၬဝ့ၫလၧ": 7607,
      "ဒုၪဆၧအၪ့": 7608,
      "ဒီၪ့ၥံၪ": 7609,
      "လၧပကဆါ": 7610,
      "ယၥၭထိၬ": 7611,
      "မွဲၦလဂၩလဲၪ": 7612,
      "အီၪလၧအတဝၫ့": 7613,
      "တၭၦလဂၩနီၪ": 7614,
      "လၧအဝ့ၫၥံၪအစူၪဖၧၩ့": 7615,
      "နါဂၧၫ့တၭ": 7616,
      "ဘီၩ့ထၪ့": 7617,
      "အခိးမွဲယ": 7618,
      "အဲၪဆၧ": 7619,
      "အဲၪယၧၩ": 7620,
      "အဲၪတၩ့": 7621,
      "မၩၥံၫၦ": 7622,
      "မၩၥံၫခွံၬ": 7623,
      "ကွ့ၭဝ့ၫ": 7624,
      "လၧဂၪ့ခိၪထၧၫ့ဖျိၪ့ယၫ": 7625,
      "စဲၪ့ထၪ့ခွံၬတၭ": 7626,
      "ဝံဝါ": 7627,
      "ကၫလ့ၭ": 7628,
      "ရၫအဖိၪခွၫ": 7629,
      "ဒဲနဖိၪခွၫ": 7630,
      "နၥံၪမိဒၪဘၪ": 7631,
      "ဆူၭထၪ့": 7632,
      "ဟၫလ": 7633,
      "ၦမုၪၥံၪ": 7634,
      "ထၫ့ဒၩအဝ့ၫၥံၪ": 7635,
      "ဆၧၫ့ထုၪ့ဝ့ၫလၧ": 7636,
      "မွဲနၥ့ၪယၫ": 7637,
      "ယဆၧမၪ": 7638,
      "လၧစဎွၩအဂံၪ့": 7639,
      "လၧစဎွၩအအီၪတၭ": 7640,
      "အီၩဆၧ": 7641,
      "ဖိးလၧမုနုၬ": 7642,
      "စမိစ့ၭအၥိၭနီၪလီၫ": 7643,
      "စမိစ့ၭဒဲစအၫရၧၫ့": 7644,
      "ၦဒိၪၦၡါ": 7645,
      "ဒၫ့ဖိၪ": 7646,
      "ယ့ၫၡုၬစံၭဝ့ၫ": 7647,
      "နၫ့ဆါဒၪဝ့ၫ": 7648,
      "နဆၧစ့ၩရၫ့": 7649,
      "ဆၧၫ့နၩ့ဝ့ၫလၧ": 7650,
      "လဒီၪ့အကျၩလီၫ": 7651,
      "လၧဆၧလုအလး": 7652,
      "မီၪစယ့ၫရမဲအၫ": 7653,
      "အခးဖၧၩ့လီၫ": 7654,
      "ထဲၩ့ထဲၩ့တၭ": 7655,
      "တၡါၡါ": 7656,
      "ၥိၫ့အၥၭ": 7657,
      "လဆံၫၥၧၫ့": 7658,
      "အကၠၪကၠၪ": 7659,
      "ဆၧလုအီၩ": 7660,
      "ကိၪ့ၥ့ၪနီၪ": 7661,
      "ဘ့ၪဖိၪလဒုၩ": 7662,
      "ထၫ့ဒုၪဒၩနၧၩ": 7663,
      "လၧခိၪလီၩ့အံဖြံၫ့": 7664,
      "စအံၫလအ့": 7665,
      "ယူဝ့ၫ": 7666,
      "အတရၫ့တၭ": 7667,
      "အတရၫ့ထံၭ": 7668,
      "က့ၪၥူၪ": 7669,
      "ခၫ့ဂၬယီၫဒၫ့": 7670,
      "ယဝ့ၫဒၪယီၩယမွဲ": 7671,
      "စဟဲ": 7672,
      "စဟ့လၭ": 7673,
      "လၧအဝ့ၫဒၪအဒီၪ့": 7674,
      "လၧမၫစဒိနအၫ": 7675,
      "ဒိၭနဲၩ့အၥၭလၧ": 7676,
      "အခိးမွဲအဝ့ၫၥံၪ": 7677,
      "ခၫထၪ့": 7678,
      "ချီဖၫၥံၪ": 7679,
      "ချီဖၫဖိၪလဒုၩ": 7680,
      "အနိၭနီၪ": 7681,
      "ဒၪလ့ၬလီၫ": 7682,
      "ဒဲနၥံၪအ": 7683,
      "တၫလၫ့": 7684,
      "ဘၧၩ့လၩ့": 7685,
      "ဆၧအလးဆံၫ့ဎံၪ": 7686,
      "ဎွ့ၩန့ထဲၩ့ဝ့ၫ": 7687,
      "နီၫလၫ": 7688,
      "ဎိၭနံၩလနံၩနီၪ": 7689,
      "လၧယအီၪလီၫ": 7690,
      "မံရအၫ့": 7691,
      "လၧဖၧၩ့ၥၭမု": 7692,
      "အ့ၪမွဲၦတီၩၦလီၩ့": 7693,
      "ၥုၪ့ထိၬၥၭ": 7694,
      "စကံၭ": 7695,
      "စအၫရၧၫ့အဖိၪခွၫ": 7696,
      "ဖ့ၪလၫ့ခွံၬအဝ့ၫၥံၪ": 7697,
      "လၧၥိၪဒဲဘ့ၪ": 7698,
      "ကျီၪ့ၥံၫ": 7699,
      "ကျီၪ့ၥံၫခွံၬ": 7700,
      "ဆၫ့ဖၫ": 7701,
      "အကဆါနီၪ": 7702,
      "ဘဲၫနီၪအၥိၭဆ့": 7703,
      "အဆၧဒဲၩဘၭလီၫ": 7704,
      "ဖီၩ့ခွံၬနီၪ": 7705,
      "လၧၥံၪ့ပၪ": 7706,
      "ထိးဆၧၫ့ဝ့ၫ": 7707,
      "ဒဲၥိၪၥံၪ": 7708,
      "ဖ့ၬထ့ၬခွံၬ": 7709,
      "လၧအၥိၭတၭ": 7710,
      "စဲမၧၫ့": 7711,
      "ဆိၭက့ၭ": 7712,
      "ထၧၫ့ဖျိၪ့ယၫတၭ": 7713,
      "ထိၩ့ထီၫ့": 7714,
      "မၩကဲၪထၪ့ဝ့ၫ": 7715,
      "လၧမုထၪ့လခီၫလီၫ": 7716,
      "လဂၩလၧအတဲၩ": 7717,
      "နစူၪထွ့ၪ": 7718,
      "ယဖါဧ့": 7719,
      "ဘဲၫၥိၭနၥံၪမိမၩ": 7720,
      "နံၫဘံၪ့မွဲဂ့ၩ": 7721,
      "စယဟီအကံၫ့": 7722,
      "ဘဲယၫ": 7723,
      "ၦခွၫမွဲဂ့ၩ": 7724,
      "ဘၪအၡၪ့": 7725,
      "ဖၫ့လၬလီၫ": 7726,
      "လၧဆၧလုလးအဖၫ့ခိၪ": 7727,
      "အီၪဂုးခၧၫ့ဝ့ၫ": 7728,
      "ပၠိၭ": 7729,
      "ဒဲအံၫစရ့လၭထီးအလူၬ": 7730,
      "စဂ့ၭဒလဲအၫ": 7731,
      "နးစီၪ့အ့ၬး": 7732,
      "ဖိၬအခဲၫ့လီၫ": 7733,
      "ၥိၪဖၫလဒုၩ": 7734,
      "နဲၪဖျီၪထၪ့အၥၭ": 7735,
      "လၧအလူဖၭဒိၪ": 7736,
      "ၡီၫ့လၩ့အၥၭ": 7737,
      "ထၩ့ဖံၭလဘံၪ့": 7738,
      "ၦလဆၨၩယီၩ": 7739,
      "အၪ့ဂူၪဆၧ": 7740,
      "ယဟီအကံၫ့": 7741,
      "ဂဲးယကၠီၪ့": 7742,
      "ဒဲအလ့": 7743,
      "ဆံၭအၪလဲၪ": 7744,
      "ဒိၪမၬတၭ": 7745,
      "ထီၫထုၬလဂၩ": 7746,
      "ဒဲစ့ၩရၫ့": 7747,
      "ဖိၪအလၧၫ့အဎွ့ၩ": 7748,
      "ချံၭလၩ့": 7749,
      "လၧဘ့ၭၥလံၫဟံၫ့": 7750,
      "ဒဲၦအၫမိၫဖိၪ": 7751,
      "ဖျၭလၩ့": 7752,
      "ပၧနအၫ့": 7753,
      "ၥိၪၥံၪဘ့ၪၥံၪ": 7754,
      "ကယၧၩ့ကယီၫ": 7755,
      "မီရၫ": 7756,
      "ယွၩအဂူၫဂၩလဖၪ": 7757,
      "စအၧၭဇဲအၫ": 7758,
      "စအဘဲအၥၫ": 7759,
      "အဒၩ့ခိၪ": 7760,
      "လထံၪဎးလဘီၩ့ဎး": 7761,
      "ၦဟံၥၭဖိၪ": 7762,
      "လၧဆၧနၧၫ့မၧၫ့မုၬ": 7763,
      "နီၫလဲၪနီၫလဲၪနီၪ": 7764,
      "အဖါလဖၪအဂံၪ့အၥိၭ": 7765,
      "မွဲလဆံၫနံၫဂၩလီၫ": 7766,
      "ၥုၪ့ခိၥၭဝီၩ": 7767,
      "ထုးခိၪ": 7768,
      "ဘၩ့ၥံၪမုးၥံၪ": 7769,
      "အၥုၪ့အုၭအၥၭအုၭ": 7770,
      "လၧနၭၥံၪဖၩ့": 7771,
      "အလူၪဝံၭဎဲၩ့": 7772,
      "စရၭဘၡၫက့ၫ": 7773,
      "ဇၫရဒၫ့": 7774,
      "တရူၩ": 7775,
      "ၥုၭနံၩၥုၭၥၫ့": 7776,
      "က့လၭ": 7777,
      "ကယးကဖး": 7778,
      "ခုၬ": 7779,
      "ဂၧၩ့": 7780,
      "စလၭ": 7781,
      "စဘ့ၭ": 7782,
      "စဘံၪ့ယမံၫ့": 7783,
      "ဇၧၭ": 7784,
      "ဒံၪ": 7785,
      "နလီၩ့": 7786,
      "နီၭ": 7787,
      "ပစံၭ": 7788,
      "ပနါဂၧၫ့": 7789,
      "ဖူၫ": 7790,
      "ဘၠ": 7791,
      "ယလီၩ့": 7792,
      "ယလီၩ": 7793,
      "ယစ့ၩရၫ့": 7794,
      "ယမွဲန": 7795,
      "ယနၪ့ထၪ့ထဲၩ့": 7796,
      "ယထံၩ": 7797,
      "ယခိၪဎွံၪ": 7798,
      "ယံဟုၫ": 7799,
      "ယဆိၪလၩ့ယၥၭ": 7800,
      "ရၬ": 7801,
      "လတ": 7802,
      "လဂံၪ့": 7803,
      "လွ့ၫ": 7804,
      "အီ": 7805,
      "အိၪ": 7806,
      "အဎံၪ": 7807,
      "အလၧၫ့": 7808,
      "အပိၩ့": 7809,
      "အဆံၬ": 7810,
      "အမွဲအတီၩ": 7811,
      "ုအၫ": 7812,
      "ၡုၫ": 7813,
      "ၡတြ": 7814,
      "ၥၧၫ": 7815,
      "ၥလဲအၫ": 7816,
      "ၦလခီၫ": 7817,
      "ၦလီၩဘၪ": 7818,
      "ၦအီၪလၧဆၧ": 7819,
      "ၦအီၪလၩ့ထး": 7820,
      "ၦအံၫစရ့": 7821,
      "ၦၥ့ၪဆၧလူၬ": 7822,
      "ၦကိၭဆၨၩဒ့ၭ": 7823,
      "ၬၥမါ": 7824,
      "လၧဖျံၩ": 7825,
      "လၧမံၩ့လၬ": 7826,
      "လၧဘံၪ့ယမံၫ့": 7827,
      "လၧဖံၫ့ချၪ": 7828,
      "လၧကျိၭ": 7829,
      "လၧၡံခံၫ့": 7830,
      "ဆၧၥိၪ": 7831,
      "ဆၧဒဲၩ": 7832,
      "ဆၧယိၬ": 7833,
      "ဆၧအကီၩ့အၥိၭ": 7834,
      "ဆၧၥုၪ့ဎွံၫၥၭယီၫ": 7835,
      "ဆၧၥွၪခိၪ": 7836,
      "ဆၧၥုၪ့အုၭၥၭအုၭ": 7837,
      "ဆၧအမၧၫ့": 7838,
      "ဆၧစီၩ့ခိၪ": 7839,
      "ဝ့ၫဆ့လီၫ": 7840,
      "ဝ့ၫၥ့ၪအ့ၬ": 7841,
      "နီၪဒုၭ": 7842,
      "နီၪဧၪ": 7843,
      "နီၪလဂ့ၩး": 7844,
      "တၭထံၫ": 7845,
      "တၭဆၧလၧအ": 7846,
      "တၭဘိၩ့နဲၪ့": 7847,
      "တၭယဟိဝၩစံၭဝ့ၫဒၪ": 7848,
      "တၭထီးၦ": 7849,
      "ၥံၪဘၪ": 7850,
      "ၥံၪလၧဆၧ": 7851,
      "ၥံၪအမ့ၬယၫ": 7852,
      "ၥံၪလၩ": 7853,
      "လၧအဖ့ၪလၫ့": 7854,
      "လၧအဂဲၫလၩ့": 7855,
      "ဒဲယၫ": 7856,
      "ဒဲယၧၩ": 7857,
      "ဒဲၥုၪ့": 7858,
      "ဒဲဖိၪၥၪ": 7859,
      "ဒဲလၧအဆၧ": 7860,
      "ဒဲဘုၪ": 7861,
      "အီၪဆီၪ့": 7862,
      "အီၪနးဂၩ": 7863,
      "အီၪပထုၬ": 7864,
      "ဘၪဘၪ": 7865,
      "ဘၪလၧဆၧ": 7866,
      "မိဂၪ့": 7867,
      "မိဎွ့ၩ": 7868,
      "မိထီၩ့": 7869,
      "မိလၩ့ဘၪ": 7870,
      "မၩနီၪ": 7871,
      "မၩဝ့ၫလီၫ": 7872,
      "မၩဂီၩ့": 7873,
      "မၩဝ့ၫနီၪ": 7874,
      "မၩလၧၫ့ထၪ့ဎွ့ၩထၪ့": 7875,
      "မၩၡၪ့မၩနၭ": 7876,
      "မွဲလၩလါအ့ၬ": 7877,
      "ထၪ့ဝ့ၫနီၪ": 7878,
      "ထၪ့ဝ့ၫဒၪလီၫ": 7879,
      "ဘဲၫဆၧအ": 7880,
      "ဘဲၫဖါ": 7881,
      "ဘဲၫအဂံၪ့ဒီၪ့": 7882,
      "ဒၪယ": 7883,
      "ဒၪၦၡၩ": 7884,
      "ဖိၪလၧအ": 7885,
      "ခွ့ၭ": 7886,
      "ဖၧၩ့အၥိၭနီၪလီၫ": 7887,
      "ထီးၥၭမဲၪဆၧလဂ့ၩ": 7888,
      "အဝ့ၫမၩ": 7889,
      "အဝ့ၫအ့ၬ": 7890,
      "လၩ့ဒၪ": 7891,
      "ယီၩအ့ၬ": 7892,
      "အလီၪ့": 7893,
      "ဂၩလဂၩ": 7894,
      "နၥံၪအီၪ": 7895,
      "နၥံၪဂဲၫ": 7896,
      "နၥံၪမၩဆၧ": 7897,
      "နၥံၪအစူၪ": 7898,
      "နၥံၪနဲၩ": 7899,
      "စံၭလိၬအၥၭ": 7900,
      "စံၭစယိၥၭ": 7901,
      "အၥၭအီၪဝ့ၫ": 7902,
      "လၧဆၧအီၪက့ၪ": 7903,
      "လၧယဂံၪ့": 7904,
      "လၧယလးခဲၫ့": 7905,
      "ဲးဆၧဘျၪ": 7906,
      "ချီလ": 7907,
      "ဟိဝၩနယွၩ": 7908,
      "န့ပၧၩ": 7909,
      "အဆၧဆၫ": 7910,
      "အဆၧထိးထဲၩ့တၩ့ထဲၩ့": 7911,
      "အဆၧထိးအၥၭ": 7912,
      "အဆၧအီၪက့ၪကီၪ့": 7913,
      "အဆၧၥၭထိၬအပရၧၫ့": 7914,
      "အဆၧဖံၭဆၧမၩ": 7915,
      "ထဲၩ့အဝ့ၫၥံၪ": 7916,
      "အဝ့ၫၥံၪဒုၭ": 7917,
      "အဖၧၩ့လၧ": 7918,
      "အဖၧၩ့လဖၪ": 7919,
      "အဖၧၩ့ယူၭ": 7920,
      "အၥိၭလၧ": 7921,
      "အၥိၭဆ့လီၫ": 7922,
      "ဆံၭၬ": 7923,
      "ဆံၭနီၪ": 7924,
      "ယဟိဝၩမၪလူၬ": 7925,
      "ယဟိဝၩအမ့ၬယၫလီၫ": 7926,
      "ယဟိဝၩမၧၫ့ဝ့ၫ": 7927,
      "လၧၦဒိၪ": 7928,
      "လၧၦဆံၫ့ဎံၪ": 7929,
      "လၧၦလဒီၪ့": 7930,
      "လၧၦၥုၭဖိၪ": 7931,
      "လၧၦအဆီၪ့": 7932,
      "လၭလီၫ": 7933,
      "ဝ့ၫဒၪအ့ၬ": 7934,
      "လၧနဖၧၩ့လီၫ": 7935,
      "လၧနဂဲး": 7936,
      "လၧနၡၩခမျၧး": 7937,
      "လၧနၩရံၩ": 7938,
      "အၫဟဇၭ": 7939,
      "ဒုၭလ့ၩနုၬ": 7940,
      "ဂဲၫထၫ့ဒၩ": 7941,
      "အဖိၪလီၫ": 7942,
      "ယိထၪ့": 7943,
      "ယူၭအ": 7944,
      "အဂးယူၭ": 7945,
      "ဘဲၫၥိၭၦလၧအ": 7946,
      "ၦလၧအၥ့ၪယၫ": 7947,
      "လါနီၪ": 7948,
      "လါယၧၩဆံၭ": 7949,
      "လၧစဲ": 7950,
      "လၧစဟ့": 7951,
      "အလးလအီၪဘၪ": 7952,
      "အဝ့ၫဒၪအီၪက့ၪ": 7953,
      "အဝ့ၫဒၪမၪလူၬ": 7954,
      "အဝ့ၫဒၪမိမၩ": 7955,
      "ယဲဂၩလီၫ": 7956,
      "ၥံၫဘၪ": 7957,
      "ၥံၫဝ့ၫလၧ": 7958,
      "ူၫရၫ့": 7959,
      "ထံၫအခး": 7960,
      "ထံၫယီၫဒၫ့": 7961,
      "ဆၧအထီ": 7962,
      "ဆၧအမုၬ": 7963,
      "ဆၧအဎၧၩ့အဎီ": 7964,
      "နးအၭဘ": 7965,
      "ကိၭထၪ့ဝ့ၫ": 7966,
      "နၧၩဆံၭ": 7967,
      "လူၬခွံၬဝ့ၫ": 7968,
      "ကယဲၥံၪ့": 7969,
      "ဖ့ၪလၫ့အ": 7970,
      "နံၫခွၩ့": 7971,
      "စဲၪ့လၩ့": 7972,
      "ဒဲၦထူၬကၥ့ၪ": 7973,
      "ဒဲစဘံၫ့": 7974,
      "အၡၩၥံၪ": 7975,
      "ဒဲဆၧၥၭမဲၪ": 7976,
      "ဒဲဆၧဘၪလိၬအိၭလိၬ": 7977,
      "ဒိၩ့လဖၪနီၪ": 7978,
      "ဝ့ၫလၧမူၭခိၪ": 7979,
      "အ့ၪမွဲအဝ့ၫဒၪ": 7980,
      "အကျၩဆံၭ": 7981,
      "လခီၫဒၪ": 7982,
      "ၥ့ၪယၫတၭ": 7983,
      "ၥ့ၪယၫဝ့ၫအ့ၬ": 7984,
      "အထၭ": 7985,
      "အထၩ့ဖံၭ": 7986,
      "ၥၪထၪ့ဝ့ၫ": 7987,
      "ၥၪဆိၫ": 7988,
      "ဎွ့ၩဝ့ၫလၧ": 7989,
      "အမ့ၬယၫနီၪလီၫ": 7990,
      "မၩန့ကိၪ": 7991,
      "လံနံၫ": 7992,
      "လၧယဟိဝၩဆံၭ": 7993,
      "ထီးနီၪဆံၭ": 7994,
      "ဝဲထၪ့ဆၧ": 7995,
      "မွဲဆၧပျီၩပျီၩ": 7996,
      "လမံၩ့လါ": 7997,
      "စူၪဖၧၩ့လီၫ": 7998,
      "ဆိၬအၪ့မၧၫ့ဎီး": 7999,
      "နုၬထဲၩ့": 8000,
      "ဆိၩယီၩ": 8001,
      "ဘၪဆဲၫ့လၧအ": 8002,
      "ဘဲၫၥိၭအမိဂဲၫ": 8003,
      "ဘဲၫၥိၭအမိအီၪက့ၪ": 8004,
      "မ့ၬထံၫ": 8005,
      "ထၧၫ့ဒီၪ့": 8006,
      "အခိၪလဂၩ": 8007,
      "အခိၪစီၪ့": 8008,
      "ဂၭဂီၩ့ဝ့ၫ": 8009,
      "ဂၭဂီၩ့နီၪ": 8010,
      "ဘိၪ့ကိၪ": 8011,
      "လၩ့ထံၩ": 8012,
      "ဖၩ့ဝ့ၫလၧထီၫ့": 8013,
      "ယၥၭအီၪ": 8014,
      "ယၥၭလၧယ": 8015,
      "ဝ့ၫလၧအဖါ": 8016,
      "ဝ့ၫလၧအဖၧၩ့လီၫ": 8017,
      "ဒၪဝ့ၫအဖၧၩ့လီၫ": 8018,
      "ဒ့ၭနီၪ": 8019,
      "အီၪလၧအလး": 8020,
      "ဆၧမၩမၪ": 8021,
      "လၧအဝ့ၫၥံၪအမ့ၬယၫလီၫ": 8022,
      "ဘၩ့ယ": 8023,
      "ထီးနီၪလဖၧၫ့ယစံၭ": 8024,
      "ဒိၭန့ဘၪ": 8025,
      "ခဲၫ့လီၫ": 8026,
      "ဖိၪၥံၪလီၫ": 8027,
      "အခိးမွဲၦ": 8028,
      "ဖၪလီၫ": 8029,
      "လၧခးအံ": 8030,
      "ကူၭဆၧ": 8031,
      "လၧဂၪ့ခိၪအဖၫ့ခိၪ": 8032,
      "နၫလီၫ": 8033,
      "အခၪ့ဖျၪ့": 8034,
      "အဖါလီၫ": 8035,
      "ဝံခိၪ": 8036,
      "ဖျါခွံၬဝ့ၫ": 8037,
      "နၧၫ့အုၪ": 8038,
      "လဘံၪ့ယီၩ": 8039,
      "ဘိၩ့နဲၪ့ယီၩဒၪလ့ၬ": 8040,
      "နးဂၩဆ့အ့ၬ": 8041,
      "ဖံၭဘၡ့ၭ": 8042,
      "ကယဲဆၧလၧ": 8043,
      "ကယဲဆၧချဲၩ့": 8044,
      "ဘျၪထဲၩ့ဝ့ၫ": 8045,
      "ဒဲနဖါ": 8046,
      "ဒဲနချံၫနၥၪ": 8047,
      "တၭဆၧလၧမုလနံၩနီၪ": 8048,
      "နၥံၪမိကဲၪထၪ့": 8049,
      "တဲၩဖၧၩ့": 8050,
      "လၧထံၫၥံၪ": 8051,
      "လၧထံၫဖၧၩ့": 8052,
      "ဝီၩလုၭ": 8053,
      "ၦမုၪမွဲဂ့ၩ": 8054,
      "ယဆၧန့ၥၫ": 8055,
      "ယဆၧဘၩဆိၪဖၪ": 8056,
      "ဘၩထၪ့ဆၧ": 8057,
      "ယၪလီၫ": 8058,
      "လၧစဎွၩအမ့ၬယၫ": 8059,
      "အ့ၪလမၩ": 8060,
      "လၧအမိမၩဆၧ": 8061,
      "ဂဲၫဆိၬဆၧ": 8062,
      "လိးလဖျိၪ့": 8063,
      "ချီမွဲဂ့ၩ": 8064,
      "ခိလီၪ့": 8065,
      "လၧယရုစလံၫ့အ": 8066,
      "ဘဲၫဆၧအလးဆံၫ့ဎံၪ": 8067,
      "လဒုၩလီၫ": 8068,
      "ဟၭအဖိၪခွၫ": 8069,
      "အခ့ၫအၡၩၥံၪ": 8070,
      "မွဲပလၫလဂၩ": 8071,
      "မီၪလဂၩနီၪ": 8072,
      "မွဲယဖိၪခွၫ": 8073,
      "အခးဖၧၩ့တၭ": 8074,
      "အခးနဲၩ့": 8075,
      "ဎုၬဘၪ": 8076,
      "ဖၫရ့ၭ": 8077,
      "ထဲၩ့ထဲၩ့ဝ့ၫလီၫ": 8078,
      "တၭယဒၪဘၪ": 8079,
      "ကိၭဂၩဒ့ၭဆံၭ": 8080,
      "ဂူၫဂၩလဂၩ": 8081,
      "ဒဲအဆၧစ့ၩရၫ့": 8082,
      "ယၫ့ၥၭအလး": 8083,
      "ဘဲၫအမၩဆၧ": 8084,
      "ဆၨၩလဖၪအကျၩ": 8085,
      "ဝ့ၫၥံၪတၭ": 8086,
      "ဆၧလဲးဆၧဘျၪ": 8087,
      "ၡံမအဲၫ": 8088,
      "လၧယုဘလံၫ": 8089,
      "မူၭခိၪအဘၩ့အမုး": 8090,
      "က့ၪထၪ့ထီၫ": 8091,
      "ဒၩ့ခိၪ": 8092,
      "လဲးလီၩ့": 8093,
      "ကိၭၡၭထၪ့တၭ": 8094,
      "အဝ့ၫၥံၪမိၥ့ၪယၫဝ့ၫ": 8095,
      "ဒုၪဒွ့ၪဆၧ": 8096,
      "လၧယၧၩယီၩ": 8097,
      "ဆိၫဒၪခလူၬ": 8098,
      "ဒိၭနဲၩ့နၥံၪအၥၭ": 8099,
      "အခိးမွဲစဒၫဝံၭ": 8100,
      "အခိးမွဲဘိၩ့နဲၪ့ယီၩ": 8101,
      "ယရုစလံၫ့အဖၧၩ့": 8102,
      "စၭဒုၫ": 8103,
      "လဘီၩ့တၭ": 8104,
      "လဘီၩ့ဎး": 8105,
      "နၫ့ထၪ့ခွံၬအဝ့ၫၥံၪ": 8106,
      "နၫ့ထၪ့ခွံၬဆၧနၪ": 8107,
      "အဂူၫဂၩလနၩ့နၩ့": 8108,
      "ဆၧအလးထၪ့ထီၫ": 8109,
      "မၩဆၧၩ့ယၧၩ": 8110,
      "စံၫဖီး": 8111,
      "ၥူၫအီၩ": 8112,
      "ဎွံၫၥၭယီၫ": 8113,
      "အနီၪဒံၭလီၫ": 8114,
      "ဎိၭယၩ": 8115,
      "ဎိၭဂၩလီၫ": 8116,
      "မၩလၩ့ပြံၩလၩ့": 8117,
      "နိၪထိၩ့ထီၫ့": 8118,
      "အထံၫမိၡါ": 8119,
      "လၧယၫလခီၫနီၪ": 8120,
      "ၥုၭဖိၪအလၫ့": 8121,
      "ထံၫၥံၪခးၥံၪတၭ": 8122,
      "ဒံဘၧၫ": 8123,
      "အၥိၭနီၪတၭး": 8124,
      "မုနၩနၩ": 8125,
      "ဒဲစအံၭ": 8126,
      "ဆိၪလၩ့အၥၭလၧ": 8127,
      "နၥံၪအဒုၪအဒၩ": 8128,
      "မိၥ့ၪဘဲၫၥ့ၪလဲၪ": 8129,
      "ဆၧယီၩလမံၩ့": 8130,
      "အဆၧမၪလူၬလဖၪ": 8131,
      "လၧအၥိၭလီၫ": 8132,
      "ဘၪခိၬလီၫ": 8133,
      "လံဆံၫလီၫ": 8134,
      "အဲၪ့လိၬဆိၭချဲၩ့": 8135,
      "ကဲၪစဎွၩလၧယရုစလံၫ့အဖၧၩ့": 8136,
      "ဆိၫ့န့": 8137,
      "ဆိၬထၪ့ယၧၩ": 8138,
      "ရံၫဟဘိအၫ့": 8139,
      "အဘိၩ့ဆၧၩ့နီၪ": 8140,
      "စနၫဘီၭ": 8141,
      "ခွံၫယၩ": 8142,
      "ဟဲရၫ့": 8143,
      "စၡ့ၫ": 8144,
      "စၡံၫ့": 8145,
      "ကဲၩ့ယၬ": 8146,
      "လၧထီၫ့ဆံၫ့": 8147,
      "ထၫလီၫ": 8148,
      "အၪ့ဂူၬန့ဆီၪ့": 8149,
      "လၧကဆါအဖၧၩ့": 8150,
      "အဆၧအီၪကီၪ့ထီးအလူၬ": 8151,
      "ဖၩ့ၥံၪနၭၥံၪ": 8152,
      "မိဖ့ၪလၫ့နၥံၪ": 8153,
      "ဆၧအၪထၪ့": 8154,
      "နံၫခီၫလူၬ": 8155,
      "ဒဲစယ့ၭ": 8156,
      "ထူၭဆၧလၧၫ့": 8157,
      "တၭၦလုဆၧလဂၩနီၪ": 8158,
      "ထံးလၩ့ဆ့ၭ": 8159,
      "လၩ့မဲၩဒၪဆၧ": 8160,
      "ခိၭနၪယလူဆံၭ": 8161,
      "လၩထၪ့လနံၩနီၪ": 8162,
      "လၧအလူတီၩ": 8163,
      "ဖီဘၪ": 8164,
      "အမၧၫ့ဝ့ၫ": 8165,
      "စဇဲ": 8166,
      "ၦၥုၭဖိၪလယၩအခိၪ": 8167,
      "လၧစမ့ရအၫအဖၧၩ့": 8168,
      "ဒဲၦလုဆၧလဖၪ": 8169,
      "အံၫစရ့လၭအၡၩဂံၪ့ဖိၪၥံၪဧ့": 8170,
      "ဎူၫယၩလီၫ": 8171,
      "နးထံၪအ့ၬ": 8172,
      "ိၫဘဲအၫ": 8173,
      "လၧဖျႃဖၧၩ့": 8174,
      "ယူၩဝ့ၫ": 8175,
      "ထီးအလ့ၩနုၬ": 8176,
      "အဂဲးဆီၪ့အဘၭဆီၪ့": 8177,
      "ဂိၡံၫ့": 8178,
      "ဒန့ဂိၫ": 8179,
      "လကဲၪဘၪ": 8180,
      "ကၧၫယၭ": 8181,
      "ဆုၪ့ဂူၬ": 8182,
      "ၥုၪ့ဆၭၥၭဆၭ": 8183,
      "ဒဲနံၫဆံၫအဖၫ့ခိၪနီၪ": 8184,
      "ထၧၫ့ဂၩယၫ": 8185,
      "မံၫဝ့ၫလၧအဖါၥံၪ": 8186,
      "စမံၡ့ၭ": 8187,
      "တလၭမူၭအခွၫ": 8188,
      "ၦဟံဘြူၫဖိၪ": 8189,
      "လၧအဘူၭထံး": 8190,
      "နံၫဘျၩ့လဘျၩ့": 8191,
      "ဟၧမၧၫ့": 8192,
      "ကျဲၪ့ထၪ့": 8193,
      "ရၭဘံၫဧ့": 8194,
      "အမံနဒၭ": 8195,
      "အဖံၫ့ချၪ": 8196,
      "ဇၧၭစံၫ": 8197,
      "ၡတြီၭ": 8198,
      "ကတဲၩ": 8199,
      "ကဖံၬ": 8200,
      "ကၪ့ၡၧၫ့": 8201,
      "ဂၧ": 8202,
      "ဂိၬ": 8203,
      "ဂိၫ့": 8204,
      "စမိ": 8205,
      "စအ့လၭ": 8206,
      "ဇဘၭ": 8207,
      "ဇဟၫ": 8208,
      "ဎီၩ": 8209,
      "ဒိ": 8210,
      "နဖိၪ": 8211,
      "န့ၭ": 8212,
      "နမၩန့": 8213,
      "နဒၪဘၪ": 8214,
      "နနါဂၧၫ့": 8215,
      "နုၫ": 8216,
      "နခိးနတၩ": 8217,
      "နဘၩ့နမုး": 8218,
      "ပ့": 8219,
      "ပမွဲၦ": 8220,
      "ပနၫ့ဆါ": 8221,
      "ပယွၩဧ့": 8222,
      "ဖူၬ": 8223,
      "ဘီၫ": 8224,
      "ယၥ့ၪ": 8225,
      "ယဲၩ": 8226,
      "ယဂံၪ့": 8227,
      "ယၥိၪ": 8228,
      "ယစံၭထၪ့အၪ့အူၭ": 8229,
      "ယမၩ့": 8230,
      "ယမးၥံၫအနံၩ": 8231,
      "ယမၪလူၬနၧၩ": 8232,
      "ရအၧၭ": 8233,
      "လထၧၫ့": 8234,
      "လခိၭနၪ": 8235,
      "လဒူၭ": 8236,
      "လံၪၥံၪ": 8237,
      "အနၫ့": 8238,
      "အအၪ": 8239,
      "အဆူၭ": 8240,
      "အယၬ": 8241,
      "အၡံၭ": 8242,
      "အဎွံၬ": 8243,
      "အဘူၭအထံး": 8244,
      "ၡဘိ": 8245,
      "ၥမၫ": 8246,
      "ၦခ": 8247,
      "ၦအီၪက့ၪ": 8248,
      "ၦလၧနၥံၪအကျၩ": 8249,
      "ၦမၧၩ့": 8250,
      "ၦဆၧအၪ့မၧၫ့": 8251,
      "ၦစ့ၩရၫ့ခွး": 8252,
      "ၦဒိၩ့ဖိၪ": 8253,
      "ၦဘံၪ့ယမံၫ့ဖိၪ": 8254,
      "လၧမံၩ့": 8255,
      "လၧဝၩ့": 8256,
      "လၧဆၬလၥၧၫ့": 8257,
      "လၧလဲၫ့": 8258,
      "လၧဂံၭဘအၫ": 8259,
      "ဆၧယူၭ": 8260,
      "ဆၧဒၪန့": 8261,
      "ဆၧၥီၫ": 8262,
      "ဆၧအီၪက့ၪထၪ့ထီၫ": 8263,
      "ဆၧကိၪ့ၥ့ၪကိၪ့ဘၪ": 8264,
      "နီၪအ": 8265,
      "နီၪဂဲၫ": 8266,
      "နီၪဘၪဆၧ": 8267,
      "နီၪၥိၭလီၫ": 8268,
      "တၭလၧဆၧ": 8269,
      "တၭအဖိၪခွၫ": 8270,
      "တၭအယီၩမွဲဆၧ": 8271,
      "ံၭစရ့လၭ": 8272,
      "လၧအဝ့ၫဒၪလီၫ": 8273,
      "လၧအခိၪဒၧၩ့": 8274,
      "ဒဲဘဲၫၥိၭ": 8275,
      "ဒဲဒိၪ": 8276,
      "ဒဲအလး": 8277,
      "ဒဲဂၪ့": 8278,
      "ဒဲမၫ": 8279,
      "ဒဲမိဘၪ": 8280,
      "ဒဲလၧၦၡၩ": 8281,
      "ဒဲဆၬလၥၧၫ့": 8282,
      "အီၪနီၪ": 8283,
      "အီၪလၧစ": 8284,
      "အီၪထၪ့ဝ့ၫ": 8285,
      "အီၪထီးယီၩ": 8286,
      "မိချဲၩ့": 8287,
      "မိၥၭမဲၪ": 8288,
      "မိဆိၪဂ့ၩ": 8289,
      "မိစဲၪ့ထၪ့": 8290,
      "မိၥုၪ့ဎွံၫၥၭယီၫ": 8291,
      "မိလၩ့ထ့ၬ": 8292,
      "မိဆံၫ့ထၪ့": 8293,
      "မၩတၩ": 8294,
      "မၩခိမၩဝီၩ": 8295,
      "မွဲထီၫ့": 8296,
      "မွဲနံၫလၬ": 8297,
      "ၥၭလၧအ": 8298,
      "ၥၭလၧဆၧ": 8299,
      "ၥၭအၧၩ့": 8300,
      "ထၪ့ၦ": 8301,
      "ထၪ့ဎွ့ၩထၪ့": 8302,
      "ဒၪလိၬ": 8303,
      "ဒၪစံၭဝ့ၫ": 8304,
      "ဖိၪအၦဒိၪ": 8305,
      "ထီးနမၩ": 8306,
      "ထီးအထုၬ": 8307,
      "လဖၭ": 8308,
      "လၩ့နီၪ": 8309,
      "ယီၩဘီၪ": 8310,
      "လဖၪအကၠီၩ့": 8311,
      "လဖၪတၭး": 8312,
      "မုနုၬ": 8313,
      "မုခၪ့ထံၭ": 8314,
      "မုဂၪ": 8315,
      "မုအထွ့ၪ": 8316,
      "ဂၩလၧအ": 8317,
      "နၥံၪဒုၭ": 8318,
      "နၥံၪဝ့ၫလီၫ": 8319,
      "စံၭၦခမျၧး": 8320,
      "စံၭဆၧနီၪ": 8321,
      "အၥၭကျၩလီၫ": 8322,
      "လၧဆၧၥီၪ့ဆၧၥၫ့": 8323,
      "လၧဆၧၥၭထိၬအပရၧၫ့": 8324,
      "လၧဆၧနူထံၫ": 8325,
      "လၧဆၧဂီး": 8326,
      "အၪ့လံၬ": 8327,
      "အၪ့ဘျၪ": 8328,
      "အၪ့နူ": 8329,
      "လၧယဘၪဆၧ": 8330,
      "လၧယအီၪလၧ": 8331,
      "လၧယခၪ့": 8332,
      "လၧယလူ": 8333,
      "လၧယအဲၪဝ့ၫ": 8334,
      "လၧယဆိၪလၩ့ယၥၭ": 8335,
      "့ၭကြၧၫ့": 8336,
      "ယၫဘ့ၭ": 8337,
      "ခွံၬတၭ": 8338,
      "အဆၧနဲၩ": 8339,
      "အဆၧယၫ့ၥၭ": 8340,
      "အဆၧအၪ့လီၫ": 8341,
      "အဆၧအၪ့ဆၧအီၩ": 8342,
      "ထဲၩ့အ": 8343,
      "အကိၭ": 8344,
      "အကယးကဖး": 8345,
      "အဝ့ၫၥံၪမၩဝ့ၫ": 8346,
      "အဂဲးဘဲၫၥ့ၪလဲၪ": 8347,
      "ဂ့ၩမၬလီၫ": 8348,
      "အဖၧၩ့လဂ့ၩ": 8349,
      "လဂၩအမံၩ့": 8350,
      "ယဟိဝၩအဂး": 8351,
      "ယဟိဝၩမိမၩ": 8352,
      "ယဟိဝၩစံၭဝ့ၫဘဲၫယီၩ": 8353,
      "ၥ့ၪဆ့အ့ၬ": 8354,
      "လၧၦအံၫ": 8355,
      "လၧၦအၧၩ့": 8356,
      "လၧၦၥုၭမု": 8357,
      "လၧၦၡၪ့ဖိၪယၬဖိၪ": 8358,
      "လၧနခး": 8359,
      "လၧနလး": 8360,
      "လၧနဖၫ့ခိၪ": 8361,
      "လၧနဖါလဖၪ": 8362,
      "လၧနချံၫနၥၪ": 8363,
      "အမံၫ": 8364,
      "ဒုၭဆၧလၧ": 8365,
      "ဒုၭစဲၪ့ထၪ့": 8366,
      "လ့ၩဆၧလၧယ": 8367,
      "ယွၩဆံၭ": 8368,
      "ယွၩအဖိၪခွၫ": 8369,
      "ယိဆၧတၭ": 8370,
      "အဂဲးဘဲၫယီၩၦလၧအ": 8371,
      "ဘဲၫၥိၭယမိဒုၭ": 8372,
      "အခရဲး": 8373,
      "အီၪက့ၪနၧၩ": 8374,
      "အစၭ": 8375,
      "အစွၩ": 8376,
      "ဒိၪလီၫ": 8377,
      "ဒိၪဎွ့ၩဒိၪ": 8378,
      "ၦလၧအလ့ၩ": 8379,
      "ၦလၧအမ့ၬလဲၩ": 8380,
      "မၧၫ့ဎီး": 8381,
      "လၧစယုဒၫ": 8382,
      "လၧစဒၫ့": 8383,
      "ယမိအၪ့မၧၫ့": 8384,
      "ဘၪဆၧအီၪ": 8385,
      "အဝ့ၫဒၪလၧ": 8386,
      "အဝ့ၫဒၪကိၭန့": 8387,
      "ဆၧအုၩ့": 8388,
      "နးတၫမၫ": 8389,
      "ဘၭၥ": 8390,
      "ခမျၧးထီးအလူၬ": 8391,
      "ခမျၧးအယဟိဝၩ": 8392,
      "ကိၭယၧၩ": 8393,
      "ကိၭနၧၩ": 8394,
      "ကိၭဘီၩ့": 8395,
      "မွဲအနံၪ့": 8396,
      "ကဲၪကၩ": 8397,
      "ဆံၫ့ခွံၬ": 8398,
      "မုၪလဂၩ": 8399,
      "အကၠီၩ့နီၪတၭ": 8400,
      "လၧနၥံၪလ": 8401,
      "လၧနၥံၪတၭ": 8402,
      "လၧနၥံၪအအီၪတၭ": 8403,
      "လၧနၥံၪအဂးတၭ": 8404,
      "လဖၪနီၪမိ": 8405,
      "နံၫထုၪ့": 8406,
      "အနၧၩ့": 8407,
      "ဒဲၦအီၪ": 8408,
      "ဒဲၦအီၪဝ့ၫ": 8409,
      "ဒဲၦကၫနအၫ့ဖိၪ": 8410,
      "အၡၩလဖၪ": 8411,
      "အၡၩဆံၫ့ဎံၪ": 8412,
      "ဒဲဆၧလၧအ": 8413,
      "ဒဲဆၧၥီၪ့ဆၧၥၫ့": 8414,
      "ဒဲဆၧခိဆၧဝီၩ": 8415,
      "ဒဲဆၧလၩဆၧဖၩ့": 8416,
      "အ့ၪမွဲၦမုၪ": 8417,
      "အကျၩလဂၩ": 8418,
      "လးထၪ့ထီၫ": 8419,
      "ဆံၫဖျိၪ့": 8420,
      "ၦၡၩမၩ": 8421,
      "ဎွ့ၩဎီၩ့": 8422,
      "တၭစစၪ့နၥၧၫ့": 8423,
      "ကၠူၭ": 8424,
      "လံဖျိၪ့": 8425,
      "ကဲၪထၪ့ၥၫ့": 8426,
      "ဒံၭဆၧ": 8427,
      "ယိခွါဘီၪ": 8428,
      "အစူၪနိၩ့": 8429,
      "ဂံၪ့ကဆါ": 8430,
      "အဂံၪ့ဒၪဝ့ၫ": 8431,
      "စဎွၩမၪလူၬ": 8432,
      "စူၪဝဲၩ": 8433,
      "အၧၩ့ဆၧၥၫ့": 8434,
      "ဆိၬဝ့ၫ": 8435,
      "ဆိၬထၪ့ဆၧ": 8436,
      "ၥၧၫ့မံၩ့": 8437,
      "ၥၧၫ့လၬ": 8438,
      "ၥၧၫ့ဒီၪ့": 8439,
      "ၥၫ့နီၪ": 8440,
      "ယုဘလံၫ": 8441,
      "လၫနီၪ": 8442,
      "လၧအဝ့ၫနီၪလီၫ": 8443,
      "ဒုၪအ": 8444,
      "ဒီၪ့လၩ့ဆဲၩ": 8445,
      "လၧအအီၪလၧဆၧ": 8446,
      "ထိၬအပရၧၫ့": 8447,
      "ဘဲၫၥိၭအမိအီၪ": 8448,
      "ဂးနီၪ": 8449,
      "လၧပၧ": 8450,
      "အၪ့မၧၫ့အ": 8451,
      "အၪ့မၧၫ့ဆီၪ့": 8452,
      "အဖၫ့ခိၪဆံၭ": 8453,
      "ဖၭဒိၪယီၩ": 8454,
      "အစဎွၩလီၫ": 8455,
      "အစဎွၩအီၭ": 8456,
      "မဲၪထၪ့ဆၧ": 8457,
      "ယၥၭၡီၩ့": 8458,
      "ကၠၪနၥၭ": 8459,
      "ဝ့ၫလၧအမိ": 8460,
      "ဝ့ၫလၧအၥၭ": 8461,
      "ဝ့ၫလၧအမ့ၬယၫ": 8462,
      "ဆၫတၭ": 8463,
      "ဒ့ၭဆံၭ": 8464,
      "ဒိၭအနါ": 8465,
      "ဒိၭနၥံၪအနါ": 8466,
      "မ့ၪခူၪ": 8467,
      "မ့ၬယၫအကိၪ": 8468,
      "နါဂၧၫ့နီၪ": 8469,
      "ထၪ့ဆၧနၧၫ့မၧၫ့": 8470,
      "ခဲၫ့နီၪ": 8471,
      "ခိၭနၪအဝ့ၫၥံၪ": 8472,
      "ခိၭနၪယဟိဝၩ": 8473,
      "ခိၭနၪလါ": 8474,
      "ဘၫလီၫ": 8475,
      "ဂဲထုၪ့လ့ၩ": 8476,
      "ထီးအထီၩ့": 8477,
      "လၧယွၩအၡၩ": 8478,
      "ဖၪနီၪလီၫ": 8479,
      "အဲၪလိၬ": 8480,
      "ကွ့ၭအ": 8481,
      "ကွ့ၭဆၧ": 8482,
      "ကွ့ၭလၩ့": 8483,
      "အခၪ့ဂၭဂီၩ့": 8484,
      "ၥံၪ့အလဲအိၫ့": 8485,
      "ဝံထၪ့": 8486,
      "အၪ့ဎူ": 8487,
      "ဖျါၥံၪ": 8488,
      "မုးဖိၪ": 8489,
      "နဲၩထဲၩ့ဝ့ၫ": 8490,
      "ဖၧၩ့ၥၭလီၫ": 8491,
      "ုၩ့ဂၪ့ထိၬ": 8492,
      "လ့ၩနုၬတၭ": 8493,
      "ၦမုၪလဖၪ": 8494,
      "အၪ့ဎၬဆၧ": 8495,
      "အနဲၩ့လီၫ": 8496,
      "ဘဲၫၥ့ၪလဲၪဘဲၫၥ့ၪလဲၪ": 8497,
      "မွဲနဘၪဆၧ": 8498,
      "ယဆၧဒဲၩဘၭ": 8499,
      "ဂဲၫထဲၩ့လၩ့": 8500,
      "လၧၩ့ဝ့ၫအ့ၬ": 8501,
      "လအီၪဘၪလၧ": 8502,
      "ဝ့ၫလၧဆၧလု": 8503,
      "ခိၬလီၫ": 8504,
      "လၧစဎွၩတၭ": 8505,
      "အီၩလၨၪ": 8506,
      "ထီးဒၪဆၧ": 8507,
      "ထီးဒၪၦလၧ": 8508,
      "ဖိၬနခဲၫ့": 8509,
      "လိးလဖၪ": 8510,
      "လိးဖၭဒိၪ": 8511,
      "ဖိၪၥၪဆံၭ": 8512,
      "စမိစ့ၭတၭ": 8513,
      "ဝၭၡိၩ့ၡိၬ": 8514,
      "ယ့ၫၡုၬစံၭအဝ့ၫၥံၪ": 8515,
      "ၥုၭမုအခိၪ": 8516,
      "ဘဲၫဆၧမၪလူၬ": 8517,
      "လၧအၥၭအီၪ": 8518,
      "လၧအၥၭဒူၩ": 8519,
      "ပၧၩ့ဆၧလၧအ": 8520,
      "ပၧၩ့တရၫ့": 8521,
      "နဆၧဒဲၩဘၭ": 8522,
      "ဆိၪဂ့ၩဝ့ၫလီၫ": 8523,
      "စမၡၧလၫ့": 8524,
      "လၧအံၫစရ့လၭအၡၩဂံၪ့ဖိၪ": 8525,
      "ၦလဂၩလၧအ": 8526,
      "မးၥံၫ": 8527,
      "လၧဆၧလုအဂံၪ့": 8528,
      "ယမိဒုၭဂဲၫထၪ့": 8529,
      "ခံၫ့န့": 8530,
      "ခံၫ့ၥၪ": 8531,
      "လၧမူၭခိၪအ": 8532,
      "မွဲယဟိ": 8533,
      "အဖိၪမုၪမွဲဂ့ၩ": 8534,
      "အမၫနီၪ": 8535,
      "အမၫလီၫ": 8536,
      "ၡၭထၪ့": 8537,
      "အခးလီၫ": 8538,
      "ဎုၬလိၬအၥၭ": 8539,
      "တၭအဝ့ၫဒၪမိ": 8540,
      "တၭအဝ့ၫဒၪစံၭယၧၩ": 8541,
      "ထဲၩ့ထဲၩ့လၧ": 8542,
      "လၧၦၡၩအဖိၪခွၫ": 8543,
      "ၦလုဆၧလဂၩ": 8544,
      "မိဘၪဆၧမၩ": 8545,
      "မိဘၪဆၧမၩၥံၫဝ့ၫ": 8546,
      "မိဘၪဆၧဒၪ့ထ့ၬခွံၬဝ့ၫ": 8547,
      "ၦအဆၨၩ": 8548,
      "အဆၧၫ့ထုၪ့": 8549,
      "စအံနၧၭ": 8550,
      "ထူၬထၪ့": 8551,
      "ထူၬဖိၪ": 8552,
      "လၧအဖၧၩ့အ့ၬ": 8553,
      "စံရ": 8554,
      "ဘုၪအၪ့": 8555,
      "ဆၧချဲၩ့အဒီၩ့": 8556,
      "ယၬဖိၪ": 8557,
      "က့ၪဖိၫလိၫ": 8558,
      "လၩ့မါခွံၬ": 8559,
      "လၧမ့ၪတၭ": 8560,
      "ကိၭထၪ့ယဟိဝၩတၭ": 8561,
      "ဒၪန့ဝ့ၫအ့ၬ": 8562,
      "အၪ့စၪ့ဆၧ": 8563,
      "ထုၭထၪ့န": 8564,
      "နၧၫ့မၧၫ့မုၬ": 8565,
      "အဆၧချဲၩ့နီၪ": 8566,
      "လၧမီၪအ": 8567,
      "ၨၪခၫ့ဖၬ": 8568,
      "ကြၨၭန့ဘၪ": 8569,
      "ပၪနံၫဘံၪ့": 8570,
      "ဖၩထံၭ": 8571,
      "အၪဂၩတၭ": 8572,
      "ၡၫ့ယၬ": 8573,
      "ဝါလခီၫလီၫ": 8574,
      "စၧၩ့လၩ့": 8575,
      "မိဂဲၫဝ့ၫ": 8576,
      "အၥၫ့နီၪ": 8577,
      "ဒဲလဲၪ့ၥုၭ": 8578,
      "အလၩအဖၩ့နီၪ": 8579,
      "ၥုၪ့တဲၩလၧ": 8580,
      "အရ့": 8581,
      "ဂုၪဆၧ": 8582,
      "ၥၭဝံအၥၭ": 8583,
      "ဘဲၫၥိၭနမိမၩ": 8584,
      "လၧဖၧၩ့ၥၭနီၪ": 8585,
      "အထံၫချိၬ": 8586,
      "အၥွံၪတၭ": 8587,
      "စက့": 8588,
      "လၧၥိၪဖၫလဒုၩ": 8589,
      "အ့ၪလမွဲဘၪတၭ": 8590,
      "စၧၩ့ထၬအၥၭ": 8591,
      "စန့ၭဘူၫ": 8592,
      "လၧခးအံဇံၭအ": 8593,
      "စဘၫအၡၫ": 8594,
      "စံၭဆၧအီၪကီၪ့": 8595,
      "ယလီၩဘၪနၧၩ": 8596,
      "လၧၦအံၫစရ့လၭဖိၪအကျၩ": 8597,
      "လၧၥံၪ့မု": 8598,
      "ချဲၫ့ချဲၫ့ဆံၭ": 8599,
      "နဝ့ၫဒၪယီၩန": 8600,
      "ၡက့": 8601,
      "ၦလၧအမၩကြၩ့ထမး": 8602,
      "တၭစဒၫဝံၭစံၭဝ့ၫဒၪ": 8603,
      "လၧကမၫ": 8604,
      "လူၫလၩ့ခွံၬ": 8605,
      "နံဘၪ": 8606,
      "အီၪယူဝ့ၫနီၪ": 8607,
      "အဲၪ့လိၬ": 8608,
      "လၧအဒုၭစဲၪ့ထၪ့ခွံၬ": 8609,
      "လၥ့ၪယၫဘၪဝ့ၫ": 8610,
      "အၧၭဇဲအၫ": 8611,
      "စနၫဒၭ": 8612,
      "လၧအကျၩတၭ": 8613,
      "စယီရှုၫအ့ၫတၭ": 8614,
      "မွဲဘၪနီၫလၧန": 8615,
      "ဘ့ၫဒန့ဂိၫ": 8616,
      "စၡ့ၭ": 8617,
      "ဂၧၫ့ထၪ့ၥၩ": 8618,
      "လၧနၥၭခံ": 8619,
      "အီၪဝၬဖီၩ့ဝ့ၫ": 8620,
      "အီၪဝၬဖီၩ့ယၧၩ": 8621,
      "လၩ့ထံးလၩ့ဆ့ၭတၭ": 8622,
      "လမၩလိၪ": 8623,
      "လံၭၡမၫ": 8624,
      "အီၪလၧအၥိၭတၭ": 8625,
      "ဖီၫယၫ": 8626,
      "လၧဎရံၬအဖၧၩ့": 8627,
      "အဖျါနံၫဆံၫ": 8628,
      "ဆၧနၧၫ့မၧၫ့မုၬ": 8629,
      "လၧစပံတၧၫ": 8630,
      "နးမၫၥၫ": 8631,
      "အၥၭၡါယူၭ": 8632,
      "အီၪလၩ့မါပံၭတၭ": 8633,
      "ထွံၪဂၪ့ခိၪ": 8634,
      "အစံရအၫဖိၪ": 8635,
      "ခိၭနၪယလူအ့ၬ": 8636,
      "ဒဲစအၫရၧၫ့တၭ": 8637,
      "အခၫနီၪ": 8638,
      "အၪမံၩ့လီၫ": 8639,
      "ဒဲၦမုၪမဲၫ": 8640,
      "လဆံၭဆံၭ": 8641,
      "အၪ့ဂၬဝ့ၫတၭ": 8642,
      "ဂၪ့အုၩ့ဂၪ့ထိၬ": 8643,
      "လၧၦအတီၩအလီၩ့": 8644,
      "ဇဲၫအၫ": 8645,
      "ဎွ့လၩ့": 8646,
      "အိၩဖၧၩ့": 8647,
      "လၧအၥၭခံဖၧၩ့တၭ": 8648,
      "လမွဲဘၪဆၧ": 8649,
      "ဖံၪထၪ့": 8650,
      "ၥၫ့ထီးၥံၪ": 8651,
      "ၥူၭဝံၪၥူၭလၩဆၧ": 8652,
      "အၡၩဂံၪ့ဖိၪၥံၪဧ့": 8653,
      "လၧအ့ဖိၭ": 8654,
      "မုဆဲၪ့ထၪ့နီၪ": 8655,
      "အီၩ့အိၪ": 8656,
      "ဂိးၡီၫ": 8657,
      "ဒန့ရံၫ": 8658,
      "ယိၫစဲအၫ": 8659,
      "လစီၪ့စီၪ့နီၪ": 8660,
      "ဖိၬယခဲၫ့ဆံၭ": 8661,
      "လမံၩ့ဘၪလမံၩ့": 8662,
      "ဒဲဂမီရၫ": 8663,
      "ယလၩယဖၩ့": 8664,
      "ဆၧအွံၪၥၭဆၧၩ့": 8665,
      "အလခီၫဒီၪ့": 8666,
      "အလံၬကွ့ၭနဲၪ့ဆၧအဖၧၩ့နီၪ": 8667,
      "ၦၥၭဘီၩ့ၥံၪဧ့": 8668,
      "ဆိၫအချဲၫ့": 8669,
      "ဘၩ့ယမုး": 8670,
      "စၭဒုၫစံၫ": 8671,
      "ၡဘိၡ့ၭ": 8672,
      "ကထ": 8673,
      "က့": 8674,
      "ကထၬ": 8675,
      "ကိအၫ": 8676,
      "ကပၧနအၫ့": 8677,
      "ဂဒၫ": 8678,
      "စဖ": 8679,
      "စဲၫ": 8680,
      "စံၫ့": 8681,
      "စဖၭ": 8682,
      "စဖ့": 8683,
      "ဎအၩမံၩ့": 8684,
      "တၨၭ": 8685,
      "ထနါ": 8686,
      "နစီၩ့နမၩ့": 8687,
      "ပၧၭ": 8688,
      "ဖတဲအၫ": 8689,
      "ဘနၫ": 8690,
      "မရၫ့": 8691,
      "ယၥုၪ့": 8692,
      "ယထိး": 8693,
      "ယနါ": 8694,
      "ယမ့ၬယၫ": 8695,
      "ယလ့ၩထၪ့": 8696,
      "ယကီၩ့": 8697,
      "ယအီၪလၧဆၧ": 8698,
      "ယကြၨၭ": 8699,
      "ရူၫ": 8700,
      "လတီၩလလီၩ့": 8701,
      "ဝ့ၬ": 8702,
      "ဝံၩ": 8703,
      "ဟၧၫ့": 8704,
      "အၦ": 8705,
      "အအီၪဝ့ၫ": 8706,
      "အမုး": 8707,
      "အဘုၪ": 8708,
      "အဘီၪ့": 8709,
      "ၡိၪ": 8710,
      "ၡဘၭ": 8711,
      "ၥု": 8712,
      "ၥိၫ": 8713,
      "ၦဂဲၫ": 8714,
      "ၦအဂ့ၩ": 8715,
      "ၦၡၪ့ဖိၪယၬ": 8716,
      "ၦဖၫဆွံၪ": 8717,
      "ၦနၭဇရ့ၭဖိၪ": 8718,
      "လၧမိ": 8719,
      "လၧချံၫ": 8720,
      "လၧဂံလအၭ": 8721,
      "လၧထီးဝီၩ": 8722,
      "လၧလးမံၫ": 8723,
      "လၧဘ့ၫၥလၭ": 8724,
      "ဆၧအကၠီၩ့": 8725,
      "ဆၧၥုၭ": 8726,
      "ဆၧမုၬ": 8727,
      "ဆၧလံၩ": 8728,
      "ဆၧဎွ့ၩန့ထဲၩ့": 8729,
      "ဆၧအလူအထၫ": 8730,
      "ဆၧဖ့ၪလၫ့ဝ့ၫ": 8731,
      "နီၪလခီၫ": 8732,
      "နီၪအီၪဝ့ၫလၧ": 8733,
      "တၭယိ": 8734,
      "တၭအယီၩ": 8735,
      "တၭနမၩ": 8736,
      "တၭလၧလၩ": 8737,
      "တၭအံၫစရ့လၭအစဎွၩ": 8738,
      "ၥံၪဒဲ": 8739,
      "ၥံၪဘၪဆၧ": 8740,
      "ၥံၪအီၪဝ့ၫ": 8741,
      "ၥံၪဒဲၦ": 8742,
      "ၥံၪလဲ": 8743,
      "လၧအစ့ၩရၫ့": 8744,
      "လၧအဒိၭ": 8745,
[...]
