{
  "version": "1.0",
  "truncation": null,
  "padding": null,
  "added_tokens": [
    {
      "id": 0,
      "content": "<pad>",
      "single_word": false,
      "lstrip": false,
      "rstrip": false,
      "normalized": false,
      "special": true
    },
    {
      "id": 1,
      "content": "<unk>",
      "single_word": false,
      "lstrip": false,
      "rstrip": false,
      "normalized": false,
      "special": true
    },
    {
      "id": 2,
      "content": "<s>",
      "single_word": false,
      "lstrip": false,
      "rstrip": false,
      "normalized": false,
      "special": true
    },
    {
      "id": 3,
      "content": "</s>",
      "single_word": false,
      "lstrip": false,
      "rstrip": false,
      "normalized": false,
      "special": true
    }
  ],
  "normalizer": null,
  "pre_tokenizer": {
    "type": "Sequence",
    "pretokenizers": [
      {
        "type": "Whitespace"
      },
      {
        "type": "Split",
        "pattern": {
          "Regex": "(?<=[ऀ-ॿ஀-௿฀-๿຀-໿က-႟ក-៿一-鿿꤀-꤯])(?=[A-Za-z0-9])|(?<=[A-Za-z0-9])(?=[ऀ-ॿ஀-௿฀-๿຀-໿က-႟ក-៿一-鿿꤀-꤯])"
        },
        "behavior": "Isolated",
        "invert": false
      }
    ]
  },
  "post_processor": null,
  "decoder": null,
  "model": {
    "type": "BPE",
    "dropout": null,
    "unk_token": "<unk>",
    "continuing_subword_prefix": null,
    "end_of_word_suffix": null,
    "fuse_unk": false,
    "byte_fallback": false,
    "ignore_merges": false,
    "vocab": {
      "<pad>": 0,
      "<unk>": 1,
      "<s>": 2,
      "</s>": 3,
      "!": 4,
      "\"": 5,
      "#": 6,
      "$": 7,
      "%": 8,
      "&": 9,
      "'": 10,
      "(": 11,
      ")": 12,
      "*": 13,
      "+": 14,
      ",": 15,
      "-": 16,
      ".": 17,
      "/": 18,
      "0": 19,
      "1": 20,
      "2": 21,
      "3": 22,
      "4": 23,
      "5": 24,
      "6": 25,
      "7": 26,
      "8": 27,
      "9": 28,
      ":": 29,
      ";": 30,
      "<": 31,
      "=": 32,
      ">": 33,
      "?": 34,
      "@": 35,
      "A": 36,
      "B": 37,
      "C": 38,
      "D": 39,
      "E": 40,
      "F": 41,
      "G": 42,
      "H": 43,
      "I": 44,
      "J": 45,
      "K": 46,
      "L": 47,
      "M": 48,
      "N": 49,
      "O": 50,
      "P": 51,
      "Q": 52,
      "R": 53,
      "S": 54,
      "T": 55,
      "U": 56,
      "V": 57,
      "W": 58,
      "X": 59,
      "Y": 60,
      "Z": 61,
      "[": 62,
      "\\": 63,
      "]": 64,
      "^": 65,
      "_": 66,
      "`": 67,
      "a": 68,
      "b": 69,
      "c": 70,
      "d": 71,
      "e": 72,
      "f": 73,
      "g": 74,
      "h": 75,
      "i": 76,
      "j": 77,
      "k": 78,
      "l": 79,
      "m": 80,
      "n": 81,
      "o": 82,
      "p": 83,
      "q": 84,
      "r": 85,
      "s": 86,
      "t": 87,
      "u": 88,
      "v": 89,
      "w": 90,
      "x": 91,
      "y": 92,
      "z": 93,
      "{": 94,
      "|": 95,
      "}": 96,
      "~": 97,
      "¡": 98,
      "¢": 99,
      "£": 100,
      "¤": 101,
      "¥": 102,
      "¦": 103,
      "§": 104,
      "©": 105,
      "«": 106,
      "¬": 107,
      "­": 108,
      "®": 109,
      "°": 110,
      "±": 111,
      "²": 112,
      "³": 113,
      "´": 114,
      "µ": 115,
      "¶": 116,
      "·": 117,
      "¸": 118,
      "¹": 119,
      "º": 120,
      "»": 121,
      "½": 122,
      "¿": 123,
      "À": 124,
      "Á": 125,
      "Â": 126,
      "Ã": 127,
      "Ä": 128,
      "Å": 129,
      "Æ": 130,
      "Ç": 131,
      "È": 132,
      "É": 133,
      "Ê": 134,
      "Ë": 135,
      "Ì": 136,
      "Í": 137,
      "Î": 138,
      "Ï": 139,
      "Ð": 140,
      "Ñ": 141,
      "Ò": 142,
      "Ó": 143,
      "Ô": 144,
      "Õ": 145,
      "Ö": 146,
      "×": 147,
      "Ø": 148,
      "Ù": 149,
      "Ú": 150,
      "Û": 151,
      "Ü": 152,
      "Ý": 153,
      "Þ": 154,
      "ß": 155,
      "à": 156,
      "á": 157,
      "â": 158,
      "ã": 159,
      "ä": 160,
      "å": 161,
      "æ": 162,
      "ç": 163,
      "è": 164,
      "é": 165,
      "ê": 166,
      "ë": 167,
      "ì": 168,
      "í": 169,
      "î": 170,
      "ï": 171,
      "ð": 172,
      "ñ": 173,
      "ò": 174,
      "ó": 175,
      "ô": 176,
      "õ": 177,
      "ö": 178,
      "÷": 179,
      "ø": 180,
      "ù": 181,
      "ú": 182,
      "û": 183,
      "ü": 184,
      "ý": 185,
      "þ": 186,
      "ÿ": 187,
      "Ā": 188,
      "ā": 189,
      "Ă": 190,
      "ă": 191,
      "Ą": 192,
      "ą": 193,
      "Ć": 194,
      "ć": 195,
      "Ĉ": 196,
      "ĉ": 197,
      "Ċ": 198,
      "ċ": 199,
      "Č": 200,
      "č": 201,
      "Ď": 202,
      "ď": 203,
      "Đ": 204,
      "đ": 205,
      "Ē": 206,
      "ē": 207,
      "Ĕ": 208,
      "ĕ": 209,
      "Ė": 210,
      "ė": 211,
      "Ę": 212,
      "ę": 213,
      "Ě": 214,
      "ě": 215,
      "Ĝ": 216,
      "ĝ": 217,
      "Ğ": 218,
      "ğ": 219,
      "Ġ": 220,
      "ġ": 221,
      "Ģ": 222,
      "ģ": 223,
      "Ĥ": 224,
      "ĥ": 225,
      "Ħ": 226,
      "ħ": 227,
      "Ĩ": 228,
      "ĩ": 229,
      "Ī": 230,
      "ī": 231,
      "Ĭ": 232,
      "ĭ": 233,
      "Į": 234,
      "į": 235,
      "İ": 236,
      "ı": 237,
      "Ĵ": 238,
      "ĵ": 239,
      "Ķ": 240,
      "ķ": 241,
      "Ĺ": 242,
      "ĺ": 243,
      "Ļ": 244,
      "ļ": 245,
      "Ľ": 246,
      "ľ": 247,
      "Ŀ": 248,
      "ŀ": 249,
      "Ł": 250,
      "ł": 251,
      "Ń": 252,
      "ń": 253,
      "Ņ": 254,
      "ņ": 255,
      "Ň": 256,
      "ň": 257,
      "Ŋ": 258,
      "ŋ": 259,
      "Ō": 260,
      "ō": 261,
      "Ŏ": 262,
      "ŏ": 263,
      "Ő": 264,
      "ő": 265,
      "Œ": 266,
      "œ": 267,
      "Ŕ": 268,
      "ŕ": 269,
      "Ŗ": 270,
      "ŗ": 271,
      "Ř": 272,
      "ř": 273,
      "Ś": 274,
      "ś": 275,
      "Ŝ": 276,
      "ŝ": 277,
      "Ş": 278,
      "ş": 279,
      "Š": 280,
      "š": 281,
      "Ţ": 282,
      "ţ": 283,
      "Ť": 284,
      "ť": 285,
      "ŧ": 286,
      "Ũ": 287,
      "ũ": 288,
      "Ū": 289,
      "ū": 290,
      "Ŭ": 291,
      "ŭ": 292,
      "Ů": 293,
      "ů": 294,
      "Ű": 295,
      "ű": 296,
      "Ų": 297,
      "ų": 298,
      "Ŵ": 299,
      "ŵ": 300,
      "Ŷ": 301,
      "ŷ": 302,
      "Ÿ": 303,
      "Ź": 304,
      "ź": 305,
      "Ż": 306,
      "ż": 307,
      "Ž": 308,
      "ž": 309,
      "Ɔ": 310,
      "ƈ": 311,
      "Ǝ": 312,
      "Ə": 313,
      "Ɛ": 314,
      "ƒ": 315,
      "ƕ": 316,
      "ƙ": 317,
      "ƛ": 318,
      "ơ": 319,
      "ƥ": 320,
      "ƭ": 321,
      "ư": 322,
      "ƿ": 323,
      "ǀ": 324,
      "ǁ": 325,
      "ǂ": 326,
      "ǃ": 327,
      "Ǆ": 328,
      "Ǎ": 329,
      "ǎ": 330,
      "Ǐ": 331,
      "ǐ": 332,
      "Ǒ": 333,
      "ǒ": 334,
      "Ǔ": 335,
      "ǔ": 336,
      "Ǖ": 337,
      "ǖ": 338,
      "Ǘ": 339,
      "ǘ": 340,
      "Ǚ": 341,
      "ǚ": 342,
      "Ǜ": 343,
      "ǜ": 344,
      "ǝ": 345,
      "Ǣ": 346,
      "ǣ": 347,
      "Ǫ": 348,
      "ǫ": 349,
      "Ƕ": 350,
      "ȁ": 351,
      "ȅ": 352,
      "ȉ": 353,
      "Ȍ": 354,
      "ȍ": 355,
      "Ȏ": 356,
      "ȏ": 357,
      "Ȕ": 358,
      "ȕ": 359,
      "Ȗ": 360,
      "ȗ": 361,
      "Ș": 362,
      "ș": 363,
      "Ț": 364,
      "ț": 365,
      "ȡ": 366,
      "Ȳ": 367,
      "ȳ": 368,
      "ȴ": 369,
      "ȵ": 370,
      "ȶ": 371,
      "ȷ": 372,
      "Ɂ": 373,
      "ɂ": 374,
      "ɏ": 375,
      "ɐ": 376,
      "ɑ": 377,
      "ɒ": 378,
      "ɓ": 379,
      "ɔ": 380,
      "ɕ": 381,
      "ɖ": 382,
      "ɗ": 383,
      "ɘ": 384,
      "ə": 385,
      "ɚ": 386,
      "ɛ": 387,
      "ɜ": 388,
      "ɝ": 389,
      "ɞ": 390,
      "ɟ": 391,
      "ɠ": 392,
      "ɡ": 393,
      "ɢ": 394,
      "ɣ": 395,
      "ɤ": 396,
      "ɥ": 397,
      "ɦ": 398,
      "ɧ": 399,
      "ɨ": 400,
      "ɪ": 401,
      "ɫ": 402,
      "ɬ": 403,
      "ɭ": 404,
      "ɮ": 405,
      "ɯ": 406,
      "ɰ": 407,
      "ɱ": 408,
      "ɲ": 409,
      "ɳ": 410,
      "ɴ": 411,
      "ɵ": 412,
      "ɶ": 413,
      "ɸ": 414,
      "ɹ": 415,
      "ɺ": 416,
      "ɻ": 417,
      "ɽ": 418,
      "ɾ": 419,
      "ʀ": 420,
      "ʁ": 421,
      "ʂ": 422,
      "ʃ": 423,
      "ʄ": 424,
      "ʇ": 425,
      "ʈ": 426,
      "ʉ": 427,
      "ʊ": 428,
      "ʋ": 429,
      "ʌ": 430,
      "ʍ": 431,
      "ʎ": 432,
      "ʏ": 433,
      "ʐ": 434,
      "ʑ": 435,
      "ʒ": 436,
      "ʔ": 437,
      "ʕ": 438,
      "ʖ": 439,
      "ʗ": 440,
      "ʘ": 441,
      "ʙ": 442,
      "ʛ": 443,
      "ʜ": 444,
      "ʝ": 445,
      "ʟ": 446,
      "ʠ": 447,
      "ʡ": 448,
      "ʢ": 449,
      "ʣ": 450,
      "ʤ": 451,
      "ʥ": 452,
      "ʦ": 453,
      "ʧ": 454,
      "ʨ": 455,
      "ʰ": 456,
      "ʱ": 457,
      "ʲ": 458,
      "ʳ": 459,
      "ʶ": 460,
      "ʷ": 461,
      "ʹ": 462,
      "ʻ": 463,
      "ʼ": 464,
      "ʽ": 465,
      "ʾ": 466,
      "ʿ": 467,
      "ˀ": 468,
      "ˁ": 469,
      "ˈ": 470,
      "ˌ": 471,
      "ː": 472,
      "ˑ": 473,
      "˒": 474,
      "˓": 475,
      "˔": 476,
      "˕": 477,
      "˖": 478,
      "˗": 479,
      "˞": 480,
      "ˠ": 481,
      "ˡ": 482,
      "ˤ": 483,
      "˥": 484,
      "˦": 485,
      "˧": 486,
      "˨": 487,
      "˩": 488,
      "˭": 489,
      "̀": 490,
      "́": 491,
      "̂": 492,
      "̃": 493,
      "̄": 494,
      "̆": 495,
      "̈": 496,
      "̊": 497,
      "̋": 498,
      "̌": 499,
      "̍": 500,
      "̎": 501,
      "̏": 502,
      "̑": 503,
      "̘": 504,
      "̙": 505,
      "̚": 506,
      "̜": 507,
      "̝": 508,
      "̞": 509,
      "̟": 510,
      "̠": 511,
      "̢": 512,
      "̣": 513,
      "̤": 514,
      "̥": 515,
      "̩": 516,
      "̪": 517,
      "̫": 518,
      "̬": 519,
      "̯": 520,
      "̰": 521,
      "̱": 522,
      "̴": 523,
      "̹": 524,
      "̺": 525,
      "̻": 526,
      "̼": 527,
      "̽": 528,
      "͆": 529,
      "͇": 530,
      "͈": 531,
      "͉": 532,
      "͊": 533,
      "͍": 534,
      "͎": 535,
      "͑": 536,
      "͗": 537,
      "͜": 538,
      "͡": 539,
      "Ά": 540,
      "Έ": 541,
      "Ή": 542,
      "Ί": 543,
      "Ό": 544,
      "Ύ": 545,
      "Ώ": 546,
      "ΐ": 547,
      "Α": 548,
      "Β": 549,
      "Γ": 550,
      "Δ": 551,
      "Ε": 552,
      "Ζ": 553,
      "Η": 554,
      "Θ": 555,
      "Ι": 556,
      "Κ": 557,
      "Λ": 558,
      "Μ": 559,
      "Ν": 560,
      "Ξ": 561,
      "Ο": 562,
      "Π": 563,
      "Ρ": 564,
      "Σ": 565,
      "Τ": 566,
      "Υ": 567,
      "Φ": 568,
      "Χ": 569,
      "Ψ": 570,
      "Ω": 571,
      "Ϊ": 572,
      "Ϋ": 573,
      "ά": 574,
      "έ": 575,
      "ή": 576,
      "ί": 577,
      "ΰ": 578,
      "α": 579,
      "β": 580,
      "γ": 581,
      "δ": 582,
      "ε": 583,
      "ζ": 584,
      "η": 585,
      "θ": 586,
      "ι": 587,
      "κ": 588,
      "λ": 589,
      "μ": 590,
      "ν": 591,
      "ξ": 592,
      "ο": 593,
      "π": 594,
      "ρ": 595,
      "ς": 596,
      "σ": 597,
      "τ": 598,
      "υ": 599,
      "φ": 600,
      "χ": 601,
      "ψ": 602,
      "ω": 603,
      "ϊ": 604,
      "ϋ": 605,
      "ό": 606,
      "ύ": 607,
      "ώ": 608,
      "ϐ": 609,
      "ϑ": 610,
      "ϕ": 611,
      "Ϛ": 612,
      "Ϝ": 613,
      "ϝ": 614,
      "ϰ": 615,
      "ϱ": 616,
      "ϲ": 617,
      "ϵ": 618,
      "Ё": 619,
      "Ђ": 620,
      "Ѓ": 621,
      "Є": 622,
      "Ѕ": 623,
      "І": 624,
      "Ї": 625,
      "Ј": 626,
      "Љ": 627,
      "Њ": 628,
      "Ћ": 629,
      "Ќ": 630,
      "Ў": 631,
      "Џ": 632,
      "А": 633,
      "Б": 634,
      "В": 635,
      "Г": 636,
      "Д": 637,
      "Е": 638,
      "Ж": 639,
      "З": 640,
      "И": 641,
      "Й": 642,
      "К": 643,
      "Л": 644,
      "М": 645,
      "Н": 646,
      "О": 647,
      "П": 648,
      "Р": 649,
      "С": 650,
      "Т": 651,
      "У": 652,
      "Ф": 653,
      "Х": 654,
      "Ц": 655,
      "Ч": 656,
      "Ш": 657,
      "Щ": 658,
      "Ъ": 659,
      "Ы": 660,
      "Ь": 661,
      "Э": 662,
      "Ю": 663,
      "Я": 664,
      "а": 665,
      "б": 666,
      "в": 667,
      "г": 668,
      "д": 669,
      "е": 670,
      "ж": 671,
      "з": 672,
      "и": 673,
      "й": 674,
      "к": 675,
      "л": 676,
      "м": 677,
      "н": 678,
      "о": 679,
      "п": 680,
      "р": 681,
      "с": 682,
      "т": 683,
      "у": 684,
      "ф": 685,
      "х": 686,
      "ц": 687,
      "ч": 688,
      "ш": 689,
      "щ": 690,
      "ъ": 691,
      "ы": 692,
      "ь": 693,
      "э": 694,
      "ю": 695,
      "я": 696,
      "ё": 697,
      "ђ": 698,
      "ѓ": 699,
      "є": 700,
      "ѕ": 701,
      "і": 702,
      "ї": 703,
      "ј": 704,
      "љ": 705,
      "њ": 706,
      "ћ": 707,
      "ќ": 708,
      "ў": 709,
      "џ": 710,
      "Ґ": 711,
      "ґ": 712,
      "Ғ": 713,
      "ғ": 714,
      "Ҕ": 715,
      "ҕ": 716,
      "Җ": 717,
      "җ": 718,
      "Ҙ": 719,
      "ҙ": 720,
      "Қ": 721,
      "қ": 722,
      "Ҝ": 723,
      "ҝ": 724,
      "Ҟ": 725,
      "ҟ": 726,
      "Ҡ": 727,
      "ҡ": 728,
      "Ң": 729,
      "ң": 730,
      "Ҥ": 731,
      "ҥ": 732,
      "Ҧ": 733,
      "ҧ": 734,
      "Ҩ": 735,
      "ҩ": 736,
      "Ҫ": 737,
      "ҫ": 738,
      "Ҭ": 739,
      "ҭ": 740,
      "Ү": 741,
      "ү": 742,
      "Ұ": 743,
      "ұ": 744,
      "Ҳ": 745,
      "ҳ": 746,
      "Ҵ": 747,
      "ҵ": 748,
      "Ҷ": 749,
      "ҷ": 750,
      "Ҹ": 751,
      "ҹ": 752,
      "Һ": 753,
      "һ": 754,
      "Ҽ": 755,
      "ҽ": 756,
      "Ҿ": 757,
      "ҿ": 758,
      "Ӏ": 759,
      "Ӂ": 760,
      "ӂ": 761,
      "Ӄ": 762,
      "ӄ": 763,
      "Ӈ": 764,
      "ӈ": 765,
      "Ӌ": 766,
      "ӌ": 767,
      "ӏ": 768,
      "Ӑ": 769,
      "ӑ": 770,
      "Ӓ": 771,
      "ӓ": 772,
      "Ӕ": 773,
      "ӕ": 774,
      "Ӗ": 775,
      "ӗ": 776,
      "Ә": 777,
      "ә": 778,
      "Ӛ": 779,
      "ӛ": 780,
      "Ӝ": 781,
      "ӝ": 782,
      "Ӟ": 783,
      "ӟ": 784,
      "Ӡ": 785,
      "ӡ": 786,
      "Ӣ": 787,
      "ӣ": 788,
      "Ӥ": 789,
      "ӥ": 790,
      "Ӧ": 791,
      "ӧ": 792,
      "Ө": 793,
      "ө": 794,
      "Ӫ": 795,
      "ӫ": 796,
      "Ӯ": 797,
      "ӯ": 798,
      "Ӱ": 799,
      "ӱ": 800,
      "Ӳ": 801,
      "ӳ": 802,
      "Ӵ": 803,
      "ӵ": 804,
      "Ӹ": 805,
      "ӹ": 806,
      "Հ": 807,
      "ա": 808,
      "յ": 809,
      "ն": 810,
      "ս": 811,
      "տ": 812,
      "ք": 813,
      "֑": 814,
      "֖": 815,
      "֗": 816,
      "֜": 817,
      "֣": 818,
      "֥": 819,
      "֨": 820,
      "ְ": 821,
      "ֱ": 822,
      "ִ": 823,
      "ֵ": 824,
      "ֶ": 825,
      "ַ": 826,
      "ָ": 827,
      "ֹ": 828,
      "ֻ": 829,
      "ּ": 830,
      "ֽ": 831,
      "־": 832,
      "ׁ": 833,
      "ׂ": 834,
      "א": 835,
      "ב": 836,
      "ג": 837,
      "ד": 838,
      "ה": 839,
      "ו": 840,
      "ז": 841,
      "ח": 842,
      "ט": 843,
      "י": 844,
      "ך": 845,
      "כ": 846,
      "ל": 847,
      "ם": 848,
      "מ": 849,
      "ן": 850,
      "נ": 851,
      "ס": 852,
      "ע": 853,
      "ף": 854,
      "פ": 855,
      "ץ": 856,
      "צ": 857,
      "ק": 858,
      "ר": 859,
      "ש": 860,
      "ת": 861,
      "װ": 862,
      "ױ": 863,
      "ײ": 864,
      "׳": 865,
      "״": 866,
      "،": 867,
      "؛": 868,
      "؟": 869,
      "ء": 870,
      "أ": 871,
      "ؤ": 872,
      "إ": 873,
      "ئ": 874,
      "ا": 875,
      "ب": 876,
      "ة": 877,
      "ت": 878,
      "ث": 879,
      "ج": 880,
      "ح": 881,
      "خ": 882,
      "د": 883,
      "ذ": 884,
      "ر": 885,
      "ز": 886,
      "س": 887,
      "ش": 888,
      "ص": 889,
      "ض": 890,
      "ط": 891,
      "ظ": 892,
      "ع": 893,
      "غ": 894,
      "ف": 895,
      "ق": 896,
      "ك": 897,
      "ل": 898,
      "م": 899,
      "ن": 900,
      "ه": 901,
      "و": 902,
      "ى": 903,
      "ي": 904,
      "ً": 905,
      "َ": 906,
      "ِ": 907,
      "ْ": 908,
      "٠": 909,
      "١": 910,
      "٢": 911,
      "٣": 912,
      "٤": 913,
      "٥": 914,
      "٦": 915,
      "٧": 916,
      "٨": 917,
      "٩": 918,
      "ٹ": 919,
      "پ": 920,
      "ک": 921,
      "گ": 922,
      "ی": 923,
      "ە": 924,
      "۲": 925,
      "۳": 926,
      "۴": 927,
      "۵": 928,
      "۶": 929,
      "۹": 930,
      "ހ": 931,
      "ބ": 932,
      "ވ": 933,
      "ދ": 934,
      "ސ": 935,
      "ަ": 936,
      "ި": 937,
      "ެ": 938,
      "ް": 939,
      "ं": 940,
      "अ": 941,
      "आ": 942,
      "ई": 943,
      "उ": 944,
      "क": 945,
      "ख": 946,
      "ग": 947,
      "घ": 948,
      "ङ": 949,
      "च": 950,
      "ज": 951,
      "ट": 952,
      "ठ": 953,
      "ड": 954,
      "ढ": 955,
      "ण": 956,
      "त": 957,
      "थ": 958,
      "द": 959,
      "ध": 960,
      "न": 961,
      "प": 962,
      "ब": 963,
      "भ": 964,
      "म": 965,
      "य": 966,
      "र": 967,
      "ल": 968,
      "व": 969,
      "श": 970,
      "ष": 971,
      "स": 972,
      "ह": 973,
      "़": 974,
      "ा": 975,
      "ि": 976,
      "ी": 977,
      "ु": 978,
      "ू": 979,
      "ृ": 980,
      "े": 981,
      "ै": 982,
      "ो": 983,
      "ौ": 984,
      "्": 985,
      "।": 986,
      "०": 987,
      "१": 988,
      "२": 989,
      "३": 990,
      "४": 991,
      "५": 992,
      "६": 993,
      "७": 994,
      "८": 995,
      "९": 996,
      "ং": 997,
      "আ": 998,
      "ক": 999,
      "খ": 1000,
      "গ": 1001,
      "ঙ": 1002,
      "চ": 1003,
      "জ": 1004,
      "ঠ": 1005,
      "ঢ": 1006,
      "ণ": 1007,
      "ত": 1008,
      "দ": 1009,
      "ধ": 1010,
      "ন": 1011,
      "প": 1012,
      "ব": 1013,
      "ভ": 1014,
      "ম": 1015,
      "য": 1016,
      "র": 1017,
      "ল": 1018,
      "শ": 1019,
      "ষ": 1020,
      "স": 1021,
      "হ": 1022,
      "়": 1023,
      "া": 1024,
      "ি": 1025,
      "ী": 1026,
      "ু": 1027,
      "ূ": 1028,
      "ে": 1029,
      "ৈ": 1030,
      "ো": 1031,
      "্": 1032,
      "০": 1033,
      "১": 1034,
      "২": 1035,
      "৩": 1036,
      "৪": 1037,
      "৫": 1038,
      "৬": 1039,
      "৭": 1040,
      "৮": 1041,
      "৯": 1042,
      "ৰ": 1043,
      "৳": 1044,
      "ਖ": 1045,
      "ਚ": 1046,
      "ਣ": 1047,
      "ਤ": 1048,
      "ਨ": 1049,
      "ਮ": 1050,
      "ਰ": 1051,
      "ਲ": 1052,
      "ਸ": 1053,
      "ਿ": 1054,
      "ੀ": 1055,
      "ੂ": 1056,
      "ੇ": 1057,
      "੦": 1058,
      "੧": 1059,
      "੨": 1060,
      "੩": 1061,
      "੪": 1062,
      "੫": 1063,
      "੬": 1064,
      "੭": 1065,
      "੮": 1066,
      "੯": 1067,
      "ੰ": 1068,
      "ੱ": 1069,
      "ੴ": 1070,
      "ક": 1071,
      "ચ": 1072,
      "ત": 1073,
      "ર": 1074,
      "ા": 1075,
      "ૈ": 1076,
      "્": 1077,
      "૦": 1078,
      "૧": 1079,
      "૨": 1080,
      "૩": 1081,
      "૪": 1082,
      "૫": 1083,
      "૬": 1084,
      "૭": 1085,
      "૮": 1086,
      "૯": 1087,
      "ଆ": 1088,
      "କ": 1089,
      "ଖ": 1090,
      "ଢ": 1091,
      "ଣ": 1092,
      "ତ": 1093,
      "ଦ": 1094,
      "ଧ": 1095,
      "ପ": 1096,
      "ବ": 1097,
      "ଭ": 1098,
      "ମ": 1099,
      "ର": 1100,
      "ଶ": 1101,
      "ଷ": 1102,
      "ା": 1103,
      "ି": 1104,
      "ୁ": 1105,
      "ୂ": 1106,
      "ୈ": 1107,
      "୍": 1108,
      "୦": 1109,
      "୧": 1110,
      "୨": 1111,
      "୩": 1112,
      "୪": 1113,
      "୫": 1114,
      "୬": 1115,
      "୭": 1116,
      "୮": 1117,
      "୯": 1118,
      "க": 1119,
      "ச": 1120,
      "ஞ": 1121,
      "ட": 1122,
      "ண": 1123,
      "த": 1124,
      "ந": 1125,
      "ப": 1126,
      "ம": 1127,
      "ர": 1128,
      "ள": 1129,
      "ழ": 1130,
      "வ": 1131,
      "ா": 1132,
      "ி": 1133,
      "ு": 1134,
      "ே": 1135,
      "ை": 1136,
      "்": 1137,
      "௦": 1138,
      "௧": 1139,
      "௨": 1140,
      "௩": 1141,
      "௪": 1142,
      "௫": 1143,
      "௬": 1144,
      "௭": 1145,
      "௮": 1146,
      "௯": 1147,
      "ం": 1148,
      "క": 1149,
      "ఖ": 1150,
      "చ": 1151,
      "ణ": 1152,
      "త": 1153,
      "ద": 1154,
      "ధ": 1155,
      "ప": 1156,
      "బ": 1157,
      "మ": 1158,
      "ర": 1159,
      "వ": 1160,
      "శ": 1161,
      "ా": 1162,
      "ి": 1163,
      "ీ": 1164,
      "ు": 1165,
      "ై": 1166,
      "ౌ": 1167,
      "్": 1168,
      "౦": 1169,
      "౧": 1170,
      "౨": 1171,
      "౩": 1172,
      "౪": 1173,
      "౫": 1174,
      "౬": 1175,
      "౭": 1176,
      "౮": 1177,
      "౯": 1178,
      "ಕ": 1179,
      "ಖ": 1180,
      "ಚ": 1181,
      "ಣ": 1182,
      "ತ": 1183,
      "ದ": 1184,
      "ಧ": 1185,
      "ಪ": 1186,
      "ಬ": 1187,
      "ಮ": 1188,
      "ರ": 1189,
      "ವ": 1190,
      "ಶ": 1191,
      "ಾ": 1192,
      "ಿ": 1193,
      "ು": 1194,
      "ೈ": 1195,
      "ೌ": 1196,
      "್": 1197,
      "೦": 1198,
      "೧": 1199,
      "೨": 1200,
      "೩": 1201,
      "೪": 1202,
      "೫": 1203,
      "೬": 1204,
      "೭": 1205,
      "೮": 1206,
      "೯": 1207,
      "ം": 1208,
      "ക": 1209,
      "ച": 1210,
      "ട": 1211,
      "ണ": 1212,
      "ത": 1213,
      "പ": 1214,
      "മ": 1215,
      "യ": 1216,
      "ര": 1217,
      "റ": 1218,
      "ല": 1219,
      "ള": 1220,
      "വ": 1221,
      "ഷ": 1222,
      "സ": 1223,
      "ി": 1224,
      "ൂ": 1225,
      "െ": 1226,
      "ൈ": 1227,
      "്": 1228,
      "൦": 1229,
      "൧": 1230,
      "൨": 1231,
      "൩": 1232,
      "൪": 1233,
      "൫": 1234,
      "൬": 1235,
      "൭": 1236,
      "൮": 1237,
      "൯": 1238,
      "අ": 1239,
      "ඇ": 1240,
      "ඉ": 1241,
      "උ": 1242,
      "ඔ": 1243,
      "ඕ": 1244,
      "ක": 1245,
      "ග": 1246,
      "ඩ": 1247,
      "ණ": 1248,
      "ත": 1249,
      "ද": 1250,
      "ධ": 1251,
      "න": 1252,
      "ඳ": 1253,
      "ප": 1254,
      "බ": 1255,
      "ම": 1256,
      "ය": 1257,
      "ර": 1258,
      "ල": 1259,
      "ව": 1260,
      "ස": 1261,
      "හ": 1262,
      "ළ": 1263,
      "්": 1264,
      "ා": 1265,
      "ැ": 1266,
      "ෑ": 1267,
      "ි": 1268,
      "ී": 1269,
      "ු": 1270,
      "ෙ": 1271,
      "ේ": 1272,
      "ො": 1273,
      "ෝ": 1274,
      "ก": 1275,
      "ข": 1276,
      "ฃ": 1277,
      "ค": 1278,
      "ฅ": 1279,
      "ฆ": 1280,
      "ง": 1281,
      "จ": 1282,
      "ฉ": 1283,
      "ช": 1284,
      "ซ": 1285,
      "ฌ": 1286,
      "ญ": 1287,
      "ฎ": 1288,
      "ฏ": 1289,
      "ฐ": 1290,
      "ฑ": 1291,
      "ฒ": 1292,
      "ณ": 1293,
      "ด": 1294,
      "ต": 1295,
      "ถ": 1296,
      "ท": 1297,
      "ธ": 1298,
      "น": 1299,
      "บ": 1300,
      "ป": 1301,
      "ผ": 1302,
      "ฝ": 1303,
      "พ": 1304,
      "ฟ": 1305,
      "ภ": 1306,
      "ม": 1307,
      "ย": 1308,
      "ร": 1309,
      "ฤ": 1310,
      "ล": 1311,
      "ว": 1312,
      "ศ": 1313,
      "ษ": 1314,
      "ส": 1315,
      "ห": 1316,
      "ฬ": 1317,
      "อ": 1318,
      "ฮ": 1319,
      "ฯ": 1320,
      "ะ": 1321,
      "ั": 1322,
      "า": 1323,
      "ำ": 1324,
      "ิ": 1325,
      "ี": 1326,
      "ึ": 1327,
      "ื": 1328,
      "ุ": 1329,
      "ู": 1330,
      "ฺ": 1331,
      "฿": 1332,
      "เ": 1333,
      "แ": 1334,
      "โ": 1335,
      "ใ": 1336,
      "ไ": 1337,
      "ๅ": 1338,
      "ๆ": 1339,
      "็": 1340,
      "่": 1341,
      "้": 1342,
      "๊": 1343,
      "๋": 1344,
      "์": 1345,
      "ํ": 1346,
      "๐": 1347,
      "๑": 1348,
      "๒": 1349,
      "๓": 1350,
      "๔": 1351,
      "๕": 1352,
      "๖": 1353,
      "๗": 1354,
      "๘": 1355,
      "๙": 1356,
      "ກ": 1357,
      "ຂ": 1358,
      "ຄ": 1359,
      "ງ": 1360,
      "ຈ": 1361,
      "ຊ": 1362,
      "ຍ": 1363,
      "ດ": 1364,
      "ຕ": 1365,
      "ທ": 1366,
      "ນ": 1367,
      "ບ": 1368,
      "ປ": 1369,
      "ຜ": 1370,
      "ພ": 1371,
      "ມ": 1372,
      "ຣ": 1373,
      "ລ": 1374,
      "ວ": 1375,
      "ສ": 1376,
      "ຫ": 1377,
      "ອ": 1378,
      "ະ": 1379,
      "ັ": 1380,
      "າ": 1381,
      "ິ": 1382,
      "ີ": 1383,
      "ື": 1384,
      "ຸ": 1385,
      "ູ": 1386,
      "ົ": 1387,
      "ຼ": 1388,
      "ເ": 1389,
      "ໃ": 1390,
      "່": 1391,
      "້": 1392,
      "໐": 1393,
      "໑": 1394,
      "໒": 1395,
      "໓": 1396,
      "໔": 1397,
      "໕": 1398,
      "໖": 1399,
      "໗": 1400,
      "໘": 1401,
      "໙": 1402,
      "་": 1403,
      "།": 1404,
      "༠": 1405,
      "༡": 1406,
      "༢": 1407,
      "༣": 1408,
      "༤": 1409,
      "༥": 1410,
      "༦": 1411,
      "༧": 1412,
      "༨": 1413,
      "༩": 1414,
      "ཀ": 1415,
      "ག": 1416,
      "ཆ": 1417,
      "ད": 1418,
      "ན": 1419,
      "པ": 1420,
      "བ": 1421,
      "མ": 1422,
      "ཛ": 1423,
      "ཟ": 1424,
      "འ": 1425,
      "ར": 1426,
      "ཤ": 1427,
      "ས": 1428,
      "ཱ": 1429,
      "ི": 1430,
      "ུ": 1431,
      "ེ": 1432,
      "ོ": 1433,
      "ྟ": 1434,
      "ྱ": 1435,
      "ྲ": 1436,
      "ླ": 1437,
      "က": 1438,
      "ခ": 1439,
      "ဂ": 1440,
      "ဃ": 1441,
      "င": 1442,
      "စ": 1443,
      "ဆ": 1444,
      "ဇ": 1445,
      "ဈ": 1446,
      "ဉ": 1447,
      "ည": 1448,
      "ဋ": 1449,
      "ဌ": 1450,
      "ဍ": 1451,
      "ဎ": 1452,
      "ဏ": 1453,
      "တ": 1454,
      "ထ": 1455,
      "ဒ": 1456,
      "ဓ": 1457,
      "န": 1458,
      "ပ": 1459,
      "ဖ": 1460,
      "ဗ": 1461,
      "ဘ": 1462,
      "မ": 1463,
      "ယ": 1464,
      "ရ": 1465,
      "လ": 1466,
      "ဝ": 1467,
      "သ": 1468,
      "ဟ": 1469,
      "ဠ": 1470,
      "အ": 1471,
      "ဢ": 1472,
      "ဣ": 1473,
      "ဤ": 1474,
      "ဥ": 1475,
      "ဦ": 1476,
      "ဧ": 1477,
      "ဨ": 1478,
      "ဩ": 1479,
      "ဪ": 1480,
      "ါ": 1481,
      "ာ": 1482,
      "ိ": 1483,
      "ီ": 1484,
      "ု": 1485,
      "ူ": 1486,
      "ေ": 1487,
      "ဲ": 1488,
      "ဳ": 1489,
      "ဴ": 1490,
      "ဵ": 1491,
      "ံ": 1492,
      "့": 1493,
      "း": 1494,
      "္": 1495,
      "်": 1496,
      "ျ": 1497,
      "ြ": 1498,
      "ွ": 1499,
      "ှ": 1500,
      "ဿ": 1501,
      "၀": 1502,
      "၁": 1503,
      "၂": 1504,
      "၃": 1505,
      "၄": 1506,
      "၅": 1507,
      "၆": 1508,
      "၇": 1509,
      "၈": 1510,
      "၉": 1511,
      "၊": 1512,
      "။": 1513,
      "၌": 1514,
      "၍": 1515,
      "၎": 1516,
      "၏": 1517,
      "ၐ": 1518,
      "ၑ": 1519,
      "ၒ": 1520,
      "ၓ": 1521,
      "ၔ": 1522,
      "ၕ": 1523,
      "ၖ": 1524,
      "ၗ": 1525,
      "ၘ": 1526,
      "ၙ": 1527,
      "ၚ": 1528,
      "ၛ": 1529,
      "ၜ": 1530,
      "ၝ": 1531,
      "ၞ": 1532,
      "ၟ": 1533,
      "ၠ": 1534,
      "ၡ": 1535,
      "ၢ": 1536,
      "ၣ": 1537,
      "ၤ": 1538,
      "ၥ": 1539,
      "ၦ": 1540,
      "ၧ": 1541,
      "ၨ": 1542,
      "ၩ": 1543,
      "ၪ": 1544,
      "ၫ": 1545,
      "ၬ": 1546,
      "ၭ": 1547,
      "ၮ": 1548,
      "ၯ": 1549,
      "ၰ": 1550,
      "ၱ": 1551,
      "ၲ": 1552,
      "ၳ": 1553,
      "ၴ": 1554,
      "ၵ": 1555,
      "ၶ": 1556,
      "ၷ": 1557,
      "ၸ": 1558,
      "ၹ": 1559,
      "ၺ": 1560,
      "ၻ": 1561,
      "ၼ": 1562,
      "ၽ": 1563,
      "ၾ": 1564,
      "ၿ": 1565,
      "ႀ": 1566,
      "ႁ": 1567,
      "ႂ": 1568,
      "ႃ": 1569,
      "ႄ": 1570,
      "ႅ": 1571,
      "ႆ": 1572,
      "ႇ": 1573,
      "ႈ": 1574,
      "ႉ": 1575,
      "ႊ": 1576,
      "ႋ": 1577,
      "ႌ": 1578,
      "ႍ": 1579,
      "ႎ": 1580,
      "ႏ": 1581,
      "႐": 1582,
      "႑": 1583,
      "႒": 1584,
      "႓": 1585,
      "႔": 1586,
      "႕": 1587,
      "႖": 1588,
      "႗": 1589,
      "႘": 1590,
      "႙": 1591,
      "ႚ": 1592,
      "ႛ": 1593,
      "ႜ": 1594,
      "ႝ": 1595,
      "႞": 1596,
      "႟": 1597,
      "ა": 1598,
      "ე": 1599,
      "ვ": 1600,
      "თ": 1601,
      "კ": 1602,
      "ლ": 1603,
      "ო": 1604,
      "რ": 1605,
      "ს": 1606,
      "ქ": 1607,
      "ღ": 1608,
      "ᅪ": 1609,
      "ቡ": 1610,
      "አ": 1611,
      "ዳ": 1612,
      "ጊ": 1613,
      "፩": 1614,
      "፪": 1615,
      "፫": 1616,
      "፬": 1617,
      "፭": 1618,
      "፮": 1619,
      "፯": 1620,
      "፰": 1621,
      "፱": 1622,
      "ᐁ": 1623,
      "ᕕ": 1624,
      "ᖃ": 1625,
      "ក": 1626,
      "ខ": 1627,
      "គ": 1628,
      "ឃ": 1629,
      "ង": 1630,
      "ច": 1631,
      "ឆ": 1632,
      "ជ": 1633,
      "ឈ": 1634,
      "ញ": 1635,
      "ដ": 1636,
      "ឋ": 1637,
      "ឍ": 1638,
      "ណ": 1639,
      "ត": 1640,
      "ទ": 1641,
      "ធ": 1642,
      "ន": 1643,
      "ប": 1644,
      "ផ": 1645,
      "ព": 1646,
      "ភ": 1647,
      "ម": 1648,
      "យ": 1649,
      "រ": 1650,
      "ល": 1651,
      "វ": 1652,
      "ស": 1653,
      "ហ": 1654,
      "អ": 1655,
      "ឫ": 1656,
      "ា": 1657,
      "ិ": 1658,
      "ី": 1659,
      "ុ": 1660,
      "ូ": 1661,
      "ួ": 1662,
      "ើ": 1663,
      "ឿ": 1664,
      "េ": 1665,
      "ែ": 1666,
      "ៃ": 1667,
      "ោ": 1668,
      "ៅ": 1669,
      "ំ": 1670,
      "ះ": 1671,
      "ៈ": 1672,
      "៍": 1673,
      "័": 1674,
      "្": 1675,
      "៛": 1676,
      "០": 1677,
      "១": 1678,
      "២": 1679,
      "៣": 1680,
      "៤": 1681,
      "៥": 1682,
      "៦": 1683,
      "៧": 1684,
      "៨": 1685,
      "៩": 1686,
      "᠐": 1687,
      "᠑": 1688,
      "᠒": 1689,
      "᠓": 1690,
      "᠔": 1691,
      "᠕": 1692,
      "᠖": 1693,
      "᠗": 1694,
      "᠘": 1695,
      "᠙": 1696,
      "᥆": 1697,
      "᥇": 1698,
      "᥈": 1699,
      "᥉": 1700,
      "᥊": 1701,
      "᥋": 1702,
      "᥌": 1703,
      "᥍": 1704,
      "᥎": 1705,
      "᥏": 1706,
      "᧐": 1707,
      "᧑": 1708,
      "᧒": 1709,
      "᧓": 1710,
      "᧔": 1711,
      "᧕": 1712,
      "᧖": 1713,
      "᧗": 1714,
      "᧘": 1715,
      "᧙": 1716,
      "ᨥ": 1717,
      "ᴳ": 1718,
      "ᵇ": 1719,
      "ᵈ": 1720,
      "ᵊ": 1721,
      "ᵍ": 1722,
      "ᵏ": 1723,
      "ᵐ": 1724,
      "ᵑ": 1725,
      "ᵖ": 1726,
      "ᵗ": 1727,
      "ᵝ": 1728,
      "ᵡ": 1729,
      "ᵬ": 1730,
      "ᵭ": 1731,
      "ᵮ": 1732,
      "ᵯ": 1733,
      "ᵰ": 1734,
      "ᵱ": 1735,
      "ᵲ": 1736,
      "ᵳ": 1737,
      "ᵴ": 1738,
      "ᵵ": 1739,
      "ᵶ": 1740,
      "ᵸ": 1741,
      "ᵻ": 1742,
      "ᵿ": 1743,
      "ᶑ": 1744,
      "ᶜ": 1745,
      "ᶡ": 1746,
      "ᶢ": 1747,
      "ᶣ": 1748,
      "ᶬ": 1749,
      "ᶮ": 1750,
      "ᶯ": 1751,
      "ᶰ": 1752,
      "᷂": 1753,
      "᷄": 1754,
      "᷅": 1755,
      "᷆": 1756,
      "᷇": 1757,
      "᷈": 1758,
      "᷉": 1759,
      "᷽": 1760,
      "ḁ": 1761,
      "ḅ": 1762,
      "Ḍ": 1763,
      "ḍ": 1764,
      "ḏ": 1765,
      "ḗ": 1766,
      "ḛ": 1767,
      "Ḥ": 1768,
      "ḥ": 1769,
      "ḩ": 1770,
      "ḫ": 1771,
      "ḭ": 1772,
      "Ḷ": 1773,
      "ḷ": 1774,
      "Ḹ": 1775,
      "ḹ": 1776,
      "ṁ": 1777,
      "Ṃ": 1778,
      "ṃ": 1779,
      "ṅ": 1780,
      "Ṇ": 1781,
      "ṇ": 1782,
      "ṓ": 1783,
      "ṗ": 1784,
      "Ṛ": 1785,
      "ṛ": 1786,
      "Ṝ": 1787,
      "ṝ": 1788,
      "ṡ": 1789,
      "Ṣ": 1790,
      "ṣ": 1791,
      "Ṭ": 1792,
      "ṭ": 1793,
      "ṯ": 1794,
      "ṳ": 1795,
      "ṵ": 1796,
      "ṽ": 1797,
      "ẓ": 1798,
      "ẕ": 1799,
      "ẖ": 1800,
      "ẗ": 1801,
      "ẘ": 1802,
      "ẙ": 1803,
      "ạ": 1804,
      "ả": 1805,
      "ấ": 1806,
      "ầ": 1807,
      "ậ": 1808,
      "ắ": 1809,
      "Ẹ": 1810,
      "ẹ": 1811,
      "Ẽ": 1812,
      "ẽ": 1813,
      "ế": 1814,
      "ề": 1815,
      "ể": 1816,
      "ễ": 1817,
      "ệ": 1818,
      "Ị": 1819,
      "ị": 1820,
      "Ọ": 1821,
      "ọ": 1822,
      "ỏ": 1823,
      "ố": 1824,
      "ồ": 1825,
      "ộ": 1826,
      "ớ": 1827,
      "ờ": 1828,
      "ở": 1829,
      "Ụ": 1830,
      "ụ": 1831,
      "ủ": 1832,
      "ừ": 1833,
      "ử": 1834,
      "ữ": 1835,
      "ỳ": 1836,
      "Ỹ": 1837,
      "ỹ": 1838,
      "ἀ": 1839,
      "ἁ": 1840,
      "ἂ": 1841,
      "ἃ": 1842,
      "ἄ": 1843,
      "ἅ": 1844,
      "ἆ": 1845,
      "ἇ": 1846,
      "Ἀ": 1847,
      "Ἁ": 1848,
      "Ἂ": 1849,
      "Ἃ": 1850,
      "Ἄ": 1851,
      "Ἅ": 1852,
      "Ἆ": 1853,
      "Ἇ": 1854,
      "ἐ": 1855,
      "ἑ": 1856,
      "ἒ": 1857,
      "ἓ": 1858,
      "ἔ": 1859,
      "ἕ": 1860,
      "Ἐ": 1861,
      "Ἑ": 1862,
      "Ἒ": 1863,
      "Ἓ": 1864,
      "Ἔ": 1865,
      "Ἕ": 1866,
      "ἠ": 1867,
      "ἡ": 1868,
      "ἢ": 1869,
      "ἣ": 1870,
      "ἤ": 1871,
      "ἥ": 1872,
      "ἦ": 1873,
      "ἧ": 1874,
      "Ἠ": 1875,
      "Ἡ": 1876,
      "Ἢ": 1877,
      "Ἣ": 1878,
      "Ἤ": 1879,
      "Ἥ": 1880,
      "Ἦ": 1881,
      "Ἧ": 1882,
      "ἰ": 1883,
      "ἱ": 1884,
      "ἲ": 1885,
      "ἳ": 1886,
      "ἴ": 1887,
      "ἵ": 1888,
      "ἶ": 1889,
      "ἷ": 1890,
      "Ἰ": 1891,
      "Ἱ": 1892,
      "Ἲ": 1893,
      "Ἳ": 1894,
      "Ἴ": 1895,
      "Ἵ": 1896,
      "Ἶ": 1897,
      "Ἷ": 1898,
      "ὀ": 1899,
      "ὁ": 1900,
      "ὂ": 1901,
      "ὃ": 1902,
      "ὄ": 1903,
      "ὅ": 1904,
      "Ὀ": 1905,
      "Ὁ": 1906,
      "Ὂ": 1907,
      "Ὃ": 1908,
      "Ὄ": 1909,
      "Ὅ": 1910,
      "ὐ": 1911,
      "ὑ": 1912,
      "ὒ": 1913,
      "ὓ": 1914,
      "ὔ": 1915,
      "ὕ": 1916,
      "ὖ": 1917,
      "ὗ": 1918,
      "Ὑ": 1919,
      "Ὓ": 1920,
      "Ὕ": 1921,
      "Ὗ": 1922,
      "ὠ": 1923,
      "ὡ": 1924,
      "ὢ": 1925,
      "ὣ": 1926,
      "ὤ": 1927,
      "ὥ": 1928,
      "ὦ": 1929,
      "ὧ": 1930,
      "Ὠ": 1931,
      "Ὡ": 1932,
      "Ὢ": 1933,
      "Ὣ": 1934,
      "Ὤ": 1935,
      "Ὥ": 1936,
      "Ὦ": 1937,
      "Ὧ": 1938,
      "ὰ": 1939,
      "ὲ": 1940,
      "ὴ": 1941,
      "ὶ": 1942,
      "ὸ": 1943,
      "ὺ": 1944,
      "ὼ": 1945,
      "ᾀ": 1946,
      "ᾁ": 1947,
      "ᾂ": 1948,
      "ᾃ": 1949,
      "ᾄ": 1950,
      "ᾅ": 1951,
      "ᾆ": 1952,
      "ᾇ": 1953,
      "ᾈ": 1954,
      "ᾉ": 1955,
      "ᾊ": 1956,
      "ᾋ": 1957,
      "ᾌ": 1958,
      "ᾍ": 1959,
      "ᾎ": 1960,
      "ᾏ": 1961,
      "ᾐ": 1962,
      "ᾑ": 1963,
      "ᾒ": 1964,
      "ᾓ": 1965,
      "ᾔ": 1966,
      "ᾕ": 1967,
      "ᾖ": 1968,
      "ᾗ": 1969,
      "ᾘ": 1970,
      "ᾙ": 1971,
      "ᾚ": 1972,
      "ᾛ": 1973,
      "ᾜ": 1974,
      "ᾝ": 1975,
      "ᾞ": 1976,
      "ᾟ": 1977,
      "ᾠ": 1978,
      "ᾡ": 1979,
      "ᾢ": 1980,
      "ᾣ": 1981,
      "ᾤ": 1982,
      "ᾥ": 1983,
      "ᾦ": 1984,
      "ᾧ": 1985,
      "ᾨ": 1986,
      "ᾩ": 1987,
      "ᾪ": 1988,
      "ᾫ": 1989,
      "ᾬ": 1990,
      "ᾭ": 1991,
      "ᾮ": 1992,
      "ᾯ": 1993,
      "ᾰ": 1994,
      "ᾱ": 1995,
      "ᾲ": 1996,
      "ᾳ": 1997,
      "ᾴ": 1998,
      "ᾶ": 1999,
      "ᾷ": 2000,
      "Ᾰ": 2001,
      "Ᾱ": 2002,
      "Ὰ": 2003,
      "ᾼ": 2004,
      "ῂ": 2005,
      "ῃ": 2006,
      "ῄ": 2007,
      "ῆ": 2008,
      "ῇ": 2009,
      "Ὲ": 2010,
      "Ὴ": 2011,
      "ῌ": 2012,
      "ῐ": 2013,
      "ῑ": 2014,
      "ῒ": 2015,
      "ῖ": 2016,
      "ῗ": 2017,
      "Ῐ": 2018,
      "Ῑ": 2019,
      "Ὶ": 2020,
      "ῠ": 2021,
      "ῡ": 2022,
      "ῢ": 2023,
      "ῤ": 2024,
      "ῥ": 2025,
      "ῦ": 2026,
      "ῧ": 2027,
      "Ῠ": 2028,
      "Ῡ": 2029,
      "Ὺ": 2030,
      "Ῥ": 2031,
      "ῲ": 2032,
      "ῳ": 2033,
      "ῴ": 2034,
      "ῶ": 2035,
      "ῷ": 2036,
      "Ὸ": 2037,
      "Ὼ": 2038,
      "ῼ": 2039,
      "​": 2040,
      "‌": 2041,
      "‍": 2042,
      "‎": 2043,
      "‏": 2044,
      "‐": 2045,
      "‑": 2046,
      "–": 2047,
      "—": 2048,
      "―": 2049,
      "‖": 2050,
      "‘": 2051,
      "’": 2052,
      "‚": 2053,
      "“": 2054,
      "”": 2055,
      "„": 2056,
      "†": 2057,
      "‡": 2058,
      "•": 2059,
      "…": 2060,
      "‰": 2061,
      "′": 2062,
      "″": 2063,
      "‹": 2064,
      "›": 2065,
      "‼": 2066,
      "‽": 2067,
      "‿": 2068,
      "⁄": 2069,
      "⁠": 2070,
      "⁶": 2071,
      "ⁿ": 2072,
      "₁": 2073,
      "₂": 2074,
      "₠": 2075,
      "₡": 2076,
      "₢": 2077,
      "₣": 2078,
      "₤": 2079,
      "₥": 2080,
      "₦": 2081,
      "₧": 2082,
      "₨": 2083,
      "₩": 2084,
      "₪": 2085,
      "₫": 2086,
      "€": 2087,
      "₭": 2088,
      "₮": 2089,
      "₯": 2090,
      "₰": 2091,
      "₱": 2092,
      "₳": 2093,
      "₴": 2094,
      "₵": 2095,
      "₽": 2096,
      "₿": 2097,
      "⃣": 2098,
      "ℂ": 2099,
      "ℍ": 2100,
      "ℕ": 2101,
      "№": 2102,
      "ℙ": 2103,
      "ℚ": 2104,
      "ℝ": 2105,
      "™": 2106,
      "ℤ": 2107,
      "ℳ": 2108,
      "ℵ": 2109,
      "⅔": 2110,
      "ↀ": 2111,
      "←": 2112,
      "↑": 2113,
      "→": 2114,
      "↓": 2115,
      "↔": 2116,
      "↕": 2117,
      "↗": 2118,
      "↘": 2119,
      "↦": 2120,
      "↳": 2121,
      "↵": 2122,
      "⇌": 2123,
      "⇐": 2124,
      "⇒": 2125,
      "⇔": 2126,
      "⇪": 2127,
      "∀": 2128,
      "∂": 2129,
      "∃": 2130,
      "∅": 2131,
      "∆": 2132,
      "∇": 2133,
      "∈": 2134,
      "∉": 2135,
      "∋": 2136,
      "∏": 2137,
      "∐": 2138,
      "∑": 2139,
      "−": 2140,
      "∓": 2141,
      "∕": 2142,
      "∗": 2143,
      "∘": 2144,
      "√": 2145,
      "∝": 2146,
      "∞": 2147,
      "∠": 2148,
      "∤": 2149,
      "∧": 2150,
      "∨": 2151,
      "∩": 2152,
      "∪": 2153,
      "∫": 2154,
      "∬": 2155,
      "∭": 2156,
      "∮": 2157,
      "∴": 2158,
      "∵": 2159,
      "≀": 2160,
      "≃": 2161,
      "≅": 2162,
      "≈": 2163,
      "≐": 2164,
      "≜": 2165,
      "≝": 2166,
      "≠": 2167,
      "≡": 2168,
      "≣": 2169,
      "≤": 2170,
      "≥": 2171,
      "≪": 2172,
      "≫": 2173,
      "⊂": 2174,
      "⊃": 2175,
      "⊄": 2176,
      "⊅": 2177,
      "⊆": 2178,
      "⊇": 2179,
      "⊈": 2180,
      "⊉": 2181,
      "⊊": 2182,
      "⊋": 2183,
      "⊕": 2184,
      "⊗": 2185,
      "⊢": 2186,
      "⊣": 2187,
      "⊤": 2188,
      "⊥": 2189,
      "⊧": 2190,
      "⊻": 2191,
      "⋅": 2192,
      "⋈": 2193,
      "⋉": 2194,
      "⋊": 2195,
      "⋮": 2196,
      "⌈": 2197,
      "⌉": 2198,
      "⌊": 2199,
      "⌋": 2200,
      "⎈": 2201,
      "␥": 2202,
      "▂": 2203,
      "▉": 2204,
      "□": 2205,
      "►": 2206,
      "▻": 2207,
      "◅": 2208,
      "◆": 2209,
      "○": 2210,
      "◌": 2211,
      "◼": 2212,
      "◾": 2213,
      "☀": 2214,
      "☃": 2215,
      "☉": 2216,
      "☎": 2217,
      "☙": 2218,
      "☠": 2219,
      "☸": 2220,
      "☾": 2221,
      "♀": 2222,
      "♂": 2223,
      "♠": 2224,
      "♣": 2225,
      "♥": 2226,
      "♦": 2227,
      "♭": 2228,
      "♮": 2229,
      "♯": 2230,
      "⚔": 2231,
      "⚕": 2232,
      "⚖": 2233,
      "⚙": 2234,
      "⚛": 2235,
      "⚜": 2236,
      "⚡": 2237,
      "⚧": 2238,
      "⚽": 2239,
      "⛪": 2240,
      "✈": 2241,
      "✍": 2242,
      "✏": 2243,
      "✓": 2244,
      "✝": 2245,
      "✤": 2246,
      "✨": 2247,
      "✮": 2248,
      "✵": 2249,
      "❀": 2250,
      "❁": 2251,
      "❄": 2252,
      "❖": 2253,
      "❤": 2254,
      "❧": 2255,
      "➡": 2256,
      "➲": 2257,
      "⟨": 2258,
      "⟩": 2259,
      "⬛": 2260,
      "ⱱ": 2261,
      "、": 2262,
      "。": 2263,
      "〃": 2264,
      "〇": 2265,
      "》": 2266,
      "「": 2267,
      "」": 2268,
      "〡": 2269,
      "〢": 2270,
      "〣": 2271,
      "〤": 2272,
      "〥": 2273,
      "〦": 2274,
      "〧": 2275,
      "〨": 2276,
      "〩": 2277,
      "が": 2278,
      "き": 2279,
      "く": 2280,
      "っ": 2281,
      "つ": 2282,
      "と": 2283,
      "は": 2284,
      "み": 2285,
      "ゃ": 2286,
      "り": 2287,
      "を": 2288,
      "ア": 2289,
      "イ": 2290,
      "ェ": 2291,
      "エ": 2292,
      "カ": 2293,
      "キ": 2294,
      "ケ": 2295,
      "ゾ": 2296,
      "タ": 2297,
      "ダ": 2298,
      "ノ": 2299,
      "フ": 2300,
      "マ": 2301,
      "ワ": 2302,
      "ン": 2303,
      "・": 2304,
      "ー": 2305,
      "ㄱ": 2306,
      "ㄲ": 2307,
      "ㄴ": 2308,
      "ㄷ": 2309,
      "ㄸ": 2310,
      "ㄹ": 2311,
      "ㅃ": 2312,
      "ㅎ": 2313,
      "ㅏ": 2314,
      "ㅐ": 2315,
      "ㅑ": 2316,
      "ㅒ": 2317,
      "ㅓ": 2318,
      "ㅖ": 2319,
      "ㅗ": 2320,
      "一": 2321,
      "七": 2322,
      "万": 2323,
      "三": 2324,
      "上": 2325,
      "下": 2326,
      "与": 2327,
      "丛": 2328,
      "东": 2329,
      "中": 2330,
      "举": 2331,
      "九": 2332,
      "乡": 2333,
      "事": 2334,
      "二": 2335,
      "五": 2336,
      "井": 2337,
      "京": 2338,
      "亮": 2339,
      "人": 2340,
      "仁": 2341,
      "仏": 2342,
      "仗": 2343,
      "以": 2344,
      "仮": 2345,
      "会": 2346,
      "伞": 2347,
      "佛": 2348,
      "你": 2349,
      "佤": 2350,
      "來": 2351,
      "侍": 2352,
      "修": 2353,
      "傑": 2354,
      "傘": 2355,
      "備": 2356,
      "光": 2357,
      "八": 2358,
      "六": 2359,
      "兴": 2360,
      "典": 2361,
      "养": 2362,
      "冒": 2363,
      "军": 2364,
      "出": 2365,
      "刊": 2366,
      "刘": 2367,
      "初": 2368,
      "前": 2369,
      "劳": 2370,
      "勝": 2371,
      "北": 2372,
      "区": 2373,
      "南": 2374,
      "卿": 2375,
      "厂": 2376,
      "历": 2377,
      "及": 2378,
      "可": 2379,
      "史": 2380,
      "合": 2381,
      "名": 2382,
      "君": 2383,
      "员": 2384,
      "和": 2385,
      "喜": 2386,
      "四": 2387,
      "回": 2388,
      "因": 2389,
      "図": 2390,
      "国": 2391,
      "场": 2392,
      "坎": 2393,
      "型": 2394,
      "城": 2395,
      "堂": 2396,
      "塞": 2397,
      "外": 2398,
      "夜": 2399,
      "大": 2400,
      "好": 2401,
      "委": 2402,
      "娃": 2403,
      "子": 2404,
      "字": 2405,
      "孫": 2406,
      "宋": 2407,
      "家": 2408,
      "寛": 2409,
      "寨": 2410,
      "寺": 2411,
      "少": 2412,
      "展": 2413,
      "山": 2414,
      "岔": 2415,
      "岗": 2416,
      "岩": 2417,
      "巡": 2418,
      "巴": 2419,
      "帝": 2420,
      "平": 2421,
      "年": 2422,
      "庁": 2423,
      "府": 2424,
      "建": 2425,
      "弄": 2426,
      "式": 2427,
      "弥": 2428,
      "彭": 2429,
      "徐": 2430,
      "德": 2431,
      "心": 2432,
      "志": 2433,
      "念": 2434,
      "恩": 2435,
      "悉": 2436,
      "慶": 2437,
      "政": 2438,
      "数": 2439,
      "文": 2440,
      "料": 2441,
      "方": 2442,
      "族": 2443,
      "日": 2444,
      "早": 2445,
      "昂": 2446,
      "明": 2447,
      "昭": 2448,
      "普": 2449,
      "景": 2450,
      "曼": 2451,
      "月": 2452,
      "望": 2453,
      "木": 2454,
      "末": 2455,
      "本": 2456,
      "机": 2457,
      "李": 2458,
      "村": 2459,
      "東": 2460,
      "林": 2461,
      "查": 2462,
      "柴": 2463,
      "桂": 2464,
      "榎": 2465,
      "槃": 2466,
      "次": 2467,
      "欧": 2468,
      "歐": 2469,
      "正": 2470,
      "武": 2471,
      "民": 2472,
      "汉": 2473,
      "江": 2474,
      "汶": 2475,
      "沟": 2476,
      "河": 2477,
      "治": 2478,
      "泰": 2479,
      "洛": 2480,
      "洲": 2481,
      "浪": 2482,
      "浴": 2483,
      "海": 2484,
      "涅": 2485,
      "液": 2486,
      "清": 2487,
      "漢": 2488,
      "潘": 2489,
      "灌": 2490,
      "火": 2491,
      "無": 2492,
      "爆": 2493,
      "片": 2494,
      "版": 2495,
      "牢": 2496,
      "珍": 2497,
      "班": 2498,
      "璐": 2499,
      "瓦": 2500,
      "甘": 2501,
      "生": 2502,
      "田": 2503,
      "発": 2504,
      "登": 2505,
      "盏": 2506,
      "盘": 2507,
      "真": 2508,
      "知": 2509,
      "石": 2510,
      "社": 2511,
      "神": 2512,
      "祭": 2513,
      "穿": 2514,
      "立": 2515,
      "竹": 2516,
      "竿": 2517,
      "简": 2518,
      "箏": 2519,
      "箐": 2520,
      "節": 2521,
      "範": 2522,
      "粘": 2523,
      "紀": 2524,
      "紋": 2525,
      "編": 2526,
      "红": 2527,
      "编": 2528,
      "羅": 2529,
      "老": 2530,
      "考": 2531,
      "联": 2532,
      "肠": 2533,
      "胡": 2534,
      "艰": 2535,
      "花": 2536,
      "茶": 2537,
      "茸": 2538,
      "荒": 2539,
      "莫": 2540,
      "菇": 2541,
      "菌": 2542,
      "華": 2543,
      "菱": 2544,
      "营": 2545,
      "蓮": 2546,
      "蚂": 2547,
      "蟥": 2548,
      "血": 2549,
      "行": 2550,
      "街": 2551,
      "衛": 2552,
      "表": 2553,
      "西": 2554,
      "観": 2555,
      "角": 2556,
      "言": 2557,
      "誕": 2558,
      "語": 2559,
      "订": 2560,
      "设": 2561,
      "语": 2562,
      "调": 2563,
      "谢": 2564,
      "资": 2565,
      "载": 2566,
      "辑": 2567,
      "辣": 2568,
      "辰": 2569,
      "迦": 2570,
      "选": 2571,
      "速": 2572,
      "遜": 2573,
      "邦": 2574,
      "都": 2575,
      "釋": 2576,
      "里": 2577,
      "金": 2578,
      "針": 2579,
      "鍋": 2580,
      "销": 2581,
      "锅": 2582,
      "長": 2583,
      "长": 2584,
      "阳": 2585,
      "阿": 2586,
      "陀": 2587,
      "际": 2588,
      "降": 2589,
      "院": 2590,
      "面": 2591,
      "颇": 2592,
      "首": 2593,
      "香": 2594,
      "马": 2595,
      "鳢": 2596,
      "麻": 2597,
      "龍": 2598,
      "ꜛ": 2599,
      "ꜜ": 2600,
      "꞉": 2601,
      "Ꞌ": 2602,
      "ꞌ": 2603,
      "ꞎ": 2604,
      "ꞏ": 2605,
      "ꞵ": 2606,
      "ꦁ": 2607,
      "ꦔ": 2608,
      "ꦕ": 2609,
      "ꦤ": 2610,
      "ꦭ": 2611,
      "ꦺ": 2612,
      "꧀": 2613,
      "꧐": 2614,
      "꧑": 2615,
      "꧒": 2616,
      "꧓": 2617,
      "꧔": 2618,
      "꧕": 2619,
      "꧖": 2620,
      "꧗": 2621,
      "꧘": 2622,
      "꧙": 2623,
      "ꧠ": 2624,
      "ꧡ": 2625,
      "ꧢ": 2626,
      "ꧣ": 2627,
      "ꧤ": 2628,
      "ꧥ": 2629,
      "ꧦ": 2630,
      "ꧧ": 2631,
      "ꧨ": 2632,
      "ꧩ": 2633,
      "ꧪ": 2634,
      "ꧫ": 2635,
      "ꧬ": 2636,
      "ꧭ": 2637,
      "ꧮ": 2638,
      "ꧯ": 2639,
      "꧰": 2640,
      "꧱": 2641,
      "꧲": 2642,
      "꧳": 2643,
      "꧴": 2644,
      "꧵": 2645,
      "꧶": 2646,
      "꧷": 2647,
      "꧸": 2648,
      "꧹": 2649,
      "ꧺ": 2650,
      "ꧻ": 2651,
      "ꧼ": 2652,
      "ꧽ": 2653,
      "ꧾ": 2654,
      "ꩠ": 2655,
      "ꩡ": 2656,
      "ꩢ": 2657,
      "ꩣ": 2658,
      "ꩤ": 2659,
      "ꩥ": 2660,
      "ꩦ": 2661,
      "ꩧ": 2662,
      "ꩨ": 2663,
      "ꩩ": 2664,
      "ꩪ": 2665,
      "ꩫ": 2666,
      "ꩬ": 2667,
      "ꩭ": 2668,
      "ꩮ": 2669,
      "ꩯ": 2670,
      "ꩰ": 2671,
      "ꩱ": 2672,
      "ꩲ": 2673,
      "ꩳ": 2674,
      "ꩴ": 2675,
      "ꩵ": 2676,
      "ꩶ": 2677,
      "꩷": 2678,
      "꩸": 2679,
      "꩹": 2680,
      "ꩺ": 2681,
      "ꩻ": 2682,
      "ꩼ": 2683,
      "ꩽ": 2684,
      "ꩾ": 2685,
      "ꩿ": 2686,
      "ꭓ": 2687,
      "가": 2688,
      "감": 2689,
      "거": 2690,
      "건": 2691,
      "경": 2692,
      "국": 2693,
      "굴": 2694,
      "글": 2695,
      "날": 2696,
      "님": 2697,
      "대": 2698,
      "등": 2699,
      "딴": 2700,
      "말": 2701,
      "문": 2702,
      "민": 2703,
      "발": 2704,
      "버": 2705,
      "부": 2706,
      "상": 2707,
      "생": 2708,
      "석": 2709,
      "선": 2710,
      "섯": 2711,
      "세": 2712,
      "시": 2713,
      "신": 2714,
      "않": 2715,
      "암": 2716,
      "았": 2717,
      "약": 2718,
      "양": 2719,
      "어": 2720,
      "연": 2721,
      "오": 2722,
      "왕": 2723,
      "이": 2724,
      "일": 2725,
      "임": 2726,
      "정": 2727,
      "조": 2728,
      "종": 2729,
      "찌": 2730,
      "찰": 2731,
      "처": 2732,
      "탄": 2733,
      "팽": 2734,
      "한": 2735,
      "활": 2736,
      "회": 2737,
      "희": 2738,
      "": 2739,
      "": 2740,
      "": 2741,
      "": 2742,
      "︎": 2743,
      "️": 2744,
      "﹪": 2745,
      "ﺁ": 2746,
      "﻿": 2747,
      "！": 2748,
      "＂": 2749,
      "（": 2750,
      "）": 2751,
      "，": 2752,
      "；": 2753,
      "？": 2754,
      "～": 2755,
      "￼": 2756,
      "�": 2757,
      "𐍈": 2758,
      "𐞄": 2759,
      "𐞋": 2760,
      "𐞖": 2761,
      "𐞪": 2762,
      "𐞯": 2763,
      "𐞳": 2764,
      "𐞴": 2765,
      "𑀓": 2766,
      "𑀔": 2767,
      "𑀢": 2768,
      "𑀯": 2769,
      "𑀲": 2770,
      "𑀸": 2771,
      "𑁄": 2772,
      "𑁆": 2773,
      "𑇡": 2774,
      "𑇢": 2775,
      "𑇣": 2776,
      "𑇤": 2777,
      "𑇥": 2778,
      "𑇦": 2779,
      "𑇧": 2780,
      "𑇨": 2781,
      "𑇩": 2782,
      "𓏺": 2783,
      "𓏻": 2784,
      "𓏼": 2785,
      "𓏽": 2786,
      "𓏾": 2787,
      "𓏿": 2788,
      "𓐀": 2789,
      "𓐁": 2790,
      "𓐂": 2791,
      "𝐂": 2792,
      "𝐬": 2793,
      "𝝂": 2794,
      "𝼄": 2795,
      "𝼅": 2796,
      "𝼆": 2797,
      "𝼈": 2798,
      "𝼉": 2799,
      "𝼊": 2800,
      "𞤁": 2801,
      "𞤢": 2802,
      "𞤣": 2803,
      "𞤫": 2804,
      "𞤯": 2805,
      "𞤲": 2806,
      "𞤴": 2807,
      "🇫": 2808,
      "🇱": 2809,
      "🇲": 2810,
      "🇳": 2811,
      "🇷": 2812,
      "🌈": 2813,
      "🌋": 2814,
      "🌌": 2815,
      "🌍": 2816,
      "🌎": 2817,
      "🌏": 2818,
      "🌐": 2819,
      "🌙": 2820,
      "🌟": 2821,
      "🌦": 2822,
      "🌫": 2823,
      "🌾": 2824,
      "🌿": 2825,
      "🍎": 2826,
      "🍳": 2827,
      "🍼": 2828,
      "🎄": 2829,
      "🎓": 2830,
      "🎤": 2831,
      "🎧": 2832,
      "🎨": 2833,
      "🎭": 2834,
      "🎵": 2835,
      "🎸": 2836,
      "🏅": 2837,
      "🏆": 2838,
      "🏋": 2839,
      "🏓": 2840,
      "🏔": 2841,
      "🏗": 2842,
      "🏛": 2843,
      "🏢": 2844,
      "🏫": 2845,
      "🏭": 2846,
      "👉": 2847,
      "👍": 2848,
      "👑": 2849,
      "👤": 2850,
      "👥": 2851,
      "👦": 2852,
      "👧": 2853,
      "👨": 2854,
      "👩": 2855,
      "👶": 2856,
      "👷": 2857,
      "💃": 2858,
      "💋": 2859,
      "💡": 2860,
      "💨": 2861,
      "💪": 2862,
      "💫": 2863,
      "💰": 2864,
      "💶": 2865,
      "💻": 2866,
      "💼": 2867,
      "💾": 2868,
      "📁": 2869,
      "📂": 2870,
      "📄": 2871,
      "📅": 2872,
      "📆": 2873,
      "📈": 2874,
      "📊": 2875,
      "📋": 2876,
      "📌": 2877,
      "📍": 2878,
      "📑": 2879,
      "📓": 2880,
      "📖": 2881,
      "📘": 2882,
      "📚": 2883,
      "📜": 2884,
      "📝": 2885,
      "📢": 2886,
      "📦": 2887,
      "📱": 2888,
      "🔄": 2889,
      "🔍": 2890,
      "🔒": 2891,
      "🔗": 2892,
      "🔢": 2893,
      "🔥": 2894,
      "🔧": 2895,
      "🔬": 2896,
      "🔭": 2897,
      "🔸": 2898,
      "🕊": 2899,
      "🕌": 2900,
      "🖼": 2901,
      "🗂": 2902,
      "🗓": 2903,
      "🗣": 2904,
      "🗨": 2905,
      "🗳": 2906,
      "🗺": 2907,
      "😁": 2908,
      "🙋": 2909,
      "🙏": 2910,
      "🚀": 2911,
      "🚒": 2912,
      "🚩": 2913,
      "🛑": 2914,
      "🛕": 2915,
      "🛠": 2916,
      "🛡": 2917,
      "🜨": 2918,
      "🟪": 2919,
      "🤔": 2920,
      "🤖": 2921,
      "🤘": 2922,
      "🤝": 2923,
      "🦁": 2924,
      "🦚": 2925,
      "🦯": 2926,
      "🦰": 2927,
      "🦱": 2928,
      "🦲": 2929,
      "🦳": 2930,
      "🦺": 2931,
      "🦼": 2932,
      "🦽": 2933,
      "🧑": 2934,
      "🧓": 2935,
      "🧚": 2936,
      "🧠": 2937,
      "🧬": 2938,
      "🧲": 2939,
      "🩹": 2940,
      "🪖": 2941,
      "🫲": 2942,
      "ို": 2943,
      "န်": 2944,
      "တ်": 2945,
      "င်": 2946,
      "ၚ်": 2947,
      "ှ်": 2948,
      "ော": 2949,
      "ွံ": 2950,
      "က်": 2951,
      "ဵု": 2952,
      "ဝ်": 2953,
      "ဂှ်": 2954,
      "ပ်": 2955,
      "ကဵု": 2956,
      "ပ္": 2957,
      "ဟ်": 2958,
      "တု": 2959,
      "ီု": 2960,
      "ိုတ်": 2961,
      "ပ္ဍ": 2962,
      "ပ္ဍဲ": 2963,
      "တုဲ": 2964,
      "အ်": 2965,
      "ွဲ": 2966,
      "ဒှ်": 2967,
      "ာန်": 2968,
      "မ္": 2969,
      "ာ်": 2970,
      "အာ": 2971,
      "ုင်": 2972,
      "ကၠ": 2973,
      "ောန်": 2974,
      "သ္": 2975,
      "ာံ": 2976,
      "ဂး": 2977,
      "ကေ": 2978,
      "ၠို": 2979,
      "ဂွံ": 2980,
      "ဟွံ": 2981,
      "ဝွံ": 2982,
      "မွဲ": 2983,
      "ေင်": 2984,
      "ကု": 2985,
      "မၞ": 2986,
      "ညး": 2987,
      "ိက်": 2988,
      "ာဲ": 2989,
      "သၟ": 2990,
      "ကျ": 2991,
      "ုၚ်": 2992,
      "ပရ": 2993,
      "ော်": 2994,
      "ဂမ": 2995,
      "မ္ဂး": 2996,
      "ံင်": 2997,
      "ဂမၠို": 2998,
      "ေဝ်": 2999,
      "က္": 3000,
      "ပြ": 3001,
      "မဳ": 3002,
      "တအ်": 3003,
      "လဝ်": 3004,
      "တိ": 3005,
      "ပို": 3006,
      "ပါ": 3007,
      "ေံ": 3008,
      "ဒး": 3009,
      "အိုတ်": 3010,
      "ေၚ်": 3011,
      "သၞ": 3012,
      "ံၚ်": 3013,
      "ခမဳ": 3014,
      "နူ": 3015,
      "ောံ": 3016,
      "ဍုင်": 3017,
      "ရာ": 3018,
      "ဘာ": 3019,
      "ုံ": 3020,
      "ိုင်": 3021,
      "ပွ": 3022,
      "ကာ": 3023,
      "သာ": 3024,
      "တ္": 3025,
      "ကျာ်": 3026,
      "ကေု": 3027,
      "ကေုာံ": 3028,
      "ိုက်": 3029,
      "ဂက": 3030,
      "မန်": 3031,
      "ကွ": 3032,
      "သွ": 3033,
      "ိၚ်": 3034,
      "နွံ": 3035,
      "ရဴ": 3036,
      "ိုန်": 3037,
      "ကီု": 3038,
      "ိုပ်": 3039,
      "ကြ": 3040,
      "on": 3041,
      "ဂမၠိုၚ်": 3042,
      "ဇၞ": 3043,
      "ေါ": 3044,
      "ိဟ်": 3045,
      "မ်": 3046,
      "လေဝ်": 3047,
      "ညာ": 3048,
      "ိုဟ်": 3049,
      "လိက်": 3050,
      "an": 3051,
      "ုပ်": 3052,
      "နာ": 3053,
      "အခ": 3054,
      "တဴ": 3055,
      "at": 3056,
      "လ္": 3057,
      "ကောန်": 3058,
      "er": 3059,
      "ေတ်": 3060,
      "ဇၞော်": 3061,
      "တြ": 3062,
      "in": 3063,
      "ဗွဲ": 3064,
      "တံ": 3065,
      "ပွမ": 3066,
      "မၞိဟ်": 3067,
      "တၠ": 3068,
      "ဂၠ": 3069,
      "မၞုံ": 3070,
      "ုက်": 3071,
      "ချ": 3072,
      "သွက်": 3073,
      "ဒၟ": 3074,
      "ဗြ": 3075,
      "ိုၚ်": 3076,
      "ဟီု": 3077,
      "or": 3078,
      "ပရေင်": 3079,
      "ကေတ်": 3080,
      "ကလ": 3081,
      "နကဵု": 3082,
      "ရော": 3083,
      "al": 3084,
      "ိင်": 3085,
      "န္": 3086,
      "တီ": 3087,
      "စိုတ်": 3088,
      "ဒ္": 3089,
      "ဗ္": 3090,
      "ဟိုတ်": 3091,
      "္ဍ": 3092,
      "th": 3093,
      "မာ": 3094,
      "ံက်": 3095,
      "သၞာံ": 3096,
      "အဲ": 3097,
      "ရဴဝွံ": 3098,
      "ောဝ်": 3099,
      "ဂကူ": 3100,
      "ဇကု": 3101,
      "တၞ": 3102,
      "ဝါ": 3103,
      "en": 3104,
      "ုတ်": 3105,
      "သ္ၚ": 3106,
      "es": 3107,
      "သာ်": 3108,
      "ဒေ": 3109,
      "တန်": 3110,
      "အိုတ်ရ": 3111,
      "တၟ": 3112,
      "ပၠ": 3113,
      "တဳ": 3114,
      "ယွံ": 3115,
      "ar": 3116,
      "မိ": 3117,
      "ုဟ်": 3118,
      "ကွာန်": 3119,
      "လၟ": 3120,
      "သီု": 3121,
      "စာ": 3122,
      "ှ်ေ": 3123,
      "ဓိ": 3124,
      "ယ်": 3125,
      "၊၊": 3126,
      "ေန်": 3127,
      "ဂမၠိုင်": 3128,
      "ရ်": 3129,
      "သ္ပ": 3130,
      "မဂ": 3131,
      "ၟာ": 3132,
      "ဂကောံ": 3133,
      "တ္ၚ": 3134,
      "ဟာ": 3135,
      "မၠ": 3136,
      "အလ": 3137,
      "ဗြဴ": 3138,
      "ဍုၚ်": 3139,
      "တာ": 3140,
      "စိုပ်": 3141,
      "လ္ၚ": 3142,
      "ic": 3143,
      "ဏ္ဍ": 3144,
      "ပတ်": 3145,
      "သု": 3146,
      "တ္ၚဲ": 3147,
      "ညိ": 3148,
      "သဳ": 3149,
      "ion": 3150,
      "ဏ်": 3151,
      "မာန်": 3152,
      "ေဟ်": 3153,
      "it": 3154,
      "ောတ်": 3155,
      "ၜါ": 3156,
      "အရ": 3157,
      "is": 3158,
      "က္က": 3159,
      "တိုန်": 3160,
      "နိ": 3161,
      "ဇြ": 3162,
      "သွက်ဂွံ": 3163,
      "ပညာ": 3164,
      "သၠ": 3165,
      "ဏအ်": 3166,
      "တိတ်": 3167,
      "နာဲ": 3168,
      "သၟိၚ်": 3169,
      "လုပ်": 3170,
      "ဒၞ": 3171,
      "ဉ်": 3172,
      "ပၞ": 3173,
      "ၜး": 3174,
      "ဂြ": 3175,
      "တဵု": 3176,
      "ရး": 3177,
      "စၟ": 3178,
      "က္ခ": 3179,
      "သိ": 3180,
      "ပိုဉ်": 3181,
      "ပိ": 3182,
      "ဗီု": 3183,
      "ဒါ": 3184,
      "ကၠုၚ်": 3185,
      "ဒၟံင်": 3186,
      "ေက်": 3187,
      "ဍာ်": 3188,
      "ာတ်": 3189,
      "ပါ်": 3190,
      "ပၠန်": 3191,
      "သြ": 3192,
      "၂၀": 3193,
      "တူ": 3194,
      "ကဏ္ဍ": 3195,
      "ထ္": 3196,
      "အရာ": 3197,
      "သမ္": 3198,
      "ကၠောန်": 3199,
      "ဘာသာ": 3200,
      "ed": 3201,
      "မဒှ်": 3202,
      "ပိုဲ": 3203,
      "ညာတ်": 3204,
      "ဒၟံၚ်": 3205,
      ")။": 3206,
      "အာပတ်": 3207,
      "ဂၞ": 3208,
      "ဆက်": 3209,
      "လ်": 3210,
      "ဂိ": 3211,
      "ဍေံ": 3212,
      "စ္": 3213,
      "တၞဟ်": 3214,
      "ဖျ": 3215,
      "ရာဇ": 3216,
      "ထ္ၜး": 3217,
      "ရိ": 3218,
      "တဳလ": 3219,
      "ကၠုင်": 3220,
      "of": 3221,
      "္ဂ": 3222,
      "ုဲ": 3223,
      "ဂှ်ရ": 3224,
      "ကၠာ": 3225,
      "ောဲ": 3226,
      "ယျ": 3227,
      "ဟွံသ": 3228,
      "မြ": 3229,
      "ဒြ": 3230,
      "ကမၠ": 3231,
      "အဓိ": 3232,
      "စၟတ်": 3233,
      "ကာလ": 3234,
      "မလ": 3235,
      "တြဲ": 3236,
      "ိန်": 3237,
      "ဥပ": 3238,
      "စၞ": 3239,
      "ကျာ်တြဲ": 3240,
      "မၞုံကဵု": 3241,
      "ဒဒှ်": 3242,
      "the": 3243,
      "ကၞ": 3244,
      "ၟု": 3245,
      "တေ": 3246,
      "ယၟု": 3247,
      "မ္မ": 3248,
      "ဒက်": 3249,
      "အတ": 3250,
      "ဝိ": 3251,
      "and": 3252,
      "တဵုဒှ်": 3253,
      "လျ": 3254,
      "ယာ": 3255,
      "လွ": 3256,
      "ကလိ": 3257,
      "သတ်": 3258,
      "မှ": 3259,
      "re": 3260,
      "ဒၞာဲ": 3261,
      "ကမၠောန်": 3262,
      "):": 3263,
      "ရောၚ်": 3264,
      "ဏာ": 3265,
      "ဍိုက်": 3266,
      "st": 3267,
      "ပၞာန်": 3268,
      "ပလ": 3269,
      "သၚ်": 3270,
      "ing": 3271,
      "သ္ၚိ": 3272,
      "တွ": 3273,
      "ဒေသ": 3274,
      "ယဝ်": 3275,
      "ဒဳ": 3276,
      "ပ်ဝ်": 3277,
      "ဂိတု": 3278,
      "သ္ဂး": 3279,
      "ၠိုင်": 3280,
      "ိုလ်": 3281,
      "ol": 3282,
      "ဂျ": 3283,
      "ဗၠ": 3284,
      "နဲ": 3285,
      "၁၉": 3286,
      "ate": 3287,
      "ညံင်": 3288,
      "ဓရ်": 3289,
      "ည်": 3290,
      "အခိင်": 3291,
      "ဗု": 3292,
      "ပၟ": 3293,
      "ောင်": 3294,
      "မတ်": 3295,
      "ဂလ": 3296,
      "တဲ": 3297,
      "အခိၚ်": 3298,
      "မနွံ": 3299,
      "စပ်": 3300,
      "ဒုင်": 3301,
      "သၞာ": 3302,
      "om": 3303,
      "ဒ်": 3304,
      "le": 3305,
      "ပန်": 3306,
      "ဗၟာ": 3307,
      "တအ်ဂှ်": 3308,
      "တင်": 3309,
      "ation": 3310,
      "စ္စ": 3311,
      "မျ": 3312,
      "န္ဒ": 3313,
      "စွံ": 3314,
      "ပ္ဍဲကဵု": 3315,
      "က္ဍ": 3316,
      "ပိုန်": 3317,
      "အရေဝ်": 3318,
      "ရာဇ်": 3319,
      "ကောံ": 3320,
      "ုန်": 3321,
      "ဒုၚ်": 3322,
      "ဓဝ်": 3323,
      "ယွံခမဳ": 3324,
      "န္တ": 3325,
      "ညံၚ်": 3326,
      "ဟိုတ်နူ": 3327,
      "ကၠေံ": 3328,
      "ကၟ": 3329,
      "ချူ": 3330,
      "ent": 3331,
      "ၠိုၚ်": 3332,
      "ေပ်": 3333,
      "ပူ": 3334,
      "ou": 3335,
      "ကအ်": 3336,
      "ဂရ": 3337,
      "ကျာ်ဇၞော်": 3338,
      "ကလိဂွံ": 3339,
      "စရ": 3340,
      "မုက်": 3341,
      "ဒးအာပတ်": 3342,
      "ဂေတ်": 3343,
      "ပွိုင်": 3344,
      "as": 3345,
      "ိတ်": 3346,
      "စဵု": 3347,
      "ch": 3348,
      "ဒေါ": 3349,
      "လှ": 3350,
      "ခိုဟ်": 3351,
      "ဗော်": 3352,
      "ရုပ်": 3353,
      "တုပ်": 3354,
      "ဟေၚ်": 3355,
      "ကိုပ်": 3356,
      ")၊": 3357,
      "တ္တ": 3358,
      "သၟဝ်": 3359,
      "el": 3360,
      "ထဝ်": 3361,
      "am": 3362,
      "အာရ": 3363,
      "ory": 3364,
      "မၞုံပိုဉ်": 3365,
      "ယွံခမဳတအ်": 3366,
      "ကျာ": 3367,
      "မေ": 3368,
      "ပရူ": 3369,
      "သဘ": 3370,
      "အခေါ": 3371,
      "၁၃": 3372,
      "ပြာ": 3373,
      "ဂတ": 3374,
      "သမ္တီ": 3375,
      "ဗၞ": 3376,
      "ပေါ": 3377,
      "နူကဵု": 3378,
      "္စာ": 3379,
      "သင်": 3380,
      "လာ": 3381,
      "သၞောတ်": 3382,
      "ဟွံသေင်": 3383,
      "မု": 3384,
      "ဒ္ဓ": 3385,
      "ဂလာန်": 3386,
      "ဗဒှ်": 3387,
      "ဒတဴ": 3388,
      "လောန်": 3389,
      "အ္စာ": 3390,
      "တေံ": 3391,
      "ဏံ": 3392,
      "ကော်": 3393,
      "တိုက်": 3394,
      "တၟိ": 3395,
      "ဟတ်": 3396,
      "ကရ": 3397,
      "ကီုရ": 3398,
      "ဂု": 3399,
      "ောအ်": 3400,
      "et": 3401,
      "il": 3402,
      "ဌာန်": 3403,
      "ဂၠး": 3404,
      "ဒု": 3405,
      "မိက်": 3406,
      "လတူ": 3407,
      "လ္ၚတ်": 3408,
      "လပါ်": 3409,
      "ကတဵုဒှ်": 3410,
      "20": 3411,
      "အဓိက": 3412,
      "ဂပ်ဝ်": 3413,
      "ကြဴ": 3414,
      "ညးမ": 3415,
      "ဒါန်": 3416,
      "ကဲ": 3417,
      "ဝဳ": 3418,
      "ရေၚ်": 3419,
      "ct": 3420,
      "မံၚ်": 3421,
      "ဟွံမွဲ": 3422,
      "ateg": 3423,
      "သ္ဂ": 3424,
      "တံဂှ်": 3425,
      "ကုခမဳ": 3426,
      "စုတ်": 3427,
      "သၟဟ်": 3428,
      "သေ": 3429,
      "ခေတ်": 3430,
      "ကဝ်": 3431,
      "ig": 3432,
      "ur": 3433,
      "em": 3434,
      "စကာ": 3435,
      "အလဵု": 3436,
      "လး": 3437,
      "ခြ": 3438,
      "ဇာ": 3439,
      "တဳလမၞုံပိုဉ်": 3440,
      "ကမ်": 3441,
      "ခရ": 3442,
      "ကြာ": 3443,
      "ယဲ": 3444,
      "အတိုင်": 3445,
      "ပွိုင်ဍုင်": 3446,
      "ယုက်": 3447,
      "ဆဵု": 3448,
      "iv": 3449,
      "ပ္တန်": 3450,
      "သ္ဒး": 3451,
      "သၟတ်": 3452,
      "မူ": 3453,
      "ဗက်": 3454,
      "သံ": 3455,
      "နာနာ": 3456,
      "ဂကူမန်": 3457,
      "ဝင်": 3458,
      "စှ်": 3459,
      "ကော": 3460,
      "ဂုဏ်": 3461,
      "ေဒ": 3462,
      "ဒ္ဂေတ်": 3463,
      "ဗွဲမဂ": 3464,
      "လၟုဟ်": 3465,
      "ၜိုတ်": 3466,
      "ဍိက်": 3467,
      "ပဒတဴ": 3468,
      "မည": 3469,
      "ag": 3470,
      "In": 3471,
      "တှ်ေ": 3472,
      "စှ်ေ": 3473,
      "မပ္": 3474,
      "နဲကဲ": 3475,
      "တ္ထ": 3476,
      "နဳ": 3477,
      "Categ": 3478,
      "အစာ": 3479,
      "ဗွဲမ": 3480,
      "သက္က": 3481,
      "လ္ပ": 3482,
      "လက်": 3483,
      "Category": 3484,
      "ce": 3485,
      "မ္ဂးဂှ်": 3486,
      "တွဵု": 3487,
      "တမ်": 3488,
      "ဖအိုတ်": 3489,
      "သၟိင်": 3490,
      "သနာ": 3491,
      "ကိ": 3492,
      "ဏီ": 3493,
      "တောန်": 3494,
      "ရဳ": 3495,
      "ပရာ": 3496,
      "um": 3497,
      "ဇိုင်": 3498,
      "ဋ္": 3499,
      "လဵု": 3500,
      "ဓမ္မ": 3501,
      "တဳလမၞုံပိုဉ်ကျာ်တြဲ": 3502,
      "သာ်ဝွံ": 3503,
      "ထေက်": 3504,
      "ဘဝ": 3505,
      "စၟတ်သမ္တီ": 3506,
      "ကတ်": 3507,
      "ပေၚ်": 3508,
      "ိပ်": 3509,
      "စ်": 3510,
      "တွံ": 3511,
      "ကဴ": 3512,
      "ယေန်": 3513,
      "ပ္ပ": 3514,
      "ဥပမာ": 3515,
      "သ်": 3516,
      "ဋ်": 3517,
      "ဗုဒ္ဓ": 3518,
      "ဟွံသေင်မ္ဂး": 3519,
      "အင်": 3520,
      "ထာ": 3521,
      "သာသနာ": 3522,
      "တြုံ": 3523,
      "ist": 3524,
      "မၞး": 3525,
      "ကာယ": 3526,
      "အကြာ": 3527,
      "ဒြပ်": 3528,
      "လွဳ": 3529,
      "ဂါ": 3530,
      "တဳလပိုဉ်": 3531,
      "ပ္ဍဲအခိၚ်": 3532,
      "တ္တိ": 3533,
      "မ္ၚ": 3534,
      "သုန်": 3535,
      "ra": 3536,
      "ပျ": 3537,
      "မာန်ရ": 3538,
      "ဗော": 3539,
      "ro": 3540,
      "တုန်": 3541,
      "သၟာန်": 3542,
      "ရေင်": 3543,
      "ဝေါ": 3544,
      "ဗ္ဗ": 3545,
      "ခြာ": 3546,
      "ခၞ": 3547,
      "ဂၠိုၚ်": 3548,
      "နှ": 3549,
      "ပါဲ": 3550,
      "ဇ္": 3551,
      "မပ္တံ": 3552,
      "ဟွံဂွံ": 3553,
      "နွံကဵု": 3554,
      "ယေန်သၞာ": 3555,
      "မပ": 3556,
      "ကံ": 3557,
      "ဗျ": 3558,
      "ဒပ်": 3559,
      "စဴ": 3560,
      "ပိုဒ်": 3561,
      "ပြဲ": 3562,
      "ul": 3563,
      "ဍုင်ကွာန်": 3564,
      "Th": 3565,
      "မဟာ": 3566,
      "ရှ": 3567,
      "ဗေဒ": 3568,
      "ဒ္ဒ": 3569,
      "၀၀": 3570,
      "စောဲ": 3571,
      "id": 3572,
      "အလုံ": 3573,
      "ဍာံ": 3574,
      "ဂှ်တုဲ": 3575,
      "က္ဍိုပ်": 3576,
      "သက္ကရာဇ်": 3577,
      "19": 3578,
      "ပြင်": 3579,
      "ထောံ": 3580,
      "ဓါ": 3581,
      "တၞဟ်န": 3582,
      "သြန်": 3583,
      "မရ": 3584,
      "to": 3585,
      "ဂိုန်": 3586,
      "ရာမည": 3587,
      "အုပ်": 3588,
      "ောၚ်": 3589,
      "သ္ၚာ": 3590,
      "ဒက်ပ္တန်": 3591,
      "မွဲမွဲ": 3592,
      "လညာတ်": 3593,
      "စေ": 3594,
      "ဖန်": 3595,
      "လိ": 3596,
      "၂၀၂": 3597,
      "ဗၠး": 3598,
      "ပိုယ်": 3599,
      "ခမဳဗြဴ": 3600,
      "ပၟိက်": 3601,
      "မာဲ": 3602,
      "ဩဝ်": 3603,
      "ကဳ": 3604,
      "အာယုက်": 3605,
      "စဳ": 3606,
      "og": 3607,
      "လၟိဟ်": 3608,
      "ဗွဲမဂၠိုင်": 3609,
      "us": 3610,
      "ဂေါ": 3611,
      "လလ": 3612,
      "ဒေဝ": 3613,
      "ၚ်ပ": 3614,
      "ညဳ": 3615,
      "သ္ဂးရ": 3616,
      "စက်": 3617,
      "တေအ်": 3618,
      "က္ခာ": 3619,
      "ယဝ်ရ": 3620,
      "တၟအ်": 3621,
      "ဒဵု": 3622,
      "မှာ": 3623,
      "တရဴ": 3624,
      "ဆာန်": 3625,
      "ad": 3626,
      "ဍေဟ်": 3627,
      "ရီု": 3628,
      "နဒဒှ်": 3629,
      "ဇန်": 3630,
      "ဗောဓိ": 3631,
      "ဂၠိုင်": 3632,
      "အဝ": 3633,
      "ဗွ": 3634,
      "လ္ၚဵု": 3635,
      "ers": 3636,
      "ပူဂ": 3637,
      "သဝ်": 3638,
      "ချပ်": 3639,
      "တက်": 3640,
      "ဒိ": 3641,
      "တွဵုရး": 3642,
      "ပြံင်": 3643,
      "သီုဖအိုတ်": 3644,
      "ဍုင်မန်": 3645,
      "မောဝ်": 3646,
      "ဇာတ်": 3647,
      "ပတိုန်": 3648,
      "ဗ္ဒ": 3649,
      "im": 3650,
      "ဆု": 3651,
      "သ္ဍိုက်": 3652,
      "အာစိုပ်": 3653,
      "တၞံ": 3654,
      "ut": 3655,
      "သေံ": 3656,
      "ချိုတ်": 3657,
      "ဂှ်လေဝ်": 3658,
      "ဍောတ်": 3659,
      "ထေ": 3660,
      "ဇိုၚ်": 3661,
      "ia": 3662,
      "ပ္ဍဲဘာ": 3663,
      "ရပ်": 3664,
      "မသုန်": 3665,
      "ခမဳဂမၠိုၚ်": 3666,
      "ဝှ်": 3667,
      "ပရေၚ်": 3668,
      "ပံင်": 3669,
      "ဂစိုတ်": 3670,
      "ိယ": 3671,
      "ညးတအ်": 3672,
      "မံက်": 3673,
      "ယေန်သၞာင်": 3674,
      "မုက်လိက်": 3675,
      "ဲါ": 3676,
      "ပြကာ": 3677,
      "ci": 3678,
      "ဇၟာ": 3679,
      "ဖဵု": 3680,
      "un": 3681,
      "ောပ်": 3682,
      "သ္ဂောံ": 3683,
      "သိက္ခာ": 3684,
      "ဟာရ": 3685,
      "ဓါတ်": 3686,
      "ကၟိန်": 3687,
      "ကၠံ": 3688,
      "ကီုလေဝ်": 3689,
      "ဇၟာပ်": 3690,
      "ိုဏ်": 3691,
      "ခၞံ": 3692,
      "ဋ္ဌ": 3693,
      "ပတိတ်": 3694,
      "ဟွံသေၚ်": 3695,
      "ity": 3696,
      "တြေံ": 3697,
      "လီု": 3698,
      "ဖျေံ": 3699,
      "ပါယ်": 3700,
      "ဝေ": 3701,
      "ဘဒ္ဒ": 3702,
      "မဆ": 3703,
      "မင်": 3704,
      "ကို": 3705,
      "မၚ်": 3706,
      "ကိုပ်ကၠာ": 3707,
      "တုဲရ": 3708,
      "မာတ်": 3709,
      "စၞောန်": 3710,
      "့်": 3711,
      "စိ": 3712,
      "ပှ်": 3713,
      "္ဂလိက်": 3714,
      "ပ္ဍဲသၞာံ": 3715,
      "ဗောဓိသတ်": 3716,
      "မဂွံ": 3717,
      "သၠး": 3718,
      "စဵုကဵု": 3719,
      "ကသ": 3720,
      "အသဳ": 3721,
      "ေး": 3722,
      "for": 3723,
      "ညံင်ဂွံ": 3724,
      "St": 3725,
      "အာၚ်": 3726,
      "ဒုဟ်": 3727,
      "သော": 3728,
      "ၟံက်": 3729,
      "ထေက်ကဵု": 3730,
      "သၞောဝ်": 3731,
      "ဒဂိုန်": 3732,
      "ဟွံမွဲကဵု": 3733,
      "ဒြဟတ်": 3734,
      "အပ္ဍဲ": 3735,
      "ဂၠးတိ": 3736,
      "အာတ်": 3737,
      "လော": 3738,
      "သဘင်": 3739,
      "ပ္ပါယ်": 3740,
      "ကြက်": 3741,
      "ဝန်": 3742,
      "သန": 3743,
      "ကမ္မ": 3744,
      "--": 3745,
      "ter": 3746,
      "ၜိုန်": 3747,
      "အစ": 3748,
      "အခေါၚ်": 3749,
      "အလဵုအသဳ": 3750,
      "ဘဒ္ဒန္တ": 3751,
      "ရတ်": 3752,
      "၁၀": 3753,
      "အောန်": 3754,
      "ဒေါဝ်": 3755,
      "သီ": 3756,
      "ဂိုၚ်": 3757,
      "ေ်": 3758,
      "ကၟာ": 3759,
      "တအ်ရ": 3760,
      "op": 3761,
      "ဇရေၚ်": 3762,
      "သန်": 3763,
      "ဒိုဟ်": 3764,
      "ဗၞတ်": 3765,
      "18": 3766,
      "ဂၠာဲ": 3767,
      "ခမဳဂှ်": 3768,
      "အဓိပ္ပါယ်": 3769,
      "နိကာယ": 3770,
      "ဇွ": 3771,
      "နု": 3772,
      "က္တဵုဒှ်": 3773,
      "ri": 3774,
      "ဂိုဏ်": 3775,
      "ပဳ": 3776,
      "အဲဍိက်": 3777,
      "ရိက": 3778,
      "ပေါတ်": 3779,
      "ိုး": 3780,
      "ဂြိုပ်": 3781,
      "လေ": 3782,
      "ကဆ": 3783,
      "ဗဟ": 3784,
      "စၞောန်ထ္ၜး": 3785,
      "သက်": 3786,
      "တၠပညာ": 3787,
      "ကွး": 3788,
      "သွာ": 3789,
      "od": 3790,
      "ကုသ": 3791,
      "ရု": 3792,
      "ၜတ်": 3793,
      "ပေင်": 3794,
      "ဂ္": 3795,
      "ပ္ဍဲအခိၚ်ဂှ်": 3796,
      "ၜဳ": 3797,
      "ၚ်ပတီ": 3798,
      "ဗှ်": 3799,
      "သၠုင်": 3800,
      "ညးဂမၠိုၚ်": 3801,
      "လကျာ်": 3802,
      "တြဴ": 3803,
      "မိၚ်": 3804,
      "ရိုဟ်": 3805,
      "နုက်": 3806,
      "ပု": 3807,
      "စု": 3808,
      "အခေါင်": 3809,
      "အိုတ်ညိ": 3810,
      "တၠအဲ": 3811,
      "ကလေင်": 3812,
      "ဝၚ်": 3813,
      "ဂရၚ်ပတီ": 3814,
      "ot": 3815,
      "ဗၟံက်": 3816,
      "သုင်": 3817,
      "မံင်": 3818,
      "ရုင်": 3819,
      "လဳ": 3820,
      "သုတေ": 3821,
      "အက္ခ": 3822,
      "ဂဥ": 3823,
      "ဒိုက်": 3824,
      "ပ္ဍဲအခိင်": 3825,
      "စှ": 3826,
      "ပြာပ်": 3827,
      "၁၈": 3828,
      "ay": 3829,
      "တသ": 3830,
      "ၠိုက်": 3831,
      "ရာမညနိကာယ": 3832,
      "အေန်": 3833,
      "ဗဗွဲ": 3834,
      "ပိုန်ဒြပ်": 3835,
      "ဏအ်ဂှ်": 3836,
      "ဒဝ်": 3837,
      "သီုကဵု": 3838,
      "လျိုင်": 3839,
      "တ္ထု": 3840,
      "သွံ": 3841,
      "The": 3842,
      "ပ္တိတ်": 3843,
      "မပ္တံကဵု": 3844,
      "အဴ": 3845,
      "ဏဳ": 3846,
      "၁၂": 3847,
      "တင်ဂၞ": 3848,
      "ab": 3849,
      "ဝေါဟာရ": 3850,
      "ဂီု": 3851,
      "ဝဳကဳ": 3852,
      "ဗွဲမလ": 3853,
      "စရင်": 3854,
      "လၟေင်": 3855,
      "ဗလး": 3856,
      "ရန်": 3857,
      "သကအ်": 3858,
      "တုဲမ္ဂး": 3859,
      "ယျာ": 3860,
      "ang": 3861,
      "ဦး": 3862,
      "ပတန်": 3863,
      "ဆက်စပ်": 3864,
      "ဒွ": 3865,
      "မနွံကဵု": 3866,
      "ac": 3867,
      "သဇိုင်": 3868,
      "ဟာန်": 3869,
      "က္ကသ": 3870,
      "အခိုက်": 3871,
      "မဂပ်ဝ်": 3872,
      "ပြဟ်": 3873,
      "တဝ်": 3874,
      "ဗ္တောန်": 3875,
      "ကလေၚ်": 3876,
      "လှာဲ": 3877,
      "00": 3878,
      "သုတေသန": 3879,
      "ဃော": 3880,
      "ဋိ": 3881,
      "ဒစ": 3882,
      "တန်တဴ": 3883,
      "မလီု": 3884,
      "ကွေံ": 3885,
      "မဟ": 3886,
      "ဨက": 3887,
      "ာန": 3888,
      "၁၄": 3889,
      "မုဟ်": 3890,
      "ပရူပရာ": 3891,
      "လ္တူ": 3892,
      "အံင်": 3893,
      "ခါ": 3894,
      "ကိစ္စ": 3895,
      "ယြ": 3896,
      "ပၠန်ရ": 3897,
      "ဘာဝ": 3898,
      "သၟာ": 3899,
      "ဗီုပြင်": 3900,
      "စၠ": 3901,
      "ရုဲ": 3902,
      "အင်္ဂလိက်": 3903,
      "ဒှ်တုဲ": 3904,
      "ထပှ်": 3905,
      "ow": 3906,
      "ပယျ": 3907,
      "ဗဳ": 3908,
      "သိက္ခာပိုဒ်": 3909,
      "ယြဴ": 3910,
      "ဟေင်": 3911,
      "ရၚ်": 3912,
      "ဘာလကျာ်": 3913,
      "ht": 3914,
      "မၞုံယၟု": 3915,
      "လုပ်ဒဂိုန်": 3916,
      "ကွတ်": 3917,
      "ဒေဝတဴ": 3918,
      "မျာ": 3919,
      "မိတ်": 3920,
      "se": 3921,
      "ပ္ဍဲကာလ": 3922,
      "ချဳ": 3923,
      "ဒဳယာ": 3924,
      "px": 3925,
      "ဆဂး": 3926,
      "ှာ": 3927,
      "umb": 3928,
      "ap": 3929,
      "တက္ကသ": 3930,
      "သုၚ်": 3931,
      "နေ": 3932,
      "မတ်မလီု": 3933,
      "ဟိုတ်ဂှ်ရ": 3934,
      "ub": 3935,
      "ဘိ": 3936,
      "ဗၠာဲ": 3937,
      "ပ္ကဴ": 3938,
      "**": 3939,
      "ဂဥုဲ": 3940,
      "ၚာ်": 3941,
      "ဋ်ရ": 3942,
      "ပ္ဍဲဍုင်": 3943,
      "ဖြ": 3944,
      "..": 3945,
      "နန်": 3946,
      "မဲ": 3947,
      "မွဲရ": 3948,
      "ပထ": 3949,
      "တိယ": 3950,
      "တၚ်": 3951,
      "ess": 3952,
      "၁၅": 3953,
      "မဆေင်": 3954,
      "Ch": 3955,
      "ဒုက္က": 3956,
      "လိက်ပတ်": 3957,
      "ဂ္ဂ": 3958,
      "ဒးရး": 3959,
      "ဖန်ဗဒှ်": 3960,
      "ud": 3961,
      "ဇေတ်": 3962,
      "ဝတ္ထု": 3963,
      "ကောန်ဂကူ": 3964,
      "င့်": 3965,
      "အမေ": 3966,
      "တက္ကသိုလ်": 3967,
      "အတိုၚ်": 3968,
      "ကုတ်": 3969,
      "ကဆံင်": 3970,
      "အက္ခရ်": 3971,
      "ဒးဒုင်": 3972,
      "ပရေင်ဍုင်ကွာန်": 3973,
      "အဝဵု": 3974,
      "တင်ဂၞင်": 3975,
      "ဇၞော်မောဝ်": 3976,
      "သအာၚ်": 3977,
      "ဗာ": 3978,
      "သုင်စောဲ": 3979,
      "ဖျေဟ်": 3980,
      "ဂမၠိုၚ်ဂှ်": 3981,
      "ဗ္ဒန်": 3982,
      ").": 3983,
      "ယူ": 3984,
      "ဆဵုကေတ်": 3985,
      "လမျ": 3986,
      "ပါလုပ်": 3987,
      "ဂိုၚ်ကေတ်": 3988,
      "တီကေတ်": 3989,
      "ယုတ်": 3990,
      "မဟွံ": 3991,
      "အမေရိက": 3992,
      "ဟံ": 3993,
      "ပ္ဍဲအရာ": 3994,
      "ဟီုသ္ဂး": 3995,
      "လဝ်ရ": 3996,
      "ဗုဒ္ဓဘာသာ": 3997,
      "ပါၚ်": 3998,
      "ကဵုဒါန်": 3999,
      "ဝါဒ": 4000,
      "အၚ်": 4001,
      "သှ်ေ": 4002,
      "ပလီု": 4003,
      "လျး": 4004,
      "ရာန်": 4005,
      "Mon": 4006,
      "ဂၞန်": 4007,
      "ev": 4008,
      "သဘဴ": 4009,
      "ယော": 4010,
      "ir": 4011,
      "လမျီု": 4012,
      "သ္ၚေဝ်": 4013,
      "ထေရ်": 4014,
      "ဒၞာ": 4015,
      "ညံၚ်ရဴ": 4016,
      "ရေဝ်": 4017,
      "ies": 4018,
      "မိက်ဂွံ": 4019,
      "ဂ်": 4020,
      "င်း": 4021,
      "ဖိုလ်": 4022,
      "ဂၠးကဝ်": 4023,
      "သိပ္ပ": 4024,
      "ဒယ": 4025,
      "ရမ္": 4026,
      "Un": 4027,
      "ၚုဟ်": 4028,
      "ဇြပ်": 4029,
      "ဝတ်": 4030,
      "av": 4031,
      "န္ဓ": 4032,
      "အုပ်ဓ": 4033,
      "ical": 4034,
      "ပူဂိုလ်": 4035,
      "pl": 4036,
      "သည်": 4037,
      "ပါတ်": 4038,
      "ကၠး": 4039,
      "သိပ္ပံ": 4040,
      "ဓရီု": 4041,
      "နၚ်": 4042,
      "သဘာဝ": 4043,
      "ဒုက္ကဋ်ရ": 4044,
      "ik": 4045,
      "ဂြောပ်": 4046,
      "ရမ္သာ": 4047,
      "ကိုဟ်": 4048,
      "ရာတ်": 4049,
      "ရောင်": 4050,
      "ကြဴနူ": 4051,
      "ဘဲ": 4052,
      "ပစ္စ": 4053,
      "လေပ်": 4054,
      "ဇၞး": 4055,
      "၁၃၈": 4056,
      "လောဲ": 4057,
      "အး": 4058,
      "ဇဴ": 4059,
      "ကွဳ": 4060,
      "con": 4061,
      "အံက်": 4062,
      "ဂစ": 4063,
      "အေ": 4064,
      "အလန်": 4065,
      "ဂွ": 4066,
      "ဘာလကျာ်မန်": 4067,
      "olog": 4068,
      "ပရေင်ပိုန်ဒြပ်": 4069,
      "ဗတောန်": 4070,
      "ဇက်": 4071,
      "ပြံင်လှာဲ": 4072,
      "ရဲ": 4073,
      "ဇြဟတ်": 4074,
      "ဝဳကဳပဳ": 4075,
      "ကသပ်": 4076,
      "ဒဒှ်ရ": 4077,
      "12": 4078,
      "ထံက်": 4079,
      "စွံလဝ်": 4080,
      "လ္ၚောဝ်": 4081,
      "ဗွဝ်": 4082,
      "နိဿ": 4083,
      "တၟေင်": 4084,
      "တိက်": 4085,
      "ဝတဳ": 4086,
      "ဂမၠိုၚ်ရ": 4087,
      "if": 4088,
      "ဝဳကဳပဳဒဳယာ": 4089,
      "ကၠိုဟ်": 4090,
      "လဒေါဝ်": 4091,
      "သာရ": 4092,
      "ပက": 4093,
      "thumb": 4094,
      "ဝေၚ်": 4095,
      "မည်": 4096,
      "ph": 4097,
      "ိန္ဒ": 4098,
      "ပဋိ": 4099,
      "မရနုက်": 4100,
      "ဗတိုက်": 4101,
      "ဂၞကျာ်": 4102,
      "တၟံ": 4103,
      "ult": 4104,
      "ဒးအာပတ်ဒုက္ကဋ်ရ": 4105,
      "ကာဲ": 4106,
      "ေအ်": 4107,
      "ရဏာ": 4108,
      "္ဍး": 4109,
      "15": 4110,
      "ခၟ": 4111,
      "ပၟတ်": 4112,
      "ပကောံ": 4113,
      "ပိုတ်": 4114,
      "pt": 4115,
      "ကောန်ၚာ်": 4116,
      "အရေဝ်ဘာသာ": 4117,
      "စၞး": 4118,
      "age": 4119,
      "န်း": 4120,
      "ရမ္သာင်": 4121,
      "ယိုက်": 4122,
      "စဵုဒၞာ": 4123,
      "ယာံ": 4124,
      "တာလျိုင်": 4125,
      "os": 4126,
      "ပိဏ္ဍ": 4127,
      "ကၞာ": 4128,
      "\",": 4129,
      "သၟး": 4130,
      "လ္ဂ": 4131,
      "အုပ်ဓုပ်": 4132,
      "ဂြိုဟ်": 4133,
      "ex": 4134,
      "ဂရိုဟ်": 4135,
      "ကၟိန်ဍုင်": 4136,
      "သကိုပ်": 4137,
      "10": 4138,
      "ear": 4139,
      "စပ်ကဵု": 4140,
      "သွဝ်": 4141,
      "စိုတ်ရ": 4142,
      "မပြဲ": 4143,
      "ဗွဲသၟဝ်": 4144,
      "သံဃ": 4145,
      "ဟံသာ": 4146,
      "ဗွဲမလောန်": 4147,
      "နယ်": 4148,
      "ဏအ်ဝွံ": 4149,
      "ဗဟဵု": 4150,
      "ov": 4151,
      "ီး": 4152,
      "ယာတ်": 4153,
      "၁၁": 4154,
      "ထပ်": 4155,
      "ပံက်": 4156,
      "ရဴဝွံမ္ဂး": 4157,
      "သၠုၚ်": 4158,
      "ယာန်": 4159,
      "စှော်": 4160,
      "ive": 4161,
      "မိမ": 4162,
      "ak": 4163,
      "ၜိုဟ်": 4164,
      "နက်": 4165,
      "ညာတ်ကေတ်": 4166,
      "မရနုက်ကဵု": 4167,
      "ip": 4168,
      "သွဟ်": 4169,
      "သာ်ဂှ်": 4170,
      "iz": 4171,
      "တုဲပၠန်": 4172,
      "ဟွံမာန်": 4173,
      "ဒက": 4174,
      "ဇအ်": 4175,
      "အဆက်": 4176,
      "သတိ": 4177,
      "ဗဗ": 4178,
      "နန္ဒ": 4179,
      "နွံပ္ဍဲ": 4180,
      "ပေါဲ": 4181,
      "အဝ်": 4182,
      "သဳလ": 4183,
      "ဒဒိုက်": 4184,
      "မိပ်": 4185,
      "လဴ": 4186,
      "ကုသဵု": 4187,
      "ပဲါ": 4188,
      "ian": 4189,
      "လိက်ပရေင်": 4190,
      "ပြာကတ်": 4191,
      "ရံၚ်": 4192,
      "Con": 4193,
      "de": 4194,
      "အာင်": 4195,
      "လု": 4196,
      "ကေၚ်": 4197,
      "ဝွံရ": 4198,
      "မွဲစွံ": 4199,
      "တၠုၚ်": 4200,
      "ဒပ်ပၞာန်": 4201,
      "Re": 4202,
      "ဒှ်အာ": 4203,
      "ယွံကောန်": 4204,
      "ကေဝ်": 4205,
      "ဂြောပ်ဗ္ဒန်": 4206,
      "သၠေဟ်": 4207,
      "မော": 4208,
      "လ္ၚီ": 4209,
      "မ္ၚး": 4210,
      "ဍိုက်ပေၚ်": 4211,
      "ပၟာ": 4212,
      "ရာဇာ": 4213,
      "ကပေါတ်": 4214,
      "ထောအ်": 4215,
      "ဏ္": 4216,
      "မလေပ်": 4217,
      "မဟီု": 4218,
      "ဌာန": 4219,
      "စၟဳ": 4220,
      "မတ": 4221,
      "၁၇": 4222,
      "16": 4223,
      "လဟ": 4224,
      "ကောန်ဂကူမန်": 4225,
      "ly": 4226,
      "ဟွံဒးအာပတ်": 4227,
      "လာ်": 4228,
      "ယး": 4229,
      "ဂၠံင်": 4230,
      "ကောံဓရီု": 4231,
      "ဂၠံၚ်": 4232,
      "စရာဲ": 4233,
      "စေတဳ": 4234,
      "တိုင်": 4235,
      "ight": 4236,
      "ew": 4237,
      "ကဵုဒှ်": 4238,
      "ပ္တိုန်": 4239,
      "မြဟ်": 4240,
      "ence": 4241,
      "သၞောတ်ဝ်": 4242,
      "သင်္": 4243,
      "၁၆": 4244,
      "သမ္ဘာ": 4245,
      "မစ": 4246,
      "က္ၜ": 4247,
      "လိုက်": 4248,
      "ary": 4249,
      "အစောံ": 4250,
      "မူလ": 4251,
      "သရ": 4252,
      "ဗၠးၜး": 4253,
      "oun": 4254,
      "မဒး": 4255,
      "ကော်စ": 4256,
      "ပရိယ": 4257,
      "ဟဂပ်ဝ်": 4258,
      "မကဵု": 4259,
      "အိုတ်သီု": 4260,
      "သၠေဟ်ပၟာ": 4261,
      "၂၅": 4262,
      "ပ္ဍဲဍုၚ်": 4263,
      "က္ည": 4264,
      "ဂတး": 4265,
      "ခရေတ်": 4266,
      "ယု": 4267,
      "မသ": 4268,
      "ဇ္ဇ": 4269,
      "နိဂီု": 4270,
      "ို့": 4271,
      "ဗဵု": 4272,
      "ဝး": 4273,
      "ၜိုန်ရ": 4274,
      "အာတုဲ": 4275,
      "တ္တာ": 4276,
      "ပြကိုဟ်": 4277,
      "ပူဇဴ": 4278,
      "ine": 4279,
      "ဝါတ်": 4280,
      "ဉာ": 4281,
      "သၟဝ်ကျာ": 4282,
      "တော်": 4283,
      "တွဵုရးဍုင်မန်": 4284,
      "တုပ်သၟဟ်": 4285,
      "oc": 4286,
      "အဳ": 4287,
      "ဗညာ": 4288,
      "နွံပၟိက်": 4289,
      "ant": 4290,
      "ဒုတိယ": 4291,
      "သာန်": 4292,
      "သိုက်": 4293,
      "အိန်": 4294,
      "est": 4295,
      "စ္ဆ": 4296,
      "ကောန်သၟိၚ်": 4297,
      "ob": 4298,
      "Ar": 4299,
      "ဇိုန်": 4300,
      "လၟေၚ်": 4301,
      "ထ္ၜးကဵု": 4302,
      "မ်ပ": 4303,
      "စ္ဍး": 4304,
      "ကြုက်": 4305,
      "လွဳပရာ": 4306,
      "ဂကောံမၞိဟ်": 4307,
      "ပါန်": 4308,
      "ဟီုဂရိုဟ်": 4309,
      "အနာ": 4310,
      "တောဝ်": 4311,
      "ဒ္စ": 4312,
      "ရေင်သကအ်": 4313,
      "အမေရိကာန်": 4314,
      "ဏအ်ရ": 4315,
      "ဨကရာဇ်": 4316,
      "ect": 4317,
      "ဖျုန်": 4318,
      "ယှ": 4319,
      "စံၚ်": 4320,
      "အမာတ်": 4321,
      "ပူဂဵု": 4322,
      "ure": 4323,
      "ကဵုအခေါၚ်": 4324,
      "ခ်": 4325,
      "သ္ဂုတ်": 4326,
      "ဒတန်": 4327,
      "စိၚ်": 4328,
      "ပလေဝ်": 4329,
      "ရုဲစှ်": 4330,
      "တြး": 4331,
      "မၠိုက်": 4332,
      "စုတိ": 4333,
      "ပလိုတ်": 4334,
      "မုဟိုတ်": 4335,
      "ဠိ": 4336,
      "ရေး": 4337,
      "လာန်": 4338,
      "ပိုၚ်": 4339,
      "ကလိလောန်": 4340,
      "မွဲဂှ်": 4341,
      "ဣဝွံ": 4342,
      "ကုညး": 4343,
      "သိုၚ်": 4344,
      "ဇရေင်": 4345,
      "ောက်": 4346,
      "An": 4347,
      "},": 4348,
      "သူ": 4349,
      "ကျာ်ဇၞော်အ္စာ": 4350,
      "ဆီ": 4351,
      "ဂွံဆဵုကေတ်": 4352,
      "200": 4353,
      "ပ္ဍဲကွာန်": 4354,
      "အရှ": 4355,
      "ဟွံဒှ်": 4356,
      "ဆာဲ": 4357,
      "ard": 4358,
      "ဟွံဒးအာပတ်ရ": 4359,
      "တၞဟ်ခြာ": 4360,
      "အာရှ": 4361,
      "ခ္ဍ": 4362,
      "ဖေက်": 4363,
      "ology": 4364,
      "စွ": 4365,
      "art": 4366,
      "ဂမၠိုင်ရ": 4367,
      "အိုတ်ဂှ်": 4368,
      "()": 4369,
      "ith": 4370,
      "14": 4371,
      "ဒက်ပတန်": 4372,
      "မကၠောန်": 4373,
      "ညးတေအ်": 4374,
      "ast": 4375,
      "Pr": 4376,
      "အောဝ်": 4377,
      "မၞိဟ်ဗြဴ": 4378,
      "ရံင်": 4379,
      "က္လိ": 4380,
      "ညာဏ်": 4381,
      "ပရိ": 4382,
      "ဒေံ": 4383,
      "ချူလဝ်": 4384,
      "ပံၚ်": 4385,
      "ဟီုဂှ်": 4386,
      "မ်ပလိက်": 4387,
      "ပသ": 4388,
      "ပေ": 4389,
      "ပါဠိ": 4390,
      "fr": 4391,
      "ဂဝ်": 4392,
      "မတွံ": 4393,
      "ခရိုင်": 4394,
      "ထာမ်ပလိက်": 4395,
      "ထတ်": 4396,
      "အနု": 4397,
      "သ္ၚဳ": 4398,
      "မ္မာ": 4399,
      "မၚ်မွဲ": 4400,
      "နိုင်": 4401,
      "အလဵုဇကု": 4402,
      "များ": 4403,
      "ဒွက်": 4404,
      "ပုၚ်": 4405,
      "ment": 4406,
      "ပျူ": 4407,
      "ဉာဏ်": 4408,
      "ညးတၞဟ်": 4409,
      "ဒၠ": 4410,
      "မဂ္ဂ": 4411,
      "ကၞပ်": 4412,
      "မနွံပိုန်": 4413,
      "ain": 4414,
      "be": 4415,
      "ပတှ်ေ": 4416,
      "ထပိုယ်": 4417,
      "လွဟ်": 4418,
      "ဂဵု": 4419,
      "ဖဝ်": 4420,
      "ကြိ": 4421,
      "all": 4422,
      "လုကဴ": 4423,
      "ဗင်": 4424,
      "မဝ်": 4425,
      "ညးဍုင်ကွာန်": 4426,
      "လ္လ": 4427,
      "နှဴ": 4428,
      "မကတဵုဒှ်": 4429,
      "က္လိဂွံ": 4430,
      "သဓ": 4431,
      "ှေ်": 4432,
      "ဇဳ": 4433,
      "ဂၠဴ": 4434,
      "ပိဏ္ဍပါတ်": 4435,
      "ဒှ်မၞိဟ်": 4436,
      "ru": 4437,
      "အို": 4438,
      "တၠဂုဏ်": 4439,
      "ဗြဲ": 4440,
      "ကွေတ်": 4441,
      "ပါ်ခြာ": 4442,
      "ကရေင်": 4443,
      "ရန်တၟအ်": 4444,
      "နိဗ္ဗ": 4445,
      "our": 4446,
      "ဟိုတ်ပရူပရာ": 4447,
      "လ္ပာ်": 4448,
      "မ္ဒး": 4449,
      "ဝက်": 4450,
      "ပြာပ်အာ": 4451,
      "ခၠ": 4452,
      "ဟွံဒး": 4453,
      "ဟွံတီ": 4454,
      "ညးမွဲ": 4455,
      "သၟိက်": 4456,
      "မဂ်": 4457,
      "pr": 4458,
      "ရးနိဂီု": 4459,
      "နာနာသာ်": 4460,
      "၂၀၂၁": 4461,
      "ရင်": 4462,
      "သ္ဍိုက်မၠိုက်": 4463,
      "ရေ": 4464,
      "17": 4465,
      "ဒဴ": 4466,
      "ဒိန်": 4467,
      "အန္တ": 4468,
      "ကုတဳလမၞုံပိုဉ်ကျာ်တြဲ": 4469,
      "ပရေင်ပညာ": 4470,
      "ယွံကောန်တၠ": 4471,
      "ဟွံမဲ": 4472,
      "ဒါယ": 4473,
      "ယကမ်": 4474,
      "ဒေက်": 4475,
      "ဗွဲကြဴ": 4476,
      "ပါရ": 4477,
      "ရာင်": 4478,
      "AI": 4479,
      "ပံင်ကောံ": 4480,
      "စၟဳစၟတ်": 4481,
      "အိန္ဒ": 4482,
      "အတိုင်စရင်": 4483,
      "ဗွဝ်ကၠံ": 4484,
      "ational": 4485,
      "သော်": 4486,
      "လီုလာ်": 4487,
      "ဖအောဝ်": 4488,
      "သံဃာ": 4489,
      "ဂွံဒှ်": 4490,
      "တုံ": 4491,
      "သွာတ်": 4492,
      "ဟိုတ်ပရူပရာဝွံ": 4493,
      "ကရေ": 4494,
      "သ္ကံ": 4495,
      "ခိုင်": 4496,
      "နူဂှ်": 4497,
      "ish": 4498,
      "အာရီု": 4499,
      "sh": 4500,
      "ism": 4501,
      "ဂးတုဲ": 4502,
      "ဏီရ": 4503,
      "ပ္ဍဲဒေသ": 4504,
      "ဥက္က": 4505,
      "ဂဇအ်": 4506,
      "ဖက်": 4507,
      "ics": 4508,
      "ဂမ္": 4509,
      "ပါင်": 4510,
      "မွဲတုဲ": 4511,
      "မဆေင်ကဵု": 4512,
      "ၚး": 4513,
      "တာန်": 4514,
      "လၟိုန်": 4515,
      "နရ": 4516,
      "မး": 4517,
      "မွဲဇကု": 4518,
      "ုံး": 4519,
      "ပၠုပ်": 4520,
      "ဟိ": 4521,
      "ဗိုန်": 4522,
      "ရိယ": 4523,
      "ဌဳ": 4524,
      "ရူ": 4525,
      "ကၠဳ": 4526,
      "တၟေၚ်": 4527,
      "Ph": 4528,
      "Com": 4529,
      "°)": 4530,
      "သိုင်": 4531,
      "တၞောဝ်": 4532,
      "ပၠိုတ်": 4533,
      "လျုၚ်": 4534,
      "၂၀၀": 4535,
      "ivers": 4536,
      "ဂၠေပ်": 4537,
      "သမၠ": 4538,
      "အာဲ": 4539,
      "aw": 4540,
      "ကယျ": 4541,
      "ဘာဂမၠိုင်": 4542,
      "ပဝါ": 4543,
      "ကိတ်": 4544,
      "သင်မ": 4545,
      "သ္ဂုတ်သွာတ်": 4546,
      "သေဌဳ": 4547,
      "လောက": 4548,
      "၃၀": 4549,
      "ဒက်ပ္တန်လဝ်": 4550,
      "မတွံဂး": 4551,
      "သဳကၠဳ": 4552,
      "ဏ္ဏ": 4553,
      "cl": 4554,
      "တၠညး": 4555,
      "ယွံတဳလပိုဉ်": 4556,
      "qu": 4557,
      "တကအ်": 4558,
      "တဴရ": 4559,
      "ဝါရဳ": 4560,
      "အသ": 4561,
      "ကျာ်ဇၞော်ဘဒ္ဒန္တ": 4562,
      "ဖ္ဍ": 4563,
      "ကိစ္စဇၞော်": 4564,
      "ဗဗေၚ်": 4565,
      "အဘိ": 4566,
      "ဋ္ဌာန်": 4567,
      "ဂိုဏ်ရာမညနိကာယ": 4568,
      "ဒှ်အရာ": 4569,
      "သင်မလုပ်ဒဂိုန်": 4570,
      "သၟိတ်": 4571,
      "စိုပ်အာ": 4572,
      "ယာဲ": 4573,
      "ဗီုလဵု": 4574,
      "ort": 4575,
      "မဂၠိုၚ်": 4576,
      "မ္ၚဵု": 4577,
      "ဆန္ဒ": 4578,
      "ထိင်": 4579,
      "နိဗ္ဗာန်": 4580,
      "ill": 4581,
      "မအရေဝ်": 4582,
      "−−": 4583,
      "ပါတီ": 4584,
      "ဇြုၚ်": 4585,
      "ပင်": 4586,
      "တြုဟ်": 4587,
      "25": 4588,
      "ပွိုၚ်": 4589,
      "ပဝ်": 4590,
      "ber": 4591,
      "pp": 4592,
      "နဝ်": 4593,
      "သၟန်": 4594,
      "com": 4595,
      "သ္ၚိတ်": 4596,
      "တနာ": 4597,
      "ပရိယတ္တိ": 4598,
      "13": 4599,
      "ဝေင်": 4600,
      "ell": 4601,
      "ဝိနယ်": 4602,
      "\"]": 4603,
      "[\"": 4604,
      "ပ္ဍဲတ္ၚဲ": 4605,
      "ကၟာတ်": 4606,
      "ပယျၚ်": 4607,
      "ပတ": 4608,
      "ဘာသာမန်": 4609,
      "မနွံပိုန်ဘာဂမၠိုင်": 4610,
      "oci": 4611,
      "ပဝါရဏာ": 4612,
      "ဇုက်": 4613,
      "?”": 4614,
      "အဆ": 4615,
      "လိက်မန်": 4616,
      "ကျာ်ဇၞော်မနွံပိုန်ဘာဂမၠိုင်": 4617,
      "ဒၠောံ": 4618,
      "ge": 4619,
      "ကထ": 4620,
      "ရဝ်": 4621,
      "နာမ်": 4622,
      "ction": 4623,
      "ပိုင်": 4624,
      "ဝုတ်": 4625,
      "ကေင်": 4626,
      "ဘုံ": 4627,
      "မွ": 4628,
      "၂၄": 4629,
      "ဍာံစၟတ်": 4630,
      "ပည": 4631,
      "၁၉၉": 4632,
      "မၞိဟ်တအ်": 4633,
      "သၠုင်ကျာ": 4634,
      "မွဲဟာန်": 4635,
      "ဂြပ်": 4636,
      "sy": 4637,
      "ပြၚ်": 4638,
      "ကွာ်": 4639,
      "ဗွဲမဂၠိုၚ်": 4640,
      "ပျူတာ": 4641,
      "ပြဳ": 4642,
      "တိရ": 4643,
      "ရိယာ": 4644,
      "ဗမၞး": 4645,
      "ာၚ်": 4646,
      "ဂြောပ်ဗ္ဒန်လဝ်": 4647,
      "အိန္ဒိယ": 4648,
      "ran": 4649,
      "စဳရေၚ်": 4650,
      "တိုၚ်": 4651,
      "ခန္ဓ": 4652,
      "စော": 4653,
      "pe": 4654,
      "are": 4655,
      "သဗ္ဗ": 4656,
      "ကဵုညး": 4657,
      "ကၠတ်": 4658,
      "ပြည်": 4659,
      "မ်း": 4660,
      "ပၞောဝ်": 4661,
      "လ္ၚု": 4662,
      "ဂဗ": 4663,
      "တီရ": 4664,
      "သုက်": 4665,
      "ောင်း": 4666,
      "ပွမကဵု": 4667,
      "စန်": 4668,
      "ဓာတ်": 4669,
      "လလမ်": 4670,
      "ဆက်ဆ": 4671,
      "ိုအ်": 4672,
      "per": 4673,
      "မဆက်စပ်": 4674,
      "ဇြာ": 4675,
      "တိတ်အာ": 4676,
      "နဳယကမ်": 4677,
      "၁၃၈၃": 4678,
      "လှ်ေ": 4679,
      "ဂၞဴ": 4680,
      "စေတနာ": 4681,
      "ization": 4682,
      "\".": 4683,
      "ယေ": 4684,
      "ည်း": 4685,
      "ဗ္စ": 4686,
      "ဒတုဲ": 4687,
      "ပ္ဍဲဒၞာဲ": 4688,
      "အိုတ်မ္ဂး": 4689,
      "သှ်": 4690,
      "စၠောအ်": 4691,
      "ပ္ဍဲဂကောံ": 4692,
      "လအ်": 4693,
      "ညးၜါ": 4694,
      "ဉ္": 4695,
      "ဍာံပြ": 4696,
      "တှ်": 4697,
      "က္ကု": 4698,
      "ါဲ": 4699,
      "ဟေၚ်ရ": 4700,
      "\"},": 4701,
      "ကၠောန်ဗဒှ်": 4702,
      "အိုတ်ရော": 4703,
      "အခိုက်ကၞာ": 4704,
      "ဟံသာဝတဳ": 4705,
      "),": 4706,
      "အပါ": 4707,
      "ညးဂှ်": 4708,
      "ial": 4709,
      "ကုတဳလမၞုံပိုဉ်ကျာ်တြဲအိုတ်ရ": 4710,
      "ဂိုဏ်ရာမညနိကာယဝွံ": 4711,
      "ဗၠေတ်": 4712,
      "ညံင်ရဴ": 4713,
      "အိုတ်တုဲ": 4714,
      "ပြု": 4715,
      "As": 4716,
      "လ္ဂုင်": 4717,
      "အန": 4718,
      "ဒ္ဒါ": 4719,
      "ကြိယာ": 4720,
      "11": 4721,
      "ကၠဵု": 4722,
      "ဗၟံက်ထ္ၜး": 4723,
      "ဓမ္မာ": 4724,
      "ိက": 4725,
      "ဆိပ်": 4726,
      "အကာဲ": 4727,
      "ern": 4728,
      "end": 4729,
      "ha": 4730,
      "သြိုဟ်": 4731,
      "တြဴပြကာ": 4732,
      "က္လိဂွံအာယုက်": 4733,
      "ပြဘ": 4734,
      "ညံၚ်ဂွံ": 4735,
      "De": 4736,
      "တသိုက်": 4737,
      "du": 4738,
      "ဂုန်": 4739,
      "ဇမၠ": 4740,
      "ကွးဘာ": 4741,
      "ord": 4742,
      "တပ်": 4743,
      "ပျုတ်": 4744,
      "ဟု": 4745,
      "န္န": 4746,
      "တၞး": 4747,
      "ဍိုန်": 4748,
      "ဍုင်ဗၟာ": 4749,
      "မိက်ကဵု": 4750,
      "ပွမသ္ပ": 4751,
      "မျိုး": 4752,
      "ame": 4753,
      "05": 4754,
      "င္": 4755,
      "ဗ္ဒေက်": 4756,
      "ဘော": 4757,
      "ဇ္ၚး": 4758,
      "ဂစေံ": 4759,
      "with": 4760,
      "ပြဝး": 4761,
      "ကၞောတ်": 4762,
      "ဂျဳ": 4763,
      "ဗၞိက်": 4764,
      "ပ္ဍဲခေတ်": 4765,
      "ဒှ်ရ": 4766,
      "ဍုၚ်ကွာန်": 4767,
      "ၚုဟ်မး": 4768,
      "မိင်": 4769,
      "ဂူ": 4770,
      "ural": 4771,
      "ပ္ဍဲဘာဝွံ": 4772,
      "Univers": 4773,
      "ဇြပ်ဗု": 4774,
      "tern": 4775,
      "ကတဵု": 4776,
      "ရိတ်": 4777,
      "ကမ္မတဳ": 4778,
      "{\"": 4779,
      "ဂတာ": 4780,
      "အိတ်": 4781,
      "ဇြုၚ်သ္ဍိုက်": 4782,
      "ok": 4783,
      "နေတ်": 4784,
      "အံၚ်": 4785,
      "၅၀": 4786,
      "ှ်ေသှ်ေ": 4787,
      "ဟွံထေက်ကဵု": 4788,
      "ကြပ်": 4789,
      "ass": 4790,
      "အးဇ္ၚး": 4791,
      "သၠးကၠေံ": 4792,
      "ကၠိုက်": 4793,
      "နိဿဲ": 4794,
      "ဥပဒေ": 4795,
      "ပထမ": 4796,
      "wh": 4797,
      "ဟီုမ္ဂးဂှ်": 4798,
      "သေသ်": 4799,
      "Se": 4800,
      "ခု": 4801,
      "တုဲဂှ်": 4802,
      "ဗိ": 4803,
      "စွေက်": 4804,
      "အကာဲအရာ": 4805,
      "ပျုတ်ဗ္ဒေက်": 4806,
      "En": 4807,
      "တော": 4808,
      "ဘု": 4809,
      "ပိုက်": 4810,
      "ere": 4811,
      "မင်မွဲ": 4812,
      "ၚ်ရၚ်": 4813,
      "ချာ": 4814,
      "ယိုက်ဂၠ": 4815,
      "ဣသိ": 4816,
      "သံသ": 4817,
      "လက္က": 4818,
      "ကေတ": 4819,
      "စတု": 4820,
      "ပကဵု": 4821,
      "ကာသ": 4822,
      "ဂတ်": 4823,
      "ထု": 4824,
      "ဓဇက်": 4825,
      "ဖေ": 4826,
      "ပြး": 4827,
      "သာတ်": 4828,
      "ဗၞး": 4829,
      "အတိုင်ဗွဲသၟဝ်": 4830,
      "ဒိသေသ်": 4831,
      "ဒစး": 4832,
      "သၟဟ်သၟန်": 4833,
      "ace": 4834,
      "ာပ်": 4835,
      "Pro": 4836,
      "ပ္ဍဲကာလဂှ်": 4837,
      "rit": 4838,
      "မြဴ": 4839,
      "လေၚ်": 4840,
      "ိုဂ်": 4841,
      "ခမဳဂမၠိုၚ်ဂှ်": 4842,
      "သံဃာဒိသေသ်": 4843,
      "ဗဝ်": 4844,
      "လဒက်ပ္တန်": 4845,
      "ဒဿ": 4846,
      "လသ": 4847,
      "တ္တမ": 4848,
      "သေတ်": 4849,
      "သမ္မတ": 4850,
      "ခဴ": 4851,
      "ပဿ": 4852,
      "သၟီ": 4853,
      "ma": 4854,
      "လက္ကရဴ": 4855,
      "ဟီုထ္ၜး": 4856,
      "သား": 4857,
      "ဂျူ": 4858,
      "ပ္ဍဲမွဲ": 4859,
      "သြိုင်": 4860,
      "ld": 4861,
      "ional": 4862,
      "ပၠန်ဂတး": 4863,
      "by": 4864,
      "ညးတံ": 4865,
      "ဗီုကဵု": 4866,
      "ခဏ": 4867,
      "နင်": 4868,
      "တၠရ": 4869,
      "ဟွံကဵု": 4870,
      "သမ": 4871,
      "လျုၚ်ဇြုၚ်သ္ဍိုက်": 4872,
      "ဖအိုတ်ရ": 4873,
      "ကလော်": 4874,
      "သ္ၚောဲ": 4875,
      "ကၠုင်နူ": 4876,
      "မှု": 4877,
      "pro": 4878,
      "edia": 4879,
      "ခမဳဗြဴဂမၠိုၚ်": 4880,
      "အဵု": 4881,
      "တိဍာ်": 4882,
      "ပက်": 4883,
      "ပရေင်မၞိဟ်": 4884,
      "တံၚ်": 4885,
      "၂၀၂၂": 4886,
      "0px": 4887,
      "ိုဲ": 4888,
      "ပါရမဳ": 4889,
      "ဇူ": 4890,
      "သက": 4891,
      "မွဲဟာန်ကေုာံ": 4892,
      "ပဠ": 4893,
      "သ္ကိုပ်": 4894,
      "ဗိုင်": 4895,
      "ဝရ": 4896,
      "စၞစ": 4897,
      "ခၞံဗဒှ်": 4898,
      "ib": 4899,
      "ဇေ": 4900,
      "ၟဲ": 4901,
      "enc": 4902,
      "ဒကာ": 4903,
      "အောင်": 4904,
      "ချူလိက်": 4905,
      "တမၠ": 4906,
      "ပြံၚ်": 4907,
      "လျိုၚ်": 4908,
      "gr": 4909,
      "ဗ္ၚ": 4910,
      "ပ္ဍဲသ္ၚိ": 4911,
      "ork": 4912,
      "ဒ္ဓိ": 4913,
      "နံ": 4914,
      "30": 4915,
      "လ္ၚဵုဂှ်": 4916,
      "အၚ်္ဂ": 4917,
      "right": 4918,
      "တအ်လေဝ်": 4919,
      "ာယ်": 4920,
      "မဇၞော်": 4921,
      "ကၟာဲ": 4922,
      "ဍုင်မန်တၟိ": 4923,
      "သွာင်": 4924,
      "မုဟ်ဍုင်": 4925,
      "သေၚ်": 4926,
      "ဂၠိပ်": 4927,
      "ယျေန်": 4928,
      "lic": 4929,
      "ပသာ်": 4930,
      "သဒ္ဒါ": 4931,
      "ပ္ဍဲအ": 4932,
      "၀၀၀": 4933,
      "စက္က": 4934,
      "ရုၚ်": 4935,
      "ခရှ်": 4936,
      "ခမဳမ": 4937,
      "ath": 4938,
      "ပလံင်": 4939,
      "ဗော်ဍုင်မန်တၟိ": 4940,
      "ဗိုလ်": 4941,
      "၂၃": 4942,
      "ဗြီု": 4943,
      "ဗဂေါ": 4944,
      "မစကာ": 4945,
      "လူ": 4946,
      "ခေတ်တၟိ": 4947,
      "ext": 4948,
      "ထက်": 4949,
      "စ္ဆာန်": 4950,
      "te": 4951,
      "ust": 4952,
      "မၞုံကဵုစၟတ်သမ္တီ": 4953,
      "လောဲသွာ": 4954,
      "ဏံဂှ်": 4955,
      "လဝ်တုဲ": 4956,
      "ဟီုကဵု": 4957,
      "မက်": 4958,
      "စှေ်": 4959,
      "ဆက်ဆောံ": 4960,
      "စး": 4961,
      "ပွိုင်ဍုင်ရေဝ်": 4962,
      "----": 4963,
      "မၞုံယၟုဝွံ": 4964,
      "Mar": 4965,
      "သာမ": 4966,
      "ong": 4967,
      "bo": 4968,
      "ဟ္": 4969,
      "ဟာဲ": 4970,
      "ဒယှ်": 4971,
      "ဗဒ": 4972,
      "ကောန်ဍုင်": 4973,
      "စဴအာ": 4974,
      "သတ္": 4975,
      "Al": 4976,
      "မာံ": 4977,
      "ပြသၞာ": 4978,
      "လာဲ": 4979,
      "ိုခ်": 4980,
      "ပရိုင်": 4981,
      "သုၚ်စောဲ": 4982,
      "Soci": 4983,
      "တဆိပ်": 4984,
      "သၞေဟ်": 4985,
      "man": 4986,
      "သန္": 4987,
      "ပြဘိုဂ်": 4988,
      "လုက်": 4989,
      "ဟဂွံ": 4990,
      "အဂၞ": 4991,
      "တၠုင်": 4992,
      "တိရစ္ဆာန်": 4993,
      "ဝံ": 4994,
      "ပရအ်": 4995,
      "ဗွဲတၟေင်": 4996,
      "ပွမဟွံ": 4997,
      "အပ်": 4998,
      "ၝောံ": 4999,
      "အခါ": 5000,
      "လဝ်ဂှ်": 5001,
      "ညဳသာ": 5002,
      "တေံဂှ်": 5003,
      "မပတၠ": 5004,
      "က္ၜင်": 5005,
      "ဒၟံၚ်ရ": 5006,
      "ကထိုန်": 5007,
      "တမ": 5008,
      "ရာယ်": 5009,
      "ဒုန်": 5010,
      "လိက်တၟအ်": 5011,
      "ရမျာ": 5012,
      "ကောန်ဂကောံ": 5013,
      "၁၉၅": 5014,
      "ဒၟံၚ်ပ္ဍဲ": 5015,
      "ကာလဂှ်": 5016,
      "ထံင်": 5017,
      "ဥတု": 5018,
      "ဒးဒုၚ်": 5019,
      "ပညပ်": 5020,
      "တအ်ညးဂမၠိုၚ်": 5021,
      "ဟွံသေၚ်ကဵု": 5022,
      "ဂှ်ရော": 5023,
      "ကၠေၚ်": 5024,
      "ပုဟ်": 5025,
      "ဒဒ": 5026,
      "နရက်": 5027,
      "ဂဴ": 5028,
      "္ကာ": 5029,
      "University": 5030,
      "ိုရ်": 5031,
      "လွပ်": 5032,
      "ဍိုက်ပေၚ်တဴ": 5033,
      "မကလိဂွံ": 5034,
      "ာင်": 5035,
      "နှင့်": 5036,
      "ဗဗွဲဓရ်": 5037,
      "ey": 5038,
      "ဟၟဲ": 5039,
      "သီုမ": 5040,
      "ကော်ခဴ": 5041,
      "ry": 5042,
      "၂၂": 5043,
      "မာန": 5044,
      "မှာထေရ်": 5045,
      "act": 5046,
      "ဗမံက်": 5047,
      "အရှန်": 5048,
      "ဟီုထ္ၜးဒုဟ်": 5049,
      "ဒတ်": 5050,
      "မလ္ၚတ်": 5051,
      "ကၠောန်ကမၠောန်": 5052,
      "ဂေါဝ်": 5053,
      "ကျေဝ်": 5054,
      "သ္ပကဵု": 5055,
      "အန္တရာယ်": 5056,
      "ပွဳ": 5057,
      "ကံက်": 5058,
      "ောမ်": 5059,
      "မၞိဟ်မ": 5060,
      "ပျး": 5061,
      "ဂွံရ": 5062,
      "တ္ၜ": 5063,
      "နွံရ": 5064,
      "အဂၞဲ": 5065,
      "အရေဝ်မန်": 5066,
      "ဇာတိ": 5067,
      "အလိုက်": 5068,
      "တွဟ်": 5069,
      "လာပ်": 5070,
      "မၞးတံ": 5071,
      "ဇ္ၛ": 5072,
      "26": 5073,
      "သ္ပဒတဴ": 5074,
      "သၞာံဂှ်": 5075,
      "Res": 5076,
      "ပလာ်": 5077,
      "ထတ်ယုက်": 5078,
      "ဒကေဝ်": 5079,
      "ဗစာ": 5080,
      "ကြုင်": 5081,
      "ဒနာ": 5082,
      "အသာ်": 5083,
      "ရဴဂဴ": 5084,
      "အဝဲ": 5085,
      "ink": 5086,
      "ပ္ဍဲအပ္ဍဲ": 5087,
      "ဒစာံ": 5088,
      "သီုဟွံ": 5089,
      "သြဳ": 5090,
      "ဉ္စ": 5091,
      "ဍဳ": 5092,
      "လုပ်အာ": 5093,
      "တွင်": 5094,
      "ဇေတ်ဇေတ်": 5095,
      "from": 5096,
      "ဳဂမၠိုၚ်": 5097,
      "ပလီုပလာ်": 5098,
      "ပဲါစိုတ်ရ": 5099,
      "ဂၠု": 5100,
      "စ္ဆာ": 5101,
      "မပတၠပိုဉ်": 5102,
      "သာ်လဵု": 5103,
      "ပိုဲညးဂမၠိုၚ်": 5104,
      "တမၠာ": 5105,
      "၂၆": 5106,
      "မၞိဟ်တြုဟ်": 5107,
      "၂၇": 5108,
      "ဂမ္တဴ": 5109,
      "ဗပေၚ်": 5110,
      "ဟေ": 5111,
      "ဖြစ်": 5112,
      "24": 5113,
      "၂၁": 5114,
      "ဒုင်သဇိုင်": 5115,
      "cri": 5116,
      "စံင်": 5117,
      "ပါ်ပရအ်": 5118,
      "သက်သဳ": 5119,
      "fer": 5120,
      "ဒျ": 5121,
      "၁၉၄": 5122,
      "ဗၞုဟ်": 5123,
      "ဗွဲမဒးရး": 5124,
      "min": 5125,
      "ဏောၚ်": 5126,
      "လအိတ်": 5127,
      "ဒၟံင်ရ": 5128,
      "ဒမၠ": 5129,
      "တၠဳ": 5130,
      "ဍုၚ်မန်": 5131,
      "ai": 5132,
      "ပၟဝ်": 5133,
      "ပ္ဍဲဂိတု": 5134,
      "ကျာ်စေတဳ": 5135,
      "ဇၞော်ဇၞော်": 5136,
      "ကလော": 5137,
      "ဒကး": 5138,
      "ဒၠောံဗတောန်": 5139,
      "ဒှ်ညး": 5140,
      "ကၠာဲ": 5141,
      "ကၠောန်ၜိုတ်": 5142,
      "...": 5143,
      "mon": 5144,
      "ဓာန်": 5145,
      "ign": 5146,
      "မဟွံမွဲကဵု": 5147,
      "မွဲဝါ": 5148,
      "ဇကုတုဲ": 5149,
      "angu": 5150,
      "ual": 5151,
      "ဗဗၞး": 5152,
      "ကုန်": 5153,
      "ဂျာ": 5154,
      "စၟတ်သမ္တီလဝ်": 5155,
      "ယိုက်ဂၠေင်": 5156,
      "ကဠ": 5157,
      "တို့": 5158,
      "Ind": 5159,
      "form": 5160,
      "ပယျဵု": 5161,
      "လဆ": 5162,
      "မ္ပ": 5163,
      "မွဲသာ်": 5164,
      "ကေၚ်ကာ": 5165,
      "ကုခမဳဂှ်": 5166,
      "ဂှ်ကီု": 5167,
      "ပ္ဍဲကဏ္ဍ": 5168,
      "af": 5169,
      "mar": 5170,
      "ကုလသ": 5171,
      "မဂွံအဓိပ္ပါယ်": 5172,
      "စမ်": 5173,
      "ata": 5174,
      "ယွံကျာ်": 5175,
      "ညိည": 5176,
      "ဓမ္မတာ": 5177,
      "သမာ": 5178,
      "နာ်": 5179,
      "ချေံ": 5180,
      "လတက်": 5181,
      "ကလး": 5182,
      "မေတ္တာ": 5183,
      "ဂါထာ": 5184,
      "ကိုဋ်": 5185,
      "ှာမ်": 5186,
      "မပတၠပိုဉ်တြဴပြကာ": 5187,
      "eg": 5188,
      "တၞံဆု": 5189,
      "ကွေံရ": 5190,
      "ပၚ်": 5191,
      "သ္ပရ": 5192,
      "ပရိုက်": 5193,
      "ations": 5194,
      "ဇွောဝ်": 5195,
      "ဂစာန်": 5196,
      "တၠသ္ၚိ": 5197,
      "ဒေပ်": 5198,
      "ဍိုက်ပေင်": 5199,
      "မယုတ်": 5200,
      "Ma": 5201,
      "ဗြဟ္": 5202,
      "ဗလ": 5203,
      "၁၉၈": 5204,
      "ကိရိယာ": 5205,
      "သအာင်": 5206,
      "ပြေၚ်": 5207,
      "199": 5208,
      "ညဳသၟဟ်": 5209,
      "သ္ၚေဝ်ဂၠေပ်": 5210,
      "ကုလသမဂ္ဂ": 5211,
      "ဗါ": 5212,
      "ဝဏ္ဏ": 5213,
      "ၛာန်": 5214,
      "ပြိုင်": 5215,
      "ပိဋ": 5216,
      "မၞိဟ်ဂမၠိုၚ်": 5217,
      "တမ်မူလ": 5218,
      "Wik": 5219,
      "မၠာ်": 5220,
      "stit": 5221,
      "ကဵုလဝ်": 5222,
      "ပွံ": 5223,
      "ဇကုရ": 5224,
      "ကွာန်ကအ်": 5225,
      "မဒှ်ရ": 5226,
      "ထုလ္လ": 5227,
      "စိင်": 5228,
      "ပ္ဍဲဌာန်": 5229,
      "ရား": 5230,
      "နာဍဳ": 5231,
      "တင်ရန်တၟအ်": 5232,
      "ကိတ်ညဳ": 5233,
      "သာမဏဳ": 5234,
      "ဇံ": 5235,
      "Sh": 5236,
      "မရာတ်": 5237,
      "အရာပ်": 5238,
      "စာ်": 5239,
      "ဖာ": 5240,
      "ယေန်သၞာၚ်": 5241,
      "ရှိ": 5242,
      "လံ": 5243,
      "ိုဝ်": 5244,
      "သတြ": 5245,
      "ဟွံခိုဟ်": 5246,
      "နိမန်": 5247,
      "ကၞေဟ်": 5248,
      "ဒေဝဒတ်": 5249,
      "ယွံကျာ်မၞုံပိုဉ်": 5250,
      "အရီု": 5251,
      "လၞ": 5252,
      "မြမောဝ်": 5253,
      "သင်္ကေတ": 5254,
      "မလုပ်": 5255,
      "အခေါင်အရာ": 5256,
      "တအ်တုဲ": 5257,
      "ဇြဳ": 5258,
      "ဗီုရုပ်": 5259,
      "su": 5260,
      "ဂှ်မ္ဂး": 5261,
      "ions": 5262,
      "ယၟုရ": 5263,
      "စၠတ်": 5264,
      "မဂ်ဖိုလ်": 5265,
      "ဝဲ": 5266,
      "ကွာန်ဂှ်": 5267,
      "အၚ်္ဂလိက်": 5268,
      "ထံက်ပင်": 5269,
      "ထွ": 5270,
      "တလ": 5271,
      "လဆောဝ်": 5272,
      "ကး": 5273,
      "cript": 5274,
      "ရှ်ေသှ်ေ": 5275,
      "ပါတိ": 5276,
      "ens": 5277,
      "အာစာ": 5278,
      "ပိုဲတံ": 5279,
      "istory": 5280,
      "ဘ်": 5281,
      "ကၠုၚ်နူ": 5282,
      "၂၀၁၄": 5283,
      "ယုတ္တိ": 5284,
      "ကာန်": 5285,
      "one": 5286,
      "မာန်ဂှ်": 5287,
      "ပွူ": 5288,
      "ပါဲနူ": 5289,
      "ပ္ဍဲအခိင်ဂှ်": 5290,
      "ates": 5291,
      "နာဲဗြဴ": 5292,
      "ရၚ်တၠုၚ်": 5293,
      "၂၉": 5294,
      "ဇဳဝ": 5295,
      "Sy": 5296,
      "ဇၟ": 5297,
      "မွဲတ္ၚဲ": 5298,
      "မဗဗွဲ": 5299,
      "ၜံက်": 5300,
      "မလိက်": 5301,
      "ဟော": 5302,
      "အတိုင်စရင်လုပ်ဒဂိုန်": 5303,
      "သၟေဟ်": 5304,
      "ore": 5305,
      "ဒးအာပတ်ပဲါစိုတ်ရ": 5306,
      "stitut": 5307,
      "ဗစိုပ်": 5308,
      "ဘိက်": 5309,
      "အာမ္ဂး": 5310,
      "ous": 5311,
      "စိတ္တ": 5312,
      "ဍောၚ်": 5313,
      "သၠာဲ": 5314,
      "ဗတ်": 5315,
      "ၜက်": 5316,
      "နကဵုမတ်": 5317,
      "အနာဂတ်": 5318,
      "ထိင်ဒဝ်": 5319,
      "ဒၞါဲ": 5320,
      "စန္ဒ": 5321,
      "တး": 5322,
      "ဇကုဂှ်": 5323,
      "ဆက်စၠောအ်": 5324,
      "ific": 5325,
      "Or": 5326,
      "ich": 5327,
      "၆၀": 5328,
      "တိတ်ဗၠး": 5329,
      "ကၠုၚ်ရ": 5330,
      "၁၉၇": 5331,
      "လာင်": 5332,
      "တၠဂုဏ်အ္စာ": 5333,
      "တြၚ်": 5334,
      "တတ်": 5335,
      "မဒ": 5336,
      "ဂမၠိုၚ်တုဲ": 5337,
      "ind": 5338,
      "ဂမၠိုင်ဂှ်": 5339,
      "မန်တအ်": 5340,
      "ကြဴနူဂှ်": 5341,
      "ဇန": 5342,
      "ထၞ": 5343,
      "လိင်": 5344,
      "၂၈": 5345,
      "ကာတ်": 5346,
      "မဟဂပ်ဝ်": 5347,
      "ဗှ်ေ": 5348,
      "ပရဲ": 5349,
      "သုတ": 5350,
      "အလုံမွဲ": 5351,
      "ဗဟု": 5352,
      "သုတ်": 5353,
      "ကၠအ်": 5354,
      "တန်ဒၟံၚ်": 5355,
      "တုပ်စိုတ်": 5356,
      "ရွ": 5357,
      "သၟုက်": 5358,
      "သ္ပလွဳပရာ": 5359,
      "အတိက်": 5360,
      "သဓီု": 5361,
      "ကီုတုဲ": 5362,
      "ite": 5363,
      "သာဲ": 5364,
      "ပ္ဍဲသက္ကရာဇ်": 5365,
      "ကၟာဝက်": 5366,
      "ပြာပ်အာဇရေၚ်": 5367,
      "လှာ": 5368,
      "မုရဴ": 5369,
      "ကတဵုဒှ်ကၠုင်": 5370,
      "ထာန်": 5371,
      "ၚေၚ်": 5372,
      "လလောင်": 5373,
      "သစ္စ": 5374,
      "အာရှာမ်": 5375,
      "ရာမ်": 5376,
      "stem": 5377,
      "ချဳဒ": 5378,
      "သ္အာၚ်": 5379,
      "ကလေၚ်စဴ": 5380,
      "ဥက္ကဋ္ဌ": 5381,
      "ဒးကဵု": 5382,
      "that": 5383,
      "ခေါ": 5384,
      "ဒူ": 5385,
      "နွံဒၟံင်": 5386,
      "မၞုံသဘဴ": 5387,
      "ဗ္ၜတ်": 5388,
      "သၟိၚ်မ": 5389,
      "ပတိ": 5390,
      "ကျာ်သြဳ": 5391,
      "အာစိုပ်အာပတ်": 5392,
      "ative": 5393,
      "အဲဂှ်": 5394,
      "စိုန်": 5395,
      "ၝောအ်": 5396,
      "တိန်": 5397,
      "ရှာ": 5398,
      "mer": 5399,
      "ကရော": 5400,
      "နကု": 5401,
      "ကြုၚ်": 5402,
      "ica": 5403,
      "မဂပ်ဝ်ဂြောပ်ဗ္ဒန်လဝ်": 5404,
      "စံက်": 5405,
      "စုက်": 5406,
      "လက်ထက်": 5407,
      "သၞောဝ်ဥပဒေ": 5408,
      "ချဳဓ": 5409,
      "sl": 5410,
      "ထိုၚ်": 5411,
      "ဿီု": 5412,
      "ကြိုက်": 5413,
      "ဒေါံ": 5414,
      "ther": 5415,
      "၂၀၂၀": 5416,
      "မင်း": 5417,
      "စတုတ္ထ": 5418,
      "ထောင်": 5419,
      "ရှ်": 5420,
      "တၟး": 5421,
      "မေန်": 5422,
      "တိုန်ရ": 5423,
      "ကၠုၚ်စိုပ်": 5424,
      "ပွိုင်ဍုင်ဇြပ်ဗု": 5425,
      "ဗွဲကိုပ်ကၠာ": 5426,
      "ound": 5427,
      "ဗ္စာ": 5428,
      "ဖန်ဇန်": 5429,
      "ကိုတ်": 5430,
      "အခြ": 5431,
      "ပါ်ဒကး": 5432,
      "လၟေင်ကမၠောန်": 5433,
      "ဗွဲမလောန်ရ": 5434,
      "ယွံတဳလပိုဉ်တအ်": 5435,
      "အဖ": 5436,
      "သာရဝှ်": 5437,
      "မတုပ်": 5438,
      "သတိက်": 5439,
      "သၟာန်သၟုက်": 5440,
      "ထေၚ်": 5441,
      "တအ်ဝွံ": 5442,
      "ဝါကျ": 5443,
      "ဒေါအ်": 5444,
      "ပွဳပွူ": 5445,
      "ကူ": 5446,
      "ဂဳ": 5447,
      "အိုဿီု": 5448,
      "ဇၞော်ကဵု": 5449,
      "တာလျိုၚ်": 5450,
      "ဆဗ္ဗ": 5451,
      "ထၟ": 5452,
      "ပ္ဍဲလိက်": 5453,
      "ကြီး": 5454,
      "ကရေက်": 5455,
      "ဓာ": 5456,
      "ကြဳ": 5457,
      "ပါတိမုက်": 5458,
      "New": 5459,
      "eb": 5460,
      "ဂေါတမ": 5461,
      "ကန်": 5462,
      "၃၅": 5463,
      "ဟွံမာန်ရ": 5464,
      "နူရုင်": 5465,
      "င်ရင်": 5466,
      "ဍုင်သေံ": 5467,
      "ဒကှ်": 5468,
      "န္တိ": 5469,
      "သိမ်": 5470,
      "ဥပေါ": 5471,
      "ဂၠိုၚ်ကဵု": 5472,
      "ဇမၞ": 5473,
      "လက်သန်": 5474,
      "ကၟိန်ဍုင်ဗၟာ": 5475,
      "Art": 5476,
      "27": 5477,
      "သး": 5478,
      "ance": 5479,
      "အဓိကဂမၠိုင်": 5480,
      "ပွိုင်ဍုင်မုဟ်ဍုင်": 5481,
      "ဩဝ်ကဵု": 5482,
      "ပိဋကတ်": 5483,
      "ဆဗ္ဗဂ္ဂ": 5484,
      "ys": 5485,
      "ကာရ": 5486,
      "ဇြဲ": 5487,
      "စဵုဒစး": 5488,
      "မဵု": 5489,
      "သ္ဇိုၚ်": 5490,
      "နက်သတ်": 5491,
      "ချဳဓရာင်": 5492,
      "ဒတုံ": 5493,
      "ရာဲ": 5494,
      "ရသိ": 5495,
      "ခမဳမွဲဇကု": 5496,
      "မိန်": 5497,
      "ပဒတဴဒၟံင်": 5498,
      "ack": 5499,
      "ublic": 5500,
      "သိင်": 5501,
      "ွဲ့": 5502,
      "ဟီုဂး": 5503,
      "ဒုၚ်ဂိုၚ်ကေတ်": 5504,
      "29": 5505,
      "}}": 5506,
      "ကာံ": 5507,
      "သန်ရ": 5508,
      "လဟဵု": 5509,
      "ဒါယကာ": 5510,
      "ဒဿန": 5511,
      "မကော်": 5512,
      "မှိၚ်": 5513,
      "ရမျာၚ်": 5514,
      "name": 5515,
      "ဘူ": 5516,
      "နိမိတ်": 5517,
      "အရာမ": 5518,
      "ide": 5519,
      "ပထဝဳ": 5520,
      "အာဲကၟာဲ": 5521,
      "သြဝ်": 5522,
      "က္ဍဟ်": 5523,
      "တောဲ": 5524,
      "ဒဒက်": 5525,
      "ဟီုဂရိုဟ်အိုတ်ရ": 5526,
      "ယွံကောန်တၠတအ်": 5527,
      "တတိယ": 5528,
      "ဂမၠိုၚ်ကီု": 5529,
      "ပ္တီ": 5530,
      "ဍုင်မတ်မလီု": 5531,
      "ၚာ": 5532,
      "ကွေဟ်": 5533,
      "ဇြိုဟ်": 5534,
      "စဳကၠး": 5535,
      "ကိလေ": 5536,
      "ဒါဲ": 5537,
      "ဝေဒ": 5538,
      "အဃော": 5539,
      "ဖ္": 5540,
      "ဒုၚ်ဝန်": 5541,
      "ကုခမဳဗြဴ": 5542,
      "ဖေဖဝ်": 5543,
      "ဇမၞော်": 5544,
      "ညးဂမၠိုင်": 5545,
      "ese": 5546,
      "လာဘ်": 5547,
      "anguage": 5548,
      "ပွမချပ်": 5549,
      "အင်္ဂ": 5550,
      "ဟီုထ္ၜးဒုဟ်အိုတ်ရ": 5551,
      "စၠတ်ထဝ်": 5552,
      "လံက်": 5553,
      "မွဲတၠ": 5554,
      "စိုတ်တုဲ": 5555,
      "ရးမန်": 5556,
      "ember": 5557,
      "ultural": 5558,
      "ရီုဗင်": 5559,
      "udd": 5560,
      "ဖေဖဝ်ဝါရဳ": 5561,
      "မအံက်": 5562,
      "ခမဳသင်": 5563,
      "Sci": 5564,
      "တံင်": 5565,
      "ဂၠံ": 5566,
      "ဂၠိၚ်": 5567,
      "တ္ၚဲဏံ": 5568,
      "ကၟိန်ဍုၚ်": 5569,
      "04": 5570,
      "Intern": 5571,
      "ဍောတ်တ်": 5572,
      "သွံရာန်": 5573,
      "နူရုင်ရာမညနိကာယ": 5574,
      "ဂံၚ်": 5575,
      "ဆိုက်": 5576,
      "ပ္တ": 5577,
      "စုတ်လဝ်": 5578,
      "လၟိဟ်မၞိဟ်": 5579,
      "Comp": 5580,
      "not": 5581,
      "ue": 5582,
      "ဒီ": 5583,
      "ဒှ်ပွမ": 5584,
      "ရဴသာ်ဝွံ": 5585,
      "ပျုတ်ဗ္ဒေက်အိုတ်ရ": 5586,
      "ဒှ်တဴ": 5587,
      "သံသယ": 5588,
      "Ret": 5589,
      "ire": 5590,
      "ဆန်": 5591,
      "ဥရော": 5592,
      "တၟာ": 5593,
      "ပါ်လဝ်": 5594,
      "ဇိၚ်": 5595,
      "စှ်ေအာ": 5596,
      "စဵုကဵုစိုပ်": 5597,
      "နူရုင်ရာမညနိကာယမ္ဂး": 5598,
      "နဲပညာ": 5599,
      "ဒဒက်တဴ": 5600,
      "သလ": 5601,
      "ကောန်ဗြဴ": 5602,
      "ဒြေပ်": 5603,
      "သဒ္ဓ": 5604,
      "int": 5605,
      "ဖအောဝ်ကဵု": 5606,
      "Ad": 5607,
      "ကၠေင်": 5608,
      "မွဲသအာၚ်": 5609,
      "ခမဳသၚ်": 5610,
      "ဗြိ": 5611,
      "စိုတ်မ": 5612,
      "ပါဲစိုတ်ရ": 5613,
      "ဘဴ": 5614,
      "သဘၚ်": 5615,
      "ဒယှ်ေ": 5616,
      "မသ္ပ": 5617,
      "Ac": 5618,
      "မချူ": 5619,
      "ပၠန်ဂှ်": 5620,
      "was": 5621,
      "{{": 5622,
      "စရိယ": 5623,
      "ောဟ်": 5624,
      "ဂွံတီကေတ်": 5625,
      "ated": 5626,
      "တၞုၚ်": 5627,
      "ဖျဴ": 5628,
      "၄၀": 5629,
      "ဟွံတုပ်": 5630,
      "က္တဵု": 5631,
      "ဗျူ": 5632,
      "ဥပေါသ်": 5633,
      "06": 5634,
      "ဒွါ": 5635,
      "အံင်ဇၞး": 5636,
      "နကဵုမတ်တၠပညာ": 5637,
      "စဲ": 5638,
      "ပါရာဇ်": 5639,
      "လလံ": 5640,
      "ဂယး": 5641,
      "သဵု": 5642,
      "ကုသၚ်": 5643,
      "ဒဳမဝ်": 5644,
      "ဇဵု": 5645,
      "ဗေ": 5646,
      "သၟိၚ်ဇၞော်": 5647,
      "ဆဗ္ဗဂ္ဂဳဂမၠိုၚ်": 5648,
      "ost": 5649,
      "ဍုန်": 5650,
      "ပံ": 5651,
      "တဵုလွဳ": 5652,
      "ဟေင်ရ": 5653,
      "မြဴသာ်ဝွံ": 5654,
      "ဥရောပ": 5655,
      "ဇျ": 5656,
      "အရက်": 5657,
      "ဗျည်": 5658,
      "ပကၚ်ရၚ်": 5659,
      "ဘောဇိုန်": 5660,
      "Bur": 5661,
      "Sub": 5662,
      "ကိလေသ": 5663,
      "Ex": 5664,
      "သၚ်္": 5665,
      "လလောင်တြး": 5666,
      "ပုင်": 5667,
      "ဝေါဟာ": 5668,
      "sp": 5669,
      "မွဲမ": 5670,
      "ဗၚ်": 5671,
      "ဝိပဿ": 5672,
      "ရှေန်": 5673,
      "ထေဲ": 5674,
      "ech": 5675,
      "သၟူ": 5676,
      "အရင်": 5677,
      "အာပတ်ဂမၠိုၚ်": 5678,
      "ပြာက": 5679,
      "စာ်စ္ဍး": 5680,
      "ဲလး": 5681,
      "မဳတာ": 5682,
      "နှဴရဴ": 5683,
      "ဇိ": 5684,
      "အစဳ": 5685,
      "အမျိုး": 5686,
      "orld": 5687,
      "ition": 5688,
      "ဖျာ": 5689,
      "ကၠောံ": 5690,
      "out": 5691,
      "ဆဵုဂဗ": 5692,
      "ဍာံပြရ": 5693,
      "IS": 5694,
      "မောင်": 5695,
      "သ္ကအ်": 5696,
      "ဂမျ": 5697,
      "ပါလ": 5698,
      "သောင်": 5699,
      "ရာၚ်": 5700,
      "တၠအရှန်": 5701,
      "ဂိယဲ": 5702,
      "စရိုတ်": 5703,
      "earch": 5704,
      "ဥူ": 5705,
      "ဗ္တံ": 5706,
      "ဝါရ": 5707,
      "ဥပဇ္ၛ": 5708,
      "ဂျိ": 5709,
      "ကပ်": 5710,
      "ဒတောဝ်": 5711,
      "ကၠေအ်": 5712,
      "သာဒ်": 5713,
      "ories": 5714,
      "ပိုဲဏံ": 5715,
      "ကောဒ်": 5716,
      "သတ္တံ": 5717,
      "သတ္တိ": 5718,
      "ဗၞတ်ဗ္ၜတ်": 5719,
      "ဘိက္ခ": 5720,
      "စောန်": 5721,
      "ယံ": 5722,
      "အေၚ်": 5723,
      "ပရဝ်": 5724,
      "ဂတာပ်": 5725,
      "ဇုတ်": 5726,
      "မ်ပျူတာ": 5727,
      "ice": 5728,
      "ree": 5729,
      "ဒုင်တဲ": 5730,
      "နဲကဲပညာ": 5731,
      "နပွမ": 5732,
      "ါံ": 5733,
      "ဍေဟ်တအ်": 5734,
      "Budd": 5735,
      "ဒိုတ်": 5736,
      "ဗိုတ်": 5737,
      "ဗာန်": 5738,
      "ဂှ်ဟေၚ်": 5739,
      "ယွံတဳလမၞုံပိုဉ်": 5740,
      "ဥပဇ္ၛာယ်": 5741,
      "ဇု": 5742,
      "အုဲ": 5743,
      "ode": 5744,
      "ဗဟုသုတ": 5745,
      "လေင်": 5746,
      "ကေက်": 5747,
      "History": 5748,
      "ပေန်": 5749,
      "ကၟက်": 5750,
      "လိက်ပတ်မန်": 5751,
      "စီ": 5752,
      "မလ္ၚု": 5753,
      "စၞာံ": 5754,
      "သၠးပွ": 5755,
      "riev": 5756,
      "raph": 5757,
      "မဆေင်စပ်": 5758,
      "ital": 5759,
      "ox": 5760,
      "ဂပ်": 5761,
      "လင်": 5762,
      "၁၉၆": 5763,
      "လၟုဟ်ဝွံ": 5764,
      "ဂရၚ်ပတီရ": 5765,
      "မွဲဂကူ": 5766,
      "ဇၞော်အိုတ်": 5767,
      "ကလုတ်": 5768,
      "တိုန်အာ": 5769,
      "ဗဳဇ": 5770,
      "ach": 5771,
      "ဝေန်": 5772,
      "ကဵုဓရ်": 5773,
      "ကုတဳလပိုဉ်": 5774,
      "နမ": 5775,
      "Cl": 5776,
      "ဓဇ": 5777,
      "အဇန်": 5778,
      "ဗြု": 5779,
      "အခြာ": 5780,
      "39": 5781,
      "ကုက္ကု": 5782,
      "ဖှ်": 5783,
      "ကောန်ပၞာန်": 5784,
      "ict": 5785,
      "ဇြေန်": 5786,
      "ဒါန": 5787,
      "ရေၚ်တၠုၚ်": 5788,
      "တံဂှ်လေဝ်": 5789,
      "ဩဝ်စၞောန်ထ္ၜး": 5790,
      "ty": 5791,
      "မထေက်ကဵု": 5792,
      "ဝိုတ်": 5793,
      "28": 5794,
      "ver": 5795,
      "ဂိုဟ်": 5796,
      "ငံ": 5797,
      "မၞုံကဵုသၠေဟ်ပၟာ": 5798,
      "ဗွဲမပြဟ်": 5799,
      "ဝန်ဇၞော်": 5800,
      "able": 5801,
      "ပၞောဝ်ကဵု": 5802,
      "he": 5803,
      "ခုတ်": 5804,
      "ဗွိုက်": 5805,
      "ခိုင်ကၠိုက်": 5806,
      "rieved": 5807,
      "သၞာံတုဲ": 5808,
      "ပၠောပ်": 5809,
      "ကတ်လ္ၚတ်": 5810,
      "ile": 5811,
      "ဗရု": 5812,
      "ရအဴ": 5813,
      "သှေ်": 5814,
      "စိုတ်ဓါတ်": 5815,
      "အာတ်မိက်": 5816,
      "ကဆံၚ်": 5817,
      "မ္ပဏဳ": 5818,
      "ညု": 5819,
      "ပ္ၚ": 5820,
      "ကြအ်": 5821,
      "ပရေင်ထတ်ယုက်": 5822,
      "ၜါဂှ်": 5823,
      "ၜါစှော်": 5824,
      "ဗျု": 5825,
      "ပွိုၚ်ဍုၚ်": 5826,
      "ဍာန်": 5827,
      "သ္ဂးကဵု": 5828,
      "သၟတ်ဗြဴ": 5829,
      "ရူပ": 5830,
      "သ္ၚိတ်ဇြ": 5831,
      "ဒါယဳ": 5832,
      "ပ္ညဳ": 5833,
      "စိုပ်ကၠုၚ်": 5834,
      "မွန်": 5835,
      "သေၚ်ဟာ": 5836,
      "အဒိုတ်": 5837,
      "၃၁": 5838,
      "ကလၚ်": 5839,
      "ဝါန်": 5840,
      "ကၠာတေံ": 5841,
      "ဒသ်": 5842,
      "မချူလဝ်": 5843,
      "မမိက်ကဵု": 5844,
      "အထ": 5845,
      "ဥဒါယဳ": 5846,
      "ဝါလေဝ်": 5847,
      "ကုက္ကုစ္စ": 5848,
      "up": 5849,
      "ကိုန်": 5850,
      "စူ": 5851,
      "ဍုၚ်သာရဝှ်": 5852,
      "သၠးပွး": 5853,
      "Sp": 5854,
      "ဇှ်": 5855,
      "ညးမဒှ်": 5856,
      "သာကျ": 5857,
      "ကြာတ်": 5858,
      "%)": 5859,
      "ပ္ဍဲဂၠးတိ": 5860,
      "ထ္ၜ": 5861,
      "ff": 5862,
      "ှာဲ": 5863,
      "ကၠီု": 5864,
      "တာင်": 5865,
      "သုဝဏ္ဏ": 5866,
      "ave": 5867,
      "လလမ်ကၠေံ": 5868,
      "ပ္ဍဲဂြိုပ်": 5869,
      "မွဲလပါ်": 5870,
      "ဝါဲ": 5871,
      "မိပ်စိုတ်": 5872,
      "သင်္ချာ": 5873,
      "နိုင်ငံ": 5874,
      "သှ": 5875,
      "မန်ဂှ်": 5876,
      "သမၠုင်": 5877,
      "ပ္ဍဲဇရေၚ်": 5878,
      "ပရေင်ကမၠောန်": 5879,
      "စၞေဟ်": 5880,
      "use": 5881,
      "23": 5882,
      "text": 5883,
      "ပ္တုဲ": 5884,
      "သ္ဇိုင်": 5885,
      "ဂကောံကွာန်": 5886,
      "က္ဍိုပ်သကိုပ်": 5887,
      "ၚ်ပၚ်": 5888,
      "လ္ဂုၚ်": 5889,
      "ဒၞဲါ": 5890,
      "ဇာတ": 5891,
      "Institut": 5892,
      "ပြင်သေတ်": 5893,
      "Retrieved": 5894,
      "He": 5895,
      "၃၆": 5896,
      "ခရိုင်မတ်မလီု": 5897,
      "မ္ဂးယၟုရ": 5898,
      "ကၞက်": 5899,
      "ခါဲ": 5900,
      "ဒှ်မ္ဂး": 5901,
      "ကၞာတ်": 5902,
      "အစဳအဇန်": 5903,
      "fl": 5904,
      "ခရေတ်ယာန်": 5905,
      "Pol": 5906,
      "cent": 5907,
      "ဇွိတ်": 5908,
      "ဣဝွံတုန်": 5909,
      "ပသဲ": 5910,
      "ဗြိတိန်": 5911,
      "gan": 5912,
      "ဘာကျာ်": 5913,
      "နိယ": 5914,
      "ရပ်စပ်": 5915,
      "ဏအ်တုဲ": 5916,
      "တဲဂှ်": 5917,
      "ဂ္ညိ": 5918,
      "ကေင်ကာ": 5919,
      "စမ်ၜတ်": 5920,
      "မြန်": 5921,
      "ဒေါ်": 5922,
      "အေန်တာ": 5923,
      "ဇေတ": 5924,
      "ဝံသ": 5925,
      "စသိုင်": 5926,
      "ကၞုဲ": 5927,
      "ဒ္ဂေတ်ဗက်": 5928,
      "က္ဍိုက်": 5929,
      "ဟိုတ်ကဵု": 5930,
      "အဲရ": 5931,
      "ဗှ်ဗၞုဟ်": 5932,
      "ဥက္ကဌ": 5933,
      "ဒဳမဝ်ကရေ": 5934,
      "ဗိုၚ်": 5935,
      "ပိုဲဍိက်": 5936,
      "မၞုံကဵုပွမ": 5937,
      "ထောင်စု": 5938,
      "သံသယကုက္ကုစ္စ": 5939,
      "စဝ်": 5940,
      "ပ္ဍဲဘဝ": 5941,
      "ah": 5942,
      "ကတောဝ်": 5943,
      "ဂိုင်": 5944,
      "သမ္ၚ": 5945,
      "ကျာ်ဇၞော်အစာ": 5946,
      "တ္တရ": 5947,
      "ကော်ခဴစ": 5948,
      "ဖိုဟ်": 5949,
      "သၠပတ်": 5950,
      "ကုသိုလ်": 5951,
      "အတိုင်စရင်မၞိဟ်": 5952,
      "ၚ်ပၚ်မှိၚ်": 5953,
      "ဗကေတ်": 5954,
      "မတီ": 5955,
      "att": 5956,
      "State": 5957,
      "ကွးပဒတဴ": 5958,
      "ဂၞန်ကောဒ်": 5959,
      "ပါ်ခြာလဝ်": 5960,
      "land": 5961,
      "ron": 5962,
      "မတုဲ": 5963,
      "ဒှ်ဍုင်": 5964,
      "အာဖ": 5965,
      "ဟီုတွံ": 5966,
      "ဟိုတ်နူဟိုတ်": 5967,
      "အတိုင်ဗွဲသၟဝ်ဏအ်ရ": 5968,
      "son": 5969,
      "ကၠောအ်": 5970,
      "အဲဍိက်ညိ": 5971,
      "ဂၞန်ကောဒ်ကွာန်ဂှ်": 5972,
      "eth": 5973,
      "ပ္ဍဲသာသနာ": 5974,
      "မွဲဓဝ်": 5975,
      "ညးကော်စ": 5976,
      "ပြီး": 5977,
      "ပၠတရဴ": 5978,
      "ဒေါသ": 5979,
      "သ္ဒးကဵု": 5980,
      "ပြည်ထောင်စု": 5981,
      "(၊": 5982,
      "ခန်": 5983,
      "ဗန်": 5984,
      "ဗိုက်": 5985,
      "ဘဳ": 5986,
      "အာနူ": 5987,
      "ပၞောန်": 5988,
      "နန္ဒာ": 5989,
      "လဴဗ္စ": 5990,
      "အမျိုးသား": 5991,
      "ကဗျ": 5992,
      "oh": 5993,
      "တေန်": 5994,
      "ဓလီု": 5995,
      "မၞိဟ်ပဒတဴဒၟံင်": 5996,
      "လုပ်စ": 5997,
      "ဂျေန်": 5998,
      "၁၃၇": 5999,
      "ဂါမ်": 6000,
      "ပရိုက်ဘဲ": 6001,
      "categ": 6002,
      "ခိုၚ်": 6003,
      "ဂတိ": 6004,
      "ဒစဵုဒစး": 6005,
      "ပ္ည": 6006,
      "မှာသၟိတ်": 6007,
      "အဖွဲ့": 6008,
      "ral": 6009,
      "မန": 6010,
      "ကြံ": 6011,
      "မဂၠိုင်": 6012,
      "အေဒဳ": 6013,
      "၂၀၁၉": 6014,
      "အခိင်ကာလ": 6015,
      "မ္ဒးရး": 6016,
      "ဗ္ဒက်": 6017,
      "သ္ပပြဘိုဂ်": 6018,
      "ရန်တၟံ": 6019,
      "ပကင်ရင်": 6020,
      "ser": 6021,
      "ကထာ": 6022,
      "ဏိ": 6023,
      "ရိုတ်": 6024,
      "ဂီုကၠီု": 6025,
      "ပွံက်": 6026,
      "Col": 6027,
      "work": 6028,
      "ခမၞ": 6029,
      "ဒှ်ဒၞာဲ": 6030,
      "စိန်": 6031,
      "ဒဏ်": 6032,
      "မိစ္ဆာ": 6033,
      "အလှာဲ": 6034,
      "ages": 6035,
      "ဇ္ဇာ": 6036,
      "ၜိုဟ်သြိုဟ်": 6037,
      "စသိုၚ်": 6038,
      "ေဲ": 6039,
      "ၜူ": 6040,
      "ဒးအာ": 6041,
      "Stud": 6042,
      "ဗှ်လိက်": 6043,
      "ဇမၠိင်": 6044,
      "Par": 6045,
      "ခဲ": 6046,
      "ဒ္စါံ": 6047,
      "=\"": 6048,
      "စိုပ်သၞာံ": 6049,
      "စိုပ်ကၠုင်": 6050,
      "သၟိၚ်အိန်": 6051,
      "က္ခေ": 6052,
      "မှာဇန်": 6053,
      "ကၟာတ်လ": 6054,
      "ဂအ": 6055,
      "ကျဝ်": 6056,
      "နူမဂ်ဖိုလ်": 6057,
      "ကလၚ်ပၚ်မှိၚ်": 6058,
      "မၞးတအ်ညးဂမၠိုၚ်": 6059,
      "မင်မဲ": 6060,
      "Rep": 6061,
      "သတြု": 6062,
      "mb": 6063,
      "အပြံင်": 6064,
      "၄၅": 6065,
      "ပ္ဍဲလတူ": 6066,
      "ပ္ဍဲကြဴ": 6067,
      "ဂ္ၚေၚ်": 6068,
      "ပေဲါ": 6069,
      "မာနတ်": 6070,
      "No": 6071,
      "ug": 6072,
      "ကရဴ": 6073,
      "စံ": 6074,
      "ထီု": 6075,
      "ဒိပ်": 6076,
      "သာရိ": 6077,
      "ကယျာန်": 6078,
      "တံၚ်ဓဇက်": 6079,
      "ပွမချပ်သၠေဟ်ပၟာ": 6080,
      "အပြံင်အလှာဲ": 6081,
      "My": 6082,
      "အယုက်": 6083,
      "ဥပ္ပ": 6084,
      "ဇေတဝန်": 6085,
      "World": 6086,
      "les": 6087,
      "ကွက်": 6088,
      "သ္ၚိကၟိန်": 6089,
      "ပါဲကၠေံ": 6090,
      "ount": 6091,
      "ဒ္စာံ": 6092,
      "ဒွံ": 6093,
      "ရိုက်": 6094,
      "ကောန်ဇာတ်": 6095,
      "ကၠုၚ်တုဲ": 6096,
      "ဂၞပ်": 6097,
      "ase": 6098,
      "လက်သ": 6099,
      "က္ဍိုပ်သ္ကိုပ်": 6100,
      "မိၚ်ကေတ်": 6101,
      "သိက္ခာပိုဒ်ဝွံ": 6102,
      "ကြဳဇှ်": 6103,
      "ject": 6104,
      "ning": 6105,
      "ဆေဝ်": 6106,
      "ဂၠုၚ်": 6107,
      "ကောပ်": 6108,
      "စၚ်": 6109,
      "စောတ်": 6110,
      "သန္တ": 6111,
      "ဂၠၚ်": 6112,
      "၁၃၆": 6113,
      "မူဝါဒ": 6114,
      "အစောံစရာဲ": 6115,
      "သဗ္ဗညု": 6116,
      "အဲကျာ်": 6117,
      "သ္ပဒး": 6118,
      "က္ဍိုၚ်": 6119,
      "ဇဗ": 6120,
      "မပဒတဴ": 6121,
      "မ္စံက်": 6122,
      "ချုပ်": 6123,
      "ကၠုင်ရ": 6124,
      "ဂလိုင်": 6125,
      "နှစ်": 6126,
      "ဗလးဏာ": 6127,
      "ပ္ဍဲအရာမ": 6128,
      "ထိုၚ်သး": 6129,
      "ကှ်": 6130,
      "အိက်": 6131,
      "အမြ": 6132,
      "အဋ္ဌ": 6133,
      "ပၟၚ်": 6134,
      "ယုတ္တိဗေဒ": 6135,
      "78": 6136,
      "ဗဒါဲ": 6137,
      "ဟွံကလိဂွံ": 6138,
      "ဝွံဂှ်": 6139,
      "ကေုာံအၚ်္ဂ": 6140,
      "သွက်သ္ဂောံ": 6141,
      "ဒေန်": 6142,
      "For": 6143,
      "ၜိုပ်": 6144,
      "ကမၠတ်": 6145,
      "ime": 6146,
      "သဘဴဓရ်": 6147,
      "ယာံမာတ်": 6148,
      "သ္ပဒတဴတန်ဒၟံၚ်": 6149,
      "သဒ္ဓါ": 6150,
      "ဇး": 6151,
      "ထောန်": 6152,
      "ပဏ္ဍ": 6153,
      "သဘင်မာဲ": 6154,
      "ပစ္စု": 6155,
      "cy": 6156,
      "ဓု": 6157,
      "ဟဝ်": 6158,
      "ဂကူဗၟာ": 6159,
      "ပိပြကာ": 6160,
      "ကိုဝ်": 6161,
      "der": 6162,
      "ကဿ": 6163,
      "ဒကုတ်": 6164,
      "ယဵု": 6165,
      "အေဝ်": 6166,
      "ဣဒ္ဓိ": 6167,
      "၃၂": 6168,
      "ကုဒ်": 6169,
      "ပါလိ": 6170,
      "als": 6171,
      "ပစ္စယော": 6172,
      "ခၟဳ": 6173,
      "ဖ္ဍောတ်": 6174,
      "ကောန်ဍုင်အရင်": 6175,
      "ိတ": 6176,
      "ဗုကာံ": 6177,
      "မလ္ၚုသၟး": 6178,
      "Pl": 6179,
      "dis": 6180,
      "သ္ကုတ်": 6181,
      "တံရ": 6182,
      "တိုန်စိုပ်": 6183,
      "နဝ်ဝေ": 6184,
      "Dal": 6185,
      "တစ်": 6186,
      "တဇ္ဇ": 6187,
      "မၞိက်": 6188,
      "ရောပ်": 6189,
      "ဂတဵု": 6190,
      "ဏှာ": 6191,
      "ပရေင်လ္ၚတ်": 6192,
      "ရဴဝွံဟေၚ်": 6193,
      "ဝိဇ္ဇာ": 6194,
      "လာမ်": 6195,
      "မညဳ": 6196,
      "တသိုခ်": 6197,
      "မၠာ်သ္ၚေဝ်": 6198,
      "ကံင်": 6199,
      "သကုတ်": 6200,
      "အာကာသ": 6201,
      "အခေတ်": 6202,
      "ဇြိုင်": 6203,
      "တဝ်စၞေဟ်": 6204,
      "res": 6205,
      "we": 6206,
      "ဂွံအာ": 6207,
      "ope": 6208,
      "ipedia": 6209,
      "သ္ဍ": 6210,
      "ညးဗြဴ": 6211,
      "စွံပတန်": 6212,
      "ခေတ်လၟုဟ်": 6213,
      "၂၀၂၅": 6214,
      "တန်တဴဒၟံင်": 6215,
      "အာနန္ဒ": 6216,
      "သံသာ": 6217,
      "ဂၠိုင်အိုတ်": 6218,
      "နုဿ": 6219,
      "Ab": 6220,
      "၃၈": 6221,
      "ပြေင်": 6222,
      "ဟိုတ်မ": 6223,
      "ပ္ဍဲအကြာ": 6224,
      "ဂြိပ်": 6225,
      "တၞဟ်နပွမကဵု": 6226,
      "ne": 6227,
      "ပရော": 6228,
      "ယ်ရ": 6229,
      "သ္ပဝ်": 6230,
      "ya": 6231,
      "ဍောင်": 6232,
      "ၜါဂိတု": 6233,
      "ဒေသရးမန်": 6234,
      "ချိုတ်အာ": 6235,
      "သောၚ်": 6236,
      "ဒှ်ကဏ္ဍ": 6237,
      "ပရိုၚ်": 6238,
      "တ္ကံ": 6239,
      "ဒေသနာ": 6240,
      "ဂလာန်ဓရ်": 6241,
      "ဨကရာတ်": 6242,
      "ဓမ္မာစရိယ": 6243,
      "ဗ္စာရဏာ": 6244,
      "International": 6245,
      "ဂွံဒုင်": 6246,
      "ans": 6247,
      "ယွံတြုံ": 6248,
      "တေအ်ရ": 6249,
      "ဂ္ဂိ": 6250,
      "ကွဳစက်": 6251,
      "Sou": 6252,
      "ဍဵု": 6253,
      "လိုန်": 6254,
      "နကဵုနဲကဲ": 6255,
      "alt": 6256,
      "သဳရိ": 6257,
      "တဇ္ဇနဳယကမ်": 6258,
      "ဒမြ": 6259,
      "ပ္ကောံ": 6260,
      "ပလံၚ်": 6261,
      "တေံရ": 6262,
      "ဟွံသေၚ်ရ": 6263,
      "ပဋိပ": 6264,
      "သ္ၚဳဂၠေပ်": 6265,
      "ယန်": 6266,
      "၃၄": 6267,
      "ဍာ်ရ": 6268,
      "လ္ပံ": 6269,
      "ဏီဂှ်": 6270,
      "ဒဒန်": 6271,
      "ခဲ့": 6272,
      "ကၟာတ်လဒဵု": 6273,
      "ကြာန်": 6274,
      "ညံင်ဟွံဂွံ": 6275,
      "အနာထ": 6276,
      "ကေုာံအၚ်္ဂဂမၠိုၚ်": 6277,
      "ညးသ္ကံ": 6278,
      "ited": 6279,
      "မိၚ်တုဲ": 6280,
      "မကော်ဂး": 6281,
      "မမိက်ကဵုမွဲမွဲ": 6282,
      "နော်": 6283,
      "ဝေတ်": 6284,
      "ဨပြဳ": 6285,
      "၃၇": 6286,
      "ကၠက်": 6287,
      "မွဲသၞာံ": 6288,
      "ဍုင်ဇၞော်": 6289,
      "ဒေတာ": 6290,
      "လက်ကရဴ": 6291,
      "ower": 6292,
      "ကုညးဟွံ": 6293,
      "ဝွံတုဲ": 6294,
      "ဏ္ဍာ": 6295,
      "ဇြုံ": 6296,
      "ement": 6297,
      "lish": 6298,
      "ps": 6299,
      "par": 6300,
      "ခမဳဆဗ္ဗဂ္ဂဳဂမၠိုၚ်": 6301,
      "သာယျေန်": 6302,
      "ကုခမဳဂှ်ရ": 6303,
      "ရဳယျာ": 6304,
      "လဵုမွဲ": 6305,
      "ထေင်": 6306,
      "ပဉ္စ": 6307,
      "အာဏာ": 6308,
      "လိက်အုပ်": 6309,
      "နိပါတ်": 6310,
      "သက္ကရာတ်": 6311,
      "တွံလဝ်": 6312,
      "198": 6313,
      "မဟောဟ်": 6314,
      "သိုင်ခၞံ": 6315,
      "မဍိုက်ပေၚ်တဴ": 6316,
      "ညးလ္ၚဵု": 6317,
      "ပရေံ": 6318,
      "ရာမ": 6319,
      "ဇကုဇကု": 6320,
      "ဍာ်သုက်": 6321,
      "ကၠာအိုတ်": 6322,
      "ခၟိုင်": 6323,
      "ရေးပါတီ": 6324,
      "Research": 6325,
      "က္ခေပ": 6326,
      "ဒှ်ဂကူ": 6327,
      "မၞိဟ်စၞး": 6328,
      "ရုဲမာဲ": 6329,
      "21": 6330,
      "ta": 6331,
      "ဂယ": 6332,
      "လပှ်": 6333,
      "ဟွံစိုပ်": 6334,
      "ကြန်": 6335,
      "ors": 6336,
      "သ္ၚု": 6337,
      "ဂတဝ်": 6338,
      "မသုန်ပြကာ": 6339,
      "ဖန်ဗဒှ်ကဵု": 6340,
      "မဟောဟ်သဓ": 6341,
      "ရထ": 6342,
      "သပေါတ်": 6343,
      "ကွာၚ်": 6344,
      "ank": 6345,
      "ဥပး": 6346,
      "ဆိုက်ဗ္ဒက်": 6347,
      "its": 6348,
      "ၜါသွာင်": 6349,
      "တၞဟ်တၞဟ်": 6350,
      "မြင့်": 6351,
      "ဥပစာ": 6352,
      "ဝင်း": 6353,
      "vi": 6354,
      "မန်ပိုဲ": 6355,
      "ater": 6356,
      "ရေင်တၠုင်": 6357,
      "ပသောင်": 6358,
      "အဆံင်": 6359,
      "ency": 6360,
      "ကဵုရ": 6361,
      "ကောန်မၞိဟ်": 6362,
      "00px": 6363,
      "ပြာကဋ်": 6364,
      "လေတ်": 6365,
      "ကျာ်မြဟ်": 6366,
      "ဗွဲမဂၠိုင်ရ": 6367,
      "ပုံ": 6368,
      "ဝဝ်": 6369,
      "ဂွံဆဵု": 6370,
      "ခမဳရ": 6371,
      "တဆိပ်ကြာ": 6372,
      "အရီုအ": 6373,
      "ဗျူဟာ": 6374,
      "35": 6375,
      "ဇံၚ်": 6376,
      "ရာသဳ": 6377,
      "ကြံၚ်": 6378,
      "ကေတ်လဝ်": 6379,
      "သ္ၚောံ": 6380,
      "lect": 6381,
      "Buddh": 6382,
      "ဂြၚ်": 6383,
      "က္ဍၚ်": 6384,
      "ယှိုဲ": 6385,
      "Press": 6386,
      "ဟိတ": 6387,
      "အေဝ်ဒဳ": 6388,
      "ဂှ်မွဲ": 6389,
      "လိက်ကၞပ်": 6390,
      "အနာထပိဏ္ဍ": 6391,
      "ix": 6392,
      "link": 6393,
      "ဗွဲစၟတ်": 6394,
      "အဓိကိုရ်": 6395,
      "ဝဳကဳပဳဒဳယာမန်": 6396,
      "ဂၠံၚ်တရဴ": 6397,
      "ဒှ်မာန်ရ": 6398,
      "သြောံ": 6399,
      "cont": 6400,
      "မ္ဂးရ": 6401,
      "ဟီုဂလာန်": 6402,
      "ဗက်ပတိတ်": 6403,
      "Dalí": 6404,
      "ဗမာ": 6405,
      "မို": 6406,
      "လၚ်": 6407,
      "ဟိန္ဒ": 6408,
      "ပ္ဍဵု": 6409,
      "ဂျိုင်": 6410,
      "ဒးအာပတ်သံဃာဒိသေသ်": 6411,
      "သီုဖအိုတ်ဂှ်": 6412,
      "ထပှ်တ္ၚဲ": 6413,
      "က္ခေပနဳယကမ်": 6414,
      "ဒှ်ကၠုၚ်": 6415,
      "ကၠိ": 6416,
      "မၞုံသာ်": 6417,
      "',": 6418,
      "now": 6419,
      "၃၉": 6420,
      "ကဵုဂွံ": 6421,
      "ဒေအ်": 6422,
      "အုပ်ကာ": 6423,
      "ၜိုဟ်လလံ": 6424,
      "ပေါဲဗတိုက်": 6425,
      "ထုလ္လစ္စ": 6426,
      "ရုပ်သာ်": 6427,
      "ပြာသာဒ်": 6428,
      "ဂတမုက်": 6429,
      "Int": 6430,
      "လိခ်": 6431,
      "၂၀၂၃": 6432,
      "အဘိဓာန်": 6433,
      "ခဏ်": 6434,
      "လက္ခ": 6435,
      "လမ္စံက်": 6436,
      "အိုတ်အာ": 6437,
      "ကၠောန်လဝ်": 6438,
      "ဂရၚ်ပတီအိုတ်ရ": 6439,
      "သဟ": 6440,
      "ဥက္ခေပနဳယကမ်": 6441,
      "ေမ်": 6442,
      "ဍုင်လ္ဂုင်": 6443,
      "ဗွဲမ္ဒးရး": 6444,
      "ဗ္ဘ": 6445,
      "သ္ပတဴ": 6446,
      "တၞဟ်နပွမ": 6447,
      "ဍာဲ": 6448,
      "ထဳ": 6449,
      "ထပက်": 6450,
      "သၞာံရ": 6451,
      "ဒဒှ်မ": 6452,
      "အလုံဂၠးတိ": 6453,
      "ဟိန္ဒူ": 6454,
      "cess": 6455,
      "ဘာဂှ်": 6456,
      "သမ္ပ": 6457,
      "ဒြပ်ရတ်": 6458,
      "စေတနာတုဲ": 6459,
      "အနာထပိဏ္ဍိက": 6460,
      "year": 6461,
      "ဒံက်": 6462,
      "ကဵုကောန်": 6463,
      "ပ္ဍဲစိုတ်": 6464,
      "သာကျဝၚ်": 6465,
      "22": 6466,
      "ဂမၠိုၚ်အိုတ်ရ": 6467,
      "ညာတ်ဒး": 6468,
      "ings": 6469,
      "ခၟာဲ": 6470,
      "မံ": 6471,
      "လဟီု": 6472,
      "အၚာ": 6473,
      "ညးလွပ်": 6474,
      "ဒ္ၚ": 6475,
      "ဝေသန္တ": 6476,
      "ကၠိုဟ်ခၠ": 6477,
      "Le": 6478,
      "Man": 6479,
      "gh": 6480,
      "ဓဝါတ်": 6481,
      "နဟိုတ်": 6482,
      "ချောဲ": 6483,
      "ener": 6484,
      "ဂရင်": 6485,
      "နွံတဴ": 6486,
      "နွံကီုရ": 6487,
      "ဂျောန်": 6488,
      "ဇေတ်တ်": 6489,
      "ဟီုဂရိုဟ်ရ": 6490,
      "ဂျူလာင်": 6491,
      "ဇွိတ်သပေါတ်": 6492,
      "ညာန်": 6493,
      "ကာမဂ": 6494,
      "ဇၞော်ဂှ်": 6495,
      "ဟီုသ္ဂးရ": 6496,
      "ဗီုဏအ်": 6497,
      "ကဏ္ဍဏအ်ဝွံ": 6498,
      "ဟိုတ်နူကဵု": 6499,
      "ဗ္ဒာဲ": 6500,
      "သီကေတ်": 6501,
      "System": 6502,
      "အာဖရိက": 6503,
      "mun": 6504,
      "val": 6505,
      "ဂန္": 6506,
      "မဒးဒုင်": 6507,
      "ဘာဂမၠိုၚ်": 6508,
      "ကြီု": 6509,
      "တကအ်ခၟိုင်": 6510,
      "ကဝး": 6511,
      "မၟ": 6512,
      "ဍေံတအ်": 6513,
      "သာရိပိုတ်": 6514,
      "ဂံက်": 6515,
      "ည့်": 6516,
      "ဗာတ်": 6517,
      "မဒ္": 6518,
      "ပ္ပန်": 6519,
      "ဝိန": 6520,
      "old": 6521,
      "ograph": 6522,
      "သက်သက်": 6523,
      "ဂဥုပ်": 6524,
      "မယုတ်မာ": 6525,
      "ကှ်ေ": 6526,
      "သကာ": 6527,
      "ဒှ်သာ်": 6528,
      "ities": 6529,
      "အဝ်ဂေတ်": 6530,
      "ကယျာန်ဓဝါတ်": 6531,
      "ae": 6532,
      "ဍန်": 6533,
      "သတ": 6534,
      "တၞဟ်ဟ်": 6535,
      "တွဳ": 6536,
      "ဂ်ှ": 6537,
      "ဒက်ပတန်လဝ်": 6538,
      "br": 6539,
      "မဖှ်": 6540,
      "သတ္တ": 6541,
      "ဥဒျ": 6542,
      "ညးအုပ်ကာ": 6543,
      "မဂြ": 6544,
      "သြဇာ": 6545,
      "လပါ်သၟဝ်ကျာ": 6546,
      "empl": 6547,
      "လၟေင်အပြံင်အလှာဲ": 6548,
      "ဒစိတ်": 6549,
      "ယြဴခမဳ": 6550,
      "his": 6551,
      "ထုန်": 6552,
      "သီုၜါ": 6553,
      "ols": 6554,
      "သၟဟ်ရထ": 6555,
      "istr": 6556,
      "ဍေဟ်ဂှ်": 6557,
      "ဟွံမွဲကဵုပွမ": 6558,
      "နိဿယ": 6559,
      "ဂၠံင်တရဴ": 6560,
      "သန္ဓိ": 6561,
      "သှု": 6562,
      ":**": 6563,
      "လန်": 6564,
      "ၚေက်": 6565,
      "ကျာံ": 6566,
      "ဗီုပြၚ်": 6567,
      "သမ္မာ": 6568,
      "မတ်ၜါ": 6569,
      "နဳယျာ": 6570,
      "တုန်လေဝ်": 6571,
      "ပတိတ်ဍာ်သုက်": 6572,
      "အနာထပိဏ္ဍိကသေဌဳ": 6573,
      "မတ္တမ": 6574,
      "ဝှ": 6575,
      "ညးဝွံ": 6576,
      "နကဵုဘာသာ": 6577,
      "လၟောဝ်": 6578,
      "မှတ်": 6579,
      "ပွိုင်ဍုင်ၜါသွာင်": 6580,
      "မဟာယျေန်": 6581,
      "ung": 6582,
      "ပိုင်ပြဳ": 6583,
      "ဘိက်နိမန်": 6584,
      "Ne": 6585,
      "hy": 6586,
      "ဂန်": 6587,
      "ဍုက်": 6588,
      "လပံ": 6589,
      "သဟာဲ": 6590,
      "ဥမ္မ": 6591,
      "သ္အးဇ္ၚး": 6592,
      "နူသၞာံ": 6593,
      "နွံမံၚ်": 6594,
      "ann": 6595,
      "တာၚ်": 6596,
      "ret": 6597,
      "အေန်အေဝ်ဒဳ": 6598,
      "categories": 6599,
      "ဝေသန္တဝ်": 6600,
      "Amer": 6601,
      "au": 6602,
      "ကဝိ": 6603,
      "အသဝ်": 6604,
      "ပ္ဍိုက်": 6605,
      "ကေန်": 6606,
      "နာမ": 6607,
      "ဍာ်ဒကေဝ်": 6608,
      "ဓဝ်ရ": 6609,
      "စှ်ၜါ": 6610,
      "cept": 6611,
      "ပတိတ်ဇြဟတ်": 6612,
      "အာတ်သၚ်": 6613,
      "သ္ပလွဳပရာန": 6614,
      "Nor": 6615,
      "ဇနာ": 6616,
      "တဝှ်": 6617,
      "မနဳ": 6618,
      "ဝဂ်": 6619,
      "တန်ကြန်": 6620,
      "ဂျိုၚ်": 6621,
      "ဒဳမဝ်ကရေသဳ": 6622,
      "ပစ္စုပ္ပန်": 6623,
      "လၟေင်အပြံင်အလှာဲထ္ၜး": 6624,
      "34": 6625,
      "လအာ": 6626,
      "မ္ဂးတှ်ေ": 6627,
      "ဗွဲဒိုဟ်": 6628,
      "ပိုန်ဟာန်": 6629,
      "လ္ပကဵု": 6630,
      "ဝေဒနာ": 6631,
      "Ge": 6632,
      "mp": 6633,
      "အသံ": 6634,
      "အယာံမာတ်": 6635,
      "ုဏ်": 6636,
      "ဘာတန်": 6637,
      "မစိုန်": 6638,
      "me": 6639,
      "စက္ခ": 6640,
      "စစ်": 6641,
      "ပဌ": 6642,
      "ဂၠိုၚ်ရ": 6643,
      "မဂွံဆဵုကေတ်": 6644,
      "ဂမျိုၚ်": 6645,
      "Mod": 6646,
      "Rel": 6647,
      "နူဂယး": 6648,
      "လွတ်": 6649,
      "Asia": 6650,
      "ဒီမို": 6651,
      "ကောပ်ကာဲ": 6652,
      "မဒ္ဒဳ": 6653,
      "ကမ္": 6654,
      "ဟွံဟီု": 6655,
      "သၟိၚ်ရ": 6656,
      "စၟတ်တ္ၚဲ": 6657,
      "သၟာန်ရ": 6658,
      "36": 6659,
      "ဝက": 6660,
      "ဟး": 6661,
      "ဟွံဍာံစၟတ်": 6662,
      "နကဵုယၟု": 6663,
      "ဒၞပ်": 6664,
      "သ္ၚိသဝ်": 6665,
      "ဒဳဂျဳ": 6666,
      "မေထုန်": 6667,
      "ပရေင်ပြံင်လှာဲ": 6668,
      "ဍေံဒှ်": 6669,
      "andard": 6670,
      "ဂလိုၚ်": 6671,
      "ဒးအာပတ်ပါဲစိုတ်ရ": 6672,
      "ပ္ဍဲဘာဇေတဝန်": 6673,
      "မဆေၚ်": 6674,
      "၁၃၈၆": 6675,
      "ယေသှု": 6676,
      "Cent": 6677,
      "Mult": 6678,
      "ထိၚ်": 6679,
      "မပြာကတ်": 6680,
      "တ္ၚဲဏအ်": 6681,
      "ၠိုက်ကတဵု": 6682,
      "Wikipedia": 6683,
      "မအာ": 6684,
      "ဝိုင်": 6685,
      "ပ္တံ": 6686,
      "ကေတ်ရ": 6687,
      "စာၚ်": 6688,
      "ဒုင်စသိုင်": 6689,
      "အ္စာဥပဇ္ၛာယ်": 6690,
      "သောန်": 6691,
      "ူး": 6692,
      "ပရေင်အုပ်ဓုပ်": 6693,
      "ခြင်း": 6694,
      "ယေန်သၞာင်မန်": 6695,
      "အံက်တဝ်": 6696,
      "Studies": 6697,
      "ဆံၚ်": 6698,
      "မစုတ်": 6699,
      "ဇၞောဝ်": 6700,
      "သွက်ညး": 6701,
      "လၟိုင်": 6702,
      "မၚ်ဗၠာဲ": 6703,
      "ကွတ်ပညာ": 6704,
      "အမေရိကန်": 6705,
      "သ္ပလွဳပရာနစေတနာတုဲ": 6706,
      "ram": 6707,
      "တိုပ်": 6708,
      "ကဵုအဲ": 6709,
      "ပရေင်ဇၞော်မောဝ်": 6710,
      "တၟိုဟ်": 6711,
      "ပိသာ်": 6712,
      "ဗက်အာ": 6713,
      "duc": 6714,
      "အရီုအဗင်": 6715,
      "ကာမဂုဏ်": 6716,
      "ယောၚ်": 6717,
      "ဂၠိင်": 6718,
      "သ္ပဟိုတ်ကဵု": 6719,
      "ဓမ္မကမ်": 6720,
      "တွံကဵု": 6721,
      "Eur": 6722,
      "ွန်": 6723,
      "ဂမဳ": 6724,
      "ကောန်ဝုတ်": 6725,
      "ဗော်ညဳသၟဟ်": 6726,
      "Republic": 6727,
      "col": 6728,
      "ထိုင်": 6729,
      "ခမဳပဒတဴ": 6730,
      "eng": 6731,
      "ဍုၚ်သေံ": 6732,
      "သေဋ္ဌ": 6733,
      "ကံင်သဳ": 6734,
      "55": 6735,
      "ကၚ်ရၚ်": 6736,
      "ထုဲ": 6737,
      "ဒလ": 6738,
      "ဗုၚ်": 6739,
      "၃၃": 6740,
      "ဂမၠိုၚ်လေဝ်": 6741,
      "သုခု": 6742,
      "ပၟိက်အောန်": 6743,
      "conom": 6744,
      "Social": 6745,
      "ထွန်း": 6746,
      "ပြိုက်": 6747,
      "inal": 6748,
      "သတ်ဆု": 6749,
      "ဗော်ပရေင်ဍုင်ကွာန်": 6750,
      "ဒ္စိတ်": 6751,
      "ပလေဝ်ဒါန်": 6752,
      "၄၈": 6753,
      "နူဍုင်": 6754,
      "alth": 6755,
      "ဍာ်တှ်": 6756,
      "တၞဟ်တအ်": 6757,
      "လှေ်": 6758,
      "ences": 6759,
      "းရ": 6760,
      "မန်ဂမၠိုင်": 6761,
      "ကောန်တြုံ": 6762,
      "ဗြာတ်": 6763,
      "iss": 6764,
      "ခိုဟ်သန်ရ": 6765,
      "ကိုပ်ကၠာအိုတ်": 6766,
      "က္ၜၚ်": 6767,
      "ဖဝ်ရ": 6768,
      "ယွံတြုံမလ္ၚုသၟး": 6769,
      "National": 6770,
      "evel": 6771,
      "ခန္ဓကာယ": 6772,
      "ပ္ဍဲမွဲအခိင်": 6773,
      "စက္ကဝါ": 6774,
      "ချဳဒရာင်": 6775,
      "ကဿပ": 6776,
      "part": 6777,
      "ဘုတ်": 6778,
      "ဒေဝဳ": 6779,
      "သုခ": 6780,
      "ပံင်တောဲ": 6781,
      "သ္ဍိုက်မၠိုက်ရ": 6782,
      "သမာဓိ": 6783,
      "Sch": 6784,
      "ပိန်": 6785,
      "ဒ္ဂေတ်လ္ၚတ်": 6786,
      "acy": 6787,
      "လဟိၚ်": 6788,
      "အစောံသတ္တိ": 6789,
      "လီ": 6790,
      "အဝေါ": 6791,
      "ကောန်ဍုၚ်": 6792,
      "သုက်မၞုံသာ်": 6793,
      "ail": 6794,
      "တေဝ်": 6795,
      "ဒှ်ဒၟံင်": 6796,
      "ဒးအာပတ်ထုလ္လစ္စ": 6797,
      "ရုပ်ရဴ": 6798,
      "လၟုဟ်ဂှ်": 6799,
      "သိက္ခာပိုဒ်ဝွံအိုတ်ညိ": 6800,
      "ဂါံ": 6801,
      "မသုန်ကၠံ": 6802,
      "ဂဵုလဟဵု": 6803,
      "စၟဳစၟတ်သၟာန်သၟုက်": 6804,
      "ဥမ္မတ်": 6805,
      "31": 6806,
      "Language": 6807,
      "ck": 6808,
      "ဇၞော်ရ": 6809,
      "တ္ၚဲဂှ်": 6810,
      "သဳဟ": 6811,
      "သွက်ဂွံပကောံ": 6812,
      "ဟွံမွဲရ": 6813,
      "မဆက်စပ်ဂမၠိုင်": 6814,
      "//": 6815,
      "နုၚ်": 6816,
      "ဟွံမွ": 6817,
      "ကၠုင်လဝ်": 6818,
      "str": 6819,
      "ဗဒှ်ကဵု": 6820,
      "တိုက်လိက်": 6821,
      "သၟိင်တၠ": 6822,
      "တဳလပိုဉ်ဂှ်": 6823,
      "တရ": 6824,
      "ထပိုဲ": 6825,
      "ဒတူ": 6826,
      "သဇိုၚ်": 6827,
      "တိတ်နူ": 6828,
      "မြိ": 6829,
      "rel": 6830,
      "ကၟဝ်": 6831,
      "ဇာဒိ": 6832,
      "ပရေၚ်ဍုၚ်ကွာန်": 6833,
      "ဋ္ဌိ": 6834,
      "မိမၜါ": 6835,
      "sych": 6836,
      "ဆေဝ်ဒဝ်": 6837,
      "Data": 6838,
      "ဆောင်": 6839,
      "ဖဳ": 6840,
      "ကုဋ်": 6841,
      "မၞိဟ်ဂှ်": 6842,
      "ချိုန်": 6843,
      "ခိုဟ်ရ": 6844,
      "ကဠော": 6845,
      "လပံညာတ်": 6846,
      "အီ": 6847,
      "ပရး": 6848,
      "ကျာ်ဂှ်": 6849,
      "reat": 6850,
      "သၞာသတိက်": 6851,
      "ဇရေၚ်ဍုၚ်သာရဝှ်": 6852,
      "ဗၟံက်ထ္ၜးကဵု": 6853,
      "Arch": 6854,
      "ပြးဇး": 6855,
      "ခေ": 6856,
      "ကၠဟ်": 6857,
      "သ္ပပွမ": 6858,
      "သိပ်": 6859,
      "ပ္ပတ္တိ": 6860,
      "လလဳ": 6861,
      "အေန်ပါ": 6862,
      "ကလိလောန်ကၠာ": 6863,
      "ပဋိပက္ခ": 6864,
      "46": 6865,
      "ဂဝ": 6866,
      "ဇမ္ၚ": 6867,
      "ရဏ": 6868,
      "”။": 6869,
      "သ္အး": 6870,
      "atic": 6871,
      "မရနုက်ကဵုၜါ": 6872,
      "ဓာတု": 6873,
      "ရူပဗေဒ": 6874,
      "ft": 6875,
      "som": 6876,
      "။)": 6877,
      "ချိုတ်ပၠိုတ်": 6878,
      "ဟီုသ္ဂးကဵု": 6879,
      "သ္ၚဳဂၠိပ်": 6880,
      "လင်္ကာ": 6881,
      "48": 6882,
      "ham": 6883,
      "ple": 6884,
      "၁၀၀": 6885,
      "မွဲဂိတု": 6886,
      "နွံဒၟံၚ်": 6887,
      "ဒုၚ်စသိုၚ်": 6888,
      "ထေက်ကြိုက်": 6889,
      "ဥဒျာန်": 6890,
      "ယြဴခမဳမွဲ": 6891,
      "ie": 6892,
      "ဒၠိုက်ကတဵု": 6893,
      "ဟဳ": 6894,
      "။\"": 6895,
      "ဒုက္ခ": 6896,
      "မ္ၚိုဟ်": 6897,
      "အိုရဳ": 6898,
      "ဇော": 6899,
      "ဓရ": 6900,
      "ပအပ်": 6901,
      "လဝ်ကဵု": 6902,
      "မရနုက်ကဵုပိ": 6903,
      "တၞောဝ်ဒတောဝ်": 6904,
      "Subcategories": 6905,
      "ကြအ်ဥမ္မတ်": 6906,
      "tw": 6907,
      "ဘတ်": 6908,
      "ety": 6909,
      "ယောဇနာ": 6910,
      "ပဋိသန္ဓိ": 6911,
      "အံၚ်ဇၞး": 6912,
      "Eng": 6913,
      "ပဌမ": 6914,
      "သုခုမ": 6915,
      "38": 6916,
      "script": 6917,
      "င်ရ": 6918,
      "စိုတ်ဓာတ်": 6919,
      "ild": 6920,
      "၂၀၂၄": 6921,
      "adem": 6922,
      "ကဵုအခေါၚ်ရ": 6923,
      "ှေ": 6924,
      "ပ္ဍဲရး": 6925,
      "ပၠံၚ်": 6926,
      "မဟာထေရ်": 6927,
      "သ္ဍိုက်ဆာန်": 6928,
      "လက်သဏ်": 6929,
      "ဒံက်တာ": 6930,
      "၄၄": 6931,
      "၅၅": 6932,
      "ဂမြ": 6933,
      "ဟီုရ": 6934,
      "ညိရ": 6935,
      "ဇြိုၚ်": 6936,
      "ents": 6937,
      "rad": 6938,
      "htt": 6939,
      "အဆက်အ": 6940,
      "ပ္ဍဲဂကောံကွာန်": 6941,
      "://": 6942,
      "Dis": 6943,
      "လဗ": 6944,
      "သေန်": 6945,
      "သောဲ": 6946,
      "သအးဇ္ၚး": 6947,
      "ပ္ဍဲအခိၚ်တဳလမၞုံပိုဉ်ကျာ်တြဲ": 6948,
      "လၟိဟ်မာဲ": 6949,
      "ဆက်စပ်ဒၟံင်": 6950,
      "ကသပ်ဒှ်": 6951,
      "ပကောံလဝ်": 6952,
      "ဖဝ်ရဂိုန်": 6953,
      "ပ္ဍဲမွဲအခိင်တေံ": 6954,
      "Gu": 6955,
      "မစိုပ်": 6956,
      "ဘာဏ်": 6957,
      "ature": 6958,
      "သ္ပပဝါရဏာ": 6959,
      "စရၚ်": 6960,
      "ထဝ်သြန်": 6961,
      "ထေက်ကဵုဒး": 6962,
      "ယူရောပ်": 6963,
      "လၟိုန်ရ": 6964,
      "င္ၚာ်": 6965,
      "ပ္ဍဲကဏ္ဍဏအ်": 6966,
      "ပါရာဇ်ရ": 6967,
      "ဇမ္ၚောဲ": 6968,
      "အကုသဵု": 6969,
      "ဥ္": 6970,
      "ၜဲ": 6971,
      "ပွမဒး": 6972,
      "က္ကဒိန်": 6973,
      "Inter": 6974,
      "uman": 6975,
      "ဂဳတ": 6976,
      "other": 6977,
      "ကည": 6978,
      "ဖဲ": 6979,
      "ဘဏ္ဍာ": 6980,
      "၈၀": 6981,
      "ကျဳ": 6982,
      "နွံပိုန်": 6983,
      "this": 6984,
      "တန်ဒေါံ": 6985,
      "တုပ်တဴ": 6986,
      "အာရှအဂၞဲ": 6987,
      "ruct": 6988,
      "ဒိန်မက်": 6989,
      "ဂျာမနဳ": 6990,
      "ဝိနယ": 6991,
      "သေဋ္ဌဳ": 6992,
      "cur": 6993,
      "အပိုၚ်": 6994,
      "ဟွံမိက်": 6995,
      "ကြက္ကဒိန်": 6996,
      "ပ္တန်လဝ်": 6997,
      "ပရိယတ်": 6998,
      "45": 6999,
      "ood": 7000,
      "စ္ၜ": 7001,
      "ခမဳဂမၠိုၚ်ရ": 7002,
      "အာတ်အခေါၚ်": 7003,
      "က္ညအာ": 7004,
      "ကာတ်မြဟ်": 7005,
      "led": 7006,
      "ose": 7007,
      "ဂအုပ်": 7008,
      "ဖဴ": 7009,
      "သိၚ်": 7010,
      "ဒှ်ကၠုင်": 7011,
      "ကောန်င္ၚာ်": 7012,
      "ပိစှော်": 7013,
      "ဂၠိုင်ရ": 7014,
      "ရုသ်": 7015,
      "ဂ္ဇံ": 7016,
      "အခိုက်အလိုက်": 7017,
      "ological": 7018,
      "အသုံး": 7019,
      "ဒးအာပတ်ထုလ္လစ္စယ်ရ": 7020,
      "ငါ": 7021,
      "ဇာန်": 7022,
      "တာဲ": 7023,
      "မက္တဵုဒှ်": 7024,
      "သရုပ်": 7025,
      "ဟွံလအ်": 7026,
      "ရာဒနာ": 7027,
      "နာယ": 7028,
      "လောန်လတူ": 7029,
      "symb": 7030,
      "စူဠ": 7031,
      "ပြိုၚ်": 7032,
      "သ္ပလဝ်": 7033,
      "အရဳ": 7034,
      "၂၀၁၀": 7035,
      "ဂါတ်": 7036,
      "ခၞံလဝ်": 7037,
      "သမ္ၚေဟ်": 7038,
      "ဇရေၚ်ဍုၚ်သာရဝှ်ဂှ်": 7039,
      "but": 7040,
      "ခဳ": 7041,
      "မနုဿ": 7042,
      "လလး": 7043,
      "ဟွံက": 7044,
      "reg": 7045,
      "တသော်": 7046,
      "Bl": 7047,
      "Pe": 7048,
      "စနူ": 7049,
      "ဝု": 7050,
      "အတ္တ": 7051,
      "လဝ်နဳ": 7052,
      "ပွမလ္ၚတ်": 7053,
      "ထၞေန်": 7054,
      "စတမ်": 7055,
      "၄၇": 7056,
      "၄၉": 7057,
      "ပ္ကာန်": 7058,
      "ဟွံဗဗွဲဓရ်": 7059,
      "မန်တံ": 7060,
      "တၞုင်": 7061,
      "တ္ၚဲရ": 7062,
      "မဒှ်အာရှာမ်": 7063,
      "မျှာ": 7064,
      "igh": 7065,
      "စဳကၠးဆိုက်ဗ္ဒက်": 7066,
      "War": 7067,
      "မပါလုပ်": 7068,
      "အာဂတ": 7069,
      "ကုမာ": 7070,
      "သွး": 7071,
      "ana": 7072,
      "ဗြဴဂှ်": 7073,
      "ကမ္မဝါ": 7074,
      "ရုင်ဗစာ": 7075,
      "over": 7076,
      "ဇမၠိၚ်": 7077,
      "ဒဒိုခ်": 7078,
      "ကရောမ်": 7079,
      "ဂရင်ပ": 7080,
      "56": 7081,
      "Dig": 7082,
      "Tran": 7083,
      "န့်": 7084,
      "အိုဟ်": 7085,
      "သ္ဇ": 7086,
      "ဟွံညာတ်": 7087,
      "ပၠန်လေဝ်": 7088,
      "ဒၞာဲမ": 7089,
      "ဟိုတ်နူအာပတ်": 7090,
      "row": 7091,
      "စၞောန်ထ္ၜးကဵု": 7092,
      "ကွေံကွေံ": 7093,
      "အန္တရာဲ": 7094,
      "ဖါ": 7095,
      "ိမ်": 7096,
      "ပ္ဍဲတိ": 7097,
      "ညးသအာၚ်": 7098,
      "န္ဒြ": 7099,
      "္ဂလ": 7100,
      "ဒြာဲ": 7101,
      "ဂိုဏ်မဟာယျေန်": 7102,
      "ဇိုန်ကဵု": 7103,
      "ဒၠောံဗ္တောန်": 7104,
      "ညဳသာသၟဟ်သၟန်": 7105,
      "နက္ခ": 7106,
      "ယန": 7107,
      "ဂမၠိုၚ်ဏီ": 7108,
      "လၟိၚ်": 7109,
      "ထ္ၜးလဝ်": 7110,
      "ဗွဲမဂၠိုင်ဂှ်": 7111,
      "000": 7112,
      "ကၠးကၠး": 7113,
      "ရံင်ကဵု": 7114,
      "ship": 7115,
      "ဝိပဿနာ": 7116,
      "အသုံးပြု": 7117,
      "ဗပေင်": 7118,
      "ပြိုတ်": 7119,
      "သာ်ဏံ": 7120,
      "iter": 7121,
      "၂၀၁၅": 7122,
      "ဟွံသေင်ရ": 7123,
      "မူဟိုတ်": 7124,
      "ထာဝရ": 7125,
      "ခမဳဗြဴဂှ်": 7126,
      "လျုၚ်ဇြုၚ်သ္ဍိုက်ကီု": 7127,
      "ca": 7128,
      "ww": 7129,
      "အကာသ": 7130,
      "သာ်ရ": 7131,
      "ဂမၠိုင်တုဲ": 7132,
      "လပါ်သၠုင်ကျာ": 7133,
      "ကဝ်လဝ်နဳ": 7134,
      "ကသုက်": 7135,
      "သောက": 7136,
      "ဇြိုဟ်နက်": 7137,
      "ကမ": 7138,
      "ကတဴ": 7139,
      "ညွ": 7140,
      "ဂွံတီ": 7141,
      "org": 7142,
      "ယွံနာဲဗြဴ": 7143,
      "ဟွံဂွံရ": 7144,
      "add": 7145,
      "သဘဴဓဝ်": 7146,
      "ulture": 7147,
      "ရေင်သကအ်ရ": 7148,
      "ဆန္ဒမာဲ": 7149,
      "ဒးအာပတ်သံဃာဒိသေသ်ရ": 7150,
      "UN": 7151,
      "dom": 7152,
      "na": 7153,
      "၈၈": 7154,
      "ပါလဳ": 7155,
      "ကောန်ညး": 7156,
      "အုဲဇဗ": 7157,
      "ဇအုဲဇဗ": 7158,
      "အာဂှ်": 7159,
      "စန်ဒက်": 7160,
      "ဇၞော်ကဵုဒြဟတ်": 7161,
      "ကုညးဟွံလျုၚ်ဇြုၚ်သ္ဍိုက်": 7162,
      "ဝွံလေဝ်": 7163,
      "ပါပ်": 7164,
      "ရောဝ်": 7165,
      "arch": 7166,
      "ဍေံတံ": 7167,
      "မနွံပ္ဍဲ": 7168,
      "ကုခမဳဂမၠိုၚ်ရ": 7169,
      "တွံဓရ်": 7170,
      "မဟိ": 7171,
      "Tech": 7172,
      "သို့": 7173,
      "မွဲလှ်ေ": 7174,
      "တြိ": 7175,
      "မိယာဲ": 7176,
      "တမ်ရ": 7177,
      "uss": 7178,
      "ပရိသာတ်": 7179,
      "စောဒနာ": 7180,
      "ဍူ": 7181,
      "ဒးနွံကဵု": 7182,
      "ဇၟာပ်ပ်": 7183,
      "ထံက်ပၚ်": 7184,
      "ဒေံဗြဴ": 7185,
      "စဴအာသွဝ်": 7186,
      "ဂရိတ်": 7187,
      "ညီ": 7188,
      "သစ္": 7189,
      "အေတ်": 7190,
      "၏။": 7191,
      "မ္ဗာ": 7192,
      "ကြိုတ်": 7193,
      "အလာံ": 7194,
      "ဍာံဍာံ": 7195,
      "မြန်မာ": 7196,
      "37": 7197,
      "ระ": 7198,
      "ထံၚ်": 7199,
      "ဖ္ဍး": 7200,
      "မာ်": 7201,
      "57": 7202,
      "BN": 7203,
      "Med": 7204,
      "ဖုန်": 7205,
      "ဟန်": 7206,
      "ခမဳဂမၠိုင်": 7207,
      "ပၞာန်ဗၟာ": 7208,
      "ဟွံသေၚ်မ္ဂး": 7209,
      "United": 7210,
      "ဗဒိုပ်": 7211,
      "Academ": 7212,
      "မဂး": 7213,
      "ယန္တ": 7214,
      "ဝွံရောၚ်": 7215,
      "တၠဂုန်": 7216,
      "Organ": 7217,
      "Ag": 7218,
      "ဂရာမ်": 7219,
      "ဒမျ": 7220,
      "လရ": 7221,
      "အား": 7222,
      "မလောန်": 7223,
      "ကမ္မဌာန်": 7224,
      "အေန်ပါယာ": 7225,
      "Su": 7226,
      "ဂေ": 7227,
      "ဇိုတ်": 7228,
      "လာံ": 7229,
      "နာင်": 7230,
      "သြင်": 7231,
      "ဗော်အေန်အေဝ်ဒဳ": 7232,
      "ility": 7233,
      "မံက်ဂတဝ်": 7234,
      "Standard": 7235,
      "overn": 7236,
      "ဂဝ်ဂၞဴ": 7237,
      "မညဳသာ": 7238,
      "Europe": 7239,
      "Be": 7240,
      "ces": 7241,
      "ခဍ": 7242,
      "ရမျှာ": 7243,
      "သမု": 7244,
      "အဿ": 7245,
      "ရ်္": 7246,
      "ဒ္ဂေတ်ဝတ်": 7247,
      "နာနာသာ်ရ": 7248,
      "ရွှေ": 7249,
      "bl": 7250,
      "ke": 7251,
      "med": 7252,
      "ရက်": 7253,
      "ၜဵု": 7254,
      "anmar": 7255,
      "ထေရ": 7256,
      "ပရိနိဗ္ဗာန်": 7257,
      "ကမ္မဝါစ်": 7258,
      "ပုန်": 7259,
      "တၞဟ်နပွမကဵုလျုၚ်ဇြုၚ်သ္ဍိုက်ကီု": 7260,
      "ခမဳပဒတဴဘာဂမၠိုၚ်": 7261,
      "50": 7262,
      "ခွ": 7263,
      "ဍုဟ်": 7264,
      "သြောအ်": 7265,
      "လျှ": 7266,
      "olut": 7267,
      "ဩဝ်ကလၚ်ပၚ်မှိၚ်": 7268,
      "ဗွိုၚ်": 7269,
      "မောဟ": 7270,
      "ဉာဏ်ပညာ": 7271,
      "ဘိက္ခု": 7272,
      "သိုင်ခၞံဘာ": 7273,
      "Co": 7274,
      "ရာံ": 7275,
      "ali": 7276,
      "မြေ": 7277,
      "Ass": 7278,
      "book": 7279,
      "80": 7280,
      "ခမ်ပျူတာ": 7281,
      "လုံး": 7282,
      "ၐြ": 7283,
      "ကျော်": 7284,
      "ဘာမန်": 7285,
      "အလုံအိုတ်သီု": 7286,
      "ပြံင်အာ": 7287,
      "ကၞပ်သ္ၚောံ": 7288,
      "ourn": 7289,
      "ထုလ္လနန္ဒာ": 7290,
      "ISBN": 7291,
      "ဟွံမွယ်": 7292,
      "ကုညးဟွံလျုၚ်ဇြုၚ်သ္ဍိုက်ဂမၠိုၚ်ဏီ": 7293,
      "day": 7294,
      "သေက်": 7295,
      "အရံၚ်": 7296,
      "ဂျပေန်": 7297,
      "ပျဲ": 7298,
      "ရိုဟ်ကၞက်": 7299,
      "ange": 7300,
      "irst": 7301,
      "အဆက်ဆက်": 7302,
      "Science": 7303,
      "ကလိလောန်ကၠာတဲဂှ်": 7304,
      "ဘၚ်": 7305,
      "တအ်မ္ဂး": 7306,
      "ole": 7307,
      "ကွေံကွေံရ": 7308,
      "စံၚ်တူ": 7309,
      "ပံၚ်ဖက်": 7310,
      "အာဟာရ": 7311,
      "ညးမၞုံကဵု": 7312,
      "မၞိဟ်တြုံ": 7313,
      "မၞုံကု": 7314,
      "မာန်တုဲ": 7315,
      "လုပ်ကၠုၚ်": 7316,
      "မြာ": 7317,
      "လွာ": 7318,
      "လောန်ရ": 7319,
      "ညံင်ဂွံဒှ်": 7320,
      "ဖန်ဗဒှ်လဝ်": 7321,
      "သှေ်ရဴဂဴ": 7322,
      "ပ္ဍဲသာသနာဝွံ": 7323,
      "စောတ်စောဲ": 7324,
      "ပၟိက်အောန်ဂမၠိုၚ်ဂှ်": 7325,
      "စၟဳစၟတ်သၟာန်သၟုက်ရ": 7326,
      "Educ": 7327,
      "rist": 7328,
      "ဝိၚ်": 7329,
      "ျာ": 7330,
      "ဒှ်သာ်ဂှ်": 7331,
      "ပါရာဇ": 7332,
      "ဗြဴဗ": 7333,
      "ခေတ်တြေံ": 7334,
      "မူရဴ": 7335,
      "ference": 7336,
      "Ed": 7337,
      "can": 7338,
      "io": 7339,
      "ထို": 7340,
      "ညးတၠ": 7341,
      "ဂမၠိုၚ်ဝွံ": 7342,
      "ပါ်ပါဲ": 7343,
      "ကဏ္ဍဏအ်": 7344,
      "ဂကူမန်တအ်": 7345,
      "ရီုဗၚ်": 7346,
      "စ္ဍးအာရ": 7347,
      "အိုတ်ဂှ်ရော": 7348,
      "peci": 7349,
      "ကင်": 7350,
      "လေန်": 7351,
      "ညးတေံ": 7352,
      "ဒုၚ်တဲ": 7353,
      "လောဘ": 7354,
      "pos": 7355,
      "ပတုဲ": 7356,
      "အံ": 7357,
      "အတ္ထု": 7358,
      "ကုညးမ": 7359,
      "ဒးကၠောန်": 7360,
      "ကလင်": 7361,
      "ဒဒှ်ခမဳ": 7362,
      "ထောံကၠေံ": 7363,
      "နိဿဂ္ဂိ": 7364,
      "ဗွဲမဒးရးရ": 7365,
      "At": 7366,
      "ပၠေၚ်": 7367,
      "သီုမဒှ်": 7368,
      "စာရ": 7369,
      "ober": 7370,
      "ဗော်ညဳသၟဟ်မန်": 7371,
      "oy": 7372,
      "sk": 7373,
      "လုံ": 7374,
      "လကိုတ်": 7375,
      "ဂှ်ပၠန်": 7376,
      "ဍုင်ဂှ်": 7377,
      "မၞုံပၟိက်": 7378,
      "ကေတ်တုဲ": 7379,
      "ဇကုမ္ဂး": 7380,
      "စာင်": 7381,
      "ရှင်": 7382,
      "ပရေၚ်ပညာ": 7383,
      "47": 7384,
      "Joh": 7385,
      "ဂိုတ်": 7386,
      "တေတ်": 7387,
      "ဓဇန်": 7388,
      "၄၆": 7389,
      "ကျာ်ရ": 7390,
      "ကွန်": 7391,
      "အဲဂွံ": 7392,
      "ဂကူမည်": 7393,
      "တမ်ရိုဟ်": 7394,
      "ရှေ်": 7395,
      "သၠုၚ်ကျာ": 7396,
      "ock": 7397,
      "Institutional": 7398,
      "40": 7399,
      "Gl": 7400,
      "Leg": 7401,
      "ယတ်": 7402,
      "သွတ်": 7403,
      "ညာဏ": 7404,
      "သီုဟွံမွဲကဵု": 7405,
      "ဒၟံၚ်ဂှ်": 7406,
      "အာပတ်ရ": 7407,
      "ကၠုင်တုဲ": 7408,
      "သၟတ်မန်": 7409,
      "ပါင်မုက်": 7410,
      "North": 7411,
      "ဍေက်": 7412,
      "တန": 7413,
      "ယီု": 7414,
      "ယက္ခ": 7415,
      "သေင်": 7416,
      "ကေတ်ဏာ": 7417,
      "သၠဲ": 7418,
      "တုပ်ကဵု": 7419,
      "သၟာန်တိုန်": 7420,
      "ကောန်သၟိၚ်ဗၠာဲ": 7421,
      "Digital": 7422,
      "Id": 7423,
      "ဇဲ": 7424,
      "မစပ်ကဵု": 7425,
      "ခမဳတုဲ": 7426,
      "ဘာသ": 7427,
      "ကလာပ်": 7428,
      "အ္စာတၠ": 7429,
      "သောင်ကလး": 7430,
      "do": 7431,
      "fob": 7432,
      "po": 7433,
      "ကတိုၚ်": 7434,
      "တောင်": 7435,
      "လံင်": 7436,
      "၉၀": 7437,
      "ဒှ်တ္ၚဲ": 7438,
      "ဟိုတ်ဒှ်သာ်": 7439,
      "တဳအိုရဳ": 7440,
      "ဏအ်မ္ဂး": 7441,
      "ဖျေံလဝ်": 7442,
      "ဇွိ": 7443,
      "မဆေင်စပ်ကဵု": 7444,
      "အဆံၚ်": 7445,
      "၅၇": 7446,
      "လုပ်လၟိဟ်": 7447,
      "မဟဂွံ": 7448,
      "Cont": 7449,
      "ဍုင်ဂမၠိုင်": 7450,
      "ကြံင်": 7451,
      "ဒ္ဂိုန်": 7452,
      "နာဲပိုဲ": 7453,
      "လပါ်ပလိုတ်": 7454,
      "ဂေါး": 7455,
      "ပတောံ": 7456,
      "လှာဒကှ်": 7457,
      "ကုတဳလပိုဉ်မွဲ": 7458,
      "To": 7459,
      "count": 7460,
      "ဆေၚ်": 7461,
      "သကီု": 7462,
      "ဟွံဒးရး": 7463,
      "ဟွံလေပ်": 7464,
      "ကုအဲ": 7465,
      "ပရေအ်": 7466,
      "မဳဒဳယာ": 7467,
      "လိက်ကသုက်": 7468,
      "inter": 7469,
      "လွဳလွတ်": 7470,
      "−−−−": 7471,
      "which": 7472,
      "ပါဲနူဂှ်တုဲ": 7473,
      "ethod": 7474,
      "co": 7475,
      "နဝါရဳ": 7476,
      "ယောင်": 7477,
      "ညးရ": 7478,
      "ညးစၞး": 7479,
      "ဘာဇၞော်": 7480,
      "သီုညး": 7481,
      "သ္ပဝတ်": 7482,
      "အရထ": 7483,
      "ကၞိ": 7484,
      "မံၚ်ရ": 7485,
      "လၟုဟ်မ္ဂး": 7486,
      "တေအ်ဂှ်": 7487,
      "ချပ်တုဲ": 7488,
      "အောန်အိုတ်": 7489,
      "ယြဴကုတဳလပိုဉ်မွဲ": 7490,
      "ပစ္စယ်": 7491,
      "အနုသုခုမ": 7492,
      "ဩဝ်စၞောန်ထ္ၜးအိုတ်ညိ": 7493,
      "မဆေၚ်ကဵု": 7494,
      "ကၞပ်သ္ၚောံသ္ၚိတ်ဇြ": 7495,
      "အတ္ထုပ္ပတ္တိ": 7496,
      "fobox": 7497,
      "Jan": 7498,
      "ဂအာင်": 7499,
      "ဟိုတ်ပွမဟွံ": 7500,
      "istics": 7501,
      "မဟာမိတ်": 7502,
      "ဝေဏဳ": 7503,
      "ဘဳသဳ": 7504,
      "King": 7505,
      "pre": 7506,
      "yle": 7507,
      "ဆၜိုတ်": 7508,
      "မအာစိုပ်": 7509,
      "လေဝ်နွံ": 7510,
      "မဂဇအ်": 7511,
      "သုသာန်": 7512,
      "ဒ္ဂေတ်တဴ": 7513,
      "ဗာရာ": 7514,
      "လ္ၚောဝ်ကျာ်": 7515,
      "မောက္ခ": 7516,
      "သၟိက်ဂွံ": 7517,
      "ဖိုဟ်ရ": 7518,
      "''": 7519,
      "Cultural": 7520,
      "Econom": 7521,
      "ဇ်": 7522,
      "တျ": 7523,
      "ဖိ": 7524,
      "မတိုန်": 7525,
      "မတန်တဴ": 7526,
      "ဒးဒှ်": 7527,
      "နာဲဗညာ": 7528,
      "ဏံရ": 7529,
      "ကော်ပၠုပ်": 7530,
      "တၟိတၟိ": 7531,
      "ပုပ္": 7532,
      "ရာဇာဓိ": 7533,
      "မကၠောန်ဗဒှ်": 7534,
      "အပိုၚ်အခြာ": 7535,
      "49": 7536,
      "ms": 7537,
      "နဟွံဗဗွဲဓရ်": 7538,
      "ဖံ": 7539,
      "မရာဇ်": 7540,
      "ှော်": 7541,
      "ပြန်": 7542,
      "အဲဟွံ": 7543,
      "တိတ်ကၠုၚ်": 7544,
      "ဝဳရုသ်": 7545,
      "တွဵုရးဍုင်": 7546,
      "ကြက်ဟွံ": 7547,
      "ခါရ": 7548,
      "ဂဗုတ်": 7549,
      "wik": 7550,
      "တရား": 7551,
      "မဒုင်": 7552,
      "မဂၠိုၚ်ဂၠၚ်": 7553,
      "ဗၟံက်ထ္ၜးလဝ်": 7554,
      "ဗြဴဗတိ": 7555,
      "ခင်": 7556,
      "တဏှာ": 7557,
      "လေံ": 7558,
      "အမှု": 7559,
      "အရဟ": 7560,
      "က္ဍုဟ်": 7561,
      "ဗုဒ္ဓဝါ": 7562,
      "မပံင်": 7563,
      "င္ၚ": 7564,
      "ကဠောမသ": 7565,
      "300px": 7566,
      "iel": 7567,
      "my": 7568,
      "ကမ္ပဏဳ": 7569,
      "ဒီု": 7570,
      "ဗဴ": 7571,
      "ဂှ်လေ": 7572,
      "ဟွံဂပ်ဝ်": 7573,
      "icultural": 7574,
      "ၜါလပါ်": 7575,
      "ပၠန်တုဲ": 7576,
      "ash": 7577,
      "သ္ဒးဟီု": 7578,
      "တင်ဂၞန်": 7579,
      "Phil": 7580,
      "ထၟာဲ": 7581,
      "Psych": 7582,
      "ier": 7583,
      "ပ္ဍဲကိုပ်ကၠာ": 7584,
      "နွံမ္ဂး": 7585,
      "ကြိက်": 7586,
      "မၞိဟ်မွဲ": 7587,
      "တူရူ": 7588,
      "ယဝ်ဟွံ": 7589,
      "ဒေါက်": 7590,
      "ဗော်သွး": 7591,
      "တ္ထိ": 7592,
      "တြုံဗြဴ": 7593,
      "ott": 7594,
      "ပ္တိတ်လဝ်": 7595,
      "အံင်သာန်": 7596,
      "သၟာကမၠောန်": 7597,
      "ကလိလောန်အာ": 7598,
      "မၞုံသဘဴမဖှ်": 7599,
      "red": 7600,
      "ညောန်": 7601,
      "ဗၠိုက်": 7602,
      "မသုင်စောဲ": 7603,
      "ဟံင်": 7604,
      "ရာဂ": 7605,
      "သာဝက": 7606,
      "န္တာ": 7607,
      "ဗ္တိုက်": 7608,
      "သာ်ဝွံရ": 7609,
      "စေတသ": 7610,
      "ကျာ်ဇၞော်အ္စာတၠ": 7611,
      "ပလံင်ဗစိုပ်": 7612,
      "ထေင်ကေတ်": 7613,
      "PA": 7614,
      "Rev": 7615,
      "စိုး": 7616,
      "လစ": 7617,
      "၇၀": 7618,
      "ကဵုတဴ": 7619,
      "နူစ": 7620,
      "ကြမ်": 7621,
      "ကောန်သမ္ဘာ": 7622,
      "ဗ္ဂ": 7623,
      "ရာဇဂြိုဟ်": 7624,
      "ames": 7625,
      "ကောဒေံ": 7626,
      "လၟိဟ်မစုတ်": 7627,
      "လဳယာန်": 7628,
      "150px": 7629,
      "သွဟ်လိက်": 7630,
      "ဍာံပြဟာ": 7631,
      "ပဠေဝ်": 7632,
      "သိပ်ဂၠိပ်": 7633,
      "စေတသိက်": 7634,
      "59": 7635,
      "79": 7636,
      "Brit": 7637,
      "ts": 7638,
      "ယေတ်": 7639,
      "ဂှ်တှ်ေ": 7640,
      "ဒှ်ဟိုတ်": 7641,
      "ဒှ်ဂကောံ": 7642,
      "တိၚ်": 7643,
      "icle": 7644,
      "ဗၠဲ": 7645,
      "ရုပ်ကျာ်": 7646,
      "2018": 7647,
      "အက္ခဝ်": 7648,
      "evelop": 7649,
      "ပကာ": 7650,
      "၅၂": 7651,
      "က်ရ": 7652,
      "ဒှ်လဝ်": 7653,
      "အာကၠုၚ်": 7654,
      "ကျိုၚ်": 7655,
      "ပြေ": 7656,
      "ဒိဋ္ဌိ": 7657,
      "ဒေပ်လဝ်": 7658,
      "Myanmar": 7659,
      "သ္ပဝ်ကွဳ": 7660,
      "နာယက": 7661,
      "အိုဟ်တၟိုဟ်": 7662,
      "01": 7663,
      "Day": 7664,
      "Pre": 7665,
      "ား": 7666,
      "ဒှ်ကုခမဳဂှ်ရ": 7667,
      "မန်တြေံ": 7668,
      "ကောန်ပျူတာ": 7669,
      "သိန်း": 7670,
      "ဒၟံၚ်တုဲ": 7671,
      "entity": 7672,
      "ဝဳရိယ": 7673,
      "ချပ်ဂၞန်": 7674,
      "ဇၟာပ်ဂလာန်": 7675,
      "ဇိၚ်သ္ၚာ": 7676,
      "ပကဴ": 7677,
      "စၟိန်": 7678,
      "ကရောံ": 7679,
      "eter": 7680,
      "ကောန်သၟိၚ်သာကျဝၚ်": 7681,
      "ဍိုန်လျ": 7682,
      "အပိုင်": 7683,
      "ေ့": 7684,
      "မွဲဒၞာဲ": 7685,
      "မွဲသ္ပဝ်ကွဳ": 7686,
      "နူဍုၚ်": 7687,
      "ပၞး": 7688,
      "ဒါတ်": 7689,
      "ဖျောန်": 7690,
      "ဝိသေ": 7691,
      "ခိုဟ်ဆာဲ": 7692,
      "အေဿ": 7693,
      "အလန်ဒုတိယ": 7694,
      "ပ္ဍဲကွာန်ဂှ်": 7695,
      "အသိင်": 7696,
      "ပြံၚ်လှာဲ": 7697,
      "ဒယှ်တှ်": 7698,
      "ကျေဝ်ဂေါဝ်": 7699,
      "Techn": 7700,
      "09": 7701,
      "On": 7702,
      "no": 7703,
      "sub": 7704,
      "ဇီု": 7705,
      "ပကေဝ်": 7706,
      "ပြော": 7707,
      "စၞာဲ": 7708,
      "ures": 7709,
      "အလုံဂၠးကဝ်": 7710,
      "တၞဟ်နသွက်": 7711,
      "aint": 7712,
      "ဗွဝ်ကၠံဂှ်": 7713,
      "formation": 7714,
      "\"။": 7715,
      "ဩန်": 7716,
      "ပ္ဍဲလက်ထက်": 7717,
      "ဒှ်ကောန်": 7718,
      "သာလဳ": 7719,
      "လိက်ဂှ်": 7720,
      "off": 7721,
      "ပွိုင်ဍုင်ကျာ်မြဟ်": 7722,
      "စၞောန်ထ္ၜးပါတိမုက်": 7723,
      "သရာဲ": 7724,
      "ဒတုဲဖဵု": 7725,
      "54": 7726,
      "လုတ်": 7727,
      "၅၀၀": 7728,
      "စိုတ်ဂှ်": 7729,
      "သၟဟ်ညံၚ်ရဴ": 7730,
      "သဘင်သဳကၠဳ": 7731,
      "ၜတ်ကၞာတ်": 7732,
      "စၠောံ": 7733,
      "သ္ဍဴ": 7734,
      "ထၞေန်စပ်": 7735,
      "cite": 7736,
      "ၚိတ်": 7737,
      "ပ္ဍဲဂကူ": 7738,
      "ပ္ဍဲဍာ်": 7739,
      "ခမဳမၞုံယၟုဝွံ": 7740,
      "ဘာရ": 7741,
      "တၠဂှ်": 7742,
      "ဒၟံၚ်အိုတ်ရ": 7743,
      "သေနာ": 7744,
      "ဇၟာပ်ဇၟာပ်": 7745,
      "ဖျေဟ်လဝ်": 7746,
      "ကွေတ်မိစ္ဆာ": 7747,
      "ပ္ဍဲအပ္ဍဲဝတ်": 7748,
      "ဇျာန်": 7749,
      "cycl": 7750,
      "date": 7751,
      "ဂံင်": 7752,
      "ဍာတ်": 7753,
      "ထဴ": 7754,
      "ဟုံ": 7755,
      "မွဲအခိၚ်": 7756,
      "ကီုဂှ်": 7757,
      "ဗ္တာၚ်": 7758,
      "တၞီ": 7759,
      "ပၞတ်": 7760,
      "နွံပၟိက်ကဵု": 7761,
      "တ္ၜေဟ်": 7762,
      "လၞီ": 7763,
      "ပ္တေဟ်": 7764,
      "Polit": 7765,
      "အဆက်အစပ်": 7766,
      "ပါလဳမာန်": 7767,
      "တှေ်": 7768,
      "ရံ": 7769,
      "ဟ်ရ": 7770,
      "ညးဟွံ": 7771,
      "ကျာ်တုဲ": 7772,
      "တိတ်ကၠုင်": 7773,
      "ဂတဂှ်": 7774,
      "ကတဵုဒှ်မၞိဟ်": 7775,
      "ဗၞတ်မွဲ": 7776,
      "Anal": 7777,
      "ကသဳ": 7778,
      "ပယာံ": 7779,
      "လည်း": 7780,
      "ိမ": 7781,
      "၅၆": 7782,
      "ကွိုက်": 7783,
      "ina": 7784,
      "ဗြာ": 7785,
      "ပကတတ်": 7786,
      "ခယျ": 7787,
      "ဆေင်": 7788,
      "လစုတ်": 7789,
      "ဟိတ်": 7790,
      "ဥပါလိ": 7791,
      "နူတမ်": 7792,
      "တၞင်": 7793,
      "တေံတုဲ": 7794,
      "အတိုင်ဗွဲသၟဝ်ဝွံရ": 7795,
      "လက္ခဏာ": 7796,
      "ကၠိုဟ်ခၠင်": 7797,
      "သေက်ဇဵု": 7798,
      "has": 7799,
      "မတွဟ်": 7800,
      "၅၈": 7801,
      "အာကဵု": 7802,
      "အလံၚ်": 7803,
      "၂၀၁၈": 7804,
      "တေဇ": 7805,
      "ပန်ပြကာ": 7806,
      "မွဲမွဲရ": 7807,
      "ဗဗွဲကဵုဓရ်": 7808,
      "ဗွဲမလအ်": 7809,
      "ကၟိန်ဍုင်အမေရိကာန်": 7810,
      "ography": 7811,
      ".,": 7812,
      "Isl": 7813,
      "Per": 7814,
      "Wh": 7815,
      "ပလ္လ": 7816,
      "ဘဏ်": 7817,
      "ရတိ": 7818,
      "ဝဝ": 7819,
      "ဒှ်ဒၟံၚ်": 7820,
      "က္လေင်": 7821,
      "ပၠး": 7822,
      "ၜါသၞာံ": 7823,
      "ဂိတုမာတ်": 7824,
      "မပ္တိတ်": 7825,
      "သ္ၚာတုဲ": 7826,
      "ဆာန်ဂကူ": 7827,
      "ဝေါဟာရမန်": 7828,
      "ဗဳထဝ်": 7829,
      "ဖြာ": 7830,
      "ယူနဳ": 7831,
      "လ္ၚောဝ်သ္ပဝတ်": 7832,
      "ဇၟန်": 7833,
      "ပ္ဍဵုပ္ဍိုက်": 7834,
      "ထေရဝါဒ": 7835,
      "100": 7836,
      "Vi": 7837,
      "des": 7838,
      "ခံ": 7839,
      "ပဒ": 7840,
      "သဝ": 7841,
      "တ်ဒွံ": 7842,
      "သာပ်": 7843,
      "သီုဖအိုတ်ရ": 7844,
      "သတ်ဗြဴ": 7845,
      "တွာ": 7846,
      "တဳလမၞုံပိုဉ်ကျာ်တြဲဂှ်": 7847,
      "ဂစိုတ်ထောံ": 7848,
      "ဓါတ်သော်": 7849,
      "ပတှ်ေကေတ်": 7850,
      "ကယျိုင်": 7851,
      "Dec": 7852,
      "Multicultural": 7853,
      "mese": 7854,
      "ton": 7855,
      "စင်": 7856,
      "လတ": 7857,
      "ဂမၠိုၚ်ၜါ": 7858,
      "တ္ၚဲယး": 7859,
      "ပွိုင်ဍုင်မတ်မလီု": 7860,
      "ract": 7861,
      "ဗ္ဗာ": 7862,
      "ular": 7863,
      "မရပ်": 7864,
      "ယုတ်မာ": 7865,
      "Reg": 7866,
      "ဇာန်နဝါရဳ": 7867,
      "မညဳသာသၟဟ်သၟန်": 7868,
      "နယူ": 7869,
      "ဂွံလဝ်": 7870,
      "သာဓု": 7871,
      "နကဵုလညာတ်": 7872,
      "ala": 7873,
      "ဗ္ၜ": 7874,
      "အလေံ": 7875,
      "ဂိန်": 7876,
      "မောဂ္ဂ": 7877,
      "ပဏ္ဍိတ": 7878,
      "olution": 7879,
      "John": 7880,
      "ပြဝ": 7881,
      "တိက": 7882,
      "ကျာ်ပိ": 7883,
      "ပရေင်ဆက်ဆောံ": 7884,
      "တီတဴ": 7885,
      "ကၠာရ": 7886,
      "ဂတမတ်": 7887,
      "ရပ်ကေတ်": 7888,
      "apt": 7889,
      "က္ညကၠုၚ်": 7890,
      "ဝါတ်ဂါတ်": 7891,
      "တၞောဝ်ကျာ်": 7892,
      "II": 7893,
      "Kh": 7894,
      "Tim": 7895,
      "ric": 7896,
      "sc": 7897,
      "ှဲလး": 7898,
      "ခမဳပကတတ်": 7899,
      "ins": 7900,
      "ကလာ": 7901,
      "ဟိုတ်ဖဵု": 7902,
      "ဂြိုၚ်": 7903,
      "ould": 7904,
      "သန်း": 7905,
      "မသက္ကု": 7906,
      "ဘုရား": 7907,
      "လၚ်္ကာ": 7908,
      "ဒေါက်တာ": 7909,
      "Key": 7910,
      "Part": 7911,
      "ဆဝ်": 7912,
      "ွေ": 7913,
      "ကၠၚ်": 7914,
      "ဝွံတုန်": 7915,
      "ညးကဵုညး": 7916,
      "တ္တံ": 7917,
      "တဴကဵု": 7918,
      "နာဲဗဳထဝ်": 7919,
      "သိရိ": 7920,
      "ပၠန်တုန်": 7921,
      "ဍေံဂှ်": 7922,
      "မပတမ်": 7923,
      "ကိုရ်": 7924,
      "မၞုံယၟုဝွံရ": 7925,
      "နန်ထဝ်": 7926,
      "ellig": 7927,
      "သြိုင်ခၞံ": 7928,
      "လုက်စုက်": 7929,
      "ဏောၚ်တှ်ေ": 7930,
      "ပ္ညုၚ်": 7931,
      "ဇာဒိသိုၚ်": 7932,
      "ဟိုတ်နူအာပတ်မွဲ": 7933,
      "တၞင်သဳ": 7934,
      "Bo": 7935,
      "East": 7936,
      "Ra": 7937,
      "her": 7938,
      "ဆော": 7939,
      "မဍာံစၟတ်": 7940,
      "လဒက်ပတန်": 7941,
      "ကဵုပိုဉ်": 7942,
      "ဒှ်မွဲ": 7943,
      "ဒှ်မာန်": 7944,
      "သ္ကဲ": 7945,
      "သၞံင်": 7946,
      "ဟီုအရေဝ်": 7947,
      "နကဵုဘာသာမန်": 7948,
      "ဂကောံသင်": 7949,
      "ညာတ်တုဲ": 7950,
      "ဂုဏ်ကျာ်": 7951,
      "လောကဳ": 7952,
      "ရုရှာ": 7953,
      "ဟွံမာန်တုဲ": 7954,
      "ပါ်ပရအ်လဝ်": 7955,
      "ကွးပဒတဴမွဲစွံ": 7956,
      "uc": 7957,
      "ပ္ဍဲကြဴနူဂှ်": 7958,
      "ond": 7959,
      "ပွမစကာ": 7960,
      "စိုတ်ဟွံ": 7961,
      "ရဴဝွံကီု": 7962,
      "ဗွဟ်": 7963,
      "ဖျေဟ်သ္ဂုတ်သွာတ်": 7964,
      "view": 7965,
      "ဖရ": 7966,
      "သိုန်": 7967,
      "ညးအဲ": 7968,
      "ိုင်း": 7969,
      "ဟီုလဝ်": 7970,
      "ကွာန်ရ": 7971,
      "အလံင်": 7972,
      "သြၚ်": 7973,
      "သက္ကရာဇ်ဍုင်": 7974,
      "used": 7975,
      "ople": 7976,
      "ပရိက္ခ": 7977,
      "ဒမၠိ": 7978,
      "လလးကထိုန်": 7979,
      "Go": 7980,
      "၄၂": 7981,
      "ဒှ်ညးမ": 7982,
      "ကုမ္ပဏဳ": 7983,
      "ရာဟု": 7984,
      "ဘာတိုက်": 7985,
      "ကျာ်ဂမျိုၚ်": 7986,
      "ချာဲ": 7987,
      "ဂျပါန်": 7988,
      "သၟဝ်တဲ": 7989,
      "သဝ်တ္ၚဲ": 7990,
      "ဗဵုလ္ၚောဝ်": 7991,
      "South": 7992,
      "ရာဇာဓိရာဇ်": 7993,
      "ဉတ္တိ": 7994,
      "ဝပ်": 7995,
      "ုမ်": 7996,
      "ကဵုမွဲ": 7997,
      "ပ္ဍဲမုက်လိက်": 7998,
      "ဒၟံၚ်ကၞပ်သ္ၚောံသ္ၚိတ်ဇြ": 7999,
      "ဥပဒေသ": 8000,
      "လ္ၚဵုတအ်ဂှ်": 8001,
      "ပတိုန်ထ္ၜး": 8002,
      "und": 8003,
      "ဖြင့်": 8004,
      "တာန်ဆံၚ်": 8005,
      "မင်မွဲလဝ်": 8006,
      "ဒွါရ": 8007,
      "Burmese": 8008,
      "နက္ခတ္တ": 8009,
      "Fl": 8010,
      "lab": 8011,
      "ဏောင်": 8012,
      "လဇ": 8013,
      "သတာန်": 8014,
      "တုဲဒှ်": 8015,
      "မဂိ": 8016,
      "ပၞာၚ်": 8017,
      "ကၠောန်အာ": 8018,
      "ဒက်လဝ်": 8019,
      "elf": 8020,
      "ဇိုၚ်တဲ": 8021,
      "ဂွိၚ်": 8022,
      "အဋ္ဌကထာ": 8023,
      "Qu": 8024,
      "ပ္ဍဲလိုက်": 8025,
      "ဍုင်သအာင်": 8026,
      "ဇၞူ": 8027,
      "ဂၠေံ": 8028,
      "ကလောန်": 8029,
      "မိနေတ်": 8030,
      "ဍုၚ်ဟံသာဝတဳ": 8031,
      "ဇြဟာန်": 8032,
      "လုပ်စိုပ်": 8033,
      "ပၞုက်": 8034,
      "အဓိပ္ပ": 8035,
      "Str": 8036,
      "ဖြိုး": 8037,
      "ဇ္ဇျ": 8038,
      "တုပ်သၟဟ်ကဵု": 8039,
      "ဗြဟ္မ": 8040,
      "ဇဳဝက": 8041,
      "Education": 8042,
      "ကလာပ်ရုပ်": 8043,
      "cyclop": 8044,
      "33": 8045,
      "နဗဗွဲဓရ်": 8046,
      "ပမာ": 8047,
      "ဗာ်": 8048,
      "မအက္ခရ်": 8049,
      "အမိင်": 8050,
      "ညးဇၞော်": 8051,
      "ကျေန်": 8052,
      "ကေတ်တာလျိုင်": 8053,
      "နာဲယေသှု": 8054,
      "ဂလာ": 8055,
      "က္ဍိုင်": 8056,
      "20px": 8057,
      "တံဂှ်တုဲ": 8058,
      "အလုံဒေသရးမန်": 8059,
      "ဂဇအ်ဒၟံၚ်": 8060,
      "ဂၠံဂဝ်": 8061,
      "ဒီမိုကရေ": 8062,
      "Human": 8063,
      "Pa": 8064,
      "ဂၠိုက်": 8065,
      "ညဝ်": 8066,
      "ဒှ်သဇိုင်": 8067,
      "ကောန်ၜါ": 8068,
      "ဟီုလဴ": 8069,
      "နကဵုတဲ": 8070,
      "ဗွိုင်": 8071,
      "ဝိနယ်ကမ်": 8072,
      "Society": 8073,
      "ကလေၚ်စဴရ": 8074,
      "ဂယိုၚ်": 8075,
      "လရိုအ်": 8076,
      "elligence": 8077,
      "58": 8078,
      "Port": 8079,
      "iam": 8080,
      "language": 8081,
      "နော": 8082,
      "ရုန်": 8083,
      "ဟသေၚ်": 8084,
      "အဂ္ဂ": 8085,
      "၅၄": 8086,
      "ပြာ်": 8087,
      "တၟတ်ဒွံ": 8088,
      "ဒၟံင်တုဲ": 8089,
      "လှုဲ": 8090,
      "ဗျဵု": 8091,
      "Encyclop": 8092,
      "မရနုက်ကဵုပိဝါလေဝ်": 8093,
      "Academic": 8094,
      "ပရိက္ခရာ": 8095,
      "Pers": 8096,
      "line": 8097,
      "ထး": 8098,
      "ယၚ်": 8099,
      "ဨရာ": 8100,
      "ပ္ဍဲတိုက်": 8101,
      "ဇၞော်ပၟဝ်": 8102,
      "ဍုၚ်သွဝ်": 8103,
      "ဍုၚ်လ္ဂုၚ်": 8104,
      "အရာဝွံ": 8105,
      "ထ္ၜးပျး": 8106,
      "ental": 8107,
      "196": 8108,
      "ဒဵုကဵု": 8109,
      "ပုရိ": 8110,
      "တၠအဲရ": 8111,
      "ဗွဲမလောန်တုဲ": 8112,
      "အဝ်ရဳ": 8113,
      "port": 8114,
      "rou": 8115,
      "ကပ္ပ": 8116,
      "ဒုတ်": 8117,
      "ပ္ဍဲလဒေါဝ်": 8118,
      "ဂွံမိၚ်": 8119,
      "သၟိပ်": 8120,
      "ပြဝေဏဳ": 8121,
      "နူဘဝ": 8122,
      "တံညးဂမၠိုၚ်": 8123,
      "ပရေင်ဗၞိက်": 8124,
      "သ္ပပူဇဴ": 8125,
      "ကၠောန်သဘင်": 8126,
      "တွာ်": 8127,
      "ပိုန်ကျာ်တြဲ": 8128,
      "လလောၚ်": 8129,
      "ဘာဝနာ": 8130,
      "ကညာ": 8131,
      "ကချ": 8132,
      "ဒမ်": 8133,
      "ဝနာ": 8134,
      "ဣဓိ": 8135,
      "မာတု": 8136,
      "တ္ၚေက်": 8137,
      "olar": 8138,
      "ပန်ဂှ်": 8139,
      "ဒးအာပတ်ပါရာဇ်ရ": 8140,
      "ပွိုင်ဆန္ဒမာဲ": 8141,
      "ကမ္မဏဳ": 8142,
      "ဍိုက်ပေၚ်ကဵု": 8143,
      "ရင်တၠုင်": 8144,
      "ရှ်ေသှ်ေရဴဂဴ": 8145,
      "Apr": 8146,
      "ဗ်": 8147,
      "ၜန်": 8148,
      "င်ဂှ်": 8149,
      "ကဵုအာ": 8150,
      "ပ္ပိ": 8151,
      "ပ္ဍံ": 8152,
      "ပိုင်း": 8153,
      "ကောန်သၟိင်": 8154,
      "ဂြဲ": 8155,
      "2012": 8156,
      "က္ဍိုက်က္ဍိုပ်": 8157,
      "Buddhist": 8158,
      "စၟိန်ပြ": 8159,
      "ဒီမိုကရေစီ": 8160,
      "Me": 8161,
      "Sc": 8162,
      "sci": 8163,
      "ခက်": 8164,
      "မကၠုၚ်": 8165,
      "ဨသာန်": 8166,
      "နာဲထဝ်": 8167,
      "လာသ": 8168,
      "လောန်တုဲ": 8169,
      "2016": 8170,
      "ပ္ဍဲအရာဝွံ": 8171,
      "သကိုပ်ပၞာန်": 8172,
      "မုရဴသာ်လဵု": 8173,
      "symbols": 8174,
      "ournal": 8175,
      "Power": 8176,
      "Sam": 8177,
      "ညန်": 8178,
      "မကော်စ": 8179,
      "သာံ": 8180,
      "ဂွံစ": 8181,
      "ကီုမ္ဂး": 8182,
      "တၠအဝဵု": 8183,
      "ဂကူကရေင်": 8184,
      "အရပ်": 8185,
      "ဒၞာဲဒတန်": 8186,
      "မ္ၚုဟ်": 8187,
      "သ္ၚိတ်သ္ၚိတ်": 8188,
      "ပိဋကတ်ပိ": 8189,
      "တံၚ်ဓဇက်တမ်": 8190,
      "သၞာသတိက်သၞာ": 8191,
      "မရနုက်ကဵုၜါဝါလေဝ်": 8192,
      "Hy": 8193,
      "US": 8194,
      "ep": 8195,
      "ကဝက်": 8196,
      "လံၚ်": 8197,
      "ဒှ်မံၚ်": 8198,
      "ညးဍေံ": 8199,
      "ဍုင်ဝွံ": 8200,
      "မလေ": 8201,
      "ကၞေင်": 8202,
      "စွံသတိ": 8203,
      "ဂေတ်ဂ္ၚေၚ်": 8204,
      "ထား": 8205,
      "ford": 8206,
      "ake": 8207,
      "တွဵုရးဍုင်ကရေင်": 8208,
      "Eth": 8209,
      "Har": 8210,
      "fin": 8211,
      "la": 8212,
      "้า": 8213,
      "ဏး": 8214,
      "ဗတံ": 8215,
      "မခိုဟ်": 8216,
      "မဒက်ပ္တန်လဝ်": 8217,
      "သတုံ": 8218,
      "အေင်": 8219,
      "ပွမပါ်ခြာ": 8220,
      "ကၠောန်သ္ပ": 8221,
      "စၟတ်တဲ": 8222,
      "ယဝ်ဒှ်မ္ဂး": 8223,
      "ives": 8224,
      "ဂၠိုၚ်တုဲ": 8225,
      "ဗ္ဒဴ": 8226,
      "အပ္ဍဲဍုင်": 8227,
      "ဒယိုၚ်": 8228,
      "ကၠးဖ္ဍး": 8229,
      "ထံက်ဂလာန်": 8230,
      "ဒပ်ပၞာန်ဗၟာ": 8231,
      "ပိုၚ်ခြာ": 8232,
      ".\"": 8233,
      "CE": 8234,
      "have": 8235,
      "ကောင်း": 8236,
      "တမ္": 8237,
      "သရိုဟ်": 8238,
      "ဠာ": 8239,
      "ဿနာ": 8240,
      "တုက": 8241,
      "အခန်": 8242,
      "မၞုံပ္ဍဲ": 8243,
      "ယွံသၟိၚ်": 8244,
      "မိအံက်": 8245,
      "ဂကောံပါ်ဒကး": 8246,
      "ဍာ်ဂှ်": 8247,
      "ခမဳဗြဴထုလ္လနန္ဒာ": 8248,
      "ဟီုသ္ဂးအိုတ်ရ": 8249,
      "ပါန်ကွတ်": 8250,
      "box": 8251,
      "Indian": 8252,
      "ထိၚ်ဒဝ်": 8253,
      "ရှေ်သှေ်ရဴဂဴ": 8254,
      "ness": 8255,
      "ren": 8256,
      "စိုအ်": 8257,
      "ဝသ်": 8258,
      "တဴအိုတ်ရ": 8259,
      "အဲလေဝ်": 8260,
      "ပိဂကူ": 8261,
      "ဂိတုမေ": 8262,
      "2019": 8263,
      "ဂပ်ဝ်နွံပၟိက်": 8264,
      "ဇြပ်တာန်ဆံၚ်": 8265,
      "April": 8266,
      "\"၊": 8267,
      "03": 8268,
      "CO": 8269,
      "vent": 8270,
      "were": 8271,
      "ကဝ": 8272,
      "ထဍ": 8273,
      "သထ": 8274,
      "၄၃": 8275,
      "အာဂန္": 8276,
      "ဂွံဗၠး": 8277,
      "မွဲဂကောံ": 8278,
      "သုဒ္ဓ": 8279,
      "ရောၚ်သွံ": 8280,
      "နာနာရ": 8281,
      "အစာဘာ": 8282,
      "ထေက်ရ": 8283,
      "မပတိတ်": 8284,
      "ဂြောပ်ဗ္ဒန်လဝ်ရ": 8285,
      "order": 8286,
      "သံသကြိုတ်": 8287,
      "ဟေမ": 8288,
      "ရှ်သာ": 8289,
      "အေၚ်ဒုၚ်": 8290,
      "It": 8291,
      "ဉတ်": 8292,
      "ဖအောန်": 8293,
      "ဟုတ်": 8294,
      "အက်": 8295,
      "အနိ": 8296,
      "နွံတုဲ": 8297,
      "ကောန်ကွာန်": 8298,
      "erv": 8299,
      "တံလေဝ်": 8300,
      "ဟာမ်": 8301,
      "မနွံပၟိက်": 8302,
      "ကၟုဲ": 8303,
      "els": 8304,
      "ကမ်မၞုံကဵု": 8305,
      "စှ်ေစိုတ်": 8306,
      "စဵုကဵုလၟုဟ်": 8307,
      "ယြဴဍေံ": 8308,
      "ဝေၚ်ကၠေံ": 8309,
      "ပဋိမာ": 8310,
      "သ္ပကဵုခမဳ": 8311,
      "နဝ်ဝေမ်": 8312,
      "မဒှ်အာရှာမ်အနာထပိဏ္ဍိကသေဌဳ": 8313,
      "Im": 8314,
      "gy": 8315,
      "ခပတိုန်": 8316,
      "ပုတ်": 8317,
      "ယပ်": 8318,
      "သတ္တာ": 8319,
      "ဟံၚ်": 8320,
      "အဗ္ဘ": 8321,
      "ိမာ": 8322,
      "ပ္ဍဲသိက္ခာပိုဒ်": 8323,
      "အာဇာ": 8324,
      "ညးသ္ကအ်": 8325,
      "ရာပ်": 8326,
      "မန်ဇြာ": 8327,
      "ဗြရတ်": 8328,
      "နကဵုဂကောံ": 8329,
      "ဂၞိၚ်": 8330,
      "ဒုၚ်တၠုၚ်": 8331,
      "ဗောဓိသတ်ပိုဲ": 8332,
      "မိတ်သဟာဲ": 8333,
      "ဏ္ဌာန်": 8334,
      "သန္ထာန်": 8335,
      "ကိတ်ညဳကဵု": 8336,
      "စာ်စ္ဍးနူ": 8337,
      "ဍဵုဍိုက်": 8338,
      "Sur": 8339,
      "pend": 8340,
      "စာန်": 8341,
      "ဗိန်": 8342,
      "မမံက်": 8343,
      "ယင်": 8344,
      "ဟိန်": 8345,
      "ကာမ": 8346,
      "ဂၠေအ်": 8347,
      "မာန်ရောၚ်": 8348,
      "၁၉၀": 8349,
      "စက်ယန္တ": 8350,
      "ဂၠိုင်ကဵု": 8351,
      "ခါတ်": 8352,
      "ဗိုန်ဗတ်": 8353,
      "ဟုမ်": 8354,
      "စတုတ္ထကမ်": 8355,
      "Car": 8356,
      "templ": 8357,
      "နာံ": 8358,
      "ဗတာင်": 8359,
      "အကျ": 8360,
      "အပြ": 8361,
      "။”": 8362,
      "ပ္ဍဲပွမ": 8363,
      "ရောတ်": 8364,
      "တီကၠိုဟ်": 8365,
      "တ္ၚဲအဒိုတ်": 8366,
      "ဗီုဂွံ": 8367,
      "ဒုၚ်ကဵု": 8368,
      "ခၞံဗဒှ်လဝ်": 8369,
      "Organization": 8370,
      "Identity": 8371,
      "စၟိန်ပြမာန်": 8372,
      "had": 8373,
      "ဇရ": 8374,
      "ၝဲ": 8375,
      "ဒှ်နဲကဲ": 8376,
      "တိဿ": 8377,
      "မန်ရ": 8378,
      "any": 8379,
      "မၞုံဗၞတ်": 8380,
      "ပၞဴ": 8381,
      "ပါ်ပဲါ": 8382,
      "္ဂါ": 8383,
      "ဂုဏ်ဖဵု": 8384,
      "ros": 8385,
      "ထပ်တဲ": 8386,
      "March": 8387,
      "ဟၟဲကဵု": 8388,
      "978": 8389,
      "uary": 8390,
      "yn": 8391,
      "ဍိုတ်": 8392,
      "ဒလာဲ": 8393,
      "အောပ်": 8394,
      "၅၉": 8395,
      "မွဲတဲ": 8396,
      "တအ်ကီု": 8397,
      "ခမဳဝွံ": 8398,
      "ဍုင်ရ": 8399,
      "ဗွဲမနွံကဵု": 8400,
      "ဂကောံရာမည": 8401,
      "သိက": 8402,
      "မြို့": 8403,
      "အဓိကရ": 8404,
      "ဗော်မန်": 8405,
      "ကုသလ": 8406,
      "250px": 8407,
      "တိတ်ဗၠးနူ": 8408,
      ".;": 8409,
      "ခုင်": 8410,
      "ဒရေဝ်": 8411,
      "မထေက်": 8412,
      "….": 8413,
      "ပ္ကၚ်ရၚ်": 8414,
      "တိစ်": 8415,
      "သာမဳ": 8416,
      "ingu": 8417,
      "ပံက်လဝ်": 8418,
      "သမၠုၚ်": 8419,
      "ပြည်သူ": 8420,
      "စွံပတန်လဝ်": 8421,
      "https": 8422,
      "ructure": 8423,
      "တ္ၜေဟ်လက်": 8424,
      "Dem": 8425,
      "ble": 8426,
      "ခေင်": 8427,
      "စည်း": 8428,
      "လကိုဟ်": 8429,
      "အမ်": 8430,
      "အေး": 8431,
      "၆၆": 8432,
      "ပ္ဍဲဂှ်": 8433,
      "ဂွံညာတ်ကေတ်": 8434,
      "ကောန်ဒေဝတဴ": 8435,
      "တံဂှ်ရ": 8436,
      "တိုန်တုဲ": 8437,
      "ဍာ်တုဲ": 8438,
      "ဓရ်ဂမၠိုၚ်": 8439,
      "မၞးတအ်": 8440,
      "And": 8441,
      "မဟိမု": 8442,
      "Des": 8443,
      "Ear": 8444,
      "NA": 8445,
      "ious": 8446,
      "မိဟ်": 8447,
      "ဗ္တဳ": 8448,
      "ဇကုလေဝ်": 8449,
      "ပၞဟ်": 8450,
      "လျာ": 8451,
      "အခိင်ဂှ်": 8452,
      "စွံအာရီု": 8453,
      "တိုက်ရိုက်": 8454,
      "ဂုဏ်စရာဲ": 8455,
      "ခြာဟွံလအ်": 8456,
      "တၞံဇြဲ": 8457,
      "စ္ဍးအာ": 8458,
      "ysis": 8459,
      "ledge": 8460,
      "သိုင်ခၞံဘာကုဋ်": 8461,
      "အဗ္ဘာန်": 8462,
      "DF": 8463,
      "har": 8464,
      "ks": 8465,
      "ခစ": 8466,
      "ဇမၞး": 8467,
      "တယ်": 8468,
      "ရေက်": 8469,
      "ဂမၠိုၚ်မဂၠိုၚ်": 8470,
      "ပွမသုင်စောဲ": 8471,
      "ale": 8472,
      "ဂကောံဂိုဏ်": 8473,
      "သုည": 8474,
      "မဒှ်ဒၞာဲ": 8475,
      "left": 8476,
      "သၠုင်အိုတ်": 8477,
      "ပုဂ္ဂ": 8478,
      "ဗဳယျာ": 8479,
      "obal": 8480,
      "ဗွိုက်လတက်": 8481,
      "America": 8482,
      "စတမ်နူ": 8483,
      "ဒှ်သာ်ဂှ်မ္ဂး": 8484,
      "ဉတ္တိစတုတ္ထကမ်": 8485,
      "($": 8486,
      "May": 8487,
      "mod": 8488,
      "အပေါတ်": 8489,
      "ဣန္ဒ": 8490,
      "သၞေဝ်": 8491,
      "ကလျာ": 8492,
      "ican": 8493,
      "ပိုဲဒး": 8494,
      "style": 8495,
      "omy": 8496,
      "ဗၟာဂှ်": 8497,
      "ကၠေံဗ္ဒန်": 8498,
      "2026": 8499,
      "ကုခမဳဂမၠိုၚ်": 8500,
      "ဓါန်": 8501,
      "စဳရေင်": 8502,
      "လောဲလောဲ": 8503,
      "cond": 8504,
      "သမၠီု": 8505,
      "ပယျၚ်ရ": 8506,
      "ခုနှစ်": 8507,
      "အေန်တာနေတ်": 8508,
      "ယြဴဍေံမၞုံသဘဴမဖှ်": 8509,
      ".)": 8510,
      "Can": 8511,
      "Cam": 8512,
      "first": 8513,
      "ဇှ်ေ": 8514,
      "ပညဳ": 8515,
      "ကဵုမ": 8516,
      "ကဵုပြဝး": 8517,
      "အာညိ": 8518,
      "ဂွံညာတ်": 8519,
      "ines": 8520,
      "ဗွဲတၟေၚ်": 8521,
      "တံတုဲ": 8522,
      "ဂမၠိုင်လေဝ်": 8523,
      "မဂ္": 8524,
      "ဍေံဟွံ": 8525,
      "ဥပနန္ဒ": 8526,
      "ဂိတုပသာ်": 8527,
      "တအ်ဂှ်လေဝ်": 8528,
      "ases": 8529,
      "ဒိတျ": 8530,
      "ပ္ဍဲအခိင်ကာလ": 8531,
      "Christ": 8532,
      "ရးနိဂီုသေံ": 8533,
      "ministr": 8534,
      "ကွးပဒတဴဇရေၚ်": 8535,
      "အာဂန္တုက": 8536,
      ")၊၊": 8537,
      "Bi": 8538,
      "til": 8539,
      "တဿ": 8540,
      "ပ္ဍဲမ": 8541,
      "သၞေံ": 8542,
      "ကီုဟာ": 8543,
      "ison": 8544,
      "ဒုင်ကေတ်": 8545,
      "entific": 8546,
      "ခိုဟ်ဟ်": 8547,
      "သံဂါ": 8548,
      "ဝေသာလဳ": 8549,
      "ပိုက်နုက်": 8550,
      "ဂအုံ": 8551,
      "also": 8552,
      "မောဂ္ဂလာန်": 8553,
      "mat": 8554,
      "tran": 8555,
      "တလဳ": 8556,
      "ဗူ": 8557,
      "မဂၠိၚ်": 8558,
      "သည့်": 8559,
      "ေန": 8560,
      "အာတဴ": 8561,
      "ery": 8562,
      "ဂၠါဲ": 8563,
      "စား": 8564,
      "ဓိကိုရ်": 8565,
      "ဒုၚ်ကေတ်": 8566,
      "ဂရဳ": 8567,
      "စရိုဟ်": 8568,
      "လှဲလး": 8569,
      "imacy": 8570,
      "une": 8571,
      "ဟွံသေၚ်ဟာ": 8572,
      "--------": 8573,
      "ပရဝ်ဂရာမ်": 8574,
      "ဒမြိပ်": 8575,
      "Relig": 8576,
      "အဓိပ္ပာယ်": 8577,
      "ယြဴဍေံမၞုံသဘဴမဖှ်သာ်လဵု": 8578,
      "NL": 8579,
      "စုံ": 8580,
      "ဆောတ်": 8581,
      "မဇၞော်မောဝ်": 8582,
      "၅၃": 8583,
      "၆၇": 8584,
      "ညးဟီု": 8585,
      "ဂၠိက်": 8586,
      "ဂၠမ်": 8587,
      "သမ္မု": 8588,
      "ပၞာန်ဂၠးတိ": 8589,
      "ဗက်ဗ္ဒဴ": 8590,
      "လွဳမာန်": 8591,
      "ကဳလဝ်": 8592,
      "ပရေၚ်ပိုန်ဒြပ်": 8593,
      "သ္ဂောံမိၚ်ကေတ်": 8594,
      "ကောန်ၚာ်ဂှ်": 8595,
      "ကၞာၚ်": 8596,
      "ဗွဲသၟဝ်ဝွံ": 8597,
      "ဗဗေင်": 8598,
      "သိုၚ်ခၞံ": 8599,
      "လဆောဝ်မ္ဂး": 8600,
      "ဍောၚ်ၜိုတ်": 8601,
      "iction": 8602,
      "January": 8603,
      "Method": 8604,
      "လောတ်": 8605,
      "ဟိုဲ": 8606,
      "ပ္ဍဲရုင်": 8607,
      "ဒှ်သၟိၚ်": 8608,
      "ဝွံဟေၚ်": 8609,
      "ပြဿနာ": 8610,
      "တဴပ္ဍဲ": 8611,
      "ဗွဲခမၞ": 8612,
      "စာတ်": 8613,
      "မဂဓ": 8614,
      "ောဲသွာ": 8615,
      "သၚ်ဃ": 8616,
      "တ္တဝ်": 8617,
      "သၟဟ်န်": 8618,
      "ပဒတဴပြဝး": 8619,
      "ဋ္ဌာန": 8620,
      "ဗလးတိတ်": 8621,
      "ဟဂပ်ဝ်ကဵု": 8622,
      "အင်္ဂဇာတ်": 8623,
      "ဒဒက်တဴအာပတ်ဂမၠိုၚ်": 8624,
      "ium": 8625,
      "ကတ": 8626,
      "ကောတ်": 8627,
      "ပပ်": 8628,
      "ပဒတန်": 8629,
      "သကဵု": 8630,
      "သၞဴ": 8631,
      "သ္ၚာဲ": 8632,
      "ကွာန်ဝါ": 8633,
      "တာဝ": 8634,
      "itimacy": 8635,
      "ဇြိပ်": 8636,
      "ပလေတ်": 8637,
      "မုသာ": 8638,
      "ဓါတု": 8639,
      "ၜိုန်ဂှ်လေဝ်": 8640,
      "အဲဍိက်ဂှ်": 8641,
      "ရာမညနိကာယပရိယတ္တိ": 8642,
      "မဟွံမဲ": 8643,
      "၂၀၀၈": 8644,
      "အနာံ": 8645,
      "ဉတ္တိစတုတ္ထကမ်ဝွံ": 8646,
      "Is": 8647,
      "pol": 8648,
      "စသုၚ်": 8649,
      "ဇမ္": 8650,
      "ဖွံ": 8651,
      "နူဘာ": 8652,
      "orph": 8653,
      "မာန္တ": 8654,
      "ယွံတၠညး": 8655,
      "ကၞတ်": 8656,
      "cipl": 8657,
      "ပါရဂူ": 8658,
      "ကရေဇြဳ": 8659,
      "တ္ၜန်": 8660,
      "ield": 8661,
      "မဂိယဲ": 8662,
      "08": 8663,
      "Aust": 8664,
      "Br": 8665,
      "Vol": 8666,
      "uk": 8667,
      "ဂံ": 8668,
      "စေဝ်": 8669,
      "ဆဂှ်": 8670,
      "နစ်": 8671,
      "ဍုင်ကြုက်": 8672,
      "တၟာဲ": 8673,
      "ဂကောံသၚ်": 8674,
      "တ္ၚဲစန်": 8675,
      "ပညာစိုတ်": 8676,
      "ခိုဟ်ခိုဟ်": 8677,
      "အလဵုအလဵု": 8678,
      "တရဴအ": 8679,
      "ဗာယပ်": 8680,
      "ificial": 8681,
      "ချိုန်ခဏ": 8682,
      "ဖွံ့": 8683,
      "App": 8684,
      "list": 8685,
      "oon": 8686,
      "မက": 8687,
      "ယသ": 8688,
      "ရုံ": 8689,
      "အာန်": 8690,
      "၄၁": 8691,
      "ညးကဵု": 8692,
      "ဂကူဂှ်": 8693,
      "သၞာလး": 8694,
      "တြုံတၠသ္ၚိ": 8695,
      "ပျာံ": 8696,
      "ပြဟ်ပြဟ်": 8697,
      "စၠန်": 8698,
      "အလန်ပထမ": 8699,
      "clud": 8700,
      "ဨရာဝတဳ": 8701,
      "ဖွံ့ဖြိုး": 8702,
      "44": 8703,
      "Nov": 8704,
      "ဂအာၚ်": 8705,
      "ဆို": 8706,
      "နဝ": 8707,
      "နဓရ်": 8708,
      "ကဵုလလမ်ကၠေံ": 8709,
      "မ္မိ": 8710,
      "ကၠိက်": 8711,
      "ကွာဲ": 8712,
      "လိက်တုဲ": 8713,
      "တဴဂှ်": 8714,
      "ကောန်အဲ": 8715,
      "ဗ္ၜူ": 8716,
      "နာဲရ": 8717,
      "ဂရု": 8718,
      "ဗျာ": 8719,
      "pres": 8720,
      "ဖ္ဍိုက်": 8721,
      "ဘုဝနာ": 8722,
      "စိတ္တဗေဒ": 8723,
      "ရာၚ်ဆာဲ": 8724,
      "ဘိက္ခဝေ": 8725,
      "စက္ခု": 8726,
      "Legitimacy": 8727,
      "ဂန္ဓ": 8728,
      "ဍိုဟ်": 8729,
      "သုကျဳ": 8730,
      "သၠုဲ": 8731,
      "နာဲအံင်": 8732,
      "မဒှ်အရာ": 8733,
      "အတွ": 8734,
      "ဒဳဇြ": 8735,
      "မုက်မတ်": 8736,
      "amil": 8737,
      "ဂတှ်ေ": 8738,
      "ဗျဉ်": 8739,
      "သ္ၚာရ": 8740,
      "က္တဵုဒှ်မၞိဟ်": 8741,
      "ရိုဟ်ပါၚ်": 8742,
      "ပ္ဍဲကာလမွဲအခိၚ်": 8743,
      "ife": 8744,
      "သရဏ": 8745,
      "လီုလာ်ရ": 8746,
      "န္နဝါရဳ": 8747,
      "ပွဳပွူသဘာဝ": 8748,
      "ရီုဗင်ကဵု": 8749,
      "ဝိပဿဳ": 8750,
      "ရာသဳဥတု": 8751,
      "ဗာရာဏ": 8752,
      "Sal": 8753,
      "az": 8754,
      "hav": 8755,
      "pen": 8756,
      "တမြ": 8757,
      "၆၉": 8758,
      "ပ္ဍဲခဏ": 8759,
      "သ္ဘၚ်": 8760,
      "ဂၠိ": 8761,
      "ကလအ်": 8762,
      "ကွာန်ဝွံ": 8763,
      "သ္ပကမ်": 8764,
      "ise": 8765,
      "ဒဳမဵု": 8766,
      "ဂျေတ်": 8767,
      "လဵုရော": 8768,
      "၂၀၂၆": 8769,
      "aya": 8770,
      "အေန်ဒဝ်": 8771,
      "ကရေဲ": 8772,
      "စုက်လုက်": 8773,
      "ဥပဒေသဇိုင်": 8774,
      "']": 8775,
      "าว": 8776,
      "ပကီု": 8777,
      "ဗပိုန်": 8778,
      "မုန်": 8779,
      "မစှ်ေ": 8780,
      "လယ": 8781,
      "ၜံင်": 8782,
      "ဂှ်တုန်": 8783,
      "မွဲမ္ဂး": 8784,
      "ညးတာလျိုင်": 8785,
      "သ္ပဥပေါသ်": 8786,
      "တ္ၚဲသိုက်": 8787,
      "ညိအဴ": 8788,
      "ဂရၚ်": 8789,
      "လှန်": 8790,
      "ဆာန်ဍူ": 8791,
      "ublish": 8792,
      "အတိုၚ်လၟေၚ်": 8793,
      "gram": 8794,
      "က္ၜင်ကျာ": 8795,
      "Health": 8796,
      "မနော": 8797,
      "မတွဟ်ဂး": 8798,
      "တမ္ညဝ်": 8799,
      "Govern": 8800,
      "ve": 8801,
      "่อ": 8802,
      "ဂဇံ": 8803,
      "တမ္ၚ": 8804,
      "ဓီု": 8805,
      "နိက်": 8806,
      "ကဵုသၟိၚ်": 8807,
      "နွံၜိုတ်": 8808,
      "တ္ၚဲတုဲ": 8809,
      "တၞဟ်နကဵု": 8810,
      "ဒၞာဲဂှ်": 8811,
      "မနွံယၟု": 8812,
      "န္တရ": 8813,
      "ကတဵုဒှ်ကၠုၚ်": 8814,
      "စုတ်ပ္ဍဲ": 8815,
      "ပွိုင်ဍုင်ပံင်": 8816,
      "ဍိက်ဗြဴ": 8817,
      "သက္ကရာဇ်ဍုၚ်": 8818,
      "ပၟိက်ဆန္ဒ": 8819,
      "သိုၚ်သ္ၚိ": 8820,
      "Jul": 8821,
      "Mic": 8822,
      "Sem": 8823,
      "vis": 8824,
      "စစၞ": 8825,
      "၆၅": 8826,
      "တုဲမှ": 8827,
      "ပရေင်ဂီုကၠီု": 8828,
      "ကေတ်နၚ်": 8829,
      "ဇြုင်": 8830,
      "အတး": 8831,
      "ပၟိၚ်": 8832,
      "ကအ်ကြိက်": 8833,
      "ပဒတဴရ": 8834,
      "ဂၠိုင်နူ": 8835,
      "ကသူ": 8836,
      "သီအဝဵု": 8837,
      "ကလေင်စဴ": 8838,
      "နေရတိ": 8839,
      "Char": 8840,
      "system": 8841,
      "peri": 8842,
      "ယိုက်ဂၠေင်လဝ်": 8843,
      "တုပ်တဴညံၚ်ရဴ": 8844,
      "evelopment": 8845,
      "Journal": 8846,
      "Net": 8847,
      "စကဵု": 8848,
      "ထဝါဲ": 8849,
      "ပ္ဍဲဂၠးကဝ်": 8850,
      "ဒှ်လိက်": 8851,
      "ဂွံဇၞး": 8852,
      "တံဝွံ": 8853,
      "ပွမဖန်ဗဒှ်": 8854,
      "တၞမ်": 8855,
      "ဝိညာဏ်": 8856,
      "ဒဳဇြေန်": 8857,
      "ခရော်": 8858,
      "ကောမ်ပျူတာ": 8859,
      "တၠပညာတအ်": 8860,
      "လဟိင်": 8861,
      "ကယျိုၚ်": 8862,
      "ဗြဟ္မဳ": 8863,
      "Intelligence": 8864,
      "သွက်ဂွံပကောံစွံလဝ်": 8865,
      "52": 8866,
      "Oct": 8867,
      "gen": 8868,
      "pers": 8869,
      "เป": 8870,
      "ဆတ္တဝ်": 8871,
      "ဓန": 8872,
      "ဘာ်": 8873,
      "မဏ္ဍ": 8874,
      "လစှ်ေ": 8875,
      "ဝဋ်": 8876,
      "ကျောက်": 8877,
      "သၞာ်": 8878,
      "ခမဳတြုံ": 8879,
      "ဍုင်အိန္ဒိယ": 8880,
      "သွက်ဘဝ": 8881,
      "ဟီုတွဟ်": 8882,
      "မိတ္တ": 8883,
      "icode": 8884,
      "ဂၞသၟိင်": 8885,
      "မၞုံကဵုအစောံသတ္တိ": 8886,
      "သ္ဂးတဴ": 8887,
      "iver": 8888,
      "အကြား": 8889,
      "197": 8890,
      "ဇၟာပ်မၞိဟ်": 8891,
      "acc": 8892,
      "ပံၚ်ပကောံ": 8893,
      "ပြည်နယ်": 8894,
      "ဖ္အိုတ်": 8895,
      "သ္ဂးကဵုခမဳဂမၠိုၚ်ရ": 8896,
      "အမြာဲ": 8897,
      "ကိုဝ်ရဳယျာ": 8898,
      "ဂရင်ပတီ": 8899,
      "ညွတ်": 8900,
      "အရဟတ္တ": 8901,
      "ပဋိမာရုပ်": 8902,
      "နဓရ်ပတောံ": 8903,
      "ဗာရာဏသဳ": 8904,
      "Gener": 8905,
      "Mil": 8906,
      "Ter": 8907,
      "['": 8908,
      "မဏိ": 8909,
      "ယခေင်": 8910,
      "ဒှ်သၞောတ်": 8911,
      "အာဂီု": 8912,
      "မွဲကီုရ": 8913,
      "alk": 8914,
      "ဂကောံမန်": 8915,
      "သွက်ဂွံဒှ်": 8916,
      "ရိန်": 8917,
      "ပန်ဇကု": 8918,
      "ဂၠိုင်တုဲ": 8919,
      "သွာၚ်": 8920,
      "Phys": 8921,
      "ctions": 8922,
      "ဗစာရဏာ": 8923,
      "Burma": 8924,
      "ဂတာပ်အခေတ်": 8925,
      "Modern": 8926,
      "ပဌမၛာန်": 8927,
      "တြိဘုဝနာ": 8928,
      "ပြောဟိတ်": 8929,
      "Culture": 8930,
      "Web": 8931,
      "ဗဂိန်": 8932,
      "သတဳ": 8933,
      "သက္ကု": 8934,
      "ဟုဲ": 8935,
      "အယုတ်": 8936,
      "အကး": 8937,
      "မ္ဗိ": 8938,
      "ညးဒေသ": 8939,
      "ညးဟွံသေၚ်ကဵု": 8940,
      "နကဵုသၞောတ်": 8941,
      "ပိုဲဂှ်": 8942,
      "ဝိန္ဒ": 8943,
      "ပေါမ်": 8944,
      "ဇာန္နဝါရဳ": 8945,
      "မပကောံ": 8946,
      "ogle": 8947,
      "Theory": 8948,
      "ရမျာင်": 8949,
      "ဇဳဝဗေဒ": 8950,
      "မဂၠိုင်ကဵု": 8951,
      "တွံကဵုဂလာန်ဓရ်": 8952,
      "ID": 8953,
      "Ob": 8954,
      "Sm": 8955,
      "back": 8956,
      "ညှာ": 8957,
      "ဝိုၚ်": 8958,
      "တုတ်": 8959,
      "တုက်": 8960,
      "ၠိုဟ်": 8961,
      "ဟွံသၟဟ်ရထ": 8962,
      "အိုတ်စိုအ်": 8963,
      "သုဒိန်": 8964,
      "ထ္ၜးဆန္ဒ": 8965,
      "သမ္တီထေင်ကေတ်": 8966,
      "က္ဍိုပ်လိက်": 8967,
      "ဇနး": 8968,
      "Aug": 8969,
      "We": 8970,
      "put": 8971,
      "ဆာ": 8972,
      "ရက္ခ": 8973,
      "သကဝ်": 8974,
      "၇၅": 8975,
      "ပ္ဍဲလောက": 8976,
      "တုဲလေဝ်": 8977,
      "လဝ်စိုတ်": 8978,
      "ဒးစိုတ်": 8979,
      "နူဌာန်": 8980,
      "ating": 8981,
      "တြဟ်": 8982,
      "သုရာ": 8983,
      "အခိၚ်မဗဗွဲ": 8984,
      "ome": 8985,
      "ကလိဂွံလဝ်": 8986,
      "2017": 8987,
      "ived": 8988,
      "တက်ကျာ": 8989,
      "ပတိုန်လဝ်": 8990,
      "States": 8991,
      "ote": 8992,
      "၁၂၈": 8993,
      "ဗၠာဲသၟိင်": 8994,
      "ရဴဝွံမ္ဂးညး": 8995,
      "aka": 8996,
      "ရေင်သကအ်တုဲ": 8997,
      "ဉာဏ်စက်": 8998,
      "ဝေင်ပါဲ": 8999,
      "ပြုပြေၚ်": 9000,
      "Artificial": 9001,
      "brid": 9002,
      "အဝေါၚ်": 9003,
      "ဒဳမဵုကရေဇြဳ": 9004,
      "Lear": 9005,
      "var": 9006,
      "တိုး": 9007,
      "နဂလာန်": 9008,
      "မဂှ်": 9009,
      "မသ္": 9010,
      "မပြံင်လှာဲ": 9011,
      "ကုဍုင်": 9012,
      "ator": 9013,
      "ပရေင်ချဳဓရာင်": 9014,
      "ene": 9015,
      "ပၠန်မ္ဂး": 9016,
      "ဘာသာဗေဒ": 9017,
      "ကမၠက်": 9018,
      "ညးဍုင်ကွာန်တအ်": 9019,
      "ကၠောန်ဗဒှ်လဝ်": 9020,
      "Sept": 9021,
      "ဇာတိကွာန်": 9022,
      "မဂပ်ဝ်ဂြောပ်ဗ္ဒန်လဝ်ၜါဂိတု": 9023,
      "ညီညွတ်": 9024,
      "အလံင်အမာတ်": 9025,
      "07": 9026,
      "Ox": 9027,
      "Script": 9028,
      "lik": 9029,
      "နေဝ်": 9030,
      "ပ္ဍဲလ္တူ": 9031,
      "ကုမ္မာ": 9032,
      "ကြည်": 9033,
      "မာလာ": 9034,
      "ၜါဇကု": 9035,
      "နိက": 9036,
      "ဒၟံင်ဂှ်": 9037,
      "ကၠောန်ကၠုင်": 9038,
      "ste": 9039,
      "တင်လ": 9040,
      "၁၃၀": 9041,
      "သမ္တီလဝ်": 9042,
      "လောန်အာ": 9043,
      "ခၞိင်": 9044,
      "စိစောန်": 9045,
      "own": 9046,
      "မကဵုလဝ်": 9047,
      "ပုၚ်သွ": 9048,
      "သတ္တု": 9049,
      "တၠဳပိုန်": 9050,
      "လၞုဟ်": 9051,
      "ယံဇာတ": 9052,
      "ဍာ်ရမတ်": 9053,
      "းရင်း": 9054,
      "den": 9055,
      "mit": 9056,
      "pect": 9057,
      "ဂဟ်": 9058,
      "ဗေတ်": 9059,
      "ဗရိုတ်": 9060,
      "ယိ": 9061,
      "ဂှ်ဒှ်တုဲ": 9062,
      "သွိုန်": 9063,
      "သွက်ဂကူ": 9064,
      "ဟီုလဴဗ္စ": 9065,
      "ကလောံ": 9066,
      "ဍာ်လ": 9067,
      "အရာဝတ္ထု": 9068,
      "ပၟင်": 9069,
      "ဓဝ်ပတှ်ေ": 9070,
      "ouse": 9071,
      "တၞဟ်နဂွံ": 9072,
      "သၟးရ": 9073,
      "တၠဂုဏ်အစာ": 9074,
      "ပြည်သူ့": 9075,
      "02": 9076,
      "43": 9077,
      "Afr": 9078,
      "Ty": 9079,
      "bet": 9080,
      "set": 9081,
      "ဗုတ်": 9082,
      "တုဲဆ": 9083,
      "ချေတ်": 9084,
      "နကဵုနဲ": 9085,
      "လၟိုၚ်": 9086,
      "အရၚ်": 9087,
      "ကၞု": 9088,
      "လျုင်": 9089,
      "ဒုင်ဝန်": 9090,
      "မုက္ခ": 9091,
      "ကတဵုဒှ်ရ": 9092,
      "အာတ်ပါန်": 9093,
      "အဝဵုအာဏာ": 9094,
      "ခ္ဍဲ": 9095,
      "Prof": 9096,
      "တပ်တး": 9097,
      "ၜူမာဲ": 9098,
      "xx": 9099,
      "ထိ": 9100,
      "ဘပဠ": 9101,
      "တအ်ဏအ်": 9102,
      "atural": 9103,
      "ဟီုမ္ဂး": 9104,
      "တိုန်ဘာ": 9105,
      "ဝိဝိၚ်": 9106,
      "ကမၠောန်ပွ": 9107,
      "သၚ်ရ": 9108,
      "ုန်း": 9109,
      "အခေါန်": 9110,
      "ကောဒေအ်": 9111,
      "ဓမ္မစေတဳ": 9112,
      "စောဲလာံ": 9113,
      "ဗွဲမဂၠိုင်ဂၠ": 9114,
      "ကမ္မရှေန်": 9115,
      "မိပ်လဟိၚ်": 9116,
      "ယိုက်ဂၠေၚ်": 9117,
      "ဖြစ်သည်": 9118,
      "ခဲ့သည်": 9119,
      "အေတ်သ": 9120,
      "ပျဲပျာံ": 9121,
      "ဒွါရဝတဳ": 9122,
      "မဂဓရး": 9123,
      "Af": 9124,
      "Log": 9125,
      "ဂဇ": 9126,
      "ၜဝ်": 9127,
      "ပ္ဍဲသဘင်": 9128,
      "မွဲလက်": 9129,
      "ကျာ်ထာဝရ": 9130,
      "ေါဝ်": 9131,
      "နာၚ်": 9132,
      "မၞိဟ်ဇၞော်": 9133,
      "လၟေတ်": 9134,
      "နိဒါန်": 9135,
      "၂၀၁၇": 9136,
      "their": 9137,
      "ဂိတုဖဝ်ရဂိုန်": 9138,
      "ဂျေ": 9139,
      "2015": 9140,
      "2013": 9141,
      "စှ်သုန်": 9142,
      "ဒ္ဂေတ်မပြဲ": 9143,
      "အင်ဝ": 9144,
      "အခေါၚ်အရာ": 9145,
      "osop": 9146,
      "ection": 9147,
      "စုတိအာ": 9148,
      "ပတေဟ်": 9149,
      "စဳကၠးဆိုက်ဗ္ဒက်တုဲ": 9150,
      "(+": 9151,
      "Law": 9152,
      "Ver": 9153,
      "ll": 9154,
      "ဆုဲ": 9155,
      "တောၚ်": 9156,
      "ဗဂဵုလဟဵု": 9157,
      "ဟောံ": 9158,
      "အၚ": 9159,
      "ၜံၚ်": 9160,
      "မွဲလှေ်": 9161,
      "အချ": 9162,
      "includ": 9163,
      "ပွမဒှ်": 9164,
      "ဟီုတိုန်": 9165,
      "ပရေင်ဆက်စပ်": 9166,
      "သုဘ": 9167,
      "သွက်ဂွံကဵု": 9168,
      "လာၚ်": 9169,
      "နုဘဴ": 9170,
      "အဲဍိက်ဗြဴ": 9171,
      "တိုင်းရင်း": 9172,
      "တော်ကော်": 9173,
      "အာစိုပ်အာပတ်သံဃာဒိသေသ်": 9174,
      "ဒတုံစှ်ေ": 9175,
      "အာဇာနဲ": 9176,
      "ele": 9177,
      "าร": 9178,
      "ဒန်": 9179,
      "နီ": 9180,
      "နနဲ": 9181,
      "လတ်": 9182,
      "သၠိုက်": 9183,
      "င်တုဲ": 9184,
      "ပ္ဍဲကမၠောန်": 9185,
      "ပ္ဍဲဇြပ်": 9186,
      "ဒှ်ကျာ်": 9187,
      "ဂွံလာဘ်": 9188,
      "ဒးချိုတ်": 9189,
      "သၞသတြု": 9190,
      "လေဝ်ဟွံ": 9191,
      "လေဝ်ကောန်": 9192,
      "ကောန်ကွး": 9193,
      "ကလံ": 9194,
      "ရောဂါ": 9195,
      "မာရ်": 9196,
      "အဲနာဲ": 9197,
      "နိဓိ": 9198,
      "ဗွဲမဇၞော်ကဵုဒြဟတ်": 9199,
      "ister": 9200,
      "သုတေသီ": 9201,
      "ရံၚ်ကဵု": 9202,
      "ထေဲပၞတ်": 9203,
      "Global": 9204,
      "သံဂါယန": 9205,
      "September": 9206,
      "page": 9207,
      "ထိုက်": 9208,
      "သေပ်": 9209,
      "ေယ်": 9210,
      "မွဲနဲ": 9211,
      "ဘာတုဲ": 9212,
      "ဘာကောန်ဂကူမန်": 9213,
      "ကြေဝ်": 9214,
      "ကေတ်တ်": 9215,
      "ဂကောံဂှ်": 9216,
      "ထ္ပက်": 9217,
      "ကတ်ဗ္တောန်": 9218,
      "တန်တဴအာ": 9219,
      "ဟီုသ္ဂးမ္ဂး": 9220,
      "ယးမတ်ၜါ": 9221,
      "မဒးဒ္ဂေတ်": 9222,
      "ပံင်ကောံတုဲ": 9223,
      "ဒမၠု": 9224,
      "years": 9225,
      "ဇၞောဝ်မတ်": 9226,
      "ဒၠိုက်ကတဵုနူ": 9227,
      "တြိဘုဝနာဒိတျ": 9228,
      "August": 9229,
      "cer": 9230,
      "ky": 9231,
      "ket": 9232,
      "ี่": 9233,
      "ခဝ်": 9234,
      "ဇရာ": 9235,
      "သဏ္ဌာန်": 9236,
      "၅၁": 9237,
      "ဍုင်ရေဝ်": 9238,
      "ဍုင်ဗုကာံ": 9239,
      "သ္ပခမဳ": 9240,
      "အလာ": 9241,
      "eder": 9242,
      "let": 9243,
      "ကၟဳ": 9244,
      "လောန်ကာဲ": 9245,
      "emb": 9246,
      "စှ်ော": 9247,
      "ဗွဲမဗဗွဲ": 9248,
      "ဂၠာဲသ္ၚေဝ်": 9249,
      "လျိုင်ပတှ်ေ": 9250,
      "−−−": 9251,
      "ပ္တောံ": 9252,
      "ဂိုင်ကေတ်": 9253,
      "သောၚ်ကလး": 9254,
      "nowledge": 9255,
      "English": 9256,
      "ငါး": 9257,
      "တိုင်းရင်းသား": 9258,
      "32": 9259,
      "Kar": 9260,
      "ဆင်": 9261,
      "ဋဳ": 9262,
      "ဏောဝ်": 9263,
      "ဒရ": 9264,
      "နာန်": 9265,
      "ပး": 9266,
      "လို": 9267,
      "သယံဇာတ": 9268,
      "ဥတ္တရ": 9269,
      "တိံ": 9270,
      "ချေဟ်": 9271,
      "ဂကူရ": 9272,
      "ကၠောန်ပ္တိတ်": 9273,
      "မလဴ": 9274,
      "theast": 9275,
      "ယွံခမဳတံ": 9276,
      "လှိၚ်": 9277,
      "တံဂှ်ကီု": 9278,
      "istor": 9279,
      "ဗောဓိသတ်တုဲ": 9280,
      "ရိုဟ်တ္ၚဲ": 9281,
      "ပုတ္တ": 9282,
      "ပကောံပကေဝ်": 9283,
      "သ္ကိုပ်ပၞာန်": 9284,
      "ဗဒင်": 9285,
      "ပြိုင်ပ္ကာန်": 9286,
      "စၚ်္": 9287,
      "Google": 9288,
      "Learning": 9289,
      "(,": 9290,
      "Core": 9291,
      "met": 9292,
      "ဗဇဴ": 9293,
      "လပုဟ်": 9294,
      "သမတ": 9295,
      "အသၚ်ဃ": 9296,
      "ဥက္": 9297,
      "၇၆": 9298,
      "ိုယ်": 9299,
      "ကဵုဝိနယ်": 9300,
      "မွဲအလန်": 9301,
      "ဒးဟီု": 9302,
      "အိုတ်ဟေၚ်ရ": 9303,
      "ဍုင်လၟိုင်": 9304,
      "than": 9305,
      "သၟိၚ်နာ်": 9306,
      "ကၠုၚ်ကဵု": 9307,
      "ယာဂု": 9308,
      "ဗော်ပၠတရဴ": 9309,
      "သေန": 9310,
      "ပွိုင်ဍုင်လှာဒကှ်": 9311,
      "ဗက်ဂၠာဲ": 9312,
      "ument": 9313,
      "ဂေါတ": 9314,
      "သောတာ": 9315,
      "အစည်း": 9316,
      "oss": 9317,
      "ပရိယတ္တိမန်": 9318,
      "ဇူဒီု": 9319,
      "ဟောရာ": 9320,
      "စိုန်သကီု": 9321,
      "ဂဥုပ်ဗိုလ်": 9322,
      "မစိုန်ဒှ်တဴ": 9323,
      "ကော်ပၠုပ်အဗ္ဘာန်": 9324,
      "အမ်သဝ်": 9325,
      "42": 9326,
      "ied": 9327,
      "ဍာ": 9328,
      "ပတၠ": 9329,
      "လောင်": 9330,
      "လပိုက်": 9331,
      "မ္ဗ": 9332,
      "ကျောင်း": 9333,
      "ဗြံက်": 9334,
      "ဍုၚ်မတ်မလီု": 9335,
      "တ္ၚဲသ္ၚိသဝ်": 9336,
      "itary": 9337,
      "မၞုံကဵုခမဳ": 9338,
      "လွင်": 9339,
      "state": 9340,
      "ကၟတ်": 9341,
      "တုပ်ပ်": 9342,
      "လ္ၚတ်ပရူ": 9343,
      "တြုံဂှ်": 9344,
      "ဗျိ": 9345,
      "အလဵုအသဳပၞာန်": 9346,
      "သီဂွံ": 9347,
      "ဂ္ဂမ": 9348,
      "umber": 9349,
      "မပြဲပြဲ": 9350,
      "မိပ်ဇြိပ်": 9351,
      "ပဲါကၠေံ": 9352,
      "Commun": 9353,
      "ကၠတ်ထဝ်": 9354,
      "တၟာဂလိုင်": 9355,
      "Emp": 9356,
      "Min": 9357,
      "ful": 9358,
      "tra": 9359,
      "ပတ္တိ": 9360,
      "မတိတ်": 9361,
      "မကၠုင်နူ": 9362,
      "ဿကမ်": 9363,
      "ဂှ်ညိ": 9364,
      "ဟွံဗၠး": 9365,
      "ညးမ္ဂး": 9366,
      "သၟိ": 9367,
      "တီလဝ်": 9368,
      "တၟဟ်": 9369,
      "ညံၚ်ကဵု": 9370,
      "ဏီတုဲ": 9371,
      "rop": 9372,
      "ရေင်သ္ကအ်": 9373,
      "ident": 9374,
      "ဖန်ကဵု": 9375,
      "ဂရၚ်ပတီဟိုတ်ပရူပရာဝွံ": 9376,
      "ize": 9377,
      "2005": 9378,
      "ရးနိဂီုဗၟာ": 9379,
      "ဖအောဝ်စကာ": 9380,
      "ဗလိုပ်": 9381,
      "1997": 9382,
      "ညးအုပ်ကာနာနာ": 9383,
      "ဟေမဝန်": 9384,
      "Cit": 9385,
      "cre": 9386,
      "gu": 9387,
      "ဇော်": 9388,
      "ညိင်": 9389,
      "အဘ": 9390,
      "အသေ": 9391,
      "ွယ်": 9392,
      "အာအိုတ်ရ": 9393,
      "ကေံ": 9394,
      "ခမဳပၟိက်အောန်ဂမၠိုၚ်ဂှ်": 9395,
      "ကွိၚ်": 9396,
      "ကီုရောၚ်": 9397,
      "နာရ": 9398,
      "နာဲဆာန်": 9399,
      "နာဲပါန်": 9400,
      "ဒဳပ": 9401,
      "မနွံဒၟံင်": 9402,
      "ကၟဟ်": 9403,
      "လပါ်ဗၟံက်": 9404,
      "2010": 9405,
      "အစာကၞေဟ်": 9406,
      "ists": 9407,
      "အလုံလိုက်": 9408,
      "ဝေဠ": 9409,
      "Concept": 9410,
      "ocal": 9411,
      "အရှာံ": 9412,
      "0630": 9413,
      "မွဲလပါ်ဂှ်": 9414,
      "သ္ၚိတ်သ္ၚိတ်ရ": 9415,
      "October": 9416,
      "တင်လတုပ်စိုတ်": 9417,
      "air": 9418,
      "ထဲ": 9419,
      "နျ": 9420,
      "မစၞောန်ထ္ၜး": 9421,
      "သပိန်": 9422,
      "ပ္ဍဲဝင်": 9423,
      "ညးလဵုမွဲ": 9424,
      "ဒးကေတ်": 9425,
      "မၞိဟ်ဂမၠိုင်": 9426,
      "ဗြေဝ်": 9427,
      "သိက္ခ": 9428,
      "၂၀၀၀": 9429,
      "၂၀၁၆": 9430,
      "္ဂလာ": 9431,
      "ဓဝ်တုဲ": 9432,
      "ivity": 9433,
      "သရာံ": 9434,
      "ကရောဲ": 9435,
      "ထေၚ်ကေတ်": 9436,
      "ဒ္ၚဳ": 9437,
      "ယောင်ယာ": 9438,
      "မာတုဂါမ်": 9439,
      "ဂုံ": 9440,
      "နည်း": 9441,
      "ဗလိုက်": 9442,
      "၆၄": 9443,
      "၉၉": 9444,
      "ပ္ဍဲစၟတ်တ္ၚဲ": 9445,
      "ဂွံမိင်": 9446,
      "ons": 9447,
      "သ္ဂးတုဲ": 9448,
      "တၟိဂှ်": 9449,
      "ဒ္ဂေတ်မာနတ်": 9450,
      "ကတ်လိက်": 9451,
      "ပံင်နှဴ": 9452,
      "ပယျာံ": 9453,
      "ယိုက်ဒိုက်": 9454,
      "ပလေဝ်ပလေတ်": 9455,
      "ဍိုန်ဍောတ်": 9456,
      "ဇေယျ": 9457,
      "လောဲသွာရ": 9458,
      "ဂတာပ်ခေတ်": 9459,
      "Class": 9460,
      "အေန်တာနက်": 9461,
      "Southeast": 9462,
      "Central": 9463,
      "မၞုံကဵုအစောံသတ္တိဂှ်": 9464,
      "ခ္ဍဲသဳ": 9465,
      "41": 9466,
      "car": 9467,
      "gl": 9468,
      "hi": 9469,
      "မမိက်": 9470,
      "ကဵုကသပ်": 9471,
      "ပ္ဍဲလအိတ်": 9472,
      "တိင်": 9473,
      "ဒးနွံ": 9474,
      "ဂမၠိုၚ်ဒှ်တုဲ": 9475,
      "ကောန်မၞိဟ်တအ်": 9476,
      "ဇၞော်တုဲ": 9477,
      "ယွံဒကာ": 9478,
      "နာဲမန်": 9479,
      "သၟိၚ်ဂှ်": 9480,
      "ကၠာအိုတ်ဂှ်": 9481,
      "ဒုၚ်ယၟု": 9482,
      "ဗော်ဒဳမဵုကရေဇြဳ": 9483,
      "ပရူဒဒှ်": 9484,
      "မုတ္တမ": 9485,
      "သၟတ်တအ်": 9486,
      "ဗက်စ": 9487,
      "ပုည": 9488,
      "ဒိုက်ဂတ်": 9489,
      "အုပ်ဓလီု": 9490,
      "ယေန": 9491,
      "duction": 9492,
      "ထံင်ကှ်ေ": 9493,
      "မသ္ပလဝ်": 9494,
      "နိယဿကမ်": 9495,
      "ခမၞုဲ": 9496,
      "သစ္ဆု": 9497,
      "Standardization": 9498,
      "่า": 9499,
      "ကပ္ပိ": 9500,
      "ဒဟ်": 9501,
      "ဖု": 9502,
      "လိုင်": 9503,
      "ဝဵု": 9504,
      "သပ်": 9505,
      "သပိုၚ်": 9506,
      "ွဳ": 9507,
      "ဂွံကဵု": 9508,
      "ညးသကအ်": 9509,
      "ပါဋိ": 9510,
      "ကွိင်": 9511,
      "ပရေင်စဵုဒၞာ": 9512,
      "မဒှ်တၞောဝ်ကျာ်": 9513,
      "လပါ်ဗမံက်": 9514,
      "စကာလဝ်": 9515,
      "တြေံဂှ်": 9516,
      "ပိုၚ်ပြဳ": 9517,
      "press": 9518,
      "ကွးဘာတက္ကသိုလ်": 9519,
      "အံင်သာန်သုကျဳ": 9520,
      "ကျိုၚ်ကျဝ်": 9521,
      "ဂယိုၚ်လမျီု": 9522,
      "ပိုက်နုက်ကထိုန်": 9523,
      "စၚ်္ကြမ်": 9524,
      "time": 9525,
      "ခတ်": 9526,
      "နတဲ": 9527,
      "ဖေတ်": 9528,
      "ဘဂ": 9529,
      "ရိုင်": 9530,
      "လမ": 9531,
      "အဟာန်": 9532,
      "ဟွံပိုတ်": 9533,
      "တိဂှ်": 9534,
      "တ္တဵု": 9535,
      "သွက်ဂကူမန်": 9536,
      "orig": 9537,
      "ဂြာ": 9538,
      "ပိဝါ": 9539,
      "ကဏ္ဍသၟတ်": 9540,
      "မဒှ်ဂြပ်": 9541,
      "ဓဝ်ဂှ်": 9542,
      "သင်မန်": 9543,
      "ဇာတာ": 9544,
      "ဂုဏ်ဖိုလ်": 9545,
      "ဗုဒ္ဓသာသနာ": 9546,
      "နှင်": 9547,
      "စဳဇန်": 9548,
      "အာစိုပ်ဒတုဲ": 9549,
      "ညးတအ်ရ": 9550,
      "ဂိုၚ်ဒေပ်": 9551,
      "ဇွောံ": 9552,
      "ပြာပ်လုပ်ဒဂိုန်": 9553,
      "မၚ်မွဲလဝ်": 9554,
      "အသိၚ်": 9555,
      "ဒှ်အရာမ": 9556,
      "pport": 9557,
      "ဗိမ္ဗိ": 9558,
      "Scientific": 9559,
      "ဒဳဂျဳတေဝ်": 9560,
      "နိဿဂ္ဂိပါဲစိုတ်ရ": 9561,
      "Analysis": 9562,
      "Tra": 9563,
      "ပခမဳ": 9564,
      "ရထာ": 9565,
      "သကာတ်မြဟ်": 9566,
      "အဂ္ဂမ": 9567,
      "ဂွံတုဲ": 9568,
      "ကုဂကောံ": 9569,
      "ဗြန်": 9570,
      "န္ဒဳ": 9571,
      "တ္ၚဲဗုဒ္ဓဝါ": 9572,
      "လုပ်ကၠုင်": 9573,
      "ပၟဲ": 9574,
      "အခိၚ်အခါ": 9575,
      "ဒေါန်": 9576,
      "ခရံက်": 9577,
      "ပ္ဍဲဘာဂှ်": 9578,
      "opt": 9579,
      "သာရဏဳ": 9580,
      "150": 9581,
      "မ္ၚးသိမ်": 9582,
      "မုဟိုတ်ရော": 9583,
      "လအိတ်လမျီု": 9584,
      "Comput": 9585,
      "ဗှ်လိက်တအ်": 9586,
      "သက်သက်ရ": 9587,
      "သ္ဒးဟီုတိုန်ရ": 9588,
      "Psychology": 9589,
      "ဂကောံရာမညဓမ္မာစရိယ": 9590,
      "Media": 9591,
      "Writ": 9592,
      "ဆုံး": 9593,
      "မကေၚ်": 9594,
      "ယောန်": 9595,
      "အိ": 9596,
      "အထံက်": 9597,
      "ၜုန်": 9598,
      "ကဵုဇကု": 9599,
      "ကဵုဒေံ": 9600,
      "အာယှ": 9601,
      "ညးတအ်ဂှ်": 9602,
      "ညးချူ": 9603,
      "ဂမၠ": 9604,
      "ပါမောက္ခ": 9605,
      "နူပွမ": 9606,
      "နူကွာန်": 9607,
      "သာဓ": 9608,
      "နွံအိုတ်ရ": 9609,
      "လ္လာ": 9610,
      "ဝါဒါ": 9611,
      "ဍုၚ်ရ": 9612,
      "ဇြေဟ်": 9613,
      "ရးတၞင်သဳ": 9614,
      "လှဲ": 9615,
      "အ္စာသဝ်": 9616,
      "ကရု": 9617,
      "ဍောတ်ဍောတ်": 9618,
      "cient": 9619,
      "ments": 9620,
      "ခၠအ်": 9621,
      "All": 9622,
      "သီုမတီတဴ": 9623,
      "ferences": 9624,
      "ဂ္ညိဂ္": 9625,
      "လျှင်": 9626,
      "မြေက္ကသ": 9627,
      "ဗ္ဂဲ": 9628,
      "ကမ်မၞုံကဵုအခိၚ်မဗဗွဲ": 9629,
      "Democ": 9630,
      "AN": 9631,
      "Fran": 9632,
      "ကတိုင်": 9633,
      "ဍိုပ်": 9634,
      "ထကး": 9635,
      "ဗတဳ": 9636,
      "ဝန္တ": 9637,
      "ဝေပ်": 9638,
      "ဒှ်ဒေသ": 9639,
      "သ္တိက်": 9640,
      "ဂးရ": 9641,
      "ဟွံဂံၚ်": 9642,
      "ကျုတ်": 9643,
      "မန်တုဲ": 9644,
      "only": 9645,
      "ေါတ်": 9646,
      "ၜါပြကာ": 9647,
      "က္ခန္ဓ": 9648,
      "ဒဳယော": 9649,
      "agement": 9650,
      "စုဒေပ်လဝ်": 9651,
      "အက္ခရ်ဗြဟ္မဳ": 9652,
      "ပဋိသာရဏဳ": 9653,
      "မဟီုဂလာန်": 9654,
      "ယုတ္တ": 9655,
      "အဳဂျ": 9656,
      "ဗိုင်ကဵု": 9657,
      "ကၠာဲဘာသာ": 9658,
      "ပါလိတ": 9659,
      "53": 9660,
      "86": 9661,
      "Her": 9662,
      "Val": 9663,
      "more": 9664,
      "ัน": 9665,
      "ဂုတ်": 9666,
      "ဇတ်": 9667,
      "ဏှ": 9668,
      "မဴ": 9669,
      "ပ္တေအ်": 9670,
      "ကုအဲရ": 9671,
      "သၞက်": 9672,
      "အခက်": 9673,
      "န္တေ": 9674,
      "အဲမ": 9675,
      "ကၠုၚ်လဝ်": 9676,
      "ပလက်": 9677,
      "စွံစိုတ်": 9678,
      "ကျာက်": 9679,
      "သင်လုပ်ဒဂိုန်": 9680,
      "ဂပ်ဝ်ကဵု": 9681,
      "ဗွဲမလှဲလး": 9682,
      "ဗွဲမလောဲသွာ": 9683,
      "ဗ္တောန်ကဵု": 9684,
      "ants": 9685,
      "ပူဂဵုမွဲ": 9686,
      "အဘိဓမ္မ": 9687,
      "သမထ": 9688,
      "ification": 9689,
      "ဇဲယျ": 9690,
      "ယေတ်နာမ်": 9691,
      "Network": 9692,
      "သရာံပါပ်": 9693,
      "ule": 9694,
      "ved": 9695,
      "မကၠုင်": 9696,
      "မိုး": 9697,
      "အုတ်": 9698,
      "ဥရု": 9699,
      "၆၈": 9700,
      "တုဲကီု": 9701,
      "တိဗ္ၚ": 9702,
      "ဒးဂၞပ်": 9703,
      "ဂကူနာနာ": 9704,
      "ဝါဗ္ၚ": 9705,
      "မိကဵုမ": 9706,
      "ဆက်စၠောံ": 9707,
      "ဍေံကဵု": 9708,
      "ကၞိပ်": 9709,
      "ဒဳဃ": 9710,
      "တဲတုဲ": 9711,
      "မံၚ်ကဵု": 9712,
      "ဖျေံကၠေံ": 9713,
      "အစောန်": 9714,
      "ပလီုထောအ်": 9715,
      "ဂၞကျာ်မဒ္ဒဳ": 9716,
      "အဳတလဳ": 9717,
      "၁၉၉၀": 9718,
      "ပျးဒိုဟ်": 9719,
      "ဇနပိုဒ်": 9720,
      "မဟဂပ်ဝ်ဂြောပ်ဗ္ဒန်လဝ်": 9721,
      "ဟိုတ်နူဟိုတ်အရာဝွံ": 9722,
      "လဗး": 9723,
      "ပညဳပညပ်": 9724,
      "51": 9725,
      "Coun": 9726,
      "tit": 9727,
      "ဆုတ်": 9728,
      "ဇယ": 9729,
      "ဗန္ဓ": 9730,
      "မခိုင်ကၠိုက်": 9731,
      "သကတ်": 9732,
      "ဟေန်": 9733,
      "ဣဏအ်ဂှ်": 9734,
      "၇၄": 9735,
      "၇၈": 9736,
      "အာကီု": 9737,
      "ဂွံစိုပ်": 9738,
      "ကုံ": 9739,
      "ကျောဝ်": 9740,
      "တအ်ဂှ်ရ": 9741,
      "လေဝ်ဂွံ": 9742,
      "အခဝ်": 9743,
      "တြာ": 9744,
      "ဟိုတ်ဂှ်": 9745,
      "arg": 9746,
      "ication": 9747,
      "icles": 9748,
      "ဝိဟာရ": 9749,
      "သ္ၚိဌာန်": 9750,
      "ဒေသစာ": 9751,
      "urn": 9752,
      "သၟတ်ဝုတ်": 9753,
      "ဒဂိုန်ဂိုၚ်ကေတ်": 9754,
      "မိက်ဂွံကဵု": 9755,
      "ပကတိ": 9756,
      "ဗွဲသၟဝ်ဏအ်": 9757,
      "အလဵုဇကုလေဝ်": 9758,
      "ဟွံမဲကဵု": 9759,
      "ဟွံထေက်ကဵုသ္ပရ": 9760,
      "လက္ကရဴအိုတ်": 9761,
      "grou": 9762,
      "ဗြဟ္မဒ": 9763,
      "မၞုံကဵုသၠေဟ်ပၟာမ္ဂး": 9764,
      "သ္ဒးကဵုတီရ": 9765,
      "စ္ၜော်": 9766,
      "\")": 9767,
      "$)": 9768,
      "Lingu": 9769,
      "York": 9770,
      "sm": 9771,
      "you": 9772,
      "ခတ": 9773,
      "ခေန်": 9774,
      "ဖံင်": 9775,
      "ဝိုန်": 9776,
      "ဝဲါ": 9777,
      "အကံက်": 9778,
      "ဥတ္တမ": 9779,
      "ကၠင်": 9780,
      "သ္ကာ": 9781,
      "ဒးစုတ်": 9782,
      "သၞံၚ်": 9783,
      "ဇၞိက်": 9784,
      "into": 9785,
      "မၞုံအလေံ": 9786,
      "orn": 9787,
      "ဍာ်သုၚ်": 9788,
      "မလွဳ": 9789,
      "လွှ": 9790,
      "ဗော်ဍုၚ်မန်": 9791,
      "ပြာသာတ်": 9792,
      "မရုဲ": 9793,
      "image": 9794,
      "တြေံတြဟ်": 9795,
      "သွား": 9796,
      "ပေင်ပေင်": 9797,
      "ပ္ဍဲဍုင်သေံ": 9798,
      "Unicode": 9799,
      "ခ္ဍက်": 9800,
      "ဘူမိ": 9801,
      "စိုတ်မမိက်": 9802,
      "ယွံနာဲဗြဴတအ်": 9803,
      "ဒမျိုင်": 9804,
      "ၐြဳ": 9805,
      "ဗ္ဗာဇ": 9806,
      "တ္ၜန်တ္ၜ": 9807,
      "ဒဳဇြေန်ပါ": 9808,
      "ပဋိသာရဏဳယကမ်": 9809,
      "Gen": 9810,
      "ลา": 9811,
      "ဂၚ်": 9812,
      "ဇရုၚ်": 9813,
      "လဇု": 9814,
      "ၜှ်": 9815,
      "ကဵုစိုတ်": 9816,
      "အာတရဴ": 9817,
      "ဟွံပါ": 9818,
      "ပိုည်": 9819,
      "လေဝ်ကဵုဒှ်": 9820,
      "သီုညးၜါ": 9821,
      "သွက်ဂွံဖန်ဗဒှ်": 9822,
      "ဍေံရ": 9823,
      "ဏံတုဲ": 9824,
      "ဂပ်ဝ်သ္ပ": 9825,
      "ury": 9826,
      "ဆဵုညာတ်": 9827,
      "ပရာပ်": 9828,
      "တြဴစှော်": 9829,
      "အေအာင်": 9830,
      "ၜိုဟ်လလမ်": 9831,
      "အဳရာန်": 9832,
      "ပြေၚ်ဂၠဴ": 9833,
      "ယူနဳကုဒ်": 9834,
      "87": 9835,
      "Aut": 9836,
      "Pal": 9837,
      "sur": 9838,
      "will": 9839,
      "ဌာ": 9840,
      "ဓမံက်": 9841,
      "ၜင်": 9842,
      "တုယ်": 9843,
      "ပ္ဍဲတွဵုရး": 9844,
      "ပ္ဍဲသက္ကရာတ်": 9845,
      "မွဲပၠန်ဂှ်": 9846,
      "ပရၚ်": 9847,
      "ကြဵု": 9848,
      "ကေတ်မာန်": 9849,
      "သၟိၚ်တုဲ": 9850,
      "သမ္ဗုဒ္ဓ": 9851,
      "ဖျိန်": 9852,
      "တေမ်": 9853,
      "ဒၞာဲဏအ်ဂှ်": 9854,
      "သၚ်တီရ": 9855,
      "ဂျာန": 9856,
      "ခိုဟ်အိုတ်": 9857,
      "တွဵုရ": 9858,
      "ပိုယ်တအ်": 9859,
      "မသုန်စှော်": 9860,
      "မိၚ်ဂလာန်": 9861,
      "သကအ်ရဲ": 9862,
      "sex": 9863,
      "ပစ္စယေန": 9864,
      "ကောံဓရီုဇၞော်": 9865,
      "သၟိတ်ပတိုန်": 9866,
      "ဥဒါယဳဂှ်": 9867,
      "အဖွဲ့အစည်း": 9868,
      "အံက်တဝ်ဗါ": 9869,
      "သွိုန်ဗပိုန်": 9870,
      "နျူ": 9871,
      "face": 9872,
      "rol": 9873,
      "wa": 9874,
      "ကဂှ်": 9875,
      "ဇဝ်": 9876,
      "ဗစ": 9877,
      "ဗုင်": 9878,
      "မစပ်": 9879,
      "လမၠ": 9880,
      "၆၃": 9881,
      "ကုန်း": 9882,
      "ဒးစကာ": 9883,
      "ဗွဲဓမ္မတာ": 9884,
      "ဗွဲဟွံဒးရး": 9885,
      "ပွမချူ": 9886,
      "ဟီုစ": 9887,
      "ကလောအ်": 9888,
      "ဂကောံသ္ၚိကၟိန်": 9889,
      "တိုန်ကၠုၚ်": 9890,
      "နာဲအံက်": 9891,
      "မဒှ်ကောန်": 9892,
      "အဓိဋ္ဌာန်": 9893,
      "လၟုဟ်ရ": 9894,
      "တဳလမၞုံပိုဉ်ကျာ်တြဲရ": 9895,
      "ပေၚ်အာယုက်": 9896,
      "မရန်": 9897,
      "ဖျေံဏာ": 9898,
      "မဂွံဒုင်": 9899,
      "အလဵုအသဳဗၟာ": 9900,
      "တၠအဲဂှ်": 9901,
      "ဂွါ": 9902,
      "ဂွဳ": 9903,
      "ဖေက်ဂ": 9904,
      "ကြံၚ်မ္ၚိုဟ်": 9905,
      "ကညင်": 9906,
      "စ္ၜုဲ": 9907,
      "ရမျှာၚ်": 9908,
      "ဘိက္ခုနဳ": 9909,
      "Em": 9910,
      "June": 9911,
      "Sang": 9912,
      "စရိတ်": 9913,
      "ပဗ္ဗာဇ": 9914,
      "မိုင်": 9915,
      "အပ္ပ": 9916,
      "ွံက်": 9917,
      "ဂွံအဓိပ္ပါယ်": 9918,
      "ont": 9919,
      "ကောန်တံ": 9920,
      "မဂျ": 9921,
      "ision": 9922,
      "ဒုၚ်လဝ်": 9923,
      "ဗော်ကောန်ဂကူမန်": 9924,
      "မၞုံပိုဉ်ကျာ်တြဲ": 9925,
      "သဘော": 9926,
      "အ္စာကၞေဟ်": 9927,
      "2014": 9928,
      "ကုခမဳကြအ်ဥမ္မတ်": 9929,
      "ivil": 9930,
      "ဇိုင်ၜဳ": 9931,
      "လောကု": 9932,
      "ဒုက္ကဋ်": 9933,
      "ပြံင်လှာဲအာ": 9934,
      "ရမ္သာင်ဇြိုင်": 9935,
      "အဝ်သတြ": 9936,
      "မၞုံသဘဴရဴဝွံ": 9937,
      "www": 9938,
      "သၞာသတိက်သၞာဒၟံၚ်": 9939,
      "ကရုဏာ": 9940,
      "Liter": 9941,
      "ဒံ": 9942,
      "ပဵု": 9943,
      "ပတုပ်": 9944,
      "မတုပ်သၟဟ်": 9945,
      "လိၚ်": 9946,
      "အမ": 9947,
      "ေလ်": 9948,
      "္ဃ": 9949,
      "ပ္ဍဲဇရေင်": 9950,
      "အာဝါ": 9951,
      "ပြဘာ": 9952,
      "မဳလဳယာန်": 9953,
      "ခမဳဂေါတမ": 9954,
      "ကျာ်ထဝ်": 9955,
      "မ်ဂှ်": 9956,
      "ရောက်": 9957,
[...]
