{
  "version": "1.0",
  "truncation": null,
  "padding": null,
  "added_tokens": [
    {
      "id": 0,
      "content": "<pad>",
      "single_word": false,
      "lstrip": false,
      "rstrip": false,
      "normalized": false,
      "special": true
    },
    {
      "id": 1,
      "content": "<unk>",
      "single_word": false,
      "lstrip": false,
      "rstrip": false,
      "normalized": false,
      "special": true
    },
    {
      "id": 2,
      "content": "<s>",
      "single_word": false,
      "lstrip": false,
      "rstrip": false,
      "normalized": false,
      "special": true
    },
    {
      "id": 3,
      "content": "</s>",
      "single_word": false,
      "lstrip": false,
      "rstrip": false,
      "normalized": false,
      "special": true
    }
  ],
  "normalizer": null,
  "pre_tokenizer": {
    "type": "Sequence",
    "pretokenizers": [
      {
        "type": "Whitespace"
      },
      {
        "type": "Split",
        "pattern": {
          "Regex": "(?<=[ऀ-ॿ஀-௿฀-๿຀-໿က-႟ក-៿一-鿿꤀-꤯])(?=[A-Za-z0-9])|(?<=[A-Za-z0-9])(?=[ऀ-ॿ஀-௿฀-๿຀-໿က-႟ក-៿一-鿿꤀-꤯])"
        },
        "behavior": "Isolated",
        "invert": false
      }
    ]
  },
  "post_processor": null,
  "decoder": null,
  "model": {
    "type": "BPE",
    "dropout": null,
    "unk_token": "<unk>",
    "continuing_subword_prefix": null,
    "end_of_word_suffix": null,
    "fuse_unk": false,
    "byte_fallback": false,
    "ignore_merges": false,
    "vocab": {
      "<pad>": 0,
      "<unk>": 1,
      "<s>": 2,
      "</s>": 3,
      "!": 4,
      "(": 5,
      ")": 6,
      ":": 7,
      "?": 8,
      "[": 9,
      "]": 10,
      "«": 11,
      "»": 12,
      "ក": 13,
      "ខ": 14,
      "គ": 15,
      "ឃ": 16,
      "ង": 17,
      "ច": 18,
      "ឆ": 19,
      "ជ": 20,
      "ឈ": 21,
      "ញ": 22,
      "ដ": 23,
      "ឋ": 24,
      "ឌ": 25,
      "ណ": 26,
      "ត": 27,
      "ថ": 28,
      "ទ": 29,
      "ធ": 30,
      "ន": 31,
      "ប": 32,
      "ផ": 33,
      "ព": 34,
      "ភ": 35,
      "ម": 36,
      "យ": 37,
      "រ": 38,
      "ល": 39,
      "វ": 40,
      "ស": 41,
      "ហ": 42,
      "ឡ": 43,
      "អ": 44,
      "ឤ": 45,
      "ឥ": 46,
      "ឧ": 47,
      "ឪ": 48,
      "ឫ": 49,
      "ឬ": 50,
      "ឭ": 51,
      "ឮ": 52,
      "ឯ": 53,
      "ឱ": 54,
      "ឲ": 55,
      "ា": 56,
      "ិ": 57,
      "ី": 58,
      "ឹ": 59,
      "ឺ": 60,
      "ុ": 61,
      "ូ": 62,
      "ួ": 63,
      "ើ": 64,
      "ឿ": 65,
      "ៀ": 66,
      "េ": 67,
      "ែ": 68,
      "ៃ": 69,
      "ោ": 70,
      "ៅ": 71,
      "ំ": 72,
      "ះ": 73,
      "ៈ": 74,
      "៉": 75,
      "៊": 76,
      "់": 77,
      "៌": 78,
      "៍": 79,
      "៎": 80,
      "៏": 81,
      "័": 82,
      "្": 83,
      "។": 84,
      "៕": 85,
      "៖": 86,
      "ៗ": 87,
      "​": 88,
      "‍": 89,
      "្រ": 90,
      "្ន": 91,
      "ាន": 92,
      "ព្រ": 93,
      "ស់": 94,
      "ព្រះ": 95,
      "ជា": 96,
      "អ្ន": 97,
      "អ្នក": 98,
      "្ដ": 99,
      "បាន": 100,
      "ោះ": 101,
      "ើយ": 102,
      "ដែ": 103,
      "ង្": 104,
      "ល់": 105,
      "ខ្": 106,
      "ាំ": 107,
      "ប់": 108,
      "ុំ": 109,
      "រប": 110,
      "ម្": 111,
      "្នា": 112,
      "របស់": 113,
      "ហើយ": 114,
      "ដែល": 115,
      "ពួ": 116,
      "ពួក": 117,
      "ង្គ": 118,
      "ប្រ": 119,
      "មាន": 120,
      "ស្": 121,
      "្យ": 122,
      "ព្រះអ": 123,
      "។​": 124,
      "ារ": 125,
      "នៅ": 126,
      "ាំង": 127,
      "ុង": 128,
      "ាល់": 129,
      "ពី": 130,
      "ថា": 131,
      "ិត": 132,
      "គ្នា": 133,
      "នោះ": 134,
      "ខ្ញ": 135,
      "ខ្ញុំ": 136,
      "ព្រះអង្គ": 137,
      "េះ": 138,
      "ឲ្យ": 139,
      "ើង": 140,
      "គេ": 141,
      "ាប់": 142,
      "ិន": 143,
      "ឹង": 144,
      "ាត": 145,
      "្វ": 146,
      "ទៅ": 147,
      "និ": 148,
      "ទាំង": 149,
      "ាស់": 150,
      "ក៏": 151,
      "រាល់": 152,
      "រាល់គ្នា": 153,
      "េច": 154,
      "ន្": 155,
      "ោក": 156,
      "ាត់": 157,
      "មក": 158,
      "ក់": 159,
      "ូល": 160,
      "មិន": 161,
      "ត្រ": 162,
      "ាយ": 163,
      "ោយ": 164,
      "លោក": 165,
      "ចាស់": 166,
      "ាង": 167,
      "ក្រ": 168,
      "ម្ចាស់": 169,
      "ដូ": 170,
      "ពួកគេ": 171,
      "ការ": 172,
      "ក្ន": 173,
      "ក្នុង": 174,
      "និង": 175,
      "្ដី": 176,
      "ដូច": 177,
      "នឹង": 178,
      "ប៉": 179,
      "យើង": 180,
      "នេះ": 181,
      "ួយ": 182,
      "ពេ": 183,
      "ក្ដី": 184,
      "ដោយ": 185,
      "បន្": 186,
      "សេច": 187,
      "ាម": 188,
      "សេចក្ដី": 189,
      "វិ": 190,
      "មួយ": 191,
      "គាត់": 192,
      "ណា": 193,
      "ទេ": 194,
      "បន្ទ": 195,
      "គ្រ": 196,
      "ស្ស": 197,
      "្ប": 198,
      "៖​": 199,
      "ុន": 200,
      "ូវ": 201,
      "វិញ": 202,
      "្ល": 203,
      "ស្រ": 204,
      "ូរ": 205,
      "ពេល": 206,
      "ជាម្ចាស់": 207,
      "ព្រះជាម្ចាស់": 208,
      "ូន": 209,
      "ម្រ": 210,
      "មន": 211,
      "ស៊": 212,
      "ស្ដ": 213,
      "ធ្វ": 214,
      "ធ្វើ": 215,
      "ុស្ស": 216,
      "ខ្ល": 217,
      "មនុស្ស": 218,
      "ំព": 219,
      "ុក": 220,
      "អស់": 221,
      "ប៉ុន": 222,
      "្ដែ": 223,
      "ប៉ុន្ដែ": 224,
      "ំណ": 225,
      "បន្ទូល": 226,
      "បី": 227,
      "ដូច្ន": 228,
      "ដល់": 229,
      "លើ": 230,
      "ដែរ": 231,
      "ត្រូវ": 232,
      "តែ": 233,
      "ដើ": 234,
      "ាក់": 235,
      "ចូរ": 236,
      "យេ": 237,
      "តាម": 238,
      "សា": 239,
      "ដូច្នេះ": 240,
      "យ៉": 241,
      "អា": 242,
      "ុះ": 243,
      "ស៊ូ": 244,
      "ែង": 245,
      "ៀត": 246,
      "យេស៊ូ": 247,
      "គឺ": 248,
      "ង់": 249,
      "»​": 250,
      "្នាក់": 251,
      "្អ": 252,
      "ម្បី": 253,
      "ដ្ប": 254,
      "ដ្បិត": 255,
      "ួន": 256,
      "ទៀត": 257,
      "កា": 258,
      "្វី": 259,
      "ំន": 260,
      "អ្វី": 261,
      "អំ": 262,
      "ទី": 263,
      "ឡើយ": 264,
      "ដើម្បី": 265,
      "ម្នាក់": 266,
      "ួល": 267,
      "ឡើង": 268,
      "ើញ": 269,
      "និយ": 270,
      "តើ": 271,
      "ព្រោះ": 272,
      "និយាយ": 273,
      "ចុះ": 274,
      "េញ": 275,
      "ផ្": 276,
      "ថ្": 277,
      "ែន": 278,
      "ឃើញ": 279,
      "ជន": 280,
      "សុ": 281,
      "បើ": 282,
      "ព្រះយេស៊ូ": 283,
      "ក្រុង": 284,
      "រួ": 285,
      "្ញ": 286,
      "បា": 287,
      "កូន": 288,
      "ែក": 289,
      "ាន់": 290,
      "ចិត": 291,
      "ទទ": 292,
      "ាញ": 293,
      "សិ": 294,
      "ពីរ": 295,
      "ចេញ": 296,
      "ខ្លួន": 297,
      "ទទួល": 298,
      "»។​": 299,
      "ឹក": 300,
      "យ៉ាង": 301,
      "ជំន": 302,
      "សម្រ": 303,
      "ជាមួយ": 304,
      "ប្រាប់": 305,
      "បរ": 306,
      "!​": 307,
      "អំពី": 308,
      "បង": 309,
      "ព្រះអម្ចាស់": 310,
      "ទុក": 311,
      "រួច": 312,
      "អ្នកណា": 313,
      "?​": 314,
      "ម៉": 315,
      "បរិ": 316,
      "លាប់": 317,
      "ខាង": 318,
      "ថ្ង": 319,
      "ច្រ": 320,
      "រី": 321,
      "ចិត្ដ": 322,
      "សេ": 323,
      "័យ": 324,
      "គ្រិ": 325,
      "ថ្ងៃ": 326,
      "សារ": 327,
      "ទ្": 328,
      "ទ្ធ": 329,
      "ាក": 330,
      "គ្រិស្ដ": 331,
      "្ញា": 332,
      "សួ": 333,
      "តិ": 334,
      "មែន": 335,
      "សំ": 336,
      "ចូល": 337,
      "មុ": 338,
      "ចំណ": 339,
      "សូ": 340,
      "ុស": 341,
      "គ្": 342,
      "គ្មាន": 343,
      "នាំ": 344,
      "ដឹង": 345,
      "អើយ": 346,
      "មើ": 347,
      "បុ": 348,
      "គ្រប់": 349,
      "កំព": 350,
      "ដា": 351,
      "យក": 352,
      "ក្": 353,
      "កាល": 354,
      "នាង": 355,
      "េត": 356,
      "ើត": 357,
      "្ច": 358,
      "បង្": 359,
      "រូ": 360,
      "លែង": 361,
      "ើន": 362,
      "វា": 363,
      "មើល": 364,
      "កំពុង": 365,
      "ោម": 366,
      "ផ្ទ": 367,
      "សម្រាប់": 368,
      "ប្អ": 369,
      "ប្អូន": 370,
      "ម្ដ": 371,
      "ោស": 372,
      "ិច": 373,
      "សម្": 374,
      "កើត": 375,
      "្ញាណ": 376,
      "កុំ": 377,
      "ល្អ": 378,
      "វិញ្ញាណ": 379,
      "ឹត": 380,
      "រស់": 381,
      "ាញ់": 382,
      "ណ្ដ": 383,
      "ត់": 384,
      "សូម": 385,
      "ច្រើន": 386,
      "ដ៏": 387,
      "នៃ": 388,
      "ុណ": 389,
      "ព្រះគ្រិស្ដ": 390,
      "ចំព": 391,
      "បញ": 392,
      "ព្រម": 393,
      "ចំពោះ": 394,
      "បម្រ": 395,
      "ជាតិ": 396,
      "តា": 397,
      "អាច": 398,
      "ព្រះបន្ទូល": 399,
      "សុទ្ធ": 400,
      "ស៊ី": 401,
      "ស្រឡ": 402,
      "ើរ": 403,
      "ស្រឡាញ់": 404,
      "ផង": 405,
      "វិន": 406,
      "ដី": 407,
      "ស្លាប់": 408,
      "គាល់": 409,
      "បម្រើ": 410,
      "បងប្អូន": 411,
      "ហេត": 412,
      "ហេតុ": 413,
      "្ម": 414,
      "ស្រុក": 415,
      "ដោយសារ": 416,
      "ពិ": 417,
      "ផ្ល": 418,
      "រស": 419,
      "ចំណោម": 420,
      "ជនជាតិ": 421,
      "ឿង": 422,
      "មុខ": 423,
      "ស្ថ": 424,
      "បរិសុទ្ធ": 425,
      "មេ": 426,
      "រយ": 427,
      "ៀប": 428,
      "ិច្ច": 429,
      "ភា": 430,
      "ជឿ": 431,
      "សង្": 432,
      "ុយ": 433,
      "សួរ": 434,
      "ទ្រ": 435,
      "ជី": 436,
      "ភ្ល": 437,
      "បាប": 438,
      "ាស": 439,
      "កន្": 440,
      "ជ្រ": 441,
      "ដំណ": 442,
      "ពួកអ្នក": 443,
      "យូ": 444,
      "វិត": 445,
      "រីឯ": 446,
      "ទូល": 447,
      "ស្ដេច": 448,
      "ទឹក": 449,
      "ូត": 450,
      "រយៈ": 451,
      "យូដា": 452,
      "កាន់": 453,
      "សិស្ស": 454,
      "រឿង": 455,
      "?»​": 456,
      "ច់": 457,
      "ាជ": 458,
      "បណ្ដ": 459,
      "ហារ": 460,
      "លប់": 461,
      "ជីវិត": 462,
      "រក": 463,
      "ឆ្ល": 464,
      "្ដិ": 465,
      "លើក": 466,
      "ចាប់": 467,
      "បង្គ": 468,
      "្វាយ": 469,
      "យាង": 470,
      "្ត": 471,
      "ត្រលប់": 472,
      "ជំនឿ": 473,
      "កាស": 474,
      "ព្រឹត": 475,
      "បញ្": 476,
      "ស្គាល់": 477,
      "ប្រព្រឹត": 478,
      "ក្រោយ": 479,
      "ព្រមទាំង": 480,
      "វិន័យ": 481,
      "អង្គ": 482,
      "ចង់": 483,
      "មុន": 484,
      "ដាក់": 485,
      "លា": 486,
      "រូប": 487,
      "សង្ឃ": 488,
      "រិត": 489,
      "បំ": 490,
      "ិតា": 491,
      "កន្លែង": 492,
      "ហៅ": 493,
      "ុត": 494,
      "ស្ថាន": 495,
      "េង": 496,
      "យ៉ូ": 497,
      "ទាន": 498,
      "ពន្": 499,
      "ម្ដេច": 500,
      "ៀន": 501,
      "ហាន": 502,
      "ចាត់": 503,
      "ពិត": 504,
      "បែ": 505,
      "ស្ដាប់": 506,
      "យល់": 507,
      "ប្រកាស": 508,
      "ក្ស": 509,
      "វតា": 510,
      "ង្វ": 511,
      "ទេវតា": 512,
      "ព្រះវិញ្ញាណ": 513,
      "ខ្លាំង": 514,
      "ទោស": 515,
      "ោល": 516,
      "ថ្វាយ": 517,
      "រហ": 518,
      "ឹម": 519,
      "ណាច": 520,
      "ាច": 521,
      "ឡាយ": 522,
      "តាមរយៈ": 523,
      "ជំនុំ": 524,
      "ជួ": 525,
      "ឈ្ម": 526,
      "អំណាច": 527,
      "ាប": 528,
      "ាល": 529,
      "គ៌": 530,
      "ជាង": 531,
      "ភាព": 532,
      "គម្": 533,
      "ឯង": 534,
      "បន្ទាប់": 535,
      "ប៉ូល": 536,
      "ៀង": 537,
      "ឆ្លើយ": 538,
      "គម្ពីរ": 539,
      "អ្វីៗ": 540,
      "ជួប": 541,
      "ចរិត": 542,
      "ឈាម": 543,
      "ល្ប": 544,
      "បុត្រ": 545,
      "ឈ្មោះ": 546,
      "សន": 547,
      "ោគ": 548,
      "ពេញ": 549,
      "សុចរិត": 550,
      "សួគ៌": 551,
      "ពាក": 552,
      "ពាក្យ": 553,
      "រាជ": 554,
      "កាយ": 555,
      "ប្រាំ": 556,
      "គុណ": 557,
      "ធី": 558,
      "ទាំងឡាយ": 559,
      "ជុំ": 560,
      "ជម្រ": 561,
      "ដៃ": 562,
      "ភ្ន": 563,
      "ភោគ": 564,
      "ៀម": 565,
      "ខ្លះ": 566,
      "បរិភោគ": 567,
      "អាក្រ": 568,
      "ឋាន": 569,
      "ណោះ": 570,
      "ប៉ុណ": 571,
      "ខ្លាច": 572,
      "បង្ហ": 573,
      "ស្ថានសួគ៌": 574,
      "ប៉ុណ្": 575,
      "ុម": 576,
      "បុរស": 577,
      "ឆ្": 578,
      "អេ": 579,
      "នាក់": 580,
      "អធ": 581,
      "ព្រះគុណ": 582,
      "ប្រទាន": 583,
      "ផ្ទះ": 584,
      "ណ៍": 585,
      "ស្ប": 586,
      "ថ្ម": 587,
      "ផែន": 588,
      "ប៉ុណ្ណោះ": 589,
      "ជិត": 590,
      "បង្គាប់": 591,
      "ផ្ដ": 592,
      "កំ": 593,
      "អាក្រក់": 594,
      "ជាប់": 595,
      "ក្ប": 596,
      "តាំង": 597,
      "ពុក": 598,
      "បាវ": 599,
      "បែប": 600,
      "អធិ": 601,
      "ក្រុម": 602,
      "រហូត": 603,
      "កាត់": 604,
      "គរ": 605,
      "សង្គ": 606,
      "ត្រុស": 607,
      "បង្រ": 608,
      "សម្លាប់": 609,
      "សង្គ្រ": 610,
      "ឈរ": 611,
      "នា": 612,
      "អារ": 613,
      "ពិធី": 614,
      "ផែនដី": 615,
      "សរ": 616,
      "ិម": 617,
      "បណ្ដា": 618,
      "ជាន": 619,
      "វេ": 620,
      "ពេត្រុស": 621,
      "បង្រៀន": 622,
      "សង្គ្រោះ": 623,
      "ស្ម": 624,
      "បង្ហាញ": 625,
      "ជានិច្ច": 626,
      "សាច់": 627,
      "មើល៍": 628,
      "បាវបម្រើ": 629,
      "ដើម": 630,
      "ដំណឹង": 631,
      "កិច្ច": 632,
      "រុង": 633,
      "េក": 634,
      "៊ី": 635,
      "ណាស់": 636,
      "នគរ": 637,
      "ោរ": 638,
      "ប្ប": 639,
      "សព": 640,
      "ផ្លូវ": 641,
      "ម្ល": 642,
      "ន់": 643,
      "ែល": 644,
      "អារក្ស": 645,
      "រុងរឿង": 646,
      "គង់": 647,
      "មូល": 648,
      "លី": 649,
      "សាឡ": 650,
      "ូក": 651,
      "ស្ដ្រ": 652,
      "អ័": 653,
      "្ខ": 654,
      "បង្កើត": 655,
      "ោត": 656,
      "ចារ": 657,
      "ព្រះវ": 658,
      "ទុក្ខ": 659,
      "ចៅ": 660,
      "ត្វ": 661,
      "ទោះ": 662,
      "សត្វ": 663,
      "ឪពុក": 664,
      "ខ្វ": 665,
      "សិរី": 666,
      "រូបកាយ": 667,
      "របិតា": 668,
      "ព្រះវរបិតា": 669,
      "ចំ": 670,
      "ធំ": 671,
      "ប្រយ": 672,
      "ស្អ": 673,
      "ប្រព្រឹត្ដ": 674,
      "អង្គុយ": 675,
      "អាហារ": 676,
      "យ៉ូហាន": 677,
      "ណៈ": 678,
      "ប្រោស": 679,
      "បន្ទាល់": 680,
      "អរ": 681,
      "រួម": 682,
      "ពន្ធ": 683,
      "បណ្ដាជន": 684,
      "ដទ": 685,
      "ដំ": 686,
      "អស្": 687,
      "សាឡិម": 688,
      "ចារ្យ": 689,
      "ដទៃ": 690,
      "អស្ចារ្យ": 691,
      "ៀក": 692,
      "ស្ឋាន": 693,
      "អធិស្ឋាន": 694,
      "ធ្ល": 695,
      "យេរូ": 696,
      "យេរូសាឡិម": 697,
      "ចែង": 698,
      "គ្រូ": 699,
      "ចិត្ត": 700,
      "ដំណើរ": 701,
      "បុត្រា": 702,
      "!»​": 703,
      "សោះ": 704,
      "សាវ": 705,
      "ឡេង": 706,
      "អ៊ី": 707,
      "វិហារ": 708,
      "សំឡេង": 709,
      "ចាំ": 710,
      "សប្ប": 711,
      "ឡូវ": 712,
      "ឥឡូវ": 713,
      "ដូចជា": 714,
      "សាវក": 715,
      "គល់": 716,
      "ិយ": 717,
      "ត្ដិ": 718,
      "េរ": 719,
      "ដើរ": 720,
      "ជើង": 721,
      "ថ្ល": 722,
      "ប្រគល់": 723,
      "រស់នៅ": 724,
      "កល្ប": 725,
      "សោយ": 726,
      "ូង": 727,
      "ប្រស": 728,
      "ប្រុស": 729,
      "ការណ៍": 730,
      "ករ": 731,
      "រៀប": 732,
      "អំណ": 733,
      "ូច": 734,
      "ប្រជា": 735,
      "ពូ": 736,
      "អំព": 737,
      "នំ": 738,
      "ភ្នែក": 739,
      "សាន": 740,
      "ត្រង់": 741,
      "ស្រា": 742,
      "ផ្ទុយ": 743,
      "ដប់": 744,
      "ស្ដ្រី": 745,
      "គណៈ": 746,
      "ឥត": 747,
      "័ង": 748,
      "ច្ប": 749,
      "មាត់": 750,
      "កិច្ចការ": 751,
      "ផុត": 752,
      "ព្រះរាជ": 753,
      "ក្រៅ": 754,
      "ក្រោក": 755,
      "សម្រេច": 756,
      "ប្រៀប": 757,
      "ពូជ": 758,
      "លឺ": 759,
      "សម": 760,
      "ផ្សេ": 761,
      "ផ្សេង": 762,
      "ក្ល": 763,
      "សុខ": 764,
      "ចៀម": 765,
      "បំណ": 766,
      "ព្យ": 767,
      "សុំ": 768,
      "ង្ក": 769,
      "ប្រាក": 770,
      "ប្រាកដ": 771,
      "ទិ": 772,
      "ើម": 773,
      "លោកិយ": 774,
      "អំពើ": 775,
      "ុប": 776,
      "ប្រា": 777,
      "អស់កល្ប": 778,
      "គិត": 779,
      "ចោល": 780,
      "រាប់": 781,
      "ទ្ធិ": 782,
      "ក្រុមជំនុំ": 783,
      "នាម": 784,
      "សាសន": 785,
      "កំណ": 786,
      "ម្ក": 787,
      "ប្រែ": 788,
      "ទនា": 789,
      "សេរ": 790,
      "ជម្រះ": 791,
      "ប៉័ង": 792,
      "ម៉ូ": 793,
      "សរសេរ": 794,
      "វេទនា": 795,
      "បិតា": 796,
      "វរ": 797,
      "សម្ដេច": 798,
      "ដូច្នោះ": 799,
      "ឆ្ក": 800,
      "ប្រក": 801,
      "សិទ្ធិ": 802,
      "នំប៉័ង": 803,
      "ផល": 804,
      "រំ": 805,
      "ួត": 806,
      "្ង": 807,
      "ស្បែក": 808,
      "តម្ក": 809,
      "ភេ": 810,
      "ជាច្រើន": 811,
      "ម្ដាយ": 812,
      "សាច់ឈាម": 813,
      "ដាវ": 814,
      "តម្កើង": 815,
      "គំន": 816,
      "ពរ": 817,
      "ប្រពន្ធ": 818,
      "ភ្លាម": 819,
      "សព្វ": 820,
      "ទោះបី": 821,
      "ោង": 822,
      "ដូន": 823,
      "បំណង": 824,
      "ើប": 825,
      "រង": 826,
      "បើក": 827,
      "សាសន៍": 828,
      "គំនិត": 829,
      "បង់": 830,
      "ផារ": 831,
      "ួរ": 832,
      "ម៉ូន": 833,
      "មុជ": 834,
      "ជ្រមុជ": 835,
      "ភព": 836,
      "ផឹក": 837,
      "លំ": 838,
      "សរស": 839,
      "ហា": 840,
      "ាហាន": 841,
      "ើស": 842,
      "សម្ល": 843,
      "ប្រជាជន": 844,
      "ាម៉": 845,
      "ស្រែក": 846,
      "មេឃ": 847,
      "ផារិ": 848,
      "ផារិស៊ី": 849,
      "ទាស់": 850,
      "បោះ": 851,
      "សែ": 852,
      "ណ្": 853,
      "ោជន": 854,
      "ស្រី": 855,
      "ក្មេ": 856,
      "ប្រយោជន": 857,
      "សរសើរ": 858,
      "ប្រយោជន៍": 859,
      "កម្": 860,
      "ជំ": 861,
      "សំគាល់": 862,
      "ភ្លើង": 863,
      "ពន្លឺ": 864,
      "ផ្ដើម": 865,
      "កោត": 866,
      "គោរ": 867,
      "ងាយ": 868,
      "ចម្": 869,
      "ឆ្ន": 870,
      "ថែ": 871,
      "៉ូ": 872,
      "ប្រជុំ": 873,
      "សង្ឃឹម": 874,
      "គោរព": 875,
      "បួន": 876,
      "ស្ល": 877,
      "ហេតុការណ៍": 878,
      "ពិភព": 879,
      "បង្គំ": 880,
      "នឹក": 881,
      "ម្ដង": 882,
      "សុខសាន": 883,
      "ឆ្កាង": 884,
      "អែល": 885,
      "ផ្ទាល់": 886,
      "ធ្លាក់": 887,
      "ហេតុអ្វី": 888,
      "គួរ": 889,
      "ញ្ញ": 890,
      "ដោះ": 891,
      "បាំង": 892,
      "មា": 893,
      "ហាំ": 894,
      "ង្វាយ": 895,
      "ក្មេង": 896,
      "តង្វាយ": 897,
      "លុះ": 898,
      "ីឡ": 899,
      "ប្រាជ": 900,
      "សាលា": 901,
      "សម្ប": 902,
      "ថ្លែង": 903,
      "តូច": 904,
      "អ័ប្រា": 905,
      "អ័ប្រាហាំ": 906,
      "នរ": 907,
      "ពាក់": 908,
      "ពួកវា": 909,
      "ស្ង": 910,
      "្យា": 911,
      "អំណរ": 912,
      "ម៉ូសេ": 913,
      "បញ្ញ": 914,
      "ថ្មី": 915,
      "ៀវ": 916,
      "តែង": 917,
      "សំដី": 918,
      "ទ្រព្យ": 919,
      "សន្យា": 920,
      "នរណា": 921,
      "ចេះ": 922,
      "ទ្វ": 923,
      "ព្រះនាម": 924,
      "អ៊ីស្រា": 925,
      "មេត": 926,
      "លោ": 927,
      "ព្រះវិហារ": 928,
      "ាតាំង": 929,
      "ជំនាន់": 930,
      "បញ្ជា": 931,
      "បំផ្ល": 932,
      "អ៊ីស្រាអែល": 933,
      "សាតាំង": 934,
      "ួស": 935,
      "ត្រី": 936,
      "ក្រោម": 937,
      "លើស": 938,
      "ស៊ីម៉ូន": 939,
      "ប្រាជ្ញា": 940,
      "ចម្រ": 941,
      "តី": 942,
      "ន្ដ": 943,
      "វាយ": 944,
      "ស្រប": 945,
      "បំផុត": 946,
      "ថ្វាយបង្គំ": 947,
      "ប្រាំពីរ": 948,
      "ដំប": 949,
      "ទ្វារ": 950,
      "ចាក": 951,
      "ឈើ": 952,
      "បទ": 953,
      "លក់": 954,
      "ំពាក់": 955,
      "អាវ": 956,
      "សូម្បី": 957,
      "ជំនុំជម្រះ": 958,
      "កោតខ្លាច": 959,
      "បញ្ញត្ដិ": 960,
      "ជូន": 961,
      "ទ័យ": 962,
      "ល្ង": 963,
      "ប្រសើរ": 964,
      "ឆ្នាំ": 965,
      "បំផ្លាញ": 966,
      "ហឫ": 967,
      "អូ": 968,
      "ក្រឹត": 969,
      "ក្រឹត្យ": 970,
      "ឃ្ល": 971,
      "រល": 972,
      "ភ្លឺ": 973,
      "ភ្នំ": 974,
      "ប្រកប": 975,
      "ហឫទ័យ": 976,
      "ទុំ": 977,
      "ស្នាក់": 978,
      "ីឌ": 979,
      "ខ្ម": 980,
      "ប្រមូល": 981,
      "ត្រឹម": 982,
      "ជម្រាប": 983,
      "កាត់ស្បែក": 984,
      "ងង": 985,
      "ញ្": 986,
      "ទាន់": 987,
      "អង្វ": 988,
      "យ៉ាក": 989,
      "កាលីឡ": 990,
      "ក្បាល": 991,
      "ណ្យ": 992,
      "ទូក": 993,
      "បាយ": 994,
      "សំព": 995,
      "ពួកគាត់": 996,
      "ប្រមា": 997,
      "បុណ្យ": 998,
      "អង្វរ": 999,
      "យ៉ាកុប": 1000,
      "កាលីឡេ": 1001,
      "ខុស": 1002,
      "បោក": 1003,
      "អត់": 1004,
      "ោទ": 1005,
      "ដូចម្ដេច": 1006,
      "ប៉ុ": 1007,
      "ម៉ា": 1008,
      "ដាវីឌ": 1009,
      "ដួល": 1010,
      "ត្រា": 1011,
      "គ្រា": 1012,
      "ទ្រាំ": 1013,
      "ស្មោះ": 1014,
      "រៀបចំ": 1015,
      "ប្រមាថ": 1016,
      "ច្ច": 1017,
      "ទាហាន": 1018,
      "បាត់": 1019,
      "វែង": 1020,
      "្នូរ": 1021,
      "ង្ស": 1022,
      "ចម្ការ": 1023,
      "បល": 1024,
      "យប់": 1025,
      "ឡាត់": 1026,
      "័ង្ក": 1027,
      "ារា": 1028,
      "ពីឡាត់": 1029,
      "មកពី": 1030,
      "វិនាស": 1031,
      "ថែម": 1032,
      "តប": 1033,
      "អី": 1034,
      "្ដា": 1035,
      "គ្រង": 1036,
      "្ល័ង្ក": 1037,
      "សិប": 1038,
      "លើកលែង": 1039,
      "ងងឹត": 1040,
      "លោះ": 1041,
      "អន": 1042,
      "ែត": 1043,
      "័ទ": 1044,
      "គ្រាប់": 1045,
      "បាក": 1046,
      "ក្បត់": 1047,
      "ដំបូង": 1048,
      "បល្ល័ង្ក": 1049,
      "កណ្ដ": 1050,
      "ប្ដី": 1051,
      "​​": 1052,
      "ទីនោះ": 1053,
      "ស្ថិត": 1054,
      "ភី": 1055,
      "លេ": 1056,
      "សមុ": 1057,
      "ួង": 1058,
      "ប្រហ": 1059,
      "ប្រាក់": 1060,
      "ស្រ្ដី": 1061,
      "ភាសា": 1062,
      "បែរ": 1063,
      "សមុទ្រ": 1064,
      "កុ": 1065,
      "ងឺ": 1066,
      "ជួយ": 1067,
      "ជូរ": 1068,
      "ដក": 1069,
      "បន្ដ": 1070,
      "ពស់": 1071,
      "វង្គ": 1072,
      "ផ្លែ": 1073,
      "ស្អាត": 1074,
      "សប្ប័ទ": 1075,
      "ទិវង្គ": 1076,
      "ដូនតា": 1077,
      "ទិវង្គត": 1078,
      "ធម": 1079,
      "ប្រឆ": 1080,
      "ក្រែង": 1081,
      "ម៉ារា": 1082,
      "កំហ": 1083,
      "ជំងឺ": 1084,
      "ធម៌": 1085,
      "ទារ": 1086,
      "បារ": 1087,
      "ពង្ស": 1088,
      "អួត": 1089,
      "ព្រួយ": 1090,
      "ម្នាក់ៗ": 1091,
      "ច្បាស់": 1092,
      "ប្រឆាំង": 1093,
      "ខាន": 1094,
      "ឈ្ន": 1095,
      "ដិ": 1096,
      "តក": 1097,
      "ភ័យ": 1098,
      "រតក": 1099,
      "ស្រាប់": 1100,
      "រងទុក្ខ": 1101,
      "សម្បត្ដិ": 1102,
      "មេត្ដា": 1103,
      "ក្រឹត្យវិន័យ": 1104,
      "ទំព": 1105,
      "ផ្នូរ": 1106,
      "ពាន់": 1107,
      "មរតក": 1108,
      "្តិ": 1109,
      "ស្ត": 1110,
      "គ្រប់គ្រង": 1111,
      "ប៉ុន្": 1112,
      "ស្មោះត្រង់": 1113,
      "ទំពាំង": 1114,
      "រត់": 1115,
      "៉ា": 1116,
      "របៀប": 1117,
      "ម្ត": 1118,
      "បន្ទោស": 1119,
      "ប្រព្រឹត្ត": 1120,
      "ភេទ": 1121,
      "សំពៅ": 1122,
      "គុក": 1123,
      "បំពាក់": 1124,
      "បដិ": 1125,
      "រា": 1126,
      "ប្រកាន់": 1127,
      "ត្រាស់": 1128,
      "សេធ": 1129,
      "ហេតុនេះ": 1130,
      "បដិសេធ": 1131,
      "ចោទ": 1132,
      "ទំន": 1133,
      "ទើប": 1134,
      "ធ្ម": 1135,
      "ស័": 1136,
      "សាយ": 1137,
      "ដែង": 1138,
      "ប្រដូច": 1139,
      "ន្ធ": 1140,
      "គ្រោះ": 1141,
      "សំដែង": 1142,
      "បណ្ដេញ": 1143,
      "អរព្រះគុណ": 1144,
      "ពូជពង្ស": 1145,
      "ប្រហែល": 1146,
      "រៀង": 1147,
      "ស្ន": 1148,
      "ហេរ": 1149,
      "អាន": 1150,
      "័ត": 1151,
      "ចំណែក": 1152,
      "កំណត់": 1153,
      "រំល": 1154,
      "៉ូឌ": 1155,
      "ជម្រាបសួរ": 1156,
      "ចង": 1157,
      "ចំន": 1158,
      "ឈឺ": 1159,
      "ត្ប": 1160,
      "កំបាំង": 1161,
      "ស្អប់": 1162,
      "សប្បាយ": 1163,
      "ប្រសិន": 1164,
      "ហេរ៉ូឌ": 1165,
      "គី": 1166,
      "ចាក់": 1167,
      "ហ្វាយ": 1168,
      "ូម": 1169,
      "ចាស់ទុំ": 1170,
      "ប្រព្រឹត្ដិ": 1171,
      "វេលា": 1172,
      "សុខសាន្ដ": 1173,
      "ចំនួន": 1174,
      "ចុង": 1175,
      "បឹង": 1176,
      "បែក": 1177,
      "លក្": 1178,
      "សង់": 1179,
      "ើសរ": 1180,
      "ព្រៀង": 1181,
      "ស្ដាំ": 1182,
      "ជ្រើសរ": 1183,
      "ប្រយ័ត": 1184,
      "លក្ខ": 1185,
      "ជ្រើសរើស": 1186,
      "ប្រយ័ត្ន": 1187,
      "ចែក": 1188,
      "ដេក": 1189,
      "ណាក់": 1190,
      "សេស": 1191,
      "ចម្រើន": 1192,
      "ងារ": 1193,
      "ែរ": 1194,
      "ចៅហ្វាយ": 1195,
      "ខ្វាក់": 1196,
      "អនុ": 1197,
      "ក្ដ": 1198,
      "ខំ": 1199,
      "ដុំ": 1200,
      "បិ": 1201,
      "បេ": 1202,
      "ព័": 1203,
      "ីល": 1204,
      "ឿន": 1205,
      "ន្ទ": 1206,
      "ទេស": 1207,
      "បាស": 1208,
      "បញ្ឆ": 1209,
      "សម្លៀក": 1210,
      "ចម្ល": 1211,
      "ដង": 1212,
      "ដាស់": 1213,
      "បៀត": 1214,
      "បៀន": 1215,
      "មាំ": 1216,
      "យំ": 1217,
      "សូរ": 1218,
      "អស": 1219,
      "អាម៉": 1220,
      "័រ": 1221,
      "ខ្យល់": 1222,
      "ស្ទ": 1223,
      "បញ្ច": 1224,
      "ធ្លាប់": 1225,
      "អំណោយ": 1226,
      "ច្ចរិត": 1227,
      "ចៀក": 1228,
      "ជំព": 1229,
      "ទុ": 1230,
      "សង": 1231,
      "សាហា": 1232,
      "អាណ": 1233,
      "ទីសំគាល់": 1234,
      "ក្សា": 1235,
      "ព្រមព្រៀង": 1236,
      "ក្សី": 1237,
      "អេលី": 1238,
      "លីព": 1239,
      "កំណើត": 1240,
      "ល្ងង់": 1241,
      "ញ្ជ": 1242,
      "បាយជូរ": 1243,
      "កណ្ដាល": 1244,
      "ភីលីព": 1245,
      "សាហាវ": 1246,
      "ខាត": 1247,
      "បូ": 1248,
      "ភូម": 1249,
      "ដែរ‍": 1250,
      "ម៉ោង": 1251,
      "ផ្ទៃ": 1252,
      "ស្លៀក": 1253,
      "បទគម្ពីរ": 1254,
      "បញ្ឆោត": 1255,
      "ទុច្ចរិត": 1256,
      "ភូមិ": 1257,
      "ដឹក": 1258,
      "តឿន": 1259,
      "រក្សា": 1260,
      "ោធ": 1261,
      "ទាំងអស់": 1262,
      "ត្រចៀក": 1263,
      "សាក": 1264,
      "សាក្សី": 1265,
      "កូនចៀម": 1266,
      "ដាច់": 1267,
      "ឆ្លង": 1268,
      "ញ្ញាត": 1269,
      "អនុញ្ញាត": 1270,
      "មាស": 1271,
      "សះ": 1272,
      "អញ្ជ": 1273,
      "ព្រល": 1274,
      "ជាក់": 1275,
      "ស្វែង": 1276,
      "ស្រេច": 1277,
      "ពិភពលោក": 1278,
      "ស្នាក់នៅ": 1279,
      "បៀតបៀន": 1280,
      "អញ្ជើញ": 1281,
      "ញាប់": 1282,
      "តម្ល": 1283,
      "លាក់": 1284,
      "ឡា": 1285,
      "ខ្សោយ": 1286,
      "ារី": 1287,
      "ន្ម": 1288,
      "បញ្ចុះ": 1289,
      "បំពេញ": 1290,
      "យ៉ូសែ": 1291,
      "ជួបជុំ": 1292,
      "លំបាក": 1293,
      "ីលធម៌": 1294,
      "អសីលធម៌": 1295,
      "ជំពប់": 1296,
      "យ៉ូសែប": 1297,
      "កុះ": 1298,
      "ចង្ក": 1299,
      "តំ": 1300,
      "បន់": 1301,
      "ពាល់": 1302,
      "រឹង": 1303,
      "រង្វ": 1304,
      "លាង": 1305,
      "ប្រេង": 1306,
      "អាថ": 1307,
      "បូជា": 1308,
      "តម្លៃ": 1309,
      "ញែក": 1310,
      "តុ": 1311,
      "ត្ដ": 1312,
      "ពព": 1313,
      "មិត": 1314,
      "យញ្ញ": 1315,
      "រង់": 1316,
      "លេច": 1317,
      "សិន": 1318,
      "សំណ": 1319,
      "ប្រុង": 1320,
      "ស្បថ": 1321,
      "កុះករ": 1322,
      "តំបន់": 1323,
      "កោះ": 1324,
      "ជន្ម": 1325,
      "បាក់": 1326,
      "ពុត": 1327,
      "យាម": 1328,
      "វយ": 1329,
      "អវយ": 1330,
      "ុណា": 1331,
      "ព្រះជន្ម": 1332,
      "ត្រូវការ": 1333,
      "យ៉ា": 1334,
      "ក្តី": 1335,
      "ល្បួង": 1336,
      "ផ្ដល់": 1337,
      "ក្បែរ": 1338,
      "ករុណា": 1339,
      "ផ្សេងៗ": 1340,
      "ជ្រមុជទឹក": 1341,
      "សុខសាន្ត": 1342,
      "ឃ្លាន": 1343,
      "អត់ធ្ម": 1344,
      "អត់ធ្មត់": 1345,
      "ឈប់": 1346,
      "ឈ្ល": 1347,
      "បូរ": 1348,
      "លះ": 1349,
      "វៈ": 1350,
      "សត្រូវ": 1351,
      "ោឋាន": 1352,
      "ខ្ពស់": 1353,
      "ក៏ដោយ": 1354,
      "ទេ‍": 1355,
      "ម៉ឺ": 1356,
      "ភាគ": 1357,
      "រហោឋាន": 1358,
      "ដំណាក់": 1359,
      "កំហុស": 1360,
      "លក្ខណ៍": 1361,
      "អវយវៈ": 1362,
      "ពោះ": 1363,
      "ពែង": 1364,
      "ភ្ញ": 1365,
      "ព្រះហ": 1366,
      "ព្រះហឫទ័យ": 1367,
      "សេចក្តី": 1368,
      "បាទ": 1369,
      "សំបុត្រ": 1370,
      "បន្ទាប់មក": 1371,
      "ជុំវិញ": 1372,
      "ខ្វល់": 1373,
      "ក្លាយ": 1374,
      "ក្ដិ": 1375,
      "ខែ": 1376,
      "គំ": 1377,
      "ព្": 1378,
      "យស": 1379,
      "សៀវ": 1380,
      "ិញ": 1381,
      "ម្ខាង": 1382,
      "ស្ត្រី": 1383,
      "ត្រេក": 1384,
      "ក្រាប": 1385,
      "គ្រាន់": 1386,
      "ស៊ូទ្រាំ": 1387,
      "កាច់": 1388,
      "បាល": 1389,
      "បាច់": 1390,
      "សេរី": 1391,
      "សារ៉": 1392,
      "តិច": 1393,
      "យូដាស": 1394,
      "ស្ងាត់": 1395,
      "ព័ន្ធ": 1396,
      "បញ្ចប់": 1397,
      "ព្ទ": 1398,
      "កិត": 1399,
      "ឆេះ": 1400,
      "ឆ្ម": 1401,
      "ដេ": 1402,
      "ដេញ": 1403,
      "ត្": 1404,
      "តម្រ": 1405,
      "ធ្ង": 1406,
      "នី": 1407,
      "ផិត": 1408,
      "ពើ": 1409,
      "សណ្": 1410,
      "អាត": 1411,
      "ួច": 1412,
      "្សា": 1413,
      "ក្រម": 1414,
      "ក្រេក": 1415,
      "ស៊ីព្ទ": 1416,
      "ក្រោយពី": 1417,
      "អេស៊ីព្ទ": 1418,
      "ស្បើយ": 1419,
      "ប្រែចិត្ដ": 1420,
      "ចាកចេញ": 1421,
      "ប៉ុន្មាន": 1422,
      "រំលង": 1423,
      "អាថ៌": 1424,
      "សារ៉ែត": 1425,
      "ត្ថ": 1426,
      "គត់": 1427,
      "ដៅ": 1428,
      "ប្ល": 1429,
      "ភៅ": 1430,
      "យុ": 1431,
      "រ៉ូ": 1432,
      "ិះ": 1433,
      "ួសារ": 1434,
      "ូលី": 1435,
      "ក្រអូ": 1436,
      "ក្រោធ": 1437,
      "វិសេស": 1438,
      "គ្រួសារ": 1439,
      "សាប": 1440,
      "ជំនួយ": 1441,
      "ជំនួស": 1442,
      "សម្ព័ន្ធ": 1443,
      "កើតឡើង": 1444,
      "បម្រុង": 1445,
      "រាជ្យ": 1446,
      "អធិរាជ": 1447,
      "ខ្វះ": 1448,
      "សាន្ដ": 1449,
      "ក្លែង": 1450,
      "កុល": 1451,
      "ដឹកនាំ": 1452,
      "ចង្កៀង": 1453,
      "សៀវភៅ": 1454,
      "សេរីភាព": 1455,
      "ក្រអូប": 1456,
      "កម្ល": 1457,
      "ងល់": 1458,
      "ចេ": 1459,
      "ណ៌": 1460,
      "ថេ": 1461,
      "ប្ដ": 1462,
      "សែង": 1463,
      "អាង": 1464,
      "ិល": 1465,
      "អ្នកបម្រើ": 1466,
      "ប្រើ": 1467,
      "ណាបាស": 1468,
      "ទីរហោឋាន": 1469,
      "ម៉ាយ": 1470,
      "ច្រូត": 1471,
      "មេម៉ាយ": 1472,
      "ជ្រាប": 1473,
      "លាប": 1474,
      "ឆ្ងល់": 1475,
      "ក្លាហាន": 1476,
      "ណ្តា": 1477,
      "ត្រឹមត្រូវ": 1478,
      "រង្វាន់": 1479,
      "ព្រះហស្ដ": 1480,
      "ត្រេកអរ": 1481,
      "កម្លាំង": 1482,
      "ចោរ": 1483,
      "ដារ": 1484,
      "ថ្នា": 1485,
      "ទម្": 1486,
      "ទាល់": 1487,
      "វង្វ": 1488,
      "ាវ": 1489,
      "ខ្សែ": 1490,
      "ស្មាន": 1491,
      "ណាសារ៉ែត": 1492,
      "គ្រោក": 1493,
      "ស្សា": 1494,
      "ទីនេះ": 1495,
      "សម្រាក": 1496,
      "សង្ក": 1497,
      "ចាប់ផ្ដើម": 1498,
      "ស្មោក": 1499,
      "ប្រាថ្នា": 1500,
      "បារណាបាស": 1501,
      "ស័ក្ដិ": 1502,
      "ត្បូង": 1503,
      "បិទ": 1504,
      "អាម៉ែន": 1505,
      "រង់ចាំ": 1506,
      "ចេស្ដ": 1507,
      "ស័ក្ដិសម": 1508,
      "កាក់": 1509,
      "ចិញ": 1510,
      "ទម្ល": 1511,
      "នាយ": 1512,
      "ន័យ": 1513,
      "ពណ៌": 1514,
      "យូរ": 1515,
      "សូន": 1516,
      "ូស": 1517,
      "ឿយ": 1518,
      "ៀស": 1519,
      "ានា": 1520,
      "ានី": 1521,
      "ព្រះចៅ": 1522,
      "ខ្ជ": 1523,
      "ចុះចូល": 1524,
      "ផ្កាយ": 1525,
      "វាល": 1526,
      "បណ្ដោយ": 1527,
      "ឆ្ងាយ": 1528,
      "ថ្លៃ": 1529,
      "ប្រកែក": 1530,
      "រលួយ": 1531,
      "ក្រែងលោ": 1532,
      "ត្រាស់ហៅ": 1533,
      "មិត្ដ": 1534,
      "ទម្លាប់": 1535,
      "វង្វេង": 1536,
      "ចិញ្ច": 1537,
      "ទ័": 1538,
      "នូវ": 1539,
      "នឿយ": 1540,
      "បក": 1541,
      "ហ៊": 1542,
      "ខ្ជាប់": 1543,
      "ប្រឹក": 1544,
      "ប៉ង": 1545,
      "បន្លឺ": 1546,
      "ស្រែ": 1547,
      "ស្រាយ": 1548,
      "មនសិ": 1549,
      "បរិបូរ": 1550,
      "បញ្ជូន": 1551,
      "ពន្ធដារ": 1552,
      "រៀបការ": 1553,
      "កម្សាន្ដ": 1554,
      "តែងតែ": 1555,
      "ស្នង": 1556,
      "កុលសម្ព័ន្ធ": 1557,
      "ចេស្ដា": 1558,
      "ប្រឹក្សា": 1559,
      "មនសិការ": 1560,
      "ខូច": 1561,
      "គាប់": 1562,
      "ជាន់": 1563,
      "ទាក់": 1564,
      "បល់": 1565,
      "ល្": 1566,
      "ៀល": 1567,
      "គេច": 1568,
      "ខ្វាយ": 1569,
      "ចំហ": 1570,
      "ច្បាប់": 1571,
      "ទិញ": 1572,
      "សម្លឹង": 1573,
      "ស្ងៀម": 1574,
      "ល្ងាច": 1575,
      "រាស្ដ្រ": 1576,
      "អេលីយ៉ា": 1577,
      "ធ្ងន់": 1578,
      "អាថ៌កំបាំង": 1579,
      "កម្រ": 1580,
      "គោល": 1581,
      "ដដែល": 1582,
      "ណាត់": 1583,
      "តម": 1584,
      "បណ្តា": 1585,
      "មួន": 1586,
      "រើស": 1587,
      "សេះ": 1588,
      "អភ": 1589,
      "្ឆ": 1590,
      "ខ្ច": 1591,
      "ារតី": 1592,
      "មក‍": 1593,
      "ស្រូវ": 1594,
      "សុល": 1595,
      "សេដូន": 1596,
      "កំពូល": 1597,
      "ស្មារតី": 1598,
      "ទិស": 1599,
      "បោះបង់": 1600,
      "ម៉ាសេដូន": 1601,
      "មាំមួន": 1602,
      "អំណោយទាន": 1603,
      "ពពក": 1604,
      "ម៉ឺន": 1605,
      "ឆ្មាំ": 1606,
      "ដុះ": 1607,
      "ទូ": 1608,
      "នរក": 1609,
      "នានា": 1610,
      "រោង": 1611,
      "ហក": 1612,
      "អ៊": 1613,
      "អណ្ដ": 1614,
      "ិបាល": 1615,
      "ឹះ": 1616,
      "ប្រាស់": 1617,
      "ស្ក": 1618,
      "ពីព្រោះ": 1619,
      "ិន័យ": 1620,
      "ក្រណាត់": 1621,
      "បន្ថែម": 1622,
      "គ្រឿង": 1623,
      "គ្រឹះ": 1624,
      "ថ្ក": 1625,
      "ម៉ាត់": 1626,
      "មើស": 1627,
      "ទឹកចិត្ដ": 1628,
      "បណ្ដាល": 1629,
      "្ដិយស": 1630,
      "ធីម៉ូ": 1631,
      "កំលោះ": 1632,
      "ចំអ": 1633,
      "ដោះលែង": 1634,
      "ខ្មាស": 1635,
      "កុហក": 1636,
      "ព្រលឹង": 1637,
      "គំរូ": 1638,
      "កិត្ដិយស": 1639,
      "រ៉ូម": 1640,
      "ទ័ព": 1641,
      "ល្មើស": 1642,
      "អភិបាល": 1643,
      "ធីម៉ូថេ": 1644,
      "កាប់": 1645,
      "ឃុំ": 1646,
      "ឆាប់": 1647,
      "ទត": 1648,
      "រដូ": 1649,
      "រៀន": 1650,
      "ល្វ": 1651,
      "វាត": 1652,
      "វ័យ": 1653,
      "សល់": 1654,
      "សាម៉": 1655,
      "ហេ": 1656,
      "ុរស": 1657,
      "ៀរ": 1658,
      "ជាទី": 1659,
      "ស្ញ": 1660,
      "នៅក្នុង": 1661,
      "ទៅវិញ": 1662,
      "លោកគ្រូ": 1663,
      "គ្រូវ": 1664,
      "សំអាត": 1665,
      "ិច្ឆ": 1666,
      "មុខងារ": 1667,
      "ល្បង": 1668,
      "សប្បុរស": 1669,
      "នឹកចាំ": 1670,
      "បញ្ជាក់": 1671,
      "អូស": 1672,
      "បន្ដិច": 1673,
      "ឈ្នះ": 1674,
      "ចម្លែក": 1675,
      "ដាស់តឿន": 1676,
      "អាណិត": 1677,
      "ទម្លាក់": 1678,
      "រដូវ": 1679,
      "គ្រូវិន័យ": 1680,
      "ខ្ន": 1681,
      "ខាន់": 1682,
      "ឋិត": 1683,
      "ថង់": 1684,
      "ទន់": 1685,
      "ទន្ទ": 1686,
      "ពុំ": 1687,
      "រេ": 1688,
      "ហូរ": 1689,
      "ហត់": 1690,
      "ឧត្ដ": 1691,
      "ុដ": 1692,
      "ោច": 1693,
      "្តា": 1694,
      "បាន‍": 1695,
      "ប្រណ": 1696,
      "ទៅមក": 1697,
      "មកុដ": 1698,
      "ខ្លៅ": 1699,
      "សំខាន់": 1700,
      "ក្តិ": 1701,
      "បង្ក": 1702,
      "វិនិច្ឆ": 1703,
      "មុខជា": 1704,
      "តាំងពី": 1705,
      "យញ្ញបូជា": 1706,
      "សណ្ឋិត": 1707,
      "ខ្ជួន": 1708,
      "ហ៊ាន": 1709,
      "ចំអក": 1710,
      "ទន្ទឹង": 1711,
      "វិនិច្ឆ័យ": 1712,
      "ង្រ": 1713,
      "បក់": 1714,
      "ពាស": 1715,
      "រ៉": 1716,
      "រាប": 1717,
      "ល្ម": 1718,
      "ហ្វ": 1719,
      "ឡូន": 1720,
      "អើ": 1721,
      "ិត្យ": 1722,
      "ទៅ‍": 1723,
      "ប៉ា": 1724,
      "បន្ទាប": 1725,
      "ពិបាក": 1726,
      "ស្ថេរ": 1727,
      "ទ្រហ": 1728,
      "ជ្រូក": 1729,
      "កម្ម": 1730,
      "ស្លូត": 1731,
      "លោភ": 1732,
      "បញ្ជាការ": 1733,
      "ស្តាប់": 1734,
      "ប៉ុន្តែ": 1735,
      "ម្តង": 1736,
      "ភ្ញៀវ": 1737,
      "សូន្យ": 1738,
      "ចិញ្ចឹម": 1739,
      "អណ្ដាត": 1740,
      "ថ្កោល": 1741,
      "ល្វា": 1742,
      "សាម៉ារី": 1743,
      "ជិះ": 1744,
      "ដាប់": 1745,
      "ដោល": 1746,
      "ពារ": 1747,
      "មី": 1748,
      "ហួស": 1749,
      "ម្ភ": 1750,
      "ត្រែ": 1751,
      "ការី": 1752,
      "ការងារ": 1753,
      "ការពារ": 1754,
      "បន្លា": 1755,
      "បន្ទុក": 1756,
      "មន្ដ": 1757,
      "កូនចៅ": 1758,
      "ច្របល់": 1759,
      "អេសាយ": 1760,
      "អ៊ីសាក": 1761,
      "សម្លាញ់": 1762,
      "ក្មេងៗ": 1763,
      "ទំនៀម": 1764,
      "សះស្បើយ": 1765,
      "គោ": 1766,
      "ឆ្អ": 1767,
      "ជ័យ": 1768,
      "ជំពាក់": 1769,
      "ឋា": 1770,
      "ទេច": 1771,
      "ទៀប": 1772,
      "មែក": 1773,
      "លួច": 1774,
      "វី": 1775,
      "សោក": 1776,
      "ស្ដី": 1777,
      "ហ៍": 1778,
      "ឡាន់": 1779,
      "អាន់": 1780,
      "អូលី": 1781,
      "ឱកាស": 1782,
      "ម្យ៉ាង": 1783,
      "ពេក": 1784,
      "សម្រាល": 1785,
      "ចំណេះ": 1786,
      "មេបញ្ជាការ": 1787,
      "អេភេ": 1788,
      "ស្អាង": 1789,
      "លុះត្រា": 1790,
      "តែងតាំង": 1791,
      "មេត្តា": 1792,
      "ម៉ាថា": 1793,
      "ឈ្នួល": 1794,
      "បាទា": 1795,
      "ក្លែងក្លាយ": 1796,
      "ខ្ជាប់ខ្ជួន": 1797,
      "ហ្វូង": 1798,
      "ឋាឡាន់": 1799,
      "អេភេសូរ": 1800,
      ")​": 1801,
      "កៃ": 1802,
      "ខឹង": 1803,
      "គូ": 1804,
      "គប់": 1805,
      "ចៀស": 1806,
      "ញ្ញា": 1807,
      "ដុត": 1808,
      "ណែន": 1809,
      "យុត": 1810,
      "សក់": 1811,
      "សញ្ញា": 1812,
      "ឡែក": 1813,
      "ឯក": 1814,
      "ព្រះពរ": 1815,
      "ប្រញាប់": 1816,
      "នៅពេល": 1817,
      "ទាំងនេះ": 1818,
      "ាយាម": 1819,
      "គ្រប": 1820,
      "ស្រុង": 1821,
      "អាស៊ី": 1822,
      "ទីយ៉ូ": 1823,
      "ចំណង": 1824,
      "ទ្រង់": 1825,
      "បន្ទាប់ពី": 1826,
      "ចាំបាច់": 1827,
      "សោយរាជ្យ": 1828,
      "ដប់ពីរ": 1829,
      "ព្យាយាម": 1830,
      "សែសិប": 1831,
      "ចម្ងាយ": 1832,
      "ខុសត្រូវ": 1833,
      "ភ័យខ្លាច": 1834,
      "ស័ក្តិ": 1835,
      "ចុងក្រោយ": 1836,
      "ស្ទុស": 1837,
      "ឈ្លោះ": 1838,
      "លះបង់": 1839,
      "អូលីវ": 1840,
      "ទីយ៉ូក": 1841,
      "ស័ក្តិសម": 1842,
      "ខិត": 1843,
      "គង្": 1844,
      "ឌី": 1845,
      "ត្តិ": 1846,
      "ទល់": 1847,
      "នេ": 1848,
      "ផា": 1849,
      "រាយ": 1850,
      "រំព": 1851,
      "លូក": 1852,
      "សៅ": 1853,
      "ិប": 1854,
      "ដែក": 1855,
      "ស្លាប": 1856,
      "ពីមុន": 1857,
      "្វេង": 1858,
      "ត្រើយ": 1859,
      "អាកាស": 1860,
      "ទីមួយ": 1861,
      "រីករ": 1862,
      "សង្វាត": 1863,
      "កាន់តែ": 1864,
      "បញ្ចេញ": 1865,
      "ស្ថិតស្ថេរ": 1866,
      "កំហឹង": 1867,
      "ទារក": 1868,
      "ម្តេច": 1869,
      "ស្វែងរក": 1870,
      "ឡាសារ": 1871,
      "ស្មោកគ្រោក": 1872,
      "គង្វាល": 1873,
      "រីករាយ": 1874,
      "កង": 1875,
      "គោក": 1876,
      "ជម": 1877,
      "ជេរ": 1878,
      "ដ្": 1879,
      "ដាម៉": 1880,
      "ដួង": 1881,
      "ឌេ": 1882,
      "តេច": 1883,
      "ទង": 1884,
      "ទិត្យ": 1885,
      "បូត": 1886,
      "ពូក": 1887,
      "យា": 1888,
      "រៀ": 1889,
      "រារ": 1890,
      "រ៉ា": 1891,
      "លង": 1892,
      "លុប": 1893,
      "ឱន": 1894,
      "្នះ": 1895,
      "បានជា": 1896,
      "ពីដើម": 1897,
      "ស្រេក": 1898,
      "កាច": 1899,
      "ច្រណែន": 1900,
      "គ្រប់គ្នា": 1901,
      "សម្តេច": 1902,
      "ស៊ីឡ": 1903,
      "ជ្រើស": 1904,
      "ប្រជារាស្ដ្រ": 1905,
      "ច្បាំង": 1906,
      "ទំពាំងបាយជូរ": 1907,
      "ឈឺចាប់": 1908,
      "ខ្វល់ខ្វាយ": 1909,
      "ប្ដូរ": 1910,
      "ពាសពេញ": 1911,
      "អាន់ទីយ៉ូក": 1912,
      "ជម្នះ": 1913,
      "ពូកែ": 1914,
      "រៀបរ": 1915,
      "កូ": 1916,
      "កែ": 1917,
      "ឃាត់": 1918,
      "ចល": 1919,
      "ញាត": 1920,
      "ដរាប": 1921,
      "ណារី": 1922,
      "តទៅ": 1923,
      "តុស": 1924,
      "ទាញ": 1925,
      "ធាន": 1926,
      "ពិច": 1927,
      "លិច": 1928,
      "លន់": 1929,
      "វាង": 1930,
      "ហៀរ": 1931,
      "ឫស": 1932,
      "ួញ": 1933,
      "ព្រះភ": 1934,
      "ជាមុន": 1935,
      "ប្រធាន": 1936,
      "ស្ទេ": 1937,
      "ារណា": 1938,
      "បន្តិច": 1939,
      "អាទិត្យ": 1940,
      "ចុះ‍": 1941,
      "បា្រ": 1942,
      "សេសារ": 1943,
      "បង្អ": 1944,
      "រូស": 1945,
      "ផ្លុំ": 1946,
      "ឆ្លាត": 1947,
      "បំភ្លឺ": 1948,
      "ស្ដាប់បង្គាប់": 1949,
      "នាគ": 1950,
      "កម្ទេច": 1951,
      "រៀងៗ": 1952,
      "ស្នែង": 1953,
      "ក្ដៅ": 1954,
      "ល្ងង់ខ្លៅ": 1955,
      "ផិតក្បត់": 1956,
      "ប្លន់": 1957,
      "ខ្វះខាត": 1958,
      "បណ្តាជន": 1959,
      "ឌេណារី": 1960,
      "រៀបរាប់": 1961,
      "ញាតិ": 1962,
      "ពិចារណា": 1963,
      "កេរ": 1964,
      "ចប់": 1965,
      "ចលា": 1966,
      "ជង្គ": 1967,
      "ញឹក": 1968,
      "ដាន់": 1969,
      "ណិម": 1970,
      "ថើប": 1971,
      "ទាំ": 1972,
      "ទាប": 1973,
      "ពង្រ": 1974,
      "លុយ": 1975,
      "វែក": 1976,
      "សប": 1977,
      "ស្នា": 1978,
      "េល": 1979,
      "ព្រឹក": 1980,
      "ខ្ព": 1981,
      "មាន់": 1982,
      "ស្វិត": 1983,
      "និមិត្ដ": 1984,
      "ត្រៀម": 1985,
      "ក្រហ": 1986,
      "ស្រាល": 1987,
      "សាឌ": 1988,
      "អាសូរ": 1989,
      "កាពើ": 1990,
      "ទីពីរ": 1991,
      "ឡើងៗ": 1992,
      "ផ្សា": 1993,
      "ផ្សះ": 1994,
      "សិរ": 1995,
      "ម៉ាស": 1996,
      "អើយ‍": 1997,
      "បង្អស់": 1998,
      "ជ្រួល": 1999,
      "្តី": 2000,
      "ប្រព្រឹត្តិ": 2001,
      "ខ្លាំងៗ": 2002,
      "ឆ្ពោះ": 2003,
      "ផ្ដា": 2004,
      "ស្មៅ": 2005,
      "ដំបង": 2006,
      "សូម្បីតែ": 2007,
      "ខ្មាំង": 2008,
      "បោកប្រាស់": 2009,
      "លេវី": 2010,
      "ក្ដ្រ": 2011,
      "ព្រលឹម": 2012,
      "ឧត្ដម": 2013,
      "ទ្រហោ": 2014,
      "ជ័យជម្នះ": 2015,
      "ដាម៉ាស់": 2016,
      "សេសារា": 2017,
      "ចលាចល": 2018,
      "ជង្គង់": 2019,
      "កាពើណិម": 2020,
      "ផ្សះផ្សា": 2021,
      "កត់": 2022,
      "គា": 2023,
      "គមន": 2024,
      "គូក": 2025,
      "តយុ": 2026,
      "ថូ": 2027,
      "ថ្នាក់": 2028,
      "នែ": 2029,
      "ពន": 2030,
      "ពាន": 2031,
      "មង្គ": 2032,
      "យ័រ": 2033,
      "រើ": 2034,
      "រញ្": 2035,
      "លការ": 2036,
      "លាន់": 2037,
      "វាក់": 2038,
      "សឹក": 2039,
      "អូរ": 2040,
      "ឧប": 2041,
      "ុល": 2042,
      "ូប": 2043,
      "ូស៊ី": 2044,
      "ើក": 2045,
      "ោភ": 2046,
      "ព្រះចេស្ដា": 2047,
      "ស្វា": 2048,
      "ទាំងនោះ": 2049,
      "មិនមែន": 2050,
      "ណាស": 2051,
      "បន្ទាយ": 2052,
      "គ្រែ": 2053,
      "សុប": 2054,
      "សុស": 2055,
      "បរាង": 2056,
      "ម៉ិល": 2057,
      "ច្រវាក់": 2058,
      "ចំណេញ": 2059,
      "រូបរាង": 2060,
      "ផង‍": 2061,
      "ពិសេស": 2062,
      "ភ្លេច": 2063,
      "បញ្ហា": 2064,
      "ប្រាំមួយ": 2065,
      "ច្បង": 2066,
      "បើកសំដែង": 2067,
      "សម្បថ": 2068,
      "ស្រាប់តែ": 2069,
      "ស្តេច": 2070,
      "គ្រោះកាច": 2071,
      "បែកបាក់": 2072,
      "អាម៉ាស់": 2073,
      "គោលការណ៍": 2074,
      "ស្កប់": 2075,
      "ល្បងល": 2076,
      "ទន់ខ្សោយ": 2077,
      "ហូរហៀរ": 2078,
      "ល្មោភ": 2079,
      "ឆ្អែត": 2080,
      "ដ្ឋ": 2081,
      "ផ្ដាច់": 2082,
      "គមន៍": 2083,
      "គូកន": 2084,
      "តយុទ្ធ": 2085,
      "មង្គលការ": 2086,
      "យ័រដាន់": 2087,
      "រញ្ជួយ": 2088,
      "ស្វាគមន៍": 2089,
      "ម៉ិលគី": 2090,
      "កិ": 2091,
      "គោះ": 2092,
      "ងឿង": 2093,
      "ចាំង": 2094,
      "ជជ": 2095,
      "ជ្ញា": 2096,
      "តុប": 2097,
      "តណ្": 2098,
      "ថានី": 2099,
      "ទម្រ": 2100,
      "ផាន": 2101,
      "ផ្អ": 2102,
      "មោទ": 2103,
      "រិយ": 2104,
      "រលំ": 2105,
      "សន្": 2106,
      "សាម": 2107,
      "ើច": 2108,
      "្រី": 2109,
      "ព្រើរ": 2110,
      "ព្រះសិរ": 2111,
      "ស្មើ": 2112,
      "លោកម្ចាស់": 2113,
      "ដូចម្តេច": 2114,
      "មួយម៉ឺន": 2115,
      "គ្រី": 2116,
      "ធ្វើការ": 2117,
      "ផ្ទុក": 2118,
      "ផ្គង់": 2119,
      "ផ្គត់": 2120,
      "ផ្សែង": 2121,
      "ទទូច": 2122,
      "សូត": 2123,
      "បង្វ": 2124,
      "បង្ខំ": 2125,
      "បង្ខូច": 2126,
      "មើលងាយ": 2127,
      "ពិគ្រោះ": 2128,
      "ផ្លាស់": 2129,
      "ទ្រេ": 2130,
      "កន្លង": 2131,
      "បញ្ជី": 2132,
      "ជម្រៅ": 2133,
      "អាក្រាត": 2134,
      "ផ្លូវភេទ": 2135,
      "សាឡូ": 2136,
      "ចៅក្រម": 2137,
      "ផលផ្លែ": 2138,
      "ភេស្ទុស": 2139,
      "ជំទាស់": 2140,
      "ត្រឹមតែ": 2141,
      "សំពត់": 2142,
      "ម្តាយ": 2143,
      "ក្រមុំ": 2144,
      "ហេព្រើរ": 2145,
      "ស៊ីឡាស": 2146,
      "ព្រះភក្ដ្រ": 2147,
      "ស្ទេផាន": 2148,
      "ញឹកញាប់": 2149,
      "សាឌូស៊ី": 2150,
      "កិរិយ": 2151,
      "ជជែក": 2152,
      "តណ្ហា": 2153,
      "មោទន": 2154,
      "កិរិយា": 2155,
      "«​": 2156,
      "ឃាំង": 2157,
      "ចាញ់": 2158,
      "ឆ្វេង": 2159,
      "ញើ": 2160,
      "ញ័រ": 2161,
      "ដាម": 2162,
      "ណី": 2163,
      "ទះ": 2164,
      "ទប់": 2165,
      "ទន្": 2166,
      "បះ": 2167,
      "ពល": 2168,
      "រុំ": 2169,
      "រអ៊": 2170,
      "លុត": 2171,
      "ស័យ": 2172,
      "ហាម": 2173,
      "អាយ": 2174,
      "ព្រះនាង": 2175,
      "របួស": 2176,
      "ម្ម": 2177,
      "ប្រទេស": 2178,
      "ប្រសូត": 2179,
      "្យល់": 2180,
      "ក្រវ": 2181,
      "ដូរ": 2182,
      "ប៉ះ": 2183,
      "ស្រើប": 2184,
      "ពេលនោះ": 2185,
      "ទីបញ្ចប់": 2186,
      "ទីរ៉": 2187,
      "ទីតុស": 2188,
      "ផ្ញើ": 2189,
      "កូនៗ": 2190,
      "ពីរពាន់": 2191,
      "ខាង‍": 2192,
      "ច្រៀង": 2193,
      "សំដៅ": 2194,
      "ចំណង់": 2195,
      "បុ័ង": 2196,
      "ល្អិត": 2197,
      "ុតាង": 2198,
      "នំបុ័ង": 2199,
      "សម័យ": 2200,
      "រងាវ": 2201,
      "ស្របតាម": 2202,
      "ឃ្លង់": 2203,
      "ច្ចុ": 2204,
      "អនទ្រេ": 2205,
      "បារ៉ា": 2206,
      "ព្រួយចិត្ដ": 2207,
      "ធ្មេញ": 2208,
      "រំលឹក": 2209,
      "លក្ខណៈ": 2210,
      "រឹងមាំ": 2211,
      "ភ្ញាក់": 2212,
      "តម្រង់": 2213,
      "ប្លែក": 2214,
      "យុវ": 2215,
      "ខ្ចាយ": 2216,
      "ឃុំឃាំង": 2217,
      "ថ្កោលទោស": 2218,
      "មីណា": 2219,
      "ពន្យល់": 2220,
      "សុបិន": 2221,
      "ផ្គត់ផ្គង់": 2222,
      "ទន្លេ": 2223,
      "អាយុ": 2224,
      "កល": 2225,
      "ចាយ": 2226,
      "ដាំ": 2227,
      "ដណ្ដ": 2228,
      "តួន": 2229,
      "ថោក": 2230,
      "ទ្ប": 2231,
      "ន្ន": 2232,
      "ប៊": 2233,
      "ប៊ី": 2234,
      "បោរ": 2235,
      "បច្ចុ": 2236,
      "ពោល": 2237,
      "ពោរ": 2238,
      "ភស្ដ": 2239,
      "រះ": 2240,
      "រោម": 2241,
      "លាត": 2242,
      "លង់": 2243,
      "លៀង": 2244,
      "ហាក់": 2245,
      "ឡូស": 2246,
      "ឧស្សា": 2247,
      "ាទី": 2248,
      "ឹ្រ": 2249,
      "ានាស": 2250,
      "ព្រៃ": 2251,
      "ព្រះឱ": 2252,
      "ង្ហ": 2253,
      "ខ្ចាត់": 2254,
      "ប្រម": 2255,
      "ប្រដៅ": 2256,
      "ស្យា": 2257,
      "នៅតែ": 2258,
      "ថា‍": 2259,
      "ត្រួត": 2260,
      "ក្រៀម": 2261,
      "ពេស្យា": 2262,
      "បន្ទប់": 2263,
      "្លេះ": 2264,
      "ស្រង": 2265,
      "ាក់ដា": 2266,
      "ទីបី": 2267,
      "ព្រោះតែ": 2268,
      "ផ្គរ": 2269,
      "ម៉្លេះ": 2270,
      "ម៉ាក់ដា": 2271,
      "ច្រក": 2272,
      "សំប": 2273,
      "សំណា": 2274,
      "មុត": 2275,
      "ចំណិត": 2276,
      "ពិស": 2277,
      "ភ្លៀង": 2278,
      "បាប៊ី": 2279,
      "ជ្រុង": 2280,
      "្ដិធម៌": 2281,
      "បញ្ចូល": 2282,
      "រូបព្រះ": 2283,
      "ក្សាន": 2284,
      "បង្ហូរ": 2285,
      "ប្បន្ន": 2286,
      "អ័ប៉ុ": 2287,
      "ទុក្ខព្រួយ": 2288,
      "ទោះជា": 2289,
      "ស្អែក": 2290,
      "សាសនា": 2291,
      "ឆ្កែ": 2292,
      "លំអ": 2293,
      "លំនៅ": 2294,
      "ណ្ឌ": 2295,
      "រលក": 2296,
      "អួតអាង": 2297,
      "ចោទប្រកាន់": 2298,
      "ត្បុត": 2299,
      "បេថានី": 2300,
      "ស្ទើរ": 2301,
      "អាណានាស": 2302,
      "គ្រាន់តែ": 2303,
      "សាបសូន្យ": 2304,
      "ប្ដឹង": 2305,
      "សង្កេត": 2306,
      "ទាក់ទង": 2307,
      "ឆាប់ៗ": 2308,
      "ស្ញែង": 2309,
      "ប្រណិត": 2310,
      "អើរី": 2311,
      "លោភលន់": 2312,
      "មន្ដ្រី": 2313,
      "យុត្ដិធម៌": 2314,
      "រារាំង": 2315,
      "េលាស": 2316,
      "ក្រហម": 2317,
      "ទម្រាំ": 2318,
      "សាឡូម៉ូន": 2319,
      "ក្រវាត់": 2320,
      "ទីរ៉ុស": 2321,
      "បារ៉ាបាស": 2322,
      "យុវជន": 2323,
      "តួនាទី": 2324,
      "បច្ចុប្បន្ន": 2325,
      "ភស្ដុតាង": 2326,
      "ឧស្សាហ៍": 2327,
      "ម៉ាក់ដាឡា": 2328,
      "បាប៊ីឡូន": 2329,
      "?»": 2330,
      "កេ": 2331,
      "កូរ": 2332,
      "កន្ដ": 2333,
      "ខៃ": 2334,
      "គម": 2335,
      "ទុយ": 2336,
      "ទាស": 2337,
      "ភរ": 2338,
      "ភ្": 2339,
      "ភូត": 2340,
      "រង្គ": 2341,
      "លាស់": 2342,
      "វៃ": 2343,
      "វឹង": 2344,
      "វាស់": 2345,
      "សៃ": 2346,
      "សន្ធ": 2347,
      "ហ្ន": 2348,
      "ហិប": 2349,
      "ុច": 2350,
      "ុញ": 2351,
      "េស": 2352,
      "័គ្រ": 2353,
      "‍ៗ": 2354,
      "ខ្វិន": 2355,
      "ប់ស្ញែង": 2356,
      "ហើយ‍": 2357,
      "ប្រឹង": 2358,
      "ស្ការី": 2359,
      "ន្មាន": 2360,
      "ក្រី": 2361,
      "ដូចគ្នា": 2362,
      "ទេល": 2363,
      "វិញ‍": 2364,
      "ស្រវឹង": 2365,
      "សាការី": 2366,
      "យ៉ុត": 2367,
      "អាជ្ញា": 2368,
      "អាគម": 2369,
      "ឡើយ‍": 2370,
      "ផ្កា": 2371,
      "ផ្គាប់": 2372,
      "បើម": 2373,
      "សេបេ": 2374,
      "សារពើ": 2375,
      "សំណាក់": 2376,
      "សម្បើម": 2377,
      "ល្អៗ": 2378,
      "តាច": 2379,
      "ស៊ីដូន": 2380,
      "ជឿជាក់": 2381,
      "សង្ស័យ": 2382,
      "កន្ទុយ": 2383,
      "កន្ទេល": 2384,
      "ជ្រៀត": 2385,
      "បញ្ជាន់": 2386,
      "ល្បិច": 2387,
      "ពេញចិត្ដ": 2388,
      "ពុករលួយ": 2389,
      "ស្ម័គ្រ": 2390,
      "អ័គ្រី": 2391,
      "អ័ដាម": 2392,
      "ធំៗ": 2393,
      "អ៊ីស្ការី": 2394,
      "ក្រៅពី": 2395,
      "សម្រេចចិត្ដ": 2396,
      "រំដោះ": 2397,
      "រំសាយ": 2398,
      "ហាសិប": 2399,
      "សម្បត្តិ": 2400,
      "ស៊ីម៉ូនពេត្រុស": 2401,
      "ចម្រូត": 2402,
      "ចម្រៀង": 2403,
      "ឃ្លាត": 2404,
      "រលាយ": 2405,
      "ឈ្នានី": 2406,
      "ទំនុក": 2407,
      "គ្រោះថ្នាក់": 2408,
      "បិល": 2409,
      "ព័ទ្ធ": 2410,
      "ចម្លាក់": 2411,
      "រឹងរូស": 2412,
      "សំណែន": 2413,
      "ស្សាដែក": 2414,
      "ទូន្មាន": 2415,
      "ស្ញប់ស្ញែង": 2416,
      "ស្លូតបូត": 2417,
      "កែវ": 2418,
      "ពង្រឹង": 2419,
      "ស្នាម": 2420,
      "ខ្ពើម": 2421,
      "ថូម៉ាស": 2422,
      "ម៉ិលគីស្សាដែក": 2423,
      "តុបតែង": 2424,
      "បះបោរ": 2425,
      "អ័ប៉ុឡូស": 2426,
      "កន្ដ្រ": 2427,
      "សេបេដេ": 2428,
      "អ័គ្រីប៉ា": 2429,
      "អ៊ីស្ការីយ៉ុត": 2430,
      "ឈ្នានីស": 2431,
      "]​": 2432,
      "កាម": 2433,
      "កើន": 2434,
      "ខូរ": 2435,
      "គជ": 2436,
      "គីឡ": 2437,
      "ងើប": 2438,
      "ឆក់": 2439,
      "ជប់": 2440,
      "ញ់": 2441,
      "ញង់": 2442,
      "ណាយ": 2443,
      "ធរ": 2444,
      "ធូរ": 2445,
      "ធូលី": 2446,
      "បំព": 2447,
      "បេត": 2448,
      "ផែង": 2449,
      "ផាស": 2450,
      "ពឹង": 2451,
      "ព្វ": 2452,
      "មធ": 2453,
      "រណ្ដ": 2454,
      "រោគ": 2455,
      "សាំ": 2456,
      "ហើរ": 2457,
      "ហ្ម": 2458,
      "អះ": 2459,
      "អំន": 2460,
      "ឬ‍": 2461,
      "ឯណា": 2462,
      "ូអេ": 2463,
      "​។": 2464,
      "ព្រី": 2465,
      "ព្រមាន": 2466,
      "ព្រាប": 2467,
      "ប្រៃ": 2468,
      "ប្រដាប់": 2469,
      "ឲ្យអ្នក": 2470,
      "ាត្រ": 2471,
      "ត្រជាក់": 2472,
      "ប៉េ": 2473,
      "យើង‍": 2474,
      "ដោយព្រោះ": 2475,
      "បន្ត": 2476,
      "វិល": 2477,
      "ខ្លី": 2478,
      "ត្រូវតែ": 2479,
      "សាល": 2480,
      "យ៉ុប": 2481,
      "អាខៃ": 2482,
      "កូនេលាស": 2483,
      "យ៉ាងណា": 2484,
      "ម៉ាក": 2485,
      "ផ្លេក": 2486,
      "រសៀល": 2487,
      "មេការ": 2488,
      "មេនំប៉័ង": 2489,
      "្ដិ៍": 2490,
      "ពន្ល": 2491,
      "កំផែង": 2492,
      "នាវ": 2493,
      "លីច": 2494,
      "អ័លេ": 2495,
      "ចែងទុក": 2496,
      "អំពាវ": 2497,
      "សមត្ថ": 2498,
      "ប្រែចិត្ត": 2499,
      "ឆ្កួត": 2500,
      "ភេលីច": 2501,
      "ស្ងប់": 2502,
      "លើសលប់": 2503,
      "ខ្មោច": 2504,
      "បោកបញ្ឆោត": 2505,
      "ទេសឯក": 2506,
      "អេលីសាប": 2507,
      "ស្លៀកពាក់": 2508,
      "ម៉ឺង": 2509,
      "សណ្ឋាន": 2510,
      "ប៉ងប្រាថ្នា": 2511,
      "ស្កល់": 2512,
      "គ្របបាំង": 2513,
      "ខិតខំ": 2514,
      "រំពេច": 2515,
      "បា្រប់": 2516,
      "កេរ្ដិ៍": 2517,
      "ផ្អែក": 2518,
      "ស្រងែ": 2519,
      "ពិសោធ": 2520,
      "ភូតភរ": 2521,
      "គជ់": 2522,
      "រណ្ដៅ": 2523,
      "អះអាង": 2524,
      "អំនួត": 2525,
      "យ៉ុបប៉េ": 2526,
      "អ័លេក្សាន": 2527,
      "អេលីសាបិត": 2528,
      "ខ្នា": 2529,
      "ឃាត": 2530,
      "ញុះ": 2531,
      "ដុម": 2532,
      "ណាន": 2533,
      "ណ្ត": 2534,
      "ណូអេ": 2535,
      "តោ": 2536,
      "ត្ម": 2537,
      "ថយ": 2538,
      "ធម្ម": 2539,
      "បេរ": 2540,
      "ផ្ន": 2541,
      "មហា": 2542,
      "រាក់": 2543,
      "រិះ": 2544,
      "លូ": 2545,
      "លាយ": 2546,
      "វាល់": 2547,
      "សួន": 2548,
      "សសរ": 2549,
      "អញ": 2550,
      "អើរ": 2551,
      "អន្ទ": 2552,
      "ុង្គ": 2553,
      "ូសា": 2554,
      "​។​": 2555,
      "អ្នកមាន": 2556,
      "អ្នករាល់គ្នា": 2557,
      "របរ": 2558,
      "ម្សៅ": 2559,
      "ប្រភព": 2560,
      "ប្រភេទ": 2561,
      "ស្វាយ": 2562,
      "ស្ពាន់": 2563,
      "ក្រាល": 2564,
      "មួយៗ": 2565,
      "មួយពាន់": 2566,
      "គ្រុន": 2567,
      "ស្រ្តី": 2568,
      "ពេលណា": 2569,
      "ធ្វើបាប": 2570,
      "សាទ": 2571,
      "គឺជា": 2572,
      "ទៀត‍": 2573,
      "ទីបន្ទាល់": 2574,
      "ផ្កាប់": 2575,
      "ជំនាញ": 2576,
      "បរទេស": 2577,
      "ទុកចិត្ដ": 2578,
      "ម៉ែ": 2579,
      "ចំណាយ": 2580,
      "សូដុម": 2581,
      "បង្កាច់": 2582,
      "សុទ្ធតែ": 2583,
      "ស៊ីរី": 2584,
      "ពិការ": 2585,
      "រសាត់": 2586,
      "ទ្រូង": 2587,
      "ជ្រៅ": 2588,
      "ជ្រលក់": 2589,
      "ទឹកចិត្ត": 2590,
      "រយៈពេល": 2591,
      "ស្ថាននរក": 2592,
      "យ៉ូណាស": 2593,
      "គ៌ា": 2594,
      "ប្រាំបី": 2595,
      "បែបយ៉ាង": 2596,
      "ប្រោសលោះ": 2597,
      "រងា": 2598,
      "ស្លឹក": 2599,
      "មាគ៌ា": 2600,
      "តូចៗ": 2601,
      "តបស្នង": 2602,
      "ទារុណ": 2603,
      "ទំនង": 2604,
      "ចម្លើយ": 2605,
      "សង្រ": 2606,
      "មិត្ត": 2607,
      "ពុតត្បុត": 2608,
      "នីស": 2609,
      "នីកូ": 2610,
      "សង្កៀត": 2611,
      "កម្រៀវ": 2612,
      "កៃផា": 2613,
      "ប្ដូរផ្ដាច់": 2614,
      "សន្សំ": 2615,
      "ផ្លាស់ប្រែ": 2616,
      "ស្រើបស្រាល": 2617,
      "ខ្ចាត់ខ្ចាយ": 2618,
      "ផ្គរលាន់": 2619,
      "កេផាស": 2620,
      "អាជ្ញាធរ": 2621,
      "កន្ដ្រក": 2622,
      "បំពាន": 2623,
      "ម៉ាកុស": 2624,
      "សមត្ថភាព": 2625,
      "ខ្នាត": 2626,
      "ផ្នែក": 2627,
      "កប់": 2628,
      "កិន": 2629,
      "ក្អ": 2630,
      "កុស": 2631,
      "ខេ": 2632,
      "គុ": 2633,
      "គម្រ": 2634,
      "ឃី": 2635,
      "ងើយ": 2636,
      "ឋម": 2637,
      "តឹង": 2638,
      "តំណ": 2639,
      "តទល់": 2640,
      "ថូស": 2641,
      "ទទេ": 2642,
      "ធ័រ": 2643,
      "នន": 2644,
      "បឋម": 2645,
      "រណ៍": 2646,
      "រន្ធ": 2647,
      "លាន": 2648,
      "លេង": 2649,
      "វង្ស": 2650,
      "សុង": 2651,
      "ហុក": 2652,
      "ហែក": 2653,
      "ហៀប": 2654,
      "ហិម": 2655,
      "អប់": 2656,
      "អាប់": 2657,
      "អួន": 2658,
      "អក្ស": 2659,
      "េហិម": 2660,
      "ោន": 2661,
      "ោបាយ": 2662,
      "ៈភាព": 2663,
      "៉ាន": 2664,
      "‍ឯ": 2665,
      "ម្ព": 2666,
      "ប្រហារ": 2667,
      "ស្ឋ": 2668,
      "្យោបាយ": 2669,
      "ិនថូស": 2670,
      "ទាំងមូល": 2671,
      "ត្រក": 2672,
      "នេះ‍": 2673,
      "បន្ទោរ": 2674,
      "ស្រម": 2675,
      "ស្ដោះ": 2676,
      "យ៉ូន": 2677,
      "អាស": 2678,
      "ផ្សារ": 2679,
      "សុភាព": 2680,
      "ថ្ងាស": 2681,
      "រីក": 2682,
      "គ្រិស្ត": 2683,
      "ហេតុផល": 2684,
      "ភ្លក់": 2685,
      "បំបាត់": 2686,
      "បំបែក": 2687,
      "យល់ព្រម": 2688,
      "អេលា": 2689,
      "ផ្ដាក់": 2690,
      "លីគា": 2691,
      "ថ្លេហិម": 2692,
      "ករណី": 2693,
      "ក្លិន": 2694,
      "ព្យុះ": 2695,
      "ភ្លាមៗ": 2696,
      "ជំរ": 2697,
      "ថែស្សា": 2698,
      "ដំបូល": 2699,
      "ម៉ាណា": 2700,
      "កណ្ដៀវ": 2701,
      "្តិយស": 2702,
      "គីប្រុស": 2703,
      "គីរេ": 2704,
      "គីលីគា": 2705,
      "បេថ្លេហិម": 2706,
      "សងសឹក": 2707,
      "ពពែ": 2708,
      "ឈ្លើយ": 2709,
      "ក្លាយជា": 2710,
      "កិត្តិយស": 2711,
      "តម្រូវ": 2712,
      "កម្រៃ": 2713,
      "បណ្តាសា": 2714,
      "ខ្ចី": 2715,
      "ខ្នង": 2716,
      "ឧត្ដុង្គ": 2717,
      "បង្កើយ": 2718,
      "ល្មម": 2719,
      "ម្ភៃ": 2720,
      "នេសាទ": 2721,
      "រំពាត់": 2722,
      "បង្វែរ": 2723,
      "មោទនៈភាព": 2724,
      "រអ៊ូ": 2725,
      "ប៊ូល": 2726,
      "ពោរពេញ": 2727,
      "ព្រះឱស្ឋ": 2728,
      "សំបុក": 2729,
      "សំណាញ់": 2730,
      "លំអៀង": 2731,
      "កូរិនថូស": 2732,
      "ក្រីក្រ": 2733,
      "មធ្យោបាយ": 2734,
      "រោគា": 2735,
      "អំពាវនាវ": 2736,
      "ញុះញង់": 2737,
      "ធម្មតា": 2738,
      "ស្ពាន់ធ័រ": 2739,
      "គុម្ព": 2740,
      "គម្រោង": 2741,
      "អក្សរ": 2742,
      "គីរេន": 2743,
      "!»": 2744,
      "កន": 2745,
      "កក្រ": 2746,
      "កសិ": 2747,
      "កញ្": 2748,
      "ខាំង": 2749,
      "ងាប់": 2750,
      "ងាក": 2751,
      "ជូត": 2752,
      "ដៀល": 2753,
      "ដង្ហ": 2754,
      "ថ្ន": 2755,
      "ទ្យ": 2756,
      "ទេះ": 2757,
      "ធាត": 2758,
      "ធាស": 2759,
      "នឹម": 2760,
      "បបូរ": 2761,
      "ប្តី": 2762,
      "ពឹ្រ": 2763,
      "មួល": 2764,
      "រម្": 2765,
      "រាម": 2766,
      "រវាង": 2767,
      "រទាំ": 2768,
      "រទេះ": 2769,
      "ល្វី": 2770,
      "លេញ": 2771,
      "លសេ": 2772,
      "វាំង": 2773,
      "វត្ថ": 2774,
      "សោ": 2775,
      "សឹម": 2776,
      "ហុយ": 2777,
      "ឡូ": 2778,
      "ឡៅ": 2779,
      "អាំង": 2780,
      "អង្ក": 2781,
      "អត្ថ": 2782,
      "ឧទ្ធ": 2783,
      "ីច": 2784,
      "ុភាព": 2785,
      "៉េះ": 2786,
      "៕​": 2787,
      "​»": 2788,
      "្រាត្រ": 2789,
      "ម្មាន": 2790,
      "ប្រោះ": 2791,
      "ប្រួល": 2792,
      "ត្រែង": 2793,
      "ត្រាញ់": 2794,
      "ក្រក់": 2795,
      "ក្រេត": 2796,
      "ពេទ្យ": 2797,
      "វិទូ": 2798,
      "ម្រាម": 2799,
      "យេរី": 2800,
      "ទៀតៗ": 2801,
      "កាឡា": 2802,
      "អំបិល": 2803,
      "ទីលាន": 2804,
      "និយម": 2805,
      "សម្រុះ": 2806,
      "សម្រួល": 2807,
      "ទុកជា": 2808,
      "ទុកដាក់": 2809,
      "ថ្ងូរ": 2810,
      "បង្ខាំង": 2811,
      "ស៊ីល": 2812,
      "ស៊ីយ៉ូន": 2813,
      "ស៊ីម្មាន": 2814,
      "ទូលអង្វរ": 2815,
      "បំប": 2816,
      "យ៉ូស": 2817,
      "ពេញវ័យ": 2818,
      "អធ្រាត្រ": 2819,
      "ផ្ដេក": 2820,
      "ផ្ដន្ទ": 2821,
      "ក្បួន": 2822,
      "បណ្ដាសា": 2823,
      "សាច់ញាតិ": 2824,
      "ម្ល៉េះ": 2825,
      "ករណ៍": 2826,
      "សមរម្": 2827,
      "កំណល់": 2828,
      "រំខាន": 2829,
      "សព្វគ្រប់": 2830,
      "ក្មេក": 2831,
      "កម្សោយ": 2832,
      "ឆ្នោត": 2833,
      "ដោះសា": 2834,
      "ប្រាជ្ញ": 2835,
      "រលាស់": 2836,
      "រលត់": 2837,
      "អត់ឱន": 2838,
      "ទ្រាំទ្រ": 2839,
      "្ដាហ៍": 2840,
      "លេខ": 2841,
      "្តិធម៌": 2842,
      "ស្អប់ខ្ពើម": 2843,
      "បេលសេ": 2844,
      "ផ្ទៃពោះ": 2845,
      "ត្ដមាន": 2846,
      "ប្រុងប្រៀប": 2847,
      "តម្រាប់": 2848,
      "ត្ថម្ភ": 2849,
      "បកប្រែ": 2850,
      "ឡូនីច": 2851,
      "យុត្តិធម៌": 2852,
      "ឌីសេ": 2853,
      "សប្ដាហ៍": 2854,
      "ឧបករណ៍": 2855,
      "ឧបត្ថម្ភ": 2856,
      "ទាសករ": 2857,
      "ភ្ជាប់": 2858,
      "រង្គើ": 2859,
      "សៃដា": 2860,
      "ហ្នឹង": 2861,
      "បេតសៃដា": 2862,
      "ឃាតក": 2863,
      "ត្មះ": 2864,
      "អើរ៉": 2865,
      "អន្ទាក់": 2866,
      "ម៉ែត្រ": 2867,
      "សង្រ្": 2868,
      "ស្រមោល": 2869,
      "ថែស្សាឡូនីច": 2870,
      "ដង្ហើម": 2871,
      "ធាតុ": 2872,
      "ល្វីង": 2873,
      "ឡៅឌីសេ": 2874,
      "ឧទ្ធរណ៍": 2875,
      "យេរីខូរ": 2876,
      "កាឡាទី": 2877,
      "ផ្ដន្ទា": 2878,
      "សមរម្យ": 2879,
      "បេលសេប៊ូល": 2880,
      "កៅ": 2881,
      "កង្វ": 2882,
      "គាស": 2883,
      "ងាត់": 2884,
      "ចោម": 2885,
      "ចាប": 2886,
      "ចម្ក": 2887,
      "ជ្": 2888,
      "ជួល": 2889,
      "ជម្ល": 2890,
      "ជង្រ": 2891,
      "ឈ្វេង": 2892,
      "ដោរ": 2893,
      "ណែល": 2894,
      "តារា": 2895,
      "ថ្នូរ": 2896,
      "ទំ": 2897,
      "ទាយ": 2898,
      "ទូត": 2899,
      "ធា": 2900,
      "ធារ": 2901,
      "យោ": 2902,
      "រស្ម": 2903,
      "រវាត": 2904,
      "លទ្ធ": 2905,
      "លោត": 2906,
      "វារ": 2907,
      "វ៉ា": 2908,
      "សែន": 2909,
      "សណ្ដ": 2910,
      "សកម្ម": 2911,
      "ហាល": 2912,
      "ហូសា": 2913,
      "អាល់": 2914,
      "អន់": 2915,
      "ឤក្រក់": 2916,
      "ឹប": 2917,
      "ឹល": 2918,
      "ែប": 2919,
      "ែម": 2920,
      "ែស": 2921,
      "័ស": 2922,
      "ព្រឹល": 2923,
      "ព្រះជា": 2924,
      "ព្រះនេ": 2925,
      "ជាកូន": 2926,
      "អ្នកជឿ": 2927,
      "ខ្សាច់": 2928,
      "ប្រជ្រៀត": 2929,
      "។​»": 2930,
      "ថាណែល": 2931,
      "ខ្ញុំ‍": 2932,
      "ព្រះអង្គ‍": 2933,
      "និញ": 2934,
      "ោយំ": 2935,
      "ក្រង": 2936,
      "ប៉ាម": 2937,
      "បន្លំ": 2938,
      "ាមី": 2939,
      "ណាថាណែល": 2940,
      "ស្រួល": 2941,
      "ព្រះជាម្ចាស់‍": 2942,
      "ស៊ា": 2943,
      "ខ្លុយ": 2944,
      "ត្រូវបាន": 2945,
      "តែមួយ": 2946,
      "សាធារ": 2947,
      "អាក": 2948,
      "ទីបួន": 2949,
      "ផ្ទាំង": 2950,
      "ផ្សាំ": 2951,
      "កូនាម": 2952,
      "ចេញពី": 2953,
      "ខ្លួនឯង": 2954,
      "ជំនន់": 2955,
      "សម្រូត": 2956,
      "ខាងឯ": 2957,
      "ច្រឡ": 2958,
      "ច្រាំង": 2959,
      "ច្រត់": 2960,
      "រី‍ឯ": 2961,
      "ចំណី": 2962,
      "គ្រប់ៗ": 2963,
      "ប្អូនៗ": 2964,
      "តាលី": 2965,
      "ស៊ីន": 2966,
      "ផ្លៀង": 2967,
      "ទ្រអាស": 2968,
      "ភ្លែត": 2969,
      "កន្លះ": 2970,
      "កន្សែង": 2971,
      "ទឹកដី": 2972,
      "បណ្ដើរ": 2973,
      "រកស៊ី": 2974,
      "ក្រោយមក": 2975,
      "ដាក់ទោស": 2976,
      "យល់សប": 2977,
      "រហែក": 2978,
      "រហ័ស": 2979,
      "ឈ្មោល": 2980,
      "ឯង‍": 2981,
      "ល្បី": 2982,
      "ផែនការ": 2983,
      "ផ្ដុំ": 2984,
      "ផ្ដួល": 2985,
      "កំផ្លៀង": 2986,
      "នាវា": 2987,
      "ប្បាយ": 2988,
      "អ័គីឡ": 2989,
      "ធ្លាយ": 2990,
      "អ៊ីសាយ": 2991,
      "អ៊ីកូនាម": 2992,
      "ក្លូ": 2993,
      "សុខចិត្ដ": 2994,
      "សុខភាព": 2995,
      "បំណុល": 2996,
      "កំណប់": 2997,
      "ប្រែប្រួល": 2998,
      "ឆ្នេរ": 2999,
      "ស្លាក": 3000,
      "ម្ដងៗ": 3001,
      "ស្ងើច": 3002,
      "បញ្ញត្តិ": 3003,
      "ចេះតែ": 3004,
      "ឈើឆ្កាង": 3005,
      "អូដ្ឋ": 3006,
      "ខ្មៅ": 3007,
      "ខ្មេះ": 3008,
      "ងងុយ": 3009,
      "បាត់បង់": 3010,
      "កណ្ដូប": 3011,
      "លេប": 3012,
      "បែរជា": 3013,
      "បន្ដួច": 3014,
      "បារម្ភ": 3015,
      "រំលែក": 3016,
      "ប្រសិនបើ": 3017,
      "ហេរ៉ូឌាស": 3018,
      "គីម": 3019,
      "ដែរ‍ឬ": 3020,
      "ផ្ទៃមេឃ": 3021,
      "សាកសព": 3022,
      "រង្វាល់": 3023,
      "អាថែន": 3024,
      "ឈ្លាស": 3025,
      "គំរាម": 3026,
      "ធ្ងរ": 3027,
      "ខ្សែតី": 3028,
      "សង្កត់": 3029,
      "ថ្លៃថ្នូរ": 3030,
      "ចំហៀង": 3031,
      "ស្ងៀមស្ងាត់": 3032,
      "អូសទាញ": 3033,
      "ទ្រហោយំ": 3034,
      "ឆ្អឹង": 3035,
      "ម៉ាថាយ": 3036,
      "រារែក": 3037,
      "វែកញែក": 3038,
      "កត់ត្រា": 3039,
      "ស្កប់ស្កល់": 3040,
      "សាមសិប": 3041,
      "បង្វឹក": 3042,
      "មោទនភាព": 3043,
      "ថោកទាប": 3044,
      "ប្រមឹក": 3045,
      "ប្រមៀល": 3046,
      "ត្រួតត្រា": 3047,
      "សន្ធឹក": 3048,
      "ពន្លក": 3049,
      "ម៉ឺងម៉ាត់": 3050,
      "អ័លេក្សានត្រុស": 3051,
      "រាក់ទាក់": 3052,
      "រន្ធត់": 3053,
      "អប់រំ": 3054,
      "កក្រើក": 3055,
      "កសិករ": 3056,
      "ចម្កួត": 3057,
      "ជម្លោះ": 3058,
      "ជង្រុក": 3059,
      "តារាវិទូ": 3060,
      "ទំនិញ": 3061,
      "យោបល់": 3062,
      "រស្មី": 3063,
      "សកម្មភាព": 3064,
      "ហូសាណា": 3065,
      "ព្រះនេត្រ": 3066,
      "សាធារណៈ": 3067,
      "អ័គីឡា": 3068,
      "កឿង": 3069,
      "កេង": 3070,
      "កៀក": 3071,
      "កណ្តា": 3072,
      "ខក": 3073,
      "គុំ": 3074,
      "គាស់": 3075,
      "គក់": 3076,
      "ឃ្វ": 3077,
      "ឃ្ម": 3078,
      "ចក": 3079,
      "ចាន": 3080,
      "ចង្": 3081,
      "ចន្": 3082,
      "ចឹក": 3083,
      "ចត់": 3084,
      "ចចក": 3085,
      "ជុល": 3086,
      "ដប": 3087,
      "ដាល់": 3088,
      "ដាង": 3089,
      "ឌា": 3090,
      "ត្ត": 3091,
      "ថ្វី": 3092,
      "ទួល": 3093,
      "ទៀង": 3094,
      "ធ្នា": 3095,
      "ធៀប": 3096,
      "បូក": 3097,
      "បណ្ត": 3098,
      "ផាយ": 3099,
      "ពះ": 3100,
      "ពិន": 3101,
      "ពន់": 3102,
      "ភក់": 3103,
      "ភាក": 3104,
      "ភៀស": 3105,
      "មូ": 3106,
      "មិញ": 3107,
      "យោល": 3108,
      "រាំ": 3109,
      "រុក": 3110,
      "វជ្រ": 3111,
      "វត្ដមាន": 3112,
      "សូវ": 3113,
      "សើច": 3114,
      "ហូត": 3115,
      "ហុច": 3116,
      "អូន": 3117,
      "ឧបាយ": 3118,
      "ិក": 3119,
      "ីស៊ី": 3120,
      "ឺត": 3121,
      "ុទ្ធ": 3122,
      "ះខ្ន": 3123,
      "ព្រេង": 3124,
      "ព្រះរា": 3125,
      "ជាស្រេច": 3126,
      "អ្នកនោះ": 3127,
      "្ដោស": 3128,
      "ខ្យា": 3129,
      "រប្រ": 3130,
      "របស់ព្រះអង្គ": 3131,
      "ប្រដា": 3132,
      "ប្រកាច់": 3133,
      "មានបន្ទូល": 3134,
      "ស្ព": 3135,
      "នៅស់": 3136,
      "ឲ្យខ្ញុំ": 3137,
      "ឲ្យយើង": 3138,
      "ាតា": 3139,
      "និរ": 3140,
      "ន្ត": 3141,
      "មករ": 3142,
      "មិនខាន": 3143,
      "ត្រាប់": 3144,
      "ត្រដាង": 3145,
      "លោកស្រី": 3146,
      "ចាស់ៗ": 3147,
      "ក្រោះ": 3148,
      "ក្រពះ": 3149,
      "ប៉ិន": 3150,
      "ស្រះ": 3151,
      "ស្រ្ដ": 3152,
      "ូរទាំ": 3153,
      "ស៊ើរ": 3154,
      "ស្ដាយ": 3155,
      "យ៉ាស": 3156,
      "»​។​": 3157,
      "ទីប្រាំ": 3158,
      "ទីប្រាំពីរ": 3159,
      "ទីប្រាំមួយ": 3160,
      "ទីឃី": 3161,
      "តើសុស": 3162,
      "ផ្សាយ": 3163,
      "ផ្គុំ": 3164,
      "ថ្កា": 3165,
      "រួបរ": 3166,
      "បាឡ": 3167,
      "កូនមនុស្ស": 3168,
      "ពីររយ": 3169,
      "សម្រែក": 3170,
      "?​»": 3171,
      "ច្រាន": 3172,
      "ច្របូក": 3173,
      "សារភាព": 3174,
      "សារ៉ា": 3175,
      "សំបក": 3176,
      "ចំណារ": 3177,
      "ចំណុច": 3178,
      "បុរា": 3179,
      "បុព្វ": 3180,
      "រូង": 3181,
      "វាទ": 3182,
      "ផ្ទឹម": 3183,
      "សម្ងាត់": 3184,
      "ស្លាប់‍": 3185,
      "ពិណ": 3186,
      "ពិភាក": 3187,
      "រសាយ": 3188,
      "ទ្រី": 3189,
      "ជ្រុះ": 3190,
      "ាជិក": 3191,
      "បណ្ដាំ": 3192,
      "លាល": 3193,
      "ស្ថានលើ": 3194,
      "យ៉ូសេ": 3195,
      "ឈ្មួញ": 3196,
      "សន្ន": 3197,
      "សន្ដិ": 3198,
      "សន្ដោស": 3199,
      "អេប៉ា": 3200,
      "ស្បៃ": 3201,
      "ជិតខាង": 3202,
      "កំចាត់": 3203,
      "សង្គ្រាម": 3204,
      "ស្មូន": 3205,
      "ជានិច្ច‍": 3206,
      "អ័ប៊ី": 3207,
      "ចារឹក": 3208,
      "ប្រយុទ្ធ": 3209,
      "ដំរី": 3210,
      "អ៊ីតាលី": 3211,
      "ថ្លា": 3212,
      "ថ្លង់": 3213,
      "ប្រសប់": 3214,
      "ប្រជារា": 3215,
      "សមាជិក": 3216,
      "សុខទុក្ខ": 3217,
      "បំណះ": 3218,
      "ព្យា": 3219,
      "រំយោល": 3220,
      "ភេនីស": 3221,
      "ផារីស៊ី": 3222,
      "លំដាប់": 3223,
      "ាម៉ា": 3224,
      "ទាស់ចិត្ដ": 3225,
      "ស្រីៗ": 3226,
      "កម្មករ": 3227,
      "ប្រជុំជន": 3228,
      "តូចតាច": 3229,
      "ដំបៅ": 3230,
      "ខ្មាស់": 3231,
      "ជម្រាបលា": 3232,
      "អត់ឃ្លាន": 3233,
      "ភីលា": 3234,
      "លេលា": 3235,
      "្តិ៍": 3236,
      "អានុភាព": 3237,
      "ត្បាល់": 3238,
      "បឹងភ្លើង": 3239,
      "អសោច": 3240,
      "សំណង់": 3241,
      "សំណួរ": 3242,
      "ដេម": 3243,
      "ដេញដោល": 3244,
      "នីមួយៗ": 3245,
      "យុថ្កា": 3246,
      "ខ្ជិល": 3247,
      "ម៉ាត់ធាស": 3248,
      "ខ្នោះ": 3249,
      "ខ្នះខ្ន": 3250,
      "ប្រណី": 3251,
      "បន្ទាបខ្លួន": 3252,
      "ចៀសវាង": 3253,
      "ឌីអាន": 3254,
      "រាយការណ៍": 3255,
      "សៅហ្ម": 3256,
      "កងទ័ព": 3257,
      "កេរ្តិ៍": 3258,
      "ខ្ពង់": 3259,
      "នែ៎": 3260,
      "ល្មោភកាម": 3261,
      "រអ៊ូរទាំ": 3262,
      "ដណ្ដប់": 3263,
      "ស្ទើរតែ": 3264,
      "ក្រហមទុំ": 3265,
      "ធូរស្បើយ": 3266,
      "សាលម៉ូន": 3267,
      "កេរ្ដិ៍ឈ្មោះ": 3268,
      "នីកូដេម": 3269,
      "ត្រកូល": 3270,
      "ជំរុញ": 3271,
      "កញ្ជ្រ": 3272,
      "បំបៅ": 3273,
      "អើរ៉ុន": 3274,
      "សង្រ្គោះ": 3275,
      "កង្វាក់": 3276,
      "លទ្ធផល": 3277,
      "សណ្ដាប់": 3278,
      "ប៉ាមភីលា": 3279,
      "ាមីន": 3280,
      "យល់សប្ដិ": 3281,
      "កណ្តាល": 3282,
      "ឃ្វាល": 3283,
      "ឃ្មុំ": 3284,
      "ធ្នាប់": 3285,
      "ពិនិត្យ": 3286,
      "មូតា": 3287,
      "អូនេ": 3288,
      "ព្រះរាជា": 3289,
      "យ៉ាសុន": 3290,
      "ទីឃីកុស": 3291,
      "បុរាណ": 3292,
      "បុព្វបុរស": 3293,
      "ពិភាក្សា": 3294,
      "អេប៉ាប្រ": 3295,
      "ខ្នះខ្នែង": 3296,
      "សៅហ្មង": 3297,
      "!»។​": 3298,
      ")។​": 3299,
      "កដ": 3300,
      "កុម": 3301,
      "កួរ": 3302,
      "ខារ": 3303,
      "គង": 3304,
      "គារ": 3305,
      "ចត": 3306,
      "ចរ": 3307,
      "ចុក": 3308,
      "ឆួល": 3309,
      "ជោ": 3310,
      "ជែង": 3311,
      "ជរា": 3312,
      "ឈោង": 3313,
      "ដៀង": 3314,
      "ដង្ក": 3315,
      "ឌើប": 3316,
      "ណឹង": 3317,
      "ណុក": 3318,
      "ណ្ដែ": 3319,
      "តក់": 3320,
      "ត្អ": 3321,
      "ថុយ": 3322,
      "ទាត់": 3323,
      "ទណ្ឌ": 3324,
      "ធានា": 3325,
      "នយ៉": 3326,
      "នាស": 3327,
      "បស់": 3328,
      "ផេះ": 3329,
      "ផុស": 3330,
      "ពាង": 3331,
      "ភក្ដិ": 3332,
      "ភក្តិ": 3333,
      "មហ": 3334,
      "មណី": 3335,
      "យៃ": 3336,
      "យុស": 3337,
      "យោង": 3338,
      "យឺត": 3339,
      "រម": 3340,
      "រាល": 3341,
      "លូន": 3342,
      "លត់": 3343,
      "លលា": 3344,
      "លង្ហ": 3345,
      "វៀ": 3346,
      "វ៉ាន": 3347,
      "សាង": 3348,
      "ស្នូរ": 3349,
      "ហ៊ី": 3350,
      "ហូប": 3351,
      "ឡុង": 3352,
      "ឡុត": 3353,
      "អុ": 3354,
      "អាំ": 3355,
      "អម្ចាស់": 3356,
      "អន្ដ": 3357,
      "អនាគ": 3358,
      "អណ្ត": 3359,
      "អន្ត": 3360,
      "អគារ": 3361,
      "ឭក": 3362,
      "ឮក": 3363,
      "ឯ‍": 3364,
      "ឱប": 3365,
      "ុឌ": 3366,
      "ូយ៉ា": 3367,
      "េឌ": 3368,
      "េន": 3369,
      "​៖": 3370,
      "ព្រហ្ម": 3371,
      "ព្រះគ្រិស្ត": 3372,
      "ជាខ្លាំង": 3373,
      "អ្នក‍": 3374,
      "អ្នកក្រ": 3375,
      "អ្នកការ": 3376,
      "អ្នកយាម": 3377,
      "ដែន": 3378,
      "ខ្ទេច": 3379,
      "របស់អ្នក": 3380,
      "ពួកនាង": 3381,
      "ប្រច": 3382,
      "ប្រតិ": 3383,
      "ប្រចាំ": 3384,
      "ប្រវាស់": 3385,
      "ប្រពឹ្រ": 3386,
      "ប្រជែង": 3387,
      "ប្រថុយ": 3388,
      "នៅរស់": 3389,
      "ថាស": 3390,
      "ខ្ញុំបាន": 3391,
      "ព្រះអង្គក៏": 3392,
      "គេរ៉ា": 3393,
      "ទៅៗ": 3394,
      "ទៅក្នុង": 3395,
      "និច": 3396,
      "និច្ច": 3397,
      "និមួយៗ": 3398,
      "រាល់គ្នា‍": 3399,
      "មក៍": 3400,
      "មិនថា": 3401,
      "លោកខែ": 3402,
      "ក្រៃ": 3403,
      "ពួកគេ‍": 3404,
      "ប៉ន": 3405,
      "ប៉ម": 3406,
      "ប៉ាន": 3407,
      "ប៉ាស": 3408,
      "នេះជា": 3409,
      "ពេរេ": 3410,
      "ដោយ‍": 3411,
      "វិវាទ": 3412,
      "មួយរយ": 3413,
      "ណាសូន": 3414,
      "ទេឬ": 3415,
      "ទេរ៉ា": 3416,
      "គ្រវែង": 3417,
      "ស្រព": 3418,
      "ស្រក់": 3419,
      "ស្រង់": 3420,
      "ស្រដៀង": 3421,
      "ូរ៉ា": 3422,
      "ស៊ើប": 3423,
      "ស្ដារ": 3424,
      "ស្ដែង": 3425,
      "ស្ដាក": 3426,
      "ធ្វេស": 3427,
      "ធ្វើជា": 3428,
      "អស់អ្នក": 3429,
      "ដូច្នេះ‍": 3430,
      "យ៉ូរ": 3431,
      "យ៉ុឌ": 3432,
      "អាសន្ន": 3433,
      "ទៀតទេ": 3434,
      "កាប": 3435,
      "កាណា": 3436,
      "ការប្រ": 3437,
      "អំឡុង": 3438,
      "ទីណា": 3439,
      "ផ្សំ": 3440,
      "ជនៈ": 3441,
      "សុវត្ថ": 3442,
      "រួប": 3443,
      "កូនក្មេង": 3444,
      "ចិតសិប": 3445,
      "ព្រះអម្ចាស់‍": 3446,
      "ទុកចិត្ត": 3447,
      "ម៉ុស": 3448,
      "ម៉ាតា": 3449,
      "ម៉ូរ៉ា": 3450,
      "ច្របាច់": 3451,
      "សេន": 3452,
      "តិះ": 3453,
      "តិរស": 3454,
      "សំប៉ាន": 3455,
      "ចូលរួម": 3456,
      "នាំឲ្យ": 3457,
      "កំពស់": 3458,
      "បង្ក្រាប": 3459,
      "សម្បុ": 3460,
      "កើតមាន": 3461,
      "ល្អន់": 3462,
      "ស៊ីណាយ": 3463,
      "ភាស": 3464,
      "ភាជនៈ": 3465,
      "សង្ខេ": 3466,
      "ទ្រា": 3467,
      "ជីក": 3468,
      "បាបិល": 3469,
      "ដំណេក": 3470,
      "ទឹកភ្នែក": 3471,
      "បណ្ដោះ": 3472,
      "ចាប់ពី": 3473,
      "ចាប់ចង": 3474,
      "ត្រលប់ជា": 3475,
      "បញ្ច្រ": 3476,
      "បំបាក់": 3477,
      "បំប៉ន": 3478,
      "យ៉ូអាណ": 3479,
      "ខ្លាំង‍ៗ": 3480,
      "ជួរ": 3481,
      "ជុំគ្នា": 3482,
      "បង្ហិន": 3483,
      "បង្ហួស": 3484,
      "ប៉ុណ្ណឹង": 3485,
      "អេបិល": 3486,
      "ប៉ុណ្ណោះ‍": 3487,
      "អធិប្បាយ": 3488,
      "បង្រួញ": 3489,
      "អារម្ម": 3490,
      "ដំណឹងល្អ": 3491,
      "មូលហេតុ": 3492,
      "លីដា": 3493,
      "លីស្ដ្រ": 3494,
      "្ខជាតិ": 3495,
      "ចារី": 3496,
      "ខ្វេះ": 3497,
      "អ៊ីន": 3498,
      "ស្រាទំពាំងបាយជូរ": 3499,
      "ស្រាវជ្រ": 3500,
      "ដប់បួន": 3501,
      "ឥតមេ": 3502,
      "ច្បារ": 3503,
      "ព្យួរ": 3504,
      "ប្រកួត": 3505,
      "រំឭក": 3506,
      "ជំទ": 3507,
      "៉ូបាបិល": 3508,
      "បួនពាន់": 3509,
      "ស្លុត": 3510,
      "ម្ដងទៀត": 3511,
      "ស្ងួត": 3512,
      "អូបិ": 3513,
      "ម៉ាថេ": 3514,
      "លោះបាប": 3515,
      "​​​": 3516,
      "ប្រហោង": 3517,
      "ប្រហែស": 3518,
      "ជូរចត់": 3519,
      "កំហែង": 3520,
      "បារថូ": 3521,
      "ស្តាំ": 3522,
      "ទំនាស់": 3523,
      "អនុគ្រោះ": 3524,
      "ខំប្រឹង": 3525,
      "បេនយ៉": 3526,
      "សូរ៉ូបាបិល": 3527,
      "ស្ទង់": 3528,
      "ជំពូក": 3529,
      "ខាតបង់": 3530,
      "បូអូស": 3531,
      "ដាច់ខាត": 3532,
      "ញាប់ញ័រ": 3533,
      "ចង្កេះ": 3534,
      "ពពុះ": 3535,
      "សំណូម": 3536,
      "កោះហៅ": 3537,
      "ឈប់ឈរ": 3538,
      "ទេ‍ឬ": 3539,
      "ព្រះហស្ត": 3540,
      "ឆេះឆួល": 3541,
      "ដេស": 3542,
      "តម្រា": 3543,
      "រ៉ូស": 3544,
      "សង្កិន": 3545,
      "ធ្ងន់ធ្ងរ": 3546,
      "ហេណុក": 3547,
      "ប្រណាំង": 3548,
      "រ៉ឹង": 3549,
      "មន្ដអាគម": 3550,
      "កៃណាន": 3551,
      "កៃយុស": 3552,
      "រាយរាប់": 3553,
      "ិបតា": 3554,
      "ដួងអាទិត្យ": 3555,
      "ស៊ីឡោម": 3556,
      "កូម៉ូរ៉ា": 3557,
      "បា្រកដ": 3558,
      "បង្អាប់": 3559,
      "បង្អង់": 3560,
      "េលូយ៉ា": 3561,
      "សុសសាយ": 3562,
      "ផ្ទុកផ្ដាក់": 3563,
      "ទប់ចិត្ដ": 3564,
      "ខាង‍ឯ": 3565,
      "មីណាដាប់": 3566,
      "ដណ្ដឹង": 3567,
      "ទ្បើង": 3568,
      "ព្រះឱរា": 3569,
      "សំបែង": 3570,
      "អើរីស្ដាក": 3571,
      "អើរីម៉ាថេ": 3572,
      "ភ្ជួរ": 3573,
      "ហ្ន៎": 3574,
      "ល្បិចកល": 3575,
      "គីឡូ": 3576,
      "ជប់លៀង": 3577,
      "ពន្លត់": 3578,
      "អ័លេក្សានទ្រា": 3579,
      "មហាជន": 3580,
      "រិះរក": 3581,
      "សួនច្បារ": 3582,
      "តឹងរ៉ឹង": 3583,
      "តំណាង": 3584,
      "ហុកសិប": 3585,
      "អេលាគីម": 3586,
      "ឧត្ដុង្គឧត្ដម": 3587,
      "ឡូមេ": 3588,
      "អង្កាម": 3589,
      "អត្ថបទ": 3590,
      "ស៊ីលវ៉ាន": 3591,
      "កៅសិប": 3592,
      "ធាទេរ៉ា": 3593,
      "ហាលេលូយ៉ា": 3594,
      "ែបថា": 3595,
      "អាកប្ប": 3596,
      "ច្រឡំ": 3597,
      "ឈ្លាសវៃ": 3598,
      "រុក្ខជាតិ": 3599,
      "ខ្យាដំរី": 3600,
      "ស្ពឹក": 3601,
      "និរទេស": 3602,
      "រួបរឹត": 3603,
      "សន្ដិភាព": 3604,
      "ប្រជារាស្រ្ដ": 3605,
      "កុមារ": 3606,
      "ជោតិរស": 3607,
      "ដង្កូវ": 3608,
      "ឌើបេ": 3609,
      "ណ្ដែត": 3610,
      "ទណ្ឌកម្ម": 3611,
      "មណីជោតិរស": 3612,
      "យៃរ៉ូស": 3613,
      "លលាដ": 3614,
      "លង្ហិន": 3615,
      "វៀច": 3616,
      "អុជ": 3617,
      "អន្ដរាយ": 3618,
      "អនាគត": 3619,
      "អន្តរាយ": 3620,
      "ព្រហ្មចារី": 3621,
      "ប្រតិប": 3622,
      "គេរ៉ាស៊ីន": 3623,
      "ពេរេស": 3624,
      "ការប្រព្រឹត": 3625,
      "សុវត្ថិ": 3626,
      "សង្ខេប": 3627,
      "យ៉ូអាណាន់": 3628,
      "អារម្មណ៍": 3629,
      "លីស្ដ្រា": 3630,
      "ស្រាវជ្រាវ": 3631,
      "អូបិឌ": 3632,
      "បារថូឡូមេ": 3633,
      "បេនយ៉ាមីន": 3634,
      "]។​": 3635,
      "»]​": 3636,
      "កក": 3637,
      "កោ": 3638,
      "កាត": 3639,
      "កែល": 3640,
      "កូស": 3641,
      "ខាំ": 3642,
      "ខៀវ": 3643,
      "ខិល": 3644,
      "គភ": 3645,
      "គៃ": 3646,
      "គ្ន": 3647,
      "គាម": 3648,
      "ឃិត": 3649,
      "ឃុប": 3650,
      "ឆេ": 3651,
      "ឈឹង": 3652,
      "ដ្រ": 3653,
      "ឌាស": 3654,
      "ឌីឌ": 3655,
      "ណៃ": 3656,
      "ណុស": 3657,
      "ណែបថា": 3658,
      "តស៊ូ": 3659,
      "តតាំង": 3660,
      "តឹ្រ": 3661,
      "តវ៉ា": 3662,
      "ថាំង": 3663,
      "ទើ": 3664,
      "ទែង": 3665,
      "ទួញ": 3666,
      "ធុញ": 3667,
      "ន៍": 3668,
      "បេះ": 3669,
      "បាត": 3670,
      "បោស": 3671,
      "បក្ស": 3672,
      "បោល": 3673,
      "ផែ": 3674,
      "ភីឡ": 3675,
      "ភ័រ": 3676,
      "មួ": 3677,
      "មោះ": 3678,
      "មន្": 3679,
      "មីល": 3680,
      "រវ": 3681,
      "រាស់": 3682,
      "រាង": 3683,
      "រុះ": 3684,
      "រឹត": 3685,
      "រោល": 3686,
      "រដ្ឋ": 3687,
      "រឹប": 3688,
      "លប": 3689,
      "វ៉": 3690,
      "វឹក": 3691,
      "សើ": 3692,
      "សាំង": 3693,
      "សាប់": 3694,
      "សូល": 3695,
      "សក្": 3696,
      "ស័ទ": 3697,
      "សីល": 3698,
      "សន្ទ": 3699,
      "សន្ម": 3700,
      "សឹប": 3701,
      "ហើន": 3702,
      "ហាប": 3703,
      "ហែល": 3704,
      "ហួត": 3705,
      "ហត្ថ": 3706,
      "ឡាក់": 3707,
      "ឡាស": 3708,
      "ឡិបតា": 3709,
      "អែ": 3710,
      "អុំ": 3711,
      "អៀត": 3712,
      "អណ្ដែត": 3713,
      "ឥទ្ធិ": 3714,
      "ឥដ្ឋ": 3715,
      "ឫទ្ធិ": 3716,
      "ឬទេ": 3717,
      "ឮៗ": 3718,
      "ឯទៀត": 3719,
      "ឯណោះ": 3720,
      "ីក": 3721,
      "ីម": 3722,
      "ីយ៉ូ": 3723,
      "ុធ": 3724,
      "ូត្រ": 3725,
      "ូអែ": 3726,
      "េនីស": 3727,
      "ៈទេស": 3728,
      "៉ាប់": 3729,
      "​(": 3730,
      "​៖​": 3731,
      "​!​": 3732,
      "​?​": 3733,
      "‍ឱ": 3734,
      "ព្រហើន": 3735,
      "អ្នករាល់": 3736,
      "អ្នកមុខ": 3737,
      "ខ្សឹប": 3738,
      "របង": 3739,
      "របើក": 3740,
      "ម្សិ": 3741,
      "ម្ជុល": 3742,
      "របស់ខ្ញុំ": 3743,
      "ពួកឯង": 3744,
      "ប្រសិ": 3745,
      "ប្រឡាក់": 3746,
      "នៅ‍": 3747,
      "នៅលើ": 3748,
      "ពី‍": 3749,
      "នោះបាន": 3750,
      "នោះក៏": 3751,
      "ឲ្យព្រះអង្គ": 3752,
      "ឲ្យគេ": 3753,
      "ឲ្យទៅ": 3754,
      "ឲ្យមក": 3755,
      "ឲ្យពួកគេ": 3756,
      "ឲ្យឃើញ": 3757,
      "ឲ្យដឹង": 3758,
      "គេនេ": 3759,
      "ាតែ": 3760,
      "ទៅឯ": 3761,
      "ទាំងពីរ": 3762,
      "ក៏បាន": 3763,
      "ត្រាតែ": 3764,
      "ាងៗ": 3765,
      "ក្រឡ": 3766,
      "ក្រ្ដ": 3767,
      "ក្រោល": 3768,
      "ក្រៀវ": 3769,
      "ក្នុង‍": 3770,
      "និងពួក": 3771,
      "ប៉ូ": 3772,
      "ប៉ាត្រ": 3773,
      "បន្ថោក": 3774,
      "មួយអង្គ": 3775,
      "មួយសែន": 3776,
      "ណាៗ": 3777,
      "បន្ទះ": 3778,
      "ស្រ័យ": 3779,
      "ស្រោច": 3780,
      "ស្រាងៗ": 3781,
      "ស្ដូប": 3782,
      "ប៉ុនប៉ង": 3783,
      "ប៉ុនតុស": 3784,
      "ប៉ុនទាស": 3785,
      "្ដែង": 3786,
      "ប៉ុន្ដែខ្ញុំ": 3787,
      "តែច្រើន": 3788,
      "ាក់ទំនង": 3789,
      "យេរេ": 3790,
      "សាលី": 3791,
      "សាខេ": 3792,
      "យ៉ែល": 3793,
      "ង់ផែ": 3794,
      "កាប៉ូល": 3795,
      "កាណាន": 3796,
      "កាអ៊ីន": 3797,
      "អ្វីដែល": 3798,
      "ទីកន្លែង": 3799,
      "ទីដប់": 3800,
      "ទីបំផុត": 3801,
      "ទីបេរ": 3802,
      "ផ្សព្វ": 3803,
      "ផ្សាំង": 3804,
      "ជន់": 3805,
      "បើសិន": 3806,
      "កូនប្រុស": 3807,
      "កូន‍ៗ": 3808,
      "កូនសោ": 3809,
      "ទទឹង": 3810,
      "ពីរដង": 3811,
      "យ៉ាងនោះ": 3812,
      "សម្រក់": 3813,
      "សម្រុក": 3814,
      "បងប្រុស": 3815,
      "រួចហើយ": 3816,
      "ម៉ាល": 3817,
      "បរិច្ច": 3818,
      "បរិស័ទ": 3819,
      "ខាងមុខ": 3820,
      "ច្រូច": 3821,
      "ច្រអូស": 3822,
      "ចិត្ដរបស់": 3823,
      "សេម៉": 3824,
      "ថ្ងៃមួយ": 3825,
      "សារាយ": 3826,
      "ទ្ធភាព": 3827,
      "តិរ": 3828,
      "ចូលទៅ": 3829,
      "ចំណូល": 3830,
      "ចំណុះ": 3831,
      "ចំណោត": 3832,
      "កំពង់ផែ": 3833,
      "កាលណា": 3834,
      "កាលីយ៉ូ": 3835,
      "កាលៈទេស": 3836,
      "បង្ហើយ": 3837,
      "បង្កាត់": 3838,
      "មើលថែ": 3839,
      "ស៊ីម": 3840,
      "ដីគោក": 3841,
      "្មា": 3842,
      "រសក់": 3843,
      "មេកា": 3844,
      "មេទ្រ": 3845,
      "ទ្រាន់": 3846,
      "ទ្រភី": 3847,
      "ទ្រទ្រង់": 3848,
      "ទ្រនិច": 3849,
      "ជីរ": 3850,
      "កន្សៃ": 3851,
      "កន្ត្រក": 3852,
      "ជ្រះ": 3853,
      "ជ្រែក": 3854,
      "ជ្រុល": 3855,
      "ពួកអ្នកមាន": 3856,
      "ពួកអ្នកបម្រើ": 3857,
      "យូស្ទុស": 3858,
      "ទូលាយ": 3859,
      "ទឹកដោះ": 3860,
      "ទឹកខ្មេះ": 3861,
      "ទឹកឃ្មុំ": 3862,
      "កាន់ទុក្ខ": 3863,
      "ជីវិត‍": 3864,
      "ក្រោយគេ": 3865,
      "មុនគេ": 3866,
      "រូបអង្គ": 3867,
      "បំភ័យ": 3868,
      "យល់ដឹង": 3869,
      "ពេញលេញ": 3870,
      "ឋានៈ": 3871,
      "ឆ្គង": 3872,
      "អេរ": 3873,
      "អេសាវ": 3874,
      "អេរ៉ា": 3875,
      "ថ្មដា": 3876,
      "កំសោយ": 3877,
      "កំដៅ": 3878,
      "កំចាយ": 3879,
      "បែបនេះ": 3880,
      "ក្រុមៗ": 3881,
      "កាត់ទោស": 3882,
      "អារ៉ាប់": 3883,
      "បណ្ដាសារ": 3884,
      "ណាស់‍": 3885,
      "ប្បា": 3886,
      "គង់វង្ស": 3887,
      "អ័ប្បា": 3888,
      "ចំបាំង": 3889,
      "អរគុណ": 3890,
      "រួមគ្នា": 3891,
      "រួមជាតិ": 3892,
      "រួមភេទ": 3893,
      "ចែងចាំង": 3894,
      "ប្រុសៗ": 3895,
      "សាន្ត": 3896,
      "ត្រង់ៗ": 3897,
      "ក្រោកឡើង": 3898,
      "ប្រែជា": 3899,
      "ជម្រះកាយ": 3900,
      "ប្រកិន": 3901,
      "រំជួល": 3902,
      "រំឮក": 3903,
      "ស្បែកជើង": 3904,
      "សព្វថ្ងៃ": 3905,
      "លំដោយ": 3906,
      "លំអាន": 3907,
      "សរសៃ": 3908,
      "បោះត្រា": 3909,
      "កម្ពស់": 3910,
      "បួនរយ": 3911,
      "បួនម៉ឺន": 3912,
      "គួរតែ": 3913,
      "ដោះស្រាយ": 3914,
      "ថ្មីៗ": 3915,
      "ទ្វេ": 3916,
      "ចម្រុង": 3917,
      "អាវុធ": 3918,
      "អូមេកា": 3919,
      "ឃ្លាំ": 3920,
      "ឃ្លាំង": 3921,
      "រលោង": 3922,
      "បោកបក់": 3923,
      "អនេក": 3924,
      "កណ្ដៀរ": 3925,
      "ភីល": 3926,
      "ម្នាក់ៗ‍": 3927,
      "ភ័យញ័រ": 3928,
      "ទំនេរ": 3929,
      "ទំនាក់ទំនង": 3930,
      "ធ្មៃ": 3931,
      "ស្នូក": 3932,
      "័តន៍": 3933,
      "ត្បាញ": 3934,
      "គីស": 3935,
      "ក្ដារ": 3936,
      "ក្ដុក": 3937,
      "ក្ដួល": 3938,
      "ដុំថ្ម": 3939,
      "បញ្ឆេះ": 3940,
      "សម្លៀកបំពាក់": 3941,
      "យំសោក": 3942,
      "ស្ទាក់": 3943,
      "ស្ទុះ": 3944,
      "បញ្ចាំ": 3945,
      "សាកសួរ": 3946,
      "ឆ្លងកាត់": 3947,
      "លាក់កំបាំង": 3948,
      "សំណល់": 3949,
      "ប្រុងស្មារតី": 3950,
      "ឈ្លី": 3951,
      "ឆ្មូល": 3952,
      "ដេម៉ាស": 3953,
      "ដេកាប៉ូល": 3954,
      "ដេមេទ្រ": 3955,
      "នីវេ": 3956,
      "នីនីវេ": 3957,
      "ពើកា": 3958,
      "អាត្មា": 3959,
      "ទាល់តែ": 3960,
      "ខ្សែក្រវាត់": 3961,
      "ទម្លុះ": 3962,
      "ព្រះចៅអធិរាជ": 3963,
      "ចិញ្ចាច": 3964,
      "ទ័ល": 3965,
      "ធ្ងន់ៗ": 3966,
      "កម្រាល": 3967,
      "កម្រើក": 3968,
      "គោលដៅ": 3969,
      "ដដែលៗ": 3970,
      "ទូទាត់": 3971,
      "អ៊ូអែ": 3972,
      "អណ្ដូង": 3973,
      "ថ្កើង": 3974,
      "ប្រណិប": 3975,
      "កម្មសិទ្ធិ": 3976,
      "មីកែល": 3977,
      "សោកសៅ": 3978,
      "ចំណេះដឹង": 3979,
      "ហ្វូងចៀម": 3980,
      "ផាសេ": 3981,
      "ផាណាស": 3982,
      "ដ្ឋាន": 3983,
      "កូថា": 3984,
      "ស្ទេផាណាស": 3985,
      "ក្រហាយ": 3986,
      "ងឿងឆ្ងល់": 3987,
      "ផ្អែម": 3988,
      "សន្លាក់": 3989,
      "ហាមឃាត់": 3990,
      "ល្អិតល្អន់": 3991,
      "ប្លែកៗ": 3992,
      "ដណ្ដើម": 3993,
      "ទ្បា": 3994,
      "ប៊ើរ": 3995,
      "សំណាក": 3996,
      "អើរីយ៉ូស": 3997,
      "រង្គោះ": 3998,
      "ស្ម័គ្រចិត្ដ": 3999,
      "បេតផាសេ": 4000,
      "ព្វកិច្ច": 4001,
      "ព្រីគា": 4002,
      "ព្រីស៊ីល": 4003,
      "ព្រីសីល": 4004,
      "បន្តួច": 4005,
      "បេរា": 4006,
      "បេរេនីស": 4007,
      "លូកា": 4008,
      "លូស៊ា": 4009,
      "ទារុណកម្ម": 4010,
      "នីកូឡាស": 4011,
      "ក្អម": 4012,
      "អាប់ឱន": 4013,
      "ជំរឿន": 4014,
      "ម៉ាណាសេ": 4015,
      "ដៀលត្មះ": 4016,
      "ពឹ្រក": 4017,
      "មួលបង្កាច់": 4018,
      "វត្ថុ": 4019,
      "អង្កេត": 4020,
      "អត្ថន័យ": 4021,
      "ត្មះតិះ": 4022,
      "អាល់ផាយ": 4023,
      "ក្លូឌាស": 4024,
      "ចង្អៀត": 4025,
      "ចន្លោះ": 4026,
      "បណ្តោយ": 4027,
      "ពន់ពេក": 4028,
      "ឧបាយកល": 4029,
      "បាឡាម": 4030,
      "អ័ប៊ីយ៉ា": 4031,
      "ព្យាបាល": 4032,
      "ខ្ពង់ខ្ពស់": 4033,
      "កញ្ជ្រោង": 4034,
      "អូនេស៊ីម": 4035,
      "អេប៉ាប្រាស": 4036,
      "ចរណៃ": 4037,
      "ចុកចាប់": 4038,
      "អណ្តូង": 4039,
      "ប្រពឹ្រត្ដ": 4040,
      "ក្រៃលែង": 4041,
      "សម្បុរ": 4042,
      "ជំទង់": 4043,
      "ការប្រព្រឹត្ដិ": 4044,
      "សុវត្ថិភាព": 4045,
      "កោរសក់": 4046,
      "កាតព្វកិច្ច": 4047,
      "គភ៌": 4048,
      "ឃុបឃិត": 4049,
      "ឌីឌីម": 4050,
      "ណែបថាលី": 4051,
      "តឹ្រម": 4052,
      "បក្សពួក": 4053,
      "មោះមុត": 4054,
      "មន្ត្រី": 4055,
      "មីលេត": 4056,
      "វ៉ាន់": 4057,
      "វឹកវរ": 4058,
      "សើដេស": 4059,
      "សក្ការ": 4060,
      "សន្មត": 4061,
      "ម្សិល": 4062,
      "ប្រសិទ្ធភាព": 4063,
      "គេនេសារ៉ែត": 4064,
      "យេរេមា": 4065,
      "ទីបេរាស": 4066,
      "កាលៈទេសៈ": 4067,
      "ទ្រភីម": 4068,
      "អេរ៉ាស្ទុស": 4069,
      "ដេមេទ្រាស": 4070,
      "ប្រណិប័តន៍": 4071,
      "?»។​": 4072,
      "]»។​": 4073,
      "]?​": 4074,
      "»?​": 4075,
      "កញ": 4076,
      "កត": 4077,
      "កើយ": 4078,
      "កាំង": 4079,
      "កម្ដ": 4080,
      "កោរ": 4081,
      "កោង": 4082,
      "កញ្ជ": 4083,
      "កាម៉ា": 4084,
      "ខែល": 4085,
      "ខណៈ": 4086,
      "ខណ្ឌ": 4087,
      "គិ": 4088,
      "គួ": 4089,
      "គរប": 4090,
      "គូរ": 4091,
      "គប្ប": 4092,
      "គន់": 4093,
      "គែត": 4094,
      "គែម": 4095,
      "ឃរ": 4096,
      "ឃា": 4097,
      "ងក់": 4098,
      "ចា": 4099,
      "ចែ": 4100,
      "ចាស": 4101,
      "ច្ឆ": 4102,
      "ឆាយ": 4103,
      "ឆើត": 4104,
      "ឆបោក": 4105,
      "ឆន្ទ": 4106,
      "ឆាវ": 4107,
      "ជះ": 4108,
      "ជៈ": 4109,
      "ជន្": 4110,
      "ជណ្ដ": 4111,
      "ជញ្": 4112,
      "ជ័រ": 4113,
      "ឈាន": 4114,
      "ញា": 4115,
      "ញី": 4116,
      "ញាល់": 4117,
      "ញ៉ាន": 4118,
      "ញត្អ": 4119,
      "ដិត": 4120,
      "ដុក": 4121,
      "ដមី": 4122,
      "ឌាន": 4123,
      "ឌ័រ": 4124,
      "ណាម": 4125,
      "តេ": 4126,
      "តរៀង": 4127,
      "តួច": 4128,
      "តឌី": 4129,
      "ថៅ": 4130,
      "ថាន": 4131,
      "ថាន់": 4132,
      "ថេរ": 4133,
      "ទម": 4134,
      "ទា": 4135,
      "ទង្គ": 4136,
      "ទាម": 4137,
      "ទស្ស": 4138,
      "ទឹម": 4139,
      "ធន": 4140,
      "ធិ": 4141,
      "ធុង": 4142,
      "ធឹង": 4143,
      "ធាង": 4144,
      "ធូន": 4145,
      "ធាក់": 4146,
      "ធាល": 4147,
      "ធន់": 4148,
      "ធាវ": 4149,
      "ន្រ": 4150,
      "នាល": 4151,
      "នគរប": 4152,
      "បែង": 4153,
      "បែន": 4154,
      "បត់": 4155,
      "បអរ": 4156,
      "បឹ្រ": 4157,
      "ផាត": 4158,
      "ផាត់": 4159,
      "ផាល": 4160,
      "ពង្": 4161,
      "ព្ល": 4162,
      "ពុះ": 4163,
      "ពាល": 4164,
      "ពគប់": 4165,
      "ភាំង": 4166,
      "ភាយ": 4167,
      "ភូស": 4168,
      "ភក្ដ្រ": 4169,
      "មែ": 4170,
      "មូរ": 4171,
      "មរក": 4172,
      "យូល": 4173,
      "យោគ": 4174,
      "រៃ": 4175,
      "រាំង": 4176,
      "រាត": 4177,
      "រោយ": 4178,
      "រនី": 4179,
      "រអាង": 4180,
      "រវៃ": 4181,
      "រុញ": 4182,
      "លិ": 4183,
      "លែ": 4184,
      "លំព": 4185,
      "លោម": 4186,
      "លភា": 4187,
      "លៀម": 4188,
      "លួង": 4189,
      "លផា": 4190,
      "លួញ": 4191,
      "វក់": 4192,
      "វត្ត": 4193,
      "វភីល": 4194,
      "វឆាវ": 4195,
      "សត្រ": 4196,
      "សប៉": 4197,
      "សៀត": 4198,
      "សត់": 4199,
      "សភាព": 4200,
      "សោរ": 4201,
      "សញ្": 4202,
      "សជ្": 4203,
      "ហិ": 4204,
      "ហើ": 4205,
      "ហិន": 4206,
      "ហ្ល": 4207,
      "ហែង": 4208,
      "ហាស": 4209,
      "ហោច": 4210,
      "ឡប់": 4211,
      "ឡុស": 4212,
      "ឡាម៉ា": 4213,
      "អឺ": 4214,
      "អម្": 4215,
      "អិត": 4216,
      "អរស": 4217,
      "អៀន": 4218,
      "អែត": 4219,
      "អភ័យ": 4220,
      "អោន": 4221,
      "អយុត្តិធម៌": 4222,
      "អែស": 4223,
      "អមីណាដាប់": 4224,
      "អបអរ": 4225,
      "ឤន់": 4226,
      "ឥន្": 4227,
      "ឥន្ទ": 4228,
      "ឫក": 4229,
      "ឫទ្ធ": 4230,
      "ឮសេចក្ដី": 4231,
      "ឲុ": 4232,
      "ាគ": 4233,
      "ាដិ": 4234,
      "ិភ័រ": 4235,
      "ី្រ": 4236,
      "ឺណា": 4237,
      "ុរ": 4238,
      "ូអែល": 4239,
      "ូឌី": 4240,
      "ូញត្អ": 4241,
      "េជ្ញា": 4242,
      "េលាល": 4243,
      "ែះ": 4244,
      "ៃណាន": 4245,
      "ោប": 4246,
      "ោស្រព": 4247,
      "ៅនា": 4248,
      "៉ុស": 4249,
      "័ណ្ឌ": 4250,
      "្កាប": 4251,
      "្សត្រ": 4252,
      "​?": 4253,
      "​»។​": 4254,
      "្រស្ដ": 4255,
      "ានេស": 4256,
      "ានុភាព": 4257,
      "ព្រា": 4258,
      "ព្រលប់": 4259,
      "ព្រួស": 4260,
      "ព្រះកា": 4261,
      "ព្រះមែ": 4262,
      "ជាយ": 4263,
      "ជាព្រះ": 4264,
      "ជាអ្នក": 4265,
      "ជាជាង": 4266,
      "ជាប្រាកដ": 4267,
      "អ្នកដែល": 4268,
      "អ្នកនាំ": 4269,
      "អ្នកទោស": 4270,
      "បានឮ": 4271,
      "បាន់": 4272,
      "បានការ": 4273,
      "បានដែរ": 4274,
      "បានកើត": 4275,
      "ង្សា": 4276,
      "ខ្ទី": 4277,
      "ខ្ជី": 4278,
      "ខ្សៀវ": 4279,
      "ខ្ទប់": 4280,
      "ាំថ្ន": 4281,
      "របង់": 4282,
      "របូត": 4283,
      "ម្ហូប": 4284,
      "របស់‍": 4285,
      "របស់កូន": 4286,
      "ហើយខ្ញុំ": 4287,
      "ដែល‍": 4288,
      "ដែលបាន": 4289,
      "ដែលមាន": 4290,
      "ពួន": 4291,
      "ប្រាត": 4292,
      "ប្រែង": 4293,
      "ប្រសារ": 4294,
      "ប្រទះ": 4295,
      "ប្រេស": 4296,
      "ប្រញាល់": 4297,
      "មានចិត្ដ": 4298,
      "ស្បា": 4299,
      "ស្លែង": 4300,
      "ស្វេ": 4301,
      "ារ៉ា": 4302,
      "ារេឌ": 4303,
      "នៅឯ": 4304,
      "នៅជាមួយ": 4305,
      "នៅទីនេះ": 4306,
      "ពីស៊ី": 4307,
      "ពីមុខ": 4308,
      "ថាម": 4309,
      "ថាត់": 4310,
      "ថាដេ": 4311,
      "នោះពួក": 4312,
      "នោះទៅ": 4313,
      "នោះដែរ": 4314,
      "ខ្ញែក": 4315,
      "ខ្ញុំក៏": 4316,
      "ខ្ញុំមិន": 4317,
      "ខ្ញុំឃើញ": 4318,
      "ព្រះអង្គជា": 4319,
      "ព្រះអង្គនឹង": 4320,
      "ព្រះអង្គគង់": 4321,
      "ឲ្យបាន": 4322,
      "ឲ្យពរ": 4323,
      "ើងឆ្ម": 4324,
      "្វរូ": 4325,
      "ទៅជា": 4326,
      "ទាំង‍": 4327,
      "ទាំងប៉ុន្មាន": 4328,
      "ក៏មាន": 4329,
      "ក៏នឹង": 4330,
      "ក៏ត្រូវ": 4331,
      "រាល់គ្នាក៏": 4332,
      "ន្ទូល": 4333,
      "មកវិញ": 4334,
      "មិន‍": 4335,
      "មិនបាន": 4336,
      "មិនល្អ": 4337,
      "មិនជឿ": 4338,
      "មិនទាន់": 4339,
      "ត្រិយ": 4340,
      "ត្របាក់": 4341,
      "ក្រេ": 4342,
      "ក្រួស": 4343,
      "ដូស": 4344,
      "ដូគា": 4345,
      "ការអស្ចារ្យ": 4346,
      "នឹងបាន": 4347,
      "នឹងបន្ដ": 4348,
      "នឹងធឹង": 4349,
      "ប៉ាត់": 4350,
      "ប៉ប៉": 4351,
      "ប៉ាក់": 4352,
      "ប៉ែត": 4353,
      "ប៉ប៉ា": 4354,
      "នេះក៏": 4355,
      "នេះដើម្បី": 4356,
      "ពេជ្": 4357,
      "បន្លាស់": 4358,
      "បន្លែ": 4359,
      "ាមេក": 4360,
      "ាមប្រេស": 4361,
      "សេចក្ដីប៉ង": 4362,
      "វិធី": 4363,
      "វិស័យ": 4364,
      "វិជ្": 4365,
      "មួយ‍": 4366,
      "ណាច់": 4367,
      "ណាអ៊": 4368,
      "ណាកៃ": 4369,
      "ណាញ់": 4370,
      "ណាឃរ": 4371,
      "ណាថាន់": 4372,
      "ទេពិ": 4373,
      "គ្រាំ": 4374,
      "គ្រវី": 4375,
      "ស្រស់": 4376,
      "ស្រុន": 4377,
      "ស្រណោះ": 4378,
      "ស្រគំ": 4379,
      "ស្រគត់": 4380,
      "ស្រូប": 4381,
      "ព្រះជាម្ចាស់មែន": 4382,
      "ូនី": 4383,
      "ស៊ុង": 4384,
      "ស៊ិភ័រ": 4385,
      "ស៊ាំថ្ន": 4386,
      "ស្ដេឌ": 4387,
      "ធ្វើឲ្យ": 4388,
      "ធ្វើតាម": 4389,
      "ធ្វើពិធី": 4390,
      "ខ្លឹម": 4391,
      "ខ្លោង": 4392,
      "ខ្លួង": 4393,
      "ខ្លោច": 4394,
      "មនុស្ស‍": 4395,
      "អស់‍": 4396,
      "អស់គ្នា": 4397,
      "ប៉ុន្ដែអ្នក": 4398,
      "ប៉ុន្ដែមិន": 4399,
      "បីពាន់": 4400,
      "ដល់‍": 4401,
      "លើខ្នង": 4402,
      "ត្រូវគេ": 4403,
      "តែម្ដង": 4404,
      "យេកូន": 4405,
      "តាមា": 4406,
      "សាបាស": 4407,
      "សាបាច់": 4408,
      "សាដុក": 4409,
      "សាផាត": 4410,
      "យ៉ានេស": 4411,
      "យ៉ារេឌ": 4412,
      "យ៉ាមប្រេស": 4413,
      "អាករ": 4414,
      "អាសុស": 4415,
      "អាស្រ័យ": 4416,
      "អាដមី": 4417,
      "អាលផា": 4418,
      "កាប៉ា": 4419,
      "អ្វី‍": 4420,
      "អ្វីខ្លះ": 4421,
      "ទីក្រុង": 4422,
      "ទីមេ": 4423,
      "ទីប្រាំបី": 4424,
      "ទីទួល": 4425,
      "ចុះមក": 4426,
      "ថ្មើ": 4427,
      "ជនបទ": 4428,
      "សុច្ចរិត": 4429,
      "សុភាស": 4430,
      "ព្រះយេស៊ូគ្រិស្ដ": 4431,
      "បាច": 4432,
      "កូនរបស់": 4433,
      "កូនកំលោះ": 4434,
      "ាញូអែល": 4435,
      "សិក": 4436,
      "សិម": 4437,
      "ចេញទៅ": 4438,
      "ខ្លួន‍": 4439,
      "ខ្លួននឹង": 4440,
      "យ៉ាង‍": 4441,
      "ជំនះ": 4442,
      "សម្រុង": 4443,
      "ទុកថា": 4444,
      "រួច‍": 4445,
      "អ្នកណា‍": 4446,
      "ម៉េលាស": 4447,
      "ម៉ៃណាន": 4448,
      "បរិវារ": 4449,
      "ច្រែះ": 4450,
      "រីង": 4451,
      "ចិត្ដនឹង": 4452,
      "សេត": 4453,
      "សេរូ": 4454,
      "សេយូ": 4455,
      "សេគាស": 4456,
      "សេពគប់": 4457,
      "ថ្ងៃ‍": 4458,
      "ថ្ងៃនោះ": 4459,
      "ថ្ងៃសប្ប័ទ": 4460,
      "ថ្ងៃរះ": 4461,
      "ថ្ងៃស្អែក": 4462,
      "ាក្សត្រ": 4463,
      "មែន‍": 4464,
      "មែនជា": 4465,
      "សំអាង": 4466,
      "ចំណាំ": 4467,
      "សូត្រ": 4468,
      "សូស្ថ": 4469,
      "សូប៉ូ": 4470,
      "នាំគ្នា": 4471,
      "នាំទៅ": 4472,
      "នាំសារ": 4473,
      "បុត": 4474,
      "គ្រប់ការ": 4475,
      "គ្រប់លក្ខណ៍": 4476,
      "គ្រប់គ្រាន់": 4477,
      "ដាល": 4478,
      "ដាស": 4479,
      "យកចិត្ដ": 4480,
      "ក្កាប": 4481,
      "្ចក់": 4482,
      "បង្ខិត": 4483,
      "រូត": 4484,
      "រូភូស": 4485,
      "វា‍": 4486,
      "កំពុងតែ": 4487,
      "ផ្ទំ": 4488,
      "ផ្ទៀង": 4489,
      "សម្អាត": 4490,
      "សម្អាង": 4491,
      "សម្អិត": 4492,
      "កុំឲ្យ": 4493,
      "ច្រើន‍": 4494,
      "ច្រើនជាង": 4495,
      "នៃការ": 4496,
      "ព្រមៗ": 4497,
      "ព្រមគ្នា": 4498,
      "ស៊ីគែម": 4499,
      "ស្រឡាំង": 4500,
      "គាល់កូថា": 4501,
      "ពិពណ៌": 4502,
      "ពិដោរ": 4503,
      "មុខគេ": 4504,
      "មុខមាត់": 4505,
      "មេស": 4506,
      "មេលា": 4507,
      "មេត្រី": 4508,
      "មេទ័ព": 4509,
      "មេនាស": 4510,
      "មេធាវ": 4511,
      "មេសូប៉ូ": 4512,
      "ទ្រឹង": 4513,
      "ជីដូន": 4514,
      "បាប‍": 4515,
      "ជ្រាល": 4516,
      "ជ្រលង": 4517,
      "ដំណាំ": 4518,
      "ដំណៀល": 4519,
      "យូអែល": 4520,
      "យូឡូន": 4521,
      "រីឯ‍": 4522,
      "ទូលុស": 4523,
      "ទូលសួរ": 4524,
      "ទឹកខ្មៅ": 4525,
      "កាន់តាម": 4526,
      "រករឿង": 4527,
      "ឆ្លុះ": 4528,
      "ឆ្លៀត": 4529,
      "បង្គន់": 4530,
      "យាងមក": 4531,
      "បញ្ឈប់": 4532,
      "បញ្ជិះ": 4533,
      "ក្រោយពេល": 4534,
      "អង្គាស": 4535,
      "លាមក": 4536,
      "បំបាំង": 4537,
      "បំបិទ": 4538,
      "បំភ្លេច": 4539,
      "បំរះ": 4540,
      "បំណាច់": 4541,
      "ស្ថានភាព": 4542,
      "េងក្អ": 4543,
      "យ៉ូពី": 4544,
      "យ៉ូអែល": 4545,
      "យ៉ូណាម": 4546,
      "យ៉ូស្វេ": 4547,
      "យ៉ូថាម": 4548,
      "យ៉ូសាផាត": 4549,
      "យ៉ូសិក": 4550,
      "ពន្លិច": 4551,
      "ចាត់ទុក": 4552,
      "ចាត់ចែង": 4553,
      "ពិត‍": 4554,
      "ស្ដាប់ឮ": 4555,
      "ក្សត្រី": 4556,
      "ក្សត្រិយ": 4557,
      "ខ្លាំង‍": 4558,
      "ជួញ": 4559,
      "ជួស": 4560,
      "ជាងគេ": 4561,
      "គម្ពី": 4562,
      "ប៉ូលី": 4563,
      "អ្វីៗ‍": 4564,
      "អ្វីៗដែល": 4565,
      "បុត្រី": 4566,
      "រាជបុត្រា": 4567,
      "ប្រាំបួន": 4568,
      "ប្រាំខែ": 4569,
      "ធីយ៉ូពី": 4570,
      "ខ្លះៗ": 4571,
      "ខ្លះដែល": 4572,
      "បង្ហៀរ": 4573,
      "ប៉ុណ្ណា": 4574,
      "អេឡ": 4575,
      "អេសា": 4576,
      "អេម៉": 4577,
      "អេសូរ": 4578,
      "អេវ៉ា": 4579,
      "អេគីម": 4580,
      "អេស៊ើរ": 4581,
      "អេនាស": 4582,
      "អេម៉ុស": 4583,
      "អេណុស": 4584,
      "អេហាស": 4585,
      "អេស្បា": 4586,
      "អេសេគាស": 4587,
      "អេធីយ៉ូពី": 4588,
      "ផ្ដាស": 4589,
      "ផ្ដេស": 4590,
      "កំប៉": 4591,
      "កំណាច": 4592,
      "កំញ៉ាន": 4593,
      "កំព្រា": 4594,
      "កំណាញ់": 4595,
      "កំបុត": 4596,
      "បែបណា": 4597,
      "បង្រ្កាប": 4598,
      "ផែនដី‍": 4599,
      "វេរ": 4600,
      "ស្មា": 4601,
      "ស្មូត្រ": 4602,
      "ស្មឺណា": 4603,
      "ដើមឈើ": 4604,
      "ដើមចោទ": 4605,
      "លីឌា": 4606,
      "អ័បា្រ": 4607,
      "អ័មីណាដាប់": 4608,
      "អ័តឌី": 4609,
      "អ័រនី": 4610,
      "អ័ក្កាប": 4611,
      "ព្រះវរ": 4612,
      "ព្រះវត្ដមាន": 4613,
      "ខ្វែង": 4614,
      "ធំជាង": 4615,
      "រួមទាំង": 4616,
      "រួមរស់": 4617,
      "ធ្លា": 4618,
      "ឥឡូវនេះ": 4619,
      "អំណត់": 4620,
      "ពូថៅ": 4621,
      "ពូព្ល": 4622,
      "ដប់មួយ": 4623,
      "ស្ដ្រីអារ": 4624,
      "ប្រៀបធៀប": 4625,
      "ប្រៀបផ្ទឹម": 4626,
      "សម្ដែង": 4627,
      "ក្លេ": 4628,
      "បំណន់": 4629,
      "សុំទាន": 4630,
      "ទិដ្ឋ": 4631,
      "គិតថ្លៃ": 4632,
      "រាប់ជា": 4633,
      "រាប់អាន": 4634,
      "កំណាត់": 4635,
      "ម៉ូដាម": 4636,
      "រំលំ": 4637,
      "ភេសជ្": 4638,
      "ភ្លាមនោះ": 4639,
      "រងារ": 4640,
      "រងើក": 4641,
      "សរសៀរ": 4642,
      "ហាការ": 4643,
      "សម្លេង": 4644,
      "ទាស់ទែង": 4645,
      "ប្រយោជន៍‍": 4646,
      "កម្ចាយ": 4647,
      "កម្សាន្ត": 4648,
      "កម្សត់": 4649,
      "ជំហាន": 4650,
      "ជំរំ": 4651,
      "ងាយទ្រាំ": 4652,
      "ចម្បាំង": 4653,
      "ចម្អែត": 4654,
      "ថែទាំ": 4655,
      "អែលម៉ូដាម": 4656,
      "ផ្ទាល់ក៏": 4657,
      "ធ្លាក់មក": 4658,
      "ញ្ញូ": 4659,
      "មាថ": 4660,
      "លុះត្រាតែ": 4661,
      "ទ្រព្យសម្បត្ដិ": 4662,
      "ចេះដឹង": 4663,
      "បំផ្លិច": 4664,
      "បំផ្លើស": 4665,
      "អាវក្រោះ": 4666,
      "ឃ្លុំ": 4667,
      "ភ្លឺផ្លេក": 4668,
      "ប្រមាណ": 4669,
      "បោកគក់": 4670,
      "ម៉ាអាត": 4671,
      "ម៉ាថាន": 4672,
      "ថែមទាំង": 4673,
      "អីវ៉ាន់": 4674,
      "ភីលេ": 4675,
      "កុញ": 4676,
      "បន្ដក់": 4677,
      "បារសាបាស": 4678,
      "ស្រាប់‍": 4679,
      "៉ាស៊ីន": 4680,
      "ប្រព្រឹត្តតាម": 4681,
      "សំពៅ‍": 4682,
      "ទំនើង": 4683,
      "ស័ក្ដ": 4684,
      "ស្និម": 4685,
      "ចងការ": 4686,
      "ចែកចាយ": 4687,
      "ដេកលក់": 4688,
      "ក្ដោង": 4689,
      "បញ្ចើ": 4690,
      "បញ្ចូន": 4691,
      "បញ្ចើច": 4692,
      "អេលីយ៉ុឌ": 4693,
      "លាក់បាំង": 4694,
      "លាក់លៀម": 4695,
      "ចង្កូត": 4696,
      "រង្វាស់": 4697,
      "ប្រេងតាំង": 4698,
      "តុអាហារ": 4699,
      "លេចឮ": 4700,
      "សំណប់": 4701,
      "សំណុំ": 4702,
      "យ៉ាណាយ": 4703,
      "ឆ្មើងឆ្ម": 4704,
      "តម្រិះ": 4705,
      "ថេវភីល": 4706,
      "ប្ដេជ្ញា": 4707,
      "ជ្រាប‍": 4708,
      "ចេស្ដារ": 4709,
      "ទម្លាយ": 4710,
      "ពណ៌ស្វាយ": 4711,
      "ឆ្ងាយៗ": 4712,
      "មិត្ដភក្ដិ": 4713,
      "ចិញ្ចើម": 4714,
      "នឿយហត់": 4715,
      "បកត្រា": 4716,
      "ហ៊ូ": 4717,
      "ហ៊ើ": 4718,
      "ទាក់ទាញ": 4719,
      "កម្រិត": 4720,
      "ខ្ចរ": 4721,
      "ខ្ចោះ": 4722,
      "ទូទាំង": 4723,
      "អ៊ើ": 4724,
      "ម៉ាត់ថាត់": 4725,
      "ចំអែត": 4726,
      "ល្វើយ": 4727,
      "ហេលី": 4728,
      "ហេប៊ើរ": 4729,
      "ហេស្រុន": 4730,
      "អូសៀស": 4731,
      "ទន់ទាប": 4732,
      "រេសា": 4733,
      "រេហូប": 4734,
      "រេហ៊ូ": 4735,
      "្តាហ៍": 4736,
      "បាន‍ឮ": 4737,
      "តាំងពីមុន": 4738,
      "រ៉ាម": 4739,
      "អើឃី": 4740,
      "អើប្រាត": 4741,
      "អើប៉ាក់": 4742,
      "ប៉ាផុស": 4743,
      "សូន្យសុង": 4744,
      "មីស៊ា": 4745,
      "ស្ដីបន្ទោស": 4746,
      "អាន់ទី": 4747,
      "ស្អាងចិត្ដ": 4748,
      "ម៉ាថាត់": 4749,
      "ណែនាំ": 4750,
      "ឯកោ": 4751,
      "សែសិបពីរ": 4752,
      "ខិតជិត": 4753,
      "ឌីអូ": 4754,
      "នេរី": 4755,
      "លូកៅនា": 4756,
      "ដែកគោល": 4757,
      "រ៉ាហាប": 4758,
      "ព្រះភក្រ្ដ": 4759,
      "បង្អាក់": 4760,
      "បង្អួច": 4761,
      "បង្អោន": 4762,
      "បង្អុរ": 4763,
      "ឆ្លាតវៃ": 4764,
      "ពង្រាយ": 4765,
      "សប្តាហ៍": 4766,
      "ល្បងល‍": 4767,
      "គ្រីសប៉": 4768,
      "ផ្លាស់ប្ដូរ": 4769,
      "សាឡូមេ": 4770,
      "ប៉ះពាល់": 4771,
      "ទ្បើយ": 4772,
      "ប៊ីថា": 4773,
      "ក្រៀមស្វិត": 4774,
      "សន្ធឹង": 4775,
      "ប្រឹងប្រែង": 4776,
      "ជ្រៀតជ្រែក": 4777,
      "ខូរ៉ាស៊ីន": 4778,
      "មធូសា": 4779,
      "សាំយូអែល": 4780,
      "សាលធា": 4781,
      "សាលធាល": 4782,
      "ផ្លេកបន្ទោរ": 4783,
      "ស្ងប់ស្ងាត់": 4784,
      "ឃាតករ": 4785,
      "ត្មាត": 4786,
      "រិះគន់": 4787,
      "លូគាស": 4788,
      "អន្ទះ": 4789,
      "សង្រេង": 4790,
      "ក្អេងក្អ": 4791,
      "ននៀល": 4792,
      "អេលាសារ": 4793,
      "អេលាស៊ើរ": 4794,
      "ថ្នាំ": 4795,
      "បបូរមាត់": 4796,
      "បំបរបង់": 4797,
      "យ៉ូសៀស": 4798,
      "អើរ៉ាម": 4799,
      "សង្រ្គាម": 4800,
      "ផ្ដន្ទាទោស": 4801,
      "ចោមរោម": 4802,
      "ឈ្វេងយល់": 4803,
      "ច្រឡោត": 4804,
      "ស្លាកស្នាម": 4805,
      "កេងគ្រា": 4806,
      "ខកចិត្ដ": 4807,
      "ចង្អេរ": 4808,
      "ចន្លុះ": 4809,
      "ថ្វីបើ": 4810,
      "បណ្តេញ": 4811,
      "ភៀសខ្លួន": 4812,
      "ប៉ិនប្រសប់": 4813,
      "អ័ប៊ីយ៉ុឌ": 4814,
      "ព្យាបាទ": 4815,
      "ត្បាល់កិន": 4816,
      "កេរ្តិ៍ឈ្មោះ": 4817,
      "កញ្ជ្រោល": 4818,
      "អូនេស៊ិភ័រ": 4819,
      "អេប៉ាប្រូឌី": 4820,
      "ខារ៉ាន": 4821,
      "ត្អូញត្អ": 4822,
      "មហោស្រព": 4823,
      "មហាក្សត្រ": 4824,
      "លូនវារ": 4825,
      "លត់ដំ": 4826,
      "ហ៊ីសុប": 4827,
      "ហ៊ីមេនាស": 4828,
      "អាំម៉ូន": 4829,
      "ប្រចណ្ឌ": 4830,
      "ប្រច័ណ្ឌ": 4831,
      "ដោយ‍សារ": 4832,
      "ស្រពោន": 4833,
      "យ៉ូរាម": 4834,
      "យ៉ូរិម": 4835,
      "រួបរួម": 4836,
      "ម៉ាតាធាស": 4837,
      "បណ្ដោះអាសន្ន": 4838,
      "បញ្ច្រាស់": 4839,
      "បញ្ច្រាស": 4840,
      "គីឡូម៉ែត្រ": 4841,
      "អាកប្បកិរិយា": 4842,
      "លលាដ៌": 4843,
      "លលាដ៍": 4844,
      "វៀចវេរ": 4845,
      "ប្រតិបត្ដ": 4846,
      "ប្រតិបត្តិ": 4847,
      "កូសាម": 4848,
      "ខិលខូច": 4849,
      "គៃបន្លំ": 4850,
      "គ្នី": 4851,
      "ឆេវឆាវ": 4852,
      "ទើទូលុស": 4853,
      "ទួញសោក": 4854,
      "ភីឡាដិ": 4855,
      "មួក": 4856,
      "រុះរោយ": 4857,
      "រោលរាល": 4858,
      "រឹបអូស": 4859,
      "សាប់យូឡូន": 4860,
      "សន្ទូច": 4861,
      "ឥទ្ធិឫទ្ធិ": 4862,
      "ខ្សឹបខ្សៀវ": 4863,
      "ប៉ាត្រុស": 4864,
      "ប៉ុនទាសពីឡាត់": 4865,
      "ម៉ាលេលាល": 4866,
      "បរិច្ចាគ": 4867,
      "សេម៉ី": 4868,
      "តិរច្ឆ": 4869,
      "ទ្វេដង": 4870,
      "ក្ដុកក្ដួល": 4871,
      "បញ្ចាំចិត្ដ": 4872,
      "ត្មះតិះដៀល": 4873,
      "ម្សិលមិញ": 4874,
      "កញ្ចក់": 4875,
      "កតញ្ញូ": 4876,
      "កម្ដៅ": 4877,
      "កញ្ជើ": 4878,
      "កាម៉ាលាល": 4879,
      "គិ្រស្ដ": 4880,
      "គប្បី": 4881,
      "ឃាដ": 4882,
      "ចែវ": 4883,
      "ឆន្ទៈ": 4884,
      "ជន្លួញ": 4885,
      "ជណ្ដើរ": 4886,
      "ញាណ": 4887,
      "ឌ័រកាស": 4888,
      "តេប៊ីថា": 4889,
      "ថេរ៉ា": 4890,
      "ទង្គិច": 4891,
      "ទាមទារ": 4892,
      "ទស្សន": 4893,
      "ធនូ": 4894,
      "ធូនា": 4895,
      "នាលិ": 4896,
      "នគរបាល": 4897,
      "បត់បែន": 4898,
      "បឹ្រក្សា": 4899,
      "ផាលេក": 4900,
      "មរកត": 4901,
      "យូលាស": 4902,
      "រៃអង្គាស": 4903,
      "លំពែង": 4904,
      "លួងលោម": 4905,
      "វត្តមាន": 4906,
      "សញ្ជាតិ": 4907,
      "ហិង្សា": 4908,
      "ហ្លួង": 4909,
      "អឺង": 4910,
      "អម្បាល": 4911,
      "អរសប្បាយ": 4912,
      "អែសលី": 4913,
      "ឤន់ទីយ៉ូក": 4914,
      "ឥន្ទ្រី": 4915,
      "ឥន្ទធនូ": 4916,
      "ឫទ្ធានុភាព": 4917,
      "ឲុ្យ": 4918,
      "ព្រះកាណ៌": 4919,
      "ព្រះមែស៊ី": 4920,
      "ពីស៊ីឌា": 4921,
      "ប៉ប៉ោច": 4922,
      "ប៉ប៉ាច់": 4923,
      "ពេជ្ឈ": 4924,
      "វិជ្ជា": 4925,
      "ណាអ៊ូម": 4926,
      "ទេពិ្វរូ": 4927,
      "ស៊ាំថ្នឹក": 4928,
      "ស្ដេឌៀ": 4929,
      "ខ្លឹមសារ": 4930,
      "យេកូនាស": 4931,
      "អាដមីន": 4932,
      "កាប៉ាដូគា": 4933,
      "ថ្មើរ": 4934,
      "សុភាសិត": 4935,
      "សេរូក": 4936,
      "សេយូស": 4937,
      "សូស្ថេន": 4938,
      "ពិពណ៌នា": 4939,
      "មេធាវី": 4940,
      "មេសូប៉ូតាមា": 4941,
      "ក្សត្រិយានី": 4942,
      "អេស្បាញ": 4943,
      "ផ្ដេសផ្ដាស": 4944,
      "អ័បា្រហាំ": 4945,
      "អ័ក្កាបុស": 4946,
      "ពូព្លាស": 4947,
      "ទិដ្ឋភាព": 4948,
      "ភេសជ្ជៈ": 4949,
      "ភីលេម៉ូន": 4950,
      "ស័ក្ដសម": 4951,
      "ឆ្មើងឆ្មៃ": 4952,
      "រេហូបោម": 4953,
      "អើឃីព": 4954,
      "អើប៉ាក់សាឌ": 4955,
      "គ្រីសប៉ុស": 4956,
      "មធូសាទ្បា": 4957,
      "ក្អេងក្អាង": 4958,
      "អេប៉ាប្រូឌីត": 4959,
      "ត្អូញត្អែរ": 4960,
      "ភីឡាដិលភា": 4961,
      "តិរច្ឆាន": 4962
    },
    "merges": [
      [
        "្",
        "រ"
      ],
      [
        "្",
        "ន"
      ],
      [
        "ា",
        "ន"
      ],
      [
        "ព",
        "្រ"
      ],
      [
        "ស",
        "់"
      ],
      [
        "ព្រ",
        "ះ"
      ],
      [
        "ជ",
        "ា"
      ],
      [
        "អ",
        "្ន"
      ],
      [
        "អ្ន",
        "ក"
      ],
      [
        "្",
        "ដ"
      ],
      [
        "ប",
        "ាន"
      ],
      [
        "ោ",
        "ះ"
      ],
      [
        "ើ",
        "យ"
      ],
      [
        "ដ",
        "ែ"
      ],
      [
        "ង",
        "្"
      ],
      [
        "ល",
        "់"
      ],
      [
        "ខ",
        "្"
      ],
      [
        "ា",
        "ំ"
      ],
      [
        "ប",
        "់"
      ],
      [
        "ុ",
        "ំ"
      ],
      [
        "រ",
        "ប"
      ],
      [
        "ម",
        "្"
      ],
      [
        "្ន",
        "ា"
      ],
      [
        "រប",
        "ស់"
      ],
      [
        "ហ",
        "ើយ"
      ],
      [
        "ដែ",
        "ល"
      ],
      [
        "ព",
        "ួ"
      ],
      [
        "ពួ",
        "ក"
      ],
      [
        "ង្",
        "គ"
      ],
      [
        "ប",
        "្រ"
      ],
      [
        "ម",
        "ាន"
      ],
      [
        "ស",
        "្"
      ],
      [
        "្",
        "យ"
      ],
      [
        "ព្រះ",
        "អ"
      ],
      [
        "។",
        "​"
      ],
      [
        "ា",
        "រ"
      ],
      [
        "ន",
        "ៅ"
      ],
      [
        "ាំ",
        "ង"
      ],
      [
        "ុ",
        "ង"
      ],
      [
        "ា",
        "ល់"
      ],
      [
        "ព",
        "ី"
      ],
      [
        "ថ",
        "ា"
      ],
      [
        "ិ",
        "ត"
      ],
      [
        "គ",
        "្នា"
      ],
      [
        "ន",
        "ោះ"
      ],
      [
        "ខ្",
        "ញ"
      ],
      [
        "ខ្ញ",
        "ុំ"
      ],
      [
        "ព្រះអ",
        "ង្គ"
      ],
      [
        "េ",
        "ះ"
      ],
      [
        "ឲ",
        "្យ"
      ],
      [
        "ើ",
        "ង"
      ],
      [
        "គ",
        "េ"
      ],
      [
        "ា",
        "ប់"
      ],
      [
        "ិ",
        "ន"
      ],
      [
        "ឹ",
        "ង"
      ],
      [
        "ា",
        "ត"
      ],
      [
        "្",
        "វ"
      ],
      [
        "ទ",
        "ៅ"
      ],
      [
        "ន",
        "ិ"
      ],
      [
        "ទ",
        "ាំង"
      ],
      [
        "ា",
        "ស់"
      ],
      [
        "ក",
        "៏"
      ],
      [
        "រ",
        "ាល់"
      ],
      [
        "រាល់",
        "គ្នា"
      ],
      [
        "េ",
        "ច"
      ],
      [
        "ន",
        "្"
      ],
      [
        "ោ",
        "ក"
      ],
      [
        "ាត",
        "់"
      ],
      [
        "ម",
        "ក"
      ],
      [
        "ក",
        "់"
      ],
      [
        "ូ",
        "ល"
      ],
      [
        "ម",
        "ិន"
      ],
      [
        "ត",
        "្រ"
      ],
      [
        "ា",
        "យ"
      ],
      [
        "ោ",
        "យ"
      ],
      [
        "ល",
        "ោក"
      ],
      [
        "ច",
        "ាស់"
      ],
      [
        "ា",
        "ង"
      ],
      [
        "ក",
        "្រ"
      ],
      [
        "ម្",
        "ចាស់"
      ],
      [
        "ដ",
        "ូ"
      ],
      [
        "ពួក",
        "គេ"
      ],
      [
        "ក",
        "ារ"
      ],
      [
        "ក",
        "្ន"
      ],
      [
        "ក្ន",
        "ុង"
      ],
      [
        "និ",
        "ង"
      ],
      [
        "្ដ",
        "ី"
      ],
      [
        "ដូ",
        "ច"
      ],
      [
        "ន",
        "ឹង"
      ],
      [
        "ប",
        "៉"
      ],
      [
        "យ",
        "ើង"
      ],
      [
        "ន",
        "េះ"
      ],
      [
        "ួ",
        "យ"
      ],
      [
        "ព",
        "េ"
      ],
      [
        "ក",
        "្ដី"
      ],
      [
        "ដ",
        "ោយ"
      ],
      [
        "ប",
        "ន្"
      ],
      [
        "ស",
        "េច"
      ],
      [
        "ា",
        "ម"
      ],
      [
        "សេច",
        "ក្ដី"
      ],
      [
        "វ",
        "ិ"
      ],
      [
        "ម",
        "ួយ"
      ],
      [
        "គ",
        "ាត់"
      ],
      [
        "ណ",
        "ា"
      ],
      [
        "ទ",
        "េ"
      ],
      [
        "បន្",
        "ទ"
      ],
      [
        "គ",
        "្រ"
      ],
      [
        "ស្",
        "ស"
      ],
      [
        "្",
        "ប"
      ],
      [
        "៖",
        "​"
      ],
      [
        "ុ",
        "ន"
      ],
      [
        "ូ",
        "វ"
      ],
      [
        "វិ",
        "ញ"
      ],
      [
        "្",
        "ល"
      ],
      [
        "ស",
        "្រ"
      ],
      [
        "ូ",
        "រ"
      ],
      [
        "ពេ",
        "ល"
      ],
      [
        "ជា",
        "ម្ចាស់"
      ],
      [
        "ព្រះ",
        "ជាម្ចាស់"
      ],
      [
        "ូ",
        "ន"
      ],
      [
        "ម",
        "្រ"
      ],
      [
        "ម",
        "ន"
      ],
      [
        "ស",
        "៊"
      ],
      [
        "ស",
        "្ដ"
      ],
      [
        "ធ",
        "្វ"
      ],
      [
        "ធ្វ",
        "ើ"
      ],
      [
        "ុ",
        "ស្ស"
      ],
      [
        "ខ្",
        "ល"
      ],
      [
        "មន",
        "ុស្ស"
      ],
      [
        "ំ",
        "ព"
      ],
      [
        "ុ",
        "ក"
      ],
      [
        "អ",
        "ស់"
      ],
      [
        "ប៉",
        "ុន"
      ],
      [
        "្ដ",
        "ែ"
      ],
      [
        "ប៉ុន",
        "្ដែ"
      ],
      [
        "ំ",
        "ណ"
      ],
      [
        "បន្ទ",
        "ូល"
      ],
      [
        "ប",
        "ី"
      ],
      [
        "ដូច",
        "្ន"
      ],
      [
        "ដ",
        "ល់"
      ],
      [
        "ល",
        "ើ"
      ],
      [
        "ដែ",
        "រ"
      ],
      [
        "ត្រ",
        "ូវ"
      ],
      [
        "ត",
        "ែ"
      ],
      [
        "ដ",
        "ើ"
      ],
      [
        "ា",
        "ក់"
      ],
      [
        "ច",
        "ូរ"
      ],
      [
        "យ",
        "េ"
      ],
      [
        "ត",
        "ាម"
      ],
      [
        "ស",
        "ា"
      ],
      [
        "ដូច្ន",
        "េះ"
      ],
      [
        "យ",
        "៉"
      ],
      [
        "អ",
        "ា"
      ],
      [
        "ុ",
        "ះ"
      ],
      [
        "ស៊",
        "ូ"
      ],
      [
        "ែ",
        "ង"
      ],
      [
        "ៀ",
        "ត"
      ],
      [
        "យេ",
        "ស៊ូ"
      ],
      [
        "គ",
        "ឺ"
      ],
      [
        "ង",
        "់"
      ],
      [
        "»",
        "​"
      ],
      [
        "្នា",
        "ក់"
      ],
      [
        "្",
        "អ"
      ],
      [
        "ម្",
        "បី"
      ],
      [
        "ដ",
        "្ប"
      ],
      [
        "ដ្ប",
        "ិត"
      ],
      [
        "ួ",
        "ន"
      ],
      [
        "ទ",
        "ៀត"
      ],
      [
        "ក",
        "ា"
      ],
      [
        "្វ",
        "ី"
      ],
      [
        "ំ",
        "ន"
      ],
      [
        "អ",
        "្វី"
      ],
      [
        "អ",
        "ំ"
      ],
      [
        "ទ",
        "ី"
      ],
      [
        "ឡ",
        "ើយ"
      ],
      [
        "ដើ",
        "ម្បី"
      ],
      [
        "ម",
        "្នាក់"
      ],
      [
        "ួ",
        "ល"
      ],
      [
        "ឡ",
        "ើង"
      ],
      [
        "ើ",
        "ញ"
      ],
      [
        "និ",
        "យ"
      ],
      [
        "ត",
        "ើ"
      ],
      [
        "ព្រ",
        "ោះ"
      ],
      [
        "និយ",
        "ាយ"
      ],
      [
        "ច",
        "ុះ"
      ],
      [
        "េ",
        "ញ"
      ],
      [
        "ផ",
        "្"
      ],
      [
        "ថ",
        "្"
      ],
      [
        "ែ",
        "ន"
      ],
      [
        "ឃ",
        "ើញ"
      ],
      [
        "ជ",
        "ន"
      ],
      [
        "ស",
        "ុ"
      ],
      [
        "ប",
        "ើ"
      ],
      [
        "ព្រះ",
        "យេស៊ូ"
      ],
      [
        "ក្រ",
        "ុង"
      ],
      [
        "រ",
        "ួ"
      ],
      [
        "្",
        "ញ"
      ],
      [
        "ប",
        "ា"
      ],
      [
        "ក",
        "ូន"
      ],
      [
        "ែ",
        "ក"
      ],
      [
        "ាន",
        "់"
      ],
      [
        "ច",
        "ិត"
      ],
      [
        "ទ",
        "ទ"
      ],
      [
        "ា",
        "ញ"
      ],
      [
        "ស",
        "ិ"
      ],
      [
        "ពី",
        "រ"
      ],
      [
        "ច",
        "េញ"
      ],
      [
        "ខ្ល",
        "ួន"
      ],
      [
        "ទទ",
        "ួល"
      ],
      [
        "»",
        "។​"
      ],
      [
        "ឹ",
        "ក"
      ],
      [
        "យ៉",
        "ាង"
      ],
      [
        "ជ",
        "ំន"
      ],
      [
        "ស",
        "ម្រ"
      ],
      [
        "ជា",
        "មួយ"
      ],
      [
        "ប្រ",
        "ាប់"
      ],
      [
        "ប",
        "រ"
      ],
      [
        "!",
        "​"
      ],
      [
        "អំ",
        "ពី"
      ],
      [
        "ប",
        "ង"
      ],
      [
        "ព្រះអ",
        "ម្ចាស់"
      ],
      [
        "ទ",
        "ុក"
      ],
      [
        "រួ",
        "ច"
      ],
      [
        "អ្នក",
        "ណា"
      ],
      [
        "?",
        "​"
      ],
      [
        "ម",
        "៉"
      ],
      [
        "បរ",
        "ិ"
      ],
      [
        "ល",
        "ាប់"
      ],
      [
        "ខ",
        "ាង"
      ],
      [
        "ថ្",
        "ង"
      ],
      [
        "ច",
        "្រ"
      ],
      [
        "រ",
        "ី"
      ],
      [
        "ចិត",
        "្ដ"
      ],
      [
        "ស",
        "េ"
      ],
      [
        "័",
        "យ"
      ],
      [
        "គ្រ",
        "ិ"
      ],
      [
        "ថ្ង",
        "ៃ"
      ],
      [
        "ស",
        "ារ"
      ],
      [
        "ទ",
        "្"
      ],
      [
        "ទ្",
        "ធ"
      ],
      [
        "ា",
        "ក"
      ],
      [
        "គ្រិ",
        "ស្ដ"
      ],
      [
        "្ញ",
        "ា"
      ],
      [
        "ស",
        "ួ"
      ],
      [
        "ត",
        "ិ"
      ],
      [
        "ម",
        "ែន"
      ],
      [
        "ស",
        "ំ"
      ],
      [
        "ច",
        "ូល"
      ],
      [
        "ម",
        "ុ"
      ],
      [
        "ច",
        "ំណ"
      ],
      [
        "ស",
        "ូ"
      ],
      [
        "ុ",
        "ស"
      ],
      [
        "គ",
        "្"
      ],
      [
        "គ្",
        "មាន"
      ],
      [
        "ន",
        "ាំ"
      ],
      [
        "ដ",
        "ឹង"
      ],
      [
        "អ",
        "ើយ"
      ],
      [
        "ម",
        "ើ"
      ],
      [
        "ប",
        "ុ"
      ],
      [
        "គ្រ",
        "ប់"
      ],
      [
        "ក",
        "ំព"
      ],
      [
        "ដ",
        "ា"
      ],
      [
        "យ",
        "ក"
      ],
      [
        "ក",
        "្"
      ],
      [
        "កា",
        "ល"
      ],
      [
        "ន",
        "ាង"
      ],
      [
        "េ",
        "ត"
      ],
      [
        "ើ",
        "ត"
      ],
      [
        "្",
        "ច"
      ],
      [
        "ប",
        "ង្"
      ],
      [
        "រ",
        "ូ"
      ],
      [
        "ល",
        "ែង"
      ],
      [
        "ើ",
        "ន"
      ],
      [
        "វ",
        "ា"
      ],
      [
        "មើ",
        "ល"
      ],
      [
        "កំព",
        "ុង"
      ],
      [
        "ោ",
        "ម"
      ],
      [
        "ផ្",
        "ទ"
      ],
      [
        "សម្រ",
        "ាប់"
      ],
      [
        "ប",
        "្អ"
      ],
      [
        "ប្អ",
        "ូន"
      ],
      [
        "ម",
        "្ដ"
      ],
      [
        "ោ",
        "ស"
      ],
      [
        "ិ",
        "ច"
      ],
      [
        "ស",
        "ម្"
      ],
      [
        "ក",
        "ើត"
      ],
      [
        "្ញា",
        "ណ"
      ],
      [
        "ក",
        "ុំ"
      ],
      [
        "ល",
        "្អ"
      ],
      [
        "វិញ",
        "្ញាណ"
      ],
      [
        "ឹ",
        "ត"
      ],
      [
        "រ",
        "ស់"
      ],
      [
        "ាញ",
        "់"
      ],
      [
        "ណ",
        "្ដ"
      ],
      [
        "ត",
        "់"
      ],
      [
        "សូ",
        "ម"
      ],
      [
        "ច្រ",
        "ើន"
      ],
      [
        "ដ",
        "៏"
      ],
      [
        "ន",
        "ៃ"
      ],
      [
        "ុ",
        "ណ"
      ],
      [
        "ព្រះ",
        "គ្រិស្ដ"
      ],
      [
        "ច",
        "ំព"
      ],
      [
        "ប",
        "ញ"
      ],
      [
        "ព្រ",
        "ម"
      ],
      [
        "ចំព",
        "ោះ"
      ],
      [
        "ប",
        "ម្រ"
      ],
      [
        "ជា",
        "តិ"
      ],
      [
        "ត",
        "ា"
      ],
      [
        "អា",
        "ច"
      ],
      [
        "ព្រះ",
        "បន្ទូល"
      ],
      [
        "សុ",
        "ទ្ធ"
      ],
      [
        "ស៊",
        "ី"
      ],
      [
        "ស្រ",
        "ឡ"
      ],
      [
        "ើ",
        "រ"
      ],
      [
        "ស្រឡ",
        "ាញ់"
      ],
      [
        "ផ",
        "ង"
      ],
      [
        "វ",
        "ិន"
      ],
      [
        "ដ",
        "ី"
      ],
      [
        "ស្",
        "លាប់"
      ],
      [
        "គ",
        "ាល់"
      ],
      [
        "បម្រ",
        "ើ"
      ],
      [
        "បង",
        "ប្អូន"
      ],
      [
        "ហ",
        "េត"
      ],
      [
        "ហេត",
        "ុ"
      ],
      [
        "្",
        "ម"
      ],
      [
        "ស្រ",
        "ុក"
      ],
      [
        "ដោយ",
        "សារ"
      ],
      [
        "ព",
        "ិ"
      ],
      [
        "ផ",
        "្ល"
      ],
      [
        "រ",
        "ស"
      ],
      [
        "ចំណ",
        "ោម"
      ],
      [
        "ជន",
        "ជាតិ"
      ],
      [
        "ឿ",
        "ង"
      ],
      [
        "មុ",
        "ខ"
      ],
      [
        "ស្",
        "ថ"
      ],
      [
        "បរិ",
        "សុទ្ធ"
      ],
      [
        "ម",
        "េ"
      ],
      [
        "រ",
        "យ"
      ],
      [
        "ៀ",
        "ប"
      ],
      [
        "ិច",
        "្ច"
      ],
      [
        "ភ",
        "ា"
      ],
      [
        "ជ",
        "ឿ"
      ],
      [
        "ស",
        "ង្"
      ],
      [
        "ុ",
        "យ"
      ],
      [
        "សួ",
        "រ"
      ],
      [
        "ទ",
        "្រ"
      ],
      [
        "ជ",
        "ី"
      ],
      [
        "ភ",
        "្ល"
      ],
      [
        "បា",
        "ប"
      ],
      [
        "ា",
        "ស"
      ],
      [
        "ក",
        "ន្"
      ],
      [
        "ជ",
        "្រ"
      ],
      [
        "ដ",
        "ំណ"
      ],
      [
        "ពួក",
        "អ្នក"
      ],
      [
        "យ",
        "ូ"
      ],
      [
        "វ",
        "ិត"
      ],
      [
        "រី",
        "ឯ"
      ],
      [
        "ទ",
        "ូល"
      ],
      [
        "ស្ដ",
        "េច"
      ],
      [
        "ទ",
        "ឹក"
      ],
      [
        "ូ",
        "ត"
      ],
      [
        "រយ",
        "ៈ"
      ],
      [
        "យូ",
        "ដា"
      ],
      [
        "ក",
        "ាន់"
      ],
      [
        "សិ",
        "ស្ស"
      ],
      [
        "រ",
        "ឿង"
      ],
      [
        "?",
        "»​"
      ],
      [
        "ច",
        "់"
      ],
      [
        "ា",
        "ជ"
      ],
      [
        "ប",
        "ណ្ដ"
      ],
      [
        "ហ",
        "ារ"
      ],
      [
        "ល",
        "ប់"
      ],
      [
        "ជី",
        "វិត"
      ],
      [
        "រ",
        "ក"
      ],
      [
        "ឆ",
        "្ល"
      ],
      [
        "្ដ",
        "ិ"
      ],
      [
        "លើ",
        "ក"
      ],
      [
        "ច",
        "ាប់"
      ],
      [
        "ប",
        "ង្គ"
      ],
      [
        "្វ",
        "ាយ"
      ],
      [
        "យ",
        "ាង"
      ],
      [
        "្",
        "ត"
      ],
      [
        "ត្រ",
        "លប់"
      ],
      [
        "ជំន",
        "ឿ"
      ],
      [
        "កា",
        "ស"
      ],
      [
        "ព្រ",
        "ឹត"
      ],
      [
        "បញ",
        "្"
      ],
      [
        "ស្",
        "គាល់"
      ],
      [
        "ប្រ",
        "ព្រឹត"
      ],
      [
        "ក្រ",
        "ោយ"
      ],
      [
        "ព្រម",
        "ទាំង"
      ],
      [
        "វិន",
        "័យ"
      ],
      [
        "អ",
        "ង្គ"
      ],
      [
        "ច",
        "ង់"
      ],
      [
        "ម",
        "ុន"
      ],
      [
        "ដ",
        "ាក់"
      ],
      [
        "ល",
        "ា"
      ],
      [
        "រូ",
        "ប"
      ],
      [
        "សង្",
        "ឃ"
      ],
      [
        "រ",
        "ិត"
      ],
      [
        "ប",
        "ំ"
      ],
      [
        "ិត",
        "ា"
      ],
      [
        "កន្",
        "លែង"
      ],
      [
        "ហ",
        "ៅ"
      ],
      [
        "ុ",
        "ត"
      ],
      [
        "ស្ថ",
        "ាន"
      ],
      [
        "េ",
        "ង"
      ],
      [
        "យ៉",
        "ូ"
      ],
      [
        "ទ",
        "ាន"
      ],
      [
        "ព",
        "ន្"
      ],
      [
        "ម្ដ",
        "េច"
      ],
      [
        "ៀ",
        "ន"
      ],
      [
        "ហ",
        "ាន"
      ],
      [
        "ច",
        "ាត់"
      ],
      [
        "ព",
        "ិត"
      ],
      [
        "ប",
        "ែ"
      ],
      [
        "ស្ដ",
        "ាប់"
      ],
      [
        "យ",
        "ល់"
      ],
      [
        "ប្រ",
        "កាស"
      ],
      [
        "ក្",
        "ស"
      ],
      [
        "វ",
        "តា"
      ],
      [
        "ង្",
        "វ"
      ],
      [
        "ទេ",
        "វតា"
      ],
      [
        "ព្រះ",
        "វិញ្ញាណ"
      ],
      [
        "ខ្ល",
        "ាំង"
      ],
      [
        "ទ",
        "ោស"
      ],
      [
        "ោ",
        "ល"
      ],
      [
        "ថ",
        "្វាយ"
      ],
      [
        "រ",
        "ហ"
      ],
      [
        "ឹ",
        "ម"
      ],
      [
        "ណា",
        "ច"
      ],
      [
        "ា",
        "ច"
      ],
      [
        "ឡ",
        "ាយ"
      ],
      [
        "តាម",
        "រយៈ"
      ],
      [
        "ជំន",
        "ុំ"
      ],
      [
        "ជ",
        "ួ"
      ],
      [
        "ឈ",
        "្ម"
      ],
      [
        "អំ",
        "ណាច"
      ],
      [
        "ា",
        "ប"
      ],
      [
        "ា",
        "ល"
      ],
      [
        "គ",
        "៌"
      ],
      [
        "ជា",
        "ង"
      ],
      [
        "ភា",
        "ព"
      ],
      [
        "គ",
        "ម្"
      ],
      [
        "ឯ",
        "ង"
      ],
      [
        "បន្ទ",
        "ាប់"
      ],
      [
        "ប៉",
        "ូល"
      ],
      [
        "ៀ",
        "ង"
      ],
      [
        "ឆ្ល",
        "ើយ"
      ],
      [
        "គម្",
        "ពីរ"
      ],
      [
        "អ្វី",
        "ៗ"
      ],
      [
        "ជួ",
        "ប"
      ],
      [
        "ច",
        "រិត"
      ],
      [
        "ឈ",
        "ាម"
      ],
      [
        "ល",
        "្ប"
      ],
      [
        "បុ",
        "ត្រ"
      ],
      [
        "ឈ្ម",
        "ោះ"
      ],
      [
        "ស",
        "ន"
      ],
      [
        "ោ",
        "គ"
      ],
      [
        "ពេ",
        "ញ"
      ],
      [
        "សុ",
        "ចរិត"
      ],
      [
        "សួ",
        "គ៌"
      ],
      [
        "ព",
        "ាក"
      ],
      [
        "ពាក",
        "្យ"
      ],
      [
        "រ",
        "ាជ"
      ],
      [
        "ក",
        "ាយ"
      ],
      [
        "ប្រ",
        "ាំ"
      ],
      [
        "គ",
        "ុណ"
      ],
      [
        "ធ",
        "ី"
      ],
      [
        "ទាំង",
        "ឡាយ"
      ],
      [
        "ជ",
        "ុំ"
      ],
      [
        "ជ",
        "ម្រ"
      ],
      [
        "ដ",
        "ៃ"
      ],
      [
        "ភ",
        "្ន"
      ],
      [
        "ភ",
        "ោគ"
      ],
      [
        "ៀ",
        "ម"
      ],
      [
        "ខ្ល",
        "ះ"
      ],
      [
        "បរិ",
        "ភោគ"
      ],
      [
        "អា",
        "ក្រ"
      ],
      [
        "ឋ",
        "ាន"
      ],
      [
        "ណ",
        "ោះ"
      ],
      [
        "ប៉",
        "ុណ"
      ],
      [
        "ខ្ល",
        "ាច"
      ],
      [
        "បង្",
        "ហ"
      ],
      [
        "ស្ថាន",
        "សួគ៌"
      ],
      [
        "ប៉ុណ",
        "្"
      ],
      [
        "ុ",
        "ម"
      ],
      [
        "បុ",
        "រស"
      ],
      [
        "ឆ",
        "្"
      ],
      [
        "អ",
        "េ"
      ],
      [
        "ន",
        "ាក់"
      ],
      [
        "អ",
        "ធ"
      ],
      [
        "ព្រះ",
        "គុណ"
      ],
      [
        "ប្រ",
        "ទាន"
      ],
      [
        "ផ្ទ",
        "ះ"
      ],
      [
        "ណ",
        "៍"
      ],
      [
        "ស្",
        "ប"
      ],
      [
        "ថ្",
        "ម"
      ],
      [
        "ផ",
        "ែន"
      ],
      [
        "ប៉ុណ្",
        "ណោះ"
      ],
      [
        "ជ",
        "ិត"
      ],
      [
        "បង្គ",
        "ាប់"
      ],
      [
        "ផ",
        "្ដ"
      ],
      [
        "ក",
        "ំ"
      ],
      [
        "អាក្រ",
        "ក់"
      ],
      [
        "ជា",
        "ប់"
      ],
      [
        "ក",
        "្ប"
      ],
      [
        "ត",
        "ាំង"
      ],
      [
        "ព",
        "ុក"
      ],
      [
        "បា",
        "វ"
      ],
      [
        "បែ",
        "ប"
      ],
      [
        "អធ",
        "ិ"
      ],
      [
        "ក្រ",
        "ុម"
      ],
      [
        "រហ",
        "ូត"
      ],
      [
        "ក",
        "ាត់"
      ],
      [
        "គ",
        "រ"
      ],
      [
        "ស",
        "ង្គ"
      ],
      [
        "ត្រ",
        "ុស"
      ],
      [
        "បង",
        "្រ"
      ],
      [
        "សម្",
        "លាប់"
      ],
      [
        "សង្គ",
        "្រ"
      ],
      [
        "ឈ",
        "រ"
      ],
      [
        "ន",
        "ា"
      ],
      [
        "អ",
        "ារ"
      ],
      [
        "ពិ",
        "ធី"
      ],
      [
        "ផែន",
        "ដី"
      ],
      [
        "ស",
        "រ"
      ],
      [
        "ិ",
        "ម"
      ],
      [
        "បណ្ដ",
        "ា"
      ],
      [
        "ជ",
        "ាន"
      ],
      [
        "វ",
        "េ"
      ],
      [
        "ពេ",
        "ត្រុស"
      ],
      [
        "បង្រ",
        "ៀន"
      ],
      [
        "សង្គ្រ",
        "ោះ"
      ],
      [
        "ស្",
        "ម"
      ],
      [
        "បង្ហ",
        "ាញ"
      ],
      [
        "ជាន",
        "ិច្ច"
      ],
      [
        "សា",
        "ច់"
      ],
      [
        "មើល",
        "៍"
      ],
      [
        "បាវ",
        "បម្រើ"
      ],
      [
        "ដើ",
        "ម"
      ],
      [
        "ដំណ",
        "ឹង"
      ],
      [
        "ក",
        "ិច្ច"
      ],
      [
        "រ",
        "ុង"
      ],
      [
        "េ",
        "ក"
      ],
      [
        "៊",
        "ី"
      ],
      [
        "ណ",
        "ាស់"
      ],
      [
        "ន",
        "គរ"
      ],
      [
        "ោ",
        "រ"
      ],
      [
        "ប",
        "្ប"
      ],
      [
        "ស",
        "ព"
      ],
      [
        "ផ្ល",
        "ូវ"
      ],
      [
        "ម្",
        "ល"
      ],
      [
        "ន",
        "់"
      ],
      [
        "ែ",
        "ល"
      ],
      [
        "អារ",
        "ក្ស"
      ],
      [
        "រុង",
        "រឿង"
      ],
      [
        "គ",
        "ង់"
      ],
      [
        "ម",
        "ូល"
      ],
      [
        "ល",
        "ី"
      ],
      [
        "សា",
        "ឡ"
      ],
      [
        "ូ",
        "ក"
      ],
      [
        "ស្ដ",
        "្រ"
      ],
      [
        "អ",
        "័"
      ],
      [
        "្",
        "ខ"
      ],
      [
        "បង្",
        "កើត"
      ],
      [
        "ោ",
        "ត"
      ],
      [
        "ច",
        "ារ"
      ],
      [
        "ព្រះ",
        "វ"
      ],
      [
        "ទុក",
        "្ខ"
      ],
      [
        "ច",
        "ៅ"
      ],
      [
        "ត",
        "្វ"
      ],
      [
        "ទ",
        "ោះ"
      ],
      [
        "ស",
        "ត្វ"
      ],
      [
        "ឪ",
        "ពុក"
      ],
      [
        "ខ្",
        "វ"
      ],
      [
        "សិ",
        "រី"
      ],
      [
        "រូប",
        "កាយ"
      ],
      [
        "រប",
        "ិតា"
      ],
      [
        "ព្រះវ",
        "របិតា"
      ],
      [
        "ច",
        "ំ"
      ],
      [
        "ធ",
        "ំ"
      ],
      [
        "ប្រ",
        "យ"
      ],
      [
        "ស្",
        "អ"
      ],
      [
        "ប្រព្រឹត",
        "្ដ"
      ],
      [
        "អង្គ",
        "ុយ"
      ],
      [
        "អា",
        "ហារ"
      ],
      [
        "យ៉ូ",
        "ហាន"
      ],
      [
        "ណ",
        "ៈ"
      ],
      [
        "ប្រ",
        "ោស"
      ],
      [
        "បន្ទ",
        "ាល់"
      ],
      [
        "អ",
        "រ"
      ],
      [
        "រួ",
        "ម"
      ],
      [
        "ពន្",
        "ធ"
      ],
      [
        "បណ្ដា",
        "ជន"
      ],
      [
        "ដ",
        "ទ"
      ],
      [
        "ដ",
        "ំ"
      ],
      [
        "អ",
        "ស្"
      ],
      [
        "សាឡ",
        "ិម"
      ],
      [
        "ចារ",
        "្យ"
      ],
      [
        "ដទ",
        "ៃ"
      ],
      [
        "អស្",
        "ចារ្យ"
      ],
      [
        "ៀ",
        "ក"
      ],
      [
        "ស្",
        "ឋាន"
      ],
      [
        "អធិ",
        "ស្ឋាន"
      ],
      [
        "ធ",
        "្ល"
      ],
      [
        "យេ",
        "រូ"
      ],
      [
        "យេរូ",
        "សាឡិម"
      ],
      [
        "ច",
        "ែង"
      ],
      [
        "គ្រ",
        "ូ"
      ],
      [
        "ចិត",
        "្ត"
      ],
      [
        "ដំណ",
        "ើរ"
      ],
      [
        "បុត្រ",
        "ា"
      ],
      [
        "!",
        "»​"
      ],
      [
        "ស",
        "ោះ"
      ],
      [
        "សា",
        "វ"
      ],
      [
        "ឡ",
        "េង"
      ],
      [
        "អ",
        "៊ី"
      ],
      [
        "វិ",
        "ហារ"
      ],
      [
        "សំ",
        "ឡេង"
      ],
      [
        "ច",
        "ាំ"
      ],
      [
        "ស",
        "ប្ប"
      ],
      [
        "ឡ",
        "ូវ"
      ],
      [
        "ឥ",
        "ឡូវ"
      ],
      [
        "ដូច",
        "ជា"
      ],
      [
        "សាវ",
        "ក"
      ],
      [
        "គ",
        "ល់"
      ],
      [
        "ិ",
        "យ"
      ],
      [
        "ត",
        "្ដិ"
      ],
      [
        "េ",
        "រ"
      ],
      [
        "ដើ",
        "រ"
      ],
      [
        "ជ",
        "ើង"
      ],
      [
        "ថ",
        "្ល"
      ],
      [
        "ប្រ",
        "គល់"
      ],
      [
        "រស់",
        "នៅ"
      ],
      [
        "ក",
        "ល្ប"
      ],
      [
        "ស",
        "ោយ"
      ],
      [
        "ូ",
        "ង"
      ],
      [
        "ប្រ",
        "ស"
      ],
      [
        "ប្រ",
        "ុស"
      ],
      [
        "ការ",
        "ណ៍"
      ],
      [
        "ក",
        "រ"
      ],
      [
        "រ",
        "ៀប"
      ],
      [
        "អ",
        "ំណ"
      ],
      [
        "ូ",
        "ច"
      ],
      [
        "ប្រ",
        "ជា"
      ],
      [
        "ព",
        "ូ"
      ],
      [
        "អ",
        "ំព"
      ],
      [
        "ន",
        "ំ"
      ],
      [
        "ភ្ន",
        "ែក"
      ],
      [
        "ស",
        "ាន"
      ],
      [
        "ត្រ",
        "ង់"
      ],
      [
        "ស្រ",
        "ា"
      ],
      [
        "ផ្ទ",
        "ុយ"
      ],
      [
        "ដ",
        "ប់"
      ],
      [
        "ស្ដ្រ",
        "ី"
      ],
      [
        "គ",
        "ណៈ"
      ],
      [
        "ឥ",
        "ត"
      ],
      [
        "័",
        "ង"
      ],
      [
        "ច",
        "្ប"
      ],
      [
        "ម",
        "ាត់"
      ],
      [
        "កិច្ច",
        "ការ"
      ],
      [
        "ផ",
        "ុត"
      ],
      [
        "ព្រះ",
        "រាជ"
      ],
      [
        "ក្រ",
        "ៅ"
      ],
      [
        "ក្រ",
        "ោក"
      ],
      [
        "សម្រ",
        "េច"
      ],
      [
        "ប្រ",
        "ៀប"
      ],
      [
        "ពូ",
        "ជ"
      ],
      [
        "ល",
        "ឺ"
      ],
      [
        "ស",
        "ម"
      ],
      [
        "ផ្",
        "សេ"
      ],
      [
        "ផ្សេ",
        "ង"
      ],
      [
        "ក",
        "្ល"
      ],
      [
        "សុ",
        "ខ"
      ],
      [
        "ច",
        "ៀម"
      ],
      [
        "ប",
        "ំណ"
      ],
      [
        "ព",
        "្យ"
      ],
      [
        "ស",
        "ុំ"
      ],
      [
        "ង្",
        "ក"
      ],
      [
        "ប្រ",
        "ាក"
      ],
      [
        "ប្រាក",
        "ដ"
      ],
      [
        "ទ",
        "ិ"
      ],
      [
        "ើ",
        "ម"
      ],
      [
        "លោក",
        "ិយ"
      ],
      [
        "អំព",
        "ើ"
      ],
      [
        "ុ",
        "ប"
      ],
      [
        "ប្រ",
        "ា"
      ],
      [
        "អស់",
        "កល្ប"
      ],
      [
        "គ",
        "ិត"
      ],
      [
        "ច",
        "ោល"
      ],
      [
        "រ",
        "ាប់"
      ],
      [
        "ទ្ធ",
        "ិ"
      ],
      [
        "ក្រុម",
        "ជំនុំ"
      ],
      [
        "ន",
        "ាម"
      ],
      [
        "សា",
        "សន"
      ],
      [
        "ក",
        "ំណ"
      ],
      [
        "ម្",
        "ក"
      ],
      [
        "ប្រ",
        "ែ"
      ],
      [
        "ទ",
        "នា"
      ],
      [
        "សេ",
        "រ"
      ],
      [
        "ជម្រ",
        "ះ"
      ],
      [
        "ប៉",
        "័ង"
      ],
      [
        "ម៉",
        "ូ"
      ],
      [
        "សរ",
        "សេរ"
      ],
      [
        "វេ",
        "ទនា"
      ],
      [
        "ប",
        "ិតា"
      ],
      [
        "វ",
        "រ"
      ],
      [
        "ស",
        "ម្ដេច"
      ],
      [
        "ដូច្ន",
        "ោះ"
      ],
      [
        "ឆ្",
        "ក"
      ],
      [
        "ប្រ",
        "ក"
      ],
      [
        "សិ",
        "ទ្ធិ"
      ],
      [
        "នំ",
        "ប៉័ង"
      ],
      [
        "ផ",
        "ល"
      ],
      [
        "រ",
        "ំ"
      ],
      [
        "ួ",
        "ត"
      ],
      [
        "្",
        "ង"
      ],
      [
        "ស្ប",
        "ែក"
      ],
      [
        "ត",
        "ម្ក"
      ],
      [
        "ភ",
        "េ"
      ],
      [
        "ជា",
        "ច្រើន"
      ],
      [
        "ម្ដ",
        "ាយ"
      ],
      [
        "សាច់",
        "ឈាម"
      ],
      [
        "ដា",
        "វ"
      ],
      [
        "តម្ក",
        "ើង"
      ],
      [
        "គ",
        "ំន"
      ],
      [
        "ព",
        "រ"
      ],
      [
        "ប្រ",
        "ពន្ធ"
      ],
      [
        "ភ្ល",
        "ាម"
      ],
      [
        "សព",
        "្វ"
      ],
      [
        "ទោះ",
        "បី"
      ],
      [
        "ោ",
        "ង"
      ],
      [
        "ដូ",
        "ន"
      ],
      [
        "បំណ",
        "ង"
      ],
      [
        "ើ",
        "ប"
      ],
      [
        "រ",
        "ង"
      ],
      [
        "បើ",
        "ក"
      ],
      [
        "សាសន",
        "៍"
      ],
      [
        "គំន",
        "ិត"
      ],
      [
        "ប",
        "ង់"
      ],
      [
        "ផ",
        "ារ"
      ],
      [
        "ួ",
        "រ"
      ],
      [
        "ម៉",
        "ូន"
      ],
      [
        "មុ",
        "ជ"
      ],
      [
        "ជ្រ",
        "មុជ"
      ],
      [
        "ភ",
        "ព"
      ],
      [
        "ផ",
        "ឹក"
      ],
      [
        "ល",
        "ំ"
      ],
      [
        "ស",
        "រស"
      ],
      [
        "ហ",
        "ា"
      ],
      [
        "ា",
        "ហាន"
      ],
      [
        "ើ",
        "ស"
      ],
      [
        "សម្",
        "ល"
      ],
      [
        "ប្រជា",
        "ជន"
      ],
      [
        "ាម",
        "៉"
      ],
      [
        "ស្រ",
        "ែក"
      ],
      [
        "មេ",
        "ឃ"
      ],
      [
        "ផារ",
        "ិ"
      ],
      [
        "ផារិ",
        "ស៊ី"
      ],
      [
        "ទ",
        "ាស់"
      ],
      [
        "ប",
        "ោះ"
      ],
      [
        "ស",
        "ែ"
      ],
      [
        "ណ",
        "្"
      ],
      [
        "ោ",
        "ជន"
      ],
      [
        "ស្រ",
        "ី"
      ],
      [
        "ក្",
        "មេ"
      ],
      [
        "ប្រយ",
        "ោជន"
      ],
      [
        "សរស",
        "ើរ"
      ],
      [
        "ប្រយោជន",
        "៍"
      ],
      [
        "ក",
        "ម្"
      ],
      [
        "ជ",
        "ំ"
      ],
      [
        "សំ",
        "គាល់"
      ],
      [
        "ភ្ល",
        "ើង"
      ],
      [
        "ពន្",
        "លឺ"
      ],
      [
        "ផ្ដ",
        "ើម"
      ],
      [
        "ក",
        "ោត"
      ],
      [
        "គ",
        "ោរ"
      ],
      [
        "ង",
        "ាយ"
      ],
      [
        "ច",
        "ម្"
      ],
      [
        "ឆ",
        "្ន"
      ],
      [
        "ថ",
        "ែ"
      ],
      [
        "៉",
        "ូ"
      ],
      [
        "ប្រ",
        "ជុំ"
      ],
      [
        "សង្ឃ",
        "ឹម"
      ],
      [
        "គោរ",
        "ព"
      ],
      [
        "ប",
        "ួន"
      ],
      [
        "ស្",
        "ល"
      ],
      [
        "ហេតុ",
        "ការណ៍"
      ],
      [
        "ពិ",
        "ភព"
      ],
      [
        "បង្គ",
        "ំ"
      ],
      [
        "ន",
        "ឹក"
      ],
      [
        "ម្ដ",
        "ង"
      ],
      [
        "សុខ",
        "សាន"
      ],
      [
        "ឆ្ក",
        "ាង"
      ],
      [
        "អ",
        "ែល"
      ],
      [
        "ផ្ទ",
        "ាល់"
      ],
      [
        "ធ្ល",
        "ាក់"
      ],
      [
        "ហេតុ",
        "អ្វី"
      ],
      [
        "គ",
        "ួរ"
      ],
      [
        "ញ",
        "្ញ"
      ],
      [
        "ដ",
        "ោះ"
      ],
      [
        "ប",
        "ាំង"
      ],
      [
        "ម",
        "ា"
      ],
      [
        "ហ",
        "ាំ"
      ],
      [
        "ង្វ",
        "ាយ"
      ],
      [
        "ក្មេ",
        "ង"
      ],
      [
        "ត",
        "ង្វាយ"
      ],
      [
        "ល",
        "ុះ"
      ],
      [
        "ី",
        "ឡ"
      ],
      [
        "ប្រ",
        "ាជ"
      ],
      [
        "សា",
        "លា"
      ],
      [
        "សម្",
        "ប"
      ],
      [
        "ថ្ល",
        "ែង"
      ],
      [
        "ត",
        "ូច"
      ],
      [
        "អ័",
        "ប្រា"
      ],
      [
        "អ័ប្រា",
        "ហាំ"
      ],
      [
        "ន",
        "រ"
      ],
      [
        "ព",
        "ាក់"
      ],
      [
        "ពួក",
        "វា"
      ],
      [
        "ស្",
        "ង"
      ],
      [
        "្យ",
        "ា"
      ],
      [
        "អំណ",
        "រ"
      ],
      [
        "ម៉ូ",
        "សេ"
      ],
      [
        "បញ",
        "្ញ"
      ],
      [
        "ថ្ម",
        "ី"
      ],
      [
        "ៀ",
        "វ"
      ],
      [
        "តែ",
        "ង"
      ],
      [
        "សំ",
        "ដី"
      ],
      [
        "ទ្រ",
        "ព្យ"
      ],
      [
        "សន",
        "្យា"
      ],
      [
        "នរ",
        "ណា"
      ],
      [
        "ច",
        "េះ"
      ],
      [
        "ទ",
        "្វ"
      ],
      [
        "ព្រះ",
        "នាម"
      ],
      [
        "អ៊ី",
        "ស្រា"
      ],
      [
        "ម",
        "េត"
      ],
      [
        "ល",
        "ោ"
      ],
      [
        "ព្រះ",
        "វិហារ"
      ],
      [
        "ាត",
        "ាំង"
      ],
      [
        "ជំន",
        "ាន់"
      ],
      [
        "បញ្",
        "ជា"
      ],
      [
        "បំ",
        "ផ្ល"
      ],
      [
        "អ៊ីស្រា",
        "អែល"
      ],
      [
        "ស",
        "ាតាំង"
      ],
      [
        "ួ",
        "ស"
      ],
      [
        "ត្រ",
        "ី"
      ],
      [
        "ក្រ",
        "ោម"
      ],
      [
        "លើ",
        "ស"
      ],
      [
        "ស៊ី",
        "ម៉ូន"
      ],
      [
        "ប្រាជ",
        "្ញា"
      ],
      [
        "ច",
        "ម្រ"
      ],
      [
        "ត",
        "ី"
      ],
      [
        "ន",
        "្ដ"
      ],
      [
        "វ",
        "ាយ"
      ],
      [
        "ស្រ",
        "ប"
      ],
      [
        "បំ",
        "ផុត"
      ],
      [
        "ថ្វាយ",
        "បង្គំ"
      ],
      [
        "ប្រាំ",
        "ពីរ"
      ],
      [
        "ដំ",
        "ប"
      ],
      [
        "ទ្វ",
        "ារ"
      ],
      [
        "ច",
        "ាក"
      ],
      [
        "ឈ",
        "ើ"
      ],
      [
        "ប",
        "ទ"
      ],
      [
        "ល",
        "ក់"
      ],
      [
        "ំព",
        "ាក់"
      ],
      [
        "អា",
        "វ"
      ],
      [
        "សូ",
        "ម្បី"
      ],
      [
        "ជំនុំ",
        "ជម្រះ"
      ],
      [
        "កោត",
        "ខ្លាច"
      ],
      [
        "បញ្ញ",
        "ត្ដិ"
      ],
      [
        "ជ",
        "ូន"
      ],
      [
        "ទ",
        "័យ"
      ],
      [
        "ល",
        "្ង"
      ],
      [
        "ប្រស",
        "ើរ"
      ],
      [
        "ឆ្ន",
        "ាំ"
      ],
      [
        "បំផ្ល",
        "ាញ"
      ],
      [
        "ហ",
        "ឫ"
      ],
      [
        "អ",
        "ូ"
      ],
      [
        "ក្រ",
        "ឹត"
      ],
      [
        "ក្រឹត",
        "្យ"
      ],
      [
        "ឃ",
        "្ល"
      ],
      [
        "រ",
        "ល"
      ],
      [
        "ភ្ល",
        "ឺ"
      ],
      [
        "ភ្ន",
        "ំ"
      ],
      [
        "ប្រក",
        "ប"
      ],
      [
        "ហឫ",
        "ទ័យ"
      ],
      [
        "ទ",
        "ុំ"
      ],
      [
        "ស",
        "្នាក់"
      ],
      [
        "ី",
        "ឌ"
      ],
      [
        "ខ្",
        "ម"
      ],
      [
        "ប្រ",
        "មូល"
      ],
      [
        "ត្រ",
        "ឹម"
      ],
      [
        "ជម្រ",
        "ាប"
      ],
      [
        "កាត់",
        "ស្បែក"
      ],
      [
        "ង",
        "ង"
      ],
      [
        "ញ",
        "្"
      ],
      [
        "ទ",
        "ាន់"
      ],
      [
        "អ",
        "ង្វ"
      ],
      [
        "យ៉",
        "ាក"
      ],
      [
        "កាល",
        "ីឡ"
      ],
      [
        "ក្ប",
        "ាល"
      ],
      [
        "ណ",
        "្យ"
      ],
      [
        "ទ",
        "ូក"
      ],
      [
        "ប",
        "ាយ"
      ],
      [
        "ស",
        "ំព"
      ],
      [
        "ពួក",
        "គាត់"
      ],
      [
        "ប្រ",
        "មា"
      ],
      [
        "បុ",
        "ណ្យ"
      ],
      [
        "អង្វ",
        "រ"
      ],
      [
        "យ៉ាក",
        "ុប"
      ],
      [
        "កាលីឡ",
        "េ"
      ],
      [
        "ខ",
        "ុស"
      ],
      [
        "ប",
        "ោក"
      ],
      [
        "អ",
        "ត់"
      ],
      [
        "ោ",
        "ទ"
      ],
      [
        "ដូច",
        "ម្ដេច"
      ],
      [
        "ប៉",
        "ុ"
      ],
      [
        "ម៉",
        "ា"
      ],
      [
        "ដាវ",
        "ីឌ"
      ],
      [
        "ដ",
        "ួល"
      ],
      [
        "ត្រ",
        "ា"
      ],
      [
        "គ្រ",
        "ា"
      ],
      [
        "ទ្រ",
        "ាំ"
      ],
      [
        "ស្ម",
        "ោះ"
      ],
      [
        "រៀប",
        "ចំ"
      ],
      [
        "ប្រមា",
        "ថ"
      ],
      [
        "ច",
        "្ច"
      ],
      [
        "ទ",
        "ាហាន"
      ],
      [
        "ប",
        "ាត់"
      ],
      [
        "វ",
        "ែង"
      ],
      [
        "្ន",
        "ូរ"
      ],
      [
        "ង្",
        "ស"
      ],
      [
        "ចម្",
        "ការ"
      ],
      [
        "ប",
        "ល"
      ],
      [
        "យ",
        "ប់"
      ],
      [
        "ឡ",
        "ាត់"
      ],
      [
        "័",
        "ង្ក"
      ],
      [
        "ារ",
        "ា"
      ],
      [
        "ពី",
        "ឡាត់"
      ],
      [
        "មក",
        "ពី"
      ],
      [
        "វិន",
        "ាស"
      ],
      [
        "ថែ",
        "ម"
      ],
      [
        "ត",
        "ប"
      ],
      [
        "អ",
        "ី"
      ],
      [
        "្ដ",
        "ា"
      ],
      [
        "គ្រ",
        "ង"
      ],
      [
        "្ល",
        "័ង្ក"
      ],
      [
        "សិ",
        "ប"
      ],
      [
        "លើក",
        "លែង"
      ],
      [
        "ងង",
        "ឹត"
      ],
      [
        "ល",
        "ោះ"
      ],
      [
        "អ",
        "ន"
      ],
      [
        "ែ",
        "ត"
      ],
      [
        "័",
        "ទ"
      ],
      [
        "គ្រ",
        "ាប់"
      ],
      [
        "បា",
        "ក"
      ],
      [
        "ក្ប",
        "ត់"
      ],
      [
        "ដំប",
        "ូង"
      ],
      [
        "បល",
        "្ល័ង្ក"
      ],
      [
        "ក",
        "ណ្ដ"
      ],
      [
        "ប",
        "្ដី"
      ],
      [
        "​",
        "​"
      ],
      [
        "ទី",
        "នោះ"
      ],
      [
        "ស្ថ",
        "ិត"
      ],
      [
        "ភ",
        "ី"
      ],
      [
        "ល",
        "េ"
      ],
      [
        "ស",
        "មុ"
      ],
      [
        "ួ",
        "ង"
      ],
      [
        "ប្រ",
        "ហ"
      ],
      [
        "ប្រ",
        "ាក់"
      ],
      [
        "ស្រ",
        "្ដី"
      ],
      [
        "ភា",
        "សា"
      ],
      [
        "បែ",
        "រ"
      ],
      [
        "សមុ",
        "ទ្រ"
      ],
      [
        "ក",
        "ុ"
      ],
      [
        "ង",
        "ឺ"
      ],
      [
        "ជ",
        "ួយ"
      ],
      [
        "ជ",
        "ូរ"
      ],
      [
        "ដ",
        "ក"
      ],
      [
        "ប",
        "ន្ដ"
      ],
      [
        "ព",
        "ស់"
      ],
      [
        "វ",
        "ង្គ"
      ],
      [
        "ផ្ល",
        "ែ"
      ],
      [
        "ស្អ",
        "ាត"
      ],
      [
        "សប្ប",
        "័ទ"
      ],
      [
        "ទិ",
        "វង្គ"
      ],
      [
        "ដូន",
        "តា"
      ],
      [
        "ទិវង្គ",
        "ត"
      ],
      [
        "ធ",
        "ម"
      ],
      [
        "ប្រ",
        "ឆ"
      ],
      [
        "ក្រ",
        "ែង"
      ],
      [
        "ម៉",
        "ារា"
      ],
      [
        "កំ",
        "ហ"
      ],
      [
        "ជំ",
        "ងឺ"
      ],
      [
        "ធម",
        "៌"
      ],
      [
        "ទ",
        "ារ"
      ],
      [
        "ប",
        "ារ"
      ],
      [
        "ព",
        "ង្ស"
      ],
      [
        "អ",
        "ួត"
      ],
      [
        "ព្រ",
        "ួយ"
      ],
      [
        "ម្នាក់",
        "ៗ"
      ],
      [
        "ច្ប",
        "ាស់"
      ],
      [
        "ប្រឆ",
        "ាំង"
      ],
      [
        "ខ",
        "ាន"
      ],
      [
        "ឈ",
        "្ន"
      ],
      [
        "ដ",
        "ិ"
      ],
      [
        "ត",
        "ក"
      ],
      [
        "ភ",
        "័យ"
      ],
      [
        "រ",
        "តក"
      ],
      [
        "ស្រ",
        "ាប់"
      ],
      [
        "រង",
        "ទុក្ខ"
      ],
      [
        "សម្ប",
        "ត្ដិ"
      ],
      [
        "មេត",
        "្ដា"
      ],
      [
        "ក្រឹត្យ",
        "វិន័យ"
      ],
      [
        "ទ",
        "ំព"
      ],
      [
        "ផ",
        "្នូរ"
      ],
      [
        "ព",
        "ាន់"
      ],
      [
        "ម",
        "រតក"
      ],
      [
        "្",
        "តិ"
      ],
      [
        "ស្",
        "ត"
      ],
      [
        "គ្រប់",
        "គ្រង"
      ],
      [
        "ប៉ុ",
        "ន្"
      ],
      [
        "ស្មោះ",
        "ត្រង់"
      ],
      [
        "ទំព",
        "ាំង"
      ],
      [
        "រ",
        "ត់"
      ],
      [
        "៉",
        "ា"
      ],
      [
        "រប",
        "ៀប"
      ],
      [
        "ម្",
        "ត"
      ],
      [
        "បន្ទ",
        "ោស"
      ],
      [
        "ប្រព្រឹត",
        "្ត"
      ],
      [
        "ភេ",
        "ទ"
      ],
      [
        "សំព",
        "ៅ"
      ],
      [
        "គ",
        "ុក"
      ],
      [
        "ប",
        "ំពាក់"
      ],
      [
        "ប",
        "ដិ"
      ],
      [
        "រ",
        "ា"
      ],
      [
        "ប្រ",
        "កាន់"
      ],
      [
        "ត្រ",
        "ាស់"
      ],
      [
        "សេ",
        "ធ"
      ],
      [
        "ហេតុ",
        "នេះ"
      ],
      [
        "បដិ",
        "សេធ"
      ],
      [
        "ច",
        "ោទ"
      ],
      [
        "ទ",
        "ំន"
      ],
      [
        "ទ",
        "ើប"
      ],
      [
        "ធ",
        "្ម"
      ],
      [
        "ស",
        "័"
      ],
      [
        "ស",
        "ាយ"
      ],
      [
        "ដែ",
        "ង"
      ],
      [
        "ប្រ",
        "ដូច"
      ],
      [
        "ន្",
        "ធ"
      ],
      [
        "គ្រ",
        "ោះ"
      ],
      [
        "សំ",
        "ដែង"
      ],
      [
        "បណ្ដ",
        "េញ"
      ],
      [
        "អរ",
        "ព្រះគុណ"
      ],
      [
        "ពូជ",
        "ពង្ស"
      ],
      [
        "ប្រហ",
        "ែល"
      ],
      [
        "រ",
        "ៀង"
      ],
      [
        "ស",
        "្ន"
      ],
      [
        "ហ",
        "េរ"
      ],
      [
        "អ",
        "ាន"
      ],
      [
        "័",
        "ត"
      ],
      [
        "ចំណ",
        "ែក"
      ],
      [
        "កំណ",
        "ត់"
      ],
      [
        "រំ",
        "ល"
      ],
      [
        "៉ូ",
        "ឌ"
      ],
      [
        "ជម្រាប",
        "សួរ"
      ],
      [
        "ច",
        "ង"
      ],
      [
        "ច",
        "ំន"
      ],
      [
        "ឈ",
        "ឺ"
      ],
      [
        "ត",
        "្ប"
      ],
      [
        "កំ",
        "បាំង"
      ],
      [
        "ស្អ",
        "ប់"
      ],
      [
        "សប្ប",
        "ាយ"
      ],
      [
        "ប្រស",
        "ិន"
      ],
      [
        "ហេរ",
        "៉ូឌ"
      ],
      [
        "គ",
        "ី"
      ],
      [
        "ច",
        "ាក់"
      ],
      [
        "ហ",
        "្វាយ"
      ],
      [
        "ូ",
        "ម"
      ],
      [
        "ចាស់",
        "ទុំ"
      ],
      [
        "ប្រព្រឹត",
        "្ដិ"
      ],
      [
        "វេ",
        "លា"
      ],
      [
        "សុខសាន",
        "្ដ"
      ],
      [
        "ចំន",
        "ួន"
      ],
      [
        "ច",
        "ុង"
      ],
      [
        "ប",
        "ឹង"
      ],
      [
        "ប",
        "ែក"
      ],
      [
        "ល",
        "ក្"
      ],
      [
        "ស",
        "ង់"
      ],
      [
        "ើ",
        "សរ"
      ],
      [
        "ព្រ",
        "ៀង"
      ],
      [
        "ស្ដ",
        "ាំ"
      ],
      [
        "ជ្រ",
        "ើសរ"
      ],
      [
        "ប្រយ",
        "័ត"
      ],
      [
        "លក្",
        "ខ"
      ],
      [
        "ជ្រើសរ",
        "ើស"
      ],
      [
        "ប្រយ័ត",
        "្ន"
      ],
      [
        "ច",
        "ែក"
      ],
      [
        "ដ",
        "េក"
      ],
      [
        "ណា",
        "ក់"
      ],
      [
        "សេ",
        "ស"
      ],
      [
        "ចម្រ",
        "ើន"
      ],
      [
        "ង",
        "ារ"
      ],
      [
        "ែ",
        "រ"
      ],
      [
        "ចៅ",
        "ហ្វាយ"
      ],
      [
        "ខ្វ",
        "ាក់"
      ],
      [
        "អន",
        "ុ"
      ],
      [
        "ក",
        "្ដ"
      ],
      [
        "ខ",
        "ំ"
      ],
      [
        "ដ",
        "ុំ"
      ],
      [
        "ប",
        "ិ"
      ],
      [
        "ប",
        "េ"
      ],
      [
        "ព",
        "័"
      ],
      [
        "ី",
        "ល"
      ],
      [
        "ឿ",
        "ន"
      ],
      [
        "ន្",
        "ទ"
      ],
      [
        "ទេ",
        "ស"
      ],
      [
        "បា",
        "ស"
      ],
      [
        "បញ្",
        "ឆ"
      ],
      [
        "សម្ល",
        "ៀក"
      ],
      [
        "ច",
        "ម្ល"
      ],
      [
        "ដ",
        "ង"
      ],
      [
        "ដ",
        "ាស់"
      ],
      [
        "ប",
        "ៀត"
      ],
      [
        "ប",
        "ៀន"
      ],
      [
        "ម",
        "ាំ"
      ],
      [
        "យ",
        "ំ"
      ],
      [
        "ស",
        "ូរ"
      ],
      [
        "អ",
        "ស"
      ],
      [
        "អ",
        "ាម៉"
      ],
      [
        "័",
        "រ"
      ],
      [
        "ខ្",
        "យល់"
      ],
      [
        "ស្",
        "ទ"
      ],
      [
        "បញ",
        "្ច"
      ],
      [
        "ធ្ល",
        "ាប់"
      ],
      [
        "អំណ",
        "ោយ"
      ],
      [
        "ច្ច",
        "រិត"
      ],
      [
        "ច",
        "ៀក"
      ],
      [
        "ជ",
        "ំព"
      ],
      [
        "ទ",
        "ុ"
      ],
      [
        "ស",
        "ង"
      ],
      [
        "សា",
        "ហា"
      ],
      [
        "អា",
        "ណ"
      ],
      [
        "ទី",
        "សំគាល់"
      ],
      [
        "ក្",
        "សា"
      ],
      [
        "ព្រម",
        "ព្រៀង"
      ],
      [
        "ក្ស",
        "ី"
      ],
      [
        "អេ",
        "លី"
      ],
      [
        "លី",
        "ព"
      ],
      [
        "កំណ",
        "ើត"
      ],
      [
        "ល្ង",
        "ង់"
      ],
      [
        "ញ្",
        "ជ"
      ],
      [
        "បាយ",
        "ជូរ"
      ],
      [
        "កណ្ដ",
        "ាល"
      ],
      [
        "ភី",
        "លីព"
      ],
      [
        "សាហា",
        "វ"
      ],
      [
        "ខ",
        "ាត"
      ],
      [
        "ប",
        "ូ"
      ],
      [
        "ភ",
        "ូម"
      ],
      [
        "ដែរ",
        "‍"
      ],
      [
        "ម៉",
        "ោង"
      ],
      [
        "ផ្ទ",
        "ៃ"
      ],
      [
        "ស្ល",
        "ៀក"
      ],
      [
        "បទ",
        "គម្ពីរ"
      ],
      [
        "បញ្ឆ",
        "ោត"
      ],
      [
        "ទុ",
        "ច្ចរិត"
      ],
      [
        "ភូម",
        "ិ"
      ],
      [
        "ដ",
        "ឹក"
      ],
      [
        "ត",
        "ឿន"
      ],
      [
        "រ",
        "ក្សា"
      ],
      [
        "ោ",
        "ធ"
      ],
      [
        "ទាំង",
        "អស់"
      ],
      [
        "ត្រ",
        "ចៀក"
      ],
      [
        "សា",
        "ក"
      ],
      [
        "សា",
        "ក្សី"
      ],
      [
        "កូន",
        "ចៀម"
      ],
      [
        "ដា",
        "ច់"
      ],
      [
        "ឆ្ល",
        "ង"
      ],
      [
        "ញ្ញ",
        "ាត"
      ],
      [
        "អនុ",
        "ញ្ញាត"
      ],
      [
        "ម",
        "ាស"
      ],
      [
        "ស",
        "ះ"
      ],
      [
        "អ",
        "ញ្ជ"
      ],
      [
        "ព្រ",
        "ល"
      ],
      [
        "ជា",
        "ក់"
      ],
      [
        "ស្",
        "វែង"
      ],
      [
        "ស្រ",
        "េច"
      ],
      [
        "ពិភព",
        "លោក"
      ],
      [
        "ស្នាក់",
        "នៅ"
      ],
      [
        "បៀត",
        "បៀន"
      ],
      [
        "អញ្ជ",
        "ើញ"
      ],
      [
        "ញ",
        "ាប់"
      ],
      [
        "ត",
        "ម្ល"
      ],
      [
        "ល",
        "ាក់"
      ],
      [
        "ឡ",
        "ា"
      ],
      [
        "ខ្",
        "សោយ"
      ],
      [
        "ារ",
        "ី"
      ],
      [
        "ន្",
        "ម"
      ],
      [
        "បញ្",
        "ចុះ"
      ],
      [
        "បំ",
        "ពេញ"
      ],
      [
        "យ៉ូ",
        "សែ"
      ],
      [
        "ជួប",
        "ជុំ"
      ],
      [
        "លំ",
        "បាក"
      ],
      [
        "ីល",
        "ធម៌"
      ],
      [
        "អស",
        "ីលធម៌"
      ],
      [
        "ជំព",
        "ប់"
      ],
      [
        "យ៉ូសែ",
        "ប"
      ],
      [
        "ក",
        "ុះ"
      ],
      [
        "ច",
        "ង្ក"
      ],
      [
        "ត",
        "ំ"
      ],
      [
        "ប",
        "ន់"
      ],
      [
        "ព",
        "ាល់"
      ],
      [
        "រ",
        "ឹង"
      ],
      [
        "រ",
        "ង្វ"
      ],
      [
        "ល",
        "ាង"
      ],
      [
        "ប្រ",
        "េង"
      ],
      [
        "អា",
        "ថ"
      ],
      [
        "បូ",
        "ជា"
      ],
      [
        "តម្ល",
        "ៃ"
      ],
      [
        "ញ",
        "ែក"
      ],
      [
        "ត",
        "ុ"
      ],
      [
        "ត",
        "្ដ"
      ],
      [
        "ព",
        "ព"
      ],
      [
        "ម",
        "ិត"
      ],
      [
        "យ",
        "ញ្ញ"
      ],
      [
        "រ",
        "ង់"
      ],
      [
        "ល",
        "េច"
      ],
      [
        "ស",
        "ិន"
      ],
      [
        "ស",
        "ំណ"
      ],
      [
        "ប្រ",
        "ុង"
      ],
      [
        "ស្ប",
        "ថ"
      ],
      [
        "កុះ",
        "ករ"
      ],
      [
        "តំ",
        "បន់"
      ],
      [
        "ក",
        "ោះ"
      ],
      [
        "ជ",
        "ន្ម"
      ],
      [
        "ប",
        "ាក់"
      ],
      [
        "ព",
        "ុត"
      ],
      [
        "យ",
        "ាម"
      ],
      [
        "វ",
        "យ"
      ],
      [
        "អ",
        "វយ"
      ],
      [
        "ុ",
        "ណា"
      ],
      [
        "ព្រះ",
        "ជន្ម"
      ],
      [
        "ត្រូវ",
        "ការ"
      ],
      [
        "យ៉",
        "ា"
      ],
      [
        "ក្",
        "តី"
      ],
      [
        "ល្ប",
        "ួង"
      ],
      [
        "ផ្ដ",
        "ល់"
      ],
      [
        "ក្ប",
        "ែរ"
      ],
      [
        "ករ",
        "ុណា"
      ],
      [
        "ផ្សេង",
        "ៗ"
      ],
      [
        "ជ្រមុជ",
        "ទឹក"
      ],
      [
        "សុខសាន",
        "្ត"
      ],
      [
        "ឃ្ល",
        "ាន"
      ],
      [
        "អត់",
        "ធ្ម"
      ],
      [
        "អត់ធ្ម",
        "ត់"
      ],
      [
        "ឈ",
        "ប់"
      ],
      [
        "ឈ",
        "្ល"
      ],
      [
        "ប",
        "ូរ"
      ],
      [
        "ល",
        "ះ"
      ],
      [
        "វ",
        "ៈ"
      ],
      [
        "ស",
        "ត្រូវ"
      ],
      [
        "ោ",
        "ឋាន"
      ],
      [
        "ខ្",
        "ពស់"
      ],
      [
        "ក៏",
        "ដោយ"
      ],
      [
        "ទេ",
        "‍"
      ],
      [
        "ម៉",
        "ឺ"
      ],
      [
        "ភា",
        "គ"
      ],
      [
        "រហ",
        "ោឋាន"
      ],
      [
        "ដំ",
        "ណាក់"
      ],
      [
        "កំហ",
        "ុស"
      ],
      [
        "លក្ខ",
        "ណ៍"
      ],
      [
        "អវយ",
        "វៈ"
      ],
      [
        "ព",
        "ោះ"
      ],
      [
        "ព",
        "ែង"
      ],
      [
        "ភ",
        "្ញ"
      ],
      [
        "ព្រះ",
        "ហ"
      ],
      [
        "ព្រះ",
        "ហឫទ័យ"
      ],
      [
        "សេច",
        "ក្តី"
      ],
      [
        "បា",
        "ទ"
      ],
      [
        "សំ",
        "បុត្រ"
      ],
      [
        "បន្ទាប់",
        "មក"
      ],
      [
        "ជុំ",
        "វិញ"
      ],
      [
        "ខ្វ",
        "ល់"
      ],
      [
        "ក្ល",
        "ាយ"
      ],
      [
        "ក",
        "្ដិ"
      ],
      [
        "ខ",
        "ែ"
      ],
      [
        "គ",
        "ំ"
      ],
      [
        "ព",
        "្"
      ],
      [
        "យ",
        "ស"
      ],
      [
        "ស",
        "ៀវ"
      ],
      [
        "ិ",
        "ញ"
      ],
      [
        "ម្",
        "ខាង"
      ],
      [
        "ស្",
        "ត្រី"
      ],
      [
        "ត្រ",
        "េក"
      ],
      [
        "ក្រ",
        "ាប"
      ],
      [
        "គ្រ",
        "ាន់"
      ],
      [
        "ស៊ូ",
        "ទ្រាំ"
      ],
      [
        "កា",
        "ច់"
      ],
      [
        "បា",
        "ល"
      ],
      [
        "បា",
        "ច់"
      ],
      [
        "សេ",
        "រី"
      ],
      [
        "សារ",
        "៉"
      ],
      [
        "តិ",
        "ច"
      ],
      [
        "យូដា",
        "ស"
      ],
      [
        "ស្ង",
        "ាត់"
      ],
      [
        "ព័",
        "ន្ធ"
      ],
      [
        "បញ្ច",
        "ប់"
      ],
      [
        "ព្",
        "ទ"
      ],
      [
        "ក",
        "ិត"
      ],
      [
        "ឆ",
        "េះ"
      ],
      [
        "ឆ",
        "្ម"
      ],
      [
        "ដ",
        "េ"
      ],
      [
        "ដ",
        "េញ"
      ],
      [
        "ត",
        "្"
      ],
      [
        "ត",
        "ម្រ"
      ],
      [
        "ធ",
        "្ង"
      ],
      [
        "ន",
        "ី"
      ],
      [
        "ផ",
        "ិត"
      ],
      [
        "ព",
        "ើ"
      ],
      [
        "ស",
        "ណ្"
      ],
      [
        "អ",
        "ាត"
      ],
      [
        "ួ",
        "ច"
      ],
      [
        "្",
        "សា"
      ],
      [
        "ក្រ",
        "ម"
      ],
      [
        "ក្រ",
        "េក"
      ],
      [
        "ស៊ី",
        "ព្ទ"
      ],
      [
        "ក្រោយ",
        "ពី"
      ],
      [
        "អេ",
        "ស៊ីព្ទ"
      ],
      [
        "ស្ប",
        "ើយ"
      ],
      [
        "ប្រែ",
        "ចិត្ដ"
      ],
      [
        "ចាក",
        "ចេញ"
      ],
      [
        "ប៉ុន្",
        "មាន"
      ],
      [
        "រំល",
        "ង"
      ],
      [
        "អាថ",
        "៌"
      ],
      [
        "សារ៉",
        "ែត"
      ],
      [
        "ត្",
        "ថ"
      ],
      [
        "គ",
        "ត់"
      ],
      [
        "ដ",
        "ៅ"
      ],
      [
        "ប",
        "្ល"
      ],
      [
        "ភ",
        "ៅ"
      ],
      [
        "យ",
        "ុ"
      ],
      [
        "រ",
        "៉ូ"
      ],
      [
        "ិ",
        "ះ"
      ],
      [
        "ួ",
        "សារ"
      ],
      [
        "ូល",
        "ី"
      ],
      [
        "ក្រ",
        "អូ"
      ],
      [
        "ក្រ",
        "ោធ"
      ],
      [
        "វិ",
        "សេស"
      ],
      [
        "គ្រ",
        "ួសារ"
      ],
      [
        "សា",
        "ប"
      ],
      [
        "ជំន",
        "ួយ"
      ],
      [
        "ជំន",
        "ួស"
      ],
      [
        "សម្",
        "ព័ន្ធ"
      ],
      [
        "កើត",
        "ឡើង"
      ],
      [
        "បម្រ",
        "ុង"
      ],
      [
        "រាជ",
        "្យ"
      ],
      [
        "អធិ",
        "រាជ"
      ],
      [
        "ខ្វ",
        "ះ"
      ],
      [
        "សាន",
        "្ដ"
      ],
      [
        "ក្ល",
        "ែង"
      ],
      [
        "កុ",
        "ល"
      ],
      [
        "ដឹក",
        "នាំ"
      ],
      [
        "ចង្ក",
        "ៀង"
      ],
      [
        "សៀវ",
        "ភៅ"
      ],
      [
        "សេរី",
        "ភាព"
      ],
      [
        "ក្រអូ",
        "ប"
      ],
      [
        "ក",
        "ម្ល"
      ],
      [
        "ង",
        "ល់"
      ],
      [
        "ច",
        "េ"
      ],
      [
        "ណ",
        "៌"
      ],
      [
        "ថ",
        "េ"
      ],
      [
        "ប",
        "្ដ"
      ],
      [
        "ស",
        "ែង"
      ],
      [
        "អ",
        "ាង"
      ],
      [
        "ិ",
        "ល"
      ],
      [
        "អ្នក",
        "បម្រើ"
      ],
      [
        "ប្រ",
        "ើ"
      ],
      [
        "ណា",
        "បាស"
      ],
      [
        "ទី",
        "រហោឋាន"
      ],
      [
        "ម៉",
        "ាយ"
      ],
      [
        "ច្រ",
        "ូត"
      ],
      [
        "មេ",
        "ម៉ាយ"
      ],
      [
        "ជ្រ",
        "ាប"
      ],
      [
        "លា",
        "ប"
      ],
      [
        "ឆ្",
        "ងល់"
      ],
      [
        "ក្ល",
        "ាហាន"
      ],
      [
        "ណ្",
        "តា"
      ],
      [
        "ត្រឹម",
        "ត្រូវ"
      ],
      [
        "រង្វ",
        "ាន់"
      ],
      [
        "ព្រះហ",
        "ស្ដ"
      ],
      [
        "ត្រេក",
        "អរ"
      ],
      [
        "កម្ល",
        "ាំង"
      ],
      [
        "ច",
        "ោរ"
      ],
      [
        "ដ",
        "ារ"
      ],
      [
        "ថ",
        "្នា"
      ],
      [
        "ទ",
        "ម្"
      ],
      [
        "ទ",
        "ាល់"
      ],
      [
        "វ",
        "ង្វ"
      ],
      [
        "ា",
        "វ"
      ],
      [
        "ខ្",
        "សែ"
      ],
      [
        "ស្",
        "មាន"
      ],
      [
        "ណា",
        "សារ៉ែត"
      ],
      [
        "គ្រ",
        "ោក"
      ],
      [
        "ស្ស",
        "ា"
      ],
      [
        "ទី",
        "នេះ"
      ],
      [
        "សម្រ",
        "ាក"
      ],
      [
        "សង្",
        "ក"
      ],
      [
        "ចាប់",
        "ផ្ដើម"
      ],
      [
        "ស្ម",
        "ោក"
      ],
      [
        "ប្រា",
        "ថ្នា"
      ],
      [
        "បារ",
        "ណាបាស"
      ],
      [
        "ស័",
        "ក្ដិ"
      ],
      [
        "ត្ប",
        "ូង"
      ],
      [
        "បិ",
        "ទ"
      ],
      [
        "អាម៉",
        "ែន"
      ],
      [
        "រង់",
        "ចាំ"
      ],
      [
        "ចេ",
        "ស្ដ"
      ],
      [
        "ស័ក្ដិ",
        "សម"
      ],
      [
        "ក",
        "ាក់"
      ],
      [
        "ច",
        "ិញ"
      ],
      [
        "ទ",
        "ម្ល"
      ],
      [
        "ន",
        "ាយ"
      ],
      [
        "ន",
        "័យ"
      ],
      [
        "ព",
        "ណ៌"
      ],
      [
        "យ",
        "ូរ"
      ],
      [
        "ស",
        "ូន"
      ],
      [
        "ូ",
        "ស"
      ],
      [
        "ឿ",
        "យ"
      ],
      [
        "ៀ",
        "ស"
      ],
      [
        "ាន",
        "ា"
      ],
      [
        "ាន",
        "ី"
      ],
      [
        "ព្រះ",
        "ចៅ"
      ],
      [
        "ខ្",
        "ជ"
      ],
      [
        "ចុះ",
        "ចូល"
      ],
      [
        "ផ្",
        "កាយ"
      ],
      [
        "វា",
        "ល"
      ],
      [
        "បណ្ដ",
        "ោយ"
      ],
      [
        "ឆ្",
        "ងាយ"
      ],
      [
        "ថ្ល",
        "ៃ"
      ],
      [
        "ប្រក",
        "ែក"
      ],
      [
        "រល",
        "ួយ"
      ],
      [
        "ក្រែង",
        "លោ"
      ],
      [
        "ត្រាស់",
        "ហៅ"
      ],
      [
        "មិត",
        "្ដ"
      ],
      [
        "ទម្",
        "លាប់"
      ],
      [
        "វង្វ",
        "េង"
      ],
      [
        "ចិញ",
        "្ច"
      ],
      [
        "ទ",
        "័"
      ],
      [
        "ន",
        "ូវ"
      ],
      [
        "ន",
        "ឿយ"
      ],
      [
        "ប",
        "ក"
      ],
      [
        "ហ",
        "៊"
      ],
      [
        "ខ្",
        "ជាប់"
      ],
      [
        "ប្រ",
        "ឹក"
      ],
      [
        "ប៉",
        "ង"
      ],
      [
        "បន្",
        "លឺ"
      ],
      [
        "ស្រ",
        "ែ"
      ],
      [
        "ស្រ",
        "ាយ"
      ],
      [
        "មន",
        "សិ"
      ],
      [
        "បរិ",
        "បូរ"
      ],
      [
        "បញ្",
        "ជូន"
      ],
      [
        "ពន្ធ",
        "ដារ"
      ],
      [
        "រៀប",
        "ការ"
      ],
      [
        "កម្",
        "សាន្ដ"
      ],
      [
        "តែង",
        "តែ"
      ],
      [
        "ស្ន",
        "ង"
      ],
      [
        "កុល",
        "សម្ព័ន្ធ"
      ],
      [
        "ចេស្ដ",
        "ា"
      ],
      [
        "ប្រឹក",
        "្សា"
      ],
      [
        "មនសិ",
        "ការ"
      ],
      [
        "ខ",
        "ូច"
      ],
      [
        "គ",
        "ាប់"
      ],
      [
        "ជ",
        "ាន់"
      ],
      [
        "ទ",
        "ាក់"
      ],
      [
        "ប",
        "ល់"
      ],
      [
        "ល",
        "្"
      ],
      [
        "ៀ",
        "ល"
      ],
      [
        "គេ",
        "ច"
      ],
      [
        "ខ្វ",
        "ាយ"
      ],
      [
        "ចំ",
        "ហ"
      ],
      [
        "ច្ប",
        "ាប់"
      ],
      [
        "ទិ",
        "ញ"
      ],
      [
        "សម្ល",
        "ឹង"
      ],
      [
        "ស្ង",
        "ៀម"
      ],
      [
        "ល្ង",
        "ាច"
      ],
      [
        "រា",
        "ស្ដ្រ"
      ],
      [
        "អេលី",
        "យ៉ា"
      ],
      [
        "ធ្ង",
        "ន់"
      ],
      [
        "អាថ៌",
        "កំបាំង"
      ],
      [
        "ក",
        "ម្រ"
      ],
      [
        "គ",
        "ោល"
      ],
      [
        "ដ",
        "ដែល"
      ],
      [
        "ណ",
        "ាត់"
      ],
      [
        "ត",
        "ម"
      ],
      [
        "ប",
        "ណ្តា"
      ],
      [
        "ម",
        "ួន"
      ],
      [
        "រ",
        "ើស"
      ],
      [
        "ស",
        "េះ"
      ],
      [
        "អ",
        "ភ"
      ],
      [
        "្",
        "ឆ"
      ],
      [
        "ខ្",
        "ច"
      ],
      [
        "ារ",
        "តី"
      ],
      [
        "មក",
        "‍"
      ],
      [
        "ស្រ",
        "ូវ"
      ],
      [
        "សុ",
        "ល"
      ],
      [
        "សេ",
        "ដូន"
      ],
      [
        "កំព",
        "ូល"
      ],
      [
        "ស្ម",
        "ារតី"
      ],
      [
        "ទិ",
        "ស"
      ],
      [
        "បោះ",
        "បង់"
      ],
      [
        "ម៉ា",
        "សេដូន"
      ],
      [
        "មាំ",
        "មួន"
      ],
      [
        "អំណោយ",
        "ទាន"
      ],
      [
        "ពព",
        "ក"
      ],
      [
        "ម៉ឺ",
        "ន"
      ],
      [
        "ឆ្ម",
        "ាំ"
      ],
      [
        "ដ",
        "ុះ"
      ],
      [
        "ទ",
        "ូ"
      ],
      [
        "ន",
        "រក"
      ],
      [
        "ន",
        "ានា"
      ],
      [
        "រ",
        "ោង"
      ],
      [
        "ហ",
        "ក"
      ],
      [
        "អ",
        "៊"
      ],
      [
        "អ",
        "ណ្ដ"
      ],
      [
        "ិ",
        "បាល"
      ],
      [
        "ឹ",
        "ះ"
      ],
      [
        "ប្រ",
        "ាស់"
      ],
      [
        "ស្",
        "ក"
      ],
      [
        "ពី",
        "ព្រោះ"
      ],
      [
        "ិន",
        "័យ"
      ],
      [
        "ក្រ",
        "ណាត់"
      ],
      [
        "បន្",
        "ថែម"
      ],
      [
        "គ្រ",
        "ឿង"
      ],
      [
        "គ្រ",
        "ឹះ"
      ],
      [
        "ថ្",
        "ក"
      ],
      [
        "ម៉",
        "ាត់"
      ],
      [
        "មើ",
        "ស"
      ],
      [
        "ទឹក",
        "ចិត្ដ"
      ],
      [
        "បណ្ដ",
        "ាល"
      ],
      [
        "្ដិ",
        "យស"
      ],
      [
        "ធី",
        "ម៉ូ"
      ],
      [
        "កំ",
        "លោះ"
      ],
      [
        "ចំ",
        "អ"
      ],
      [
        "ដោះ",
        "លែង"
      ],
      [
        "ខ្ម",
        "ាស"
      ],
      [
        "កុ",
        "ហក"
      ],
      [
        "ព្រល",
        "ឹង"
      ],
      [
        "គំ",
        "រូ"
      ],
      [
        "កិត",
        "្ដិយស"
      ],
      [
        "រ៉ូ",
        "ម"
      ],
      [
        "ទ័",
        "ព"
      ],
      [
        "ល្",
        "មើស"
      ],
      [
        "អភ",
        "ិបាល"
      ],
      [
        "ធីម៉ូ",
        "ថេ"
      ],
      [
        "ក",
        "ាប់"
      ],
      [
        "ឃ",
        "ុំ"
      ],
      [
        "ឆ",
        "ាប់"
      ],
      [
        "ទ",
        "ត"
      ],
      [
        "រ",
        "ដូ"
      ],
      [
        "រ",
        "ៀន"
      ],
      [
        "ល",
        "្វ"
      ],
      [
        "វ",
        "ាត"
      ],
      [
        "វ",
        "័យ"
      ],
      [
        "ស",
        "ល់"
      ],
      [
        "ស",
        "ាម៉"
      ],
      [
        "ហ",
        "េ"
      ],
      [
        "ុ",
        "រស"
      ],
      [
        "ៀ",
        "រ"
      ],
      [
        "ជា",
        "ទី"
      ],
      [
        "ស្",
        "ញ"
      ],
      [
        "នៅ",
        "ក្នុង"
      ],
      [
        "ទៅ",
        "វិញ"
      ],
      [
        "លោក",
        "គ្រូ"
      ],
      [
        "គ្រ",
        "ូវ"
      ],
      [
        "សំ",
        "អាត"
      ],
      [
        "ិច",
        "្ឆ"
      ],
      [
        "មុខ",
        "ងារ"
      ],
      [
        "ល្ប",
        "ង"
      ],
      [
        "សប្ប",
        "ុរស"
      ],
      [
        "នឹក",
        "ចាំ"
      ],
      [
        "បញ្ជា",
        "ក់"
      ],
      [
        "អូ",
        "ស"
      ],
      [
        "បន្ដ",
        "ិច"
      ],
      [
        "ឈ្ន",
        "ះ"
      ],
      [
        "ចម្ល",
        "ែក"
      ],
      [
        "ដាស់",
        "តឿន"
      ],
      [
        "អាណ",
        "ិត"
      ],
      [
        "ទម្ល",
        "ាក់"
      ],
      [
        "រដូ",
        "វ"
      ],
      [
        "គ្រូវ",
        "ិន័យ"
      ],
      [
        "ខ",
        "្ន"
      ],
      [
        "ខ",
        "ាន់"
      ],
      [
        "ឋ",
        "ិត"
      ],
      [
        "ថ",
        "ង់"
      ],
      [
        "ទ",
        "ន់"
      ],
      [
        "ទ",
        "ន្ទ"
      ],
      [
        "ព",
        "ុំ"
      ],
      [
        "រ",
        "េ"
      ],
      [
        "ហ",
        "ូរ"
      ],
      [
        "ហ",
        "ត់"
      ],
      [
        "ឧ",
        "ត្ដ"
      ],
      [
        "ុ",
        "ដ"
      ],
      [
        "ោ",
        "ច"
      ],
      [
        "្",
        "តា"
      ],
      [
        "បាន",
        "‍"
      ],
      [
        "ប្រ",
        "ណ"
      ],
      [
        "ទៅ",
        "មក"
      ],
      [
        "មក",
        "ុដ"
      ],
      [
        "ខ្ល",
        "ៅ"
      ],
      [
        "សំ",
        "ខាន់"
      ],
      [
        "ក្",
        "តិ"
      ],
      [
        "បង្",
        "ក"
      ],
      [
        "វិន",
        "ិច្ឆ"
      ],
      [
        "មុខ",
        "ជា"
      ],
      [
        "តាំង",
        "ពី"
      ],
      [
        "យញ្ញ",
        "បូជា"
      ],
      [
        "សណ្",
        "ឋិត"
      ],
      [
        "ខ្ជ",
        "ួន"
      ],
      [
        "ហ៊",
        "ាន"
      ],
      [
        "ចំអ",
        "ក"
      ],
      [
        "ទន្ទ",
        "ឹង"
      ],
      [
        "វិនិច្ឆ",
        "័យ"
      ],
      [
        "ង",
        "្រ"
      ],
      [
        "ប",
        "ក់"
      ],
      [
        "ព",
        "ាស"
      ],
      [
        "រ",
        "៉"
      ],
      [
        "រ",
        "ាប"
      ],
      [
        "ល",
        "្ម"
      ],
      [
        "ហ",
        "្វ"
      ],
      [
        "ឡ",
        "ូន"
      ],
      [
        "អ",
        "ើ"
      ],
      [
        "ិត",
        "្យ"
      ],
      [
        "ទៅ",
        "‍"
      ],
      [
        "ប៉",
        "ា"
      ],
      [
        "បន្ទ",
        "ាប"
      ],
      [
        "ពិ",
        "បាក"
      ],
      [
        "ស្ថ",
        "េរ"
      ],
      [
        "ទ្រ",
        "ហ"
      ],
      [
        "ជ្រ",
        "ូក"
      ],
      [
        "កម្",
        "ម"
      ],
      [
        "ស្ល",
        "ូត"
      ],
      [
        "លោ",
        "ភ"
      ],
      [
        "បញ្ជា",
        "ការ"
      ],
      [
        "ស្ត",
        "ាប់"
      ],
      [
        "ប៉ុន្",
        "តែ"
      ],
      [
        "ម្ត",
        "ង"
      ],
      [
        "ភ្ញ",
        "ៀវ"
      ],
      [
        "សូន",
        "្យ"
      ],
      [
        "ចិញ្ច",
        "ឹម"
      ],
      [
        "អណ្ដ",
        "ាត"
      ],
      [
        "ថ្ក",
        "ោល"
      ],
      [
        "ល្វ",
        "ា"
      ],
      [
        "សាម៉",
        "ារី"
      ],
      [
        "ជ",
        "ិះ"
      ],
      [
        "ដ",
        "ាប់"
      ],
      [
        "ដ",
        "ោល"
      ],
      [
        "ព",
        "ារ"
      ],
      [
        "ម",
        "ី"
      ],
      [
        "ហ",
        "ួស"
      ],
      [
        "ម្",
        "ភ"
      ],
      [
        "ត្រ",
        "ែ"
      ],
      [
        "ការ",
        "ី"
      ],
      [
        "ការ",
        "ងារ"
      ],
      [
        "ការ",
        "ពារ"
      ],
      [
        "បន្",
        "លា"
      ],
      [
        "បន្ទ",
        "ុក"
      ],
      [
        "មន",
        "្ដ"
      ],
      [
        "កូន",
        "ចៅ"
      ],
      [
        "ច្រ",
        "បល់"
      ],
      [
        "អេ",
        "សាយ"
      ],
      [
        "អ៊ី",
        "សាក"
      ],
      [
        "សម្ល",
        "ាញ់"
      ],
      [
        "ក្មេង",
        "ៗ"
      ],
      [
        "ទំន",
        "ៀម"
      ],
      [
        "សះ",
        "ស្បើយ"
      ],
      [
        "គ",
        "ោ"
      ],
      [
        "ឆ",
        "្អ"
      ],
      [
        "ជ",
        "័យ"
      ],
      [
        "ជ",
        "ំពាក់"
      ],
      [
        "ឋ",
        "ា"
      ],
      [
        "ទ",
        "េច"
      ],
      [
        "ទ",
        "ៀប"
      ],
      [
        "ម",
        "ែក"
      ],
      [
        "ល",
        "ួច"
      ],
      [
        "វ",
        "ី"
      ],
      [
        "ស",
        "ោក"
      ],
      [
        "ស",
        "្ដី"
      ],
      [
        "ហ",
        "៍"
      ],
      [
        "ឡ",
        "ាន់"
      ],
      [
        "អ",
        "ាន់"
      ],
      [
        "អ",
        "ូលី"
      ],
      [
        "ឱ",
        "កាស"
      ],
      [
        "ម្",
        "យ៉ាង"
      ],
      [
        "ពេ",
        "ក"
      ],
      [
        "សម្រ",
        "ាល"
      ],
      [
        "ចំណ",
        "េះ"
      ],
      [
        "មេ",
        "បញ្ជាការ"
      ],
      [
        "អេ",
        "ភេ"
      ],
      [
        "ស្អ",
        "ាង"
      ],
      [
        "លុះ",
        "ត្រា"
      ],
      [
        "តែង",
        "តាំង"
      ],
      [
        "មេត",
        "្តា"
      ],
      [
        "ម៉ា",
        "ថា"
      ],
      [
        "ឈ្ន",
        "ួល"
      ],
      [
        "បាទ",
        "ា"
      ],
      [
        "ក្លែង",
        "ក្លាយ"
      ],
      [
        "ខ្ជាប់",
        "ខ្ជួន"
      ],
      [
        "ហ្វ",
        "ូង"
      ],
      [
        "ឋា",
        "ឡាន់"
      ],
      [
        "អេភេ",
        "សូរ"
      ],
      [
        ")",
        "​"
      ],
      [
        "ក",
        "ៃ"
      ],
      [
        "ខ",
        "ឹង"
      ],
      [
        "គ",
        "ូ"
      ],
      [
        "គ",
        "ប់"
      ],
      [
        "ច",
        "ៀស"
      ],
      [
        "ញ",
        "្ញា"
      ],
      [
        "ដ",
        "ុត"
      ],
      [
        "ណ",
        "ែន"
      ],
      [
        "យ",
        "ុត"
      ],
      [
        "ស",
        "ក់"
      ],
      [
        "ស",
        "ញ្ញា"
      ],
      [
        "ឡ",
        "ែក"
      ],
      [
        "ឯ",
        "ក"
      ],
      [
        "ព្រះ",
        "ពរ"
      ],
      [
        "ប្រ",
        "ញាប់"
      ],
      [
        "នៅ",
        "ពេល"
      ],
      [
        "ទាំង",
        "នេះ"
      ],
      [
        "ាយ",
        "ាម"
      ],
      [
        "គ្រ",
        "ប"
      ],
      [
        "ស្រ",
        "ុង"
      ],
      [
        "អា",
        "ស៊ី"
      ],
      [
        "ទី",
        "យ៉ូ"
      ],
      [
        "ចំណ",
        "ង"
      ],
      [
        "ទ្រ",
        "ង់"
      ],
      [
        "បន្ទាប់",
        "ពី"
      ],
      [
        "ចាំ",
        "បាច់"
      ],
      [
        "សោយ",
        "រាជ្យ"
      ],
      [
        "ដប់",
        "ពីរ"
      ],
      [
        "ព្យ",
        "ាយាម"
      ],
      [
        "សែ",
        "សិប"
      ],
      [
        "ចម្",
        "ងាយ"
      ],
      [
        "ខុស",
        "ត្រូវ"
      ],
      [
        "ភ័យ",
        "ខ្លាច"
      ],
      [
        "ស័",
        "ក្តិ"
      ],
      [
        "ចុង",
        "ក្រោយ"
      ],
      [
        "ស្ទ",
        "ុស"
      ],
      [
        "ឈ្ល",
        "ោះ"
      ],
      [
        "លះ",
        "បង់"
      ],
      [
        "អូលី",
        "វ"
      ],
      [
        "ទីយ៉ូ",
        "ក"
      ],
      [
        "ស័ក្តិ",
        "សម"
      ],
      [
        "ខ",
        "ិត"
      ],
      [
        "គ",
        "ង្"
      ],
      [
        "ឌ",
        "ី"
      ],
      [
        "ត",
        "្តិ"
      ],
      [
        "ទ",
        "ល់"
      ],
      [
        "ន",
        "េ"
      ],
      [
        "ផ",
        "ា"
      ],
      [
        "រ",
        "ាយ"
      ],
      [
        "រ",
        "ំព"
      ],
      [
        "ល",
        "ូក"
      ],
      [
        "ស",
        "ៅ"
      ],
      [
        "ិ",
        "ប"
      ],
      [
        "ដែ",
        "ក"
      ],
      [
        "ស្",
        "លាប"
      ],
      [
        "ពី",
        "មុន"
      ],
      [
        "្វ",
        "េង"
      ],
      [
        "ត្រ",
        "ើយ"
      ],
      [
        "អា",
        "កាស"
      ],
      [
        "ទី",
        "មួយ"
      ],
      [
        "រី",
        "ករ"
      ],
      [
        "សង្",
        "វាត"
      ],
      [
        "កាន់",
        "តែ"
      ],
      [
        "បញ្",
        "ចេញ"
      ],
      [
        "ស្ថិត",
        "ស្ថេរ"
      ],
      [
        "កំហ",
        "ឹង"
      ],
      [
        "ទារ",
        "ក"
      ],
      [
        "ម្ត",
        "េច"
      ],
      [
        "ស្វែង",
        "រក"
      ],
      [
        "ឡា",
        "សារ"
      ],
      [
        "ស្មោក",
        "គ្រោក"
      ],
      [
        "គង្",
        "វាល"
      ],
      [
        "រីករ",
        "ាយ"
      ],
      [
        "ក",
        "ង"
      ],
      [
        "គ",
        "ោក"
      ],
      [
        "ជ",
        "ម"
      ],
      [
        "ជ",
        "េរ"
      ],
      [
        "ដ",
        "្"
      ],
      [
        "ដ",
        "ាម៉"
      ],
      [
        "ដ",
        "ួង"
      ],
      [
        "ឌ",
        "េ"
      ],
      [
        "ត",
        "េច"
      ],
      [
        "ទ",
        "ង"
      ],
      [
        "ទ",
        "ិត្យ"
      ],
      [
        "ប",
        "ូត"
      ],
      [
        "ព",
        "ូក"
      ],
      [
        "យ",
        "ា"
      ],
      [
        "រ",
        "ៀ"
      ],
      [
        "រ",
        "ារ"
      ],
      [
        "រ",
        "៉ា"
      ],
      [
        "ល",
        "ង"
      ],
      [
        "ល",
        "ុប"
      ],
      [
        "ឱ",
        "ន"
      ],
      [
        "្ន",
        "ះ"
      ],
      [
        "បាន",
        "ជា"
      ],
      [
        "ពី",
        "ដើម"
      ],
      [
        "ស្រ",
        "េក"
      ],
      [
        "កា",
        "ច"
      ],
      [
        "ច្រ",
        "ណែន"
      ],
      [
        "គ្រប់",
        "គ្នា"
      ],
      [
        "សម្",
        "តេច"
      ],
      [
        "ស៊ី",
        "ឡ"
      ],
      [
        "ជ្រ",
        "ើស"
      ],
      [
        "ប្រជា",
        "រាស្ដ្រ"
      ],
      [
        "ច្ប",
        "ាំង"
      ],
      [
        "ទំពាំង",
        "បាយជូរ"
      ],
      [
        "ឈឺ",
        "ចាប់"
      ],
      [
        "ខ្វល់",
        "ខ្វាយ"
      ],
      [
        "ប្ដ",
        "ូរ"
      ],
      [
        "ពាស",
        "ពេញ"
      ],
      [
        "អាន់",
        "ទីយ៉ូក"
      ],
      [
        "ជម",
        "្នះ"
      ],
      [
        "ពូក",
        "ែ"
      ],
      [
        "រៀ",
        "បរ"
      ],
      [
        "ក",
        "ូ"
      ],
      [
        "ក",
        "ែ"
      ],
      [
        "ឃ",
        "ាត់"
      ],
      [
        "ច",
        "ល"
      ],
      [
        "ញ",
        "ាត"
      ],
      [
        "ដ",
        "រាប"
      ],
      [
        "ណ",
        "ារី"
      ],
      [
        "ត",
        "ទៅ"
      ],
      [
        "ត",
        "ុស"
      ],
      [
        "ទ",
        "ាញ"
      ],
      [
        "ធ",
        "ាន"
      ],
      [
        "ព",
        "ិច"
      ],
      [
        "ល",
        "ិច"
      ],
      [
        "ល",
        "ន់"
      ],
      [
        "វ",
        "ាង"
      ],
      [
        "ហ",
        "ៀរ"
      ],
      [
        "ឫ",
        "ស"
      ],
      [
        "ួ",
        "ញ"
      ],
      [
        "ព្រះ",
        "ភ"
      ],
      [
        "ជា",
        "មុន"
      ],
      [
        "ប្រ",
        "ធាន"
      ],
      [
        "ស្",
        "ទេ"
      ],
      [
        "ារ",
        "ណា"
      ],
      [
        "បន្",
        "តិច"
      ],
      [
        "អា",
        "ទិត្យ"
      ],
      [
        "ចុះ",
        "‍"
      ],
      [
        "បា",
        "្រ"
      ],
      [
        "សេ",
        "សារ"
      ],
      [
        "បង្",
        "អ"
      ],
      [
        "រូ",
        "ស"
      ],
      [
        "ផ្ល",
        "ុំ"
      ],
      [
        "ឆ្ល",
        "ាត"
      ],
      [
        "បំ",
        "ភ្លឺ"
      ],
      [
        "ស្ដាប់",
        "បង្គាប់"
      ],
      [
        "នា",
        "គ"
      ],
      [
        "កម្",
        "ទេច"
      ],
      [
        "រៀង",
        "ៗ"
      ],
      [
        "ស្ន",
        "ែង"
      ],
      [
        "ក្ដ",
        "ៅ"
      ],
      [
        "ល្ងង់",
        "ខ្លៅ"
      ],
      [
        "ផិត",
        "ក្បត់"
      ],
      [
        "ប្ល",
        "ន់"
      ],
      [
        "ខ្វះ",
        "ខាត"
      ],
      [
        "បណ្តា",
        "ជន"
      ],
      [
        "ឌេ",
        "ណារី"
      ],
      [
        "រៀបរ",
        "ាប់"
      ],
      [
        "ញាត",
        "ិ"
      ],
      [
        "ពិច",
        "ារណា"
      ],
      [
        "ក",
        "េរ"
      ],
      [
        "ច",
        "ប់"
      ],
      [
        "ច",
        "លា"
      ],
      [
        "ជ",
        "ង្គ"
      ],
      [
        "ញ",
        "ឹក"
      ],
      [
        "ដ",
        "ាន់"
      ],
      [
        "ណ",
        "ិម"
      ],
      [
        "ថ",
        "ើប"
      ],
      [
        "ទ",
        "ាំ"
      ],
      [
        "ទ",
        "ាប"
      ],
      [
        "ព",
        "ង្រ"
      ],
      [
        "ល",
        "ុយ"
      ],
      [
        "វ",
        "ែក"
      ],
      [
        "ស",
        "ប"
      ],
      [
        "ស",
        "្នា"
      ],
      [
        "េ",
        "ល"
      ],
      [
        "ព្រ",
        "ឹក"
      ],
      [
        "ខ្",
        "ព"
      ],
      [
        "មាន",
        "់"
      ],
      [
        "ស្",
        "វិត"
      ],
      [
        "និ",
        "មិត្ដ"
      ],
      [
        "ត្រ",
        "ៀម"
      ],
      [
        "ក្រ",
        "ហ"
      ],
      [
        "ស្រ",
        "ាល"
      ],
      [
        "សា",
        "ឌ"
      ],
      [
        "អា",
        "សូរ"
      ],
      [
        "កា",
        "ពើ"
      ],
      [
        "ទី",
        "ពីរ"
      ],
      [
        "ឡើង",
        "ៗ"
      ],
      [
        "ផ្",
        "សា"
      ],
      [
        "ផ្",
        "សះ"
      ],
      [
        "សិ",
        "រ"
      ],
      [
        "ម៉",
        "ាស"
      ],
      [
        "អើយ",
        "‍"
      ],
      [
        "បង្",
        "អស់"
      ],
      [
        "ជ្រ",
        "ួល"
      ],
      [
        "្ត",
        "ី"
      ],
      [
        "ប្រព្រឹត",
        "្តិ"
      ],
      [
        "ខ្លាំង",
        "ៗ"
      ],
      [
        "ឆ្",
        "ពោះ"
      ],
      [
        "ផ្ដ",
        "ា"
      ],
      [
        "ស្ម",
        "ៅ"
      ],
      [
        "ដំ",
        "បង"
      ],
      [
        "សូម្បី",
        "តែ"
      ],
      [
        "ខ្ម",
        "ាំង"
      ],
      [
        "បោក",
        "ប្រាស់"
      ],
      [
        "លេ",
        "វី"
      ],
      [
        "ក្ដ",
        "្រ"
      ],
      [
        "ព្រល",
        "ឹម"
      ],
      [
        "ឧត្ដ",
        "ម"
      ],
      [
        "ទ្រហ",
        "ោ"
      ],
      [
        "ជ័យ",
        "ជម្នះ"
      ],
      [
        "ដាម៉",
        "ាស់"
      ],
      [
        "សេសារ",
        "ា"
      ],
      [
        "ចលា",
        "ចល"
      ],
      [
        "ជង្គ",
        "ង់"
      ],
      [
        "កាពើ",
        "ណិម"
      ],
      [
        "ផ្សះ",
        "ផ្សា"
      ],
      [
        "ក",
        "ត់"
      ],
      [
        "គ",
        "ា"
      ],
      [
        "គ",
        "មន"
      ],
      [
        "គ",
        "ូក"
      ],
      [
        "ត",
        "យុ"
      ],
      [
        "ថ",
        "ូ"
      ],
      [
        "ថ",
        "្នាក់"
      ],
      [
        "ន",
        "ែ"
      ],
      [
        "ព",
        "ន"
      ],
      [
        "ព",
        "ាន"
      ],
      [
        "ម",
        "ង្គ"
      ],
      [
        "យ",
        "័រ"
      ],
      [
        "រ",
        "ើ"
      ],
      [
        "រ",
        "ញ្"
      ],
      [
        "ល",
        "ការ"
      ],
      [
        "ល",
        "ាន់"
      ],
      [
        "វ",
        "ាក់"
      ],
      [
        "ស",
        "ឹក"
      ],
      [
        "អ",
        "ូរ"
      ],
      [
        "ឧ",
        "ប"
      ],
      [
        "ុ",
        "ល"
      ],
      [
        "ូ",
        "ប"
      ],
      [
        "ូ",
        "ស៊ី"
      ],
      [
        "ើ",
        "ក"
      ],
      [
        "ោ",
        "ភ"
      ],
      [
        "ព្រះ",
        "ចេស្ដា"
      ],
      [
        "ស្",
        "វា"
      ],
      [
        "ទាំង",
        "នោះ"
      ],
      [
        "មិន",
        "មែន"
      ],
      [
        "ណា",
        "ស"
      ],
      [
        "បន្ទ",
        "ាយ"
      ],
      [
        "គ្រ",
        "ែ"
      ],
      [
        "សុ",
        "ប"
      ],
      [
        "សុ",
        "ស"
      ],
      [
        "បរ",
        "ាង"
      ],
      [
        "ម៉",
        "ិល"
      ],
      [
        "ច្រ",
        "វាក់"
      ],
      [
        "ចំណ",
        "េញ"
      ],
      [
        "រូ",
        "បរាង"
      ],
      [
        "ផង",
        "‍"
      ],
      [
        "ពិ",
        "សេស"
      ],
      [
        "ភ្ល",
        "េច"
      ],
      [
        "បញ្",
        "ហា"
      ],
      [
        "ប្រាំ",
        "មួយ"
      ],
      [
        "ច្ប",
        "ង"
      ],
      [
        "បើក",
        "សំដែង"
      ],
      [
        "សម្ប",
        "ថ"
      ],
      [
        "ស្រាប់",
        "តែ"
      ],
      [
        "ស្ត",
        "េច"
      ],
      [
        "គ្រោះ",
        "កាច"
      ],
      [
        "បែក",
        "បាក់"
      ],
      [
        "អាម៉",
        "ាស់"
      ],
      [
        "គោល",
        "ការណ៍"
      ],
      [
        "ស្ក",
        "ប់"
      ],
      [
        "ល្បង",
        "ល"
      ],
      [
        "ទន់",
        "ខ្សោយ"
      ],
      [
        "ហូរ",
        "ហៀរ"
      ],
      [
        "ល្ម",
        "ោភ"
      ],
      [
        "ឆ្អ",
        "ែត"
      ],
      [
        "ដ្",
        "ឋ"
      ],
      [
        "ផ្ដា",
        "ច់"
      ],
      [
        "គមន",
        "៍"
      ],
      [
        "គូក",
        "ន"
      ],
      [
        "តយុ",
        "ទ្ធ"
      ],
      [
        "មង្គ",
        "លការ"
      ],
      [
        "យ័រ",
        "ដាន់"
      ],
      [
        "រញ្",
        "ជួយ"
      ],
      [
        "ស្វា",
        "គមន៍"
      ],
      [
        "ម៉ិល",
        "គី"
      ],
      [
        "ក",
        "ិ"
      ],
      [
        "គ",
        "ោះ"
      ],
      [
        "ង",
        "ឿង"
      ],
      [
        "ច",
        "ាំង"
      ],
      [
        "ជ",
        "ជ"
      ],
      [
        "ជ",
        "្ញា"
      ],
      [
        "ត",
        "ុប"
      ],
      [
        "ត",
        "ណ្"
      ],
      [
        "ថ",
        "ានី"
      ],
      [
        "ទ",
        "ម្រ"
      ],
      [
        "ផ",
        "ាន"
      ],
      [
        "ផ",
        "្អ"
      ],
      [
        "ម",
        "ោទ"
      ],
      [
        "រ",
        "ិយ"
      ],
      [
        "រ",
        "លំ"
      ],
      [
        "ស",
        "ន្"
      ],
      [
        "ស",
        "ាម"
      ],
      [
        "ើ",
        "ច"
      ],
      [
        "្រ",
        "ី"
      ],
      [
        "ព្រ",
        "ើរ"
      ],
      [
        "ព្រះ",
        "សិរ"
      ],
      [
        "ស្",
        "មើ"
      ],
      [
        "លោក",
        "ម្ចាស់"
      ],
      [
        "ដូច",
        "ម្តេច"
      ],
      [
        "មួយ",
        "ម៉ឺន"
      ],
      [
        "គ្រ",
        "ី"
      ],
      [
        "ធ្វើ",
        "ការ"
      ],
      [
        "ផ្",
        "ទុក"
      ],
      [
        "ផ្",
        "គង់"
      ],
      [
        "ផ្",
        "គត់"
      ],
      [
        "ផ្",
        "សែង"
      ],
      [
        "ទទ",
        "ូច"
      ],
      [
        "សូ",
        "ត"
      ],
      [
        "បង្",
        "វ"
      ],
      [
        "បង្",
        "ខំ"
      ],
      [
        "បង្",
        "ខូច"
      ],
      [
        "មើល",
        "ងាយ"
      ],
      [
        "ពិ",
        "គ្រោះ"
      ],
      [
        "ផ្ល",
        "ាស់"
      ],
      [
        "ទ្រ",
        "េ"
      ],
      [
        "កន្",
        "លង"
      ],
      [
        "បញ្",
        "ជី"
      ],
      [
        "ជម្រ",
        "ៅ"
      ],
      [
        "អាក្រ",
        "ាត"
      ],
      [
        "ផ្លូវ",
        "ភេទ"
      ],
      [
        "សាឡ",
        "ូ"
      ],
      [
        "ចៅ",
        "ក្រម"
      ],
      [
        "ផល",
        "ផ្លែ"
      ],
      [
        "ភេ",
        "ស្ទុស"
      ],
      [
        "ជំ",
        "ទាស់"
      ],
      [
        "ត្រឹម",
        "តែ"
      ],
      [
        "សំព",
        "ត់"
      ],
      [
        "ម្ត",
        "ាយ"
      ],
      [
        "ក្រម",
        "ុំ"
      ],
      [
        "ហេ",
        "ព្រើរ"
      ],
      [
        "ស៊ីឡ",
        "ាស"
      ],
      [
        "ព្រះភ",
        "ក្ដ្រ"
      ],
      [
        "ស្ទេ",
        "ផាន"
      ],
      [
        "ញឹក",
        "ញាប់"
      ],
      [
        "សាឌ",
        "ូស៊ី"
      ],
      [
        "កិ",
        "រិយ"
      ],
      [
        "ជជ",
        "ែក"
      ],
      [
        "តណ្",
        "ហា"
      ],
      [
        "មោទ",
        "ន"
      ],
      [
        "កិរិយ",
        "ា"
      ],
      [
        "«",
        "​"
      ],
      [
        "ឃ",
        "ាំង"
      ],
      [
        "ច",
        "ាញ់"
      ],
      [
        "ឆ",
        "្វេង"
      ],
      [
        "ញ",
        "ើ"
      ],
      [
        "ញ",
        "័រ"
      ],
      [
        "ដ",
        "ាម"
      ],
      [
        "ណ",
        "ី"
      ],
      [
        "ទ",
        "ះ"
      ],
      [
        "ទ",
        "ប់"
      ],
      [
        "ទ",
        "ន្"
      ],
      [
        "ប",
        "ះ"
      ],
      [
        "ព",
        "ល"
      ],
      [
        "រ",
        "ុំ"
      ],
      [
        "រ",
        "អ៊"
      ],
      [
        "ល",
        "ុត"
      ],
      [
        "ស",
        "័យ"
      ],
      [
        "ហ",
        "ាម"
      ],
      [
        "អ",
        "ាយ"
      ],
      [
        "ព្រះ",
        "នាង"
      ],
      [
        "រប",
        "ួស"
      ],
      [
        "ម្",
        "ម"
      ],
      [
        "ប្រ",
        "ទេស"
      ],
      [
        "ប្រ",
        "សូត"
      ],
      [
        "្យ",
        "ល់"
      ],
      [
        "ក្រ",
        "វ"
      ],
      [
        "ដូ",
        "រ"
      ],
      [
        "ប៉",
        "ះ"
      ],
      [
        "ស្រ",
        "ើប"
      ],
      [
        "ពេល",
        "នោះ"
      ],
      [
        "ទី",
        "បញ្ចប់"
      ],
      [
        "ទី",
        "រ៉"
      ],
      [
        "ទី",
        "តុស"
      ],
      [
        "ផ្",
        "ញើ"
      ],
      [
        "កូន",
        "ៗ"
      ],
      [
        "ពីរ",
        "ពាន់"
      ],
      [
        "ខាង",
        "‍"
      ],
      [
        "ច្រ",
        "ៀង"
      ],
      [
        "សំ",
        "ដៅ"
      ],
      [
        "ចំណ",
        "ង់"
      ],
      [
        "បុ",
        "័ង"
      ],
      [
        "ល្អ",
        "ិត"
      ],
      [
        "ុត",
        "ាង"
      ],
      [
        "នំ",
        "បុ័ង"
      ],
      [
        "សម",
        "័យ"
      ],
      [
        "រង",
        "ាវ"
      ],
      [
        "ស្រប",
        "តាម"
      ],
      [
        "ឃ្ល",
        "ង់"
      ],
      [
        "ច្ច",
        "ុ"
      ],
      [
        "អន",
        "ទ្រេ"
      ],
      [
        "បារ",
        "៉ា"
      ],
      [
        "ព្រួយ",
        "ចិត្ដ"
      ],
      [
        "ធ្ម",
        "េញ"
      ],
      [
        "រំល",
        "ឹក"
      ],
      [
        "លក្ខ",
        "ណៈ"
      ],
      [
        "រឹង",
        "មាំ"
      ],
      [
        "ភ្ញ",
        "ាក់"
      ],
      [
        "តម្រ",
        "ង់"
      ],
      [
        "ប្ល",
        "ែក"
      ],
      [
        "យុ",
        "វ"
      ],
      [
        "ខ្ច",
        "ាយ"
      ],
      [
        "ឃុំ",
        "ឃាំង"
      ],
      [
        "ថ្កោល",
        "ទោស"
      ],
      [
        "មី",
        "ណា"
      ],
      [
        "ពន",
        "្យល់"
      ],
      [
        "សុប",
        "ិន"
      ],
      [
        "ផ្គត់",
        "ផ្គង់"
      ],
      [
        "ទន្",
        "លេ"
      ],
      [
        "អាយ",
        "ុ"
      ],
      [
        "ក",
        "ល"
      ],
      [
        "ច",
        "ាយ"
      ],
      [
        "ដ",
        "ាំ"
      ],
      [
        "ដ",
        "ណ្ដ"
      ],
      [
        "ត",
        "ួន"
      ],
      [
        "ថ",
        "ោក"
      ],
      [
        "ទ",
        "្ប"
      ],
      [
        "ន",
        "្ន"
      ],
      [
        "ប",
        "៊"
      ],
      [
        "ប",
        "៊ី"
      ],
      [
        "ប",
        "ោរ"
      ],
      [
        "ប",
        "ច្ចុ"
      ],
      [
        "ព",
        "ោល"
      ],
      [
        "ព",
        "ោរ"
      ],
      [
        "ភ",
        "ស្ដ"
      ],
      [
        "រ",
        "ះ"
      ],
      [
        "រ",
        "ោម"
      ],
      [
        "ល",
        "ាត"
      ],
      [
        "ល",
        "ង់"
      ],
      [
        "ល",
        "ៀង"
      ],
      [
        "ហ",
        "ាក់"
      ],
      [
        "ឡ",
        "ូស"
      ],
      [
        "ឧ",
        "ស្សា"
      ],
      [
        "ា",
        "ទី"
      ],
      [
        "ឹ",
        "្រ"
      ],
      [
        "ាន",
        "ាស"
      ],
      [
        "ព្រ",
        "ៃ"
      ],
      [
        "ព្រះ",
        "ឱ"
      ],
      [
        "ង្",
        "ហ"
      ],
      [
        "ខ្",
        "ចាត់"
      ],
      [
        "ប្រ",
        "ម"
      ],
      [
        "ប្រ",
        "ដៅ"
      ],
      [
        "ស្",
        "យា"
      ],
      [
        "នៅ",
        "តែ"
      ],
      [
        "ថា",
        "‍"
      ],
      [
        "ត្រ",
        "ួត"
      ],
      [
        "ក្រ",
        "ៀម"
      ],
      [
        "ពេ",
        "ស្យា"
      ],
      [
        "បន្ទ",
        "ប់"
      ],
      [
        "្ល",
        "េះ"
      ],
      [
        "ស្រ",
        "ង"
      ],
      [
        "ាក់",
        "ដា"
      ],
      [
        "ទី",
        "បី"
      ],
      [
        "ព្រោះ",
        "តែ"
      ],
      [
        "ផ្",
        "គរ"
      ],
      [
        "ម៉",
        "្លេះ"
      ],
      [
        "ម៉",
        "ាក់ដា"
      ],
      [
        "ច្រ",
        "ក"
      ],
      [
        "សំ",
        "ប"
      ],
      [
        "សំ",
        "ណា"
      ],
      [
        "មុ",
        "ត"
      ],
      [
        "ចំណ",
        "ិត"
      ],
      [
        "ពិ",
        "ស"
      ],
      [
        "ភ្ល",
        "ៀង"
      ],
      [
        "បាប",
        "៊ី"
      ],
      [
[...]
