{
  "version": "1.0",
  "truncation": null,
  "padding": null,
  "added_tokens": [
    {
      "id": 0,
      "content": "<pad>",
      "single_word": false,
      "lstrip": false,
      "rstrip": false,
      "normalized": false,
      "special": true
    },
    {
      "id": 1,
      "content": "<unk>",
      "single_word": false,
      "lstrip": false,
      "rstrip": false,
      "normalized": false,
      "special": true
    },
    {
      "id": 2,
      "content": "<s>",
      "single_word": false,
      "lstrip": false,
      "rstrip": false,
      "normalized": false,
      "special": true
    },
    {
      "id": 3,
      "content": "</s>",
      "single_word": false,
      "lstrip": false,
      "rstrip": false,
      "normalized": false,
      "special": true
    }
  ],
  "normalizer": null,
  "pre_tokenizer": {
    "type": "Sequence",
    "pretokenizers": [
      {
        "type": "Whitespace"
      },
      {
        "type": "Split",
        "pattern": {
          "Regex": "(?<=[ऀ-ॿ஀-௿฀-๿຀-໿က-႟ក-៿一-鿿꤀-꤯])(?=[A-Za-z0-9])|(?<=[A-Za-z0-9])(?=[ऀ-ॿ஀-௿฀-๿຀-໿က-႟ក-៿一-鿿꤀-꤯])"
        },
        "behavior": "Isolated",
        "invert": false
      }
    ]
  },
  "post_processor": null,
  "decoder": null,
  "model": {
    "type": "BPE",
    "dropout": null,
    "unk_token": "<unk>",
    "continuing_subword_prefix": null,
    "end_of_word_suffix": null,
    "fuse_unk": false,
    "byte_fallback": false,
    "ignore_merges": false,
    "vocab": {
      "<pad>": 0,
      "<unk>": 1,
      "<s>": 2,
      "</s>": 3,
      "!": 4,
      "(": 5,
      ")": 6,
      ",": 7,
      "-": 8,
      ".": 9,
      "/": 10,
      "0": 11,
      "1": 12,
      "2": 13,
      "3": 14,
      "4": 15,
      "5": 16,
      "6": 17,
      "7": 18,
      "8": 19,
      "9": 20,
      ":": 21,
      ";": 22,
      "=": 23,
      "?": 24,
      "A": 25,
      "B": 26,
      "C": 27,
      "D": 28,
      "E": 29,
      "F": 30,
      "G": 31,
      "H": 32,
      "I": 33,
      "J": 34,
      "K": 35,
      "L": 36,
      "M": 37,
      "N": 38,
      "O": 39,
      "P": 40,
      "R": 41,
      "S": 42,
      "T": 43,
      "U": 44,
      "W": 45,
      "Y": 46,
      "Z": 47,
      "[": 48,
      "]": 49,
      "a": 50,
      "b": 51,
      "c": 52,
      "d": 53,
      "e": 54,
      "f": 55,
      "g": 56,
      "h": 57,
      "i": 58,
      "j": 59,
      "k": 60,
      "l": 61,
      "m": 62,
      "n": 63,
      "o": 64,
      "p": 65,
      "r": 66,
      "s": 67,
      "t": 68,
      "u": 69,
      "v": 70,
      "w": 71,
      "y": 72,
      "z": 73,
      "é": 74,
      "ë": 75,
      "–": 76,
      "‘": 77,
      "’": 78,
      "“": 79,
      "”": 80,
      "…": 81,
      "an": 82,
      "er": 83,
      "ang": 84,
      "en": 85,
      "ah": 86,
      "ak": 87,
      "at": 88,
      "ar": 89,
      "di": 90,
      "tu": 91,
      "al": 92,
      "em": 93,
      "ya": 94,
      "am": 95,
      "men": 96,
      "in": 97,
      "ke": 98,
      "pa": 99,
      "un": 100,
      "da": 101,
      "kan": 102,
      "dan": 103,
      "se": 104,
      "yang": 105,
      "ber": 106,
      "ka": 107,
      "lah": 108,
      "itu": 109,
      "uh": 110,
      "ti": 111,
      "or": 112,
      "ku": 113,
      "sa": 114,
      "ta": 115,
      "su": 116,
      "el": 117,
      "eng": 118,
      "orang": 119,
      "per": 120,
      "akan": 121,
      "ba": 122,
      "mem": 123,
      "ere": 124,
      "ja": 125,
      "ereka": 126,
      "ari": 127,
      "ga": 128,
      "pada": 129,
      "nya": 130,
      "bu": 131,
      "mereka": 132,
      "ia": 133,
      "us": 134,
      "ur": 135,
      "as": 136,
      "uhan": 137,
      "au": 138,
      "meng": 139,
      "Tuhan": 140,
      "ing": 141,
      "dak": 142,
      "kepada": 143,
      "deng": 144,
      "kat": 145,
      "gi": 146,
      "ra": 147,
      "um": 148,
      "ara": 149,
      "la": 150,
      "bi": 151,
      "aku": 152,
      "dari": 153,
      "pi": 154,
      "dengan": 155,
      "ali": 156,
      "tuk": 157,
      "ter": 158,
      "im": 159,
      "te": 160,
      "tidak": 161,
      "Al": 162,
      "bah": 163,
      "wa": 164,
      "du": 165,
      "pat": 166,
      "Allah": 167,
      "ki": 168,
      "kam": 169,
      "untuk": 170,
      "ada": 171,
      "emu": 172,
      "le": 173,
      "anya": 174,
      "ung": 175,
      "ih": 176,
      "tah": 177,
      "ama": 178,
      "dah": 179,
      "alu": 180,
      "mel": 181,
      "mu": 182,
      "be": 183,
      "ai": 184,
      "ju": 185,
      "ri": 186,
      "on": 187,
      "kata": 188,
      "Aku": 189,
      "dal": 190,
      "pu": 191,
      "bang": 192,
      "anak": 193,
      "Se": 194,
      "kau": 195,
      "meny": 196,
      "kali": 197,
      "Ku": 198,
      "jadi": 199,
      "ini": 200,
      "kar": 201,
      "ati": 202,
      "tapi": 203,
      "beri": 204,
      "pun": 205,
      ".”": 206,
      "gal": 207,
      "Ye": 208,
      "telah": 209,
      "sudah": 210,
      "is": 211,
      "saya": 212,
      "ban": 213,
      "Nya": 214,
      "do": 215,
      "tan": 216,
      "angan": 217,
      "leh": 218,
      "berkata": 219,
      "apa": 220,
      "lu": 221,
      "ik": 222,
      "hu": 223,
      "dalam": 224,
      "ena": 225,
      "ir": 226,
      "Is": 227,
      "har": 228,
      "sel": 229,
      "il": 230,
      "Ia": 231,
      "ko": 232,
      "oleh": 233,
      "semu": 234,
      "amu": 235,
      "bab": 236,
      "menjadi": 237,
      "sus": 238,
      "kamu": 239,
      "atu": 240,
      "ana": 241,
      "alah": 242,
      "rael": 243,
      "Israel": 244,
      "diri": 245,
      "perti": 246,
      "emb": 247,
      "tak": 248,
      "kalian": 249,
      "ap": 250,
      "buat": 251,
      "dapat": 252,
      "atang": 253,
      "es": 254,
      "raja": 255,
      "seperti": 256,
      "Mu": 257,
      "asa": 258,
      "juga": 259,
      "kita": 260,
      "pen": 261,
      "pan": 262,
      "aki": 263,
      "bahwa": 264,
      "harus": 265,
      "semua": 266,
      "kota": 267,
      "kami": 268,
      "kepa": 269,
      "aka": 270,
      "ng": 271,
      "peng": 272,
      "Te": 273,
      "Yesus": 274,
      "ji": 275,
      "bangsa": 276,
      "dang": 277,
      "eg": 278,
      "de": 279,
      "bers": 280,
      "empat": 281,
      "Tetapi": 282,
      "hi": 283,
      "karena": 284,
      "ihat": 285,
      "eri": 286,
      "bel": 287,
      "inya": 288,
      "lalu": 289,
      "pai": 290,
      "uruh": 291,
      "umah": 292,
      "sam": 293,
      "intah": 294,
      "akukan": 295,
      "sen": 296,
      "inggal": 297,
      "engkau": 298,
      "lagi": 299,
      "Mereka": 300,
      "wan": 301,
      "seorang": 302,
      "kum": 303,
      "embah": 304,
      "oh": 305,
      "ent": 306,
      "datang": 307,
      "alau": 308,
      "hari": 309,
      "atas": 310,
      "aya": 311,
      "yak": 312,
      "bagi": 313,
      "bar": 314,
      "aud": 315,
      "hal": 316,
      "tahu": 317,
      "gai": 318,
      "bun": 319,
      "aja": 320,
      "paya": 321,
      "dup": 322,
      "aktu": 323,
      "ker": 324,
      "supaya": 325,
      "lain": 326,
      "memberi": 327,
      "Lalu": 328,
      "pe": 329,
      "ahat": 330,
      "jan": 331,
      "dia": 332,
      "hidup": 333,
      "pul": 334,
      "kur": 335,
      "sampai": 336,
      "pem": 337,
      "waktu": 338,
      "sebab": 339,
      "tempat": 340,
      "ma": 341,
      "baik": 342,
      "tus": 343,
      "mas": 344,
      "ong": 345,
      "laki": 346,
      "pin": 347,
      "pergi": 348,
      "Eng": 349,
      "Engkau": 350,
      "ser": 351,
      "dian": 352,
      "hada": 353,
      "ben": 354,
      "mati": 355,
      "dengar": 356,
      "atau": 357,
      "mau": 358,
      "Ke": 359,
      "min": 360,
      "dua": 361,
      "kem": 362,
      "rang": 363,
      "neg": 364,
      "hati": 365,
      "sendiri": 366,
      "pak": 367,
      "mer": 368,
      "menga": 369,
      "ut": 370,
      "hukum": 371,
      "Orang": 372,
      "iku": 373,
      "tetapi": 374,
      "luar": 375,
      "Di": 376,
      "ay": 377,
      "emudian": 378,
      "angg": 379,
      "pal": 380,
      "annya": 381,
      "makan": 382,
      "Ba": 383,
      "gala": 384,
      "Yer": 385,
      "cara": 386,
      "alan": 387,
      "embali": 388,
      "umat": 389,
      "li": 390,
      "sar": 391,
      "om": 392,
      "wab": 393,
      "melihat": 394,
      "Maka": 395,
      "si": 396,
      "jahat": 397,
      "damu": 398,
      "tur": 399,
      "Daud": 400,
      "bin": 401,
      "adi": 402,
      "na": 403,
      "sembah": 404,
      "dosa": 405,
      "negeri": 406,
      "kembali": 407,
      "segala": 408,
      "tinggal": 409,
      "sama": 410,
      "seluruh": 411,
      "me": 412,
      "Pada": 413,
      "bawa": 414,
      "dalah": 415,
      "Raja": 416,
      "tent": 417,
      "seh": 418,
      "perintah": 419,
      "jalan": 420,
      "Sebab": 421,
      "sau": 422,
      "ci": 423,
      "bagai": 424,
      "tanah": 425,
      "kepadamu": 426,
      "tika": 427,
      "banyak": 428,
      "yat": 429,
      "kanlah": 430,
      "Dan": 431,
      "adalah": 432,
      "arah": 433,
      "jawab": 434,
      "bil": 435,
      "kurban": 436,
      "rumah": 437,
      "ham": 438,
      "ant": 439,
      "bur": 440,
      "ima": 441,
      "seti": 442,
      "ingga": 443,
      "buah": 444,
      "karang": 445,
      "duk": 446,
      "ol": 447,
      "!”": 448,
      "ok": 449,
      "mus": 450,
      "para": 451,
      "ita": 452,
      "keluar": 453,
      "sehingga": 454,
      "mat": 455,
      "wi": 456,
      "turun": 457,
      "bih": 458,
      "hadap": 459,
      "bert": 460,
      "man": 461,
      "janji": 462,
      "kannya": 463,
      "alam": 464,
      "ek": 465,
      "persembah": 466,
      "imam": 467,
      "bunuh": 468,
      "amat": 469,
      "sih": 470,
      "sia": 471,
      "aran": 472,
      "mendengar": 473,
      "Yo": 474,
      "satu": 475,
      "danya": 476,
      "beg": 477,
      "alem": 478,
      "menc": 479,
      "saud": 480,
      "Yehu": 481,
      "usalem": 482,
      "Yerusalem": 483,
      "mengh": 484,
      "Mes": 485,
      "membuat": 486,
      "sebagai": 487,
      "ikut": 488,
      "melakukan": 489,
      "Musa": 490,
      "lakukan": 491,
      "saja": 492,
      "erah": 493,
      "usia": 494,
      "ab": 495,
      "lebih": 496,
      "Per": 497,
      "besar": 498,
      "pas": 499,
      "Kemudian": 500,
      "dom": 501,
      "sana": 502,
      "kit": 503,
      "Rumah": 504,
      "gu": 505,
      "serta": 506,
      "bersama": 507,
      "lam": 508,
      "Yehuda": 509,
      "ilah": 510,
      "et": 511,
      "punya": 512,
      "bak": 513,
      "arkan": 514,
      "Yang": 515,
      "kalau": 516,
      "tahun": 517,
      "Kalau": 518,
      "sekali": 519,
      "perc": 520,
      "jangan": 521,
      "ag": 522,
      "situ": 523,
      "suk": 524,
      "it": 525,
      "mengu": 526,
      "kepadanya": 527,
      "hamba": 528,
      "suatu": 529,
      "atan": 530,
      "Mesir": 531,
      "nak": 532,
      "emi": 533,
      "ris": 534,
      "nama": 535,
      "yi": 536,
      "mur": 537,
      "?”": 538,
      "kuasa": 539,
      "maka": 540,
      "aul": 541,
      "jak": 542,
      "erintah": 543,
      "bicara": 544,
      "Dia": 545,
      "duduk": 546,
      "aman": 547,
      "impin": 548,
      "ist": 549,
      "Kris": 550,
      "hen": 551,
      "antara": 552,
      "dun": 553,
      "Jangan": 554,
      "air": 555,
      "mener": 556,
      "menjawab": 557,
      "manusia": 558,
      "pah": 559,
      "sedang": 560,
      "ohon": 561,
      "begitu": 562,
      "membawa": 563,
      "kah": 564,
      "sur": 565,
      "musuh": 566,
      "Tu": 567,
      "meninggal": 568,
      "wanita": 569,
      "ami": 570,
      "percaya": 571,
      "gan": 572,
      "saudara": 573,
      "ha": 574,
      "pengikut": 575,
      "ambil": 576,
      "suku": 577,
      "unung": 578,
      "teng": 579,
      "boleh": 580,
      "ger": 581,
      "ahu": 582,
      "pel": 583,
      "berbicara": 584,
      "terhadap": 585,
      "Kristus": 586,
      "api": 587,
      "but": 588,
      "berikan": 589,
      "sekarang": 590,
      "inggi": 591,
      "Deng": 592,
      "cu": 593,
      "nah": 594,
      "anmu": 595,
      "batu": 596,
      "cur": 597,
      "puluh": 598,
      "bat": 599,
      "punyai": 600,
      "mempunyai": 601,
      "masuk": 602,
      "masih": 603,
      "keturun": 604,
      "tap": 605,
      "lang": 606,
      "kir": 607,
      "lan": 608,
      "yu": 609,
      "mengen": 610,
      "setiap": 611,
      "Ab": 612,
      "masing": 613,
      "sem": 614,
      "angkat": 615,
      "hanya": 616,
      "ot": 617,
      "mi": 618,
      "mendapat": 619,
      "tentang": 620,
      "pemimpin": 621,
      "00": 622,
      "selama": 623,
      "domba": 624,
      "mana": 625,
      "inda": 626,
      "menur": 627,
      "ani": 628,
      "kasih": 629,
      "belum": 630,
      "kepal": 631,
      "Setelah": 632,
      "tiga": 633,
      "bukan": 634,
      "Ketika": 635,
      "dir": 636,
      "pert": 637,
      "put": 638,
      "persembahkan": 639,
      "sang": 640,
      "bagian": 641,
      "kel": 642,
      "taku": 643,
      "Semu": 644,
      "nabi": 645,
      "olong": 646,
      "Tuan": 647,
      "tengah": 648,
      "dih": 649,
      "Le": 650,
      "yaitu": 651,
      "binatang": 652,
      "jar": 653,
      "awan": 654,
      "katakan": 655,
      "kerja": 656,
      "membunuh": 657,
      "Kar": 658,
      "berkat": 659,
      "perbuat": 660,
      "demi": 661,
      "belah": 662,
      "uran": 663,
      "menu": 664,
      "hendak": 665,
      "Kau": 666,
      "pakai": 667,
      "ayah": 668,
      "dunia": 669,
      "bumi": 670,
      "menyuruh": 671,
      "san": 672,
      "lamanya": 673,
      "Sem": 674,
      "Saud": 675,
      "Saya": 676,
      "guh": 677,
      "imu": 678,
      "Anak": 679,
      "anggur": 680,
      "rak": 681,
      "tang": 682,
      "Saudara": 683,
      "zbah": 684,
      "tetap": 685,
      "ungai": 686,
      "bangun": 687,
      "pintu": 688,
      "memper": 689,
      "memerintah": 690,
      "mula": 691,
      "gem": 692,
      "ilik": 693,
      "lis": 694,
      "juh": 695,
      "dis": 696,
      "semuanya": 697,
      "kian": 698,
      "kepala": 699,
      "dat": 700,
      "depan": 701,
      "pohon": 702,
      "dekat": 703,
      "benar": 704,
      "Yahu": 705,
      "kedua": 706,
      "menyer": 707,
      "Yahudi": 708,
      "terjadi": 709,
      "juk": 710,
      "Karena": 711,
      "memberikan": 712,
      "emas": 713,
      "gur": 714,
      "mal": 715,
      "mezbah": 716,
      "inkan": 717,
      "jat": 718,
      "Apa": 719,
      "Ber": 720,
      "Ti": 721,
      "Dengan": 722,
      "keturunan": 723,
      "sangat": 724,
      "apak": 725,
      "tangan": 726,
      "mengambil": 727,
      "bila": 728,
      "tujuh": 729,
      "daerah": 730,
      "lihat": 731,
      "terus": 732,
      "ro": 733,
      "ahkan": 734,
      "ungguh": 735,
      "Semua": 736,
      "mak": 737,
      "berbuat": 738,
      ".’": 739,
      "jur": 740,
      "pes": 741,
      "sebelah": 742,
      "Jadi": 743,
      "has": 744,
      "ulu": 745,
      "ketika": 746,
      "Kamu": 747,
      "emah": 748,
      "dahulu": 749,
      "meninggalkan": 750,
      "padang": 751,
      "bas": 752,
      "daku": 753,
      "uang": 754,
      "elamat": 755,
      "memu": 756,
      "Itu": 757,
      "gel": 758,
      "sy": 759,
      "takan": 760,
      "ram": 761,
      "Saul": 762,
      "rah": 763,
      "rakyat": 764,
      "aj": 765,
      "ginda": 766,
      "sebuah": 767,
      "atakan": 768,
      "kuat": 769,
      "bertanya": 770,
      "menerima": 771,
      "dur": 772,
      "Mah": 773,
      "ekor": 774,
      "iz": 775,
      "aikat": 776,
      "alom": 777,
      "minta": 778,
      "pernah": 779,
      "menge": 780,
      "--": 781,
      "hak": 782,
      "Baginda": 783,
      "tun": 784,
      "menye": 785,
      "takut": 786,
      "Bu": 787,
      "baw": 788,
      "Kami": 789,
      "janjian": 790,
      "Am": 791,
      "milik": 792,
      "salah": 793,
      "Allahmu": 794,
      "makanan": 795,
      "Sel": 796,
      "menya": 797,
      "Har": 798,
      "Yu": 799,
      "gil": 800,
      "ahan": 801,
      "gaim": 802,
      "jang": 803,
      "emp": 804,
      "buh": 805,
      "minum": 806,
      "penduduk": 807,
      "kin": 808,
      "perang": 809,
      "perbuatan": 810,
      "anaknya": 811,
      "aik": 812,
      "siapa": 813,
      "ten": 814,
      "memang": 815,
      "menurut": 816,
      "Lewi": 817,
      "pakah": 818,
      "malam": 819,
      "kepadaku": 820,
      "selalu": 821,
      "mulai": 822,
      ",”": 823,
      "kemudian": 824,
      "doa": 825,
      "belas": 826,
      "sapi": 827,
      "up": 828,
      "penuh": 829,
      "bakar": 830,
      "tiba": 831,
      "gaimana": 832,
      "ancur": 833,
      "sul": 834,
      "hai": 835,
      "jauh": 836,
      "anti": 837,
      "berapa": 838,
      "bing": 839,
      "dung": 840,
      "sesuatu": 841,
      "yah": 842,
      "barang": 843,
      "selamat": 844,
      "Yaku": 845,
      "ingin": 846,
      "Yakub": 847,
      "alui": 848,
      "dewa": 849,
      "kaum": 850,
      "biarkan": 851,
      "Babel": 852,
      "menang": 853,
      "Dari": 854,
      "bung": 855,
      "ina": 856,
      "ala": 857,
      "menyembah": 858,
      "malaikat": 859,
      "Ya": 860,
      "arlah": 861,
      "ota": 862,
      "gas": 863,
      "demikian": 864,
      "peny": 865,
      "Bi": 866,
      "embun": 867,
      "embok": 868,
      "gunung": 869,
      "suci": 870,
      "keluarga": 871,
      "Tidak": 872,
      "angkan": 873,
      "asakan": 874,
      "erita": 875,
      "daripada": 876,
      "hasil": 877,
      "kut": 878,
      "mempersembahkan": 879,
      "setia": 880,
      "Roh": 881,
      "diberikan": 882,
      "berdosa": 883,
      "hir": 884,
      "sungguh": 885,
      "Sesudah": 886,
      "dai": 887,
      "melalui": 888,
      "ata": 889,
      "aranya": 890,
      "pula": 891,
      "lahir": 892,
      "mele": 893,
      "badat": 894,
      "ingat": 895,
      "akit": 896,
      "menyerang": 897,
      "baru": 898,
      "Harun": 899,
      "kap": 900,
      "az": 901,
      "berdiri": 902,
      "keras": 903,
      "nam": 904,
      "dum": 905,
      "mata": 906,
      "Su": 907,
      "Sia": 908,
      "cam": 909,
      "dakan": 910,
      "dilakukan": 911,
      "hadapan": 912,
      "In": 913,
      "ken": 914,
      "suka": 915,
      "Salom": 916,
      "Sekarang": 917,
      "gembi": 918,
      "jatuh": 919,
      "Salomo": 920,
      "inta": 921,
      "bernama": 922,
      "melawan": 923,
      "mengenai": 924,
      "Sungai": 925,
      "tembok": 926,
      "pulang": 927,
      "mengasih": 928,
      "Fil": 929,
      "Hai": 930,
      "kayu": 931,
      "berhal": 932,
      "sai": 933,
      "sum": 934,
      "Kali": 935,
      "gandum": 936,
      "ca": 937,
      "lel": 938,
      "Gi": 939,
      "tahukan": 940,
      "ialah": 941,
      "ampun": 942,
      "kec": 943,
      "oga": 944,
      "enya": 945,
      "Kemah": 946,
      "Mahat": 947,
      "Kalian": 948,
      "yar": 949,
      "usah": 950,
      "pil": 951,
      "Meng": 952,
      "sini": 953,
      "Abrah": 954,
      "Abraham": 955,
      "ad": 956,
      "derita": 957,
      "rus": 958,
      "aturan": 959,
      "menyam": 960,
      "Mahatinggi": 961,
      "Bapa": 962,
      "El": 963,
      "cana": 964,
      "mam": 965,
      "kumpul": 966,
      "bo": 967,
      "bagaimana": 968,
      "Man": 969,
      "Sim": 970,
      "gun": 971,
      "angi": 972,
      "aut": 973,
      "istan": 974,
      "langit": 975,
      "menun": 976,
      "eru": 977,
      "marah": 978,
      "suf": 979,
      "perak": 980,
      "gerbang": 981,
      "berhala": 982,
      "Pen": 983,
      "kejahat": 984,
      "alahkan": 985,
      "akai": 986,
      "tulis": 987,
      "tugas": 988,
      "tiap": 989,
      "Yusuf": 990,
      "Paul": 991,
      "itulah": 992,
      "Paulus": 993,
      "tanpa": 994,
      "roh": 995,
      "menghukum": 996,
      "jantan": 997,
      "tusan": 998,
      "ikuti": 999,
      "tentara": 1000,
      "anyi": 1001,
      "berl": 1002,
      "berdoa": 1003,
      "bisa": 1004,
      "persembahan": 1005,
      "ela": 1006,
      "gembira": 1007,
      "Bar": 1008,
      "dibuat": 1009,
      "alas": 1010,
      "sua": 1011,
      "panjang": 1012,
      "Eli": 1013,
      "bis": 1014,
      "diberi": 1015,
      "Na": 1016,
      "Pe": 1017,
      "menolong": 1018,
      "patung": 1019,
      "pesan": 1020,
      "bul": 1021,
      "burung": 1022,
      "Mahaku": 1023,
      "ladang": 1024,
      "bebas": 1025,
      "Ah": 1026,
      "lima": 1027,
      "menyelamat": 1028,
      "lainnya": 1029,
      "Sam": 1030,
      "kal": 1031,
      "mengir": 1032,
      "iban": 1033,
      "pang": 1034,
      "diper": 1035,
      "bulan": 1036,
      "Asy": 1037,
      "Bapak": 1038,
      "asing": 1039,
      "istana": 1040,
      "kaya": 1041,
      "umur": 1042,
      "Be": 1043,
      "Kata": 1044,
      "peraturan": 1045,
      "menghadap": 1046,
      "menyelamatkan": 1047,
      "bukit": 1048,
      "pertama": 1049,
      "pung": 1050,
      "sedi": 1051,
      "berjalan": 1052,
      "istri": 1053,
      "pilih": 1054,
      "Mahakuasa": 1055,
      "Yor": 1056,
      "paling": 1057,
      "pikir": 1058,
      "Si": 1059,
      "membu": 1060,
      "pakaian": 1061,
      "Imam": 1062,
      "masa": 1063,
      "bijak": 1064,
      "entara": 1065,
      "bent": 1066,
      "jam": 1067,
      "uhur": 1068,
      "Akulah": 1069,
      "istin": 1070,
      "Filistin": 1071,
      "Mengapa": 1072,
      "upa": 1073,
      "mengatakan": 1074,
      "epat": 1075,
      "bai": 1076,
      "kejahatan": 1077,
      "akhir": 1078,
      "jaga": 1079,
      "Inilah": 1080,
      "tung": 1081,
      "menger": 1082,
      "mengasihi": 1083,
      "Pet": 1084,
      "ren": 1085,
      "binasakan": 1086,
      "hat": 1087,
      "kia": 1088,
      "tim": 1089,
      "unggu": 1090,
      "menyen": 1091,
      "husus": 1092,
      "ajaran": 1093,
      "re": 1094,
      "apan": 1095,
      "tam": 1096,
      "puan": 1097,
      "roti": 1098,
      "surga": 1099,
      "gurun": 1100,
      "bekerja": 1101,
      "pengu": 1102,
      "mengikuti": 1103,
      "pekerja": 1104,
      "agama": 1105,
      "mengirim": 1106,
      "Petrus": 1107,
      "dibunuh": 1108,
      "dikatakan": 1109,
      "teri": 1110,
      "memanggil": 1111,
      "Apakah": 1112,
      "Beg": 1113,
      "keraja": 1114,
      "khusus": 1115,
      "bia": 1116,
      "tanya": 1117,
      "sebelum": 1118,
      "timur": 1119,
      "bawah": 1120,
      "darah": 1121,
      "ni": 1122,
      "bijaksana": 1123,
      "lama": 1124,
      "perjanjian": 1125,
      "lap": 1126,
      "jukkan": 1127,
      "Bet": 1128,
      "tinggi": 1129,
      "Ef": 1130,
      "tem": 1131,
      "memakai": 1132,
      "Yosua": 1133,
      "Ka": 1134,
      "leluhur": 1135,
      "tuh": 1136,
      "berkati": 1137,
      "tidur": 1138,
      "ormati": 1139,
      "aw": 1140,
      "Setiap": 1141,
      "keh": 1142,
      "seekor": 1143,
      "puji": 1144,
      "mencari": 1145,
      "Semoga": 1146,
      "kes": 1147,
      "pagi": 1148,
      "pelay": 1149,
      "pasu": 1150,
      "senang": 1151,
      "erahkan": 1152,
      "saat": 1153,
      "Ada": 1154,
      "rajur": 1155,
      "arap": 1156,
      "Itulah": 1157,
      "rajurit": 1158,
      "aria": 1159,
      "wira": 1160,
      "ika": 1161,
      "ibu": 1162,
      "dag": 1163,
      "iling": 1164,
      "tubuh": 1165,
      "pemerintah": 1166,
      "jum": 1167,
      "aksi": 1168,
      "meter": 1169,
      "beberapa": 1170,
      "ting": 1171,
      "tum": 1172,
      "taat": 1173,
      "jadikan": 1174,
      "tahan": 1175,
      "paikan": 1176,
      "Yordan": 1177,
      "Baik": 1178,
      "Yoh": 1179,
      "aat": 1180,
      "kubur": 1181,
      "taati": 1182,
      "minyak": 1183,
      "wila": 1184,
      "ib": 1185,
      "ny": 1186,
      "za": 1187,
      "Apabila": 1188,
      "pur": 1189,
      "kerajaan": 1190,
      "empuan": 1191,
      "muda": 1192,
      "Tuanku": 1193,
      "berada": 1194,
      "tai": 1195,
      "berseru": 1196,
      "janganlah": 1197,
      "Yohan": 1198,
      "Jika": 1199,
      "kere": 1200,
      "embuh": 1201,
      "gera": 1202,
      "Un": 1203,
      "lari": 1204,
      "berangkat": 1205,
      "memba": 1206,
      "penguasa": 1207,
      "peg": 1208,
      "ru": 1209,
      "tua": 1210,
      "gap": 1211,
      "tukan": 1212,
      "kil": 1213,
      "berita": 1214,
      "kebun": 1215,
      "maupun": 1216,
      "merasa": 1217,
      "habis": 1218,
      "otong": 1219,
      "Siapa": 1220,
      "cap": 1221,
      "perempuan": 1222,
      "Tak": 1223,
      "ez": 1224,
      "kawan": 1225,
      "buk": 1226,
      "kambing": 1227,
      "kak": 1228,
      "nas": 1229,
      "prajurit": 1230,
      "suara": 1231,
      "sebabnya": 1232,
      "siap": 1233,
      "ganti": 1234,
      "kemah": 1235,
      "mengenal": 1236,
      "Untuk": 1237,
      "batas": 1238,
      "memberitahukan": 1239,
      "utara": 1240,
      "begini": 1241,
      "embunyi": 1242,
      "kaw": 1243,
      "wilayah": 1244,
      "Dalam": 1245,
      "buku": 1246,
      "menyampaikan": 1247,
      "mis": 1248,
      "bakaran": 1249,
      "berkumpul": 1250,
      "kaki": 1251,
      "dihukum": 1252,
      "kataan": 1253,
      "hatikan": 1254,
      "dirinya": 1255,
      "ibadat": 1256,
      "jem": 1257,
      "mene": 1258,
      "doh": 1259,
      "membel": 1260,
      "Janganlah": 1261,
      "000": 1262,
      "dibawa": 1263,
      "luk": 1264,
      "ping": 1265,
      "atlah": 1266,
      "tiang": 1267,
      "perwira": 1268,
      "ungkin": 1269,
      "diang": 1270,
      "diam": 1271,
      "menemu": 1272,
      "bus": 1273,
      "bantu": 1274,
      "abat": 1275,
      "sedikit": 1276,
      "Mo": 1277,
      "bersalah": 1278,
      "kemati": 1279,
      "perintahkan": 1280,
      "menunjukkan": 1281,
      "mela": 1282,
      "jika": 1283,
      "ancurkan": 1284,
      "atus": 1285,
      "kuda": 1286,
      "membangun": 1287,
      "usir": 1288,
      "oyang": 1289,
      "kipun": 1290,
      "benci": 1291,
      "mendengarkan": 1292,
      "sumpah": 1293,
      "laut": 1294,
      "nanti": 1295,
      "inga": 1296,
      "tertulis": 1297,
      "pasti": 1298,
      "bodoh": 1299,
      "kawin": 1300,
      "Ter": 1301,
      "agi": 1302,
      "dus": 1303,
      "os": 1304,
      "istr": 1305,
      "bebaskan": 1306,
      "membakar": 1307,
      "Ja": 1308,
      "Ze": 1309,
      "bong": 1310,
      "selatan": 1311,
      "adilan": 1312,
      "bali": 1313,
      "hukuman": 1314,
      "agung": 1315,
      "mengutus": 1316,
      "Yohanes": 1317,
      "balik": 1318,
      "Bang": 1319,
      "sungai": 1320,
      "ye": 1321,
      "dic": 1322,
      "berani": 1323,
      "Ne": 1324,
      "sebut": 1325,
      "kain": 1326,
      "suai": 1327,
      "mengum": 1328,
      "amai": 1329,
      "pedang": 1330,
      "janjikan": 1331,
      "pelayan": 1332,
      "Demi": 1333,
      "enek": 1334,
      "ajaiban": 1335,
      "keliling": 1336,
      "dar": 1337,
      "memer": 1338,
      "ternak": 1339,
      "ikh": 1340,
      "henti": 1341,
      "ayahnya": 1342,
      "pasukan": 1343,
      "miskin": 1344,
      "arti": 1345,
      "apakah": 1346,
      "Moab": 1347,
      "kematian": 1348,
      "isi": 1349,
      "kecil": 1350,
      "kereta": 1351,
      "sanya": 1352,
      "tup": 1353,
      "kemen": 1354,
      "Peti": 1355,
      "teriak": 1356,
      "Kana": 1357,
      "menderita": 1358,
      "keajaiban": 1359,
      "perkataan": 1360,
      "desa": 1361,
      "dipersembahkan": 1362,
      "terang": 1363,
      "datangkan": 1364,
      "arahan": 1365,
      "memuji": 1366,
      "lahirkan": 1367,
      "usaha": 1368,
      "Hari": 1369,
      "nyat": 1370,
      "sej": 1371,
      "jabat": 1372,
      "jis": 1373,
      "moyang": 1374,
      "kele": 1375,
      "akannya": 1376,
      "anggota": 1377,
      "dungi": 1378,
      "sedih": 1379,
      "suruh": 1380,
      "segera": 1381,
      "gawa": 1382,
      "tahui": 1383,
      "jumlah": 1384,
      "Benya": 1385,
      "og": 1386,
      "utusan": 1387,
      "gadis": 1388,
      "Kanaan": 1389,
      "Benyamin": 1390,
      "Me": 1391,
      "nenek": 1392,
      "mengangkat": 1393,
      "pergilah": 1394,
      "paskan": 1395,
      "ukum": 1396,
      "indungi": 1397,
      "aris": 1398,
      "dirikan": 1399,
      "menuju": 1400,
      "menyenangkan": 1401,
      "Kita": 1402,
      "jung": 1403,
      "uk": 1404,
      "aruh": 1405,
      "kul": 1406,
      "tanda": 1407,
      "anggung": 1408,
      "lit": 1409,
      "jemaat": 1410,
      "menim": 1411,
      "unya": 1412,
      "sepuluh": 1413,
      "sud": 1414,
      "memil": 1415,
      "rasul": 1416,
      "Elisa": 1417,
      "cepat": 1418,
      "angin": 1419,
      "najis": 1420,
      "Men": 1421,
      "anku": 1422,
      "sesuai": 1423,
      "bersih": 1424,
      "Asyur": 1425,
      "melainkan": 1426,
      "Abi": 1427,
      "cak": 1428,
      "itun": 1429,
      "sambil": 1430,
      "Tapi": 1431,
      "samu": 1432,
      "penyakit": 1433,
      "tel": 1434,
      "setelah": 1435,
      "hendaklah": 1436,
      "pekerjaan": 1437,
      "Nah": 1438,
      "memberkati": 1439,
      "kira": 1440,
      "hujan": 1441,
      "pegawa": 1442,
      "Perjanjian": 1443,
      "guru": 1444,
      "mentaati": 1445,
      "pejabat": 1446,
      "pemu": 1447,
      "was": 1448,
      "kekuasa": 1449,
      "ketiga": 1450,
      "kesalah": 1451,
      "mengalahkan": 1452,
      "terima": 1453,
      "surat": 1454,
      "meni": 1455,
      "Hen": 1456,
      "dil": 1457,
      "kuatan": 1458,
      "perlu": 1459,
      "kamar": 1460,
      "beam": 1461,
      "menyerahkan": 1462,
      "kemahan": 1463,
      "Edom": 1464,
      "ikat": 1465,
      "malu": 1466,
      "sal": 1467,
      "diser": 1468,
      "Seperti": 1469,
      "kitab": 1470,
      "Sementara": 1471,
      "Bukan": 1472,
      "mengerti": 1473,
      "des": 1474,
      "perkemahan": 1475,
      "ampuni": 1476,
      "dik": 1477,
      "keada": 1478,
      "kehendak": 1479,
      "harga": 1480,
      "pemerintahan": 1481,
      "berhenti": 1482,
      "kapal": 1483,
      "mengan": 1484,
      "bangkit": 1485,
      "pengaw": 1486,
      "kemarahan": 1487,
      "jel": 1488,
      "berikut": 1489,
      "adil": 1490,
      "unungan": 1491,
      "Gunung": 1492,
      "pok": 1493,
      "berperang": 1494,
      "buka": 1495,
      "menjadikan": 1496,
      "mengadakan": 1497,
      "menangis": 1498,
      "zaitun": 1499,
      "mere": 1500,
      "ormat": 1501,
      "barat": 1502,
      "Manas": 1503,
      "upacara": 1504,
      "Kota": 1505,
      "menam": 1506,
      "tunjuk": 1507,
      "istrinya": 1508,
      "Ak": 1509,
      "Para": 1510,
      "eb": 1511,
      "zaman": 1512,
      "kekuatan": 1513,
      "sesudah": 1514,
      "elih": 1515,
      "meman": 1516,
      "Alkitab": 1517,
      "meram": 1518,
      "Yoab": 1519,
      "Manasye": 1520,
      "wat": 1521,
      "mendatangkan": 1522,
      "membiarkan": 1523,
      "mengel": 1524,
      "mengajar": 1525,
      "rencana": 1526,
      "!’": 1527,
      "Samu": 1528,
      "menan": 1529,
      "kuk": 1530,
      "pulkan": 1531,
      "kemenangan": 1532,
      "An": 1533,
      "sakit": 1534,
      "ul": 1535,
      "berkuasa": 1536,
      "Seluruh": 1537,
      "Elia": 1538,
      "daging": 1539,
      "keledai": 1540,
      "naik": 1541,
      "ahari": 1542,
      "ding": 1543,
      "impah": 1544,
      "kasihan": 1545,
      "dirimu": 1546,
      "biasa": 1547,
      "dam": 1548,
      "gung": 1549,
      "he": 1550,
      "urus": 1551,
      "Pergi": 1552,
      "maksud": 1553,
      "Ing": 1554,
      "Re": 1555,
      "ron": 1556,
      "disebut": 1557,
      "berumur": 1558,
      "berusaha": 1559,
      "perjalan": 1560,
      "umput": 1561,
      "lawan": 1562,
      "Kuberikan": 1563,
      "waktunya": 1564,
      "ombong": 1565,
      "cip": 1566,
      "upakan": 1567,
      "Kabar": 1568,
      "pegunungan": 1569,
      "Pas": 1570,
      "tul": 1571,
      "jud": 1572,
      "anakmu": 1573,
      "kitar": 1574,
      "azar": 1575,
      "Nabi": 1576,
      "mengumpulkan": 1577,
      "Samuel": 1578,
      "balas": 1579,
      "olah": 1580,
      "memperhatikan": 1581,
      "Mari": 1582,
      "damai": 1583,
      "mun": 1584,
      "sekeliling": 1585,
      "jut": 1586,
      "memerintahkan": 1587,
      "mungkin": 1588,
      "potong": 1589,
      "uti": 1590,
      "orak": 1591,
      "saf": 1592,
      "sujud": 1593,
      "diperintahkan": 1594,
      "kulit": 1595,
      "membinasakan": 1596,
      "empuran": 1597,
      "aba": 1598,
      "tong": 1599,
      "indung": 1600,
      "bersumpah": 1601,
      "mengg": 1602,
      "puti": 1603,
      "ilang": 1604,
      "eritakan": 1605,
      "pesta": 1606,
      "izinkan": 1607,
      "baikan": 1608,
      "Peng": 1609,
      "indah": 1610,
      "berteriak": 1611,
      "kasa": 1612,
      "budak": 1613,
      "bintang": 1614,
      "ekh": 1615,
      "sekitar": 1616,
      "rumahnya": 1617,
      "benteng": 1618,
      "Jawab": 1619,
      "aksan": 1620,
      "lewat": 1621,
      "Ishak": 1622,
      "takkan": 1623,
      "menerus": 1624,
      "indas": 1625,
      "capkan": 1626,
      "Waktu": 1627,
      "cah": 1628,
      "kapan": 1629,
      "mema": 1630,
      "bunya": 1631,
      "melepaskan": 1632,
      ".)": 1633,
      "Yon": 1634,
      "ketujuh": 1635,
      "sejak": 1636,
      "kup": 1637,
      "dudu": 1638,
      "dek": 1639,
      "berkatalah": 1640,
      "harta": 1641,
      "kering": 1642,
      "pertempuran": 1643,
      "Biarlah": 1644,
      "Hendak": 1645,
      "singa": 1646,
      "enam": 1647,
      "kekal": 1648,
      "sele": 1649,
      "mengaku": 1650,
      "mayat": 1651,
      "Dialah": 1652,
      "matahari": 1653,
      "memilih": 1654,
      "tali": 1655,
      "zia": 1656,
      "aramu": 1657,
      "neger": 1658,
      "melahirkan": 1659,
      "putra": 1660,
      "Ahab": 1661,
      "Pergilah": 1662,
      "Sir": 1663,
      "asal": 1664,
      "apabila": 1665,
      "Amon": 1666,
      "ob": 1667,
      "oba": 1668,
      "sah": 1669,
      "war": 1670,
      "dit": 1671,
      "dipakai": 1672,
      "macam": 1673,
      "mengapa": 1674,
      "saudaranya": 1675,
      "don": 1676,
      "berarti": 1677,
      "elak": 1678,
      "olak": 1679,
      "menghormati": 1680,
      "Sabat": 1681,
      "dahal": 1682,
      "melay": 1683,
      "Samaria": 1684,
      "Begitu": 1685,
      "kekuasaan": 1686,
      "cem": 1687,
      "berat": 1688,
      "raim": 1689,
      "bencana": 1690,
      "mengetahui": 1691,
      "enyap": 1692,
      "Pu": 1693,
      "mendirikan": 1694,
      "kelap": 1695,
      "bahkan": 1696,
      "beribadat": 1697,
      "buahnya": 1698,
      "menghancurkan": 1699,
      "menangkap": 1700,
      "nasihat": 1701,
      "Demikian": 1702,
      "kesalahan": 1703,
      "hadi": 1704,
      "ran": 1705,
      "ujung": 1706,
      "dimakan": 1707,
      "tuju": 1708,
      "semak": 1709,
      "Efraim": 1710,
      "Siria": 1711,
      "melayani": 1712,
      "tamu": 1713,
      "angnya": 1714,
      "termasuk": 1715,
      "iksa": 1716,
      "keluarg": 1717,
      "kelaparan": 1718,
      "Ib": 1719,
      "dasar": 1720,
      "Ger": 1721,
      "Hiz": 1722,
      "lemah": 1723,
      "mang": 1724,
      "buangan": 1725,
      "Baal": 1726,
      "yukur": 1727,
      "selamatkan": 1728,
      "seseorang": 1729,
      "kabar": 1730,
      "jual": 1731,
      "menuruti": 1732,
      "Peny": 1733,
      "Hizkia": 1734,
      "Lembah": 1735,
      "bal": 1736,
      "iel": 1737,
      "leng": 1738,
      "tulang": 1739,
      "auan": 1740,
      "tumbuh": 1741,
      "del": 1742,
      "diu": 1743,
      "injak": 1744,
      "sebagian": 1745,
      "membebaskan": 1746,
      "mengusir": 1747,
      "katanya": 1748,
      "jujur": 1749,
      "lut": 1750,
      "cukup": 1751,
      "Manusia": 1752,
      "Bangsa": 1753,
      "Mem": 1754,
      "rumput": 1755,
      "tr": 1756,
      "ump": 1757,
      "terlalu": 1758,
      "menyel": 1759,
      "inilah": 1760,
      "petunjuk": 1761,
      "menghina": 1762,
      "Demikianlah": 1763,
      "berhasil": 1764,
      "perunggu": 1765,
      "buang": 1766,
      "melindungi": 1767,
      "ginya": 1768,
      "hluk": 1769,
      "mohon": 1770,
      "maju": 1771,
      "Sampai": 1772,
      "hatimu": 1773,
      "Tan": 1774,
      "cat": 1775,
      "nur": 1776,
      "bahasa": 1777,
      "pet": 1778,
      "aksanakan": 1779,
      "selesai": 1780,
      "lem": 1781,
      "akkan": 1782,
      "menjaga": 1783,
      "sepanjang": 1784,
      "lead": 1785,
      "bunyi": 1786,
      "sedangkan": 1787,
      "Gilead": 1788,
      "pengawal": 1789,
      "Ingatlah": 1790,
      "Ben": 1791,
      "Lihat": 1792,
      "hancur": 1793,
      "son": 1794,
      "tutup": 1795,
      "tukang": 1796,
      "mulut": 1797,
      "Engkaulah": 1798,
      "hatikanlah": 1799,
      "cucu": 1800,
      "kuburan": 1801,
      "membayar": 1802,
      "pegawai": 1803,
      "perjalanan": 1804,
      "Hendaklah": 1805,
      "Ma": 1806,
      "hilang": 1807,
      "mim": 1808,
      "Sion": 1809,
      "Yonatan": 1810,
      "harap": 1811,
      "kara": 1812,
      "arang": 1813,
      "keempat": 1814,
      "arisi": 1815,
      "Seorang": 1816,
      "makhluk": 1817,
      "baliknya": 1818,
      "Ar": 1819,
      "Hukum": 1820,
      "jer": 1821,
      "erai": 1822,
      "beron": 1823,
      "pir": 1824,
      "penting": 1825,
      "menyebab": 1826,
      "Mik": 1827,
      "abang": 1828,
      "anda": 1829,
      "berang": 1830,
      "peri": 1831,
      "bersatu": 1832,
      "janda": 1833,
      "alami": 1834,
      "Penyelamat": 1835,
      "Ge": 1836,
      "Sungguh": 1837,
      "kepu": 1838,
      "ikmat": 1839,
      "takutan": 1840,
      "tentukan": 1841,
      "menyebabkan": 1842,
      "Oleh": 1843,
      "sembuh": 1844,
      "to": 1845,
      "arikan": 1846,
      "ompet": 1847,
      "tangannya": 1848,
      "sulung": 1849,
      "menemukan": 1850,
      "lembah": 1851,
      "ketakutan": 1852,
      "untuh": 1853,
      "ayaan": 1854,
      "benda": 1855,
      "mengejar": 1856,
      "kenal": 1857,
      "ampunan": 1858,
      "Sime": 1859,
      "Bukankah": 1860,
      "kun": 1861,
      "mes": 1862,
      "pti": 1863,
      "dibakar": 1864,
      "indak": 1865,
      "keadilan": 1866,
      "kas": 1867,
      "perkasa": 1868,
      "memimpin": 1869,
      "impan": 1870,
      "jubah": 1871,
      "hidupnya": 1872,
      "agar": 1873,
      "agia": 1874,
      "tanggal": 1875,
      "jara": 1876,
      "tolong": 1877,
      "dijanjikan": 1878,
      "berjanji": 1879,
      "kutuk": 1880,
      "perkara": 1881,
      "mengganti": 1882,
      "iman": 1883,
      "bahagia": 1884,
      "pengampunan": 1885,
      "Meskipun": 1886,
      "keadaan": 1887,
      "Memang": 1888,
      "Hanya": 1889,
      "can": 1890,
      "lia": 1891,
      "lenyap": 1892,
      "pus": 1893,
      "dili": 1894,
      "tuan": 1895,
      "alat": 1896,
      "menunggu": 1897,
      "untung": 1898,
      "uhi": 1899,
      "iap": 1900,
      "tera": 1901,
      "melarikan": 1902,
      "muka": 1903,
      "menyu": 1904,
      "takh": 1905,
      "penjara": 1906,
      "anggar": 1907,
      "binasa": 1908,
      "tinggalkan": 1909,
      "pasang": 1910,
      "murni": 1911,
      "turut": 1912,
      "guna": 1913,
      "pikiran": 1914,
      "saling": 1915,
      "hebat": 1916,
      "trompet": 1917,
      "dijadikan": 1918,
      "asih": 1919,
      "isti": 1920,
      "siang": 1921,
      "tongkat": 1922,
      "berontak": 1923,
      "rat": 1924,
      "seng": 1925,
      "dipilih": 1926,
      "kai": 1927,
      "tapa": 1928,
      "tawan": 1929,
      "sumur": 1930,
      "datanglah": 1931,
      "adik": 1932,
      "Semuanya": 1933,
      "bawanya": 1934,
      "berlaku": 1935,
      "Farisi": 1936,
      "Her": 1937,
      "Pa": 1938,
      "pembun": 1939,
      "sung": 1940,
      "anggap": 1941,
      "ori": 1942,
      "membalas": 1943,
      "Segala": 1944,
      "panah": 1945,
      "penge": 1946,
      "pengh": 1947,
      "olongan": 1948,
      "gelap": 1949,
      "Ban": 1950,
      "Mal": 1951,
      "obeam": 1952,
      "era": 1953,
      "Yerobeam": 1954,
      "Beberapa": 1955,
      "embuhkan": 1956,
      "Pem": 1957,
      "ajar": 1958,
      "aminya": 1959,
      "menolak": 1960,
      "kekaya": 1961,
      "tas": 1962,
      "badan": 1963,
      "uru": 1964,
      "emuk": 1965,
      "menyatakan": 1966,
      "jilah": 1967,
      "Dengarlah": 1968,
      "dusta": 1969,
      "memandang": 1970,
      "keputusan": 1971,
      "Ju": 1972,
      "sat": 1973,
      "ahli": 1974,
      "ahtera": 1975,
      "ataran": 1976,
      "alang": 1977,
      "kebaikan": 1978,
      "arapan": 1979,
      "belak": 1980,
      "bagimu": 1981,
      "bertindak": 1982,
      "menetap": 1983,
      "Ham": 1984,
      "Sil": 1985,
      "af": 1986,
      "salom": 1987,
      "ditim": 1988,
      "memas": 1989,
      "mengun": 1990,
      "embala": 1991,
      "asai": 1992,
      "Absalom": 1993,
      "nyanyi": 1994,
      "kilog": 1995,
      "mimpi": 1996,
      "kilogram": 1997,
      "fana": 1998,
      "secara": 1999,
      "membenci": 2000,
      "patut": 2001,
      "melanggar": 2002,
      "menyanyi": 2003,
      "dok": 2004,
      "ayakan": 2005,
      "lihatan": 2006,
      "ptis": 2007,
      "De": 2008,
      "Ru": 2009,
      "dn": 2010,
      "han": 2011,
      "kena": 2012,
      "mari": 2013,
      "saksi": 2014,
      "tinya": 2015,
      "dike": 2016,
      "tut": 2017,
      "mendekat": 2018,
      "bernur": 2019,
      "sukar": 2020,
      "membantu": 2021,
      "buta": 2022,
      "ilangan": 2023,
      "bunga": 2024,
      "memberitakan": 2025,
      "pelataran": 2026,
      "putr": 2027,
      "menulis": 2028,
      "ezar": 2029,
      "dianggap": 2030,
      "Nebuka": 2031,
      "merebut": 2032,
      "dnezar": 2033,
      "Nebukadnezar": 2034,
      "Kor": 2035,
      "cinta": 2036,
      "pemb": 2037,
      "upah": 2038,
      "kecu": 2039,
      "berharga": 2040,
      "bahaya": 2041,
      "pembuangan": 2042,
      "kuasai": 2043,
      "bulkan": 2044,
      "kehilangan": 2045,
      "Banyak": 2046,
      "Esau": 2047,
      "Gali": 2048,
      "Gad": 2049,
      "Pin": 2050,
      "hia": 2051,
      "malah": 2052,
      "subur": 2053,
      "bapak": 2054,
      "dupa": 2055,
      "penderita": 2056,
      "pemberi": 2057,
      "ombak": 2058,
      "musim": 2059,
      "hatinya": 2060,
      "sejahtera": 2061,
      "Pujilah": 2062,
      "menggantikan": 2063,
      "takhta": 2064,
      "Az": 2065,
      "Ayah": 2066,
      "Beri": 2067,
      "zin": 2068,
      "ditentukan": 2069,
      "unat": 2070,
      "daya": 2071,
      "juang": 2072,
      "puncak": 2073,
      "yakin": 2074,
      "meren": 2075,
      "merah": 2076,
      "menceritakan": 2077,
      "Gibe": 2078,
      "ciptakan": 2079,
      "eran": 2080,
      "dikuasai": 2081,
      "ambah": 2082,
      "alib": 2083,
      "bes": 2084,
      "anakah": 2085,
      "penduduknya": 2086,
      "banya": 2087,
      "lebar": 2088,
      "besi": 2089,
      "hubung": 2090,
      "sisa": 2091,
      "Barang": 2092,
      "harapan": 2093,
      "sembunyi": 2094,
      "atap": 2095,
      "mengampuni": 2096,
      "layar": 2097,
      "terh": 2098,
      "tepi": 2099,
      "Allahku": 2100,
      "Sebaliknya": 2101,
      "hutan": 2102,
      "alaupun": 2103,
      "hidupkan": 2104,
      "bertambah": 2105,
      "Siapakah": 2106,
      "Ibu": 2107,
      "Mi": 2108,
      "ibunya": 2109,
      "mah": 2110,
      "berse": 2111,
      "waban": 2112,
      "ungan": 2113,
      "menguasai": 2114,
      "nahkan": 2115,
      "membuka": 2116,
      "diangkut": 2117,
      "nyata": 2118,
      "Nam": 2119,
      "ain": 2120,
      "cang": 2121,
      "diami": 2122,
      "dinam": 2123,
      "padahal": 2124,
      "memeg": 2125,
      "lea": 2126,
      "luka": 2127,
      "hatiku": 2128,
      "anggup": 2129,
      "gul": 2130,
      "Amori": 2131,
      "empur": 2132,
      "diserahkan": 2133,
      "meskipun": 2134,
      "Ruben": 2135,
      "Galilea": 2136,
      "gembala": 2137,
      "jakan": 2138,
      "yalah": 2139,
      "atkan": 2140,
      "menen": 2141,
      "keingin": 2142,
      "perayaan": 2143,
      "mengizinkan": 2144,
      "putus": 2145,
      "kemauan": 2146,
      "Simon": 2147,
      "panggil": 2148,
      "Juga": 2149,
      "Bel": 2150,
      "Da": 2151,
      "Pil": 2152,
      "tar": 2153,
      "wati": 2154,
      "yakan": 2155,
      "diambil": 2156,
      "kanan": 2157,
      "beru": 2158,
      "terdengar": 2159,
      "pandai": 2160,
      "lampu": 2161,
      "musuhmu": 2162,
      "pela": 2163,
      "putih": 2164,
      "Liban": 2165,
      "Ro": 2166,
      "sombong": 2167,
      "disembah": 2168,
      "asil": 2169,
      "leam": 2170,
      "tanaman": 2171,
      "susahan": 2172,
      "keru": 2173,
      "sampaikan": 2174,
      "hampir": 2175,
      "Yoas": 2176,
      "Simson": 2177,
      "Mikha": 2178,
      "belakang": 2179,
      "kecuali": 2180,
      "Libanon": 2181,
      "La": 2182,
      "lin": 2183,
      "diselamatkan": 2184,
      "berguna": 2185,
      "uma": 2186,
      "isah": 2187,
      "luput": 2188,
      "dalamnya": 2189,
      "penglihatan": 2190,
      "tentaranya": 2191,
      "mengucapkan": 2192,
      "Gide": 2193,
      "menipu": 2194,
      "damaian": 2195,
      "mengakui": 2196,
      "Laut": 2197,
      "ikan": 2198,
      "sanggup": 2199,
      "menyang": 2200,
      "itung": 2201,
      "raya": 2202,
      "bersorak": 2203,
      "Kepada": 2204,
      "merupakan": 2205,
      "yub": 2206,
      "hakim": 2207,
      "Sudah": 2208,
      "rendah": 2209,
      "khususkan": 2210,
      "cahaya": 2211,
      "semakin": 2212,
      "mangkuk": 2213,
      "memegang": 2214,
      "Gideon": 2215,
      "Ayub": 2216,
      "Bahkan": 2217,
      "Ele": 2218,
      "Kuh": 2219,
      "Mak": 2220,
      "hikmat": 2221,
      "ner": 2222,
      "menjalan": 2223,
      "seberang": 2224,
      "berke": 2225,
      "tik": 2226,
      "terdapat": 2227,
      "tepat": 2228,
      "hian": 2229,
      "kiranya": 2230,
      "Rah": 2231,
      "Tir": 2232,
      "gar": 2233,
      "gus": 2234,
      "jen": 2235,
      "tupi": 2236,
      "tikan": 2237,
      "jawaban": 2238,
      "raj": 2239,
      "ribu": 2240,
      "Kujadikan": 2241,
      "ompok": 2242,
      "Selama": 2243,
      "Bileam": 2244,
      "dikalahkan": 2245,
      "Paskah": 2246,
      "Hal": 2247,
      "Mel": 2248,
      "duh": 2249,
      "okan": 2250,
      "menari": 2251,
      "suki": 2252,
      "perangan": 2253,
      "lai": 2254,
      "bim": 2255,
      "melu": 2256,
      "bek": 2257,
      "bangga": 2258,
      "anakku": 2259,
      "jadian": 2260,
      "tanduk": 2261,
      "embelih": 2262,
      "jata": 2263,
      "membeli": 2264,
      "pemuda": 2265,
      "duduki": 2266,
      "Hero": 2267,
      "pemberian": 2268,
      "pelacur": 2269,
      "Han": 2270,
      "Maria": 2271,
      "atat": 2272,
      "dikubur": 2273,
      "menj": 2274,
      "kesusahan": 2275,
      "das": 2276,
      "berkemah": 2277,
      "suaminya": 2278,
      "umkan": 2279,
      "harinya": 2280,
      "Bagaimana": 2281,
      "kirkan": 2282,
      "tangga": 2283,
      "memukul": 2284,
      "Penduduk": 2285,
      "pujian": 2286,
      "jelas": 2287,
      "abadi": 2288,
      "bdi": 2289,
      "car": 2290,
      "diba": 2291,
      "menindas": 2292,
      "kegel": 2293,
      "berharap": 2294,
      "elaka": 2295,
      "asia": 2296,
      "baring": 2297,
      "tahuan": 2298,
      "mengabdi": 2299,
      "bertemu": 2300,
      "keturunanmu": 2301,
      "dihina": 2302,
      "memutus": 2303,
      "intai": 2304,
      "kawanan": 2305,
      "kegelapan": 2306,
      "eh": 2307,
      "akim": 2308,
      "disuruh": 2309,
      "alkan": 2310,
      "kejadian": 2311,
      "kabung": 2312,
      "tewas": 2313,
      "bahan": 2314,
      "dosamu": 2315,
      "apus": 2316,
      "akibat": 2317,
      "peperangan": 2318,
      "kelompok": 2319,
      "agungan": 2320,
      "andainya": 2321,
      "Asa": 2322,
      "Kir": 2323,
      "Tim": 2324,
      "Zak": 2325,
      "tin": 2326,
      "dibuang": 2327,
      "bertugas": 2328,
      "meminta": 2329,
      "lagu": 2330,
      "pim": 2331,
      "alir": 2332,
      "menyembuhkan": 2333,
      "gua": 2334,
      "gubernur": 2335,
      "namanya": 2336,
      "kesaksi": 2337,
      "elakalah": 2338,
      "hadiah": 2339,
      "keluarganya": 2340,
      "penderitaan": 2341,
      "Eleazar": 2342,
      "memutuskan": 2343,
      "?’": 2344,
      "Suruh": 2345,
      "ria": 2346,
      "syat": 2347,
      "yh": 2348,
      "dibangun": 2349,
      "mengalir": 2350,
      "dahsyat": 2351,
      "puing": 2352,
      "Sekali": 2353,
      "galanya": 2354,
      "bertempur": 2355,
      "Yosia": 2356,
      "Yosaf": 2357,
      "etar": 2358,
      "kelihat": 2359,
      "namun": 2360,
      "batasan": 2361,
      "menemui": 2362,
      "mendekati": 2363,
      "asilkan": 2364,
      "Yosafat": 2365,
      "heran": 2366,
      "sabar": 2367,
      "sayap": 2368,
      "lukan": 2369,
      "kurang": 2370,
      "bentuk": 2371,
      "gantung": 2372,
      "sementara": 2373,
      "ingatkan": 2374,
      "gunanya": 2375,
      "Betel": 2376,
      "Tanah": 2377,
      "Maz": 2378,
      "obat": 2379,
      "angat": 2380,
      "ahi": 2381,
      "diangkat": 2382,
      "keagungan": 2383,
      "unta": 2384,
      "sebanyak": 2385,
      "perse": 2386,
      "membagi": 2387,
      "ias": 2388,
      "negara": 2389,
      "burkan": 2390,
      "Kristen": 2391,
      "langsung": 2392,
      "menurun": 2393,
      "meletakkan": 2394,
      "menyentuh": 2395,
      "Begitulah": 2396,
      "Akhir": 2397,
      "sekitarnya": 2398,
      "delapan": 2399,
      "menentukan": 2400,
      "Pilatus": 2401,
      "kerub": 2402,
      "kesaksian": 2403,
      "Mazmur": 2404,
      "Agung": 2405,
      "Es": 2406,
      "Mor": 2407,
      "Za": 2408,
      "dangan": 2409,
      "rahat": 2410,
      "menik": 2411,
      "betapa": 2412,
      "jian": 2413,
      "hibur": 2414,
      "halus": 2415,
      "rambut": 2416,
      "kakas": 2417,
      "nyatakan": 2418,
      "Iblis": 2419,
      "Umat": 2420,
      "den": 2421,
      "iki": 2422,
      "khian": 2423,
      "sor": 2424,
      "sanak": 2425,
      "”.": 2426,
      "setengah": 2427,
      "sepenuh": 2428,
      "ingatan": 2429,
      "entang": 2430,
      "pasir": 2431,
      "makin": 2432,
      "cemara": 2433,
      "Bes": 2434,
      "Hi": 2435,
      "Heb": 2436,
      "jun": 2437,
      "seri": 2438,
      "salam": 2439,
      "kejam": 2440,
      "padamu": 2441,
      "berai": 2442,
      "perkakas": 2443,
      "memen": 2444,
      "maut": 2445,
      "ayalah": 2446,
      "seluruhnya": 2447,
      "mencu": 2448,
      "semoga": 2449,
      "bangunan": 2450,
      "benarnya": 2451,
      "Buatlah": 2452,
      "kenan": 2453,
      "pilihan": 2454,
      "sejati": 2455,
      "Mendengar": 2456,
      "kekayaan": 2457,
      "linen": 2458,
      "menjalankan": 2459,
      "Herodes": 2460,
      "Hebron": 2461,
      "Dahu": 2462,
      "Kel": 2463,
      "Ruang": 2464,
      "gang": 2465,
      "artinya": 2466,
      "dinyatakan": 2467,
      "ora": 2468,
      "perdamaian": 2469,
      "duli": 2470,
      "barkan": 2471,
      "Daniel": 2472,
      "Lebih": 2473,
      "menyeber": 2474,
      "penyembah": 2475,
      "pujilah": 2476,
      "memasuki": 2477,
      "Hamba": 2478,
      "ditimpa": 2479,
      "pimpin": 2480,
      "Akhirnya": 2481,
      "As": 2482,
      "Ha": 2483,
      "So": 2484,
      "anjang": 2485,
      "bergembira": 2486,
      "asan": 2487,
      "mengalami": 2488,
      "biarlah": 2489,
      "dahkan": 2490,
      "dekia": 2491,
      "bersembunyi": 2492,
      "Yoyak": 2493,
      "Maha": 2494,
      "Zedekia": 2495,
      "putranya": 2496,
      "kelihatan": 2497,
      "Dahulu": 2498,
      "Akan": 2499,
      "Mer": 2500,
      "Sikh": 2501,
      "Ta": 2502,
      "ge": 2503,
      "syukur": 2504,
      "zi": 2505,
      "din": 2506,
      "membawanya": 2507,
      "paksa": 2508,
      "Yerikh": 2509,
      "meja": 2510,
      "saudaramu": 2511,
      "menghasilkan": 2512,
      "duri": 2513,
      "sumber": 2514,
      "berlimpah": 2515,
      "mengelu": 2516,
      "memenuhi": 2517,
      "menyeberangi": 2518,
      "Yerikho": 2519,
      "iri": 2520,
      "jah": 2521,
      "pakan": 2522,
      "rem": 2523,
      "keselamat": 2524,
      "seolah": 2525,
      "berasal": 2526,
      "usan": 2527,
      "Keturun": 2528,
      "kasihi": 2529,
      "dihormati": 2530,
      "menimpa": 2531,
      "ular": 2532,
      "negerimu": 2533,
      "Sikhem": 2534,
      "kalah": 2535,
      "atur": 2536,
      "menanggung": 2537,
      "berga": 2538,
      "peringatan": 2539,
      "inginkan": 2540,
      "terse": 2541,
      "tepung": 2542,
      "melaksanakan": 2543,
      "puas": 2544,
      "bilan": 2545,
      "memperlakukan": 2546,
      "Selain": 2547,
      "emparkan": 2548,
      "minuman": 2549,
      "cacat": 2550,
      "canakan": 2551,
      "memasang": 2552,
      "Namun": 2553,
      "keinginan": 2554,
      "boh": 2555,
      "walaupun": 2556,
      "dibiarkan": 2557,
      "dikhususkan": 2558,
      "menaruh": 2559,
      "unyi": 2560,
      "daun": 2561,
      "perahu": 2562,
      "perbatasan": 2563,
      "memberontak": 2564,
      "urban": 2565,
      "Kukatakan": 2566,
      "kos": 2567,
      "pemilik": 2568,
      "melakukannya": 2569,
      "Perc": 2570,
      "keturunannya": 2571,
      "sembilan": 2572,
      "angkatan": 2573,
      "menutupi": 2574,
      "membuang": 2575,
      "teman": 2576,
      "negerinya": 2577,
      "Pintu": 2578,
      "yhur": 2579,
      "mengeluarkan": 2580,
      "Celakalah": 2581,
      "Pel": 2582,
      "jarkan": 2583,
      "kh": 2584,
      "enang": 2585,
      "dibinasakan": 2586,
      "perut": 2587,
      "bayi": 2588,
      "bahagi": 2589,
      "betul": 2590,
      "bangan": 2591,
      "karung": 2592,
      "galah": 2593,
      "pendapat": 2594,
      "panen": 2595,
      "samping": 2596,
      "haria": 2597,
      "hidupmu": 2598,
      "Bagi": 2599,
      "Perhatikanlah": 2600,
      "mengutuk": 2601,
      "pertolongan": 2602,
      "alasan": 2603,
      "sediakan": 2604,
      "dekhai": 2605,
      "hubungan": 2606,
      "Midian": 2607,
      "bimbing": 2608,
      "Zakharia": 2609,
      "Mordekhai": 2610,
      "Kus": 2611,
      "Ny": 2612,
      "gam": 2613,
      "idi": 2614,
      "zah": 2615,
      "anjut": 2616,
      "emia": 2617,
      "amkan": 2618,
      "suami": 2619,
      "arisan": 2620,
      "pihak": 2621,
      "teguh": 2622,
      "amaan": 2623,
      "berisi": 2624,
      "debu": 2625,
      "atasnya": 2626,
      "benih": 2627,
      "palsu": 2628,
      "naf": 2629,
      "musuhku": 2630,
      "Abner": 2631,
      "tenang": 2632,
      "bijaksanaan": 2633,
      "moyangmu": 2634,
      "pengetahuan": 2635,
      "Malaikat": 2636,
      "12": 2637,
      "Bo": 2638,
      "Guru": 2639,
      "ef": 2640,
      "sing": 2641,
      "unia": 2642,
      "perump": 2643,
      "memin": 2644,
      "biar": 2645,
      "melupakan": 2646,
      "Yesaya": 2647,
      "esokan": 2648,
      "mengharap": 2649,
      "sempur": 2650,
      "tangkap": 2651,
      "tentu": 2652,
      "ezer": 2653,
      "nasib": 2654,
      "dicatat": 2655,
      "perisai": 2656,
      "tindakan": 2657,
      "perumpamaan": 2658,
      "Ahas": 2659,
      "Bin": 2660,
      "Sin": 2661,
      "kor": 2662,
      "pinggi": 2663,
      "so": 2664,
      "yan": 2665,
      "sepi": 2666,
      "kulihat": 2667,
      "adab": 2668,
      "lubang": 2669,
      "enazah": 2670,
      "rumahmu": 2671,
      "buru": 2672,
      "mencur": 2673,
      "mencintai": 2674,
      "kecapi": 2675,
      "meneruskan": 2676,
      "tawanan": 2677,
      "besok": 2678,
      "akimi": 2679,
      "penyembahan": 2680,
      "rempah": 2681,
      "sempurna": 2682,
      "dara": 2683,
      "manakah": 2684,
      "tombak": 2685,
      "daf": 2686,
      "tadi": 2687,
      "meme": 2688,
      "memus": 2689,
      "memelih": 2690,
      "letak": 2691,
      "Sejak": 2692,
      "dosanya": 2693,
      "hidu": 2694,
      "omba": 2695,
      "lakukanlah": 2696,
      "habeam": 2697,
      "Abram": 2698,
      "perbuatannya": 2699,
      "kumpulkan": 2700,
      "nyala": 2701,
      "Rehabeam": 2702,
      "Gerbang": 2703,
      "Suruhlah": 2704,
      "menurunkan": 2705,
      "bon": 2706,
      "celaka": 2707,
      "eel": 2708,
      "dilihat": 2709,
      "diampuni": 2710,
      "alakan": 2711,
      "sayang": 2712,
      "bagus": 2713,
      "nyawa": 2714,
      "menyes": 2715,
      "Kulakukan": 2716,
      "kot": 2717,
      "penjaga": 2718,
      "bagiku": 2719,
      "tahulah": 2720,
      "mabuk": 2721,
      "menyerbu": 2722,
      "menyadari": 2723,
      "Bila": 2724,
      "lapar": 2725,
      "ormatan": 2726,
      "merampas": 2727,
      "pembunuhan": 2728,
      "lebarnya": 2729,
      "dinamakan": 2730,
      "Nanti": 2731,
      "kari": 2732,
      "od": 2733,
      "pro": 2734,
      "setuju": 2735,
      "berbaring": 2736,
      "berkabung": 2737,
      "tian": 2738,
      "orong": 2739,
      "menganggap": 2740,
      "lapi": 2741,
      "dut": 2742,
      "duka": 2743,
      "melekh": 2744,
      "jukan": 2745,
      "susah": 2746,
      "peduli": 2747,
      "kurangan": 2748,
      "dengarkan": 2749,
      "sekalipun": 2750,
      "cul": 2751,
      "putri": 2752,
      "lelaki": 2753,
      "membela": 2754,
      "bantuan": 2755,
      "Abimelekh": 2756,
      "bangkitkan": 2757,
      "nyanyian": 2758,
      "zinah": 2759,
      "Ester": 2760,
      "Keturunan": 2761,
      "kosong": 2762,
      ",’": 2763,
      "Du": 2764,
      "Mus": 2765,
      "Pak": 2766,
      "Sara": 2767,
      "Yun": 2768,
      "jing": 2769,
      "akar": 2770,
      "arya": 2771,
      "ditu": 2772,
      "diaman": 2773,
      "kekasih": 2774,
      "kepenting": 2775,
      "kediaman": 2776,
      "memotong": 2777,
      "mengurus": 2778,
      "terl": 2779,
      "terben": 2780,
      "kampung": 2781,
      "lepas": 2782,
      "puasa": 2783,
      "buruk": 2784,
      "kelaku": 2785,
      "perbuatanmu": 2786,
      "menutup": 2787,
      "gemetar": 2788,
      "tunduk": 2789,
      "dilakukannya": 2790,
      "panglima": 2791,
      "akhirnya": 2792,
      "kesempat": 2793,
      "pemuka": 2794,
      "hidupan": 2795,
      "Amin": 2796,
      "Go": 2797,
      "Kai": 2798,
      "Yiz": 2799,
      "der": 2800,
      "fa": 2801,
      "oti": 2802,
      "wakan": 2803,
      "ditinggalkan": 2804,
      "tuanya": 2805,
      "amar": 2806,
      "amanya": 2807,
      "menahan": 2808,
      "menepat": 2809,
      "menduduki": 2810,
      "kehidupan": 2811,
      "pajak": 2812,
      "orkan": 2813,
      "sajian": 2814,
      "permata": 2815,
      "baju": 2816,
      "wabah": 2817,
      "waji": 2818,
      "bangkan": 2819,
      "beritahukan": 2820,
      "pakaiannya": 2821,
      "mengepung": 2822,
      "Baru": 2823,
      "panjangnya": 2824,
      "Naf": 2825,
      "Efrat": 2826,
      "leluhurmu": 2827,
      "memerangi": 2828,
      "muncul": 2829,
      "donia": 2830,
      "menyangka": 2831,
      "Tirus": 2832,
      "dikuburkan": 2833,
      "Besok": 2834,
      "Hidup": 2835,
      "jungi": 2836,
      "Mahasuci": 2837,
      "pinggir": 2838,
      "Kaisar": 2839,
      "Ang": 2840,
      "jenazah": 2841,
      "diterima": 2842,
      "meneg": 2843,
      "berpikir": 2844,
      "bertahan": 2845,
      "berdaya": 2846,
      "berkenan": 2847,
      "kus": 2848,
      "perleng": 2849,
      "urut": 2850,
      "daki": 2851,
      "untukmu": 2852,
      "melap": 2853,
      "dalkan": 2854,
      "tanam": 2855,
      "iring": 2856,
      "semula": 2857,
      "senjata": 2858,
      "seru": 2859,
      "seratus": 2860,
      "Kedua": 2861,
      "bagaikan": 2862,
      "begitulah": 2863,
      "dihancurkan": 2864,
      "makmur": 2865,
      "menyedi": 2866,
      "Ambil": 2867,
      "saatnya": 2868,
      "pegang": 2869,
      "Laban": 2870,
      "Kuhukum": 2871,
      "menikmati": 2872,
      "bahagialah": 2873,
      "kesempatan": 2874,
      "perlengkapan": 2875,
      "Dam": 2876,
      "Mat": 2877,
      "Sal": 2878,
      "To": 2879,
      "ratus": 2880,
      "tena": 2881,
      "angkah": 2882,
      "diter": 2883,
      "kebijaksanaan": 2884,
      "padanya": 2885,
      "berko": 2886,
      "orangnya": 2887,
      "buas": 2888,
      "usak": 2889,
      "asihat": 2890,
      "aukan": 2891,
      "mengikat": 2892,
      "teg": 2893,
      "wajah": 2894,
      "panas": 2895,
      "Yeremia": 2896,
      "olos": 2897,
      "menghakimi": 2898,
      "kepalanya": 2899,
      "lemak": 2900,
      "keselamatan": 2901,
      "anjutnya": 2902,
      "terbenam": 2903,
      "Domba": 2904,
      "Ez": 2905,
      "Hati": 2906,
      "Zi": 2907,
      "etak": 2908,
      "limpah": 2909,
      "vin": 2910,
      "yada": 2911,
      "menjual": 2912,
      "berzinah": 2913,
      "memung": 2914,
      "umum": 2915,
      "isinya": 2916,
      "main": 2917,
      "diram": 2918,
      "syik": 2919,
      "inaan": 2920,
      "cabang": 2921,
      "bentar": 2922,
      "dagang": 2923,
      "tahanan": 2924,
      "Akh": 2925,
      "Lihatlah": 2926,
      "hiasan": 2927,
      "Rahel": 2928,
      "Sinai": 2929,
      "provin": 2930,
      "provinsi": 2931,
      "Bal": 2932,
      "Coba": 2933,
      "Haz": 2934,
      "Ken": 2935,
      "Kal": 2936,
      "Nuh": 2937,
      "kini": 2938,
      "kha": 2939,
      "saku": 2940,
      "berakhir": 2941,
      "sudut": 2942,
      "engah": 2943,
      "gag": 2944,
      "mengo": 2945,
      "menyala": 2946,
      "ikkan": 2947,
      "penger": 2948,
      "ayat": 2949,
      "melihatnya": 2950,
      "cita": 2951,
      "Ini": 2952,
      "Baiklah": 2953,
      "Simeon": 2954,
      "mengunjungi": 2955,
      "idiki": 2956,
      "Do": 2957,
      "Gil": 2958,
      "Katakan": 2959,
      "garis": 2960,
      "jir": 2961,
      "kuh": 2962,
      "akh": 2963,
      "kejut": 2964,
      "kesukar": 2965,
      "sejauh": 2966,
      "berpuasa": 2967,
      "mengeri": 2968,
      "terakhir": 2969,
      "mudah": 2970,
      "Seandainya": 2971,
      "pantai": 2972,
      "pembesar": 2973,
      "mael": 2974,
      "pindah": 2975,
      "curi": 2976,
      "ayahmu": 2977,
      "Yudas": 2978,
      "ingatlah": 2979,
      "campur": 2980,
      "jatuhkan": 2981,
      "tulus": 2982,
      "umpuh": 2983,
      "eraiberai": 2984,
      "Nyanyi": 2985,
      "menepati": 2986,
      "menyediakan": 2987,
      "Damsyik": 2988,
      "10": 2989,
      "Amal": 2990,
      "Het": 2991,
      "Ki": 2992,
      "Tempat": 2993,
      "eba": 2994,
      "rin": 2995,
      "dipotong": 2996,
      "kese": 2997,
      "uni": 2998,
      "sebenarnya": 2999,
      "memohon": 3000,
      "duanya": 3001,
      "beban": 3002,
      "pukul": 3003,
      "selir": 3004,
      "takluk": 3005,
      "buatan": 3006,
      "harusnya": 3007,
      "pengadilan": 3008,
      "dea": 3009,
      "bersyukur": 3010,
      "bagikan": 3011,
      "peti": 3012,
      "Baw": 3013,
      "liter": 3014,
      "anting": 3015,
      "musnahkan": 3016,
      "murka": 3017,
      "pahlawan": 3018,
      "bawalah": 3019,
      "antik": 3020,
      "tugaskan": 3021,
      "menyele": 3022,
      "alibkan": 3023,
      "berubah": 3024,
      "eraiberaikan": 3025,
      "Mungkin": 3026,
      "Neg": 3027,
      "caranya": 3028,
      "haka": 3029,
      "non": 3030,
      "sara": 3031,
      "sisi": 3032,
      "sunyi": 3033,
      "arat": 3034,
      "dipercaya": 3035,
      "diberkati": 3036,
      "dibebaskan": 3037,
      "menara": 3038,
      "menempat": 3039,
      "kebesar": 3040,
      "perminta": 3041,
      "perhatikanlah": 3042,
      "memi": 3043,
      "bit": 3044,
      "ternyata": 3045,
      "bed": 3046,
      "kaul": 3047,
      "karya": 3048,
      "banjir": 3049,
      "Ismael": 3050,
      "koh": 3051,
      "hadapi": 3052,
      "pakkan": 3053,
      "merayakan": 3054,
      "musik": 3055,
      "mengha": 3056,
      "Kaum": 3057,
      "disunat": 3058,
      "menyertai": 3059,
      "gelang": 3060,
      "Bukit": 3061,
      "Yudea": 3062,
      "menyambut": 3063,
      "Zebul": 3064,
      "bersihkan": 3065,
      "Zadok": 3066,
      "memelihara": 3067,
      "pengertian": 3068,
      "mengerikan": 3069,
      "Amalek": 3070,
      "Aha": 3071,
      "Basan": 3072,
      "Ram": 3073,
      "Rib": 3074,
      "bamu": 3075,
      "cer": 3076,
      "rani": 3077,
      "diusir": 3078,
      "tuannya": 3079,
      "menciptakan": 3080,
      "keuntung": 3081,
      "berdua": 3082,
      "berlayar": 3083,
      "tipu": 3084,
      "tiup": 3085,
      "eret": 3086,
      "iaya": 3087,
      "asanya": 3088,
      "dukan": 3089,
      "Sej": 3090,
      "okh": 3091,
      "bertobat": 3092,
      "Yoyada": 3093,
      "pertemu": 3094,
      "katakanlah": 3095,
      "Berbahagialah": 3096,
      "empari": 3097,
      "jamin": 3098,
      "menimbulkan": 3099,
      "telinga": 3100,
      "Ibrani": 3101,
      "diutus": 3102,
      "Naftali": 3103,
      "Bawalah": 3104,
      "Haman": 3105,
      "je": 3106,
      "par": 3107,
      "wangi": 3108,
      "anita": 3109,
      "dipanggil": 3110,
      "berjuang": 3111,
      "sukan": 3112,
      "terkejut": 3113,
      "mulia": 3114,
      "beris": 3115,
      "lehem": 3116,
      "luas": 3117,
      "bersiap": 3118,
      "baiknya": 3119,
      "anggu": 3120,
      "mengubah": 3121,
      "sema": 3122,
      "datangan": 3123,
      "syeba": 3124,
      "rahasia": 3125,
      "ajis": 3126,
      "durhaka": 3127,
      "mengasihani": 3128,
      "berlindung": 3129,
      "biasanya": 3130,
      "Betlehem": 3131,
      "pasukannya": 3132,
      "jumlahnya": 3133,
      "Menurut": 3134,
      "desak": 3135,
      "gungkan": 3136,
      "dasarkan": 3137,
      "bersetubuh": 3138,
      "Ambillah": 3139,
      "kesukaran": 3140,
      "memikirkan": 3141,
      "Pakai": 3142,
      "Wanita": 3143,
      "abu": 3144,
      "cela": 3145,
      "fat": 3146,
      "kemu": 3147,
      "mon": 3148,
      "sorak": 3149,
      "araku": 3150,
      "menentang": 3151,
      "budi": 3152,
      "asi": 3153,
      "bangsamu": 3154,
      "Sebelum": 3155,
      "menyerah": 3156,
      "kotamu": 3157,
      "apetak": 3158,
      "pandang": 3159,
      "ajaib": 3160,
      "merasakan": 3161,
      "liat": 3162,
      "banyaknya": 3163,
      "bertanggung": 3164,
      "menghen": 3165,
      "menguatkan": 3166,
      "kelima": 3167,
      "Fili": 3168,
      "baiki": 3169,
      "kehormatan": 3170,
      "berangkatlah": 3171,
      "kakinya": 3172,
      "sengsara": 3173,
      "menyanyikan": 3174,
      "watir": 3175,
      "khawatir": 3176,
      "pertemuan": 3177,
      "apetaka": 3178,
      "50": 3179,
      "En": 3180,
      "Ho": 3181,
      "Kat": 3182,
      "cari": 3183,
      "obek": 3184,
      "tal": 3185,
      "akat": 3186,
      "menajis": 3187,
      "inar": 3188,
      "berdusta": 3189,
      "kuil": 3190,
      "perl": 3191,
      "bulu": 3192,
      "urun": 3193,
      "menghadapi": 3194,
      "layak": 3195,
      "ungu": 3196,
      "melarang": 3197,
      "lupa": 3198,
      "embara": 3199,
      "esta": 3200,
      "pengg": 3201,
      "belalang": 3202,
      "ohkan": 3203,
      "dengarlah": 3204,
      "liar": 3205,
      "tanahnya": 3206,
      "menca": 3207,
      "musuhnya": 3208,
      "kirim": 3209,
      "rampas": 3210,
      "sungguhnya": 3211,
      "pegawainya": 3212,
      "mundur": 3213,
      "Gibea": 3214,
      "Sodom": 3215,
      "daftar": 3216,
      "Dua": 3217,
      "Kaleb": 3218,
      "Ahazia": 3219,
      "keuntungan": 3220,
      "Ahi": 3221,
      "Miz": 3222,
      "Natan": 3223,
      "Tengah": 3224,
      "cin": 3225,
      "esa": 3226,
      "go": 3227,
      "lumpuh": 3228,
      "tama": 3229,
      "tangg": 3230,
      "dile": 3231,
      "dilahirkan": 3232,
      "dihidupkan": 3233,
      "disediakan": 3234,
      "kesetia": 3235,
      "kedudu": 3236,
      "sebentar": 3237,
      "berpakaian": 3238,
      "sulam": 3239,
      "eli": 3240,
      "pati": 3241,
      "menyus": 3242,
      "doalah": 3243,
      "kotanya": 3244,
      "pendek": 3245,
      "masyhur": 3246,
      "ataupun": 3247,
      "merusak": 3248,
      "ikul": 3249,
      "mew": 3250,
      "manis": 3251,
      "Pernah": 3252,
      "masukkan": 3253,
      "Sidon": 3254,
      "rekan": 3255,
      "niat": 3256,
      "pura": 3257,
      "indahkan": 3258,
      "cacatnya": 3259,
      "Percayalah": 3260,
      "melaporkan": 3261,
      "Ama": 3262,
      "Bil": 3263,
      "Ker": 3264,
      "Tamar": 3265,
      "tru": 3266,
      "menjauh": 3267,
      "kepunya": 3268,
      "kanya": 3269,
      "set": 3270,
      "sesam": 3271,
      "selain": 3272,
      "ustru": 3273,
      "mengingat": 3274,
      "mengkhian": 3275,
      "terbunuh": 3276,
      "Alangkah": 3277,
      "Sebagian": 3278,
      "penasihat": 3279,
      "egah": 3280,
      "utama": 3281,
      "Persia": 3282,
      "semangat": 3283,
      "ayahku": 3284,
      "lihatkan": 3285,
      "miliknya": 3286,
      "berlari": 3287,
      "temba": 3288,
      "diserang": 3289,
      "menanyakan": 3290,
      "elakakan": 3291,
      "hanyalah": 3292,
      "Roma": 3293,
      "menarik": 3294,
      "bergabung": 3295,
      "nafsu": 3296,
      "Zebulon": 3297,
      "menajiskan": 3298,
      "Ay": 3299,
      "Ara": 3300,
      "Hu": 3301,
      "Kisah": 3302,
      "Ten": 3303,
      "hina": 3304,
      "op": 3305,
      "tanggung": 3306,
      "anjing": 3307,
      "dialah": 3308,
      "dipasang": 3309,
      "disampaikan": 3310,
      "mena": 3311,
      "menum": 3312,
      "mendahulu": 3313,
      "berduri": 3314,
      "tiada": 3315,
      "peram": 3316,
      "baja": 3317,
      "memikul": 3318,
      "ingkan": 3319,
      "bihi": 3320,
      "bisan": 3321,
      "terbuka": 3322,
      "bet": 3323,
      "Kubuat": 3324,
      "iram": 3325,
      "haram": 3326,
      "selamanya": 3327,
      "halaman": 3328,
      "pecah": 3329,
      "madu": 3330,
      "meratap": 3331,
      "siapakah": 3332,
      "mencem": 3333,
      "mencelakakan": 3334,
      "sukkan": 3335,
      "airnya": 3336,
      "tetapkan": 3337,
      "dataran": 3338,
      "antikan": 3339,
      "melebihi": 3340,
      "wartakan": 3341,
      "jerat": 3342,
      "Simei": 3343,
      "Belum": 3344,
      "seribu": 3345,
      "Sejarah": 3346,
      "Tentu": 3347,
      "Air": 3348,
      "He": 3349,
      "Hor": 3350,
      "Hada": 3351,
      "Lot": 3352,
      "Rak": 3353,
      "barisan": 3354,
      "ganya": 3355,
      "jal": 3356,
      "jari": 3357,
      "taman": 3358,
      "yung": 3359,
      "dig": 3360,
      "undang": 3361,
      "berbaik": 3362,
      "tirahat": 3363,
      "memat": 3364,
      "membas": 3365,
      "patah": 3366,
      "ihkan": 3367,
      "bangg": 3368,
      "Kubawa": 3369,
      "tempatnya": 3370,
      "Keesokan": 3371,
      "antar": 3372,
      "mengucap": 3373,
      "mendapati": 3374,
      "rahmat": 3375,
      "tunjukkan": 3376,
      "cabul": 3377,
      "bukti": 3378,
      "meniup": 3379,
      "satunya": 3380,
      "Silo": 3381,
      "Korah": 3382,
      "Sekalipun": 3383,
      "menempatkan": 3384,
      "semacam": 3385,
      "Amazia": 3386,
      "mengkhianati": 3387,
      "tembaga": 3388,
      "Bena": 3389,
      "Pi": 3390,
      "Ratu": 3391,
      "Rut": 3392,
      "Uzia": 3393,
      "Yak": 3394,
      "angkut": 3395,
      "akal": 3396,
      "diker": 3397,
      "dimusnahkan": 3398,
      "ditugaskan": 3399,
      "dada": 3400,
      "perlakukan": 3401,
      "menghidupkan": 3402,
      "kiri": 3403,
      "emukan": 3404,
      "ont": 3405,
      "apai": 3406,
      "asap": 3407,
      "pejuang": 3408,
      "mengadili": 3409,
      "adiran": 3410,
      "nabas": 3411,
      "malapetaka": 3412,
      "izin": 3413,
      "Buku": 3414,
      "Barnabas": 3415,
      "kehadiran": 3416,
      "pelayannya": 3417,
      "bongkar": 3418,
      "mengandung": 3419,
      "sahabat": 3420,
      "pembunuh": 3421,
      "Gibeon": 3422,
      "Barangsiapa": 3423,
      "mencuci": 3424,
      "Yoyakim": 3425,
      "Musuh": 3426,
      "Balak": 3427,
      "Ribka": 3428,
      "beristirahat": 3429,
      "Mar": 3430,
      "adat": 3431,
      "dela": 3432,
      "justru": 3433,
      "talah": 3434,
      "dite": 3435,
      "padaku": 3436,
      "seharusnya": 3437,
      "berdasarkan": 3438,
      "tau": 3439,
      "memak": 3440,
      "rasa": 3441,
      "biru": 3442,
      "tersembunyi": 3443,
      "menyiap": 3444,
      "pengajaran": 3445,
      "jij": 3446,
      "masyar": 3447,
      "kemari": 3448,
      "mengaw": 3449,
      "mengukur": 3450,
      "Semaya": 3451,
      "roda": 3452,
      "hasilnya": 3453,
      "dibuatnya": 3454,
      "diberitahukan": 3455,
      "Asyer": 3456,
      "timbul": 3457,
      "tingginya": 3458,
      "sekelilingnya": 3459,
      "obohkan": 3460,
      "Padahal": 3461,
      "Boas": 3462,
      "kotor": 3463,
      "kebesaran": 3464,
      "Mizpa": 3465,
      "banggakan": 3466,
      "masyarakat": 3467,
      "Ai": 3468,
      "Atas": 3469,
      "Ser": 3470,
      "cuma": 3471,
      "lau": 3472,
      "obus": 3473,
      "pon": 3474,
      "ruang": 3475,
      "akhar": 3476,
      "menjij": 3477,
      "kekeras": 3478,
      "berkuda": 3479,
      "berbahaya": 3480,
      "perhatikan": 3481,
      "usung": 3482,
      "katamu": 3483,
      "terbang": 3484,
      "ihon": 3485,
      "meli": 3486,
      "Segera": 3487,
      "Kuberi": 3488,
      "Yef": 3489,
      "apas": 3490,
      "esy": 3491,
      "Kehat": 3492,
      "rangka": 3493,
      "sendirilah": 3494,
      "tentram": 3495,
      "Perintah": 3496,
      "itnah": 3497,
      "milikmu": 3498,
      "diperlakukan": 3499,
      "timbun": 3500,
      "pinggang": 3501,
      "istrimu": 3502,
      "menampakkan": 3503,
      "mengeliling": 3504,
      "Pasti": 3505,
      "keluargamu": 3506,
      "bohong": 3507,
      "efod": 3508,
      "Gilgal": 3509,
      "Filipus": 3510,
      "penggarap": 3511,
      "Benaya": 3512,
      "Yakobus": 3513,
      "menjijikkan": 3514,
      "22": 3515,
      "30": 3516,
      "Asaf": 3517,
      "Gat": 3518,
      "Lang": 3519,
      "baris": 3520,
      "cemas": 3521,
      "ebut": 3522,
      "gent": 3523,
      "gemuk": 3524,
      "lolos": 3525,
      "pena": 3526,
      "anc": 3527,
      "dilah": 3528,
      "didiami": 3529,
      "meneng": 3530,
      "danau": 3531,
      "sebagaimana": 3532,
      "berupa": 3533,
      "berbenteng": 3534,
      "engg": 3535,
      "akanlah": 3536,
      "memban": 3537,
      "mengatur": 3538,
      "mengurban": 3539,
      "terangan": 3540,
      "patkah": 3541,
      "kamah": 3542,
      "dahan": 3543,
      "bekas": 3544,
      "menyimpan": 3545,
      "menyembelih": 3546,
      "karan": 3547,
      "karunia": 3548,
      "berilah": 3549,
      "Yebus": 3550,
      "paknya": 3551,
      "ayan": 3552,
      "hambanya": 3553,
      "antaramu": 3554,
      "persembahkannya": 3555,
      "gudang": 3556,
      "menerangkan": 3557,
      "Tiba": 3558,
      "Saulus": 3559,
      "menuntut": 3560,
      "mengerjakan": 3561,
      "reel": 3562,
      "aksikan": 3563,
      "kilat": 3564,
      "Terpujilah": 3565,
      "merencanakan": 3566,
      "Dapatkah": 3567,
      "jendela": 3568,
      "mencuri": 3569,
      "Yizreel": 3570,
      "Katakanlah": 3571,
      "Rakyat": 3572,
      "kekerasan": 3573,
      "Hur": 3574,
      "Ibunya": 3575,
      "Kasih": 3576,
      "Nab": 3577,
      "Sis": 3578,
      "Tinggal": 3579,
      "Zeru": 3580,
      "fitnah": 3581,
      "jek": 3582,
      "sakan": 3583,
      "sil": 3584,
      "ukir": 3585,
      "dipuji": 3586,
      "seg": 3587,
      "berpegang": 3588,
      "baginya": 3589,
      "membent": 3590,
      "memakannya": 3591,
      "menginjak": 3592,
      "terbaik": 3593,
      "terletak": 3594,
      "riba": 3595,
      "menying": 3596,
      "atilah": 3597,
      "Isakhar": 3598,
      "belajar": 3599,
      "memberikannya": 3600,
      "diadili": 3601,
      "sehat": 3602,
      "cikan": 3603,
      "matamu": 3604,
      "Persembah": 3605,
      "sandung": 3606,
      "Bersama": 3607,
      "Yoram": 3608,
      "membuk": 3609,
      "embunyikan": 3610,
      "memiliki": 3611,
      "mengeluh": 3612,
      "Marilah": 3613,
      "kutuklah": 3614,
      "pusaka": 3615,
      "istiwa": 3616,
      "adiknya": 3617,
      "merendahkan": 3618,
      "jenis": 3619,
      "tersebar": 3620,
      "Binatang": 3621,
      "kepentingan": 3622,
      "tenaga": 3623,
      "perlindung": 3624,
      "rampasan": 3625,
      "mendahului": 3626,
      "Hamat": 3627,
      "Kem": 3628,
      "Malam": 3629,
      "batang": 3630,
      "priba": 3631,
      "ze": 3632,
      "ditangkap": 3633,
      "payah": 3634,
      "sadar": 3635,
      "tawa": 3636,
      "tapan": 3637,
      "memben": 3638,
      "mengangkut": 3639,
      "ingkari": 3640,
      "gih": 3641,
      "umu": 3642,
      "bir": 3643,
      "termasyhur": 3644,
      "tetapan": 3645,
      "dulu": 3646,
      "lelah": 3647,
      "muji": 3648,
      "Kubiarkan": 3649,
      "Kupilih": 3650,
      "lupakan": 3651,
      "asaan": 3652,
      "haruslah": 3653,
      "kembalilah": 3654,
      "cium": 3655,
      "buahan": 3656,
      "olok": 3657,
      "Lea": 3658,
      "selamatkanlah": 3659,
      "barulah": 3660,
      "Suci": 3661,
      "sukacita": 3662,
      "pulanglah": 3663,
      "diperlukan": 3664,
      "Asyera": 3665,
      "Bangun": 3666,
      "Pengikut": 3667,
      "rantai": 3668,
      "penghinaan": 3669,
      "dibaptis": 3670,
      "gedung": 3671,
      "Nyanyian": 3672,
      "menyelesai": 3673,
      "Negeri": 3674,
      "kesetiaan": 3675,
      "kepunyaan": 3676,
      "menyiapkan": 3677,
      "membuktikan": 3678,
      "400": 3679,
      "Boleh": 3680,
      "Mati": 3681,
      "Saf": 3682,
      "Uria": 3683,
      "adu": 3684,
      "duhan": 3685,
      "dra": 3686,
      "ea": 3687,
      "ho": 3688,
      "napas": 3689,
      "rupa": 3690,
      "dip": 3691,
      "dijual": 3692,
      "dimasukkan": 3693,
      "menak": 3694,
      "sesama": 3695,
      "berhak": 3696,
      "sut": 3697,
      "perkar": 3698,
      "permohon": 3699,
      "jagalah": 3700,
      "arif": 3701,
      "bukanlah": 3702,
      "mengembali": 3703,
      "menggun": 3704,
      "mengembara": 3705,
      "ragu": 3706,
      "layu": 3707,
      "tert": 3708,
      "tersisa": 3709,
      "ungkan": 3710,
      "melam": 3711,
      "beda": 3712,
      "beserta": 3713,
      "kaulakukan": 3714,
      "isahkan": 3715,
      "tandus": 3716,
      "iru": 3717,
      "takwa": 3718,
      "peni": 3719,
      "penu": 3720,
      "hidupku": 3721,
      "hadad": 3722,
      "yatim": 3723,
      "berteng": 3724,
      "saudaraku": 3725,
      "haus": 3726,
      "pertanya": 3727,
      "disimpan": 3728,
      "terjadilah": 3729,
      "syarat": 3730,
      "gembir": 3731,
      "kalinya": 3732,
      "temurun": 3733,
      "suruhlah": 3734,
      "wasi": 3735,
      "malukan": 3736,
      "merampok": 3737,
      "hadir": 3738,
      "menyelidiki": 3739,
      "Benhadad": 3740,
      "mengharapkan": 3741,
      "Katanya": 3742,
      "mencabut": 3743,
      "lautan": 3744,
      "mengelilingi": 3745,
      "mengurbankan": 3746,
      "),": 3747,
      "Isai": 3748,
      "Malah": 3749,
      "Pan": 3750,
      "Paman": 3751,
      "Rama": 3752,
      "Tah": 3753,
      "cakan": 3754,
      "golongan": 3755,
      "runtuh": 3756,
      "waku": 3757,
      "dilapi": 3758,
      "mendesak": 3759,
      "ketetapan": 3760,
      "kandung": 3761,
      "seper": 3762,
      "bermalam": 3763,
      "berhadapan": 3764,
      "tajam": 3765,
      "elai": 3766,
      "membimbing": 3767,
      "membersihkan": 3768,
      "menghibur": 3769,
      "bicar": 3770,
      "tercinta": 3771,
      "Allahnya": 3772,
      "penyu": 3773,
      "pengusung": 3774,
      "jiwa": 3775,
      "dengarkanlah": 3776,
      "kembang": 3777,
      "mengajarkan": 3778,
      "menguburkan": 3779,
      "pelindung": 3780,
      "Dengarkan": 3781,
      "tunas": 3782,
      "terikat": 3783,
      "membaptis": 3784,
      "Terkutuklah": 3785,
      "darat": 3786,
      "cakap": 3787,
      "menambah": 3788,
      "cipta": 3789,
      "untuhan": 3790,
      "mahkota": 3791,
      "gulungan": 3792,
      "apuskan": 3793,
      "Kiryat": 3794,
      "dendam": 3795,
      "sore": 3796,
      "pimpinan": 3797,
      "dinding": 3798,
      "pribadi": 3799,
      "bertengkar": 3800,
      "penyuci": 3801,
      "Ag": 3802,
      "Batu": 3803,
      "Hil": 3804,
      "Kur": 3805,
      "Kad": 3806,
      "Lakukan": 3807,
      "Min": 3808,
      "Pohon": 3809,
      "Sy": 3810,
      "Sye": 3811,
      "Sihon": 3812,
      "eter": 3813,
      "mp": 3814,
      "mil": 3815,
      "zer": 3816,
      "zat": 3817,
      "akha": 3818,
      "diserta": 3819,
      "diizinkan": 3820,
      "diciptakan": 3821,
      "tuduhan": 3822,
      "kesatu": 3823,
      "kejar": 3824,
      "kesedih": 3825,
      "kekurangan": 3826,
      "seumur": 3827,
      "berbuah": 3828,
      "tawakan": 3829,
      "perasaan": 3830,
      "babi": 3831,
      "gagal": 3832,
      "bukannya": 3833,
      "tersandung": 3834,
      "tertawa": 3835,
      "mukanya": 3836,
      "bangsanya": 3837,
      "buatlah": 3838,
      "akainya": 3839,
      "pengalam": 3840,
      "bersen": 3841,
      "belaka": 3842,
      "pedagang": 3843,
      "pulau": 3844,
      "serangan": 3845,
      "merpati": 3846,
      "lipat": 3847,
      "kembalikan": 3848,
      "mandi": 3849,
      "murah": 3850,
      "gerak": 3851,
      "menyebut": 3852,
      "mampu": 3853,
      "boset": 3854,
      "sebelumnya": 3855,
      "rugi": 3856,
      "mengumumkan": 3857,
      "memeriksa": 3858,
      "menanam": 3859,
      "Berilah": 3860,
      "Timoti": 3861,
      "mencemarkan": 3862,
      "disertai": 3863,
      "Timotius": 3864,
      "Atau": 3865,
      "Bap": 3866,
      "Hesy": 3867,
      "capan": 3868,
      "coba": 3869,
      "fan": 3870,
      "fel": 3871,
      "lur": 3872,
      "mar": 3873,
      "rer": 3874,
      "rela": 3875,
      "salib": 3876,
      "tri": 3877,
      "we": 3878,
      "anglah": 3879,
      "diikat": 3880,
      "dibawanya": 3881,
      "ditetapkan": 3882,
      "kedatangan": 3883,
      "bermaksud": 3884,
      "kudus": 3885,
      "memakan": 3886,
      "membangkitkan": 3887,
      "memisahkan": 3888,
      "pis": 3889,
      "tertinggal": 3890,
      "terbit": 3891,
      "les": 3892,
      "puk": 3893,
      "tani": 3894,
      "iraukan": 3895,
      "harum": 3896,
      "omi": 3897,
      "antin": 3898,
      "Yoah": 3899,
      "Tujuh": 3900,
      "tengkaran": 3901,
      "cuc": 3902,
      "hendaknya": 3903,
      "memperbaiki": 3904,
      "perangkap": 3905,
      "daikata": 3906,
      "melewati": 3907,
      "Sudan": 3908,
      "Suku": 3909,
      "biskan": 3910,
      "tempa": 3911,
      "kehancur": 3912,
      "samudra": 3913,
      "keadaannya": 3914,
      "menggali": 3915,
      "Maakha": 3916,
      "menyucikan": 3917,
      "Silas": 3918,
      "Dewi": 3919,
      "sorai": 3920,
      "Merari": 3921,
      "memusnahkan": 3922,
      "menyusahkan": 3923,
      "meliputi": 3924,
      "gentar": 3925,
      "pertanyaan": 3926,
      "penyucian": 3927,
      "Hesybon": 3928,
      "20": 3929,
      "Adonia": 3930,
      "Datang": 3931,
      "Nama": 3932,
      "Pat": 3933,
      "Sur": 3934,
      "Saat": 3935,
      "bara": 3936,
      "gum": 3937,
      "hormat": 3938,
      "ler": 3939,
      "lum": 3940,
      "ring": 3941,
      "ubuat": 3942,
      "dibagi": 3943,
      "ditempat": 3944,
      "menjatuhkan": 3945,
      "kegembira": 3946,
      "kantong": 3947,
      "berbagai": 3948,
      "berdiam": 3949,
      "perhiasan": 3950,
      "badai": 3951,
      "eres": 3952,
      "imanya": 3953,
      "lebat": 3954,
      "dalya": 3955,
      "leher": 3956,
      "penjahat": 3957,
      "peman": 3958,
      "sering": 3959,
      "sendirian": 3960,
      "mengabulkan": 3961,
      "mengawasi": 3962,
      "olan": 3963,
      "keluarkan": 3964,
      "bakti": 3965,
      "ambillah": 3966,
      "membunuhnya": 3967,
      "memperingatkan": 3968,
      "Tiga": 3969,
      "tanganmu": 3970,
      "Bulan": 3971,
      "kenyang": 3972,
      "Naomi": 3973,
      "dipermalukan": 3974,
      "tampak": 3975,
      "telanjang": 3976,
      "kehendaki": 3977,
      "berikutnya": 3978,
      "ombongan": 3979,
      "tokoh": 3980,
      "Azarya": 3981,
      "Make": 3982,
      "rajanya": 3983,
      "Taatilah": 3984,
      "kelakuan": 3985,
      "dirampas": 3986,
      "gagah": 3987,
      "permintaan": 3988,
      "kedudukan": 3989,
      "penagih": 3990,
      "membentangkan": 3991,
      "Lakukanlah": 3992,
      "kesatuan": 3993,
      "pengalaman": 3994,
      "lereng": 3995,
      "Masakan": 3996,
      "Masih": 3997,
      "bor": 3998,
      "cerita": 3999,
      "cantik": 4000,
      "jana": 4001,
      "kr": 4002,
      "parah": 4003,
      "paruh": 4004,
      "sis": 4005,
      "any": 4006,
      "enai": 4007,
      "aksana": 4008,
      "didirikan": 4009,
      "ditawan": 4010,
      "embus": 4011,
      "amana": 4012,
      "keha": 4013,
      "kebiasa": 4014,
      "padam": 4015,
      "sejumlah": 4016,
      "sesat": 4017,
      "kutu": 4018,
      "susu": 4019,
      "perantara": 4020,
      "peristiwa": 4021,
      "pertengkaran": 4022,
      "mengger": 4023,
      "menggel": 4024,
      "ragi": 4025,
      "akut": 4026,
      "piatu": 4027,
      "terdiri": 4028,
      "kaulihat": 4029,
      "ilmu": 4030,
      "kok": 4031,
      "pencuri": 4032,
      "pantas": 4033,
      "dangkan": 4034,
      "belang": 4035,
      "sensus": 4036,
      "tahuilah": 4037,
      "kuran": 4038,
      "Kepal": 4039,
      "merem": 4040,
      "menguji": 4041,
      "gelisah": 4042,
      "menyebar": 4043,
      "rohani": 4044,
      "ormatilah": 4045,
      "keretanya": 4046,
      "mengancam": 4047,
      "delima": 4048,
      "untuhkan": 4049,
      "sengaja": 4050,
      "terhormat": 4051,
      "memetik": 4052,
      "Yunus": 4053,
      "Ezra": 4054,
      "kesesakan": 4055,
      "perlindungan": 4056,
      "menyelesaikan": 4057,
      "mpl": 4058,
      "Tembok": 4059,
      "baku": 4060,
      "ce": 4061,
      "cahkan": 4062,
      "kinkan": 4063,
      "las": 4064,
      "log": 4065,
      "ratu": 4066,
      "wali": 4067,
      "angus": 4068,
      "dikumpulkan": 4069,
      "dikirim": 4070,
      "kepercaya": 4071,
      "kebahagia": 4072,
      "kedelapan": 4073,
      "undi": 4074,
      "selebih": 4075,
      "berg": 4076,
      "berbakti": 4077,
      "kutukan": 4078,
      "enggu": 4079,
      "terlebih": 4080,
      "imalah": 4081,
      "tetangga": 4082,
      "ungsi": 4083,
      "Kuu": 4084,
      "Kubinasakan": 4085,
      "koman": 4086,
      "amuan": 4087,
      "dapati": 4088,
      "beli": 4089,
      "masak": 4090,
      "benaran": 4091,
      "merin": 4092,
      "ometer": 4093,
      "kurbankan": 4094,
      "matanya": 4095,
      "mencapai": 4096,
      "etaris": 4097,
      "pelita": 4098,
      "terhadapmu": 4099,
      "direbut": 4100,
      "sangka": 4101,
      "Kauberikan": 4102,
      "anggurnya": 4103,
      "tangis": 4104,
      "perangnya": 4105,
      "penyelamat": 4106,
      "Mengenai": 4107,
      "ruangan": 4108,
      "kilometer": 4109,
      "memerlukan": 4110,
      "perlukan": 4111,
      "mengandalkan": 4112,
      "pengawas": 4113,
      "hewan": 4114,
      "memasukkan": 4115,
      "abangnya": 4116,
      "periuk": 4117,
      "Gedalya": 4118,
      "istirahat": 4119,
      "mengundang": 4120,
      "Dewa": 4121,
      "diketahui": 4122,
      "meminjam": 4123,
      "Besoknya": 4124,
      "tangganya": 4125,
      "Datanglah": 4126,
      "kretaris": 4127,
      "kebiasaan": 4128,
      "selebihnya": 4129,
      "komandan": 4130,
      "Cepat": 4131,
      "Gu": 4132,
      "Hem": 4133,
      "Kembali": 4134,
      "Nazar": 4135,
      "Pang": 4136,
      "hin": 4137,
      "jaman": 4138,
      "lurus": 4139,
      "lorong": 4140,
      "mpal": 4141,
      "ulang": 4142,
      "ucapan": 4143,
      "ditulis": 4144,
      "menjel": 4145,
      "kebenaran": 4146,
      "segalanya": 4147,
      "timeter": 4148,
      "tabi": 4149,
      "elekh": 4150,
      "perawan": 4151,
      "membentuk": 4152,
      "busuk": 4153,
      "mengingkari": 4154,
      "umlah": 4155,
      "pit": 4156,
      "terpaksa": 4157,
      "ihak": 4158,
      "Yesua": 4159,
      "doaku": 4160,
      "kolam": 4161,
      "embalakan": 4162,
      "Mulia": 4163,
      "Mulai": 4164,
      "bersi": 4165,
      "hitam": 4166,
      "sentimeter": 4167,
      "tahukanlah": 4168,
      "diagungkan": 4169,
      "mengac": 4170,
      "mengabarkan": 4171,
      "Baesa": 4172,
      "sifat": 4173,
      "sehelai": 4174,
      "tanahmu": 4175,
      "setimpal": 4176,
      "percayakan": 4177,
      "menuai": 4178,
      "rakyatnya": 4179,
      "tenun": 4180,
      "dungu": 4181,
      "penyanyi": 4182,
      "sumbangan": 4183,
      "cabut": 4184,
      "yaring": 4185,
      "usahalah": 4186,
      "ibumu": 4187,
      "membaca": 4188,
      "menebus": 4189,
      "membakarnya": 4190,
      "kemenyan": 4191,
      "meramalkan": 4192,
      "Anti": 4193,
      "Gerson": 4194,
      "Sampaikanlah": 4195,
      "eraikan": 4196,
      "meluap": 4197,
      "pemiliknya": 4198,
      "wajiban": 4199,
      "memungut": 4200,
      "betina": 4201,
      "mematahkan": 4202,
      "ancaman": 4203,
      "Bangunlah": 4204,
      "Hilkia": 4205,
      "Nazaret": 4206,
      "tabiat": 4207,
      "500": 4208,
      "60": 4209,
      "Bat": 4210,
      "Bau": 4211,
      "Li": 4212,
      "Lagi": 4213,
      "Pesta": 4214,
      "San": 4215,
      "Sama": 4216,
      "bya": 4217,
      "nyaring": 4218,
      "obai": 4219,
      "wamu": 4220,
      "wol": 4221,
      "ditun": 4222,
      "dipimpin": 4223,
      "dikasihi": 4224,
      "kewajiban": 4225,
      "sehari": 4226,
      "kac": 4227,
      "sasa": 4228,
      "memihak": 4229,
      "jau": 4230,
      "arik": 4231,
      "busur": 4232,
      "rai": 4233,
      "terc": 4234,
      "terutama": 4235,
      "kik": 4236,
      "Sekiranya": 4237,
      "menyembunyikan": 4238,
      "Yeh": 4239,
      "lutut": 4240,
      "pengantin": 4241,
      "bersinar": 4242,
      "diajarkan": 4243,
      "baiklah": 4244,
      "utang": 4245,
      "naga": 4246,
      "mewartakan": 4247,
      "yatar": 4248,
      "mendengarnya": 4249,
      "Yotam": 4250,
      "besarnya": 4251,
      "dombanya": 4252,
      "curang": 4253,
      "Abyatar": 4254,
      "takuti": 4255,
      "Selanjutnya": 4256,
      "penuhi": 4257,
      "demikianlah": 4258,
      "membujuk": 4259,
      "Beginilah": 4260,
      "tubuhnya": 4261,
      "tingkat": 4262,
      "Yohanan": 4263,
      "keleda": 4264,
      "dingin": 4265,
      "maksudkan": 4266,
      "tujuan": 4267,
      "Pemimpin": 4268,
      "dinamakannya": 4269,
      "Roti": 4270,
      "ehkan": 4271,
      "Ayo": 4272,
      "memaksa": 4273,
      "timbunan": 4274,
      "Sisera": 4275,
      "mengembalikan": 4276,
      "100": 4277,
      "Elam": 4278,
      "Kis": 4279,
      "Laki": 4280,
      "Nini": 4281,
      "Salam": 4282,
      "Tolong": 4283,
      "Zo": 4284,
      "Zerah": 4285,
      "dorong": 4286,
      "fi": 4287,
      "ug": 4288,
      "ugi": 4289,
      "udara": 4290,
      "’.": 4291,
      "enak": 4292,
      "dikeluarkan": 4293,
      "tugu": 4294,
      "mendaki": 4295,
      "keke": 4296,
      "keenam": 4297,
      "unding": 4298,
      "kandang": 4299,
      "berinya": 4300,
      "berbalik": 4301,
      "bersedih": 4302,
      "berdoalah": 4303,
      "kudengar": 4304,
      "bay": 4305,
      "bayang": 4306,
      "mengindahkan": 4307,
      "gila": 4308,
      "impang": 4309,
      "tebal": 4310,
      "pukan": 4311,
      "puja": 4312,
      "bangkai": 4313,
      "menyaksikan": 4314,
      "diriku": 4315,
      "pandangan": 4316,
      "akiti": 4317,
      "bersenang": 4318,
      "halangi": 4319,
      "serak": 4320,
      "makanlah": 4321,
      "omb": 4322,
      "hambamu": 4323,
      "buran": 4324,
      "okhia": 4325,
      "menghiraukan": 4326,
      "pahit": 4327,
      "Abia": 4328,
      "diren": 4329,
      "Karmel": 4330,
      "disembelih": 4331,
      "Amnon": 4332,
      "Biar": 4333,
      "Naaman": 4334,
      "Kain": 4335,
      "dilemparkan": 4336,
      "menamakan": 4337,
      "ditaruh": 4338,
      "diucapkan": 4339,
      "Benar": 4340,
      "jerami": 4341,
      "Barangkali": 4342,
      "akibatkan": 4343,
      "rambutnya": 4344,
      "Kelu": 4345,
      "Yoyakhin": 4346,
      "pedulikan": 4347,
      "wajib": 4348,
      "menegakkan": 4349,
      "menabur": 4350,
      "tertindas": 4351,
      "kesedihan": 4352,
      "reruntuhan": 4353,
      "kehancuran": 4354,
      "kegembiraan": 4355,
      "perantaraan": 4356,
      "logam": 4357,
      "Antiokhia": 4358,
      "Niniwe": 4359,
      "600": 4360,
      "Bun": 4361,
      "Dag": 4362,
      "Ela": 4363,
      "Hiram": 4364,
      "Nil": 4365,
      "Pon": 4366,
      "Sar": 4367,
      "Tahu": 4368,
      "Yit": 4369,
      "Yair": 4370,
      "batan": 4371,
      "brak": 4372,
      "dor": 4373,
      "ehas": 4374,
      "sunat": 4375,
      "tela": 4376,
      "wanya": 4377,
      "wir": 4378,
      "’,": 4379,
      "”,": 4380,
      "angkasa": 4381,
      "akasia": 4382,
      "arak": 4383,
      "ditahan": 4384,
      "dicampur": 4385,
      "dikurbankan": 4386,
      "mendiami": 4387,
      "keji": 4388,
      "kebodoh": 4389,
      "keterangan": 4390,
      "dasi": 4391,
      "setinggi": 4392,
      "kait": 4393,
      "kue": 4394,
      "eluk": 4395,
      "perwir": 4396,
      "memah": 4397,
      "jaya": 4398,
      "mengerahkan": 4399,
      "katak": 4400,
      "gigi": 4401,
      "terbakar": 4402,
      "terkenal": 4403,
      "bejat": 4404,
      "Sebagai": 4405,
      "menyimpang": 4406,
      "Kuperintahkan": 4407,
      "berikanlah": 4408,
      "beritakan": 4409,
      "dobrak": 4410,
      "tanyalah": 4411,
      "huyung": 4412,
      "selanjutnya": 4413,
      "pendiri": 4414,
      "panji": 4415,
      "diadakan": 4416,
      "pembangunan": 4417,
      "kema": 4418,
      "anggaran": 4419,
      "lidah": 4420,
      "gugur": 4421,
      "mengulur": 4422,
      "tenggel": 4423,
      "pelih": 4424,
      "menuang": 4425,
      "menuduh": 4426,
      "raksasa": 4427,
      "memperlihatkan": 4428,
      "makam": 4429,
      "ramalan": 4430,
      "gaimanakah": 4431,
      "Bez": 4432,
      "Betapa": 4433,
      "membual": 4434,
      "tampil": 4435,
      "darahnya": 4436,
      "Abisai": 4437,
      "damping": 4438,
      "lembut": 4439,
      "badannya": 4440,
      "dikejar": 4441,
      "Pinehas": 4442,
      "malahan": 4443,
      "Kuserahkan": 4444,
      "gambar": 4445,
      "menyesal": 4446,
      "Goliat": 4447,
      "perlengkapannya": 4448,
      "mengomel": 4449,
      "sesamamu": 4450,
      "Yefta": 4451,
      "Langit": 4452,
      "Safan": 4453,
      "dilapisi": 4454,
      "Syeba": 4455,
      "Kepala": 4456,
      "Kembalilah": 4457,
      "200": 4458,
      "Darah": 4459,
      "Gaz": 4460,
      "Izin": 4461,
      "Jumlah": 4462,
      "Lu": 4463,
      "Mana": 4464,
      "Obed": 4465,
      "Salah": 4466,
      "Tentara": 4467,
      "beng": 4468,
      "bot": 4469,
      "cok": 4470,
      "gangnya": 4471,
      "kala": 4472,
      "lon": 4473,
      "pinya": 4474,
      "akhi": 4475,
      "disam": 4476,
      "disen": 4477,
      "alnya": 4478,
      "menoleh": 4479,
      "kana": 4480,
      "sekalian": 4481,
      "sepotong": 4482,
      "seandainya": 4483,
      "berte": 4484,
      "berjumlah": 4485,
      "berunding": 4486,
      "kulakukan": 4487,
      "tabah": 4488,
      "sudilah": 4489,
      "permula": 4490,
      "mempedulikan": 4491,
      "arilah": 4492,
      "mengakibatkan": 4493,
      "kataku": 4494,
      "piala": 4495,
      "pisah": 4496,
      "patahkan": 4497,
      "Sesungguhnya": 4498,
      "menyiksa": 4499,
      "Kujanjikan": 4500,
      "banding": 4501,
      "dosaku": 4502,
      "angannya": 4503,
      "enap": 4504,
      "susun": 4505,
      "datangi": 4506,
      "yakni": 4507,
      "mengajukan": 4508,
      "silah": 4509,
      "keluarlah": 4510,
      "mencegah": 4511,
      "menghitung": 4512,
      "geromb": 4513,
      "curkan": 4514,
      "gemuruh": 4515,
      "disiksa": 4516,
      "roboh": 4517,
      "mengejek": 4518,
      "menyebarkan": 4519,
      "empar": 4520,
      "belaskasihan": 4521,
      "temboknya": 4522,
      "Elkana": 4523,
      "menuntun": 4524,
      "ladangmu": 4525,
      "tambah": 4526,
      "rusa": 4527,
      "dilaksanakan": 4528,
      "menantu": 4529,
      "menggembalakan": 4530,
      "ditemukan": 4531,
      "lengkap": 4532,
      "bunyikan": 4533,
      "mulutnya": 4534,
      "dikepung": 4535,
      "terhitung": 4536,
      "Daun": 4537,
      "Melihat": 4538,
      "serigala": 4539,
      "singkat": 4540,
      "soal": 4541,
      "menyesatkan": 4542,
      "Yunani": 4543,
      "menghendaki": 4544,
      "diletakkan": 4545,
      "Keraja": 4546,
      "Pikir": 4547,
      "ontoh": 4548,
      "Persembahkanlah": 4549,
      "Tahun": 4550,
      "Kades": 4551,
      "Lagipula": 4552,
      "ugikan": 4553,
      "Izinkanlah": 4554,
      "Adam": 4555,
      "Em": 4556,
      "Ialah": 4557,
      "Lazar": 4558,
      "Put": 4559,
      "Pagi": 4560,
      "Walaupun": 4561,
      "cing": 4562,
      "esus": 4563,
      "far": 4564,
      "fas": 4565,
      "jala": 4566,
      "nai": 4567,
      "ranting": 4568,
      "zar": 4569,
      "angkuh": 4570,
      "dimak": 4571,
      "ditiup": 4572,
      "dilupakan": 4573,
      "aleel": 4574,
      "amarah": 4575,
      "menel": 4576,
      "menantikan": 4577,
      "mencium": 4578,
      "kela": 4579,
      "seya": 4580,
      "segel": 4581,
      "sekretaris": 4582,
      "berkeras": 4583,
      "berpesta": 4584,
      "beriman": 4585,
      "berbaris": 4586,
      "berkembang": 4587,
      "bergerak": 4588,
      "berbelaskasihan": 4589,
      "oran": 4590,
      "sad": 4591,
      "baptis": 4592,
      "mempersembahkannya": 4593,
      "jasa": 4594,
      "busan": 4595,
      "mengingatkan": 4596,
      "dakah": 4597,
      "bisu": 4598,
      "biji": 4599,
      "daripadaku": 4600,
      "teringat": 4601,
      "imelekh": 4602,
      "Sepanjang": 4603,
      "menyalakan": 4604,
      "hargai": 4605,
      "rajawali": 4606,
      "hijau": 4607,
      "janj": 4608,
      "pemer": 4609,
      "serupa": 4610,
      "pakat": 4611,
      "mengag": 4612,
      "persembahkanlah": 4613,
      "mencoba": 4614,
      "Peraturan": 4615,
      "pelanggaran": 4616,
      "bukankah": 4617,
      "dihias": 4618,
      "juru": 4619,
      "namamu": 4620,
      "Suara": 4621,
      "Baruk": 4622,
      "bentang": 4623,
      "Efesus": 4624,
      "tahankan": 4625,
      "siapkan": 4626,
      "Mezbah": 4627,
      "dilindungi": 4628,
      "dilarang": 4629,
      "saleh": 4630,
      "kasihanilah": 4631,
      "perjalanannya": 4632,
      "warga": 4633,
      "menyusul": 4634,
      "emukkan": 4635,
      "emukakan": 4636,
      "berkekurangan": 4637,
      "Hananya": 4638,
      "sepenuhnya": 4639,
      "Pelayan": 4640,
      "Mungkinkah": 4641,
      "Ramot": 4642,
      "Pernahkah": 4643,
      "Hewi": 4644,
      "Bapamu": 4645,
      "Makedonia": 4646,
      "kebahagiaan": 4647,
      "Batsyeba": 4648,
      "teladan": 4649,
      "kemasukan": 4650,
      "gerombolan": 4651,
      "Empat": 4652,
      "Lazarus": 4653,
      "dimakamkan": 4654,
      "Barukh": 4655,
      "18": 4656,
      "25": 4657,
      "Gel": 4658,
      "Hana": 4659,
      "Hagar": 4660,
      "Kurban": 4661,
      "Lib": 4662,
      "Mis": 4663,
      "Oho": 4664,
      "Sang": 4665,
      "contoh": 4666,
      "lihkan": 4667,
      "nubuat": 4668,
      "oah": 4669,
      "sim": 4670,
      "ukar": 4671,
      "akil": 4672,
      "dikenal": 4673,
      "dibangkitkan": 4674,
      "dipukul": 4675,
      "diberinya": 4676,
      "menawan": 4677,
      "papan": 4678,
      "kanannya": 4679,
      "sebesar": 4680,
      "segar": 4681,
      "bergel": 4682,
      "berpaling": 4683,
      "beragi": 4684,
      "bermimpi": 4685,
      "membelah": 4686,
      "arim": 4687,
      "ingan": 4688,
      "inggu": 4689,
      "lay": 4690,
      "daripadamu": 4691,
      "terbentang": 4692,
      "menyalahkan": 4693,
      "Kulihat": 4694,
      "hutang": 4695,
      "hartanya": 4696,
      "penya": 4697,
      "ngeri": 4698,
      "dezer": 4699,
      "belenggu": 4700,
      "keranjang": 4701,
      "memberitahu": 4702,
      "pembantu": 4703,
      "serahkan": 4704,
      "merana": 4705,
      "mertuanya": 4706,
      "merobek": 4707,
      "merobohkan": 4708,
      "mengajak": 4709,
      "anggang": 4710,
      "liakan": 4711,
      "ompat": 4712,
      "antinya": 4713,
      "musnah": 4714,
      "sihir": 4715,
      "Yoë": 4716,
      "lebihan": 4717,
      "agah": 4718,
      "menerimanya": 4719,
      "batin": 4720,
      "otam": 4721,
      "depannya": 4722,
      "Bersyeba": 4723,
      "uangnya": 4724,
      "memulihkan": 4725,
      "dewasa": 4726,
      "Darius": 4727,
      "rusak": 4728,
      "kerajaannya": 4729,
      "tuhan": 4730,
      "Jauh": 4731,
      "balikkan": 4732,
      "Mesulam": 4733,
      "kekuasaannya": 4734,
      "Andaikata": 4735,
      "Ingat": 4736,
      "tolonglah": 4737,
      "Pembaptis": 4738,
      "khianat": 4739,
      "perutnya": 4740,
      "akarnya": 4741,
      "teguran": 4742,
      "Dosa": 4743,
      "jaminan": 4744,
      "menjauhi": 4745,
      "Hadadezer": 4746,
      "segenap": 4747,
      "miliki": 4748,
      "meremehkan": 4749,
      "keledainya": 4750,
      "bayangan": 4751,
      "perwiranya": 4752,
      "mengulurkan": 4753,
      "pelihara": 4754,
      "mengagumkan": 4755,
      "Ad": 4756,
      "Gom": 4757,
      "Ize": 4758,
      "Nun": 4759,
      "Og": 4760,
      "Ra": 4761,
      "Yah": 4762,
      "aseya": 4763,
      "co": 4764,
      "cong": 4765,
      "dati": 4766,
      "dong": 4767,
      "po": 4768,
      "ditutup": 4769,
      "menjem": 4770,
      "mendamping": 4771,
      "kesen": 4772,
      "sebi": 4773,
      "sebaliknya": 4774,
      "separuh": 4775,
      "bersuk": 4776,
      "berjaga": 4777,
      "bertanyalah": 4778,
      "kagum": 4779,
      "oram": 4780,
      "kukatakan": 4781,
      "suaka": 4782,
      "sulit": 4783,
      "membongkar": 4784,
      "askan": 4785,
      "uhancurkan": 4786,
      "giring": 4787,
      "lag": 4788,
      "terpen": 4789,
      "unggang": 4790,
      "ihan": 4791,
      "melempari": 4792,
      "muak": 4793,
      "bedakan": 4794,
      "Kuperlakukan": 4795,
      "amuk": 4796,
      "petang": 4797,
      "diajar": 4798,
      "sampaikanlah": 4799,
      "pemberontak": 4800,
      "Ketahuilah": 4801,
      "kemam": 4802,
      "antaranya": 4803,
      "disembuhkan": 4804,
      "disalibkan": 4805,
      "terusnya": 4806,
      "jurusan": 4807,
      "mengepal": 4808,
      "menyeberang": 4809,
      "bungsu": 4810,
      "Yaf": 4811,
      "Yabes": 4812,
      "sukai": 4813,
      "diberikannya": 4814,
      "mengiring": 4815,
      "diperoleh": 4816,
      "laporan": 4817,
      "temannya": 4818,
      "leluhurnya": 4819,
      "pemerintahannya": 4820,
      "jumpa": 4821,
      "kawannya": 4822,
      "menebang": 4823,
      "osok": 4824,
      "memeras": 4825,
      "Reh": 4826,
      "warna": 4827,
      "Arnon": 4828,
      "binasaan": 4829,
      "Maksud": 4830,
      "rajamu": 4831,
      "Melalui": 4832,
      "banggaan": 4833,
      "Kiranya": 4834,
      "Salum": 4835,
      "berkobar": 4836,
      "memungkinkan": 4837,
      "Kiamat": 4838,
      "menyerahkannya": 4839,
      "perampok": 4840,
      "membasuh": 4841,
      "Nabal": 4842,
      "ukiran": 4843,
      "menakluk": 4844,
      "bicarakan": 4845,
      "Yoahas": 4846,
      "Surat": 4847,
      "ditempatkan": 4848,
      "anguskan": 4849,
      "Tahukah": 4850,
      "tenggelam": 4851,
      "permulaan": 4852,
      "layani": 4853,
      "Izebel": 4854,
      "kesenangan": 4855,
      "Dunia": 4856,
      "Eg": 4857,
      "Hel": 4858,
      "Hez": 4859,
      "Kum": 4860,
      "Lakh": 4861,
      "Makhir": 4862,
      "Obaja": 4863,
      "Sapi": 4864,
      "Yok": 4865,
      "ael": 4866,
      "fajar": 4867,
      "mai": 4868,
      "sisinya": 4869,
      "ziel": 4870,
      "erang": 4871,
      "ahut": 4872,
      "diingat": 4873,
      "ditaati": 4874,
      "dikeliling": 4875,
      "alai": 4876,
      "alon": 4877,
      "menjam": 4878,
      "kebing": 4879,
      "unjuk": 4880,
      "seiman": 4881,
      "seterusnya": 4882,
      "berkil": 4883,
      "berlangsung": 4884,
      "bertiup": 4885,
      "berniat": 4886,
      "berjumpa": 4887,
      "tirai": 4888,
      "pern": 4889,
      "pertahanan": 4890,
      "memalu": 4891,
      "membung": 4892,
      "urung": 4893,
      "asli": 4894,
      "menginginkan": 4895,
      "bibir": 4896,
      "terkemu": 4897,
      "dahi": 4898,
      "melanda": 4899,
      "melemparkan": 4900,
      "bangsaku": 4901,
      "Sepuluh": 4902,
      "Sebagaimana": 4903,
      "menyeret": 4904,
      "kom": 4905,
      "pengiri": 4906,
      "petani": 4907,
      "pedati": 4908,
      "kemas": 4909,
      "meruntuhkan": 4910,
      "mengabaikan": 4911,
      "palang": 4912,
      "dukun": 4913,
      "turunlah": 4914,
      "menceraiberaikan": 4915,
      "Perkataan": 4916,
      "kitlah": 4917,
      "lambang": 4918,
      "mengenakan": 4919,
      "Kaujanjikan": 4920,
      "Anakku": 4921,
      "malas": 4922,
      "ajarkan": 4923,
      "ajahi": 4924,
      "Harus": 4925,
      "alasnya": 4926,
      "dikatakannya": 4927,
      "teriakan": 4928,
      "awak": 4929,
      "tumpah": 4930,
      "Bangkitlah": 4931,
      "Maaseya": 4932,
      "piring": 4933,
      "liaan": 4934,
      "ratapan": 4935,
      "rajin": 4936,
      "Bagian": 4937,
      "darai": 4938,
      "iringi": 4939,
      "Hazael": 4940,
      "selirnya": 4941,
      "Pakailah": 4942,
      "kemuliaan": 4943,
      "goda": 4944,
      "mewah": 4945,
      "dikerjakan": 4946,
      "sepersepuluh": 4947,
      "Agama": 4948,
      "bersenjata": 4949,
      "Gaza": 4950,
      "akhiri": 4951,
      "kelapukan": 4952,
      "Gomora": 4953,
      "menaklukkan": 4954,
      "Lakhis": 4955,
      "dikelilingi": 4956,
      "memalukan": 4957,
      "terkemuka": 4958,
      ").": 4959,
      "40": 4960,
      "Fer": 4961,
      "Jalan": 4962,
      "Kam": 4963,
      "Mag": 4964,
      "Nadab": 4965,
      "Prajurit": 4966,
      "Peres": 4967,
      "Ste": 4968,
      "Selamat": 4969,
      "Yis": 4970,
      "balah": 4971,
      "cik": 4972,
      "dre": 4973,
      "fe": 4974,
      "hingga": 4975,
      "jamuan": 4976,
      "reg": 4977,
      "akmur": 4978,
      "dipen": 4979,
      "dipe": 4980,
      "dikembalikan": 4981,
      "dimaksudkan": 4982,
      "diiringi": 4983,
      "amannya": 4984,
      "induk": 4985,
      "keberani": 4986,
      "kebinasaan": 4987,
      "setan": 4988,
      "sekuat": 4989,
      "sesungguhnya": 4990,
      "berkali": 4991,
      "berker": 4992,
      "bermacam": 4993,
      "beruntung": 4994,
      "bernyanyi": 4995,
      "kad": 4996,
      "lahi": 4997,
      "kuberikan": 4998,
      "elup": 4999,
      "bau": 5000,
      "membanggakan": 5001,
      "mengantar": 5002,
      "tertidur": 5003,
      "tersebut": 5004,
      "terlepas": 5005,
      "dul": 5006,
      "ribut": 5007,
      "Kuselamatkan": 5008,
      "dod": 5009,
      "selis": 5010,
      "babel": 5011,
      "apala": 5012,
      "belukar": 5013,
      "tahuinya": 5014,
      "diaan": 5015,
      "puluhan": 5016,
      "mainkan": 5017,
      "kemakmur": 5018,
      "palem": 5019,
      "sarang": 5020,
      "omong": 5021,
      "hamil": 5022,
      "mencobai": 5023,
      "Mesop": 5024,
      "Perayaan": 5025,
      "besarkan": 5026,
      "menertawakan": 5027,
      "Dengar": 5028,
      "mendapatkan": 5029,
      "keluh": 5030,
      "Semes": 5031,
      "memperkuat": 5032,
      "gempa": 5033,
      "gaskan": 5034,
      "nampaknya": 5035,
      "Suatu": 5036,
      "kendi": 5037,
      "Ahia": 5038,
      "pikiranmu": 5039,
      "dibunuhnya": 5040,
      "membelok": 5041,
      "Jagalah": 5042,
      "ternakmu": 5043,
      "kukuh": 5044,
      "Anat": 5045,
      "aksanakannya": 5046,
      "enyapkan": 5047,
      "nurani": 5048,
      "lembu": 5049,
      "jerih": 5050,
      "Mikhal": 5051,
      "menyusu": 5052,
      "asihati": 5053,
      "penghuni": 5054,
      "kekayaannya": 5055,
      "urutan": 5056,
      "Kores": 5057,
      "pembela": 5058,
      "bapaknya": 5059,
      "Rahab": 5060,
      "disuruhnya": 5061,
      "akibatnya": 5062,
      "persegi": 5063,
      "persediaan": 5064,
      "Asdod": 5065,
      "diterkam": 5066,
      "menghentikan": 5067,
      "pondasi": 5068,
      "Zerubabel": 5069,
      "bersikap": 5070,
      "Yehoram": 5071,
      "ugerah": 5072,
      "botol": 5073,
      "Yoël": 5074,
      "otamia": 5075,
      "cocok": 5076,
      "mengepalai": 5077,
      "Haruskah": 5078,
      "Feris": 5079,
      "Stefan": 5080,
      "apalagi": 5081,
      "Mesopotamia": 5082,
      ".]": 5083,
      "Atal": 5084,
      "Burung": 5085,
      "Ek": 5086,
      "Garis": 5087,
      "Haran": 5088,
      "Masing": 5089,
      "Net": 5090,
      "Om": 5091,
      "Raya": 5092,
      "Susan": 5093,
      "ceritakan": 5094,
      "dera": 5095,
      "gah": 5096,
      "iti": 5097,
      "iba": 5098,
      "ira": 5099,
      "jalah": 5100,
      "jaran": 5101,
      "rim": 5102,
      "rata": 5103,
      "rasanya": 5104,
      "tarkan": 5105,
      "wah": 5106,
      "wenang": 5107,
      "didengar": 5108,
      "diperintah": 5109,
      "dipaksa": 5110,
      "dicabut": 5111,
      "keesokan": 5112,
      "seke": 5113,
      "sewaktu": 5114,
      "beran": 5115,
      "berku": 5116,
      "berterima": 5117,
      "berbentuk": 5118,
      "berpengalaman": 5119,
      "berlutut": 5120,
      "kaus": 5121,
      "suap": 5122,
      "perso": 5123,
      "perjamuan": 5124,
      "butan": 5125,
      "aum": 5126,
      "mengamuk": 5127,
      "bisul": 5128,
      "akui": 5129,
      "riel": 5130,
      "Sebenarnya": 5131,
      "menyombong": 5132,
      "jadilah": 5133,
      "embar": 5134,
      "apakan": 5135,
      "sepertiga": 5136,
      "penjuru": 5137,
      "pekuburan": 5138,
      "sampailah": 5139,
      "pemain": 5140,
      "merugikan": 5141,
      "ayu": 5142,
      "naung": 5143,
      "tinggallah": 5144,
      "jawablah": 5145,
      "dukung": 5146,
      "musuhan": 5147,
      "Yoza": 5148,
      "menghapuskan": 5149,
      "paskanlah": 5150,
      "dombamu": 5151,
      "situlah": 5152,
      "menerkam": 5153,
      "Tubuh": 5154,
      "hazi": 5155,
      "gersang": 5156,
      "apian": 5157,
      "lanjut": 5158,
      "Lepaskanlah": 5159,
      "Kauberi": 5160,
      "Kaujadikan": 5161,
      "anggurmu": 5162,
      "kuatannya": 5163,
      "Mahkamah": 5164,
      "menyetuju": 5165,
      "gilir": 5166,
      "pendudukmu": 5167,
      "ancurkannya": 5168,
      "haid": 5169,
      "bingkai": 5170,
      "barangsiapa": 5171,
      "Elya": 5172,
      "menunjuk": 5173,
      "tulisan": 5174,
      "tugasnya": 5175,
      "ladangnya": 5176,
      "timbangan": 5177,
      "kesah": 5178,
      "moyangnya": 5179,
      "Nahas": 5180,
      "dilempari": 5181,
      "urusan": 5182,
      "balok": 5183,
      "Gehazi": 5184,
      "jubahnya": 5185,
      "diliputi": 5186,
      "pasanglah": 5187,
      "Daerah": 5188,
      "garam": 5189,
      "bergaul": 5190,
      "mengutuki": 5191,
      "memusuhi": 5192,
      "dilihatnya": 5193,
      "Kaisarea": 5194,
      "Tobia": 5195,
      "berkompl": 5196,
      "rindu": 5197,
      "dipercayai": 5198,
      "asiakan": 5199,
      "Arab": 5200,
      "izinkanlah": 5201,
      "menengok": 5202,
      "Kemarahan": 5203,
      "penipu": 5204,
      "sisanya": 5205,
      "bakul": 5206,
      "merindukan": 5207,
      "meminjamkan": 5208,
      "dituntut": 5209,
      "menjemput": 5210,
      "bersukaria": 5211,
      "menjamah": 5212,
      "kebingungan": 5213,
      "Ekron": 5214,
      "berkomplot": 5215,
      "Asia": 5216,
      "Bere": 5217,
      "Bum": 5218,
      "Eden": 5219,
      "Itam": 5220,
      "Kini": 5221,
      "Kes": 5222,
      "Mil": 5223,
      "Mayat": 5224,
      "Pek": 5225,
      "Serah": 5226,
      "Tang": 5227,
      "Uza": 5228,
      "cun": 5229,
      "jin": 5230,
      "kang": 5231,
      "otan": 5232,
      "raman": 5233,
      "ramai": 5234,
      "sempat": 5235,
      "sinya": 5236,
      "upeti": 5237,
      "ukuran": 5238,
      "waris": 5239,
      "warisan": 5240,
      "atapi": 5241,
      "dicam": 5242,
      "diundang": 5243,
      "alin": 5244,
      "ambang": 5245,
      "inap": 5246,
      "ketidak": 5247,
      "ketent": 5248,
      "keyakin": 5249,
      "sepat": 5250,
      "seko": 5251,
      "sekutu": 5252,
      "beratan": 5253,
      "bersaudara": 5254,
      "bercahaya": 5255,
      "bergantung": 5256,
      "berbudi": 5257,
      "itus": 5258,
      "suam": 5259,
      "perselis": 5260,
      "memfitnah": 5261,
      "denganmu": 5262,
      "tertipu": 5263,
      "imon": 5264,
      "becak": 5265,
      "oncang": 5266,
      "Sebuah": 5267,
      "menyum": 5268,
      "Kul": 5269,
      "bantai": 5270,
      "akitan": 5271,
      "pengurus": 5272,
      "pengadu": 5273,
      "jikan": 5274,
      "jiwaku": 5275,
      "lalui": 5276,
      "sampah": 5277,
      "ayam": 5278,
      "pekik": 5279,
      "kurus": 5280,
      "mengagungkan": 5281,
      "tentangan": 5282,
      "Danau": 5283,
      "jawabnya": 5284,
      "mencam": 5285,
      "membuatnya": 5286,
      "pelajaran": 5287,
      "tengahmu": 5288,
      "berkatilah": 5289,
      "mempertahankan": 5290,
      "mulailah": 5291,
      "Berkat": 5292,
      "jurkan": 5293,
      "mengetahuinya": 5294,
      "Amos": 5295,
      "bingung": 5296,
      "Ahimelekh": 5297,
      "pungan": 5298,
      "tampan": 5299,
      "kesakitan": 5300,
      "kakimu": 5301,
      "siaplah": 5302,
      "pastilah": 5303,
      "menimbun": 5304,
      "teliti": 5305,
      "Nahor": 5306,
      "waskan": 5307,
      "menganiaya": 5308,
      "merekalah": 5309,
      "abangmu": 5310,
      "penghapus": 5311,
      "badanmu": 5312,
      "marilah": 5313,
      "mahkamah": 5314,
      "menyangkal": 5315,
      "neraka": 5316,
      "Hanan": 5317,
      "dibacakan": 5318,
      "mencukur": 5319,
      "Matanya": 5320,
      "tegak": 5321,
      "menghabiskan": 5322,
      "cerdik": 5323,
      "Horon": 5324,
      "jalannya": 5325,
      "mengawini": 5326,
      "dipakainya": 5327,
      "permohonanku": 5328,
      "melambangkan": 5329,
      "Gubernur": 5330,
      "Tolonglah": 5331,
      "Pondok": 5332,
      "Bezaleel": 5333,
      "Kerajaan": 5334,
      "mendampingi": 5335,
      "Yabesh": 5336,
      "Atalya": 5337,
      "Bumi": 5338,
      "Itamar": 5339,
      "Pekah": 5340,
      "ketentraman": 5341,
      "16": 5342,
      "300": 5343,
      "Aro": 5344,
      "Adakah": 5345,
      "Ga": 5346,
      "Hasa": 5347,
      "Hormatilah": 5348,
      "On": 5349,
      "Rimon": 5350,
      "Tri": 5351,
      "Titus": 5352,
      "Uziel": 5353,
      "Was": 5354,
      "jengg": 5355,
      "lanya": 5356,
      "nari": 5357,
      "opang": 5358,
      "pria": 5359,
      "ton": 5360,
      "usul": 5361,
      "wakil": 5362,
      "angka": 5363,
      "diken": 5364,
      "diinjak": 5365,
      "dikehendaki": 5366,
      "tuli": 5367,
      "emot": 5368,
      "menasihati": 5369,
      "ketahui": 5370,
      "kesepuluh": 5371,
      "kelebihan": 5372,
      "kebanggaan": 5373,
      "kekuatannya": 5374,
      "pau": 5375,
      "sea": 5376,
      "sedek": 5377,
      "berbisa": 5378,
      "berduka": 5379,
      "kutan": 5380,
      "perapian": 5381,
      "mengisi": 5382,
      "bik": 5383,
      "terg": 5384,
      "terbelah": 5385,
      "tertinggi": 5386,
      "tertentu": 5387,
      "wayat": 5388,
      "kisedek": 5389,
      "mulanya": 5390,
      "Sesuai": 5391,
      "Yearim": 5392,
      "doamu": 5393,
      "Isy": 5394,
      "kol": 5395,
      "bangsawan": 5396,
      "bersam": 5397,
      "hidangkan": 5398,
      "belantara": 5399,
      "kerjakan": 5400,
      "kursi": 5401,
      "medan": 5402,
      "mencela": 5403,
      "menghanguskan": 5404,
      "lambat": 5405,
      "percak": 5406,
      "percayalah": 5407,
      "paha": 5408,
      "ganas": 5409,
      "mengendarai": 5410,
      "semesta": 5411,
      "dihitung": 5412,
      "jarakan": 5413,
      "bangunlah": 5414,
      "menyeru": 5415,
      "Berdoalah": 5416,
      "jurang": 5417,
      "kuatkan": 5418,
      "menangisi": 5419,
      "Biarkan": 5420,
      "kapkan": 5421,
      "istananya": 5422,
      "Barak": 5423,
      "Pekerja": 5424,
      "umurnya": 5425,
      "pikirkan": 5426,
      "reda": 5427,
      "tambahan": 5428,
      "ibukota": 5429,
      "jumpai": 5430,
      "menewaskan": 5431,
      "Mefi": 5432,
      "Anda": 5433,
      "Refa": 5434,
      "cemburu": 5435,
      "catat": 5436,
      "tofel": 5437,
      "Pasukan": 5438,
      "menetapkan": 5439,
      "pembalasan": 5440,
      "Melkisedek": 5441,
      "Sarai": 5442,
      "kekasihku": 5443,
      "menegur": 5444,
      "Hatiku": 5445,
      "Akhis": 5446,
      "Hazor": 5447,
      "Pakaian": 5448,
      "Ahitofel": 5449,
      "Bilamana": 5450,
      "Marta": 5451,
      "Seraya": 5452,
      "Mintalah": 5453,
      "cucunya": 5454,
      "pemandangan": 5455,
      "anyilah": 5456,
      "menjelajahi": 5457,
      "Keluar": 5458,
      "Yitro": 5459,
      "kemampuan": 5460,
      "mengiringi": 5461,
      "pengirikan": 5462,
      "dipenjarakan": 5463,
      "Stefanus": 5464,
      "menyombongkan": 5465,
      "perselisihan": 5466,
      "jenggot": 5467,
      "Mefiboset": 5468,
      "13": 5469,
      "Ap": 5470,
      "Apal": 5471,
      "Makan": 5472,
      "Mikh": 5473,
      "Ner": 5474,
      "Sa": 5475,
      "Tentang": 5476,
      "Zim": 5477,
      "buhan": 5478,
      "gota": 5479,
      "juran": 5480,
      "keri": 5481,
      "megah": 5482,
      "pari": 5483,
      "sak": 5484,
      "ucapkan": 5485,
      "yun": 5486,
      "yon": 5487,
      "zara": 5488,
      "andar": 5489,
      "anias": 5490,
      "andalkan": 5491,
      "atih": 5492,
      "didi": 5493,
      "dicu": 5494,
      "diikuti": 5495,
      "ditanam": 5496,
      "tuah": 5497,
      "tuanmu": 5498,
      "tulan": 5499,
      "alun": 5500,
      "yam": 5501,
      "meniru": 5502,
      "menakut": 5503,
      "kebu": 5504,
      "kebe": 5505,
      "keperlu": 5506,
      "sekiranya": 5507,
      "berbunyi": 5508,
      "berbahagia": 5509,
      "bertentangan": 5510,
      "kasar": 5511,
      "perkawin": 5512,
      "persah": 5513,
      "baginda": 5514,
      "memeluk": 5515,
      "gail": 5516,
      "buzara": 5517,
      "menggantung": 5518,
      "mengakhiri": 5519,
      "ingkirkan": 5520,
      "terpilih": 5521,
      "melaksanakannya": 5522,
      "bejana": 5523,
      "menyakiti": 5524,
      "Yehi": 5525,
      "isir": 5526,
      "bana": 5527,
      "kotak": 5528,
      "kamulah": 5529,
      "bersandar": 5530,
      "erit": 5531,
      "datangnya": 5532,
      "masakan": 5533,
      "dianiaya": 5534,
      "Kejahat": 5535,
      "hatilah": 5536,
      "meratapi": 5537,
      "mengaum": 5538,
      "mengadukan": 5539,
      "sidang": 5540,
      "bintik": 5541,
      "rumahku": 5542,
      "turunkan": 5543,
      "abatan": 5544,
      "Perbuatan": 5545,
      "Tulis": 5546,
      "lantai": 5547,
      "kasihani": 5548,
      "menugaskan": 5549,
      "pakaianmu": 5550,
      "Berapa": 5551,
      "lihatlah": 5552,
      "memuaskan": 5553,
      "ramah": 5554,
      "ajal": 5555,
      "Yael": 5556,
      "kece": 5557,
      "adon": 5558,
      "menyambar": 5559,
      "kejahatannya": 5560,
      "diberitakan": 5561,
      "Siang": 5562,
      "tidurnya": 5563,
      "awal": 5564,
      "nyanyilah": 5565,
      "kakak": 5566,
      "kemahnya": 5567,
      "diaminya": 5568,
      "Terimalah": 5569,
      "Nebuzara": 5570,
      "pedangnya": 5571,
      "ternaknya": 5572,
      "ikhlas": 5573,
      "Abigail": 5574,
      "mengganggu": 5575,
      "ditindas": 5576,
      "cemer": 5577,
      "beratnya": 5578,
      "mangsa": 5579,
      "Tanpa": 5580,
      "kunjung": 5581,
      "istiadat": 5582,
      "Hermon": 5583,
      "Paduka": 5584,
      "sukarela": 5585,
      "Berikut": 5586,
      "berulang": 5587,
      "jelaskan": 5588,
      "Asael": 5589,
      "Timna": 5590,
      "sayapnya": 5591,
      "persepuluhan": 5592,
      "syukurlah": 5593,
      "Hosea": 5594,
      "Kasihan": 5595,
      "Tinggallah": 5596,
      "mujizat": 5597,
      "gembiralah": 5598,
      "tempayan": 5599,
      "Patung": 5600,
      "lumpur": 5601,
      "belanga": 5602,
      "kepercayaan": 5603,
      "Heman": 5604,
      "Kish": 5605,
      "kekejaman": 5606,
      "Daging": 5607,
      "bengkak": 5608,
      "bandingkan": 5609,
      "Oholi": 5610,
      "congkak": 5611,
      "Hezron": 5612,
      "Selamatkanlah": 5613,
      "Anatot": 5614,
      "Refaim": 5615,
      "Apalagi": 5616,
      "persahabatan": 5617,
      "Nebuzaradan": 5618,
      "15": 5619,
      "Adalah": 5620,
      "Aram": 5621,
      "Cinta": 5622,
      "Elis": 5623,
      "Ikut": 5624,
      "Kaul": 5625,
      "Kuhancurkan": 5626,
      "Raba": 5627,
      "Sab": 5628,
      "ebak": 5629,
      "fah": 5630,
      "gin": 5631,
      "heri": 5632,
      "ibarat": 5633,
      "jol": 5634,
      "oda": 5635,
      "prus": 5636,
      "rombongan": 5637,
      "sinar": 5638,
      "wer": 5639,
      "weng": 5640,
      "ywer": 5641,
      "ër": 5642,
      "dibu": 5643,
      "dias": 5644,
      "ditan": 5645,
      "dilan": 5646,
      "dibenci": 5647,
      "ditunjuk": 5648,
      "ditambah": 5649,
      "alar": 5650,
      "menjamin": 5651,
      "mendiaminya": 5652,
      "sebatang": 5653,
      "beranak": 5654,
      "bersukacita": 5655,
      "kapi": 5656,
      "tih": 5657,
      "tir": 5658,
      "persembunyi": 5659,
      "bad": 5660,
      "bagaimanakah": 5661,
      "jabatan": 5662,
      "mengham": 5663,
      "giat": 5664,
      "terbuat": 5665,
      "tertutup": 5666,
      "tergantung": 5667,
      "tercatat": 5668,
      "kijang": 5669,
      "ihu": 5670,
      "melempar": 5671,
      "bekal": 5672,
      "kaukatakan": 5673,
      "menyalibkan": 5674,
      "Kudengar": 5675,
      "Kusuruh": 5676,
      "lukannya": 5677,
      "hud": 5678,
      "iramkan": 5679,
      "Istri": 5680,
      "harganya": 5681,
      "ilat": 5682,
      "ilau": 5683,
      "kosa": 5684,
      "kokoh": 5685,
      "pentah": 5686,
      "pengganti": 5687,
      "pengaruh": 5688,
      "pengungsi": 5689,
      "pengkhianat": 5690,
      "bersem": 5691,
      "hila": 5692,
      "petuah": 5693,
      "pembawa": 5694,
      "matilah": 5695,
      "kemilau": 5696,
      "utar": 5697,
      "embalian": 5698,
      "arahi": 5699,
      "imaas": 5700,
      "menceraikan": 5701,
      "menghilang": 5702,
      "bakung": 5703,
      "percuma": 5704,
      "menerangi": 5705,
      "bata": 5706,
      "batalkan": 5707,
      "indasan": 5708,
      "Beragi": 5709,
      "Bersyukurlah": 5710,
      "keturunanku": 5711,
      "mengambilnya": 5712,
      "baskom": 5713,
      "rakyatmu": 5714,
      "salahkan": 5715,
      "upanya": 5716,
      "Sukot": 5717,
      "ampunilah": 5718,
      "usahakan": 5719,
      "usahamu": 5720,
      "gerbangnya": 5721,
      "Barat": 5722,
      "Eliezer": 5723,
      "Ahimaas": 5724,
      "punggung": 5725,
      "Siprus": 5726,
      "Begini": 5727,
      "Kapern": 5728,
      "tubuhku": 5729,
      "taatilah": 5730,
      "Zef": 5731,
      "diceraiberaikan": 5732,
      "Media": 5733,
      "aruhlah": 5734,
      "Henokh": 5735,
      "Ananias": 5736,
      "Seluruhnya": 5737,
      "Eliab": 5738,
      "Rehu": 5739,
      "lawanan": 5740,
      "Pengembalian": 5741,
      "Yonadab": 5742,
      "Hendaknya": 5743,
      "lengan": 5744,
      "tulangnya": 5745,
      "diuji": 5746,
      "kunci": 5747,
      "Namanya": 5748,
      "gulingkan": 5749,
      "Mikhael": 5750,
      "berkelahi": 5751,
      "menjebak": 5752,
      "menjalar": 5753,
      "menikah": 5754,
      "biarkannya": 5755,
      "Ahasywer": 5756,
      "memecahkan": 5757,
      "terlaksana": 5758,
      "Hiduplah": 5759,
      "cerdas": 5760,
      "menjauhkan": 5761,
      "sesamanya": 5762,
      "membasahi": 5763,
      "menenga": 5764,
      "enggut": 5765,
      "Huram": 5766,
      "Zeruya": 5767,
      "silakan": 5768,
      "silsilah": 5769,
      "ciptaan": 5770,
      "cobaan": 5771,
      "pisahkan": 5772,
      "kehausan": 5773,
      "Panggil": 5774,
      "Sanheri": 5775,
      "tercerai": 5776,
      "Libna": 5777,
      "memberitahukannya": 5778,
      "sebidang": 5779,
      "Eglon": 5780,
      "berkilauan": 5781,
      "regu": 5782,
      "Omri": 5783,
      "menyetujui": 5784,
      "Aroër": 5785,
      "Isyboset": 5786,
      "parit": 5787,
      "Yehiel": 5788,
      "cemerlang": 5789,
      "Kapernaum": 5790,
      "Ahasyweros": 5791,
      "Sanherib": 5792,
      "32": 5793,
      "45": 5794,
      "Celaka": 5795,
      "Dis": 5796,
      "Fes": 5797,
      "Gan": 5798,
      "Gadi": 5799,
      "Gog": 5800,
      "Hikmat": 5801,
      "Kayu": 5802,
      "Mau": 5803,
      "Mir": 5804,
      "Of": 5805,
      "Satu": 5806,
      "Tunjuk": 5807,
      "Wah": 5808,
      "Yi": 5809,
      "Zela": 5810,
      "deru": 5811,
      "gaku": 5812,
      "hent": 5813,
      "huru": 5814,
      "ibah": 5815,
      "ling": 5816,
      "ne": 5817,
      "oles": 5818,
      "pkan": 5819,
      "pangan": 5820,
      "simpan": 5821,
      "tor": 5822,
      "tari": 5823,
      "entah": 5824,
      "dita": 5825,
      "dipin": 5826,
      "dijatuh": 5827,
      "dikutuk": 5828,
      "dibunyikan": 5829,
      "menju": 5830,
      "inari": 5831,
      "kesu": 5832,
      "kelahir": 5833,
      "kesejahtera": 5834,
      "keduanya": 5835,
      "undangan": 5836,
      "unjukan": 5837,
      "sepasang": 5838,
      "sebangsamu": 5839,
      "bermu": 5840,
      "bersuka": 5841,
      "berkh": 5842,
      "berhubungan": 5843,
      "berpihak": 5844,
      "bersusah": 5845,
      "bercela": 5846,
      "kainya": 5847,
      "sas": 5848,
      "sapu": 5849,
      "elaku": 5850,
      "engk": 5851,
      "perbu": 5852,
      "perhati": 5853,
      "basan": 5854,
      "memindahkan": 5855,
      "membicarakan": 5856,
      "menghalangi": 5857,
      "menghargai": 5858,
      "menginap": 5859,
      "biak": 5860,
      "daripadanya": 5861,
      "tertangkap": 5862,
      "tegas": 5863,
      "tetangganya": 5864,
      "tebusan": 5865,
      "bahu": 5866,
      "kis": 5867,
      "dahannya": 5868,
      "melantik": 5869,
      "jujuran": 5870,
      "puku": 5871,
      "menyobek": 5872,
      "Kuda": 5873,
      "Kukasihi": 5874,
      "karnya": 5875,
      "beritahukanlah": 5876,
      "banteng": 5877,
      "koyak": 5878,
      "takkannya": 5879,
      "apinya": 5880,
      "eser": 5881,
      "penindasan": 5882,
      "hidung": 5883,
      "harian": 5884,
      "yakim": 5885,
      "halnya": 5886,
      "kerus": 5887,
      "pedih": 5888,
      "serban": 5889,
      "benang": 5890,
      "bendanya": 5891,
      "Kehila": 5892,
      "merumput": 5893,
      "utkan": 5894,
      "lita": 5895,
      "ombang": 5896,
      "sib": 5897,
      "naungan": 5898,
      "burkannya": 5899,
      "wibawa": 5900,
      "manna": 5901,
      "mencelup": 5902,
      "Perlakukanlah": 5903,
      "gulita": 5904,
      "lampau": 5905,
      "percayai": 5906,
      "had": 5907,
      "kepalamu": 5908,
      "kelak": 5909,
      "Kaulakukan": 5910,
      "rakh": 5911,
      "gemp": 5912,
      "Berusahalah": 5913,
      "pesisir": 5914,
      "syen": 5915,
      "Amasa": 5916,
      "Amram": 5917,
      "meletakkannya": 5918,
      "Elyakim": 5919,
      "kumpulan": 5920,
      "gunakan": 5921,
      "guntur": 5922,
      "guncang": 5923,
      "Pencip": 5924,
      "kejahatanmu": 5925,
      "kalangan": 5926,
      "diperbudak": 5927,
      "pikirannya": 5928,
      "rencan": 5929,
      "mengirimkan": 5930,
      "niel": 5931,
      "lapangan": 5932,
      "dagangan": 5933,
      "tumbuhan": 5934,
      "buktinya": 5935,
      "melacur": 5936,
      "Terhadap": 5937,
      "Ternak": 5938,
      "telan": 5939,
      "teling": 5940,
      "keadaanmu": 5941,
      "menampar": 5942,
      "kekuatanku": 5943,
      "memancar": 5944,
      "potongan": 5945,
      "memainkan": 5946,
      "mangsanya": 5947,
      "Benih": 5948,
      "harapkan": 5949,
      "Hukuman": 5950,
      "topan": 5951,
      "sengit": 5952,
      "Padang": 5953,
      "Malkia": 5954,
      "alangkah": 5955,
      "hubungkan": 5956,
      "guling": 5957,
      "Tirza": 5958,
      "bekalan": 5959,
      "Percuma": 5960,
      "gambus": 5961,
      "singgah": 5962,
      "mencurahkan": 5963,
      "lapis": 5964,
      "Gosyen": 5965,
      "seruanku": 5966,
      "lemaknya": 5967,
      "Ziba": 5968,
      "rindang": 5969,
      "Hadad": 5970,
      "membantah": 5971,
      "Nabot": 5972,
      "menggunakan": 5973,
      "kehabisan": 5974,
      "menggerakkan": 5975,
      "kebodohan": 5976,
      "Gelagah": 5977,
      "Jauhilah": 5978,
      "keberanian": 5979,
      "kemakmuran": 5980,
      "persoalan": 5981,
      "Elyasib": 5982,
      "pengaduan": 5983,
      "menyerupai": 5984,
      "Zimri": 5985,
      "keperluan": 5986,
      "Elisama": 5987,
      "pentahbisan": 5988,
      "Festus": 5989,
      "hentinya": 5990,
      "dijatuhi": 5991,
      "perbudakan": 5992,
      "17": 5993,
      "700": 5994,
      "Abin": 5995,
      "Aduh": 5996,
      "Bara": 5997,
      "Bani": 5998,
      "Bunyi": 5999,
      "Er": 6000,
      "Emas": 6001,
      "Ehud": 6002,
      "Hormat": 6003,
      "Hazar": 6004,
      "Ikat": 6005,
      "Jahat": 6006,
      "Masa": 6007,
      "Rez": 6008,
      "Rayakan": 6009,
      "Span": 6010,
      "Sadu": 6011,
      "Tunggu": 6012,
      "Tiap": 6013,
      "Us": 6014,
      "Yar": 6015,
      "Zik": 6016,
      "abuk": 6017,
      "ila": 6018,
      "kong": 6019,
      "lak": 6020,
      "lalat": 6021,
      "matang": 6022,
      "neli": 6023,
      "pias": 6024,
      "uasa": 6025,
      "yol": 6026,
      "akangi": 6027,
      "dijaga": 6028,
      "didatangkan": 6029,
      "dipersembahkannya": 6030,
      "dipuja": 6031,
      "digiring": 6032,
      "tutan": 6033,
      "emak": 6034,
      "emam": 6035,
      "menda": 6036,
      "mendo": 6037,
      "meninggi": 6038,
      "menanti": 6039,
      "menjanjikan": 6040,
      "menembus": 6041,
      "menunggang": 6042,
      "indar": 6043,
      "kelam": 6044,
      "ketahuan": 6045,
      "pasar": 6046,
      "ungi": 6047,
      "dad": 6048,
      "setahun": 6049,
      "segan": 6050,
      "sepakat": 6051,
      "berusahalah": 6052,
      "bernaung": 6053,
      "kuti": 6054,
      "kuberi": 6055,
      "sajalah": 6056,
      "peran": 6057,
      "perbekalan": 6058,
      "memakainya": 6059,
      "mempercayakan": 6060,
      "membedakan": 6061,
      "usakkan": 6062,
      "asar": 6063,
      "mengungsi": 6064,
      "mengemukakan": 6065,
      "mengira": 6066,
      "rayakan": 6067,
      "racun": 6068,
      "akulah": 6069,
      "tersung": 6070,
      "terhibur": 6071,
      "terbukti": 6072,
      "impun": 6073,
      "tekan": 6074,
      "wadah": 6075,
      "dutun": 6076,
      "patok": 6077,
      "lezat": 6078,
      "alut": 6079,
      "melompat": 6080,
      "melenyapkan": 6081,
      "muliakan": 6082,
      "riwayat": 6083,
      "Kut": 6084,
      "Kubunuh": 6085,
      "Kuambil": 6086,
      "Kuberkati": 6087,
      "Kuusir": 6088,
      "Kupanggil": 6089,
      "beribu": 6090,
      "Yedutun": 6091,
      "luap": 6092,
      "Mula": 6093,
      "pengen": 6094,
      "pengha": 6095,
      "danglah": 6096,
      "bersalin": 6097,
      "belerang": 6098,
      "bagiannya": 6099,
      "halang": 6100,
      "halal": 6101,
      "gaib": 6102,
      "kerabat": 6103,
      "Keempat": 6104,
      "mintalah": 6105,
      "keme": 6106,
      "kemar": 6107,
      "kemal": 6108,
      "meremukkan": 6109,
      "makananmu": 6110,
      "litan": 6111,
      "liaran": 6112,
      "saran": 6113,
      "sarung": 6114,
      "yata": 6115,
      "antang": 6116,
      "mataku": 6117,
      "siaga": 6118,
      "menghancurkannya": 6119,
      "abor": 6120,
      "Perwira": 6121,
      "surut": 6122,
      "pengikutnya": 6123,
      "cup": 6124,
      "langkah": 6125,
      "otbah": 6126,
      "keliru": 6127,
      "Kaubiarkan": 6128,
      "memperoleh": 6129,
      "diseret": 6130,
      "ajari": 6131,
      "Ampun": 6132,
      "empuh": 6133,
      "hadapannya": 6134,
      "bosan": 6135,
      "Manoah": 6136,
      "Barzi": 6137,
      "diberitahu": 6138,
      "rebah": 6139,
      "rebana": 6140,
      "penguburan": 6141,
      "bawahnya": 6142,
      "tinggikan": 6143,
      "membelakangi": 6144,
      "diceritakan": 6145,
      "perkataanku": 6146,
      "indungilah": 6147,
      "kamarnya": 6148,
      "desanya": 6149,
      "menanami": 6150,
      "dagingnya": 6151,
      "obor": 6152,
      "diubah": 6153,
      "Maaf": 6154,
      "adikmu": 6155,
      "pengepungan": 6156,
      "Korneli": 6157,
      "Beritahukanlah": 6158,
      "mahal": 6159,
      "bersedia": 6160,
      "tarot": 6161,
      "diambilnya": 6162,
      "Ladang": 6163,
      "berkeliaran": 6164,
      "Zaitun": 6165,
      "ziarah": 6166,
      "nafkah": 6167,
      "meminum": 6168,
      "besoknya": 6169,
      "tombaknya": 6170,
      "daftarkan": 6171,
      "penjagaan": 6172,
      "kelakuanmu": 6173,
      "Angkat": 6174,
      "Anggota": 6175,
      "Nyanyikanlah": 6176,
      "kesebelas": 6177,
      "menyeleweng": 6178,
      "menghasut": 6179,
      "pandanglah": 6180,
      "cincin": 6181,
      "goyah": 6182,
      "menyembelihnya": 6183,
      "membenarkan": 6184,
      "perkaranya": 6185,
      "permohonan": 6186,
      "gembirakan": 6187,
      "kandungan": 6188,
      "pengusungnya": 6189,
      "pemanah": 6190,
      "borok": 6191,
      "penyelamatku": 6192,
      "mengacaukan": 6193,
      "ditaruhnya": 6194,
      "Bunuh": 6195,
      "janjinya": 6196,
      "poki": 6197,
      "ketidakadilan": 6198,
      "Hasabya": 6199,
      "Pekerjaan": 6200,
      "Apolos": 6201,
      "keributan": 6202,
      "Kejahatan": 6203,
      "Kasihanilah": 6204,
      "Cintailah": 6205,
      "menengadah": 6206,
      "Panggillah": 6207,
      "Miryam": 6208,
      "Tunjukkanlah": 6209,
      "menjulang": 6210,
      "kesulitan": 6211,
      "Spanyol": 6212,
      "Saduki": 6213,
      "Ziklag": 6214,
      "tersungkur": 6215,
      "Kornelius": 6216,
      "Api": 6217,
      "Ana": 6218,
      "Adar": 6219,
      "Bah": 6220,
      "Berita": 6221,
      "Dor": 6222,
      "Del": 6223,
      "Gezer": 6224,
      "Hin": 6225,
      "Hef": 6226,
      "Kapan": 6227,
      "Mere": 6228,
      "Meri": 6229,
      "Nik": 6230,
      "Ot": 6231,
      "Par": 6232,
      "Poti": 6233,
      "Ren": 6234,
      "Raj": 6235,
      "Rekh": 6236,
      "Sad": 6237,
      "Zur": 6238,
      "cerah": 6239,
      "ceraiberaikan": 6240,
      "eka": 6241,
      "edah": 6242,
      "eje": 6243,
      "hormatilah": 6244,
      "kuhan": 6245,
      "lat": 6246,
      "res": 6247,
      "utus": 6248,
      "yo": 6249,
      "aniaya": 6250,
      "erat": 6251,
      "angga": 6252,
      "angkuhan": 6253,
      "ahannya": 6254,
      "dium": 6255,
      "didapat": 6256,
      "diminta": 6257,
      "dibongkar": 6258,
      "ditenun": 6259,
      "dipisahkan": 6260,
      "ditinggikan": 6261,
      "alti": 6262,
      "kesudah": 6263,
      "paginya": 6264,
      "una": 6265,
      "une": 6266,
      "unus": 6267,
      "sekelompok": 6268,
      "berangan": 6269,
      "beres": 6270,
      "berlalu": 6271,
      "berant": 6272,
      "beruang": 6273,
      "berbangga": 6274,
      "bernyala": 6275,
      "bermain": 6276,
      "berpura": 6277,
      "berbohong": 6278,
      "berbeda": 6279,
      "bertunas": 6280,
      "berwarna": 6281,
      "kapak": 6282,
      "tiara": 6283,
      "kuali": 6284,
      "kukur": 6285,
      "kusampaikan": 6286,
      "tad": 6287,
      "engaja": 6288,
      "enggam": 6289,
      "permuka": 6290,
      "perkabung": 6291,
      "akanya": 6292,
      "bajak": 6293,
      "memikat": 6294,
      "urahan": 6295,
      "mengkhususkan": 6296,
      "umun": 6297,
      "umuni": 6298,
      "terbagi": 6299,
      "tertim": 6300,
      "teratur": 6301,
      "terjerat": 6302,
      "terimalah": 6303,
      "terhuyung": 6304,
      "tekukur": 6305,
      "lepaskan": 6306,
      "letakkan": 6307,
      "anyaman": 6308,
      "unggangnya": 6309,
      "tahbiskan": 6310,
      "tahsas": 6311,
      "melimpah": 6312,
      "muk": 6313,
      "mutiara": 6314,
      "Sek": 6315,
      "menyi": 6316,
      "Kuasa": 6317,
      "Kukumpulkan": 6318,
      "Kutunjukkan": 6319,
      "iks": 6320,
      "menjadikannya": 6321,
      "anaim": 6322,
      "alahkannya": 6323,
      "dirikannya": 6324,
      "pertim": 6325,
      "pengiring": 6326,
      "berser": 6327,
      "entingkan": 6328,
      "bungi": 6329,
      "kerj": 6330,
      "pemabuk": 6331,
      "majikan": 6332,
      "kemau": 6333,
      "hatikannya": 6334,
      "mera": 6335,
      "luarnya": 6336,
      "makanannya": 6337,
      "sikap": 6338,
      "bilamana": 6339,
      "antarkan": 6340,
      "buahku": 6341,
      "musibah": 6342,
      "mandul": 6343,
      "Yope": 6344,
      "satukan": 6345,
      "mencatat": 6346,
      "murtad": 6347,
      "bolehkan": 6348,
      "terhadapku": 6349,
      "terhadapnya": 6350,
      "pemimpinnya": 6351,
      "putar": 6352,
      "keluhan": 6353,
      "dihkan": 6354,
      "menuangkan": 6355,
      "Kaupilih": 6356,
      "memperhatikannya": 6357,
      "gempar": 6358,
      "disengaja": 6359,
      "gelas": 6360,
      "Mahli": 6361,
      "mengepul": 6362,
      "tuntutan": 6363,
      "barangkali": 6364,
      "kauminta": 6365,
      "sucikan": 6366,
      "Sesudahnya": 6367,
      "kenyata": 6368,
      "tulislah": 6369,
      "Peor": 6370,
      "menolongnya": 6371,
      "bulir": 6372,
      "bebaskanlah": 6373,
      "kalung": 6374,
      "tunggal": 6375,
      "pengukur": 6376,
      "pekerjaannya": 6377,
      "kesal": 6378,
      "kesanggu": 6379,
      "kerajaanku": 6380,
      "membajak": 6381,
      "membacakan": 6382,
      "misalnya": 6383,
      "membelinya": 6384,
      "Ternyata": 6385,
      "diceraikan": 6386,
      "Nebo": 6387,
      "pedangmu": 6388,
      "penyakitnya": 6389,
      "kesalahanku": 6390,
      "menamakannya": 6391,
      "tunjukkanlah": 6392,
      "menandakan": 6393,
      "Andre": 6394,
      "memasuk": 6395,
      "sahut": 6396,
      "mulutmu": 6397,
      "Masuk": 6398,
      "Artahsas": 6399,
      "Geba": 6400,
      "kuncup": 6401,
      "untungnya": 6402,
      "tongkatnya": 6403,
      "Silakan": 6404,
      "hantu": 6405,
      "merebutnya": 6406,
      "pembelaku": 6407,
      "Berikanlah": 6408,
      "melukai": 6409,
      "Habel": 6410,
      "Hagai": 6411,
      "Boz": 6412,
      "tadinya": 6413,
      "kekasihmu": 6414,
      "kepentinganmu": 6415,
      "terlantar": 6416,
      "Angin": 6417,
      "Ezer": 6418,
      "Zif": 6419,
      "dirampok": 6420,
      "Kenas": 6421,
      "mengoles": 6422,
      "taklukkan": 6423,
      "jejak": 6424,
      "dilepaskan": 6425,
      "kedudukannya": 6426,
      "Arauna": 6427,
      "Husai": 6428,
      "peramal": 6429,
      "pondok": 6430,
      "Yefune": 6431,
      "Pandanglah": 6432,
      "cucumu": 6433,
      "lehernya": 6434,
      "celah": 6435,
      "bergetar": 6436,
      "Kuutus": 6437,
      "kacau": 6438,
      "dorongan": 6439,
      "memahami": 6440,
      "memahaminya": 6441,
      "disentuh": 6442,
      "bertekad": 6443,
      "menelan": 6444,
      "sadarlah": 6445,
      "membungkus": 6446,
      "fehad": 6447,
      "berkerumun": 6448,
      "Serahkanlah": 6449,
      "sepatu": 6450,
      "suamimu": 6451,
      "Makanan": 6452,
      "Ikutlah": 6453,
      "melemparkannya": 6454,
      "bersemangat": 6455,
      "Zelafehad": 6456,
      "berkhotbah": 6457,
      "Rayakanlah": 6458,
      "mendoakan": 6459,
      "meninggikan": 6460,
      "kemalangan": 6461,
      "Ampunilah": 6462,
      "Barzilai": 6463,
      "Meriba": 6464,
      "Rekhab": 6465,
      "ejekan": 6466,
      "berantakan": 6467,
      "perkabungan": 6468,
      "kenyataan": 6469,
      "kesanggupan": 6470,
      "Andreas": 6471,
      "Artahsasta": 6472,
      "14": 6473,
      "66": 6474,
      "70": 6475,
      "80": 6476,
      "Abang": 6477,
      "Ajar": 6478,
      "Adon": 6479,
      "Cu": 6480,
      "Deli": 6481,
      "Enak": 6482,
      "Enam": 6483,
      "Kawan": 6484,
      "Kre": 6485,
      "Lam": 6486,
      "Lama": 6487,
      "Nenek": 6488,
      "Peg": 6489,
      "Sambil": 6490,
      "Té": 6491,
      "Tum": 6492,
      "Zikh": 6493,
      "ac": 6494,
      "bkan": 6495,
      "cahan": 6496,
      "celakalah": 6497,
      "dron": 6498,
      "ed": 6499,
      "guruh": 6500,
      "junya": 6501,
      "lar": 6502,
      "luh": 6503,
      "lmu": 6504,
      "nel": 6505,
      "obo": 6506,
      "ofa": 6507,
      "por": 6508,
      "sya": 6509,
      "siksa": 6510,
      "tat": 6511,
      "tara": 6512,
      "ui": 6513,
      "uel": 6514,
      "erot": 6515,
      "enjak": 6516,
      "ahabat": 6517,
      "atah": 6518,
      "diti": 6519,
      "dimulai": 6520,
      "dinas": 6521,
      "diganti": 6522,
      "dibantu": 6523,
      "ditakuti": 6524,
      "dipenuhi": 6525,
      "dipatahkan": 6526,
      "diakui": 6527,
      "dioles": 6528,
      "dihubungkan": 6529,
      "didaftarkan": 6530,
      "disucikan": 6531,
      "emya": 6532,
      "emet": 6533,
      "menjelaskan": 6534,
      "menantang": 6535,
      "keu": 6536,
      "keta": 6537,
      "kedapat": 6538,
      "keten": 6539,
      "keahli": 6540,
      "kedamaian": 6541,
      "kekalah": 6542,
      "kekac": 6543,
      "pasi": 6544,
      "padalah": 6545,
      "undian": 6546,
      "sehati": 6547,
      "sebelas": 6548,
      "sedemikian": 6549,
      "sekeras": 6550,
      "sebaiknya": 6551,
      "sepersepuluhan": 6552,
      "berpenyakit": 6553,
      "berdagang": 6554,
      "bermurah": 6555,
      "berguncang": 6556,
      "tibanya": 6557,
      "kubangun": 6558,
      "kusuruh": 6559,
      "sab": 6560,
      "suaranya": 6561,
      "bayar": 6562,
      "memati": 6563,
      "memutar": 6564,
      "mementingkan": 6565,
      "gaji": 6566,
      "terlihat": 6567,
      "terpuji": 6568,
      "terjun": 6569,
      "terje": 6570,
      "terdaftar": 6571,
      "melinta": 6572,
      "ripa": 6573,
      "dalena": 6574,
      "Seba": 6575,
      "Sefa": 6576,
      "Kuangkat": 6577,
      "Kudus": 6578,
      "Kutinggalkan": 6579,
      "Kuberitahukan": 6580,
      "berilmu": 6581,
      "Yedaya": 6582,
      "doanya": 6583,
      "tania": 6584,
      "taneel": 6585,
      "ikalau": 6586,
      "iksanya": 6587,
      "kalianlah": 6588,
      "pendusta": 6589,
      "penghibur": 6590,
      "Telah": 6591,
      "debar": 6592,
      "dewi": 6593,
      "senjat": 6594,
      "sendirinya": 6595,
      "ohong": 6596,
      "keramat": 6597,
      "pecahan": 6598,
      "pulihkan": 6599,
      "kurannya": 6600,
      "masanya": 6601,
      "seram": 6602,
      "Diberkatilah": 6603,
      "liang": 6604,
      "licik": 6605,
      "sibuk": 6606,
      "buahmu": 6607,
      "bunuhlah": 6608,
      "besarlah": 6609,
      "gug": 6610,
      "agak": 6611,
      "menguburkannya": 6612,
      "pahi": 6613,
      "curahkan": 6614,
      "langlah": 6615,
      "mengenali": 6616,
      "semarak": 6617,
      "miel": 6618,
      "sangkutan": 6619,
      "kelon": 6620,
      "tengahnya": 6621,
      "jarinya": 6622,
      "pintunya": 6623,
      "mempermainkan": 6624,
      "depanmu": 6625,
      "Jadilah": 6626,
      "Mahanaim": 6627,
      "menyedihkan": 6628,
      "Amarya": 6629,
      "Selalu": 6630,
      "perbuatanku": 6631,
      "kaumnya": 6632,
      "nampak": 6633,
      "berhalamu": 6634,
      "bagaimanapun": 6635,
      "Elifas": 6636,
      "Betul": 6637,
      "Betania": 6638,
      "tungku": 6639,
      "pekerjaanmu": 6640,
      "biaya": 6641,
      "Kauh": 6642,
      "kehinaan": 6643,
      "ibuku": 6644,
      "tubuhmu": 6645,
      "tumpas": 6646,
      "kawanmu": 6647,
      "kakek": 6648,
      "batasnya": 6649,
      "menekan": 6650,
      "pingsan": 6651,
      "pinggangnya": 6652,
      "kematiannya": 6653,
      "nantikan": 6654,
      "Neh": 6655,
      "Netaneel": 6656,
      "menimpakan": 6657,
      "Elisabet": 6658,
      "pejabatnya": 6659,
      "waspada": 6660,
      "kesalahannya": 6661,
      "menilai": 6662,
      "Pasyhur": 6663,
      "Penglihatan": 6664,
      "Penggoda": 6665,
      "Penguasa": 6666,
      "Jawabnya": 6667,
      "ditolak": 6668,
      "Pulanglah": 6669,
      "balai": 6670,
      "membayarnya": 6671,
      "hilanglah": 6672,
      "Gesur": 6673,
      "topi": 6674,
      "lenyaplah": 6675,
      "trompetnya": 6676,
      "upahnya": 6677,
      "cangkir": 6678,
      "meluas": 6679,
      "membagikan": 6680,
      "Askelon": 6681,
      "tersedia": 6682,
      "daunnya": 6683,
      "biarpun": 6684,
      "Yizhar": 6685,
      "Tomas": 6686,
      "ditertawakan": 6687,
      "tegakkan": 6688,
      "Keni": 6689,
      "menghadang": 6690,
      "menyusun": 6691,
      "Heber": 6692,
      "mematuhi": 6693,
      "ditebus": 6694,
      "kotoran": 6695,
      "Langsung": 6696,
      "perkaraku": 6697,
      "Agripa": 6698,
      "direncanakan": 6699,
      "Yafet": 6700,
      "Rehob": 6701,
      "Magdalena": 6702,
      "menyusui": 6703,
      "Netofa": 6704,
      "ibadah": 6705,
      "Yozabad": 6706,
      "tergolong": 6707,
      "percakapan": 6708,
      "kebutuhan": 6709,
      "perkawinan": 6710,
      "Tulislah": 6711,
      "dipindahkan": 6712,
      "kesejahteraan": 6713,
      "Abinadab": 6714,
      "piaskan": 6715,
      "mendadak": 6716,
      "Hinom": 6717,
      "Hefer": 6718,
      "Otniel": 6719,
      "permukaan": 6720,
      "menyiarkan": 6721,
      "Delila": 6722,
      "Téman": 6723,
      "Zikhri": 6724,
      "kedapatan": 6725,
      "kekacauan": 6726,
      "mematikan": 6727,
      "Sefaca": 6728,
      "23": 6729,
      "Abed": 6730,
      "Ajaran": 6731,
      "Bak": 6732,
      "Bela": 6733,
      "Deb": 6734,
      "Eber": 6735,
      "Esy": 6736,
      "Fel": 6737,
      "Gam": 6738,
      "Kun": 6739,
      "Lel": 6740,
      "Lima": 6741,
      "Mata": 6742,
      "Nim": 6743,
      "Sya": 6744,
      "Sun": 6745,
      "Tar": 6746,
      "Tabor": 6747,
      "Wila": 6748,
      "Yab": 6749,
      "Zora": 6750,
      "aim": 6751,
      "cangkan": 6752,
      "demam": 6753,
      "himpun": 6754,
      "jakannya": 6755,
      "minggu": 6756,
      "rum": 6757,
      "rupanya": 6758,
      "tolak": 6759,
      "zir": 6760,
      "anugerah": 6761,
      "ahkannya": 6762,
      "arwah": 6763,
      "dise": 6764,
      "dijalan": 6765,
      "dialami": 6766,
      "digantung": 6767,
      "diinginkan": 6768,
      "dibersihkan": 6769,
      "dibeli": 6770,
      "dilalui": 6771,
      "ditelan": 6772,
      "menem": 6773,
      "menja": 6774,
      "mendobrak": 6775,
      "menopang": 6776,
      "kesabar": 6777,
      "kejujuran": 6778,
      "seba": 6779,
      "selagi": 6780,
      "seharga": 6781,
      "yangkan": 6782,
      "berhati": 6783,
      "bersabar": 6784,
      "bercampur": 6785,
      "bercakap": 6786,
      "berpisah": 6787,
      "kabulkan": 6788,
      "itub": 6789,
      "kuasanya": 6790,
      "say": 6791,
      "sudi": 6792,
      "suri": 6793,
      "engkapi": 6794,
      "perbaikan": 6795,
      "perbeda": 6796,
      "permai": 6797,
      "bagal": 6798,
      "memb": 6799,
      "mempert": 6800,
      "gading": 6801,
      "nyawanya": 6802,
      "butir": 6803,
      "mengem": 6804,
      "menggembirakan": 6805,
      "giginya": 6806,
      "pilu": 6807,
      "tukar": 6808,
      "teram": 6809,
      "terangkat": 6810,
      "tercan": 6811,
      "terpisah": 6812,
      "imat": 6813,
      "tekun": 6814,
      "duyun": 6815,
      "untukku": 6816,
      "adai": 6817,
      "mudanya": 6818,
      "muatan": 6819,
      "jubkan": 6820,
      "menyahut": 6821,
      "Kuper": 6822,
      "Kudatangkan": 6823,
      "Kuceraiberaikan": 6824,
      "Yeiel": 6825,
      "lubung": 6826,
      "iksalah": 6827,
      "koa": 6828,
      "kompl": 6829,
      "olehnya": 6830,
      "esan": 6831,
      "penindas": 6832,
      "panci": 6833,
      "pengrajin": 6834,
      "Tekoa": 6835,
      "deus": 6836,
      "bersarang": 6837,
      "eritan": 6838,
      "oham": 6839,
      "entangkan": 6840,
      "atasmu": 6841,
      "halamannya": 6842,
      "pulkanlah": 6843,
      "pincang": 6844,
      "benjol": 6845,
      "Ketiga": 6846,
      "Kekaya": 6847,
      "Kedar": 6848,
      "Kedes": 6849,
      "kemurahan": 6850,
      "nego": 6851,
      "Baana": 6852,
      "turuti": 6853,
      "nazir": 6854,
      "yatakan": 6855,
      "muslihat": 6856,
      "mani": 6857,
      "persembahannya": 6858,
      "siasat": 6859,
      "menghapus": 6860,
      "Mesakh": 6861,
      "dudukinya": 6862,
      "menerobo": 6863,
      "Tugas": 6864,
      "hawa": 6865,
      "geram": 6866,
      "pelana": 6867,
      "pelajari": 6868,
      "masuklah": 6869,
      "sempit": 6870,
      "pemimpinmu": 6871,
      "kasihku": 6872,
      "dirah": 6873,
      "jarak": 6874,
      "disaksikan": 6875,
      "dekatnya": 6876,
      "robek": 6877,
      "basah": 6878,
      "memuja": 6879,
      "gelombang": 6880,
      "pernahkah": 6881,
      "Selom": 6882,
      "menyapu": 6883,
      "buhkan": 6884,
      "tenteram": 6885,
      "inginkannya": 6886,
      "Yaezer": 6887,
      "melepas": 6888,
      "kencang": 6889,
      "kecantikan": 6890,
      "bisik": 6891,
      "Pedang": 6892,
      "menolongmu": 6893,
      "pangkal": 6894,
      "diperbaiki": 6895,
      "tunggu": 6896,
      "Efron": 6897,
      "Kaus": 6898,
      "membangunkan": 6899,
      "oskan": 6900,
      "dicem": 6901,
      "daratan": 6902,
      "memeriksanya": 6903,
      "Abihu": 6904,
      "telapak": 6905,
      "pemuja": 6906,
      "kesalahanmu": 6907,
      "menikam": 6908,
      "mengantuk": 6909,
      "menganjurkan": 6910,
      "menangislah": 6911,
      "Akhan": 6912,
      "balasan": 6913,
      "sekelilingmu": 6914,
      "kulitnya": 6915,
      "abad": 6916,
      "eritakanlah": 6917,
      "budaknya": 6918,
      "mayatnya": 6919,
      "ujungnya": 6920,
      "dasarnya": 6921,
      "buanglah": 6922,
      "majulah": 6923,
      "tutupnya": 6924,
      "mimpinya": 6925,
      "peribahasa": 6926,
      "dibakarnya": 6927,
      "penghormatan": 6928,
      "belakangnya": 6929,
      "afik": 6930,
      "upahan": 6931,
      "hias": 6932,
      "tepati": 6933,
      "Hanun": 6934,
      "menjilat": 6935,
      "Penduduknya": 6936,
      "Timur": 6937,
      "Kele": 6938,
      "gesa": 6939,
      "gegas": 6940,
      "nasibnya": 6941,
      "karib": 6942,
      "dituang": 6943,
      "dituai": 6944,
      "Aminadab": 6945,
      "derap": 6946,
      "Matahari": 6947,
      "berkokok": 6948,
      "Akhaya": 6949,
      "Balai": 6950,
      "gagak": 6951,
      "Kira": 6952,
      "Kidron": 6953,
      "Neger": 6954,
      "permintaanmu": 6955,
      "ditebang": 6956,
      "Tinggalkanlah": 6957,
      "Persembahan": 6958,
      "Bolehkah": 6959,
      "menakjubkan": 6960,
      "melampiaskan": 6961,
      "markas": 6962,
      "tempaan": 6963,
      "laskar": 6964,
      "bergoncang": 6965,
      "tangisan": 6966,
      "Hemor": 6967,
      "Libia": 6968,
      "serakah": 6969,
      "direndahkan": 6970,
      "Yairus": 6971,
      "disenangi": 6972,
      "menantunya": 6973,
      "bergelora": 6974,
      "Kambing": 6975,
      "sekop": 6976,
      "Berkatalah": 6977,
      "Mikhmas": 6978,
      "adonan": 6979,
      "Sabda": 6980,
      "Rehuel": 6981,
      "Gadis": 6982,
      "Maukah": 6983,
      "perhatian": 6984,
      "Barabas": 6985,
      "Potifar": 6986,
      "Sadrakh": 6987,
      "diumumkan": 6988,
      "tertimpa": 6989,
      "berserakan": 6990,
      "kemauannya": 6991,
      "Masuklah": 6992,
      "Kreta": 6993,
      "nelayan": 6994,
      "keahlian": 6995,
      "kekalahan": 6996,
      "sabda": 6997,
      "Abednego": 6998,
      "Debora": 6999,
      "Feliks": 7000,
      "Sunem": 7001,
      "Wilayah": 7002,
      "tercantum": 7003,
      "komplotan": 7004,
      "Abel": 7005,
      "Dik": 7006,
      "Hak": 7007,
      "Ido": 7008,
      "Ikuti": 7009,
      "Jan": 7010,
      "Jikalau": 7011,
      "Mam": 7012,
      "Maut": 7013,
      "Pemu": 7014,
      "Paran": 7015,
      "Sen": 7016,
      "Tal": 7017,
      "Tel": 7018,
      "Uang": 7019,
      "Zoba": 7020,
      "cel": 7021,
      "cung": 7022,
      "cil": 7023,
      "gor": 7024,
      "his": 7025,
      "hancurkan": 7026,
      "kon": 7027,
      "lo": 7028,
      "laksanakan": 7029,
      "oa": 7030,
      "sembelih": 7031,
      "ubah": 7032,
      "ukurannya": 7033,
      "yaki": 7034,
      "yinya": 7035,
      "’?": 7036,
      "ancam": 7037,
      "enyak": 7038,
      "encanakan": 7039,
      "dim": 7040,
      "dipa": 7041,
      "disel": 7042,
      "diben": 7043,
      "diminum": 7044,
      "dituju": 7045,
      "diduduki": 7046,
      "dijatuhkan": 7047,
      "dipadam": 7048,
      "dimasak": 7049,
      "disiapkan": 7050,
      "dikuatkan": 7051,
      "dibandingkan": 7052,
      "dimuliakan": 7053,
      "tuel": 7054,
      "ampaikan": 7055,
      "mentaat": 7056,
      "mendorong": 7057,
      "mendatangi": 7058,
      "menjumpai": 7059,
      "intus": 7060,
      "kesuka": 7061,
      "keping": 7062,
      "kepandai": 7063,
      "kesembilan": 7064,
      "keberatan": 7065,
      "keangkuhan": 7066,
      "sesaat": 7067,
      "seisi": 7068,
      "secepat": 7069,
      "sebangsanya": 7070,
      "berkas": 7071,
      "berturut": 7072,
      "berbau": 7073,
      "berkeluh": 7074,
      "bercocok": 7075,
      "bermusuhan": 7076,
      "berlapis": 7077,
      "kaf": 7078,
      "tikar": 7079,
      "tipis": 7080,
      "tibalah": 7081,
      "kudanya": 7082,
      "sayalah": 7083,
      "tawar": 7084,
      "perus": 7085,
      "perde": 7086,
      "bapti": 7087,
      "memberkat": 7088,
      "memburu": 7089,
      "memarahi": 7090,
      "nyawaku": 7091,
      "bupati": 7092,
      "iasi": 7093,
      "urim": 7094,
      "mengikut": 7095,
      "mengusahakan": 7096,
      "ingkat": 7097,
      "gido": 7098,
      "gilan": 7099,
      "umus": 7100,
      "pikul": 7101,
      "tersendiri": 7102,
      "terbesar": 7103,
      "terkena": 7104,
      "impul": 7105,
      "tegur": 7106,
      "duan": 7107,
      "lesu": 7108,
      "letih": 7109,
      "ihkanlah": 7110,
      "tahil": 7111,
      "juangan": 7112,
      "rip": 7113,
      "riang": 7114,
      "onia": 7115,
      "Seb": 7116,
      "Seharusnya": 7117,
      "Sedangkan": 7118,
      "Setibanya": 7119,
      "kaubawa": 7120,
      "menyeg": 7121,
      "Kubuang": 7122,
      "pundak": 7123,
      "isyar": 7124,
      "tandanya": 7125,
      "tanding": 7126,
      "ikah": 7127,
      "Istr": 7128,
      "Iskari": 7129,
      "ilangkan": 7130,
      "takaran": 7131,
      "jiwamu": 7132,
      "sendi": 7133,
      "engkaulah": 7134,
      "hala": 7135,
      "kurma": 7136,
      "pembicara": 7137,
      "pembagian": 7138,
      "masalah": 7139,
      "Kebe": 7140,
      "Kekuasa": 7141,
      "Kekuatan": 7142,
      "merang": 7143,
      "mengaduh": 7144,
      "Diam": 7145,
      "Dibon": 7146,
      "ayot": 7147,
      "Bagaimanakah": 7148,
      "Yerah": 7149,
      "sarangnya": 7150,
      "duklah": 7151,
      "mustahil": 7152,
      "mandor": 7153,
      "menghajar": 7154,
      "pasak": 7155,
      "mengukuh": 7156,
      "pahkan": 7157,
      "gandar": 7158,
      "kirinya": 7159,
      "angkatlah": 7160,
      "mirip": 7161,
      "kasihmu": 7162,
      "kepalaku": 7163,
      "dirobohkan": 7164,
      "sanjung": 7165,
      "Semak": 7166,
      "memperkosa": 7167,
      "mempersalahkan": 7168,
      "disingkirkan": 7169,
      "Beria": 7170,
      "Berani": 7171,
      "Bernyanyilah": 7172,
      "Berhala": 7173,
      "Tiang": 7174,
      "tanganku": 7175,
      "hasrat": 7176,
      "baskanlah": 7177,
      "memuakkan": 7178,
      "rahim": 7179,
      "ajarilah": 7180,
      "ekornya": 7181,
      "tunangan": 7182,
      "jauhkan": 7183,
      "penye": 7184,
      "Tidakkah": 7185,
      "berdirilah": 7186,
      "cacing": 7187,
      "Penjaga": 7188,
      "Pegawa": 7189,
      "Ahitub": 7190,
      "pangku": 7191,
      "panggilan": 7192,
      "Beor": 7193,
      "berjalanlah": 7194,
      "istriku": 7195,
      "mengerumuni": 7196,
      "rekannya": 7197,
      "tamunya": 7198,
      "arapkan": 7199,
      "nyenyak": 7200,
      "larilah": 7201,
      "rukun": 7202,
      "membangunnya": 7203,
      "Zebah": 7204,
      "Harim": 7205,
      "nyatalah": 7206,
      "Mese": 7207,
      "Megido": 7208,
      "menimba": 7209,
      "Abiram": 7210,
      "diserahi": 7211,
      "jelita": 7212,
      "kekuatanmu": 7213,
      "merampoki": 7214,
      "uling": 7215,
      "muna": 7216,
      "munafik": 7217,
      "sujudlah": 7218,
      "Jawablah": 7219,
      "obalah": 7220,
      "ditemu": 7221,
      "nasihatku": 7222,
      "Gerar": 7223,
      "balat": 7224,
      "menyelu": 7225,
      "catatan": 7226,
      "mulutku": 7227,
      "jerumus": 7228,
      "panahnya": 7229,
      "pengetahu": 7230,
      "ditimbang": 7231,
      "memasak": 7232,
      "memasangnya": 7233,
      "Dedan": 7234,
      "Debir": 7235,
      "saksikan": 7236,
      "Korintus": 7237,
      "pembohong": 7238,
      "bapakmu": 7239,
      "penderitaannya": 7240,
      "Makh": 7241,
      "garpu": 7242,
      "Melekh": 7243,
      "Hanani": 7244,
      "dibangunnya": 7245,
      "Kelima": 7246,
      "tersesat": 7247,
      "khya": 7248,
      "pendapatmu": 7249,
      "letakkannya": 7250,
      "dituduh": 7251,
      "terlatih": 7252,
      "melapor": 7253,
      "Salmuna": 7254,
      "Akhsa": 7255,
      "mudahan": 7256,
      "petir": 7257,
      "Rambut": 7258,
      "Bilha": 7259,
      "menumpas": 7260,
      "menumpahkan": 7261,
      "Markus": 7262,
      "ditegur": 7263,
      "mengawinkan": 7264,
      "menyingkirkan": 7265,
      "membenc": 7266,
      "bicaralah": 7267,
      "Syela": 7268,
      "gagalkan": 7269,
      "lumbung": 7270,
      "anyutkan": 7271,
      "bayaran": 7272,
      "disamakan": 7273,
      "Putra": 7274,
      "janjimu": 7275,
      "pemeriksa": 7276,
      "simbal": 7277,
      "Kumpulkanlah": 7278,
      "alaikan": 7279,
      "berantas": 7280,
      "giliran": 7281,
      "Berekhya": 7282,
      "keyakinan": 7283,
      "bantaian": 7284,
      "Gaal": 7285,
      "Wasti": 7286,
      "Keluarga": 7287,
      "didikan": 7288,
      "dicuci": 7289,
      "Oholiba": 7290,
      "dilanda": 7291,
      "Zefanya": 7292,
      "Gandum": 7293,
      "kemarau": 7294,
      "meminumnya": 7295,
      "Merekalah": 7296,
      "Rencana": 7297,
      "altiel": 7298,
      "bereskan": 7299,
      "Sekhanya": 7300,
      "mengoleskannya": 7301,
      "keuangan": 7302,
      "senjatanya": 7303,
      "Leluhur": 7304,
      "perbedaan": 7305,
      "dirahasiakan": 7306,
      "Selomit": 7307,
      "Keledai": 7308,
      "Mamre": 7309,
      "mentaatinya": 7310,
      "perusuh": 7311,
      "perdebatan": 7312,
      "baptisan": 7313,
      "isyarat": 7314,
      "Iskariot": 7315,
      "Pegawai": 7316,
      "250": 7317,
      "35": 7318,
      "52": 7319,
      "Af": 7320,
      "Adu": 7321,
      "Datan": 7322,
      "Dina": 7323,
      "Ebed": 7324,
      "Gab": 7325,
      "Hakim": 7326,
      "Imer": 7327,
      "Kaya": 7328,
      "Kamar": 7329,
      "Lai": 7330,
      "Mol": 7331,
      "Pis": 7332,
      "Peri": 7333,
      "Panjang": 7334,
      "Raf": 7335,
      "Sere": 7336,
      "Sahut": 7337,
      "Tik": 7338,
      "Tes": 7339,
      "Tro": 7340,
      "Teluk": 7341,
      "Uzi": 7342,
      "Yas": 7343,
      "Yib": 7344,
      "Zin": 7345,
      "aju": 7346,
      "balau": 7347,
      "dali": 7348,
      "deri": 7349,
      "ejek": 7350,
      "gen": 7351,
      "gamu": 7352,
      "gantinya": 7353,
      "hem": 7354,
      "id": 7355,
      "jeritan": 7356,
      "kalahkan": 7357,
      "kemukakan": 7358,
      "maki": 7359,
      "nan": 7360,
      "nakan": 7361,
      "naku": 7362,
      "nanya": 7363,
      "nil": 7364,
      "nea": 7365,
      "onya": 7366,
      "pos": 7367,
      "pora": 7368,
      "remuk": 7369,
      "ramuan": 7370,
      "som": 7371,
      "tsa": 7372,
      "wet": 7373,
      "ënai": 7374,
      "andaikata": 7375,
      "enis": 7376,
      "akra": 7377,
      "akaran": 7378,
      "disi": 7379,
      "ditinggal": 7380,
      "diperbuat": 7381,
      "diasing": 7382,
      "dihabis": 7383,
      "dipercayakan": 7384,
      "didatangi": 7385,
      "dihargai": 7386,
      "dipelihara": 7387,
      "disukai": 7388,
      "ditahbiskan": 7389,
      "ditaklukkan": 7390,
      "diletakkannya": 7391,
      "tuamu": 7392,
      "alya": 7393,
      "ema": 7394,
      "menaik": 7395,
      "mendudukinya": 7396,
      "inti": 7397,
      "kejang": 7398,
      "kebenci": 7399,
      "kesayang": 7400,
      "ses": 7401,
      "seakan": 7402,
      "sewa": 7403,
      "sekam": 7404,
      "sepu": 7405,
      "sede": 7406,
      "sesuka": 7407,
      "berlain": 7408,
      "berapi": 7409,
      "beragama": 7410,
      "berdamai": 7411,
      "bersayap": 7412,
      "berpindah": 7413,
      "bergembiralah": 7414,
      "lahap": 7415,
      "kubunuh": 7416,
      "kucari": 7417,
      "taw": 7418,
      "elang": 7419,
      "enggan": 7420,
      "orangmu": 7421,
      "peroleh": 7422,
      "perpecahan": 7423,
      "baut": 7424,
      "baca": 7425,
      "memam": 7426,
      "membor": 7427,
      "membunyikan": 7428,
      "membesarkan": 7429,
      "membiarkannya": 7430,
      "jap": 7431,
      "arib": 7432,
      "asam": 7433,
      "asuh": 7434,
      "mengur": 7435,
      "menggulingkan": 7436,
      "menghalang": 7437,
      "menggagalkan": 7438,
      "araan": 7439,
      "terik": 7440,
      "terhar": 7441,
      "terkecil": 7442,
      "tersing": 7443,
      "tergoda": 7444,
      "imut": 7445,
      "imannya": 7446,
      "teka": 7447,
      "tebing": 7448,
      "tetangg": 7449,
      "Alek": 7450,
      "patuh": 7451,
      "kisah": 7452,
      "emuel": 7453,
      "unggun": 7454,
      "mudamu": 7455,
      "beel": 7456,
      "bedeus": 7457,
      "onoh": 7458,
      "pudar": 7459,
      "pucat": 7460,
      "Sebaiknya": 7461,
      "kauinginkan": 7462,
      "menyunat": 7463,
      "Kubakar": 7464,
      "Kubenci": 7465,
      "Kubebaskan": 7466,
      "Kuizinkan": 7467,
      "galkan": 7468,
      "Yeus": 7469,
      "tanyakan": 7470,
      "amukan": 7471,
      "embuhan": 7472,
      "buatnya": 7473,
      "dapatkah": 7474,
      "pentung": 7475,
      "penunggangnya": 7476,
      "penglihat": 7477,
      "pengharga": 7478,
      "pengembara": 7479,
      "penganiaya": 7480,
      "Tepat": 7481,
      "dewamu": 7482,
      "dewanya": 7483,
      "senonoh": 7484,
      "yakah": 7485,
      "yakinkan": 7486,
      "jandanya": 7487,
      "pemakan": 7488,
      "tempatkan": 7489,
      "seranglah": 7490,
      "seruling": 7491,
      "Keadilan": 7492,
      "Kekasihku": 7493,
      "meraw": 7494,
      "meraba": 7495,
      "ayakannya": 7496,
      "palangnya": 7497,
      "Yeroham": 7498,
      "jahatnya": 7499,
      "sembahlah": 7500,
      "tinggalnya": 7501,
      "meyakinkan": 7502,
      "perintahku": 7503,
      "saudag": 7504,
      "antam": 7505,
      "abuhan": 7506,
      "Perhatikan": 7507,
      "ilahi": 7508,
      "tahunan": 7509,
      "agam": 7510,
      "suram": 7511,
      "cuk": 7512,
      "batlah": 7513,
      "semenjak": 7514,
      "kelemah": 7515,
      "dihapuskan": 7516,
      "Kaubuat": 7517,
      "Kautinggalkan": 7518,
      "pakailah": 7519,
      "sandal": 7520,
      "gemet": 7521,
      "menyerta": 7522,
      "peson": 7523,
      "memuliakan": 7524,
      "haknya": 7525,
      "Buah": 7526,
      "Selemya": 7527,
      "gilingan": 7528,
      "menanggalkan": 7529,
      "penyimpan": 7530,
      "Supaya": 7531,
      "Sudilah": 7532,
      "hadapanku": 7533,
      "hadapanmu": 7534,
      "intainya": 7535,
      "gandumnya": 7536,
      "cabik": 7537,
      "menyamar": 7538,
      "Elyo": 7539,
      "Barnea": 7540,
      "Eliel": 7541,
      "patungnya": 7542,
      "diperkuat": 7543,
      "diperhatikan": 7544,
      "diperiksa": 7545,
      "Betuel": 7546,
      "Sib": 7547,
      "jampi": 7548,
      "tungg": 7549,
      "timah": 7550,
      "unggul": 7551,
      "rebut": 7552,
      "tingkah": 7553,
      "tumpuk": 7554,
      "berserulah": 7555,
      "bukalah": 7556,
      "prajuritnya": 7557,
      "siapkanlah": 7558,
      "beginilah": 7559,
      "embunyikannya": 7560,
      "Terang": 7561,
      "Zebedeus": 7562,
      "dicela": 7563,
      "Nebat": 7564,
      "jumlahmu": 7565,
      "menimbang": 7566,
      "telur": 7567,
      "merebahkan": 7568,
      "ulat": 7569,
      "lawannya": 7570,
      "muntah": 7571,
      "menggen": 7572,
      "dudukan": 7573,
      "menangkapnya": 7574,
      "Gera": 7575,
      "Gersom": 7576,
      "lengannya": 7577,
      "tulangku": 7578,
      "lempeng": 7579,
      "Hukumlah": 7580,
      "Penyelamatmu": 7581,
      "Simea": 7582,
      "pusat": 7583,
      "istime": 7584,
      "memandangnya": 7585,
      "ditimbun": 7586,
      "pembakaran": 7587,
      "Ayahku": 7588,
      "Mig": 7589,
      "mahir": 7590,
      "Beltsa": 7591,
      "berukuran": 7592,
      "bersoraklah": 7593,
      "Makin": 7594,
      "menjeng": 7595,
      "Bagaimanapun": 7596,
      "yhuran": 7597,
      "menyentuhnya": 7598,
      "rambutmu": 7599,
      "kenankan": 7600,
      "Tabah": 7601,
      "menaruhnya": 7602,
      "biarkanlah": 7603,
      "Duduklah": 7604,
      "Musi": 7605,
      "kelakuannya": 7606,
      "jenazahnya": 7607,
      "cabangnya": 7608,
      "sudutnya": 7609,
      "kaulnya": 7610,
      "wangian": 7611,
      "carilah": 7612,
      "mewarisi": 7613,
      "Ayalon": 7614,
      "onton": 7615,
      "membanting": 7616,
      "menyingkir": 7617,
      "Kemati": 7618,
      "dipanggang": 7619,
      "penipuan": 7620,
      "penutup": 7621,
      "Malahan": 7622,
      "pelindungku": 7623,
      "Kurencanakan": 7624,
      "tertawaan": 7625,
      "marga": 7626,
      "Kuubah": 7627,
      "Panglima": 7628,
      "Sanbalat": 7629,
      "Dagon": 7630,
      "kebodohannya": 7631,
      "pendirian": 7632,
      "Sangkamu": 7633,
      "diperolehnya": 7634,
      "alonika": 7635,
      "sekejap": 7636,
      "Milka": 7637,
      "dicambuk": 7638,
      "dicampakkan": 7639,
      "mencambuk": 7640,
      "penghapusan": 7641,
      "menggantungkan": 7642,
      "ginjal": 7643,
      "ditanami": 7644,
      "ihud": 7645,
      "huruf": 7646,
      "kongkol": 7647,
      "memasukkannya": 7648,
      "Lamekh": 7649,
      "Pegunungan": 7650,
      "melintasi": 7651,
      "menerobos": 7652,
      "pemujaan": 7653,
      "Negerimu": 7654,
      "hisop": 7655,
      "ditujukan": 7656,
      "dipadamkan": 7657,
      "mengikutinya": 7658,
      "Kebetulan": 7659,
      "mengukuhkan": 7660,
      "Adulam": 7661,
      "Kayafas": 7662,
      "Molokh": 7663,
      "Tesalonika": 7664,
      "nakuti": 7665,
      "ditinggalkannya": 7666,
      "diasingkan": 7667,
      "sedekah": 7668,
      "terharu": 7669,
      "Aleksan": 7670,
      "merawat": 7671,
      "saudagar": 7672,
      "kelemahan": 7673,
      "Elyoënai": 7674,
      "Beltsazar": 7675,
      "24": 7676,
      "27": 7677,
      "28": 7678,
      "34": 7679,
      "44": 7680,
      "800": 7681,
      "Aka": 7682,
      "Asaya": 7683,
      "Awas": 7684,
      "Batas": 7685,
      "Carilah": 7686,
      "Etan": 7687,
      "Etam": 7688,
      "Gembala": 7689,
      "Hag": 7690,
      "II": 7691,
      "Ko": 7692,
      "Kere": 7693,
      "Kilik": 7694,
      "Keru": 7695,
      "Lindungilah": 7696,
      "Nak": 7697,
      "Pul": 7698,
      "Pesan": 7699,
      "Ri": 7700,
      "Rumput": 7701,
      "Singa": 7702,
      "Salibkan": 7703,
      "Sokh": 7704,
      "Terah": 7705,
      "Yam": 7706,
      "Zab": 7707,
      "cet": 7708,
      "daranya": 7709,
      "eti": 7710,
      "ebat": 7711,
      "faat": 7712,
      "goyang": 7713,
      "hsad": 7714,
      "jinya": 7715,
      "kembar": 7716,
      "luhur": 7717,
      "lemparkan": 7718,
      "laksana": 7719,
      "mo": 7720,
      "nat": 7721,
      "oam": 7722,
      "odai": 7723,
      "pangkat": 7724,
      "puran": 7725,
      "panggang": 7726,
      "semi": 7727,
      "sahkan": 7728,
      "tindak": 7729,
      "temukan": 7730,
      "taruhlah": 7731,
      "yanyi": 7732,
      "zan": 7733,
      "zim": 7734,
      "ene": 7735,
      "ahem": 7736,
      "arus": 7737,
      "aras": 7738,
      "diel": 7739,
      "dilu": 7740,
      "dibel": 7741,
      "diperc": 7742,
      "diha": 7743,
      "dimasuk": 7744,
      "dimengerti": 7745,
      "dibentuk": 7746,
      "dibimbing": 7747,
      "ditunjukkan": 7748,
      "dibelenggu": 7749,
      "dilayani": 7750,
      "diturunkan": 7751,
      "dikece": 7752,
      "didirikannya": 7753,
      "ditegakkan": 7754,
      "diejek": 7755,
      "tuduh": 7756,
      "allah": 7757,
      "mendiang": 7758,
      "indir": 7759,
      "keaman": 7760,
      "kesuci": 7761,
      "kepahlawan": 7762,
      "ketahuilah": 7763,
      "sedalam": 7764,
      "sejahat": 7765,
      "sepuas": 7766,
      "sewenang": 7767,
      "berah": 7768,
      "berpi": 7769,
      "berbatu": 7770,
      "berpesan": 7771,
      "berkeliling": 7772,
      "berkurang": 7773,
      "berahi": 7774,
      "bersulam": 7775,
      "berutang": 7776,
      "berlag": 7777,
      "berbintik": 7778,
      "bertunangan": 7779,
      "kasut": 7780,
      "tikus": 7781,
      "kupi": 7782,
      "kubah": 7783,
      "kupan": 7784,
      "kuambil": 7785,
      "kupanggil": 7786,
      "kuberitahukan": 7787,
      "kuperhatikan": 7788,
      "kudapati": 7789,
      "sasaran": 7790,
      "engkan": 7791,
      "persen": 7792,
      "perkemah": 7793,
      "perzin": 7794,
      "perlihatkan": 7795,
      "bajunya": 7796,
      "membi": 7797,
      "jajar": 7798,
      "buan": 7799,
      "buyung": 7800,
      "iau": 7801,
      "asalah": 7802,
      "mengar": 7803,
      "mengga": 7804,
      "menggi": 7805,
      "menghu": 7806,
      "menggem": 7807,
      "menghidangkan": 7808,
      "mengantarkan": 7809,
      "raba": 7810,
      "rawa": 7811,
      "lainya": 7812,
      "bidan": 7813,
      "pisau": 7814,
      "terti": 7815,
      "terper": 7816,
      "tergel": 7817,
      "tertua": 7818,
      "terkutuk": 7819,
      "terluka": 7820,
      "terbaring": 7821,
      "terkunci": 7822,
      "imot": 7823,
      "teki": 7824,
      "tidaklah": 7825,
      "wai": 7826,
      "kiel": 7827,
      "kilap": 7828,
      "lebur": 7829,
      "melalu": 7830,
      "melanjut": 7831,
      "mut": 7832,
      "ontang": 7833,
      "oncangkan": 7834,
      "Selah": 7835,
      "Sewaktu": 7836,
      "Sebentar": 7837,
      "menyiramkan": 7838,
      "menyinari": 7839,
      "Kuat": 7840,
      "Kupakai": 7841,
      "Kutun": 7842,
      "Kubalas": 7843,
      "Kuburan": 7844,
      "karat": 7845,
      "banyakan": 7846,
      "selimut": 7847,
      "iliki": 7848,
      "embakkan": 7849,
      "esmi": 7850,
      "penolong": 7851,
      "pendarah": 7852,
      "penjual": 7853,
      "pencipta": 7854,
      "haruskah": 7855,
      "deka": 7856,
      "bersahabat": 7857,
      "paikannya": 7858,
      "senanti": 7859,
      "sento": 7860,
      "wanit": 7861,
      "bundar": 7862,
      "keramai": 7863,
      "kerontang": 7864,
      "petugas": 7865,
      "hiduplah": 7866,
      "pemalas": 7867,
      "pemberon": 7868,
      "pemburu": 7869,
      "masuki": 7870,
      "mawet": 7871,
      "serah": 7872,
      "serangga": 7873,
      "diandalkan": 7874,
      "Keada": 7875,
      "Kebijaksanaan": 7876,
      "kemis": 7877,
      "pakhsad": 7878,
      "mertua": 7879,
      "merenggut": 7880,
      "merusakkan": 7881,
      "merentangkan": 7882,
      "hukumanmu": 7883,
      "Bagai": 7884,
      "Babil": 7885,
      "tinggalkanlah": 7886,
      "meel": 7887,
      "melahap": 7888,
      "sehebat": 7889,
      "jalanku": 7890,
      "citalah": 7891,
      "banyaklah": 7892,
      "okong": 7893,
      "janjiku": 7894,
      "sukunya": 7895,
      "mengulang": 7896,
      "menjawabnya": 7897,
      "surya": 7898,
      "Tubal": 7899,
      "pelaut": 7900,
      "Abdon": 7901,
      "semalam": 7902,
      "mendapatnya": 7903,
      "membunuhku": 7904,
      "Sema": 7905,
      "tangkai": 7906,
      "gemer": 7907,
      "gemilang": 7908,
      "pohonnya": 7909,
      "jatakan": 7910,
      "jatuhan": 7911,
      "Berjanji": 7912,
      "Berto": 7913,
      "Berseru": 7914,
      "Tig": 7915,
      "memuat": 7916,
      "gelagah": 7917,
      "ajah": 7918,
      "ajalnya": 7919,
      "mengecap": 7920,
      "hakiman": 7921,
      "Bukalah": 7922,
      "menyayang": 7923,
      "Harta": 7924,
      "giling": 7925,
      "bunganya": 7926,
      "menyembahnya": 7927,
      "penyer": 7928,
      "penyel": 7929,
      "Big": 7930,
      "kerasnya": 7931,
      "cambuk": 7932,
      "kenalan": 7933,
      "tembokmu": 7934,
      "berhalanya": 7935,
      "usahanya": 7936,
      "menyampaikannya": 7937,
      "Elim": 7938,
      "gunting": 7939,
      "Pencipta": 7940,
      "Elifel": 7941,
      "kalanya": 7942,
      "diperlihatkan": 7943,
      "Asytor": 7944,
      "Bejana": 7945,
      "mengeringkan": 7946,
      "timpakan": 7947,
      "Efrata": 7948,
      "tidurlah": 7949,
      "kesombongan": 7950,
      "Adaya": 7951,
      "puri": 7952,
      "membac": 7953,
      "Takh": 7954,
      "kakiku": 7955,
      "tiangnya": 7956,
      "Zebaja": 7957,
      "pelayanan": 7958,
      "memerlukannya": 7959,
      "ogok": 7960,
      "mengangkatnya": 7961,
      "aruhkan": 7962,
      "cepatlah": 7963,
      "Menara": 7964,
      "Menahem": 7965,
      "Abiezer": 7966,
      "ikatan": 7967,
      "salju": 7968,
      "saluran": 7969,
      "diserahkannya": 7970,
      "berhentilah": 7971,
      "jelai": 7972,
      "jelek": 7973,
      "kukunya": 7974,
      "sekitarmu": 7975,
      "bentengnya": 7976,
      "selesa": 7977,
      "obal": 7978,
      "obati": 7979,
      "warnanya": 7980,
      "ditarik": 7981,
      "cemeti": 7982,
      "keluargaku": 7983,
      "menyelami": 7984,
      "Bencana": 7985,
      "Arpakhsad": 7986,
      "kenalkan": 7987,
      "murnikan": 7988,
      "hebatnya": 7989,
      "penghun": 7990,
      "kebaikanmu": 7991,
      "putraku": 7992,
      "putrinya": 7993,
      "dianggapnya": 7994,
      "musimnya": 7995,
      "merenungkan": 7996,
      "terhunus": 7997,
      "bersepakat": 7998,
      "bersekongkol": 7999,
      "gulung": 8000,
      "keinginannya": 8001,
      "keinginanmu": 8002,
      "putuskan": 8003,
      "Belsya": 8004,
      "lintang": 8005,
      "berkeberatan": 8006,
      "berkedudukan": 8007,
      "meludahi": 8008,
      "Herodias": 8009,
      "menjerit": 8010,
      "baringkan": 8011,
      "Zakur": 8012,
      "dinubuat": 8013,
      "puaskan": 8014,
      "120": 8015,
      "nasibmu": 8016,
      "Binui": 8017,
      "memeliharanya": 8018,
      "letaknya": 8019,
      "setujui": 8020,
      "ditutupi": 8021,
      "menutupinya": 8022,
      "deras": 8023,
      "wajahmu": 8024,
      "umumkanlah": 8025,
      "idikilah": 8026,
      "bebani": 8027,
      "luasnya": 8028,
      "datangani": 8029,
      "Enan": 8030,
      "sulaman": 8031,
      "Hutan": 8032,
      "Hujan": 8033,
      "menaburkan": 8034,
      "menumpang": 8035,
      "merataplah": 8036,
      "Horma": 8037,
      "digosok": 8038,
      "mengawal": 8039,
      "segenggam": 8040,
      "menyingkapkan": 8041,
      "Matica": 8042,
      "mengguntur": 8043,
      "tertarik": 8044,
      "penuai": 8045,
      "Syobal": 8046,
      "bersenjatakan": 8047,
      "ditempatkannya": 8048,
      "Cepatlah": 8049,
      "Lidia": 8050,
      "Zoar": 8051,
      "tebalnya": 8052,
      "pujaan": 8053,
      "Misalkan": 8054,
      "penyayang": 8055,
      "Rasul": 8056,
      "Yahas": 8057,
      "kemasyhuran": 8058,
      "dipecahkan": 8059,
      "induknya": 8060,
      "ugerahi": 8061,
      "berkubu": 8062,
      "Nahason": 8063,
      "Tangkap": 8064,
      "Triwira": 8065,
      "bersamamu": 8066,
      "saksinya": 8067,
      "kebebasan": 8068,
      "kecewa": 8069,
      "dibujuk": 8070,
      "menghamburkan": 8071,
      "pukulan": 8072,
      "mencelupkan": 8073,
      "Penciptanya": 8074,
      "rencananya": 8075,
      "Rezin": 8076,
      "pengendaranya": 8077,
      "kemeja": 8078,
      "Angkatlah": 8079,
      "kesudahan": 8080,
      "kerjanya": 8081,
      "memutarbalikkan": 8082,
      "Nehemia": 8083,
      "rumbai": 8084,
      "dijalankan": 8085,
      "kesabaran": 8086,
      "mempertaruhkan": 8087,
      "Ikutilah": 8088,
      "Janji": 8089,
      "Pemuda": 8090,
      "kepandaian": 8091,
      "Sebna": 8092,
      "pembicaraan": 8093,
      "Kekuasaan": 8094,
      "Yerahmeel": 8095,
      "menyelubungi": 8096,
      "Afek": 8097,
      "Lais": 8098,
      "nilam": 8099,
      "akrab": 8100,
      "penghargaan": 8101,
      "penganiayaan": 8102,
      "menyertaimu": 8103,
      "istimewa": 8104,
      "Kereta": 8105,
      "Kilikia": 8106,
      "yanyikan": 8107,
      "dikecewakan": 8108,
      "keamanan": 8109,
      "kepahlawanannya": 8110,
      "berlagak": 8111,
      "perzinahan": 8112,
      "senantiasa": 8113,
      "sentosa": 8114,
      "pemberontakan": 8115,
      "Bertobatlah": 8116,
      "Berserulah": 8117,
      "Asytoret": 8118,
      "Belsyazar": 8119,
      "dinubuatkan": 8120,
      "11": 8121,
      "150": 8122,
      "75": 8123,
      "90": 8124,
      "Ari": 8125,
      "Awan": 8126,
      "Agag": 8127,
      "Atarot": 8128,
      "Bahan": 8129,
      "Cat": 8130,
      "Ceritakanlah": 8131,
      "Din": 8132,
      "Dasar": 8133,
      "Ebal": 8134,
      "Edre": 8135,
      "Gar": 8136,
      "Gir": 8137,
      "Hadi": 8138,
      "Hori": 8139,
      "Hasil": 8140,
      "Ira": 8141,
      "Itai": 8142,
      "Kak": 8143,
      "Kas": 8144,
      "Lus": 8145,
      "Lemak": 8146,
      "Nyat": 8147,
      "Nekh": 8148,
      "Sum": 8149,
      "Sembah": 8150,
      "Sayalah": 8151,
      "Takut": 8152,
      "Taruhlah": 8153,
      "Utusan": 8154,
      "Urim": 8155,
      "Yim": 8156,
      "Yakh": 8157,
      "Zu": 8158,
      "Zil": 8159,
      "adanya": 8160,
      "adakan": 8161,
      "abis": 8162,
      "balan": 8163,
      "cerai": 8164,
      "cikkan": 8165,
      "cobalah": 8166,
      "fet": 8167,
      "ganggu": 8168,
      "hana": 8169,
      "hangat": 8170,
      "ium": 8171,
      "keng": 8172,
      "krak": 8173,
      "kungan": 8174,
      "lompat": 8175,
      "motong": 8176,
      "nuran": 8177,
      "noda": 8178,
      "oy": 8179,
      "paku": 8180,
      "palu": 8181,
      "pol": 8182,
      "pokan": 8183,
      "toh": 8184,
      "tol": 8185,
      "utu": 8186,
      "wala": 8187,
      "yanya": 8188,
      "yut": 8189,
      "yilah": 8190,
      "yahkan": 8191,
      "zur": 8192,
      "entak": 8193,
      "akah": 8194,
      "dikur": 8195,
      "dimin": 8196,
      "dibelah": 8197,
      "dibas": 8198,
      "dimilik": 8199,
      "ditum": 8200,
      "dibuk": 8201,
      "ditipu": 8202,
      "disangka": 8203,
      "diwajib": 8204,
      "dimiliki": 8205,
      "dihidangkan": 8206,
      "dirayakan": 8207,
      "diinginkannya": 8208,
      "dijauhkan": 8209,
      "dimurnikan": 8210,
      "yadai": 8211,
      "mendi": 8212,
      "menjabat": 8213,
      "mendukung": 8214,
      "mensahkan": 8215,
      "keindah": 8216,
      "keperkasa": 8217,
      "keserak": 8218,
      "kejaya": 8219,
      "kegemp": 8220,
      "ketat": 8221,
      "kebanyakan": 8222,
      "pagar": 8223,
      "unas": 8224,
      "uncak": 8225,
      "dayang": 8226,
      "dasa": 8227,
      "dadamu": 8228,
      "kananmu": 8229,
      "seberapa": 8230,
      "sepatah": 8231,
      "bera": 8232,
      "berd": 8233,
      "berpen": 8234,
      "bertiga": 8235,
      "bertakhta": 8236,
      "bernyawa": 8237,
      "berakar": 8238,
      "berkaul": 8239,
      "berakal": 8240,
      "berhutang": 8241,
      "bergilir": 8242,
      "berlawanan": 8243,
      "berwibawa": 8244,
      "bergegas": 8245,
      "kauh": 8246,
      "kaur": 8247,
      "kabur": 8248,
      "kabut": 8249,
      "kabul": 8250,
      "kacang": 8251,
      "uhkan": 8252,
      "oraki": 8253,
      "kuserahkan": 8254,
      "sap": 8255,
      "sael": 8256,
      "sabit": 8257,
      "taol": 8258,
      "sub": 8259,
      "subuh": 8260,
      "susul": 8261,
      "engang": 8262,
      "perab": 8263,
      "peraw": 8264,
      "pertahan": 8265,
      "permusuhan": 8266,
      "perjuangan": 8267,
      "baunya": 8268,
      "memahat": 8269,
      "memburuk": 8270,
      "membeda": 8271,
      "membara": 8272,
      "membisu": 8273,
      "membatalkan": 8274,
      "mempelajari": 8275,
      "jauhan": 8276,
      "nyaman": 8277,
      "nyamuk": 8278,
      "usang": 8279,
      "urni": 8280,
      "asib": 8281,
      "mengisinya": 8282,
      "rapat": 8283,
      "rawala": 8284,
      "laba": 8285,
      "akuan": 8286,
      "pikat": 8287,
      "pipi": 8288,
      "aliel": 8289,
      "tersen": 8290,
      "terbatas": 8291,
      "tercela": 8292,
      "terpecah": 8293,
      "terserak": 8294,
      "terancam": 8295,
      "imbalan": 8296,
      "tes": 8297,
      "bahunya": 8298,
      "let": 8299,
      "lekas": 8300,
      "ungkup": 8301,
      "ungkinkan": 8302,
      "ihlah": 8303,
      "melindung": 8304,
      "melangkah": 8305,
      "melengkapi": 8306,
      "melalaikan": 8307,
      "mukamu": 8308,
      "bepergi": 8309,
      "bedanya": 8310,
      "aiki": 8311,
      "jualan": 8312,
      "Akub": 8313,
      "puah": 8314,
      "Set": 8315,
      "Seumur": 8316,
      "Sehabis": 8317,
      "Segalanya": 8318,
      "kaubunuh": 8319,
      "kauambil": 8320,
      "menyembunyikannya": 8321,
      "Kutentukan": 8322,
      "Kulenyap": 8323,
      "Kutetapkan": 8324,
      "Kulepaskan": 8325,
      "Kupulihkan": 8326,
      "karangan": 8327,
      "Yeter": 8328,
      "isilah": 8329,
      "isyadai": 8330,
      "bantah": 8331,
      "luluh": 8332,
      "hulu": 8333,
      "irlah": 8334,
      "ilham": 8335,
      "Mulah": 8336,
      "pene": 8337,
      "pendukung": 8338,
      "haruskan": 8339,
      "egar": 8340,
      "hidangan": 8341,
      "erian": 8342,
      "beliau": 8343,
      "bagianmu": 8344,
      "bunyinya": 8345,
      "pedupa": 8346,
      "jantung": 8347,
      "pembersih": 8348,
      "pembantaian": 8349,
      "tempatmu": 8350,
      "maaf": 8351,
      "pinjaman": 8352,
      "serba": 8353,
      "Kebar": 8354,
      "Kehadi": 8355,
      "rangkai": 8356,
      "mengasah": 8357,
      "utangnya": 8358,
      "Dibuatnya": 8359,
      "ayanya": 8360,
      "siar": 8361,
      "sipu": 8362,
      "tentaramu": 8363,
      "sehabis": 8364,
      "perintahnya": 8365,
      "bilang": 8366,
      "hambaku": 8367,
      "dukkan": 8368,
      "janjikannya": 8369,
      "imamnya": 8370,
      "menghilangkan": 8371,
      "ikutlah": 8372,
      "Pert": 8373,
      "Perbuat": 8374,
      "sekaligus": 8375,
      "perca": 8376,
      "murid": 8377,
      "erintahan": 8378,
      "Tukang": 8379,
      "tengkuk": 8380,
      "pelabuhan": 8381,
      "curangan": 8382,
      "curinya": 8383,
      "mengenyangkan": 8384,
      "semasa": 8385,
      "diratakan": 8386,
      "dirusak": 8387,
      "diruntuhkan": 8388,
      "putkan": 8389,
      "dihasilkan": 8390,
      "dihiasi": 8391,
      "jaring": 8392,
      "Karmi": 8393,
      "menusuk": 8394,
      "Kaubebaskan": 8395,
      "Kauselamatkan": 8396,
      "disahkan": 8397,
      "disalib": 8398,
      "depanku": 8399,
      "menyergap": 8400,
      "malang": 8401,
      "mezbahnya": 8402,
      "Bersiap": 8403,
      "Bersorak": 8404,
      "Bergembiralah": 8405,
      "Kamulah": 8406,
      "padangnya": 8407,
      "baskan": 8408,
      "rakyatku": 8409,
      "kuatkanlah": 8410,
      "mengetuk": 8411,
      "Amihud": 8412,
      "Sele": 8413,
      "minumlah": 8414,
      "tenung": 8415,
      "Lewiatan": 8416,
      "bakarlah": 8417,
      "sulkan": 8418,
      "barangnya": 8419,
      "bungkus": 8420,
      "melekat": 8421,
      "Siapkan": 8422,
      "campuran": 8423,
      "Elon": 8424,
      "boa": 8425,
      "menundukkan": 8426,
      "tugasmu": 8427,
      "Pedaya": 8428,
      "Ahin": 8429,
      "diperlukannya": 8430,
      "diperbolehkan": 8431,
      "Beerot": 8432,
      "mengatakannya": 8433,
      "mengerjakannya": 8434,
      "nilai": 8435,
      "nilainya": 8436,
      "laporkan": 8437,
      "kesimpul": 8438,
      "berkumpullah": 8439,
      "pinggul": 8440,
      "melayang": 8441,
      "Terus": 8442,
      "Jawaban": 8443,
      "dice": 8444,
      "dicintai": 8445,
      "dicobai": 8446,
      "Nef": 8447,
      "memercikkan": 8448,
      "Meja": 8449,
      "Abiam": 8450,
      "cakrawala": 8451,
      "Sepertiga": 8452,
      "ormatinya": 8453,
      "Akwila": 8454,
      "memanah": 8455,
      "ulur": 8456,
      "lawanku": 8457,
      "potonglah": 8458,
      "Pengadilan": 8459,
      "Pengawal": 8460,
      "indahnya": 8461,
      "indahkannya": 8462,
      "budakmu": 8463,
      "selebar": 8464,
      "asalnya": 8465,
      "ditolong": 8466,
      "ranc": 8467,
      "kabarkan": 8468,
      "Penyakit": 8469,
      "rumputnya": 8470,
      "Tanyakan": 8471,
      "selesaikan": 8472,
      "Geber": 8473,
      "Gedor": 8474,
      "kunyanyikan": 8475,
      "menyusur": 8476,
      "menyukai": 8477,
      "Pembagian": 8478,
      "Pemerintahan": 8479,
      "Jubah": 8480,
      "nyanyikan": 8481,
      "dokter": 8482,
      "kenajis": 8483,
      "menuliskan": 8484,
      "cintailah": 8485,
      "pembeli": 8486,
      "upahmu": 8487,
      "Azaz": 8488,
      "puncaknya": 8489,
      "sembunyikan": 8490,
      "terhindar": 8491,
      "diangkutnya": 8492,
      "Pilihlah": 8493,
      "Sudahkah": 8494,
      "meluputkan": 8495,
      "tanduknya": 8496,
      "mengalirkan": 8497,
      "obatkan": 8498,
      "diangkatnya": 8499,
      "menuruni": 8500,
      "mencukupi": 8501,
      "Tapuah": 8502,
      "panenan": 8503,
      "bimbingan": 8504,
      "memintanya": 8505,
      "Bintang": 8506,
      "bondong": 8507,
      "menyesali": 8508,
      "jingkrak": 8509,
      "kekasihnya": 8510,
      "tundukkan": 8511,
      "faedah": 8512,
      "iringan": 8513,
      "Mataku": 8514,
      "Tola": 8515,
      "Tofet": 8516,
      "tenagaku": 8517,
      "mengikatnya": 8518,
      "menjualnya": 8519,
      "Gilboa": 8520,
      "curiga": 8521,
      "Ribla": 8522,
      "cermat": 8523,
      "Filipi": 8524,
      "Ahikam": 8525,
      "cintamu": 8526,
      "penasihatnya": 8527,
      "iramkannya": 8528,
      "diganggu": 8529,
      "meniupkan": 8530,
      "dikerahkan": 8531,
      "timbullah": 8532,
      "Seranglah": 8533,
      "menyimpannya": 8534,
      "payahnya": 8535,
      "perkaramu": 8536,
      "mengembalikannya": 8537,
      "Panen": 8538,
      "Kadmiel": 8539,
      "Makeda": 8540,
      "menggerutu": 8541,
      "menggeli": 8542,
      "cedera": 8543,
      "menebusnya": 8544,
      "Biarkanlah": 8545,
      "Bunga": 8546,
      "Saron": 8547,
      "disambut": 8548,
      "susunan": 8549,
      "singkatnya": 8550,
      "pemerasan": 8551,
      "terpencil": 8552,
      "Kamos": 8553,
      "Netanya": 8554,
      "Yozadak": 8555,
      "keyakinannya": 8556,
      "sekutunya": 8557,
      "Tridasa": 8558,
      "Waspadalah": 8559,
      "wakilnya": 8560,
      "bersamaku": 8561,
      "menakutkan": 8562,
      "kebetulan": 8563,
      "fahami": 8564,
      "Ofra": 8565,
      "tarian": 8566,
      "telinganya": 8567,
      "wadahnya": 8568,
      "penghabisan": 8569,
      "Bozra": 8570,
      "Ajarkanlah": 8571,
      "Adoni": 8572,
      "Cukup": 8573,
      "Tumim": 8574,
      "ketentuan": 8575,
      "terjebak": 8576,
      "serambi": 8577,
      "guguran": 8578,
      "biayai": 8579,
      "Esytaol": 8580,
      "dipag": 8581,
      "menyegarkan": 8582,
      "Istrinya": 8583,
      "penyeberangan": 8584,
      "Mesekh": 8585,
      "pemeriksaan": 8586,
      "Gabriel": 8587,
      "Pisga": 8588,
      "Serebya": 8589,
      "dalikan": 8590,
      "dihabiskan": 8591,
      "menaikkan": 8592,
      "kebencian": 8593,
      "berlainan": 8594,
      "memamah": 8595,
      "tetanggamu": 8596,
      "penyimpanan": 8597,
      "menjenguk": 8598,
      "Kematian": 8599,
      "Akaba": 8600,
      "Sokho": 8601,
      "menghujat": 8602,
      "melaluinya": 8603,
      "melanjutkan": 8604,
      "Kuatkanlah": 8605,
      "Babilonia": 8606,
      "Berjanjilah": 8607,
      "menyayangi": 8608,
      "Elifelet": 8609,
      "selesailah": 8610,
      "penghuninya": 8611,
      "Edrei": 8612,
      "Nekho": 8613,
      "Sembahlah": 8614,
      "Yakhin": 8615,
      "Zilpa": 8616,
      "kengerian": 8617,
      "dimilikinya": 8618,
      "diwajibkan": 8619,
      "kegemparan": 8620,
      "melindunginya": 8621,
      "bepergian": 8622,
      "Kulenyapkan": 8623,
      "pembersihan": 8624,
      "Kehadiran": 8625,
      "Tridasawira": 8626,
      "21": 8627,
      "36": 8628,
      "37": 8629,
      "42": 8630,
      "Abih": 8631,
      "Bas": 8632,
      "Bay": 8633,
      "Cah": 8634,
      "Dos": 8635,
      "Galat": 8636,
      "Hamu": 8637,
      "Hog": 8638,
      "Hatah": 8639,
      "Kol": 8640,
      "List": 8641,
      "Lotan": 8642,
      "Mur": 8643,
      "Madai": 8644,
      "Ore": 8645,
      "Pn": 8646,
      "Pir": 8647,
      "Pahat": 8648,
      "Pris": 8649,
      "Pela": 8650,
      "Rem": 8651,
      "Sumur": 8652,
      "Sangat": 8653,
      "Tam": 8654,
      "Tin": 8655,
      "Turun": 8656,
      "Uri": 8657,
      "Utara": 8658,
      "Yahat": 8659,
      "Zabad": 8660,
      "bama": 8661,
      "cen": 8662,
      "cut": 8663,
      "ehan": 8664,
      "fis": 8665,
      "fil": 8666,
      "hitung": 8667,
      "hangus": 8668,
      "iter": 8669,
      "jerit": 8670,
      "jimat": 8671,
      "kg": 8672,
      "khi": 8673,
      "lemb": 8674,
      "lumkan": 8675,
      "lalai": 8676,
      "mara": 8677,
      "mant": 8678,
      "natan": 8679,
      "odi": 8680,
      "ooh": 8681,
      "puh": 8682,
      "pkanlah": 8683,
      "paman": 8684,
      "sembar": 8685,
      "smani": 8686,
      "sogok": 8687,
      "tata": 8688,
      "tempur": 8689,
      "tempuh": 8690,
      "utuh": 8691,
      "yuh": 8692,
      "yarib": 8693,
      "zam": 8694,
      "ëg": 8695,
      "anoah": 8696,
      "erbak": 8697,
      "angatkan": 8698,
      "entikan": 8699,
      "enungkan": 8700,
      "aru": 8701,
      "aralah": 8702,
      "diapa": 8703,
      "dijawab": 8704,
      "ditentang": 8705,
      "ditam": 8706,
      "dihenti": 8707,
      "dibuka": 8708,
      "dinaik": 8709,
      "dibalas": 8710,
      "diwar": 8711,
      "diatur": 8712,
      "disesat": 8713,
      "didapati": 8714,
      "disusun": 8715,
      "dibesarkan": 8716,
      "dikasihani": 8717,
      "dibiarkannya": 8718,
      "disanjung": 8719,
      "diharuskan": 8720,
      "tutul": 8721,
      "alur": 8722,
      "alanya": 8723,
      "emus": 8724,
      "amakan": 8725,
      "amati": 8726,
      "ampas": 8727,
      "menin": 8728,
      "meneri": 8729,
      "mendung": 8730,
      "menderu": 8731,
      "menahannya": 8732,
      "menaiki": 8733,
      "inan": 8734,
      "indari": 8735,
      "insaf": 8736,
      "kesubur": 8737,
      "kebohong": 8738,
      "kepahi": 8739,
      "kecurangan": 8740,
      "papa": 8741,
      "padat": 8742,
      "dap": 8743,
      "dana": 8744,
      "sebangsa": 8745,
      "sebaik": 8746,
      "sebulan": 8747,
      "setel": 8748,
      "sepatut": 8749,
      "seder": 8750,
      "segerombolan": 8751,
      "berla": 8752,
      "berde": 8753,
      "berhadap": 8754,
      "bercu": 8755,
      "berbukit": 8756,
      "berganti": 8757,
      "berkecil": 8758,
      "bertumbuh": 8759,
      "berkelakuan": 8760,
      "berkhianat": 8761,
      "berkemas": 8762,
      "bernyanyilah": 8763,
      "bertukar": 8764,
      "berbisik": 8765,
      "kasau": 8766,
      "kapas": 8767,
      "kaca": 8768,
      "tis": 8769,
      "kuku": 8770,
      "kuas": 8771,
      "kubawa": 8772,
      "kuangkat": 8773,
      "kuwartakan": 8774,
      "sawi": 8775,
      "eleh": 8776,
      "perkata": 8777,
      "pertanda": 8778,
      "peringatkan": 8779,
      "peratur": 8780,
      "permain": 8781,
      "persim": 8782,
      "periksalah": 8783,
      "perhias": 8784,
      "badam": 8785,
      "membang": 8786,
      "memad": 8787,
      "memberantas": 8788,
      "jasmani": 8789,
      "gasi": 8790,
      "nyawamu": 8791,
      "bujukan": 8792,
      "iab": 8793,
      "usi": 8794,
      "usim": 8795,
      "mengiri": 8796,
      "mengolok": 8797,
      "mengalahkannya": 8798,
      "menggiling": 8799,
      "ingkir": 8800,
      "umban": 8801,
      "araim": 8802,
      "lapang": 8803,
      "aliran": 8804,
      "terdekat": 8805,
      "terangkan": 8806,
      "terpenting": 8807,
      "tertawan": 8808,
      "terputus": 8809,
      "tersusun": 8810,
      "terbilang": 8811,
      "imus": 8812,
      "impi": 8813,
      "Alam": 8814,
      "bahasanya": 8815,
      "waim": 8816,
      "duga": 8817,
      "kila": 8818,
      "leser": 8819,
      "ungkannya": 8820,
      "ungkapkan": 8821,
      "tahap": 8822,
      "melarat": 8823,
      "melanc": 8824,
      "meleleh": 8825,
      "mudaku": 8826,
      "beon": 8827,
      "bebal": 8828,
      "ail": 8829,
      "juta": 8830,
      "juangkan": 8831,
      "jugalah": 8832,
      "puannya": 8833,
      "pualam": 8834,
      "pucuk": 8835,
      "puyuh": 8836,
      "anakh": 8837,
      "Sef": 8838,
      "Sean": 8839,
      "Sekitar": 8840,
      "Sebanya": 8841,
      "Separuh": 8842,
      "Sefar": 8843,
      "Sealtiel": 8844,
      "kauberikan": 8845,
      "kauperlakukan": 8846,
      "menyem": 8847,
      "menyokong": 8848,
      "kalimat": 8849,
      "Kubangun": 8850,
      "Kulit": 8851,
      "Kuanggap": 8852,
      "Kubimbing": 8853,
      "Kupegang": 8854,
      "Kukehendaki": 8855,
      "Kupenuhi": 8856,
      "Kupatahkan": 8857,
      "jadinya": 8858,
      "Nyawa": 8859,
      "dol": 8860,
      "dirilah": 8861,
      "Mudah": 8862,
      "penam": 8863,
      "penas": 8864,
      "penunggang": 8865,
      "penunjuk": 8866,
      "pandan": 8867,
      "penghasil": 8868,
      "pengasih": 8869,
      "pengac": 8870,
      "penggilingan": 8871,
      "Tebe": 8872,
      "Tepung": 8873,
      "egahan": 8874,
      "desus": 8875,
      "berseri": 8876,
      "bersamanya": 8877,
      "hikus": 8878,
      "belok": 8879,
      "enteng": 8880,
      "baran": 8881,
      "keruntuhan": 8882,
      "pemberita": 8883,
      "pembuatan": 8884,
      "serumah": 8885,
      "serentak": 8886,
      "bender": 8887,
      "keman": 8888,
      "kemarah": 8889,
      "kemerah": 8890,
      "kemegahan": 8891,
      "merahan": 8892,
      "Bawa": 8893,
      "Bagin": 8894,
      "Yerimot": 8895,
      "sialah": 8896,
      "mekar": 8897,
      "ciki": 8898,
      "kurbanmu": 8899,
      "hamburkan": 8900,
      "buruh": 8901,
      "burkanlah": 8902,
      "olis": 8903,
      "oliab": 8904,
      "bertembok": 8905,
      "persembahanmu": 8906,
      "Yobab": 8907,
      "Yoyarib": 8908,
      "mence": 8909,
      "menghantam": 8910,
      "Perminta": 8911,
      "Perempuan": 8912,
      "Peristiwa": 8913,
      "dompet": 8914,
      "bakala": 8915,
      "itkan": 8916,
      "mengusulkan": 8917,
      "duduklah": 8918,
      "airmu": 8919,
      "Tuju": 8920,
      "Tugu": 8921,
      "pengikutmu": 8922,
      "butlah": 8923,
      "cuping": 8924,
      "mengenang": 8925,
      "semau": 8926,
      "semerbak": 8927,
      "sangkut": 8928,
      "kelo": 8929,
      "diharapkan": 8930,
      "membunuhmu": 8931,
      "Kausediakan": 8932,
      "Kautunjukkan": 8933,
      "duniawi": 8934,
      "menyuruhnya": 8935,
      "Anaknya": 8936,
      "mempersiapkan": 8937,
      "memperkenalkan": 8938,
      "disembunyikan": 8939,
      "distri": 8940,
      "disiramkan": 8941,
      "disinari": 8942,
      "Berhenti": 8943,
      "Bersiaplah": 8944,
      "Bertindak": 8945,
      "rodanya": 8946,
      "memulai": 8947,
      "ramal": 8948,
      "ajengk": 8949,
      "Mahal": 8950,
      "mengece": 8951,
      "tunangannya": 8952,
      "menyewa": 8953,
      "takutlah": 8954,
      "Sela": 8955,
      "Selidikilah": 8956,
      "menyadar": 8957,
      "menurutinya": 8958,
      "jauhkanlah": 8959,
      "barangmu": 8960,
      "bungkam": 8961,
      "malaikatnya": 8962,
      "Yabin": 8963,
      "embunyilah": 8964,
      "melewat": 8965,
      "menyerangmu": 8966,
      "Siapkanlah": 8967,
      "saida": 8968,
      "caci": 8969,
      "lelehan": 8970,
      "kecem": 8971,
      "Elihu": 8972,
      "Elnatan": 8973,
      "boim": 8974,
      "gerbangmu": 8975,
      "menghukumnya": 8976,
      "ikutilah": 8977,
      "berlemak": 8978,
      "Sampaikan": 8979,
      "kalajengk": 8980,
      "Asytarot": 8981,
      "Beel": 8982,
      "Bebaskanlah": 8983,
      "pikiranku": 8984,
      "Sisa": 8985,
      "jamkan": 8986,
      "baikannya": 8987,
      "baiduri": 8988,
      "mengering": 8989,
      "kiasan": 8990,
      "timpang": 8991,
[...]
