{
  "version": "1.0",
  "truncation": null,
  "padding": null,
  "added_tokens": [
    {
      "id": 0,
      "content": "<pad>",
      "single_word": false,
      "lstrip": false,
      "rstrip": false,
      "normalized": false,
      "special": true
    },
    {
      "id": 1,
      "content": "<unk>",
      "single_word": false,
      "lstrip": false,
      "rstrip": false,
      "normalized": false,
      "special": true
    },
    {
      "id": 2,
      "content": "<s>",
      "single_word": false,
      "lstrip": false,
      "rstrip": false,
      "normalized": false,
      "special": true
    },
    {
      "id": 3,
      "content": "</s>",
      "single_word": false,
      "lstrip": false,
      "rstrip": false,
      "normalized": false,
      "special": true
    }
  ],
  "normalizer": null,
  "pre_tokenizer": {
    "type": "Sequence",
    "pretokenizers": [
      {
        "type": "Whitespace"
      },
      {
        "type": "Split",
        "pattern": {
          "Regex": "(?<=[ऀ-ॿ஀-௿฀-๿຀-໿က-႟ក-៿一-鿿꤀-꤯])(?=[A-Za-z0-9])|(?<=[A-Za-z0-9])(?=[ऀ-ॿ஀-௿฀-๿຀-໿က-႟ក-៿一-鿿꤀-꤯])"
        },
        "behavior": "Isolated",
        "invert": false
      }
    ]
  },
  "post_processor": null,
  "decoder": null,
  "model": {
    "type": "BPE",
    "dropout": null,
    "unk_token": "<unk>",
    "continuing_subword_prefix": null,
    "end_of_word_suffix": null,
    "fuse_unk": false,
    "byte_fallback": false,
    "ignore_merges": false,
    "vocab": {
      "<pad>": 0,
      "<unk>": 1,
      "<s>": 2,
      "</s>": 3,
      "!": 4,
      "\"": 5,
      "#": 6,
      "$": 7,
      "%": 8,
      "&": 9,
      "'": 10,
      "(": 11,
      ")": 12,
      "*": 13,
      "+": 14,
      ",": 15,
      "-": 16,
      ".": 17,
      "/": 18,
      "0": 19,
      "1": 20,
      "2": 21,
      "3": 22,
      "4": 23,
      "5": 24,
      "6": 25,
      "7": 26,
      "8": 27,
      "9": 28,
      ":": 29,
      ";": 30,
      "=": 31,
      ">": 32,
      "?": 33,
      "@": 34,
      "A": 35,
      "B": 36,
      "C": 37,
      "D": 38,
      "E": 39,
      "F": 40,
      "G": 41,
      "H": 42,
      "I": 43,
      "J": 44,
      "K": 45,
      "L": 46,
      "M": 47,
      "N": 48,
      "O": 49,
      "P": 50,
      "Q": 51,
      "R": 52,
      "S": 53,
      "T": 54,
      "U": 55,
      "V": 56,
      "W": 57,
      "X": 58,
      "Y": 59,
      "Z": 60,
      "[": 61,
      "\\": 62,
      "]": 63,
      "^": 64,
      "_": 65,
      "`": 66,
      "a": 67,
      "b": 68,
      "c": 69,
      "d": 70,
      "e": 71,
      "f": 72,
      "g": 73,
      "h": 74,
      "i": 75,
      "j": 76,
      "k": 77,
      "l": 78,
      "m": 79,
      "n": 80,
      "o": 81,
      "p": 82,
      "q": 83,
      "r": 84,
      "s": 85,
      "t": 86,
      "u": 87,
      "v": 88,
      "w": 89,
      "x": 90,
      "y": 91,
      "z": 92,
      "{": 93,
      "|": 94,
      "}": 95,
      "": 96,
      "¤": 97,
      "©": 98,
      "«": 99,
      "­": 100,
      "°": 101,
      "·": 102,
      "»": 103,
      "½": 104,
      "Á": 105,
      "Â": 106,
      "Æ": 107,
      "É": 108,
      "Ê": 109,
      "Í": 110,
      "Ó": 111,
      "Ô": 112,
      "×": 113,
      "Ú": 114,
      "Ý": 115,
      "à": 116,
      "á": 117,
      "â": 118,
      "ã": 119,
      "æ": 120,
      "ç": 121,
      "è": 122,
      "é": 123,
      "ê": 124,
      "ë": 125,
      "ì": 126,
      "í": 127,
      "ò": 128,
      "ó": 129,
      "ô": 130,
      "õ": 131,
      "ù": 132,
      "ú": 133,
      "ý": 134,
      "Ă": 135,
      "ă": 136,
      "Đ": 137,
      "đ": 138,
      "ĩ": 139,
      "ũ": 140,
      "Ơ": 141,
      "ơ": 142,
      "Ư": 143,
      "ư": 144,
      "ʹ": 145,
      "ʻ": 146,
      "ʼ": 147,
      "ʽ": 148,
      "μ": 149,
      "π": 150,
      "ׁ": 151,
      "ה": 152,
      "ו": 153,
      "י": 154,
      "נ": 155,
      "פ": 156,
      "ש": 157,
      "ँ": 158,
      "ं": 159,
      "ः": 160,
      "अ": 161,
      "आ": 162,
      "इ": 163,
      "ई": 164,
      "उ": 165,
      "ऊ": 166,
      "ऋ": 167,
      "ए": 168,
      "ऐ": 169,
      "ओ": 170,
      "औ": 171,
      "क": 172,
      "ख": 173,
      "ग": 174,
      "घ": 175,
      "च": 176,
      "छ": 177,
      "ज": 178,
      "झ": 179,
      "ञ": 180,
      "ट": 181,
      "ठ": 182,
      "ड": 183,
      "ढ": 184,
      "ण": 185,
      "त": 186,
      "थ": 187,
      "द": 188,
      "ध": 189,
      "न": 190,
      "प": 191,
      "फ": 192,
      "ब": 193,
      "भ": 194,
      "म": 195,
      "य": 196,
      "र": 197,
      "ल": 198,
      "व": 199,
      "श": 200,
      "ष": 201,
      "स": 202,
      "ह": 203,
      "़": 204,
      "ा": 205,
      "ि": 206,
      "ी": 207,
      "ु": 208,
      "ू": 209,
      "ृ": 210,
      "ॅ": 211,
      "े": 212,
      "ै": 213,
      "ॉ": 214,
      "ो": 215,
      "ौ": 216,
      "्": 217,
      "ॠ": 218,
      "।": 219,
      "॥": 220,
      "அ": 221,
      "ஆ": 222,
      "இ": 223,
      "ஈ": 224,
      "உ": 225,
      "ஊ": 226,
      "எ": 227,
      "ஏ": 228,
      "ஐ": 229,
      "ஒ": 230,
      "ஓ": 231,
      "க": 232,
      "ங": 233,
      "ச": 234,
      "ஜ": 235,
      "ஞ": 236,
      "ட": 237,
      "ண": 238,
      "த": 239,
      "ந": 240,
      "ன": 241,
      "ப": 242,
      "ம": 243,
      "ய": 244,
      "ர": 245,
      "ற": 246,
      "ல": 247,
      "ள": 248,
      "ழ": 249,
      "வ": 250,
      "ஷ": 251,
      "ஸ": 252,
      "ஹ": 253,
      "ா": 254,
      "ி": 255,
      "ீ": 256,
      "ு": 257,
      "ூ": 258,
      "ெ": 259,
      "ே": 260,
      "ை": 261,
      "ொ": 262,
      "ோ": 263,
      "ௌ": 264,
      "்": 265,
      "ก": 266,
      "ข": 267,
      "ค": 268,
      "ฆ": 269,
      "ง": 270,
      "จ": 271,
      "ฉ": 272,
      "ช": 273,
      "ซ": 274,
      "ฌ": 275,
      "ญ": 276,
      "ฎ": 277,
      "ฏ": 278,
      "ฐ": 279,
      "ฑ": 280,
      "ฒ": 281,
      "ณ": 282,
      "ด": 283,
      "ต": 284,
      "ถ": 285,
      "ท": 286,
      "ธ": 287,
      "น": 288,
      "บ": 289,
      "ป": 290,
      "ผ": 291,
      "ฝ": 292,
      "พ": 293,
      "ฟ": 294,
      "ภ": 295,
      "ม": 296,
      "ย": 297,
      "ร": 298,
      "ฤ": 299,
      "ล": 300,
      "ว": 301,
      "ศ": 302,
      "ษ": 303,
      "ส": 304,
      "ห": 305,
      "ฬ": 306,
      "อ": 307,
      "ฮ": 308,
      "ะ": 309,
      "ั": 310,
      "า": 311,
      "ำ": 312,
      "ิ": 313,
      "ี": 314,
      "ึ": 315,
      "ื": 316,
      "ุ": 317,
      "ู": 318,
      "เ": 319,
      "แ": 320,
      "โ": 321,
      "ใ": 322,
      "ไ": 323,
      "ๆ": 324,
      "็": 325,
      "่": 326,
      "้": 327,
      "๊": 328,
      "๋": 329,
      "์": 330,
      "ํ": 331,
      "ກ": 332,
      "ຂ": 333,
      "ຄ": 334,
      "ງ": 335,
      "ຈ": 336,
      "ຊ": 337,
      "ຍ": 338,
      "ດ": 339,
      "ຕ": 340,
      "ຖ": 341,
      "ທ": 342,
      "ນ": 343,
      "ບ": 344,
      "ປ": 345,
      "ຜ": 346,
      "ຝ": 347,
      "ພ": 348,
      "ຟ": 349,
      "ມ": 350,
      "ຢ": 351,
      "ຣ": 352,
      "ລ": 353,
      "ວ": 354,
      "ສ": 355,
      "ຫ": 356,
      "ອ": 357,
      "ຮ": 358,
      "ະ": 359,
      "ັ": 360,
      "າ": 361,
      "ຳ": 362,
      "ິ": 363,
      "ີ": 364,
      "ຶ": 365,
      "ື": 366,
      "ຸ": 367,
      "ູ": 368,
      "ົ": 369,
      "ຼ": 370,
      "ຽ": 371,
      "ເ": 372,
      "ແ": 373,
      "ໂ": 374,
      "ໃ": 375,
      "ໄ": 376,
      "ໆ": 377,
      "່": 378,
      "້": 379,
      "໋": 380,
      "ໍ": 381,
      "ໜ": 382,
      "ໝ": 383,
      "က": 384,
      "ခ": 385,
      "ဂ": 386,
      "ဃ": 387,
      "င": 388,
      "စ": 389,
      "ဆ": 390,
      "ဇ": 391,
      "ဈ": 392,
      "ဉ": 393,
      "ည": 394,
      "ဋ": 395,
      "ဌ": 396,
      "ဍ": 397,
      "ဎ": 398,
      "ဏ": 399,
      "တ": 400,
      "ထ": 401,
      "ဒ": 402,
      "ဓ": 403,
      "န": 404,
      "ပ": 405,
      "ဖ": 406,
      "ဗ": 407,
      "ဘ": 408,
      "မ": 409,
      "ယ": 410,
      "ရ": 411,
      "လ": 412,
      "ဝ": 413,
      "သ": 414,
      "ဟ": 415,
      "ဠ": 416,
      "အ": 417,
      "ဢ": 418,
      "ဣ": 419,
      "ဤ": 420,
      "ဥ": 421,
      "ဦ": 422,
      "ဧ": 423,
      "ဩ": 424,
      "ဪ": 425,
      "ါ": 426,
      "ာ": 427,
      "ိ": 428,
      "ီ": 429,
      "ု": 430,
      "ူ": 431,
      "ေ": 432,
      "ဲ": 433,
      "ဳ": 434,
      "ဵ": 435,
      "ံ": 436,
      "့": 437,
      "း": 438,
      "္": 439,
      "်": 440,
      "ျ": 441,
      "ြ": 442,
      "ွ": 443,
      "ှ": 444,
      "ဿ": 445,
      "၀": 446,
      "၁": 447,
      "၂": 448,
      "၃": 449,
      "၄": 450,
      "၅": 451,
      "၆": 452,
      "၇": 453,
      "၈": 454,
      "၉": 455,
      "၊": 456,
      "။": 457,
      "၌": 458,
      "၍": 459,
      "၎": 460,
      "၏": 461,
      "ၠ": 462,
      "ၡ": 463,
      "ၢ": 464,
      "ၣ": 465,
      "ၤ": 466,
      "ၥ": 467,
      "ၦ": 468,
      "ၧ": 469,
      "ၨ": 470,
      "ၩ": 471,
      "ၪ": 472,
      "ၫ": 473,
      "ၬ": 474,
      "ၭ": 475,
      "ၱ": 476,
      "ၵ": 477,
      "ၶ": 478,
      "ၷ": 479,
      "ၸ": 480,
      "ၹ": 481,
      "ၺ": 482,
      "ၻ": 483,
      "ၼ": 484,
      "ၽ": 485,
      "ၾ": 486,
      "ၿ": 487,
      "ႁ": 488,
      "ႂ": 489,
      "ႃ": 490,
      "ႄ": 491,
      "ႅ": 492,
      "ႆ": 493,
      "ႇ": 494,
      "ႈ": 495,
      "ႉ": 496,
      "ႊ": 497,
      "ႌ": 498,
      "႐": 499,
      "႑": 500,
      "႒": 501,
      "႓": 502,
      "႔": 503,
      "႕": 504,
      "႖": 505,
      "႘": 506,
      "႙": 507,
      "႞": 508,
      "ក": 509,
      "ខ": 510,
      "គ": 511,
      "ឃ": 512,
      "ង": 513,
      "ច": 514,
      "ឆ": 515,
      "ជ": 516,
      "ឈ": 517,
      "ញ": 518,
      "ដ": 519,
      "ឋ": 520,
      "ឌ": 521,
      "ណ": 522,
      "ត": 523,
      "ថ": 524,
      "ទ": 525,
      "ធ": 526,
      "ន": 527,
      "ប": 528,
      "ផ": 529,
      "ព": 530,
      "ភ": 531,
      "ម": 532,
      "យ": 533,
      "រ": 534,
      "ល": 535,
      "វ": 536,
      "ស": 537,
      "ហ": 538,
      "ឡ": 539,
      "អ": 540,
      "ឤ": 541,
      "ឥ": 542,
      "ឧ": 543,
      "ឪ": 544,
      "ឫ": 545,
      "ឬ": 546,
      "ឭ": 547,
      "ឮ": 548,
      "ឯ": 549,
      "ឱ": 550,
      "ឲ": 551,
      "ា": 552,
      "ិ": 553,
      "ី": 554,
      "ឹ": 555,
      "ឺ": 556,
      "ុ": 557,
      "ូ": 558,
      "ួ": 559,
      "ើ": 560,
      "ឿ": 561,
      "ៀ": 562,
      "េ": 563,
      "ែ": 564,
      "ៃ": 565,
      "ោ": 566,
      "ៅ": 567,
      "ំ": 568,
      "ះ": 569,
      "ៈ": 570,
      "៉": 571,
      "៊": 572,
      "់": 573,
      "៌": 574,
      "៍": 575,
      "៎": 576,
      "៏": 577,
      "័": 578,
      "្": 579,
      "។": 580,
      "៕": 581,
      "៖": 582,
      "ៗ": 583,
      "Ṭ": 584,
      "ṭ": 585,
      "Ạ": 586,
      "ạ": 587,
      "Ả": 588,
      "ả": 589,
      "Ấ": 590,
      "ấ": 591,
      "ầ": 592,
      "ẩ": 593,
      "ẫ": 594,
      "ậ": 595,
      "Ắ": 596,
      "ắ": 597,
      "ằ": 598,
      "ẳ": 599,
      "Ẵ": 600,
      "ẵ": 601,
      "ặ": 602,
      "ẹ": 603,
      "ẻ": 604,
      "ẽ": 605,
      "Ế": 606,
      "ế": 607,
      "ề": 608,
      "ể": 609,
      "ễ": 610,
      "ệ": 611,
      "ỉ": 612,
      "ị": 613,
      "Ọ": 614,
      "ọ": 615,
      "ỏ": 616,
      "Ố": 617,
      "ố": 618,
      "Ồ": 619,
      "ồ": 620,
      "ổ": 621,
      "ỗ": 622,
      "ộ": 623,
      "ớ": 624,
      "ờ": 625,
      "Ở": 626,
      "ở": 627,
      "ỡ": 628,
      "ợ": 629,
      "ụ": 630,
      "Ủ": 631,
      "ủ": 632,
      "Ứ": 633,
      "ứ": 634,
      "ừ": 635,
      "ử": 636,
      "ữ": 637,
      "ự": 638,
      "ỳ": 639,
      "ỵ": 640,
      "ỷ": 641,
      "ỹ": 642,
      "​": 643,
      "‌": 644,
      "‍": 645,
      "‏": 646,
      "–": 647,
      "—": 648,
      "‘": 649,
      "’": 650,
      "‚": 651,
      "“": 652,
      "”": 653,
      "„": 654,
      "•": 655,
      "…": 656,
      "″": 657,
      "›": 658,
      "⁠": 659,
      "−": 660,
      "▸": 661,
      "●": 662,
      "、": 663,
      "。": 664,
      "《": 665,
      "》": 666,
      "䍁": 667,
      "一": 668,
      "丁": 669,
      "七": 670,
      "万": 671,
      "丈": 672,
      "三": 673,
      "上": 674,
      "下": 675,
      "不": 676,
      "与": 677,
      "丐": 678,
      "丑": 679,
      "专": 680,
      "且": 681,
      "世": 682,
      "丘": 683,
      "业": 684,
      "丛": 685,
      "东": 686,
      "丝": 687,
      "丢": 688,
      "两": 689,
      "严": 690,
      "丧": 691,
      "个": 692,
      "中": 693,
      "丰": 694,
      "串": 695,
      "临": 696,
      "丸": 697,
      "丹": 698,
      "为": 699,
      "主": 700,
      "丽": 701,
      "举": 702,
      "乃": 703,
      "久": 704,
      "么": 705,
      "义": 706,
      "之": 707,
      "乌": 708,
      "乎": 709,
      "乏": 710,
      "乐": 711,
      "乔": 712,
      "乖": 713,
      "乘": 714,
      "九": 715,
      "乞": 716,
      "也": 717,
      "习": 718,
      "乡": 719,
      "书": 720,
      "买": 721,
      "乱": 722,
      "乳": 723,
      "了": 724,
      "予": 725,
      "争": 726,
      "事": 727,
      "二": 728,
      "于": 729,
      "亏": 730,
      "云": 731,
      "互": 732,
      "五": 733,
      "井": 734,
      "亘": 735,
      "亚": 736,
      "些": 737,
      "亡": 738,
      "亢": 739,
      "交": 740,
      "亥": 741,
      "产": 742,
      "亨": 743,
      "亩": 744,
      "享": 745,
      "京": 746,
      "亭": 747,
      "亮": 748,
      "亲": 749,
      "亵": 750,
      "人": 751,
      "亿": 752,
      "什": 753,
      "仁": 754,
      "仃": 755,
      "仅": 756,
      "仆": 757,
      "仇": 758,
      "今": 759,
      "介": 760,
      "仍": 761,
      "从": 762,
      "仑": 763,
      "仓": 764,
      "仔": 765,
      "他": 766,
      "仗": 767,
      "付": 768,
      "仙": 769,
      "代": 770,
      "令": 771,
      "以": 772,
      "仪": 773,
      "们": 774,
      "仰": 775,
      "仲": 776,
      "件": 777,
      "价": 778,
      "任": 779,
      "份": 780,
      "仿": 781,
      "企": 782,
      "伊": 783,
      "伍": 784,
      "伏": 785,
      "伐": 786,
      "休": 787,
      "众": 788,
      "优": 789,
      "伙": 790,
      "会": 791,
      "伟": 792,
      "传": 793,
      "伤": 794,
      "伦": 795,
      "伪": 796,
      "伯": 797,
      "估": 798,
      "伴": 799,
      "伶": 800,
      "伸": 801,
      "伺": 802,
      "似": 803,
      "伽": 804,
      "佃": 805,
      "但": 806,
      "位": 807,
      "低": 808,
      "住": 809,
      "佐": 810,
      "体": 811,
      "何": 812,
      "余": 813,
      "佛": 814,
      "作": 815,
      "你": 816,
      "佣": 817,
      "佩": 818,
      "佳": 819,
      "使": 820,
      "侄": 821,
      "侈": 822,
      "例": 823,
      "侍": 824,
      "侏": 825,
      "供": 826,
      "依": 827,
      "侣": 828,
      "侦": 829,
      "侧": 830,
      "侨": 831,
      "侮": 832,
      "侵": 833,
      "便": 834,
      "促": 835,
      "俄": 836,
      "俊": 837,
      "俏": 838,
      "俗": 839,
      "俘": 840,
      "保": 841,
      "信": 842,
      "俩": 843,
      "修": 844,
      "俯": 845,
      "俱": 846,
      "俸": 847,
      "倍": 848,
      "倒": 849,
      "候": 850,
      "倚": 851,
      "借": 852,
      "倡": 853,
      "倦": 854,
      "债": 855,
      "值": 856,
      "倾": 857,
      "假": 858,
      "偎": 859,
      "偏": 860,
      "做": 861,
      "停": 862,
      "健": 863,
      "偶": 864,
      "偷": 865,
      "偿": 866,
      "傅": 867,
      "傍": 868,
      "储": 869,
      "催": 870,
      "傲": 871,
      "像": 872,
      "僚": 873,
      "僭": 874,
      "僵": 875,
      "僻": 876,
      "儒": 877,
      "儿": 878,
      "允": 879,
      "元": 880,
      "兄": 881,
      "充": 882,
      "兆": 883,
      "先": 884,
      "光": 885,
      "克": 886,
      "免": 887,
      "兑": 888,
      "兔": 889,
      "党": 890,
      "兜": 891,
      "兢": 892,
      "入": 893,
      "全": 894,
      "八": 895,
      "公": 896,
      "六": 897,
      "兰": 898,
      "共": 899,
      "关": 900,
      "兴": 901,
      "兵": 902,
      "其": 903,
      "具": 904,
      "典": 905,
      "兹": 906,
      "养": 907,
      "兼": 908,
      "兽": 909,
      "内": 910,
      "冈": 911,
      "册": 912,
      "再": 913,
      "冒": 914,
      "冕": 915,
      "写": 916,
      "军": 917,
      "农": 918,
      "冠": 919,
      "冤": 920,
      "冥": 921,
      "冬": 922,
      "冰": 923,
      "冲": 924,
      "决": 925,
      "况": 926,
      "冶": 927,
      "冷": 928,
      "冻": 929,
      "净": 930,
      "凄": 931,
      "准": 932,
      "凉": 933,
      "凋": 934,
      "凌": 935,
      "减": 936,
      "凝": 937,
      "几": 938,
      "凡": 939,
      "凤": 940,
      "凭": 941,
      "凯": 942,
      "凳": 943,
      "凶": 944,
      "凸": 945,
      "出": 946,
      "击": 947,
      "函": 948,
      "凿": 949,
      "刀": 950,
      "刃": 951,
      "分": 952,
      "切": 953,
      "刍": 954,
      "刑": 955,
      "划": 956,
      "列": 957,
      "则": 958,
      "刚": 959,
      "创": 960,
      "初": 961,
      "删": 962,
      "判": 963,
      "刨": 964,
      "利": 965,
      "别": 966,
      "刮": 967,
      "到": 968,
      "制": 969,
      "刷": 970,
      "刹": 971,
      "刺": 972,
      "刻": 973,
      "刽": 974,
      "剃": 975,
      "削": 976,
      "前": 977,
      "剐": 978,
      "剑": 979,
      "剔": 980,
      "剖": 981,
      "剜": 982,
      "剥": 983,
      "剧": 984,
      "剩": 985,
      "剪": 986,
      "副": 987,
      "割": 988,
      "劈": 989,
      "力": 990,
      "劝": 991,
      "办": 992,
      "功": 993,
      "加": 994,
      "务": 995,
      "劣": 996,
      "动": 997,
      "助": 998,
      "努": 999,
      "劫": 1000,
      "励": 1001,
      "劳": 1002,
      "势": 1003,
      "勃": 1004,
      "勇": 1005,
      "勉": 1006,
      "勒": 1007,
      "募": 1008,
      "勤": 1009,
      "勺": 1010,
      "勾": 1011,
      "匀": 1012,
      "包": 1013,
      "匆": 1014,
      "匏": 1015,
      "化": 1016,
      "北": 1017,
      "匙": 1018,
      "匠": 1019,
      "匪": 1020,
      "匹": 1021,
      "区": 1022,
      "医": 1023,
      "匿": 1024,
      "十": 1025,
      "千": 1026,
      "升": 1027,
      "午": 1028,
      "半": 1029,
      "华": 1030,
      "协": 1031,
      "卑": 1032,
      "卒": 1033,
      "卓": 1034,
      "单": 1035,
      "卖": 1036,
      "南": 1037,
      "博": 1038,
      "卜": 1039,
      "占": 1040,
      "卡": 1041,
      "卢": 1042,
      "卧": 1043,
      "卫": 1044,
      "印": 1045,
      "危": 1046,
      "即": 1047,
      "却": 1048,
      "卷": 1049,
      "卸": 1050,
      "厅": 1051,
      "历": 1052,
      "厉": 1053,
      "压": 1054,
      "厌": 1055,
      "厕": 1056,
      "厚": 1057,
      "原": 1058,
      "厢": 1059,
      "厨": 1060,
      "厩": 1061,
      "去": 1062,
      "叁": 1063,
      "参": 1064,
      "又": 1065,
      "叉": 1066,
      "及": 1067,
      "友": 1068,
      "双": 1069,
      "反": 1070,
      "发": 1071,
      "叔": 1072,
      "取": 1073,
      "受": 1074,
      "变": 1075,
      "叙": 1076,
      "叛": 1077,
      "叠": 1078,
      "口": 1079,
      "古": 1080,
      "句": 1081,
      "另": 1082,
      "叩": 1083,
      "只": 1084,
      "叫": 1085,
      "召": 1086,
      "叮": 1087,
      "可": 1088,
      "台": 1089,
      "叱": 1090,
      "史": 1091,
      "右": 1092,
      "叶": 1093,
      "号": 1094,
      "司": 1095,
      "叹": 1096,
      "叼": 1097,
      "吁": 1098,
      "吃": 1099,
      "各": 1100,
      "吆": 1101,
      "合": 1102,
      "吉": 1103,
      "吊": 1104,
      "同": 1105,
      "名": 1106,
      "后": 1107,
      "吏": 1108,
      "吐": 1109,
      "向": 1110,
      "吓": 1111,
      "吕": 1112,
      "吗": 1113,
      "君": 1114,
      "吝": 1115,
      "吞": 1116,
      "吟": 1117,
      "吠": 1118,
      "否": 1119,
      "吧": 1120,
      "吩": 1121,
      "含": 1122,
      "听": 1123,
      "吮": 1124,
      "启": 1125,
      "吴": 1126,
      "吵": 1127,
      "吸": 1128,
      "吹": 1129,
      "吻": 1130,
      "吼": 1131,
      "吾": 1132,
      "呀": 1133,
      "呆": 1134,
      "呈": 1135,
      "告": 1136,
      "呐": 1137,
      "呕": 1138,
      "员": 1139,
      "呢": 1140,
      "周": 1141,
      "味": 1142,
      "呵": 1143,
      "呻": 1144,
      "呼": 1145,
      "命": 1146,
      "咆": 1147,
      "和": 1148,
      "咐": 1149,
      "咒": 1150,
      "咖": 1151,
      "咙": 1152,
      "咬": 1153,
      "咳": 1154,
      "咸": 1155,
      "咽": 1156,
      "哀": 1157,
      "品": 1158,
      "哄": 1159,
      "哇": 1160,
      "哈": 1161,
      "哉": 1162,
      "响": 1163,
      "哑": 1164,
      "哒": 1165,
      "哗": 1166,
      "哥": 1167,
      "哦": 1168,
      "哨": 1169,
      "哪": 1170,
      "哭": 1171,
      "哮": 1172,
      "哲": 1173,
      "哺": 1174,
      "哼": 1175,
      "唁": 1176,
      "唆": 1177,
      "唇": 1178,
      "唉": 1179,
      "唤": 1180,
      "售": 1181,
      "唯": 1182,
      "唱": 1183,
      "唾": 1184,
      "啃": 1185,
      "啄": 1186,
      "商": 1187,
      "啊": 1188,
      "啕": 1189,
      "啬": 1190,
      "啸": 1191,
      "啼": 1192,
      "喀": 1193,
      "喂": 1194,
      "喃": 1195,
      "善": 1196,
      "喉": 1197,
      "喊": 1198,
      "喘": 1199,
      "喜": 1200,
      "喝": 1201,
      "喧": 1202,
      "喷": 1203,
      "喻": 1204,
      "嗅": 1205,
      "嗉": 1206,
      "嗐": 1207,
      "嗒": 1208,
      "嗜": 1209,
      "嗡": 1210,
      "嗣": 1211,
      "嗤": 1212,
      "嘈": 1213,
      "嘘": 1214,
      "嘱": 1215,
      "嘲": 1216,
      "嘴": 1217,
      "嘶": 1218,
      "嘹": 1219,
      "器": 1220,
      "噩": 1221,
      "噬": 1222,
      "嚎": 1223,
      "嚏": 1224,
      "嚣": 1225,
      "嚷": 1226,
      "嚼": 1227,
      "囊": 1228,
      "囚": 1229,
      "四": 1230,
      "回": 1231,
      "因": 1232,
      "团": 1233,
      "囫": 1234,
      "园": 1235,
      "困": 1236,
      "围": 1237,
      "囵": 1238,
      "固": 1239,
      "国": 1240,
      "图": 1241,
      "圃": 1242,
      "圆": 1243,
      "圈": 1244,
      "土": 1245,
      "圣": 1246,
      "在": 1247,
      "地": 1248,
      "场": 1249,
      "圾": 1250,
      "均": 1251,
      "坍": 1252,
      "坎": 1253,
      "坏": 1254,
      "坐": 1255,
      "坑": 1256,
      "块": 1257,
      "坚": 1258,
      "坛": 1259,
      "坟": 1260,
      "坠": 1261,
      "坡": 1262,
      "坦": 1263,
      "垂": 1264,
      "垃": 1265,
      "型": 1266,
      "垒": 1267,
      "垛": 1268,
      "垣": 1269,
      "垦": 1270,
      "垫": 1271,
      "垮": 1272,
      "埃": 1273,
      "埋": 1274,
      "城": 1275,
      "域": 1276,
      "培": 1277,
      "基": 1278,
      "堂": 1279,
      "堆": 1280,
      "堕": 1281,
      "堡": 1282,
      "堤": 1283,
      "堪": 1284,
      "堵": 1285,
      "塌": 1286,
      "塑": 1287,
      "塔": 1288,
      "塘": 1289,
      "塞": 1290,
      "填": 1291,
      "境": 1292,
      "墓": 1293,
      "墙": 1294,
      "增": 1295,
      "墟": 1296,
      "墨": 1297,
      "墩": 1298,
      "壁": 1299,
      "壤": 1300,
      "士": 1301,
      "壮": 1302,
      "声": 1303,
      "壳": 1304,
      "壶": 1305,
      "处": 1306,
      "备": 1307,
      "复": 1308,
      "夏": 1309,
      "外": 1310,
      "多": 1311,
      "夜": 1312,
      "够": 1313,
      "大": 1314,
      "天": 1315,
      "太": 1316,
      "夫": 1317,
      "夭": 1318,
      "央": 1319,
      "失": 1320,
      "头": 1321,
      "夷": 1322,
      "夸": 1323,
      "夹": 1324,
      "夺": 1325,
      "奇": 1326,
      "奈": 1327,
      "奉": 1328,
      "奋": 1329,
      "奎": 1330,
      "奏": 1331,
      "契": 1332,
      "奔": 1333,
      "奕": 1334,
      "奖": 1335,
      "套": 1336,
      "奠": 1337,
      "奢": 1338,
      "奥": 1339,
      "女": 1340,
      "奴": 1341,
      "奶": 1342,
      "奸": 1343,
      "她": 1344,
      "好": 1345,
      "如": 1346,
      "妃": 1347,
      "妄": 1348,
      "妆": 1349,
      "妇": 1350,
      "妈": 1351,
      "妒": 1352,
      "妓": 1353,
      "妙": 1354,
      "妥": 1355,
      "妨": 1356,
      "妮": 1357,
      "妲": 1358,
      "妹": 1359,
      "妻": 1360,
      "妾": 1361,
      "姆": 1362,
      "始": 1363,
      "姐": 1364,
      "姑": 1365,
      "姓": 1366,
      "委": 1367,
      "姨": 1368,
      "姻": 1369,
      "姿": 1370,
      "威": 1371,
      "娃": 1372,
      "娅": 1373,
      "娇": 1374,
      "娈": 1375,
      "娘": 1376,
      "娜": 1377,
      "娢": 1378,
      "娥": 1379,
      "娩": 1380,
      "娱": 1381,
      "娶": 1382,
      "娼": 1383,
      "婆": 1384,
      "婚": 1385,
      "婢": 1386,
      "婪": 1387,
      "婴": 1388,
      "婿": 1389,
      "媚": 1390,
      "媳": 1391,
      "嫁": 1392,
      "嫂": 1393,
      "嫉": 1394,
      "嫌": 1395,
      "嫔": 1396,
      "嫩": 1397,
      "孀": 1398,
      "子": 1399,
      "孔": 1400,
      "孕": 1401,
      "字": 1402,
      "存": 1403,
      "孙": 1404,
      "孝": 1405,
      "季": 1406,
      "孤": 1407,
      "学": 1408,
      "孩": 1409,
      "孵": 1410,
      "孽": 1411,
      "宁": 1412,
      "它": 1413,
      "宅": 1414,
      "宇": 1415,
      "守": 1416,
      "安": 1417,
      "完": 1418,
      "宏": 1419,
      "宗": 1420,
      "官": 1421,
      "宙": 1422,
      "定": 1423,
      "宜": 1424,
      "宝": 1425,
      "实": 1426,
      "宠": 1427,
      "审": 1428,
      "客": 1429,
      "宣": 1430,
      "室": 1431,
      "宫": 1432,
      "宰": 1433,
      "害": 1434,
      "宴": 1435,
      "家": 1436,
      "容": 1437,
      "宽": 1438,
      "宾": 1439,
      "宿": 1440,
      "寂": 1441,
      "寄": 1442,
      "密": 1443,
      "富": 1444,
      "寒": 1445,
      "寓": 1446,
      "寝": 1447,
      "察": 1448,
      "寡": 1449,
      "寥": 1450,
      "寨": 1451,
      "寸": 1452,
      "对": 1453,
      "寻": 1454,
      "导": 1455,
      "寿": 1456,
      "封": 1457,
      "射": 1458,
      "将": 1459,
      "尊": 1460,
      "小": 1461,
      "少": 1462,
      "尔": 1463,
      "尖": 1464,
      "尘": 1465,
      "尚": 1466,
      "尝": 1467,
      "尤": 1468,
      "尬": 1469,
      "就": 1470,
      "尴": 1471,
      "尸": 1472,
      "尺": 1473,
      "尼": 1474,
      "尽": 1475,
      "尾": 1476,
      "尿": 1477,
      "局": 1478,
      "层": 1479,
      "居": 1480,
      "屈": 1481,
      "屋": 1482,
      "屏": 1483,
      "屑": 1484,
      "展": 1485,
      "属": 1486,
      "屠": 1487,
      "屡": 1488,
      "履": 1489,
      "屯": 1490,
      "山": 1491,
      "屹": 1492,
      "岁": 1493,
      "岂": 1494,
      "岔": 1495,
      "岖": 1496,
      "岗": 1497,
      "岛": 1498,
      "岩": 1499,
      "岬": 1500,
      "岭": 1501,
      "岳": 1502,
      "岸": 1503,
      "峙": 1504,
      "峭": 1505,
      "峰": 1506,
      "峻": 1507,
      "崇": 1508,
      "崎": 1509,
      "崖": 1510,
      "崩": 1511,
      "崭": 1512,
      "嵌": 1513,
      "巅": 1514,
      "巡": 1515,
      "巢": 1516,
      "工": 1517,
      "左": 1518,
      "巧": 1519,
      "巨": 1520,
      "巩": 1521,
      "巫": 1522,
      "差": 1523,
      "己": 1524,
      "已": 1525,
      "巴": 1526,
      "巷": 1527,
      "巾": 1528,
      "币": 1529,
      "市": 1530,
      "布": 1531,
      "帅": 1532,
      "帆": 1533,
      "师": 1534,
      "希": 1535,
      "帐": 1536,
      "帕": 1537,
      "帖": 1538,
      "帘": 1539,
      "帚": 1540,
      "帜": 1541,
      "帝": 1542,
      "带": 1543,
      "席": 1544,
      "帮": 1545,
      "帷": 1546,
      "常": 1547,
      "幅": 1548,
      "幔": 1549,
      "幕": 1550,
      "干": 1551,
      "平": 1552,
      "年": 1553,
      "并": 1554,
      "幸": 1555,
      "幻": 1556,
      "幼": 1557,
      "幽": 1558,
      "广": 1559,
      "庄": 1560,
      "庆": 1561,
      "庇": 1562,
      "床": 1563,
      "序": 1564,
      "库": 1565,
      "应": 1566,
      "底": 1567,
      "店": 1568,
      "庙": 1569,
      "府": 1570,
      "庞": 1571,
      "废": 1572,
      "度": 1573,
      "座": 1574,
      "庭": 1575,
      "康": 1576,
      "廉": 1577,
      "廊": 1578,
      "廓": 1579,
      "延": 1580,
      "廷": 1581,
      "建": 1582,
      "开": 1583,
      "异": 1584,
      "弃": 1585,
      "弄": 1586,
      "式": 1587,
      "弑": 1588,
      "弓": 1589,
      "引": 1590,
      "弗": 1591,
      "弛": 1592,
      "弟": 1593,
      "张": 1594,
      "弥": 1595,
      "弦": 1596,
      "弯": 1597,
      "弱": 1598,
      "弹": 1599,
      "强": 1600,
      "归": 1601,
      "当": 1602,
      "录": 1603,
      "形": 1604,
      "彩": 1605,
      "彰": 1606,
      "影": 1607,
      "役": 1608,
      "彻": 1609,
      "彼": 1610,
      "往": 1611,
      "征": 1612,
      "径": 1613,
      "待": 1614,
      "徇": 1615,
      "很": 1616,
      "徉": 1617,
      "徊": 1618,
      "律": 1619,
      "徐": 1620,
      "徒": 1621,
      "得": 1622,
      "徘": 1623,
      "徙": 1624,
      "徜": 1625,
      "御": 1626,
      "循": 1627,
      "微": 1628,
      "德": 1629,
      "心": 1630,
      "必": 1631,
      "忆": 1632,
      "忌": 1633,
      "忍": 1634,
      "志": 1635,
      "忘": 1636,
      "忙": 1637,
      "忠": 1638,
      "忡": 1639,
      "忤": 1640,
      "忧": 1641,
      "快": 1642,
      "念": 1643,
      "忽": 1644,
      "怀": 1645,
      "态": 1646,
      "怂": 1647,
      "怎": 1648,
      "怒": 1649,
      "怕": 1650,
      "怖": 1651,
      "怜": 1652,
      "思": 1653,
      "怠": 1654,
      "急": 1655,
      "性": 1656,
      "怨": 1657,
      "怪": 1658,
      "怯": 1659,
      "总": 1660,
      "恋": 1661,
      "恐": 1662,
      "恒": 1663,
      "恕": 1664,
      "恙": 1665,
      "恢": 1666,
      "恤": 1667,
      "恨": 1668,
      "恩": 1669,
      "恭": 1670,
      "息": 1671,
      "恰": 1672,
      "恳": 1673,
      "恶": 1674,
      "恸": 1675,
      "恼": 1676,
      "恿": 1677,
      "悄": 1678,
      "悉": 1679,
      "悍": 1680,
      "悔": 1681,
      "悖": 1682,
      "悟": 1683,
      "悠": 1684,
      "患": 1685,
      "悦": 1686,
      "您": 1687,
      "悬": 1688,
      "悯": 1689,
      "悲": 1690,
      "悴": 1691,
      "悼": 1692,
      "情": 1693,
      "惊": 1694,
      "惑": 1695,
      "惕": 1696,
      "惜": 1697,
      "惠": 1698,
      "惧": 1699,
      "惨": 1700,
      "惩": 1701,
      "惫": 1702,
      "惬": 1703,
      "惭": 1704,
      "惮": 1705,
      "惯": 1706,
      "惰": 1707,
      "想": 1708,
      "惶": 1709,
      "惹": 1710,
      "愁": 1711,
      "愆": 1712,
      "愈": 1713,
      "愉": 1714,
      "意": 1715,
      "愕": 1716,
      "愚": 1717,
      "感": 1718,
      "愤": 1719,
      "愧": 1720,
      "愿": 1721,
      "慈": 1722,
      "慌": 1723,
      "慎": 1724,
      "慕": 1725,
      "慢": 1726,
      "慧": 1727,
      "慨": 1728,
      "慰": 1729,
      "慷": 1730,
      "憎": 1731,
      "憔": 1732,
      "懂": 1733,
      "懈": 1734,
      "懊": 1735,
      "懒": 1736,
      "戈": 1737,
      "戏": 1738,
      "成": 1739,
      "我": 1740,
      "戒": 1741,
      "或": 1742,
      "战": 1743,
      "戚": 1744,
      "截": 1745,
      "戮": 1746,
      "戴": 1747,
      "户": 1748,
      "房": 1749,
      "所": 1750,
      "扁": 1751,
      "扇": 1752,
      "手": 1753,
      "才": 1754,
      "扎": 1755,
      "扑": 1756,
      "打": 1757,
      "扔": 1758,
      "托": 1759,
      "扛": 1760,
      "扣": 1761,
      "执": 1762,
      "扩": 1763,
      "扪": 1764,
      "扫": 1765,
      "扬": 1766,
      "扭": 1767,
      "扮": 1768,
      "扯": 1769,
      "扰": 1770,
      "扶": 1771,
      "批": 1772,
      "找": 1773,
      "承": 1774,
      "技": 1775,
      "抄": 1776,
      "抉": 1777,
      "把": 1778,
      "抑": 1779,
      "抓": 1780,
      "投": 1781,
      "抖": 1782,
      "抗": 1783,
      "折": 1784,
      "抚": 1785,
      "抛": 1786,
      "抟": 1787,
      "抡": 1788,
      "抢": 1789,
      "护": 1790,
      "报": 1791,
      "披": 1792,
      "抬": 1793,
      "抱": 1794,
      "抵": 1795,
      "抹": 1796,
      "押": 1797,
      "抽": 1798,
      "抿": 1799,
      "拃": 1800,
      "拄": 1801,
      "担": 1802,
      "拆": 1803,
      "拇": 1804,
      "拉": 1805,
      "拌": 1806,
      "拍": 1807,
      "拐": 1808,
      "拒": 1809,
      "拓": 1810,
      "拔": 1811,
      "拖": 1812,
      "拘": 1813,
      "拙": 1814,
      "招": 1815,
      "拜": 1816,
      "拢": 1817,
      "拣": 1818,
      "拥": 1819,
      "拦": 1820,
      "拧": 1821,
      "拨": 1822,
      "择": 1823,
      "括": 1824,
      "拯": 1825,
      "拳": 1826,
      "拴": 1827,
      "拷": 1828,
      "拼": 1829,
      "拽": 1830,
      "拾": 1831,
      "拿": 1832,
      "持": 1833,
      "挂": 1834,
      "指": 1835,
      "按": 1836,
      "挑": 1837,
      "挖": 1838,
      "挠": 1839,
      "挡": 1840,
      "挣": 1841,
      "挤": 1842,
      "挥": 1843,
      "挨": 1844,
      "挪": 1845,
      "挫": 1846,
      "振": 1847,
      "挺": 1848,
      "挽": 1849,
      "捂": 1850,
      "捆": 1851,
      "捉": 1852,
      "捏": 1853,
      "捐": 1854,
      "捕": 1855,
      "捞": 1856,
      "损": 1857,
      "捡": 1858,
      "换": 1859,
      "捣": 1860,
      "捧": 1861,
      "据": 1862,
      "捶": 1863,
      "捷": 1864,
      "捺": 1865,
      "捻": 1866,
      "掀": 1867,
      "授": 1868,
      "掉": 1869,
      "掌": 1870,
      "掏": 1871,
      "掐": 1872,
      "排": 1873,
      "掘": 1874,
      "掠": 1875,
      "探": 1876,
      "接": 1877,
      "控": 1878,
      "推": 1879,
      "掩": 1880,
      "措": 1881,
      "掰": 1882,
      "掳": 1883,
      "掷": 1884,
      "掺": 1885,
      "揉": 1886,
      "描": 1887,
      "提": 1888,
      "插": 1889,
      "握": 1890,
      "揪": 1891,
      "揭": 1892,
      "揲": 1893,
      "援": 1894,
      "搀": 1895,
      "搁": 1896,
      "搂": 1897,
      "搅": 1898,
      "搏": 1899,
      "搓": 1900,
      "搜": 1901,
      "搡": 1902,
      "搧": 1903,
      "搬": 1904,
      "搭": 1905,
      "摆": 1906,
      "摇": 1907,
      "摊": 1908,
      "摔": 1909,
      "摘": 1910,
      "摧": 1911,
      "摩": 1912,
      "摸": 1913,
      "撇": 1914,
      "撑": 1915,
      "撒": 1916,
      "撕": 1917,
      "撞": 1918,
      "撤": 1919,
      "撬": 1920,
      "播": 1921,
      "撼": 1922,
      "擅": 1923,
      "操": 1924,
      "擛": 1925,
      "擦": 1926,
      "攥": 1927,
      "支": 1928,
      "收": 1929,
      "改": 1930,
      "攻": 1931,
      "放": 1932,
      "政": 1933,
      "故": 1934,
      "效": 1935,
      "敌": 1936,
      "敏": 1937,
      "救": 1938,
      "教": 1939,
      "敛": 1940,
      "敝": 1941,
      "敞": 1942,
      "敢": 1943,
      "散": 1944,
      "敦": 1945,
      "敬": 1946,
      "数": 1947,
      "敲": 1948,
      "整": 1949,
      "敷": 1950,
      "文": 1951,
      "斐": 1952,
      "斑": 1953,
      "斓": 1954,
      "斗": 1955,
      "料": 1956,
      "斜": 1957,
      "斤": 1958,
      "斥": 1959,
      "斧": 1960,
      "斩": 1961,
      "断": 1962,
      "斯": 1963,
      "新": 1964,
      "方": 1965,
      "施": 1966,
      "旁": 1967,
      "旅": 1968,
      "旋": 1969,
      "旌": 1970,
      "族": 1971,
      "旗": 1972,
      "无": 1973,
      "既": 1974,
      "日": 1975,
      "旦": 1976,
      "旧": 1977,
      "旨": 1978,
      "早": 1979,
      "旬": 1980,
      "旱": 1981,
      "时": 1982,
      "旷": 1983,
      "旺": 1984,
      "昂": 1985,
      "昆": 1986,
      "昌": 1987,
      "明": 1988,
      "昏": 1989,
      "易": 1990,
      "昔": 1991,
      "星": 1992,
      "映": 1993,
      "春": 1994,
      "昧": 1995,
      "昨": 1996,
      "昭": 1997,
      "是": 1998,
      "昴": 1999,
      "昼": 2000,
      "显": 2001,
      "晃": 2002,
      "晒": 2003,
      "晓": 2004,
      "晕": 2005,
      "晖": 2006,
      "晚": 2007,
      "晨": 2008,
      "普": 2009,
      "景": 2010,
      "晴": 2011,
      "晶": 2012,
      "晷": 2013,
      "智": 2014,
      "暂": 2015,
      "暑": 2016,
      "暖": 2017,
      "暗": 2018,
      "暮": 2019,
      "暴": 2020,
      "曙": 2021,
      "曲": 2022,
      "更": 2023,
      "曼": 2024,
      "曾": 2025,
      "替": 2026,
      "最": 2027,
      "月": 2028,
      "有": 2029,
      "朋": 2030,
      "服": 2031,
      "朔": 2032,
      "朗": 2033,
      "望": 2034,
      "朝": 2035,
      "期": 2036,
      "木": 2037,
      "未": 2038,
      "末": 2039,
      "本": 2040,
      "术": 2041,
      "朱": 2042,
      "朴": 2043,
      "朵": 2044,
      "机": 2045,
      "朽": 2046,
      "杀": 2047,
      "杂": 2048,
      "权": 2049,
      "杆": 2050,
      "杈": 2051,
      "杉": 2052,
      "李": 2053,
      "杏": 2054,
      "材": 2055,
      "村": 2056,
      "杖": 2057,
      "杜": 2058,
      "束": 2059,
      "杠": 2060,
      "条": 2061,
      "来": 2062,
      "杨": 2063,
      "杯": 2064,
      "杰": 2065,
      "杵": 2066,
      "松": 2067,
      "板": 2068,
      "极": 2069,
      "构": 2070,
      "枉": 2071,
      "枕": 2072,
      "林": 2073,
      "果": 2074,
      "枝": 2075,
      "枣": 2076,
      "枪": 2077,
      "枫": 2078,
      "枯": 2079,
      "架": 2080,
      "枷": 2081,
      "柄": 2082,
      "柏": 2083,
      "某": 2084,
      "染": 2085,
      "柔": 2086,
      "柜": 2087,
      "查": 2088,
      "柯": 2089,
      "柱": 2090,
      "柳": 2091,
      "柴": 2092,
      "柽": 2093,
      "标": 2094,
      "栋": 2095,
      "栏": 2096,
      "树": 2097,
      "栖": 2098,
      "栗": 2099,
      "株": 2100,
      "样": 2101,
      "核": 2102,
      "根": 2103,
      "格": 2104,
      "栽": 2105,
      "桂": 2106,
      "桃": 2107,
      "桅": 2108,
      "框": 2109,
      "案": 2110,
      "桌": 2111,
      "桐": 2112,
      "桑": 2113,
      "档": 2114,
      "桨": 2115,
      "桩": 2116,
      "桶": 2117,
      "梁": 2118,
      "梅": 2119,
      "梗": 2120,
      "梢": 2121,
      "梦": 2122,
      "梭": 2123,
      "梯": 2124,
      "械": 2125,
      "梳": 2126,
      "检": 2127,
      "棍": 2128,
      "棒": 2129,
      "棕": 2130,
      "棘": 2131,
      "棚": 2132,
      "森": 2133,
      "棱": 2134,
      "棵": 2135,
      "棺": 2136,
      "椅": 2137,
      "植": 2138,
      "椽": 2139,
      "楚": 2140,
      "楠": 2141,
      "楣": 2142,
      "楼": 2143,
      "概": 2144,
      "榄": 2145,
      "榈": 2146,
      "榜": 2147,
      "榨": 2148,
      "榫": 2149,
      "榴": 2150,
      "榻": 2151,
      "槁": 2152,
      "槛": 2153,
      "槽": 2154,
      "模": 2155,
      "横": 2156,
      "橄": 2157,
      "橛": 2158,
      "橡": 2159,
      "檀": 2160,
      "檐": 2161,
      "檩": 2162,
      "欠": 2163,
      "次": 2164,
      "欢": 2165,
      "欣": 2166,
      "欧": 2167,
      "欲": 2168,
      "欺": 2169,
      "款": 2170,
      "歇": 2171,
      "歉": 2172,
      "歌": 2173,
      "止": 2174,
      "正": 2175,
      "此": 2176,
      "步": 2177,
      "武": 2178,
      "歧": 2179,
      "歪": 2180,
      "歹": 2181,
      "死": 2182,
      "殃": 2183,
      "殊": 2184,
      "残": 2185,
      "殓": 2186,
      "殖": 2187,
      "殴": 2188,
      "段": 2189,
      "殷": 2190,
      "殿": 2191,
      "毁": 2192,
      "毂": 2193,
      "毅": 2194,
      "母": 2195,
      "每": 2196,
      "毒": 2197,
      "比": 2198,
      "毕": 2199,
      "毗": 2200,
      "毙": 2201,
      "毛": 2202,
      "毫": 2203,
      "毯": 2204,
      "民": 2205,
      "氓": 2206,
      "气": 2207,
      "水": 2208,
      "永": 2209,
      "汁": 2210,
      "求": 2211,
      "汇": 2212,
      "汉": 2213,
      "汊": 2214,
      "汗": 2215,
      "汛": 2216,
      "江": 2217,
      "池": 2218,
      "污": 2219,
      "汤": 2220,
      "汪": 2221,
      "汲": 2222,
      "汹": 2223,
      "沃": 2224,
      "沉": 2225,
      "沌": 2226,
      "沙": 2227,
      "沛": 2228,
      "沟": 2229,
      "没": 2230,
      "沥": 2231,
      "沦": 2232,
      "沫": 2233,
      "沮": 2234,
      "河": 2235,
      "沸": 2236,
      "油": 2237,
      "治": 2238,
      "沼": 2239,
      "沾": 2240,
      "沿": 2241,
      "泄": 2242,
      "泉": 2243,
      "泊": 2244,
      "法": 2245,
      "泛": 2246,
      "泞": 2247,
      "泡": 2248,
      "波": 2249,
      "泣": 2250,
      "泥": 2251,
      "注": 2252,
      "泪": 2253,
      "泯": 2254,
      "泰": 2255,
      "泳": 2256,
      "泻": 2257,
      "泼": 2258,
      "泽": 2259,
      "洁": 2260,
      "洋": 2261,
      "洒": 2262,
      "洗": 2263,
      "洛": 2264,
      "洞": 2265,
      "津": 2266,
      "洪": 2267,
      "洲": 2268,
      "活": 2269,
      "洼": 2270,
      "派": 2271,
      "流": 2272,
      "浅": 2273,
      "浆": 2274,
      "浇": 2275,
      "浊": 2276,
      "测": 2277,
      "济": 2278,
      "浑": 2279,
      "浓": 2280,
      "浦": 2281,
      "浩": 2282,
      "浪": 2283,
      "浮": 2284,
      "海": 2285,
      "浸": 2286,
      "涂": 2287,
      "消": 2288,
      "涉": 2289,
      "涌": 2290,
      "涎": 2291,
      "涕": 2292,
      "涛": 2293,
      "涤": 2294,
      "润": 2295,
      "涨": 2296,
      "涩": 2297,
      "涯": 2298,
      "液": 2299,
      "涸": 2300,
      "淌": 2301,
      "淑": 2302,
      "淡": 2303,
      "淤": 2304,
      "淫": 2305,
      "深": 2306,
      "混": 2307,
      "淹": 2308,
      "添": 2309,
      "清": 2310,
      "渊": 2311,
      "渍": 2312,
      "渎": 2313,
      "渐": 2314,
      "渔": 2315,
      "渗": 2316,
      "渠": 2317,
      "渡": 2318,
      "渣": 2319,
      "温": 2320,
      "港": 2321,
      "渴": 2322,
      "游": 2323,
      "湃": 2324,
      "湍": 2325,
      "湎": 2326,
      "湖": 2327,
      "湾": 2328,
      "湿": 2329,
      "溃": 2330,
      "溅": 2331,
      "溉": 2332,
      "源": 2333,
      "溜": 2334,
      "溢": 2335,
      "溪": 2336,
      "溺": 2337,
      "滋": 2338,
      "滑": 2339,
      "滓": 2340,
      "滔": 2341,
      "滚": 2342,
      "滞": 2343,
      "满": 2344,
      "滤": 2345,
      "滥": 2346,
      "滩": 2347,
      "滴": 2348,
      "漂": 2349,
      "漆": 2350,
      "漏": 2351,
      "演": 2352,
      "漠": 2353,
      "漫": 2354,
      "潘": 2355,
      "潜": 2356,
      "潮": 2357,
      "澄": 2358,
      "澈": 2359,
      "澎": 2360,
      "澡": 2361,
      "激": 2362,
      "濯": 2363,
      "瀑": 2364,
      "灌": 2365,
      "火": 2366,
      "灭": 2367,
      "灯": 2368,
      "灰": 2369,
      "灵": 2370,
      "灶": 2371,
      "灼": 2372,
      "灾": 2373,
      "灿": 2374,
      "炉": 2375,
      "炎": 2376,
      "炒": 2377,
      "炙": 2378,
      "炫": 2379,
      "炭": 2380,
      "点": 2381,
      "炼": 2382,
      "炽": 2383,
      "烁": 2384,
      "烂": 2385,
      "烈": 2386,
      "烘": 2387,
      "烙": 2388,
      "烟": 2389,
      "烤": 2390,
      "烦": 2391,
      "烧": 2392,
      "烫": 2393,
      "烬": 2394,
      "热": 2395,
      "烽": 2396,
      "焊": 2397,
      "焕": 2398,
      "焙": 2399,
      "焚": 2400,
      "焦": 2401,
      "焰": 2402,
      "然": 2403,
      "煌": 2404,
      "煎": 2405,
      "煞": 2406,
      "煤": 2407,
      "照": 2408,
      "煮": 2409,
      "煽": 2410,
      "熄": 2411,
      "熊": 2412,
      "熏": 2413,
      "熔": 2414,
      "熟": 2415,
      "熠": 2416,
      "熬": 2417,
      "燃": 2418,
      "燔": 2419,
      "燕": 2420,
      "燥": 2421,
      "燧": 2422,
      "爆": 2423,
      "爪": 2424,
      "爬": 2425,
      "爱": 2426,
      "父": 2427,
      "爸": 2428,
      "爽": 2429,
      "片": 2430,
      "版": 2431,
      "牌": 2432,
      "牙": 2433,
      "牛": 2434,
      "牝": 2435,
      "牢": 2436,
      "牧": 2437,
      "物": 2438,
      "牲": 2439,
      "牵": 2440,
      "特": 2441,
      "牺": 2442,
      "犁": 2443,
      "犄": 2444,
      "犊": 2445,
      "犬": 2446,
      "犯": 2447,
      "状": 2448,
      "犹": 2449,
      "狂": 2450,
      "狄": 2451,
      "狈": 2452,
      "狍": 2453,
      "狐": 2454,
      "狗": 2455,
      "狠": 2456,
      "狡": 2457,
      "独": 2458,
      "狭": 2459,
      "狮": 2460,
      "狱": 2461,
      "狸": 2462,
      "狼": 2463,
      "猎": 2464,
      "猛": 2465,
      "猜": 2466,
      "猪": 2467,
      "猫": 2468,
      "献": 2469,
      "猴": 2470,
      "猾": 2471,
      "猿": 2472,
      "獠": 2473,
      "玄": 2474,
      "率": 2475,
      "玉": 2476,
      "王": 2477,
      "玛": 2478,
      "玩": 2479,
      "玫": 2480,
      "环": 2481,
      "现": 2482,
      "玷": 2483,
      "玺": 2484,
      "玻": 2485,
      "珀": 2486,
      "珉": 2487,
      "珊": 2488,
      "珍": 2489,
      "珠": 2490,
      "珥": 2491,
      "班": 2492,
      "球": 2493,
      "琅": 2494,
      "理": 2495,
      "琉": 2496,
      "琐": 2497,
      "琢": 2498,
      "琥": 2499,
      "琳": 2500,
      "琴": 2501,
      "琶": 2502,
      "瑕": 2503,
      "瑙": 2504,
      "瑚": 2505,
      "瑞": 2506,
      "瑟": 2507,
      "瑰": 2508,
      "瑾": 2509,
      "璃": 2510,
      "璧": 2511,
      "瓜": 2512,
      "瓣": 2513,
      "瓦": 2514,
      "瓶": 2515,
      "甘": 2516,
      "甚": 2517,
      "甜": 2518,
      "生": 2519,
      "甥": 2520,
      "用": 2521,
      "甩": 2522,
      "田": 2523,
      "由": 2524,
      "甲": 2525,
      "申": 2526,
      "电": 2527,
      "男": 2528,
      "甸": 2529,
      "画": 2530,
      "畅": 2531,
      "界": 2532,
      "畏": 2533,
      "畔": 2534,
      "留": 2535,
      "畜": 2536,
      "略": 2537,
      "畦": 2538,
      "番": 2539,
      "畸": 2540,
      "疆": 2541,
      "疏": 2542,
      "疑": 2543,
      "疗": 2544,
      "疚": 2545,
      "疤": 2546,
      "疥": 2547,
      "疫": 2548,
      "疮": 2549,
      "疯": 2550,
      "疲": 2551,
      "疵": 2552,
      "疹": 2553,
      "疼": 2554,
      "疾": 2555,
      "病": 2556,
      "症": 2557,
      "痊": 2558,
      "痒": 2559,
      "痕": 2560,
      "痛": 2561,
      "痢": 2562,
      "痨": 2563,
      "痪": 2564,
      "痫": 2565,
      "瘀": 2566,
      "瘟": 2567,
      "瘠": 2568,
      "瘤": 2569,
      "瘦": 2570,
      "瘪": 2571,
      "瘫": 2572,
      "瘸": 2573,
      "癞": 2574,
      "癣": 2575,
      "癫": 2576,
      "登": 2577,
      "白": 2578,
      "百": 2579,
      "皂": 2580,
      "的": 2581,
      "皇": 2582,
      "皎": 2583,
      "皮": 2584,
      "皱": 2585,
      "皿": 2586,
      "盆": 2587,
      "盈": 2588,
      "益": 2589,
      "盏": 2590,
      "盐": 2591,
      "监": 2592,
      "盒": 2593,
      "盔": 2594,
      "盖": 2595,
      "盗": 2596,
      "盘": 2597,
      "盛": 2598,
      "盟": 2599,
      "目": 2600,
      "盯": 2601,
      "盲": 2602,
      "直": 2603,
      "相": 2604,
      "盹": 2605,
      "盼": 2606,
      "盾": 2607,
      "省": 2608,
      "眉": 2609,
      "看": 2610,
      "真": 2611,
      "眠": 2612,
      "眨": 2613,
      "眯": 2614,
      "眷": 2615,
      "眸": 2616,
      "眼": 2617,
      "着": 2618,
      "睁": 2619,
      "睚": 2620,
      "睛": 2621,
      "睡": 2622,
      "督": 2623,
      "睦": 2624,
      "睬": 2625,
      "睹": 2626,
      "睾": 2627,
      "瞄": 2628,
      "瞎": 2629,
      "瞒": 2630,
      "瞥": 2631,
      "瞩": 2632,
      "瞪": 2633,
      "瞬": 2634,
      "瞳": 2635,
      "矛": 2636,
      "矢": 2637,
      "知": 2638,
      "矩": 2639,
      "矫": 2640,
      "短": 2641,
      "矮": 2642,
      "石": 2643,
      "矶": 2644,
      "矿": 2645,
      "码": 2646,
      "砌": 2647,
      "砍": 2648,
      "研": 2649,
      "砖": 2650,
      "砝": 2651,
      "砣": 2652,
      "砧": 2653,
      "破": 2654,
      "砸": 2655,
      "砺": 2656,
      "础": 2657,
      "硕": 2658,
      "硝": 2659,
      "硫": 2660,
      "硬": 2661,
      "确": 2662,
      "碌": 2663,
      "碍": 2664,
      "碎": 2665,
      "碑": 2666,
      "碗": 2667,
      "碟": 2668,
      "碧": 2669,
      "碰": 2670,
      "碱": 2671,
      "碾": 2672,
      "磐": 2673,
      "磙": 2674,
      "磨": 2675,
      "磴": 2676,
      "磺": 2677,
      "礁": 2678,
      "示": 2679,
      "礼": 2680,
      "祀": 2681,
      "祈": 2682,
      "祖": 2683,
      "祝": 2684,
      "神": 2685,
      "票": 2686,
      "祭": 2687,
      "祷": 2688,
      "祸": 2689,
      "禀": 2690,
      "禁": 2691,
      "禄": 2692,
      "福": 2693,
      "禧": 2694,
      "离": 2695,
      "禽": 2696,
      "禾": 2697,
      "秀": 2698,
      "私": 2699,
      "秃": 2700,
      "秆": 2701,
      "秉": 2702,
      "秋": 2703,
      "种": 2704,
      "科": 2705,
      "秕": 2706,
      "秘": 2707,
      "租": 2708,
      "秤": 2709,
      "秧": 2710,
      "秩": 2711,
      "积": 2712,
      "称": 2713,
      "秸": 2714,
      "移": 2715,
      "秽": 2716,
      "稀": 2717,
      "程": 2718,
      "稍": 2719,
      "税": 2720,
      "稗": 2721,
      "稣": 2722,
      "稳": 2723,
      "稻": 2724,
      "稼": 2725,
      "穆": 2726,
      "穑": 2727,
      "穗": 2728,
      "穴": 2729,
      "究": 2730,
      "穷": 2731,
      "穹": 2732,
      "空": 2733,
      "穿": 2734,
      "突": 2735,
      "窃": 2736,
      "窄": 2737,
      "窍": 2738,
      "窑": 2739,
      "窒": 2740,
      "窖": 2741,
      "窗": 2742,
      "窘": 2743,
      "窜": 2744,
      "窝": 2745,
      "窥": 2746,
      "立": 2747,
      "竖": 2748,
      "站": 2749,
      "竞": 2750,
      "竟": 2751,
      "章": 2752,
      "童": 2753,
      "竭": 2754,
      "端": 2755,
      "竿": 2756,
      "笆": 2757,
      "笑": 2758,
      "笔": 2759,
      "笛": 2760,
      "符": 2761,
      "笨": 2762,
      "第": 2763,
      "笼": 2764,
      "等": 2765,
      "筋": 2766,
      "筏": 2767,
      "筐": 2768,
      "筑": 2769,
      "筒": 2770,
      "答": 2771,
      "策": 2772,
      "筛": 2773,
      "筵": 2774,
      "筹": 2775,
      "签": 2776,
      "简": 2777,
      "箍": 2778,
      "箕": 2779,
      "算": 2780,
      "管": 2781,
      "箭": 2782,
      "箱": 2783,
      "箴": 2784,
      "篇": 2785,
      "篝": 2786,
      "篡": 2787,
      "篮": 2788,
      "篱": 2789,
      "篷": 2790,
      "簸": 2791,
      "籍": 2792,
      "米": 2793,
      "类": 2794,
      "籽": 2795,
      "粉": 2796,
      "粒": 2797,
      "粗": 2798,
      "粘": 2799,
      "粟": 2800,
      "粪": 2801,
      "粮": 2802,
      "精": 2803,
      "糊": 2804,
      "糟": 2805,
      "糠": 2806,
      "系": 2807,
      "素": 2808,
      "索": 2809,
      "紧": 2810,
      "紫": 2811,
      "累": 2812,
      "絮": 2813,
      "繁": 2814,
      "纠": 2815,
      "红": 2816,
      "纣": 2817,
      "约": 2818,
      "级": 2819,
      "纪": 2820,
      "纬": 2821,
      "纯": 2822,
      "纱": 2823,
      "纳": 2824,
      "纵": 2825,
      "纷": 2826,
      "纸": 2827,
      "纹": 2828,
      "纺": 2829,
      "线": 2830,
      "练": 2831,
      "组": 2832,
      "细": 2833,
      "织": 2834,
      "终": 2835,
      "绊": 2836,
      "经": 2837,
      "绑": 2838,
      "结": 2839,
      "绕": 2840,
      "绘": 2841,
      "给": 2842,
      "络": 2843,
      "绝": 2844,
      "绞": 2845,
      "统": 2846,
      "绣": 2847,
      "继": 2848,
      "绩": 2849,
      "绪": 2850,
      "续": 2851,
      "绳": 2852,
      "维": 2853,
      "绵": 2854,
      "绷": 2855,
      "绸": 2856,
      "绺": 2857,
      "绽": 2858,
      "绿": 2859,
      "缀": 2860,
      "缄": 2861,
      "缅": 2862,
      "缆": 2863,
      "缎": 2864,
      "缒": 2865,
      "缓": 2866,
      "缔": 2867,
      "编": 2868,
      "缘": 2869,
      "缚": 2870,
      "缝": 2871,
      "缠": 2872,
      "缤": 2873,
      "缦": 2874,
      "缨": 2875,
      "缩": 2876,
      "缮": 2877,
      "缸": 2878,
      "缺": 2879,
      "罐": 2880,
      "网": 2881,
      "罕": 2882,
      "罗": 2883,
      "罚": 2884,
      "罢": 2885,
      "罩": 2886,
      "罪": 2887,
      "置": 2888,
      "署": 2889,
      "羊": 2890,
      "美": 2891,
      "羔": 2892,
      "羚": 2893,
      "羞": 2894,
      "羡": 2895,
      "群": 2896,
      "羱": 2897,
      "羽": 2898,
      "翁": 2899,
      "翅": 2900,
      "翎": 2901,
      "翔": 2902,
      "翠": 2903,
      "翡": 2904,
      "翰": 2905,
      "翱": 2906,
      "翻": 2907,
      "翼": 2908,
      "耀": 2909,
      "老": 2910,
      "考": 2911,
      "者": 2912,
      "而": 2913,
      "耍": 2914,
      "耐": 2915,
      "耕": 2916,
      "耗": 2917,
      "耘": 2918,
      "耙": 2919,
      "耳": 2920,
      "耶": 2921,
      "耸": 2922,
      "耻": 2923,
      "耽": 2924,
      "聂": 2925,
      "聆": 2926,
      "聋": 2927,
      "职": 2928,
      "联": 2929,
      "聘": 2930,
      "聚": 2931,
      "聪": 2932,
      "肃": 2933,
      "肆": 2934,
      "肉": 2935,
      "肋": 2936,
      "肌": 2937,
      "肘": 2938,
      "肚": 2939,
      "肝": 2940,
      "肠": 2941,
      "股": 2942,
      "肢": 2943,
      "肤": 2944,
      "肥": 2945,
      "肩": 2946,
      "肪": 2947,
      "肮": 2948,
      "肯": 2949,
      "育": 2950,
      "肺": 2951,
      "肾": 2952,
      "肿": 2953,
      "胀": 2954,
      "胁": 2955,
      "胃": 2956,
      "胆": 2957,
      "背": 2958,
      "胎": 2959,
      "胖": 2960,
      "胛": 2961,
      "胜": 2962,
      "胞": 2963,
      "胡": 2964,
      "胫": 2965,
      "胯": 2966,
      "胳": 2967,
      "胶": 2968,
      "胸": 2969,
      "能": 2970,
      "脂": 2971,
      "脆": 2972,
      "脊": 2973,
      "脏": 2974,
      "脐": 2975,
      "脑": 2976,
      "脓": 2977,
      "脖": 2978,
      "脚": 2979,
      "脱": 2980,
      "脸": 2981,
      "腊": 2982,
      "腋": 2983,
      "腌": 2984,
      "腐": 2985,
      "腑": 2986,
      "腓": 2987,
      "腔": 2988,
      "腕": 2989,
      "腮": 2990,
      "腰": 2991,
      "腱": 2992,
      "腹": 2993,
      "腻": 2994,
      "腾": 2995,
      "腿": 2996,
      "膀": 2997,
      "膊": 2998,
      "膏": 2999,
      "膛": 3000,
      "膜": 3001,
      "膝": 3002,
      "膨": 3003,
      "膳": 3004,
      "膺": 3005,
      "臀": 3006,
      "臂": 3007,
      "臣": 3008,
      "自": 3009,
      "臭": 3010,
      "至": 3011,
      "致": 3012,
      "臼": 3013,
      "舀": 3014,
      "舅": 3015,
      "舌": 3016,
      "舍": 3017,
      "舒": 3018,
      "舔": 3019,
      "舞": 3020,
      "舟": 3021,
      "航": 3022,
      "般": 3023,
      "舰": 3024,
      "舱": 3025,
      "舵": 3026,
      "船": 3027,
      "艇": 3028,
      "艘": 3029,
      "良": 3030,
      "艰": 3031,
      "色": 3032,
      "艳": 3033,
      "艺": 3034,
      "艾": 3035,
      "节": 3036,
      "芒": 3037,
      "芜": 3038,
      "芥": 3039,
      "芦": 3040,
      "芫": 3041,
      "芬": 3042,
      "芭": 3043,
      "芯": 3044,
      "花": 3045,
      "芳": 3046,
      "芸": 3047,
      "芹": 3048,
      "芽": 3049,
      "苇": 3050,
      "苍": 3051,
      "苏": 3052,
      "苗": 3053,
      "苛": 3054,
      "苞": 3055,
      "若": 3056,
      "苦": 3057,
      "英": 3058,
      "苹": 3059,
      "茁": 3060,
      "茂": 3061,
      "范": 3062,
      "茄": 3063,
      "茅": 3064,
      "茉": 3065,
      "茎": 3066,
      "茜": 3067,
      "茨": 3068,
      "茫": 3069,
      "茬": 3070,
      "茴": 3071,
      "茹": 3072,
      "荆": 3073,
      "草": 3074,
      "荐": 3075,
      "荒": 3076,
      "荚": 3077,
      "荡": 3078,
      "荣": 3079,
      "荫": 3080,
      "药": 3081,
      "荷": 3082,
      "荻": 3083,
      "荽": 3084,
      "莉": 3085,
      "莎": 3086,
      "莫": 3087,
      "莱": 3088,
      "莲": 3089,
      "莳": 3090,
      "获": 3091,
      "莽": 3092,
      "菌": 3093,
      "菖": 3094,
      "菜": 3095,
      "菲": 3096,
      "萃": 3097,
      "萄": 3098,
      "萌": 3099,
      "萍": 3100,
      "萎": 3101,
      "萝": 3102,
      "营": 3103,
      "萨": 3104,
      "萼": 3105,
      "落": 3106,
      "著": 3107,
      "葡": 3108,
      "葬": 3109,
      "葱": 3110,
      "蒂": 3111,
      "蒙": 3112,
      "蒜": 3113,
      "蒲": 3114,
      "蒸": 3115,
      "蒺": 3116,
      "蓄": 3117,
      "蓖": 3118,
      "蓝": 3119,
      "蔑": 3120,
      "蔓": 3121,
      "蔬": 3122,
      "蔽": 3123,
      "蕴": 3124,
      "蕾": 3125,
      "薄": 3126,
      "薛": 3127,
      "薰": 3128,
      "藉": 3129,
      "藏": 3130,
      "藐": 3131,
      "藜": 3132,
      "藤": 3133,
      "蘸": 3134,
      "虎": 3135,
      "虏": 3136,
      "虐": 3137,
      "虑": 3138,
      "虔": 3139,
      "虚": 3140,
      "虫": 3141,
      "虹": 3142,
      "虺": 3143,
      "虻": 3144,
      "虽": 3145,
      "蚀": 3146,
      "蚁": 3147,
      "蚂": 3148,
      "蚋": 3149,
      "蚤": 3150,
      "蚱": 3151,
      "蛀": 3152,
      "蛆": 3153,
      "蛇": 3154,
      "蛋": 3155,
      "蛙": 3156,
      "蛛": 3157,
      "蛮": 3158,
      "蜂": 3159,
      "蜒": 3160,
      "蜓": 3161,
      "蜗": 3162,
      "蜘": 3163,
      "蜚": 3164,
      "蜜": 3165,
      "蜡": 3166,
      "蜢": 3167,
      "蜥": 3168,
      "蜴": 3169,
      "蜷": 3170,
      "蜿": 3171,
      "蝇": 3172,
      "蝎": 3173,
      "蝗": 3174,
      "蝘": 3175,
      "蝙": 3176,
      "蝠": 3177,
      "蝮": 3178,
      "蝰": 3179,
      "蝻": 3180,
      "融": 3181,
      "螫": 3182,
      "螺": 3183,
      "蟀": 3184,
      "蟋": 3185,
      "蟥": 3186,
      "蠓": 3187,
      "蠢": 3188,
      "蠹": 3189,
      "血": 3190,
      "衅": 3191,
      "行": 3192,
      "衍": 3193,
      "衔": 3194,
      "街": 3195,
      "衡": 3196,
      "衣": 3197,
      "补": 3198,
      "表": 3199,
      "衫": 3200,
      "衮": 3201,
      "衰": 3202,
      "衲": 3203,
      "袋": 3204,
      "袍": 3205,
      "袒": 3206,
      "袖": 3207,
      "被": 3208,
      "袭": 3209,
      "裁": 3210,
      "裂": 3211,
      "装": 3212,
      "裔": 3213,
      "裕": 3214,
      "裙": 3215,
      "裤": 3216,
      "裳": 3217,
      "裸": 3218,
      "裹": 3219,
      "褓": 3220,
      "褶": 3221,
      "襁": 3222,
      "襟": 3223,
      "西": 3224,
      "要": 3225,
      "覆": 3226,
      "见": 3227,
      "观": 3228,
      "规": 3229,
      "觅": 3230,
      "视": 3231,
      "觉": 3232,
      "觐": 3233,
      "角": 3234,
      "解": 3235,
      "触": 3236,
      "言": 3237,
      "誓": 3238,
      "警": 3239,
      "计": 3240,
      "订": 3241,
      "认": 3242,
      "讥": 3243,
      "讨": 3244,
      "让": 3245,
      "训": 3246,
      "议": 3247,
      "讯": 3248,
      "记": 3249,
      "讲": 3250,
      "讶": 3251,
      "讷": 3252,
      "许": 3253,
      "论": 3254,
      "讼": 3255,
      "讽": 3256,
      "设": 3257,
      "访": 3258,
      "诀": 3259,
      "证": 3260,
      "评": 3261,
      "诅": 3262,
      "识": 3263,
      "诈": 3264,
      "诉": 3265,
      "诋": 3266,
      "词": 3267,
      "诏": 3268,
      "译": 3269,
      "试": 3270,
      "诗": 3271,
      "诚": 3272,
      "话": 3273,
      "诞": 3274,
      "诡": 3275,
      "询": 3276,
      "该": 3277,
      "详": 3278,
      "诧": 3279,
      "诫": 3280,
      "诬": 3281,
      "语": 3282,
      "诮": 3283,
      "误": 3284,
      "诱": 3285,
      "诲": 3286,
      "说": 3287,
      "诵": 3288,
      "请": 3289,
      "诸": 3290,
      "诺": 3291,
      "读": 3292,
      "诽": 3293,
      "诿": 3294,
      "谁": 3295,
      "调": 3296,
      "谄": 3297,
      "谅": 3298,
      "谈": 3299,
      "谋": 3300,
      "谎": 3301,
      "谏": 3302,
      "谐": 3303,
      "谓": 3304,
      "谕": 3305,
      "谗": 3306,
      "谚": 3307,
      "谜": 3308,
      "谢": 3309,
      "谣": 3310,
      "谤": 3311,
      "谦": 3312,
      "谨": 3313,
      "谬": 3314,
      "谱": 3315,
      "谴": 3316,
      "谷": 3317,
      "豁": 3318,
      "豆": 3319,
      "象": 3320,
      "豪": 3321,
      "豫": 3322,
      "豹": 3323,
      "豺": 3324,
      "貌": 3325,
      "贝": 3326,
      "贞": 3327,
      "负": 3328,
      "贡": 3329,
      "财": 3330,
      "责": 3331,
      "贤": 3332,
      "败": 3333,
      "账": 3334,
      "货": 3335,
      "质": 3336,
      "贩": 3337,
      "贪": 3338,
      "贫": 3339,
      "贬": 3340,
      "购": 3341,
      "贯": 3342,
      "贱": 3343,
      "贴": 3344,
      "贵": 3345,
      "贷": 3346,
      "贸": 3347,
      "费": 3348,
      "贺": 3349,
      "贼": 3350,
      "贿": 3351,
      "赂": 3352,
      "赃": 3353,
      "资": 3354,
      "赉": 3355,
      "赋": 3356,
      "赌": 3357,
      "赎": 3358,
      "赏": 3359,
      "赐": 3360,
      "赔": 3361,
      "赖": 3362,
      "赚": 3363,
      "赛": 3364,
      "赞": 3365,
      "赠": 3366,
      "赢": 3367,
      "赤": 3368,
      "赦": 3369,
      "赫": 3370,
      "走": 3371,
      "赴": 3372,
      "赶": 3373,
      "起": 3374,
      "趁": 3375,
      "超": 3376,
      "越": 3377,
      "趟": 3378,
      "足": 3379,
      "趴": 3380,
      "趾": 3381,
      "跃": 3382,
      "跄": 3383,
      "跌": 3384,
      "跑": 3385,
      "跚": 3386,
      "距": 3387,
      "跟": 3388,
      "跤": 3389,
      "跨": 3390,
      "跪": 3391,
      "路": 3392,
      "跳": 3393,
      "践": 3394,
      "跺": 3395,
      "踉": 3396,
      "踊": 3397,
      "踏": 3398,
      "踝": 3399,
      "踞": 3400,
      "踢": 3401,
      "踩": 3402,
      "踪": 3403,
      "踹": 3404,
      "蹄": 3405,
      "蹈": 3406,
      "蹋": 3407,
      "蹒": 3408,
      "蹚": 3409,
      "蹦": 3410,
      "蹲": 3411,
      "躁": 3412,
      "身": 3413,
      "躬": 3414,
      "躯": 3415,
      "躲": 3416,
      "躺": 3417,
      "车": 3418,
      "轧": 3419,
      "轨": 3420,
      "转": 3421,
      "轭": 3422,
      "轮": 3423,
      "软": 3424,
      "轰": 3425,
      "轴": 3426,
      "轻": 3427,
      "载": 3428,
      "轿": 3429,
      "较": 3430,
      "辅": 3431,
      "辆": 3432,
      "辈": 3433,
      "辉": 3434,
      "辎": 3435,
      "辐": 3436,
      "辔": 3437,
      "辖": 3438,
      "辗": 3439,
      "辘": 3440,
      "辛": 3441,
      "辜": 3442,
      "辞": 3443,
      "辟": 3444,
      "辨": 3445,
      "辩": 3446,
      "辫": 3447,
      "辰": 3448,
      "辱": 3449,
      "边": 3450,
      "辽": 3451,
      "达": 3452,
      "迁": 3453,
      "迅": 3454,
      "过": 3455,
      "迈": 3456,
      "迎": 3457,
      "运": 3458,
      "近": 3459,
      "返": 3460,
      "还": 3461,
      "这": 3462,
      "进": 3463,
      "远": 3464,
      "违": 3465,
      "连": 3466,
      "迟": 3467,
      "迦": 3468,
      "迪": 3469,
      "迫": 3470,
      "述": 3471,
      "迷": 3472,
      "迸": 3473,
      "迹": 3474,
      "追": 3475,
      "退": 3476,
      "送": 3477,
      "适": 3478,
      "逃": 3479,
      "逆": 3480,
      "选": 3481,
      "逊": 3482,
      "透": 3483,
      "逐": 3484,
      "递": 3485,
      "途": 3486,
      "通": 3487,
      "逝": 3488,
      "逞": 3489,
      "速": 3490,
      "造": 3491,
      "逢": 3492,
      "逮": 3493,
      "逸": 3494,
      "逼": 3495,
      "逾": 3496,
      "遁": 3497,
      "遇": 3498,
      "遍": 3499,
      "道": 3500,
      "遗": 3501,
      "遣": 3502,
      "遥": 3503,
      "遭": 3504,
      "遮": 3505,
      "遵": 3506,
      "避": 3507,
      "邀": 3508,
      "邑": 3509,
      "那": 3510,
      "邦": 3511,
      "邪": 3512,
      "邻": 3513,
      "郊": 3514,
      "郎": 3515,
      "郑": 3516,
      "部": 3517,
      "都": 3518,
      "鄙": 3519,
      "酊": 3520,
      "配": 3521,
      "酒": 3522,
      "酗": 3523,
      "酝": 3524,
      "酣": 3525,
      "酩": 3526,
      "酪": 3527,
      "酬": 3528,
      "酵": 3529,
      "酷": 3530,
      "酸": 3531,
      "酿": 3532,
      "醇": 3533,
      "醉": 3534,
      "醋": 3535,
      "醒": 3536,
      "采": 3537,
      "释": 3538,
      "里": 3539,
      "重": 3540,
      "野": 3541,
      "量": 3542,
      "金": 3543,
      "釜": 3544,
      "鉴": 3545,
      "针": 3546,
      "钉": 3547,
      "钓": 3548,
      "钝": 3549,
      "钟": 3550,
      "钥": 3551,
      "钩": 3552,
      "钱": 3553,
      "钳": 3554,
      "钵": 3555,
      "钹": 3556,
      "钻": 3557,
      "铁": 3558,
      "铃": 3559,
      "铅": 3560,
      "铐": 3561,
      "铛": 3562,
      "铜": 3563,
      "铠": 3564,
      "铭": 3565,
      "铮": 3566,
      "铰": 3567,
      "铲": 3568,
      "银": 3569,
      "铸": 3570,
      "铺": 3571,
      "链": 3572,
      "销": 3573,
      "锁": 3574,
      "锄": 3575,
      "锅": 3576,
      "锆": 3577,
      "锈": 3578,
      "锋": 3579,
      "锐": 3580,
      "错": 3581,
      "锚": 3582,
      "锡": 3583,
      "锣": 3584,
      "锤": 3585,
      "锥": 3586,
      "锨": 3587,
      "锭": 3588,
      "锯": 3589,
      "镀": 3590,
      "镇": 3591,
      "镌": 3592,
      "镐": 3593,
      "镖": 3594,
      "镜": 3595,
      "镣": 3596,
      "镯": 3597,
      "镰": 3598,
      "镶": 3599,
      "长": 3600,
      "门": 3601,
      "闩": 3602,
      "闪": 3603,
      "闭": 3604,
      "问": 3605,
      "闯": 3606,
      "闲": 3607,
      "间": 3608,
      "闷": 3609,
      "闸": 3610,
      "闹": 3611,
      "闺": 3612,
      "闻": 3613,
      "阁": 3614,
      "阅": 3615,
      "阉": 3616,
      "阐": 3617,
      "阔": 3618,
      "队": 3619,
      "阱": 3620,
      "防": 3621,
      "阳": 3622,
      "阴": 3623,
      "阵": 3624,
      "阶": 3625,
      "阻": 3626,
      "阿": 3627,
      "陀": 3628,
      "附": 3629,
      "际": 3630,
      "陆": 3631,
      "陈": 3632,
      "陋": 3633,
      "陌": 3634,
      "降": 3635,
      "限": 3636,
      "陛": 3637,
      "院": 3638,
      "除": 3639,
      "险": 3640,
      "陪": 3641,
      "陵": 3642,
      "陶": 3643,
      "陷": 3644,
      "隆": 3645,
      "随": 3646,
      "隐": 3647,
      "隔": 3648,
      "隘": 3649,
      "隙": 3650,
      "障": 3651,
      "隶": 3652,
      "隼": 3653,
      "难": 3654,
      "雀": 3655,
      "雄": 3656,
      "雅": 3657,
      "集": 3658,
      "雇": 3659,
      "雌": 3660,
      "雏": 3661,
      "雕": 3662,
      "雨": 3663,
      "雪": 3664,
      "零": 3665,
      "雷": 3666,
      "雹": 3667,
      "雾": 3668,
      "需": 3669,
      "霄": 3670,
      "霆": 3671,
      "震": 3672,
      "霉": 3673,
      "霍": 3674,
      "霖": 3675,
      "霜": 3676,
      "霪": 3677,
      "露": 3678,
      "青": 3679,
      "静": 3680,
      "非": 3681,
      "靠": 3682,
      "靡": 3683,
      "面": 3684,
      "革": 3685,
      "靴": 3686,
      "靶": 3687,
      "鞋": 3688,
      "鞍": 3689,
      "鞘": 3690,
      "鞭": 3691,
      "韦": 3692,
      "韭": 3693,
      "音": 3694,
      "页": 3695,
      "顶": 3696,
      "顷": 3697,
      "项": 3698,
      "顺": 3699,
      "须": 3700,
      "顽": 3701,
      "顾": 3702,
      "顿": 3703,
      "颁": 3704,
      "颂": 3705,
      "预": 3706,
      "颅": 3707,
      "领": 3708,
      "颈": 3709,
      "颊": 3710,
      "颗": 3711,
      "题": 3712,
      "颚": 3713,
      "颜": 3714,
      "额": 3715,
      "颠": 3716,
      "颤": 3717,
      "风": 3718,
      "飓": 3719,
      "飘": 3720,
      "飞": 3721,
      "食": 3722,
      "餐": 3723,
      "饥": 3724,
      "饭": 3725,
      "饮": 3726,
      "饰": 3727,
      "饱": 3728,
      "饲": 3729,
      "饵": 3730,
      "饶": 3731,
      "饷": 3732,
      "饼": 3733,
      "饿": 3734,
      "馆": 3735,
      "馐": 3736,
      "首": 3737,
      "香": 3738,
      "馨": 3739,
      "马": 3740,
      "驭": 3741,
      "驮": 3742,
      "驯": 3743,
      "驰": 3744,
      "驱": 3745,
      "驳": 3746,
      "驴": 3747,
      "驶": 3748,
      "驹": 3749,
      "驻": 3750,
      "驼": 3751,
      "驾": 3752,
      "驿": 3753,
      "骂": 3754,
      "骄": 3755,
      "骆": 3756,
      "骇": 3757,
      "骈": 3758,
      "骋": 3759,
      "验": 3760,
      "骏": 3761,
      "骑": 3762,
      "骗": 3763,
      "骚": 3764,
      "骟": 3765,
      "骡": 3766,
      "骨": 3767,
      "骷": 3768,
      "骸": 3769,
      "髅": 3770,
      "髓": 3771,
      "高": 3772,
      "鬃": 3773,
      "鬓": 3774,
      "鬼": 3775,
      "魂": 3776,
      "魄": 3777,
      "魔": 3778,
      "鱼": 3779,
      "鲁": 3780,
      "鲜": 3781,
      "鳍": 3782,
      "鳞": 3783,
      "鸟": 3784,
      "鸠": 3785,
      "鸡": 3786,
      "鸢": 3787,
      "鸣": 3788,
      "鸥": 3789,
      "鸦": 3790,
      "鸪": 3791,
      "鸬": 3792,
      "鸮": 3793,
      "鸵": 3794,
      "鸶": 3795,
      "鸽": 3796,
      "鸿": 3797,
      "鹈": 3798,
      "鹌": 3799,
      "鹑": 3800,
      "鹕": 3801,
      "鹗": 3802,
      "鹚": 3803,
      "鹞": 3804,
      "鹤": 3805,
      "鹧": 3806,
      "鹫": 3807,
      "鹭": 3808,
      "鹰": 3809,
      "鹳": 3810,
      "鹿": 3811,
      "麦": 3812,
      "麻": 3813,
      "黄": 3814,
      "黎": 3815,
      "黑": 3816,
      "默": 3817,
      "黜": 3818,
      "黝": 3819,
      "黯": 3820,
      "鼓": 3821,
      "鼠": 3822,
      "鼹": 3823,
      "鼻": 3824,
      "齐": 3825,
      "齿": 3826,
      "龄": 3827,
      "龙": 3828,
      "龛": 3829,
      "꤀": 3830,
      "꤁": 3831,
      "꤂": 3832,
      "꤄": 3833,
      "꤈": 3834,
      "ꤊ": 3835,
      "ꤋ": 3836,
      "ꤌ": 3837,
      "ꤍ": 3838,
      "ꤎ": 3839,
      "ꤏ": 3840,
      "ꤐ": 3841,
      "ꤑ": 3842,
      "ꤒ": 3843,
      "ꤓ": 3844,
      "ꤔ": 3845,
      "ꤕ": 3846,
      "ꤖ": 3847,
      "ꤗ": 3848,
      "ꤘ": 3849,
      "ꤙ": 3850,
      "ꤚ": 3851,
      "ꤛ": 3852,
      "ꤜ": 3853,
      "ꤝ": 3854,
      "ꤞ": 3855,
      "ꤟ": 3856,
      "ꤠ": 3857,
      "ꤡ": 3858,
      "ꤢ": 3859,
      "ꤣ": 3860,
      "ꤤ": 3861,
      "ꤥ": 3862,
      "ꤦ": 3863,
      "ꤧ": 3864,
      "ꤨ": 3865,
      "ꤩ": 3866,
      "ꤪ": 3867,
      "꤫": 3868,
      "꤬": 3869,
      "꤭": 3870,
      "꤮": 3871,
      "꤯": 3872,
      "ꧠ": 3873,
      "ꧣ": 3874,
      "ꨁ": 3875,
      "ꨅ": 3876,
      "꨸": 3877,
      "ꩪ": 3878,
      "！": 3879,
      "（": 3880,
      "）": 3881,
      "，": 3882,
      "：": 3883,
      "；": 3884,
      "？": 3885,
      "an": 3886,
      "်း": 3887,
      "ng": 3888,
      "ah": 3889,
      "ang": 3890,
      "in": 3891,
      "င်": 3892,
      "ၣ်": 3893,
      "th": 3894,
      "ို": 3895,
      "ak": 3896,
      "ၼ်": 3897,
      "at": 3898,
      "ၢ်": 3899,
      "er": 3900,
      "င်း": 3901,
      "am": 3902,
      "al": 3903,
      "aw": 3904,
      "na": 3905,
      "ဝ်": 3906,
      "ih": 3907,
      "pa": 3908,
      "்க": 3909,
      "di": 3910,
      "tu": 3911,
      "sa": 3912,
      "hi": 3913,
      "ka": 3914,
      "ိူ": 3915,
      "ီး": 3916,
      "si": 3917,
      "me": 3918,
      "ာ်": 3919,
      "ၼ်း": 3920,
      "ar": 3921,
      "un": 3922,
      "မ်": 3923,
      "kh": 3924,
      "ႃႈ": 3925,
      "လၢ": 3926,
      "ti": 3927,
      "ီၤ": 3928,
      "le": 3929,
      "se": 3930,
      "the": 3931,
      "ော": 3932,
      "்த": 3933,
      "mi": 3934,
      "တ်": 3935,
      "ai": 3936,
      "te": 3937,
      "ன்": 3938,
      "ꤢꤩ": 3939,
      "uh": 3940,
      "kan": 3941,
      "့ၣ်": 3942,
      "င်ႈ": 3943,
      "ꤣꤧ": 3944,
      "ၵ်": 3945,
      "ား": 3946,
      "ay": 3947,
      "က်": 3948,
      "cu": 3949,
      "တၢ်": 3950,
      "ம்": 3951,
      "on": 3952,
      "မ်း": 3953,
      "su": 3954,
      "လၧ": 3955,
      "ke": 3956,
      "တီ": 3957,
      "ong": 3958,
      "ch": 3959,
      "ၩ့": 3960,
      "ၼႆ": 3961,
      "ya": 3962,
      "or": 3963,
      "ꤢꤩ꤬": 3964,
      "ီၪ": 3965,
      "க்க": 3966,
      "um": 3967,
      "il": 3968,
      "ဝ်း": 3969,
      "້າ": 3970,
      "ႃး": 3971,
      "ပ်": 3972,
      "en": 3973,
      "ta": 3974,
      "ꤢꤧ": 3975,
      "မိူ": 3976,
      "อง": 3977,
      "da": 3978,
      "ၵူ": 3979,
      "ယ်": 3980,
      "ပြ": 3981,
      "ဲ့": 3982,
      "ၢႆ": 3983,
      "yang": 3984,
      "လီၤ": 3985,
      "ga": 3986,
      "ும்": 3987,
      "ဆၧ": 3988,
      "ing": 3989,
      "lo": 3990,
      "ႃႇ": 3991,
      "்கள": 3992,
      "တွ": 3993,
      "တီႈ": 3994,
      "ဒီး": 3995,
      "ေး": 3996,
      "တ်း": 3997,
      "ding": 3998,
      "ဝ်ႈ": 3999,
      "ung": 4000,
      "pi": 4001,
      "el": 4002,
      "ဝဲ": 4003,
      "ອງ": 4004,
      "ၢၼ်": 4005,
      "့ၢ်": 4006,
      "ꤢ꤬": 4007,
      "ꤣꤧ꤬": 4008,
      "န့ၣ်": 4009,
      "ber": 4010,
      "လူ": 4011,
      "த்த": 4012,
      "လီ": 4013,
      "and": 4014,
      "ၪ့": 4015,
      "dan": 4016,
      "้า": 4017,
      "ப்": 4018,
      "ra": 4019,
      "ီၣ်": 4020,
      "့ၫ": 4021,
      "တေ": 4022,
      "to": 4023,
      "ိၣ်": 4024,
      "ၼ်ႉ": 4025,
      "nak": 4026,
      "ua": 4027,
      "ki": 4028,
      "lah": 4029,
      "ல்": 4030,
      "men": 4031,
      "ႂ်": 4032,
      "ag": 4033,
      "င်ႇ": 4034,
      "as": 4035,
      "ကြ": 4036,
      "စ်": 4037,
      "ระ": 4038,
      "ၵ်း": 4039,
      "ကို": 4040,
      "bi": 4041,
      "ၫ့": 4042,
      "မိူင်း": 4043,
      "em": 4044,
      "ைய": 4045,
      "ဝႃႈ": 4046,
      "ၵေ": 4047,
      "ဝ့ၫ": 4048,
      "के": 4049,
      "န်": 4050,
      "မှ": 4051,
      "ၵူၼ်း": 4052,
      "ႄႈ": 4053,
      "he": 4054,
      "ဘၣ်": 4055,
      "ri": 4056,
      "ည်": 4057,
      "of": 4058,
      "ႆး": 4059,
      "pe": 4060,
      "လု": 4061,
      "bu": 4062,
      "ၼႆႉ": 4063,
      "ိုင်": 4064,
      "ົ້າ": 4065,
      "nh": 4066,
      "ႆႈ": 4067,
      "ere": 4068,
      "ரு": 4069,
      "့်": 4070,
      "่า": 4071,
      "ဲၤ": 4072,
      "hna": 4073,
      "ပွ": 4074,
      "और": 4075,
      "ku": 4076,
      "ັນ": 4077,
      "la": 4078,
      "ံး": 4079,
      "ၵ်ႈ": 4080,
      "ிய": 4081,
      "ने": 4082,
      "ကျ": 4083,
      "ப்ப": 4084,
      "்ட": 4085,
      "နီၪ": 4086,
      "ႁူ": 4087,
      "ပှ": 4088,
      "ဵၼ်": 4089,
      "de": 4090,
      "တၭ": 4091,
      "itu": 4092,
      "່າ": 4093,
      "ချ": 4094,
      "mu": 4095,
      "ꤢꤨ": 4096,
      "ရှ": 4097,
      "au": 4098,
      "ຂອງ": 4099,
      "ci": 4100,
      "nih": 4101,
      "พระ": 4102,
      "awl": 4103,
      "ံၤ": 4104,
      "ແລ": 4105,
      "mga": 4106,
      "ເຈ": 4107,
      "ယူ": 4108,
      "ph": 4109,
      "ႃႉ": 4110,
      "່ງ": 4111,
      "မိ": 4112,
      "ပှၤ": 4113,
      "per": 4114,
      "မ်ႇ": 4115,
      "ເຈົ້າ": 4116,
      "li": 4117,
      "angin": 4118,
      "ၢင်း": 4119,
      "akan": 4120,
      "သူ": 4121,
      "man": 4122,
      "လွ": 4123,
      "ၢင်": 4124,
      "tr": 4125,
      "ari": 4126,
      "ယွ": 4127,
      "ဖိ": 4128,
      "ர்கள": 4129,
      "ົາ": 4130,
      "တူ": 4131,
      "တယ်": 4132,
      "ံၪ": 4133,
      "လႆႈ": 4134,
      "ို့": 4135,
      "be": 4136,
      "တဖ": 4137,
      "ந்த": 4138,
      "ပဵၼ်": 4139,
      "ດ້": 4140,
      "ter": 4141,
      "မျ": 4142,
      "ों": 4143,
      "လိ": 4144,
      "ວກ": 4145,
      "ou": 4146,
      "ni": 4147,
      "orang": 4148,
      "မွ": 4149,
      "တဖၣ်": 4150,
      "ີ່": 4151,
      "ိုင်ႈ": 4152,
      "मे": 4153,
      "့ၤ": 4154,
      "ab": 4155,
      "ພວກ": 4156,
      "ူး": 4157,
      "လီၫ": 4158,
      "မႃး": 4159,
      "ၼၼ်ႉ": 4160,
      "thi": 4161,
      "lai": 4162,
      "ႂ်း": 4163,
      "kha": 4164,
      "သု": 4165,
      "ီၢ်": 4166,
      "သို": 4167,
      "ၼႂ်း": 4168,
      "្រ": 4169,
      "से": 4170,
      "ဒဲ": 4171,
      "ของ": 4172,
      "mah": 4173,
      "မီး": 4174,
      "ၥံၪ": 4175,
      "ிற": 4176,
      "அவ": 4177,
      "kam": 4178,
      "ၵ်ႇ": 4179,
      "ທີ່": 4180,
      "တွေ": 4181,
      "တ်ႈ": 4182,
      "แล": 4183,
      "awi": 4184,
      "ແລະ": 4185,
      "ời": 4186,
      "pu": 4187,
      "pada": 4188,
      "lu": 4189,
      "ko": 4190,
      "ဵင်း": 4191,
      "ereka": 4192,
      "ဝ်ႉ": 4193,
      "ၢၼ်ႈ": 4194,
      "အဂ": 4195,
      "ဖြ": 4196,
      "ຣະ": 4197,
      "မု": 4198,
      "မၤ": 4199,
      "ဢၼ်": 4200,
      "ha": 4201,
      "သေ": 4202,
      "sin": 4203,
      "ພຣະ": 4204,
      "gi": 4205,
      "ໄດ້": 4206,
      "या": 4207,
      "ாக": 4208,
      "ပေ": 4209,
      "mem": 4210,
      "รา": 4211,
      "ี่": 4212,
      "မူ": 4213,
      "ဘဲ": 4214,
      "कर": 4215,
      "து": 4216,
      "เจ": 4217,
      "ိး": 4218,
      "om": 4219,
      "မ်ႈ": 4220,
      "စီၤ": 4221,
      "ံၭ": 4222,
      "ei": 4223,
      "nan": 4224,
      "เจ้า": 4225,
      "ပူ": 4226,
      "ja": 4227,
      "ခွ": 4228,
      "ပါ": 4229,
      "ட்ட": 4230,
      "တၢင်း": 4231,
      "န့ၣ်လီၤ": 4232,
      "ဢမ်ႇ": 4233,
      "es": 4234,
      "သး": 4235,
      "မ်ႉ": 4236,
      "ၵၼ်": 4237,
      "້ນ": 4238,
      "ma": 4239,
      "လၧအ": 4240,
      "နေ": 4241,
      "is": 4242,
      "ົນ": 4243,
      "အဝဲ": 4244,
      "ꤥ꤬": 4245,
      "pawl": 4246,
      "का": 4247,
      "है": 4248,
      "thu": 4249,
      "ထီၣ်": 4250,
      "ၼ်ႈ": 4251,
      "dak": 4252,
      "Pa": 4253,
      "ꤢꤧ꤭": 4254,
      "င့်": 4255,
      "Is": 4256,
      "ின்": 4257,
      "ၸိူ": 4258,
      "க்கு": 4259,
      "າຍ": 4260,
      "meng": 4261,
      "တႆး": 4262,
      "्र": 4263,
      "lak": 4264,
      "အီၪ": 4265,
      "အိၣ်": 4266,
      "mereka": 4267,
      "ເຮ": 4268,
      "ောင်": 4269,
      "မ့ၢ်": 4270,
      "cun": 4271,
      "တဲ့": 4272,
      "को": 4273,
      "awh": 4274,
      "ங்கள": 4275,
      "သိုၵ်း": 4276,
      "ที่": 4277,
      "ဘၪ": 4278,
      "us": 4279,
      "ၵႂ": 4280,
      "it": 4281,
      "လႄႈ": 4282,
      "ꤢꤧ꤬": 4283,
      "ဢွ": 4284,
      "ၶႃႈ": 4285,
      "ுட": 4286,
      "ႁဵ": 4287,
      "pat": 4288,
      "ັດ": 4289,
      "ယူႇ": 4290,
      "20": 4291,
      "เข": 4292,
      "ဝၼ်း": 4293,
      "என்": 4294,
      "และ": 4295,
      "็น": 4296,
      "ပ်း": 4297,
      "ர்": 4298,
      "dah": 4299,
      "उस": 4300,
      "ဝ်ႇ": 4301,
      "ၵေႃႈ": 4302,
      "tuk": 4303,
      "re": 4304,
      "ັບ": 4305,
      "ꤢꤪ": 4306,
      "rael": 4307,
      "Israel": 4308,
      "ောက်": 4309,
      "သွ": 4310,
      "कि": 4311,
      "ค์": 4312,
      "ve": 4313,
      "နှ": 4314,
      "apa": 4315,
      "ali": 4316,
      "မၩ": 4317,
      "வா": 4318,
      "ဝဵင်း": 4319,
      "เป": 4320,
      "လၢအ": 4321,
      "ၵေႃႉ": 4322,
      "An": 4323,
      "ဲး": 4324,
      "າມ": 4325,
      "ngah": 4326,
      "ru": 4327,
      "ານ": 4328,
      "သ့ၣ်": 4329,
      "ngư": 4330,
      "ၢႆး": 4331,
      "่ง": 4332,
      "မွဲ": 4333,
      "nya": 4334,
      "ၥၭ": 4335,
      "वा": 4336,
      "ဝႃႈၼႆ": 4337,
      "ကွ": 4338,
      "องค์": 4339,
      "hal": 4340,
      "့ၪ": 4341,
      "ama": 4342,
      "ိၭ": 4343,
      "ိုး": 4344,
      "ောင်း": 4345,
      "kat": 4346,
      "và": 4347,
      "ဳၤ": 4348,
      "ၵ်ႉ": 4349,
      "ၵႂႃႇ": 4350,
      "ั้": 4351,
      ".”": 4352,
      "အခ": 4353,
      "သည်": 4354,
      "हो": 4355,
      "rang": 4356,
      "ู้": 4357,
      "ရှိ": 4358,
      "ับ": 4359,
      ".-": 4360,
      "ၵၢၼ်": 4361,
      "पर": 4362,
      "န်း": 4363,
      "ဖြစ်": 4364,
      "ထၪ့": 4365,
      "လဲ": 4366,
      "ên": 4367,
      "ັງ": 4368,
      "เป็น": 4369,
      "များ": 4370,
      "ຈະ": 4371,
      "kepada": 4372,
      "में": 4373,
      "ba": 4374,
      "ၽူ": 4375,
      "bah": 4376,
      "ác": 4377,
      "တ်ႇ": 4378,
      "ၱာ်": 4379,
      "ໍ່": 4380,
      "no": 4381,
      "की": 4382,
      "ເຂ": 4383,
      "ႆႉ": 4384,
      "လူင်": 4385,
      "ၧၩ့": 4386,
      "ngan": 4387,
      "ည်း": 4388,
      "vi": 4389,
      "တ်ႉ": 4390,
      "ban": 4391,
      "ဘဲၫ": 4392,
      "ுடைய": 4393,
      "ື່": 4394,
      "ꤢ꤭": 4395,
      "hat": 4396,
      "ꤢꤦ": 4397,
      "ံၣ်": 4398,
      "ယဝ်ႉ": 4399,
      "တို": 4400,
      "ပို": 4401,
      "ၸိုင်ႈ": 4402,
      "awipa": 4403,
      ",”": 4404,
      "្ន": 4405,
      "ள்": 4406,
      "ல்ல": 4407,
      "ता": 4408,
      "ர்கள்": 4409,
      "တာ": 4410,
      "เขา": 4411,
      "ၽူႈ": 4412,
      "வி": 4413,
      "ꤞꤤ": 4414,
      "အီၤ": 4415,
      "न्": 4416,
      "ram": 4417,
      "နိုင်": 4418,
      "ၸွ": 4419,
      "ပူၤ": 4420,
      "हा": 4421,
      "ông": 4422,
      "hong": 4423,
      "่อ": 4424,
      "จะ": 4425,
      "ເປ": 4426,
      "bang": 4427,
      "လို": 4428,
      "ູ້": 4429,
      "လိူ": 4430,
      "ia": 4431,
      "ꤔꤣꤧ꤬": 4432,
      "မှာ": 4433,
      "ผู้": 4434,
      "hu": 4435,
      "Bawipa": 4436,
      "do": 4437,
      "ပၢင်": 4438,
      "kah": 4439,
      "pan": 4440,
      "ca": 4441,
      "kani": 4442,
      "ံၫ": 4443,
      "ႁွ": 4444,
      "လွင်ႈ": 4445,
      "ना": 4446,
      "that": 4447,
      "ອນ": 4448,
      "ႁဝ်း": 4449,
      "leh": 4450,
      "tak": 4451,
      "င်ႉ": 4452,
      "ຫລ": 4453,
      "pak": 4454,
      "ꤣꤧ꤭": 4455,
      "ົງ": 4456,
      "ံာ်": 4457,
      "law": 4458,
      "ວ່າ": 4459,
      "जा": 4460,
      "ုမ်း": 4461,
      "ိၪ": 4462,
      "ပျ": 4463,
      "มา": 4464,
      "lam": 4465,
      "ႂ်ႈ": 4466,
      "မြ": 4467,
      "anak": 4468,
      "ဒ်": 4469,
      "ဒီ": 4470,
      "up": 4471,
      "chi": 4472,
      "ဒု": 4473,
      "ິດ": 4474,
      "စီ": 4475,
      "ဝႆႉ": 4476,
      "டு": 4477,
      "là": 4478,
      "ယွၤ": 4479,
      "At": 4480,
      "ပ်ႉ": 4481,
      "tidak": 4482,
      "Al": 4483,
      "ັ້ນ": 4484,
      "ၸႄႈ": 4485,
      "တု": 4486,
      "ண்ட": 4487,
      "ho": 4488,
      "nang": 4489,
      "တော်": 4490,
      "တႄ": 4491,
      "ເປັນ": 4492,
      "ရေး": 4493,
      "ႁဵတ်း": 4494,
      "ဆို": 4495,
      "တင်း": 4496,
      "ເພ": 4497,
      "रा": 4498,
      "ด้": 4499,
      "ில": 4500,
      "tiah": 4501,
      "ໃຫ": 4502,
      "ைக": 4503,
      "ꤢꤨ꤭": 4504,
      "าม": 4505,
      "့ၩ": 4506,
      "ான்": 4507,
      "အဖ": 4508,
      "ꤒꤣꤧ꤬": 4509,
      "ၼ်ႇ": 4510,
      "ဒၪ": 4511,
      "ัน": 4512,
      "ว่า": 4513,
      "And": 4514,
      "ခံ": 4515,
      "ဝၢၼ်ႈ": 4516,
      "hm": 4517,
      "lang": 4518,
      "for": 4519,
      "ၸုမ်း": 4520,
      "तु": 4521,
      "တိ": 4522,
      "ือ": 4523,
      "khat": 4524,
      "ပီ": 4525,
      "dari": 4526,
      "người": 4527,
      "Cu": 4528,
      "ဖိၪ": 4529,
      "ီၩ": 4530,
      "ໃນ": 4531,
      "ယၢ": 4532,
      "िय": 4533,
      "ၸဝ်ႈ": 4534,
      "မိူဝ်ႈ": 4535,
      "ເຮົາ": 4536,
      "ꤢꤩ꤭": 4537,
      "kamu": 4538,
      "thian": 4539,
      "ते": 4540,
      "ាន": 4541,
      "hn": 4542,
      "ນັ້ນ": 4543,
      "ႅင်း": 4544,
      "ၸၢ": 4545,
      "່ນ": 4546,
      "າເ": 4547,
      "ပြီး": 4548,
      "ara": 4549,
      "tan": 4550,
      "dengan": 4551,
      "ເຂົາ": 4552,
      "ထီး": 4553,
      "ၸိူဝ်း": 4554,
      "ထု": 4555,
      "าย": 4556,
      "ႆႇ": 4557,
      "sem": 4558,
      "ဲာ်": 4559,
      "ပ်ႇ": 4560,
      "தி": 4561,
      "ခဲ့": 4562,
      "လၢတ်ႈ": 4563,
      "sak": 4564,
      "မၼ်း": 4565,
      "awn": 4566,
      "awa": 4567,
      "ꤘꤣ": 4568,
      "று": 4569,
      "າກ": 4570,
      "ໃຫ້": 4571,
      "seh": 4572,
      "တဲၤ": 4573,
      "thei": 4574,
      "ဖျ": 4575,
      "လဵ": 4576,
      "pag": 4577,
      "ထဲ": 4578,
      "Ng": 4579,
      "tuah": 4580,
      "pah": 4581,
      "ủa": 4582,
      "khi": 4583,
      "ड़": 4584,
      "ຜູ້": 4585,
      "ဂၤ": 4586,
      "าก": 4587,
      "ให": 4588,
      "रे": 4589,
      "ພວກເຂົາ": 4590,
      "ான": 4591,
      "້ອ": 4592,
      "tah": 4593,
      "ala": 4594,
      "့ၬ": 4595,
      "ກໍ": 4596,
      "ၵူၼ်းမိူင်း": 4597,
      "Allah": 4598,
      "của": 4599,
      "செ": 4600,
      "ꤚꤣꤧ꤬": 4601,
      "ၺ်း": 4602,
      "hin": 4603,
      "angah": 4604,
      "ခြ": 4605,
      "อย": 4606,
      "Pathian": 4607,
      "வே": 4608,
      "ꤢꤦ꤬": 4609,
      "wi": 4610,
      "ຄົນ": 4611,
      "các": 4612,
      "ရာ": 4613,
      "အံၤ": 4614,
      "အဝဲသ့ၣ်": 4615,
      "အက": 4616,
      "အဝ့ၫ": 4617,
      "con": 4618,
      "ne": 4619,
      "shal": 4620,
      "เรา": 4621,
      "ພຣະເຈົ້າ": 4622,
      "ini": 4623,
      "ိုၼ်း": 4624,
      "min": 4625,
      "सा": 4626,
      "ꤔꤢꤧ": 4627,
      "າວ": 4628,
      "รง": 4629,
      "လဖ": 4630,
      "ro": 4631,
      "ôi": 4632,
      "kaniyang": 4633,
      "พระองค์": 4634,
      "နဲ့": 4635,
      "ၸႂ်": 4636,
      "ໄປ": 4637,
      "alu": 4638,
      "ꤒꤢꤩ꤬": 4639,
      "pin": 4640,
      "ுக்கு": 4641,
      "မၢၼ်ႈ": 4642,
      "အစ": 4643,
      "pen": 4644,
      "gh": 4645,
      "ႁူမ်ႈ": 4646,
      "ၧၫ့": 4647,
      "ມາ": 4648,
      "untuk": 4649,
      "yong": 4650,
      "ၶၢ": 4651,
      "ไม": 4652,
      "ၢႆႇ": 4653,
      "्य": 4654,
      "ၵွ": 4655,
      "kei": 4656,
      "ிரு": 4657,
      "गा": 4658,
      "kum": 4659,
      "သင်": 4660,
      "ပၼ်": 4661,
      "ယိ": 4662,
      "တႄႉ": 4663,
      "วก": 4664,
      "ູ່": 4665,
      "ில்": 4666,
      "cho": 4667,
      "ပြော": 4668,
      "ใน": 4669,
      "ဆူ": 4670,
      "လၩ့": 4671,
      "Aku": 4672,
      "amah": 4673,
      "ही": 4674,
      "ให้": 4675,
      "ອົງ": 4676,
      "ၶဝ်": 4677,
      "ၼိုင်ႈ": 4678,
      "ບໍ່": 4679,
      "mag": 4680,
      "သီ": 4681,
      "ព្រ": 4682,
      "လး": 4683,
      "သံ": 4684,
      "ur": 4685,
      "ၶူ": 4686,
      "ມີ": 4687,
      "တက": 4688,
      "दे": 4689,
      "မှု": 4690,
      "ၶဝ်ႈ": 4691,
      "ையும்": 4692,
      "Ch": 4693,
      "ယီၩ": 4694,
      "คน": 4695,
      "ၼမ်ႉ": 4696,
      "ၥိၭ": 4697,
      "ဝၼ်းတီႈ": 4698,
      "าร": 4699,
      "လုပ်": 4700,
      "သိ": 4701,
      "lung": 4702,
      "ัง": 4703,
      "uhan": 4704,
      "dal": 4705,
      "yo": 4706,
      "ꤖꤚ": 4707,
      "ꤥ꤭": 4708,
      "တစ်": 4709,
      "போ": 4710,
      "ตร": 4711,
      "ꤞꤤ꤭": 4712,
      "dang": 4713,
      "nag": 4714,
      "ले": 4715,
      "sung": 4716,
      "ciangin": 4717,
      "ได้": 4718,
      "अप": 4719,
      "मा": 4720,
      "இரு": 4721,
      "ကစ": 4722,
      "oh": 4723,
      "တႃႇ": 4724,
      "bag": 4725,
      "လဖၪ": 4726,
      "ပၢႆ": 4727,
      "ார": 4728,
      "ၸႄႈဝဵင်း": 4729,
      "่าน": 4730,
      "ထား": 4731,
      "ทรง": 4732,
      "tin": 4733,
      "ၾၢႆႇ": 4734,
      "နဳၤ": 4735,
      "ข้า": 4736,
      "khua": 4737,
      "shall": 4738,
      "เห": 4739,
      "os": 4740,
      "他们": 4741,
      "கோ": 4742,
      "ຢູ່": 4743,
      "meny": 4744,
      "ၸၢႆး": 4745,
      "ச்": 4746,
      "ài": 4747,
      "inn": 4748,
      "aku": 4749,
      "ၶွ": 4750,
      "ไม่": 4751,
      "ສະ": 4752,
      "ဝ်ႊ": 4753,
      "ຂ້າ": 4754,
      "ีย": 4755,
      "khan": 4756,
      "ไป": 4757,
      "ser": 4758,
      "ႁူဝ်": 4759,
      "ထႅ": 4760,
      "ော်": 4761,
      "พวก": 4762,
      "ီၩ့": 4763,
      "ju": 4764,
      "မၢ": 4765,
      "ꤣ꤬": 4766,
      "so": 4767,
      "စု": 4768,
      "က့ၤ": 4769,
      "သိး": 4770,
      "mat": 4771,
      "ပေး": 4772,
      "ဢဝ်": 4773,
      "ၽွ": 4774,
      "pai": 4775,
      "ဒါ": 4776,
      "Tua": 4777,
      "செய": 4778,
      "nu": 4779,
      "Tuhan": 4780,
      "த்து": 4781,
      "ထိုင်": 4782,
      "ဖဲ": 4783,
      "pun": 4784,
      "esu": 4785,
      "his": 4786,
      "Th": 4787,
      "san": 4788,
      "unto": 4789,
      "ພຣະອົງ": 4790,
      "awm": 4791,
      "စံး": 4792,
      "မုၢ်": 4793,
      "Si": 4794,
      "ந்து": 4795,
      "စိ": 4796,
      "ស់": 4797,
      "et": 4798,
      "ân": 4799,
      "လၢတၢ်": 4800,
      "ꤟꤢꤩ꤬": 4801,
      "தே": 4802,
      "sẽ": 4803,
      "ื่อ": 4804,
      "ႁႂ်ႈ": 4805,
      "ပု": 4806,
      "ນີ": 4807,
      "kata": 4808,
      "sal": 4809,
      "ဒဳ": 4810,
      "လံ": 4811,
      "ั้ง": 4812,
      "hmu": 4813,
      "ິນ": 4814,
      "nga": 4815,
      "ဂၩ": 4816,
      "နၥံၪ": 4817,
      "zong": 4818,
      "ாவ": 4819,
      "ກັບ": 4820,
      "ື່ອ": 4821,
      "ព្រះ": 4822,
      "od": 4823,
      "ั้น": 4824,
      "To": 4825,
      "ယၤ": 4826,
      "အတၢ်": 4827,
      "ຄວ": 4828,
      "ห์": 4829,
      "oon": 4830,
      "úng": 4831,
      "ၵၢင်": 4832,
      "တဂၤ": 4833,
      "ꤖꤚꤢꤩ꤬": 4834,
      "ơi": 4835,
      "atu": 4836,
      "ယဟ": 4837,
      "້ອຍ": 4838,
      "စံၭ": 4839,
      "ின": 4840,
      "र्": 4841,
      "အၥၭ": 4842,
      "ၼင်ႇ": 4843,
      "ရား": 4844,
      "ed": 4845,
      "fi": 4846,
      "လာ": 4847,
      "ယု": 4848,
      "pek": 4849,
      "kau": 4850,
      "him": 4851,
      "anh": 4852,
      "bo": 4853,
      "ங்கள்": 4854,
      "หน": 4855,
      "ປະ": 4856,
      "ahi": 4857,
      "kal": 4858,
      "மு": 4859,
      "ເມ": 4860,
      "eng": 4861,
      "่น": 4862,
      "sai": 4863,
      "စာ": 4864,
      "ဒၣ်": 4865,
      "ဟု": 4866,
      "အဲ": 4867,
      "दि": 4868,
      "ဢွၵ်ႇ": 4869,
      "chung": 4870,
      "ut": 4871,
      "ပွင်": 4872,
      "நீ": 4873,
      "ည့်": 4874,
      "ႁႅင်း": 4875,
      "Se": 4876,
      "เพ": 4877,
      "டி": 4878,
      "ิน": 4879,
      "ila": 4880,
      "ပေႃး": 4881,
      "Na": 4882,
      "ிர": 4883,
      "ជា": 4884,
      "Gi": 4885,
      "க்கிற": 4886,
      "னுடைய": 4887,
      "ce": 4888,
      "ến": 4889,
      "जो": 4890,
      "zi": 4891,
      "ေႃႈ": 4892,
      "အမ": 4893,
      "हे": 4894,
      "ꤒꤣꤧ꤬ꤟꤢꤩ꤬": 4895,
      "ပြည်": 4896,
      "ယၢမ်း": 4897,
      "ນີ້": 4898,
      "tawh": 4899,
      "ထူ": 4900,
      "ິ່ງ": 4901,
      "ại": 4902,
      "ꤤ꤬": 4903,
      "ပိူ": 4904,
      "າດ": 4905,
      "sang": 4906,
      "ၼွ": 4907,
      "တႅ": 4908,
      "ap": 4909,
      "ຄວາມ": 4910,
      "ဘု": 4911,
      "gal": 4912,
      "không": 4913,
      "tapi": 4914,
      "The": 4915,
      "uk": 4916,
      "ள்ள": 4917,
      "າງ": 4918,
      "tôi": 4919,
      "वह": 4920,
      "คร": 4921,
      "Ti": 4922,
      "ၸွမ်း": 4923,
      "mang": 4924,
      "ຈາກ": 4925,
      "လို့": 4926,
      "လိၵ်ႈ": 4927,
      "你们": 4928,
      "ႁဝ်းၶႃႈ": 4929,
      "qu": 4930,
      "aya": 4931,
      "Pangin": 4932,
      "သၢ": 4933,
      "ழு": 4934,
      "हु": 4935,
      "ော့": 4936,
      "ພວກເຈົ້າ": 4937,
      "Topa": 4938,
      "ယဟိ": 4939,
      "ၵူၺ်း": 4940,
      "मै": 4941,
      "လၧဆၧ": 4942,
      "ႂ်ႇ": 4943,
      "ꤒꤣ꤬": 4944,
      "ခြင်း": 4945,
      "aking": 4946,
      "கிற": 4947,
      "အၪ့": 4948,
      "ला": 4949,
      "ဦး": 4950,
      "har": 4951,
      "स्": 4952,
      "ท่าน": 4953,
      "ံၬ": 4954,
      "້ວ": 4955,
      "peuh": 4956,
      "ิด": 4957,
      "19": 4958,
      "ால்": 4959,
      "ู่": 4960,
      "ရွ": 4961,
      "னை": 4962,
      "လဵဝ်": 4963,
      "ອກ": 4964,
      "dingin": 4965,
      "เอ": 4966,
      "Ngài": 4967,
      "ခဲ": 4968,
      "ற்": 4969,
      "ကြီး": 4970,
      "AN": 4971,
      "ရဲ့": 4972,
      "អ្ន": 4973,
      "co": 4974,
      "អ្នក": 4975,
      "tang": 4976,
      "tikah": 4977,
      "पा": 4978,
      "mite": 4979,
      "ilang": 4980,
      "úa": 4981,
      "उन": 4982,
      "hr": 4983,
      "အတွ": 4984,
      "mak": 4985,
      "າເວ": 4986,
      "00": 4987,
      "प्र": 4988,
      "TU": 4989,
      "ꤟꤢꤩ": 4990,
      "นั้น": 4991,
      "मैं": 4992,
      "HAN": 4993,
      "TUHAN": 4994,
      "Ta": 4995,
      "ကြောင်း": 4996,
      "တို့": 4997,
      "बा": 4998,
      "st": 4999,
      "တၢ": 5000,
      "यहो": 5001,
      "த்": 5002,
      "ức": 5003,
      "အီၣ်": 5004,
      "ก็": 5005,
      "ແຕ": 5006,
      "ເຊ": 5007,
      "ကွံာ်": 5008,
      "mo": 5009,
      "มี": 5010,
      "ၶိူ": 5011,
      "ကၱာ်": 5012,
      "လည်း": 5013,
      "្ដ": 5014,
      "Panginoon": 5015,
      "ượ": 5016,
      "꤫ꤢꤦ꤬": 5017,
      "ႁၢ": 5018,
      "hnen": 5019,
      "จาก": 5020,
      "ங்க": 5021,
      "เม": 5022,
      "ခီ": 5023,
      "ชา": 5024,
      "யெ": 5025,
      "đã": 5026,
      "ပာ်": 5027,
      "ီၪ့": 5028,
      "ướ": 5029,
      "แต": 5030,
      "री": 5031,
      "နဲ": 5032,
      "ັກ": 5033,
      "telah": 5034,
      "和华": 5035,
      "耶和华": 5036,
      "था": 5037,
      "ประ": 5038,
      "꤫ꤢꤩ꤬": 5039,
      "အသး": 5040,
      "ဝၩ": 5041,
      "ี้": 5042,
      "Di": 5043,
      "ld": 5044,
      "?”": 5045,
      "လှ": 5046,
      "hih": 5047,
      "ார்": 5048,
      "anya": 5049,
      "awng": 5050,
      "ဖၧၩ့": 5051,
      "คว": 5052,
      "manh": 5053,
      "ူၣ်": 5054,
      "အပူၤ": 5055,
      "စား": 5056,
      "ဟာ": 5057,
      "ပွတ်း": 5058,
      "va": 5059,
      "hen": 5060,
      "caah": 5061,
      "ပေါ": 5062,
      "கொ": 5063,
      "त्र": 5064,
      "bab": 5065,
      "siya": 5066,
      "gam": 5067,
      "them": 5068,
      "Mi": 5069,
      "ၵျ": 5070,
      "lei": 5071,
      "lan": 5072,
      "angpah": 5073,
      "ைகள": 5074,
      "with": 5075,
      "angpahrang": 5076,
      "इस": 5077,
      "erus": 5078,
      "ເອ": 5079,
      "mar": 5080,
      "Chúa": 5081,
      "ຶ່ງ": 5082,
      "ght": 5083,
      "they": 5084,
      "ຢາເວ": 5085,
      "not": 5086,
      "यहोवा": 5087,
      "ကစၢ်": 5088,
      "chúng": 5089,
      "khem": 5090,
      "ဘိ": 5091,
      "ကဲ": 5092,
      "ết": 5093,
      "ana": 5094,
      "ဘၣ်တၢ်": 5095,
      "đi": 5096,
      "RD": 5097,
      "யெகோ": 5098,
      "กล": 5099,
      "jadi": 5100,
      "ấy": 5101,
      "LO": 5102,
      "ate": 5103,
      "Ku": 5104,
      "awk": 5105,
      "लिय": 5106,
      "ແລ້ວ": 5107,
      "လီၢ်": 5108,
      "rak": 5109,
      "าน": 5110,
      "န့": 5111,
      "กับ": 5112,
      "க்கும்": 5113,
      "CH": 5114,
      "တော့": 5115,
      "ဘူး": 5116,
      "LORD": 5117,
      "aja": 5118,
      "ꤗꤢꤩ꤬": 5119,
      "ချက်": 5120,
      "ၸိုင်ႈတႆး": 5121,
      "yan": 5122,
      "ယၫ": 5123,
      "မံ": 5124,
      "ဳး": 5125,
      "ဂ့ၤ": 5126,
      "ၸိူဝ်းၼႆႉ": 5127,
      "ทำ": 5128,
      "ÚA": 5129,
      "CHÚA": 5130,
      "ꤢꤨ꤬": 5131,
      "တ့ၢ်": 5132,
      "wa": 5133,
      "अपने": 5134,
      "ရ့": 5135,
      "iyong": 5136,
      "all": 5137,
      "ၧၩ": 5138,
      "aute": 5139,
      "ꤛꤢꤩ꤬": 5140,
      "ပ်ႈ": 5141,
      "လၢႆး": 5142,
      "श्": 5143,
      "้น": 5144,
      "ႁိူ": 5145,
      "esus": 5146,
      "ரி": 5147,
      "စီာ်": 5148,
      "hari": 5149,
      "ất": 5150,
      "யெகோவா": 5151,
      "တူဝ်": 5152,
      "तुम": 5153,
      "ึง": 5154,
      "ယဲ": 5155,
      "တက့ၢ်": 5156,
      "ால": 5157,
      "ခု": 5158,
      "န့ၢ်": 5159,
      "alem": 5160,
      "lalu": 5161,
      "ິງ": 5162,
      "ad": 5163,
      "பு": 5164,
      "ခိၣ်": 5165,
      "sen": 5166,
      "တွင်": 5167,
      "sina": 5168,
      "biak": 5169,
      "ၶိုၼ်း": 5170,
      "ார்கள்": 5171,
      "erusalem": 5172,
      "sian": 5173,
      "စဲာ်": 5174,
      "ထွ": 5175,
      "လႅ": 5176,
      "pakhat": 5177,
      "ကဲၤ": 5178,
      "ทั้ง": 5179,
      "ແຕ່": 5180,
      "nam": 5181,
      "tungah": 5182,
      "sama": 5183,
      "ral": 5184,
      "Ka": 5185,
      "bia": 5186,
      "နံၤ": 5187,
      "ึ่ง": 5188,
      "ther": 5189,
      "beri": 5190,
      "သား": 5191,
      "ကီၢ်": 5192,
      "แต่": 5193,
      "eri": 5194,
      "Cun": 5195,
      "ယဟိဝၩ": 5196,
      "ທັງ": 5197,
      "ới": 5198,
      "ခွံၬ": 5199,
      "ဟဲ": 5200,
      "ပြု": 5201,
      "ံၪ့": 5202,
      "ົດ": 5203,
      "trong": 5204,
      "ako": 5205,
      "တေႃႇ": 5206,
      "ထိ": 5207,
      "kin": 5208,
      "SS": 5209,
      "បាន": 5210,
      "ထီ": 5211,
      "दा": 5212,
      "sim": 5213,
      "လုၢ်": 5214,
      "சு": 5215,
      "ົ່ງ": 5216,
      "memb": 5217,
      "ột": 5218,
      "ဘာ": 5219,
      "ယို": 5220,
      "uan": 5221,
      "ោះ": 5222,
      "ความ": 5223,
      "tung": 5224,
      "Da": 5225,
      "ாய": 5226,
      "்கு": 5227,
      "சொ": 5228,
      "ການ": 5229,
      "ັ່ງ": 5230,
      "້ອງ": 5231,
      "ရု": 5232,
      "ၼႃႈ": 5233,
      "့ၭ": 5234,
      "sam": 5235,
      "hiam": 5236,
      "้ว": 5237,
      "เล": 5238,
      "ကိ": 5239,
      "အဃ": 5240,
      "pang": 5241,
      "ၢၤ": 5242,
      "Mo": 5243,
      "भी": 5244,
      "ဒိၣ်": 5245,
      "im": 5246,
      "berkata": 5247,
      "လူင်ပွင်": 5248,
      "Nya": 5249,
      "go": 5250,
      "ver": 5251,
      "อา": 5252,
      "ၵု": 5253,
      "Ju": 5254,
      "မာ": 5255,
      "ัก": 5256,
      "ပႃႇ": 5257,
      "င့်": 5258,
      "mes": 5259,
      "ker": 5260,
      "ើយ": 5261,
      "hmuah": 5262,
      "သွား": 5263,
      "ပိ": 5264,
      "သမ်ႉ": 5265,
      "agi": 5266,
      "za": 5267,
      "bangin": 5268,
      "່າງ": 5269,
      "वि": 5270,
      "အဆၧ": 5271,
      "dia": 5272,
      "တွေကို": 5273,
      "တပ်ႉ": 5274,
      "fe": 5275,
      "ခိၪ": 5276,
      "อยู่": 5277,
      "चा": 5278,
      "လူင်ပွင်ၸိုင်ႈ": 5279,
      "สิ": 5280,
      "ເຮັດ": 5281,
      "ဘုရား": 5282,
      "ꤟꤣꤧ": 5283,
      "par": 5284,
      "ဎွ": 5285,
      "าง": 5286,
      "ິ່ນ": 5287,
      "ꤠꤢꤧ꤭": 5288,
      "အဂီၢ်": 5289,
      "ững": 5290,
      "ாகிய": 5291,
      "ရင်": 5292,
      "dalam": 5293,
      "ວຍ": 5294,
      "ກະ": 5295,
      "รร": 5296,
      "nó": 5297,
      "ယူႇတီႈ": 5298,
      "ႁိူၼ်း": 5299,
      "လၤ": 5300,
      "အန": 5301,
      "khempeuh": 5302,
      "ày": 5303,
      "ထံ": 5304,
      "như": 5305,
      "ၼမ်": 5306,
      "thou": 5307,
      "พระผู้": 5308,
      "ထႅင်ႈ": 5309,
      "ဆု": 5310,
      "đến": 5311,
      "वे": 5312,
      "ாம": 5313,
      "ဝိ": 5314,
      "เป็นเจ้า": 5315,
      "พระผู้เป็นเจ้า": 5316,
      "ட்டு": 5317,
      "கள": 5318,
      "ນ້ອຍ": 5319,
      "atang": 5320,
      "ထဲၩ့": 5321,
      "အကျ": 5322,
      "ဖို့": 5323,
      "အ့ၬ": 5324,
      "လူၬ": 5325,
      "သက်": 5326,
      "लिये": 5327,
      "ses": 5328,
      "အဝ့ၫၥံၪ": 5329,
      "fa": 5330,
      "வன": 5331,
      "တီႇ": 5332,
      "dam": 5333,
      "sia": 5334,
      "Pasian": 5335,
      "ບັນ": 5336,
      "dapat": 5337,
      "họ": 5338,
      "ước": 5339,
      "vid": 5340,
      "ye": 5341,
      "diri": 5342,
      "மே": 5343,
      "เส": 5344,
      "วย": 5345,
      "zu": 5346,
      "ิส": 5347,
      "hang": 5348,
      "နှစ်": 5349,
      "duh": 5350,
      "အဂဲး": 5351,
      "kita": 5352,
      "பெ": 5353,
      "ဒေ": 5354,
      "ada": 5355,
      "လၢႆ": 5356,
      "bel": 5357,
      "क्": 5358,
      "thil": 5359,
      "atan": 5360,
      "ເລ": 5361,
      "ꤜꤢꤪ": 5362,
      "Mu": 5363,
      "तब": 5364,
      "ដែ": 5365,
      "ပၤ": 5366,
      "ထႆး": 5367,
      "ဘျ": 5368,
      "ູກ": 5369,
      "menjadi": 5370,
      "ahih": 5371,
      "ược": 5372,
      "तो": 5373,
      "ង្": 5374,
      "David": 5375,
      "သဵ": 5376,
      "sudah": 5377,
      "semua": 5378,
      "kali": 5379,
      "ဝၤ": 5380,
      "อก": 5381,
      "ဢွၼ်": 5382,
      "ိူဝ်": 5383,
      "ပွၵ်ႈ": 5384,
      "ều": 5385,
      "Tr": 5386,
      "ဆောင်": 5387,
      "kut": 5388,
      "ႁူင်း": 5389,
      "ngai": 5390,
      "ကျမ်း": 5391,
      "niya": 5392,
      "အဃိ": 5393,
      "siangpahrang": 5394,
      "ညါ": 5395,
      "တိုၵ်း": 5396,
      "ုပ်": 5397,
      "được": 5398,
      "hindi": 5399,
      "ဝ့ၢ်": 5400,
      "ဘဲာ်": 5401,
      "một": 5402,
      "ပၢ": 5403,
      "အဖၧၩ့": 5404,
      "ល់": 5405,
      "Raja": 5406,
      "စရ့": 5407,
      "nei": 5408,
      "our": 5409,
      "ၡၩ": 5410,
      "làm": 5411,
      "လဲၤ": 5412,
      "ខ្": 5413,
      "ꤗꤢ꤬": 5414,
      "du": 5415,
      "fapa": 5416,
      "ayan": 5417,
      "hai": 5418,
      "လက်": 5419,
      "ၸဵ": 5420,
      "sungah": 5421,
      "tem": 5422,
      "လဂၩ": 5423,
      "kami": 5424,
      "नी": 5425,
      "Jo": 5426,
      "ဂ့ၩ": 5427,
      "यह": 5428,
      "ခွါ": 5429,
      "வர": 5430,
      "với": 5431,
      "้อง": 5432,
      "ရိ": 5433,
      "perti": 5434,
      "าห์": 5435,
      "tam": 5436,
      "မံၤ": 5437,
      "แล้ว": 5438,
      "हैं": 5439,
      "cang": 5440,
      "ပဲ": 5441,
      "sila": 5442,
      "အတွက်": 5443,
      "ထၢ": 5444,
      "่าง": 5445,
      "kanilang": 5446,
      "wil": 5447,
      "นี้": 5448,
      "có": 5449,
      "Am": 5450,
      "ngươi": 5451,
      "ຂ້ານ້ອຍ": 5452,
      "ၺ်": 5453,
      "वर": 5454,
      "ၶိူဝ်း": 5455,
      "ji": 5456,
      "ꤢ꤬ꤋ": 5457,
      "ंग": 5458,
      "ဆိ": 5459,
      "မျိုး": 5460,
      "ukan": 5461,
      "ꤡꤢꤪ": 5462,
      "theih": 5463,
      "ເພິ່ນ": 5464,
      "ອາ": 5465,
      "அத": 5466,
      "ဆှ": 5467,
      "ình": 5468,
      "ຊາ": 5469,
      "ဂဲ": 5470,
      "အၥိၭ": 5471,
      "လိူၼ်": 5472,
      "han": 5473,
      "ိၼ်": 5474,
      "ငံ": 5475,
      "dih": 5476,
      "was": 5477,
      "ၶႅ": 5478,
      "ាំ": 5479,
      "alte": 5480,
      "လၢ်": 5481,
      "ကိုယ်": 5482,
      "fr": 5483,
      "Đức": 5484,
      "ခင်": 5485,
      "க்": 5486,
      "ूं": 5487,
      "နိုင်ငံ": 5488,
      "kap": 5489,
      "တၢႆ": 5490,
      "gen": 5491,
      "cam": 5492,
      "raja": 5493,
      "lh": 5494,
      "ati": 5495,
      "လုၵ်ႈ": 5496,
      "hnenah": 5497,
      "ຸກ": 5498,
      "van": 5499,
      "ອບ": 5500,
      "ယႃ": 5501,
      "ிலே": 5502,
      "ống": 5503,
      "sar": 5504,
      "ரா": 5505,
      "နၤ": 5506,
      "ꤊꤣꤧ꤬": 5507,
      "Dia": 5508,
      "ruangah": 5509,
      "ລາວ": 5510,
      "လၢာ်": 5511,
      "những": 5512,
      "என்று": 5513,
      "मु": 5514,
      "seperti": 5515,
      "ပါတယ်": 5516,
      "ண்டு": 5517,
      "ွန်": 5518,
      "လါ": 5519,
      "Sau": 5520,
      "sau": 5521,
      "ைக்": 5522,
      "sih": 5523,
      "ติ": 5524,
      "နု": 5525,
      "oleh": 5526,
      "uah": 5527,
      "ဆံၭ": 5528,
      "မယ်": 5529,
      "ລູກ": 5530,
      "khal": 5531,
      "Te": 5532,
      "အသိး": 5533,
      "ၵႃႈ": 5534,
      "op": 5535,
      "நான்": 5536,
      "लो": 5537,
      "pagka": 5538,
      "ပႃႇတီႇ": 5539,
      "angan": 5540,
      "ting": 5541,
      "หล": 5542,
      "ဟ့ၣ်": 5543,
      "พวกเขา": 5544,
      "ສັດ": 5545,
      "အား": 5546,
      "அவர்கள": 5547,
      "ောင့်": 5548,
      "ဒီးတၢ်": 5549,
      "whi": 5550,
      "ပၢႆႈ": 5551,
      "ຈົ່ງ": 5552,
      "thy": 5553,
      "ကမ": 5554,
      "kota": 5555,
      "Be": 5556,
      "vua": 5557,
      "ꤟꤢꤨ": 5558,
      "Myan": 5559,
      "မို": 5560,
      "ဂီၢ်": 5561,
      "्यों": 5562,
      "ဝင်": 5563,
      "पु": 5564,
      "ၼႄ": 5565,
      "Myanmar": 5566,
      "ၥ့ၪ": 5567,
      "လဲၣ်": 5568,
      "may": 5569,
      "ယွၩ": 5570,
      "ເວ": 5571,
      "လူင်း": 5572,
      "ôn": 5573,
      "နာ": 5574,
      "နီး": 5575,
      "ຸດ": 5576,
      "ani": 5577,
      "ၶၢဝ်း": 5578,
      "လၭ": 5579,
      "အ့ၪ": 5580,
      "ແມ": 5581,
      "ပႃး": 5582,
      "zo": 5583,
      "नि": 5584,
      "လၧၦ": 5585,
      "ດາ": 5586,
      "ṭhe": 5587,
      "ယေ": 5588,
      "ညီ": 5589,
      "ប់": 5590,
      "ၸတ်း": 5591,
      "ัส": 5592,
      "ูก": 5593,
      "သိုၵ်းမၢၼ်ႈ": 5594,
      "ဘဲၫယီၩ": 5595,
      "ဆၢ": 5596,
      "ၵဵ": 5597,
      "တွၼ်ႈ": 5598,
      "amaute": 5599,
      "การ": 5600,
      "Yesus": 5601,
      "ꤊ꤫ꤢꤦ꤬": 5602,
      "Times": 5603,
      "ัว": 5604,
      "என்ற": 5605,
      "உன்": 5606,
      "ꤝꤢ": 5607,
      "ိမ်": 5608,
      "ံၩ": 5609,
      "त्": 5610,
      "ົກ": 5611,
      "ற்ற": 5612,
      "மாக": 5613,
      "chim": 5614,
      "တဲ": 5615,
      "அப்ப": 5616,
      "panin": 5617,
      "꤫ꤢꤧ꤬": 5618,
      "்த்த": 5619,
      "ុំ": 5620,
      "उसके": 5621,
      "စေ": 5622,
      "ten": 5623,
      "រប": 5624,
      "21": 5625,
      "Le": 5626,
      "လွှ": 5627,
      "ကစၢ်ယွၤ": 5628,
      "ย์": 5629,
      "ໃດ": 5630,
      "tho": 5631,
      "ꤒꤥ꤬": 5632,
      "br": 5633,
      "ဒိ": 5634,
      "हीं": 5635,
      "ဝ့ၫဒၪ": 5636,
      "பி": 5637,
      "တင်ႈ": 5638,
      "လၧယ": 5639,
      "ဝန်": 5640,
      "พระเจ้า": 5641,
      "जि": 5642,
      "อบ": 5643,
      "Mereka": 5644,
      "တၢင်းပဵၼ်": 5645,
      "ियों": 5646,
      "လေး": 5647,
      "မၱာ်": 5648,
      "မၢႆ": 5649,
      "ម្": 5650,
      "ili": 5651,
      "are": 5652,
      "ກ່": 5653,
      "ချိ": 5654,
      "inak": 5655,
      "ၼၢင်း": 5656,
      "ၺႃး": 5657,
      "there": 5658,
      "maw": 5659,
      "ကိး": 5660,
      "ဆၣ်": 5661,
      "ၵမ်း": 5662,
      "tua": 5663,
      "ina": 5664,
      "รับ": 5665,
      "kay": 5666,
      "Jerusalem": 5667,
      "saya": 5668,
      "ၵူၼ်းဝၢၼ်ႈ": 5669,
      "thin": 5670,
      "gay": 5671,
      "!”": 5672,
      "្នា": 5673,
      "ति": 5674,
      "ရူ": 5675,
      "”.": 5676,
      "မေ": 5677,
      "kiangah": 5678,
      "ven": 5679,
      "ahcun": 5680,
      "तू": 5681,
      "ải": 5682,
      "ပြန်": 5683,
      "າະ": 5684,
      "thl": 5685,
      "ஒரு": 5686,
      "မည်": 5687,
      "juga": 5688,
      "တွႆႇ": 5689,
      "ဆံ": 5690,
      "ຊາຍ": 5691,
      "ꤙꤢꤩ꤬": 5692,
      "my": 5693,
      "ဆါ": 5694,
      "ငိုၼ်း": 5695,
      "ၵူႈ": 5696,
      "အၫ": 5697,
      "လၧန": 5698,
      "Dios": 5699,
      "ကျွန်": 5700,
      "ꤛꤢꤩ꤬ꤞꤤ꤭": 5701,
      "நா": 5702,
      "ol": 5703,
      "ထောင်": 5704,
      "mei": 5705,
      "isang": 5706,
      "aa": 5707,
      "ती": 5708,
      "ယွၼ်ႉ": 5709,
      "द्": 5710,
      "របស់": 5711,
      "kong": 5712,
      "แก": 5713,
      "sel": 5714,
      "which": 5715,
      "vialte": 5716,
      "peng": 5717,
      "Tetapi": 5718,
      "သီႇ": 5719,
      "னி": 5720,
      "ຕໍ່": 5721,
      "သ့": 5722,
      "လ့ၩ": 5723,
      "कहा": 5724,
      "ành": 5725,
      "ထီးအ": 5726,
      "एक": 5727,
      "ໄວ": 5728,
      "သာ": 5729,
      "ၸိူဝ်ႉ": 5730,
      "ហើយ": 5731,
      "श्वर": 5732,
      "wal": 5733,
      "သႅ": 5734,
      "ꤤ꤭": 5735,
      "နှင့်": 5736,
      "த்தில்": 5737,
      "hnak": 5738,
      "ႁွၵ်ႈ": 5739,
      "ၶို": 5740,
      "khu": 5741,
      "လိၼ်": 5742,
      "िर": 5743,
      "ပၠ": 5744,
      "่ว": 5745,
      "တင်": 5746,
      "ដែល": 5747,
      "201": 5748,
      "စိတ်": 5749,
      "ံၢ်": 5750,
      "ิต": 5751,
      "Judah": 5752,
      "ၽူႈတွႆႇ": 5753,
      "ၶူဝ်ႊ": 5754,
      "ண்": 5755,
      "လျ": 5756,
      "ṭha": 5757,
      "by": 5758,
      "ꤛꤢꤧ꤭": 5759,
      "ႁို": 5760,
      "umah": 5761,
      "க்கொ": 5762,
      "လီၩ့": 5763,
      "ពួ": 5764,
      "ពួក": 5765,
      "မၢၵ်ႇ": 5766,
      "सब": 5767,
      "ဢု": 5768,
      "ပိုၼ်ႉ": 5769,
      "ង្គ": 5770,
      "ီႈ": 5771,
      "ရန်": 5772,
      "ဒုၭ": 5773,
      "sabi": 5774,
      "lih": 5775,
      "ႁဵၼ်း": 5776,
      "ham": 5777,
      "செய்த": 5778,
      "but": 5779,
      "क्यों": 5780,
      "ပၠၤ": 5781,
      "God": 5782,
      "မူတ်း": 5783,
      "ၽွင်း": 5784,
      "மக": 5785,
      "àn": 5786,
      "ប្រ": 5787,
      "lahat": 5788,
      "ထာ်": 5789,
      "ဢိူ": 5790,
      "មាន": 5791,
      "ၼု": 5792,
      "ດ້ວຍ": 5793,
      "son": 5794,
      "ဒုး": 5795,
      "run": 5796,
      "Trời": 5797,
      "ခွၫ": 5798,
      "ၽူႈတွႆႇႁွၵ်ႈ": 5799,
      "ền": 5800,
      "ຳລ": 5801,
      "ស្": 5802,
      "้อ": 5803,
      "လၢတ်ႈတီႈ": 5804,
      "လိုက်": 5805,
      "အီၪက": 5806,
      "out": 5807,
      "เช": 5808,
      "ꤊꤣꤧ꤬ꤛꤢꤧ꤭": 5809,
      "မဲၤ": 5810,
      "พเจ้า": 5811,
      "ப்போ": 5812,
      "ãy": 5813,
      "சி": 5814,
      "Jes": 5815,
      "เร": 5816,
      "ႁူႉ": 5817,
      "ၶမ်း": 5818,
      "dân": 5819,
      "្យ": 5820,
      "ây": 5821,
      "said": 5822,
      "ໄວ້": 5823,
      "เอล": 5824,
      "lakukan": 5825,
      "သော": 5826,
      "ၽၢ": 5827,
      "one": 5828,
      "ၵဵင်း": 5829,
      "ຕາມ": 5830,
      "Hi": 5831,
      "່ວ": 5832,
      "တိူ": 5833,
      "ek": 5834,
      "mal": 5835,
      "seorang": 5836,
      "வன்": 5837,
      "我们": 5838,
      "เย": 5839,
      "：“": 5840,
      "ல்லா": 5841,
      "sual": 5842,
      "daripada": 5843,
      "king": 5844,
      "ၵႃး": 5845,
      "சே": 5846,
      "மா": 5847,
      "we": 5848,
      "꤫ꤥ꤬": 5849,
      "ព្រះអ": 5850,
      "pei": 5851,
      "စီၤပၤ": 5852,
      "အောင်": 5853,
      "परमे": 5854,
      "។​": 5855,
      "परमेश्वर": 5856,
      "ເພາະ": 5857,
      "ข้าพเจ้า": 5858,
      "ကျမ်းစာ": 5859,
      "ꤜꤢꤨ꤭": 5860,
      "alan": 5861,
      "ារ": 5862,
      "ဆ့": 5863,
      "အဖိၪ": 5864,
      "ပႆႇ": 5865,
      "ꤒꤣ꤬ꤖꤚꤢꤩ꤬": 5866,
      "ேன்": 5867,
      "ကယဲ": 5868,
      "ဒီၣ်": 5869,
      "ุก": 5870,
      "नहीं": 5871,
      "จง": 5872,
      "their": 5873,
      "hmuh": 5874,
      "ၸေ": 5875,
      "ilah": 5876,
      "gu": 5877,
      "hun": 5878,
      "have": 5879,
      "នៅ": 5880,
      "will": 5881,
      "စွ": 5882,
      "ပွဲၤ": 5883,
      "ຫລາຍ": 5884,
      "ราะ": 5885,
      "ႁိုဝ်": 5886,
      "ໂລ": 5887,
      "umat": 5888,
      "ယက": 5889,
      "phun": 5890,
      "lain": 5891,
      "လိူဝ်": 5892,
      "ၽေး": 5893,
      "ချဲ": 5894,
      "thum": 5895,
      "bai": 5896,
      "வெ": 5897,
      "த்தை": 5898,
      "องค์พระผู้เป็นเจ้า": 5899,
      "pal": 5900,
      "ொழு": 5901,
      "ami": 5902,
      "ຮັບ": 5903,
      "လွှတ်": 5904,
      "ထတ်း": 5905,
      "ໃຈ": 5906,
      "လၢတ်ႈဝႃႈ": 5907,
      "ဝိတ်ႉ": 5908,
      "thee": 5909,
      "piak": 5910,
      "hri": 5911,
      "ꤢꤪ꤬": 5912,
      "cih": 5913,
      "သုံး": 5914,
      "ပိုၼ်": 5915,
      "ခဲလၢာ်": 5916,
      "ord": 5917,
      "zei": 5918,
      "စဲ": 5919,
      "เพราะ": 5920,
      "ၸွႆႈ": 5921,
      "intah": 5922,
      "ຖື": 5923,
      "கு": 5924,
      "nung": 5925,
      "နီၪလီၫ": 5926,
      "ຈຶ່ງ": 5927,
      "ၵျွ": 5928,
      "खा": 5929,
      "ယ့ၣ်": 5930,
      "ဂဲၫ": 5931,
      "pt": 5932,
      "တုမ်": 5933,
      "leng": 5934,
      "ຄື": 5935,
      "ດັ່ງ": 5936,
      "ကူ": 5937,
      "paya": 5938,
      "dian": 5939,
      "ເຢ": 5940,
      "နီၢ်": 5941,
      "ꤖꤢꤨ": 5942,
      "மக்க": 5943,
      "ສິ່ງ": 5944,
      "ဉ်": 5945,
      "ts": 5946,
      "mai": 5947,
      "မိူင်းတႆး": 5948,
      "ப்பட்ட": 5949,
      "yak": 5950,
      "ဝါ": 5951,
      "सी": 5952,
      "loin": 5953,
      "ႄး": 5954,
      "bin": 5955,
      "ົ່າ": 5956,
      "po": 5957,
      "ၵၢ": 5958,
      "hng": 5959,
      "ꤚꤢꤧ꤬": 5960,
      "say": 5961,
      "मि": 5962,
      "ាំង": 5963,
      "सु": 5964,
      "harus": 5965,
      "puan": 5966,
      "ဆုံး": 5967,
      "ดา": 5968,
      "້ງ": 5969,
      "hati": 5970,
      "ເພື່ອ": 5971,
      "hangin": 5972,
      "တႃႈ": 5973,
      "ူၪ": 5974,
      "ុង": 5975,
      "lagi": 5976,
      "தன்": 5977,
      "အဂး": 5978,
      "cả": 5979,
      "ၶူဝ်ႊဝိတ်ႉ": 5980,
      "ဢိူင်ႇ": 5981,
      "aman": 5982,
      "alah": 5983,
      "inyo": 5984,
      "အဲဒီ": 5985,
      "சொல்ல": 5986,
      "bangsa": 5987,
      "gan": 5988,
      "ၶၢဝ်ႇ": 5989,
      "ອອກ": 5990,
      "ด้วย": 5991,
      "တုၤ": 5992,
      "amu": 5993,
      "သူၣ်": 5994,
      "sawm": 5995,
      "upang": 5996,
      "Jesuh": 5997,
      "để": 5998,
      "கா": 5999,
      "ເຄ": 6000,
      "လိၤ": 6001,
      "டிய": 6002,
      "ႁႃ": 6003,
      "Je": 6004,
      "ືອນ": 6005,
      "ເທ": 6006,
      "aka": 6007,
      "ဢေႃႈ": 6008,
      "kepa": 6009,
      "Nh": 6010,
      "cung": 6011,
      "hing": 6012,
      "sh": 6013,
      "ພວກເຮົາ": 6014,
      "ကြောင့်": 6015,
      "lupa": 6016,
      "ကောင်း": 6017,
      "ၶႄ": 6018,
      "ၽၢဝ်ႇ": 6019,
      "hada": 6020,
      "செய்": 6021,
      "ito": 6022,
      "sun": 6023,
      "from": 6024,
      "அவன்": 6025,
      "ꤗꤣꤧ꤬": 6026,
      "ซึ่ง": 6027,
      "နီ": 6028,
      "ढ़": 6029,
      "အဂဲးဘဲၫယီၩ": 6030,
      "ꤡꤢꤪꤗꤣꤧ꤬": 6031,
      "ꤡꤢꤪꤗꤣꤧ꤬ꤚꤢꤧ꤬": 6032,
      "ທຸກ": 6033,
      "လေ": 6034,
      "pas": 6035,
      "ယူၭ": 6036,
      "datang": 6037,
      "บุ": 6038,
      "Moses": 6039,
      "dingah": 6040,
      "ၵို": 6041,
      "ၼုမ်ႇ": 6042,
      "ဢူ": 6043,
      "မူင်း": 6044,
      "kaniya": 6045,
      "အံာ်": 6046,
      "jah": 6047,
      "ဘၣ်ဆၣ်": 6048,
      "ꤕꤢꤩ꤬": 6049,
      "படி": 6050,
      "lại": 6051,
      "क्योंकि": 6052,
      "ihsin": 6053,
      "engkau": 6054,
      "ាល់": 6055,
      "ொழுது": 6056,
      "ပိုၼ်ၽၢဝ်ႇ": 6057,
      "ဂီၢ်မုၢ်": 6058,
      "ran": 6059,
      "10": 6060,
      "ကြား": 6061,
      "ùng": 6062,
      "ိၤ": 6063,
      "chị": 6064,
      "နး": 6065,
      "່າວ": 6066,
      "அவர்கள்": 6067,
      "உங்கள": 6068,
      "ពី": 6069,
      "hmun": 6070,
      "ແດ": 6071,
      "ລະ": 6072,
      "အခါ": 6073,
      "ၸိူင်ႉ": 6074,
      "ánh": 6075,
      "ရက်": 6076,
      "ၽူႈတွႆႇႁွၵ်ႈဝႃႈ": 6077,
      "ိုက်": 6078,
      "mati": 6079,
      "sinah": 6080,
      "ஸ்": 6081,
      "fore": 6082,
      "buat": 6083,
      "ថា": 6084,
      "ွဲ့": 6085,
      "ထႅမ်": 6086,
      "ႁွင်ႇ": 6087,
      "Amah": 6088,
      "ahan": 6089,
      "မိူၼ်": 6090,
      "မဲ": 6091,
      "Sa": 6092,
      "bantuk": 6093,
      "ကု": 6094,
      "เหล": 6095,
      "ႁၼ်": 6096,
      "tat": 6097,
      "ិត": 6098,
      "lal": 6099,
      "ũng": 6100,
      "लि": 6101,
      "hmai": 6102,
      "ம்ம": 6103,
      "म्": 6104,
      "kung": 6105,
      "。”": 6106,
      "ພະ": 6107,
      "လ့ၤ": 6108,
      "2020": 6109,
      "றி": 6110,
      "ၢၣ်": 6111,
      "emu": 6112,
      "ராஜ": 6113,
      "vì": 6114,
      "គ្នា": 6115,
      "ဒ်သိး": 6116,
      "mer": 6117,
      "ဂီၤ": 6118,
      "mon": 6119,
      "akin": 6120,
      "लोग": 6121,
      "kaw": 6122,
      "sinabi": 6123,
      "នោះ": 6124,
      "ເຖ": 6125,
      "ပှၤဂီၢ်မုၢ်": 6126,
      "ว้": 6127,
      "Eng": 6128,
      "ရေ": 6129,
      "ၱး": 6130,
      "ဒၤ": 6131,
      "မွၵ်ႈ": 6132,
      "कार": 6133,
      "bun": 6134,
      "bagai": 6135,
      "ပၢႆး": 6136,
      "လူႉ": 6137,
      "ເມື່ອ": 6138,
      ",’": 6139,
      "ເຫ": 6140,
      "வும்": 6141,
      "ဖော်": 6142,
      "ကွၢ်": 6143,
      "dup": 6144,
      "ຊີ": 6145,
      "inyong": 6146,
      "ယိုဝ်း": 6147,
      "ខ្ញ": 6148,
      "ខ្ញុំ": 6149,
      "supaya": 6150,
      "tetapi": 6151,
      "Engkau": 6152,
      "ली": 6153,
      "အထ": 6154,
      "บา": 6155,
      "ிற்கு": 6156,
      "ꤊꤢꤧ꤭": 6157,
      "ummi": 6158,
      "เก": 6159,
      "ไว้": 6160,
      "bayan": 6161,
      "เด": 6162,
      "တႅၼ်း": 6163,
      "thing": 6164,
      "ၵေႃႉၼိုင်ႈ": 6165,
      "ဘယ်": 6166,
      "လုံး": 6167,
      "ຶ້ນ": 6168,
      "သိုပ်ႇ": 6169,
      "ຂຶ້ນ": 6170,
      "ព្រះអង្គ": 6171,
      "េះ": 6172,
      "ແມ່ນ": 6173,
      "ꤛꤢ꤭": 6174,
      "bih": 6175,
      "ตาม": 6176,
      "ဘုရားသ": 6177,
      "ၶိုၼ်ႈ": 6178,
      "မႄး": 6179,
      "ိမ်း": 6180,
      "ွေ": 6181,
      "တိုင်း": 6182,
      "kerana": 6183,
      "ອິດ": 6184,
      "ဢုပ်ႇ": 6185,
      "ື່ອງ": 6186,
      "ထီးအလူၬ": 6187,
      "ဢိ": 6188,
      "မံၩ့": 6189,
      "were": 6190,
      "வர்கள": 6191,
      "ၥု": 6192,
      "သွင်": 6193,
      "gin": 6194,
      "ၶၢႆ": 6195,
      "ၵိၼ်": 6196,
      "เมื่อ": 6197,
      "ဘဲၫၥိၭ": 6198,
      "deng": 6199,
      "တူၵ်း": 6200,
      "လိူၵ်ႈ": 6201,
      "ပၢင်တိုၵ်း": 6202,
      "Nang": 6203,
      "ົບ": 6204,
      "ချဲၩ့": 6205,
      "ầy": 6206,
      "ထံၣ်": 6207,
      "He": 6208,
      "bar": 6209,
      "ật": 6210,
      "သည့်": 6211,
      "ຊາວ": 6212,
      "teʼ": 6213,
      "jan": 6214,
      "ata": 6215,
      "CSS": 6216,
      "บั": 6217,
      "pr": 6218,
      "thành": 6219,
      "मन": 6220,
      "ແກ່": 6221,
      "စာ်": 6222,
      "ឲ្យ": 6223,
      "ရှု": 6224,
      "ื่": 6225,
      "ချိန်": 6226,
      "ໜ້າ": 6227,
      "လိာ်": 6228,
      "ယၢမ်းလဵဝ်": 6229,
      "lon": 6230,
      "ाए": 6231,
      "ၸပ်း": 6232,
      "ဃု": 6233,
      "ເຫລ": 6234,
      "ើង": 6235,
      "ဝဲလၢ": 6236,
      "sing": 6237,
      "ບັນດາ": 6238,
      "ဎွၩ": 6239,
      "သူ့": 6240,
      "mula": 6241,
      "manin": 6242,
      "你的": 6243,
      "ဟုတ်": 6244,
      "ပိူင်": 6245,
      "จึง": 6246,
      "ဖး": 6247,
      "ၼၼ်": 6248,
      "ần": 6249,
      "ၶေႃႈ": 6250,
      "គេ": 6251,
      "အီၪက့ၪ": 6252,
      "หร": 6253,
      "အု": 6254,
      "sehlaw": 6255,
      "tempat": 6256,
      "ဟး": 6257,
      "ယႃႈ": 6258,
      "manhsehlaw": 6259,
      "tum": 6260,
      "nun": 6261,
      "ွေး": 6262,
      "mas": 6263,
      "အတ": 6264,
      "ဝံ": 6265,
      "ាប់": 6266,
      "แก่": 6267,
      "ႁူမ်ႈၵၼ်": 6268,
      "ươ": 6269,
      "lawng": 6270,
      "လွႆ": 6271,
      "berikan": 6272,
      "ầu": 6273,
      "கே": 6274,
      "seg": 6275,
      "suah": 6276,
      "ze": 6277,
      "ິບ": 6278,
      "ၸၢဝ်း": 6279,
      "कु": 6280,
      "ဒိၪ": 6281,
      "ဝူ": 6282,
      "ၸၢင်ႈ": 6283,
      "ꤟꤢꤧ꤭": 6284,
      "的人": 6285,
      "đó": 6286,
      "ຄຳ": 6287,
      "မၧၫ့": 6288,
      "भा": 6289,
      "ເຖິງ": 6290,
      "လွှတ်တော်": 6291,
      "ကတိ": 6292,
      "sapagka": 6293,
      "dom": 6294,
      "फिर": 6295,
      "ກ່າວ": 6296,
      "pih": 6297,
      "ຖືກ": 6298,
      "ဝတ်ႉ": 6299,
      "din": 6300,
      "ဒီးပှၤ": 6301,
      "မူႇ": 6302,
      "ၸိုင်ႈတႆးပွတ်း": 6303,
      "जाए": 6304,
      "hidup": 6305,
      "ၼွင်ႉ": 6306,
      "pia": 6307,
      "ກັນ": 6308,
      "့း": 6309,
      "baik": 6310,
      "ဆက်": 6311,
      "ဘါ": 6312,
      "ົວ": 6313,
      "ယမိ": 6314,
      "หรือ": 6315,
      "ขึ": 6316,
      "ꤔꤢꤧ꤬": 6317,
      "ဆီ": 6318,
      "ขึ้น": 6319,
      "ិន": 6320,
      "ເວົ້າ": 6321,
      "कह": 6322,
      "Eli": 6323,
      "သမ": 6324,
      "ren": 6325,
      "bawi": 6326,
      "တီႉ": 6327,
      "न्तु": 6328,
      "திய": 6329,
      "မဟုတ်": 6330,
      "Saul": 6331,
      "สั": 6332,
      "ໜຶ່ງ": 6333,
      "ဆိုတာ": 6334,
      "ႁူမ်ႈတုမ်": 6335,
      "ໝົດ": 6336,
      "ைப்": 6337,
      "மான": 6338,
      "လၧစ": 6339,
      "ດີ": 6340,
      "hman": 6341,
      "her": 6342,
      "ເຂົ້າ": 6343,
      "buh": 6344,
      "ทุก": 6345,
      "ၸတ်းႁဵတ်း": 6346,
      "hlah": 6347,
      "2021": 6348,
      "เพื่อ": 6349,
      "ၵူတ်ႇ": 6350,
      "တပ်ႉသိုၵ်း": 6351,
      "ឹង": 6352,
      "ကာ": 6353,
      "ဢွၼ်ၵၼ်": 6354,
      "ၵူၼ်းၼုမ်ႇ": 6355,
      "னக்கு": 6356,
      "ແຫ": 6357,
      "ပီႈ": 6358,
      "RCSS": 6359,
      "ဖိတဖၣ်": 6360,
      "ဘၪဆၧ": 6361,
      "ាត": 6362,
      "Ye": 6363,
      "າບ": 6364,
      "ၦလၧအ": 6365,
      "လမ်း": 6366,
      "ன்ன": 6367,
      "அப்பொழுது": 6368,
      "atau": 6369,
      "อิส": 6370,
      "mình": 6371,
      "ot": 6372,
      "ัตร": 6373,
      "ຢ່າງ": 6374,
      "အလး": 6375,
      "我的": 6376,
      "ပလိၵ်ႈ": 6377,
      "ต่อ": 6378,
      "ꤕꤢ꤭": 6379,
      "្វ": 6380,
      "Ang": 6381,
      "ກະສັດ": 6382,
      "alita": 6383,
      "ទៅ": 6384,
      "bawl": 6385,
      "ຂໍ": 6386,
      "araw": 6387,
      "இர": 6388,
      "ꤜꤢꤪ꤭": 6389,
      "နယ်": 6390,
      "sum": 6391,
      "因为": 6392,
      "ning": 6393,
      "ရွက်": 6394,
      "ယာ": 6395,
      "ီႊ": 6396,
      "aga": 6397,
      "ꤓꤢꤧ꤬": 6398,
      "ằng": 6399,
      "မဲ့": 6400,
      "ꤜꤢ꤭": 6401,
      "အီၤလၢ": 6402,
      "ṭuan": 6403,
      "யெகோவாவ": 6404,
      "than": 6405,
      "hmuahhmuah": 6406,
      "ຕົນ": 6407,
      "လႂ်": 6408,
      "និ": 6409,
      "जब": 6410,
      "တီၢ်": 6411,
      "เว": 6412,
      "phải": 6413,
      "ပေါ်": 6414,
      "hand": 6415,
      "他的": 6416,
      "Zi": 6417,
      "ຊົນ": 6418,
      "ၵႅ": 6419,
      "nói": 6420,
      "ຍັງ": 6421,
      "ộc": 6422,
      "tl": 6423,
      "Giê": 6424,
      "ၶႄႇ": 6425,
      "रह": 6426,
      "မ်ႊ": 6427,
      "วง": 6428,
      "တႄႇ": 6429,
      "່ານ": 6430,
      "nagsi": 6431,
      "dua": 6432,
      "ၵုမ်": 6433,
      "परन्तु": 6434,
      "Ia": 6435,
      "ပုံ": 6436,
      "ใจ": 6437,
      "มือ": 6438,
      "suak": 6439,
      "க்கி": 6440,
      "về": 6441,
      "ႁပ်ႉ": 6442,
      "ถึง": 6443,
      "trên": 6444,
      "ிலும்": 6445,
      "át": 6446,
      "nau": 6447,
      "பா": 6448,
      "Me": 6449,
      "देश": 6450,
      "บุตร": 6451,
      "tla": 6452,
      "သၽ": 6453,
      "kham": 6454,
      "သၢင်ႈ": 6455,
      "சத்த": 6456,
      "tay": 6457,
      "ய்": 6458,
      "ືອງ": 6459,
      "dengar": 6460,
      "bị": 6461,
      "pum": 6462,
      "ன்ற": 6463,
      "kumpi": 6464,
      "இருக்கிற": 6465,
      "ரிய": 6466,
      "ၵွင်ႈ": 6467,
      "သူင်ႇ": 6468,
      "tlang": 6469,
      "ယၧၩ": 6470,
      "အကၠ": 6471,
      "kho": 6472,
      "າເອນ": 6473,
      "லை": 6474,
      "bagi": 6475,
      "ទាំង": 6476,
      "किया": 6477,
      "Nan": 6478,
      "အအိၣ်": 6479,
      "atas": 6480,
      "မှတ်": 6481,
      "ាស់": 6482,
      "້າຍ": 6483,
      "मेरे": 6484,
      "cũng": 6485,
      "ရောက်": 6486,
      "နံၩ": 6487,
      "အဝ့ၫဒၪ": 6488,
      "ဒဳၣ်": 6489,
      "နှင့်": 6490,
      "chungah": 6491,
      "မ့": 6492,
      "ṭheh": 6493,
      "dar": 6494,
      "တၢ်လၢ": 6495,
      "ặt": 6496,
      "neg": 6497,
      "သို့": 6498,
      "နည်း": 6499,
      "ក៏": 6500,
      "right": 6501,
      "ဖျိ": 6502,
      "ອິດສະ": 6503,
      "ဒဲး": 6504,
      "ထဲၢ်": 6505,
      "ဥပ": 6506,
      "တြ": 6507,
      "zoh": 6508,
      "ညာ": 6509,
      "วัน": 6510,
      "bur": 6511,
      "ội": 6512,
      "တင်းမူတ်း": 6513,
      "ꤛꤢꤨ": 6514,
      "lem": 6515,
      "uy": 6516,
      "kayo": 6517,
      "ื่อง": 6518,
      "အမိ": 6519,
      "ၵူတ်ႇထတ်း": 6520,
      "ဢမ်ႇမီး": 6521,
      "တမံၤ": 6522,
      "လၢတ်ႈတီႈၽူႈတွႆႇႁွၵ်ႈဝႃႈ": 6523,
      "រាល់": 6524,
      "ອີ": 6525,
      "ပြင်": 6526,
      "โล": 6527,
      "ၶႂ်ႈ": 6528,
      "ၵဵဝ်ႇ": 6529,
      "दी": 6530,
      "cah": 6531,
      "ၼိူဝ်": 6532,
      "ဖု": 6533,
      "पास": 6534,
      "တၢင်ႇ": 6535,
      "แด": 6536,
      "ிருக்கிற": 6537,
      "siseh": 6538,
      "ကား": 6539,
      "inya": 6540,
      "ເອົາ": 6541,
      "keimah": 6542,
      "หม": 6543,
      "ဘုရားသခင်": 6544,
      "ậy": 6545,
      "တိုၵ်ႉ": 6546,
      "दिया": 6547,
      "မႄႈ": 6548,
      "thiam": 6549,
      "ꤑꤢꤩ꤭": 6550,
      "ပိုၼ်ႉတီႈ": 6551,
      "ul": 6552,
      "ၥံၫ": 6553,
      "án": 6554,
      "သင့်": 6555,
      "ꤡꤝꤢ": 6556,
      "ၼႂ်းၸႄႈဝဵင်း": 6557,
      "tai": 6558,
      "ออก": 6559,
      "ခဳး": 6560,
      "ခး": 6561,
      "မိူဝ်ႈၼႆႉ": 6562,
      "ui": 6563,
      "गया": 6564,
      "ၵဝ်ႇ": 6565,
      "ၼႃး": 6566,
      "từ": 6567,
      "day": 6568,
      "राजा": 6569,
      "òng": 6570,
      "ชน": 6571,
      "pul": 6572,
      "မႂ်ႇ": 6573,
      "upon": 6574,
      "ào": 6575,
      "以色": 6576,
      "以色列": 6577,
      "suk": 6578,
      "थे": 6579,
      "ດິນ": 6580,
      "ပၢႆႈၽေး": 6581,
      "រាល់គ្នា": 6582,
      "bali": 6583,
      "အါ": 6584,
      "2018": 6585,
      "feh": 6586,
      "மேல்": 6587,
      "ອິດສະຣ": 6588,
      "ၵပ်း": 6589,
      "ອິດສະຣາເອນ": 6590,
      "ပြောသည်": 6591,
      "fir": 6592,
      "ီႇ": 6593,
      "thaw": 6594,
      "ဵၼ်ႈ": 6595,
      "हि": 6596,
      "ဟံၣ်": 6597,
      "ဘူၣ်": 6598,
      "siat": 6599,
      "အဂ့ၢ်": 6600,
      "nangmah": 6601,
      "சா": 6602,
      "khia": 6603,
      "ၵမ်": 6604,
      "Như": 6605,
      "េច": 6606,
      "dinga": 6607,
      "สิ่ง": 6608,
      "झे": 6609,
      "ring": 6610,
      "တေလႆႈ": 6611,
      "နောက်": 6612,
      "အံၣ်": 6613,
      "ข้าพระองค์": 6614,
      "ပူၼ်ႉ": 6615,
      "ເມືອງ": 6616,
      "ái": 6617,
      "အိမ်": 6618,
      "ꤝꤢ꤭": 6619,
      "you": 6620,
      "ஸ்ர": 6621,
      "ok": 6622,
      "Ke": 6623,
      "ၺ်ႈ": 6624,
      "အလီၢ်": 6625,
      "awkah": 6626,
      "ယ့်": 6627,
      "kalian": 6628,
      "hngal": 6629,
      "ရှင်": 6630,
      "ၵၢင်ၸႂ်": 6631,
      "ທາງ": 6632,
      "င်းက": 6633,
      "ລູກຊາຍ": 6634,
      "ương": 6635,
      "อิสรา": 6636,
      "หน้า": 6637,
      "ន្": 6638,
      "อิสราเอล": 6639,
      "ṭhat": 6640,
      "မိူင်းႁူမ်ႈတုမ်": 6641,
      "sơ": 6642,
      "ဝ့ၫလၧ": 6643,
      "क्या": 6644,
      "ဖှ": 6645,
      "ริ": 6646,
      "ເກ": 6647,
      "பல": 6648,
      "ເບ": 6649,
      "โร": 6650,
      "bal": 6651,
      "ဘၱာ်": 6652,
      "ல்லை": 6653,
      "မြို့": 6654,
      "စ္": 6655,
      "khaw": 6656,
      "တွေ့": 6657,
      "ဆောင်ရွက်": 6658,
      "ោក": 6659,
      "उन्": 6660,
      "သၽႃး": 6661,
      "tampi": 6662,
      "này": 6663,
      "laki": 6664,
      "ation": 6665,
      "ரும்": 6666,
      "makan": 6667,
      "luar": 6668,
      "แห": 6669,
      "အဖိၪခွၫ": 6670,
      "Ba": 6671,
      "ວັນ": 6672,
      "दो": 6673,
      "ယဵၼ်": 6674,
      "cungah": 6675,
      "பே": 6676,
      "ிட": 6677,
      "ၽႂ်": 6678,
      "လိူၵ်ႈတင်ႈ": 6679,
      "စရ့လး": 6680,
      "ुष": 6681,
      "န့်": 6682,
      "ப்படு": 6683,
      "ỏi": 6684,
      "pergi": 6685,
      "Kemu": 6686,
      "she": 6687,
      "tong": 6688,
      "ຫານ": 6689,
      "ະນ": 6690,
      "ồi": 6691,
      "တူၺ်း": 6692,
      "வேண்ட": 6693,
      "negeri": 6694,
      "இஸ்ர": 6695,
      "uasa": 6696,
      "ທັງໝົດ": 6697,
      "ကတိၤ": 6698,
      "तुम्": 6699,
      "இஸ்ரவே": 6700,
      "Bi": 6701,
      "လင်": 6702,
      "ၵူၺ်းၵႃႈ": 6703,
      "ဆဲ": 6704,
      "လၫ့": 6705,
      "ဧ့": 6706,
      "masa": 6707,
      "ตรัส": 6708,
      "ຽງ": 6709,
      "bik": 6710,
      "tein": 6711,
      "ပီႈၼွင်ႉ": 6712,
      "กษ": 6713,
      "thla": 6714,
      "စီၤအ": 6715,
      "तेरे": 6716,
      "ချုပ်": 6717,
      "ဌာ": 6718,
      "တရား": 6719,
      "ड़े": 6720,
      "तक": 6721,
      "Kemudian": 6722,
      "note": 6723,
      "อย่าง": 6724,
      "रू": 6725,
      "ၸွမ်": 6726,
      "ண்ண": 6727,
      "ាត់": 6728,
      "ລາ": 6729,
      "ၵိုတ်း": 6730,
      "lihat": 6731,
      "ၸဵမ်": 6732,
      "gaw": 6733,
      "ita": 6734,
      "kil": 6735,
      "thah": 6736,
      "ड़ा": 6737,
      "လ်": 6738,
      "Kei": 6739,
      "သႂ်ႇ": 6740,
      "menj": 6741,
      "เข้า": 6742,
      "လဲၪ": 6743,
      "ပိာ်": 6744,
      "அந்த": 6745,
      "មក": 6746,
      "ក់": 6747,
      "Orang": 6748,
      "ast": 6749,
      "ခီၫ": 6750,
      "Bab": 6751,
      "ยาห์": 6752,
      "bil": 6753,
      "ருட": 6754,
      "မႆႈ": 6755,
      "ꤊꤜ": 6756,
      "ruh": 6757,
      "ဖဳး": 6758,
      "ர்த்த": 6759,
      "ꤋꤢꤨ꤭": 6760,
      "မိူဝ်ႈဝၼ်းတီႈ": 6761,
      "mà": 6762,
      "இருந்த": 6763,
      "lim": 6764,
      "ính": 6765,
      "เน": 6766,
      "ꤊꤣꤧ꤭": 6767,
      "ꤡꤣꤧ": 6768,
      "တူၼ်ႈ": 6769,
      "ခရ": 6770,
      "ូល": 6771,
      "ối": 6772,
      "꤫ꤢ꤬": 6773,
      "पुत्र": 6774,
      "மக்கள": 6775,
      "மி": 6776,
      "செய்ய": 6777,
      "ၸၼ်ႉ": 6778,
      "មិន": 6779,
      "sembah": 6780,
      "ဖ့ၪ": 6781,
      "ပီၢ်": 6782,
      "ิย์": 6783,
      "ຢາ": 6784,
      "ใช": 6785,
      "သ့ၣ်ညါ": 6786,
      "စစ်": 6787,
      "自己": 6788,
      "vào": 6789,
      "ธิ": 6790,
      "ตัว": 6791,
      "အံၫ": 6792,
      "ၸင်ႇ": 6793,
      "အခြ": 6794,
      "ເໝ": 6795,
      "ၧး": 6796,
      "မိုဝ်း": 6797,
      "ப்பு": 6798,
      "sendiri": 6799,
      "gang": 6800,
      "ၼင်ႇၼႆ": 6801,
      "ၾႆး": 6802,
      "ꤕ꤫ꤢꤩ꤬": 6803,
      "Vì": 6804,
      "when": 6805,
      "êu": 6806,
      "အူ": 6807,
      "ត្រ": 6808,
      "อด": 6809,
      "rat": 6810,
      "ဓဳၤ": 6811,
      "အဒ": 6812,
      "ọi": 6813,
      "tus": 6814,
      "उसने": 6815,
      "ัตริย์": 6816,
      "กษัตริย์": 6817,
      "ัด": 6818,
      "ꤓꤥ꤭": 6819,
      "ဢွင်ႇ": 6820,
      "ถูก": 6821,
      "ၸၢဝ်းၶိူဝ်း": 6822,
      "ၤၡ": 6823,
      "ben": 6824,
      "ၶူဝ်း": 6825,
      "ລົງ": 6826,
      "sebagai": 6827,
      "Dau": 6828,
      "หนึ่ง": 6829,
      "hara": 6830,
      "ือง": 6831,
      "ယဳၤ": 6832,
      "အဖိ": 6833,
      "awab": 6834,
      "para": 6835,
      "lời": 6836,
      "òn": 6837,
      "og": 6838,
      "lian": 6839,
      "ထုၵ်ႇ": 6840,
      "儿子": 6841,
      "อน": 6842,
      "ាយ": 6843,
      "ပေမဲ့": 6844,
      "ທຳ": 6845,
      "this": 6846,
      "ၶႃႈဢေႃႈ": 6847,
      "ओं": 6848,
      "ன்று": 6849,
      "வீ": 6850,
      "ဆိုင်": 6851,
      "Daud": 6852,
      "bả": 6853,
      "ayon": 6854,
      "hath": 6855,
      "ເສ": 6856,
      "ၸေႊ": 6857,
      "inh": 6858,
      "အံၣ်စရ့လး": 6859,
      "ယောက်": 6860,
      "kanila": 6861,
      "பின்": 6862,
      "பிர": 6863,
      "မုၣ်": 6864,
      "ႁွင်ႈ": 6865,
      "lum": 6866,
      "ယၢမ်းၵၢင်": 6867,
      "သိူဝ်": 6868,
      "wn": 6869,
      "bahawa": 6870,
      "bila": 6871,
      "နေ့": 6872,
      "ອດ": 6873,
      "ວາຍ": 6874,
      "हों": 6875,
      "ꤙꤣꤧ": 6876,
      "द्ध": 6877,
      "သွၼ်": 6878,
      "வு": 6879,
      "ngei": 6880,
      "போது": 6881,
      "दिन": 6882,
      "2019": 6883,
      "lên": 6884,
      "မျၧး": 6885,
      "ிருந்து": 6886,
      "ยัง": 6887,
      "ႁႅ": 6888,
      "minung": 6889,
      "ပေႃႉ": 6890,
      "ຊ້": 6891,
      "စရ့လၭ": 6892,
      "အီ": 6893,
      "ꤘꤢꤦ꤬": 6894,
      "ခဲ့တယ်": 6895,
      "အရ": 6896,
      "menu": 6897,
      "12": 6898,
      "ဒၫ": 6899,
      "้ำ": 6900,
      "ခေ": 6901,
      "ận": 6902,
      "แห่ง": 6903,
      "ၾႃႉ": 6904,
      "என்ன": 6905,
      "့ၬယၫ": 6906,
      "ंगे": 6907,
      "ထူပ်း": 6908,
      "လား": 6909,
      "len": 6910,
      "த்தின்": 6911,
      "အနေ": 6912,
      "ယွၼ်း": 6913,
      "ဘၭ": 6914,
      "ลา": 6915,
      "ၼႃႇ": 6916,
      "ႃႊ": 6917,
      "ꤚꤣꤧ": 6918,
      "sir": 6919,
      "segala": 6920,
      "lễ": 6921,
      "ဧၢ": 6922,
      "စံးဘၣ်": 6923,
      "ဟီၣ်": 6924,
      "led": 6925,
      "ười": 6926,
      "ບໍ": 6927,
      "ကမၤ": 6928,
      "ၶူး": 6929,
      "big": 6930,
      "apag": 6931,
      "้าง": 6932,
      "dara": 6933,
      "யோ": 6934,
      "ခမျၧး": 6935,
      "ꤋꤚ": 6936,
      "come": 6937,
      "गे": 6938,
      "வை": 6939,
      "များကို": 6940,
      "hingga": 6941,
      "hrang": 6942,
      "ဒိး": 6943,
      "ນາງ": 6944,
      "put": 6945,
      "ပိူဝ်ႈ": 6946,
      "ထံၫ": 6947,
      "နီၪတၭ": 6948,
      "ly": 6949,
      "ved": 6950,
      "tinggal": 6951,
      "iyo": 6952,
      "ாலும்": 6953,
      "theo": 6954,
      "ဒံး": 6955,
      "No": 6956,
      "ໃຊ້": 6957,
      "thawh": 6958,
      "Pada": 6959,
      "Bang": 6960,
      "ลง": 6961,
      "ၡူး": 6962,
      "ោយ": 6963,
      "ၵျွၵ်ႉ": 6964,
      "பார": 6965,
      "အကြောင်း": 6966,
      "ဖျါ": 6967,
      "ယ့ၣ်ၡူး": 6968,
      "ဖၭ": 6969,
      "လႃႈ": 6970,
      "ົມ": 6971,
      "លោក": 6972,
      "De": 6973,
      "ၸူ": 6974,
      "လဵၵ်း": 6975,
      "မရှိ": 6976,
      "hear": 6977,
      "တရ": 6978,
      "ake": 6979,
      "ற்கு": 6980,
      "ကြတယ်": 6981,
      "जिस": 6982,
      "शा": 6983,
      "ႁိမ်း": 6984,
      "ꤖꤢꤧ": 6985,
      "မၪ": 6986,
      "ừng": 6987,
      "điều": 6988,
      "buah": 6989,
      "nawn": 6990,
      "tiap": 6991,
      "gia": 6992,
      "คือ": 6993,
      "करे": 6994,
      "bahwa": 6995,
      "เมือง": 6996,
      "ចាស់": 6997,
      "ꤕꤜ": 6998,
      "အကြ": 6999,
      "လၢန": 7000,
      "Kh": 7001,
      "sampai": 7002,
      "ပညာ": 7003,
      "TheMyanmar": 7004,
      "TheMyanmarTimes": 7005,
      "ဟော": 7006,
      "தோ": 7007,
      "let": 7008,
      "ပၢင်ၵုမ်": 7009,
      "ယႂ်ႇ": 7010,
      "had": 7011,
      "chuah": 7012,
      "ႁႅင်းၵၢၼ်": 7013,
      "นำ": 7014,
      "ຫາ": 7015,
      "ிருந்த": 7016,
      "ဝံၤ": 7017,
      "ữa": 7018,
      "मान": 7019,
      "thang": 7020,
      "ແຫ່ງ": 7021,
      "ever": 7022,
      "ၽို": 7023,
      "mit": 7024,
      "ມື": 7025,
      "ဢွၼ်ႇ": 7026,
      "tanah": 7027,
      "ris": 7028,
      "again": 7029,
      "hadap": 7030,
      "kem": 7031,
      "த்திற்கு": 7032,
      "thawinak": 7033,
      "ess": 7034,
      "hou": 7035,
      "ႁၢင်ႈ": 7036,
      "dong": 7037,
      "हम": 7038,
      "tiang": 7039,
      "kar": 7040,
      "hrim": 7041,
      ",-": 7042,
      "ัย": 7043,
      "ាង": 7044,
      "အ့": 7045,
      "ເໝືອນ": 7046,
      "ໂມ": 7047,
      "အဆ": 7048,
      "ria": 7049,
      "ကန": 7050,
      "हुए": 7051,
      "”-": 7052,
      "நீங்கள்": 7053,
      "hãy": 7054,
      "ญญ": 7055,
      "thiang": 7056,
      "kẻ": 7057,
      "หาร": 7058,
      "aran": 7059,
      "thawn": 7060,
      "sehingga": 7061,
      "ႁၢၼ်": 7062,
      "ၶီႈ": 7063,
      "ꤊꤢꤨ꤭": 7064,
      "ၵျွၵ်ႉမႄး": 7065,
      "ໂດ": 7066,
      "ꤘꤣꤧ": 7067,
      "တီး": 7068,
      "ူၤ": 7069,
      "ဝၢႆး": 7070,
      "tri": 7071,
      "กัน": 7072,
      "ကျဲ": 7073,
      "ကိၭ": 7074,
      "đá": 7075,
      "စည်း": 7076,
      "ၶွင်": 7077,
      "ge": 7078,
      "கூ": 7079,
      "ັ້ງ": 7080,
      "ក្រ": 7081,
      "没有": 7082,
      "မၩအၥၭ": 7083,
      "wak": 7084,
      "अपनी": 7085,
      "kanlah": 7086,
      "ဧိၤ": 7087,
      "သၢႆ": 7088,
      "ăn": 7089,
      "dosa": 7090,
      "ພຣະເຈົ້າຢາເວ": 7091,
      "Per": 7092,
      "ကၠ": 7093,
      "amin": 7094,
      "हें": 7095,
      "ႁူပ်ႉ": 7096,
      "ขอ": 7097,
      "ပႅ": 7098,
      "்க்க": 7099,
      "ดิน": 7100,
      "မ့ၢ်ဂ့ၤ": 7101,
      "nading": 7102,
      "ကဲၪ": 7103,
      "दू": 7104,
      "ຕ້ອງ": 7105,
      "ပတ်": 7106,
      "ện": 7107,
      "uni": 7108,
      "ີຍ": 7109,
      "zongin": 7110,
      "yai": 7111,
      "້າງ": 7112,
      "่าว": 7113,
      "ကဘၣ်": 7114,
      "Cule": 7115,
      "awt": 7116,
      "und": 7117,
      "တိတ်း": 7118,
      "tapa": 7119,
      "မူႇၸေႊ": 7120,
      "ရင်း": 7121,
      "came": 7122,
      "ម្ចាស់": 7123,
      "ாமல்": 7124,
      "ுகிற": 7125,
      "takin": 7126,
      "àng": 7127,
      "ahu": 7128,
      "ເຄື່ອງ": 7129,
      "จน": 7130,
      "ທ່ານ": 7131,
      "Lalu": 7132,
      "ைச்": 7133,
      "ีก": 7134,
      "ếu": 7135,
      "NL": 7136,
      "lomi": 7137,
      "ziang": 7138,
      "ero": 7139,
      "မှန်": 7140,
      "အခိၣ်": 7141,
      "ដូ": 7142,
      "ពួកគេ": 7143,
      "ဌာန": 7144,
      "ent": 7145,
      "long": 7146,
      "லும்": 7147,
      "est": 7148,
      "ဆၧၫ့": 7149,
      "pem": 7150,
      "அவர்": 7151,
      "နၧၩ": 7152,
      "ูล": 7153,
      "aham": 7154,
      "லே": 7155,
      "ໂຕ": 7156,
      "khin": 7157,
      "ဥပဒေ": 7158,
      "rawl": 7159,
      "ရော": 7160,
      "ập": 7161,
      "ၶဵ": 7162,
      "tuan": 7163,
      "สา": 7164,
      "လံၤ": 7165,
      "ံ့": 7166,
      "kir": 7167,
      "ၸႂ်ႉ": 7168,
      "kim": 7169,
      "ပွဲ": 7170,
      "्राए": 7171,
      "ople": 7172,
      "กำ": 7173,
      "ꤒꤢꤩ꤭": 7174,
      "So": 7175,
      "hram": 7176,
      "ပွႆး": 7177,
      "ဆံၫ့": 7178,
      "தா": 7179,
      "इस्राए": 7180,
      "꤫ꤤ꤬": 7181,
      "ườ": 7182,
      "သဵၼ်ႈ": 7183,
      "bat": 7184,
      "ခါ": 7185,
      "ihnak": 7186,
      "people": 7187,
      "အာ": 7188,
      "ဢမ်ႇလႆႈ": 7189,
      "ပိုတ်ႇ": 7190,
      "နါ": 7191,
      "கொடு": 7192,
      "ဖော်ပြ": 7193,
      "Nhưng": 7194,
      "နၫ့": 7195,
      "မြင်": 7196,
      "ngày": 7197,
      "ဆှံ": 7198,
      ".’": 7199,
      "zar": 7200,
      "vo": 7201,
      "ၡါ": 7202,
      "ant": 7203,
      "သူတို့": 7204,
      "ruah": 7205,
      "ၶွမ်ႊ": 7206,
      "Pe": 7207,
      "karang": 7208,
      "လၢပှၤ": 7209,
      "လုၵ်ႉ": 7210,
      "rena": 7211,
      "ling": 7212,
      "လူး": 7213,
      "ဝှ": 7214,
      "amat": 7215,
      "karena": 7216,
      "persembah": 7217,
      "ငွေ": 7218,
      "khawh": 7219,
      "ၸွႆႈထႅမ်": 7220,
      "ทาง": 7221,
      "เท": 7222,
      "စကား": 7223,
      "ၢမ်း": 7224,
      "သဵဝ်ႈ": 7225,
      "လုမ်း": 7226,
      "ປະຊາ": 7227,
      "11": 7228,
      "ikut": 7229,
      "शु": 7230,
      "sự": 7231,
      "ูด": 7232,
      "ការ": 7233,
      "hukum": 7234,
      "house": 7235,
      "zet": 7236,
      "ယင်း": 7237,
      "anan": 7238,
      "ဝန်ကြီး": 7239,
      "ကြည့်": 7240,
      "ထုတ်": 7241,
      "ក្ន": 7242,
      "sy": 7243,
      "nai": 7244,
      "lakah": 7245,
      "ꤢꤪ꤭": 7246,
      "ក្នុង": 7247,
      "စီး": 7248,
      "ကြည်": 7249,
      "ngaih": 7250,
      "மோ": 7251,
      "“​": 7252,
      "ꤞꤢꤧ": 7253,
      "ၼႆယဝ်ႉ": 7254,
      "pro": 7255,
      "စံၭဝ့ၫဒၪ": 7256,
      "ika": 7257,
      "satu": 7258,
      "nah": 7259,
      "မုၪ": 7260,
      "zum": 7261,
      "देख": 7262,
      "Ne": 7263,
      "ဢႃ": 7264,
      "ắt": 7265,
      "zah": 7266,
      "လည်": 7267,
      "மனி": 7268,
      "້ຳ": 7269,
      "ၸၢတ်ႈ": 7270,
      "ꤏꤛꤢꤨ": 7271,
      "தீ": 7272,
      "ꤛꤢꤩ꤬ꤏꤛꤢꤨ": 7273,
      "เผ": 7274,
      "ပိုင်း": 7275,
      "ႁၢဝ်ႈ": 7276,
      "ꤛ꤫ꤢꤦ꤬": 7277,
      "mendengar": 7278,
      "တူင်ႉ": 7279,
      "tuahmi": 7280,
      "மைய": 7281,
      "Tu": 7282,
      "ဆိုရင်": 7283,
      "ၶၢဝ်းတၢင်း": 7284,
      "န့ၣ်တက့ၢ်": 7285,
      "အကၠီၩ့": 7286,
      "đất": 7287,
      "န္": 7288,
      "mus": 7289,
      "និង": 7290,
      "အခြေ": 7291,
      "perintah": 7292,
      "tun": 7293,
      "bak": 7294,
      "โม": 7295,
      "ယိင်း": 7296,
      "အချိန်": 7297,
      "tika": 7298,
      "โด": 7299,
      "လႃႈသဵဝ်ႈ": 7300,
      "salita": 7301,
      "วิ": 7302,
      "သၢၼ်": 7303,
      "மகன": 7304,
      "ทธิ": 7305,
      "နေပြည်": 7306,
      "सो": 7307,
      "အၢ": 7308,
      "ရှင်း": 7309,
      "တၢၢ်": 7310,
      "melakukan": 7311,
      "နၢ်": 7312,
      "ழி": 7313,
      "ນຳ": 7314,
      "ूंगा": 7315,
      "Mah": 7316,
      "hamba": 7317,
      "தேவன": 7318,
      "ဢႃယု": 7319,
      "စံးဝဲ": 7320,
      "पी": 7321,
      "mana": 7322,
      "tahu": 7323,
      "្ដី": 7324,
      "စၢ်": 7325,
      "ဘီ": 7326,
      "ပှၤလၢအ": 7327,
      "ដូច": 7328,
      "ဆၧအ": 7329,
      "ப்பட": 7330,
      "ၸၢၼ်း": 7331,
      "into": 7332,
      "တီၩ": 7333,
      "ຫລື": 7334,
      "၂၀": 7335,
      "child": 7336,
      "Ahi": 7337,
      "Jesu": 7338,
      "ட்": 7339,
      "မ့ၢ်တၢ်": 7340,
      "000": 7341,
      "တအိၣ်": 7342,
      "pati": 7343,
      "ꤔ꤫ꤤ꤬": 7344,
      "ဖ့ၪလၫ့": 7345,
      "Re": 7346,
      "asa": 7347,
      "່ອນ": 7348,
      "້ານ": 7349,
      "ꤟꤢꤨꤔꤣꤧ꤬": 7350,
      "Abr": 7351,
      "នឹង": 7352,
      "หลาย": 7353,
      "ரோ": 7354,
      "ம்முடைய": 7355,
      "ប៉": 7356,
      "Abraham": 7357,
      "คำ": 7358,
      "tao": 7359,
      "တဵ": 7360,
      "မႅင်း": 7361,
      "တွေက": 7362,
      "तुम्हा": 7363,
      "Yo": 7364,
      "cau": 7365,
      "ဂၪ့": 7366,
      "စံ": 7367,
      "ເຫັນ": 7368,
      "rumah": 7369,
      "tế": 7370,
      "ဘး": 7371,
      "យើង": 7372,
      "ต้อง": 7373,
      "ใด": 7374,
      "သုၼ်ႇ": 7375,
      "ႁဵတ်းၵၢၼ်": 7376,
      "Sih": 7377,
      "Topaʼ": 7378,
      "keluar": 7379,
      "အဖွဲ့": 7380,
      "တႃႈၶီႈ": 7381,
      "အီၪဝ့ၫ": 7382,
      "နေပြည်တော်": 7383,
      "သႅၼ်": 7384,
      "அவன": 7385,
      "ແດນ": 7386,
      "janji": 7387,
      "waktu": 7388,
      "ရဲ": 7389,
      "ၵူၼ်းပၢႆႈၽေး": 7390,
      "ၶု": 7391,
      "ạy": 7392,
      "ဢၼ်ဝႃႈ": 7393,
      "ꤗꤢꤧ": 7394,
      "នេះ": 7395,
      "ꤋꤢꤧ꤭": 7396,
      "melihat": 7397,
      "उसे": 7398,
      "lawm": 7399,
      "mim": 7400,
      "nar": 7401,
      "thì": 7402,
      "บู": 7403,
      "off": 7404,
      "सम": 7405,
      "ဧါ": 7406,
      "walang": 7407,
      "ີນ": 7408,
      "မိူင်းထႆး": 7409,
      "cùng": 7410,
      "ဆေး": 7411,
      "လၢယ": 7412,
      "ưa": 7413,
      "ၶတ်း": 7414,
      "ၢၼ်ႇ": 7415,
      "aki": 7416,
      "ăm": 7417,
      "gun": 7418,
      "turun": 7419,
      "ဒီးစီၤ": 7420,
      "ႁၢဝ်ႈႁႅင်း": 7421,
      "ယော": 7422,
      "bas": 7423,
      "ၽူႈတႅၼ်း": 7424,
      "လူင်ပွင်ၸိုင်ႈမၢၼ်ႈ": 7425,
      "မေႃ": 7426,
      "ဟီၣ်ခိၣ်": 7427,
      "ခဲ့သည်": 7428,
      "အတွင်း": 7429,
      "ၺွ": 7430,
      "ၼိုင်": 7431,
      "trước": 7432,
      "บรร": 7433,
      "banyak": 7434,
      "wag": 7435,
      "ມັນ": 7436,
      "ၢၢ်": 7437,
      "လၢသု": 7438,
      "ทธิ์": 7439,
      "duk": 7440,
      "ciam": 7441,
      "တဲ့အခါ": 7442,
      "என்னுடைய": 7443,
      "Khi": 7444,
      "တႃႈၶီႈလဵၵ်း": 7445,
      "ꤢ꤬ꤋꤛꤢ꤭": 7446,
      "ပၢ်": 7447,
      "အမျိုး": 7448,
      "အဲၣ်": 7449,
      "မြန်": 7450,
      "your": 7451,
      "mun": 7452,
      "ကီ": 7453,
      "For": 7454,
      "sebab": 7455,
      "ປະຊາຊົນ": 7456,
      "ꤣꤧ꤭ꤔꤣꤧ꤬": 7457,
      "ႁူင်းယႃ": 7458,
      "phán": 7459,
      "inig": 7460,
      "ကျွန်တော်": 7461,
      "နီၣ်": 7462,
      "kit": 7463,
      "இந்த": 7464,
      "ชี": 7465,
      "ၵွပ်ႈ": 7466,
      "ாரிய": 7467,
      "ꤜꤢ꤭ꤋꤢꤧ꤭": 7468,
      "ging": 7469,
      "နား": 7470,
      "ຖ້າ": 7471,
      "jalan": 7472,
      "ငမ်း": 7473,
      "เห็น": 7474,
      "အသ": 7475,
      "ၼႃႈတီႈ": 7476,
      "ເຫລົ່າ": 7477,
      "Sem": 7478,
      "நோ": 7479,
      "รุ": 7480,
      "ano": 7481,
      "hmanh": 7482,
      "luk": 7483,
      "တီၤ": 7484,
      "တၢ်မၤ": 7485,
      "စီဆှံ": 7486,
      "ອີກ": 7487,
      "အၪ": 7488,
      "parah": 7489,
      "ဒ်အံၤ": 7490,
      "lebih": 7491,
      "thawng": 7492,
      "ຮູ້": 7493,
      "भे": 7494,
      "บน": 7495,
      "ួយ": 7496,
      "ၪ့ထၪ့": 7497,
      "डा": 7498,
      "कोई": 7499,
      "နုၤ": 7500,
      "gil": 7501,
      "က္": 7502,
      "စၢၤ": 7503,
      "စိာ်": 7504,
      "ชาว": 7505,
      "ชาย": 7506,
      "ယၢပ်ႇ": 7507,
      "Yerusalem": 7508,
      "nila": 7509,
      "rin": 7510,
      "கி": 7511,
      "ပင်": 7512,
      "tui": 7513,
      "လဖၪနီၪ": 7514,
      "Yehu": 7515,
      "နံၫ": 7516,
      "ពេ": 7517,
      "ခြား": 7518,
      "လိူဝ်ၼၼ်ႉ": 7519,
      "တောင်": 7520,
      "ဖြင့်": 7521,
      "လူႉတၢႆ": 7522,
      "pil": 7523,
      "usia": 7524,
      "ओर": 7525,
      "လၧနၥံၪ": 7526,
      "ခွင့်": 7527,
      "ers": 7528,
      "ပွၵ်ႉ": 7529,
      "ၸႄႈတွၼ်ႈ": 7530,
      "Musa": 7531,
      "công": 7532,
      "அதி": 7533,
      "याह": 7534,
      "Levi": 7535,
      "ninyo": 7536,
      "ường": 7537,
      "ज्": 7538,
      "तर": 7539,
      "ၼႂ်": 7540,
      "nào": 7541,
      "sah": 7542,
      "โย": 7543,
      "ၵမ်ႈ": 7544,
      "kik": 7545,
      "ဖြစ်တယ်": 7546,
      "low": 7547,
      "ꤢꤦ꤭": 7548,
      "In": 7549,
      "करने": 7550,
      "बी": 7551,
      "ดี": 7552,
      "ပေါင်း": 7553,
      "ဢူဝ်း": 7554,
      "ក្ដី": 7555,
      "耶稣": 7556,
      "ທັງຫລາຍ": 7557,
      "အဂၤ": 7558,
      "သီႇပေႃႉ": 7559,
      "ကလေး": 7560,
      "သဵင်": 7561,
      "बु": 7562,
      "တပ်": 7563,
      "ံၩ့": 7564,
      "mur": 7565,
      "Cucaah": 7566,
      "ဖါ": 7567,
      "တစ်ခု": 7568,
      "တေႃႇထိုင်": 7569,
      "imam": 7570,
      "hung": 7571,
      "ဒဲၦ": 7572,
      "一个": 7573,
      "那里": 7574,
      "မြေ": 7575,
      "သိၣ်": 7576,
      "தெ": 7577,
      "ၸို": 7578,
      "wh": 7579,
      "ဖက်": 7580,
      "ைத்": 7581,
      "ꤗ꤫ꤢ꤬": 7582,
      "ရပ်": 7583,
      "ꤢ꤬ꤚ": 7584,
      "မွဲအ": 7585,
      "pung": 7586,
      "சீ": 7587,
      "ဃး": 7588,
      "dung": 7589,
      "ບູ": 7590,
      "tal": 7591,
      "हूं": 7592,
      "biết": 7593,
      "ၵေႃ": 7594,
      "còn": 7595,
      "လဂ့ၩ": 7596,
      "daan": 7597,
      "ลูก": 7598,
      "ꤝꤢ꤬": 7599,
      "nasa": 7600,
      "்கிற": 7601,
      "ယေး": 7602,
      "hrih": 7603,
      "ꤞꤣꤧ꤭": 7604,
      "တူင်ႉၼိုင်": 7605,
      "ṭhan": 7606,
      "ted": 7607,
      "ဒဲစ": 7608,
      "ယေရှု": 7609,
      "com": 7610,
      "apagka": 7611,
      "now": 7612,
      "adi": 7613,
      "erah": 7614,
      "สำ": 7615,
      "ၽွၼ်း": 7616,
      "kur": 7617,
      "ដោយ": 7618,
      "မး": 7619,
      "sed": 7620,
      "கட்ட": 7621,
      "အၡၩ": 7622,
      "ဒဲဆၧ": 7623,
      "ซา": 7624,
      "បន្": 7625,
      "မ့်": 7626,
      "សេច": 7627,
      "ၥၪ": 7628,
      "हुआ": 7629,
      "Ab": 7630,
      "ຕ່າງ": 7631,
      "ၢၼ်း": 7632,
      "மும்": 7633,
      "ไร": 7634,
      "land": 7635,
      "ဂု": 7636,
      "selu": 7637,
      "သူၼ်": 7638,
      "ty": 7639,
      "ဒိၩ့": 7640,
      "မေး": 7641,
      "แดน": 7642,
      "ต่าง": 7643,
      "้าน": 7644,
      "pha": 7645,
      "serta": 7646,
      "sống": 7647,
      "วิต": 7648,
      "ີດ": 7649,
      "बे": 7650,
      "member": 7651,
      "အဖိခွါ": 7652,
      "ေႃ": 7653,
      "kai": 7654,
      "bersama": 7655,
      "kian": 7656,
      "hnga": 7657,
      "သလဲ": 7658,
      "ၺွပ်း": 7659,
      "Apa": 7660,
      "kun": 7661,
      "လျှ": 7662,
      "dai": 7663,
      "trai": 7664,
      "တၢင်းပဵၼ်ၶူဝ်ႊဝိတ်ႉ": 7665,
      "ít": 7666,
      "ាម": 7667,
      "ục": 7668,
      "ốt": 7669,
      "air": 7670,
      "Sapagka": 7671,
      "ோடு": 7672,
      "children": 7673,
      "ၶဝ်ႈႁူမ်ႈ": 7674,
      "ralkap": 7675,
      "ၸဵပ်း": 7676,
      "မႆႇ": 7677,
      "nawl": 7678,
      "tawn": 7679,
      "တၤ": 7680,
      "ယေဟော": 7681,
      "ယေဟောဝါ": 7682,
      "தாவ": 7683,
      "လႅၼ်": 7684,
      "thlah": 7685,
      "เคร": 7686,
      "situ": 7687,
      "ထောင်စု": 7688,
      "lalake": 7689,
      "ၵေႃႇ": 7690,
      "ốn": 7691,
      "ႁွင်ႉ": 7692,
      "້ອມ": 7693,
      "សេចក្ដី": 7694,
      "กล่าว": 7695,
      "Rumah": 7696,
      "rel": 7697,
      "ชีวิต": 7698,
      "பொ": 7699,
      "นา": 7700,
      "kasama": 7701,
      "နိုင်တယ်": 7702,
      "seluruh": 7703,
      "ສຸດ": 7704,
      "हां": 7705,
      "deuh": 7706,
      "ထုၪ့": 7707,
      "လၢအအိၣ်": 7708,
      "हाथ": 7709,
      "တိူဝ်ႉ": 7710,
      "Hih": 7711,
      "ကတၢၢ်": 7712,
      "ဆး": 7713,
      "វិ": 7714,
      "नाम": 7715,
      "स्त्र": 7716,
      "ệc": 7717,
      "before": 7718,
      "ใช้": 7719,
      "တဂ့ၤ": 7720,
      "မျှ": 7721,
      "aron": 7722,
      "ယႃႈမ": 7723,
      "ั่ว": 7724,
      "lin": 7725,
      "အ့ၪမွဲ": 7726,
      "30": 7727,
      "အံၫစရ့လၭ": 7728,
      "வந்த": 7729,
      "mikian": 7730,
      "တုင်": 7731,
      "ົ່ວ": 7732,
      "रहे": 7733,
      "ilis": 7734,
      "မၢတ်ႇ": 7735,
      "ကယဲၢ်": 7736,
      "hru": 7737,
      "ร์": 7738,
      "နီၤ": 7739,
      "ness": 7740,
      "လခီၫ": 7741,
      "ຜູ້ໃດ": 7742,
      "ဃီ": 7743,
      "မဲာ်": 7744,
      "ของเรา": 7745,
      "ၼွင်": 7746,
      "வரு": 7747,
      "ဖြစ်သည်": 7748,
      "ပျဲ": 7749,
      "bawa": 7750,
      "လွင်ႈၼႆႉ": 7751,
      "ချင်": 7752,
      "hngalh": 7753,
      "ົ້ນ": 7754,
      "လႅင်း": 7755,
      "ယိၤ": 7756,
      "ດັ່ງນັ້ນ": 7757,
      "Các": 7758,
      "bing": 7759,
      "တေႃႈ": 7760,
      "oy": 7761,
      "கைய": 7762,
      "ဖွ": 7763,
      "ၢင်ႉ": 7764,
      "နဲၪ့": 7765,
      "Aaron": 7766,
      "อีก": 7767,
      "စ့ၢ်": 7768,
      "firman": 7769,
      "กา": 7770,
      "mengu": 7771,
      "มือน": 7772,
      "ဝ့ၫတၭ": 7773,
      "တိတ်းၸပ်း": 7774,
      "Jesus": 7775,
      "पू": 7776,
      "ဘ့ၣ်": 7777,
      "அவனுடைய": 7778,
      "Filis": 7779,
      "ဘ့": 7780,
      "ac": 7781,
      "กระ": 7782,
      "ồng": 7783,
      "bahay": 7784,
      "အကျၩ": 7785,
      "annih": 7786,
      "मनुष": 7787,
      "တူၼ်ႈတီး": 7788,
      "''": 7789,
      "စဉ်": 7790,
      "တဖၣ်လၢ": 7791,
      "tlak": 7792,
      "uống": 7793,
      "thấy": 7794,
      "bagay": 7795,
      "ကီး": 7796,
      "ating": 7797,
      "Hãy": 7798,
      "ဝႆႉတီႈ": 7799,
      "ໂດຍ": 7800,
      "sana": 7801,
      "ື່ນ": 7802,
      "स्था": 7803,
      "नों": 7804,
      "មួយ": 7805,
      "ၥ့ၪယၫ": 7806,
      "duduk": 7807,
      "Ben": 7808,
      "គាត់": 7809,
      "เวห์": 7810,
      "Yehuda": 7811,
      "ไม่ได้": 7812,
      "mặt": 7813,
      "ငန်း": 7814,
      "ណា": 7815,
      "arkan": 7816,
      "्ट": 7817,
      "ထိး": 7818,
      "ရၫ့": 7819,
      "chu": 7820,
      "harap": 7821,
      "les": 7822,
      "လူၺ်ႈ": 7823,
      "เหมือน": 7824,
      "Asina": 7825,
      "ck": 7826,
      "ຮ້າຍ": 7827,
      "ືອ": 7828,
      "Asinain": 7829,
      "रो": 7830,
      "หา": 7831,
      "ဉ်း": 7832,
      "ဝႃး": 7833,
      "အရေး": 7834,
      "ទេ": 7835,
      "kamay": 7836,
      "បន្ទ": 7837,
      "ၱၢ်": 7838,
      "kod": 7839,
      "काम": 7840,
      "ၸိူဝ်ႉၸၢတ်ႈ": 7841,
      "res": 7842,
      "နာ်": 7843,
      "ဝ်းၵမ်": 7844,
      "နွ": 7845,
      "danya": 7846,
      "nhưng": 7847,
      "can": 7848,
      "ါ်": 7849,
      "membawa": 7850,
      "sat": 7851,
      "पि": 7852,
      "ສັນ": 7853,
      "ເຕ": 7854,
      "buong": 7855,
      "ၵွၼ်း": 7856,
      "လုပ်ငန်း": 7857,
      "lupain": 7858,
      "Oleh": 7859,
      "awang": 7860,
      "ဆူၣ်": 7861,
      "மனித": 7862,
      "គ្រ": 7863,
      "nadingin": 7864,
      "caan": 7865,
      "ស្ស": 7866,
      "str": 7867,
      "ခီၣ်": 7868,
      "ayo": 7869,
      "उनके": 7870,
      "ทั้งหลาย": 7871,
      "ၸႂ်ႈ": 7872,
      "သမ္": 7873,
      "gur": 7874,
      "Sihmanhsehlaw": 7875,
      "ยาห์เวห์": 7876,
      "ாக்க": 7877,
      "ຳນ": 7878,
      "พระยาห์เวห์": 7879,
      "மூ": 7880,
      "အပ်": 7881,
      "ၵဵင်းတုင်": 7882,
      "nơi": 7883,
      "நிய": 7884,
      "ꤊꤢꤩ꤬": 7885,
      "pekmi": 7886,
      "ငဝ်ႈ": 7887,
      "jahat": 7888,
      "wo": 7889,
      "went": 7890,
      "வர்கள்": 7891,
      "Amaute": 7892,
      "word": 7893,
      "थी": 7894,
      "သၣ်": 7895,
      "cara": 7896,
      "गए": 7897,
      "khuapi": 7898,
      "ပြည်ထောင်စု": 7899,
      "tại": 7900,
      "ဘော": 7901,
      "लोगों": 7902,
      "aj": 7903,
      "ຕັ້ງ": 7904,
      "ၼေ": 7905,
      "Pasianʼ": 7906,
      "ເດ": 7907,
      "ียง": 7908,
      "besar": 7909,
      "af": 7910,
      "ách": 7911,
      "எனக்கு": 7912,
      "的儿子": 7913,
      "சுத்த": 7914,
      "ရူတ်ႉ": 7915,
      "ஸ்த": 7916,
      "mahmah": 7917,
      "ထီၣ်ဝဲ": 7918,
      "டை": 7919,
      "ပြီ": 7920,
      "मू": 7921,
      "khỏi": 7922,
      "້ມ": 7923,
      "inda": 7924,
      "bảo": 7925,
      "ၵႂၢမ်း": 7926,
      "သင်ၶ": 7927,
      "tất": 7928,
      "also": 7929,
      "ပုၼ်ႈ": 7930,
      "Ai": 7931,
      "ญญา": 7932,
      "သီး": 7933,
      "ၼွၵ်ႈ": 7934,
      "เครื่อง": 7935,
      "្ប": 7936,
      "ຊູ": 7937,
      "ன்ப": 7938,
      "bul": 7939,
      "memberikan": 7940,
      "ဢူး": 7941,
      "உண்ட": 7942,
      "nge": 7943,
      "kembali": 7944,
      "ວິດ": 7945,
      "ிலிருந்து": 7946,
      "But": 7947,
      "ยา": 7948,
      "ỗi": 7949,
      "mimpin": 7950,
      "mau": 7951,
      "च्": 7952,
      "कारण": 7953,
      "khawm": 7954,
      "သဝ်း": 7955,
      "inggal": 7956,
      "ຊີວິດ": 7957,
      "Eg": 7958,
      "mọi": 7959,
      "úc": 7960,
      "ဃုာ်": 7961,
      "erintah": 7962,
      "ၼၼ်ႉၵေႃႈ": 7963,
      "gaya": 7964,
      "roon": 7965,
      "against": 7966,
      "எல்ல": 7967,
      "ၶိူင်ႈ": 7968,
      "ອັນ": 7969,
      "ठह": 7970,
      "တတ်": 7971,
      "ထမ်း": 7972,
      "tahun": 7973,
      "गी": 7974,
      "မိူၼ်ၼင်ႇ": 7975,
      "ၥုၭ": 7976,
      "nước": 7977,
      "ທະ": 7978,
      "ၵဵင်းမႆႇ": 7979,
      "အံ": 7980,
      "လုင်း": 7981,
      "ိုင်း": 7982,
      "သုး": 7983,
      "บูชา": 7984,
      "நோக்கி": 7985,
      "ရၤ": 7986,
      "gì": 7987,
      "นาง": 7988,
      "hold": 7989,
      "ழிய": 7990,
      "Ze": 7991,
      "ளி": 7992,
      "မိူဝ်း": 7993,
      "ပှၤက": 7994,
      "ื่น": 7995,
      "ຕະ": 7996,
      "လၩ": 7997,
      "ဂျ": 7998,
      "என்றான்": 7999,
      "人的": 8000,
      "လဲာ်": 8001,
      "menjawab": 8002,
      "che": 8003,
      "Người": 8004,
      "Sam": 8005,
      "terhadap": 8006,
      "အိၣ်ဝဲ": 8007,
      "பட்ட": 8008,
      "မွဲဂ့ၩ": 8009,
      "တႅၵ်ႇ": 8010,
      "ဆံၫ": 8011,
      "ဝ့ၫလီၫ": 8012,
      "itan": 8013,
      "ထားတယ်": 8014,
      "៖​": 8015,
      "ꤜꤥ꤭": 8016,
      "beg": 8017,
      "耶和华的": 8018,
      "စ့ၢ်ကီး": 8019,
      "ပှဲၤ": 8020,
      "ổi": 8021,
      "ພະເຈົ້າ": 8022,
      "ராஜாவ": 8023,
      "ตั้ง": 8024,
      "ပဵၼ်ပၢင်တိုၵ်း": 8025,
      "âng": 8026,
      "ப்பி": 8027,
      "Mesir": 8028,
      "ကဲထီၣ်": 8029,
      "တည်": 8030,
      "ပဝ်ႈ": 8031,
      "shalt": 8032,
      "ထံၭ": 8033,
      "awlei": 8034,
      "Izi": 8035,
      "အဝ": 8036,
      "ເອງ": 8037,
      "ၦၡၩ": 8038,
      "Jangan": 8039,
      "कुछ": 8040,
      "nama": 8041,
      "ທີ": 8042,
      "ယွမ်း": 8043,
      "Izipt": 8044,
      "ပၵ်း": 8045,
      "áo": 8046,
      "တမ်း": 8047,
      "所有": 8048,
      "thế": 8049,
      "ꤡꤢꤩ꤬": 8050,
      "bangtuk": 8051,
      "kumpipa": 8052,
      "ຂ້າພະເຈົ້າ": 8053,
      "hmaiah": 8054,
      "pam": 8055,
      "annya": 8056,
      "တဖၣ်န့ၣ်": 8057,
      "magsi": 8058,
      "ืน": 8059,
      "一切": 8060,
      "ငါ": 8061,
      "ူၢ်": 8062,
      "ယူႇလီ": 8063,
      "သဲ": 8064,
      "ຂ້ອຍ": 8065,
      "ဆိး": 8066,
      "သူတွေ": 8067,
      "gawa": 8068,
      "अन": 8069,
      "မတီ": 8070,
      "sebel": 8071,
      "việc": 8072,
      "ไม่มี": 8073,
      "rian": 8074,
      "ၥုၪ့": 8075,
      "Con": 8076,
      "wor": 8077,
      "Kris": 8078,
      "war": 8079,
      "ၶမ်ႈ": 8080,
      "ុន": 8081,
      "ូវ": 8082,
      "punyai": 8083,
      "ဟူ": 8084,
      "isa": 8085,
      "่ม": 8086,
      "ngo": 8087,
      "amau": 8088,
      "perc": 8089,
      "न्ध": 8090,
      "វិញ": 8091,
      "Và": 8092,
      "ดัง": 8093,
      "Sal": 8094,
      "लगा": 8095,
      "ပျႃး": 8096,
      "โดย": 8097,
      "miphun": 8098,
      "hnuah": 8099,
      "PP": 8100,
      "நே": 8101,
      "ியா": 8102,
      "mempunyai": 8103,
      "thlun": 8104,
      "வேண்டும்": 8105,
      "pel": 8106,
      "ສາມ": 8107,
      "្ល": 8108,
      "जी": 8109,
      "ၵႄႈ": 8110,
      "就是": 8111,
      "ဎွ့ၩ": 8112,
      "Pau": 8113,
      "ၽိူ": 8114,
      "த்திர": 8115,
      "တၭစ": 8116,
      "ဘယ်လို": 8117,
      "ꤕꤜꤢꤪ": 8118,
      "loh": 8119,
      "လောက်": 8120,
      "အမ့ၬယၫ": 8121,
      "น้ำ": 8122,
      "ຖວາຍ": 8123,
      "ခိ": 8124,
      "တမ့ၢ်": 8125,
      "meninggal": 8126,
      "cause": 8127,
      "ບູຊາ": 8128,
      "แม": 8129,
      "ခိုင်": 8130,
      "ယုံ": 8131,
      "hrangah": 8132,
      "Kamu": 8133,
      "ứng": 8134,
      "ipin": 8135,
      "kih": 8136,
      "စံၣ်": 8137,
      "သည့်": 8138,
      "tlun": 8139,
      "SSA": 8140,
      "လၧမု": 8141,
      "रख": 8142,
      "ပၢၵ်ႇ": 8143,
      "ၸိူဝ်ႉမႅင်း": 8144,
      "ุด": 8145,
      "ကနေ": 8146,
      "မြန်မာ": 8147,
      "ၾိ": 8148,
      "mata": 8149,
      "ၵဵဝ်ႇၵပ်း": 8150,
      "ၸိုင်": 8151,
      "neih": 8152,
      "चार": 8153,
      "ကတီၢ်": 8154,
      "ស្រ": 8155,
      "mipa": 8156,
      "ကိုယ်စား": 8157,
      "ဂၪ့ခိၪ": 8158,
      "ၸိုဝ်ႈ": 8159,
      "ဟ့ၣ်လီၤ": 8160,
      "မ့မ့ၢ်": 8161,
      "ချင်း": 8162,
      "nate": 8163,
      "ต์": 8164,
      "တေမီး": 8165,
      "เถ": 8166,
      "မၤတၢ်": 8167,
      "ั่น": 8168,
      "เค": 8169,
      "တောင်း": 8170,
      "ꤒꤢ꤭": 8171,
      "ိုးရ": 8172,
      "tanya": 8173,
      "ຕາຍ": 8174,
      "lòng": 8175,
      "ứu": 8176,
      "uruh": 8177,
      "tội": 8178,
      "ื้อ": 8179,
      "hlan": 8180,
      "ယိပ်း": 8181,
      "boleh": 8182,
      "वर्": 8183,
      "गर": 8184,
      "பூ": 8185,
      "လူဝ်ႇ": 8186,
      "pahnih": 8187,
      "Thu": 8188,
      "tha": 8189,
      "aim": 8190,
      "upa": 8191,
      "nghe": 8192,
      "sualnak": 8193,
      "Ma": 8194,
      "குட": 8195,
      "ໂຢ": 8196,
      "thờ": 8197,
      "ເຊິ່ງ": 8198,
      "ாம்": 8199,
      "मी": 8200,
      "eli": 8201,
      "த்தின": 8202,
      "jak": 8203,
      "khen": 8204,
      "ໃສ": 8205,
      "ၸိုင်ႈတႆးပွတ်းႁွင်ႇ": 8206,
      "ຍ່": 8207,
      "ထၱး": 8208,
      "ுக்கும்": 8209,
      "พร": 8210,
      "ႁၢႆ": 8211,
      "လှယ်": 8212,
      "ບ່ອນ": 8213,
      "angh": 8214,
      "pintu": 8215,
      "မၢတ်ႇၸဵပ်း": 8216,
      "อัน": 8217,
      "Siangpahrang": 8218,
      "အဂံၪ့": 8219,
      "မၩန့": 8220,
      "ဟးဂီၤ": 8221,
      "Egy": 8222,
      "zan": 8223,
      "ເຜ": 8224,
      "ment": 8225,
      "ꤙꤢꤧ꤬": 8226,
      "मुझे": 8227,
      "တ္": 8228,
      "အလုပ်": 8229,
      "ပှၤတဂၤ": 8230,
      "bantukin": 8231,
      "15": 8232,
      "bay": 8233,
      "áng": 8234,
      "န့ၣ်ဒီး": 8235,
      "साथ": 8236,
      "ของเขา": 8237,
      "လိၬ": 8238,
      "saudara": 8239,
      "အဝဲဒၣ်": 8240,
      "ႁူဝ်ပဝ်ႈ": 8241,
      "hrin": 8242,
      "။“": 8243,
      "အသက်": 8244,
      "करता": 8245,
      "တစ်ယောက်": 8246,
      "ປະຕ": 8247,
      "ຮັກ": 8248,
      "ir": 8249,
      "စိုက်": 8250,
      "படிய": 8251,
      "้ง": 8252,
      "ူၫ": 8253,
      "ၸဝ်ႈၼႃႈတီႈ": 8254,
      "กลับ": 8255,
      "biakna": 8256,
      "ဘျီ": 8257,
      "ເທິງ": 8258,
      "ဢုပ်ႇဢူဝ်း": 8259,
      "รัก": 8260,
      "วาย": 8261,
      "ၽႅ": 8262,
      "membuat": 8263,
      "Kan": 8264,
      "उठ": 8265,
      "Cuih": 8266,
      "தை": 8267,
      "ូរ": 8268,
      "उसका": 8269,
      "ວງ": 8270,
      "ရတယ်": 8271,
      "nhà": 8272,
      "ဒါပေမဲ့": 8273,
      "ṭh": 8274,
      "buk": 8275,
      "ຽວ": 8276,
      "kia": 8277,
      "မၩဆၧ": 8278,
      "ບາບ": 8279,
      "တချ": 8280,
      "chính": 8281,
      "ைகள்": 8282,
      "sil": 8283,
      "ear": 8284,
      "ကဲၪထၪ့": 8285,
      "အိ": 8286,
      "tentang": 8287,
      "gayo": 8288,
      "꤫ꤢꤪ꤬": 8289,
      "ယူဒၤ": 8290,
      "ນ້ຳ": 8291,
      "चे": 8292,
      "அறி": 8293,
      "ဧၪ": 8294,
      "red": 8295,
      "ငယ်": 8296,
      "ဒ်လဲၣ်": 8297,
      "တီႉၺွပ်း": 8298,
      "รู้": 8299,
      "ဂီၩ့": 8300,
      "teng": 8301,
      "selama": 8302,
      "มัน": 8303,
      "ັມ": 8304,
      "ज्ञ": 8305,
      "Zei": 8306,
      "bre": 8307,
      "ுள்ள": 8308,
      "away": 8309,
      "ore": 8310,
      "damu": 8311,
      "ពេល": 8312,
      "တေႃႈလဵဝ်": 8313,
      "ပါး": 8314,
      "ꤢ꤬ꤋꤢꤩ꤭": 8315,
      "တႃႉ": 8316,
      "suatu": 8317,
      "ကျော်": 8318,
      "zing": 8319,
      "ထီးနီၪ": 8320,
      "ជាម្ចាស់": 8321,
      "တွင်း": 8322,
      "ပှၢ်": 8323,
      "dahil": 8324,
      "hoih": 8325,
      "ꤙꤢꤧ꤬ꤡꤢꤩ꤬": 8326,
      "zin": 8327,
      "saying": 8328,
      "ꤘꤢꤨ꤬": 8329,
      "वाले": 8330,
      "อย่า": 8331,
      "ສະຫ": 8332,
      "தங்கள": 8333,
      "รู": 8334,
      "lis": 8335,
      "Dan": 8336,
      "बि": 8337,
      "iling": 8338,
      "தேவ": 8339,
      "ပွႆႇ": 8340,
      "ຈົນ": 8341,
      "ສາ": 8342,
      "ဏ်": 8343,
      "ယၢၼ်": 8344,
      "sehla": 8345,
      "Maw": 8346,
      "हमा": 8347,
      "မိူင်းၶႄႇ": 8348,
      "इसलिये": 8349,
      "over": 8350,
      "thể": 8351,
      "ထွက်": 8352,
      "รรม": 8353,
      "gel": 8354,
      "ऊं": 8355,
      "tas": 8356,
      "เหล่าน": 8357,
      "वी": 8358,
      "ຢ່າ": 8359,
      "ဂၭ": 8360,
      "အိၣ်ဒီး": 8361,
      "ลัง": 8362,
      "လ့ၣ်": 8363,
      "ordan": 8364,
      "他们的": 8365,
      "ព្រះជាម្ចាស់": 8366,
      "சொல்லுகிற": 8367,
      "ற்க": 8368,
      "ဎံၪ": 8369,
      "ဝႂ်": 8370,
      "အဖြစ်": 8371,
      "ၥၫ့": 8372,
      "ၽိ": 8373,
      "kol": 8374,
      "လုၢ်တၢ်": 8375,
      "nên": 8376,
      "ូន": 8377,
      "்கள்": 8378,
      "sihmanhsehlaw": 8379,
      "ken": 8380,
      "ருடைய": 8381,
      "rằng": 8382,
      "လၢက": 8383,
      "मेरी": 8384,
      "ႁူင်းႁဵၼ်း": 8385,
      "ႁွင်ႈၵၢၼ်": 8386,
      "如果": 8387,
      "ดู": 8388,
      "hendak": 8389,
      "ດິນແດນ": 8390,
      "இட": 8391,
      "manusia": 8392,
      "ဒၩ": 8393,
      "ပႂ်": 8394,
      "pakah": 8395,
      "ဒေသ": 8396,
      "ơn": 8397,
      "ยิ": 8398,
      "छा": 8399,
      "ould": 8400,
      "ယဝ်ႉၵေႃႈ": 8401,
      "இஸ்ரவேல": 8402,
      "persembahkan": 8403,
      "âu": 8404,
      "ăng": 8405,
      "ihi": 8406,
      "laban": 8407,
      "စ့ၩ": 8408,
      "tik": 8409,
      "ကိာ်": 8410,
      "Anak": 8411,
      "ihan": 8412,
      "ໃຫຍ່": 8413,
      "ရှူး": 8414,
      "ꤒꤣꤧ꤬ꤟꤢꤩ꤬ꤔꤣꤧ꤬": 8415,
      "father": 8416,
      "လႅၼ်လိၼ်": 8417,
      "mih": 8418,
      "benar": 8419,
      "ဆိုင်ရာ": 8420,
      "nhi": 8421,
      "ម្រ": 8422,
      "ယိုတ်း": 8423,
      "ပႂ်ႉ": 8424,
      "មន": 8425,
      "cha": 8426,
      "ပြောဆို": 8427,
      "ຮ້ອງ": 8428,
      "ச்ச": 8429,
      "ထက်": 8430,
      "उसकी": 8431,
      "who": 8432,
      "ກຳລ": 8433,
      "တက်": 8434,
      "sul": 8435,
      "ပူၼ်ႉမႃး": 8436,
      "ກຳລັງ": 8437,
      "ဖီၩ့": 8438,
      "tim": 8439,
      "என்னை": 8440,
      "အဂ့ၢ်ဒ်အံၤ": 8441,
      "bung": 8442,
      "yi": 8443,
      "ស៊": 8444,
      "tuu": 8445,
      "निक": 8446,
      "เบ": 8447,
      "எல்லா": 8448,
      "ပေႃႈ": 8449,
      "Giô": 8450,
      "பார்த்த": 8451,
      "தக": 8452,
      "စါ": 8453,
      "ညီၣ်": 8454,
      "rem": 8455,
      "tna": 8456,
      "ၢး": 8457,
      "那些": 8458,
      "Cuti": 8459,
      "လါနၫ့": 8460,
      "अर्": 8461,
      "ၼႄၵၢင်ၸႂ်": 8462,
      "kepadanya": 8463,
      "Kristus": 8464,
      "pakai": 8465,
      "सि": 8466,
      "தர": 8467,
      "ຍິນ": 8468,
      "ແທ": 8469,
      "ငြ": 8470,
      "ဆွေး": 8471,
      "ေ့": 8472,
      "वन": 8473,
      "ဢေ": 8474,
      "தும்": 8475,
      "ุม": 8476,
      "ស្ដ": 8477,
      "ယိခွါ": 8478,
      "ပွတ်းႁွင်ႇ": 8479,
      "tar": 8480,
      "made": 8481,
      "menge": 8482,
      "mengam": 8483,
      "pengikut": 8484,
      "ၸႄႈမိူင်း": 8485,
      "khut": 8486,
      "rit": 8487,
      "မွဲဆၧ": 8488,
      "ခီဖျိ": 8489,
      "13": 8490,
      "बना": 8491,
      "adingin": 8492,
      "ikaw": 8493,
      "பரி": 8494,
      "အဖၫ့": 8495,
      "ເຢຊູ": 8496,
      "ib": 8497,
      "ये": 8498,
      "வர்": 8499,
      "အစူၪ": 8500,
      "ၶူင်း": 8501,
      "ໍາ": 8502,
      "ဘၣ်ဆၣ်ဒီး": 8503,
      "biakinn": 8504,
      "đem": 8505,
      "ဆှၢ": 8506,
      "စွာ": 8507,
      "यदि": 8508,
      "ạc": 8509,
      "giờ": 8510,
      "ပၢင်လိူၵ်ႈတင်ႈ": 8511,
      "Vua": 8512,
      "hl": 8513,
      "All": 8514,
      "musuh": 8515,
      "တဖၣ်ဒီး": 8516,
      "ollow": 8517,
      "ถวาย": 8518,
      "เต": 8519,
      "ဒံၭ": 8520,
      "နၩ့": 8521,
      "ꤋꤢꤨ꤬": 8522,
      "Man": 8523,
      "时候": 8524,
      "Jose": 8525,
      "အိမ်ထောင်": 8526,
      "kak": 8527,
      "đều": 8528,
      "ัม": 8529,
      "မနုၤ": 8530,
      "Egypt": 8531,
      "ज्ञा": 8532,
      "தேச": 8533,
      "ilon": 8534,
      "bahagi": 8535,
      "lea": 8536,
      "mili": 8537,
      "လၧယဟိဝၩ": 8538,
      "ၸိူဝ်းၼၼ်ႉ": 8539,
      "ဆီး": 8540,
      "တူင်ႇ": 8541,
      "ဘိၩ့": 8542,
      "Apabila": 8543,
      "ကိုယ်စားလှယ်": 8544,
      "mele": 8545,
      "ၵၢတ်ႇ": 8546,
      "Maka": 8547,
      "ယုံကြည်": 8548,
      "atna": 8549,
      "इस्राएल": 8550,
      "ဃ့": 8551,
      "ធ្វ": 8552,
      "ၼ်ႊ": 8553,
      "အသိးန့ၣ်လီၤ": 8554,
      "Jika": 8555,
      "யூ": 8556,
      "ought": 8557,
      "As": 8558,
      "होंने": 8559,
      "yaon": 8560,
      "Curuangah": 8561,
      "வந்து": 8562,
      "suku": 8563,
      "ชาติ": 8564,
      "ធ្វើ": 8565,
      "ves": 8566,
      "ิง": 8567,
      "ꤝꤤ꤭": 8568,
      "வேன்": 8569,
      "rut": 8570,
      "जान": 8571,
      "भु": 8572,
      "တဲ့အ": 8573,
      "လၢႆလၢႆ": 8574,
      "ၵျွင်း": 8575,
      "ပတ်သက်": 8576,
      "သဘော": 8577,
      "ကိုယ့်": 8578,
      "प्रा": 8579,
      "ယႃႈမဝ်းၵမ်": 8580,
      "ဖြေ": 8581,
      "ซู": 8582,
      "ເບິ່ງ": 8583,
      "kannya": 8584,
      "zui": 8585,
      "ngaingai": 8586,
      "Khrih": 8587,
      "mawh": 8588,
      "ปวง": 8589,
      "ပိူၼ်ႈ": 8590,
      "ယၢမ်းၵၢင်ၼႂ်": 8591,
      "paoh": 8592,
      "ꤟꤢꤩꤚꤣꤧ꤬": 8593,
      "เถิด": 8594,
      "ale": 8595,
      "ကမၣ်": 8596,
      "ဘံၪ့": 8597,
      "buatan": 8598,
      "fah": 8599,
      "ុស្ស": 8600,
      "ខ្ល": 8601,
      "ကုန်": 8602,
      "មនុស្ស": 8603,
      "நட": 8604,
      "even": 8605,
      "ႁႄ": 8606,
      "Babilon": 8607,
      "ຊາດ": 8608,
      "unuh": 8609,
      "उत्": 8610,
      "्ड": 8611,
      "အုပ်": 8612,
      "လီၩ": 8613,
      "ຫລັງ": 8614,
      "அதின்": 8615,
      "don": 8616,
      "တူၼ်": 8617,
      "batu": 8618,
      "hor": 8619,
      "ၵုမ်း": 8620,
      "tile": 8621,
      "kip": 8622,
      "hanggang": 8623,
      "maka": 8624,
      "yat": 8625,
      "ອມ": 8626,
      "வரை": 8627,
      "ဆဲၫ့": 8628,
      "jangan": 8629,
      "धि": 8630,
      "နွေး": 8631,
      "த்திலே": 8632,
      "dalah": 8633,
      "ဖှိၣ်": 8634,
      "ulo": 8635,
      "ஆச": 8636,
      "ၽႄႈ": 8637,
      "ၶွင်ႇ": 8638,
      "ຕາ": 8639,
      "လၢတၢ်န့ၣ်": 8640,
      "hay": 8641,
      "ငဝ်း": 8642,
      "လနံၩ": 8643,
      "ၸု": 8644,
      "เอง": 8645,
      "ကော်": 8646,
      "လၬ": 8647,
      "面前": 8648,
      "puwa": 8649,
      "kuasa": 8650,
      "စဎွၩ": 8651,
      "ဝ့ၤ": 8652,
      "ွဲ": 8653,
      "ạn": 8654,
      "sekali": 8655,
      "ကျွန်မ": 8656,
      "யெகோவாவுடைய": 8657,
      "တဲာ်": 8658,
      "什么": 8659,
      "mel": 8660,
      "ဖွဲ့": 8661,
      "ꤔꤤ": 8662,
      "ຕອບ": 8663,
      "န့ၤ": 8664,
      "விய": 8665,
      "အၢၣ်": 8666,
      "ခံစား": 8667,
      "လေ့": 8668,
      "नगर": 8669,
      "เยซู": 8670,
      "मनुष्य": 8671,
      "muh": 8672,
      "னு": 8673,
      "ꤒꤢꤩ꤬ꤞ": 8674,
      "ສັ່ງ": 8675,
      "တာကို": 8676,
      "ဟံး": 8677,
      "ampi": 8678,
      "အဖီ": 8679,
      "Moab": 8680,
      "kepadamu": 8681,
      "lonak": 8682,
      "zaw": 8683,
      "लों": 8684,
      "ရီ": 8685,
      "လမံၩ့": 8686,
      "သတ်": 8687,
      "ပၢႆးယူႇလီ": 8688,
      "tel": 8689,
      "နိုင်ငံတော်": 8690,
      "யே": 8691,
      "ệt": 8692,
      "ửa": 8693,
      "ၱၤ": 8694,
      "꤫ꤣꤧ꤬": 8695,
      "ປົກ": 8696,
      "ทั้งปวง": 8697,
      "လုာ်": 8698,
      "အီၪလၧ": 8699,
      "langit": 8700,
      "ကမ္": 8701,
      "बात": 8702,
      "यों": 8703,
      "ື້ອ": 8704,
      "nunnak": 8705,
      "baba": 8706,
      "Yang": 8707,
      "ตน": 8708,
      "ใคร": 8709,
      "then": 8710,
      "တႃႇတေ": 8711,
      "စံၭဝ့ၫ": 8712,
      "ဖးဒိၣ်": 8713,
      "நி": 8714,
      "ကါ": 8715,
      "sedang": 8716,
      "ထွဲ": 8717,
      "puluh": 8718,
      "எழு": 8719,
      "ສອງ": 8720,
      "phe": 8721,
      "dir": 8722,
      "huwag": 8723,
      "cer": 8724,
      "ob": 8725,
      "စူၪ": 8726,
      "အပှၤ": 8727,
      "membunuh": 8728,
      "vawlei": 8729,
      "தூ": 8730,
      "အၭ": 8731,
      "ဘၣ်ဃး": 8732,
      "ၼႂ်းမိူင်းတႆး": 8733,
      "அவனை": 8734,
      "ၵူၼ်းပၢႆႈၽေးသိုၵ်း": 8735,
      "ນາ": 8736,
      "ထံး": 8737,
      "ราช": 8738,
      "အဂီၢ်န့ၣ်လီၤ": 8739,
      "အၧၩ့": 8740,
      "ực": 8741,
      "สอง": 8742,
      "ພໍ່": 8743,
      "ากร": 8744,
      "ဆံၫ့ဎံၪ": 8745,
      "Ha": 8746,
      "tộc": 8747,
      "ẫn": 8748,
      "tiế": 8749,
      "နှု": 8750,
      "செய்து": 8751,
      "ပႅတ်ႈ": 8752,
      "တိုက်": 8753,
      "ၾိင်ႈ": 8754,
      "မၩအၥၭဘဲၫ": 8755,
      "fo": 8756,
      "cuih": 8757,
      "မွၵ်ႇ": 8758,
      "ประช": 8759,
      "ဢႃႇ": 8760,
      "Tôi": 8761,
      "hua": 8762,
      "ສຳລ": 8763,
      "ဆိၪ": 8764,
      "timi": 8765,
      "ပြောင်း": 8766,
      "ประท": 8767,
      "ဘၣ်တၢ်မၤ": 8768,
      "म्ह": 8769,
      "zung": 8770,
      "tes": 8771,
      "พระเยซู": 8772,
      "विष": 8773,
      "wel": 8774,
      "xuống": 8775,
      "สว": 8776,
      "လံာ်": 8777,
      "မၼ်းၸၢႆး": 8778,
      "ทำให้": 8779,
      "ဆိၬ": 8780,
      "ၶႅပ်း": 8781,
      "ၵမ်ႉ": 8782,
      "ំព": 8783,
      "သုတ်း": 8784,
      "vekin": 8785,
      "ႁူဝ်သိူဝ်": 8786,
      "ကမ္ဘာ": 8787,
      "xin": 8788,
      "சொன்ன": 8789,
      "siapa": 8790,
      "တ်ႊ": 8791,
      "ဝဲၢ်": 8792,
      "nangag": 8793,
      "အစည်း": 8794,
      "Chúng": 8795,
      "உங்களுக்கு": 8796,
      "lut": 8797,
      "ပါဘူး": 8798,
      "ຮັບໃຊ້": 8799,
      "turunan": 8800,
      "உம": 8801,
      "ိၼ်း": 8802,
      "Thi": 8803,
      "pala": 8804,
      "တစု": 8805,
      "ុក": 8806,
      "dawt": 8807,
      "ອະ": 8808,
      "ாலே": 8809,
      "หมด": 8810,
      "demikian": 8811,
      "கொண்டு": 8812,
      "ဆွေးနွေး": 8813,
      "ဆင်": 8814,
      "memberi": 8815,
      "सुन": 8816,
      "บรรดา": 8817,
      "ၼင်ႇႁိုဝ်": 8818,
      "နဲၢ်": 8819,
      "rito": 8820,
      "ပီၤ": 8821,
      "မၫ": 8822,
      "alang": 8823,
      "ꤚꤣꤧꤘꤢꤦ꤬": 8824,
      "gre": 8825,
      "ຈັກ": 8826,
      "អស់": 8827,
      "umnak": 8828,
      "ထီၫ": 8829,
      "ប៉ុន": 8830,
      "ီၫ": 8831,
      "နၭ": 8832,
      "ယိူ": 8833,
      "နုာ်": 8834,
      "adalah": 8835,
      "sekarang": 8836,
      "ဢၼ်မီး": 8837,
      "Keimah": 8838,
      "Ama": 8839,
      "ວິ": 8840,
      "down": 8841,
      "្ដែ": 8842,
      "္ဂ": 8843,
      "ड़ी": 8844,
      "Su": 8845,
      "พิ": 8846,
      "ṭhen": 8847,
      "ตาย": 8848,
      "အဆို": 8849,
      "တီႈဝဵင်း": 8850,
      "masuk": 8851,
      "उन्होंने": 8852,
      "ໃສ່": 8853,
      "அது": 8854,
      "နမိ": 8855,
      "ဢၼ်ဝႃႈၼၼ်ႉ": 8856,
      "အၥိၭနီၪ": 8857,
      "Abi": 8858,
      "၁၉": 8859,
      "这些": 8860,
      "ngh": 8861,
      "ພຣະເຢຊູ": 8862,
      "तुम्हारे": 8863,
      "ប៉ុន្ដែ": 8864,
      "बहु": 8865,
      "ဆင်း": 8866,
      "mendapat": 8867,
      "க்கொண்டு": 8868,
      "ကျွန်တော်တို့": 8869,
      "မီႈ": 8870,
      "उसको": 8871,
      "साम्ह": 8872,
      "လုၵ်ႈဢွၼ်ႇ": 8873,
      "ယူတ်း": 8874,
      "Then": 8875,
      "အမဲာ်": 8876,
      "Đa": 8877,
      "ऐसा": 8878,
      "မႅ": 8879,
      "sur": 8880,
      "berfirman": 8881,
      "လၢတ်ႈၼႄ": 8882,
      "thluh": 8883,
      "ထီၣ်တၢ်": 8884,
      "ရှိတယ်": 8885,
      "ဃာ်": 8886,
      "လႃး": 8887,
      "သဵင်ႈ": 8888,
      "လၢတၢ်န့ၣ်အဃိ": 8889,
      "dik": 8890,
      "pit": 8891,
      "ၵၢၼ်မိူင်း": 8892,
      "போன": 8893,
      "ၶွင်ႇသီႇ": 8894,
      "asi": 8895,
      "မှူး": 8896,
      "ดาว": 8897,
      "अनु": 8898,
      "चि": 8899,
      "ຊົ່ວ": 8900,
      "လၫ": 8901,
      "လၢကီၢ်": 8902,
      "နေရာ": 8903,
      "ရုံ": 8904,
      "rồi": 8905,
      "ດາວ": 8906,
      "ၥၧၫ့": 8907,
      "တူႈ": 8908,
      "magka": 8909,
      "weet": 8910,
      "caw": 8911,
      "ກາງ": 8912,
      "ແຜ": 8913,
      "တဘျီ": 8914,
      "ၽၵ်း": 8915,
      "chia": 8916,
      "percaya": 8917,
      "ၵႂႃႇမႃး": 8918,
      "တိုင်": 8919,
      "ဘြ": 8920,
      "menye": 8921,
      "ingin": 8922,
      "သေတႃႉ": 8923,
      "တႅမ်ႈ": 8924,
      "ைகளை": 8925,
      "ဝူင်း": 8926,
      "if": 8927,
      "áu": 8928,
      "ṭih": 8929,
      "anmah": 8930,
      "ี่ย": 8931,
      "ꤢ꤬ꤋꤝꤢ꤬": 8932,
      "ꤢ꤬ꤋꤝꤢ꤬ꤢ꤬ꤋꤛꤢ꤭": 8933,
      "pri": 8934,
      "အလီၩ့": 8935,
      "saith": 8936,
      "Biak": 8937,
      "pemimpin": 8938,
      "உய": 8939,
      "teri": 8940,
      "ဖြစ်ကြောင်း": 8941,
      "ခိၭ": 8942,
      "သပ်": 8943,
      "chết": 8944,
      "အစိုးရ": 8945,
      "ຕ່າງໆ": 8946,
      "राज": 8947,
      "ping": 8948,
      "ရံ": 8949,
      "နဲၩ့": 8950,
      "domba": 8951,
      "ំណ": 8952,
      "ပုၼ်ႈၽွၼ်း": 8953,
      "ꤔ꤫ꤢꤩ꤬": 8954,
      "tur": 8955,
      "ပျံၤ": 8956,
      "angahtile": 8957,
      "သၢမ်": 8958,
      "ရွေး": 8959,
      "နုၬ": 8960,
      "antara": 8961,
      "eth": 8962,
      "ບອກ": 8963,
      "ໂຣ": 8964,
      "ဳာ်": 8965,
      "phu": 8966,
      "புற": 8967,
      "mam": 8968,
      "အအီၪ": 8969,
      "thleng": 8970,
      "rim": 8971,
      "anita": 8972,
      "စ္စ": 8973,
      "ၽူႈတႅၼ်းသၽႃး": 8974,
      "தல": 8975,
      "ထီၩ့": 8976,
      "tiga": 8977,
      "တင်းၼမ်": 8978,
      "တိယ": 8979,
      "စံးဆၢ": 8980,
      "masih": 8981,
      "ມອບ": 8982,
      "अब": 8983,
      "ayah": 8984,
      "ເນ": 8985,
      "ulu": 8986,
      "zal": 8987,
      "ั่ง": 8988,
      "ၼမ်း": 8989,
      "sinh": 8990,
      "ເວລາ": 8991,
      "kor": 8992,
      "ႁိူၼ်းယေး": 8993,
      "ယူတ်းယႃ": 8994,
      "vật": 8995,
      "đa": 8996,
      "ထၬ": 8997,
      "ုၼ်း": 8998,
      "nupi": 8999,
      "14": 9000,
      "ຖານ": 9001,
      "ဂံၪ့": 9002,
      "ညွ": 9003,
      "kiang": 9004,
      "Solo": 9005,
      "sarih": 9006,
      "ต่างๆ": 9007,
      "Solomon": 9008,
      "တဖၣ်န့ၣ်လီၤ": 9009,
      "မၢႆမီႈ": 9010,
      "Ber": 9011,
      "ชั่ว": 9012,
      "ṭong": 9013,
      "သႅင်": 9014,
      "ன்பாக": 9015,
      "asan": 9016,
      "ฟัง": 9017,
      "ຟັງ": 9018,
      "वित्र": 9019,
      "ึก": 9020,
      "အလိၤ": 9021,
      "လၵ်း": 9022,
      "setiap": 9023,
      "ned": 9024,
      "ၼမ်ႉၶမ်း": 9025,
      "यहू": 9026,
      "ꤕꤜꤢꤪ꤬": 9027,
      "ထင်": 9028,
      "bumi": 9029,
      "ပဵၼ်ၵူၼ်း": 9030,
      "ꤔꤣꤧ꤬ꤒꤣꤧ꤬ꤟꤢꤩ꤬": 9031,
      "offer": 9032,
      "ວນ": 9033,
      "ုံ": 9034,
      "விட": 9035,
      "Ph": 9036,
      "ทูล": 9037,
      "သၱာ်": 9038,
      "விட்டு": 9039,
      "प्रभु": 9040,
      "tap": 9041,
      "လၧအဝ့ၫ": 9042,
      "பின்பு": 9043,
      "ดินแดน": 9044,
      "Họ": 9045,
      "cor": 9046,
      "သေး": 9047,
      "အဘ": 9048,
      "siang": 9049,
      "ပွဲး": 9050,
      "pate": 9051,
      "အခိၪ": 9052,
      "ၽွင်ႈ": 9053,
      "nay": 9054,
      "kul": 9055,
      "गि": 9056,
      "็ม": 9057,
      "ၢႆႈ": 9058,
      "perbuatan": 9059,
      "တိုၼ်း": 9060,
      "လုၵ်ႈႁဵၼ်း": 9061,
      "ລີ": 9062,
      "aming": 9063,
      "လၢအမ့ၢ်": 9064,
      "cahtiah": 9065,
      "ப்பட்டு": 9066,
      "ຊື່": 9067,
      "sao": 9068,
      "sungih": 9069,
      "ຄືນ": 9070,
      "បន្ទូល": 9071,
      "ปล": 9072,
      "மை": 9073,
      "ဘှ": 9074,
      "đời": 9075,
      "நிற": 9076,
      "ၶၼ်": 9077,
      "တွေဟာ": 9078,
      "mengi": 9079,
      "ၵၢင်ႇ": 9080,
      "បី": 9081,
      "ႁဵတ်းႁႂ်ႈ": 9082,
      "ដូច្ន": 9083,
      "这样": 9084,
      "ၽူႈၵွၼ်း": 9085,
      "အကျါ": 9086,
      "साम्हने": 9087,
      "ဖၫ": 9088,
      "ၸိ": 9089,
      "ilung": 9090,
      "ဒၪဘၪ": 9091,
      "khit": 9092,
      "ढ़ा": 9093,
      "zaang": 9094,
      "ຸມ": 9095,
      "She": 9096,
      "ဆီၪ့": 9097,
      "နစ်": 9098,
      "क्ष": 9099,
      "nabi": 9100,
      "dalawang": 9101,
      "nuam": 9102,
      "ဖဲန့ၣ်": 9103,
      "တူၢ်": 9104,
      "வான": 9105,
      "hnenih": 9106,
      "ထိၬ": 9107,
      "அதற்கு": 9108,
      "áp": 9109,
      "உட": 9110,
      "နိ": 9111,
      "သတင်း": 9112,
      "ဢၼ်လႆႈ": 9113,
      "ယ့ၫ": 9114,
      "ans": 9115,
      "ကွယ်": 9116,
      "เดีย": 9117,
      "သင်ၶၸဝ်ႈ": 9118,
      "ဒီးမၤ": 9119,
      "ิดา": 9120,
      "मर": 9121,
      "ထၢမ်": 9122,
      "chimh": 9123,
      "พูด": 9124,
      "ຊະ": 9125,
      "ដល់": 9126,
      "ꤢ꤬ꤖꤢꤨ": 9127,
      "வரும்": 9128,
      "ण्ड": 9129,
      "ထး": 9130,
      "ၸမ်": 9131,
      "លើ": 9132,
      "bằng": 9133,
      "ươi": 9134,
      "ဝံး": 9135,
      "ၶူဝ်": 9136,
      "ၵဵပ်း": 9137,
      "တနံၤ": 9138,
      "SSPP": 9139,
      "Har": 9140,
      "ீர்": 9141,
      "ၨၩ": 9142,
      "kasih": 9143,
      "amauʼ": 9144,
      "่วย": 9145,
      "ကၤ": 9146,
      "လိၣ်": 9147,
      "ၸူး": 9148,
      "NLA": 9149,
      "ဘီၪ": 9150,
      "လၧၫ့": 9151,
      "ငမ်းယဵၼ်": 9152,
      "हर": 9153,
      "ုး": 9154,
      "လၢပ": 9155,
      "sep": 9156,
      "ၵူဝ်": 9157,
      "binatang": 9158,
      "सन्": 9159,
      "แท": 9160,
      "မူၤ": 9161,
      "တဲဘၣ်": 9162,
      "erved": 9163,
      "bukan": 9164,
      "after": 9165,
      "phi": 9166,
      "மீ": 9167,
      "自己的": 9168,
      "ដែរ": 9169,
      "ல்லாம்": 9170,
      "ត្រូវ": 9171,
      "ၽိုတ်ႇ": 9172,
      "ဝန်ကြီးဌာန": 9173,
      "ၸႅ": 9174,
      "လိုအပ်": 9175,
      "menyem": 9176,
      "Ja": 9177,
      "ဒုၪ": 9178,
      "vui": 9179,
      "၁၀": 9180,
      "ထုင်ႉ": 9181,
      "ပြောကြား": 9182,
      "ꤟꤢꤩꤏ": 9183,
      "ဆိၩ": 9184,
      "เรีย": 9185,
      "ဆိၣ်": 9186,
      "မၢင်": 9187,
      "ၼင်ႈ": 9188,
      "သူများ": 9189,
      "စီၤအၤ": 9190,
      "ປີ": 9191,
      "လင်း": 9192,
      "ofet": 9193,
      "fim": 9194,
      "every": 9195,
      "้อม": 9196,
      "ép": 9197,
      "ாய்": 9198,
      "baga": 9199,
      "ၼမ်ႉတူႈ": 9200,
      "way": 9201,
      "ຍາ": 9202,
      "စက်": 9203,
      "நியாய": 9204,
      "ประชากร": 9205,
      "vang": 9206,
      "मो": 9207,
      "ธรรม": 9208,
      "知道": 9209,
      "ꤒꤥ꤭": 9210,
      "hni": 9211,
      "pre": 9212,
      "ပၢင်ႇ": 9213,
      "လၢမ်း": 9214,
      "முன்பாக": 9215,
      "မၪလူၬ": 9216,
      "reserved": 9217,
      "ற்று": 9218,
      "ยิน": 9219,
      "သဵၼ်ႈတၢင်း": 9220,
      "பரிசுத்த": 9221,
      "gem": 9222,
      "पहि": 9223,
      "सार": 9224,
      "ရရှိ": 9225,
      "่อน": 9226,
      "ดาวิด": 9227,
      "Follow": 9228,
      "dâng": 9229,
      "ໂຊ": 9230,
      "ၥိၪ": 9231,
      "வாச": 9232,
      "Oh": 9233,
      "ຄອງ": 9234,
      "ꤓꤝꤢ꤭": 9235,
      "cur": 9236,
      "things": 9237,
      "ဒဲးဘး": 9238,
      "ழை": 9239,
      "ꤞꤤꤑꤢꤩ꤭": 9240,
      "ꤒꤣꤧ꤬ꤚ": 9241,
      "great": 9242,
      "តែ": 9243,
      "trở": 9244,
      "sons": 9245,
      "keturunan": 9246,
      "chỉ": 9247,
      "တည်း": 9248,
      "ၼူ": 9249,
      "opy": 9250,
      "Copy": 9251,
      "လဳ": 9252,
      "လိမ့်": 9253,
      "ဘၪဆဲၫ့": 9254,
      "wan": 9255,
      "ကဒါ": 9256,
      "ạo": 9257,
      "kuat": 9258,
      "ကွံာ်အီၤ": 9259,
      "ດາວິດ": 9260,
      "luh": 9261,
      "qua": 9262,
      "unia": 9263,
      "ၶႅင်ႇ": 9264,
      "ႁၢၼ်ႉ": 9265,
      "กำลัง": 9266,
      "தின": 9267,
      "ႁူဝ်ၵူၼ်း": 9268,
      "aria": 9269,
      "ခွဲ": 9270,
      "rights": 9271,
      "weets": 9272,
      "Tweets": 9273,
      "မယ့်": 9274,
      "ដើ": 9275,
      "ꤢ꤬ꤜ": 9276,
      "TimesTweets": 9277,
      "ၵွင်ႈၵၢင်ႇ": 9278,
      "TheMyanmarTimesFollow": 9279,
      "Copyright": 9280,
      "ကဆါ": 9281,
      "၁၁": 9282,
      "တဖၣ်အံၤ": 9283,
      "Jeho": 9284,
      "पवित्र": 9285,
      "່ວຍ": 9286,
      "quân": 9287,
      "hum": 9288,
      "ร้อง": 9289,
      "ၼပ်ႉ": 9290,
      "empat": 9291,
      "अर्था": 9292,
      "अर्थात": 9293,
      "တူး": 9294,
      "मुझ": 9295,
      "ငဝ်းလၢႆး": 9296,
      "ສຳລັບ": 9297,
      "Lord": 9298,
      "यो": 9299,
      "သိမ်း": 9300,
      "quy": 9301,
      "Cutikah": 9302,
      "huh": 9303,
      "မိူဝ်ႈဝႃး": 9304,
      "என்றார்": 9305,
      "ဘဲၫၥိၭအမိ": 9306,
      "dum": 9307,
      "ပၼ်ႁႃ": 9308,
      "த்தி": 9309,
      "ဝှါ": 9310,
      "TNLA": 9311,
      "hon": 9312,
      "ႁူမ်ႇ": 9313,
      "Ahih": 9314,
      "any": 9315,
      "လၢင်း": 9316,
      "လဖၧၫ့": 9317,
      "大卫": 9318,
      "တၢ်သီ": 9319,
      "ပြစ်": 9320,
      "babae": 9321,
      "ាក់": 9322,
      "ம்ப": 9323,
      "ked": 9324,
      "ໂລກ": 9325,
      "ကောက်": 9326,
      "ဆၧလၧ": 9327,
      "Nangmah": 9328,
      "ສາວ": 9329,
      "nasem": 9330,
      "tia": 9331,
      "க்கார": 9332,
      "သၢင်ႇ": 9333,
      "gayon": 9334,
      "தன்னுடைய": 9335,
      "ပဵၼ်ပၢင်တိုၵ်းၵၼ်": 9336,
      "နှုန်း": 9337,
      "50": 9338,
      "menyer": 9339,
      "ங்கே": 9340,
      "ရုံး": 9341,
      "အၢၣ်လီၤ": 9342,
      "उन्हें": 9343,
      "Filistin": 9344,
      "உம்முடைய": 9345,
      "ກິນ": 9346,
      "້ອນ": 9347,
      "ဖျဲး": 9348,
      "magi": 9349,
      "ႁႄႉ": 9350,
      "wanita": 9351,
      "ဟၣ်": 9352,
      "arau": 9353,
      "ထၢၣ်": 9354,
      "ယၢပ်ႇၽိုတ်ႇ": 9355,
      ".)": 9356,
      "धा": 9357,
      "கை": 9358,
      "ழ்": 9359,
      "ละ": 9360,
      "ចូរ": 9361,
      "လၢၤ": 9362,
      "တာဝန်": 9363,
      "hak": 9364,
      "ຍານ": 9365,
      "မ့ၪ": 9366,
      "ပၢင်ပွႆး": 9367,
      "ượng": 9368,
      "ကိစ္စ": 9369,
      "ปี": 9370,
      "elamat": 9371,
      "มาย": 9372,
      "ယုဒၫ": 9373,
      "ဒၣ်ဝဲ": 9374,
      "அவர்களுக்கு": 9375,
      "பய": 9376,
      "ບັດ": 9377,
      "យេ": 9378,
      "arah": 9379,
      "னிட": 9380,
      "ကျမ်းစာမှာ": 9381,
      "သၢၼ်ၶတ်း": 9382,
      "Bar": 9383,
      "ဝံၭ": 9384,
      "ของเจ้า": 9385,
      "anaan": 9386,
      "बहुत": 9387,
      "छो": 9388,
      "ເກີດ": 9389,
      "မီၢ်": 9390,
      "ဖြတ်": 9391,
      "ணி": 9392,
      "၁၇": 9393,
      "ỡi": 9394,
      "မီးၵူၼ်း": 9395,
      "ພຣະເຢຊູເຈົ້າ": 9396,
      "zbah": 9397,
      "ပဵင်း": 9398,
      "ၶျ": 9399,
      "တေဢမ်ႇ": 9400,
      "menyuruh": 9401,
      "did": 9402,
      "ketika": 9403,
      "้าย": 9404,
      "ဒၣ်လဲာ်": 9405,
      "nagsisi": 9406,
      "ကူၣ်": 9407,
      "လၢဝ့ၢ်": 9408,
      "ered": 9409,
      "Hu": 9410,
      "bawm": 9411,
      "ပၼ်ႇ": 9412,
      "၁၂": 9413,
      "看哪": 9414,
      "ၺ်ႇ": 9415,
      "ູງ": 9416,
      "အဲး": 9417,
      "ကြိုး": 9418,
      "200": 9419,
      "sinasabi": 9420,
      "patid": 9421,
      "່ມ": 9422,
      "ံၫ့": 9423,
      "ႁေႃ": 9424,
      "តាម": 9425,
      "我要": 9426,
      "unau": 9427,
      "ပွင်ႇ": 9428,
      "လၧအအီၪ": 9429,
      "ရှိနေ": 9430,
      "ெல்லாம்": 9431,
      "ၸိုင်ႈမိူင်း": 9432,
      "ဘံၭ": 9433,
      "บาป": 9434,
      "Kum": 9435,
      "Ni": 9436,
      "phạ": 9437,
      "vancung": 9438,
      "ယၢင်း": 9439,
      "တချို့": 9440,
      "ิม": 9441,
      "sut": 9442,
      "chan": 9443,
      "သုင်": 9444,
      "hmin": 9445,
      "အၪ့မၧၫ့": 9446,
      "கல": 9447,
      "မ့ၬ": 9448,
      "niyaon": 9449,
      "உன்னுடைய": 9450,
      "ပိာ်မုၣ်": 9451,
      "နၪ": 9452,
      "၁၅": 9453,
      "សា": 9454,
      "dunia": 9455,
      "tle": 9456,
      "အပှၤဂီၢ်မုၢ်": 9457,
      "꤯”": 9458,
      "த்தையும்": 9459,
      "ที่น": 9460,
      "buhay": 9461,
      "ร้าง": 9462,
      "lelaki": 9463,
      "க்கப்பட்ட": 9464,
      "စရာ": 9465,
      "ၽု": 9466,
      "đồng": 9467,
      "ၽဵ": 9468,
      "vek": 9469,
      "ၽွမ်ႉ": 9470,
      "நீர்": 9471,
      "Sebab": 9472,
      "ដូច្នេះ": 9473,
      "वच": 9474,
      "ၵိူ": 9475,
      "tain": 9476,
      "kulh": 9477,
      "cio": 9478,
      "perka": 9479,
      "nannih": 9480,
      "ட்டி": 9481,
      "ဖျိၪ့": 9482,
      "ເຫລົ່ານີ້": 9483,
      "lay": 9484,
      "சந்த": 9485,
      "ரை": 9486,
      "तुझे": 9487,
      "အပူၤန့ၣ်လီၤ": 9488,
      "vít": 9489,
      "子孙": 9490,
      "ၸဵမ်ၸိူဝ်းၼႆႉ": 9491,
      "guh": 9492,
      "बै": 9493,
      "tusan": 9494,
      "ꤞꤤꤕꤜꤢꤪ꤬": 9495,
      "ပၢင်လူင်": 9496,
      "நாள": 9497,
      "บัติ": 9498,
      "அனு": 9499,
      "หิต": 9500,
      "သင်ႇ": 9501,
      "ဢၢၼ်း": 9502,
      "ꤥ꤬ꤔ": 9503,
      "ဆိုတဲ့": 9504,
      "हुई": 9505,
      "ဒၤဝံး": 9506,
      "စံၣ်ညီၣ်": 9507,
      "cin": 9508,
      "đầu": 9509,
      "आज्ञा": 9510,
      "ohan": 9511,
      "sawn": 9512,
      "சகோ": 9513,
      "மன": 9514,
      "siyang": 9515,
      "Dengan": 9516,
      "တူင်ႇဝူင်း": 9517,
      "ဂါ": 9518,
      "တန်": 9519,
      "သမီး": 9520,
      "ဢိင်": 9521,
      "ႁႅၼ်း": 9522,
      "hrimhrim": 9523,
      "ưở": 9524,
      "ꤠꤤ꤭": 9525,
      "orh": 9526,
      "ဘာသာ": 9527,
      "atapuwa": 9528,
      "យ៉": 9529,
      "பார்த்து": 9530,
      "ສ້າງ": 9531,
      "ထၧၫ့": 9532,
      "mong": 9533,
      "போய்": 9534,
      "ະນະ": 9535,
      "ဆၢကတီၢ်": 9536,
      "ꤘꤢꤧ꤬": 9537,
      "ၸွမ်းၼင်ႇ": 9538,
      "လၢႆးမိုဝ်း": 9539,
      "khalsehla": 9540,
      "der": 9541,
      "อม": 9542,
      "ꤕꤢ꤬": 9543,
      "အဒူၣ်": 9544,
      "எங்கள": 9545,
      "akob": 9546,
      "ꤗꤢ꤬ꤔꤢꤧ": 9547,
      "लिया": 9548,
      "သႃ": 9549,
      "ပႃႇတီႇႁူဝ်သိူဝ်": 9550,
      "မန်": 9551,
      "တုၵ်း": 9552,
      "အမျိုးသား": 9553,
      "Jakob": 9554,
      "၁၃": 9555,
      "sangat": 9556,
      "ႁု": 9557,
      "တွေနဲ့": 9558,
      "ဒီလို": 9559,
      "thangṭhat": 9560,
      "fan": 9561,
      "uto": 9562,
      "ၧၫ": 9563,
      "ꤔꤣꤧ꤬ꤗꤢ꤬": 9564,
      "டுத்து": 9565,
      "ၽိတ်း": 9566,
      "ກວ່າ": 9567,
      "တွပ်ႇ": 9568,
      "ưởng": 9569,
      "மிய": 9570,
      "的时候": 9571,
      "ႁဵင်": 9572,
      "တာက": 9573,
      "သင်ဝႃႈ": 9574,
      "ும்படி": 9575,
      "မၤတ့ၢ်": 9576,
      "ဒုတိယ": 9577,
      "இயே": 9578,
      "ous": 9579,
      "jud": 9580,
      "இப்ப": 9581,
      "தான": 9582,
      "वास": 9583,
      "இயேசு": 9584,
      "hanya": 9585,
      "nor": 9586,
      "zia": 9587,
      "லி": 9588,
      "หญ": 9589,
      "အသုံး": 9590,
      "kapatid": 9591,
      "ath": 9592,
      "சிய": 9593,
      "ꤜꤢꤧ꤬": 9594,
      "မုၬ": 9595,
      "ยิ่ง": 9596,
      "ces": 9597,
      "မဵ": 9598,
      "ine": 9599,
      "မီးလွင်ႈ": 9600,
      "அவர்களுடைய": 9601,
      "ret": 9602,
      "ຕໍ່ໜ້າ": 9603,
      "yar": 9604,
      "ယႃႇ": 9605,
      "ရတဲ့": 9606,
      "memerintah": 9607,
      "သိုၵ်းလူင်ပွင်ၸိုင်ႈမၢၼ်ႈ": 9608,
      "ထၫ့": 9609,
      "wat": 9610,
      "းထီၣ်": 9611,
      "amag": 9612,
      "करते": 9613,
      "လိၵ်ႈလၢႆး": 9614,
      "่วน": 9615,
      "ꤝꤤ": 9616,
      "ထီၫ့": 9617,
      "மக்கள்": 9618,
      "สัต": 9619,
      "โลก": 9620,
      "korban": 9621,
      "Samu": 9622,
      "ल्": 9623,
      "บร": 9624,
      "alam": 9625,
      "အဖၫ့ခိၪ": 9626,
      "ကွဲး": 9627,
      "ဝႆႉဝႃႈ": 9628,
      "ꤗꤢꤩ꤬ꤒꤢꤩ꤭": 9629,
      "່ວນ": 9630,
      "ພູ": 9631,
      "ຣາ": 9632,
      "စ့": 9633,
      "ရွှ": 9634,
      "ऊद": 9635,
      "Biakinn": 9636,
      "ိုလ်": 9637,
      "க்காக": 9638,
      "வார்த்த": 9639,
      "စုံ": 9640,
      "दाऊद": 9641,
      "သုၼ်ႇလႆႈ": 9642,
      "mengambil": 9643,
      "vậy": 9644,
      "บ้าน": 9645,
      "suan": 9646,
      "bertanya": 9647,
      "nanmah": 9648,
      "तेरा": 9649,
      "பட்டண": 9650,
      "ဂၭဂီၩ့": 9651,
      "ꤗꤢ꤬ꤔꤢꤧꤚꤣꤧ꤬": 9652,
      "know": 9653,
      "kurban": 9654,
      "17": 9655,
      "baw": 9656,
      "juh": 9657,
      "၁၄": 9658,
      "dis": 9659,
      "ရှာ": 9660,
      "hruai": 9661,
      "Samuel": 9662,
      "यी": 9663,
      "ộng": 9664,
      "awan": 9665,
      "mand": 9666,
      "ເຣ": 9667,
      "တိုး": 9668,
      "ின்மேல்": 9669,
      "அவனுக்கு": 9670,
      "தாக": 9671,
      "ꤍ꤫ꤥ꤬": 9672,
      "bek": 9673,
      "Juda": 9674,
      "स्थान": 9675,
      "lấy": 9676,
      "ோட": 9677,
      "บอก": 9678,
      "ဂၧၫ့": 9679,
      "tengah": 9680,
      "န့ၣ်ဘၣ်": 9681,
      "miteʼ": 9682,
      "ங்கி": 9683,
      "ဢွၼ်ႁူဝ်": 9684,
      "စဲၪ့ထၪ့": 9685,
      "magiging": 9686,
      "hast": 9687,
      "ோம்": 9688,
      "သျ": 9689,
      "ူၭ": 9690,
      "ၵႃႇ": 9691,
      "หรับ": 9692,
      "ắc": 9693,
      "Beth": 9694,
      "แผ": 9695,
      "ၸိူင်ႉၼႆ": 9696,
      "တဵမ်": 9697,
      "சன": 9698,
      "လူမ်ႈ": 9699,
      "စီၤၡ": 9700,
      "தேசத்த": 9701,
      "समय": 9702,
      "கள்": 9703,
      "bigay": 9704,
      "பாவ": 9705,
      "ၶႂ": 9706,
      "ꤛꤢ": 9707,
      "gas": 9708,
      "அதை": 9709,
      "ꤢ꤬ꤋꤢꤩ꤭ꤔꤣꤧ꤬": 9710,
      "रहा": 9711,
      "ตอบ": 9712,
      "บิดา": 9713,
      "អា": 9714,
      "thần": 9715,
      "hea": 9716,
      "servan": 9717,
      "hihi": 9718,
      "ဖၭဒိၪ": 9719,
      "ูง": 9720,
      "ပရ": 9721,
      "emas": 9722,
      "amagitan": 9723,
      "็จ": 9724,
      "ລິ": 9725,
      "မႆႉ": 9726,
      "thlen": 9727,
      "တဖၣ်လၢအ": 9728,
      "bok": 9729,
      "Ca": 9730,
      "meninggalkan": 9731,
      "တခီ": 9732,
      "den": 9733,
      "่าย": 9734,
      "ເຊື່ອ": 9735,
      "สำหรับ": 9736,
      "Yahu": 9737,
      "hei": 9738,
      "ၵေႃႈမီး": 9739,
      "ဢႃႇၼႃႇ": 9740,
      "rai": 9741,
      "உனக்கு": 9742,
      "ரே": 9743,
      "Yahudi": 9744,
      "ꤔꤢꤪ꤭": 9745,
      "kuang": 9746,
      "pamamagitan": 9747,
      "ช่วย": 9748,
      "အများ": 9749,
      "phan": 9750,
      "hnu": 9751,
      "salah": 9752,
      "你们的": 9753,
      "ခုနှစ်": 9754,
      "तेरी": 9755,
      "ႁၢမ်ႈ": 9756,
      "அவர்களை": 9757,
      "เช่น": 9758,
      "ໂລຫ": 9759,
      "पिता": 9760,
      "တုၵ်းယွၼ်း": 9761,
      "ส่วน": 9762,
      "！”": 9763,
      "ထားတဲ့": 9764,
      "ພົບ": 9765,
      "nguni": 9766,
      "အစဎွၩ": 9767,
      "တစ်ဦး": 9768,
      "ဒါကြောင့်": 9769,
      "ekor": 9770,
      "ၵိုင်": 9771,
      "ុះ": 9772,
      "கட்டள": 9773,
      "တၼ်း": 9774,
      "किसी": 9775,
      "စ့ၩရၫ့": 9776,
      "đường": 9777,
      "dok": 9778,
      "chiah": 9779,
      "စိုး": 9780,
      "သကိး": 9781,
      "dahulu": 9782,
      "Semua": 9783,
      "awla": 9784,
      "ராஜா": 9785,
      "ស៊ូ": 9786,
      "ஆல": 9787,
      "ihmanh": 9788,
      "Setelah": 9789,
      "व्य": 9790,
      "พัน": 9791,
      "ꤊꤢꤨ": 9792,
      "penduduk": 9793,
      "đang": 9794,
      "မီ": 9795,
      "ែង": 9796,
      "alau": 9797,
      "lio": 9798,
      "ราบ": 9799,
      "ினால்": 9800,
      "အားလုံး": 9801,
      "Salom": 9802,
      "ກາດ": 9803,
      "ဝဲလီၤ": 9804,
      "tertu": 9805,
      "ၾူ": 9806,
      "saja": 9807,
      "ဒီးအဝဲသ့ၣ်": 9808,
      "sebelah": 9809,
      "ாத": 9810,
      "sui": 9811,
      "ဒုၣ်": 9812,
      "minam": 9813,
      "不要": 9814,
      "ဖြင့်": 9815,
      "chuak": 9816,
      "ພາ": 9817,
      "ၶႃႈယဝ်ႉ": 9818,
      "முட": 9819,
      "ဖံး": 9820,
      "ဘၤ": 9821,
      "ကိၪ့": 9822,
      "தாவீ": 9823,
      "hnih": 9824,
      "มน": 9825,
      "ပိၵ်ႉ": 9826,
      "वचन": 9827,
      "Jordan": 9828,
      "ນ້ອງ": 9829,
      "နံၣ်": 9830,
      "đáp": 9831,
      "ர்க்க": 9832,
      "หาก": 9833,
      "thứ": 9834,
      "သွင်း": 9835,
      "ဒၫဝံၭ": 9836,
      "ႁူပ်ႉထူပ်း": 9837,
      "ໂລຫິດ": 9838,
      "အထိ": 9839,
      "tiba": 9840,
      "தற்கு": 9841,
      "angkan": 9842,
      "lamanya": 9843,
      "अपना": 9844,
      "ၼၢင်းယိင်း": 9845,
      "Kami": 9846,
      "ຸນ": 9847,
      "ꤜꤣꤧ꤬": 9848,
      "sag": 9849,
      "அவருடைய": 9850,
      "ကူး": 9851,
      "kaya": 9852,
      "मेरा": 9853,
      "າເລ": 9854,
      "khiat": 9855,
      "မဲၪ": 9856,
      "လူင်းလၢႆးမိုဝ်း": 9857,
      "khawpi": 9858,
      "kua": 9859,
      "ກາຍ": 9860,
      "these": 9861,
      "သုတ": 9862,
      "ပြုလုပ်": 9863,
      "အဂီၢ်လီၤ": 9864,
      "ဆၨၩ": 9865,
      "because": 9866,
      "द्वा": 9867,
      "တႄႇဢဝ်": 9868,
      "earth": 9869,
      "पत्": 9870,
      "၁၈": 9871,
      "ၸႄႈဝဵင်းမိူင်း": 9872,
      "16": 9873,
      "cat": 9874,
      "ப்த": 9875,
      "လုၢ်ဟံၣ်": 9876,
      "အစီၤပၤ": 9877,
      "ꤋꤛꤢ꤭": 9878,
      "เลย": 9879,
      "တႃ": 9880,
      "hadapan": 9881,
      "இஸ்ரவேல்": 9882,
      "milik": 9883,
      "cak": 9884,
      "memper": 9885,
      "ညွှ": 9886,
      "தரி": 9887,
      "ဖၩ့": 9888,
      "ẳng": 9889,
      "ၽူႈမီး": 9890,
      "wid": 9891,
      "makanan": 9892,
      "NLD": 9893,
      "ton": 9894,
      "ၵင်ႈ": 9895,
      "magkagayo": 9896,
      "18": 9897,
      "တခြား": 9898,
      "ဝၢင်း": 9899,
      "ṭi": 9900,
      "လွတ်ႈ": 9901,
      "வார்கள்": 9902,
      "ாள்": 9903,
      "မူး": 9904,
      "ယၥၭ": 9905,
      "ꤡ꤫ꤢꤧ꤬": 9906,
      "ៀត": 9907,
      "祭司": 9908,
      "mabu": 9909,
      "ປະໂລຫິດ": 9910,
      "make": 9911,
      "pla": 9912,
      "xứ": 9913,
      "றை": 9914,
      "ထောက်": 9915,
      "angkat": 9916,
      "திரும்": 9917,
      "Ah": 9918,
      "மர": 9919,
      "ສາຍ": 9920,
      "ສ່ວນ": 9921,
      "menang": 9922,
      "လံၩ": 9923,
      "ႁူမ်ႇလူမ်ႈ": 9924,
      "cầu": 9925,
      "ນາຍ": 9926,
      "ဲၣ်": 9927,
      "inla": 9928,
      "ပြည်သူ့": 9929,
      "uyện": 9930,
      "วา": 9931,
      "ອານ": 9932,
      "မ့ၣ်": 9933,
      "ဢမ်ႇၸႂ်ႈ": 9934,
      "kati": 9935,
      "uyền": 9936,
      "ꤋꤚꤤ": 9937,
      "offering": 9938,
      "အင်": 9939,
      "aro": 9940,
      "याज": 9941,
      "ရွယ်": 9942,
      "அதிக": 9943,
      "ꤓꤢꤩ꤬": 9944,
      "tujuh": 9945,
      "ဒီးက": 9946,
      "เอา": 9947,
      "voi": 9948,
      "tawntung": 9949,
      "தய": 9950,
      "งาน": 9951,
      "parang": 9952,
      "sik": 9953,
      "kalau": 9954,
      "naman": 9955,
      "bên": 9956,
      "nữa": 9957,
      "ปุ": 9958,
      "lungsim": 9959,
      "begitu": 9960,
      "ໄມ": 9961,
      "பெய": 9962,
      "ṭheng": 9963,
      "တော": 9964,
      "အရာ": 9965,
      "ꤖꤢꤩ꤭": 9966,
      "berapa": 9967,
      "ကူညီ": 9968,
      "कहता": 9969,
      "zungzal": 9970,
      "ຣູ": 9971,
      "ယဲၤ": 9972,
      "ၼီႊ": 9973,
      "alak": 9974,
      "எதி": 9975,
      "25": 9976,
      "ꤔꤣꤧ꤭": 9977,
      "ิสุ": 9978,
      "ສູ້": 9979,
      "ꤒ꤫ꤢꤧ꤬": 9980,
      "khác": 9981,
      "လၢအဝဲသ့ၣ်": 9982,
      "မွဲၦ": 9983,
      "self": 9984,
      "môn": 9985,
      "năm": 9986,
      "ยก": 9987,
      "မိူဝ်ႈပီ": 9988,
      "ၵွၼ်ႇ": 9989,
      "ကမိၣ်": 9990,
      "โรหิต": 9991,
      "ບາ": 9992,
      "ပူး": 9993,
      "မႆႈၸႂ်": 9994,
      "ปุโรหิต": 9995,
      "अधि": 9996,
      "हू": 9997,
      "ຢູ": 9998,
      "ထူး": 9999,
      "riah": 10000,
      "tera": 10001,
      "ထုၼ်း": 10002,
      "profet": 10003,
      "pali": 10004,
      "ทิ": 10005,
      "อร์": 10006,
      "ສິບ": 10007,
      "ဏ္": 10008,
      "——": 10009,
      "zeihmanh": 10010,
      "ၵမ်ႈၼမ်": 10011,
      "गई": 10012,
      "மெ": 10013,
      "မ္": 10014,
      "ုၬ": 10015,
      "ngun": 10016,
      "ခံရ": 10017,
      "bà": 10018,
      "âm": 10019,
      "gim": 10020,
      "တႄႉတႄႉ": 10021,
      "ထိုင်မႃး": 10022,
      "ကၠၪ": 10023,
      "យេស៊ូ": 10024,
      "ဂ့ၢ်": 10025,
      "leitu": 10026,
      "pur": 10027,
      "ꤗꤢꤧꤓ": 10028,
      "ဒီးအ": 10029,
      "မ့ၢ်ပှၤ": 10030,
      "มาก": 10031,
      "திரு": 10032,
      "முக": 10033,
      "ชอบ": 10034,
      "គឺ": 10035,
      "arlah": 10036,
      "koih": 10037,
      "juk": 10038,
      "chungin": 10039,
      "ເຫດ": 10040,
      "cheu": 10041,
      "ໄມ້": 10042,
      "Bag": 10043,
      "NC": 10044,
      "vil": 10045,
      "memu": 10046,
      "kiah": 10047,
      "masing": 10048,
      "name": 10049,
      "अनुसार": 10050,
      "बलि": 10051,
      "ခ့": 10052,
      "ဖၣ်": 10053,
      "ပေႉ": 10054,
      "ကတော့": 10055,
      "ဆာ": 10056,
      "ဓိ": 10057,
      "saser": 10058,
      "လုမ်ႈ": 10059,
      "ful": 10060,
      "இதோ": 10061,
      "ตา": 10062,
      "ဖန်": 10063,
      "heh": 10064,
      "give": 10065,
      "ပြန်လည်": 10066,
      "தேவனாகிய": 10067,
      "अन्": 10068,
      "னே": 10069,
      "ຫົວ": 10070,
      "၁၆": 10071,
      "ကြာ": 10072,
      "ဢူၺ်း": 10073,
      "ຍິ່ງ": 10074,
      "ပျက်": 10075,
      "க்கொண்ட": 10076,
      "ယိပ်းၵွင်ႈၵၢင်ႇ": 10077,
      "வைகள": 10078,
      "于是": 10079,
      "အုၣ်": 10080,
      "சகோதர": 10081,
      "saserdo": 10082,
      "ຕິ": 10083,
      "ருக்கு": 10084,
      "ပျီႇ": 10085,
      "Giu": 10086,
      "เชื่อ": 10087,
      "မြို့နယ်": 10088,
      "ꤗꤢꤧꤓ꤫ꤣꤧ꤬": 10089,
      "jamin": 10090,
      "น้อง": 10091,
      "မတော်": 10092,
      "ကနၣ်": 10093,
      "ວິຫານ": 10094,
      "สิบ": 10095,
      "ိၼ်ႊ": 10096,
      "ບໍລິ": 10097,
      "spi": 10098,
      "zat": 10099,
      "kel": 10100,
      "သူး": 10101,
      "ဆိုပြီး": 10102,
      "ohon": 10103,
      "pangalan": 10104,
      "ginawa": 10105,
      "ແຂ": 10106,
      "စူၢ်": 10107,
      "ꤊꤢ꤬": 10108,
      "tetap": 10109,
      "sawl": 10110,
      "uhla": 10111,
      "အဝေး": 10112,
      "ယရူ": 10113,
      "ង់": 10114,
      "တၭး": 10115,
      "ဆိကမိၣ်": 10116,
      "အခြေခံ": 10117,
      "எல்லோ": 10118,
      "အဖီခိၣ်": 10119,
      "ꤜꤣ": 10120,
      "ကျေး": 10121,
      "ແມ່": 10122,
      "நாட": 10123,
      "ကဒါက့ၤ": 10124,
      "ep": 10125,
      "ையை": 10126,
      "လွန်": 10127,
      "giữa": 10128,
      "óc": 10129,
      "ຊ່ວຍ": 10130,
      "cap": 10131,
      "အကစၢ်": 10132,
      "ဢိၵ်ႇ": 10133,
      "ลาย": 10134,
      "ယတၢ်": 10135,
      "க்கொள்ள": 10136,
      "ထံၣ်ဘၣ်": 10137,
      "ger": 10138,
      "lệ": 10139,
      "taga": 10140,
      "မိမၩ": 10141,
      "ဒၪဝ့ၫ": 10142,
      "ward": 10143,
      "bỏ": 10144,
      "ဆၫ": 10145,
      "အၥ": 10146,
      "Manas": 10147,
      "Jos": 10148,
      "သတိ": 10149,
      "Sikhalsehla": 10150,
      "လဂၩနီၪ": 10151,
      "pass": 10152,
      "ၤၡ့": 10153,
      "พระวิ": 10154,
      "ல்லாத": 10155,
      "?’": 10156,
      "ຕີ": 10157,
      "မိၤၡ့": 10158,
      "เหน": 10159,
      "ဘိၪ့": 10160,
      "ထီဒါ": 10161,
      "»​": 10162,
      "ພ້ອມ": 10163,
      "ဒ့ၭ": 10164,
      "လာ်": 10165,
      "pagi": 10166,
      "याजक": 10167,
      "mạ": 10168,
      "suka": 10169,
      "तें": 10170,
      "ရည်": 10171,
      "यां": 10172,
      "တုမ်ႉ": 10173,
      "ၸဝ်ႈၶူး": 10174,
      "hmi": 10175,
      "犹大": 10176,
      "မှုကို": 10177,
      "saserdote": 10178,
      "fai": 10179,
      "daku": 10180,
      "ပီၼႆႉ": 10181,
      "erita": 10182,
      "बो": 10183,
      "เง": 10184,
      "ກົດ": 10185,
      "ဝၱၤ": 10186,
      "ทั้งหมด": 10187,
      "ဂာ်": 10188,
      "စီၤယိၤ": 10189,
      "hter": 10190,
      "आए": 10191,
      "ဒေါ": 10192,
      "လုၢ်တၢ်အခိၣ်": 10193,
      "Edom": 10194,
      "ကပီၤ": 10195,
      "ဓာ": 10196,
      "ကျိ": 10197,
      "နေတဲ့": 10198,
      "ထူၼ်ႈ": 10199,
      "taw": 10200,
      "ຫຍັງ": 10201,
      "နက်": 10202,
      "ဝေ": 10203,
      "ịnh": 10204,
      "semu": 10205,
      "ကျၩ": 10206,
      "forth": 10207,
      "gamtat": 10208,
      "အခြေအနေ": 10209,
      "Paul": 10210,
      "Pen": 10211,
      "လၧပ": 10212,
      "meneri": 10213,
      "katakan": 10214,
      "cứu": 10215,
      "khak": 10216,
      "ယွၤအတၢ်": 10217,
      "मार": 10218,
      "hrem": 10219,
      "ရှိတဲ့": 10220,
      "្នាក់": 10221,
      "यीशु": 10222,
      "สร้าง": 10223,
      "abas": 10224,
      "ဖျ့ၭ": 10225,
      "ပာ်လီၤ": 10226,
      "thine": 10227,
      "dihlak": 10228,
      "ခေါ်": 10229,
      "ဘက်": 10230,
      "្អ": 10231,
      "အခု": 10232,
      "ได้รับ": 10233,
      "လာတယ်": 10234,
      "ၸိူင်ႉႁိုဝ်": 10235,
      "Ketika": 10236,
      "နၢ်ဟူ": 10237,
      "ấng": 10238,
      "ruat": 10239,
      "လဵင်ႉ": 10240,
      "Samaria": 10241,
      "semuanya": 10242,
      "อับ": 10243,
      "இருப்ப": 10244,
      "ម្បី": 10245,
      "စဲး": 10246,
      "ၼႂ်းပိုၼ်ႉတီႈ": 10247,
      "အီၪလၧအ": 10248,
      "ஆசாரிய": 10249,
      "ដ្ប": 10250,
      "摩西": 10251,
      "ahkan": 10252,
      "agay": 10253,
      "ကြည့်ပါ": 10254,
      "ꤛ꤫ꤢꤦ꤬ꤢꤩ꤬": 10255,
      "ដ្បិត": 10256,
      "ຍິງ": 10257,
      "ួន": 10258,
      "လုဆၧ": 10259,
      "ပွား": 10260,
      "pos": 10261,
      "မဳၤ": 10262,
      "မှား": 10263,
      "year": 10264,
      "Hai": 10265,
      "အပေါ်": 10266,
      "ꤗꤥ꤬": 10267,
      "tiên": 10268,
      "ela": 10269,
      "ဒဲၩ": 10270,
      "ဆၢထၢၣ်": 10271,
      "ອື່ນ": 10272,
      "ຽດ": 10273,
      "ႁႆႈ": 10274,
      "ទៀត": 10275,
      "kuan": 10276,
      "လုမ်ႈၾႃႉ": 10277,
      "टी": 10278,
      "ແກະ": 10279,
      "အသွ": 10280,
      "thánh": 10281,
      "tul": 10282,
      "sebuah": 10283,
      "போக": 10284,
      "लियों": 10285,
      "ဖုဝဲ": 10286,
      "อะ": 10287,
      "你要": 10288,
      "ꤡꤣ꤬": 10289,
      "lamah": 10290,
      "နီတဂၤ": 10291,
      "Ar": 10292,
      "တၭၦ": 10293,
      "biakṭheng": 10294,
      "Môi": 10295,
      "gum": 10296,
      "นิ": 10297,
      "ພຣະຜູ້": 10298,
      "trời": 10299,
      "မိူဝ်ႈလဵဝ်": 10300,
      "အမံၩ့": 10301,
      "Joshua": 10302,
      "bum": 10303,
      "đền": 10304,
      "ọn": 10305,
      "berbuat": 10306,
      "စီၤဒၤဝံး": 10307,
      "ແດ່": 10308,
      "ดังนั้น": 10309,
      "वर्ष": 10310,
      "င်းပ": 10311,
      "ကျောင်း": 10312,
      "မူၭ": 10313,
      "टा": 10314,
      "ສີ": 10315,
      "ၸုမ်းၶၢဝ်ႇ": 10316,
      "ၵွင်း": 10317,
      "ທຸກຄົນ": 10318,
      "zaangfah": 10319,
      "தமாக": 10320,
      "ເລີຍ": 10321,
      "Nếu": 10322,
      "among": 10323,
      "တေႃႉ": 10324,
      "သော်": 10325,
      "doh": 10326,
      "hla": 10327,
      "အတိုင်း": 10328,
      "တၢ်ဒီး": 10329,
      "kemu": 10330,
      "န်းက": 10331,
      "အကျိုး": 10332,
      "ét": 10333,
      "ລິດ": 10334,
      "ဆၧမၩ": 10335,
      "ဝဲဒၣ်": 10336,
      "mempersembahkan": 10337,
      "ပါတီ": 10338,
      "janjian": 10339,
      "command": 10340,
      "हमारे": 10341,
      "ub": 10342,
      "ဃၣ်": 10343,
      "ကွဲ": 10344,
      "thereof": 10345,
      "đây": 10346,
      "அழி": 10347,
      "เซ": 10348,
      "နက": 10349,
      "မြောက်": 10350,
      "तुझ": 10351,
      "Note": 10352,
      "မါ": 10353,
      "set": 10354,
      "kedua": 10355,
      "அவைகள": 10356,
      "ပျၢ်": 10357,
      "တြႃး": 10358,
      "Ko": 10359,
      "တီႈဝတ်ႉ": 10360,
      "தேவன்": 10361,
      "ส่ง": 10362,
      "အချ": 10363,
      "ီႉ": 10364,
      "កា": 10365,
      "ṭhu": 10366,
      "ặc": 10367,
      "ꤒ꤫ꤥ꤬": 10368,
      "taktak": 10369,
      "ပွၵ်ႈၵမ်း": 10370,
      "ດຽວ": 10371,
      "takut": 10372,
      "menurut": 10373,
      "လိမ့်မယ်": 10374,
      "ích": 10375,
      "ปร": 10376,
      "ဢၢင်း": 10377,
      "တူဝ်ႈ": 10378,
      "ဖြစ်ပြီး": 10379,
      "ꤣꤧ꤭ꤒꤣꤧ꤬ꤟꤢꤩ꤬": 10380,
      "ထိန်း": 10381,
      "လၧအဝ့ၫၥံၪ": 10382,
      "உங்கள்": 10383,
      "လယ်": 10384,
      "ốc": 10385,
      "ပေါ့": 10386,
      "Efr": 10387,
      "கட": 10388,
      "ṭhi": 10389,
      "သစ်": 10390,
      "lead": 10391,
      "စွမ်း": 10392,
      "အောက်": 10393,
      "ဢို": 10394,
      "ျၢၣ်": 10395,
      "ꤊꤢꤨ꤬": 10396,
      "car": 10397,
      "kalu": 10398,
      "zak": 10399,
      "Đấng": 10400,
      "ဢွၵ်ႇမႃး": 10401,
      "hạ": 10402,
      "พี่": 10403,
      "ငိၼ်း": 10404,
      "ဆိုး": 10405,
      "simi": 10406,
      "pernah": 10407,
      "itang": 10408,
      "ထၪ့ခွံၬ": 10409,
      "numei": 10410,
      "चल": 10411,
      "ອຍ": 10412,
      "ဎီး": 10413,
      "အန့ၣ်": 10414,
      "เสส": 10415,
      "្វី": 10416,
      "ஆன": 10417,
      "ສົ່ງ": 10418,
      "အလူ": 10419,
      "不可": 10420,
      "panah": 10421,
      "ၽိူၵ်ႇ": 10422,
      "ဏ္ဍ": 10423,
      "cal": 10424,
      "พบ": 10425,
      "ំន": 10426,
      "ใหญ": 10427,
      "ထီးနီၪလဖၧၫ့": 10428,
      "utos": 10429,
      "Kanaan": 10430,
      "ပတ်း": 10431,
      "ပၢၼ်": 10432,
      "အဓိ": 10433,
      "子民": 10434,
      "வில": 10435,
      "ထဲမှာ": 10436,
      "lengmang": 10437,
      "ใหญ่": 10438,
      "घर": 10439,
      "နတၢ်": 10440,
      "”—": 10441,
      "ையி": 10442,
      "ဖိး": 10443,
      "ครอง": 10444,
      "ໂມເຊ": 10445,
      "gunung": 10446,
      "သမ္မာ": 10447,
      "கால": 10448,
      "လ့ၬ": 10449,
      "phung": 10450,
      "ဝၼ်းမိူဝ်ႈၼႆႉ": 10451,
      "Ya": 10452,
      "जै": 10453,
      "ຕົກ": 10454,
      "โมเสส": 10455,
      "အမဲာ်ညါ": 10456,
      "தற்க": 10457,
      "จัก": 10458,
      "สง": 10459,
      "တနီၤ": 10460,
      "အဲဒီလို": 10461,
      "ꤜ꤫ꤢꤩ꤬": 10462,
      "ဝ့ၫလၧအ": 10463,
      "puso": 10464,
      "နေတယ်": 10465,
      "အိၣ်မူ": 10466,
      "Yu": 10467,
      "rah": 10468,
      "पहु": 10469,
      "สม": 10470,
      "ໄສ": 10471,
      "diberikan": 10472,
      "aikat": 10473,
      "Benjamin": 10474,
      "คล": 10475,
      "สาม": 10476,
      "ဎး": 10477,
      "เหล่านี้": 10478,
      "หญิง": 10479,
      "habi": 10480,
      "ထီၣ်ကွံာ်": 10481,
      "where": 10482,
      "ประทาน": 10483,
      "ईं": 10484,
      "ສຽງ": 10485,
      "អ្វី": 10486,
      "padang": 10487,
      "ori": 10488,
      "မျက်": 10489,
      "22": 10490,
      "thong": 10491,
      "apabila": 10492,
      "iba": 10493,
      "သိုဝ်ႇ": 10494,
      "ringring": 10495,
      "nat": 10496,
      "สะ": 10497,
      "ຽນ": 10498,
      "ချမ်း": 10499,
      "lus": 10500,
      "ႁွတ်ႈ": 10501,
      "ယေဟောဝါဘုရား": 10502,
      "Josef": 10503,
      "မႅၼ်ႈ": 10504,
      "လော": 10505,
      "thương": 10506,
      "ဝဲၩ": 10507,
      "city": 10508,
      "handog": 10509,
      "ແຜ່ນ": 10510,
      "அரு": 10511,
      "ထပ်": 10512,
      "empuan": 10513,
      "khar": 10514,
      "nakhnga": 10515,
      "ဝ့ၫနီၪ": 10516,
      "Vậy": 10517,
      "ဋ္": 10518,
      "အချက်": 10519,
      "बातें": 10520,
      "ுங்கள்": 10521,
      "စ့ၭ": 10522,
      "ပိုင်": 10523,
      "தேவனுடைய": 10524,
      "อะไร": 10525,
      "ะนั้น": 10526,
      "ພັນ": 10527,
      "ယဵ": 10528,
      "menc": 10529,
      "ந்": 10530,
      "ືນ": 10531,
      "တံ": 10532,
      "siampi": 10533,
      "ၼႂ်းမိူင်း": 10534,
      "days": 10535,
      "မၩအၥၭဘဲၫနီၪတၭ": 10536,
      "्याह": 10537,
      "မၬ": 10538,
      "gah": 10539,
      "กว่า": 10540,
      "？”": 10541,
      "pasal": 10542,
      "ဝၢၼ်ႈမိူင်း": 10543,
      "api": 10544,
      "cái": 10545,
      "era": 10546,
      "alaman": 10547,
      "leeng": 10548,
      "பிடி": 10549,
      "jang": 10550,
      "gitna": 10551,
      "bath": 10552,
      "အစု": 10553,
      "செய்கிற": 10554,
      "ປົກຄອງ": 10555,
      "ิป": 10556,
      "អំ": 10557,
      "ꤊ꤫ꤢꤩ꤬": 10558,
      "thr": 10559,
      "ကိုင်": 10560,
      "ꤞꤣꤧ꤭ꤖꤚꤢꤩ꤬": 10561,
      "အပူၤန့ၣ်": 10562,
      "brought": 10563,
      "ပျဲၢ်": 10564,
      "ၼၢႆး": 10565,
      "ຊາເລ": 10566,
      "ဆောက်": 10567,
      "နံၪ့": 10568,
      "已经": 10569,
      "的事": 10570,
      "thuak": 10571,
      "jika": 10572,
      "menerima": 10573,
      "ft": 10574,
      "อั": 10575,
      "midang": 10576,
      "လျက်": 10577,
      "เหล่า": 10578,
      "எரு": 10579,
      "အိၣ်ဒီးတၢ်": 10580,
      "ၽူႈၼမ်း": 10581,
      "လႅၵ်ႈ": 10582,
      "ၽႂ်မၼ်း": 10583,
      "lingkod": 10584,
      "စပ": 10585,
      "不是": 10586,
      "这是": 10587,
      "उसी": 10588,
      "ထိုင်တီႈ": 10589,
      "Baal": 10590,
      "kundi": 10591,
      "gand": 10592,
      "nen": 10593,
      "ဒီၪ့": 10594,
      "ទី": 10595,
      "ိူဝ်ႊ": 10596,
      "ၸိုင်ႈထႆး": 10597,
[...]
