{
  "version": "1.0",
  "truncation": null,
  "padding": null,
  "added_tokens": [
    {
      "id": 0,
      "content": "<pad>",
      "single_word": false,
      "lstrip": false,
      "rstrip": false,
      "normalized": false,
      "special": true
    },
    {
      "id": 1,
      "content": "<unk>",
      "single_word": false,
      "lstrip": false,
      "rstrip": false,
      "normalized": false,
      "special": true
    },
    {
      "id": 2,
      "content": "<s>",
      "single_word": false,
      "lstrip": false,
      "rstrip": false,
      "normalized": false,
      "special": true
    },
    {
      "id": 3,
      "content": "</s>",
      "single_word": false,
      "lstrip": false,
      "rstrip": false,
      "normalized": false,
      "special": true
    }
  ],
  "normalizer": null,
  "pre_tokenizer": {
    "type": "Sequence",
    "pretokenizers": [
      {
        "type": "Whitespace"
      },
      {
        "type": "Split",
        "pattern": {
          "Regex": "(?<=[ऀ-ॿ஀-௿฀-๿຀-໿က-႟ក-៿一-鿿꤀-꤯])(?=[A-Za-z0-9])|(?<=[A-Za-z0-9])(?=[ऀ-ॿ஀-௿฀-๿຀-໿က-႟ក-៿一-鿿꤀-꤯])"
        },
        "behavior": "Isolated",
        "invert": false
      }
    ]
  },
  "post_processor": null,
  "decoder": null,
  "model": {
    "type": "BPE",
    "dropout": null,
    "unk_token": "<unk>",
    "continuing_subword_prefix": null,
    "end_of_word_suffix": null,
    "fuse_unk": false,
    "byte_fallback": false,
    "ignore_merges": false,
    "vocab": {
      "<pad>": 0,
      "<unk>": 1,
      "<s>": 2,
      "</s>": 3,
      "!": 4,
      "(": 5,
      ")": 6,
      ",": 7,
      "-": 8,
      ".": 9,
      "0": 10,
      "1": 11,
      "2": 12,
      "3": 13,
      "4": 14,
      "5": 15,
      "6": 16,
      "7": 17,
      "8": 18,
      "9": 19,
      ":": 20,
      "?": 21,
      "{": 22,
      "}": 23,
      "ก": 24,
      "ข": 25,
      "ค": 26,
      "ฆ": 27,
      "ง": 28,
      "จ": 29,
      "ฉ": 30,
      "ช": 31,
      "ซ": 32,
      "ฌ": 33,
      "ญ": 34,
      "ฎ": 35,
      "ฏ": 36,
      "ฐ": 37,
      "ฑ": 38,
      "ฒ": 39,
      "ณ": 40,
      "ด": 41,
      "ต": 42,
      "ถ": 43,
      "ท": 44,
      "ธ": 45,
      "น": 46,
      "บ": 47,
      "ป": 48,
      "ผ": 49,
      "ฝ": 50,
      "พ": 51,
      "ฟ": 52,
      "ภ": 53,
      "ม": 54,
      "ย": 55,
      "ร": 56,
      "ฤ": 57,
      "ล": 58,
      "ว": 59,
      "ศ": 60,
      "ษ": 61,
      "ส": 62,
      "ห": 63,
      "ฬ": 64,
      "อ": 65,
      "ฮ": 66,
      "ะ": 67,
      "ั": 68,
      "า": 69,
      "ำ": 70,
      "ิ": 71,
      "ี": 72,
      "ึ": 73,
      "ื": 74,
      "ุ": 75,
      "ู": 76,
      "เ": 77,
      "แ": 78,
      "โ": 79,
      "ใ": 80,
      "ไ": 81,
      "ๆ": 82,
      "็": 83,
      "่": 84,
      "้": 85,
      "๊": 86,
      "๋": 87,
      "์": 88,
      "ํ": 89,
      "–": 90,
      "‘": 91,
      "’": 92,
      "“": 93,
      "”": 94,
      "…": 95,
      "อง": 96,
      "้า": 97,
      "ระ": 98,
      "่า": 99,
      "พระ": 100,
      "ของ": 101,
      "แล": 102,
      "รา": 103,
      "ี่": 104,
      "เจ": 105,
      "เจ้า": 106,
      "ที่": 107,
      "เข": 108,
      "และ": 109,
      "็น": 110,
      "ค์": 111,
      "เป": 112,
      "่ง": 113,
      "องค์": 114,
      "ั้": 115,
      "ู้": 116,
      "ับ": 117,
      "เป็น": 118,
      "่อ": 119,
      "เขา": 120,
      "จะ": 121,
      "ผู้": 122,
      "าม": 123,
      "าย": 124,
      "าก": 125,
      "ด้": 126,
      "ัน": 127,
      "ว่า": 128,
      "ือ": 129,
      "ให": 130,
      "วก": 131,
      "าร": 132,
      "อย": 133,
      "เรา": 134,
      "รง": 135,
      "พระองค์": 136,
      "ไม": 137,
      "ใน": 138,
      "ให้": 139,
      "คน": 140,
      "ัง": 141,
      "ตร": 142,
      "ได้": 143,
      "มา": 144,
      "่าน": 145,
      "ทรง": 146,
      "ข้า": 147,
      "เห": 148,
      "ีย": 149,
      "ไม่": 150,
      "ไป": 151,
      "พวก": 152,
      "ื่อ": 153,
      "ั้ง": 154,
      "ั้น": 155,
      "่น": 156,
      "ห์": 157,
      "หน": 158,
      "ิน": 159,
      "เพ": 160,
      "คร": 161,
      "ท่าน": 162,
      "ิด": 163,
      "เอ": 164,
      "าน": 165,
      "ู่": 166,
      "เม": 167,
      "จาก": 168,
      "มี": 169,
      "แต": 170,
      "ประ": 171,
      "ี้": 172,
      "นั้น": 173,
      "คว": 174,
      "กล": 175,
      "ก็": 176,
      "ชา": 177,
      "ทำ": 178,
      "้น": 179,
      "ึง": 180,
      "ทั้ง": 181,
      "ึ่ง": 182,
      "ผู้เป็น": 183,
      "พวกเขา": 184,
      "ความ": 185,
      "เล": 186,
      "แต่": 187,
      "ัก": 188,
      "กับ": 189,
      "้ว": 190,
      "สิ": 191,
      "าง": 192,
      "องค์พระ": 193,
      "รร": 194,
      "ผู้เป็นเจ้า": 195,
      "องค์พระผู้เป็นเจ้า": 196,
      "วย": 197,
      "อา": 198,
      "อยู่": 199,
      "ิส": 200,
      "เส": 201,
      "อก": 202,
      "าห์": 203,
      "้อง": 204,
      "่าง": 205,
      "แล้ว": 206,
      "นี้": 207,
      "หล": 208,
      "ิต": 209,
      "ัส": 210,
      "การ": 211,
      "ูก": 212,
      "ย์": 213,
      "พระเจ้า": 214,
      "อบ": 215,
      "ัว": 216,
      "รับ": 217,
      "แก": 218,
      "่ว": 219,
      "้อ": 220,
      "ติ": 221,
      "เช": 222,
      "พเจ้า": 223,
      "เร": 224,
      "เอล": 225,
      "เย": 226,
      "ุก": 227,
      "ข้าพเจ้า": 228,
      "จง": 229,
      "ราะ": 230,
      "เพราะ": 231,
      "ด้วย": 232,
      "ซึ่ง": 233,
      "บุ": 234,
      "ดา": 235,
      "หม": 236,
      "เหล": 237,
      "ไว": 238,
      "เก": 239,
      "เด": 240,
      "บา": 241,
      "ไว้": 242,
      "เมื่อ": 243,
      "ื่": 244,
      "บั": 245,
      "จึง": 246,
      "หร": 247,
      "ขึ": 248,
      "ขึ้น": 249,
      "หรือ": 250,
      "ตาม": 251,
      "สั": 252,
      "ทุก": 253,
      "เพื่อ": 254,
      "ัตร": 255,
      "เว": 256,
      "อิส": 257,
      "ต่อ": 258,
      "แก่": 259,
      "ใจ": 260,
      "ถึง": 261,
      "บุตร": 262,
      "วง": 263,
      "มือ": 264,
      "ื่อง": 265,
      "วัน": 266,
      "โล": 267,
      "แด": 268,
      "ข้าพระองค์": 269,
      "ชน": 270,
      "ออก": 271,
      "สิ่ง": 272,
      "หน้า": 273,
      "ราเอล": 274,
      "โร": 275,
      "แห": 276,
      "อิสราเอล": 277,
      "ริ": 278,
      "ตรัส": 279,
      "เข้า": 280,
      "ยาห์": 281,
      "เน": 282,
      "ของพระองค์": 283,
      "ิย์": 284,
      "ใช": 285,
      "อย่าง": 286,
      "ธิ": 287,
      "อด": 288,
      "ษัตร": 289,
      "ษัตริย์": 290,
      "ัด": 291,
      "ือง": 292,
      "หนึ่ง": 293,
      "อน": 294,
      "ตัว": 295,
      "แห่ง": 296,
      "เราจะ": 297,
      "้ำ": 298,
      "ถูก": 299,
      "้าง": 300,
      "เมือง": 301,
      "คือ": 302,
      "ีก": 303,
      "กษัตริย์": 304,
      "หาร": 305,
      "ญญ": 306,
      "ัย": 307,
      "ลง": 308,
      "ดิน": 309,
      "ของเรา": 310,
      "จน": 311,
      "ูล": 312,
      "นำ": 313,
      "ขอ": 314,
      "ูด": 315,
      "ทาง": 316,
      "เท": 317,
      "ลา": 318,
      "กำ": 319,
      "เผ": 320,
      "วิ": 321,
      "โม": 322,
      "โด": 323,
      "ทธิ": 324,
      "หลาย": 325,
      "คำ": 326,
      "บน": 327,
      "กัน": 328,
      "ใด": 329,
      "ต้อง": 330,
      "บู": 331,
      "ยัง": 332,
      "ทธิ์": 333,
      "บรร": 334,
      "ชาย": 335,
      "เห็น": 336,
      "ชี": 337,
      "รุ": 338,
      "โย": 339,
      "้าน": 340,
      "พระองค์ทรง": 341,
      "่าว": 342,
      "สำ": 343,
      "ซา": 344,
      "ดี": 345,
      "ชาว": 346,
      "แดน": 347,
      "ไร": 348,
      "ของเขา": 349,
      "ไม่ได้": 350,
      "เคร": 351,
      "ลูก": 352,
      "วิต": 353,
      "ชีวิต": 354,
      "มือน": 355,
      "สา": 356,
      "ั่ว": 357,
      "เวห์": 358,
      "เหมือน": 359,
      "ใช้": 360,
      "ร์": 361,
      "ทั้งหลาย": 362,
      "กระ": 363,
      "ยาห์เวห์": 364,
      "พระยาห์เวห์": 365,
      "อีก": 366,
      "กา": 367,
      "ของเจ้า": 368,
      "ียง": 369,
      "นา": 370,
      "เครื่อง": 371,
      "ื่น": 372,
      "่ม": 373,
      "ตั้ง": 374,
      "ต่าง": 375,
      "ไม่มี": 376,
      "ืน": 377,
      "หา": 378,
      "โดย": 379,
      "ดัง": 380,
      "แม": 381,
      "ุด": 382,
      "ญญา": 383,
      "ยา": 384,
      "ต์": 385,
      "เถ": 386,
      "ั่น": 387,
      "เค": 388,
      "นาง": 389,
      "พร": 390,
      "ื้อ": 391,
      "วาย": 392,
      "้ง": 393,
      "บูชา": 394,
      "อัน": 395,
      "เหล่าน": 396,
      "ผู้ที่": 397,
      "รัก": 398,
      "รู้": 399,
      "ทำให้": 400,
      "รรม": 401,
      "ลัง": 402,
      "ุม": 403,
      "กลับ": 404,
      "มัน": 405,
      "รู": 406,
      "ของท่าน": 407,
      "เบ": 408,
      "ิง": 409,
      "ดู": 410,
      "น้ำ": 411,
      "ัม": 412,
      "ถวาย": 413,
      "กล่าว": 414,
      "เต": 415,
      "อย่า": 416,
      "ิ่ง": 417,
      "ปวง": 418,
      "เถิด": 419,
      "ซู": 420,
      "เอง": 421,
      "ชาก": 422,
      "ทั้งปวง": 423,
      "เยซู": 424,
      "ตน": 425,
      "ใคร": 426,
      "สอง": 427,
      "ราช": 428,
      "สว": 429,
      "ประท": 430,
      "ที่น": 431,
      "หมด": 432,
      "อยู่ใน": 433,
      "ตาย": 434,
      "พิ": 435,
      "ดาว": 436,
      "ี่ย": 437,
      "สาม": 438,
      "ึก": 439,
      "ขององค์พระผู้เป็นเจ้า": 440,
      "ั่ง": 441,
      "มาก": 442,
      "ฟัง": 443,
      "ปล": 444,
      "ทูล": 445,
      "ดินแดน": 446,
      "็ม": 447,
      "พระเยซู": 448,
      "่วย": 449,
      "สิ่งที่": 450,
      "เดีย": 451,
      "พูด": 452,
      "ชั่ว": 453,
      "บรรดา": 454,
      "แท": 455,
      "เรีย": 456,
      "ประชาก": 457,
      "้อม": 458,
      "่อน": 459,
      "ธรรม": 460,
      "ประชากร": 461,
      "ยิน": 462,
      "ดาวิด": 463,
      "ร้อง": 464,
      "้าย": 465,
      "ิม": 466,
      "กำลัง": 467,
      "ละ": 468,
      "บาป": 469,
      "ปี": 470,
      "บร": 471,
      "ร้าง": 472,
      "อม": 473,
      "ิดา": 474,
      "หิต": 475,
      "คนที่": 476,
      "หญ": 477,
      "่าย": 478,
      "ชาติ": 479,
      "่วน": 480,
      "สัต": 481,
      "โลก": 482,
      "หาก": 483,
      "ของพระเจ้า": 484,
      "็จ": 485,
      "หรับ": 486,
      "บ้าน": 487,
      "แผ": 488,
      "ูง": 489,
      "ตอบ": 490,
      "ช่วย": 491,
      "เช่น": 492,
      "สำหรับ": 493,
      "บอก": 494,
      "ส่วน": 495,
      "มน": 496,
      "พัน": 497,
      "ต่างๆ": 498,
      "เลย": 499,
      "งาน": 500,
      "ปุ": 501,
      "ิสุ": 502,
      "ราบ": 503,
      "พวกท่าน": 504,
      "ยก": 505,
      "ได้รับ": 506,
      "ปุโร": 507,
      "ทิ": 508,
      "อร์": 509,
      "ชอบ": 510,
      "ปุโรหิต": 511,
      "ยิ่ง": 512,
      "พระวิ": 513,
      "เชื่อ": 514,
      "ลาย": 515,
      "าด": 516,
      "สิบ": 517,
      "เหน": 518,
      "วกับ": 519,
      "เง": 520,
      "ทั้งหมด": 521,
      "บิดา": 522,
      "สร้าง": 523,
      "มาจาก": 524,
      "ะนั้น": 525,
      "น้อง": 526,
      "อะ": 527,
      "ดังนั้น": 528,
      "เซ": 529,
      "ส่ง": 530,
      "ปร": 531,
      "องค์พระผู้เป็นเจ้าทรง": 532,
      "?”": 533,
      "สม": 534,
      "พี่": 535,
      "ของพวกเขา": 536,
      "โมเส": 537,
      "ครอง": 538,
      "คล": 539,
      "จัก": 540,
      "อับ": 541,
      "ตา": 542,
      "ใหญ": 543,
      "เหล่านี้": 544,
      "หญิง": 545,
      "สง": 546,
      "ประทาน": 547,
      "โมเสส": 548,
      "พบ": 549,
      "สะ": 550,
      "ิป": 551,
      "อะไร": 552,
      "กว่า": 553,
      "้อย": 554,
      "็ด": 555,
      "อั": 556,
      "ต่อหน้า": 557,
      "ูดาห์": 558,
      "ปฏ": 559,
      "่อย": 560,
      "เอา": 561,
      "ซาเล": 562,
      "พระบา": 563,
      "ผู้ทรง": 564,
      "เยรู": 565,
      "ซาเล็ม": 566,
      "เยรูซาเล็ม": 567,
      "ดำ": 568,
      "่ำ": 569,
      "พระยาห์เวห์พระเจ้า": 570,
      "พันธ": 571,
      "นม": 572,
      "เหล่า": 573,
      "ใหญ่": 574,
      "ษา": 575,
      "จะไม่": 576,
      "มาย": 577,
      "ประกา": 578,
      "ประกาศ": 579,
      "เหนือ": 580,
      "ว์": 581,
      "ตก": 582,
      "จำ": 583,
      "้ม": 584,
      "ปฏิ": 585,
      "สุด": 586,
      "ของตน": 587,
      "ิสุทธิ์": 588,
      "ผล": 589,
      "โท": 590,
      "บริสุทธิ์": 591,
      "สวรร": 592,
      "ฉะนั้น": 593,
      "รับใช้": 594,
      "ณะ": 595,
      "สวรรค์": 596,
      "โอ": 597,
      "ครั้ง": 598,
      "แกะ": 599,
      "ุษ": 600,
      "เกิด": 601,
      "ภา": 602,
      "อื่น": 603,
      "ประชา": 604,
      "สัตว์": 605,
      "สิ้น": 606,
      "หมาย": 607,
      "๋ย": 608,
      "ตรัสว่า": 609,
      "ฐาน": 610,
      "ียิป": 611,
      "ียิปต์": 612,
      "ตามที่": 613,
      "บัติ": 614,
      "พระบาท": 615,
      "ือน": 616,
      "เสียง": 617,
      "มนุษ": 618,
      "นิ": 619,
      "อียิปต์": 620,
      "ร้าย": 621,
      "หัว": 622,
      "ยูดาห์": 623,
      "ไม้": 624,
      "ในวัน": 625,
      "สั่ง": 626,
      "หลัง": 627,
      "จะทรง": 628,
      "ที่นั่น": 629,
      "ตุ": 630,
      "วจน": 631,
      "ฉัน": 632,
      "ัพ": 633,
      "โค": 634,
      "ถ้า": 635,
      "หย": 636,
      "ตะ": 637,
      "บท": 638,
      "วน": 639,
      "พระวจน": 640,
      "ถาม": 641,
      "นาย": 642,
      "มนุษย์": 643,
      "แม้": 644,
      "พร้อม": 645,
      "เขาจะ": 646,
      "ทำลาย": 647,
      "เผา": 648,
      "ตล": 649,
      "ของข้าพระองค์": 650,
      "เจ้าจะ": 651,
      "แผ่น": 652,
      "แน": 653,
      "พระวจนะ": 654,
      "พล": 655,
      "ผิด": 656,
      "คริส": 657,
      "ข้าแต่": 658,
      "้อน": 659,
      "เรื่อง": 660,
      "กล่าวว่า": 661,
      "ฤทธิ์": 662,
      "มาถึง": 663,
      "ศ์": 664,
      "ได้ยิน": 665,
      "เอ๋ย": 666,
      "ขณะ": 667,
      "ตรัสกับ": 668,
      "ตลอด": 669,
      "่วม": 670,
      "พี่น้อง": 671,
      "อาหาร": 672,
      "ใช่": 673,
      "่วง": 674,
      "ทอง": 675,
      "เหลือ": 676,
      "เลือ": 677,
      "ุ่น": 678,
      "ปรา": 679,
      "คืน": 680,
      "ที่จะ": 681,
      "วา": 682,
      "สถ": 683,
      "สุ": 684,
      "สัญญา": 685,
      "ณ์": 686,
      "าร์": 687,
      "ทู": 688,
      "กิ": 689,
      "ไปยัง": 690,
      "เสริ": 691,
      "เสด": 692,
      "พระวิหาร": 693,
      "กิน": 694,
      "ุ่ม": 695,
      "เฮ": 696,
      "เสด็จ": 697,
      "เผย": 698,
      "ชื่อ": 699,
      "ต้น": 700,
      "ฟ้า": 701,
      "เหตุ": 702,
      "ริง": 703,
      "หว": 704,
      "ญญาณ": 705,
      "จริง": 706,
      "สรร": 707,
      "ทิ้ง": 708,
      "ยง": 709,
      "ซี": 710,
      "วาง": 711,
      "บัญ": 712,
      "ณา": 713,
      "ออกไป": 714,
      "นัก": 715,
      "เงิน": 716,
      "ิ่น": 717,
      "เรียก": 718,
      "ยอม": 719,
      "็ก": 720,
      "ตอบว่า": 721,
      "ประต": 722,
      "ียาห์": 723,
      "ทะ": 724,
      "รว": 725,
      "แผ่นดิน": 726,
      "หมู่": 727,
      "โทษ": 728,
      "ปก": 729,
      "ไม่ใช่": 730,
      "เกีย": 731,
      "ชอบธรรม": 732,
      "ศัย": 733,
      "ุ่ง": 734,
      "ติต": 735,
      "ทุกข": 736,
      "กรุ": 737,
      "ทุกข์": 738,
      "เศ": 739,
      "ด้วยความ": 740,
      "โก": 741,
      "อาย": 742,
      "เหล่านั้น": 743,
      "คนหนึ่ง": 744,
      "ดิ": 745,
      "ยืน": 746,
      "กาล": 747,
      "ฆ่า": 748,
      "นาม": 749,
      "ขอทรง": 750,
      "รบ": 751,
      "โฮ": 752,
      "เดิน": 753,
      "บัญญ": 754,
      "บัญญั": 755,
      "ภัย": 756,
      "แข": 757,
      "บุตรของ": 758,
      "แท่น": 759,
      "หาย": 760,
      "ชู": 761,
      "แด่": 762,
      "เครื่องบูชา": 763,
      "คิด": 764,
      "คริสต์": 765,
      "ภู": 766,
      "แพ": 767,
      "ประตู": 768,
      "กลาง": 769,
      "ส่": 770,
      "สาว": 771,
      "ของข้าพเจ้า": 772,
      "สู่": 773,
      "อาศัย": 774,
      "ไว้ใน": 775,
      "จะเป็น": 776,
      "คง": 777,
      "เจ็ด": 778,
      "เพียง": 779,
      "ยาม": 780,
      "ดนี้": 781,
      "ขอให้": 782,
      "กอง": 783,
      "โต": 784,
      "เผยพระวจนะ": 785,
      "ไฟ": 786,
      "เสีย": 787,
      "ฝูง": 788,
      "ตระ": 789,
      "เกี่ย": 790,
      "บิ": 791,
      "จักร": 792,
      "ถือ": 793,
      "พย": 794,
      "จะได้": 795,
      "ผู้ใด": 796,
      "เวลา": 797,
      "บัญญัติ": 798,
      "จัด": 799,
      "มอบ": 800,
      "แบ": 801,
      "ครอบ": 802,
      "บัดนี้": 803,
      "มาร": 804,
      "ิว": 805,
      "เผ่า": 806,
      "นี่": 807,
      "บุตรชาย": 808,
      "ทร": 809,
      "จากนั้น": 810,
      "เปล": 811,
      "ทูต": 812,
      "สาย": 813,
      "เข้าไป": 814,
      "ร่วม": 815,
      "ผ้า": 816,
      "อัม": 817,
      "เคย": 818,
      "สน": 819,
      "ด้าน": 820,
      "พัก": 821,
      "ศัตร": 822,
      "00": 823,
      "คุ": 824,
      "ใส่": 825,
      "องุ่น": 826,
      "ตรง": 827,
      "ผ่าน": 828,
      "เกียร": 829,
      "รอด": 830,
      "เดียว": 831,
      "ีบ": 832,
      "สิทธิ์": 833,
      "ญา": 834,
      "ทา": 835,
      "โลม": 836,
      "บัญชา": 837,
      "ศัตรู": 838,
      "ภูเขา": 839,
      "จิต": 840,
      "ัญ": 841,
      "บุรุ": 842,
      "บุรุษ": 843,
      "เกียรติ": 844,
      "พระเจ้าทรง": 845,
      "ทุกคน": 846,
      "ทัพ": 847,
      "วงศ์": 848,
      "บรรพ": 849,
      "ใต": 850,
      "ว่าง": 851,
      "เป็นผู้": 852,
      "เลว": 853,
      "ทะเล": 854,
      "ภรร": 855,
      "สี่": 856,
      "ิ่ม": 857,
      "เก็": 858,
      "บทบัญญัติ": 859,
      "ทั่ว": 860,
      "โลน": 861,
      "กรุง": 862,
      "หัน": 863,
      "บรรพบุรุษ": 864,
      "ศิ": 865,
      "โปร": 866,
      "จะถูก": 867,
      "สูง": 868,
      "ต่อไป": 869,
      "อยู่ที่": 870,
      "ออกจาก": 871,
      "รู้ว่า": 872,
      "อย่างไร": 873,
      "อยู่กับ": 874,
      "ใต้": 875,
      "พวกเจ้า": 876,
      "พ้น": 877,
      "โรน": 878,
      "ฝ่า": 879,
      "ของคน": 880,
      "สอน": 881,
      "วาน": 882,
      "ียน": 883,
      "้วน": 884,
      "อาบ": 885,
      "อุ": 886,
      "สู้": 887,
      "แต่ง": 888,
      "กล้": 889,
      "กลัว": 890,
      "ผู้เผยพระวจนะ": 891,
      "มล": 892,
      "!”": 893,
      "ยินดี": 894,
      "พื": 895,
      "เราได้": 896,
      "ทั้งสอง": 897,
      "เก็บ": 898,
      "หนี": 899,
      "ปาก": 900,
      "มั่น": 901,
      "ัสการ": 902,
      "โปรด": 903,
      "อูล": 904,
      "พวกเขาจะ": 905,
      "ดาร": 906,
      "ใกล้": 907,
      "ควร": 908,
      "ี้ยง": 909,
      "ติด": 910,
      "ซึ่งเป็น": 911,
      "เสริญ": 912,
      "สรรเสริญ": 913,
      "กาย": 914,
      "ประชาชน": 915,
      "ห้า": 916,
      "โซ": 917,
      "จับ": 918,
      "่อม": 919,
      "ก่อน": 920,
      "วัว": 921,
      "่น้ำ": 922,
      "ซาอูล": 923,
      "ัต": 924,
      "ออกมา": 925,
      "โคบ": 926,
      "กูล": 927,
      "เลี้ยง": 928,
      "ฟี": 929,
      "ียบ": 930,
      "อื่นๆ": 931,
      "ตระกูล": 932,
      "ดังนี้": 933,
      "ไหน": 934,
      "อาณา": 935,
      "ที": 936,
      "บาง": 937,
      "ให้เรา": 938,
      "ิยาห์": 939,
      "โบ": 940,
      "ภรรยา": 941,
      "พ่อ": 942,
      "อธิ": 943,
      "ตัด": 944,
      "ถิ่น": 945,
      "และทรง": 946,
      "เล่า": 947,
      "ยาโคบ": 948,
      "คุณ": 949,
      "รส": 950,
      "ผู้รับใช้": 951,
      "เฝ": 952,
      "ดื่": 953,
      "รอบ": 954,
      "ชื่น": 955,
      "ชุม": 956,
      "บาบิ": 957,
      "เข้ามา": 958,
      "ไม่มีใคร": 959,
      "ทิน": 960,
      "และความ": 961,
      "โยน": 962,
      "ข้าง": 963,
      "ก็จะ": 964,
      "ราม": 965,
      "ดื่ม": 966,
      "พอ": 967,
      "ราย": 968,
      "รณ์": 969,
      "ชนอิสราเอล": 970,
      "แม่น้ำ": 971,
      "ฝ่าพระบาท": 972,
      "ล้าง": 973,
      "ท่านจะ": 974,
      "เนื่อง": 975,
      "รักษา": 976,
      "ปล่อย": 977,
      "หนัก": 978,
      "มีชีวิต": 979,
      "กระทำ": 980,
      "คา": 981,
      "สัน": 982,
      "ำนา": 983,
      "เฝ้า": 984,
      "พระนาม": 985,
      "มายัง": 986,
      "บาบิโลน": 987,
      "โส": 988,
      "วกัน": 989,
      "เนื้อ": 990,
      "รูป": 991,
      "เป็นที่": 992,
      "กลับมา": 993,
      "พันธสัญญา": 994,
      "สถาน": 995,
      "ได้แก่": 996,
      "เทศ": 997,
      "มลทิน": 998,
      "ึด": 999,
      "รวม": 1000,
      "ให้เขา": 1001,
      "นอก": 1002,
      "พาก": 1003,
      "กันดาร": 1004,
      "อาห": 1005,
      "อาณาจักร": 1006,
      "ยาก": 1007,
      "รัส": 1008,
      "ษฐาน": 1009,
      "อธิษฐาน": 1010,
      "พา": 1011,
      "แต่ละ": 1012,
      "ดวง": 1013,
      "ชนชาติ": 1014,
      "เนิน": 1015,
      "เลวี": 1016,
      "เสื้อ": 1017,
      "เท้า": 1018,
      "ลุก": 1019,
      "ารถ": 1020,
      "ฟา": 1021,
      "หิน": 1022,
      "ไถ": 1023,
      "ดาบ": 1024,
      "อาโรน": 1025,
      "รุ่ง": 1026,
      "มอง": 1027,
      "ลึก": 1028,
      "สาวก": 1029,
      "รี": 1030,
      "แส": 1031,
      "สามารถ": 1032,
      "ทหาร": 1033,
      "แดง": 1034,
      "มิ": 1035,
      "ำนาจ": 1036,
      "็ง": 1037,
      "ตะวัน": 1038,
      "ตั้งแต่": 1039,
      "นมัสการ": 1040,
      "สิน": 1041,
      "ตี": 1042,
      "ียม": 1043,
      "แทน": 1044,
      "ขณะที่": 1045,
      "ยึด": 1046,
      "ลาน": 1047,
      "เยโฮ": 1048,
      "ทูลว่า": 1049,
      "วงศ์วาน": 1050,
      "ข้าว": 1051,
      "ัท": 1052,
      "ียด": 1053,
      "ครัว": 1054,
      "แข็ง": 1055,
      "แรง": 1056,
      "กล่า": 1057,
      "แห่งอิสราเอล": 1058,
      "เต็ม": 1059,
      "ที่สุด": 1060,
      "ชม": 1061,
      "ท์": 1062,
      "ม้า": 1063,
      "อายุ": 1064,
      "ทราบ": 1065,
      "บัน": 1066,
      "เช่นนี้": 1067,
      "ชิ": 1068,
      "หนัง": 1069,
      "หลาน": 1070,
      "ภาพ": 1071,
      "ข้าแต่องค์พระผู้เป็นเจ้า": 1072,
      "ข้อ": 1073,
      "เพื่อน": 1074,
      "ยุ": 1075,
      "เซฟ": 1076,
      "เบน": 1077,
      "อาร": 1078,
      "อาห์": 1079,
      "โยเซฟ": 1080,
      "วด": 1081,
      "แร": 1082,
      "ไล": 1083,
      "ให้เป็น": 1084,
      "พระดำ": 1085,
      "ใหม": 1086,
      "ได้รับการ": 1087,
      "นับ": 1088,
      "หุ": 1089,
      "พระคริสต์": 1090,
      "ประมา": 1091,
      "เธ": 1092,
      "ประทับ": 1093,
      "ทองคำ": 1094,
      "เลือด": 1095,
      "ได้ทรง": 1096,
      "ฟ้าสวรรค์": 1097,
      "อำนาจ": 1098,
      "ฝ่าย": 1099,
      "วัง": 1100,
      "กว": 1101,
      "จม": 1102,
      "่อา": 1103,
      "จาร": 1104,
      "ดับ": 1105,
      "ปกครอง": 1106,
      "ลิ": 1107,
      "ทำไม": 1108,
      "เลือก": 1109,
      "สัก": 1110,
      "แล้": 1111,
      "บาน": 1112,
      "ไม่ยอม": 1113,
      "โรธ": 1114,
      "เกี่ยวกับ": 1115,
      "เชล": 1116,
      "ดิ์": 1117,
      "กล่าวกับ": 1118,
      "สี": 1119,
      "ฟีล": 1120,
      "พิโรธ": 1121,
      "แท่นบูชา": 1122,
      "เกรง": 1123,
      "พระดำรัส": 1124,
      "ลำ": 1125,
      "ค่า": 1126,
      "ปั": 1127,
      "อิม": 1128,
      "ไม่ว่า": 1129,
      "พระวิญญาณ": 1130,
      "กรุงเยรูซาเล็ม": 1131,
      "ถามว่า": 1132,
      "็นท์": 1133,
      "เอลี": 1134,
      "เต็นท์": 1135,
      "โอรส": 1136,
      "พระพิโรธ": 1137,
      "โลมอน": 1138,
      "โซโลมอน": 1139,
      "โมน": 1140,
      "พระราช": 1141,
      "เดียวกัน": 1142,
      "ภาย": 1143,
      "ลอง": 1144,
      "พวกเรา": 1145,
      "านา": 1146,
      "ค่าย": 1147,
      "จด": 1148,
      "ทุ่ง": 1149,
      "ฮา": 1150,
      "เกล": 1151,
      "ผู้ทรงฤทธิ์": 1152,
      "ใหม่": 1153,
      "เขาก็": 1154,
      "จะต้อง": 1155,
      "แล้วก": 1156,
      "แจ": 1157,
      "เป็นคน": 1158,
      "แด่องค์พระผู้เป็นเจ้า": 1159,
      "ของมัน": 1160,
      "ท้อง": 1161,
      "กลาย": 1162,
      "เข้าใจ": 1163,
      "แม่": 1164,
      "ทัย": 1165,
      "อัส": 1166,
      "พระคุณ": 1167,
      "พระองค์จะทรง": 1168,
      "เดือน": 1169,
      "พระยาห์เวห์พระเจ้าของท่าน": 1170,
      "ซื่อ": 1171,
      "พระชน": 1172,
      "บัติต": 1173,
      "ดูแล": 1174,
      "ยิ่งใหญ่": 1175,
      "ชื่นชม": 1176,
      "หน้าที่": 1177,
      "ราห์": 1178,
      "องค์เจ้า": 1179,
      "เฟ": 1180,
      "ข้าพระบาท": 1181,
      "วิญญาณ": 1182,
      "ข่าว": 1183,
      "ฮัม": 1184,
      "อาว": 1185,
      "เบธ": 1186,
      "ไถ่": 1187,
      "โน": 1188,
      "และมี": 1189,
      "รู้จัก": 1190,
      "องค์เจ้าชีวิต": 1191,
      "ศี": 1192,
      "ท่า": 1193,
      "าะ": 1194,
      "ผู้นั้น": 1195,
      "เท่า": 1196,
      "ขึ้นมา": 1197,
      "ออกมาจาก": 1198,
      "จำน": 1199,
      "ารพ": 1200,
      "พระยาห์เวห์องค์เจ้าชีวิต": 1201,
      "ปฏิบัติต": 1202,
      "กร": 1203,
      "รถ": 1204,
      "เด็ก": 1205,
      "หนด": 1206,
      "ที่นี่": 1207,
      "อาวุ": 1208,
      "พระทัย": 1209,
      "อาด": 1210,
      "แก่ท่าน": 1211,
      "ล้ม": 1212,
      "ุน": 1213,
      "คลุม": 1214,
      "สัตย์": 1215,
      "เช่นนั้น": 1216,
      "เดินทาง": 1217,
      "ครอบครัว": 1218,
      "พวกเขาก็": 1219,
      "ประชาชาติ": 1220,
      "ลี": 1221,
      "ทัน": 1222,
      "ืด": 1223,
      "จนถึง": 1224,
      "ไล่": 1225,
      "ฝัง": 1226,
      "โรห์": 1227,
      "นก": 1228,
      "หลังจาก": 1229,
      "ฟาโรห์": 1230,
      "กฎ": 1231,
      "ศา": 1232,
      "ในหมู่": 1233,
      "มากมาย": 1234,
      "แป": 1235,
      "ที่เรา": 1236,
      "รัน": 1237,
      "เนื่องจาก": 1238,
      "ิสเต": 1239,
      "กลับไป": 1240,
      "ชั่วร้าย": 1241,
      "เชื่อฟัง": 1242,
      "ถิ่นกันดาร": 1243,
      "ฟีลิสเต": 1244,
      "คอย": 1245,
      "ทน": 1246,
      "น่า": 1247,
      "และคน": 1248,
      "ข้าพระองค์ทั้งหลาย": 1249,
      "บรรดาผู้": 1250,
      "นอน": 1251,
      "สู": 1252,
      "จิตใจ": 1253,
      "ัตถ": 1254,
      "ฟีลิสเตีย": 1255,
      "ักดิ์": 1256,
      "บางคน": 1257,
      "ศพ": 1258,
      "ของอิสราเอล": 1259,
      "ได้ทำ": 1260,
      "ทุกอย่าง": 1261,
      "หัตถ": 1262,
      "โห": 1263,
      "ราก": 1264,
      "ชำ": 1265,
      "นั่ง": 1266,
      "พระหัตถ": 1267,
      "ผู้คน": 1268,
      "ความรัก": 1269,
      "ขนม": 1270,
      "รั": 1271,
      "ลม": 1272,
      "อิ": 1273,
      "เขียน": 1274,
      "ลาด": 1275,
      "ไร้": 1276,
      "รันด": 1277,
      "คียาห์": 1278,
      "แหล": 1279,
      "ราฮัม": 1280,
      "ามา": 1281,
      "หนุ่ม": 1282,
      "พระหัตถ์": 1283,
      "มาหา": 1284,
      "จำนวน": 1285,
      "เหย": 1286,
      "บิดาของ": 1287,
      "ชำระ": 1288,
      "ไห": 1289,
      "ดังนี้ว่า": 1290,
      "ล่วง": 1291,
      "พวกเขาว่า": 1292,
      "ดำเนิน": 1293,
      "แน่น": 1294,
      "รันดร์": 1295,
      "หอม": 1296,
      "ุ์": 1297,
      "เป็นมลทิน": 1298,
      "ข้าม": 1299,
      "เชื้อ": 1300,
      "พระยาห์เวห์ผู้ทรงฤทธิ์": 1301,
      "พันธุ์": 1302,
      "พระชนม": 1303,
      "เตร": 1304,
      "ลูกหลาน": 1305,
      "เครื่องเผา": 1306,
      "เคารพ": 1307,
      "พระชนม์": 1308,
      "ขาย": 1309,
      "ลาก": 1310,
      "คี": 1311,
      "พระเน": 1312,
      "กำหนด": 1313,
      "หัวหน้า": 1314,
      "กลายเป็น": 1315,
      "ศักดิ์": 1316,
      "ขว": 1317,
      "บริ": 1318,
      "แน่": 1319,
      "พระเนตร": 1320,
      "พระบิดา": 1321,
      "ความจริง": 1322,
      "องค์พระผู้เป็นเจ้าตรัสกับ": 1323,
      "พระเยซูทรง": 1324,
      "เกิดขึ้น": 1325,
      "เตรียม": 1326,
      "กรรม": 1327,
      "กราบ": 1328,
      "มกลาง": 1329,
      "เปา": 1330,
      "ให้แก่": 1331,
      "สิริ": 1332,
      "เชลย": 1333,
      "ศึก": 1334,
      "่อง": 1335,
      "ไปจาก": 1336,
      "ประหาร": 1337,
      "เสม": 1338,
      "เรือ": 1339,
      "ริม": 1340,
      "สุข": 1341,
      "ทาส": 1342,
      "ของนาง": 1343,
      "มีความ": 1344,
      "้อยคำ": 1345,
      "ประมาณ": 1346,
      "ท่ามกลาง": 1347,
      "ถ้อยคำ": 1348,
      "ล้วน": 1349,
      "ใดๆ": 1350,
      "เข้าไปใน": 1351,
      "เปาโล": 1352,
      "ขับ": 1353,
      "ของกษัตริย์": 1354,
      "ธาน": 1355,
      "อ่อน": 1356,
      "ให้เจ้า": 1357,
      "หวัง": 1358,
      "พื้น": 1359,
      "เหล้า": 1360,
      "ชนะ": 1361,
      "แจ้ง": 1362,
      "ทอด": 1363,
      "ีย์": 1364,
      "่างๆ": 1365,
      "ซาร์": 1366,
      "ทำตาม": 1367,
      "ปฏิบัติตาม": 1368,
      "ไม่ใช่หรือ": 1369,
      "พยาน": 1370,
      "เกียรติสิริ": 1371,
      "หีบ": 1372,
      "เมต": 1373,
      "เสมอ": 1374,
      "ปัง": 1375,
      "ไกล": 1376,
      "ประจำ": 1377,
      "ทุกคนที่": 1378,
      "แพง": 1379,
      "ญาณ": 1380,
      "เปิด": 1381,
      "ชาติต": 1382,
      "บรรดาผู้ที่": 1383,
      "พ้นจาก": 1384,
      "ขนมปัง": 1385,
      "ชัง": 1386,
      "ร้อน": 1387,
      "อยู": 1388,
      "รับประทาน": 1389,
      "อับราฮัม": 1390,
      "แยก": 1391,
      "โอน": 1392,
      "้าว": 1393,
      "ลงโทษ": 1394,
      "พูดว่า": 1395,
      "ธี": 1396,
      "ให้คน": 1397,
      "ให้ท่าน": 1398,
      "ชาวย": 1399,
      "ทั้งสิ้น": 1400,
      "วันนี้": 1401,
      "สวม": 1402,
      "แรก": 1403,
      "เครื่องเผาบูชา": 1404,
      "ขาด": 1405,
      "ลับ": 1406,
      "หก": 1407,
      "เปโ": 1408,
      "ตัวเอง": 1409,
      "โยชู": 1410,
      "ปัญญา": 1411,
      "ไม่เคย": 1412,
      "มืด": 1413,
      "าศ": 1414,
      "โจม": 1415,
      "ให้พวกเขา": 1416,
      "ไห้": 1417,
      "เขาว่า": 1418,
      "จึงทรง": 1419,
      "สวน": 1420,
      "มั่นคง": 1421,
      "นาน": 1422,
      "แพะ": 1423,
      "ลุกขึ้น": 1424,
      "ในดินแดน": 1425,
      "เอฟ": 1426,
      "ชื่นชมยินดี": 1427,
      "องค์พระผู้เป็นเจ้าประกาศ": 1428,
      "สัม": 1429,
      "บ้าง": 1430,
      "ลบ": 1431,
      "คนนั้น": 1432,
      "เพลง": 1433,
      "ัพย์": 1434,
      "ดั่ง": 1435,
      "ศอก": 1436,
      "ิญ": 1437,
      "เข้าเฝ้า": 1438,
      "แค": 1439,
      "ไปตาม": 1440,
      "ผู้เป็นบุตรของ": 1441,
      "ข่ม": 1442,
      "ในการ": 1443,
      "เริ่ม": 1444,
      "ชาติต่างๆ": 1445,
      "ของชาว": 1446,
      "เขต": 1447,
      "ความเชื่อ": 1448,
      "เอ๋ยจง": 1449,
      "แบ่ง": 1450,
      "ณี": 1451,
      "รัช": 1452,
      "เหล้าองุ่น": 1453,
      "อยู่ที่นั่น": 1454,
      "สำแดง": 1455,
      "ขอบ": 1456,
      "บัง": 1457,
      "หว่าง": 1458,
      "จะมี": 1459,
      "เช้า": 1460,
      "สิ่งเหล่านี้": 1461,
      "พูดกับ": 1462,
      "ิตย์": 1463,
      "เชิญ": 1464,
      "ในวันที่": 1465,
      "รัชกาล": 1466,
      "ดง": 1467,
      "วล": 1468,
      "กำแพง": 1469,
      "ทั้งปวงที่": 1470,
      "ทรัพย์": 1471,
      "ฉลอง": 1472,
      "รษ": 1473,
      "แช": 1474,
      "เห็นว่า": 1475,
      "เสื้อผ้า": 1476,
      "ยุติ": 1477,
      "กรรมสิทธิ์": 1478,
      "เปโตร": 1479,
      "สว่าง": 1480,
      "ปฏิญาณ": 1481,
      "ำเกรง": 1482,
      "คนเหล่านี้": 1483,
      "ข้าพเจ้าจะ": 1484,
      "ตำ": 1485,
      "ทำบาป": 1486,
      "ตรัสดังนี้ว่า": 1487,
      "ระหว่าง": 1488,
      "นิรันดร์": 1489,
      "นุม": 1490,
      "แช่ง": 1491,
      "ชั้น": 1492,
      "โมอับ": 1493,
      "ตัดสิน": 1494,
      "ชุมนุม": 1495,
      "รูปเคารพ": 1496,
      "คู่": 1497,
      "ยศ": 1498,
      "วญ": 1499,
      "โง": 1500,
      "็บ": 1501,
      "ครวญ": 1502,
      "ทูตสวรรค์": 1503,
      "มะ": 1504,
      "เราคือ": 1505,
      "ต่อหน้าองค์พระผู้เป็นเจ้า": 1506,
      "ตะวันออก": 1507,
      "กิจ": 1508,
      "เมตตา": 1509,
      "เฉ": 1510,
      "ไปด้วย": 1511,
      "เล็ก": 1512,
      "ตนเอง": 1513,
      "ณฑ": 1514,
      "วยพร": 1515,
      "พิพาก": 1516,
      "ปีที่": 1517,
      "ืบ": 1518,
      "ราอิม": 1519,
      "ขึ้นไป": 1520,
      "ลงมา": 1521,
      "พร้อมกับ": 1522,
      "ยำเกรง": 1523,
      "เจ้านาย": 1524,
      "ต่อสู้": 1525,
      "โรค": 1526,
      "และให้": 1527,
      "ผู้หญิง": 1528,
      "ซึ่งมี": 1529,
      "อัล": 1530,
      "ครอบครอง": 1531,
      "เธอ": 1532,
      "ศีรษ": 1533,
      "ศีรษะ": 1534,
      "ูเอล": 1535,
      "ที่เจ้า": 1536,
      "และจะ": 1537,
      "ก็ยัง": 1538,
      "ในวันนั้น": 1539,
      "เกี่ยว": 1540,
      "คัญ": 1541,
      "สือ": 1542,
      "อวยพร": 1543,
      "สำคัญ": 1544,
      "หนังสือ": 1545,
      "ขย": 1546,
      "และการ": 1547,
      "ก็เป็น": 1548,
      "ความชอบธรรม": 1549,
      "เวศ": 1550,
      "พระวิหารขององค์พระผู้เป็นเจ้า": 1551,
      "ขา": 1552,
      "ที่ท่าน": 1553,
      "เสา": 1554,
      "นิเวศ": 1555,
      "ทำลายล้าง": 1556,
      "โง่": 1557,
      "สิ่งใด": 1558,
      "วงศ์วานของ": 1559,
      "ที่เขา": 1560,
      "ในเมือง": 1561,
      "เมล": 1562,
      "ยามิน": 1563,
      "กองทัพ": 1564,
      "มีชีวิตอยู่": 1565,
      "ศักดิ์สิทธิ์": 1566,
      "ดก": 1567,
      "หัก": 1568,
      "เท่าน": 1569,
      "ชาวอิสราเอล": 1570,
      "ตอน": 1571,
      "สาร": 1572,
      "ทิศ": 1573,
      "แบบ": 1574,
      "ซื่อสัตย์": 1575,
      "กบ": 1576,
      "จอร์": 1577,
      "พง": 1578,
      "ร่ำ": 1579,
      "อาจ": 1580,
      "พิพากษา": 1581,
      "จอร์แดน": 1582,
      "ขัด": 1583,
      "ห้อง": 1584,
      "ข้าราช": 1585,
      "เดียวกับ": 1586,
      "พืช": 1587,
      "ปิด": 1588,
      "ในที่": 1589,
      "ยิ่งกว่า": 1590,
      "นี่คือ": 1591,
      "น้อย": 1592,
      "ราว": 1593,
      "ทุกสิ่ง": 1594,
      "หยุด": 1595,
      "แผ่นดินโลก": 1596,
      "อาวุโส": 1597,
      "ยุติธรรม": 1598,
      "ไม่ให้": 1599,
      "ทำงาน": 1600,
      "ใจใน": 1601,
      "บุตรมนุษย์": 1602,
      "พิน": 1603,
      "ร้อย": 1604,
      "ักษ": 1605,
      "เพราะเขา": 1606,
      "เพราะเรา": 1607,
      "เบนยามิน": 1608,
      "แน่นอน": 1609,
      "โจมตี": 1610,
      "บเขา": 1611,
      "แคว": 1612,
      "ี้ย": 1613,
      "พระดำรัสขององค์พระผู้เป็นเจ้า": 1614,
      "เอฟราอิม": 1615,
      "แคว้น": 1616,
      "ยอ": 1617,
      "สัง": 1618,
      "ืม": 1619,
      "ใบ": 1620,
      "ที่เหลือ": 1621,
      "ือก": 1622,
      "เหง": 1623,
      "ของเราและ": 1624,
      "บูรณ์": 1625,
      "ี่ยม": 1626,
      "พระบัญชา": 1627,
      "พระเกียรติสิริ": 1628,
      "อยาก": 1629,
      "คนนี้": 1630,
      "โดม": 1631,
      "เหล่าสาวก": 1632,
      "โกร": 1633,
      "กว้าง": 1634,
      "ิบ": 1635,
      "ื้อง": 1636,
      "ระลึก": 1637,
      "ความทุกข์": 1638,
      "เรือน": 1639,
      "ดูเถิด": 1640,
      "หญ้า": 1641,
      "สงบ": 1642,
      "แม่น้ำจอร์แดน": 1643,
      "กู้": 1644,
      "ช่าง": 1645,
      "พัง": 1646,
      "ัล": 1647,
      "ไปที่": 1648,
      "พวกเขาจึง": 1649,
      "ครองราช": 1650,
      "วม": 1651,
      "โศ": 1652,
      "เป็นของ": 1653,
      "ริบ": 1654,
      "น้ำมัน": 1655,
      "เท่านั้น": 1656,
      "ซ่อน": 1657,
      "ิก": 1658,
      "เขาจึง": 1659,
      "ต่างชาติ": 1660,
      "สมบัติ": 1661,
      "แม้แต่": 1662,
      "พลับ": 1663,
      "กฏ": 1664,
      "เป็นกษัตริย์": 1665,
      "ห์น": 1666,
      "ข้าพเจ้าว่า": 1667,
      "สามี": 1668,
      "ปรากฏ": 1669,
      "เราก็": 1670,
      "ในสาย": 1671,
      "กำลังจะ": 1672,
      "เปล่า": 1673,
      "อาบี": 1674,
      "ลาห์": 1675,
      "ข้าพระองค์จะ": 1676,
      "ปรน": 1677,
      "โยชูวา": 1678,
      "เปร": 1679,
      "ไม่อา": 1680,
      "ไว้ว่า": 1681,
      "หีบพันธสัญญา": 1682,
      "ล้อม": 1683,
      "และเป็น": 1684,
      "ไว้กับ": 1685,
      "อย่าให้": 1686,
      "หุบเขา": 1687,
      "ชาน": 1688,
      "ดาน": 1689,
      "ตั": 1690,
      "เที่": 1691,
      "คนเหล่านั้น": 1692,
      "ไม่ต้อง": 1693,
      "ฉลาด": 1694,
      "ยู": 1695,
      "กลง": 1696,
      "สิง": 1697,
      "เย็น": 1698,
      "เกิน": 1699,
      "กระจ": 1700,
      "ทั้งหมดนี้": 1701,
      "ข่มเหง": 1702,
      "วอน": 1703,
      "เป็นเครื่องบูชา": 1704,
      "ท่านทั้งหลาย": 1705,
      "แห่งยูดาห์": 1706,
      "พระเยซูคริสต์": 1707,
      "ติดตาม": 1708,
      "แล้วก็": 1709,
      "ไม่อาจ": 1710,
      "นะ": 1711,
      "สติ": 1712,
      "ทำสิ่งที่": 1713,
      "การณ์": 1714,
      "ช่วยเหลือ": 1715,
      "ปรนนิ": 1716,
      "สืบ": 1717,
      "แถ": 1718,
      "ก็ทรง": 1719,
      "เมื่อเขา": 1720,
      "เคล": 1721,
      "ศ์พันธุ์": 1722,
      "ศิโยน": 1723,
      "ณฑ์": 1724,
      "พงศ์พันธุ์": 1725,
      "ขวา": 1726,
      "ป่า": 1727,
      "เป็นพระเจ้า": 1728,
      "ยาว": 1729,
      "อัค": 1730,
      "ยืนอยู่": 1731,
      "พระนามของพระองค์": 1732,
      "เกลียด": 1733,
      "พินาศ": 1734,
      "ยอห์น": 1735,
      "ครองราชย์": 1736,
      "ชิง": 1737,
      "พลา": 1738,
      "เราบอก": 1739,
      "ความตาย": 1740,
      "บัล": 1741,
      "เรื่องนี้": 1742,
      "พลับพลา": 1743,
      "มีย์": 1744,
      "ัสเส": 1745,
      "ทางเข้า": 1746,
      "ดำรง": 1747,
      "ปฏิบัติ": 1748,
      "โกรธ": 1749,
      "ฟัน": 1750,
      "ที่ทรง": 1751,
      "ที่มี": 1752,
      "มาถวาย": 1753,
      "เมฆ": 1754,
      "เสด็จมา": 1755,
      "โบอัม": 1756,
      "ชาวยิว": 1757,
      "สัมฤทธิ์": 1758,
      "คานา": 1759,
      "ประสง": 1760,
      "ทำอะไร": 1761,
      "เยเร": 1762,
      "ประชากรของพระองค์": 1763,
      "ประสงค์": 1764,
      "ก์": 1765,
      "ก้อน": 1766,
      "ประเสริ": 1767,
      "ขึ้นจาก": 1768,
      "อีกต่อไป": 1769,
      "เตือน": 1770,
      "เช่นกัน": 1771,
      "ข้าแต่พระเจ้า": 1772,
      "ต้นไม้": 1773,
      "อาศัยอยู่ใน": 1774,
      "ัสเสห์": 1775,
      "ประเสริฐ": 1776,
      "งาม": 1777,
      "นัด": 1778,
      "บาร": 1779,
      "แซ": 1780,
      "ไท": 1781,
      "ผู้นำ": 1782,
      "มาน": 1783,
      "แตก": 1784,
      "ถูกต้อง": 1785,
      "ี่ยง": 1786,
      "มนัสเสห์": 1787,
      "สะบา": 1788,
      "เหตุใด": 1789,
      "มารดา": 1790,
      "000": 1791,
      "บันท": 1792,
      "เป็นเชลย": 1793,
      "คนชั่ว": 1794,
      "ื่อน": 1795,
      "จงไป": 1796,
      "บุตรสาว": 1797,
      "เราจะทำให้": 1798,
      "เบื้อง": 1799,
      "กบฏ": 1800,
      "สะบาโต": 1801,
      "คัด": 1802,
      "ไข": 1803,
      "เจ้าและ": 1804,
      "เป็นเหมือน": 1805,
      "กล้า": 1806,
      "แก้": 1807,
      "เครื่องหอม": 1808,
      "คานาอัน": 1809,
      "ถี": 1810,
      "ป้อม": 1811,
      "พระนิเวศ": 1812,
      "ทุกสิ่งที่": 1813,
      "จนกว่า": 1814,
      "วิถี": 1815,
      "ลูกชาย": 1816,
      "ถวายเครื่องบูชา": 1817,
      "ี่ยน": 1818,
      "ี่ยว": 1819,
      "ร่าง": 1820,
      "อี": 1821,
      "ไปแล้ว": 1822,
      "เราจะไม่": 1823,
      "สำเร": 1824,
      "เซอร์": 1825,
      "ทองสัมฤทธิ์": 1826,
      "คาห์": 1827,
      "ให้รอด": 1828,
      "ความผิด": 1829,
      "องค์พระผู้เป็นเจ้าตรัส": 1830,
      "บาด": 1831,
      "พรม": 1832,
      "เยเรมีย์": 1833,
      "สำเร็จ": 1834,
      "ฝี": 1835,
      "มร": 1836,
      "แสง": 1837,
      "ลังก์": 1838,
      "ภัยพิ": 1839,
      "ปรนนิบัติ": 1840,
      "บัลลังก์": 1841,
      "สอบ": 1842,
      "เข้ม": 1843,
      "เป็นการ": 1844,
      "กันว่า": 1845,
      "ซีเรีย": 1846,
      "พากัน": 1847,
      "รัง": 1848,
      "องค์พระผู้เป็นเจ้าตรัสว่า": 1849,
      "สร้างขึ้น": 1850,
      "แต่งงาน": 1851,
      "ผู้รับใช้ของพระองค์": 1852,
      "สถานนมัสการ": 1853,
      "แสดง": 1854,
      "ช้า": 1855,
      "หู": 1856,
      "ได้เห็น": 1857,
      "ประโย": 1858,
      "องค์พระผู้เป็นเจ้าจะทรง": 1859,
      "ชน์": 1860,
      "สองคน": 1861,
      "แต่ละคน": 1862,
      "ประโยชน์": 1863,
      "มวล": 1864,
      "เจ็บ": 1865,
      "แผน": 1866,
      "สงค": 1867,
      "ก่อ": 1868,
      "ให้พ้นจาก": 1869,
      "กลุ่ม": 1870,
      "ต้องการ": 1871,
      "ต่างๆของ": 1872,
      "จารย์": 1873,
      "สงคราม": 1874,
      "ซาม": 1875,
      "นคร": 1876,
      "รอง": 1877,
      "พระนาง": 1878,
      "แห้ง": 1879,
      "โยอาบ": 1880,
      "ประชากรของเรา": 1881,
      "ดิฉัน": 1882,
      "แต่งตั้ง": 1883,
      "เต็นท์นัด": 1884,
      "จุด": 1885,
      "นู": 1886,
      "บาย": 1887,
      "และไม่": 1888,
      "หรือไม่": 1889,
      "ลงไป": 1890,
      "ลูกแกะ": 1891,
      "แหละ": 1892,
      "ชัย": 1893,
      "ติน": 1894,
      "รัม": 1895,
      "ของข้า": 1896,
      "บนภูเขา": 1897,
      "ยังคง": 1898,
      "เทศกาล": 1899,
      "ขอบพระคุณ": 1900,
      "เต็นท์นัดพบ": 1901,
      "ที่ดิน": 1902,
      "ชนชาติต่างๆ": 1903,
      "หนึ่งใน": 1904,
      "อารัม": 1905,
      "ทันที": 1906,
      "องค์พระผู้เป็นเจ้าตรัสกับโมเสส": 1907,
      "เที่ยง": 1908,
      "ซามูเอล": 1909,
      "เป็นบิดาของ": 1910,
      "หัวปี": 1911,
      "ระลึกถึง": 1912,
      "คาร": 1913,
      "ทุ": 1914,
      "บิด": 1915,
      "ป้อง": 1916,
      "และใน": 1917,
      "เหมือนที่": 1918,
      "ประชากรอิสราเอล": 1919,
      "เซคียาห์": 1920,
      "อับอาย": 1921,
      "เฮเซคียาห์": 1922,
      "คิดว่า": 1923,
      "ฝูงสัตว์": 1924,
      "เมล็ด": 1925,
      "ซื้อ": 1926,
      "ธิดา": 1927,
      "อภัย": 1928,
      "และกล่าวว่า": 1929,
      "ผู้ซึ่ง": 1930,
      "เราจึง": 1931,
      "มาเรีย": 1932,
      "เพราะพวกเขา": 1933,
      "ยิ่งนัก": 1934,
      "ครั้งนั้น": 1935,
      "จิตวิญญาณ": 1936,
      "ศิลา": 1937,
      "สันติ": 1938,
      "มหา": 1939,
      "ย่อม": 1940,
      "ตร์": 1941,
      "ียว": 1942,
      "เลอาด": 1943,
      "หลับ": 1944,
      "ข้าพเจ้าจึง": 1945,
      "อิสอัค": 1946,
      "อัสซีเรีย": 1947,
      "จา": 1948,
      "แต่น": 1949,
      "ชาฟ": 1950,
      "อีกครั้ง": 1951,
      "ร้องเพลง": 1952,
      "ผ่านทาง": 1953,
      "เพื่อนบ้าน": 1954,
      "จบ": 1955,
      "ฝน": 1956,
      "เจิม": 1957,
      "ผู้หนึ่ง": 1958,
      "คนเลวี": 1959,
      "เล่น": 1960,
      "กับเจ้า": 1961,
      "แก่เจ้า": 1962,
      "สมบูรณ์": 1963,
      "เหตุการณ์": 1964,
      "ขี่": 1965,
      "ุภาพ": 1966,
      "ไหล": 1967,
      "อาท": 1968,
      "หลง": 1969,
      "วิ่ง": 1970,
      "หมายสำคัญ": 1971,
      "?’": 1972,
      "ต้อน": 1973,
      "ธัญ": 1974,
      "ยับ": 1975,
      "ยอด": 1976,
      "ไปหา": 1977,
      "ความมืด": 1978,
      "สาบาน": 1979,
      "แท้": 1980,
      "สติปัญญา": 1981,
      "าป": 1982,
      "ของดาวิด": 1983,
      "ผู้ชาย": 1984,
      "เราและ": 1985,
      "พระองค์และ": 1986,
      "พระองค์ตรัส": 1987,
      "คนเดียว": 1988,
      "ท่านก็": 1989,
      "เอโดม": 1990,
      "แตะ": 1991,
      "กระด": 1992,
      "กระนั้น": 1993,
      "ผลา": 1994,
      "ฝัน": 1995,
      "รอ": 1996,
      "เมื่อเรา": 1997,
      "สั่น": 1998,
      "เนีย": 1999,
      "พระเยซูตรัส": 2000,
      "ร้องทูล": 2001,
      "ละทิ้ง": 2002,
      "สถาป": 2003,
      "เดือนที่": 2004,
      "ข่าวประเสริฐ": 2005,
      "กฎหมาย": 2006,
      "ผลาญ": 2007,
      "ผม": 2008,
      "ได้อย่างไร": 2009,
      "ตั้งค่าย": 2010,
      "คม": 2011,
      "ล่า": 2012,
      "อุด": 2013,
      "ูบ": 2014,
      "เข้มแข็ง": 2015,
      "กอบ": 2016,
      "ชัก": 2017,
      "ฮู": 2018,
      "มาให้": 2019,
      "ไปถึง": 2020,
      "อาหิ": 2021,
      "แซม": 2022,
      "บันทึก": 2023,
      "ภัยพิบัติ": 2024,
      "ติสุ": 2025,
      "ลืม": 2026,
      "ุง": 2027,
      "ในถิ่นกันดาร": 2028,
      "ไปทาง": 2029,
      "โยนา": 2030,
      "สั่งสอน": 2031,
      "คับ": 2032,
      "ค่ำ": 2033,
      "ไหว": 2034,
      "ที่เป็น": 2035,
      "สะมาเรีย": 2036,
      "กระจาย": 2037,
      "อาทิตย์": 2038,
      "ติสุข": 2039,
      "คุก": 2040,
      "บ่อ": 2041,
      "ยิว": 2042,
      "อ้าง": 2043,
      "้ย": 2044,
      "ือด": 2045,
      "คนรับใช้": 2046,
      "ก็ไม่": 2047,
      "เมื่อท่าน": 2048,
      "ไม่ได้ทรง": 2049,
      "โกน": 2050,
      "เปลี่ยน": 2051,
      "คัน": 2052,
      "พระบุตร": 2053,
      "ของผู้": 2054,
      "จะมา": 2055,
      "ากับ": 2056,
      "ในโลก": 2057,
      "หลวง": 2058,
      "เมืองนั้น": 2059,
      "ฉันใด": 2060,
      "สถิต": 2061,
      "กิเลอาด": 2062,
      "หวาด": 2063,
      "พอพระทัย": 2064,
      "จดหมาย": 2065,
      "แปด": 2066,
      "ทรัพย์สมบัติ": 2067,
      "จรร": 2068,
      "ทับ": 2069,
      "มุ่ง": 2070,
      "ศจรร": 2071,
      "คร่ำ": 2072,
      "เย้ย": 2073,
      "จงฟัง": 2074,
      "เดิม": 2075,
      "บรวม": 2076,
      "หยิบ": 2077,
      "พร้อมทั้ง": 2078,
      "รบกับ": 2079,
      "เยโฮยา": 2080,
      "ไถ่บาป": 2081,
      "ในสายพระเนตร": 2082,
      "ธัญบูชา": 2083,
      "ศจรรย์": 2084,
      "ตจักร": 2085,
      "ความคิด": 2086,
      "ความรอด": 2087,
      "เร็": 2088,
      "เอลียาห์": 2089,
      "เข้าสู่": 2090,
      "คริสตจักร": 2091,
      "สูญ": 2092,
      "คุม": 2093,
      "ฟาก": 2094,
      "ที่ซึ่ง": 2095,
      "เขาและ": 2096,
      "ควบ": 2097,
      "เลค": 2098,
      "เมื่อพวกเขา": 2099,
      "ยังไม่": 2100,
      "สันติสุข": 2101,
      "ตำหน": 2102,
      "นิม": 2103,
      "เพราะท่าน": 2104,
      "หมิ่น": 2105,
      "เทพเจ้า": 2106,
      "ผิดชอบ": 2107,
      "สุหน": 2108,
      "ญาติ": 2109,
      "แค้น": 2110,
      "คาน": 2111,
      "ย่อง": 2112,
      "ากรณ์": 2113,
      "โดยไม่": 2114,
      "พยากรณ์": 2115,
      "มรดก": 2116,
      "ขน": 2117,
      "ถน": 2118,
      "ปีก": 2119,
      "สย": 2120,
      "และเครื่อง": 2121,
      "ไปและ": 2122,
      "ก็มี": 2123,
      "อยู่บน": 2124,
      "ชาวฟีลิสเตีย": 2125,
      "ประกาศว่า": 2126,
      "นี่เป็น": 2127,
      "อัมโมน": 2128,
      "องค์พระผู้เป็นเจ้าประกาศดังนั้น": 2129,
      "อุดม": 2130,
      "คร่ำครวญ": 2131,
      "อามา": 2132,
      "ติศ": 2133,
      "สาป": 2134,
      "นักรบ": 2135,
      "สุหนัต": 2136,
      "หลุม": 2137,
      "ไว้ที่": 2138,
      "เนบู": 2139,
      "หลังจากนั้น": 2140,
      "แสวง": 2141,
      "ฝังศพ": 2142,
      "โยนาธาน": 2143,
      "ช่วง": 2144,
      "ซาก": 2145,
      "ทาร": 2146,
      "ล้ำ": 2147,
      "อาก": 2148,
      "อกล": 2149,
      "ฮาน": 2150,
      "แตร": 2151,
      "ระเบ": 2152,
      "ครบ": 2153,
      "นี้เป็น": 2154,
      "รับผิดชอบ": 2155,
      "ข้าพเจ้าได้": 2156,
      "เพราะพระองค์ทรง": 2157,
      "ถวายแด่องค์พระผู้เป็นเจ้า": 2158,
      "กล่าวแก่": 2159,
      "ม้าศึก": 2160,
      "ขับไล่": 2161,
      "ดีก": 2162,
      "ภ์": 2163,
      "ฮาม": 2164,
      "ึ้ง": 2165,
      "วันที่": 2166,
      "เนิด": 2167,
      "กำเนิด": 2168,
      "ฟังคำ": 2169,
      "หมู่บ้าน": 2170,
      "ดวงอาทิตย์": 2171,
      "ลี้": 2172,
      "เจริ": 2173,
      "ายาม": 2174,
      "จากการ": 2175,
      "ปรารถ": 2176,
      "ตะวันตก": 2177,
      "โศก": 2178,
      "สาปแช่ง": 2179,
      "เจริญ": 2180,
      "และนำ": 2181,
      "ไม่รู้": 2182,
      "ครร": 2183,
      "เกณฑ์": 2184,
      "เข้าสุหนัต": 2185,
      "เห็นแก่": 2186,
      "ลูกๆ": 2187,
      "โดยการ": 2188,
      "ชั่วอายุ": 2189,
      "คลอด": 2190,
      "พยายาม": 2191,
      "ร่วมกับ": 2192,
      "พระราชกิจ": 2193,
      "อยู่น": 2194,
      "แสวงหา": 2195,
      "ขนา": 2196,
      "ผี": 2197,
      "ห้ว": 2198,
      "ี่สิบ": 2199,
      "ผู้อาวุโส": 2200,
      "มาห์": 2201,
      "ไปทั่ว": 2202,
      "เพิ่ม": 2203,
      "นั้นก็": 2204,
      "จงทำ": 2205,
      "ในวันนี้": 2206,
      "ปราการ": 2207,
      "ชื่อว่า": 2208,
      "หะ": 2209,
      "ระวัง": 2210,
      "เจ้าข้า": 2211,
      "ตรี": 2212,
      "ื่อย": 2213,
      "มีคน": 2214,
      "ข้าพเจ้าก็": 2215,
      "หากเจ้า": 2216,
      "เช่นเดียวกับ": 2217,
      "เก็บเกี่ยว": 2218,
      "เกลียดชัง": 2219,
      "สถาปนา": 2220,
      "ด้าว": 2221,
      "พฤ": 2222,
      "แปล": 2223,
      "ที่รัก": 2224,
      "และชาว": 2225,
      "พระองค์ว่า": 2226,
      "พระองค์ผู้ทรง": 2227,
      "เทว": 2228,
      "ต่างด้าว": 2229,
      "ปราน": 2230,
      "ถนน": 2231,
      "ดีกว่า": 2232,
      "ครรภ์": 2233,
      "กิ่ง": 2234,
      "ถู": 2235,
      "ธา": 2236,
      "ธนู": 2237,
      "ไหม": 2238,
      "ความชั่ว": 2239,
      "แต่เมื่อ": 2240,
      "แล้วเขา": 2241,
      "ดาล": 2242,
      "พิธี": 2243,
      "รวบรวม": 2244,
      "กวาด": 2245,
      "แป้ง": 2246,
      "องค์พระผู้เป็นเจ้าตรัสกับโมเสสว่า": 2247,
      "ธาร": 2248,
      "พระพัก": 2249,
      "เป็นพยาน": 2250,
      "อาโม": 2251,
      "เยโร": 2252,
      "วิบัติ": 2253,
      "ปล้น": 2254,
      "ฉันนั้น": 2255,
      "ตลอดไป": 2256,
      "โต๊": 2257,
      "ปรารถนา": 2258,
      "พระพักตร์": 2259,
      "ตื่น": 2260,
      "นึก": 2261,
      "และทำให้": 2262,
      "ื่อม": 2263,
      "เมิด": 2264,
      "เสธ": 2265,
      "ปุโรหิตจะ": 2266,
      "เหล่าประชากร": 2267,
      "ปกป้อง": 2268,
      "ทราบว่า": 2269,
      "ดัก": 2270,
      "ทด": 2271,
      "เหล็ก": 2272,
      "เนส": 2273,
      "ที่นั่ง": 2274,
      "ปลอด": 2275,
      "ปฏิเสธ": 2276,
      "โต๊ะ": 2277,
      "จร": 2278,
      "ที่เมือง": 2279,
      "และถูก": 2280,
      "ประชุม": 2281,
      "ใครเล่า": 2282,
      "พระยาห์เวห์พระเจ้าแห่งอิสราเอล": 2283,
      "ได้ยินเสียง": 2284,
      "จัดการ": 2285,
      "กด": 2286,
      "ยี่สิบ": 2287,
      "อิ่ม": 2288,
      "จะได้รับ": 2289,
      "คนชอบธรรม": 2290,
      "เส้น": 2291,
      "บาลา": 2292,
      "อย่างนี้": 2293,
      "อนุ": 2294,
      "โมง": 2295,
      "ซาโลม": 2296,
      "ละเมิด": 2297,
      "อัศจรรย์": 2298,
      "หายนะ": 2299,
      "อาหับ": 2300,
      "ไซ": 2301,
      "เป็นทาส": 2302,
      "จะไม่มี": 2303,
      "ไปกับ": 2304,
      "หมอบ": 2305,
      "ชนิด": 2306,
      "ตัวเขา": 2307,
      "วิหาร": 2308,
      "สิบสอง": 2309,
      "ของข้าพระองค์ทั้งหลาย": 2310,
      "สรรเสริญพระองค์": 2311,
      "ชิงชัง": 2312,
      "คาด": 2313,
      "พรร": 2314,
      "สล": 2315,
      "หยิ่ง": 2316,
      "อู": 2317,
      "่ร้อง": 2318,
      "เรามา": 2319,
      "ต่อมา": 2320,
      "ร้องไห้": 2321,
      "รวมทั้ง": 2322,
      "โห่ร้อง": 2323,
      "ร่ำไห้": 2324,
      "แถบ": 2325,
      "ชาฟัท": 2326,
      "ตราบ": 2327,
      "หาม": 2328,
      "ที่สูง": 2329,
      "และได้": 2330,
      "เอซา": 2331,
      "เมเลค": 2332,
      "ความยุติธรรม": 2333,
      "แต่จง": 2334,
      "เสื่อม": 2335,
      "ถึงแม้": 2336,
      "ดินแดนนั้น": 2337,
      "เผาผลาญ": 2338,
      "ฝูงชน": 2339,
      "ภายใน": 2340,
      "พติศ": 2341,
      "เขาเป็น": 2342,
      "ครึ่ง": 2343,
      "ก็ได้": 2344,
      "อาช": 2345,
      "บัพติศ": 2346,
      "เวลาน": 2347,
      "พี่ชาย": 2348,
      "อับซาโลม": 2349,
      "ทรมาน": 2350,
      "สวนองุ่น": 2351,
      "ตำหนิ": 2352,
      "ปา": 2353,
      "ฟาร": 2354,
      "็ญ": 2355,
      "ในยาม": 2356,
      "ียา": 2357,
      "อาสา": 2358,
      "อยู่ที่นี่": 2359,
      "เรือง": 2360,
      "ด้วยกัน": 2361,
      "ยกย่อง": 2362,
      "กรุณา": 2363,
      "แม่ทัพ": 2364,
      "พระยาห์เวห์องค์เจ้าชีวิตตรัสดังนี้ว่า": 2365,
      "คัดเนส": 2366,
      "นิมิต": 2367,
      "เนบูคัดเนส": 2368,
      "ปลอดภัย": 2369,
      "เนบูคัดเนสซาร์": 2370,
      "กาง": 2371,
      "คบ": 2372,
      "ตกลง": 2373,
      "พาย": 2374,
      "แย": 2375,
      "ที่ถูก": 2376,
      "มาเข้าเฝ้า": 2377,
      "ประพฤ": 2378,
      "เพื่อให้": 2379,
      "หลายคน": 2380,
      "ไว้ในมือ": 2381,
      "หนักประมาณ": 2382,
      "ล้มลง": 2383,
      "เราคือพระยาห์เวห์": 2384,
      "ลี้ภัย": 2385,
      "เยโรโบอัม": 2386,
      "กุ": 2387,
      "ขุน": 2388,
      "ยื่น": 2389,
      "ที่อยู่": 2390,
      "มาเป็น": 2391,
      "ไม่สามารถ": 2392,
      "องค์พระผู้เป็นเจ้าและ": 2393,
      "การกระทำ": 2394,
      "แก่อ": 2395,
      "ของพระองค์และ": 2396,
      "เกียจ": 2397,
      "ใส่ใจ": 2398,
      "ญาต": 2399,
      "รุ่งขึ้น": 2400,
      "ภายใต้": 2401,
      "ออกมาจากอียิปต์": 2402,
      "กัด": 2403,
      "ตรา": 2404,
      "บุก": 2405,
      "มุ": 2406,
      "มัด": 2407,
      "รีบ": 2408,
      "ห่าง": 2409,
      "ูน": 2410,
      "ของฝ่าพระบาท": 2411,
      "ราง": 2412,
      "ที่ได้": 2413,
      "ว่าเรา": 2414,
      "ไปได้": 2415,
      "ความสว่าง": 2416,
      "เลิก": 2417,
      "ข้าพเจ้าเห็น": 2418,
      "เพราะเจ้า": 2419,
      "อย่ากลัว": 2420,
      "ห้าม": 2421,
      "ชิ้น": 2422,
      "ทุ่งหญ้า": 2423,
      "สังหาร": 2424,
      "นั": 2425,
      "นั่น": 2426,
      "ให้บริสุทธิ์": 2427,
      "ทำผิด": 2428,
      "เชิง": 2429,
      "เว้น": 2430,
      "สิ่งนี้": 2431,
      "วิง": 2432,
      "กระท": 2433,
      "พี่น้องทั้งหลาย": 2434,
      "อาหัส": 2435,
      "ค้าง": 2436,
      "ซาร": 2437,
      "พาร": 2438,
      "ย่ำ": 2439,
      "ิศ": 2440,
      "โชน": 2441,
      "พวกนั้น": 2442,
      "จงนำ": 2443,
      "ไว้แล้ว": 2444,
      "ปลาย": 2445,
      "องค์พระผู้เป็นเจ้าทรงบัญชา": 2446,
      "นอกจาก": 2447,
      "เอลีชา": 2448,
      "วิงวอน": 2449,
      "จ่าย": 2450,
      "ลิน": 2451,
      "ิล": 2452,
      "ราน": 2453,
      "ท่านว่า": 2454,
      "แก่เรา": 2455,
      "น้องชาย": 2456,
      "เหตุนี้": 2457,
      "อาวุธ": 2458,
      "ความรักมั่นคง": 2459,
      "บริพาร": 2460,
      "ข้าราชบริพาร": 2461,
      "เคลื่อน": 2462,
      "ป้อมปราการ": 2463,
      "แตะต้อง": 2464,
      "กระดูก": 2465,
      "ขัน": 2466,
      "ฟาด": 2467,
      "ฤดู": 2468,
      "ลาม": 2469,
      "สดับ": 2470,
      "ของเราจะ": 2471,
      "เหว": 2472,
      "กับคน": 2473,
      "ราชบิดา": 2474,
      "ปลด": 2475,
      "หากท่าน": 2476,
      "สงสาร": 2477,
      "กลับมาหา": 2478,
      "พระราชวัง": 2479,
      "บอด": 2480,
      "ปรัก": 2481,
      "ฝั่ง": 2482,
      "มาม": 2483,
      "ลิด": 2484,
      "ิจ": 2485,
      "ของโลก": 2486,
      "และเราจะ": 2487,
      "าการ": 2488,
      "พระองค์ตรัสกับ": 2489,
      "หนา": 2490,
      "ความว่า": 2491,
      "หลัก": 2492,
      "จงบอก": 2493,
      "ตัวหนึ่ง": 2494,
      "โดยรอบ": 2495,
      "ทูลถาม": 2496,
      "วาจา": 2497,
      "บัญชาก": 2498,
      "ภรรยาของ": 2499,
      "เยโฮชาฟัท": 2500,
      "ฟาริส": 2501,
      "คอ": 2502,
      "ไน": 2503,
      "และเมื่อ": 2504,
      "ามาร": 2505,
      "ว่าจะ": 2506,
      "ประเทศ": 2507,
      "กับเรา": 2508,
      "เมืองต่างๆ": 2509,
      "เทือก": 2510,
      "สิบคน": 2511,
      "ยอมรับ": 2512,
      "กันดารอาหาร": 2513,
      "รถม้าศึก": 2514,
      "อิช": 2515,
      "ขึ้นจากตาย": 2516,
      "ระเบียบ": 2517,
      "กุม": 2518,
      "ค้า": 2519,
      "ทั": 2520,
      "หว่า": 2521,
      "อิน": 2522,
      "ที่ข้าพเจ้า": 2523,
      "ครทูต": 2524,
      "ประการ": 2525,
      "ทั้งสี่": 2526,
      "เกร": 2527,
      "ทุกวันนี้": 2528,
      "แก่ผู้ที่": 2529,
      "แห่งความ": 2530,
      "เทิด": 2531,
      "ชาวอียิปต์": 2532,
      "กาด": 2533,
      "พิณ": 2534,
      "ดาวิดทรง": 2535,
      "เงียบ": 2536,
      "สั่งให้": 2537,
      "ประตูเมือง": 2538,
      "พระวิญญาณบริสุทธิ์": 2539,
      "วิถีทาง": 2540,
      "บัพติศมา": 2541,
      "ลินิน": 2542,
      "หว่าน": 2543,
      "ป่วย": 2544,
      "วัด": 2545,
      "ห่วง": 2546,
      "เภ": 2547,
      "ที่พวกเขา": 2548,
      "และเขา": 2549,
      "พระองค์ได้": 2550,
      "พระองค์ตรัสว่า": 2551,
      "แต่ถ้า": 2552,
      "แห่งการ": 2553,
      "กษัตริย์แห่ง": 2554,
      "เท็จ": 2555,
      "กระจัด": 2556,
      "ฤทธิ์อำนาจ": 2557,
      "มิฉะนั้น": 2558,
      "เลือกสรร": 2559,
      "ดำเนินชีวิต": 2560,
      "เอซาว": 2561,
      "กระจัดกระจาย": 2562,
      "คลัง": 2563,
      "คัม": 2564,
      "ทาย": 2565,
      "ท่วม": 2566,
      "ปัส": 2567,
      "ปลูก": 2568,
      "สบ": 2569,
      "และผู้": 2570,
      "พวกยิว": 2571,
      "เยาะ": 2572,
      "เพราะว่า": 2573,
      "ด้วยการ": 2574,
      "สัญญ": 2575,
      "รุน": 2576,
      "ลูกสาว": 2577,
      "เรียน": 2578,
      "กิเบ": 2579,
      "อาศัยอยู่": 2580,
      "รุ่งเรือง": 2581,
      "เร็ว": 2582,
      "ดุ": 2583,
      "ดาร์": 2584,
      "ตัก": 2585,
      "ต่ำ": 2586,
      "มั่ง": 2587,
      "มาพบ": 2588,
      "ใจและ": 2589,
      "ถึงกระนั้น": 2590,
      "สมัย": 2591,
      "สิ้นพระชนม์": 2592,
      "เจ็ดวัน": 2593,
      "ลิตร": 2594,
      "พระดำรัสขององค์พระผู้เป็นเจ้ามาถึง": 2595,
      "ขนาด": 2596,
      "พายุ": 2597,
      "กอก": 2598,
      "จ้าง": 2599,
      "ถอน": 2600,
      "ผูก": 2601,
      "โอก": 2602,
      "ของถวาย": 2603,
      "ของมนุษย์": 2604,
      "เป่า": 2605,
      "เป็นอัน": 2606,
      "นั้นจะ": 2607,
      "อยู่เหนือ": 2608,
      "เมื่อนั้น": 2609,
      "ตัวผู้": 2610,
      "ไม่ได้รับ": 2611,
      "กระทำให้": 2612,
      "รูเบน": 2613,
      "แผล": 2614,
      "อัป": 2615,
      "ยูดาห์และ": 2616,
      "ทรยศ": 2617,
      "พระชนม์อยู่": 2618,
      "ขวัญ": 2619,
      "พงศ์พันธุ์อิสราเอล": 2620,
      "เทือกเขา": 2621,
      "ดาก": 2622,
      "ท้าย": 2623,
      "ม่าน": 2624,
      "ของบรรพบุรุษ": 2625,
      "เราเป็น": 2626,
      "พระองค์จะ": 2627,
      "พวกเขาและ": 2628,
      "เยฮู": 2629,
      "เดือด": 2630,
      "วันรุ่งขึ้น": 2631,
      "คำสอน": 2632,
      "ไรต์": 2633,
      "บ้านของ": 2634,
      "อัครทูต": 2635,
      "่อยยับ": 2636,
      "แกะผู้": 2637,
      "ภาษา": 2638,
      "ฐานะ": 2639,
      "ฝูงแกะ": 2640,
      "ถือว่า": 2641,
      "มองดู": 2642,
      "เหยียด": 2643,
      "แก้แค้น": 2644,
      "เทวรูป": 2645,
      "กดขี่": 2646,
      "รุนแรง": 2647,
      "12": 2648,
      "งอก": 2649,
      "ต้าน": 2650,
      "ย่อยยับ": 2651,
      "โฟ": 2652,
      "โหย": 2653,
      "เจ้าก็": 2654,
      "คนใน": 2655,
      "คนใด": 2656,
      "เอส": 2657,
      "มีเดีย": 2658,
      "หลั่ง": 2659,
      "เมื่อเจ้า": 2660,
      "ลงบน": 2661,
      "เครูบ": 2662,
      "อันน่า": 2663,
      "บอกว่า": 2664,
      "ส่งคน": 2665,
      "สะอาด": 2666,
      "ทูน": 2667,
      "โปรดปราน": 2668,
      "ยากจน": 2669,
      "บังคับ": 2670,
      "ักษ์": 2671,
      "อุดมสมบูรณ์": 2672,
      "โธ": 2673,
      "เปี่ยม": 2674,
      "ทรงฤทธิ์": 2675,
      "กับเขา": 2676,
      "องค์พระเยซู": 2677,
      "หลอกล": 2678,
      "ด้วยไฟ": 2679,
      "ต่อองค์พระผู้เป็นเจ้า": 2680,
      "อย่างแน่นอน": 2681,
      "เบล": 2682,
      "ปลอบ": 2683,
      "แบก": 2684,
      "สี่สิบ": 2685,
      "เชื้อสาย": 2686,
      "ทอดพระเนตร": 2687,
      "รับประทานอาหาร": 2688,
      "อาโมไรต์": 2689,
      "ฉีก": 2690,
      "บำ": 2691,
      "ลุ": 2692,
      "วัย": 2693,
      "พระผู้": 2694,
      "ผู้นี้": 2695,
      "พระองค์ได้ทรง": 2696,
      "คนอื่นๆ": 2697,
      "เอเล": 2698,
      "เสร": 2699,
      "ด้วยดาบ": 2700,
      "เราจะนำ": 2701,
      "คำสั่ง": 2702,
      "ื้อม": 2703,
      "หนีไป": 2704,
      "เลี้ยงแกะ": 2705,
      "ข้าแต่องค์พระผู้เป็นเจ้าขอทรง": 2706,
      "ท้องทุ่ง": 2707,
      "เทิดทูน": 2708,
      "อัปยศ": 2709,
      "ขโม": 2710,
      "ขวาง": 2711,
      "ร้า": 2712,
      "เติ": 2713,
      "เป็นเวลา": 2714,
      "ไปสู่": 2715,
      "โลหิต": 2716,
      "ช่วยกู้": 2717,
      "ปรึก": 2718,
      "ตรงหน้า": 2719,
      "รายงาน": 2720,
      "สถานบูชา": 2721,
      "เสื้อคลุม": 2722,
      "ประมาท": 2723,
      "อาจจะ": 2724,
      "ห้วง": 2725,
      "ขโมย": 2726,
      "!’": 2727,
      "ขม": 2728,
      "ติส": 2729,
      "นิตย์": 2730,
      "อ่าน": 2731,
      "ฮาด": 2732,
      "ของซาอูล": 2733,
      "ในอิสราเอล": 2734,
      "ทั้งๆ": 2735,
      "เดค": 2736,
      "ขึ้นครองราชย์": 2737,
      "อย่างนั้น": 2738,
      "ลงใน": 2739,
      "ขออย่า": 2740,
      "โยบ": 2741,
      "กลับบ้าน": 2742,
      "ใครจะ": 2743,
      "มาก่อน": 2744,
      "ประชากรทั้งปวง": 2745,
      "สิ้นชีวิต": 2746,
      "แนะ": 2747,
      "สูงสุด": 2748,
      "เนินเขา": 2749,
      "แปลก": 2750,
      "เอเลอา": 2751,
      "ขณ": 2752,
      "ว่าการ": 2753,
      "ในเยรูซาเล็ม": 2754,
      "้วย": 2755,
      "สิยาห์": 2756,
      "ตาบอด": 2757,
      "พระบาอัล": 2758,
      "เศร้า": 2759,
      "โนอาห์": 2760,
      "เท่าใด": 2761,
      "สิงโต": 2762,
      "ร่างกาย": 2763,
      "ขณะนั้น": 2764,
      "ขี้": 2765,
      "ถ้วย": 2766,
      "บาก": 2767,
      "มุม": 2768,
      "โป": 2769,
      "่ย": 2770,
      "เจ้าจง": 2771,
      "มาแล้ว": 2772,
      "พวกมัน": 2773,
      "ความสุข": 2774,
      "แต่หาก": 2775,
      "หรือที่": 2776,
      "เพื่อว่า": 2777,
      "แห่งนี้": 2778,
      "ชาวเมือง": 2779,
      "โกหก": 2780,
      "ไขมัน": 2781,
      "แต่งงานกับ": 2782,
      "เล่นงาน": 2783,
      "ฟาริสี": 2784,
      "เสร็จ": 2785,
      "ก็น": 2786,
      "พึ่ง": 2787,
      "ลู": 2788,
      "ของยาโคบ": 2789,
      "เจ้าเป็น": 2790,
      "เขลา": 2791,
      "และบรรดา": 2792,
      "พระองค์ประทาน": 2793,
      "ได้หรือ": 2794,
      "มาและ": 2795,
      "จากเผ่า": 2796,
      "เพราะบาป": 2797,
      "ดาเนีย": 2798,
      "จน์": 2799,
      "ชาวฮ": 2800,
      "ดินแดนนี้": 2801,
      "พบว่า": 2802,
      "พระยาห์เวห์พระเจ้าของเจ้า": 2803,
      "ผ้าลินิน": 2804,
      "อุส": 2805,
      "ลิ้น": 2806,
      "ชุมนุมกัน": 2807,
      "แซมสัน": 2808,
      "ฮานัน": 2809,
      "กระทั่ง": 2810,
      "บัญชาการ": 2811,
      "ดาเนียล": 2812,
      "นาห์": 2813,
      "ม้วน": 2814,
      "ื้น": 2815,
      "แอ": 2816,
      "เขน": 2817,
      "คนต่างชาติ": 2818,
      "หนอ": 2819,
      "เนอร์": 2820,
      "หนึ่งของ": 2821,
      "บนที่สูง": 2822,
      "รุง": 2823,
      "โยสิยาห์": 2824,
      "่อย่าง": 2825,
      "พี่น้องร่วม": 2826,
      "แขน": 2827,
      "เหยียบ": 2828,
      "หักพัง": 2829,
      "ี้ยว": 2830,
      "ตินี้": 2831,
      "เจิมตั้ง": 2832,
      "ชับ": 2833,
      "ชาม": 2834,
      "ชัด": 2835,
      "ชุด": 2836,
      "ผืน": 2837,
      "ผิว": 2838,
      "ฝาก": 2839,
      "ลด": 2840,
      "โช": 2841,
      "ระย": 2842,
      "พระประสงค์": 2843,
      "พระที่นั่ง": 2844,
      "เจ้าหน้าที่": 2845,
      "ที่ดี": 2846,
      "และทำ": 2847,
      "เป็นนิตย์": 2848,
      "พระองค์จึงทรง": 2849,
      "ในเมื่อ": 2850,
      "มาสู่": 2851,
      "จากเมือง": 2852,
      "ความชั่วร้าย": 2853,
      "เสลาห์": 2854,
      "บุตรคือ": 2855,
      "ของเจ้าจะ": 2856,
      "ช่วยให้รอด": 2857,
      "ประกาศดังนั้น": 2858,
      "ตะโกน": 2859,
      "เศษ": 2860,
      "แด่พระเจ้า": 2861,
      "สรรเสริญองค์พระผู้เป็นเจ้า": 2862,
      "เขตแดน": 2863,
      "มหาปุโรหิต": 2864,
      "กางเขน": 2865,
      "คู": 2866,
      "ซ่อม": 2867,
      "ถ่อม": 2868,
      "รุก": 2869,
      "ี๋ย": 2870,
      "ที่ไม่": 2871,
      "ือร": 2872,
      "ในทาง": 2873,
      "คนทั้งปวง": 2874,
      "ความหวัง": 2875,
      "กับพวก": 2876,
      "กับพวกเขา": 2877,
      "อาล": 2878,
      "เดี๋ย": 2879,
      "ต่อต้าน": 2880,
      "คือผู้ที่": 2881,
      "กันและ": 2882,
      "ของเขาและ": 2883,
      "ดูหมิ่น": 2884,
      "ประที": 2885,
      "ภาษ": 2886,
      "ปล่อยให้": 2887,
      "มองเห็น": 2888,
      "รัชกาลกษัตริย์": 2889,
      "กอบกู้": 2890,
      "อนุญาต": 2891,
      "หลอกลวง": 2892,
      "ฮาดัด": 2893,
      "เดี๋ยว": 2894,
      "ดอก": 2895,
      "ถ้วน": 2896,
      "ทลาย": 2897,
      "ธุ": 2898,
      "ผึ้ง": 2899,
      "ยัน": 2900,
      "ยาน": 2901,
      "รอย": 2902,
      "วบ": 2903,
      "ส์": 2904,
      "ของเธอ": 2905,
      "เขาได้": 2906,
      "เราก็จะ": 2907,
      "ให้พ้น": 2908,
      "ตรว": 2909,
      "ไม่เห็น": 2910,
      "นั้นว่า": 2911,
      "ก็ตาม": 2912,
      "เรโห": 2913,
      "จงให้": 2914,
      "ด้วยน้ำ": 2915,
      "วันนั้น": 2916,
      "ออกเดินทาง": 2917,
      "โรด": 2918,
      "โมท": 2919,
      "เตลิด": 2920,
      "ต่อหน้าพระองค์": 2921,
      "จะไม่ทรง": 2922,
      "ตลอดจน": 2923,
      "ซีโมน": 2924,
      "เนื่องด้วย": 2925,
      "อาณาจักรของพระเจ้า": 2926,
      "ยากไร้": 2927,
      "โซโลมอนทรง": 2928,
      "ทอดทิ้ง": 2929,
      "องค์พระผู้เป็นเจ้าประกาศว่า": 2930,
      "เป็นเครื่องบูชาไถ่บาป": 2931,
      "ชัยชนะ": 2932,
      "ในสายพระเนตรขององค์พระผู้เป็นเจ้า": 2933,
      "ถอย": 2934,
      "หัส": 2935,
      "โบร": 2936,
      "ว่าท่าน": 2937,
      "มาเถิด": 2938,
      "แต่พวกเขา": 2939,
      "ซึ่งเรา": 2940,
      "ไว้และ": 2941,
      "โล่": 2942,
      "ตัวและ": 2943,
      "ชายคนหนึ่ง": 2944,
      "อีกเลย": 2945,
      "ที่น่า": 2946,
      "ปีติ": 2947,
      "เฮโบร": 2948,
      "ผ่านไป": 2949,
      "หัวหน้าปุโรหิต": 2950,
      "ข้าราชการ": 2951,
      "เราบอกความจริง": 2952,
      "ต้อนรับ": 2953,
      "เหวี่ยง": 2954,
      "ปรักหักพัง": 2955,
      "กดขี่ข่มเหง": 2956,
      "ประทีป": 2957,
      "ตรวจ": 2958,
      "เฮโบรน": 2959,
      "นี": 2960,
      "ผน": 2961,
      "ม่าย": 2962,
      "เป็นขึ้นจากตาย": 2963,
      "วก็": 2964,
      "ไม่ทรง": 2965,
      "จากพระเจ้า": 2966,
      "เยรี": 2967,
      "ต่อพระองค์": 2968,
      "เราจะให้": 2969,
      "เคม": 2970,
      "ทูลขอ": 2971,
      "โค่น": 2972,
      "ปราศ": 2973,
      "พระนามของ": 2974,
      "แน่ฉันใด": 2975,
      "มะกอก": 2976,
      "ซึ่งมีบุตรคือ": 2977,
      "พืชผล": 2978,
      "ปรึกษา": 2979,
      "เอเลอาซาร์": 2980,
      "คดี": 2981,
      "จุ": 2982,
      "ตาน": 2983,
      "นอง": 2984,
      "นิ่ง": 2985,
      "มง": 2986,
      "อาน": 2987,
      "๊ก": 2988,
      "ของพวกท่าน": 2989,
      "ที่ทำ": 2990,
      "จะให้": 2991,
      "เราไม่ได้": 2992,
      "จากองค์พระผู้เป็นเจ้า": 2993,
      "นั้นมี": 2994,
      "ทำนาย": 2995,
      "ขึ้นเป็นกษัตริย์": 2996,
      "กำจัด": 2997,
      "กลับใจ": 2998,
      "โทสะ": 2999,
      "พร้อมด้วย": 3000,
      "เผาเครื่องหอม": 3001,
      "ซีดาร์": 3002,
      "โสเภ": 3003,
      "เบธเอล": 3004,
      "ขุนนาง": 3005,
      "ผนัง": 3006,
      "รวย": 3007,
      "ล่อ": 3008,
      "หอก": 3009,
      "หิว": 3010,
      "ของพระคริสต์": 3011,
      "และพวกเขา": 3012,
      "ในพระองค์": 3013,
      "หนาม": 3014,
      "ก็ถูก": 3015,
      "ทำตามที่": 3016,
      "กับท่าน": 3017,
      "หม่อม": 3018,
      "เวณ": 3019,
      "แก่เขา": 3020,
      "บรรดาก": 3021,
      "พระองค์ทรงนำ": 3022,
      "ื้อน": 3023,
      "งานเลี้ยง": 3024,
      "สมควร": 3025,
      "มอบหมาย": 3026,
      "สนซีดาร์": 3027,
      "หุ้ม": 3028,
      "ท้องฟ้า": 3029,
      "บริเวณ": 3030,
      "ประพฤติ": 3031,
      "ความรักมั่นคงของพระองค์": 3032,
      "ื้อมมือ": 3033,
      "แนะนำ": 3034,
      "โสเภณี": 3035,
      "คราว": 3036,
      "ถัด": 3037,
      "รำ": 3038,
      "รเสียง": 3039,
      "พระสุ": 3040,
      "ที่สอง": 3041,
      "เป็นกรรมสิทธิ์": 3042,
      "มาเพื่อ": 3043,
      "ไม่รู้จัก": 3044,
      "ท่านจึง": 3045,
      "เมน": 3046,
      "มีใคร": 3047,
      "ชาวก": 3048,
      "เลบาน": 3049,
      "แล้วและ": 3050,
      "เดื่อ": 3051,
      "เดคียาห์": 3052,
      "เพื่อท่าน": 3053,
      "ของเจ้าและ": 3054,
      "เค็ญ": 3055,
      "พระเยซูตรัสว่า": 3056,
      "โมเสสจึง": 3057,
      "ของตนเอง": 3058,
      "ถ้าท่าน": 3059,
      "หวั่น": 3060,
      "เศเดคียาห์": 3061,
      "ประชาชาติทั้งหลาย": 3062,
      "ปัสกา": 3063,
      "จัน": 3064,
      "ทราย": 3065,
      "วี": 3066,
      "ิลี": 3067,
      "ีร์": 3068,
      "โคร": 3069,
      "และจาก": 3070,
      "เขาไป": 3071,
      "คนอื่น": 3072,
      "มีแต่": 3073,
      "นั้นและ": 3074,
      "ทุกชั่วอายุ": 3075,
      "อดสู": 3076,
      "สำนึก": 3077,
      "ราชโอรส": 3078,
      "พันธสัญญ": 3079,
      "ภาชนะ": 3080,
      "สัตว์ป่า": 3081,
      "เพียงแต่": 3082,
      "อุโมง": 3083,
      "ข้าวของ": 3084,
      "ลำเค็ญ": 3085,
      "กฎเกณฑ์": 3086,
      "ลบบาป": 3087,
      "เที่ยงธรรม": 3088,
      "ทุบ": 3089,
      "ระยะ": 3090,
      "บรรดากษัตริย์": 3091,
      "พระสุรเสียง": 3092,
      "อุโมงค์": 3093,
      "ข้": 3094,
      "คิม": 3095,
      "ถา": 3096,
      "สึก": 3097,
      "เขาต้อง": 3098,
      "ให้ข้าพเจ้า": 3099,
      "คนทั้งปวงที่": 3100,
      "พวกเขาให้": 3101,
      "ด้วยเหตุนี้": 3102,
      "หม้อ": 3103,
      "ไว้สำหรับ": 3104,
      "นำตัว": 3105,
      "กระสอบ": 3106,
      "ตั้งใจ": 3107,
      "นางก็": 3108,
      "มากกว่า": 3109,
      "ธรรมศา": 3110,
      "น้องสาว": 3111,
      "ปรี": 3112,
      "สะท": 3113,
      "ฉะนั้นจง": 3114,
      "ภาระ": 3115,
      "ทิ้งร้าง": 3116,
      "เงินและ": 3117,
      "อยู่ที่ไหน": 3118,
      "สู้รบกับ": 3119,
      "พอใจ": 3120,
      "ขายหน้า": 3121,
      "ลับไป": 3122,
      "พระนิเวศของพระเจ้า": 3123,
      "บิดามาร": 3124,
      "เลบานอน": 3125,
      "ชิต": 3126,
      "ทราม": 3127,
      "สลาก": 3128,
      "ไกร": 3129,
      "เจ้าได้": 3130,
      "พระองค์เอง": 3131,
      "คนของพระเจ้า": 3132,
      "คนโง่": 3133,
      "ความช่วยเหลือ": 3134,
      "อยู่ท่ามกลาง": 3135,
      "เชบา": 3136,
      "เกาะ": 3137,
      "ถูกทำลาย": 3138,
      "อีกว่า": 3139,
      "เถา": 3140,
      "อันยิ่งใหญ่": 3141,
      "พิชิต": 3142,
      "สามวัน": 3143,
      "มะเดื่อ": 3144,
      "ฝีปาก": 3145,
      "รังเกียจ": 3146,
      "เวลานั้น": 3147,
      "ขออย่าทรง": 3148,
      "หม่อมฉัน": 3149,
      "คั่ง": 3150,
      "ทาน": 3151,
      "ปลา": 3152,
      "ปวด": 3153,
      "รก": 3154,
      "แสน": 3155,
      "เป็นเครื่อง": 3156,
      "ในปีที่": 3157,
      "ทรงสร้าง": 3158,
      "ท่านและ": 3159,
      "ทำชั่ว": 3160,
      "สิทธิ": 3161,
      "าห์และ": 3162,
      "เกียง": 3163,
      "ถึงเวลา": 3164,
      "ลงมาจาก": 3165,
      "เงื้อมมือ": 3166,
      "ตะเกียง": 3167,
      "วางใจใน": 3168,
      "โต้": 3169,
      "เลี้ยงดู": 3170,
      "นอนกับ": 3171,
      "บาลาอัม": 3172,
      "เป่าแตร": 3173,
      "ปีติยินดี": 3174,
      "คาย": 3175,
      "งู": 3176,
      "บด": 3177,
      "มัสการ": 3178,
      "รเดค": 3179,
      "ล่าง": 3180,
      "สุก": 3181,
      "อ้อน": 3182,
      "อานา": 3183,
      "เราเอง": 3184,
      "พระองค์ก็": 3185,
      "มาที่": 3186,
      "เออร์": 3187,
      "กลิ่น": 3188,
      "ความเข้าใจ": 3189,
      "แต่ไม่": 3190,
      "แต่บัดนี้": 3191,
      "เสวย": 3192,
      "แล้วเราจะ": 3193,
      "นี้และ": 3194,
      "การกันดารอาหาร": 3195,
      "พระเจ้าและ": 3196,
      "เยี่ยม": 3197,
      "เพื่อจะ": 3198,
      "โมรเดค": 3199,
      "ของเขาจะ": 3200,
      "กระหาย": 3201,
      "โดยทาง": 3202,
      "กลับไปยัง": 3203,
      "ไม้เท้า": 3204,
      "ปกคลุม": 3205,
      "มารีย์": 3206,
      "ใส่เชื้อ": 3207,
      "กุฎ": 3208,
      "มีเดียน": 3209,
      "สถานบูชาบนที่สูง": 3210,
      "พี่น้องร่วมชาติ": 3211,
      "โมรเดคัย": 3212,
      "กรร": 3213,
      "ซัด": 3214,
      "ทิม": 3215,
      "ธัน": 3216,
      "ธรร": 3217,
      "พัด": 3218,
      "ลวง": 3219,
      "วะ": 3220,
      "แอก": 3221,
      "เจ้าของ": 3222,
      "ในใจ": 3223,
      "ในรัชกาล": 3224,
      "ในฐานะ": 3225,
      "คนต่างด้าว": 3226,
      "มาจารย์": 3227,
      "เหมา": 3228,
      "เหี่ยว": 3229,
      "ไปเถิด": 3230,
      "เพศ": 3231,
      "เอียด": 3232,
      "ความรู้": 3233,
      "เชิด": 3234,
      "เชเคม": 3235,
      "เพราะองค์พระผู้เป็นเจ้าทรง": 3236,
      "เมื่อพระองค์ทรง": 3237,
      "มันจะ": 3238,
      "ดินแดนซึ่ง": 3239,
      "ปีลา": 3240,
      "ตอบแทน": 3241,
      "สะด": 3242,
      "อัช": 3243,
      "พระยาห์เวห์พระเจ้าของเรา": 3244,
      "วางแผน": 3245,
      "ออกไปจาก": 3246,
      "ภูมิ": 3247,
      "บุตรชายของ": 3248,
      "วัวหนุ่ม": 3249,
      "ถิ่นฐาน": 3250,
      "ยึดครอง": 3251,
      "ครอบครัวของ": 3252,
      "ขัดสน": 3253,
      "สันติบูชา": 3254,
      "ถูกล": 3255,
      "ธรรมาจารย์": 3256,
      "ลาง": 3257,
      "สาน": 3258,
      "ที่จริง": 3259,
      "เป็นเครื่องเผาบูชา": 3260,
      "าก็": 3261,
      "ในสวรรค์": 3262,
      "ท่านได้": 3263,
      "ทำร้าย": 3264,
      "การอัศจรรย์": 3265,
      "แกร": 3266,
      "ไว้บน": 3267,
      "หรอก": 3268,
      "เราจะส่ง": 3269,
      "กษัตริย์อิสราเอล": 3270,
      "หมดสิ้น": 3271,
      "ร้องว่า": 3272,
      "เซีย": 3273,
      "ผลิต": 3274,
      "วาระ": 3275,
      "เฮโรด": 3276,
      "จริงๆ": 3277,
      "นามของเรา": 3278,
      "ทันใด": 3279,
      "ริมฝีปาก": 3280,
      "ขาว": 3281,
      "พรมแดน": 3282,
      "แสงสว่าง": 3283,
      "ญาติพี่น้อง": 3284,
      "เยาะเย้ย": 3285,
      "ปราศจาก": 3286,
      "มงกุฎ": 3287,
      "เหมาะ": 3288,
      "ดาม": 3289,
      "ทธ": 3290,
      "นวด": 3291,
      "พรุ่ง": 3292,
      "ยั": 3293,
      "ริน": 3294,
      "ล้น": 3295,
      "หาน": 3296,
      "พระสัญญา": 3297,
      "และคำ": 3298,
      "ผู้บัญชาการ": 3299,
      "ในกรุงเยรูซาเล็ม": 3300,
      "มาอา": 3301,
      "ทรงเป็น": 3302,
      "หนทาง": 3303,
      "เอ่ย": 3304,
      "ประหล": 3305,
      "ทำเช่นนี้": 3306,
      "ทำเช่นนั้น": 3307,
      "เลข": 3308,
      "นี้คือ": 3309,
      "เดโอน": 3310,
      "เมื่อใด": 3311,
      "วันสะบาโต": 3312,
      "สิ่งมีชีวิต": 3313,
      "ต้องตาย": 3314,
      "ชายหญิง": 3315,
      "อีกคนหนึ่ง": 3316,
      "กล่าวถึง": 3317,
      "มาก็": 3318,
      "พูดกันว่า": 3319,
      "หญิงม่าย": 3320,
      "สุดท้าย": 3321,
      "ไม้กางเขน": 3322,
      "นี่แหละ": 3323,
      "เธอร์": 3324,
      "แก่ท่านว่า": 3325,
      "ขยี้": 3326,
      "ก้อนหิน": 3327,
      "พระเยซูตรัสตอบว่า": 3328,
      "ความสุขมี": 3329,
      "สะดุด": 3330,
      "แกร่ง": 3331,
      "ประหลาด": 3332,
      "จาน": 3333,
      "ตราย": 3334,
      "ย้าย": 3335,
      "ลอย": 3336,
      "ของเหล่า": 3337,
      "เขล": 3338,
      "และตั้ง": 3339,
      "ในแผ่นดิน": 3340,
      "ให้กำเนิด": 3341,
      "ตรึง": 3342,
      "ไปพบ": 3343,
      "จากฟ้าสวรรค์": 3344,
      "ความฝัน": 3345,
      "อยู่แล้ว": 3346,
      "เชเขล": 3347,
      "บาอัล": 3348,
      "ทุกชนิด": 3349,
      "เพื่อเราจะ": 3350,
      "แก่ข้าพเจ้า": 3351,
      "อดทน": 3352,
      "กษัตริย์ทรง": 3353,
      "ของเขาก็": 3354,
      "กิเดโอน": 3355,
      "กาลิลี": 3356,
      "อุป": 3357,
      "ครัวเรือน": 3358,
      "อายุหนึ่ง": 3359,
      "ทนทุกข์": 3360,
      "กราบทูล": 3361,
      "ทรัพย์สิน": 3362,
      "อาบีเมเลค": 3363,
      "อย่ากลัวเลย": 3364,
      "ธรรมศาลา": 3365,
      "บิดามารดา": 3366,
      "อ้อนวอน": 3367,
      "ซ้าย": 3368,
      "ทธาน": 3369,
      "บัส": 3370,
      "ฤทธาน": 3371,
      "ห่ม": 3372,
      "ของพวก": 3373,
      "เจ้าจะไม่": 3374,
      "องค์หนึ่ง": 3375,
      "เขาจะไม่": 3376,
      "ในอียิปต์": 3377,
      "คนทั้งหลาย": 3378,
      "ได้ว่า": 3379,
      "ท่านจง": 3380,
      "อยู่ข้าง": 3381,
      "กำชับ": 3382,
      "วิธี": 3383,
      "คำอธิษฐาน": 3384,
      "บนแท่นบูชา": 3385,
      "ยังมี": 3386,
      "พระองค์ทรงเป็น": 3387,
      "รักษ": 3388,
      "น้ำพ": 3389,
      "ละเอียด": 3390,
      "ตกใจ": 3391,
      "สัตว์ที่": 3392,
      "สัตว์ร้าย": 3393,
      "เปล่ง": 3394,
      "ของคนชั่ว": 3395,
      "แต่งกาย": 3396,
      "ดื่มบูชา": 3397,
      "โนน": 3398,
      "ล้มตาย": 3399,
      "ศาล": 3400,
      "เฉล": 3401,
      "เปรียบ": 3402,
      "ไทระ": 3403,
      "สลัก": 3404,
      "ปีลาต": 3405,
      "ฤทธานุภาพ": 3406,
      "กัส": 3407,
      "ชรา": 3408,
      "ธาม": 3409,
      "ลั่น": 3410,
      "ราคา": 3411,
      "และไม่ได้": 3412,
      "ผู้มี": 3413,
      "ไปเป็นเชลย": 3414,
      "อาจารย์": 3415,
      "อยู่ใต้": 3416,
      "แล้วเขาก็": 3417,
      "ทุกแห่ง": 3418,
      "ต่อพระเจ้า": 3419,
      "สิ่งดี": 3420,
      "ริ้ว": 3421,
      "อดอาหาร": 3422,
      "เบด": 3423,
      "ถวายเครื่องเผาบูชา": 3424,
      "สองตัว": 3425,
      "กำลังใจ": 3426,
      "คล้าย": 3427,
      "หญิงนั้น": 3428,
      "เสียงดัง": 3429,
      "สั่งว่า": 3430,
      "หยัน": 3431,
      "เขาจะต้อง": 3432,
      "ติดกับ": 3433,
      "รายชื่อ": 3434,
      "ชนชาติทั้งหลาย": 3435,
      "หลังจากที่": 3436,
      "อ่อนแอ": 3437,
      "ลบหล": 3438,
      "ต่อสู้กับ": 3439,
      "รอคอย": 3440,
      "หวาดกลัว": 3441,
      "ควบคู่": 3442,
      "อากาศ": 3443,
      "มั่งคั่ง": 3444,
      "ธุลี": 3445,
      "เรโหโบอัม": 3446,
      "เราบอกความจริงแก่ท่านว่า": 3447,
      "50": 3448,
      "ถ้ำ": 3449,
      "พิส": 3450,
      "ยั้ง": 3451,
      "ล้อ": 3452,
      "โคน": 3453,
      "ไต": 3454,
      "่ะ": 3455,
      "ของยูดาห์": 3456,
      "เข่น": 3457,
      "และพระ": 3458,
      "และตรัสว่า": 3459,
      "จะนำ": 3460,
      "ไม่รู้ว่า": 3461,
      "กลา": 3462,
      "ก็ตามที่": 3463,
      "พวกเขาเป็น": 3464,
      "พวกเขาได้": 3465,
      "หลบ": 3466,
      "ิตไท": 3467,
      "เอลบุตร": 3468,
      "เพราะข้าพระองค์": 3469,
      "เกอร์": 3470,
      "บาชาน": 3471,
      "รุ่น": 3472,
      "น้ำผึ้ง": 3473,
      "อับราม": 3474,
      "ตกเป็นเชลย": 3475,
      "ภาค": 3476,
      "ตามที่ทรง": 3477,
      "ตามที่องค์พระผู้เป็นเจ้าทรงบัญชา": 3478,
      "แม้ว่า": 3479,
      "สุนั": 3480,
      "เฮม": 3481,
      "ผู้รับใช้ของท่าน": 3482,
      "มิตร": 3483,
      "บรรดาผู้นำ": 3484,
      "เหยื่อ": 3485,
      "หีบพันธสัญญาขององค์พระผู้เป็นเจ้า": 3486,
      "เย้ยหยัน": 3487,
      "อูฐ": 3488,
      "เยรีโค": 3489,
      "เข่นฆ่า": 3490,
      "ิตไทต์": 3491,
      "สุนัข": 3492,
      "ซ้ำ": 3493,
      "ด่า": 3494,
      "โอบ": 3495,
      "โบน": 3496,
      "ที่ว่า": 3497,
      "ไม่อ": 3498,
      "ในบ้าน": 3499,
      "เพิ่ง": 3500,
      "เอน": 3501,
      "เอโฟ": 3502,
      "ัสกัส": 3503,
      "ไว้ให้": 3504,
      "บุตรหัวปี": 3505,
      "แห่งชีวิต": 3506,
      "ลาบัน": 3507,
      "คำพูด": 3508,
      "ชาวคานาอัน": 3509,
      "่อยู่": 3510,
      "ตกอยู่ใน": 3511,
      "ในวันสะบาโต": 3512,
      "ถ้าผู้ใด": 3513,
      "ไปยังเมือง": 3514,
      "สรรพ": 3515,
      "เศบ": 3516,
      "เศคาร": 3517,
      "หายไป": 3518,
      "กองทหาร": 3519,
      "ก่อนที่": 3520,
      "สถานที่": 3521,
      "แข็งแกร่ง": 3522,
      "ชิเม": 3523,
      "โอรสของ": 3524,
      "พระยาห์เวห์องค์เจ้าชีวิตประกาศดังนั้น": 3525,
      "ตะวันออกของ": 3526,
      "หนังสือม้วน": 3527,
      "ทำสิ่งที่ถูกต้อง": 3528,
      "คมดาบ": 3529,
      "ไหว้": 3530,
      "หลุมฝังศพ": 3531,
      "ทดสอบ": 3532,
      "สะท้าน": 3533,
      "เชิดชู": 3534,
      "ดามัสกัส": 3535,
      "พรุ่งนี้": 3536,
      "เศคาริยาห์": 3537,
      "ขบ": 3538,
      "ดึง": 3539,
      "ดื้อ": 3540,
      "ตาก": 3541,
      "ปั้น": 3542,
      "มิส": 3543,
      "หอ": 3544,
      "อ่าง": 3545,
      "อวด": 3546,
      "ฮี": 3547,
      "ูจน์": 3548,
      "ที่เกิด": 3549,
      "จะได้รับการ": 3550,
      "เอก": 3551,
      "กลืน": 3552,
      "แต่เขา": 3553,
      "องค์พระผู้เป็นเจ้าได้": 3554,
      "อยู่ใกล้": 3555,
      "พระเจ้าแห่งอิสราเอล": 3556,
      "ซึ่งจะ": 3557,
      "เก้า": 3558,
      "บาล": 3559,
      "จึงตรัสกับ": 3560,
      "อย่างที่": 3561,
      "ถูกฆ่า": 3562,
      "ชีพ": 3563,
      "โดยมี": 3564,
      "รู้สึก": 3565,
      "ทำให้เขา": 3566,
      "กล่าวโทษ": 3567,
      "ิ่งกว่า": 3568,
      "พระเยซูตรัสกับ": 3569,
      "พระเยซูเสด็จ": 3570,
      "เงา": 3571,
      "เอาชีวิต": 3572,
      "อื่นใด": 3573,
      "ยืนยัน": 3574,
      "ส่อง": 3575,
      "เพียงใด": 3576,
      "รอดชีวิต": 3577,
      "ทั่วโลก": 3578,
      "ควรจะ": 3579,
      "จารี": 3580,
      "พระยาห์เวห์พระเจ้าของท่านทรง": 3581,
      "คีช": 3582,
      "ขวบ": 3583,
      "ขว้าง": 3584,
      "ชั้นใน": 3585,
      "ยิ่งกว่านั้น": 3586,
      "แผนการ": 3587,
      "อับอายขายหน้า": 3588,
      "เจริญรุ่งเรือง": 3589,
      "ตราบจน": 3590,
      "ขึ้นครองราชย์แทน": 3591,
      "เดี๋ยวนี้": 3592,
      "พิสูจน์": 3593,
      "10": 3594,
      "ลือ": 3595,
      "ราด": 3596,
      "และเรา": 3597,
      "หนี้": 3598,
      "เอว": 3599,
      "เอ็น": 3600,
      "มีการ": 3601,
      "ก็ให้": 3602,
      "ด้วยเถิด": 3603,
      "ไว้เพื่อ": 3604,
      "หรือว่า": 3605,
      "เวลาก": 3606,
      "เผื่อ": 3607,
      "โยอาช": 3608,
      "อันบริสุทธิ์": 3609,
      "กล่าวหา": 3610,
      "สามสิบ": 3611,
      "เหน็จ": 3612,
      "หญิงสาว": 3613,
      "จำเป็น": 3614,
      "นิท": 3615,
      "รู้ว่าเราคือพระยาห์เวห์": 3616,
      "สู้รบ": 3617,
      "ข้อความ": 3618,
      "แค่": 3619,
      "ฝีมือ": 3620,
      "เจ็บปวด": 3621,
      "บันทึกไว้ใน": 3622,
      "สดับฟัง": 3623,
      "เดือดร้อน": 3624,
      "บำเหน็จ": 3625,
      "น้ำพุ": 3626,
      "ขัง": 3627,
      "จวบ": 3628,
      "ชี้": 3629,
      "ซิยาห์": 3630,
      "ถอด": 3631,
      "ฟื้น": 3632,
      "ภีร์": 3633,
      "รติส": 3634,
      "ลักษ": 3635,
      "อัย": 3636,
      "ิ้ง": 3637,
      "และอา": 3638,
      "เรามี": 3639,
      "พระองค์ก็ทรง": 3640,
      "ในพวกท่าน": 3641,
      "มาด้วย": 3642,
      "มาชุมนุมกัน": 3643,
      "เมโอน": 3644,
      "แต่ผู้ที่": 3645,
      "กับพื้น": 3646,
      "รับการ": 3647,
      "เริง": 3648,
      "เพราะความ": 3649,
      "เพราะข้าพเจ้า": 3650,
      "ด้วยทองคำ": 3651,
      "ชนชา": 3652,
      "จนกระทั่ง": 3653,
      "บน้ำ": 3654,
      "เรียกว่า": 3655,
      "คลน": 3656,
      "อับเนอร์": 3657,
      "กลางวัน": 3658,
      "กรุงนี้": 3659,
      "หนีจาก": 3660,
      "เฟรติส": 3661,
      "บรรดาผู้อาวุโส": 3662,
      "ยูเฟรติส": 3663,
      "คัมภีร์": 3664,
      "อัปยศอดสู": 3665,
      "กั้น": 3666,
      "ค้ำ": 3667,
      "ฉา": 3668,
      "ฝุ่น": 3669,
      "ฟืน": 3670,
      "ม่วง": 3671,
      "รื้อ": 3672,
      "รียาห์": 3673,
      "แหน": 3674,
      "ใส": 3675,
      "พระคัมภีร์": 3676,
      "ของผู้ที่": 3677,
      "ของพ่อ": 3678,
      "ของฟาโรห์": 3679,
      "และตาม": 3680,
      "องค์ผู้": 3681,
      "ได้ชื่อว่า": 3682,
      "ประเว": 3683,
      "ประดับ": 3684,
      "แต่ทรง": 3685,
      "เริศ": 3686,
      "หมจารี": 3687,
      "อิสยาห์": 3688,
      "กษัตริย์และ": 3689,
      "กษัตริย์เนบูคัดเนสซาร์": 3690,
      "โดน": 3691,
      "นางจึง": 3692,
      "พรหมจารี": 3693,
      "ตายไป": 3694,
      "แนว": 3695,
      "กินเนื้อ": 3696,
      "ผู้รับใช้ของเรา": 3697,
      "ภายหลัง": 3698,
      "ฮาท": 3699,
      "ข้ามแม่น้ำจอร์แดน": 3700,
      "เปิดเผย": 3701,
      "สูญสิ้น": 3702,
      "ปลดปล่อย": 3703,
      "เถาองุ่น": 3704,
      "ลบหลู่": 3705,
      "จวบจน": 3706,
      "ประเวณี": 3707,
      "เริศร้าง": 3708,
      "ดอน": 3709,
      "ผย": 3710,
      "พ่าย": 3711,
      "สภาพ": 3712,
      "ที่องค์พระผู้เป็นเจ้าทรง": 3713,
      "และอย่า": 3714,
      "องค์บริสุทธิ์": 3715,
      "เราไม่": 3716,
      "คนเลี้ยงแกะ": 3717,
      "ท่านเป็น": 3718,
      "เอเซอร์": 3719,
      "มีผู้": 3720,
      "ทั้งเจ็ด": 3721,
      "แต่เจ้า": 3722,
      "แต่ไม่ได้": 3723,
      "แล้วเจ้าจะ": 3724,
      "เรื่อย": 3725,
      "ขึ้นและ": 3726,
      "โลท": 3727,
      "พระองค์ทรงทำให้": 3728,
      "ซาตาน": 3729,
      "โดยไม่มี": 3730,
      "กลับคืน": 3731,
      "สิ่งที่เขา": 3732,
      "ประชากรของพระเจ้า": 3733,
      "ใหญ่หลวง": 3734,
      "ฐานราก": 3735,
      "สัญญาไว้": 3736,
      "เสริม": 3737,
      "มารับ": 3738,
      "จับกุม": 3739,
      "ดื่มน้ำ": 3740,
      "เนื้อดี": 3741,
      "เกรงกลัว": 3742,
      "เขียนไว้ว่า": 3743,
      "ล่วงหน้า": 3744,
      "แช่งด่า": 3745,
      "โง่เขลา": 3746,
      "ตั๊ก": 3747,
      "ปฏิบัติหน้าที่": 3748,
      "อีร์": 3749,
      "ทารก": 3750,
      "หมอบกราบ": 3751,
      "มุข": 3752,
      "เหยียบย่ำ": 3753,
      "ผยอง": 3754,
      "ตั๊กแต": 3755,
      "ขุด": 3756,
      "ซบ": 3757,
      "ถาน": 3758,
      "ปาห์": 3759,
      "มัก": 3760,
      "อำ": 3761,
      "ระบาด": 3762,
      "ระบาย": 3763,
      "ของบิดา": 3764,
      "แลก": 3765,
      "จะมาถึง": 3766,
      "พระองค์เจ้าข้า": 3767,
      "ไปจนถึง": 3768,
      "พวกหัวหน้าปุโรหิต": 3769,
      "ท่านเอง": 3770,
      "ก็เหมือน": 3771,
      "ทำสิ่ง": 3772,
      "ิสราเอล": 3773,
      "หล่อ": 3774,
      "ข้าพเจ้าขอ": 3775,
      "เมื่อถึง": 3776,
      "อิสราเอลทั้งปวง": 3777,
      "เครื่องใช้": 3778,
      "ไม่มีวัน": 3779,
      "หาญ": 3780,
      "โดยความเชื่อ": 3781,
      "นางว่า": 3782,
      "ดูว่า": 3783,
      "แทบ": 3784,
      "แขวน": 3785,
      "กลางคืน": 3786,
      "ทูตขององค์พระผู้เป็นเจ้า": 3787,
      "เป็นผู้นำ": 3788,
      "หันเห": 3789,
      "ฝ่าพระบาททรง": 3790,
      "ค่ายพัก": 3791,
      "สัตย์ซื่อ": 3792,
      "ศาโด": 3793,
      "อยู่อย่าง": 3794,
      "หลับนอนกับ": 3795,
      "อีกครั้งหนึ่ง": 3796,
      "ควบคุม": 3797,
      "ฮามาน": 3798,
      "อิชมา": 3799,
      "องค์พระเยซูคริสต์": 3800,
      "คด": 3801,
      "คะ": 3802,
      "ชด": 3803,
      "ซิ": 3804,
      "ซุ่ม": 3805,
      "ฟทา": 3806,
      "ย่าง": 3807,
      "อาม": 3808,
      "ิ้ว": 3809,
      "ของศัตรู": 3810,
      "ของพวกเจ้า": 3811,
      "เจ้าจึง": 3812,
      "ที่พระองค์ทรง": 3813,
      "องค์ทรงฤทธิ์": 3814,
      "จะเห็น": 3815,
      "ในองค์พระผู้เป็นเจ้า": 3816,
      "ให้กับ": 3817,
      "ไม่เชื่อ": 3818,
      "ไม่ใส่เชื้อ": 3819,
      "จากไป": 3820,
      "แต่อ": 3821,
      "องค์พระผู้เป็นเจ้าตรัสดังนี้ว่า": 3822,
      "อาเมน": 3823,
      "ิสถาน": 3824,
      "ไว้ชีวิต": 3825,
      "ไว้ทุกข์": 3826,
      "ตามความ": 3827,
      "สิ่งเหล่านั้น": 3828,
      "อย่างหนัก": 3829,
      "แห่งบาบิโลน": 3830,
      "นำหน้า": 3831,
      "ทางเหนือ": 3832,
      "โดด": 3833,
      "รุด": 3834,
      "ชาวอัมโมน": 3835,
      "สาส์": 3836,
      "ตั้งชื่อ": 3837,
      "พร่": 3838,
      "เตียง": 3839,
      "พิษ": 3840,
      "โลกรัม": 3841,
      "กิโลกรัม": 3842,
      "จัดเตรียม": 3843,
      "มาร่วม": 3844,
      "บรรพบุรุษของเรา": 3845,
      "ออกจากอียิปต์": 3846,
      "ทีเดียว": 3847,
      "เข้ามาใน": 3848,
      "สีน้ำ": 3849,
      "บุตรมนุษย์เอ๋ยจง": 3850,
      "เส้นทาง": 3851,
      "ซ่อมแซม": 3852,
      "อายุหนึ่งขวบ": 3853,
      "ตั๊กแตน": 3854,
      "ศาโดก": 3855,
      "ก้าว": 3856,
      "ทม": 3857,
      "ทอ": 3858,
      "บิน": 3859,
      "ปัก": 3860,
      "อภ": 3861,
      "ื้อย": 3862,
      "ของโมเสส": 3863,
      "ของพระวิหาร": 3864,
      "ราวกับ": 3865,
      "ที่ประทับ": 3866,
      "และประทาน": 3867,
      "เขามี": 3868,
      "จะทำ": 3869,
      "ผู้ปกครอง": 3870,
      "เพล": 3871,
      "กลูก": 3872,
      "ก็ไม่ได้": 3873,
      "ความเมตตา": 3874,
      "สิเมโอน": 3875,
      "องค์พระผู้เป็นเจ้าประทาน": 3876,
      "แล้วว่า": 3877,
      "จงถวาย": 3878,
      "เก่า": 3879,
      "ตามตระกูล": 3880,
      "แก่พวกเขา": 3881,
      "วันหนึ่ง": 3882,
      "เนียม": 3883,
      "้ำมัน": 3884,
      "คำปฏิญาณ": 3885,
      "นาธัน": 3886,
      "ไม่มีสัก": 3887,
      "อันตราย": 3888,
      "ใคร่": 3889,
      "ราชวงศ์": 3890,
      "ตายแล้ว": 3891,
      "สิ่งที่เรา": 3892,
      "ธรรมเนียม": 3893,
      "ิสุทธ": 3894,
      "สะสม": 3895,
      "โอ้อ": 3896,
      "หัวเมือง": 3897,
      "หยาม": 3898,
      "เรื่องราว": 3899,
      "ตลอดกาล": 3900,
      "เฮอร์": 3901,
      "เศรุ": 3902,
      "เปลือ": 3903,
      "ซึ่งเป็นบุตรของ": 3904,
      "ดวงดาว": 3905,
      "เต็มไปด้วย": 3906,
      "พระหัตถ์ของพระองค์": 3907,
      "ล่วงประเวณี": 3908,
      "พระยาห์เวห์ผู้ทรงฤทธิ์ตรัสว่า": 3909,
      "เปรม": 3910,
      "ลูกแกะตัวผู้": 3911,
      "เติบ": 3912,
      "ทั้งๆที่": 3913,
      "ควบคู่กับ": 3914,
      "สาส์น": 3915,
      "ิสุทธิสถาน": 3916,
      "จอง": 3917,
      "บ่าว": 3918,
      "ษฎ": 3919,
      "เข่า": 3920,
      "พระองค์ไม่ได้ทรง": 3921,
      "ในพระวิหาร": 3922,
      "จากที่นั่น": 3923,
      "แต่เป็น": 3924,
      "องค์พระผู้เป็นเจ้าได้ทรง": 3925,
      "พระเจ้าผู้ทรง": 3926,
      "จงรัก": 3927,
      "จงระวัง": 3928,
      "เดช": 3929,
      "แก่ผู้": 3930,
      "ตรัสถามว่า": 3931,
      "ลงมือ": 3932,
      "เทียบ": 3933,
      "เผชิ": 3934,
      "ชายหนุ่ม": 3935,
      "เหมือนคน": 3936,
      "ตั้งครรภ์": 3937,
      "ราชอาณาจักร": 3938,
      "มากับ": 3939,
      "บรรดาปุโรหิต": 3940,
      "บร้อย": 3941,
      "อัญ": 3942,
      "มายืน": 3943,
      "หยัด": 3944,
      "เจ้าจะต้อง": 3945,
      "ได้ยินว่า": 3946,
      "รวด": 3947,
      "ยืนหยัด": 3948,
      "แพ้": 3949,
      "ขอให้ท่าน": 3950,
      "แม่น้ำยูเฟรติส": 3951,
      "จารึก": 3952,
      "ลำบาก": 3953,
      "ไร้ค่า": 3954,
      "ล่วงลับไป": 3955,
      "ชาวยูดาห์": 3956,
      "โรคระบาด": 3957,
      "ทำสิ่งที่ชั่ว": 3958,
      "คันประทีป": 3959,
      "หยิบมือ": 3960,
      "อามาเลข": 3961,
      "เกรียง": 3962,
      "ปรีดิ์": 3963,
      "ยั่วย": 3964,
      "ฟทาลี": 3965,
      "โอ้อวด": 3966,
      "เปรมปรีดิ์": 3967,
      "เผชิญ": 3968,
      "กริ้ว": 3969,
      "ขื่น": 3970,
      "ค้น": 3971,
      "จอม": 3972,
      "ฉบ": 3973,
      "ชิด": 3974,
      "ด้าย": 3975,
      "ตราก": 3976,
      "ทวี": 3977,
      "รน": 3978,
      "ล้า": 3979,
      "สื่อ": 3980,
      "สลาย": 3981,
      "อธรรม": 3982,
      "ไส": 3983,
      "พระพร": 3984,
      "ของอับราฮัม": 3985,
      "และเพื่อ": 3986,
      "และบัดนี้": 3987,
      "มาตั้งค่าย": 3988,
      "ไปด้วยความ": 3989,
      "พวกฟาริสี": 3990,
      "เมช": 3991,
      "เลเฮม": 3992,
      "แต่เรา": 3993,
      "แต่คน": 3994,
      "องค์พระผู้เป็นเจ้าว่า": 3995,
      "นี้จะ": 3996,
      "ดาส": 3997,
      "ตามระเบียบ": 3998,
      "ตัวเจ้า": 3999,
      "คำอุป": 4000,
      "ลูกวัว": 4001,
      "อันเป็น": 4002,
      "พิจาร": 4003,
      "เรียบร้อย": 4004,
      "ต่อหน้าเรา": 4005,
      "เอาหิน": 4006,
      "สุดใจ": 4007,
      "เรียกร้อง": 4008,
      "จะเป็นเหมือน": 4009,
      "ข้างหน้า": 4010,
      "กำหนดไว้": 4011,
      "เล็กน้อย": 4012,
      "สงบสุข": 4013,
      "เมล็ดข้าว": 4014,
      "ซาริยาห์": 4015,
      "ตักเตือน": 4016,
      "เอสเธอร์": 4017,
      "ขมขื่น": 4018,
      "เวลากลาง": 4019,
      "เกรียงไกร": 4020,
      "พิจารณา": 4021,
      "คาร์": 4022,
      "บาร์": 4023,
      "ฝา": 4024,
      "มิด": 4025,
      "สซี": 4026,
      "ระด": 4027,
      "ของเมือง": 4028,
      "ที่สาม": 4029,
      "และที่": 4030,
      "และกษัตริย์": 4031,
      "ตรำ": 4032,
      "หนำ": 4033,
      "ควัน": 4034,
      "แต่จะ": 4035,
      "องค์พระผู้เป็นเจ้าจะ": 4036,
      "แล้วข้าพเจ้า": 4037,
      "เชือก": 4038,
      "หมื่น": 4039,
      "ทุกวัน": 4040,
      "เพื่อเขาจะ": 4041,
      "ต่อเรา": 4042,
      "เห็นชอบ": 4043,
      "ชาวอาโมไรต์": 4044,
      "ของท่านและ": 4045,
      "ทูลตอบว่า": 4046,
      "บ้านเรือน": 4047,
      "ตกเป็น": 4048,
      "เป็นผู้รับใช้": 4049,
      "บทบัญญัติของพระองค์": 4050,
      "ชุมชน": 4051,
      "แข็งแรง": 4052,
      "ยุค": 4053,
      "เบธเลเฮม": 4054,
      "กราบไหว้": 4055,
      "ดงาม": 4056,
      "ดำรงนิรันดร์": 4057,
      "ไซดอน": 4058,
      "อาหัสยาห์": 4059,
      "กิเบอาห์": 4060,
      "สิทธิอำนาจ": 4061,
      "ทันใดนั้น": 4062,
      "ลั่นวาจา": 4063,
      "เศบูล": 4064,
      "สีน้ำเงิน": 4065,
      "เติบโต": 4066,
      "ยั่วยุ": 4067,
      "ตรากตรำ": 4068,
      "สื่อสาร": 4069,
      "ขจัด": 4070,
      "คณะ": 4071,
      "ท้อ": 4072,
      "ฟ้อง": 4073,
      "ิรันดร์": 4074,
      "เจสซี": 4075,
      "และเมือง": 4076,
      "และพระองค์ทรง": 4077,
      "และเหล่า": 4078,
      "ับสน": 4079,
      "ผู้เดียว": 4080,
      "มาทูล": 4081,
      "ไปหมด": 4082,
      "เอาน": 4083,
      "จากเรา": 4084,
      "ทำหน้าที่": 4085,
      "ิสเร": 4086,
      "เกต": 4087,
      "เพื่อจะได้": 4088,
      "ถึงสิ่งที่": 4089,
      "ออกรบ": 4090,
      "หนึ่งตัว": 4091,
      "เราจะทำ": 4092,
      "เทียม": 4093,
      "ชายฝั่ง": 4094,
      "โดยอ้าง": 4095,
      "ทำให้เจ้า": 4096,
      "ช่วยข้าพระองค์": 4097,
      "ตุลาก": 4098,
      "โคฮาท": 4099,
      "กิล": 4100,
      "แด่พระองค์": 4101,
      "พักสงบ": 4102,
      "ตรงทางเข้า": 4103,
      "วัวผู้": 4104,
      "ทุ่งนา": 4105,
      "โหด": 4106,
      "ล่วงละเมิด": 4107,
      "พระบิดาของเรา": 4108,
      "กราบทูลว่า": 4109,
      "ขนมปังไม่ใส่เชื้อ": 4110,
      "ฉลองพระองค์": 4111,
      "เล็กๆ": 4112,
      "เกินกว่า": 4113,
      "ผู้หนึ่งตัว": 4114,
      "สถิตกับ": 4115,
      "อามาซิยาห์": 4116,
      "เรียนรู้": 4117,
      "เปี่ยมด้วย": 4118,
      "อุสซ": 4119,
      "อาลัย": 4120,
      "บดขยี้": 4121,
      "เอโฟด": 4122,
      "ขบวน": 4123,
      "ชนชาตินี้": 4124,
      "องค์พระเยซูคริสต์เจ้า": 4125,
      "เศบูลุน": 4126,
      "ิสเรเอล": 4127,
      "ตุลาการ": 4128,
      "จัง": 4129,
      "ชั": 4130,
      "ชั่ง": 4131,
      "ถาง": 4132,
      "บ่า": 4133,
      "บ่น": 4134,
      "พึง": 4135,
      "พุ่ง": 4136,
      "มัว": 4137,
      "หวน": 4138,
      "าส": 4139,
      "เมา": 4140,
      "ราเชล": 4141,
      "ที่ยัง": 4142,
      "และข้าพเจ้า": 4143,
      "และเขาจะ": 4144,
      "จะตาย": 4145,
      "ผู้ว่าการ": 4146,
      "ในความ": 4147,
      "ในทุก": 4148,
      "คนและ": 4149,
      "เหต": 4150,
      "ียร": 4151,
      "ไปมา": 4152,
      "เมรา": 4153,
      "เมีย": 4154,
      "ประพรม": 4155,
      "ประกอบ": 4156,
      "พวกเขาไป": 4157,
      "แล้วพวกเขา": 4158,
      "รับฟัง": 4159,
      "ขึ้นใหม่": 4160,
      "สิ่งต่างๆ": 4161,
      "เข้ากับ": 4162,
      "อย่างยิ่ง": 4163,
      "เราจะลงโทษ": 4164,
      "นาดับ": 4165,
      "ไม่มีผู้ใด": 4166,
      "เตา": 4167,
      "เถิดเพราะ": 4168,
      "ทูลวิงวอน": 4169,
      "บทบัญญั": 4170,
      "ซีส": 4171,
      "ไม่ว่าจะเป็น": 4172,
      "ได้ทำบาป": 4173,
      "โยชูว": 4174,
      "แพะแกะ": 4175,
      "ตำแหน": 4176,
      "สังเกต": 4177,
      "ยูเดีย": 4178,
      "เยโฮยาดา": 4179,
      "ความคิดถึง": 4180,
      "หมิ่นประมาท": 4181,
      "พรรค": 4182,
      "ห่างไกล": 4183,
      "เป็นอันมาก": 4184,
      "อันน่าชิงชัง": 4185,
      "คูช": 4186,
      "ชิเมอี": 4187,
      "ชดใช้": 4188,
      "ใคร่ครวญ": 4189,
      "คำอุปมา": 4190,
      "ตำแหน่ง": 4191,
      "ขาน": 4192,
      "ชู้": 4193,
      "ช่อง": 4194,
      "ผา": 4195,
      "มัท": 4196,
      "ร่ม": 4197,
      "ล่าว": 4198,
      "ศรี": 4199,
      "ของดิฉัน": 4200,
      "ที่อยู่ใน": 4201,
      "และจง": 4202,
      "เปอร์": 4203,
      "เป็นสอง": 4204,
      "ผู้ตาย": 4205,
      "ผู้สื่อสาร": 4206,
      "ในที่สุด": 4207,
      "มาตั้งแต่": 4208,
      "ทรงให้": 4209,
      "ไม่เชื่อฟัง": 4210,
      "หน่ำ": 4211,
      "ทั้งสาม": 4212,
      "ความดี": 4213,
      "เลื้อย": 4214,
      "แต่มี": 4215,
      "เชอร์": 4216,
      "ุกษัตริย์": 4217,
      "บัท": 4218,
      "ทุกประการ": 4219,
      "กษัตริย์อัสซีเรีย": 4220,
      "พระองค์ทรงให้": 4221,
      "อันอุดมสมบูรณ์": 4222,
      "กลับมายัง": 4223,
      "เถิดว่า": 4224,
      "พูดอะไร": 4225,
      "ดาวิดและ": 4226,
      "ละอาย": 4227,
      "ยกให้": 4228,
      "พระวจนะของพระเจ้า": 4229,
      "เหลืออยู่": 4230,
      "ุ่งห่ม": 4231,
      "ด้วยความรัก": 4232,
      "กองกำลัง": 4233,
      "ตระหนัก": 4234,
      "เวลาเย็น": 4235,
      "เปลว": 4236,
      "สนอง": 4237,
      "หันหน้า": 4238,
      "อยู่กับบรรพบุรุษ": 4239,
      "โปรดให้": 4240,
      "โบอา": 4241,
      "ปฏิบัติต่อ": 4242,
      "อิจ": 4243,
      "ศักดิ์ศรี": 4244,
      "ล้วนเป็น": 4245,
      "ยูดาส": 4246,
      "แถว": 4247,
      "บารมี": 4248,
      "เบื้องบน": 4249,
      "กล้าหาญ": 4250,
      "พระนิเวศขององค์พระผู้เป็นเจ้า": 4251,
      "ตินั้น": 4252,
      "ชักนำ": 4253,
      "ค่ำคืน": 4254,
      "จดหมายเหต": 4255,
      "สยอง": 4256,
      "ซากปรักหักพัง": 4257,
      "ใครเล่าจะ": 4258,
      "แย้ง": 4259,
      "ฝากความคิดถึง": 4260,
      "กลิ่นหอม": 4261,
      "หอคอย": 4262,
      "จดหมายเหตุกษัตริย์": 4263,
      "กี่": 4264,
      "ก้อง": 4265,
      "ฆา": 4266,
      "ชามา": 4267,
      "ซัก": 4268,
      "นัล": 4269,
      "พิง": 4270,
      "วิน": 4271,
      "ของโซโลมอน": 4272,
      "พระองค์จะไม่ทรง": 4273,
      "ในอากาศ": 4274,
      "ข้าจะ": 4275,
      "จากมือ": 4276,
      "มีกำลัง": 4277,
      "ิสัย": 4278,
      "พระเจ้าจะทรง": 4279,
      "พระเจ้าได้ทรง": 4280,
      "แก่น": 4281,
      "เพราะเห็นแก่": 4282,
      "ซึ่งอยู่ใน": 4283,
      "เดชาน": 4284,
      "ขึ้นใน": 4285,
      "ขึ้นไปยัง": 4286,
      "อดี": 4287,
      "แห่งฟ้าสวรรค์": 4288,
      "กษัตริย์บาบิโลน": 4289,
      "กำพร": 4290,
      "สาลี": 4291,
      "ไม่มีตำหนิ": 4292,
      "ทำให้พวกเขา": 4293,
      "เบไน": 4294,
      "แผ่": 4295,
      "เชื่อใน": 4296,
      "คลี่": 4297,
      "ใหญ่น": 4298,
      "ต่อหน้าพระเจ้า": 4299,
      "ประกาศข่าวประเสริฐ": 4300,
      "อียิปต์และ": 4301,
      "ไม้สนซีดาร์": 4302,
      "บทเพลง": 4303,
      "วางมือ": 4304,
      "หายใจ": 4305,
      "ถืออดอาหาร": 4306,
      "โซ่": 4307,
      "ดื่มเหล้าองุ่น": 4308,
      "คาบ": 4309,
      "นอกเหนือ": 4310,
      "ฟีลิป": 4311,
      "โอรสของพระองค์": 4312,
      "ดำเนินตาม": 4313,
      "แน่ทีเดียว": 4314,
      "พระบัญชาของพระองค์": 4315,
      "เราบอกท่านว่า": 4316,
      "เซอร์ซีส": 4317,
      "มวลประชาชาติ": 4318,
      "ขอบพระคุณพระเจ้า": 4319,
      "บ่อน้ำ": 4320,
      "กวาดล้าง": 4321,
      "พรรษา": 4322,
      "โอกาส": 4323,
      "ปลอบโยน": 4324,
      "ผ้าลินินเนื้อดี": 4325,
      "ภาษี": 4326,
      "ตามระเบียบพิธี": 4327,
      "เดชานุภาพ": 4328,
      "กำพร้า": 4329,
      "เบไนยาห์": 4330,
      "ดาย": 4331,
      "ดสยอง": 4332,
      "ถุง": 4333,
      "ธาห์": 4334,
      "ปู": 4335,
      "พ้อง": 4336,
      "วุ่น": 4337,
      "ษ์": 4338,
      "สอด": 4339,
      "เซา": 4340,
      "ใภ": 4341,
      "้าม": 4342,
      "ระบุ": 4343,
      "เขาตอบว่า": 4344,
      "ผู้อื่น": 4345,
      "เราะ": 4346,
      "พระองค์จึง": 4347,
      "พระองค์เสด็จ": 4348,
      "ในช่วง": 4349,
      "คนบาป": 4350,
      "พวกพี่น้อง": 4351,
      "เลื่อง": 4352,
      "เลิศ": 4353,
      "เสบ": 4354,
      "เยบุ": 4355,
      "ซึ่งท่าน": 4356,
      "เมื่อทรง": 4357,
      "เมื่อข้าพเจ้า": 4358,
      "เมื่อครั้ง": 4359,
      "จึงไป": 4360,
      "แก่ข้าพระองค์": 4361,
      "ออกและ": 4362,
      "ริยา": 4363,
      "อนิจ": 4364,
      "ลงกับพื้น": 4365,
      "ขอองค์พระผู้เป็นเจ้าทรง": 4366,
      "คำตอบ": 4367,
      "คำสาปแช่ง": 4368,
      "คำแนะนำ": 4369,
      "บนแท่น": 4370,
      "ชายผู้นี้": 4371,
      "แดนเทือกเขา": 4372,
      "สาคาร์": 4373,
      "อีกฟาก": 4374,
      "กลับมาจาก": 4375,
      "ทั้งปวงซึ่ง": 4376,
      "โมเสสกับ": 4377,
      "มายุ": 4378,
      "สิ้นสุด": 4379,
      "หยั่ง": 4380,
      "เวลาที่": 4381,
      "ทูตนั้น": 4382,
      "ตรงข้าม": 4383,
      "วงศ์ตระกูล": 4384,
      "สรรเสริญพระเจ้า": 4385,
      "เข้ามาใกล้": 4386,
      "โสโดม": 4387,
      "บันดาล": 4388,
      "พระพิโรธของพระองค์": 4389,
      "พระชนมายุ": 4390,
      "คีริยา": 4391,
      "ขยาย": 4392,
      "ร่ำรวย": 4393,
      "พืชพันธุ์": 4394,
      "สืบไป": 4395,
      "เหตุการณ์อื่นๆ": 4396,
      "แท้จริง": 4397,
      "สยดสยอง": 4398,
      "ครบถ้วน": 4399,
      "อยู่นั้น": 4400,
      "หยิ่งผยอง": 4401,
      "ห้วงน้ำ": 4402,
      "ก็นำ": 4403,
      "ผิวหนัง": 4404,
      "รุกไล่": 4405,
      "ล่อลวง": 4406,
      "เอ็นดู": 4407,
      "เปลวไฟ": 4408,
      "ฝากความคิดถึงมายัง": 4409,
      "เยบุส": 4410,
      "20": 4411,
      "ข้อง": 4412,
      "งดงาม": 4413,
      "จูง": 4414,
      "ยิสเรเอล": 4415,
      "ศร": 4416,
      "พระศพ": 4417,
      "ที่ติ": 4418,
      "ที่พระเจ้าทรง": 4419,
      "เขย": 4420,
      "และไม่มี": 4421,
      "และยูดาห์": 4422,
      "ในเวลากลาง": 4423,
      "ให้ดี": 4424,
      "ให้นาง": 4425,
      "ไม่ซื่อสัตย์": 4426,
      "เอ็ด": 4427,
      "ทำจาก": 4428,
      "ทำการ": 4429,
      "ความหมาย": 4430,
      "เลง": 4431,
      "เลบ": 4432,
      "อกำ": 4433,
      "เชี่ยว": 4434,
      "เอลียา": 4435,
      "ด้วยใจ": 4436,
      "ซึ่งอยู่": 4437,
      "เราจะมอบ": 4438,
      "กำนัล": 4439,
      "ยังทรง": 4440,
      "กระหน่ำ": 4441,
      "ต่างหาก": 4442,
      "ปลอม": 4443,
      "สิ่งที่ท่าน": 4444,
      "บรรดาผู้เผยพระวจนะ": 4445,
      "ร้องเรียก": 4446,
      "พันคน": 4447,
      "เงย": 4448,
      "คลาน": 4449,
      "สะใภ": 4450,
      "่อย่า": 4451,
      "เกิดผล": 4452,
      "ขณะนี้": 4453,
      "ฆ่าคน": 4454,
      "ีบรู": 4455,
      "ทะเลทราย": 4456,
      "อุทิศ": 4457,
      "ทหารรักษา": 4458,
      "แล้วกษัตริย์": 4459,
      "จำนวนมาก": 4460,
      "บริบูรณ์": 4461,
      "หยุดพัก": 4462,
      "ซ่อนตัว": 4463,
      "ในสายตา": 4464,
      "จุดจบ": 4465,
      "หวาดหวั่น": 4466,
      "กวาดต้อน": 4467,
      "เสื่อมทราม": 4468,
      "ฟาดฟัน": 4469,
      "พระชนม์อยู่แน่ฉันใด": 4470,
      "หิวโหย": 4471,
      "นวดข้าว": 4472,
      "ทำสิ่งที่ชั่วในสายพระเนตรขององค์พระผู้เป็นเจ้า": 4473,
      "เหตุการณ์อื่นๆในรัชกาล": 4474,
      "กัท": 4475,
      "ขืน": 4476,
      "คิว": 4477,
      "ชะ": 4478,
      "ทัก": 4479,
      "ทร์": 4480,
      "นุ่งห่ม": 4481,
      "บาห์": 4482,
      "วั": 4483,
      "อัด": 4484,
      "โจร": 4485,
      "ใฝ": 4486,
      "พระอื่นๆ": 4487,
      "ของฉัน": 4488,
      "ของชาวยิว": 4489,
      "และผู้ที่": 4490,
      "และหาก": 4491,
      "จะไป": 4492,
      "ามือ": 4493,
      "เรากำลังจะ": 4494,
      "มาช่วย": 4495,
      "ไปเหมือน": 4496,
      "ท่านต้อง": 4497,
      "กับดัก": 4498,
      "เสาะ": 4499,
      "พระเจ้าประทาน": 4500,
      "เพราะการ": 4501,
      "เกบ": 4502,
      "จึงกล่าวว่า": 4503,
      "เพื่อเจ้าจะ": 4504,
      "เพื่อท่านจะ": 4505,
      "โรท": 4506,
      "อย่างดี": 4507,
      "ถูกประหาร": 4508,
      "บูชาย": 4509,
      "ยังไม่ได้": 4510,
      "ลูกเอ๋ย": 4511,
      "เถ้า": 4512,
      "ทั้งปวงของ": 4513,
      "ราชมารดา": 4514,
      "เช่นเดียวกัน": 4515,
      "สำหรับเจ้า": 4516,
      "ส่วนที่": 4517,
      "ส่วนหนึ่ง": 4518,
      "ต่างๆที่": 4519,
      "สิบสองคน": 4520,
      "บิดาของเขา": 4521,
      "สง่า": 4522,
      "ทุกข์โศก": 4523,
      "ยืนขึ้น": 4524,
      "บิท": 4525,
      "คาเลบ": 4526,
      "เต็มที่": 4527,
      "ไม่ยอมรับ": 4528,
      "ยิ่งใหญ่กว่า": 4529,
      "รถรบ": 4530,
      "คีน": 4531,
      "หัวหน้าครอบครัว": 4532,
      "ตอนนี้": 4533,
      "ความทุกข์ยาก": 4534,
      "หีบพันธสัญญาของพระเจ้า": 4535,
      "บาดเจ็บ": 4536,
      "ธิดาแห่ง": 4537,
      "สั่นสะท้าน": 4538,
      "พระบุตรของพระเจ้า": 4539,
      "คุมตัว": 4540,
      "ทัณฑ์": 4541,
      "กระจัดกระจายไป": 4542,
      "อนุญาตให้": 4543,
      "จันทร์": 4544,
      "ซบหน้า": 4545,
      "ลูกแกะตัวผู้อายุหนึ่งขวบ": 4546,
      "ฉบับ": 4547,
      "ระดม": 4548,
      "วุ่นวาย": 4549,
      "25": 4550,
      "ดาห์": 4551,
      "รื่น": 4552,
      "ล่ะ": 4553,
      "วร": 4554,
      "สนิท": 4555,
      "โพ": 4556,
      "ของปุโรหิต": 4557,
      "ของประทาน": 4558,
      "เจ้าว่า": 4559,
      "เจ้าต้อง": 4560,
      "เป็นใคร": 4561,
      "เขาทั้งหลาย": 4562,
      "ผู้บริสุทธิ์": 4563,
      "พระองค์แต่": 4564,
      "ในสมัย": 4565,
      "ให้หาย": 4566,
      "ได้มา": 4567,
      "มาบอก": 4568,
      "พวกข้าพระองค์": 4569,
      "เมอร์": 4570,
      "จากทุก": 4571,
      "แต่อย่า": 4572,
      "ชาญ": 4573,
      "ทำตัว": 4574,
      "แต่ข้าพเจ้า": 4575,
      "แต่องค์พระผู้เป็นเจ้าทรง": 4576,
      "อาเชอร์": 4577,
      "เชท": 4578,
      "ซึ่งทรง": 4579,
      "อิสสาคาร์": 4580,
      "ถึงกับ": 4581,
      "โลห์": 4582,
      "แห่งรัชกาล": 4583,
      "เมืองนี้": 4584,
      "ซาราห์": 4585,
      "ดีต่อ": 4586,
      "เคียง": 4587,
      "อันที่จริง": 4588,
      "กลับสู่": 4589,
      "เบเออร์": 4590,
      "พิราบ": 4591,
      "โมเสสและ": 4592,
      "ต่อหน้าต่อ": 4593,
      "ประชาชาติต่างๆ": 4594,
      "ตะล": 4595,
      "ปกติ": 4596,
      "เลวร้าย": 4597,
      "ทั่วทั้ง": 4598,
      "มั่นใจ": 4599,
      "ควรหรือที่": 4600,
      "พาะ": 4601,
      "เต็มไปด้วยความ": 4602,
      "ลำพัง": 4603,
      "ค่าจ้าง": 4604,
      "จดจำ": 4605,
      "ไปตามทาง": 4606,
      "เฉา": 4607,
      "เฉพาะ": 4608,
      "บุตรมนุษย์เอ๋ย": 4609,
      "จนกว่าจะ": 4610,
      "รังแก": 4611,
      "รองรับ": 4612,
      "คบคิด": 4613,
      "มามอบ": 4614,
      "กิเบโอน": 4615,
      "เหยียดหยาม": 4616,
      "กลับใจใหม่": 4617,
      "สถานบูชาบนที่สูงทั้งหลาย": 4618,
      "ความสุขมีแก่ผู้ที่": 4619,
      "ลักษณะ": 4620,
      "อิชมาเอล": 4621,
      "กำพร้าพ่อ": 4622,
      "คิวบิท": 4623,
      "ใฝ่": 4624,
      "ทัส": 4625,
      "บี": 4626,
      "ป่าว": 4627,
      "พำ": 4628,
      "มัส": 4629,
      "ร่วง": 4630,
      "ัคร": 4631,
      "ของโยเซฟ": 4632,
      "แล่น": 4633,
      "และถวาย": 4634,
      "เป็นวัน": 4635,
      "เขาไม่": 4636,
      "ไมอาห์": 4637,
      "ให้พระองค์": 4638,
      "คนชั่วร้าย": 4639,
      "มาได้": 4640,
      "เอียง": 4641,
      "มีพระชนมายุ": 4642,
      "ทั้งวัน": 4643,
      "ความชื่นชมยินดี": 4644,
      "อาซาริยาห์": 4645,
      "อยู่เสมอ": 4646,
      "เชราห์": 4647,
      "เชไมอาห์": 4648,
      "เยฟ": 4649,
      "ข้าพเจ้าไม่ได้": 4650,
      "ด้วยว่า": 4651,
      "หมอง": 4652,
      "จึงนำ": 4653,
      "ถึงตาย": 4654,
      "ชนเลวี": 4655,
      "สิ่งนั้น": 4656,
      "เข้าโจมตี": 4657,
      "เนเกบ": 4658,
      "อนา": 4659,
      "ชายผู้นั้น": 4660,
      "เครื่องสันติบูชา": 4661,
      "เครื่องแต่งกาย": 4662,
      "แม่อา": 4663,
      "รู้ถึง": 4664,
      "ที่นอน": 4665,
      "ดาวิดว่า": 4666,
      "สิบสี่": 4667,
      "สมกับ": 4668,
      "สมัคร": 4669,
      "หญิงโสเภณี": 4670,
      "ใหญ่และ": 4671,
      "ตกแต่ง": 4672,
      "ครั้งนี้": 4673,
      "ครั้งหนึ่ง": 4674,
      "หัวเราะ": 4675,
      "พระวจนะของพระองค์": 4676,
      "ข้าแต่กษัตริย์": 4677,
      "ข้าแต่พระยาห์เวห์พระเจ้า": 4678,
      "ซีนาย": 4679,
      "ด้วยความชื่นชมยินดี": 4680,
      "อาศัยอยู่ที่นั่น": 4681,
      "เสียชีวิต": 4682,
      "บัดนี้จง": 4683,
      "บุตรชายบุตรสาว": 4684,
      "ร่วมกัน": 4685,
      "บรรพบุรุษของท่าน": 4686,
      "ยากอบ": 4687,
      "ดวงจันทร์": 4688,
      "ชนชาติที่": 4689,
      "เต็มใจ": 4690,
      "แรม": 4691,
      "ให้เป็นกรรมสิทธิ์": 4692,
      "่อาศัย": 4693,
      "สักเท่าใด": 4694,
      "สีแดง": 4695,
      "เกลือ": 4696,
      "สวมเสื้อผ้า": 4697,
      "ชุมนุมประชากร": 4698,
      "ยำเกรงองค์พระผู้เป็นเจ้า": 4699,
      "ช่างฝีมือ": 4700,
      "คุกเข่า": 4701,
      "ทับทิม": 4702,
      "เยโฮยาคิม": 4703,
      "บาลาค": 4704,
      "กันและกัน": 4705,
      "มิสปาห์": 4706,
      "กิลกาล": 4707,
      "เลื่องลือ": 4708,
      "เสบียง": 4709,
      "สะใภ้": 4710,
      "ต่อหน้าต่อตา": 4711,
      "แม่อาเชราห์": 4712,
      "กฤ": 4713,
      "ดน": 4714,
      "ตัน": 4715,
      "พลัง": 4716,
      "ยิง": 4717,
      "รวง": 4718,
      "ร่อน": 4719,
      "สกัด": 4720,
      "ึกล": 4721,
      "ุณ": 4722,
      "ุล": 4723,
      "พระเมตตา": 4724,
      "ของพระเยซู": 4725,
      "เจ้าให้": 4726,
      "เขียว": 4727,
      "เขาไม่ได้": 4728,
      "เขากล่าวว่า": 4729,
      "ในพระนาม": 4730,
      "ให้เกิด": 4731,
      "ได้แก่อ": 4732,
      "เหสี": 4733,
      "หน่อย": 4734,
      "ท่านให้": 4735,
      "มีใจ": 4736,
      "ประจัก": 4737,
      "นั้นเป็น": 4738,
      "พวกเขาจะได้": 4739,
      "กับกษัตริย์": 4740,
      "เสอีร์": 4741,
      "จงแจ้ง": 4742,
      "บาอา": 4743,
      "จึงตรัส": 4744,
      "ตามล่า": 4745,
      "ใจชอบ": 4746,
      "ถูกตัด": 4747,
      "นำมาถวาย": 4748,
      "บรรเลง": 4749,
      "พระองค์ทรงสร้าง": 4750,
      "กระต": 4751,
      "อีกแล้ว": 4752,
      "ตั้งถิ่นฐาน": 4753,
      "เบอร์": 4754,
      "เบือน": 4755,
      "น้ำค้าง": 4756,
      "อย่าไป": 4757,
      "ฟังเถิด": 4758,
      "ทูลถามว่า": 4759,
      "ช่วยเจ้า": 4760,
      "ยกทัพ": 4761,
      "ทั้งหมดที่": 4762,
      "ิปักษ์": 4763,
      "ปฏิปักษ์": 4764,
      "ตกต่ำ": 4765,
      "หัวใจ": 4766,
      "กินดื่ม": 4767,
      "เฮช": 4768,
      "เครื่องบูชาไถ่บาป": 4769,
      "อัมมี": 4770,
      "ด้านทิศ": 4771,
      "อยู่กับเจ้า": 4772,
      "ประชาชนทั้งปวง": 4773,
      "ยึดมั่น": 4774,
      "ข้าวสาลี": 4775,
      "ฟ้าสวรรค์และ": 4776,
      "กลับไปหา": 4777,
      "เราคือพระยาห์เวห์พระเจ้าของเจ้า": 4778,
      "ยำเกรงพระองค์": 4779,
      "ี้ยวก": 4780,
      "แคว้นยูเดีย": 4781,
      "ใบหนักประมาณ": 4782,
      "ที่เหลืออยู่": 4783,
      "ไปที่ไหน": 4784,
      "ทั้งหมดนี้คือ": 4785,
      "ทันทีที่": 4786,
      "ทารุณ": 4787,
      "ฮามัท": 4788,
      "สบประมาท": 4789,
      "พระดำรัสขององค์พระผู้เป็นเจ้ามาถึงข้าพเจ้าว่า": 4790,
      "ชาวฮิตไทต์": 4791,
      "ถ่อมใจ": 4792,
      "ความรักมั่นคงของพระองค์ดำรงนิรันดร์": 4793,
      "ล่วงลับไปอยู่กับบรรพบุรุษ": 4794,
      "พรรคพวก": 4795,
      "เซาโล": 4796,
      "อนาค": 4797,
      "ดนตรี": 4798,
      "ประจักษ์": 4799,
      "ดีย": 4800,
      "ธาร์": 4801,
      "ผาก": 4802,
      "มห": 4803,
      "ร้าว": 4804,
      "หวง": 4805,
      "ของที่": 4806,
      "เจต": 4807,
      "เจ้าผู้": 4808,
      "ที่ไหน": 4809,
      "และพระเจ้า": 4810,
      "ในขณะที่": 4811,
      "ในพระคริสต์": 4812,
      "ในท้องทุ่ง": 4813,
      "คนงาน": 4814,
      "มาโจมตี": 4815,
      "ไปใน": 4816,
      "พวกเจ้าจะ": 4817,
      "เพช": 4818,
      "คร้าม": 4819,
      "กลบ": 4820,
      "ราะห์": 4821,
      "เพราะเราจะ": 4822,
      "ซึ่งถูก": 4823,
      "ไว้เป็น": 4824,
      "เมื่อกษัตริย์": 4825,
      "ขึ้นมาจาก": 4826,
      "เพื่อเห็นแก่": 4827,
      "แก่พวกท่าน": 4828,
      "เข้าใส่": 4829,
      "แห่งหนึ่ง": 4830,
      "นำไป": 4831,
      "คำราม": 4832,
      "คำนับ": 4833,
      "ยังมีชีวิตอยู่": 4834,
      "สำรว": 4835,
      "สาหัส": 4836,
      "นาบัส": 4837,
      "ไม่มีการ": 4838,
      "เคราะห์": 4839,
      "อันทรง": 4840,
      "บรรดาคนที่": 4841,
      "พระยาห์เวห์พระเจ้าของบรรพบุรุษ": 4842,
      "ของตนและ": 4843,
      "พลอย": 4844,
      "พลเมือง": 4845,
      "ชื่อเสียง": 4846,
      "ฝูงแพะแกะ": 4847,
      "เผ่ารูเบน": 4848,
      "คุ้ม": 4849,
      "เป็นผู้ชอบธรรม": 4850,
      "รู้ว่าเรา": 4851,
      "ก่อนหน้า": 4852,
      "ชนชาติอิสราเอล": 4853,
      "ยึดเมือง": 4854,
      "เยโฮรัม": 4855,
      "แข็งกระด": 4856,
      "ประทับบน": 4857,
      "ไม่ยอมฟัง": 4858,
      "และคนเลวี": 4859,
      "พื้นดิน": 4860,
      "เสมอเหมือน": 4861,
      "อยู่อาศัย": 4862,
      "ในวันที่เจ็ด": 4863,
      "กำแพงเมือง": 4864,
      "ชั้นนอก": 4865,
      "ศีรษะของ": 4866,
      "แคว้นกาลิลี": 4867,
      "บารนาบัส": 4868,
      "จุดไฟ": 4869,
      "ทดลอง": 4870,
      "และถูกฝัง": 4871,
      "จะไม่มีวัน": 4872,
      "เกรี้ยวก": 4873,
      "พระผู้ช่วยให้รอด": 4874,
      "ือร้น": 4875,
      "ือรือร้น": 4876,
      "ข้อบ": 4877,
      "เหี่ยวเฉา": 4878,
      "สรรพสิ่ง": 4879,
      "องค์ผู้สูงสุด": 4880,
      "กษัตริย์เนบูคัดเนสซาร์แห่งบาบิโลน": 4881,
      "เพลิง": 4882,
      "เมรารี": 4883,
      "เฮชโบน": 4884,
      "อนาคต": 4885,
      "สำรวจ": 4886,
      "แข็งกระด้าง": 4887,
      "เกรี้ยวกราด": 4888,
      "30": 4889,
      "กวน": 4890,
      "ทาม": 4891,
      "ทผล": 4892,
      "ทุ่ม": 4893,
      "นานา": 4894,
      "ปูน": 4895,
      "พุ่ม": 4896,
      "มและ": 4897,
      "มัล": 4898,
      "ยืม": 4899,
      "รม": 4900,
      "ลัก": 4901,
      "สบาย": 4902,
      "สตรี": 4903,
      "โหน": 4904,
      "แล้ง": 4905,
      "และของ": 4906,
      "และถ้า": 4907,
      "และทำลาย": 4908,
      "และกล่าวกับ": 4909,
      "เป้า": 4910,
      "เป็นเพียง": 4911,
      "เราว่า": 4912,
      "ในพระเยซูคริสต์": 4913,
      "ได้แก": 4914,
      "ได้ฟัง": 4915,
      "มาที่นี่": 4916,
      "ไม่เป็น": 4917,
      "ท่านผู้": 4918,
      "ก็จง": 4919,
      "เดน": 4920,
      "เพื่อไม่ให้": 4921,
      "บุตรเน": 4922,
      "ข้าพระองค์ได้": 4923,
      "หน้าต่าง": 4924,
      "ตัวสั่น": 4925,
      "นำพวกเขา": 4926,
      "พระองค์ทรงเป็นพระเจ้า": 4927,
      "ลูกศร": 4928,
      "ทั้งหลายของ": 4929,
      "กระแส": 4930,
      "อีกนาน": 4931,
      "ตั้งแต่น": 4932,
      "นางเป็น": 4933,
      "ิ่งนัก": 4934,
      "อยู่ในกรุงเยรูซาเล็ม": 4935,
      "พิเศษ": 4936,
      "ปลุก": 4937,
      "ชั่วช้า": 4938,
      "ส่วนแบ่ง": 4939,
      "พวกท่านจะ": 4940,
      "เชื่อถือ": 4941,
      "ครั้งแล้ว": 4942,
      "หมายถึง": 4943,
      "หมายความว่า": 4944,
      "มนุษย": 4945,
      "ไม้กระ": 4946,
      "เงินหนัก": 4947,
      "ทรวง": 4948,
      "หันไป": 4949,
      "เฝ้าดู": 4950,
      "ดวงตา": 4951,
      "ชิโลห์": 4952,
      "เท่ากับ": 4953,
      "เด็กนั้น": 4954,
      "นกในอากาศ": 4955,
      "ศาส": 4956,
      "ลมหายใจ": 4957,
      "ถ้อยคำของเรา": 4958,
      "พระเกียรติสิริขององค์พระผู้เป็นเจ้า": 4959,
      "เปล่าประโยชน์": 4960,
      "ตัณ": 4961,
      "สูญเสีย": 4962,
      "ล้ำค่า": 4963,
      "คาดเอว": 4964,
      "อินทผล": 4965,
      "เงินและทอง": 4966,
      "มาตั้งค่ายที่": 4967,
      "เปอร์เซีย": 4968,
      "นอกเหนือจาก": 4969,
      "คีริยาท": 4970,
      "เงยหน้า": 4971,
      "กระตือรือร้น": 4972,
      "อินทผลัม": 4973,
      "ฉัย": 4974,
      "ฐ์": 4975,
      "ปัน": 4976,
      "พะ": 4977,
      "ภรณ์": 4978,
      "ยิ": 4979,
      "รีย": 4980,
      "ล่ม": 4981,
      "ลิยาห์": 4982,
      "ษฐ์": 4983,
      "เคน": 4984,
      "แคลน": 4985,
      "ของเมืองนั้น": 4986,
      "ของรัชกาลกษัตริย์": 4987,
      "แลบ": 4988,
      "รามาห์": 4989,
      "เจ้าแม่อาเชราห์": 4990,
      "ที่เราได้": 4991,
      "ที่กรุงเยรูซาเล็ม": 4992,
      "ที่เกิดขึ้น": 4993,
      "เป็นกลิ่นหอม": 4994,
      "ว่าเขา": 4995,
      "ในเขต": 4996,
      "คนละ": 4997,
      "คนฉลาด": 4998,
      "ทรงสำแดง": 4999,
      "มีบุตรชาย": 5000,
      "ความสำเร็จ": 5001,
      "ความมั่งคั่ง": 5002,
      "เลย์": 5003,
      "แต่เราจะ": 5004,
      "สิโหน": 5005,
      "อยู่ด้วย": 5006,
      "แล้วมี": 5007,
      "แล้วท่านจะ": 5008,
      "แล้วพวกเขาก็": 5009,
      "พระเจ้าข้า": 5010,
      "เรื้อน": 5011,
      "จงสรรเสริญองค์พระผู้เป็นเจ้า": 5012,
      "เวท": 5013,
      "วันคืน": 5014,
      "สิ่งใดๆ": 5015,
      "หนึ่งใบหนักประมาณ": 5016,
      "ีกา": 5017,
      "ลงที่": 5018,
      "ลงเรือ": 5019,
      "ชายคนนั้น": 5020,
      "ลูกกำพร้าพ่อ": 5021,
      "เตียน": 5022,
      "หากเรา": 5023,
      "เลยเพราะ": 5024,
      "สร้างพระวิหาร": 5025,
      "เอาผ้า": 5026,
      "นักโทษ": 5027,
      "ทุกข์ลำเค็ญ": 5028,
      "แขก": 5029,
      "สาวใช้": 5030,
      "มอบให้": 5031,
      "บุตรชายของเขา": 5032,
      "คุย": 5033,
      "ตรงกับ": 5034,
      "ต่อไปนี้เป็น": 5035,
      "ของคนชอบธรรม": 5036,
      "อุรียาห์": 5037,
      "โบย": 5038,
      "เฝ้าประตู": 5039,
      "ลุกโชน": 5040,
      "อาโรนว่า": 5041,
      "เบนฮาดัด": 5042,
      "แจก": 5043,
      "ไล่ตาม": 5044,
      "นกพิราบ": 5045,
      "ชำระให้บริสุทธิ์": 5046,
      "พระยาห์เวห์ผู้ทรงฤทธิ์พระเจ้าแห่งอิสราเอล": 5047,
      "สัมพันธ": 5048,
      "เหล้าองุ่นใหม่": 5049,
      "ยำเกรงพระเจ้า": 5050,
      "สิงห์": 5051,
      "กบฏต่อ": 5052,
      "หนึ่งในสาม": 5053,
      "ถูกลง": 5054,
      "อิ่มหนำ": 5055,
      "ิจฉัย": 5056,
      "สี่สิบปี": 5057,
      "วัยวะ": 5058,
      "เกอร์โชน": 5059,
      "องค์พระผู้เป็นเจ้าได้ตรัส": 5060,
      "บาร์เลย์": 5061,
      "วินิจฉัย": 5062,
      "อดีต": 5063,
      "เจตนา": 5064,
      "ตัณหา": 5065,
      "100": 5066,
      "ก้าน": 5067,
      "ถ่าน": 5068,
      "ปะ": 5069,
      "ปลง": 5070,
      "พราก": 5071,
      "พลาด": 5072,
      "ฟู": 5073,
      "มณฑ": 5074,
      "ลธรรม": 5075,
      "วิสัย": 5076,
      "ษโป": 5077,
      "สั้น": 5078,
      "อวัยวะ": 5079,
      "ฮูด": 5080,
      "โบท": 5081,
      "พระโอ": 5082,
      "เจิด": 5083,
      "เจ้าไป": 5084,
      "ที่กำลัง": 5085,
      "่อ่า": 5086,
      "จะกลายเป็น": 5087,
      "เราทั้งหลาย": 5088,
      "ให้ข้าพระองค์": 5089,
      "คนทั้งสอง": 5090,
      "ได้และ": 5091,
      "มาใน": 5092,
      "มาให้เรา": 5093,
      "เห็บ": 5094,
      "ไม่ใช": 5095,
      "ไม่เข้าใจ": 5096,
      "ไม่ช้า": 5097,
      "เมษโป": 5098,
      "ประสบ": 5099,
      "ก็คือ": 5100,
      "ก็เช่นกัน": 5101,
      "ทั้งคู่": 5102,
      "เลอาห์": 5103,
      "แต่ก็": 5104,
      "อาภรณ์": 5105,
      "อยู่กลาง": 5106,
      "เสน": 5107,
      "หลอม": 5108,
      "เรเบ": 5109,
      "ขึ้นสู่": 5110,
      "อิสระ": 5111,
      "วงล้อ": 5112,
      "โลภ": 5113,
      "สิ่งทั้งปวง": 5114,
      "อย่างรวด": 5115,
      "เราจะได้": 5116,
      "ถูกจับ": 5117,
      "ลงและ": 5118,
      "ขออย่าให้": 5119,
      "ทางใต้": 5120,
      "ของเขาเอง": 5121,
      "ไม่มีอะไร": 5122,
      "ทำให้ท่าน": 5123,
      "กลับกลายเป็น": 5124,
      "มากขึ้น": 5125,
      "ของพระเจ้าและ": 5126,
      "ต่างๆของอิสราเอล": 5127,
      "สิบลด": 5128,
      "สิบเอ็ด": 5129,
      "มาจากไหน": 5130,
      "ดังนั้นพวกเขาจึง": 5131,
      "ของพวกเขาและ": 5132,
      "ประทานแก่ท่าน": 5133,
      "เอาใจ": 5134,
      "โอ่อ่า": 5135,
      "นิ้ว": 5136,
      "โคราห์": 5137,
      "เสด็จพ่อ": 5138,
      "ต้นมะเดื่อ": 5139,
      "เพียงนี้": 5140,
      "เผ่ามนัสเสห์": 5141,
      "บทบัญญัติของเรา": 5142,
      "อยู่กับท่าน": 5143,
      "อาบียาห์": 5144,
      "ไหนล่ะ": 5145,
      "โบเชท": 5146,
      "ภรรยาและ": 5147,
      "โยนาห์": 5148,
      "สถานที่ซึ่ง": 5149,
      "ข้อนี้": 5150,
      "ข่าวว่า": 5151,
      "ศีลธรรม": 5152,
      "แหล่ง": 5153,
      "พระหัตถ์ขวา": 5154,
      "ฉลองเทศกาล": 5155,
      "คนเหล่านี้เป็น": 5156,
      "โรคเรื้อน": 5157,
      "ตัวกัน": 5158,
      "ล้ำลึก": 5159,
      "แป้งละเอียด": 5160,
      "ยี่สิบปี": 5161,
      "เจิมตั้งไว้": 5162,
      "พันธสัญญาน": 5163,
      "มาอาคาห์": 5164,
      "ประหลาดใจ": 5165,
      "เอาหินขว้าง": 5166,
      "อุสซียาห์": 5167,
      "โบอาส": 5168,
      "ทหารรักษาพระองค์": 5169,
      "พำนัก": 5170,
      "ปลงพระชนม์": 5171,
      "มณฑล": 5172,
      "เรเบคาห์": 5173,
      "อย่างรวดเร็ว": 5174,
      "ชุ่ม": 5175,
      "ญ์": 5176,
      "ทบ": 5177,
      "ธง": 5178,
      "บ่อย": 5179,
      "ปริ": 5180,
      "ปราช": 5181,
      "ผง": 5182,
      "ผสม": 5183,
      "รด": 5184,
      "ได": 5185,
      "่ห์": 5186,
      "ของผู้เผยพระวจนะ": 5187,
      "ของพระเยซูคริสต์": 5188,
      "ราศี": 5189,
      "ราโมท": 5190,
      "เจน": 5191,
      "ที่ไม่ได้": 5192,
      "ที่มั่น": 5193,
      "และเจ้าจะ": 5194,
      "่ออก": 5195,
      "เราไป": 5196,
      "คนเป็นอันมาก": 5197,
      "ไปเข้าเฝ้า": 5198,
      "พวกข้าพเจ้า": 5199,
      "ินี": 5200,
      "จากวงศ์วานของ": 5201,
      "ทำด้วย": 5202,
      "ทั้งโลก": 5203,
      "ทั้งคืน": 5204,
      "ผู้เป็นพระยาห์เวห์": 5205,
      "องค์พระผู้เป็นเจ้าผู้ทรง": 5206,
      "องค์พระผู้เป็นเจ้าพอพระทัย": 5207,
      "อยู่ตรงหน้า": 5208,
      "เพราะเป็น": 5209,
      "เพราะมี": 5210,
      "เมื่อข้าพระองค์": 5211,
      "จึงกล่าวกับ": 5212,
      "สัย": 5213,
      "มือขวา": 5214,
      "อย่างหนึ่ง": 5215,
      "ของเราเอง": 5216,
      "ขอโปรด": 5217,
      "เทพ": 5218,
      "บรรจุ": 5219,
      "โยธาม": 5220,
      "้าน้ำมัน": 5221,
      "ของเขาคือ": 5222,
      "ลูกเห็บ": 5223,
      "ดินแดนที่": 5224,
      "แทง": 5225,
      "่ายูดาห์": 5226,
      "ส่วนผู้ที่": 5227,
      "ต่างๆซึ่ง": 5228,
      "สิบปี": 5229,
      "สร้างแท่นบูชา": 5230,
      "ส่งเรามา": 5231,
      "พี่สาว": 5232,
      "คลื่น": 5233,
      "ผลผลิต": 5234,
      "เสียงร้อง": 5235,
      "ตลอดเจ็ดวัน": 5236,
      "กินอาหาร": 5237,
      "หมู่เหล่า": 5238,
      "ทุกข์ทรมาน": 5239,
      "โกง": 5240,
      "คนหนึ่งชื่อ": 5241,
      "ฆ่าฟัน": 5242,
      "จะถูกทำลาย": 5243,
      "อย่างไรก็ตาม": 5244,
      "รอบๆ": 5245,
      "ชนอิสราเอลทั้งปวง": 5246,
      "ข้อปฏิบัติ": 5247,
      "ได้รับการอภัย": 5248,
      "โอรสกษัตริย์": 5249,
      "ลูกหลานของเจ้า": 5250,
      "คีร์": 5251,
      "องค์พระผู้เป็นเจ้าตรัสกับข้าพเจ้าว่า": 5252,
      "ลบความผิด": 5253,
      "เสาเจ้าแม่อาเชราห์": 5254,
      "ปิดบัง": 5255,
      "ร้อยคน": 5256,
      "พระบัญชาขององค์พระผู้เป็นเจ้า": 5257,
      "ล้อมเมือง": 5258,
      "โศกเศร้า": 5259,
      "ครึ่งหนึ่ง": 5260,
      "เติม": 5261,
      "เหมาะสม": 5262,
      "รักษาการ": 5263,
      "ไต่": 5264,
      "ซักเสื้อผ้า": 5265,
      "โมเสสกับอาโรน": 5266,
      "เอ็นดูสงสาร": 5267,
      "สมัครใจ": 5268,
      "ทามาร์": 5269,
      "เป็นกลิ่นหอมที่": 5270,
      "ตรงกับปีที่": 5271,
      "ถูกลงโทษ": 5272,
      "พระโอษฐ์": 5273,
      "เมษโปดก": 5274,
      "ปราชญ์": 5275,
      "22": 5276,
      "กัง": 5277,
      "จ้า": 5278,
      "จู่": 5279,
      "ปราบ": 5280,
      "พี": 5281,
      "มเหสี": 5282,
      "วัล": 5283,
      "สอย": 5284,
      "อรุ": 5285,
      "ฮิล": 5286,
      "ราบน": 5287,
      "ที่ให้": 5288,
      "ที่ราบ": 5289,
      "และส่ง": 5290,
      "เขาให้": 5291,
      "ผู้ใหญ่": 5292,
      "ว่าเป็น": 5293,
      "คนอิสราเอล": 5294,
      "คนตาย": 5295,
      "ทรงเป็นพระเจ้า": 5296,
      "ไม่นาน": 5297,
      "พวกนาง": 5298,
      "ครั่น": 5299,
      "จากข้าพเจ้า": 5300,
      "จากสวรรค์": 5301,
      "มีคา": 5302,
      "ก็มา": 5303,
      "พวกเขาจะไม่": 5304,
      "้วาง": 5305,
      "อาโดน": 5306,
      "อยู่ต่อหน้า": 5307,
      "แล้วแต่": 5308,
      "แล้วจง": 5309,
      "แล้วพระองค์ทรง": 5310,
      "แล้วดาวิด": 5311,
      "แล้วเขาจะ": 5312,
      "หลีก": 5313,
      "พระเจ้าของเรา": 5314,
      "พระเจ้าตรัสกับ": 5315,
      "เยชู": 5316,
      "จึงเรียก": 5317,
      "ตามใจชอบ": 5318,
      "ทุกๆ": 5319,
      "บุตรและ": 5320,
      "วันแห่ง": 5321,
      "ชนยูดาห์": 5322,
      "อิสราเอลเอ๋ย": 5323,
      "เน่า": 5324,
      "ถูกทิ้งร้าง": 5325,
      "นำไปสู่": 5326,
      "เผ่ายูดาห์": 5327,
      "โม่": 5328,
      "ยังได้": 5329,
      "โยรัม": 5330,
      "ชาวอารัม": 5331,
      "ชีวิตนิรันดร์": 5332,
      "นาอาม": 5333,
      "โดยใช้": 5334,
      "มันก็": 5335,
      "ดูเหมือน": 5336,
      "เต้น": 5337,
      "เองก็": 5338,
      "หากผู้ใด": 5339,
      "ยกเว้น": 5340,
      "หย่า": 5341,
      "ตะกร": 5342,
      "ศ์วาน": 5343,
      "ตลอดชีวิต": 5344,
      "วาท": 5345,
      "ฟ้าแลบ": 5346,
      "นักร้อง": 5347,
      "โทษทัณฑ์": 5348,
      "คนหนึ่งใน": 5349,
      "เสียแล้ว": 5350,
      "เสียใจ": 5351,
      "ต่อไปอีก": 5352,
      "อยู่ที่ประตู": 5353,
      "สู้กับ": 5354,
      "ใกล้เข้ามา": 5355,
      "บางส่วน": 5356,
      "ภรรยาของเขา": 5357,
      "ปล่อยตัว": 5358,
      "อาณาจักรสวรรค์": 5359,
      "เช่นนี้ก็": 5360,
      "ข้าแต่องค์พระผู้เป็นเจ้าข้าพระองค์": 5361,
      "พระพิโรธขององค์พระผู้เป็นเจ้า": 5362,
      "วิญญาณชั่ว": 5363,
      "ารพัด": 5364,
      "พระหัตถ์ขององค์พระผู้เป็นเจ้า": 5365,
      "ขยะ": 5366,
      "ปรากฏแก่": 5367,
      "โยชูวาบุตร": 5368,
      "เคล้าน้ำมัน": 5369,
      "ดำรงอยู่": 5370,
      "จงไปบอก": 5371,
      "ยอดเขา": 5372,
      "เยโฮยาคีน": 5373,
      "และเครื่องดื่มบูชา": 5374,
      "ดาลิยาห์": 5375,
      "วิบัติแก่เจ้า": 5376,
      "ครึ่งเผ่า": 5377,
      "รางวัล": 5378,
      "นัฟทาลี": 5379,
      "แปลกหน้า": 5380,
      "ตะโกนว่า": 5381,
      "จำเป็นต้อง": 5382,
      "โหดร้าย": 5383,
      "ฆาตก": 5384,
      "อนิจจัง": 5385,
      "กฤษฎ": 5386,
      "มนุษยชาติ": 5387,
      "รักษาการณ์": 5388,
      "อาโดนียาห์": 5389,
      "ขู่": 5390,
      "ข่าย": 5391,
      "ชัล": 5392,
      "ณาการ": 5393,
      "ถม": 5394,
      "ปั่น": 5395,
      "มหิต": 5396,
      "ยโส": 5397,
      "สาง": 5398,
      "สารพัด": 5399,
      "ของคนที่": 5400,
      "เป็นความ": 5401,
      "เป็นเหตุ": 5402,
      "่อีก": 5403,
      "เขาทำ": 5404,
      "จะทำให้": 5405,
      "จะฆ่า": 5406,
      "ผู้ยิ่งใหญ่": 5407,
      "เราเถิด": 5408,
      "พระองค์ด้วย": 5409,
      "ไม่อยู่": 5410,
      "ในคืน": 5411,
      "ในพระวิหารขององค์พระผู้เป็นเจ้า": 5412,
      "ให้นำ": 5413,
      "คนหนุ่ม": 5414,
      "ข้าศึก": 5415,
      "มีส่วน": 5416,
      "มีคาห์": 5417,
      "ประกัน": 5418,
      "คว่ำ": 5419,
      "ความเป็น": 5420,
      "กับบรรดา": 5421,
      "อยู่ตาม": 5422,
      "เสมือน": 5423,
      "รับรอง": 5424,
      "เชม": 5425,
      "เอลและ": 5426,
      "จงร้องเพลง": 5427,
      "เพราะถ้า": 5428,
      "เพราะพระเจ้าทรง": 5429,
      "เกดาลิยาห์": 5430,
      "จึงไม่": 5431,
      "วันเวลา": 5432,
      "ตัวเมีย": 5433,
      "แห่งพันธสัญญา": 5434,
      "เมืองและ": 5435,
      "กษัตริย์ดาวิด": 5436,
      "คำพยาน": 5437,
      "บูชาน": 5438,
      "บรรณาการ": 5439,
      "ดีกับ": 5440,
      "ชาวบาบิโลน": 5441,
      "เถียง": 5442,
      "พรึง": 5443,
      "อะไรขึ้น": 5444,
      "พระยาห์เวห์พระเจ้าของพวกเขา": 5445,
      "โอเบด": 5446,
      "เกิดจาก": 5447,
      "หย่อน": 5448,
      "พระวจนะขององค์พระผู้เป็นเจ้า": 5449,
      "พลม้า": 5450,
      "่วงศ์วาน": 5451,
      "ชูมือ": 5452,
      "จะเป็นมลทิน": 5453,
      "เจ็ดปี": 5454,
      "ตระการ": 5455,
      "ร่วมใน": 5456,
      "หันจาก": 5457,
      "อยู่กับเรา": 5458,
      "ชนอิสราเอลว่า": 5459,
      "เทศนา": 5460,
      "รุ่งเช้า": 5461,
      "ขณะที่พวกเขา": 5462,
      "ลานพระวิหาร": 5463,
      "ข้าวบาร์เลย์": 5464,
      "ที่สุดใน": 5465,
      "อายุได้": 5466,
      "สีม่วง": 5467,
      "ปัจ": 5468,
      "ชำระตน": 5469,
      "พระเกียรติสิริของพระองค์": 5470,
      "บุตรสาวของ": 5471,
      "ป้องกัน": 5472,
      "เมล็ดพืช": 5473,
      "แปดเป": 5474,
      "ห้วย": 5475,
      "ไหม้": 5476,
      "จริต": 5477,
      "ทายา": 5478,
      "เอสรา": 5479,
      "ส่งคนไป": 5480,
      "ให้พ้นหน้า": 5481,
      "พระนามของพระยาห์เวห์": 5482,
      "ปีติยินดีใน": 5483,
      "เฉลิม": 5484,
      "พ่ายแพ้": 5485,
      "องค์บริสุทธิ์แห่งอิสราเอล": 5486,
      "อำมหิต": 5487,
      "ท้อแท้": 5488,
      "แดนเทือกเขาแห่ง": 5489,
      "อกำหนด": 5490,
      "รื่นเริง": 5491,
      "คบคิดกัน": 5492,
      "จู่โจม": 5493,
      "อรุณ": 5494,
      "ฮิลคียาห์": 5495,
      "ครั่นคร้าม": 5496,
      "500": 5497,
      "ทึ": 5498,
      "ท่อน": 5499,
      "ภัก": 5500,
      "ล์": 5501,
      "สภา": 5502,
      "อิด": 5503,
      "ฮัก": 5504,
      "ำลัง": 5505,
      "แพร่": 5506,
      "พระเศ": 5507,
      "ของนาย": 5508,
      "ของพระยาห์เวห์พระเจ้าของท่าน": 5509,
      "เจ้ากับ": 5510,
      "ที่พัก": 5511,
      "และท่าน": 5512,
      "และใช้": 5513,
      "และยาโคบ": 5514,
      "และดื่ม": 5515,
      "และทูลว่า": 5516,
      "และน้ำมัน": 5517,
      "เขาด้วย": 5518,
      "จะเกิดขึ้น": 5519,
      "ผู้ชอบธรรม": 5520,
      "ว่าอย่างไร": 5521,
      "ในทะเล": 5522,
      "ในครัวเรือน": 5523,
      "คนเป็น": 5524,
      "คนี้": 5525,
      "ตรู่": 5526,
      "มาทาง": 5527,
      "มาหะ": 5528,
      "ทรงล่วงลับไปอยู่กับบรรพบุรุษ": 5529,
      "มีลูก": 5530,
      "มีค่า": 5531,
      "ความประพฤติ": 5532,
      "เล่ม": 5533,
      "แต่พระองค์ทรง": 5534,
      "องค์พระผู้เป็นเจ้าจึงทรง": 5535,
      "เสี่ยง": 5536,
      "รับบัพติศมา": 5537,
      "เร่ง": 5538,
      "เอลาม": 5539,
      "ด้วยมือ": 5540,
      "ด้วยคมดาบ": 5541,
      "ซึ่งเจ้า": 5542,
      "ซึ่งเราได้": 5543,
      "ไว้วาง": 5544,
      "จึงมี": 5545,
      "เราจะยก": 5546,
      "ลงสู่": 5547,
      "ขอความช่วยเหลือ": 5548,
      "ทางเพศ": 5549,
      "คำบัญชา": 5550,
      "ซาเร็": 5551,
      "แดนไกล": 5552,
      "นาซาเร็": 5553,
      "เคี้ยว": 5554,
      "เบิก": 5555,
      "น้ำท่วม": 5556,
      "ทูลกษัตริย์": 5557,
      "ดินแดนของชาว": 5558,
      "พูดถึง": 5559,
      "ต่างๆและ": 5560,
      "ยิ่งขึ้น": 5561,
      "ดังนั้นเขาจึง": 5562,
      "ผู้ทรงเป็น": 5563,
      "เหล่าศัตรู": 5564,
      "ฉะนั้นเราจึง": 5565,
      "โอมี": 5566,
      "เกิดอะไรขึ้น": 5567,
      "เสียงโห่ร้อง": 5568,
      "ร้ายแรง": 5569,
      "นายกอง": 5570,
      "ของข้าพระองค์ขอทรง": 5571,
      "เหตุฉะนั้น": 5572,
      "หวาน": 5573,
      "ยืนยาว": 5574,
      "โฮร์": 5575,
      "ชูร์": 5576,
      "อาศัยอยู่ที่": 5577,
      "บุตรชายหัวปี": 5578,
      "ด้านหน้า": 5579,
      "เป็นผู้เผยพระวจนะ": 5580,
      "บรรพบุรุษของเจ้า": 5581,
      "อาบียา": 5582,
      "เก็บภาษี": 5583,
      "ใกล้ๆ": 5584,
      "อธิบาย": 5585,
      "และทรงครองราชย์": 5586,
      "ชื่นใจ": 5587,
      "อธิษฐานเผื่อ": 5588,
      "ทองคำบริสุทธิ์": 5589,
      "เฟล": 5590,
      "เขียนถึง": 5591,
      "เขียนไว้ใน": 5592,
      "มีความหวัง": 5593,
      "ในดินแดนนั้น": 5594,
      "เช้าตรู่": 5595,
      "ซื่อสัตย์ของพระองค์": 5596,
      "ขัดขวาง": 5597,
      "เหล่าสาวกของพระองค์": 5598,
      "องค์พระผู้เป็นเจ้าตรัสสั่ง": 5599,
      "รองเท้า": 5600,
      "นูน": 5601,
      "จิตวิญญาณของข้าพระองค์": 5602,
      "ชาฟาน": 5603,
      "ตั้งค่ายพัก": 5604,
      "กิ่งก้าน": 5605,
      "ความชั่วช้า": 5606,
      "ธารน้ำ": 5607,
      "ปล้นชิง": 5608,
      "ตื่นขึ้น": 5609,
      "จัดการกับ": 5610,
      "ถึงแม้ว่า": 5611,
      "อาสาฟ": 5612,
      "ภายใต้การ": 5613,
      "อินทร": 5614,
      "ที่ดีที่สุด": 5615,
      "ข้อกำหนด": 5616,
      "กลืนกิน": 5617,
      "บันทึกไว้ในจดหมายเหตุกษัตริย์": 5618,
      "เลื้อยคลาน": 5619,
      "โอรสของพระองค์ขึ้นครองราชย์แทน": 5620,
      "อีกฟากหนึ่งของ": 5621,
      "เชี่ยวชาญ": 5622,
      "เพชร": 5623,
      "แจกจ่าย": 5624,
      "ทึบ": 5625,
      "พระเศียร": 5626,
      "นาซาเร็ธ": 5627,
      "กัก": 5628,
      "กรี": 5629,
      "จ์": 5630,
      "ชิม": 5631,
      "ชำนา": 5632,
      "ถัง": 5633,
      "บ่วง": 5634,
      "ฝึก": 5635,
      "สหาย": 5636,
      "หิ": 5637,
      "อ้อม": 5638,
      "ัค": 5639,
      "ีด": 5640,
      "ใย": 5641,
      "ระโหย": 5642,
      "พระกาย": 5643,
      "ของพระ": 5644,
      "ของการ": 5645,
      "ของอาโรน": 5646,
      "ของข้าพระบาท": 5647,
      "ของกำนัล": 5648,
      "เจ้าคน": 5649,
      "ที่ใช้": 5650,
      "ที่ภูเขา": 5651,
      "และพวก": 5652,
      "และเห็น": 5653,
      "องค์กษัตริย์": 5654,
      "เป็นครั้ง": 5655,
      "เป็นจริง": 5656,
      "เป็นประจำ": 5657,
      "เป็นชิ้น": 5658,
      "เราให้": 5659,
      "ในยูดาห์": 5660,
      "ในเรื่อง": 5661,
      "ในหุบเขา": 5662,
      "ให้ปุโรหิต": 5663,
      "ไม่ควร": 5664,
      "ไปตามที่": 5665,
      "พวกนี้": 5666,
      "พวกผู้หญิง": 5667,
      "ท่านไม่ได้": 5668,
      "านั้น": 5669,
      "นั้นคือ": 5670,
      "ทำอย่างไร": 5671,
      "ทำสิ่งใด": 5672,
      "ทั้งนี้": 5673,
      "ทั้งมวล": 5674,
      "พวกเขาตอบว่า": 5675,
      "เลขา": 5676,
      "แต่พระเจ้าทรง": 5677,
      "กับหมู่บ้าน": 5678,
      "อาราบ": 5679,
      "จงเตรียม": 5680,
      "ซึ่งข้าพเจ้า": 5681,
      "บุค": 5682,
      "ไว้ได้": 5683,
      "เมื่อมาถึง": 5684,
      "จึงส่ง": 5685,
      "ตามจำนวน": 5686,
      "บุตรอาหิ": 5687,
      "อย่างมาก": 5688,
      "ตัวท่าน": 5689,
      "ของเราก็": 5690,
      "ขอพระคุณ": 5691,
      "เทือน": 5692,
      "ดีและ": 5693,
      "ลูกหัวปี": 5694,
      "ยาด": 5695,
      "อันศักดิ์สิทธิ์": 5696,
      "อันรุนแรง": 5697,
      "ดูสิ": 5698,
      "ราชเลขา": 5699,
      "พิการ": 5700,
      "ทั้งหมดก็": 5701,
      "อัท": 5702,
      "ดำริ": 5703,
      "ผลิ": 5704,
      "ถ้าเรา": 5705,
      "ถ้าเช่นนั้น": 5706,
      "ข้าแต่พระยาห์เวห์องค์เจ้าชีวิต": 5707,
      "เหลือรอด": 5708,
      "เสด็จไป": 5709,
      "เงินทอง": 5710,
      "อาศัยใน": 5711,
      "ด้านนอก": 5712,
      "อุ้ม": 5713,
      "ติดต่อ": 5714,
      "ห้าตัว": 5715,
      "ดวงใจ": 5716,
      "ขณะที่เขา": 5717,
      "ลานนวดข้าว": 5718,
      "เยโฮอาช": 5719,
      "นับถือ": 5720,
      "ปกครองอิสราเอล": 5721,
      "ฮาซา": 5722,
      "กรัม": 5723,
      "จนถึงทุกวันนี้": 5724,
      "ผู้คนจะ": 5725,
      "ขับผี": 5726,
      "เปิดประตู": 5727,
      "แบ่งสรร": 5728,
      "มีชีวิตอยู่แน่ฉันใด": 5729,
      "ความทุกข์ร้อน": 5730,
      "อย่าให้ใคร": 5731,
      "เกินไป": 5732,
      "แตกต่าง": 5733,
      "แตกแยก": 5734,
      "ต่างๆของยูดาห์": 5735,
      "ธิดาของ": 5736,
      "ยับยั้ง": 5737,
      "อ้างว่า": 5738,
      "สยบ": 5739,
      "ซากศพ": 5740,
      "แม่ทัพนายกอง": 5741,
      "ภายใต้ดวงอาทิตย์": 5742,
      "ไนล์": 5743,
      "แปลกๆ": 5744,
      "ตรวจดู": 5745,
      "ระยะหนึ่ง": 5746,
      "ลั่นวาจาไว้": 5747,
      "ชายฝั่งทะเล": 5748,
      "วางมือบน": 5749,
      "ทักทาย": 5750,
      "เสาะหา": 5751,
      "สัมพันธ์": 5752,
      "ราบนมัสการ": 5753,
      "อาบียาธาร์": 5754,
      "อินทรี": 5755,
      "ชำนาญ": 5756,
      "60": 5757,
      "ขนาน": 5758,
      "จอก": 5759,
      "จูบ": 5760,
      "ฉกรร": 5761,
      "ตบ": 5762,
      "ถล": 5763,
      "ถิน": 5764,
      "ผลง": 5765,
      "ัญญา": 5766,
      "ิอัส": 5767,
      "ุค": 5768,
      "โฉ": 5769,
      "ๆไป": 5770,
      "’?": 5771,
      "ของเผ่า": 5772,
      "ของตัวเอง": 5773,
      "ของโมอับ": 5774,
      "ราณ": 5775,
      "เจ้าเห็น": 5776,
      "และเจ้า": 5777,
      "และเอ": 5778,
      "องค์เดียว": 5779,
      "ามาย": 5780,
      "เราต้อง": 5781,
      "ังคับ": 5782,
      "ตรวน": 5783,
      "มาเหนือ": 5784,
      "ไปเพราะ": 5785,
      "ครี": 5786,
      "ท่านจะได้": 5787,
      "เอม": 5788,
      "นั้นได้": 5789,
      "กลั": 5790,
      "ก็เห็น": 5791,
      "ทำนอง": 5792,
      "กับตา": 5793,
      "อยู่ว่า": 5794,
      "อยู่ฝ่าย": 5795,
      "เสอาห์": 5796,
      "หลุด": 5797,
      "เร่": 5798,
      "เยี่ยง": 5799,
      "ข้าพเจ้าไว้": 5800,
      "เมื่อพระองค์": 5801,
      "บั่น": 5802,
      "ตามแบบ": 5803,
      "ข้าพระองค์ไม่ได้": 5804,
      "หน้าผาก": 5805,
      "ของพระองค์เอง": 5806,
      "ใช้อ": 5807,
      "อย่างไม่": 5808,
      "ลงจาก": 5809,
      "ชายแดน": 5810,
      "สำนัก": 5811,
      "ของเจ้าเอง": 5812,
      "นาโอมี": 5813,
      "อันใด": 5814,
      "อันชอบธรรม": 5815,
      "ราชสี": 5816,
      "ราชบัลลังก์": 5817,
      "อยู่ในใจ": 5818,
      "สามคน": 5819,
      "สามปี": 5820,
      "สามครั้ง": 5821,
      "พระเยซูว่า": 5822,
      "บรรดาประชาชาติ": 5823,
      "ดาวิดราชบิดา": 5824,
      "โลกนี้": 5825,
      "สำหรับเรา": 5826,
      "ทิโม": 5827,
      "ปุโรหิตเอเลอาซาร์": 5828,
      "ยิ่งใหญ่น": 5829,
      "ทั้งหมดของ": 5830,
      "อะไรเลย": 5831,
      "ผลแรก": 5832,
      "ไม้และ": 5833,
      "แน่ว": 5834,
      "ตลอดเวลา": 5835,
      "ต้นอินทผลัม": 5836,
      "ซีซาร์": 5837,
      "ทุกข์ยาก": 5838,
      "แพศ": 5839,
      "บุตรชายคนหนึ่ง": 5840,
      "ผ้ากระสอบ": 5841,
      "สนับสน": 5842,
      "ตรงกัน": 5843,
      "บทบัญญัติและ": 5844,
      "ผู้เผยพระวจนะเยเรมีย์": 5845,
      "บางที": 5846,
      "โบราณ": 5847,
      "สินบน": 5848,
      "สินค้า": 5849,
      "วดลาย": 5850,
      "นับตั้งแต่": 5851,
      "บางคนก็": 5852,
      "ถ้อยคำที่": 5853,
      "เข้าไปในบ้าน": 5854,
      "ไกลถึง": 5855,
      "ชื่นชมยินดีใน": 5856,
      "ศอกและ": 5857,
      "ทุกสิ่งทุกอย่าง": 5858,
      "สามีของนาง": 5859,
      "เราจะทำให้เจ้า": 5860,
      "คารเมล": 5861,
      "หลงเตลิด": 5862,
      "กฎหมายของพระองค์": 5863,
      "ในโลกนี้": 5864,
      "ธัญบูชาและเครื่องดื่มบูชา": 5865,
      "วิบัติแก่": 5866,
      "กัดกิน": 5867,
      "เป็นอันว่า": 5868,
      "องค์พระเยซูเจ้า": 5869,
      "อุสซี": 5870,
      "คายาห์": 5871,
      "เปลือย": 5872,
      "ด้ายสีน้ำเงิน": 5873,
      "ไส้": 5874,
      "ฟ้องร้อง": 5875,
      "ชั่": 5876,
      "สง่าราศี": 5877,
      "โพก": 5878,
      "ทั้งวันทั้งคืน": 5879,
      "คุ้มครอง": 5880,
      "ข้อบังคับ": 5881,
      "กฤษฎีกา": 5882,
      "เฉลิมฉลอง": 5883,
      "อาราบาห์": 5884,
      "ฉกรรจ์": 5885,
      "ถินเทศ": 5886,
      "ราชสีห์": 5887,
      "สนับสนุน": 5888,
      "กราบนมัสการ": 5889,
      "ค่อย": 5890,
      "จ้อง": 5891,
      "ฉวย": 5892,
      "ดฟ้า": 5893,
      "ต้อย": 5894,
      "ต้ม": 5895,
      "ทักษ์": 5896,
      "ยั่ง": 5897,
      "วียน": 5898,
      "สด": 5899,
      "ฮีบรู": 5900,
      "าดี": 5901,
      "พระเกียรติ": 5902,
      "ที่มา": 5903,
      "ที่ทำให้": 5904,
      "และประชาชน": 5905,
      "เป็นลูก": 5906,
      "่อหยิ่ง": 5907,
      "จะไม่มีใคร": 5908,
      "เรารู้ว่า": 5909,
      "พระองค์ผู้": 5910,
      "พระองค์ไป": 5911,
      "ในนั้น": 5912,
      "ในเวลา": 5913,
      "ให้มี": 5914,
      "ให้หมด": 5915,
      "ได้แต่": 5916,
      "ได้อีก": 5917,
      "มาซิ": 5918,
      "ไม่ฟัง": 5919,
      "ท่านเจ้าข้า": 5920,
      "จากปาก": 5921,
      "มีอำนาจ": 5922,
      "ทำเป็น": 5923,
      "ความโกรธ": 5924,
      "แต่ไม่มีใคร": 5925,
      "อยู่รอบ": 5926,
      "แล้วทรง": 5927,
      "พระเจ้าพระยาห์เวห์": 5928,
      "เย่อหยิ่ง": 5929,
      "จงลุกขึ้น": 5930,
      "ซึ่งใช้": 5931,
      "เหลี่ยม": 5932,
      "เกวียน": 5933,
      "เมื่อพระเยซูทรง": 5934,
      "จึงตรัสว่า": 5935,
      "จึงได้ชื่อว่า": 5936,
      "ตามมา": 5937,
      "เพื่อเรา": 5938,
      "เพื่อใช้": 5939,
      "บุตรนาง": 5940,
      "โล่ง": 5941,
      "สิ่งที่น่า": 5942,
      "แห่งอารัม": 5943,
      "คือการ": 5944,
      "กษัตริย์โซโลมอน": 5945,
      "วิตร": 5946,
      "คำสาบาน": 5947,
      "คำปรึกษา": 5948,
      "กันเอง": 5949,
      "บรรทม": 5950,
      "ชายใด": 5951,
      "ชีวิตร": 5952,
      "ชาวโมอับ": 5953,
      "ไม่ได้เข้าสุหนัต": 5954,
      "สาบ": 5955,
      "ตั้งอยู่": 5956,
      "โดยเร็ว": 5957,
      "พร่ำ": 5958,
      "รูธ": 5959,
      "อยู่ในหมู่": 5960,
      "พิเคราะห์": 5961,
      "พิทักษ์": 5962,
      "ดินแดนของเขา": 5963,
      "ละเลย": 5964,
      "บาปของ": 5965,
      "บ้านของเขา": 5966,
      "บ้านเกิด": 5967,
      "บอกพวกเขาว่า": 5968,
      "พวกท่านก็": 5969,
      "ได้รับความ": 5970,
      "ตาดู": 5971,
      "โมเสสว่า": 5972,
      "สะเทือน": 5973,
      "พันธมิตร": 5974,
      "เหนือกว่า": 5975,
      "บริสุทธิ์ที่สุด": 5976,
      "ครั้งเล่า": 5977,
      "มาถึงแล้ว": 5978,
      "ใช่ไหม": 5979,
      "สัญญาไว้กับ": 5980,
      "วางฐานราก": 5981,
      "เศราห์": 5982,
      "จะเป็นที่": 5983,
      "สนทน": 5984,
      "ผู้รับใช้ของฝ่าพระบาท": 5985,
      "คาเดช": 5986,
      "อาโรนและ": 5987,
      "อายุยี่สิบปี": 5988,
      "บันได": 5989,
      "ยุคนี้": 5990,
      "ดับวงศ์ตระกูล": 5991,
      "สักคนเดียว": 5992,
      "เกลื่อน": 5993,
      "ท้องทะเล": 5994,
      "กฎระเบียบ": 5995,
      "แปลง": 5996,
      "เขียนไว้": 5997,
      "มาหาท่าน": 5998,
      "จำนวนพล": 5999,
      "เป็นมลทินตามระเบียบพิธี": 6000,
      "อ่อนล้า": 6001,
      "ปฏิบัติตามพระบัญชา": 6002,
      "ข่มเหงรังแก": 6003,
      "เป็นเครื่องบูชาด้วยไฟ": 6004,
      "ปฏิบัติงาน": 6005,
      "ข้าแต่พระเจ้าขอทรง": 6006,
      "บารุค": 6007,
      "ปรนนิบัติรับใช้": 6008,
      "แสดงความ": 6009,
      "กฎหมายและ": 6010,
      "จงฟังเถิด": 6011,
      "ถนนหนทาง": 6012,
      "เว้นแต่": 6013,
      "ดุจ": 6014,
      "ยูดาห์และเยรูซาเล็ม": 6015,
      "จุบัน": 6016,
      "สลากที่": 6017,
      "รกราก": 6018,
      "โต้แย้ง": 6019,
      "หรอกหรือ": 6020,
      "ตกใจกลัว": 6021,
      "เรื่อยๆ": 6022,
      "อัญเชิญ": 6023,
      "ผู้หนึ่งตัวเป็นเครื่องบูชาไถ่บาป": 6024,
      "ตระหนักว่า": 6025,
      "ในเวลากลางคืน": 6026,
      "เบเออร์เชบา": 6027,
      "ยึดมั่นใน": 6028,
      "ครั้งแล้วครั้งเล่า": 6029,
      "กังวล": 6030,
      "ชัลลู": 6031,
      "ปัจจุบัน": 6032,
      "แดนเทือกเขาแห่งเอฟราอิม": 6033,
      "ทิโมธี": 6034,
      "แน่วแน่": 6035,
      "24": 6036,
      "ขวาน": 6037,
      "คทา": 6038,
      "จุ่ม": 6039,
      "ชัม": 6040,
      "ซัส": 6041,
      "ดุง": 6042,
      "นิด": 6043,
      "ผดุง": 6044,
      "ฝัก": 6045,
      "มณี": 6046,
      "ยั่ว": 6047,
      "ศิม": 6048,
      "สวย": 6049,
      "อาร์": 6050,
      "อ้วน": 6051,
      "ฮาร": 6052,
      "แวะ": 6053,
      "ระง": 6054,
      "ของบาบิโลน": 6055,
      "ของชนชาติต่างๆ": 6056,
      "เจ้าทั้งหลาย": 6057,
      "เข็ญ": 6058,
      "และทุก": 6059,
      "และต้อง": 6060,
      "และเอา": 6061,
      "และไม่มีใคร": 6062,
      "และสันติสุข": 6063,
      "และน้ำผึ้ง": 6064,
      "เป็นบุตร": 6065,
      "เป็นอย่างไร": 6066,
      "เป็นหัวหน้า": 6067,
      "เขาถูก": 6068,
      "ผู้ดูแล": 6069,
      "เราได้ยิน": 6070,
      "พระองค์ไม่ได้": 6071,
      "คนยากจน": 6072,
      "ได้ถวาย": 6073,
      "จากวงศ์วาน": 6074,
      "พวกเขาออกไป": 6075,
      "กับข้าพเจ้า": 6076,
      "อาคม": 6077,
      "อยู่ภายใน": 6078,
      "เช่า": 6079,
      "เรท": 6080,
      "เรบ": 6081,
      "ข้าพเจ้าจะไม่": 6082,
      "เกราะ": 6083,
      "ตามแต่ละ": 6084,
      "สัป": 6085,
      "เพื่อเป็น": 6086,
      "ถึงการ": 6087,
      "ถึงเพียงนี้": 6088,
      "โลด": 6089,
      "โรย": 6090,
      "ตัวที่": 6091,
      "ตัวให้": 6092,
      "เราจะทำลาย": 6093,
      "วิวาท": 6094,
      "โดเนีย": 6095,
      "กันเถิด": 6096,
      "โยก": 6097,
      "ดีหรือ": 6098,
      "ชาวมีเดียน": 6099,
      "ไม่ได้เป็น": 6100,
      "ใช้ชีวิต": 6101,
      "ของเจ้าเป็น": 6102,
      "เครื่องเทศ": 6103,
      "ตั้งไว้": 6104,
      "หาส": 6105,
      "ของท่านจะ": 6106,
      "เบียน": 6107,
      "น้ำตา": 6108,
      "กล่าวไว้": 6109,
      "ใครหนอ": 6110,
      "ึกก้อง": 6111,
      "แผด": 6112,
      "สำหรับการ": 6113,
      "ส่วนที่เหลือ": 6114,
      "ปุโรหิตและ": 6115,
      "เชื่อว่า": 6116,
      "มาจากพระเจ้า": 6117,
      "เซ่น": 6118,
      "สมทบ": 6119,
      "ของพวกเขาจะ": 6120,
      "ตาข่าย": 6121,
      "เหล่าผู้เผยพระวจนะ": 6122,
      "สุดปลาย": 6123,
      "ผลดี": 6124,
      "ถ้าเขา": 6125,
      "พร้อมที่จะ": 6126,
      "ตลอดทุกชั่วอายุ": 6127,
      "เฮล": 6128,
      "ประตูด": 6129,
      "หายโรค": 6130,
      "เพียงคนเดียว": 6131,
      "ยามเฝ้าประตู": 6132,
      "อัมโนน": 6133,
      "ภูเขาทั้งหลาย": 6134,
      "จิตสำนึก": 6135,
      "ทะเลาะ": 6136,
      "หันกลับ": 6137,
      "โปรย": 6138,
      "ต่อไปนี้คือ": 6139,
      "ออกจากเมือง": 6140,
      "อาณาเขต": 6141,
      "พ่อค้า": 6142,
      "ผู้รับใช้ขององค์พระผู้เป็นเจ้า": 6143,
      "แม่น้ำไนล์": 6144,
      "พันธสัญญาของเรา": 6145,
      "รวมตัวกัน": 6146,
      "รุ่งอรุณ": 6147,
      "เพื่อนที่รัก": 6148,
      "พระวิญญาณของพระเจ้า": 6149,
      "กลายเป็นคน": 6150,
      "พระยาห์เวห์พระเจ้าของท่านจะทรง": 6151,
      "เด็กๆ": 6152,
      "ไล่ล่า": 6153,
      "จิตใจของข้าพระองค์": 6154,
      "แหลก": 6155,
      "มาหาเรา": 6156,
      "ลูกหลานของเขา": 6157,
      "อ่อนระโหย": 6158,
      "ของชาวอาโมไรต์": 6159,
      "ในวันที่สาม": 6160,
      "ตำหนัก": 6161,
      "ระหว่างเรา": 6162,
      "ใบหน้า": 6163,
      "ล้อมรอบ": 6164,
      "นะเวห์": 6165,
      "ยืนอยู่ข้าง": 6166,
      "บาดแผล": 6167,
      "ประโยชน์อะไร": 6168,
      "บิดเบือน": 6169,
      "อภัยโทษ": 6170,
      "สันติภาพ": 6171,
      "หลงผิด": 6172,
      "ยอดนักรบ": 6173,
      "เดือนที่เจ็ด": 6174,
      "จดหมายฉบับ": 6175,
      "มุ่งหน้า": 6176,
      "ยกย่องเทิดทูน": 6177,
      "ประพฤติต": 6178,
      "ยื่นมือ": 6179,
      "แก่อิสราเอล": 6180,
      "กุมาร": 6181,
      "ต่ำต้อย": 6182,
      "ภาษาแปลกๆ": 6183,
      "ชัดเจน": 6184,
      "พระประสงค์ของพระเจ้า": 6185,
      "นีนะเวห์": 6186,
      "ตามที่องค์พระผู้เป็นเจ้าทรงบัญชาโมเสส": 6187,
      "ตะวันออกของแม่น้ำจอร์แดน": 6188,
      "ดื้อด้าน": 6189,
      "อภิสุทธิสถาน": 6190,
      "ค้นหา": 6191,
      "ล่าวว่า": 6192,
      "อิจฉา": 6193,
      "พรรษาและทรงครองราชย์": 6194,
      "เขย่า": 6195,
      "ไม้กระถินเทศ": 6196,
      "เงยหน้าขึ้น": 6197,
      "โอ่อ่าตระการ": 6198,
      "โยชูวาบุตรนูน": 6199,
      "ทายาท": 6200,
      "ตรงกันข้าม": 6201,
      "กึกก้อง": 6202,
      "ฏิ": 6203,
      "ดล": 6204,
      "บั้น": 6205,
      "ปรุง": 6206,
      "ผ่า": 6207,
      "ภพ": 6208,
      "ลัย": 6209,
      "วอด": 6210,
      "สร้อย": 6211,
      "หัง": 6212,
      "โพ้น": 6213,
      "เจ้าไม่ได้": 6214,
      "ที่ไม้กางเขน": 6215,
      "และอีก": 6216,
      "และน้ำ": 6217,
      "และคนที่": 6218,
      "และฆ่า": 6219,
      "และมนัสเสห์": 6220,
      "และฝูงสัตว์": 6221,
      "องค์ที่": 6222,
      "ับราฮัม": 6223,
      "เป็นของเรา": 6224,
      "เขาเหล่านั้น": 6225,
      "เขาทั้งสอง": 6226,
      "จะตก": 6227,
      "ผู้คนที่": 6228,
      "ผู้น้อย": 6229,
      "ในงาน": 6230,
      "ในตอน": 6231,
      "ในฤดู": 6232,
      "ให้มา": 6233,
      "คนยากไร้": 6234,
      "ได้ข่าวว่า": 6235,
      "มาทูลถาม": 6236,
      "เหือด": 6237,
      "เหรีย": 6238,
      "ไม่พบ": 6239,
      "ไปไหน": 6240,
      "พวกทหาร": 6241,
      "ท่านแล้ว": 6242,
      "เอาก": 6243,
      "เอเฟ": 6244,
      "านี": 6245,
      "มีคายาห์": 6246,
      "ประโลม": 6247,
      "ประกาย": 6248,
      "กลิ": 6249,
      "ก็ไม่มี": 6250,
      "พวกเขาไม่ได้": 6251,
      "พวกเขากล่าวว่า": 6252,
      "แต่ท่าน": 6253,
      "หลอก": 6254,
      "รับโทษ": 6255,
      "ข้าพเจ้าจะได้": 6256,
      "เพราะพระองค์": 6257,
      "ซึ่งอาศัยอยู่ใน": 6258,
      "ไวต์": 6259,
      "เด่น": 6260,
      "บาเบล": 6261,
      "ไว้ด้วย": 6262,
      "ไว้ใต้": 6263,
      "ไว้อาลัย": 6264,
      "เมื่อเห็น": 6265,
      "ตามทาง": 6266,
      "สิ่งของ": 6267,
      "ตรัสสั่ง": 6268,
      "เข้าประจำ": 6269,
      "อย่างสุดใจ": 6270,
      "หารือ": 6271,
      "หาริย์": 6272,
      "ลงแรง": 6273,
      "ทางทิศ": 6274,
      "คำพยากรณ์": 6275,
      "บนหลัง": 6276,
      "กันที่": 6277,
      "บูชาก": 6278,
      "ชายคนนี้": 6279,
      "ชาวอามาเลข": 6280,
      "ทั้งหลายของเจ้า": 6281,
      "นาอิม": 6282,
      "อันทรงฤทธิ์": 6283,
      "ทั้งปวงใน": 6284,
      "ทั้งปวงก็": 6285,
      "พิภพ": 6286,
      "สิ่งที่เกิดขึ้น": 6287,
      "บรรดาคน": 6288,
      "ประชากรเหล่านี้": 6289,
      "ดาวิดจึง": 6290,
      "ช่วยพวกเขา": 6291,
      "ชอบกบฏ": 6292,
      "สิบห้า": 6293,
      "คลอน": 6294,
      "เอาไป": 6295,
      "ตามที่ท่าน": 6296,
      "ไม้ฝา": 6297,
      "นายทหาร": 6298,
      "พร้อมทุ่งหญ้า": 6299,
      "ตลอดทาง": 6300,
      "พี่น้องของเขา": 6301,
      "พระวิหารของพระเจ้า": 6302,
      "เฮส": 6303,
      "เหตุผล": 6304,
      "เรียกกันว่า": 6305,
      "คงอยู่": 6306,
      "เสียอีก": 6307,
      "เสียหาย": 6308,
      "หันมา": 6309,
      "หันกลับมาหา": 6310,
      "สูงส่ง": 6311,
      "หนีรอด": 6312,
      "ดังนี้คือ": 6313,
      "ทีละ": 6314,
      "ชุมชนอิสราเอล": 6315,
      "ยึดถือ": 6316,
      "ลิ้ม": 6317,
      "สักคน": 6318,
      "สีขาว": 6319,
      "จะต้องตาย": 6320,
      "ขึ้นมาใหม่": 6321,
      "คลุมหน้า": 6322,
      "นกอินทรี": 6323,
      "ในหมู่ประชาชาติ": 6324,
      "มาหาเจ้า": 6325,
      "แพะผู้หนึ่งตัวเป็นเครื่องบูชาไถ่บาป": 6326,
      "แบ่งปัน": 6327,
      "ปฏิญาณไว้กับ": 6328,
      "คนเหล่านี้คือ": 6329,
      "ตัดสินใจ": 6330,
      "กิจการ": 6331,
      "เที่ย": 6332,
      "สืบเชื้อสาย": 6333,
      "บันทึกล": 6334,
      "องค์พระผู้เป็นเจ้าตรัสดังนั้น": 6335,
      "แห้งแล้ง": 6336,
      "เดือนที่หนึ่ง": 6337,
      "เข้มแข็งขึ้น": 6338,
      "ทับทรวง": 6339,
      "ฟังคำอธิษฐาน": 6340,
      "ปาฏิ": 6341,
      "มุสา": 6342,
      "ห่างจาก": 6343,
      "เชิงเขา": 6344,
      "หนาว": 6345,
      "ตักน้ำ": 6346,
      "ปลอบประโลม": 6347,
      "ฮานันยาห์": 6348,
      "เศรุยาห์": 6349,
      "จองจำ": 6350,
      "ทวีจำนวน": 6351,
      "เมชุล": 6352,
      "หมื่นคน": 6353,
      "บาอาชา": 6354,
      "เสนอ": 6355,
      "ศีลธรรมทางเพศ": 6356,
      "ไต่สวน": 6357,
      "บุตรและญาติพี่น้อง": 6358,
      "ตะกร้า": 6359,
      "ฮาซาเอล": 6360,
      "ผลงาน": 6361,
      "มาซิโดเนีย": 6362,
      "สุดปลายแผ่นดินโลก": 6363,
      "เหรียญ": 6364,
      "ปาฏิหาริย์": 6365,
      "18": 6366,
      "400": 6367,
      "คอก": 6368,
      "คราง": 6369,
      "ฆี่ยน": 6370,
      "งอน": 6371,
      "ด่าง": 6372,
      "ธร": 6373,
      "นัย": 6374,
      "นวล": 6375,
      "บบาเบล": 6376,
      "พละ": 6377,
      "พนัก": 6378,
      "ฟาง": 6379,
      "สรณ์": 6380,
      "หง": 6381,
      "หั": 6382,
      "หึง": 6383,
      "ึน": 6384,
      "เฆี่ยน": 6385,
      "พระศิลา": 6386,
      "พระอาจารย์": 6387,
      "ของแท่น": 6388,
      "เจ้าอย่า": 6389,
      "และสัตว์": 6390,
      "และพูดว่า": 6391,
      "และทำลายล้าง": 6392,
      "เปเร": 6393,
      "เป็นศัตรู": 6394,
      "เป็นฝ่าย": 6395,
      "เขาสัตว์": 6396,
      "ผู้ให้": 6397,
      "าริ": 6398,
      "อย่าน": 6399,
      "เรารู้": 6400,
      "เราสั่ง": 6401,
      "พระองค์แล้ว": 6402,
      "ในธรรมศาลา": 6403,
      "ให้ทรง": 6404,
      "ให้ฟัง": 6405,
      "คนโต": 6406,
      "ไปอย่าง": 6407,
      "ไปโดย": 6408,
      "พวกข้าพระบาท": 6409,
      "เพิง": 6410,
      "ท่านไป": 6411,
      "ท่านในวันนี้": 6412,
      "เมค": 6413,
      "เม็ด": 6414,
      "เมามาย": 6415,
      "จากตระกูล": 6416,
      "มีบันทึกไว้ในจดหมายเหตุกษัตริย์": 6417,
      "ก็เพื่อ": 6418,
      "ทั้งห้า": 6419,
      "พวกเขามา": 6420,
      "พวกเขาทำ": 6421,
      "ความพินาศ": 6422,
      "ความเดือดร้อน": 6423,
      "เลื่อน": 6424,
      "แต่ไม่ใช่": 6425,
      "อาหาส": 6426,
      "อยู่ก็": 6427,
      "แล้วที่": 6428,
      "นี้ได้": 6429,
      "นี้มี": 6430,
      "พระเจ้าได้": 6431,
      "เชย": 6432,
      "เพราะฉะนั้น": 6433,
      "จึงถูก": 6434,
      "จึงเสด็จ": 6435,
      "ขึ้นว่า": 6436,
      "ทุกครั้ง": 6437,
      "ใจคด": 6438,
      "ข้าพระองค์และ": 6439,
      "ชนหยิบมือ": 6440,
      "ออกผล": 6441,
      "หน้าซื่อ": 6442,
      "แหง": 6443,
      "ตรัสตอบว่า": 6444,
      "เนหัส": 6445,
      "อย่างรุนแรง": 6446,
      "แห่งนั้น": 6447,
      "แห่งอัสซีเรีย": 6448,
      "เมืองเยรีโค": 6449,
      "นำของ": 6450,
      "นำเงิน": 6451,
      "ขอถวาย": 6452,
      "ลาส": 6453,
      "กำบัง": 6454,
      "พระองค์ทรงส่ง": 6455,
      "พระองค์ทรงกระทำ": 6456,
      "ดีใจ": 6457,
      "ชาวเยรูซาเล็ม": 6458,
      "ชาวเบนยามิน": 6459,
      "ชีวิตของข้าพระองค์": 6460,
      "เหมือนกัน": 6461,
      "เครื่องหมาย": 6462,
      "เครื่องดื่มบูชา": 6463,
      "นางจะ": 6464,
      "ทูลพระองค์ว่า": 6465,
      "สิ่งที่เจ้า": 6466,
      "บรรดาเจ้านาย": 6467,
      "ปีน": 6468,
      "หากเขา": 6469,
      "ช่วยเรา": 6470,
      "เหนื่อย": 6471,
      "ทั้งหมดและ": 6472,
      "สมรส": 6473,
      "เหนือพวกเขา": 6474,
      "ผลไม้": 6475,
      "ผลองุ่น": 6476,
      "โทบ": 6477,
      "โอโฮ": 6478,
      "เกิดมา": 6479,
      "พระบาทของพระองค์": 6480,
      "เสียงแตร": 6481,
      "พลบ": 6482,
      "ไปยังดินแดน": 6483,
      "ยอมให้": 6484,
      "บิยาห์": 6485,
      "เผ่าเลวี": 6486,
      "เผ่ากาด": 6487,
      "ด้านหนึ่ง": 6488,
      "ทั่วแดน": 6489,
      "ดาริอัส": 6490,
      "เลี้ยงสัตว์": 6491,
      "ฟีเนหัส": 6492,
      "เข้ามาหา": 6493,
      "มองไป": 6494,
      "มองไม่เห็น": 6495,
      "แทนที่จะ": 6496,
      "เยโฮอาหาส": 6497,
      "โยเซฟจึง": 6498,
      "ประทับตรา": 6499,
      "เลือดของ": 6500,
      "เลือดเนื้อ": 6501,
      "ลิบน": 6502,
      "กล่าวกับพวกเขาว่า": 6503,
      "ปัญญ": 6504,
      "ไม่ว่าจะ": 6505,
      "เอลีชาก": 6506,
      "พระพิโรธของพระเจ้า": 6507,
      "พระพิโรธอันรุนแรง": 6508,
      "ภายนอก": 6509,
      "ผู้นั้นจะ": 6510,
      "เช่นนั้นก็": 6511,
      "ประชาชาติทั้งปวง": 6512,
      "เนื่องจากเจ้า": 6513,
      "แหลกลา": 6514,
      "มีความผิด": 6515,
      "เมตตาก": 6516,
      "ประจำวัน": 6517,
      "จะมีการ": 6518,
      "คู่ควร": 6519,
      "ขึ้นไปบน": 6520,
      "ักษณ์": 6521,
      "กว้างขวาง": 6522,
      "เท่านั้นแต่": 6523,
      "ยืนอยู่ต่อหน้า": 6524,
      "ก่อสร้าง": 6525,
      "พระราชกิจของพระองค์": 6526,
      "ปรานี": 6527,
      "เยโรโบอัมบุตรเน": 6528,
      "เชิงงอน": 6529,
      "รถม้าศึกและ": 6530,
      "พิณเขา": 6531,
      "ห่วงใย": 6532,
      "งอกงาม": 6533,
      "พระผู้สร้าง": 6534,
      "พระประสงค์ของพระองค์": 6535,
      "พันธสัญญากับ": 6536,
      "มาอาเสอาห์": 6537,
      "เพื่อเราจะได้": 6538,
      "ฉาบ": 6539,
      "สูญสิ้นไป": 6540,
      "สภาพดี": 6541,
      "เศรุบบาเบล": 6542,
      "จอมปลอม": 6543,
      "องค์พระเยซูคริสต์เจ้าของเรา": 6544,
      "วิสัยบาป": 6545,
      "เป็นกลิ่นหอมที่องค์พระผู้เป็นเจ้าพอพระทัย": 6546,
      "เปลือยเปล่า": 6547,
      "ยั่งยืน": 6548,
      "ชัลลูม": 6549,
      "ประตูด้าน": 6550,
      "เมชุลลาม": 6551,
      "พละกำลัง": 6552,
      "หึงหวง": 6553,
      "หน้าซื่อใจคด": 6554,
      "แหลกลาญ": 6555,
      "เมตตากรุ": 6556,
      "เยโรโบอัมบุตรเนบัท": 6557,
      "ช้ำ": 6558,
      "ซาห์": 6559,
      "ผ่อน": 6560,
      "มึน": 6561,
      "ยาร": 6562,
      "รเทศ": 6563,
      "สื": 6564,
      "สุม": 6565,
      "ฮาก": 6566,
      "ิช": 6567,
      "ุ้ง": 6568,
      "ูป": 6569,
      "เวย": 6570,
      "ระทม": 6571,
      "พระกุมาร": 6572,
      "ของอียิปต์": 6573,
      "ของพลับพลา": 6574,
      "ที่ประตู": 6575,
      "เขาก็จะ": 6576,
      "ผู้ช่วย": 6577,
      "ายิล": 6578,
      "ในสงคราม": 6579,
      "ในท้องฟ้า": 6580,
      "มานี้": 6581,
      "ไม่เพียง": 6582,
      "พวกฟีลิสเตีย": 6583,
      "คร้าน": 6584,
      "มีต่อ": 6585,
      "ประสู": 6586,
      "ประจัน": 6587,
      "ก็เสด็จ": 6588,
      "ทำอันตราย": 6589,
      "พวกเขาไม่": 6590,
      "พวกเขากำลัง": 6591,
      "เลท": 6592,
      "แต่กษัตริย์": 6593,
      "แต่ไม่มี": 6594,
      "กับบุตรและญาติพี่น้อง": 6595,
      "อาโมน": 6596,
      "อยู่และ": 6597,
      "อยู่ริม": 6598,
      "เสรา": 6599,
      "แล้วท่าน": 6600,
      "แล้วองค์พระผู้เป็นเจ้าตรัสกับโมเสสว่า": 6601,
      "เชเมช": 6602,
      "เร้า": 6603,
      "เยา": 6604,
      "ข้าพเจ้ามา": 6605,
      "จงประกาศ": 6606,
      "จงเข้มแข็ง": 6607,
      "จงกล่าวแก่": 6608,
      "ซึ่งองค์พระผู้เป็นเจ้าทรง": 6609,
      "เด็ด": 6610,
      "เมื่อคน": 6611,
      "เมื่อนาง": 6612,
      "เมื่อโมเสส": 6613,
      "ขึ้นหนึ่ง": 6614,
      "ข้าพระองค์ไว้": 6615,
      "ตรัสดังนั้น": 6616,
      "ตรัสถาม": 6617,
      "เนรเทศ": 6618,
      "อย่างปลอดภัย": 6619,
      "แห่งอียิปต์": 6620,
      "เราจะตั้ง": 6621,
      "กษัตริย์ทั้งหลาย": 6622,
      "กำราบ": 6623,
      "โยฮานัน": 6624,
      "สำมะ": 6625,
      "ชาวโลก": 6626,
      "ตั้งขึ้น": 6627,
      "ตั้งรกราก": 6628,
      "ไม่มีสิ่งใด": 6629,
      "โดยไม่ต้อง": 6630,
      "รักเรา": 6631,
      "ทำให้เรา": 6632,
      "ทำให้ข้าพเจ้า": 6633,
      "ราชินี": 6634,
      "หมดแรง": 6635,
      "ดาวิดก็": 6636,
      "ดาวิดตรัสว่า": 6637,
      "บ้านเมือง": 6638,
      "ได้รับมอบหมาย": 6639,
      "ปุโรหิตและคนเลวี": 6640,
      "สิบของ": 6641,
      "ทั้งหมดใน": 6642,
      "สงสัย": 6643,
      "พันธกิจ": 6644,
      "จะไม่ถูก": 6645,
      "เหนืออิสราเอล": 6646,
      "จำลอง": 6647,
      "ผลจาก": 6648,
      "ผลัก": 6649,
      "ผลของมัน": 6650,
      "มาถึงเมือง": 6651,
      "สุสาน": 6652,
      "เงินหนึ่งใบหนักประมาณ": 6653,
      "ทะเบียน": 6654,
      "โทษถึงตาย": 6655,
      "ทุกข์ใจ": 6656,
      "ด้วยความโกรธ": 6657,
      "คิดถึง": 6658,
      "เจ็ดตัว": 6659,
      "ฝูงวัว": 6660,
      "ถืออาวุธ": 6661,
      "มอบพวกเขา": 6662,
      "ด้านเหนือ": 6663,
      "ด้านตะวันออก": 6664,
      "ใส่ร้าย": 6665,
      "ทะเลแดง": 6666,
      "ทะเลสาบ": 6667,
      "อยู่ที่เมือง": 6668,
      "อยู่กับพระองค์": 6669,
      "ทั้งสองก็": 6670,
      "ใกล้ชิด": 6671,
      "จับตาดู": 6672,
      "ชื่นบาน": 6673,
      "กระทำการ": 6674,
      "เป็นที่ลี้ภัย": 6675,
      "พาเขา": 6676,
      "นมัสการองค์พระผู้เป็นเจ้า": 6677,
      "อารโนน": 6678,
      "พระดำรัสจากองค์พระผู้เป็นเจ้า": 6679,
      "ลำธาร": 6680,
      "พระวิญญาณขององค์พระผู้เป็นเจ้า": 6681,
      "เฟท": 6682,
      "กรณี": 6683,
      "นั่งบน": 6684,
      "มีความเข้าใจ": 6685,
      "อ่อนโยน": 6686,
      "เปิดออก": 6687,
      "สวมชุด": 6688,
      "ครวญคราง": 6689,
      "โรคติดต่อ": 6690,
      "เกี่ยวข้อง": 6691,
      "กองทัพอิสราเอล": 6692,
      "สังเวย": 6693,
      "ระลึกว่า": 6694,
      "อาบีชัย": 6695,
      "โยชูวาว่า": 6696,
      "ทางเข้าเต็นท์นัดพบ": 6697,
      "เหตุใดท่านจึง": 6698,
      "เบื้องขวา": 6699,
      "ลงไปใน": 6700,
      "อภัยบาป": 6701,
      "อาการ": 6702,
      "อิ่มเอม": 6703,
      "อนุสรณ์": 6704,
      "เกียจคร้าน": 6705,
      "เลือกสรรไว้": 6706,
      "ขี้เถ้า": 6707,
      "บากบั่น": 6708,
      "พระที่นั่งกรุณา": 6709,
      "ถัดจาก": 6710,
      "เพื่อท่านจะได้": 6711,
      "อุโมงค์ฝังศพ": 6712,
      "ถาวร": 6713,
      "สิ่งมีชีวิตทั้งสี่": 6714,
      "ธุลีดิน": 6715,
      "อ่างประพรม": 6716,
      "โซ่ตรวน": 6717,
      "วัช": 6718,
      "ราชมารดาคือ": 6719,
      "ธิดาแห่งศิโยน": 6720,
      "มหึ": 6721,
      "เยชูอา": 6722,
      "นาอามาน": 6723,
      "ตามแต่ละตระกูล": 6724,
      "สัปดาห์": 6725,
      "จดหมายฉบับนี้": 6726,
      "บันทึกลำ": 6727,
      "ธรณี": 6728,
      "พนักงาน": 6729,
      "พลบค่ำ": 6730,
      "พิณเขาคู่": 6731,
      "เมตตากรุณา": 6732,
      "ประสูติ": 6733,
      "ประจันหน้า": 6734,
      "ขึ้นหนึ่งค่ำ": 6735,
      "ขั้น": 6736,
      "ง่อย": 6737,
      "ดัน": 6738,
      "ดูก": 6739,
      "ตวง": 6740,
      "ท้น": 6741,
      "ฝืน": 6742,
      "พูน": 6743,
      "มด": 6744,
      "ยี": 6745,
      "ยุ่ง": 6746,
      "หิม": 6747,
      "อล": 6748,
      "ู่น": 6749,
      "แอบ": 6750,
      "องการ": 6751,
      "พระเหล่านั้น": 6752,
      "ของพระบาอัล": 6753,
      "ราห": 6754,
      "ที่เราจะ": 6755,
      "และช่วย": 6756,
      "และปุโรหิต": 6757,
      "และจะไม่": 6758,
      "และน่า": 6759,
      "และทุกคนที่": 6760,
      "เป็นมรดก": 6761,
      "ผู้ทำนาย": 6762,
      "ามี": 6763,
      "ว่าร้าย": 6764,
      "พระองค์ไม่ทรง": 6765,
      "ในอดีต": 6766,
      "ได้ขึ้น": 6767,
      "ทรงนำ": 6768,
      "ไม่กี่": 6769,
      "ไปที่นั่น": 6770,
      "ินทา": 6771,
      "เอช": 6772,
      "จากดินแดน": 6773,
      "จากเงื้อมมือ": 6774,
      "มีบุตร": 6775,
      "ทำกับ": 6776,
      "ทำสิ่งเหล่านี้": 6777,
      "เลม": 6778,
      "เลี่ยง": 6779,
      "เล่ห์": 6780,
      "แต่ให้": 6781,
      "แต่ความ": 6782,
      "แต่ข้าพระองค์": 6783,
      "กับเหล่า": 6784,
      "สิลาส": 6785,
      "แล้วนำ": 6786,
      "แล้วโมเสส": 6787,
      "แล้วพวกเขาจะ": 6788,
      "แล้วทำไม": 6789,
      "แล้วพระองค์ตรัสกับ": 6790,
      "การพิพากษา": 6791,
      "พระเจ้าว่า": 6792,
      "ข้าพเจ้าอยาก": 6793,
      "เพราะพระเจ้า": 6794,
      "เพราะเราได้": 6795,
      "หมัน": 6796,
      "เหลียว": 6797,
      "ตามหา": 6798,
      "ตามเสด็จ": 6799,
      "ทุกต้น": 6800,
      "โรจน์": 6801,
      "อิสราเอลให้": 6802,
      "เนห์": 6803,
      "ใช้น": 6804,
      "อย่างเดียวกัน": 6805,
      "แห่งความชอบธรรม": 6806,
      "แห่งบาชาน": 6807,
      "ถูกฝัง": 6808,
      "เมืองป้อมปราการ": 6809,
      "โมราห์": 6810,
      "โดร์": 6811,
      "หลายวัน": 6812,
      "คำสั่งสอน": 6813,
      "บนโลก": 6814,
      "บนแผ่นดินโลก": 6815,
      "บูชามา": 6816,
      "เคร่ง": 6817,
      "สาเหตุ": 6818,
      "อีกคน": 6819,
      "นาและ": 6820,
      "เครื่องธัญบูชา": 6821,
      "ต่างก็": 6822,
      "เถอะ": 6823,
      "เคือง": 6824,
      "ผู้ที่ทรง": 6825,
      "ถวายแด่": 6826,
      "ทั้งปวงของเจ้า": 6827,
      "ใครบ้าง": 6828,
      "มากและ": 6829,
      "ประชากรของเราและ": 6830,
      "กำลังพล": 6831,
      "ส่วนคนที่": 6832,
      "เลยหรือ": 6833,
      "ได้รับพร": 6834,
      "เหนียว": 6835,
      "ครองบัลลังก์": 6836,
      "คล้อง": 6837,
      "สะพรึง": 6838,
      "อะไรบ้าง": 6839,
      "่อยาก": 6840,
      "เยรูซาเล็มและ": 6841,
      "สุดจิต": 6842,
      "ครั้งใหญ่": 6843,
      "แกะและ": 6844,
      "ตามที่มี": 6845,
      "ในวันแห่ง": 6846,
      "นายร้อย": 6847,
      "ตลอดคืน": 6848,
      "ไปยังบาบิโลน": 6849,
      "หมู่ประชากร": 6850,
      "โกโมราห์": 6851,
      "ยืนยง": 6852,
      "ผ่านพ้น": 6853,
      "ทั่วดินแดน": 6854,
      "พ่อแม่": 6855,
      "คาอิน": 6856,
      "ได้แก่ตระกูล": 6857,
      "อธิษฐานต่อองค์พระผู้เป็นเจ้า": 6858,
      "ลุกขึ้นมา": 6859,
      "อาโรนและบรรดา": 6860,
      "แรงงาน": 6861,
      "ข้อกล่าวหา": 6862,
      "แท่นบูชาและ": 6863,
      "ลำห้วย": 6864,
      "แหลม": 6865,
      "ดำเนินใน": 6866,
      "พระบิดาของท่าน": 6867,
      "มีความเชื่อ": 6868,
      "เปาโลกับ": 6869,
      "แพะผู้": 6870,
      "ลบล้าง": 6871,
      "แคบ": 6872,
      "เริ่มต้น": 6873,
      "และการกระทำ": 6874,
      "สารภาพ": 6875,
      "ใบไม้": 6876,
      "ความทุกข์ลำเค็ญ": 6877,
      "เปริส": 6878,
      "เหตุใดเจ้าจึง": 6879,
      "เบื้องพระพักตร์": 6880,
      "เบื้องล่าง": 6881,
      "ไข้": 6882,
      "มวลมนุษยชาติ": 6883,
      "นครนั้น": 6884,
      "ผ่านทางโมเสส": 6885,
      "ชักดาบ": 6886,
      "โดยไม่เจตนา": 6887,
      "อยู่นี้": 6888,
      "ไซรัส": 6889,
      "ตัวเขาเอง": 6890,
      "ผูกมัด": 6891,
      "ฮาดัดเอเซอร์": 6892,
      "ดอกไม้": 6893,
      "ตัวและลูกแกะตัวผู้อายุหนึ่งขวบ": 6894,
      "อานุภาพ": 6895,
      "ชาวกิ": 6896,
      "โครน": 6897,
      "อานาค": 6898,
      "เพศสัมพันธ์": 6899,
      "เมื่อใดก็ตามที่": 6900,
      "เฉลียว": 6901,
      "ไม่ออก": 6902,
      "ฮีราม": 6903,
      "ตราบจนทุกวันนี้": 6904,
      "แนวรบ": 6905,
      "อัญมณี": 6906,
      "ตรงทางเข้าเต็นท์นัดพบ": 6907,
      "ร่มเงา": 6908,
      "อุทิศตน": 6909,
      "ป่าวร้อง": 6910,
      "ยิ้ม": 6911,
      "ฆาตกร": 6912,
      "ฮักก": 6913,
      "บุคคล": 6914,
      "แพศยา": 6915,
      "ชีวิตรอด": 6916,
      "สนทนากับ": 6917,
      "อายุยี่สิบปีขึ้นไป": 6918,
      "ดลใจ": 6919,
      "วอดวาย": 6920,
      "เฮสโรน": 6921,
      "เปเรศ": 6922,
      "กับบุตรและญาติพี่น้องรวม": 6923,
      "บันทึกลำดับวงศ์ตระกูล": 6924,
      "หิมะ": 6925,
      "กวาง": 6926,
      "คิยาห์": 6927,
      "ง่าย": 6928,
      "ฉลาก": 6929,
      "ชวน": 6930,
      "ณาม": 6931,
      "ถาก": 6932,
      "ทาห์": 6933,
      "ทยาน": 6934,
      "ปัด": 6935,
      "พาน": 6936,
      "พราง": 6937,
      "ลีบ": 6938,
      "วรร": 6939,
      "ห่อ": 6940,
      "หาง": 6941,
      "อึก": 6942,
      "อูเอล": 6943,
      "ฮิตไทต์": 6944,
      "ีไวต์": 6945,
      "ื้": 6946,
      "ุบ": 6947,
      "แจง": 6948,
      "โองการ": 6949,
      "ไพร่": 6950,
      "พระกร": 6951,
      "พระบารมี": 6952,
      "ของลูก": 6953,
      "ของนา": 6954,
      "ของยอห์น": 6955,
      "ของผม": 6956,
      "แลง": 6957,
      "เจ้าแล้ว": 6958,
      "เจ้าบ่าว": 6959,
      "ที่ลาน": 6960,
      "และหม": 6961,
      "และมอบ": 6962,
      "และแดง": 6963,
      "เป็นความจริง": 6964,
      "เขาไว้": 6965,
      "เขาใช้": 6966,
      "จะช่วย": 6967,
      "ผู้ถูก": 6968,
      "ผู้ยากไร้": 6969,
      "ามของเรา": 6970,
      "ไม่อยาก": 6971,
      "ในมือ": 6972,
      "ในความเชื่อ": 6973,
      "ให้เกียรติ": 6974,
      "ให้ประชาชน": 6975,
      "คนตาบอด": 6976,
      "มาจับ": 6977,
      "มาปรากฏ": 6978,
      "มาประชุม": 6979,
      "มาคีร์": 6980,
      "ทรงเรียก": 6981,
      "ียวย": 6982,
      "ไปให้": 6983,
      "พวกที่": 6984,
      "เพาะ": 6985,
      "ครั้น": 6986,
      "ท่านด้วย": 6987,
      "ท่านอาจารย์": 6988,
      "เอามือ": 6989,
      "เมิน": 6990,
      "จากพระองค์": 6991,
      "จากบาป": 6992,
      "จากครอบครัวของ": 6993,
      "ประหนึ่ง": 6994,
      "ประณาม": 6995,
      "ก็ส่ง": 6996,
      "ทั้งตัว": 6997,
      "ผู้เป็นบิดาของ": 6998,
      "พวกเขานำ": 6999,
      "แต่เพียง": 7000,
      "สิเสรา": 7001,
      "อารา": 7002,
      "อกสั่น": 7003,
      "แล้วเรา": 7004,
      "การเดินทาง": 7005,
      "จงตาม": 7006,
      "จงเอา": 7007,
      "จงเรียก": 7008,
      "เพราะเหตุนี้": 7009,
      "ซึ่งเขา": 7010,
      "เกรา": 7011,
      "บัด": 7012,
      "หรือคน": 7013,
      "หรือหญิง": 7014,
      "บุตรเช": 7015,
      "บุตรเบ": 7016,
      "มือของเรา": 7017,
      "ตรัสแก่": 7018,
      "ตัวเป็น": 7019,
      "ตัวนั้น": 7020,
      "แห่งเมือง": 7021,
      "แห่งรัชกาลกษัตริย์": 7022,
      "เราจะไป": 7023,
      "เราจะรวบรวม": 7024,
      "เมืองลี้ภัย": 7025,
      "ทางตะวันตก": 7026,
      "เทิน": 7027,
      "กำไร": 7028,
      "บนศีรษะ": 7029,
      "บรรทุก": 7030,
      "บรรดาน": 7031,
      "แดนมร": 7032,
      "ลูกแพะ": 7033,
      "อีกและ": 7034,
      "อีกหลายคน": 7035,
      "ื่นถวาย": 7036,
      "โดยอาศัย": 7037,
      "ดังที่": 7038,
      "อันทิ": 7039,
      "ผู้ที่ถูก": 7040,
      "มันเป็น": 7041,
      "ของท่านเอง": 7042,
      "เบช": 7043,
      "ใครๆ": 7044,
      "ฟังเรา": 7045,
      "ดินแดนทั้งหมด": 7046,
      "คนที่สอง": 7047,
      "ช่วยข้าพเจ้า": 7048,
      "บอกเขาว่า": 7049,
      "ยกาย": 7050,
      "โมเสสได้": 7051,
      "ตกอยู่": 7052,
      "ตะขอ": 7053,
      "ถามกันว่า": 7054,
      "ผิดศีลธรรมทางเพศ": 7055,
      "เรื่องอะไร": 7056,
      "ตรัสกับเขาว่า": 7057,
      "เหลือเกิน": 7058,
      "ทิ้งไว้": 7059,
      "บัญชี": 7060,
      "มารวม": 7061,
      "ด้านละ": 7062,
      "เกียรติยศ": 7063,
      "หันหลัง": 7064,
      "หันไปทาง": 7065,
      "บรรพบุรุษของพวกเขา": 7066,
      "อยู่กับเขา": 7067,
      "อยู่กับพวกท่าน": 7068,
      "อุทยาน": 7069,
      "ซึ่งเป็นที่": 7070,
      "โบร์": 7071,
      "มายังกรุงเยรูซาเล็ม": 7072,
      "เป็นที่โปรดปราน": 7073,
      "อาหิยาห์": 7074,
      "อธิษฐานว่า": 7075,
      "พาข้าพเจ้า": 7076,
      "รุ่งโรจน์": 7077,
      "ม้าและ": 7078,
      "ข้าแต่องค์พระผู้เป็นเจ้าพระองค์ทรง": 7079,
      "ข้อหา": 7080,
      "เพื่อนร่วม": 7081,
      "จมูก": 7082,
      "กล่าวกับเขาว่า": 7083,
      "ค่าไถ่": 7084,
      "พระราชโองการ": 7085,
      "ฮาโซ": 7086,
      "ฮาราน": 7087,
      "พระคุณของพระเจ้า": 7088,
      "เฟอร์": 7089,
      "ในหมู่พวกท่าน": 7090,
      "มากมายเหมือน": 7091,
      "กำหนดให้": 7092,
      "ริมโมน": 7093,
      "ปฏิบัติตามคำสั่ง": 7094,
      "ระหว่างทาง": 7095,
      "ชั้นบน": 7096,
      "ขึ้นไปบนภูเขา": 7097,
      "ลงมาเหนือ": 7098,
      "ขย้ำ": 7099,
      "ปิดประตู": 7100,
      "ในที่ราบ": 7101,
      "เหล่าสาวกว่า": 7102,
      "ความทุกข์ทรมาน": 7103,
      "เท่านั้นที่": 7104,
      "ดำรงชีวิต": 7105,
      "ลูกชายลูกสาว": 7106,
      "ทองสัมฤทธิ์และ": 7107,
      "เจ็บป่วย": 7108,
      "เที่ยงตรง": 7109,
      "จิตวิญญาณของข้าพเจ้า": 7110,
      "แต่นี่": 7111,
      "ผ่านทางผู้เผยพระวจนะ": 7112,
      "จงฟังพระดำรัสขององค์พระผู้เป็นเจ้า": 7113,
      "ฟากตะวันออกของแม่น้ำจอร์แดน": 7114,
      "คานหาม": 7115,
      "คลอดลูก": 7116,
      "พยายามจะ": 7117,
      "ผีสิง": 7118,
      "พระพักตร์ของพระองค์": 7119,
      "เชิงเทิน": 7120,
      "น้องชายของ": 7121,
      "ค้าขาย": 7122,
      "สี่สิบวัน": 7123,
      "ห้วงลึก": 7124,
      "ชาวฮีไวต์": 7125,
      "โชติ": 7126,
      "ถัดไป": 7127,
      "ผู้บัญชาการทหารรักษาพระองค์": 7128,
      "วิธีนี้": 7129,
      "เปล่งเสียง": 7130,
      "ค้ำประกัน": 7131,
      "ม่วงและแดง": 7132,
      "แลกกับ": 7133,
      "จองห": 7134,
      "ถุงหนัง": 7135,
      "ความหมายของ": 7136,
      "เยฟธาห์": 7137,
      "ฟ้าสวรรค์และแผ่นดินโลก": 7138,
      "เจิดจ้า": 7139,
      "ราโมทกิเลอาด": 7140,
      "ใกล้เข้ามาแล้ว": 7141,
      "ทรงล่วงลับไปอยู่กับบรรพบุรุษและถูกฝัง": 7142,
      "ด้ายสีน้ำเงินม่วงและแดง": 7143,
      "ศิมรี": 7144,
      "พรรษาและทรงครองราชย์อยู่ในกรุงเยรูซาเล็ม": 7145,
      "เที่ยว": 7146,
      "เปริสซี": 7147,
      "เพศสัมพันธ์กับ": 7148,
      "เฉลียวฉลาด": 7149,
      "อกสั่นขวัญ": 7150,
      "200": 7151,
      "กิต": 7152,
      "กอด": 7153,
      "ก้ม": 7154,
      "ขาม": 7155,
      "ขอก": 7156,
      "จิน": 7157,
      "น้อม": 7158,
      "นรก": 7159,
      "ปน": 7160,
      "พญ": 7161,
      "รัด": 7162,
      "วนม": 7163,
      "สนม": 7164,
      "สดุ": 7165,
      "หด": 7166,
      "อวน": 7167,
      "ฮัน": 7168,
      "ฮาร์": 7169,
      "โคลน": 7170,
      "พระโลหิต": 7171,
      "ของแม่": 7172,
      "ของฟีลิสเตีย": 7173,
      "ของพระยาห์เวห์ผู้ทรงฤทธิ์": 7174,
      "ที่คน": 7175,
      "ที่ประตูเมือง": 7176,
      "และมา": 7177,
      "และอิสราเอล": 7178,
      "และกล่าว": 7179,
      "และสร้าง": 7180,
      "เปื่อย": 7181,
      "เป็นปุโรหิต": 7182,
      "เขาทูลว่า": 7183,
      "จะอยู่": 7184,
      "จะประทาน": 7185,
      "จะเกิด": 7186,
      "เรามีชีวิตอยู่แน่ฉันใด": 7187,
      "ไมตรี": 7188,
      "ในทำนอง": 7189,
      "ให้ไป": 7190,
      "ให้พวกท่าน": 7191,
      "คนจน": 7192,
      "ได้ละทิ้ง": 7193,
      "มานา": 7194,
      "ทรงกระทำ": 7195,
      "ไปกว่า": 7196,
      "ครู": 7197,
      "คร่า": 7198,
      "ท่านก็จะ": 7199,
      "มีอายุ": 7200,
      "กลิ้ง": 7201,
      "ก็อย่า": 7202,
      "ก็พบ": 7203,
      "ก็ลุกขึ้น": 7204,
      "ทำดี": 7205,
      "พวกเขาด้วย": 7206,
      "พวกเขาทูลว่า": 7207,
      "ความอัปยศอดสู": 7208,
      "แต่พระเจ้า": 7209,
      "แต่ก่อน": 7210,
      "แต่ก็ยัง": 7211,
      "เสรี": 7212,
      "้องชาย": 7213,
      "แล้วจะ": 7214,
      "แล้วจึง": 7215,
      "แล้วหรือ": 7216,
      "แล้วองค์พระผู้เป็นเจ้าตรัสกับ": 7217,
      "นี้หรือ": 7218,
      "การล่วงละเมิด": 7219,
      "เอลคาน": 7220,
      "เยเซ": 7221,
      "ข้าพเจ้าเป็น": 7222,
      "จงระลึกถึง": 7223,
      "เพราะทรง": 7224,
      "ซึ่งทำให้": 7225,
      "หมั้น": 7226,
      "เหลว": 7227,
      "ขึ้นแล้ว": 7228,
      "หรือมี": 7229,
      "หรือสัตว์": 7230,
      "ตามพระสัญญา": 7231,
      "สัญ": 7232,
      "ต่อจาก": 7233,
      "ถึงความ": 7234,
      "ตรัสตอบ": 7235,
      "เข้าใน": 7236,
      "เนียน": 7237,
      "อย่างละ": 7238,
      "ตัวข้าพเจ้า": 7239,
      "แห่งเปอร์เซีย": 7240,
      "เราจะให้เจ้า": 7241,
      "ลงเหนือ": 7242,
      "จนหมดสิ้น": 7243,
      "ขอพระเจ้า": 7244,
      "ขอฝากความคิดถึงมายัง": 7245,
      "ลาคีช": 7246,
      "โยท": 7247,
      "แดนผู้ตาย": 7248,
      "ลูกธนู": 7249,
      "ทั้งหลายจะ": 7250,
      "อีกหรือ": 7251,
      "อีกตัวหนึ่ง": 7252,
      "โดยให้": 7253,
      "แมง": 7254,
      "เหล่านัก": 7255,
      "ผู้ที่พระองค์ทรง": 7256,
      "ผู้ที่องค์พระผู้เป็นเจ้าทรง": 7257,
      "เบโอน": 7258,
      "อยู่ในทาง": 7259,
      "มากิน": 7260,
      "สิ่งที่ข้าพเจ้า": 7261,
      "ชั่วนิรันดร์": 7262,
      "สร้างเมือง": 7263,
      "ดังนั้นโมเสสจึง": 7264,
      "เซน": 7265,
      "ส่งทูต": 7266,
      "สงวน": 7267,
      "ตกแก่": 7268,
      "บริสุทธิ์และ": 7269,
      "สิ้นหวัง": 7270,
      "ตะแลง": 7271,
      "แม้กระทั่ง": 7272,
      "พลัน": 7273,
      "พลุ่ง": 7274,
      "ได้ยินคำ": 7275,
      "ขณะเดียวกัน": 7276,
      "กิโล": 7277,
      "วางบน": 7278,
      "เรียกท่าน": 7279,
      "แผ่นดินไหว": 7280,
      "ทุกข์ร้อน": 7281,
      "จะเป็นจริง": 7282,
      "เจ็ดคน": 7283,
      "เจ็ดครั้ง": 7284,
      "บิล": 7285,
      "มารบ": 7286,
      "เผ่าเบนยามิน": 7287,
      "บุตรชายหญิง": 7288,
      "ร่วมโต๊ะ": 7289,
      "ด้านใต้": 7290,
      "ด้านตะวันตก": 7291,
      "พักพิง": 7292,
      "ีบาง": 7293,
      "ภรรยาก": 7294,
      "ทั่วแผ่นดิน": 7295,
      "กรุงนั้น": 7296,
      "ต่อไปว่า": 7297,
      "ฝ่าฝืน": 7298,
      "ของคนเหล่านั้น": 7299,
      "ห้าคน": 7300,
      "ซาอูลทรง": 7301,
      "ทีร": 7302,
      "และความรัก": 7303,
      "ข้างหลัง": 7304,
      "เฝ้าระวัง": 7305,
      "ชนชาติหนึ่ง": 7306,
      "ขณะที่ข้าพเจ้า": 7307,
      "ไล่ออก": 7308,
      "ไม่ยอมให้": 7309,
      "ข่าวดี": 7310,
      "เบธเชเมช": 7311,
      "อาดัม": 7312,
      "ในหมู่พวกเขา": 7313,
      "ทุกอย่างที่": 7314,
      "นั่งลง": 7315,
      "พระหัตถ์ของพระเจ้า": 7316,
      "ชำระตัว": 7317,
      "เตรียมพร้อม": 7318,
      "ไม่ใช่หรือว่า": 7319,
      "สำแดงความ": 7320,
      "รูปเคารพต่างๆ": 7321,
      "ความชอบธรรมของพระองค์": 7322,
      "แบบอย่าง": 7323,
      "ขัดขืน": 7324,
      "แคว้นมาซิโดเนีย": 7325,
      "พระเกียรติสิริของพระเจ้า": 7326,
      "กว้างยาว": 7327,
      "คนเหล่านั้นว่า": 7328,
      "สืบๆไป": 7329,
      "พินาศไป": 7330,
      "กลุ่มใหญ่": 7331,
      "เฮเซคียาห์ทรง": 7332,
      "มหาด": 7333,
      "อิสอัคและยาโคบ": 7334,
      "วิ่งไป": 7335,
      "ความมืดมน": 7336,
      "ร้องทูลองค์พระผู้เป็นเจ้า": 7337,
      "พระบุตรของพระองค์": 7338,
      "ขนแกะ": 7339,
      "ไม่รู้หรือว่า": 7340,
      "เพิ่มขึ้น": 7341,
      "ซารัส": 7342,
      "ขันที": 7343,
      "บังคับบัญชา": 7344,
      "อานาห์": 7345,
      "กฎเกณฑ์ของพระองค์": 7346,
      "แต่ไม่พบ": 7347,
      "กรรณ": 7348,
      "เหี่ยวแห้ง": 7349,
      "อัชโดด": 7350,
      "สัตว์ที่เลื้อยคลาน": 7351,
      "ภาคภูมิ": 7352,
      "โอบาดี": 7353,
      "ถูกฆ่าตาย": 7354,
      "ย่างก้าว": 7355,
      "ตามความสมัครใจ": 7356,
      "เปลือยกาย": 7357,
      "เติบโตขึ้น": 7358,
      "เหตุการณ์อื่นๆในรัชกาลของ": 7359,
      "ตะลึง": 7360,
      "ใฝ่หา": 7361,
      "ทุ่มเท": 7362,
      "ผู้เป็นพระยาห์เวห์ได้": 7363,
      "เป็นชิ้นๆ": 7364,
      "อ้วนพี": 7365,
      "เอเฟซัส": 7366,
      "สืบท": 7367,
      "เยาว์": 7368,
      "จดหมายฉบับนี้จากข้าพเจ้า": 7369,
      "ถากถาง": 7370,
      "อันทิโอก": 7371,
      "ฮาโซร์": 7372,
      "จองหอง": 7373,
      "อกสั่นขวัญแขวน": 7374,
      "สืบๆไปเป็นนิตย์": 7375,
      "โอบาดีห์": 7376,
      "15": 7377,
      "34": 7378,
      "600": 7379,
      "ก่": 7380,
      "ขึง": 7381,
      "ขวาย": 7382,
      "ขุ่น": 7383,
      "คค": 7384,
      "ฉาย": 7385,
      "ตวรร": 7386,
      "ทึก": 7387,
      "ธัญญา": 7388,
      "นุษ": 7389,
      "ปิ": 7390,
      "ป้าย": 7391,
      "ปัญ": 7392,
      "พริบ": 7393,
      "มู": 7394,
      "ยาย": 7395,
      "รีก": 7396,
      "ลึ": 7397,
      "ศมี": 7398,
      "ศตวรร": 7399,
      "สระ": 7400,
      "สเท": 7401,
      "สทัส": 7402,
      "ุทร": 7403,
      "แวบ": 7404,
      "ไก่": 7405,
      "พระบัญญัติ": 7406,
      "พระเมษโปดก": 7407,
      "ของหญิง": 7408,
      "ของสัตว์": 7409,
      "ของพวกเรา": 7410,
      "เจ้าไว้": 7411,
      "ที่กษัตริย์": 7412,
      "ที่บ้าน": 7413,
      "ที่มิสปาห์": 7414,
      "ที่พำนัก": 7415,
      "และด้วย": 7416,
      "และชาย": 7417,
      "และยา": 7418,
      "และองค์พระผู้เป็นเจ้าทรง": 7419,
      "และเผา": 7420,
      "และเป็นที่": 7421,
      "และนมัสการ": 7422,
      "และสวม": 7423,
      "และโรคระบาด": 7424,
      "เป็นหนึ่ง": 7425,
      "เป็นส่วน": 7426,
      "เป็นเสียง": 7427,
      "เป็นเรื่อง": 7428,
      "เป็นอาหาร": 7429,
      "เป็นต้น": 7430,
      "เป็นดั่ง": 7431,
      "เขาแล้ว": 7432,
      "จะถวาย": 7433,
      "จะสร้าง": 7434,
      "จะกิน": 7435,
      "เราเห็น": 7436,
      "เรากำลัง": 7437,
      "ในเรื่องนี้": 7438,
      "ในสถานนมัสการ": 7439,
      "ในครั้งนั้น": 7440,
      "ในนามของเรา": 7441,
      "ให้เป็นผู้": 7442,
      "ให้กำลังใจ": 7443,
      "คนไหน": 7444,
      "คนอธรรม": 7445,
      "ได้เลย": 7446,
      "ทรงพระ": 7447,
      "ทรงทำสิ่งที่ชั่วในสายพระเนตรขององค์พระผู้เป็นเจ้า": 7448,
      "ไม่ดี": 7449,
      "ไม่ขาด": 7450,
      "ไม่กล้า": 7451,
      "ไปนาน": 7452,
      "ั้นมา": 7453,
      "หน่วง": 7454,
      "ท่านไม่": 7455,
      "จากที่": 7456,
      "จากเยรูซาเล็ม": 7457,
      "จากแผ่นดิน": 7458,
      "จากตะวันออก": 7459,
      "มีหู": 7460,
      "ก็ออกไป": 7461,
      "ชาห์": 7462,
      "ึ่งศตวรร": 7463,
      "พวกเขาทำให้": 7464,
      "แต่ต้อง": 7465,
      "แต่ดาวิด": 7466,
      "แต่สำหรับ": 7467,
      "แต่หากเจ้า": 7468,
      "กับความ": 7469,
      "องค์พระผู้": 7470,
      "องค์พระผู้เป็นเจ้าของเรา": 7471,
      "องค์พระผู้เป็นเจ้าไม่ได้": 7472,
      "องค์พระผู้เป็นเจ้าสถิตกับ": 7473,
      "หลาก": 7474,
      "การสรรเสริญ": 7475,
      "แก้ว": 7476,
      "แกะนั้น": 7477,
      "เชีย": 7478,
      "เยอาร": 7479,
      "เยเซอร์": 7480,
      "จงรับ": 7481,
      "ด้วยหรือ": 7482,
      "ด้วยเสียง": 7483,
      "ซึ่งได้": 7484,
      "ซึ่งพระองค์ทรง": 7485,
      "ซึ่งกันและกัน": 7486,
      "หมุด": 7487,
      "เกหะ": 7488,
      "เมื่อดาวิด": 7489,
      "เพื่อการ": 7490,
      "ใจของท่าน": 7491,
      "บุตรหลาน": 7492,
      "บุตรอัมมี": 7493,
      "โลหะ": 7494,
      "แหวน": 7495,
      "อิสราเอลและ": 7496,
      "เข้าเมือง": 7497,
      "เข้าด้วยกัน": 7498,
      "ยาห์บุตร": 7499,
      "ตัวลง": 7500,
      "เมืองนอน": 7501,
      "เมืองอัย": 7502,
      "คือพระคริสต์": 7503,
      "กษัตริย์องค์": 7504,
      "จนจด": 7505,
      "จนตัวสั่น": 7506,
      "นำเจ้า": 7507,
      "นำมา": 7508,
      "ลาซารัส": 7509,
      "เผ่าน": 7510,
      "บนพื้น": 7511,
      "บนเนินเขา": 7512,
      "กันอยู่": 7513,
      "รุม": 7514,
      "ชาวเยบุส": 7515,
      "สาคร": 7516,
      "สาสมกับ": 7517,
      "เหมือนกับ": 7518,
      "เหมือนเสียง": 7519,
      "นาเค": 7520,
      "ไม่มีความ": 7521,
      "ไม่มีพระเจ้า": 7522,
      "โดยพระวิญญาณ": 7523,
      "ดังเดิม": 7524,
      "นางกล่าวว่า": 7525,
      "พรวน": 7526,
      "น้ำก็": 7527,
      "เตอร์": 7528,
      "ราชธิดา": 7529,
      "สามเดือน": 7530,
      "ขององค์พระผู้เป็นเจ้าและ": 7531,
      "ดินแดนของ": 7532,
      "สิ่งที่ถูกต้อง": 7533,
      "ชั่วโมง": 7534,
      "ละจาก": 7535,
      "ตอบสนอง": 7536,
      "ยกโทษ": 7537,
      "ปุโรหิตผู้": 7538,
      "ทั้งหมดล้วน": 7539,
      "บิดาของเจ้า": 7540,
      "สมุทร": 7541,
      "คลุก": 7542,
      "คลั่ง": 7543,
      "ประทานอาหาร": 7544,
      "นมและน้ำผึ้ง": 7545,
      "ประกาศแก่": 7546,
      "ฉะนั้นเราจะ": 7547,
      "โอท": 7548,
      "โอหัง": 7549,
      "ครั้งเดียว": 7550,
      "ฐานรองรับ": 7551,
      "นิล": 7552,
      "ไม้สอย": 7553,
      "นายพัน": 7554,
      "ได้ยินพระสุรเสียง": 7555,
      "เอ๋ยเจ้า": 7556,
      "พี่น้องของเจ้า": 7557,
      "พี่น้องของตน": 7558,
      "คืนสู่": 7559,
      "เงินหนักประมาณ": 7560,
      "ยืนอยู่ที่": 7561,
      "เครื่องบูชาลบความผิด": 7562,
      "บัญชาให้": 7563,
      "เลวทราม": 7564,
      "หันกลับมา": 7565,
      "ของคนอื่น": 7566,
      "ของคนเลวี": 7567,
      "เราได้เห็น": 7568,
      "ตระกูลต่างๆของ": 7569,
      "และความชอบธรรม": 7570,
      "รายรอบ": 7571,
      "พาพวกเขา": 7572,
      "มิล": 7573,
      "ตีสั่งสอน": 7574,
      "ลานพลับพลา": 7575,
      "เช่นนี้แหละ": 7576,
      "นับจำนวน": 7577,
      "ไม่ยอมเชื่อฟัง": 7578,
      "ลำเอียง": 7579,
      "เอลีอับ": 7580,
      "จะต้องมี": 7581,
      "แล้วกลับ": 7582,
      "ซื่อตรง": 7583,
      "เด็กหนุ่ม": 7584,
      "ครอบครัวของเขา": 7585,
      "จนถึงเวลาเย็น": 7586,
      "รากถอน": 7587,
      "รัศมี": 7588,
      "อิธาม": 7589,
      "ดำเนินในทาง": 7590,
      "ข้ามไป": 7591,
      "พระเนตรของพระองค์": 7592,
      "มีความรู้": 7593,
      "ท่ามกลางพวกเขา": 7594,
      "หวังว่า": 7595,
      "แจ้งท่านในวันนี้": 7596,
      "เสมอไป": 7597,
      "อยู่อีก": 7598,
      "ไม่เคยมี": 7599,
      "เอฟาห์": 7600,
      "เปโตรกับ": 7601,
      "ปฏิญาณไว้": 7602,
      "เมตตาข้าพระองค์": 7603,
      "เฉย": 7604,
      "อวยพรท่าน": 7605,
      "หนังสือบทบัญญัติ": 7606,
      "ปิดปาก": 7607,
      "ความทุกข์โศก": 7608,
      "น้ำมันมะกอก": 7609,
      "ขอบพระคุณองค์พระผู้เป็นเจ้า": 7610,
      "หมายสำคัญและ": 7611,
      "คันธนู": 7612,
      "มุ่งร้าย": 7613,
      "ในสายพระเนตรของพระองค์": 7614,
      "ปีกึ่งศตวรร": 7615,
      "เพิ่มพูน": 7616,
      "ตราบเท่า": 7617,
      "รีบรุด": 7618,
      "นั่นคือ": 7619,
      "ค้างคืน": 7620,
      "ขันสาคร": 7621,
      "ปรักปร": 7622,
      "จงบอกพวกเขาว่า": 7623,
      "เมื่อนั้นเจ้าจะ": 7624,
      "ไม่ได้รับการ": 7625,
      "เป็นเวลาเจ็ดวัน": 7626,
      "ภาษิต": 7627,
      "สะดุดล้ม": 7628,
      "เอกโลน": 7629,
      "พระเยซูตรัสกับพวกเขาว่า": 7630,
      "หมอบกราบซบหน้า": 7631,
      "คณะนักร้อง": 7632,
      "ถางไฟ": 7633,
      "คนและสัตว์": 7634,
      "ขานรับ": 7635,
      "ดายาห์": 7636,
      "พระหัตถ์ขวาของพระองค์": 7637,
      "บ่อย่ำ": 7638,
      "ขับผีออก": 7639,
      "กลัวย": 7640,
      "เร่ร่อน": 7641,
      "ข้อบังคับของพระองค์": 7642,
      "บุตรนางเศรุยาห์": 7643,
      "สะพรึงกลัว": 7644,
      "สดุดี": 7645,
      "เยเซเบล": 7646,
      "สืบทอด": 7647,
      "ธัญญาหาร": 7648,
      "นุษย์": 7649,
      "เยอาริม": 7650,
      "รากถอนโคน": 7651,
      "อิธามาร์": 7652,
      "ปีกึ่งศตวรรษ": 7653,
      "ขอน": 7654,
      "จั": 7655,
      "ซุง": 7656,
      "ซึ้ง": 7657,
      "ดริน": 7658,
      "ถี่": 7659,
      "นเฮ": 7660,
      "ปฐ": 7661,
      "ผวา": 7662,
      "ฟ่อน": 7663,
      "มูล": 7664,
      "ลวดลาย": 7665,
      "สาห์": 7666,
      "สับสน": 7667,
      "หั่น": 7668,
      "อร": 7669,
      "อริบ": 7670,
      "ฮิน": 7671,
      "ิท": 7672,
      "แว": 7673,
      "โถม": 7674,
      "พระวงศ์": 7675,
      "พระกรรณ": 7676,
      "ที่กำหนด": 7677,
      "เขี้ยว": 7678,
      "และนาง": 7679,
      "และทูล": 7680,
      "และโลก": 7681,
      "และจะทรง": 7682,
      "และพัก": 7683,
      "และเด็ก": 7684,
      "และปฏิบัติตาม": 7685,
      "และสัตว์ป่า": 7686,
      "เป็นของพระองค์": 7687,
      "เป็นไปได้": 7688,
      "เขาเลย": 7689,
      "จะถึง": 7690,
      "จะทำลาย": 7691,
      "ผู้ประทาน": 7692,
      "ือบ": 7693,
      "ในเต็นท์นัดพบ": 7694,
      "ในเมื่อท่าน": 7695,
      "ในไม่ช้า": 7696,
      "ในแดนเทือกเขาแห่งเอฟราอิม": 7697,
      "ให้ได้": 7698,
      "ให้กลายเป็น": 7699,
      "คนเรา": 7700,
      "คนแรก": 7701,
      "ได้ก็": 7702,
      "มาอย่าง": 7703,
      "มาคือ": 7704,
      "มาอีก": 7705,
      "ไม่ถ้วน": 7706,
      "ไปอีก": 7707,
      "หน่อ": 7708,
      "เอโน": 7709,
      "เอเดน": 7710,
      "เอโครน": 7711,
      "เมดิ": 7712,
      "จากท่าน": 7713,
      "จากความ": 7714,
      "จากนาง": 7715,
      "จากอียิปต์": 7716,
      "จากภูเขา": 7717,
      "มีปัญญา": 7718,
      "ี้ไป": 7719,
      "กลั้น": 7720,
      "ทำศึก": 7721,
      "แต่พวก": 7722,
      "แต่พวกเขาก็": 7723,
      "้วง": 7724,
      "องค์พระผู้เป็นเจ้าสถิต": 7725,
      "อาคีช": 7726,
      "เสไร": 7727,
      "แล้วข้าพเจ้าก็": 7728,
      "พระเจ้าของเจ้า": 7729,
      "เรด": 7730,
      "เรฟา": 7731,
      "เรเนียน": 7732,
      "เยียวย": 7733,
      "ข้าพเจ้ามี": 7734,
      "จงสรรเสริญพระองค์": 7735,
      "เพราะกลัว": 7736,
      "ซึ่งรับผิดชอบ": 7737,
      "ดาดฟ้า": 7738,
      "ไว้น": 7739,
      "บัย": 7740,
      "ขึ้นเพื่อ": 7741,
      "ขึ้นเหนือ": 7742,
      "ตามกำหนด": 7743,
      "ทุกเช้า": 7744,
      "เพื่อพวกเขาจะ": 7745,
      "บุตรทั้งหลาย": 7746,
      "วันยัง": 7747,
      "แดด": 7748,
      "ออกศึก": 7749,
      "สิ่งทั้งปวงที่": 7750,
      "อย่างเต็มที่": 7751,
      "ตัวไป": 7752,
      "ถูกแล้ว": 7753,
      "ถูกนับ": 7754,
      "กษัตริย์ตรัสว่า": 7755,
      "ของเราเรา": 7756,
      "นำท่าน": 7757,
      "ทางตะวันออก": 7758,
      "เทา": 7759,
      "ชายหรือหญิง": 7760,
      "เห็นใจ": 7761,
      "พระองค์ทรงมีพระชนมายุ": 7762,
      "ชาวต่างชาติ": 7763,
      "ชาวคูช": 7764,
      "ชาวเปริสซี": 7765,
      "ไร่น": 7766,
      "ของเขาว่า": 7767,
      "ลูกสะใภ้": 7768,
      "กาซา": 7769,
      "ของเจ้าแล้ว": 7770,
      "เครื่องทอง": 7771,
      "เครื่องบรรณาการ": 7772,
      "ไม่มีที่": 7773,
      "น้ำลาย": 7774,
      "ถวายแด่พระเจ้า": 7775,
      "อย่ามี": 7776,
      "สวัส": 7777,
      "อยู่ในที่": 7778,
      "อยู่ในมือ": 7779,
      "อยู่ในบ้าน": 7780,
      "อยู่ในเต็นท์": 7781,
      "มากยิ่งกว่า": 7782,
      "ดินแดนของพวกเขา": 7783,
      "ดินแดนที่เรา": 7784,
      "ร้องบอก": 7785,
      "ร้องตะโกนว่า": 7786,
      "บาปทั้งหลาย": 7787,
      "สำหรับท่าน": 7788,
      "ส่วนเจ้า": 7789,
      "ต่างๆใน": 7790,
      "สิบแปด": 7791,
      "ดังนั้นข้าพเจ้าจึง": 7792,
      "องค์พระผู้เป็นเจ้าทรงพระชนม์อยู่แน่ฉันใด": 7793,
      "ประทานแก่": 7794,
      "เยรูซาเล็มว่า": 7795,
      "พระยาห์เวห์พระเจ้าของพวกท่าน": 7796,
      "เหล่าทูตสวรรค์": 7797,
      "ไม้เรีย": 7798,
      "ที่นั่นมี": 7799,
      "พระวจนะนั้น": 7800,
      "ถามพวกเขาว่า": 7801,
      "เจ้าจะไม่ได้": 7802,
      "ได้ยินเรื่องนี้": 7803,
      "ตลอดนิรันดร์": 7804,
      "สุภาพ": 7805,
      "สุจริต": 7806,
      "สัญญาณ": 7807,
      "ไปยังที่": 7808,
      "ซีซาร": 7809,
      "วางไว้": 7810,
      "ทะน": 7811,
      "ด้วยความชอบธรรม": 7812,
      "ด้วยความยินดี": 7813,
      "โฮเช": 7814,
      "เดินไป": 7815,
      "ไว้ในใจ": 7816,
      "ถือดาบ": 7817,
      "บุตรชายชื่อ": 7818,
      "สายตา": 7819,
      "เคยเห็น": 7820,
      "ตรงไป": 7821,
      "ภรรยาน": 7822,
      "สี่คน": 7823,
      "สี่เหลี่ยม": 7824,
      "บรรพบุรุษของเขา": 7825,
      "ศิษ": 7826,
      "จะถูกทำให้": 7827,
      "จะถูกทิ้งร้าง": 7828,
      "ออกจากหมู่ประชากร": 7829,
      "ของคนโง่": 7830,
      "ของคนต่างชาติ": 7831,
      "จับตัว": 7832,
      "เลี้ยงชีพ": 7833,
      "พ่อตา": 7834,
      "ชื่นชอบ": 7835,
      "เนื้อความ": 7836,
      "ได้แก่เย": 7837,
      "รวมทั้งสิ้น": 7838,
      "มองหา": 7839,
      "ตั้งแต่ต้น": 7840,
      "นมัสการศักดิ์สิทธิ์": 7841,
      "ลานชั้นใน": 7842,
      "ข้าแต่องค์พระผู้เป็นเจ้าโปรด": 7843,
      "เกรงว่า": 7844,
      "จะต้องถูกตัด": 7845,
      "ศีร์": 7846,
      "กรม": 7847,
      "ล้มล้าง": 7848,
      "ลาดเขา": 7849,
      "พระหัตถ์อันทรงฤทธิ์": 7850,
      "เชื้อพระวงศ์": 7851,
      "ขับไล่ออก": 7852,
      "ของกษัตริย์บาบิโลน": 7853,
      "ธานิยาห์": 7854,
      "ไกลโพ้น": 7855,
      "หกวัน": 7856,
      "มั่นคงปลอดภัย": 7857,
      "เริ่มจาก": 7858,
      "บังอาจ": 7859,
      "ตัดสินความ": 7860,
      "ขึ้นไปถึง": 7861,
      "ทิศเหนือ": 7862,
      "แบบนี้": 7863,
      "พิพากษาลงโทษ": 7864,
      "อยากได้": 7865,
      "ช่างปั้น": 7866,
      "โยชูวาจึง": 7867,
      "ดำรงอยู่ใน": 7868,
      "มาถวายแด่องค์พระผู้เป็นเจ้า": 7869,
      "ต้นไม้ใหญ่": 7870,
      "แซนเฮ": 7871,
      "เยเรมีย์ว่า": 7872,
      "เที่ยงวัน": 7873,
      "ฝนตก": 7874,
      "สาบานโดยอ้าง": 7875,
      "เปลี่ยนแปลง": 7876,
      "เพราะท่านได้": 7877,
      "หลุมพราง": 7878,
      "ทารชิ": 7879,
      "แสวงหาพระองค์": 7880,
      "เช่นเดียวกับที่": 7881,
      "ปรารถนาจะ": 7882,
      "ประชุมนมัสการศักดิ์สิทธิ์": 7883,
      "แถบเทือกเขา": 7884,
      "คบชู้": 7885,
      "นอกจากนี้": 7886,
      "พระองค์ตรัสกับพวกเขาว่า": 7887,
      "หลักฐาน": 7888,
      "กษัตริย์แห่งอียิปต์": 7889,
      "โธท": 7890,
      "โธเฟล": 7891,
      "อาลักษณ์": 7892,
      "มองเห็นได้": 7893,
      "นองเลือด": 7894,
      "นิ่งเงียบ": 7895,
      "คราวนี้": 7896,
      "ทุบตี": 7897,
      "อานาโธท": 7898,
      "ภูมิภาค": 7899,
      "วัวหนุ่มหนึ่งตัว": 7900,
      "ฝุ่นธุลี": 7901,
      "เสริมสร้าง": 7902,
      "แทบเท้า": 7903,
      "ตามตระกูลและตาม": 7904,
      "เผชิญหน้า": 7905,
      "เพื่อเขาจะได้": 7906,
      "เอาน้ำ": 7907,
      "โยชูวากับ": 7908,
      "มีกำลังพล": 7909,
      "เบไนยาห์บุตร": 7910,
      "บูชายื่นถวาย": 7911,
      "เคียงข้าง": 7912,
      "เชื่อถือได้": 7913,
      "ศาสนา": 7914,
      "คีริยาทเยอาริม": 7915,
      "ล่มจม": 7916,
      "โบยตี": 7917,
      "เอาใจใส่": 7918,
      "เป็นเหตุให้": 7919,
      "ชั่วก็": 7920,
      "พิทักษ์รักษา": 7921,
      "บ้านเกิดเมืองนอน": 7922,
      "ระงับ": 7923,
      "โทบียาห์": 7924,
      "ในทำนองเดียวกัน": 7925,
      "เซนนาเค": 7926,
      "ทรงพระเจริญ": 7927,
      "เตอร์เรเนียน": 7928,
      "ปรักปรำ": 7929,
      "กลัวยิ่งนัก": 7930,
      "เมดิเตอร์เรเนียน": 7931,
      "วันยังค่ำ": 7932,
      "แซนเฮดริน": 7933,
      "เซนนาเคอริบ": 7934,
      "110": 7935,
      "กิด": 7936,
      "กริบ": 7937,
      "ขวน": 7938,
      "จ่อ": 7939,
      "ฉับ": 7940,
      "ชัส": 7941,
      "ซอก": 7942,
      "ซิบ": 7943,
      "ทิต": 7944,
      "ธ์": 7945,
      "ป่วน": 7946,
      "ฟัส": 7947,
      "มีย": 7948,
      "ยอบ": 7949,
      "รัย": 7950,
      "ลอด": 7951,
      "ว่ง": 7952,
      "วาร": 7953,
      "วาห์": 7954,
      "วิสุทธิสถาน": 7955,
      "ห้อม": 7956,
      "อุม": 7957,
      "ัฟทาลี": 7958,
      "าล": 7959,
      "ุติ": 7960,
      "โรง": 7961,
      "โกลา": 7962,
      "โกลิ": 7963,
      "ไง": 7964,
      "่าม": 7965,
      "พระต่างๆ": 7966,
      "ราษฎ": 7967,
      "ี่คือ": 7968,
      "เจ้าเราจะ": 7969,
      "ที่นาง": 7970,
      "ที่เต็นท์นัดพบ": 7971,
      "ที่แห่งนี้": 7972,
      "ที่ปรึกษา": 7973,
      "และเสียง": 7974,
      "และผู้เผยพระวจนะ": 7975,
      "และพวกเขาก็": 7976,
      "และของถวาย": 7977,
      "เป็นไปตาม": 7978,
      "เขามา": 7979,
      "เขาเป็นคน": 7980,
      "ผู้เชื่อ": 7981,
      "ามิ": 7982,
      "ันต์": 7983,
      "อยุติ": 7984,
      "เราด้วย": 7985,
      "เราขอ": 7986,
      "เรายก": 7987,
      "ในตัว": 7988,
      "ในสิ่งที่": 7989,
      "ให้อิสราเอล": 7990,
      "ให้ทุกคน": 7991,
      "คนจาก": 7992,
      "ได้กิน": 7993,
      "มาว่า": 7994,
      "ทรงทำให้": 7995,
      "ข้าได้": 7996,
      "เหี้ย": 7997,
      "ไปทูล": 7998,
      "เอามา": 7999,
      "มีดังนี้": 8000,
      "มีแก่ท่าน": 8001,
      "แต่อา": 8002,
      "ก็ทำให้": 8003,
      "ก็จะไม่": 8004,
      "ก็ดีกว่า": 8005,
      "ทำสงคราม": 8006,
      "ทั้งยัง": 8007,
      "พวกเขาเหมือน": 8008,
      "แต่คนที่": 8009,
      "แต่โมเสส": 8010,
      "แต่ไกล": 8011,
      "กับการ": 8012,
      "กับคนที่": 8013,
      "กับภรรยา": 8014,
      "กับลูกๆ": 8015,
      "กับพรรคพวก": 8016,
      "อาธา": 8017,
      "นี้ว่า": 8018,
      "แกว่ง": 8019,
      "เร้น": 8020,
      "เรคาบ": 8021,
      "ข้าพเจ้าไม่": 8022,
      "จงมอบ": 8023,
      "จงเชื่อฟัง": 8024,
      "จงทรงพระเจริญ": 8025,
      "เพราะนาง": 8026,
      "เพราะมัน": 8027,
      "เพราะพวกท่าน": 8028,
      "ซึ่งกำลัง": 8029,
      "บารา": 8030,
      "ไว้ใจ": 8031,
      "เมื่อองค์พระผู้เป็นเจ้าทรง": 8032,
      "ตามอย่าง": 8033,
      "ทุกชีวิต": 8034,
      "ทุกด้าน": 8035,
      "เพื่อข้าพระองค์จะ": 8036,
      "เพื่อพวกเขาจะได้": 8037,
      "วันแล้ว": 8038,
      "ข้าพระองค์จะไม่": 8039,
      "อิสราเอลจะ": 8040,
      "อิสราเอลก็": 8041,
      "ตรัสสั่งว่า": 8042,
      "เข้าใกล้": 8043,
      "เข้ายึดครอง": 8044,
      "เนธานิยาห์": 8045,
      "อดกลั้น": 8046,
      "แห่งความตาย": 8047,
      "เมืองสุ": 8048,
      "ลงต่อหน้า": 8049,
      "ดินเหนียว": 8050,
      "จนครบ": 8051,
      "นำข้าพระองค์": 8052,
      "นำอิสราเอล": 8053,
      "ขอรับ": 8054,
      "ขอร้อง": 8055,
      "ขอพระเจ้าทรง": 8056,
      "หลายคนที่": 8057,
      "บนแผ่นดิน": 8058,
      "เห็นนิมิต": 8059,
      "ซาบาด": 8060,
      "ดีแล้ว": 8061,
      "วิตก": 8062,
      "เหมือนคนที่": 8063,
      "ของเจ้าหรือ": 8064,
      "ต่างแดน": 8065,
      "หาอาหาร": 8066,
      "เครา": 8067,
      "เคาะ": 8068,
      "เคอี": 8069,
      "ผู้ที่เรา": 8070,
      "ผู้ที่ไม่": 8071,
      "ดูถูก": 8072,
      "สองแผ่น": 8073,
      "อยู่ในความมืด": 8074,
      "ตายไปแล้ว": 8075,
      "มากยิ่งขึ้น": 8076,
      "ฟังว่า": 8077,
      "ฟังข้าพเจ้า": 8078,
      "ดินแดนอิสราเอล": 8079,
      "พูดภาษาแปลกๆ": 8080,
      "เรียม": 8081,
      "ประชากรทั้งหมด": 8082,
      "ปีก็มี": 8083,
      "อมรี": 8084,
      "สำหรับพระองค์": 8085,
      "ส่วนท่าน": 8086,
      "มนตร์": 8087,
      "สร้างบ้าน": 8088,
      "มาจากเมือง": 8089,
      "พี่ๆ": 8090,
      "สุดท้อง": 8091,
      "แกะผู้หนึ่งตัว": 8092,
      "ตามที่เราได้": 8093,
      "หัวแม่": 8094,
      "ัพท์": 8095,
      "มนุษย์จะ": 8096,
      "เขาจะเป็น": 8097,
      "ต้นมะกอก": 8098,
      "ฟ้าร้อง": 8099,
      "ออกไปนอก": 8100,
      "ปกรณ์": 8101,
      "คนหนึ่งซึ่ง": 8102,
      "ขอทรงช่วย": 8103,
      "เครื่องบูชาด้วยไฟ": 8104,
      "ไว้ในคุก": 8105,
      "คงจะ": 8106,
      "คงอยู่ใน": 8107,
      "ขอให้เขา": 8108,
      "ตระหง": 8109,
      "ผู้ใดที่": 8110,
      "จัดงานเลี้ยง": 8111,
      "นี่ก็": 8112,
      "เข้าไปยึดครอง": 8113,
      "อัมพา": 8114,
      "เคยมี": 8115,
      "สนใจ": 8116,
      "บัญชาไว้": 8117,
      "เก็บร": 8118,
      "ทั่วทุก": 8119,
      "ทั้งสองข้าง": 8120,
      "หนีไปยัง": 8121,
      "ห้าสิบคน": 8122,
      "ซาอูลและ": 8123,
      "พอแล้ว": 8124,
      "ล้างเท้า": 8125,
      "ล้างผลาญ": 8126,
      "ท่านจะต้อง": 8127,
      "พระนามว่า": 8128,
      "ยากลำบาก": 8129,
      "ลึกซึ้ง": 8130,
      "ตีสอน": 8131,
      "เพื่อนๆ": 8132,
      "โยเซฟว่า": 8133,
      "ให้เป็นไปตาม": 8134,
      "นับแต่น": 8135,
      "ทองคำหนักประมาณ": 8136,
      "ทำไมท่านจึง": 8137,
      "เชลาห์": 8138,
      "เกรงขาม": 8139,
      "ลำน้ำ": 8140,
      "พระวิญญาณทรง": 8141,
      "พระราชกฤษฎีกา": 8142,
      "เบธโฮ": 8143,
      "เท่าไร": 8144,
      "จิตใจของพวกเขา": 8145,
      "มาหาพระองค์": 8146,
      "เชื้อไข": 8147,
      "ลูกหลานของพวกเขา": 8148,
      "บริวาร": 8149,
      "ขับร้อง": 8150,
      "ประจำเดือน": 8151,
      "ร้อนแรง": 8152,
      "ศอกกว้าง": 8153,
      "ความเชื่อของท่าน": 8154,
      "เช้าวันรุ่งขึ้น": 8155,
      "ตัดสินลงโทษ": 8156,
      "เสาหาน": 8157,
      "ทำลายล้างพวกเขา": 8158,
      "วงศ์วานของอาโรน": 8159,
      "เมลคี": 8160,
      "ในที่ซึ่ง": 8161,
      "เราก็จะไม่": 8162,
      "เปล่าเลย": 8163,
      "ตัวก": 8164,
      "ไม่ต้องการ": 8165,
      "พินาศย่อยยับ": 8166,
      "ปรนนิบัติพระองค์": 8167,
      "ประชากรอิสราเอลว่า": 8168,
      "มหาศาล": 8169,
      "หลับอยู่": 8170,
      "พระองค์ตรัสตอบว่า": 8171,
      "กฎหมายของเรา": 8172,
      "คมกริบ": 8173,
      "ล่าวกับ": 8174,
      "ชักจูง": 8175,
      "อาหิโธเฟล": 8176,
      "โกนผม": 8177,
      "ยังไม่ทัน": 8178,
      "และเครื่องใช้": 8179,
      "ติศัพท์": 8180,
      "พระราชกิจทั้งปวง": 8181,
      "อยู่นอก": 8182,
      "ขนาดนี้": 8183,
      "ที่รักของดิฉัน": 8184,
      "หมอบลง": 8185,
      "หยิ่งยโส": 8186,
      "โห่ร้องยินดี": 8187,
      "เสื่อมเสีย": 8188,
      "เสื่อมสลาย": 8189,
      "พี่ชายของเจ้า": 8190,
      "มาเป็นภรรยา": 8191,
      "แก่อับราฮัม": 8192,
      "ใส่ใจปฏิบัติตาม": 8193,
      "บุกเข้าโจมตี": 8194,
      "นั่นแหละ": 8195,
      "ย่ำยี": 8196,
      "อิชโบเชท": 8197,
      "ท่วมท้น": 8198,
      "ผูกพัน": 8199,
      "เราเป็นศัตรู": 8200,
      "ฉีกเสื้อผ้า": 8201,
      "ลุย": 8202,
      "ผืนแผ่นดิน": 8203,
      "ซีโมนเปโตร": 8204,
      "ขึ้นเป็นกษัตริย์พระองค์ทรงมีพระชนมายุ": 8205,
      "เศเดคียาห์แห่งยูดาห์": 8206,
      "แสนสาหัส": 8207,
      "วางใจในพระองค์": 8208,
      "การกันดารอาหารและโรคระบาด": 8209,
      "ในใจว่า": 8210,
      "วาระสุดท้าย": 8211,
      "ฤทธานุภาพของพระองค์": 8212,
      "ตามที่ทรงสัญญาไว้": 8213,
      "ดื้อดึง": 8214,
      "แค่ไหน": 8215,
      "ชี้แจง": 8216,
      "กลางวันและ": 8217,
      "ค้ำชู": 8218,
      "ดื่มน้ำจาก": 8219,
      "ตั้งชื่อเขาว่า": 8220,
      "อภิ": 8221,
      "จงรักภัก": 8222,
      "บทบัญญัตินั้น": 8223,
      "มัททาน": 8224,
      "หันหน้าไปทาง": 8225,
      "ระดมพล": 8226,
      "ตะลันต์": 8227,
      "จุดไฟเผา": 8228,
      "เคนัส": 8229,
      "เวทมนตร์": 8230,
      "ประสบความสำเร็จ": 8231,
      "แป้งละเอียดเคล้าน้ำมัน": 8232,
      "ปั่นป่วน": 8233,
      "โอเบดเอโดม": 8234,
      "่วงศ์วานของ": 8235,
      "ชูมือขึ้น": 8236,
      "สภาแซนเฮดริน": 8237,
      "อีกฟากหนึ่งของแม่น้ำยูเฟรติส": 8238,
      "เพชรนิล": 8239,
      "บั้นปลาย": 8240,
      "ลิ้มรส": 8241,
      "ชนหยิบมือที่เหลือ": 8242,
      "ฮาการ์": 8243,
      "สำมะโน": 8244,
      "มดยอบ": 8245,
      "ตามที่มีเขียนไว้ว่า": 8246,
      "โชติช่วง": 8247,
      "กิตติศัพท์": 8248,
      "พญานา": 8249,
      "เอลคานาห์": 8250,
      "คคท": 8251,
      "เกหะซี": 8252,
      "เรฟาอิม": 8253,
      "ไม้เรียว": 8254,
      "ศิษย์": 8255,
      "ออกจากหมู่ประชากรของเขา": 8256,
      "กรมวัง": 8257,
      "ทารชิช": 8258,
      "ขวนขวาย": 8259,
      "ทิตัส": 8260,
      "ห้อมล้อม": 8261,
      "โกลาหล": 8262,
      "โกลิอัท": 8263,
      "อยุติธรรม": 8264,
      "เคอีลาห์": 8265,
      "ตระหง่าน": 8266,
      "เพชรนิลจิน": 8267,
      "13": 8268,
      "32": 8269,
      "40": 8270,
      "800": 8271,
      "กีบ": 8272,
      "ขอย": 8273,
      "คเม": 8274,
      "คอบ": 8275,
      "คิ้ว": 8276,
      "ซาน": 8277,
      "ฎหมาย": 8278,
      "ดิ่ง": 8279,
      "ดึก": 8280,
      "ปาน": 8281,
      "ผัก": 8282,
      "พอง": 8283,
      "ฟาห์": 8284,
      "ภักดิ์": 8285,
      "มฟ": 8286,
      "ย่าน": 8287,
      "ษก": 8288,
      "สับ": 8289,
      "สมา": 8290,
      "ส่าย": 8291,
      "หัท": 8292,
      "เบา": 8293,
      "เษก": 8294,
      "แกลบ": 8295,
      "โว": 8296,
      "โคล": 8297,
      "ไพ": 8298,
      "ระดับ": 8299,
      "ระดาน": 8300,
      "พระกรุณา": 8301,
      "ของแท่นบูชา": 8302,
      "ของพระวิหารขององค์พระผู้เป็นเจ้า": 8303,
      "ของเอฟราอิม": 8304,
      "ของสถานนมัสการ": 8305,
      "เจ้าก็จะ": 8306,
      "ที่มาจาก": 8307,
      "ที่บาบิโลน": 8308,
      "ที่ริบ": 8309,
      "ที่เรียกกันว่า": 8310,
      "และบาป": 8311,
      "และหญิง": 8312,
      "และพี่น้อง": 8313,
      "และเกียรติ": 8314,
      "และเขาก็": 8315,
      "ับถือ": 8316,
      "เป็นสุข": 8317,
      "เขาบอก": 8318,
      "จะใช้": 8319,
      "จะพูด": 8320,
      "ผู้ประทับ": 8321,
      "ผู้เชิญ": 8322,
      "ายัง": 8323,
      "เราไว้": 8324,
      "เราใช้": 8325,
      "พระองค์ประทับ": 8326,
      "ในชีวิต": 8327,
      "ในบาบิโลน": 8328,
      "ให้ไว้": 8329,
      "ให้เห็น": 8330,
      "ให้มัน": 8331,
      "ให้ใคร": 8332,
      "ให้แก่ท่าน": 8333,
      "คนขัดสน": 8334,
      "มาสิ": 8335,
      "มาเผา": 8336,
      "มาอัส": 8337,
      "มานั่ง": 8338,
      "มาชุมนุม": 8339,
      "เหม": 8340,
      "ไม่เหลือ": 8341,
      "ไปพร้อมกับ": 8342,
      "ไปไกลถึง": 8343,
      "ครัด": 8344,
      "ท่านจะไม่": 8345,
      "ท่านจะถูก": 8346,
      "เอฮูด": 8347,
      "เอเชีย": 8348,
      "เมเช": 8349,
      "เมฟี": 8350,
      "มีชาย": 8351,
      "แตกระ": 8352,
      "นั้นเอง": 8353,
      "กละ": 8354,
      "ก็ต้อง": 8355,
      "ทำขึ้น": 8356,
      "ทั้งที่": 8357,
      "พวกเขาเพราะ": 8358,
      "พวกเขาต้อง": 8359,
      "พวกเขาทั้งหมด": 8360,
      "ความอัปยศ": 8361,
      "ความเจ็บปวด": 8362,
      "เลีย": 8363,
      "แต่ใน": 8364,
      "แต่เพื่อ": 8365,
      "กับพระองค์": 8366,
      "องค์พระผู้เป็นเจ้าพระยาห์เวห์ผู้ทรงฤทธิ์": 8367,
      "องค์พระผู้เป็นเจ้าไม่ได้ทรง": 8368,
      "อาโร": 8369,
      "อยู่ได้": 8370,
      "แล้วพวกท่าน": 8371,
      "นี้ให้": 8372,
      "นี้ไป": 8373,
      "การพักสงบ": 8374,
      "พระเจ้าของท่าน": 8375,
      "พระเจ้าของข้าพระองค์": 8376,
      "แก่อา": 8377,
      "เชน": 8378,
      "เอลาห์": 8379,
      "จงใช้": 8380,
      "จงรักษา": 8381,
      "จงกลับไป": 8382,
      "เพราะคน": 8383,
      "เกือบ": 8384,
      "เดอร์": 8385,
      "จึงถามว่า": 8386,
      "ตามคำ": 8387,
      "ตามชื่อ": 8388,
      "เพื่อลบบาป": 8389,
      "ต่อกัน": 8390,
      "แก่บรรดาผู้ที่": 8391,
      "บุตรของเขา": 8392,
      "สิ่งหนึ่ง": 8393,
      "เข้าร่วม": 8394,
      "อดู": 8395,
      "ตัวท่านเอง": 8396,
      "แห่งความจริง": 8397,
      "แห่งเลบานอน": 8398,
      "เราจะเป็นพระเจ้า": 8399,
      "เมืองเหล่านี้": 8400,
      "ีกายิล": 8401,
      "ลงทะเล": 8402,
      "ขอแช่ง": 8403,
      "เทมาน": 8404,
      "ลาและ": 8405,
      "หลายปี": 8406,
      "คำมั่น": 8407,
      "คำโกหก": 8408,
      "บนไม้กางเขน": 8409,
      "ใดที่": 8410,
      "พระองค์ทรงกระทำให้": 8411,
      "ซาระดาน": 8412,
      "ไม่ได้เลย": 8413,
      "สาระ": 8414,
      "ของเจ้านาย": 8415,
      "เครื่องนุ่งห่ม": 8416,
      "ตั้งเต็นท์": 8417,
      "ไม่มีคน": 8418,
      "ไม่มีความผิด": 8419,
      "โดยไม่มีใคร": 8420,
      "โดยกำเนิด": 8421,
      "เบี้ย": 8422,
      "ดูแคลน": 8423,
      "น้ำหนัก": 8424,
      "กล่าวไว้ว่า": 8425,
      "เถิดจง": 8426,
      "ซูร์": 8427,
      "สวามิ": 8428,
      "มากนัก": 8429,
      "พูดความจริง": 8430,
      "ปีและมี": 8431,
      "หากข้าพระองค์": 8432,
      "บ้านนั้น": 8433,
      "ช่วยเขา": 8434,
      "ช่วยกอบกู้": 8435,
      "ยกให้แก่": 8436,
      "ชอบพระทัย": 8437,
      "สิบหก": 8438,
      "ดังนั้นนางจึง": 8439,
      "เซเดค": 8440,
      "ส่งมา": 8441,
      "พบเขา": 8442,
      "เอาชีวิตรอด": 8443,
      "ผู้ทรงพระชนม์อยู่": 8444,
      "เหล่าอัครทูต": 8445,
      "เหล่าเครูบ": 8446,
      "ประกาศให้": 8447,
      "โอ๊ก": 8448,
      "ครั้งก่อน": 8449,
      "ตามที่โมเสส": 8450,
      "ฉันจะ": 8451,
      "ถามเขาว่า": 8452,
      "เขาจะนำ": 8453,
      "ของข้าพระองค์จะ": 8454,
      "ของข้าพระองค์ข้าพระองค์": 8455,
      "โกก": 8456,
      "โก่ง": 8457,
      "ขอทรงสดับฟัง": 8458,
      "โฮเรบ": 8459,
      "เดินนำหน้า": 8460,
      "ถือรักษา": 8461,
      "จะได้เห็น": 8462,
      "จัดหา": 8463,
      "สายน้ำ": 8464,
      "เคยทำ": 8465,
      "สนธ": 8466,
      "ด้านใน": 8467,
      "พระเจ้าทรงสร้าง": 8468,
      "ทุกคนใน": 8469,
      "ทุกคนก็": 8470,
      "ใต้อ": 8471,
      "สี่คือ": 8472,
      "บทบัญญัติของโมเสส": 8473,
      "หันมาหา": 8474,
      "หันไปหา": 8475,
      "อย่างไร้": 8476,
      "อยู่กับพวกเขา": 8477,
      "ใต้เท้า": 8478,
      "อาบีกายิล": 8479,
      "อุบาย": 8480,
      "ทั้งสองคน": 8481,
      "ทั้งสองด้าน": 8482,
      "เก็บไว้ใน": 8483,
      "ซาอูลจึง": 8484,
      "คุณค่า": 8485,
      "รอบคอบ": 8486,
      "โยนลงใน": 8487,
      "ข้างหนึ่ง": 8488,
      "พอที่จะ": 8489,
      "เนื่องด้วยความ": 8490,
      "รักษาโรค": 8491,
      "มีชีวิตต่อไปอีก": 8492,
      "คาถา": 8493,
      "แต่ละตัว": 8494,
      "อาโรนกับ": 8495,
      "รุ่งสาง": 8496,
      "มิเรียม": 8497,
      "วงศ์วานของเขา": 8498,
      "วงศ์วานของเจ้า": 8499,
      "ทราบถึง": 8500,
      "ชิก": 8501,
      "นับได้": 8502,
      "พระดำรัสของพระองค์": 8503,
      "เฟน": 8504,
      "เฟสทัส": 8505,
      "เดินทางต่อไป": 8506,
      "ในหมู่ประชากร": 8507,
      "คอยดูแล": 8508,
      "สู่อ": 8509,
      "จิตใจของข้าพเจ้า": 8510,
      "ผู้คนมากมาย": 8511,
      "อิฐ": 8512,
      "พระชนม์ชีพ": 8513,
      "ริมฝั่ง": 8514,
      "มีความสุข": 8515,
      "เข้าไปในเมือง": 8516,
      "ตัวเองว่า": 8517,
      "นานมาแล้ว": 8518,
      "องค์พระผู้เป็นเจ้าประกาศดังนี้": 8519,
      "เข้าเฝ้ากษัตริย์": 8520,
      "ของชาวฟีลิสเตีย": 8521,
      "ของชาวอัมโมน": 8522,
      "เอ๋ยจงฟัง": 8523,
      "อยู่ที่นั่นด้วย": 8524,
      "ที่เขาได้ทำ": 8525,
      "ร่ำร้อง": 8526,
      "เพราะเขาได้": 8527,
      "ข้าพระองค์จะสรรเสริญพระองค์": 8528,
      "นครนี้": 8529,
      "ซื้อขาย": 8530,
      "ร้องทูลพระองค์": 8531,
      "อาหิเมเลค": 8532,
      "คนรับใช้นั้น": 8533,
      "เมื่อพวกเขามาถึง": 8534,
      "และเครื่องสันติบูชา": 8535,
      "เนบูซาระดาน": 8536,
      "คลอดบุตรชาย": 8537,
      "เวลานาน": 8538,
      "แยแส": 8539,
      "ลี้ภัยในพระองค์": 8540,
      "ฤดูเก็บเกี่ยว": 8541,
      "กลับมาหาเรา": 8542,
      "หลักแหลม": 8543,
      "ทั่": 8544,
      "พระดำรัสขององค์พระผู้เป็นเจ้ามาถึงข้าพเจ้า": 8545,
      "งอกขึ้น": 8546,
      "ทอดพระเนตรเห็น": 8547,
      "ช่วยกู้ข้าพระองค์": 8548,
      "ด้วยน้ำมือ": 8549,
      "ด้วยน้ำนมและน้ำผึ้ง": 8550,
      "โค่นล้ม": 8551,
      "โทสะของเรา": 8552,
      "ชาวกรีก": 8553,
      "ลงมาจากสวรรค์": 8554,
      "คายา": 8555,
      "ลอยนวล": 8556,
      "เสียงดังว่า": 8557,
      "ด้วยทองคำบริสุทธิ์": 8558,
      "เกินกว่าจะ": 8559,
      "บ่นว่า": 8560,
      "เตาไฟ": 8561,
      "บทบัญญัตินี้": 8562,
      "ชู้รัก": 8563,
      "เป็นสองเท่า": 8564,
      "อิจฉ": 8565,
      "บันดาลให้": 8566,
      "สืบไปทุกชั่วอายุ": 8567,
      "หัวเราะเยาะ": 8568,
      "ตกต่ำลง": 8569,
      "ลักขโมย": 8570,
      "ได้แก่อา": 8571,
      "พันธสัญญานิรันดร์": 8572,
      "พระโอษฐ์ของพระองค์": 8573,
      "เช้าตรู่วันรุ่งขึ้น": 8574,
      "เป็นครั้งที่สอง": 8575,
      "ถลุง": 8576,
      "อุสซีเอล": 8577,
      "เข้าประจำที่": 8578,
      "ชุมชนอิสราเอลทั้งหมด": 8579,
      "ทวีจำนวนขึ้น": 8580,
      "ขอถวายสรรเสริญ": 8581,
      "เลือดเนื้อเชื้อไข": 8582,
      "จงเข้มแข็งและ": 8583,
      "ธรณีประตู": 8584,
      "ินทาว่าร้าย": 8585,
      "เคร่งครัด": 8586,
      "อาโรนและบรรดาบุตรชาย": 8587,
      "ไพร่พล": 8588,
      "บุตรชายหญิงอีกหลายคน": 8589,
      "ทีรซาห์": 8590,
      "มหาดเล็ก": 8591,
      "สเทเฟน": 8592,
      "บ่อย่ำองุ่น": 8593,
      "เสไรอาห์": 8594,
      "โฮเชยา": 8595,
      "ภรรยาน้อย": 8596,
      "เบไนยาห์บุตรเยโฮยาดา": 8597,
      "ฉับพลัน": 8598,
      "ชัสซาร์": 8599,
      "อาธาลิยาห์": 8600,
      "เมฟีโบเชท": 8601,
      "แตกระแหง": 8602,
      "สวามิภักดิ์": 8603,
      "ปีและมีบุตรชายหญิงอีกหลายคน": 8604,
      "70": 8605,
      "ขุม": 8606,
      "ค้าน": 8607,
      "คืบ": 8608,
      "จิ": 8609,
      "จี": 8610,
      "จวน": 8611,
      "ฉาน": 8612,
      "ชโลม": 8613,
      "น่ะ": 8614,
      "บีบ": 8615,
      "ปิ้ง": 8616,
      "ร่า": 8617,
      "ล้าน": 8618,
      "ลุ่ม": 8619,
      "ลทิน": 8620,
      "ศัก": 8621,
      "ส่อน": 8622,
      "หมี": 8623,
      "หอบ": 8624,
      "หยาด": 8625,
      "อุ่น": 8626,
      "อามาร": 8627,
      "ักล": 8628,
      "ของอา": 8629,
      "ของบรรดา": 8630,
      "ของประชาชน": 8631,
      "ของปีที่": 8632,
      "ของพระนาง": 8633,
      "ของอิสอัค": 8634,
      "ราญ": 8635,
      "ราคะ": 8636,
      "เจ้ามา": 8637,
      "เจ้าด้วย": 8638,
      "เจ้าสาว": 8639,
      "ที่ถวาย": 8640,
      "ที่ซ่อน": 8641,
      "ที่เหยียด": 8642,
      "ที่ชิโลห์": 8643,
      "เข็ม": 8644,
      "และรับ": 8645,
      "และดินแดน": 8646,
      "และสำหรับ": 8647,
      "และเงิน": 8648,
      "และพระเจ้าทรง": 8649,
      "และเป็นผู้": 8650,
      "และพวกเขาจะ": 8651,
      "และตระกูล": 8652,
      "และอธิษฐาน": 8653,
      "และทหาร": 8654,
      "และนก": 8655,
      "และรวบรวม": 8656,
      "และชาม": 8657,
      "เปอร": 8658,
      "เป็นไฟ": 8659,
      "เป็นขึ้นมา": 8660,
      "เขาหรือ": 8661,
      "เขานำ": 8662,
      "ผู้ได้": 8663,
      "ผู้ครอบครอง": 8664,
      "ผู้ชำนาญ": 8665,
      "ากมาย": 8666,
      "เราแต่": 8667,
      "ไม้ว": 8668,
      "ในปี": 8669,
      "ในพระนามของ": 8670,
      "ในยุค": 8671,
      "ให้ฉัน": 8672,
      "ให้หมดสิ้น": 8673,
      "ได้นำ": 8674,
      "ได้ส่ง": 8675,
      "มาจนถึง": 8676,
      "มาโนอาห์": 8677,
      "ทรงเลือก": 8678,
      "ทรงครองราชย์": 8679,
      "ทรงพระชนม์อยู่แน่ฉันใด": 8680,
      "ข้าก็": 8681,
      "ไม่หยุด": 8682,
      "พวกเราจะ": 8683,
      "หนวก": 8684,
      "หนอน": 8685,
      "เพียร": 8686,
      "ครู่": 8687,
      "ท่านแต่": 8688,
      "ท่านยัง": 8689,
      "ท่านกำลัง": 8690,
      "ท่านต้องการ": 8691,
      "จากยูดาห์": 8692,
      "มีสาม": 8693,
      "มีอะไร": 8694,
      "มีสิทธิ์": 8695,
      "มีหลาน": 8696,
      "มีชัยชนะ": 8697,
      "กลม": 8698,
      "กลาก": 8699,
      "ก็ทำ": 8700,
      "ก็มาถึง": 8701,
      "ก็ขอให้": 8702,
      "ทำอย่างนี้": 8703,
      "พวกเขามี": 8704,
      "พวกเขาถูก": 8705,
      "ความร้อน": 8706,
      "ความปรารถนา": 8707,
      "ความสยดสยอง": 8708,
      "แต่เขาจะ": 8709,
      "กับนาง": 8710,
      "องค์พระผู้เป็นเจ้าก็ทรง": 8711,
      "อาบน้ำ": 8712,
      "อยู่ต่อหน้าองค์พระผู้เป็นเจ้า": 8713,
[...]
