{
  "version": "1.0",
  "truncation": null,
  "padding": null,
  "added_tokens": [
    {
      "id": 0,
      "content": "<pad>",
      "single_word": false,
      "lstrip": false,
      "rstrip": false,
      "normalized": false,
      "special": true
    },
    {
      "id": 1,
      "content": "<unk>",
      "single_word": false,
      "lstrip": false,
      "rstrip": false,
      "normalized": false,
      "special": true
    },
    {
      "id": 2,
      "content": "<s>",
      "single_word": false,
      "lstrip": false,
      "rstrip": false,
      "normalized": false,
      "special": true
    },
    {
      "id": 3,
      "content": "</s>",
      "single_word": false,
      "lstrip": false,
      "rstrip": false,
      "normalized": false,
      "special": true
    }
  ],
  "normalizer": null,
  "pre_tokenizer": {
    "type": "Sequence",
    "pretokenizers": [
      {
        "type": "Whitespace"
      },
      {
        "type": "Split",
        "pattern": {
          "Regex": "(?<=[ऀ-ॿ஀-௿฀-๿຀-໿က-႟ក-៿一-鿿꤀-꤯])(?=[A-Za-z0-9])|(?<=[A-Za-z0-9])(?=[ऀ-ॿ஀-௿฀-๿຀-໿က-႟ក-៿一-鿿꤀-꤯])"
        },
        "behavior": "Isolated",
        "invert": false
      }
    ]
  },
  "post_processor": null,
  "decoder": null,
  "model": {
    "type": "BPE",
    "dropout": null,
    "unk_token": "<unk>",
    "continuing_subword_prefix": null,
    "end_of_word_suffix": null,
    "fuse_unk": false,
    "byte_fallback": false,
    "ignore_merges": false,
    "vocab": {
      "<pad>": 0,
      "<unk>": 1,
      "<s>": 2,
      "</s>": 3,
      "(": 4,
      ")": 5,
      ".": 6,
      "?": 7,
      "˙": 8,
      "—": 9,
      "‧": 10,
      "─": 11,
      "、": 12,
      "。": 13,
      "《": 14,
      "》": 15,
      "「": 16,
      "」": 17,
      "『": 18,
      "』": 19,
      "〔": 20,
      "〕": 21,
      "一": 22,
      "丁": 23,
      "七": 24,
      "丈": 25,
      "三": 26,
      "上": 27,
      "下": 28,
      "不": 29,
      "且": 30,
      "世": 31,
      "丘": 32,
      "丟": 33,
      "並": 34,
      "中": 35,
      "串": 36,
      "丸": 37,
      "丹": 38,
      "主": 39,
      "乃": 40,
      "久": 41,
      "之": 42,
      "乎": 43,
      "乏": 44,
      "乖": 45,
      "乘": 46,
      "九": 47,
      "乞": 48,
      "也": 49,
      "乳": 50,
      "乾": 51,
      "亂": 52,
      "了": 53,
      "予": 54,
      "事": 55,
      "二": 56,
      "于": 57,
      "互": 58,
      "五": 59,
      "井": 60,
      "亙": 61,
      "些": 62,
      "亞": 63,
      "亡": 64,
      "交": 65,
      "亥": 66,
      "亦": 67,
      "亨": 68,
      "享": 69,
      "京": 70,
      "亭": 71,
      "亮": 72,
      "人": 73,
      "什": 74,
      "仁": 75,
      "仆": 76,
      "仇": 77,
      "今": 78,
      "介": 79,
      "仍": 80,
      "仔": 81,
      "他": 82,
      "仗": 83,
      "付": 84,
      "仙": 85,
      "代": 86,
      "令": 87,
      "以": 88,
      "仰": 89,
      "仲": 90,
      "件": 91,
      "任": 92,
      "份": 93,
      "仿": 94,
      "企": 95,
      "伊": 96,
      "伍": 97,
      "伏": 98,
      "伐": 99,
      "休": 100,
      "伙": 101,
      "伯": 102,
      "估": 103,
      "伴": 104,
      "伸": 105,
      "伺": 106,
      "似": 107,
      "但": 108,
      "佈": 109,
      "位": 110,
      "低": 111,
      "住": 112,
      "佑": 113,
      "佔": 114,
      "何": 115,
      "作": 116,
      "你": 117,
      "佩": 118,
      "佯": 119,
      "佳": 120,
      "併": 121,
      "使": 122,
      "來": 123,
      "例": 124,
      "侍": 125,
      "侏": 126,
      "供": 127,
      "依": 128,
      "侮": 129,
      "侯": 130,
      "侵": 131,
      "侶": 132,
      "便": 133,
      "係": 134,
      "促": 135,
      "俄": 136,
      "俊": 137,
      "俏": 138,
      "俗": 139,
      "俘": 140,
      "保": 141,
      "信": 142,
      "修": 143,
      "俯": 144,
      "俱": 145,
      "俸": 146,
      "倉": 147,
      "個": 148,
      "倍": 149,
      "們": 150,
      "倒": 151,
      "倔": 152,
      "倖": 153,
      "倘": 154,
      "候": 155,
      "倚": 156,
      "借": 157,
      "倦": 158,
      "倫": 159,
      "倭": 160,
      "值": 161,
      "假": 162,
      "偉": 163,
      "偏": 164,
      "做": 165,
      "停": 166,
      "健": 167,
      "側": 168,
      "偵": 169,
      "偶": 170,
      "偷": 171,
      "偽": 172,
      "傅": 173,
      "傍": 174,
      "備": 175,
      "傢": 176,
      "催": 177,
      "傭": 178,
      "傲": 179,
      "傳": 180,
      "債": 181,
      "傷": 182,
      "傻": 183,
      "傾": 184,
      "僅": 185,
      "像": 186,
      "僑": 187,
      "僕": 188,
      "僚": 189,
      "僮": 190,
      "僵": 191,
      "價": 192,
      "僻": 193,
      "儀": 194,
      "億": 195,
      "儒": 196,
      "儘": 197,
      "償": 198,
      "優": 199,
      "儲": 200,
      "允": 201,
      "元": 202,
      "兄": 203,
      "充": 204,
      "兆": 205,
      "兇": 206,
      "先": 207,
      "光": 208,
      "克": 209,
      "兌": 210,
      "免": 211,
      "兒": 212,
      "兔": 213,
      "兜": 214,
      "兢": 215,
      "入": 216,
      "內": 217,
      "全": 218,
      "兩": 219,
      "八": 220,
      "公": 221,
      "六": 222,
      "共": 223,
      "兵": 224,
      "其": 225,
      "具": 226,
      "典": 227,
      "兼": 228,
      "冊": 229,
      "再": 230,
      "冒": 231,
      "冕": 232,
      "冗": 233,
      "冠": 234,
      "冤": 235,
      "冥": 236,
      "冬": 237,
      "冰": 238,
      "冷": 239,
      "准": 240,
      "凋": 241,
      "凌": 242,
      "凝": 243,
      "凡": 244,
      "凱": 245,
      "凳": 246,
      "凶": 247,
      "凸": 248,
      "凹": 249,
      "出": 250,
      "刀": 251,
      "刃": 252,
      "分": 253,
      "切": 254,
      "刑": 255,
      "划": 256,
      "列": 257,
      "初": 258,
      "判": 259,
      "別": 260,
      "刨": 261,
      "利": 262,
      "刪": 263,
      "刮": 264,
      "到": 265,
      "制": 266,
      "刷": 267,
      "刺": 268,
      "刻": 269,
      "剃": 270,
      "則": 271,
      "削": 272,
      "剋": 273,
      "前": 274,
      "剎": 275,
      "剔": 276,
      "剖": 277,
      "剛": 278,
      "剝": 279,
      "剩": 280,
      "剪": 281,
      "副": 282,
      "割": 283,
      "創": 284,
      "剷": 285,
      "剿": 286,
      "劃": 287,
      "劇": 288,
      "劈": 289,
      "劍": 290,
      "力": 291,
      "功": 292,
      "加": 293,
      "劣": 294,
      "助": 295,
      "努": 296,
      "劫": 297,
      "勁": 298,
      "勇": 299,
      "勉": 300,
      "勒": 301,
      "動": 302,
      "務": 303,
      "勝": 304,
      "勞": 305,
      "募": 306,
      "勢": 307,
      "勤": 308,
      "勵": 309,
      "勸": 310,
      "勺": 311,
      "勻": 312,
      "勾": 313,
      "勿": 314,
      "包": 315,
      "匆": 316,
      "化": 317,
      "北": 318,
      "匙": 319,
      "匠": 320,
      "匣": 321,
      "匪": 322,
      "匯": 323,
      "匹": 324,
      "匿": 325,
      "區": 326,
      "十": 327,
      "千": 328,
      "升": 329,
      "午": 330,
      "半": 331,
      "卑": 332,
      "卓": 333,
      "協": 334,
      "南": 335,
      "博": 336,
      "卜": 337,
      "占": 338,
      "卡": 339,
      "卯": 340,
      "印": 341,
      "危": 342,
      "即": 343,
      "卷": 344,
      "卸": 345,
      "卻": 346,
      "厄": 347,
      "厚": 348,
      "原": 349,
      "厥": 350,
      "厭": 351,
      "厲": 352,
      "去": 353,
      "參": 354,
      "又": 355,
      "叉": 356,
      "及": 357,
      "友": 358,
      "反": 359,
      "叔": 360,
      "取": 361,
      "受": 362,
      "叛": 363,
      "叢": 364,
      "口": 365,
      "古": 366,
      "句": 367,
      "另": 368,
      "叨": 369,
      "叩": 370,
      "只": 371,
      "叫": 372,
      "召": 373,
      "叮": 374,
      "可": 375,
      "叱": 376,
      "史": 377,
      "右": 378,
      "司": 379,
      "叼": 380,
      "吃": 381,
      "各": 382,
      "合": 383,
      "吉": 384,
      "吊": 385,
      "同": 386,
      "名": 387,
      "后": 388,
      "吏": 389,
      "吐": 390,
      "向": 391,
      "君": 392,
      "吝": 393,
      "吞": 394,
      "吟": 395,
      "吠": 396,
      "否": 397,
      "吧": 398,
      "吩": 399,
      "含": 400,
      "吮": 401,
      "吳": 402,
      "吵": 403,
      "吶": 404,
      "吸": 405,
      "吹": 406,
      "吻": 407,
      "吼": 408,
      "吾": 409,
      "呀": 410,
      "呂": 411,
      "呈": 412,
      "告": 413,
      "呢": 414,
      "周": 415,
      "味": 416,
      "呻": 417,
      "呼": 418,
      "命": 419,
      "咀": 420,
      "咆": 421,
      "和": 422,
      "咎": 423,
      "咐": 424,
      "咒": 425,
      "咕": 426,
      "咬": 427,
      "咷": 428,
      "咸": 429,
      "咽": 430,
      "哀": 431,
      "品": 432,
      "哄": 433,
      "哇": 434,
      "哈": 435,
      "哉": 436,
      "哎": 437,
      "員": 438,
      "哥": 439,
      "哦": 440,
      "哨": 441,
      "哩": 442,
      "哪": 443,
      "哭": 444,
      "哮": 445,
      "哲": 446,
      "哺": 447,
      "哼": 448,
      "唆": 449,
      "唇": 450,
      "唉": 451,
      "唧": 452,
      "售": 453,
      "唱": 454,
      "唾": 455,
      "啃": 456,
      "啄": 457,
      "商": 458,
      "啊": 459,
      "問": 460,
      "啞": 461,
      "啟": 462,
      "啦": 463,
      "啼": 464,
      "喃": 465,
      "善": 466,
      "喇": 467,
      "喉": 468,
      "喊": 469,
      "喋": 470,
      "喘": 471,
      "喚": 472,
      "喜": 473,
      "喝": 474,
      "喧": 475,
      "喪": 476,
      "單": 477,
      "喳": 478,
      "喻": 479,
      "嗅": 480,
      "嗉": 481,
      "嗎": 482,
      "嗣": 483,
      "嗤": 484,
      "嗯": 485,
      "嘆": 486,
      "嘉": 487,
      "嘔": 488,
      "嘗": 489,
      "嘛": 490,
      "嘩": 491,
      "嘮": 492,
      "嘲": 493,
      "嘴": 494,
      "嘶": 495,
      "噓": 496,
      "噠": 497,
      "噥": 498,
      "器": 499,
      "噩": 500,
      "噬": 501,
      "噴": 502,
      "嚇": 503,
      "嚏": 504,
      "嚨": 505,
      "嚮": 506,
      "嚴": 507,
      "嚷": 508,
      "嚼": 509,
      "囊": 510,
      "囑": 511,
      "囚": 512,
      "四": 513,
      "回": 514,
      "因": 515,
      "囤": 516,
      "囪": 517,
      "囫": 518,
      "困": 519,
      "固": 520,
      "圃": 521,
      "圇": 522,
      "圈": 523,
      "國": 524,
      "圍": 525,
      "園": 526,
      "圓": 527,
      "圖": 528,
      "團": 529,
      "土": 530,
      "在": 531,
      "地": 532,
      "圾": 533,
      "均": 534,
      "坍": 535,
      "坎": 536,
      "坐": 537,
      "坑": 538,
      "坡": 539,
      "坦": 540,
      "垂": 541,
      "垃": 542,
      "垢": 543,
      "埃": 544,
      "埋": 545,
      "城": 546,
      "域": 547,
      "埠": 548,
      "執": 549,
      "培": 550,
      "基": 551,
      "堂": 552,
      "堅": 553,
      "堆": 554,
      "堡": 555,
      "堪": 556,
      "報": 557,
      "場": 558,
      "堵": 559,
      "塊": 560,
      "塌": 561,
      "塑": 562,
      "塔": 563,
      "塗": 564,
      "塘": 565,
      "塞": 566,
      "填": 567,
      "塵": 568,
      "境": 569,
      "墊": 570,
      "墓": 571,
      "墜": 572,
      "增": 573,
      "墟": 574,
      "墨": 575,
      "墩": 576,
      "墳": 577,
      "墾": 578,
      "壁": 579,
      "壇": 580,
      "壓": 581,
      "壘": 582,
      "壞": 583,
      "士": 584,
      "壯": 585,
      "壺": 586,
      "壽": 587,
      "夏": 588,
      "夕": 589,
      "外": 590,
      "夙": 591,
      "多": 592,
      "夜": 593,
      "夠": 594,
      "夢": 595,
      "夥": 596,
      "大": 597,
      "天": 598,
      "太": 599,
      "夫": 600,
      "夭": 601,
      "央": 602,
      "失": 603,
      "夷": 604,
      "夾": 605,
      "奇": 606,
      "奈": 607,
      "奉": 608,
      "奏": 609,
      "契": 610,
      "奔": 611,
      "套": 612,
      "奠": 613,
      "奢": 614,
      "奧": 615,
      "奪": 616,
      "奮": 617,
      "女": 618,
      "奴": 619,
      "奶": 620,
      "奸": 621,
      "她": 622,
      "好": 623,
      "如": 624,
      "妃": 625,
      "妄": 626,
      "妒": 627,
      "妓": 628,
      "妙": 629,
      "妝": 630,
      "妥": 631,
      "妨": 632,
      "妮": 633,
      "妹": 634,
      "妻": 635,
      "妾": 636,
      "姊": 637,
      "始": 638,
      "姐": 639,
      "姑": 640,
      "姓": 641,
      "委": 642,
      "姦": 643,
      "姨": 644,
      "姪": 645,
      "姻": 646,
      "威": 647,
      "娃": 648,
      "娘": 649,
      "娥": 650,
      "娶": 651,
      "娼": 652,
      "婆": 653,
      "婉": 654,
      "婚": 655,
      "婢": 656,
      "婦": 657,
      "婪": 658,
      "婿": 659,
      "媚": 660,
      "媳": 661,
      "媽": 662,
      "嫁": 663,
      "嫂": 664,
      "嫉": 665,
      "嫌": 666,
      "嫩": 667,
      "嫻": 668,
      "嬉": 669,
      "嬌": 670,
      "嬪": 671,
      "嬰": 672,
      "子": 673,
      "孔": 674,
      "孕": 675,
      "字": 676,
      "存": 677,
      "孚": 678,
      "孝": 679,
      "季": 680,
      "孤": 681,
      "孩": 682,
      "孫": 683,
      "孳": 684,
      "孵": 685,
      "學": 686,
      "孽": 687,
      "它": 688,
      "宅": 689,
      "宇": 690,
      "守": 691,
      "安": 692,
      "完": 693,
      "宏": 694,
      "宗": 695,
      "官": 696,
      "宙": 697,
      "定": 698,
      "宛": 699,
      "宜": 700,
      "客": 701,
      "宣": 702,
      "室": 703,
      "宮": 704,
      "宰": 705,
      "害": 706,
      "宴": 707,
      "家": 708,
      "容": 709,
      "宿": 710,
      "寂": 711,
      "寄": 712,
      "密": 713,
      "富": 714,
      "寒": 715,
      "察": 716,
      "寡": 717,
      "寢": 718,
      "實": 719,
      "寧": 720,
      "寨": 721,
      "審": 722,
      "寫": 723,
      "寬": 724,
      "寵": 725,
      "寶": 726,
      "寸": 727,
      "封": 728,
      "射": 729,
      "將": 730,
      "專": 731,
      "尊": 732,
      "尋": 733,
      "對": 734,
      "導": 735,
      "小": 736,
      "少": 737,
      "尖": 738,
      "尚": 739,
      "尤": 740,
      "就": 741,
      "尺": 742,
      "尼": 743,
      "尾": 744,
      "尿": 745,
      "局": 746,
      "居": 747,
      "屈": 748,
      "屋": 749,
      "屍": 750,
      "屏": 751,
      "屑": 752,
      "展": 753,
      "屠": 754,
      "屢": 755,
      "層": 756,
      "履": 757,
      "屬": 758,
      "屯": 759,
      "山": 760,
      "屹": 761,
      "岔": 762,
      "岡": 763,
      "岳": 764,
      "岸": 765,
      "峭": 766,
      "峰": 767,
      "島": 768,
      "峻": 769,
      "峽": 770,
      "崇": 771,
      "崎": 772,
      "崖": 773,
      "崗": 774,
      "崙": 775,
      "崛": 776,
      "崩": 777,
      "嵌": 778,
      "嶇": 779,
      "嶺": 780,
      "嶽": 781,
      "巔": 782,
      "巖": 783,
      "川": 784,
      "巡": 785,
      "巢": 786,
      "工": 787,
      "左": 788,
      "巧": 789,
      "巨": 790,
      "巫": 791,
      "差": 792,
      "己": 793,
      "已": 794,
      "巴": 795,
      "巷": 796,
      "巾": 797,
      "市": 798,
      "布": 799,
      "帆": 800,
      "希": 801,
      "帕": 802,
      "帖": 803,
      "帚": 804,
      "帝": 805,
      "帥": 806,
      "師": 807,
      "席": 808,
      "帳": 809,
      "帶": 810,
      "帷": 811,
      "常": 812,
      "幅": 813,
      "幔": 814,
      "幕": 815,
      "幟": 816,
      "幣": 817,
      "幫": 818,
      "干": 819,
      "平": 820,
      "年": 821,
      "幸": 822,
      "幹": 823,
      "幻": 824,
      "幼": 825,
      "幽": 826,
      "幾": 827,
      "庇": 828,
      "床": 829,
      "序": 830,
      "底": 831,
      "店": 832,
      "府": 833,
      "度": 834,
      "座": 835,
      "庫": 836,
      "庭": 837,
      "康": 838,
      "庸": 839,
      "廁": 840,
      "廂": 841,
      "廈": 842,
      "廉": 843,
      "廊": 844,
      "廚": 845,
      "廟": 846,
      "廠": 847,
      "廢": 848,
      "廣": 849,
      "廩": 850,
      "廳": 851,
      "延": 852,
      "廷": 853,
      "建": 854,
      "弄": 855,
      "弊": 856,
      "式": 857,
      "弒": 858,
      "弓": 859,
      "弔": 860,
      "引": 861,
      "弗": 862,
      "弛": 863,
      "弟": 864,
      "弦": 865,
      "弱": 866,
      "張": 867,
      "強": 868,
      "彈": 869,
      "彌": 870,
      "彎": 871,
      "形": 872,
      "彩": 873,
      "彰": 874,
      "影": 875,
      "彷": 876,
      "役": 877,
      "彼": 878,
      "彿": 879,
      "往": 880,
      "征": 881,
      "待": 882,
      "徇": 883,
      "很": 884,
      "徉": 885,
      "徊": 886,
      "律": 887,
      "後": 888,
      "徐": 889,
      "徑": 890,
      "徒": 891,
      "得": 892,
      "徘": 893,
      "徜": 894,
      "從": 895,
      "御": 896,
      "復": 897,
      "循": 898,
      "微": 899,
      "徵": 900,
      "德": 901,
      "徹": 902,
      "心": 903,
      "必": 904,
      "忌": 905,
      "忍": 906,
      "志": 907,
      "忘": 908,
      "忙": 909,
      "忠": 910,
      "忡": 911,
      "忤": 912,
      "快": 913,
      "忱": 914,
      "念": 915,
      "忻": 916,
      "忽": 917,
      "怎": 918,
      "怒": 919,
      "怕": 920,
      "怖": 921,
      "思": 922,
      "怠": 923,
      "急": 924,
      "性": 925,
      "怨": 926,
      "怪": 927,
      "怯": 928,
      "恃": 929,
      "恆": 930,
      "恐": 931,
      "恕": 932,
      "恢": 933,
      "恣": 934,
      "恤": 935,
      "恥": 936,
      "恨": 937,
      "恩": 938,
      "恭": 939,
      "息": 940,
      "恰": 941,
      "恿": 942,
      "悄": 943,
      "悅": 944,
      "悉": 945,
      "悍": 946,
      "悔": 947,
      "悖": 948,
      "悟": 949,
      "悠": 950,
      "患": 951,
      "悲": 952,
      "悴": 953,
      "悶": 954,
      "悼": 955,
      "悽": 956,
      "情": 957,
      "惑": 958,
      "惜": 959,
      "惟": 960,
      "惠": 961,
      "惡": 962,
      "惰": 963,
      "惱": 964,
      "想": 965,
      "惶": 966,
      "惹": 967,
      "惻": 968,
      "愁": 969,
      "愆": 970,
      "愈": 971,
      "愉": 972,
      "愎": 973,
      "意": 974,
      "愕": 975,
      "愚": 976,
      "愛": 977,
      "感": 978,
      "愧": 979,
      "愷": 980,
      "慄": 981,
      "慈": 982,
      "態": 983,
      "慌": 984,
      "慎": 985,
      "慕": 986,
      "慘": 987,
      "慚": 988,
      "慟": 989,
      "慢": 990,
      "慣": 991,
      "慧": 992,
      "慨": 993,
      "慫": 994,
      "慮": 995,
      "慰": 996,
      "慶": 997,
      "慷": 998,
      "慾": 999,
      "憂": 1000,
      "憊": 1001,
      "憎": 1002,
      "憐": 1003,
      "憑": 1004,
      "憔": 1005,
      "憤": 1006,
      "憫": 1007,
      "憶": 1008,
      "憾": 1009,
      "懂": 1010,
      "懇": 1011,
      "懈": 1012,
      "應": 1013,
      "懊": 1014,
      "懦": 1015,
      "懲": 1016,
      "懶": 1017,
      "懷": 1018,
      "懸": 1019,
      "懼": 1020,
      "戀": 1021,
      "戈": 1022,
      "成": 1023,
      "我": 1024,
      "戒": 1025,
      "或": 1026,
      "戚": 1027,
      "戛": 1028,
      "截": 1029,
      "戮": 1030,
      "戰": 1031,
      "戲": 1032,
      "戳": 1033,
      "戴": 1034,
      "戶": 1035,
      "戾": 1036,
      "房": 1037,
      "所": 1038,
      "扁": 1039,
      "扇": 1040,
      "手": 1041,
      "才": 1042,
      "扎": 1043,
      "打": 1044,
      "扔": 1045,
      "托": 1046,
      "扛": 1047,
      "扣": 1048,
      "扭": 1049,
      "扮": 1050,
      "扯": 1051,
      "扶": 1052,
      "批": 1053,
      "扼": 1054,
      "找": 1055,
      "承": 1056,
      "技": 1057,
      "抄": 1058,
      "把": 1059,
      "抑": 1060,
      "抓": 1061,
      "投": 1062,
      "抖": 1063,
      "抗": 1064,
      "折": 1065,
      "披": 1066,
      "抬": 1067,
      "抱": 1068,
      "抵": 1069,
      "抹": 1070,
      "押": 1071,
      "抽": 1072,
      "拆": 1073,
      "拇": 1074,
      "拉": 1075,
      "拋": 1076,
      "拍": 1077,
      "拐": 1078,
      "拒": 1079,
      "拓": 1080,
      "拔": 1081,
      "拖": 1082,
      "拘": 1083,
      "拙": 1084,
      "拚": 1085,
      "招": 1086,
      "拜": 1087,
      "括": 1088,
      "拭": 1089,
      "拯": 1090,
      "拳": 1091,
      "拴": 1092,
      "拷": 1093,
      "拾": 1094,
      "拿": 1095,
      "持": 1096,
      "指": 1097,
      "按": 1098,
      "挑": 1099,
      "挖": 1100,
      "挨": 1101,
      "挪": 1102,
      "挫": 1103,
      "振": 1104,
      "挺": 1105,
      "挽": 1106,
      "挾": 1107,
      "捆": 1108,
      "捉": 1109,
      "捏": 1110,
      "捐": 1111,
      "捕": 1112,
      "捧": 1113,
      "捨": 1114,
      "捫": 1115,
      "捱": 1116,
      "捲": 1117,
      "捶": 1118,
      "捷": 1119,
      "掀": 1120,
      "掃": 1121,
      "授": 1122,
      "掉": 1123,
      "掌": 1124,
      "掏": 1125,
      "掐": 1126,
      "排": 1127,
      "掘": 1128,
      "掙": 1129,
      "掛": 1130,
      "掠": 1131,
      "採": 1132,
      "探": 1133,
      "掣": 1134,
      "接": 1135,
      "控": 1136,
      "推": 1137,
      "掩": 1138,
      "措": 1139,
      "揀": 1140,
      "揉": 1141,
      "提": 1142,
      "插": 1143,
      "揚": 1144,
      "換": 1145,
      "握": 1146,
      "揣": 1147,
      "揪": 1148,
      "揭": 1149,
      "揮": 1150,
      "援": 1151,
      "損": 1152,
      "搏": 1153,
      "搓": 1154,
      "搖": 1155,
      "搗": 1156,
      "搜": 1157,
      "搥": 1158,
      "搧": 1159,
      "搬": 1160,
      "搭": 1161,
      "搶": 1162,
      "摀": 1163,
      "摔": 1164,
      "摘": 1165,
      "摧": 1166,
      "摩": 1167,
      "摸": 1168,
      "摺": 1169,
      "撇": 1170,
      "撐": 1171,
      "撒": 1172,
      "撓": 1173,
      "撕": 1174,
      "撞": 1175,
      "撤": 1176,
      "撥": 1177,
      "撫": 1178,
      "播": 1179,
      "撮": 1180,
      "撲": 1181,
      "撻": 1182,
      "撼": 1183,
      "撿": 1184,
      "擁": 1185,
      "擄": 1186,
      "擅": 1187,
      "擇": 1188,
      "擊": 1189,
      "擋": 1190,
      "操": 1191,
      "擒": 1192,
      "擔": 1193,
      "擘": 1194,
      "據": 1195,
      "擠": 1196,
      "擦": 1197,
      "擬": 1198,
      "擰": 1199,
      "擱": 1200,
      "擲": 1201,
      "擴": 1202,
      "擺": 1203,
      "擾": 1204,
      "攀": 1205,
      "攏": 1206,
      "攔": 1207,
      "攙": 1208,
      "攜": 1209,
      "攪": 1210,
      "攫": 1211,
      "支": 1212,
      "收": 1213,
      "改": 1214,
      "攻": 1215,
      "放": 1216,
      "政": 1217,
      "故": 1218,
      "效": 1219,
      "敏": 1220,
      "救": 1221,
      "敕": 1222,
      "敗": 1223,
      "敘": 1224,
      "教": 1225,
      "敞": 1226,
      "敢": 1227,
      "散": 1228,
      "敦": 1229,
      "敬": 1230,
      "敲": 1231,
      "整": 1232,
      "敵": 1233,
      "敷": 1234,
      "數": 1235,
      "斂": 1236,
      "斃": 1237,
      "文": 1238,
      "斐": 1239,
      "斑": 1240,
      "斗": 1241,
      "料": 1242,
      "斜": 1243,
      "斟": 1244,
      "斤": 1245,
      "斥": 1246,
      "斧": 1247,
      "斬": 1248,
      "斯": 1249,
      "新": 1250,
      "斷": 1251,
      "方": 1252,
      "於": 1253,
      "施": 1254,
      "旁": 1255,
      "旅": 1256,
      "旋": 1257,
      "旌": 1258,
      "族": 1259,
      "旗": 1260,
      "既": 1261,
      "日": 1262,
      "旦": 1263,
      "旨": 1264,
      "早": 1265,
      "旬": 1266,
      "旱": 1267,
      "旺": 1268,
      "昂": 1269,
      "昆": 1270,
      "昌": 1271,
      "明": 1272,
      "昏": 1273,
      "易": 1274,
      "昔": 1275,
      "星": 1276,
      "映": 1277,
      "春": 1278,
      "昧": 1279,
      "昨": 1280,
      "昭": 1281,
      "是": 1282,
      "昴": 1283,
      "時": 1284,
      "晃": 1285,
      "晉": 1286,
      "晚": 1287,
      "晝": 1288,
      "晨": 1289,
      "普": 1290,
      "景": 1291,
      "晴": 1292,
      "晶": 1293,
      "晷": 1294,
      "智": 1295,
      "暇": 1296,
      "暑": 1297,
      "暖": 1298,
      "暗": 1299,
      "暢": 1300,
      "暫": 1301,
      "暴": 1302,
      "暸": 1303,
      "曉": 1304,
      "曙": 1305,
      "曝": 1306,
      "曠": 1307,
      "曦": 1308,
      "曬": 1309,
      "曲": 1310,
      "更": 1311,
      "曷": 1312,
      "書": 1313,
      "曼": 1314,
      "曾": 1315,
      "替": 1316,
      "最": 1317,
      "會": 1318,
      "月": 1319,
      "有": 1320,
      "朋": 1321,
      "服": 1322,
      "朔": 1323,
      "朗": 1324,
      "望": 1325,
      "朝": 1326,
      "期": 1327,
      "木": 1328,
      "未": 1329,
      "末": 1330,
      "本": 1331,
      "朱": 1332,
      "朵": 1333,
      "朽": 1334,
      "杆": 1335,
      "杈": 1336,
      "杉": 1337,
      "李": 1338,
      "杏": 1339,
      "材": 1340,
      "村": 1341,
      "杖": 1342,
      "杜": 1343,
      "束": 1344,
      "杯": 1345,
      "東": 1346,
      "杵": 1347,
      "松": 1348,
      "板": 1349,
      "枉": 1350,
      "枕": 1351,
      "林": 1352,
      "果": 1353,
      "枝": 1354,
      "枯": 1355,
      "枳": 1356,
      "枴": 1357,
      "架": 1358,
      "枷": 1359,
      "柄": 1360,
      "柏": 1361,
      "某": 1362,
      "染": 1363,
      "柔": 1364,
      "查": 1365,
      "柯": 1366,
      "柱": 1367,
      "柳": 1368,
      "柴": 1369,
      "柺": 1370,
      "株": 1371,
      "核": 1372,
      "根": 1373,
      "格": 1374,
      "栽": 1375,
      "桂": 1376,
      "桅": 1377,
      "框": 1378,
      "案": 1379,
      "桌": 1380,
      "桑": 1381,
      "桶": 1382,
      "桿": 1383,
      "梁": 1384,
      "梅": 1385,
      "梗": 1386,
      "條": 1387,
      "梢": 1388,
      "梧": 1389,
      "梭": 1390,
      "梯": 1391,
      "械": 1392,
      "梳": 1393,
      "棄": 1394,
      "棉": 1395,
      "棍": 1396,
      "棒": 1397,
      "棕": 1398,
      "棗": 1399,
      "棘": 1400,
      "棚": 1401,
      "棟": 1402,
      "棧": 1403,
      "森": 1404,
      "棲": 1405,
      "棵": 1406,
      "棺": 1407,
      "椅": 1408,
      "植": 1409,
      "椽": 1410,
      "楊": 1411,
      "楓": 1412,
      "楚": 1413,
      "楠": 1414,
      "楣": 1415,
      "業": 1416,
      "極": 1417,
      "概": 1418,
      "榜": 1419,
      "榨": 1420,
      "榫": 1421,
      "榮": 1422,
      "榴": 1423,
      "榻": 1424,
      "槁": 1425,
      "構": 1426,
      "槌": 1427,
      "槍": 1428,
      "槓": 1429,
      "槳": 1430,
      "槽": 1431,
      "樂": 1432,
      "樓": 1433,
      "標": 1434,
      "樞": 1435,
      "模": 1436,
      "樣": 1437,
      "樸": 1438,
      "樹": 1439,
      "橄": 1440,
      "橛": 1441,
      "機": 1442,
      "橡": 1443,
      "橫": 1444,
      "檀": 1445,
      "檐": 1446,
      "檔": 1447,
      "檢": 1448,
      "檻": 1449,
      "櫃": 1450,
      "櫓": 1451,
      "欄": 1452,
      "權": 1453,
      "欖": 1454,
      "欠": 1455,
      "次": 1456,
      "欣": 1457,
      "欲": 1458,
      "欺": 1459,
      "欽": 1460,
      "款": 1461,
      "歇": 1462,
      "歌": 1463,
      "歎": 1464,
      "歛": 1465,
      "歡": 1466,
      "止": 1467,
      "正": 1468,
      "此": 1469,
      "步": 1470,
      "武": 1471,
      "歧": 1472,
      "歪": 1473,
      "歲": 1474,
      "歷": 1475,
      "歸": 1476,
      "歹": 1477,
      "死": 1478,
      "殃": 1479,
      "殆": 1480,
      "殊": 1481,
      "殖": 1482,
      "殘": 1483,
      "殮": 1484,
      "殯": 1485,
      "殲": 1486,
      "段": 1487,
      "殷": 1488,
      "殺": 1489,
      "殿": 1490,
      "毀": 1491,
      "毆": 1492,
      "毋": 1493,
      "母": 1494,
      "每": 1495,
      "毒": 1496,
      "比": 1497,
      "毗": 1498,
      "毛": 1499,
      "毫": 1500,
      "毯": 1501,
      "氏": 1502,
      "民": 1503,
      "氓": 1504,
      "氣": 1505,
      "水": 1506,
      "永": 1507,
      "氾": 1508,
      "汁": 1509,
      "求": 1510,
      "汊": 1511,
      "汗": 1512,
      "汛": 1513,
      "江": 1514,
      "池": 1515,
      "污": 1516,
      "汪": 1517,
      "汰": 1518,
      "汲": 1519,
      "決": 1520,
      "沃": 1521,
      "沉": 1522,
      "沌": 1523,
      "沐": 1524,
      "沒": 1525,
      "沖": 1526,
      "沙": 1527,
      "沛": 1528,
      "沫": 1529,
      "沮": 1530,
      "河": 1531,
      "沸": 1532,
      "油": 1533,
      "治": 1534,
      "沼": 1535,
      "沽": 1536,
      "沾": 1537,
      "沿": 1538,
      "況": 1539,
      "泄": 1540,
      "泉": 1541,
      "泊": 1542,
      "法": 1543,
      "泛": 1544,
      "泡": 1545,
      "波": 1546,
      "泣": 1547,
      "泥": 1548,
      "注": 1549,
      "泰": 1550,
      "泳": 1551,
      "洋": 1552,
      "洗": 1553,
      "洛": 1554,
      "洞": 1555,
      "洩": 1556,
      "洪": 1557,
      "洲": 1558,
      "洶": 1559,
      "活": 1560,
      "派": 1561,
      "流": 1562,
      "浦": 1563,
      "浩": 1564,
      "浪": 1565,
      "浮": 1566,
      "浴": 1567,
      "海": 1568,
      "浸": 1569,
      "消": 1570,
      "涉": 1571,
      "涓": 1572,
      "涯": 1573,
      "液": 1574,
      "涸": 1575,
      "涼": 1576,
      "淋": 1577,
      "淒": 1578,
      "淘": 1579,
      "淚": 1580,
      "淡": 1581,
      "淤": 1582,
      "淨": 1583,
      "淪": 1584,
      "淫": 1585,
      "深": 1586,
      "淵": 1587,
      "混": 1588,
      "淹": 1589,
      "淺": 1590,
      "添": 1591,
      "清": 1592,
      "減": 1593,
      "渡": 1594,
      "渣": 1595,
      "測": 1596,
      "港": 1597,
      "渴": 1598,
      "游": 1599,
      "渺": 1600,
      "渾": 1601,
      "湃": 1602,
      "湊": 1603,
      "湍": 1604,
      "湎": 1605,
      "湖": 1606,
      "湧": 1607,
      "湯": 1608,
      "溉": 1609,
      "源": 1610,
      "準": 1611,
      "溜": 1612,
      "溝": 1613,
      "溢": 1614,
      "溪": 1615,
      "溫": 1616,
      "溶": 1617,
      "溺": 1618,
      "滄": 1619,
      "滅": 1620,
      "滋": 1621,
      "滌": 1622,
      "滑": 1623,
      "滓": 1624,
      "滔": 1625,
      "滲": 1626,
      "滴": 1627,
      "滾": 1628,
      "滿": 1629,
      "漁": 1630,
      "漂": 1631,
      "漆": 1632,
      "漏": 1633,
      "漓": 1634,
      "演": 1635,
      "漠": 1636,
      "漢": 1637,
      "漫": 1638,
      "漲": 1639,
      "漸": 1640,
      "漿": 1641,
      "潑": 1642,
      "潔": 1643,
      "潛": 1644,
      "潤": 1645,
      "潦": 1646,
      "潭": 1647,
      "潰": 1648,
      "澀": 1649,
      "澄": 1650,
      "澆": 1651,
      "澎": 1652,
      "澡": 1653,
      "澤": 1654,
      "澱": 1655,
      "澳": 1656,
      "激": 1657,
      "濁": 1658,
      "濃": 1659,
      "濕": 1660,
      "濛": 1661,
      "濟": 1662,
      "濠": 1663,
      "濤": 1664,
      "濫": 1665,
      "濯": 1666,
      "濱": 1667,
      "濺": 1668,
      "濾": 1669,
      "瀆": 1670,
      "瀉": 1671,
      "瀑": 1672,
      "瀝": 1673,
      "瀰": 1674,
      "瀾": 1675,
      "灌": 1676,
      "灑": 1677,
      "灘": 1678,
      "灣": 1679,
      "火": 1680,
      "灰": 1681,
      "灶": 1682,
      "灼": 1683,
      "災": 1684,
      "炎": 1685,
      "炒": 1686,
      "炫": 1687,
      "炬": 1688,
      "炭": 1689,
      "為": 1690,
      "烈": 1691,
      "烏": 1692,
      "烘": 1693,
      "烙": 1694,
      "烤": 1695,
      "烹": 1696,
      "焉": 1697,
      "焚": 1698,
      "無": 1699,
      "焦": 1700,
      "焰": 1701,
      "然": 1702,
      "煉": 1703,
      "煌": 1704,
      "煎": 1705,
      "煙": 1706,
      "煞": 1707,
      "煤": 1708,
      "照": 1709,
      "煩": 1710,
      "煮": 1711,
      "煽": 1712,
      "熄": 1713,
      "熊": 1714,
      "熔": 1715,
      "熟": 1716,
      "熬": 1717,
      "熱": 1718,
      "燃": 1719,
      "燈": 1720,
      "燒": 1721,
      "燔": 1722,
      "燕": 1723,
      "燙": 1724,
      "營": 1725,
      "燥": 1726,
      "燦": 1727,
      "燬": 1728,
      "燼": 1729,
      "爆": 1730,
      "爍": 1731,
      "爐": 1732,
      "爛": 1733,
      "爪": 1734,
      "爬": 1735,
      "爭": 1736,
      "爵": 1737,
      "父": 1738,
      "爸": 1739,
      "爽": 1740,
      "爾": 1741,
      "牆": 1742,
      "片": 1743,
      "版": 1744,
      "牌": 1745,
      "牙": 1746,
      "牛": 1747,
      "牠": 1748,
      "牢": 1749,
      "牧": 1750,
      "物": 1751,
      "牲": 1752,
      "牴": 1753,
      "特": 1754,
      "牽": 1755,
      "犁": 1756,
      "犒": 1757,
      "犢": 1758,
      "犧": 1759,
      "犬": 1760,
      "犯": 1761,
      "狀": 1762,
      "狂": 1763,
      "狄": 1764,
      "狐": 1765,
      "狗": 1766,
      "狠": 1767,
      "狡": 1768,
      "狸": 1769,
      "狹": 1770,
      "狼": 1771,
      "猛": 1772,
      "猜": 1773,
      "猴": 1774,
      "猶": 1775,
      "猾": 1776,
      "猿": 1777,
      "獄": 1778,
      "獅": 1779,
      "獎": 1780,
      "獠": 1781,
      "獨": 1782,
      "獲": 1783,
      "獵": 1784,
      "獸": 1785,
      "獻": 1786,
      "獾": 1787,
      "玄": 1788,
      "率": 1789,
      "玉": 1790,
      "王": 1791,
      "玎": 1792,
      "玩": 1793,
      "玫": 1794,
      "玳": 1795,
      "玷": 1796,
      "玻": 1797,
      "珊": 1798,
      "珍": 1799,
      "珠": 1800,
      "珥": 1801,
      "班": 1802,
      "現": 1803,
      "球": 1804,
      "理": 1805,
      "琢": 1806,
      "琳": 1807,
      "琴": 1808,
      "瑕": 1809,
      "瑙": 1810,
      "瑚": 1811,
      "瑟": 1812,
      "瑣": 1813,
      "瑩": 1814,
      "瑪": 1815,
      "瑰": 1816,
      "瑾": 1817,
      "璃": 1818,
      "璉": 1819,
      "璧": 1820,
      "璫": 1821,
      "環": 1822,
      "璽": 1823,
      "瓜": 1824,
      "瓣": 1825,
      "瓦": 1826,
      "瓶": 1827,
      "瓷": 1828,
      "甘": 1829,
      "甚": 1830,
      "甜": 1831,
      "生": 1832,
      "產": 1833,
      "甥": 1834,
      "甦": 1835,
      "用": 1836,
      "甩": 1837,
      "田": 1838,
      "由": 1839,
      "甲": 1840,
      "申": 1841,
      "男": 1842,
      "甸": 1843,
      "界": 1844,
      "畏": 1845,
      "畔": 1846,
      "留": 1847,
      "畜": 1848,
      "畝": 1849,
      "畢": 1850,
      "略": 1851,
      "番": 1852,
      "畫": 1853,
      "異": 1854,
      "當": 1855,
      "疆": 1856,
      "疊": 1857,
      "疏": 1858,
      "疑": 1859,
      "疤": 1860,
      "疥": 1861,
      "疫": 1862,
      "疲": 1863,
      "疵": 1864,
      "疹": 1865,
      "疼": 1866,
      "疾": 1867,
      "病": 1868,
      "症": 1869,
      "痊": 1870,
      "痔": 1871,
      "痕": 1872,
      "痛": 1873,
      "痢": 1874,
      "痲": 1875,
      "痴": 1876,
      "瘀": 1877,
      "瘋": 1878,
      "瘍": 1879,
      "瘓": 1880,
      "瘟": 1881,
      "瘠": 1882,
      "瘡": 1883,
      "瘦": 1884,
      "瘸": 1885,
      "癆": 1886,
      "癇": 1887,
      "癒": 1888,
      "癢": 1889,
      "癬": 1890,
      "癱": 1891,
      "癲": 1892,
      "登": 1893,
      "發": 1894,
      "白": 1895,
      "百": 1896,
      "皂": 1897,
      "的": 1898,
      "皆": 1899,
      "皇": 1900,
      "皈": 1901,
      "皎": 1902,
      "皮": 1903,
      "皺": 1904,
      "皿": 1905,
      "盆": 1906,
      "盈": 1907,
      "益": 1908,
      "盒": 1909,
      "盔": 1910,
      "盛": 1911,
      "盜": 1912,
      "盞": 1913,
      "盟": 1914,
      "盡": 1915,
      "監": 1916,
      "盤": 1917,
      "盪": 1918,
      "目": 1919,
      "盯": 1920,
      "盲": 1921,
      "直": 1922,
      "相": 1923,
      "盹": 1924,
      "盼": 1925,
      "盾": 1926,
      "省": 1927,
      "眉": 1928,
      "看": 1929,
      "真": 1930,
      "眠": 1931,
      "眨": 1932,
      "眶": 1933,
      "眷": 1934,
      "眸": 1935,
      "眼": 1936,
      "眾": 1937,
      "睚": 1938,
      "睛": 1939,
      "睜": 1940,
      "睡": 1941,
      "督": 1942,
      "睦": 1943,
      "睪": 1944,
      "睬": 1945,
      "睹": 1946,
      "睽": 1947,
      "瞄": 1948,
      "瞎": 1949,
      "瞞": 1950,
      "瞥": 1951,
      "瞪": 1952,
      "瞬": 1953,
      "瞭": 1954,
      "瞳": 1955,
      "瞻": 1956,
      "矇": 1957,
      "矗": 1958,
      "矛": 1959,
      "矜": 1960,
      "知": 1961,
      "矩": 1962,
      "短": 1963,
      "矮": 1964,
      "石": 1965,
      "砌": 1966,
      "砍": 1967,
      "研": 1968,
      "砧": 1969,
      "破": 1970,
      "砸": 1971,
      "硃": 1972,
      "硫": 1973,
      "硬": 1974,
      "碉": 1975,
      "碌": 1976,
      "碎": 1977,
      "碑": 1978,
      "碗": 1979,
      "碟": 1980,
      "碧": 1981,
      "碰": 1982,
      "確": 1983,
      "碼": 1984,
      "碾": 1985,
      "磐": 1986,
      "磚": 1987,
      "磨": 1988,
      "磯": 1989,
      "磺": 1990,
      "礁": 1991,
      "礎": 1992,
      "礙": 1993,
      "礦": 1994,
      "礫": 1995,
      "示": 1996,
      "祀": 1997,
      "祈": 1998,
      "祉": 1999,
      "祕": 2000,
      "祖": 2001,
      "祝": 2002,
      "神": 2003,
      "祥": 2004,
      "祭": 2005,
      "祿": 2006,
      "禁": 2007,
      "禍": 2008,
      "福": 2009,
      "禦": 2010,
      "禧": 2011,
      "禮": 2012,
      "禱": 2013,
      "禽": 2014,
      "禾": 2015,
      "禿": 2016,
      "秀": 2017,
      "私": 2018,
      "秉": 2019,
      "秋": 2020,
      "科": 2021,
      "秕": 2022,
      "租": 2023,
      "秤": 2024,
      "秩": 2025,
      "秸": 2026,
      "移": 2027,
      "稀": 2028,
      "稅": 2029,
      "稈": 2030,
      "程": 2031,
      "稍": 2032,
      "稟": 2033,
      "稠": 2034,
      "種": 2035,
      "稱": 2036,
      "稻": 2037,
      "稼": 2038,
      "稽": 2039,
      "穀": 2040,
      "穌": 2041,
      "積": 2042,
      "穗": 2043,
      "穢": 2044,
      "穩": 2045,
      "穫": 2046,
      "穴": 2047,
      "究": 2048,
      "穹": 2049,
      "空": 2050,
      "穿": 2051,
      "突": 2052,
      "窄": 2053,
      "窒": 2054,
      "窖": 2055,
      "窗": 2056,
      "窘": 2057,
      "窩": 2058,
      "窪": 2059,
      "窮": 2060,
      "窯": 2061,
      "窺": 2062,
      "窿": 2063,
      "竄": 2064,
      "竅": 2065,
      "竊": 2066,
      "立": 2067,
      "站": 2068,
      "竟": 2069,
      "章": 2070,
      "童": 2071,
      "竭": 2072,
      "端": 2073,
      "競": 2074,
      "竿": 2075,
      "笆": 2076,
      "笏": 2077,
      "笑": 2078,
      "笛": 2079,
      "符": 2080,
      "笨": 2081,
      "第": 2082,
      "筆": 2083,
      "等": 2084,
      "筋": 2085,
      "筏": 2086,
      "筐": 2087,
      "筒": 2088,
      "答": 2089,
      "策": 2090,
      "筵": 2091,
      "箍": 2092,
      "箕": 2093,
      "算": 2094,
      "管": 2095,
      "箭": 2096,
      "箱": 2097,
      "箴": 2098,
      "節": 2099,
      "範": 2100,
      "篇": 2101,
      "築": 2102,
      "篡": 2103,
      "篤": 2104,
      "篩": 2105,
      "篷": 2106,
      "篾": 2107,
      "簇": 2108,
      "簍": 2109,
      "簡": 2110,
      "簫": 2111,
      "簷": 2112,
      "簸": 2113,
      "簽": 2114,
      "簾": 2115,
      "籃": 2116,
      "籌": 2117,
      "籍": 2118,
      "籠": 2119,
      "籤": 2120,
      "籬": 2121,
      "籲": 2122,
      "米": 2123,
      "籽": 2124,
      "粉": 2125,
      "粒": 2126,
      "粗": 2127,
      "精": 2128,
      "糊": 2129,
      "糞": 2130,
      "糟": 2131,
      "糠": 2132,
      "糧": 2133,
      "系": 2134,
      "糾": 2135,
      "紀": 2136,
      "約": 2137,
      "紅": 2138,
      "紋": 2139,
      "納": 2140,
      "純": 2141,
      "紗": 2142,
      "紙": 2143,
      "級": 2144,
      "紛": 2145,
      "素": 2146,
      "紡": 2147,
      "索": 2148,
      "紫": 2149,
      "紮": 2150,
      "累": 2151,
      "細": 2152,
      "紳": 2153,
      "紹": 2154,
      "終": 2155,
      "組": 2156,
      "絆": 2157,
      "結": 2158,
      "絕": 2159,
      "絞": 2160,
      "絡": 2161,
      "給": 2162,
      "絨": 2163,
      "統": 2164,
      "絲": 2165,
      "綁": 2166,
      "經": 2167,
      "綠": 2168,
      "綢": 2169,
      "維": 2170,
      "綱": 2171,
      "網": 2172,
      "綸": 2173,
      "綹": 2174,
      "綻": 2175,
      "綿": 2176,
      "緊": 2177,
      "緒": 2178,
      "緘": 2179,
      "線": 2180,
      "締": 2181,
      "緣": 2182,
      "編": 2183,
      "緩": 2184,
      "緬": 2185,
      "緯": 2186,
      "練": 2187,
      "緻": 2188,
      "縋": 2189,
      "縛": 2190,
      "縫": 2191,
      "縮": 2192,
      "縱": 2193,
      "縵": 2194,
      "總": 2195,
      "繁": 2196,
      "繃": 2197,
      "織": 2198,
      "繞": 2199,
      "繡": 2200,
      "繩": 2201,
      "繫": 2202,
      "繳": 2203,
      "繸": 2204,
      "繼": 2205,
      "繽": 2206,
      "續": 2207,
      "纍": 2208,
      "纏": 2209,
      "纜": 2210,
      "缸": 2211,
      "缺": 2212,
      "罈": 2213,
      "罐": 2214,
      "罕": 2215,
      "罩": 2216,
      "罪": 2217,
      "置": 2218,
      "罰": 2219,
      "署": 2220,
      "罵": 2221,
      "罷": 2222,
      "羅": 2223,
      "羈": 2224,
      "羊": 2225,
      "美": 2226,
      "羔": 2227,
      "羚": 2228,
      "羞": 2229,
      "群": 2230,
      "羨": 2231,
      "義": 2232,
      "羹": 2233,
      "羽": 2234,
      "翁": 2235,
      "翅": 2236,
      "翎": 2237,
      "習": 2238,
      "翔": 2239,
      "翠": 2240,
      "翡": 2241,
      "翰": 2242,
      "翹": 2243,
      "翻": 2244,
      "翼": 2245,
      "耀": 2246,
      "老": 2247,
      "考": 2248,
      "者": 2249,
      "而": 2250,
      "耍": 2251,
      "耐": 2252,
      "耕": 2253,
      "耗": 2254,
      "耘": 2255,
      "耙": 2256,
      "耳": 2257,
      "耶": 2258,
      "耽": 2259,
      "聆": 2260,
      "聖": 2261,
      "聘": 2262,
      "聚": 2263,
      "聞": 2264,
      "聯": 2265,
      "聰": 2266,
      "聲": 2267,
      "聳": 2268,
      "聶": 2269,
      "職": 2270,
      "聽": 2271,
      "聾": 2272,
      "肅": 2273,
      "肆": 2274,
      "肉": 2275,
      "肋": 2276,
      "肌": 2277,
      "肘": 2278,
      "肚": 2279,
      "肝": 2280,
      "股": 2281,
      "肢": 2282,
      "肥": 2283,
      "肩": 2284,
      "肪": 2285,
      "肯": 2286,
      "肱": 2287,
      "育": 2288,
      "肴": 2289,
      "肺": 2290,
      "胃": 2291,
      "背": 2292,
      "胎": 2293,
      "胖": 2294,
      "胛": 2295,
      "胞": 2296,
      "胡": 2297,
      "胸": 2298,
      "能": 2299,
      "脂": 2300,
      "脅": 2301,
      "脆": 2302,
      "脈": 2303,
      "脊": 2304,
      "脫": 2305,
      "脯": 2306,
      "脹": 2307,
      "脾": 2308,
      "腋": 2309,
      "腎": 2310,
      "腐": 2311,
      "腑": 2312,
      "腓": 2313,
      "腕": 2314,
      "腥": 2315,
      "腦": 2316,
      "腫": 2317,
      "腮": 2318,
      "腰": 2319,
      "腳": 2320,
      "腸": 2321,
      "腹": 2322,
      "腿": 2323,
      "膀": 2324,
      "膏": 2325,
      "膚": 2326,
      "膛": 2327,
      "膝": 2328,
      "膠": 2329,
      "膩": 2330,
      "膳": 2331,
      "膽": 2332,
      "膿": 2333,
      "臀": 2334,
      "臂": 2335,
      "臉": 2336,
      "臍": 2337,
      "臘": 2338,
      "臟": 2339,
      "臣": 2340,
      "臥": 2341,
      "臨": 2342,
      "自": 2343,
      "臭": 2344,
      "至": 2345,
      "致": 2346,
      "臺": 2347,
      "臼": 2348,
      "舀": 2349,
      "舅": 2350,
      "與": 2351,
      "興": 2352,
      "舉": 2353,
      "舊": 2354,
      "舌": 2355,
      "舍": 2356,
      "舒": 2357,
      "舔": 2358,
      "舖": 2359,
      "舜": 2360,
      "舞": 2361,
      "舟": 2362,
      "航": 2363,
      "般": 2364,
      "舵": 2365,
      "舶": 2366,
      "船": 2367,
      "艇": 2368,
      "艘": 2369,
      "艙": 2370,
      "艮": 2371,
      "良": 2372,
      "艱": 2373,
      "色": 2374,
      "艾": 2375,
      "芒": 2376,
      "芥": 2377,
      "芫": 2378,
      "芬": 2379,
      "花": 2380,
      "芳": 2381,
      "芸": 2382,
      "芻": 2383,
      "芽": 2384,
      "苗": 2385,
      "苛": 2386,
      "苞": 2387,
      "苟": 2388,
      "若": 2389,
      "苦": 2390,
      "英": 2391,
      "茁": 2392,
      "茂": 2393,
      "茅": 2394,
      "茴": 2395,
      "茵": 2396,
      "草": 2397,
      "荊": 2398,
      "荒": 2399,
      "荷": 2400,
      "荻": 2401,
      "荽": 2402,
      "莉": 2403,
      "莊": 2404,
      "莎": 2405,
      "莢": 2406,
      "莫": 2407,
      "莽": 2408,
      "菖": 2409,
      "菜": 2410,
      "菢": 2411,
      "華": 2412,
      "菲": 2413,
      "菴": 2414,
      "萄": 2415,
      "萊": 2416,
      "萎": 2417,
      "萬": 2418,
      "萼": 2419,
      "落": 2420,
      "葉": 2421,
      "著": 2422,
      "葡": 2423,
      "葦": 2424,
      "葬": 2425,
      "蒙": 2426,
      "蒜": 2427,
      "蒲": 2428,
      "蒸": 2429,
      "蒺": 2430,
      "蒼": 2431,
      "蓄": 2432,
      "蓋": 2433,
      "蓖": 2434,
      "蓬": 2435,
      "蓮": 2436,
      "蓿": 2437,
      "蔑": 2438,
      "蔓": 2439,
      "蔥": 2440,
      "蔬": 2441,
      "蔭": 2442,
      "蔯": 2443,
      "蔻": 2444,
      "蔽": 2445,
      "蕁": 2446,
      "蕊": 2447,
      "蕩": 2448,
      "蕪": 2449,
      "蕾": 2450,
      "薄": 2451,
      "薛": 2452,
      "薦": 2453,
      "薩": 2454,
      "薪": 2455,
      "薰": 2456,
      "藉": 2457,
      "藍": 2458,
      "藏": 2459,
      "藐": 2460,
      "藜": 2461,
      "藝": 2462,
      "藤": 2463,
      "藥": 2464,
      "蘆": 2465,
      "蘇": 2466,
      "蘊": 2467,
      "蘋": 2468,
      "蘭": 2469,
      "蘸": 2470,
      "虎": 2471,
      "虐": 2472,
      "虔": 2473,
      "處": 2474,
      "虛": 2475,
      "虜": 2476,
      "號": 2477,
      "虧": 2478,
      "虹": 2479,
      "虺": 2480,
      "虻": 2481,
      "蚊": 2482,
      "蚤": 2483,
      "蚱": 2484,
      "蛀": 2485,
      "蛆": 2486,
      "蛇": 2487,
      "蛋": 2488,
      "蛙": 2489,
      "蛛": 2490,
      "蛭": 2491,
      "蛻": 2492,
      "蛾": 2493,
      "蜂": 2494,
      "蜓": 2495,
      "蜘": 2496,
      "蜜": 2497,
      "蜢": 2498,
      "蜥": 2499,
      "蜴": 2500,
      "蜷": 2501,
      "蝕": 2502,
      "蝗": 2503,
      "蝘": 2504,
      "蝙": 2505,
      "蝠": 2506,
      "蝶": 2507,
      "蝸": 2508,
      "蝻": 2509,
      "融": 2510,
      "螞": 2511,
      "螫": 2512,
      "螺": 2513,
      "蟀": 2514,
      "蟋": 2515,
      "蟲": 2516,
      "蟻": 2517,
      "蠅": 2518,
      "蠍": 2519,
      "蠓": 2520,
      "蠟": 2521,
      "蠢": 2522,
      "血": 2523,
      "行": 2524,
      "衍": 2525,
      "術": 2526,
      "街": 2527,
      "衙": 2528,
      "衛": 2529,
      "衝": 2530,
      "衡": 2531,
      "衣": 2532,
      "表": 2533,
      "衫": 2534,
      "衰": 2535,
      "衲": 2536,
      "袋": 2537,
      "袍": 2538,
      "袒": 2539,
      "袖": 2540,
      "袞": 2541,
      "被": 2542,
      "袱": 2543,
      "裁": 2544,
      "裂": 2545,
      "裏": 2546,
      "裔": 2547,
      "裕": 2548,
      "裙": 2549,
      "補": 2550,
      "裝": 2551,
      "裳": 2552,
      "裸": 2553,
      "裹": 2554,
      "製": 2555,
      "複": 2556,
      "褐": 2557,
      "褥": 2558,
      "褪": 2559,
      "褲": 2560,
      "褻": 2561,
      "襟": 2562,
      "襬": 2563,
      "襲": 2564,
      "西": 2565,
      "要": 2566,
      "覆": 2567,
      "見": 2568,
      "規": 2569,
      "覓": 2570,
      "視": 2571,
      "親": 2572,
      "覲": 2573,
      "覷": 2574,
      "覺": 2575,
      "覽": 2576,
      "觀": 2577,
      "角": 2578,
      "解": 2579,
      "觸": 2580,
      "言": 2581,
      "訂": 2582,
      "計": 2583,
      "討": 2584,
      "訓": 2585,
      "託": 2586,
      "記": 2587,
      "訝": 2588,
      "訟": 2589,
      "訣": 2590,
      "訥": 2591,
      "訪": 2592,
      "設": 2593,
      "許": 2594,
      "訴": 2595,
      "註": 2596,
      "詆": 2597,
      "詐": 2598,
      "詔": 2599,
      "評": 2600,
      "詛": 2601,
      "詞": 2602,
      "詠": 2603,
      "詢": 2604,
      "試": 2605,
      "詩": 2606,
      "詫": 2607,
      "詭": 2608,
      "話": 2609,
      "該": 2610,
      "詳": 2611,
      "誇": 2612,
      "誌": 2613,
      "認": 2614,
      "誓": 2615,
      "誘": 2616,
      "誚": 2617,
      "語": 2618,
      "誠": 2619,
      "誡": 2620,
      "誣": 2621,
      "誤": 2622,
      "誦": 2623,
      "誨": 2624,
      "說": 2625,
      "誰": 2626,
      "課": 2627,
      "誼": 2628,
      "調": 2629,
      "諂": 2630,
      "談": 2631,
      "諉": 2632,
      "請": 2633,
      "諒": 2634,
      "論": 2635,
      "諧": 2636,
      "諫": 2637,
      "諭": 2638,
      "諷": 2639,
      "諸": 2640,
      "諺": 2641,
      "諾": 2642,
      "謀": 2643,
      "謁": 2644,
      "謂": 2645,
      "謄": 2646,
      "謊": 2647,
      "謎": 2648,
      "謗": 2649,
      "謙": 2650,
      "講": 2651,
      "謝": 2652,
      "謠": 2653,
      "謬": 2654,
      "謹": 2655,
      "謾": 2656,
      "證": 2657,
      "譏": 2658,
      "識": 2659,
      "譜": 2660,
      "警": 2661,
      "譬": 2662,
      "譯": 2663,
      "議": 2664,
      "譴": 2665,
      "護": 2666,
      "譽": 2667,
      "讀": 2668,
      "變": 2669,
      "讒": 2670,
      "讓": 2671,
      "讚": 2672,
      "谷": 2673,
      "豁": 2674,
      "豆": 2675,
      "豈": 2676,
      "豎": 2677,
      "豐": 2678,
      "象": 2679,
      "豪": 2680,
      "豫": 2681,
      "豬": 2682,
      "豹": 2683,
      "豺": 2684,
      "貌": 2685,
      "貓": 2686,
      "貝": 2687,
      "貞": 2688,
      "負": 2689,
      "財": 2690,
      "貢": 2691,
      "貧": 2692,
      "貨": 2693,
      "販": 2694,
      "貪": 2695,
      "貫": 2696,
      "責": 2697,
      "貴": 2698,
      "貶": 2699,
      "買": 2700,
      "貸": 2701,
      "費": 2702,
      "貼": 2703,
      "貿": 2704,
      "賀": 2705,
      "賂": 2706,
      "賄": 2707,
      "資": 2708,
      "賈": 2709,
      "賊": 2710,
      "賓": 2711,
      "賙": 2712,
      "賜": 2713,
      "賞": 2714,
      "賠": 2715,
      "賢": 2716,
      "賣": 2717,
      "賤": 2718,
      "質": 2719,
      "賬": 2720,
      "賭": 2721,
      "賴": 2722,
      "賺": 2723,
      "購": 2724,
      "賽": 2725,
      "贈": 2726,
      "贊": 2727,
      "贏": 2728,
      "贓": 2729,
      "贖": 2730,
      "赤": 2731,
      "赦": 2732,
      "赫": 2733,
      "走": 2734,
      "赴": 2735,
      "起": 2736,
      "趁": 2737,
      "超": 2738,
      "越": 2739,
      "趕": 2740,
      "趟": 2741,
      "趨": 2742,
      "足": 2743,
      "趾": 2744,
      "跌": 2745,
      "跑": 2746,
      "距": 2747,
      "跟": 2748,
      "跡": 2749,
      "跤": 2750,
      "跪": 2751,
      "路": 2752,
      "跳": 2753,
      "跺": 2754,
      "踏": 2755,
      "踐": 2756,
      "踝": 2757,
      "踞": 2758,
      "踢": 2759,
      "踩": 2760,
      "踴": 2761,
      "踹": 2762,
      "踼": 2763,
      "蹂": 2764,
      "蹄": 2765,
      "蹈": 2766,
      "蹋": 2767,
      "蹟": 2768,
      "蹤": 2769,
      "蹦": 2770,
      "蹲": 2771,
      "躁": 2772,
      "躍": 2773,
      "躪": 2774,
      "身": 2775,
      "躲": 2776,
      "躺": 2777,
      "軀": 2778,
      "車": 2779,
      "軋": 2780,
      "軌": 2781,
      "軍": 2782,
      "軛": 2783,
      "軟": 2784,
      "軸": 2785,
      "較": 2786,
      "載": 2787,
      "輔": 2788,
      "輕": 2789,
      "輛": 2790,
      "輜": 2791,
      "輝": 2792,
      "輞": 2793,
      "輦": 2794,
      "輩": 2795,
      "輪": 2796,
      "輻": 2797,
      "轂": 2798,
      "轄": 2799,
      "轆": 2800,
      "轉": 2801,
      "轎": 2802,
      "轟": 2803,
      "轡": 2804,
      "辛": 2805,
      "辜": 2806,
      "辟": 2807,
      "辦": 2808,
      "辨": 2809,
      "辭": 2810,
      "辮": 2811,
      "辯": 2812,
      "辰": 2813,
      "辱": 2814,
      "農": 2815,
      "迅": 2816,
      "迎": 2817,
      "近": 2818,
      "返": 2819,
      "迦": 2820,
      "迪": 2821,
      "迫": 2822,
      "述": 2823,
      "迴": 2824,
      "迷": 2825,
      "迸": 2826,
      "追": 2827,
      "退": 2828,
      "送": 2829,
      "逃": 2830,
      "逆": 2831,
      "逍": 2832,
      "透": 2833,
      "逐": 2834,
      "途": 2835,
      "逗": 2836,
      "這": 2837,
      "通": 2838,
      "逛": 2839,
      "逝": 2840,
      "逞": 2841,
      "速": 2842,
      "造": 2843,
      "逢": 2844,
      "連": 2845,
      "逮": 2846,
      "週": 2847,
      "進": 2848,
      "逸": 2849,
      "逼": 2850,
      "逾": 2851,
      "遁": 2852,
      "遂": 2853,
      "遇": 2854,
      "遊": 2855,
      "運": 2856,
      "遍": 2857,
      "過": 2858,
      "遏": 2859,
      "道": 2860,
      "達": 2861,
      "違": 2862,
      "遙": 2863,
      "遜": 2864,
      "遞": 2865,
      "遠": 2866,
      "遣": 2867,
      "適": 2868,
      "遭": 2869,
      "遮": 2870,
      "遲": 2871,
      "遵": 2872,
      "遷": 2873,
      "選": 2874,
      "遺": 2875,
      "遼": 2876,
      "避": 2877,
      "邀": 2878,
      "邁": 2879,
      "還": 2880,
      "邊": 2881,
      "邏": 2882,
      "邑": 2883,
      "那": 2884,
      "邦": 2885,
      "邪": 2886,
      "郊": 2887,
      "郎": 2888,
      "部": 2889,
      "郭": 2890,
      "都": 2891,
      "鄉": 2892,
      "鄙": 2893,
      "鄭": 2894,
      "鄰": 2895,
      "酊": 2896,
      "酌": 2897,
      "配": 2898,
      "酒": 2899,
      "酗": 2900,
      "酩": 2901,
      "酪": 2902,
      "酬": 2903,
      "酵": 2904,
      "酷": 2905,
      "酸": 2906,
      "醃": 2907,
      "醇": 2908,
      "醉": 2909,
      "醋": 2910,
      "醒": 2911,
      "醜": 2912,
      "醡": 2913,
      "醫": 2914,
      "釀": 2915,
      "釁": 2916,
      "釋": 2917,
      "里": 2918,
      "重": 2919,
      "野": 2920,
      "量": 2921,
      "金": 2922,
      "釘": 2923,
      "釜": 2924,
      "針": 2925,
      "釣": 2926,
      "鈍": 2927,
      "鈕": 2928,
      "鈴": 2929,
      "鈸": 2930,
      "鉋": 2931,
      "鉗": 2932,
      "鉛": 2933,
      "鉤": 2934,
      "銀": 2935,
      "銅": 2936,
      "銘": 2937,
      "銜": 2938,
      "銬": 2939,
      "銲": 2940,
      "銳": 2941,
      "銷": 2942,
      "銹": 2943,
      "鋒": 2944,
      "鋤": 2945,
      "鋪": 2946,
      "鋸": 2947,
      "錄": 2948,
      "錐": 2949,
      "錘": 2950,
      "錚": 2951,
      "錠": 2952,
      "錢": 2953,
      "錦": 2954,
      "錨": 2955,
      "錫": 2956,
      "錯": 2957,
      "鍊": 2958,
      "鍋": 2959,
      "鍍": 2960,
      "鍛": 2961,
      "鍬": 2962,
      "鎔": 2963,
      "鎖": 2964,
      "鎚": 2965,
      "鎧": 2966,
      "鎮": 2967,
      "鏈": 2968,
      "鏟": 2969,
      "鏡": 2970,
      "鐃": 2971,
      "鐐": 2972,
      "鐘": 2973,
      "鐮": 2974,
      "鐲": 2975,
      "鐵": 2976,
      "鐺": 2977,
      "鑄": 2978,
      "鑑": 2979,
      "鑒": 2980,
      "鑰": 2981,
      "鑲": 2982,
      "鑼": 2983,
      "鑽": 2984,
      "鑿": 2985,
      "長": 2986,
      "門": 2987,
      "閂": 2988,
      "閃": 2989,
      "閉": 2990,
      "開": 2991,
      "閒": 2992,
      "間": 2993,
      "閘": 2994,
      "閣": 2995,
      "閱": 2996,
      "閹": 2997,
      "闊": 2998,
      "闔": 2999,
      "闖": 3000,
      "關": 3001,
      "闡": 3002,
      "闢": 3003,
      "阱": 3004,
      "防": 3005,
      "阻": 3006,
      "阿": 3007,
      "陀": 3008,
      "附": 3009,
      "陋": 3010,
      "陌": 3011,
      "降": 3012,
      "限": 3013,
      "陡": 3014,
      "院": 3015,
      "陣": 3016,
      "除": 3017,
      "陪": 3018,
      "陰": 3019,
      "陳": 3020,
      "陵": 3021,
      "陶": 3022,
      "陷": 3023,
      "陸": 3024,
      "陽": 3025,
      "隆": 3026,
      "隊": 3027,
      "階": 3028,
      "隔": 3029,
      "隘": 3030,
      "隙": 3031,
      "際": 3032,
      "障": 3033,
      "隨": 3034,
      "險": 3035,
      "隱": 3036,
      "隸": 3037,
      "隻": 3038,
      "雀": 3039,
      "雄": 3040,
      "雅": 3041,
      "集": 3042,
      "雇": 3043,
      "雕": 3044,
      "雖": 3045,
      "雙": 3046,
      "雛": 3047,
      "雜": 3048,
      "雞": 3049,
      "離": 3050,
      "難": 3051,
      "雨": 3052,
      "雪": 3053,
      "雲": 3054,
      "零": 3055,
      "雷": 3056,
      "雹": 3057,
      "電": 3058,
      "需": 3059,
      "震": 3060,
      "霉": 3061,
      "霍": 3062,
      "霎": 3063,
      "霖": 3064,
      "霜": 3065,
      "霧": 3066,
      "露": 3067,
      "霸": 3068,
      "靈": 3069,
      "青": 3070,
      "靜": 3071,
      "非": 3072,
      "靠": 3073,
      "面": 3074,
      "革": 3075,
      "靴": 3076,
      "靶": 3077,
      "鞋": 3078,
      "鞍": 3079,
      "鞏": 3080,
      "鞘": 3081,
      "鞭": 3082,
      "韁": 3083,
      "韋": 3084,
      "韭": 3085,
      "音": 3086,
      "響": 3087,
      "頁": 3088,
      "頂": 3089,
      "頃": 3090,
      "項": 3091,
      "順": 3092,
      "須": 3093,
      "頌": 3094,
      "預": 3095,
      "頑": 3096,
      "頒": 3097,
      "頓": 3098,
      "領": 3099,
      "頭": 3100,
      "頰": 3101,
      "頸": 3102,
      "顆": 3103,
      "題": 3104,
      "額": 3105,
      "顎": 3106,
      "顏": 3107,
      "願": 3108,
      "顛": 3109,
      "類": 3110,
      "顧": 3111,
      "顫": 3112,
      "顯": 3113,
      "顱": 3114,
      "風": 3115,
      "颳": 3116,
      "颼": 3117,
      "飄": 3118,
      "飛": 3119,
      "食": 3120,
      "飢": 3121,
      "飯": 3122,
      "飲": 3123,
      "飼": 3124,
      "飽": 3125,
      "飾": 3126,
      "餅": 3127,
      "餉": 3128,
      "養": 3129,
      "餐": 3130,
      "餓": 3131,
      "餘": 3132,
      "館": 3133,
      "餬": 3134,
      "餵": 3135,
      "餽": 3136,
      "饈": 3137,
      "饉": 3138,
      "饋": 3139,
      "饑": 3140,
      "饒": 3141,
      "饜": 3142,
      "首": 3143,
      "香": 3144,
      "馨": 3145,
      "馬": 3146,
      "馱": 3147,
      "馳": 3148,
      "馴": 3149,
      "駁": 3150,
      "駐": 3151,
      "駒": 3152,
      "駕": 3153,
      "駛": 3154,
      "駝": 3155,
      "駭": 3156,
      "駱": 3157,
      "駿": 3158,
      "騁": 3159,
      "騎": 3160,
      "騙": 3161,
      "騰": 3162,
      "騷": 3163,
      "騾": 3164,
      "驅": 3165,
      "驕": 3166,
      "驗": 3167,
      "驚": 3168,
      "驢": 3169,
      "骨": 3170,
      "骯": 3171,
      "骸": 3172,
      "骼": 3173,
      "髏": 3174,
      "髑": 3175,
      "髒": 3176,
      "髓": 3177,
      "體": 3178,
      "高": 3179,
      "髮": 3180,
      "鬃": 3181,
      "鬆": 3182,
      "鬍": 3183,
      "鬚": 3184,
      "鬢": 3185,
      "鬥": 3186,
      "鬧": 3187,
      "鬨": 3188,
      "鬼": 3189,
      "魁": 3190,
      "魂": 3191,
      "魅": 3192,
      "魔": 3193,
      "魚": 3194,
      "魯": 3195,
      "鮮": 3196,
      "鰭": 3197,
      "鱗": 3198,
      "鳥": 3199,
      "鳩": 3200,
      "鳳": 3201,
      "鳴": 3202,
      "鴉": 3203,
      "鴕": 3204,
      "鴞": 3205,
      "鴟": 3206,
      "鴣": 3207,
      "鴻": 3208,
      "鴿": 3209,
      "鵀": 3210,
      "鵜": 3211,
      "鵪": 3212,
      "鵰": 3213,
      "鶉": 3214,
      "鶘": 3215,
      "鶴": 3216,
      "鶿": 3217,
      "鷂": 3218,
      "鷓": 3219,
      "鷙": 3220,
      "鷥": 3221,
      "鷹": 3222,
      "鷺": 3223,
      "鸇": 3224,
      "鸕": 3225,
      "鸛": 3226,
      "鹹": 3227,
      "鹼": 3228,
      "鹽": 3229,
      "鹿": 3230,
      "麃": 3231,
      "麗": 3232,
      "麥": 3233,
      "麵": 3234,
      "麻": 3235,
      "麼": 3236,
      "黃": 3237,
      "黎": 3238,
      "黏": 3239,
      "黑": 3240,
      "默": 3241,
      "點": 3242,
      "黨": 3243,
      "鼎": 3244,
      "鼓": 3245,
      "鼠": 3246,
      "鼫": 3247,
      "鼬": 3248,
      "鼻": 3249,
      "齊": 3250,
      "齋": 3251,
      "齒": 3252,
      "齡": 3253,
      "龍": 3254,
      "龐": 3255,
      "龕": 3256,
      "！": 3257,
      "（": 3258,
      "）": 3259,
      "，": 3260,
      "－": 3261,
      "．": 3262,
      "：": 3263,
      "；": 3264,
      "？": 3265,
      "他們": 3266,
      "你們": 3267,
      "和華": 3268,
      "耶和華": 3269,
      "：「": 3270,
      "上帝": 3271,
      "。」": 3272,
      "我們": 3273,
      "的人": 3274,
      "我的": 3275,
      "你的": 3276,
      "以色": 3277,
      "以色列": 3278,
      "因為": 3279,
      "兒子": 3280,
      "他的": 3281,
      "自己": 3282,
      "那裏": 3283,
      "沒有": 3284,
      "耶穌": 3285,
      "人的": 3286,
      "就是": 3287,
      "的兒子": 3288,
      "百姓": 3289,
      "一切": 3290,
      "一個": 3291,
      "時候": 3292,
      "看哪": 3293,
      "面前": 3294,
      "他們的": 3295,
      "的時候": 3296,
      "知道": 3297,
      "大衛": 3298,
      "耶和華的": 3299,
      "不可": 3300,
      "甚麼": 3301,
      "祭司": 3302,
      "：『": 3303,
      "我要": 3304,
      "這是": 3305,
      "這些": 3306,
      "猶大": 3307,
      "的事": 3308,
      "這樣": 3309,
      "你們的": 3310,
      "摩西": 3311,
      "？」": 3312,
      "看見": 3313,
      "吩咐": 3314,
      "耶路": 3315,
      "上帝的": 3316,
      "撒冷": 3317,
      "耶路撒冷": 3318,
      "出來": 3319,
      "不要": 3320,
      "他說": 3321,
      "所有": 3322,
      "。』": 3323,
      "埃及": 3324,
      "於是": 3325,
      "你要": 3326,
      "說的": 3327,
      "自己的": 3328,
      "不是": 3329,
      "直到": 3330,
      "僕人": 3331,
      "求你": 3332,
      "利亞": 3333,
      "上的": 3334,
      "我必": 3335,
      "你們要": 3336,
      "可以": 3337,
      "聽見": 3338,
      "如此": 3339,
      "告訴": 3340,
      "起來": 3341,
      "！」": 3342,
      "他們說": 3343,
      "我們的": 3344,
      "子孫": 3345,
      "日子": 3346,
      "現在": 3347,
      "所以": 3348,
      "基督": 3349,
      "在那裏": 3350,
      "一樣": 3351,
      "也不": 3352,
      "眾人": 3353,
      "已經": 3354,
      "父親": 3355,
      "弟兄": 3356,
      "以及": 3357,
      "先知": 3358,
      "中的": 3359,
      "在你": 3360,
      "有人": 3361,
      "到了": 3362,
      "中間": 3363,
      "對他說": 3364,
      "那些": 3365,
      "都是": 3366,
      "離開": 3367,
      "地方": 3368,
      "掃羅": 3369,
      "永遠": 3370,
      "不能": 3371,
      "這裏": 3372,
      "雅各": 3373,
      "那時": 3374,
      "在他": 3375,
      "所有的": 3376,
      "地上": 3377,
      "的上帝": 3378,
      "如此說": 3379,
      "來到": 3380,
      "智慧": 3381,
      "賜給": 3382,
      "住在": 3383,
      "對他們說": 3384,
      "臨到": 3385,
      "在我": 3386,
      "潔淨": 3387,
      "許多": 3388,
      "回答": 3389,
      "攻擊": 3390,
      "身上": 3391,
      "來的": 3392,
      "律法": 3393,
      "榮耀": 3394,
      "有一": 3395,
      "利未": 3396,
      "成為": 3397,
      "亞伯": 3398,
      "支派": 3399,
      "亞倫": 3400,
      "做的": 3401,
      "耶和華說的": 3402,
      "我是": 3403,
      "王的": 3404,
      "地的": 3405,
      "的子孫": 3406,
      "以利": 3407,
      "我所": 3408,
      "一同": 3409,
      "心裏": 3410,
      "門徒": 3411,
      "也要": 3412,
      "平安": 3413,
      "所羅": 3414,
      "我說": 3415,
      "今日": 3416,
      "妻子": 3417,
      "聲音": 3418,
      "的日子": 3419,
      "他就": 3420,
      "兩個": 3421,
      "他們就": 3422,
      "並且": 3423,
      "比倫": 3424,
      "和他": 3425,
      "在耶和華": 3426,
      "猶太": 3427,
      "巴比倫": 3428,
      "名叫": 3429,
      "都要": 3430,
      "之地": 3431,
      "出去": 3432,
      "仇敵": 3433,
      "女兒": 3434,
      "一切的": 3435,
      "所羅門": 3436,
      "不再": 3437,
      "領袖": 3438,
      "約瑟": 3439,
      "曠野": 3440,
      "怎樣": 3441,
      "衣服": 3442,
      "生的": 3443,
      "耶和華如此說": 3444,
      "利士": 3445,
      "非利士": 3446,
      "耶和華啊": 3447,
      "這事": 3448,
      "審判": 3449,
      "死了": 3450,
      "法老": 3451,
      "把他": 3452,
      "無論": 3453,
      "的話": 3454,
      "燔祭": 3455,
      "公義": 3456,
      "萬軍": 3457,
      "孩子": 3458,
      "使他們": 3459,
      "兒女": 3460,
      "列國": 3461,
      "書亞": 3462,
      "給他": 3463,
      "萬軍之": 3464,
      "亞比": 3465,
      "我就": 3466,
      "脫離": 3467,
      "站在": 3468,
      "起誓": 3469,
      "有一個": 3470,
      "事奉": 3471,
      "他必": 3472,
      "的是": 3473,
      "你所": 3474,
      "二十": 3475,
      "如同": 3476,
      "人和": 3477,
      "使我": 3478,
      "進入": 3479,
      "居民": 3480,
      "拉罕": 3481,
      "亞伯拉罕": 3482,
      "卻不": 3483,
      "去了": 3484,
      "因此": 3485,
      "在你們": 3486,
      "手中": 3487,
      "石頭": 3488,
      "。』」": 3489,
      "婦人": 3490,
      "在他們": 3491,
      "免得": 3492,
      "好像": 3493,
      "作為": 3494,
      "使者": 3495,
      "後裔": 3496,
      "哪裏": 3497,
      "的城": 3498,
      "使你": 3499,
      "葡萄": 3500,
      "兄弟": 3501,
      "耶利": 3502,
      "也必": 3503,
      "聽從": 3504,
      "以利亞": 3505,
      "你是": 3506,
      "要把": 3507,
      "十二": 3508,
      "因為他": 3509,
      "以後": 3510,
      "必不": 3511,
      "殺了": 3512,
      "聚集": 3513,
      "也是": 3514,
      "約書亞": 3515,
      "這是耶和華說的": 3516,
      "建造": 3517,
      "獻給": 3518,
      "他所": 3519,
      "神明": 3520,
      "這地": 3521,
      "其中": 3522,
      "彼此": 3523,
      "裏的": 3524,
      "認識": 3525,
      "任何": 3526,
      "裏面": 3527,
      "我在": 3528,
      "生命": 3529,
      "耶和華的話": 3530,
      "教導": 3531,
      "預備": 3532,
      "亞哈": 3533,
      "聖所": 3534,
      "那日": 3535,
      "牲畜": 3536,
      "產業": 3537,
      "禱告": 3538,
      "一起": 3539,
      "作王": 3540,
      "行的": 3541,
      "保羅": 3542,
      "放在": 3543,
      "安息": 3544,
      "所吩咐": 3545,
      "為甚麼": 3546,
      "給他們": 3547,
      "他要": 3548,
      "罪孽": 3549,
      "外邦": 3550,
      "至於": 3551,
      "因為他們": 3552,
      "祖先": 3553,
      "全地": 3554,
      "以法": 3555,
      "命令": 3556,
      "的地方": 3557,
      "食物": 3558,
      "你的上帝": 3559,
      "慈愛": 3560,
      "拯救": 3561,
      "使他": 3562,
      "憐憫": 3563,
      "手裏": 3564,
      "和他的": 3565,
      "惡人": 3566,
      "所說的": 3567,
      "摩押": 3568,
      "聖靈": 3569,
      "贖罪": 3570,
      "正如": 3571,
      "而是": 3572,
      "天上": 3573,
      "子的": 3574,
      "母親": 3575,
      "說話": 3576,
      "還有": 3577,
      "就要": 3578,
      "懼怕": 3579,
      "會眾": 3580,
      "使你們": 3581,
      "坐在": 3582,
      "基列": 3583,
      "藉著": 3584,
      "為我": 3585,
      "那人": 3586,
      "一隻": 3587,
      "指著": 3588,
      "敬畏": 3589,
      "眾百姓": 3590,
      "幫助": 3591,
      "為聖": 3592,
      "那裏去": 3593,
      "偶像": 3594,
      "所做的": 3595,
      "無人": 3596,
      "約旦": 3597,
      "銀子": 3598,
      "歡喜": 3599,
      "他是": 3600,
      "從前": 3601,
      "約旦河": 3602,
      "彼得": 3603,
      "雅憫": 3604,
      "以法蓮": 3605,
      "上來": 3606,
      "按著": 3607,
      "為何": 3608,
      "他在": 3609,
      "毀滅": 3610,
      "這話": 3611,
      "這些事": 3612,
      "交給": 3613,
      "君王": 3614,
      "同在": 3615,
      "天使": 3616,
      "遵行": 3617,
      "回來": 3618,
      "的心": 3619,
      "的一切": 3620,
      "在耶和華面前": 3621,
      "主人": 3622,
      "長老": 3623,
      "便雅憫": 3624,
      "向我": 3625,
      "耶和華對": 3626,
      "主啊": 3627,
      "約櫃": 3628,
      "經過": 3629,
      "上去": 3630,
      "告訴你們": 3631,
      "帳幕": 3632,
      "拿單": 3633,
      "然而": 3634,
      "的聲音": 3635,
      "女子": 3636,
      "個人": 3637,
      "向耶和華": 3638,
      "為自己": 3639,
      "要在": 3640,
      "人子": 3641,
      "看為": 3642,
      "與他": 3643,
      "下來": 3644,
      "亞蘭": 3645,
      "發怒": 3646,
      "也不可": 3647,
      "的地": 3648,
      "亞述": 3649,
      "四圍": 3650,
      "跟隨": 3651,
      "迦勒": 3652,
      "會幕": 3653,
      "照著": 3654,
      "給我": 3655,
      "詛咒": 3656,
      "這一切": 3657,
      "你必": 3658,
      "勇士": 3659,
      "各人": 3660,
      "殿的": 3661,
      "眼前": 3662,
      "錫安": 3663,
      "與你": 3664,
      "人中": 3665,
      "前來": 3666,
      "帶著": 3667,
      "眼中": 3668,
      "第二": 3669,
      "給你": 3670,
      "給你們": 3671,
      "臣僕": 3672,
      "耶和華說": 3673,
      "丈夫": 3674,
      "了一": 3675,
      "她的": 3676,
      "它們": 3677,
      "上帝啊": 3678,
      "居住": 3679,
      "被擄": 3680,
      "不知道": 3681,
      "復活": 3682,
      "把他們": 3683,
      "明白": 3684,
      "也沒有": 3685,
      "倒在": 3686,
      "波安": 3687,
      "為業": 3688,
      "緣故": 3689,
      "羅波安": 3690,
      "因為我": 3691,
      "喜愛": 3692,
      "瑪拿": 3693,
      "見證": 3694,
      "迦南": 3695,
      "分別": 3696,
      "回到": 3697,
      "怎麼": 3698,
      "不潔淨": 3699,
      "大能": 3700,
      "應當": 3701,
      "懲罰": 3702,
      "為他": 3703,
      "這人": 3704,
      "亞希": 3705,
      "她們": 3706,
      "照樣": 3707,
      "觀看": 3708,
      "各樣": 3709,
      "應許": 3710,
      "滿了": 3711,
      "約押": 3712,
      "遵守": 3713,
      "公牛": 3714,
      "向你": 3715,
      "喜樂": 3716,
      "山羊": 3717,
      "然後": 3718,
      "約翰": 3719,
      "綿羊": 3720,
      "他們要": 3721,
      "其餘": 3722,
      "指示": 3723,
      "未曾": 3724,
      "生了": 3725,
      "的手": 3726,
      "他們在": 3727,
      "三十": 3728,
      "人說": 3729,
      "萬民": 3730,
      "言語": 3731,
      "你若": 3732,
      "耶利米": 3733,
      "瑪拿西": 3734,
      "只是": 3735,
      "為要": 3736,
      "寄居": 3737,
      "律例": 3738,
      "憤怒": 3739,
      "房屋": 3740,
      "以撒": 3741,
      "巴力": 3742,
      "這城": 3743,
      "門口": 3744,
      "安息日": 3745,
      "做了": 3746,
      "撒母": 3747,
      "撒母耳": 3748,
      "分之": 3749,
      "差遣": 3750,
      "帳棚": 3751,
      "的名": 3752,
      "亞撒": 3753,
      "你就": 3754,
      "倚靠": 3755,
      "死亡": 3756,
      "雖然": 3757,
      "的兒子是": 3758,
      "亞瑪": 3759,
      "沙龍": 3760,
      "的那": 3761,
      "變為": 3762,
      "一百": 3763,
      "五十": 3764,
      "它的": 3765,
      "希伯": 3766,
      "性命": 3767,
      "頭上": 3768,
      "人在": 3769,
      "人就": 3770,
      "身體": 3771,
      "這裏來": 3772,
      "他又": 3773,
      "福音": 3774,
      "與我": 3775,
      "我是耶和華": 3776,
      "宗族": 3777,
      "眼睛": 3778,
      "能力": 3779,
      "讚美": 3780,
      "城鎮": 3781,
      "家裏": 3782,
      "的王": 3783,
      "素祭": 3784,
      "到我": 3785,
      "官長": 3786,
      "對我說": 3787,
      "義人": 3788,
      "預言": 3789,
      "他們必": 3790,
      "一人": 3791,
      "以東": 3792,
      "希西": 3793,
      "因為耶和華": 3794,
      "刀劍": 3795,
      "可憎": 3796,
      "早晨": 3797,
      "派人": 3798,
      "離棄": 3799,
      "希西家": 3800,
      "主的": 3801,
      "堅固": 3802,
      "就必": 3803,
      "你們的上帝": 3804,
      "使人": 3805,
      "好的": 3806,
      "既然": 3807,
      "軍隊": 3808,
      "耶穌基督": 3809,
      "下的": 3810,
      "割禮": 3811,
      "器皿": 3812,
      "果子": 3813,
      "羊群": 3814,
      "黑暗": 3815,
      "他的兒子": 3816,
      "如今": 3817,
      "客勒": 3818,
      "撒瑪": 3819,
      "正直": 3820,
      "列祖": 3821,
      "大的": 3822,
      "所行的": 3823,
      "要用": 3824,
      "得了": 3825,
      "為你": 3826,
      "舍客勒": 3827,
      "撒瑪利亞": 3828,
      "使徒": 3829,
      "進去": 3830,
      "周圍": 3831,
      "天上的": 3832,
      "安營": 3833,
      "獻的": 3834,
      "獻給耶和華": 3835,
      "贖罪祭": 3836,
      "利雅": 3837,
      "向他": 3838,
      "家的": 3839,
      "誰能": 3840,
      "帶到": 3841,
      "愚昧": 3842,
      "施行": 3843,
      "族長": 3844,
      "耶和華必": 3845,
      "以利沙": 3846,
      "亞捫": 3847,
      "滅絕": 3848,
      "行為": 3849,
      "誡命": 3850,
      "使我們": 3851,
      "前面": 3852,
      "得的": 3853,
      "成了": 3854,
      "我若": 3855,
      "攻打": 3856,
      "那地": 3857,
      "！』": 3858,
      "沒有人": 3859,
      "分之一": 3860,
      "因你": 3861,
      "年輕": 3862,
      "我不": 3863,
      "災禍": 3864,
      "王說": 3865,
      "約拿單": 3866,
      "必被": 3867,
      "我也": 3868,
      "牠們": 3869,
      "羔羊": 3870,
      "上帝所": 3871,
      "人所": 3872,
      "剪除": 3873,
      "尋求": 3874,
      "得以": 3875,
      "旁邊": 3876,
      "的人都": 3877,
      "先前": 3878,
      "出於": 3879,
      "又有": 3880,
      "在這": 3881,
      "怒氣": 3882,
      "東西": 3883,
      "因為你們": 3884,
      "分別為聖": 3885,
      "為了": 3886,
      "焚燒": 3887,
      "你們若": 3888,
      "耶和華吩咐": 3889,
      "不得": 3890,
      "交在": 3891,
      "子民": 3892,
      "寶座": 3893,
      "接續": 3894,
      "知識": 3895,
      "顯現": 3896,
      "？』": 3897,
      "眼中看為": 3898,
      "下到": 3899,
      "主耶和華如此說": 3900,
      "以致": 3901,
      "但是": 3902,
      "供物": 3903,
      "公綿羊": 3904,
      "和你": 3905,
      "在哪裏": 3906,
      "地上的": 3907,
      "殿裏": 3908,
      "逃跑": 3909,
      "過了": 3910,
      "因我": 3911,
      "城裏": 3912,
      "夫長": 3913,
      "從你": 3914,
      "這就是": 3915,
      "你們就": 3916,
      "耶穌說": 3917,
      "等候": 3918,
      "造的": 3919,
      "金子": 3920,
      "弟兄們": 3921,
      "了他": 3922,
      "四十": 3923,
      "在地上": 3924,
      "安慰": 3925,
      "敬拜": 3926,
      "請你": 3927,
      "賜福": 3928,
      "困苦": 3929,
      "就把": 3930,
      "押沙龍": 3931,
      "獅子": 3932,
      "祝福": 3933,
      "興起": 3934,
      "出來的": 3935,
      "無論是": 3936,
      "葡萄園": 3937,
      "城的": 3938,
      "對你們": 3939,
      "戰車": 3940,
      "打仗": 3941,
      "祭壇": 3942,
      "米勒": 3943,
      "謹守": 3944,
      "追趕": 3945,
      "道路": 3946,
      "向他們": 3947,
      "犯罪": 3948,
      "磐石": 3949,
      "立的": 3950,
      "與你們": 3951,
      "萬軍之耶和華": 3952,
      "人若": 3953,
      "卻要": 3954,
      "因他": 3955,
      "必須": 3956,
      "的血": 3957,
      "的女兒": 3958,
      "第三": 3959,
      "聰明": 3960,
      "這些話": 3961,
      "世界": 3962,
      "人都": 3963,
      "召集": 3964,
      "按照": 3965,
      "揀選": 3966,
      "教會": 3967,
      "稱為": 3968,
      "荒涼": 3969,
      "因為你": 3970,
      "世代": 3971,
      "祭物": 3972,
      "記念": 3973,
      "鄰舍": 3974,
      "耶和華的話臨到": 3975,
      "他父親": 3976,
      "以掃": 3977,
      "去做": 3978,
      "我主": 3979,
      "的罪": 3980,
      "之物": 3981,
      "之處": 3982,
      "滅亡": 3983,
      "稱頌": 3984,
      "赦免": 3985,
      "非常": 3986,
      "以為": 3987,
      "尼布": 3988,
      "從我": 3989,
      "或是": 3990,
      "有福": 3991,
      "我們的上帝": 3992,
      "七個": 3993,
      "典章": 3994,
      "快樂": 3995,
      "把我": 3996,
      "晚上": 3997,
      "有甚麼": 3998,
      "詭詐": 3999,
      "我的心": 4000,
      "外邦人": 4001,
      "上面": 4002,
      "你在": 4003,
      "墳墓": 4004,
      "壇上": 4005,
      "她說": 4006,
      "山上": 4007,
      "甚至": 4008,
      "的眾": 4009,
      "的居民": 4010,
      "管理": 4011,
      "耶羅波安": 4012,
      "以斯": 4013,
      "回去": 4014,
      "女人": 4015,
      "就在": 4016,
      "是我的": 4017,
      "玷污": 4018,
      "發出": 4019,
      "亞摩": 4020,
      "信心": 4021,
      "公平": 4022,
      "從那裏": 4023,
      "心中": 4024,
      "權柄": 4025,
      "毀壞": 4026,
      "留在": 4027,
      "的百姓": 4028,
      "這百姓": 4029,
      "實在": 4030,
      "永生": 4031,
      "沙法": 4032,
      "為你們": 4033,
      "邊的": 4034,
      "直到永遠": 4035,
      "和你的": 4036,
      "存活": 4037,
      "應允": 4038,
      "擊殺": 4039,
      "的城鎮": 4040,
      "之後": 4041,
      "他兒子": 4042,
      "全會眾": 4043,
      "哥哥": 4044,
      "在我們": 4045,
      "婦女": 4046,
      "惡的": 4047,
      "敵人": 4048,
      "治理": 4049,
      "的領袖": 4050,
      "除掉": 4051,
      "迦勒底": 4052,
      "利賽": 4053,
      "到你": 4054,
      "城牆": 4055,
      "服事": 4056,
      "獻祭": 4057,
      "留下": 4058,
      "異象": 4059,
      "的路": 4060,
      "與他們": 4061,
      "行事": 4062,
      "行走": 4063,
      "在你面前": 4064,
      "拿著": 4065,
      "法利賽": 4066,
      "活著": 4067,
      "獻上": 4068,
      "處死": 4069,
      "七日": 4070,
      "三個": 4071,
      "也都": 4072,
      "了我": 4073,
      "基路": 4074,
      "愛的": 4075,
      "欺壓": 4076,
      "祖宗": 4077,
      "羞辱": 4078,
      "豈不": 4079,
      "難道": 4080,
      "領受": 4081,
      "饑荒": 4082,
      "你的名": 4083,
      "甚麼呢": 4084,
      "不信": 4085,
      "完全": 4086,
      "靠近": 4087,
      "我的名": 4088,
      "所說的話": 4089,
      "下去": 4090,
      "人要": 4091,
      "惟有": 4092,
      "求告": 4093,
      "翅膀": 4094,
      "過來": 4095,
      "還是": 4096,
      "還沒有": 4097,
      "我的百姓": 4098,
      "耶和華的殿": 4099,
      "以弗": 4100,
      "就說": 4101,
      "尼撒": 4102,
      "歸回": 4103,
      "的後裔": 4104,
      "約沙法": 4105,
      "藐視": 4106,
      "趕出": 4107,
      "隨從": 4108,
      "基路伯": 4109,
      "以前": 4110,
      "公羊": 4111,
      "就不": 4112,
      "爭戰": 4113,
      "神蹟": 4114,
      "被殺": 4115,
      "願意": 4116,
      "上所": 4117,
      "吞滅": 4118,
      "呂便": 4119,
      "嘴唇": 4120,
      "弗他": 4121,
      "承受": 4122,
      "有的": 4123,
      "稱謝": 4124,
      "糧食": 4125,
      "迦得": 4126,
      "遇見": 4127,
      "你們當": 4128,
      "上帝面前": 4129,
      "你說": 4130,
      "甲尼撒": 4131,
      "若有人": 4132,
      "褻瀆": 4133,
      "貧窮": 4134,
      "開始": 4135,
      "尼布甲尼撒": 4136,
      "一些": 4137,
      "也不要": 4138,
      "同去": 4139,
      "大大": 4140,
      "將他們": 4141,
      "得救": 4142,
      "必有": 4143,
      "想要": 4144,
      "歸給": 4145,
      "立刻": 4146,
      "細麻": 4147,
      "責備": 4148,
      "你們中間": 4149,
      "這些人": 4150,
      "一位": 4151,
      "中有": 4152,
      "受割禮": 4153,
      "喜悅": 4154,
      "報應": 4155,
      "工作": 4156,
      "巴蘭": 4157,
      "患難": 4158,
      "是從": 4159,
      "者的": 4160,
      "而且": 4161,
      "許多人": 4162,
      "也有": 4163,
      "做的事": 4164,
      "別人": 4165,
      "定的": 4166,
      "寫在": 4167,
      "拆毀": 4168,
      "污穢": 4169,
      "父母": 4170,
      "祈求": 4171,
      "耶和華所吩咐": 4172,
      "基督耶穌": 4173,
      "人子啊": 4174,
      "』，": 4175,
      "共有": 4176,
      "城門": 4177,
      "大聲": 4178,
      "忘記": 4179,
      "擊打": 4180,
      "旨意": 4181,
      "是要": 4182,
      "朋友": 4183,
      "極其": 4184,
      "歸於": 4185,
      "的都": 4186,
      "盾牌": 4187,
      "財物": 4188,
      "跌倒": 4189,
      "耶穌對他們說": 4190,
      "在我面前": 4191,
      "上到": 4192,
      "世人": 4193,
      "全都": 4194,
      "勝過": 4195,
      "大祭司": 4196,
      "尋找": 4197,
      "從他": 4198,
      "撒拉": 4199,
      "是我": 4200,
      "柱子": 4201,
      "歌唱": 4202,
      "歡呼": 4203,
      "真理": 4204,
      "立約": 4205,
      "起行": 4206,
      "除了": 4207,
      "你們所": 4208,
      "平安祭": 4209,
      "並不": 4210,
      "並沒有": 4211,
      "別的": 4212,
      "太陽": 4213,
      "後來": 4214,
      "惡人的": 4215,
      "的孫": 4216,
      "過去": 4217,
      "醫治": 4218,
      "除滅": 4219,
      "我們要": 4220,
      "看見了": 4221,
      "亞摩利": 4222,
      "不肯": 4223,
      "你去": 4224,
      "到他": 4225,
      "力量": 4226,
      "對面": 4227,
      "從天上": 4228,
      "意思": 4229,
      "救贖": 4230,
      "文士": 4231,
      "瑪利": 4232,
      "看守": 4233,
      "耶戶": 4234,
      "起名叫": 4235,
      "」，": 4236,
      "之間": 4237,
      "使你的": 4238,
      "全家": 4239,
      "兵器": 4240,
      "挪亞": 4241,
      "若是": 4242,
      "諸王": 4243,
      "進了": 4244,
      "長子": 4245,
      "頭公牛": 4246,
      "在他面前": 4247,
      "尼珥": 4248,
      "我知道": 4249,
      "的家": 4250,
      "的妻子": 4251,
      "驚惶": 4252,
      "耶穌回答": 4253,
      "丘壇": 4254,
      "他為": 4255,
      "你這": 4256,
      "來了": 4257,
      "十字": 4258,
      "呼求": 4259,
      "在曠野": 4260,
      "夜間": 4261,
      "寡婦": 4262,
      "尼雅": 4263,
      "悖逆": 4264,
      "收割": 4265,
      "救恩": 4266,
      "烈怒": 4267,
      "禮物": 4268,
      "都不可": 4269,
      "不義": 4270,
      "人必": 4271,
      "以理": 4272,
      "你當": 4273,
      "卻沒有": 4274,
      "又說": 4275,
      "恩惠": 4276,
      "父家": 4277,
      "路上": 4278,
      "一塊": 4279,
      "一座": 4280,
      "他把": 4281,
      "但以理": 4282,
      "又要": 4283,
      "口中": 4284,
      "幾時": 4285,
      "所屬": 4286,
      "有智慧": 4287,
      "為他們": 4288,
      "牛犢": 4289,
      "眼目": 4290,
      "走獸": 4291,
      "逾越": 4292,
      "祭司要": 4293,
      "直到今日": 4294,
      "十字架": 4295,
      "以實": 4296,
      "公山羊": 4297,
      "我指著": 4298,
      "根基": 4299,
      "的緣故": 4300,
      "站立": 4301,
      "羞愧": 4302,
      "脂肪": 4303,
      "若不": 4304,
      "開了": 4305,
      "這是主": 4306,
      "這樣做": 4307,
      "的孫子": 4308,
      "一千": 4309,
      "不會": 4310,
      "二千": 4311,
      "伸手": 4312,
      "信實": 4313,
      "只要": 4314,
      "吃飯": 4315,
      "四個": 4316,
      "土地": 4317,
      "奇事": 4318,
      "得罪": 4319,
      "惡的事": 4320,
      "成就": 4321,
      "求問": 4322,
      "西亞": 4323,
      "西門": 4324,
      "都必": 4325,
      "金銀": 4326,
      "我的上帝": 4327,
      "他的名": 4328,
      "百姓的": 4329,
      "以利亞撒": 4330,
      "之人的": 4331,
      "他作王": 4332,
      "保護": 4333,
      "側耳": 4334,
      "其實": 4335,
      "利利": 4336,
      "加利利": 4337,
      "右手": 4338,
      "向你們": 4339,
      "士兵": 4340,
      "如何": 4341,
      "山區": 4342,
      "感謝": 4343,
      "指望": 4344,
      "舌頭": 4345,
      "蒙羞": 4346,
      "論到": 4347,
      "賞賜": 4348,
      "遠離": 4349,
      "頸項": 4350,
      "七十": 4351,
      "以外": 4352,
      "宣告": 4353,
      "害怕": 4354,
      "對她說": 4355,
      "數目": 4356,
      "歡樂": 4357,
      "燈臺": 4358,
      "豈能": 4359,
      "豈不是": 4360,
      "過犯": 4361,
      "陰間": 4362,
      "二百": 4363,
      "特利": 4364,
      "用刀": 4365,
      "著他": 4366,
      "香柏": 4367,
      "耶和華所": 4368,
      "的人說": 4369,
      "祭司長": 4370,
      "聽見了": 4371,
      "不過": 4372,
      "充滿": 4373,
      "我已": 4374,
      "打發": 4375,
      "撕裂": 4376,
      "火焚燒": 4377,
      "用的": 4378,
      "田地": 4379,
      "的靈": 4380,
      "示劍": 4381,
      "細拉": 4382,
      "膀臂": 4383,
      "至高": 4384,
      "行了": 4385,
      "走了": 4386,
      "都有": 4387,
      "驕傲": 4388,
      "你們在": 4389,
      "伯特利": 4390,
      "參孫": 4391,
      "境內": 4392,
      "寶石": 4393,
      "將來": 4394,
      "居所": 4395,
      "抓住": 4396,
      "為我們": 4397,
      "田野": 4398,
      "田間": 4399,
      "的神明": 4400,
      "盼望": 4401,
      "約阿": 4402,
      "耶大": 4403,
      "謹慎": 4404,
      "迎接": 4405,
      "遭遇": 4406,
      "這樣說": 4407,
      "逾越節": 4408,
      "這是主耶和華說的": 4409,
      "約阿施": 4410,
      "二人": 4411,
      "在地": 4412,
      "塵土": 4413,
      "完了": 4414,
      "尊榮": 4415,
      "就有": 4416,
      "幔子": 4417,
      "平原": 4418,
      "瘟疫": 4419,
      "登基": 4420,
      "的各": 4421,
      "的水": 4422,
      "的僕人": 4423,
      "肉體": 4424,
      "背叛": 4425,
      "被數": 4426,
      "記得": 4427,
      "讓我們": 4428,
      "遵照": 4429,
      "還要": 4430,
      "那城": 4431,
      "釋放": 4432,
      "我的話": 4433,
      "永遠的": 4434,
      "到我這裏來": 4435,
      "不見": 4436,
      "哀哭": 4437,
      "奴僕": 4438,
      "所生的": 4439,
      "救我": 4440,
      "王和": 4441,
      "王宮": 4442,
      "的有": 4443,
      "願耶和華": 4444,
      "飛鳥": 4445,
      "他們都": 4446,
      "回答說": 4447,
      "亞伯蘭": 4448,
      "支派中": 4449,
      "有福了": 4450,
      "他的人": 4451,
      "到你們": 4452,
      "剩下的": 4453,
      "城中": 4454,
      "壇的": 4455,
      "巴嫩": 4456,
      "應驗": 4457,
      "我曾": 4458,
      "會堂": 4459,
      "當中": 4460,
      "讓我": 4461,
      "黎巴嫩": 4462,
      "我們就": 4463,
      "主耶穌基督": 4464,
      "人從": 4465,
      "去見": 4466,
      "只有": 4467,
      "吃了": 4468,
      "好了": 4469,
      "得到": 4470,
      "把這": 4471,
      "折斷": 4472,
      "穿上": 4473,
      "罪惡": 4474,
      "聖的": 4475,
      "行淫": 4476,
      "行耶和華": 4477,
      "西底": 4478,
      "西雅": 4479,
      "軍兵": 4480,
      "選擇": 4481,
      "邊界": 4482,
      "震動": 4483,
      "一日": 4484,
      "出的": 4485,
      "別神": 4486,
      "受了": 4487,
      "家中": 4488,
      "將我": 4489,
      "撒迦": 4490,
      "的火": 4491,
      "禁食": 4492,
      "米甸": 4493,
      "萬國": 4494,
      "踐踏": 4495,
      "耶和華是": 4496,
      "祭司和": 4497,
      "寄居的": 4498,
      "所屬的": 4499,
      "七天": 4500,
      "之下": 4501,
      "俯伏": 4502,
      "婢女": 4503,
      "恨惡": 4504,
      "成的": 4505,
      "我從": 4506,
      "我今日": 4507,
      "犯了": 4508,
      "的小": 4509,
      "護衛": 4510,
      "雕刻": 4511,
      "靠著": 4512,
      "領他們": 4513,
      "一個人": 4514,
      "亞比米勒": 4515,
      "耶利哥": 4516,
      "西底家": 4517,
      "一天": 4518,
      "件事": 4519,
      "受苦": 4520,
      "哀號": 4521,
      "問他": 4522,
      "問安": 4523,
      "怎能": 4524,
      "我兒": 4525,
      "搶奪": 4526,
      "痛苦": 4527,
      "的門": 4528,
      "示巴": 4529,
      "聖者": 4530,
      "軟弱": 4531,
      "顯明": 4532,
      "他們把": 4533,
      "你的話": 4534,
      "知道我是耶和華": 4535,
      "一點": 4536,
      "住了": 4537,
      "勞碌": 4538,
      "哈拿": 4539,
      "國度": 4540,
      "弟弟": 4541,
      "彼拉": 4542,
      "擔當": 4543,
      "死人": 4544,
      "殘疾": 4545,
      "澆酒": 4546,
      "發生": 4547,
      "神人": 4548,
      "米拉": 4549,
      "約伯": 4550,
      "荊棘": 4551,
      "西拉": 4552,
      "說預言": 4553,
      "因為我們": 4554,
      "有一位": 4555,
      "彼拉多": 4556,
      "澆酒祭": 4557,
      "不認識": 4558,
      "六十": 4559,
      "右邊": 4560,
      "基甸": 4561,
      "如果": 4562,
      "屍體": 4563,
      "得著": 4564,
      "所得": 4565,
      "拉班": 4566,
      "敗壞": 4567,
      "是誰": 4568,
      "死的": 4569,
      "為妻": 4570,
      "燒香": 4571,
      "的祭司": 4572,
      "約雅": 4573,
      "而來": 4574,
      "葬在": 4575,
      "逃脫": 4576,
      "違背": 4577,
      "耶和華在": 4578,
      "你的僕人": 4579,
      "希伯崙": 4580,
      "法利賽人": 4581,
      "一次": 4582,
      "二萬": 4583,
      "他使": 4584,
      "作了": 4585,
      "作見證": 4586,
      "做工": 4587,
      "其上": 4588,
      "去吧": 4589,
      "就對": 4590,
      "底改": 4591,
      "押尼珥": 4592,
      "推羅": 4593,
      "有罪": 4594,
      "末底改": 4595,
      "無法": 4596,
      "約哈": 4597,
      "約西亞": 4598,
      "細麵": 4599,
      "給我們": 4600,
      "耶何": 4601,
      "自由": 4602,
      "要將": 4603,
      "邪惡": 4604,
      "郊外": 4605,
      "馬利亞": 4606,
      "你們是": 4607,
      "我必使": 4608,
      "基督的": 4609,
      "一定": 4610,
      "不到": 4611,
      "世上": 4612,
      "作惡": 4613,
      "受的": 4614,
      "在這裏": 4615,
      "大馬": 4616,
      "將要": 4617,
      "橄欖": 4618,
      "民族": 4619,
      "王那裏": 4620,
      "當時": 4621,
      "的大": 4622,
      "約蘭": 4623,
      "與我們": 4624,
      "隱藏": 4625,
      "葡萄樹": 4626,
      "一半": 4627,
      "仰望": 4628,
      "全能": 4629,
      "冠冕": 4630,
      "凡事": 4631,
      "喊著": 4632,
      "巴珊": 4633,
      "恐怕": 4634,
      "我又": 4635,
      "我的人": 4636,
      "抽籤": 4637,
      "本地": 4638,
      "枯乾": 4639,
      "聖徒": 4640,
      "賽亞": 4641,
      "躺臥": 4642,
      "那麼": 4643,
      "願你": 4644,
      "公義的": 4645,
      "所吩咐的": 4646,
      "接續他作王": 4647,
      "行耶和華眼中看為": 4648,
      "一歲": 4649,
      "不聽從": 4650,
      "之中": 4651,
      "伊法": 4652,
      "傳揚": 4653,
      "其中的": 4654,
      "十分之一": 4655,
      "取了": 4656,
      "回轉": 4657,
      "士革": 4658,
      "巴拉": 4659,
      "幾個": 4660,
      "是這樣": 4661,
      "枝子": 4662,
      "無花": 4663,
      "祈禱": 4664,
      "純金": 4665,
      "聽了": 4666,
      "要到": 4667,
      "要從": 4668,
      "誠實": 4669,
      "那地方": 4670,
      "駱駝": 4671,
      "百姓中": 4672,
      "耶和華的名": 4673,
      "在你們中間": 4674,
      "大馬士革": 4675,
      "無花果": 4676,
      "七年": 4677,
      "他不": 4678,
      "六百": 4679,
      "北方": 4680,
      "基利": 4681,
      "妹妹": 4682,
      "子裏": 4683,
      "宴席": 4684,
      "寫信": 4685,
      "往前": 4686,
      "忽然": 4687,
      "悅納": 4688,
      "戰兢": 4689,
      "找到": 4690,
      "效法": 4691,
      "這殿": 4692,
      "順服": 4693,
      "於是他們": 4694,
      "告訴我": 4695,
      "的上帝如此說": 4696,
      "年輕人": 4697,
      "耶和華的話臨到我": 4698,
      "耶何耶大": 4699,
      "一般": 4700,
      "你不可": 4701,
      "凡有": 4702,
      "在他的": 4703,
      "座城": 4704,
      "殘暴": 4705,
      "痲瘋": 4706,
      "真的": 4707,
      "給了": 4708,
      "美的": 4709,
      "耳朵": 4710,
      "聖殿": 4711,
      "財寶": 4712,
      "述說": 4713,
      "長存": 4714,
      "阿們": 4715,
      "耶穌的": 4716,
      "眾人都": 4717,
      "列國中": 4718,
      "上了": 4719,
      "不聽": 4720,
      "五個": 4721,
      "他用": 4722,
      "以上": 4723,
      "以賽亞": 4724,
      "你為何": 4725,
      "來見": 4726,
      "僕人的": 4727,
      "叫他們": 4728,
      "在壇上": 4729,
      "巴勒": 4730,
      "建立": 4731,
      "得勝": 4732,
      "懇求": 4733,
      "所立的": 4734,
      "撒督": 4735,
      "是為": 4736,
      "毀謗": 4737,
      "牧人": 4738,
      "王面前": 4739,
      "當作": 4740,
      "的和": 4741,
      "的道": 4742,
      "的婦人": 4743,
      "考驗": 4744,
      "虛空": 4745,
      "西布": 4746,
      "親自": 4747,
      "說謊": 4748,
      "他們是": 4749,
      "我們所": 4750,
      "他的話": 4751,
      "我要使": 4752,
      "上帝的殿": 4753,
      "父親的": 4754,
      "賜給你": 4755,
      "和他兒子": 4756,
      "以實瑪利": 4757,
      "人面前": 4758,
      "伯利": 4759,
      "何等": 4760,
      "分散": 4761,
      "就都": 4762,
      "惟獨": 4763,
      "我把": 4764,
      "我已經": 4765,
      "我實在": 4766,
      "是在": 4767,
      "有禍": 4768,
      "村莊": 4769,
      "站著": 4770,
      "節期": 4771,
      "迫害": 4772,
      "那位": 4773,
      "都不": 4774,
      "他們所": 4775,
      "我的僕人": 4776,
      "他的百姓": 4777,
      "耶和華的使者": 4778,
      "三百": 4779,
      "之上": 4780,
      "了你": 4781,
      "亞拿": 4782,
      "仆倒": 4783,
      "動物": 4784,
      "名字": 4785,
      "呼叫": 4786,
      "哈曼": 4787,
      "四百": 4788,
      "圍困": 4789,
      "希律": 4790,
      "悔改": 4791,
      "惡事": 4792,
      "戰爭": 4793,
      "把你": 4794,
      "正在": 4795,
      "死人中": 4796,
      "災難": 4797,
      "率領": 4798,
      "王對": 4799,
      "示瑪": 4800,
      "老師": 4801,
      "親近": 4802,
      "設立": 4803,
      "你們不可": 4804,
      "我們在": 4805,
      "因為上帝": 4806,
      "這樣的": 4807,
      "以斯帖": 4808,
      "一年": 4809,
      "你可以": 4810,
      "你為甚麼": 4811,
      "因你的": 4812,
      "在會幕": 4813,
      "堅立": 4814,
      "堡壘": 4815,
      "大利": 4816,
      "帶來": 4817,
      "廢墟": 4818,
      "我父": 4819,
      "我告訴你們": 4820,
      "打碎": 4821,
      "拿弗他": 4822,
      "是你": 4823,
      "東邊": 4824,
      "歌頌": 4825,
      "消滅": 4826,
      "為耶和華": 4827,
      "無知": 4828,
      "男人": 4829,
      "留心": 4830,
      "發現": 4831,
      "舉目": 4832,
      "被人": 4833,
      "讓他": 4834,
      "逃到": 4835,
      "雲彩": 4836,
      "骨頭": 4837,
      "甚麼事": 4838,
      "我要將": 4839,
      "有一個人": 4840,
      "拿弗他利": 4841,
      "他從": 4842,
      "以來": 4843,
      "你曾": 4844,
      "使女": 4845,
      "使它": 4846,
      "偏離": 4847,
      "剩下": 4848,
      "吃喝": 4849,
      "同寢": 4850,
      "器具": 4851,
      "增多": 4852,
      "守衛": 4853,
      "引導": 4854,
      "恩典": 4855,
      "憂愁": 4856,
      "拉結": 4857,
      "掌權": 4858,
      "撒但": 4859,
      "斯巴": 4860,
      "於地": 4861,
      "比亞": 4862,
      "比拉": 4863,
      "淫亂": 4864,
      "省長": 4865,
      "等到": 4866,
      "聖潔": 4867,
      "若有": 4868,
      "躲避": 4869,
      "轉身": 4870,
      "你們不要": 4871,
      "因為這是": 4872,
      "求你不要": 4873,
      "也不能": 4874,
      "亞撒利雅": 4875,
      "亞瑪力": 4876,
      "城的郊外": 4877,
      "伯利恆": 4878,
      "下拜": 4879,
      "代替": 4880,
      "全然": 4881,
      "兩隻": 4882,
      "千人": 4883,
      "古實": 4884,
      "和他們的": 4885,
      "安置": 4886,
      "宮殿": 4887,
      "擄掠": 4888,
      "榮光": 4889,
      "百夫長": 4890,
      "的肉": 4891,
      "益處": 4892,
      "示羅": 4893,
      "血肉": 4894,
      "西緬": 4895,
      "你們知道": 4896,
      "上帝說": 4897,
      "先知的": 4898,
      "敬畏耶和華": 4899,
      "有禍了": 4900,
      "不在": 4901,
      "丟棄": 4902,
      "五百": 4903,
      "亞拉": 4904,
      "修造": 4905,
      "判斷": 4906,
      "卯眼": 4907,
      "同樣": 4908,
      "因他們": 4909,
      "國家": 4910,
      "她就": 4911,
      "布斯": 4912,
      "常常": 4913,
      "從耶和華": 4914,
      "必得": 4915,
      "我也要": 4916,
      "數點": 4917,
      "斯列": 4918,
      "施恩": 4919,
      "晝夜": 4920,
      "樹木": 4921,
      "比雅": 4922,
      "波斯": 4923,
      "眾多": 4924,
      "萬物": 4925,
      "軍官": 4926,
      "郊野": 4927,
      "都寫在": 4928,
      "陷入": 4929,
      "他們的上帝": 4930,
      "耶和華的約櫃": 4931,
      "祭司的": 4932,
      "上帝的國": 4933,
      "上帝的約櫃": 4934,
      "賜給你們": 4935,
      "派人去": 4936,
      "世世代": 4937,
      "他連": 4938,
      "伸冤": 4939,
      "伸出": 4940,
      "住處": 4941,
      "出產": 4942,
      "呼喊": 4943,
      "哭泣": 4944,
      "因他的": 4945,
      "埋葬": 4946,
      "將你": 4947,
      "尊貴": 4948,
      "對著": 4949,
      "很多": 4950,
      "悲哀": 4951,
      "我王": 4952,
      "我看見": 4953,
      "月初": 4954,
      "有些": 4955,
      "條例": 4956,
      "比喻": 4957,
      "經上": 4958,
      "耶西": 4959,
      "親愛的": 4960,
      "謙卑": 4961,
      "這麼": 4962,
      "頭生的": 4963,
      "他們中間": 4964,
      "你的百姓": 4965,
      "不潔淨的": 4966,
      "各樣的": 4967,
      "幾時呢": 4968,
      "西布倫": 4969,
      "世世代代": 4970,
      "並要": 4971,
      "並不是": 4972,
      "了他們": 4973,
      "他對": 4974,
      "他母親": 4975,
      "十四": 4976,
      "又如": 4977,
      "受詛咒": 4978,
      "和我": 4979,
      "在各": 4980,
      "如下": 4981,
      "娶了": 4982,
      "將你的": 4983,
      "小的": 4984,
      "就如": 4985,
      "從這": 4986,
      "懷孕": 4987,
      "把它": 4988,
      "拿達": 4989,
      "掠物": 4990,
      "改變": 4991,
      "朱紅": 4992,
      "殺死": 4993,
      "比利": 4994,
      "獻燔祭": 4995,
      "用手": 4996,
      "的曠野": 4997,
      "的勇士": 4998,
      "而死": 4999,
      "而行": 5000,
      "聽我": 5001,
      "荒廢": 5002,
      "西頓": 5003,
      "見過": 5004,
      "計謀": 5005,
      "起身": 5006,
      "迦特": 5007,
      "這地的": 5008,
      "那些日子": 5009,
      "祖先同": 5010,
      "應當稱頌": 5011,
      "。（": 5012,
      "人哪": 5013,
      "他也": 5014,
      "千夫長": 5015,
      "另一": 5016,
      "叫他": 5017,
      "名的": 5018,
      "哀求": 5019,
      "哥轄": 5020,
      "基遍": 5021,
      "多瑪": 5022,
      "寫的": 5023,
      "後代": 5024,
      "忍耐": 5025,
      "所多瑪": 5026,
      "書卷": 5027,
      "活物": 5028,
      "王后": 5029,
      "確實": 5030,
      "示每": 5031,
      "窺探": 5032,
      "耶布斯": 5033,
      "耶斯列": 5034,
      "與她": 5035,
      "說了": 5036,
      "豐盛": 5037,
      "都在": 5038,
      "馨香": 5039,
      "我的手": 5040,
      "我的上帝啊": 5041,
      "上帝的話": 5042,
      "我必不": 5043,
      "生命的": 5044,
      "所做的一切": 5045,
      "按著宗族": 5046,
      "亞瑪謝": 5047,
      "安營在": 5048,
      "在哪裏呢": 5049,
      "死人中復活": 5050,
      "上有": 5051,
      "不著": 5052,
      "但我": 5053,
      "作證": 5054,
      "創造": 5055,
      "去的": 5056,
      "受膏": 5057,
      "和所屬的": 5058,
      "和城的郊外": 5059,
      "喜歡": 5060,
      "在其中": 5061,
      "垂聽": 5062,
      "外面": 5063,
      "存留": 5064,
      "官員": 5065,
      "將他": 5066,
      "就可以": 5067,
      "我為": 5068,
      "所造的": 5069,
      "捆綁": 5070,
      "接納": 5071,
      "的必": 5072,
      "罪人": 5073,
      "義人的": 5074,
      "膏油": 5075,
      "衣裳": 5076,
      "讓他們": 5077,
      "豈可": 5078,
      "辱罵": 5079,
      "這個人": 5080,
      "遠方": 5081,
      "香料": 5082,
      "他們卻": 5083,
      "你們不": 5084,
      "人的手": 5085,
      "告訴你": 5086,
      "兩個兒子": 5087,
      "石頭打": 5088,
      "希伯來": 5089,
      "可憎的事": 5090,
      "我實在告訴你們": 5091,
      "他連得": 5092,
      "應當稱頌的": 5093,
      "下體": 5094,
      "之子": 5095,
      "了他的": 5096,
      "亞實": 5097,
      "他若": 5098,
      "你上帝所": 5099,
      "十個": 5100,
      "又對": 5101,
      "基比亞": 5102,
      "外人": 5103,
      "天天": 5104,
      "姦淫": 5105,
      "少女": 5106,
      "巴拿": 5107,
      "我都": 5108,
      "按手": 5109,
      "比拿": 5110,
      "男丁": 5111,
      "的女子": 5112,
      "米斯巴": 5113,
      "臉伏": 5114,
      "與其": 5115,
      "落在": 5116,
      "蒙恩": 5117,
      "行善": 5118,
      "這地方": 5119,
      "那樣": 5120,
      "鄉鎮": 5121,
      "我們是": 5122,
      "永遠長存": 5123,
      "智慧人": 5124,
      "殘疾的": 5125,
      "不住": 5126,
      "之外": 5127,
      "亞設": 5128,
      "作我的": 5129,
      "你和你的": 5130,
      "光明": 5131,
      "凱撒": 5132,
      "分給": 5133,
      "向我們": 5134,
      "和平": 5135,
      "國中": 5136,
      "在天上": 5137,
      "姊妹": 5138,
      "察看": 5139,
      "形狀": 5140,
      "心意": 5141,
      "急忙": 5142,
      "我沒有": 5143,
      "把那": 5144,
      "控告": 5145,
      "新酒": 5146,
      "有許多": 5147,
      "法度": 5148,
      "為大": 5149,
      "牠的": 5150,
      "絕不": 5151,
      "羅網": 5152,
      "聖物": 5153,
      "藍色": 5154,
      "要為": 5155,
      "親眼": 5156,
      "赤身": 5157,
      "趕出去": 5158,
      "還在": 5159,
      "驚奇": 5160,
      "驚訝": 5161,
      "高處": 5162,
      "上帝的兒子": 5163,
      "一個兒子": 5164,
      "他們的地": 5165,
      "你要吩咐": 5166,
      "彼此相": 5167,
      "被數的": 5168,
      "」。": 5169,
      "一根": 5170,
      "五肘": 5171,
      "亞多": 5172,
      "以謝": 5173,
      "來攻擊": 5174,
      "倖存": 5175,
      "又用": 5176,
      "因著": 5177,
      "在一起": 5178,
      "地極": 5179,
      "大小": 5180,
      "嫉妒": 5181,
      "孤兒": 5182,
      "將到": 5183,
      "對王說": 5184,
      "必然": 5185,
      "憑著": 5186,
      "拿來": 5187,
      "未受割禮": 5188,
      "棄絕": 5189,
      "止息": 5190,
      "毫無": 5191,
      "火祭": 5192,
      "無酵": 5193,
      "的工": 5194,
      "的偶像": 5195,
      "禍哉": 5196,
      "竟然": 5197,
      "總督": 5198,
      "飽足": 5199,
      "騎兵": 5200,
      "耶和華使": 5201,
      "也不再": 5202,
      "有人告訴": 5203,
      "十二個": 5204,
      "與他祖先同": 5205,
      "五千": 5206,
      "五穀": 5207,
      "亞薩": 5208,
      "他對我說": 5209,
      "以薩": 5210,
      "住在那裏": 5211,
      "你父親": 5212,
      "使他的": 5213,
      "倘若": 5214,
      "傾覆": 5215,
      "全軍": 5216,
      "卻是": 5217,
      "可畏": 5218,
      "同住": 5219,
      "和你們": 5220,
      "哈達": 5221,
      "國的": 5222,
      "地和": 5223,
      "地面": 5224,
      "坐著": 5225,
      "奇妙": 5226,
      "奧祕": 5227,
      "奪取": 5228,
      "好些": 5229,
      "孩童": 5230,
      "就從": 5231,
      "底下": 5232,
      "強壯": 5233,
      "愛心": 5234,
      "施洗": 5235,
      "殺戮": 5236,
      "永生的": 5237,
      "活了": 5238,
      "火中": 5239,
      "甘心": 5240,
      "用水": 5241,
      "皮膚": 5242,
      "紫色": 5243,
      "細亞": 5244,
      "總要": 5245,
      "羅得": 5246,
      "聽我的": 5247,
      "臨近": 5248,
      "虛假": 5249,
      "行惡": 5250,
      "要聽": 5251,
      "試探": 5252,
      "那邊": 5253,
      "關於": 5254,
      "頂上": 5255,
      "你們必": 5256,
      "的人哪": 5257,
      "你的手": 5258,
      "的時候年": 5259,
      "賜給他們": 5260,
      "兩個人": 5261,
      "亞哈斯": 5262,
      "亞哈謝": 5263,
      "的名字": 5264,
      "行耶和華眼中看為惡的事": 5265,
      "一歲的小": 5266,
      "以薩迦": 5267,
      "一萬": 5268,
      "亞米": 5269,
      "做這事": 5270,
      "刀下": 5271,
      "叫我": 5272,
      "和他們": 5273,
      "回家": 5274,
      "奴隸": 5275,
      "對待": 5276,
      "從天": 5277,
      "憎惡": 5278,
      "把你們": 5279,
      "本是": 5280,
      "江河": 5281,
      "清早": 5282,
      "滿足": 5283,
      "火焰": 5284,
      "的父親": 5285,
      "看不見": 5286,
      "管教": 5287,
      "結局": 5288,
      "警戒": 5289,
      "走遍": 5290,
      "送到": 5291,
      "這個": 5292,
      "過的": 5293,
      "遮蓋": 5294,
      "頭髮": 5295,
      "飢餓": 5296,
      "麻布": 5297,
      "你們為甚麼": 5298,
      "耶和華就": 5299,
      "他的手": 5300,
      "於是他": 5301,
      "審判官": 5302,
      "給他起名叫": 5303,
      "萬軍之耶和華如此說": 5304,
      "其餘的": 5305,
      "其餘的事": 5306,
      "香柏木": 5307,
      "撒迦利亞": 5308,
      "示瑪雅": 5309,
      "朱紅色": 5310,
      "比拿雅": 5311,
      "了那": 5312,
      "事上": 5313,
      "人來": 5314,
      "人之地": 5315,
      "何必": 5316,
      "你不": 5317,
      "來臨": 5318,
      "侍立": 5319,
      "列邦": 5320,
      "另外": 5321,
      "吃的": 5322,
      "吹號": 5323,
      "吹角": 5324,
      "因耶和華": 5325,
      "在海": 5326,
      "埋伏": 5327,
      "好讓": 5328,
      "希勒": 5329,
      "強盛": 5330,
      "我來": 5331,
      "我聽見": 5332,
      "把我的": 5333,
      "拉瑪": 5334,
      "日光": 5335,
      "殿中": 5336,
      "永永遠": 5337,
      "烏利亞": 5338,
      "無辜": 5339,
      "生長": 5340,
      "用火焚燒": 5341,
      "當日": 5342,
      "的長老": 5343,
      "的果子": 5344,
      "第十": 5345,
      "繩子": 5346,
      "變成": 5347,
      "進來": 5348,
      "野獸": 5349,
      "領出來": 5350,
      "顯出": 5351,
      "他們從": 5352,
      "你們去": 5353,
      "他們的心": 5354,
      "律法書": 5355,
      "心裏說": 5356,
      "在他們身上": 5357,
      "哪裏去": 5358,
      "對你們說": 5359,
      "謹守遵行": 5360,
      "救我脫離": 5361,
      "臉伏於地": 5362,
      "一歲的小公羊": 5363,
      "永永遠遠": 5364,
      "三年": 5365,
      "亞他": 5366,
      "你知道": 5367,
      "初熟": 5368,
      "各自": 5369,
      "囑咐": 5370,
      "大家": 5371,
      "大有": 5372,
      "威嚴": 5373,
      "富足": 5374,
      "就會": 5375,
      "帶他": 5376,
      "帶卯眼": 5377,
      "形像": 5378,
      "得福": 5379,
      "從死人中復活": 5380,
      "感動": 5381,
      "我到": 5382,
      "我就是": 5383,
      "房間": 5384,
      "承認": 5385,
      "樂意": 5386,
      "殺害": 5387,
      "殿宇": 5388,
      "油的": 5389,
      "為義": 5390,
      "牧養": 5391,
      "王就": 5392,
      "盡都": 5393,
      "眾先知": 5394,
      "窗戶": 5395,
      "第四": 5396,
      "米迦": 5397,
      "給你們的": 5398,
      "肢體": 5399,
      "苦難": 5400,
      "蝗蟲": 5401,
      "覺得": 5402,
      "門的": 5403,
      "驚嚇": 5404,
      "我的兒子": 5405,
      "因為這": 5406,
      "他的妻子": 5407,
      "耶穌對他說": 5408,
      "說的話": 5409,
      "列國的": 5410,
      "慈愛永遠長存": 5411,
      "的地界": 5412,
      "與你同在": 5413,
      "米拉利": 5414,
      "喊著說": 5415,
      "與其郊野": 5416,
      "帶卯眼的": 5417,
      "七百": 5418,
      "三天": 5419,
      "上嗎": 5420,
      "不顧": 5421,
      "亞舍": 5422,
      "低斯": 5423,
      "作戰": 5424,
      "你能": 5425,
      "供職": 5426,
      "停止": 5427,
      "又在": 5428,
      "吉甲": 5429,
      "和所有": 5430,
      "商議": 5431,
      "在監": 5432,
      "在你的": 5433,
      "在自己": 5434,
      "奉獻": 5435,
      "將軍": 5436,
      "屋子": 5437,
      "床上": 5438,
      "我不是": 5439,
      "旁的": 5440,
      "是甚麼": 5441,
      "有誰": 5442,
      "為善": 5443,
      "狂傲": 5444,
      "現今": 5445,
      "瑪迦": 5446,
      "痊癒": 5447,
      "的主": 5448,
      "祭牲": 5449,
      "禍患": 5450,
      "經常": 5451,
      "西珥": 5452,
      "誇耀": 5453,
      "諸天": 5454,
      "貴族": 5455,
      "都沒有": 5456,
      "順從": 5457,
      "耶和華藉": 5458,
      "你的心": 5459,
      "人的心": 5460,
      "就是在": 5461,
      "就是那": 5462,
      "大衛城": 5463,
      "不要怕": 5464,
      "在他身上": 5465,
      "在我裏面": 5466,
      "法老的": 5467,
      "聖所的": 5468,
      "第二天": 5469,
      "四十年": 5470,
      "以弗得": 5471,
      "祭司長和": 5472,
      "登基的時候年": 5473,
      "約雅敬": 5474,
      "無花果樹": 5475,
      "亞舍拉": 5476,
      "一條": 5477,
      "下面": 5478,
      "之內": 5479,
      "五隻": 5480,
      "以下": 5481,
      "你看": 5482,
      "別是": 5483,
      "原來": 5484,
      "又把": 5485,
      "同獻的": 5486,
      "哈馬": 5487,
      "喊叫": 5488,
      "堅定": 5489,
      "大群": 5490,
      "安然": 5491,
      "實本": 5492,
      "實現": 5493,
      "尚且": 5494,
      "屍首": 5495,
      "希臘": 5496,
      "希實本": 5497,
      "引誘": 5498,
      "得住": 5499,
      "惡行": 5500,
      "我一": 5501,
      "我對": 5502,
      "所得的": 5503,
      "有時": 5504,
      "檢查": 5505,
      "氣息": 5506,
      "漸漸": 5507,
      "牛群": 5508,
      "王啊": 5509,
      "發作": 5510,
      "的衣服": 5511,
      "禾場": 5512,
      "管轄": 5513,
      "紛爭": 5514,
      "耕種": 5515,
      "製造": 5516,
      "西奈": 5517,
      "起初": 5518,
      "跟從": 5519,
      "革順": 5520,
      "他們的人": 5521,
      "耶和華殿的": 5522,
      "上帝和": 5523,
      "你的兒子": 5524,
      "一切所有的": 5525,
      "這是萬軍之": 5526,
      "在他們中間": 5527,
      "犯了罪": 5528,
      "一頭公牛": 5529,
      "三分之一": 5530,
      "主耶和華": 5531,
      "之軀": 5532,
      "交戰": 5533,
      "他一": 5534,
      "他卻": 5535,
      "作贖罪祭": 5536,
      "你也": 5537,
      "你從": 5538,
      "你上帝": 5539,
      "你僕人": 5540,
      "出賣": 5541,
      "利百": 5542,
      "制伏": 5543,
      "口中的": 5544,
      "另一個": 5545,
      "可拉": 5546,
      "可是": 5547,
      "各人的": 5548,
      "吞吃": 5549,
      "在那日": 5550,
      "在安息日": 5551,
      "地業": 5552,
      "她瑪": 5553,
      "定例": 5554,
      "宰了": 5555,
      "尼亞": 5556,
      "屬於": 5557,
      "思想": 5558,
      "恩賜": 5559,
      "所做的事": 5560,
      "才能": 5561,
      "接受": 5562,
      "擊敗": 5563,
      "是個": 5564,
      "死在": 5565,
      "泉源": 5566,
      "滅盡": 5567,
      "照耶和華所吩咐": 5568,
      "生氣": 5569,
      "的嗎": 5570,
      "的山": 5571,
      "石榴": 5572,
      "稱讚": 5573,
      "西宏": 5574,
      "要獻": 5575,
      "跟著": 5576,
      "近前來": 5577,
      "造了": 5578,
      "長久": 5579,
      "阿斯": 5580,
      "驚恐": 5581,
      "就是我": 5582,
      "不要懼怕": 5583,
      "你要對": 5584,
      "潔淨了": 5585,
      "攻擊你": 5586,
      "起誓說": 5587,
      "舍客勒的": 5588,
      "獻給耶和華為": 5589,
      "我主我王": 5590,
      "細麻布": 5591,
      "安置在": 5592,
      "希勒家": 5593,
      "利百加": 5594,
      "一件": 5595,
      "不但": 5596,
      "不出": 5597,
      "也不是": 5598,
      "任憑": 5599,
      "伊勒": 5600,
      "列王": 5601,
      "前的": 5602,
      "古時": 5603,
      "只管": 5604,
      "左右": 5605,
      "巴錄": 5606,
      "彷彿": 5607,
      "後面": 5608,
      "我心": 5609,
      "所定的": 5610,
      "投靠": 5611,
      "樹林": 5612,
      "欺騙": 5613,
      "永不": 5614,
      "為自己的": 5615,
      "獨自": 5616,
      "真實": 5617,
      "眷顧": 5618,
      "米利": 5619,
      "舉起": 5620,
      "莊稼": 5621,
      "西萊": 5622,
      "親手": 5623,
      "訓誨": 5624,
      "財富": 5625,
      "貧寒": 5626,
      "起的": 5627,
      "轉臉": 5628,
      "迷惑": 5629,
      "進到": 5630,
      "高舉": 5631,
      "黑夜": 5632,
      "你們也要": 5633,
      "我的性命": 5634,
      "沒有一個": 5635,
      "一個重": 5636,
      "我必將": 5637,
      "賜給他": 5638,
      "律法的": 5639,
      "必不潔淨": 5640,
      "耶和華對我說": 5641,
      "萬民中": 5642,
      "列祖的上帝": 5643,
      "施行審判": 5644,
      "全能者": 5645,
      "所立的約": 5646,
      "主耶穌": 5647,
      "交在你": 5648,
      "人也": 5649,
      "你的人": 5650,
      "供桌": 5651,
      "到那日": 5652,
      "剩餘": 5653,
      "南方": 5654,
      "厭棄": 5655,
      "又從": 5656,
      "回應": 5657,
      "回自己的": 5658,
      "城裏的": 5659,
      "基拉": 5660,
      "報仇": 5661,
      "大地": 5662,
      "尋索": 5663,
      "帶領": 5664,
      "干犯": 5665,
      "所獻的": 5666,
      "敬虔": 5667,
      "整個": 5668,
      "斥責": 5669,
      "棕樹": 5670,
      "次日": 5671,
      "波阿斯": 5672,
      "烏西雅": 5673,
      "無有": 5674,
      "牛羊": 5675,
      "物件": 5676,
      "的一": 5677,
      "站起來": 5678,
      "約有": 5679,
      "艾城": 5680,
      "跟他": 5681,
      "長出": 5682,
      "除去": 5683,
      "隨後": 5684,
      "青年": 5685,
      "魔鬼": 5686,
      "你們也": 5687,
      "你們都": 5688,
      "人的血": 5689,
      "上帝的名": 5690,
      "可以吃": 5691,
      "所有的居民": 5692,
      "在我身上": 5693,
      "榮耀的": 5694,
      "我所吩咐": 5695,
      "素祭和": 5696,
      "第三天": 5697,
      "上所記": 5698,
      "要到幾時呢": 5699,
      "血肉之軀": 5700,
      "永生的耶和華": 5701,
      "「『": 5702,
      "一無": 5703,
      "一肘": 5704,
      "丟在": 5705,
      "並非": 5706,
      "仍然": 5707,
      "何處": 5708,
      "你到": 5709,
      "做甚麼": 5710,
      "傾倒": 5711,
      "凌辱": 5712,
      "嘆息": 5713,
      "基大利": 5714,
      "天空": 5715,
      "奪去": 5716,
      "存到": 5717,
      "安在": 5718,
      "對你說": 5719,
      "尼革": 5720,
      "庫房": 5721,
      "從來": 5722,
      "意念": 5723,
      "我好": 5724,
      "或者": 5725,
      "拿住": 5726,
      "搭救": 5727,
      "撒勒": 5728,
      "擺設": 5729,
      "方舟": 5730,
      "波設": 5731,
      "發的": 5732,
      "發烈怒": 5733,
      "的國": 5734,
      "的要": 5735,
      "的頭": 5736,
      "的兄弟": 5737,
      "給你的": 5738,
      "缺乏": 5739,
      "聖殿裏": 5740,
      "自從": 5741,
      "草場": 5742,
      "荒蕪": 5743,
      "豈是": 5744,
      "贖愆": 5745,
      "轉離": 5746,
      "降下": 5747,
      "院子": 5748,
      "驚駭": 5749,
      "骸骨": 5750,
      "他們不": 5751,
      "他們又": 5752,
      "你們卻": 5753,
      "耶和華殿": 5754,
      "的人必": 5755,
      "我的腳": 5756,
      "我要在": 5757,
      "在他裏面": 5758,
      "成為聖": 5759,
      "他所做的": 5760,
      "任何人": 5761,
      "歡喜快樂": 5762,
      "跟隨他": 5763,
      "倒在刀下": 5764,
      "應許的": 5765,
      "愚昧人": 5766,
      "稱謝你": 5767,
      "不過是": 5768,
      "護衛長": 5769,
      "無酵餅": 5770,
      "與他祖先同睡": 5771,
      "尼革夫": 5772,
      "」；": 5773,
      "一句": 5774,
      "不致": 5775,
      "亨通": 5776,
      "以拉": 5777,
      "到晚上": 5778,
      "十八": 5779,
      "南邊": 5780,
      "和一切": 5781,
      "在上帝面前": 5782,
      "城內": 5783,
      "多少": 5784,
      "奪了": 5785,
      "將這": 5786,
      "尼羅": 5787,
      "幽暗": 5788,
      "待他": 5789,
      "得享": 5790,
      "必定": 5791,
      "忠心": 5792,
      "我呢": 5793,
      "我因": 5794,
      "把這些": 5795,
      "抵擋": 5796,
      "撇下": 5797,
      "救主": 5798,
      "是應當稱頌的": 5799,
      "暗嫩": 5800,
      "書記": 5801,
      "樣式": 5802,
      "火燒": 5803,
      "營中": 5804,
      "男女": 5805,
      "的頭上": 5806,
      "神像": 5807,
      "給耶和華": 5808,
      "而不": 5809,
      "耶弗他": 5810,
      "職分": 5811,
      "藏在": 5812,
      "要有": 5813,
      "話的": 5814,
      "請你們": 5815,
      "豐富": 5816,
      "越發": 5817,
      "路得": 5818,
      "這邊": 5819,
      "道的": 5820,
      "重的": 5821,
      "長大": 5822,
      "陌生": 5823,
      "頌讚": 5824,
      "麥子": 5825,
      "他們為": 5826,
      "我們知道": 5827,
      "我的靈": 5828,
      "的事上": 5829,
      "的上帝啊": 5830,
      "攻擊我": 5831,
      "支派的": 5832,
      "事奉耶和華": 5833,
      "獻給耶和華的": 5834,
      "教導人": 5835,
      "的地業": 5836,
      "別是巴": 5837,
      "這是萬軍之耶和華說的": 5838,
      "尼羅河": 5839,
      "一處": 5840,
      "三日": 5841,
      "世上的": 5842,
      "之前": 5843,
      "今天": 5844,
      "他來": 5845,
      "位上": 5846,
      "何況": 5847,
      "傳講": 5848,
      "六個": 5849,
      "加上": 5850,
      "占卜": 5851,
      "召了": 5852,
      "各城": 5853,
      "在那": 5854,
      "坐下": 5855,
      "天下": 5856,
      "太監": 5857,
      "失明": 5858,
      "妓女": 5859,
      "守望": 5860,
      "尊敬": 5861,
      "急難": 5862,
      "怨言": 5863,
      "所受的": 5864,
      "找不到": 5865,
      "指教": 5866,
      "挨近": 5867,
      "撒種": 5868,
      "擺陣": 5869,
      "更多": 5870,
      "木頭": 5871,
      "歡歡喜": 5872,
      "正是": 5873,
      "殺人的": 5874,
      "洗淨": 5875,
      "班次": 5876,
      "的羊": 5877,
      "的君王": 5878,
      "的言語": 5879,
      "盡心": 5880,
      "硬著": 5881,
      "穿著": 5882,
      "統治": 5883,
      "美麗": 5884,
      "羞恥": 5885,
      "肚腹": 5886,
      "舉祭": 5887,
      "裏去": 5888,
      "要使": 5889,
      "計算": 5890,
      "許的": 5891,
      "走廊": 5892,
      "近了": 5893,
      "送給": 5894,
      "達到": 5895,
      "釘十字架": 5896,
      "願你的": 5897,
      "饒恕": 5898,
      "默示": 5899,
      "你們說": 5900,
      "你們這": 5901,
      "我們從": 5902,
      "我的律例": 5903,
      "耶穌就": 5904,
      "百姓說": 5905,
      "這些都是": 5906,
      "上帝的道": 5907,
      "有人說": 5908,
      "臨到他們": 5909,
      "燔祭和": 5910,
      "二十歲": 5911,
      "帳幕的": 5912,
      "四圍的": 5913,
      "沒有人能": 5914,
      "應允我": 5915,
      "香柏樹": 5916,
      "約哈難": 5917,
      "豐盛的": 5918,
      "巴拿巴": 5919,
      "歡歡喜喜": 5920,
      "不都寫在": 5921,
      "事情": 5922,
      "亞達": 5923,
      "作他們的": 5924,
      "再沒有": 5925,
      "北邊": 5926,
      "十五": 5927,
      "厭惡": 5928,
      "又為": 5929,
      "叩拜": 5930,
      "同伴": 5931,
      "因自己的": 5932,
      "在位": 5933,
      "城門口": 5934,
      "外衣": 5935,
      "外袍": 5936,
      "大河": 5937,
      "大麥": 5938,
      "天國": 5939,
      "家啊": 5940,
      "就去": 5941,
      "往哪裏去": 5942,
      "從今": 5943,
      "恩待": 5944,
      "悲傷": 5945,
      "我可以": 5946,
      "所聽見": 5947,
      "擄物": 5948,
      "明天": 5949,
      "曾說": 5950,
      "最小的": 5951,
      "果然": 5952,
      "根柱子": 5953,
      "沙番": 5954,
      "法勒": 5955,
      "派使者": 5956,
      "流血": 5957,
      "災病": 5958,
      "營外": 5959,
      "當聽": 5960,
      "的房屋": 5961,
      "的聖者": 5962,
      "盛滿了": 5963,
      "看顧": 5964,
      "第七日": 5965,
      "米該": 5966,
      "終日": 5967,
      "萬人": 5968,
      "蘆葦": 5969,
      "見他": 5970,
      "誰呢": 5971,
      "跳舞": 5972,
      "這不是": 5973,
      "還能": 5974,
      "雅比": 5975,
      "面向": 5976,
      "他們若": 5977,
      "你們從": 5978,
      "耶和華面前": 5979,
      "因為在": 5980,
      "就是你": 5981,
      "所有的人": 5982,
      "子孫的": 5983,
      "臨到你": 5984,
      "門徒說": 5985,
      "事奉他": 5986,
      "在他們面前": 5987,
      "聚集在": 5988,
      "至於我": 5989,
      "手裏拿著": 5990,
      "必被處死": 5991,
      "寶座上": 5992,
      "賜福給你": 5993,
      "與你們同在": 5994,
      "至高者": 5995,
      "田野的": 5996,
      "逾越節的": 5997,
      "亞拉巴": 5998,
      "和所屬的鄉鎮": 5999,
      "朱紅色紗": 6000,
      "必不潔淨到晚上": 6001,
      "下手": 6002,
      "不然": 6003,
      "亞斯": 6004,
      "以攔": 6005,
      "伊施": 6006,
      "作燔祭": 6007,
      "你來": 6008,
      "你竟": 6009,
      "信了": 6010,
      "信的": 6011,
      "傳道": 6012,
      "內心": 6013,
      "冰雹": 6014,
      "包上": 6015,
      "半支派": 6016,
      "呼喚": 6017,
      "和那": 6018,
      "和其中": 6019,
      "哈利": 6020,
      "哪一個": 6021,
      "喝水": 6022,
      "地府": 6023,
      "報告": 6024,
      "士師": 6025,
      "媳婦": 6026,
      "存在": 6027,
      "寫著": 6028,
      "小孩子": 6029,
      "廢去": 6030,
      "廣場": 6031,
      "徒然": 6032,
      "恐懼": 6033,
      "愁苦": 6034,
      "我去": 6035,
      "我和": 6036,
      "所犯": 6037,
      "所要": 6038,
      "手中的": 6039,
      "拿撒勒": 6040,
      "末後": 6041,
      "本族": 6042,
      "果實": 6043,
      "橡樹": 6044,
      "權能": 6045,
      "此後": 6046,
      "歸還": 6047,
      "海島": 6048,
      "為敵": 6049,
      "熱心": 6050,
      "王所": 6051,
      "王一人": 6052,
      "瑪基": 6053,
      "生產": 6054,
      "生育": 6055,
      "看來": 6056,
      "眾領袖": 6057,
      "破壞": 6058,
      "第八": 6059,
      "約坦": 6060,
      "約拿": 6061,
      "腰帶": 6062,
      "良心": 6063,
      "解釋": 6064,
      "誇口": 6065,
      "謊言": 6066,
      "起了": 6067,
      "避難": 6068,
      "還不": 6069,
      "那地的": 6070,
      "銀錢": 6071,
      "需要": 6072,
      "響聲": 6073,
      "他們對": 6074,
      "我們若": 6075,
      "的人要": 6076,
      "兒子的": 6077,
      "沒有殘疾的": 6078,
      "人的地": 6079,
      "人的領袖": 6080,
      "一切話": 6081,
      "僕人說": 6082,
      "告訴他": 6083,
      "告訴他們": 6084,
      "基督裏": 6085,
      "潔淨的": 6086,
      "亞比亞他": 6087,
      "的城牆": 6088,
      "一隻公山羊": 6089,
      "打仗的": 6090,
      "以斯拉": 6091,
      "基督耶穌裏": 6092,
      "撕裂衣服": 6093,
      "我兒啊": 6094,
      "亞多尼雅": 6095,
      "一生": 6096,
      "一邊": 6097,
      "三次": 6098,
      "上升": 6099,
      "他向": 6100,
      "他施": 6101,
      "令人": 6102,
      "你既": 6103,
      "使自己": 6104,
      "傳福音": 6105,
      "元帥": 6106,
      "充滿了": 6107,
      "出入": 6108,
      "到那": 6109,
      "卻不能": 6110,
      "反倒": 6111,
      "同行": 6112,
      "咒罵": 6113,
      "哈薛": 6114,
      "因你們的": 6115,
      "圈套": 6116,
      "在路上": 6117,
      "在其上": 6118,
      "夏甲": 6119,
      "天地": 6120,
      "子和": 6121,
      "子是": 6122,
      "宣佈": 6123,
      "希蘭": 6124,
      "平靜": 6125,
      "彈琴": 6126,
      "情慾": 6127,
      "惱怒": 6128,
      "愚妄": 6129,
      "我父親": 6130,
      "戰士": 6131,
      "戶珥": 6132,
      "拉末": 6133,
      "拋棄": 6134,
      "擄去": 6135,
      "日落": 6136,
      "時常": 6137,
      "暴風": 6138,
      "書上": 6139,
      "有兩個": 6140,
      "正的事": 6141,
      "每年": 6142,
      "每日": 6143,
      "求的": 6144,
      "法櫃": 6145,
      "為此": 6146,
      "爭辯": 6147,
      "父的": 6148,
      "瑪他": 6149,
      "生的兒子": 6150,
      "疼痛": 6151,
      "的異象": 6152,
      "真是": 6153,
      "稱義": 6154,
      "羊毛": 6155,
      "肉身": 6156,
      "腓力": 6157,
      "舉手": 6158,
      "虛無": 6159,
      "見了": 6160,
      "規矩": 6161,
      "記著": 6162,
      "證明": 6163,
      "議論": 6164,
      "賜你": 6165,
      "迦密": 6166,
      "進前來": 6167,
      "過於": 6168,
      "開口": 6169,
      "隨魯": 6170,
      "願他們": 6171,
      "你們各人": 6172,
      "上帝就": 6173,
      "我們不": 6174,
      "自己所": 6175,
      "耶和華的怒氣": 6176,
      "你們的心": 6177,
      "日子將到": 6178,
      "在你中間": 6179,
      "離開我": 6180,
      "臨到你們": 6181,
      "和他兄弟": 6182,
      "曠野的": 6183,
      "十二人": 6184,
      "因為他是": 6185,
      "這地界": 6186,
      "亞哈隨魯": 6187,
      "外邦人的": 6188,
      "一隻公綿羊": 6189,
      "無人居住": 6190,
      "眼前蒙恩": 6191,
      "大能的勇士": 6192,
      "墳墓裏": 6193,
      "石頭打死": 6194,
      "被數的共有": 6195,
      "日光之下": 6196,
      "一面": 6197,
      "不知": 6198,
      "主人的": 6199,
      "乳香": 6200,
      "了我的": 6201,
      "了一個": 6202,
      "亞大": 6203,
      "人血": 6204,
      "仆倒在": 6205,
      "位天使": 6206,
      "你作": 6207,
      "使我的": 6208,
      "傳遍": 6209,
      "像我": 6210,
      "兩塊": 6211,
      "兩條": 6212,
      "剛硬": 6213,
      "動搖": 6214,
      "勞苦": 6215,
      "同房": 6216,
      "嚴重": 6217,
      "在世": 6218,
      "在我的": 6219,
      "娥米": 6220,
      "婦人的": 6221,
      "學習": 6222,
      "對他們": 6223,
      "就當": 6224,
      "帶走": 6225,
      "年老": 6226,
      "心上": 6227,
      "必從": 6228,
      "快要": 6229,
      "我看": 6230,
      "我吩咐": 6231,
      "拔出": 6232,
      "拿娥米": 6233,
      "新的": 6234,
      "斷絕": 6235,
      "方言": 6236,
      "日期": 6237,
      "是出於": 6238,
      "書蘭": 6239,
      "會中": 6240,
      "月亮": 6241,
      "有大": 6242,
      "有火": 6243,
      "有聲音": 6244,
      "栽種": 6245,
      "歸耶和華": 6246,
      "殺人": 6247,
      "每一個": 6248,
      "深淵": 6249,
      "為人": 6250,
      "燒著": 6251,
      "用來": 6252,
      "病人": 6253,
      "的時": 6254,
      "的地上": 6255,
      "的門口": 6256,
      "的脂肪": 6257,
      "睡覺": 6258,
      "米書蘭": 6259,
      "繼續": 6260,
      "美好的": 6261,
      "而出": 6262,
      "耶書亞": 6263,
      "自高": 6264,
      "街上": 6265,
      "西巴": 6266,
      "語言": 6267,
      "謝拉": 6268,
      "警醒": 6269,
      "轉向": 6270,
      "迦巴": 6271,
      "通到": 6272,
      "速速": 6273,
      "遠遠": 6274,
      "那婦人": 6275,
      "非尼": 6276,
      "鴿子": 6277,
      "他的心": 6278,
      "耶穌又": 6279,
      "人的王": 6280,
      "看見他": 6281,
      "看見的": 6282,
      "上帝的靈": 6283,
      "現在我": 6284,
      "現在求你": 6285,
      "眾人說": 6286,
      "賜給你的": 6287,
      "卻不肯": 6288,
      "殺了他": 6289,
      "也是如此": 6290,
      "一起的": 6291,
      "正如耶和華": 6292,
      "幫助我": 6293,
      "尋求耶和華": 6294,
      "約哈斯": 6295,
      "受膏者": 6296,
      "清早起來": 6297,
      "七次": 6298,
      "三千": 6299,
      "不容": 6300,
      "了耶和華": 6301,
      "人把": 6302,
      "他被": 6303,
      "他自己": 6304,
      "伺候": 6305,
      "住宿": 6306,
      "來吧": 6307,
      "做甚麼呢": 6308,
      "加低斯": 6309,
      "原是": 6310,
      "向上帝": 6311,
      "啟示": 6312,
      "四方": 6313,
      "因你們": 6314,
      "在列國中": 6315,
      "坐席": 6316,
      "對耶穌說": 6317,
      "就被": 6318,
      "就知道": 6319,
      "巴沙": 6320,
      "年日": 6321,
      "得榮耀": 6322,
      "憂傷": 6323,
      "我卻": 6324,
      "我現在": 6325,
      "我怎樣": 6326,
      "我也必": 6327,
      "所殺": 6328,
      "手所做的": 6329,
      "扔在": 6330,
      "把自己": 6331,
      "明日": 6332,
      "是不": 6333,
      "是耶和華": 6334,
      "服侍": 6335,
      "朽壞": 6336,
      "每逢": 6337,
      "水的": 6338,
      "洪水": 6339,
      "消失": 6340,
      "疲乏": 6341,
      "的兒女": 6342,
      "的罪孽": 6343,
      "相爭": 6344,
      "看得": 6345,
      "神聖的": 6346,
      "純正": 6347,
      "給她": 6348,
      "給上帝": 6349,
      "繩索": 6350,
      "美好": 6351,
      "聽說": 6352,
      "萬二千": 6353,
      "西西拉": 6354,
      "記號": 6355,
      "誘惑": 6356,
      "跟從我": 6357,
      "路亞": 6358,
      "輪子": 6359,
      "轉回": 6360,
      "辦理": 6361,
      "追求": 6362,
      "進城": 6363,
      "遍地": 6364,
      "閃電": 6365,
      "降臨": 6366,
      "預兆": 6367,
      "他們到": 6368,
      "我們說": 6369,
      "的人中": 6370,
      "他的門徒": 6371,
      "這些是": 6372,
      "在你那裏": 6373,
      "離開他": 6374,
      "回答他": 6375,
      "亞比篩": 6376,
      "在你們面前": 6377,
      "也是這樣": 6378,
      "彼此說": 6379,
      "敬畏上帝": 6380,
      "毀滅的": 6381,
      "了一座": 6382,
      "大能的手": 6383,
      "到你們那裏去": 6384,
      "哈拿尼雅": 6385,
      "因他的慈愛永遠長存": 6386,
      "用水洗": 6387,
      "安然居住": 6388,
      "永生的耶和華起誓": 6389,
      "避難所": 6390,
      "不用": 6391,
      "之家": 6392,
      "也在": 6393,
      "你以": 6394,
      "你自己": 6395,
      "信息": 6396,
      "傳給": 6397,
      "先見": 6398,
      "其頓": 6399,
      "凡不": 6400,
      "出現": 6401,
      "出生": 6402,
      "剛強": 6403,
      "加拿": 6404,
      "反而": 6405,
      "叫你": 6406,
      "各支派": 6407,
      "合歡": 6408,
      "和大": 6409,
      "和我們": 6410,
      "哈大": 6411,
      "喝酒": 6412,
      "嗤笑": 6413,
      "因這": 6414,
      "圖謀": 6415,
      "密雲": 6416,
      "寶貴": 6417,
      "專心": 6418,
      "年紀": 6419,
      "得來的": 6420,
      "我發怒": 6421,
      "或許": 6422,
      "才可以": 6423,
      "拿了": 6424,
      "持守": 6425,
      "掛在": 6426,
      "探雅": 6427,
      "提摩": 6428,
      "摩拉": 6429,
      "撒在": 6430,
      "是他": 6431,
      "有了": 6432,
      "洗魯": 6433,
      "淹沒": 6434,
      "火的": 6435,
      "燒在壇上": 6436,
      "牧放": 6437,
      "狂妄": 6438,
      "瑪吉": 6439,
      "瑪哈": 6440,
      "瑪西雅": 6441,
      "環繞": 6442,
      "用金": 6443,
      "留意": 6444,
      "發光": 6445,
      "的弟兄": 6446,
      "穹蒼": 6447,
      "立定": 6448,
      "算為": 6449,
      "紅海": 6450,
      "背棄": 6451,
      "胸袋": 6452,
      "蒙福": 6453,
      "認為": 6454,
      "講道": 6455,
      "贖回": 6456,
      "身上的": 6457,
      "逃避": 6458,
      "遭難": 6459,
      "酒池": 6460,
      "銅海": 6461,
      "靜默": 6462,
      "面上": 6463,
      "顧惜": 6464,
      "馬匹": 6465,
      "馬其頓": 6466,
      "他們對他說": 6467,
      "你們沒有": 6468,
      "上帝是": 6469,
      "我的仇敵": 6470,
      "你的慈愛": 6471,
      "因為她": 6472,
      "因為那": 6473,
      "他的家": 6474,
      "他的僕人": 6475,
      "耶穌在": 6476,
      "這樣的事": 6477,
      "自己的地方": 6478,
      "亞比雅": 6479,
      "我在這裏": 6480,
      "第二次": 6481,
      "照樣做": 6482,
      "倚靠耶和華": 6483,
      "讚美他": 6484,
      "分別為聖的": 6485,
      "頸項上": 6486,
      "永遠的定例": 6487,
      "寫信給": 6488,
      "陷入罪": 6489,
      "起的誓": 6490,
      "從來沒有": 6491,
      "贖愆祭": 6492,
      "哈利路亞": 6493,
      "非尼哈": 6494,
      "合歡木": 6495,
      "不言": 6496,
      "不許": 6497,
      "並未": 6498,
      "了我們": 6499,
      "互相": 6500,
      "亞嫩": 6501,
      "人嗎": 6502,
      "人因": 6503,
      "人是": 6504,
      "他瑪": 6505,
      "信仰": 6506,
      "全都是": 6507,
      "勸勉": 6508,
      "叫人": 6509,
      "召來": 6510,
      "各省": 6511,
      "和我們的": 6512,
      "四面": 6513,
      "因信": 6514,
      "在上帝": 6515,
      "坑裏": 6516,
      "增添": 6517,
      "多多": 6518,
      "天亮": 6519,
      "嬰孩": 6520,
      "定意": 6521,
      "對那": 6522,
      "就照": 6523,
      "就起來": 6524,
      "尼八": 6525,
      "屢次": 6526,
      "差派": 6527,
      "巴伯": 6528,
      "希斯": 6529,
      "從東": 6530,
      "從他們": 6531,
      "必歸": 6532,
      "必要": 6533,
      "懶惰": 6534,
      "我與": 6535,
      "我也不": 6536,
      "我心裏": 6537,
      "我觀看": 6538,
      "房子": 6539,
      "手拿": 6540,
      "手的": 6541,
      "把所": 6542,
      "拉吉": 6543,
      "拿八": 6544,
      "掌管": 6545,
      "新郎": 6546,
      "極大的": 6547,
      "機會": 6548,
      "櫃蓋": 6549,
      "流人血": 6550,
      "生活": 6551,
      "用以": 6552,
      "男子": 6553,
      "的一個": 6554,
      "的先知": 6555,
      "的使者": 6556,
      "的臣僕": 6557,
      "的守衛": 6558,
      "砍斷": 6559,
      "示麥": 6560,
      "種子": 6561,
      "空中的": 6562,
      "窮乏": 6563,
      "窮人": 6564,
      "管家": 6565,
      "結果": 6566,
      "罪的": 6567,
      "而聽": 6568,
      "聖民": 6569,
      "聖經": 6570,
      "腳步": 6571,
      "臉上": 6572,
      "自誇": 6573,
      "萬有": 6574,
      "虔誠": 6575,
      "詩歌": 6576,
      "謀士": 6577,
      "講解": 6578,
      "賜的": 6579,
      "輕看": 6580,
      "這也是": 6581,
      "釘在": 6582,
      "隨著": 6583,
      "領他": 6584,
      "領你": 6585,
      "顯露": 6586,
      "馬的": 6587,
      "高過": 6588,
      "他們到了": 6589,
      "你們都要": 6590,
      "耶和華已經": 6591,
      "上帝在": 6592,
      "我的子民": 6593,
      "知道的": 6594,
      "祭司就要": 6595,
      "我必使你": 6596,
      "有一大群": 6597,
      "所羅巴伯": 6598,
      "不再有": 6599,
      "事奉的": 6600,
      "在你們那裏": 6601,
      "十二名": 6602,
      "和他的兒子": 6603,
      "說話的時候": 6604,
      "可憎的": 6605,
      "派人到": 6606,
      "稱頌耶和華": 6607,
      "玷污自己": 6608,
      "貧窮人": 6609,
      "帶卯眼的座": 6610,
      "許的願": 6611,
      "洗魯雅": 6612,
      "一心": 6613,
      "七隻": 6614,
      "不必": 6615,
      "主說": 6616,
      "主耶和華啊": 6617,
      "之日": 6618,
      "亞巴": 6619,
      "人與": 6620,
      "仍舊": 6621,
      "他作": 6622,
      "他將": 6623,
      "以革": 6624,
      "但那": 6625,
      "你向": 6626,
      "你不要": 6627,
      "保全": 6628,
      "傷害": 6629,
      "全身": 6630,
      "六年": 6631,
      "出了": 6632,
      "到的": 6633,
      "即使": 6634,
      "叫了": 6635,
      "吃這": 6636,
      "各國": 6637,
      "君王的": 6638,
      "和跟隨": 6639,
      "喝了": 6640,
      "喪失": 6641,
      "因我們": 6642,
      "在山上": 6643,
      "基尼": 6644,
      "塊板": 6645,
      "大水": 6646,
      "大流": 6647,
      "妒忌": 6648,
      "安歇": 6649,
      "宣講": 6650,
      "家譜": 6651,
      "實實在": 6652,
      "少壯": 6653,
      "尚未": 6654,
      "就像": 6655,
      "就用": 6656,
      "展開": 6657,
      "岳父": 6658,
      "差我": 6659,
      "希未": 6660,
      "帶子": 6661,
      "年數": 6662,
      "建築": 6663,
      "必成為": 6664,
      "應該": 6665,
      "成全": 6666,
      "我作": 6667,
      "我實實在": 6668,
      "手所造的": 6669,
      "打水": 6670,
      "拿起": 6671,
      "撇棄": 6672,
      "撒路": 6673,
      "有話": 6674,
      "本國": 6675,
      "柱頂": 6676,
      "樣子": 6677,
      "權勢": 6678,
      "污靈": 6679,
      "洗衣服": 6680,
      "海裏": 6681,
      "淫行": 6682,
      "滿有": 6683,
      "澆灌": 6684,
      "為止": 6685,
      "為那": 6686,
      "為贖罪祭": 6687,
      "瑪代": 6688,
      "病了": 6689,
      "的呢": 6690,
      "的母親": 6691,
      "的邊界": 6692,
      "絕對": 6693,
      "耳中": 6694,
      "自大": 6695,
      "良人": 6696,
      "萬族": 6697,
      "蒙悅納": 6698,
      "行詭詐": 6699,
      "要照": 6700,
      "要說": 6701,
      "訓詞": 6702,
      "談論": 6703,
      "貨物": 6704,
      "這要": 6705,
      "邪術": 6706,
      "野地的": 6707,
      "隊伍": 6708,
      "餘民": 6709,
      "你們自己": 6710,
      "上帝殿的": 6711,
      "我們也": 6712,
      "以色列諸王": 6713,
      "沒有留下": 6714,
      "他們的弟兄": 6715,
      "祭司要把": 6716,
      "吩咐他們": 6717,
      "直到永永遠遠": 6718,
      "離開你": 6719,
      "離開他們": 6720,
      "攻擊他們": 6721,
      "他們就知道我是耶和華": 6722,
      "法老說": 6723,
      "建造的": 6724,
      "這些事以後": 6725,
      "被擄的人": 6726,
      "變為廢墟": 6727,
      "五十個": 6728,
      "擊殺他們": 6729,
      "側耳而聽": 6730,
      "往前行": 6731,
      "他母親名叫": 6732,
      "油的細麵": 6733,
      "聖所的舍客勒": 6734,
      "一頭公牛犢": 6735,
      "陌生人": 6736,
      "提摩太": 6737,
      "大流士": 6738,
      "我實實在在地": 6739,
      "以色列諸王記": 6740,
      "一帶": 6741,
      "不敢": 6742,
      "主意": 6743,
      "乾旱": 6744,
      "了嗎": 6745,
      "亞基": 6746,
      "人心": 6747,
      "人那裏": 6748,
      "仍不": 6749,
      "作過": 6750,
      "你卻": 6751,
      "信的人": 6752,
      "倍的": 6753,
      "做成": 6754,
      "凡屬": 6755,
      "凡他所做的": 6756,
      "初一": 6757,
      "到他們": 6758,
      "到早晨": 6759,
      "勞役": 6760,
      "原處": 6761,
      "又向": 6762,
      "同心": 6763,
      "吼叫": 6764,
      "哀歌": 6765,
      "嚴厲": 6766,
      "四千": 6767,
      "圍繞": 6768,
      "在上面": 6769,
      "定罪": 6770,
      "庇護": 6771,
      "廢棄": 6772,
      "必如": 6773,
      "想起": 6774,
      "我將": 6775,
      "所見": 6776,
      "扶持": 6777,
      "拿伯": 6778,
      "指頭": 6779,
      "接待": 6780,
      "提雅": 6781,
      "搖祭": 6782,
      "救我們": 6783,
      "教師": 6784,
      "是因": 6785,
      "是上帝": 6786,
      "暗中": 6787,
      "最後": 6788,
      "歸榮耀": 6789,
      "母牛": 6790,
      "活到": 6791,
      "為這": 6792,
      "特羅": 6793,
      "王位": 6794,
      "疾病": 6795,
      "痛哭": 6796,
      "的香": 6797,
      "的帳幕": 6798,
      "的長子": 6799,
      "福分": 6800,
      "站住": 6801,
      "第一": 6802,
      "紀念": 6803,
      "約珥": 6804,
      "而去": 6805,
      "與上帝": 6806,
      "萬象": 6807,
      "街市": 6808,
      "西邊": 6809,
      "許願": 6810,
      "該隱": 6811,
      "議會": 6812,
      "讓人": 6813,
      "賄賂": 6814,
      "這一切的": 6815,
      "都被": 6816,
      "都知道": 6817,
      "重重": 6818,
      "餅和": 6819,
      "我的口": 6820,
      "我的永生": 6821,
      "你的律法": 6822,
      "人的口": 6823,
      "耶和華的靈": 6824,
      "耶和華的僕人": 6825,
      "這是耶和華": 6826,
      "你們要謹慎": 6827,
      "賜給我": 6828,
      "賜給我們": 6829,
      "的子孫中": 6830,
      "以利加拿": 6831,
      "起誓應許": 6832,
      "二十肘": 6833,
      "你是我的": 6834,
      "眾百姓都": 6835,
      "五十肘": 6836,
      "讚美耶和華": 6837,
      "離棄我": 6838,
      "賜福給": 6839,
      "困苦人": 6840,
      "歸於無有": 6841,
      "到他那裏": 6842,
      "迎接他": 6843,
      "會堂裏": 6844,
      "主耶穌基督的": 6845,
      "月初一": 6846,
      "亞實突": 6847,
      "在監裏": 6848,
      "經常獻的": 6849,
      "舍客勒的銀": 6850,
      "米該雅": 6851,
      "以革倫": 6852,
      "』；": 6853,
      "一家": 6854,
      "一聽見": 6855,
      "不如": 6856,
      "了許多": 6857,
      "五年": 6858,
      "亞當": 6859,
      "人數": 6860,
      "仍在": 6861,
      "作王的": 6862,
      "你和你": 6863,
      "來的時候": 6864,
      "俄巴": 6865,
      "倒塌": 6866,
      "傾倒在": 6867,
      "光輝": 6868,
      "全是": 6869,
      "公正": 6870,
      "共十二人": 6871,
      "吃飽": 6872,
      "和她": 6873,
      "哀聲": 6874,
      "哈沙": 6875,
      "哈蘭": 6876,
      "嘲笑": 6877,
      "地就": 6878,
      "墜落": 6879,
      "夏瑣": 6880,
      "大事": 6881,
      "奸惡": 6882,
      "好比": 6883,
      "安靜": 6884,
      "對你": 6885,
      "就很": 6886,
      "就派": 6887,
      "尼尼": 6888,
      "工程": 6889,
      "左邊": 6890,
      "帷幔": 6891,
      "幅幔子": 6892,
      "弓箭": 6893,
      "從上帝": 6894,
      "惹我發怒": 6895,
      "愁煩": 6896,
      "愚頑": 6897,
      "愛他": 6898,
      "感到": 6899,
      "慚愧": 6900,
      "憂慮": 6901,
      "我百姓": 6902,
      "戰場": 6903,
      "找到了": 6904,
      "把她": 6905,
      "把你的": 6906,
      "拿答": 6907,
      "捉拿": 6908,
      "揚聲": 6909,
      "收回": 6910,
      "是照耶和華所吩咐": 6911,
      "更大": 6912,
      "歸我": 6913,
      "每個": 6914,
      "水喝": 6915,
      "洗別": 6916,
      "清潔": 6917,
      "為奴": 6918,
      "為王": 6919,
      "無可": 6920,
      "熄滅": 6921,
      "王在": 6922,
      "生兒": 6923,
      "當那日": 6924,
      "發怨言": 6925,
      "白晝": 6926,
      "的像": 6927,
      "的見證": 6928,
      "的軍隊": 6929,
      "的器皿": 6930,
      "的周圍": 6931,
      "皮袋": 6932,
      "示利": 6933,
      "私下": 6934,
      "約束": 6935,
      "結果子": 6936,
      "經上所記": 6937,
      "總不": 6938,
      "羅馬": 6939,
      "美貌": 6940,
      "老邁": 6941,
      "耶洗別": 6942,
      "聖名": 6943,
      "腳前": 6944,
      "至聖的": 6945,
      "若不是": 6946,
      "苦待": 6947,
      "萬代": 6948,
      "蒙召": 6949,
      "蒺藜": 6950,
      "蛾摩拉": 6951,
      "要歸": 6952,
      "要與": 6953,
      "要被": 6954,
      "親吻": 6955,
      "評斷": 6956,
      "谷中": 6957,
      "起頭": 6958,
      "跟我": 6959,
      "轄制": 6960,
      "迦薩": 6961,
      "追上": 6962,
      "連同": 6963,
      "遮蔽": 6964,
      "金環": 6965,
      "錢財": 6966,
      "鑒察": 6967,
      "院子的": 6968,
      "隱瞞": 6969,
      "預先": 6970,
      "願上帝": 6971,
      "風吹": 6972,
      "高大": 6973,
      "他們用": 6974,
      "他們卻不": 6975,
      "你們看": 6976,
      "你們祖先": 6977,
      "的人有福了": 6978,
      "你的命令": 6979,
      "他的上帝": 6980,
      "耶穌對": 6981,
      "不可吃": 6982,
      "臨到他": 6983,
      "許多民族": 6984,
      "以利法": 6985,
      "和他的人": 6986,
      "亞比該": 6987,
      "哪裏來": 6988,
      "建造殿宇": 6989,
      "分別出來": 6990,
      "怎麼說": 6991,
      "遵守我的": 6992,
      "生了一個兒子": 6993,
      "一百三十": 6994,
      "從你面前": 6995,
      "鄰舍的": 6996,
      "被殺的人": 6997,
      "橄欖樹": 6998,
      "比利洗": 6999,
      "倖存者": 7000,
      "西奈山": 7001,
      "素祭和澆酒祭": 7002,
      "歡歡喜喜地": 7003,
      "從今以後": 7004,
      "下了": 7005,
      "不潔": 7006,
      "之事": 7007,
      "了你的": 7008,
      "亞吉": 7009,
      "交給他們": 7010,
      "亮光": 7011,
      "他和": 7012,
      "伊拉": 7013,
      "作你的": 7014,
      "作你們的": 7015,
      "作惡的": 7016,
      "你看見": 7017,
      "使她": 7018,
      "光禿": 7019,
      "入口": 7020,
      "內院": 7021,
      "八十": 7022,
      "再把": 7023,
      "到處": 7024,
      "前頭": 7025,
      "卑微": 7026,
      "去事奉": 7027,
      "又是": 7028,
      "又活了": 7029,
      "受審判": 7030,
      "合宜": 7031,
      "向她": 7032,
      "命的": 7033,
      "問耶穌": 7034,
      "四千人": 7035,
      "在那些日子": 7036,
      "地裏": 7037,
      "報信": 7038,
      "多如": 7039,
      "夢中": 7040,
      "天和": 7041,
      "嫁給": 7042,
      "守這": 7043,
      "安寧": 7044,
      "完成": 7045,
      "定了": 7046,
      "害我": 7047,
      "尊崇": 7048,
      "尊重": 7049,
      "小公羊": 7050,
      "就沒有": 7051,
      "就對他說": 7052,
      "就要把": 7053,
      "尼哥": 7054,
      "居魯": 7055,
      "屋裏": 7056,
      "張開": 7057,
      "彰顯": 7058,
      "得為業": 7059,
      "從地上": 7060,
      "必在": 7061,
      "成群": 7062,
      "我向": 7063,
      "我卻要": 7064,
      "所住": 7065,
      "所行": 7066,
      "手下": 7067,
      "把他的": 7068,
      "指責": 7069,
      "攻取": 7070,
      "斜坡": 7071,
      "新娘": 7072,
      "暫時": 7073,
      "更加": 7074,
      "書珊": 7075,
      "曾孫": 7076,
      "有關": 7077,
      "有許多人": 7078,
      "有好些": 7079,
      "比我": 7080,
      "流奶": 7081,
      "減少": 7082,
      "灰塵": 7083,
      "災害": 7084,
      "烈酒": 7085,
      "無故": 7086,
      "無益": 7087,
      "牙齒": 7088,
      "異能": 7089,
      "當地": 7090,
      "的民": 7091,
      "的律法": 7092,
      "的作為": 7093,
      "的食物": 7094,
      "的磐石": 7095,
      "的婦女": 7096,
      "的細麻": 7097,
      "的數目": 7098,
      "的曾孫": 7099,
      "盡了": 7100,
      "看出": 7101,
      "福氣": 7102,
      "禧年": 7103,
      "稅吏": 7104,
      "積蓄": 7105,
      "立了": 7106,
      "素來": 7107,
      "絆腳": 7108,
      "緊緊": 7109,
      "臨門": 7110,
      "自以為": 7111,
      "處置": 7112,
      "被趕": 7113,
      "被鬼": 7114,
      "要以": 7115,
      "角聲": 7116,
      "解開": 7117,
      "調和": 7118,
      "諭旨": 7119,
      "豎立": 7120,
      "走過": 7121,
      "辯論": 7122,
      "辯護": 7123,
      "通達": 7124,
      "重新": 7125,
      "鞭打": 7126,
      "願恩惠": 7127,
      "顧念": 7128,
      "首先": 7129,
      "他們因": 7130,
      "你們可以": 7131,
      "你們為何": 7132,
      "耶和華向": 7133,
      "我的典章": 7134,
      "一切所行的": 7135,
      "他們的手": 7136,
      "我要把": 7137,
      "這樣的人": 7138,
      "你們的弟兄": 7139,
      "自己的家": 7140,
      "你們要在": 7141,
      "起來攻擊": 7142,
      "我們的主": 7143,
      "我們的祖宗": 7144,
      "眾人就": 7145,
      "都是如此": 7146,
      "今日一樣": 7147,
      "孩子們": 7148,
      "你是誰": 7149,
      "十二年": 7150,
      "預備的": 7151,
      "慈愛和": 7152,
      "這一切話": 7153,
      "這一切的事": 7154,
      "第二個": 7155,
      "帳棚裏": 7156,
      "的王位": 7157,
      "！』」": 7158,
      "為了要": 7159,
      "的眾子": 7160,
      "他兒子和他兄弟": 7161,
      "稱謝耶和華": 7162,
      "文士和": 7163,
      "一塊石頭": 7164,
      "十字架上": 7165,
      "我指著我的永生": 7166,
      "田間的": 7167,
      "一定會": 7168,
      "因著信": 7169,
      "西萊雅": 7170,
      "二十歲以上": 7171,
      "少壯獅子": 7172,
      "尼尼微": 7173,
      "居魯士": 7174,
      "他兒子和他兄弟共十二人": 7175,
      "上船": 7176,
      "下令": 7177,
      "下來的": 7178,
      "不足": 7179,
      "不至於": 7180,
      "中取": 7181,
      "中最": 7182,
      "九年": 7183,
      "也會": 7184,
      "亞細亞": 7185,
      "人卻": 7186,
      "人打仗": 7187,
      "他呢": 7188,
      "他拉": 7189,
      "以他瑪": 7190,
      "但如今": 7191,
      "何珥": 7192,
      "你和": 7193,
      "你為": 7194,
      "你用": 7195,
      "俄別": 7196,
      "修築": 7197,
      "假冒": 7198,
      "傲慢": 7199,
      "傳到": 7200,
      "僮僕": 7201,
      "內臟": 7202,
      "全國": 7203,
      "其上的": 7204,
      "勸戒": 7205,
      "又像": 7206,
      "又因": 7207,
      "只剩下": 7208,
      "可憐": 7209,
      "吃草": 7210,
      "各處": 7211,
      "和我的": 7212,
      "哈西": 7213,
      "善待": 7214,
      "回覆": 7215,
      "在她": 7216,
      "在山": 7217,
      "在水": 7218,
      "地去": 7219,
      "城外": 7220,
      "基士": 7221,
      "報復": 7222,
      "塗去": 7223,
      "增加": 7224,
      "壯士": 7225,
      "多比雅": 7226,
      "女子的": 7227,
      "守的": 7228,
      "安提": 7229,
      "安逸": 7230,
      "定睛": 7231,
      "宰殺": 7232,
      "家族": 7233,
      "寬容": 7234,
      "寶物": 7235,
      "將自己": 7236,
      "對他": 7237,
      "對付": 7238,
      "對我": 7239,
      "就在那裏": 7240,
      "屈身": 7241,
      "希幔": 7242,
      "希望": 7243,
      "幼發": 7244,
      "底謝": 7245,
      "必因": 7246,
      "手掌": 7247,
      "打敗": 7248,
      "把我們": 7249,
      "把耶穌": 7250,
      "拉底": 7251,
      "拾取": 7252,
      "拿鶴": 7253,
      "攔阻": 7254,
      "支搭": 7255,
      "敞開": 7256,
      "方向": 7257,
      "施慈愛": 7258,
      "族有": 7259,
      "是否": 7260,
      "是用": 7261,
      "是真的": 7262,
      "條路": 7263,
      "樂器": 7264,
      "樹下": 7265,
      "正月": 7266,
      "殺他": 7267,
      "每天": 7268,
      "比加": 7269,
      "消息": 7270,
      "為燔祭": 7271,
      "為我的名": 7272,
      "照他": 7273,
      "照你所": 7274,
      "牆柱": 7275,
      "王吩咐": 7276,
      "王法老": 7277,
      "生子": 7278,
      "當著": 7279,
      "當得的": 7280,
      "登記": 7281,
      "的口": 7282,
      "的杯": 7283,
      "的角": 7284,
      "的酒": 7285,
      "的就是": 7286,
      "的榮耀": 7287,
      "的族長": 7288,
      "的條例": 7289,
      "的下體": 7290,
      "眾水": 7291,
      "眾人的": 7292,
      "眾聖徒": 7293,
      "破裂": 7294,
      "神聖": 7295,
      "禁止": 7296,
      "立拿": 7297,
      "竭力": 7298,
      "第一個": 7299,
      "米雅": 7300,
      "給人": 7301,
      "經歷": 7302,
      "耶琳": 7303,
      "聖職": 7304,
      "育女": 7305,
      "腳下": 7306,
      "至聖所": 7307,
      "與蜜": 7308,
      "興旺": 7309,
      "色的": 7310,
      "若沒有": 7311,
      "諸位": 7312,
      "講論": 7313,
      "賠償": 7314,
      "走在": 7315,
      "跟前": 7316,
      "軍營": 7317,
      "這三": 7318,
      "這就": 7319,
      "這件事": 7320,
      "還活著": 7321,
      "那在": 7322,
      "那時候": 7323,
      "重建": 7324,
      "阿拉": 7325,
      "降在": 7326,
      "降雨": 7327,
      "雇工": 7328,
      "露水": 7329,
      "非拉": 7330,
      "革拉": 7331,
      "頑梗": 7332,
      "領你們": 7333,
      "飲食": 7334,
      "騎著": 7335,
      "驚慌": 7336,
      "高傲": 7337,
      "黃昏": 7338,
      "你們和": 7339,
      "你們這些": 7340,
      "上帝必": 7341,
      "我們必": 7342,
      "我們上帝的": 7343,
      "的人和": 7344,
      "他的道": 7345,
      "那裏有": 7346,
      "就是耶和華": 7347,
      "一個名叫": 7348,
      "我要用": 7349,
      "這是甚麼": 7350,
      "出來了": 7351,
      "直到他": 7352,
      "告訴我們": 7353,
      "現在你要": 7354,
      "眾人面前": 7355,
      "在你身上": 7356,
      "那些人": 7357,
      "智慧人的": 7358,
      "卻不知道": 7359,
      "也必照樣": 7360,
      "聽從我": 7361,
      "十二使徒": 7362,
      "放在心上": 7363,
      "的一切話": 7364,
      "與他同在": 7365,
      "這一切事": 7366,
      "錫安山": 7367,
      "被擄去": 7368,
      "被擄的": 7369,
      "亞希雅": 7370,
      "門口的守衛": 7371,
      "正直的": 7372,
      "年輕時": 7373,
      "你們就知道我是耶和華": 7374,
      "哥哥們": 7375,
      "以弗所": 7376,
      "都不可做": 7377,
      "都不可吃": 7378,
      "用刀殺了": 7379,
      "撒迦利雅": 7380,
      "護衛兵": 7381,
      "發生的事": 7382,
      "回轉離開": 7383,
      "分散在": 7384,
      "哈大底謝": 7385,
      "差我來的": 7386,
      "俄巴底": 7387,
      "生兒育女": 7388,
      "流奶與蜜": 7389,
      "我指著我的永生起誓": 7390,
      "幼發拉底": 7391,
      "一國": 7392,
      "一頭": 7393,
      "七月": 7394,
      "不了": 7395,
      "不像": 7396,
      "不斷": 7397,
      "不認": 7398,
      "不明白": 7399,
      "五歲": 7400,
      "亞們": 7401,
      "亞法": 7402,
      "交託": 7403,
      "交在他": 7404,
      "享受": 7405,
      "仍要": 7406,
      "他會": 7407,
      "伊利": 7408,
      "伊甸": 7409,
      "伏在": 7410,
      "但願": 7411,
      "何其": 7412,
      "何利": 7413,
      "你呢": 7414,
      "價錢": 7415,
      "光照": 7416,
      "內的": 7417,
      "全城": 7418,
      "全體": 7419,
      "出母": 7420,
      "分開": 7421,
      "切切": 7422,
      "加增": 7423,
      "加添": 7424,
      "又將": 7425,
      "受罰": 7426,
      "可恥": 7427,
      "各從": 7428,
      "唱歌": 7429,
      "問他們": 7430,
      "多的": 7431,
      "夠了": 7432,
      "夢的": 7433,
      "大海": 7434,
      "奸詐": 7435,
      "子上": 7436,
      "守逾越節": 7437,
      "宣認": 7438,
      "少年": 7439,
      "尼探雅": 7440,
      "山嶺": 7441,
      "強如": 7442,
      "彎曲": 7443,
      "忍受": 7444,
      "愛我": 7445,
      "成聖": 7446,
      "我使": 7447,
      "我吧": 7448,
      "我有": 7449,
      "我一切的": 7450,
      "我主人": 7451,
      "我主啊": 7452,
      "我與你": 7453,
      "打開": 7454,
      "把牠": 7455,
      "披上": 7456,
      "抱愧": 7457,
      "拉撒路": 7458,
      "指明": 7459,
      "按時": 7460,
      "搓的細麻": 7461,
      "摸了": 7462,
      "擾亂": 7463,
      "放膽": 7464,
      "敵人的": 7465,
      "早已": 7466,
      "是非": 7467,
      "暗利": 7468,
      "有兩": 7469,
      "本來": 7470,
      "東方": 7471,
      "柱像": 7472,
      "栽植": 7473,
      "榮華": 7474,
      "此地": 7475,
      "此外": 7476,
      "死蔭": 7477,
      "毒蛇": 7478,
      "比他": 7479,
      "污辱": 7480,
      "決定": 7481,
      "沙拉": 7482,
      "海邊": 7483,
      "清楚": 7484,
      "為你的": 7485,
      "照他所": 7486,
      "父上帝": 7487,
      "疆界": 7488,
      "的壇": 7489,
      "的智慧": 7490,
      "的石頭": 7491,
      "的家裏": 7492,
      "盲人": 7493,
      "直等": 7494,
      "相連": 7495,
      "看看": 7496,
      "眼淚": 7497,
      "砍伐": 7498,
      "福樂": 7499,
      "第二十": 7500,
      "第一日": 7501,
      "米甲": 7502,
      "罪過": 7503,
      "聖地": 7504,
      "聖山": 7505,
      "能救": 7506,
      "臺階": 7507,
      "萬事": 7508,
      "行在": 7509,
      "被刀": 7510,
      "被聖靈": 7511,
      "要來": 7512,
      "記錄": 7513,
      "證實": 7514,
      "跑去": 7515,
      "轉到": 7516,
      "這都是": 7517,
      "過夜": 7518,
      "遭受": 7519,
      "遲延": 7520,
      "關閉": 7521,
      "防備": 7522,
      "阻止": 7523,
      "降禍": 7524,
      "隱密": 7525,
      "雖有": 7526,
      "風聲": 7527,
      "鬍鬚": 7528,
      "麥基": 7529,
      "他們來到": 7530,
      "他們脫離": 7531,
      "耶和華也": 7532,
      "你的公義": 7533,
      "你的後裔": 7534,
      "因為人": 7535,
      "因為它": 7536,
      "一切事": 7537,
      "一切所": 7538,
      "一個月": 7539,
      "耶和華的手": 7540,
      "耶和華的指示": 7541,
      "這是我": 7542,
      "他說話": 7543,
      "上的話": 7544,
      "我們的上帝啊": 7545,
      "現在你": 7546,
      "所以我": 7547,
      "弟兄的": 7548,
      "賜給你們的": 7549,
      "有一人": 7550,
      "以利押": 7551,
      "燔祭牲": 7552,
      "在你們身上": 7553,
      "兄弟們": 7554,
      "產業的": 7555,
      "所吩咐你的": 7556,
      "憐憫我": 7557,
      "聖靈的": 7558,
      "那人說": 7559,
      "幫助他": 7560,
      "看為好的": 7561,
      "復活了": 7562,
      "亞希甘": 7563,
      "亞撒黑": 7564,
      "他又說": 7565,
      "堅固城": 7566,
      "堅固的": 7567,
      "黑暗中": 7568,
      "從你中間": 7569,
      "有福的": 7570,
      "玷污了": 7571,
      "城牆上": 7572,
      "神蹟奇事": 7573,
      "對面的": 7574,
      "站立得住": 7575,
      "的火祭": 7576,
      "所屬的村莊": 7577,
      "擔當自己的": 7578,
      "死人復活": 7579,
      "亞拿突": 7580,
      "經上記著": 7581,
      "一句話": 7582,
      "法勒斯": 7583,
      "年紀老邁": 7584,
      "我實實在在地告訴你們": 7585,
      "被鬼附": 7586,
      "流奶與蜜之地": 7587,
      "七千": 7588,
      "不好": 7589,
      "不看": 7590,
      "不敬虔": 7591,
      "主必": 7592,
      "乃縵": 7593,
      "乏音": 7594,
      "二年": 7595,
      "人又": 7596,
      "他到了": 7597,
      "他要把": 7598,
      "估價": 7599,
      "似乎": 7600,
      "但這": 7601,
      "作聲": 7602,
      "作食物": 7603,
      "你因": 7604,
      "你已經": 7605,
      "使你們的": 7606,
      "僕婢": 7607,
      "內有": 7608,
      "內殿": 7609,
      "其類": 7610,
      "分派": 7611,
      "利乏音": 7612,
      "到底": 7613,
      "前進": 7614,
      "務要": 7615,
      "十分之": 7616,
      "危險": 7617,
      "受洗": 7618,
      "各族": 7619,
      "同工": 7620,
      "名聲": 7621,
      "向王": 7622,
      "善於": 7623,
      "園子": 7624,
      "多弗": 7625,
      "大山": 7626,
      "太平": 7627,
      "奔跑": 7628,
      "女孩": 7629,
      "她所": 7630,
      "如火": 7631,
      "娶妻": 7632,
      "存的": 7633,
      "守節": 7634,
      "宮裏": 7635,
      "寧可": 7636,
      "尋見": 7637,
      "對百姓說": 7638,
      "小山": 7639,
      "就死了": 7640,
      "屬靈": 7641,
      "已將": 7642,
      "幼年": 7643,
      "幾個人": 7644,
      "從其中": 7645,
      "從北方": 7646,
      "心中的": 7647,
      "必不再": 7648,
      "急速": 7649,
      "愚拙": 7650,
      "愛情": 7651,
      "憑據": 7652,
      "我以": 7653,
      "我再": 7654,
      "或在": 7655,
      "戰抖": 7656,
      "把自己的": 7657,
      "投降": 7658,
      "拿兵器": 7659,
      "提幔": 7660,
      "摧毀": 7661,
      "撒拔": 7662,
      "撒萊": 7663,
      "擴散": 7664,
      "救了": 7665,
      "是你的": 7666,
      "有花": 7667,
      "有能力": 7668,
      "朝見": 7669,
      "橫木": 7670,
      "歸向耶和華": 7671,
      "死後": 7672,
      "死在那裏": 7673,
      "殺我": 7674,
      "洞裏": 7675,
      "流出": 7676,
      "深處": 7677,
      "滋潤": 7678,
      "爭論": 7679,
      "父系": 7680,
      "犯姦淫": 7681,
      "獄裏": 7682,
      "獵物": 7683,
      "王子": 7684,
      "瑪瑙": 7685,
      "生養": 7686,
      "用甚麼": 7687,
      "田裏": 7688,
      "疏割": 7689,
      "的杖": 7690,
      "的耶和華": 7691,
      "的中間": 7692,
      "的那日": 7693,
      "的銀子": 7694,
      "的供物": 7695,
      "的翅膀": 7696,
      "的丘壇": 7697,
      "的妹妹": 7698,
      "的東邊": 7699,
      "盡性": 7700,
      "看到": 7701,
      "睡著": 7702,
      "算甚麼": 7703,
      "築了一座": 7704,
      "給那": 7705,
      "翹角": 7706,
      "船隻": 7707,
      "虛妄": 7708,
      "要吃": 7709,
      "試煉": 7710,
      "詭計": 7711,
      "誠然": 7712,
      "請王": 7713,
      "讓你": 7714,
      "賜我": 7715,
      "賣了": 7716,
      "趕鬼": 7717,
      "跟你": 7718,
      "跟從他": 7719,
      "退後": 7720,
      "這一": 7721,
      "這國": 7722,
      "這日": 7723,
      "這世代": 7724,
      "都歸": 7725,
      "重擔": 7726,
      "閉口": 7727,
      "降旨": 7728,
      "需用的": 7729,
      "順利": 7730,
      "香膏": 7731,
      "麥穗": 7732,
      "他們一": 7733,
      "他們也": 7734,
      "他們將": 7735,
      "他們會": 7736,
      "你們來": 7737,
      "你們脫離": 7738,
      "上帝殿": 7739,
      "的人也": 7740,
      "的人來": 7741,
      "我的良人": 7742,
      "你的法度": 7743,
      "他的國": 7744,
      "他的兒女": 7745,
      "百姓就": 7746,
      "百姓都": 7747,
      "耶和華的日子": 7748,
      "耶和華的榮光": 7749,
      "不要再": 7750,
      "你要向": 7751,
      "你要說": 7752,
      "求你記念": 7753,
      "現在你們": 7754,
      "弟兄中": 7755,
      "以及他": 7756,
      "在你眼前蒙恩": 7757,
      "離開那裏": 7758,
      "臨到我": 7759,
      "臨到我們": 7760,
      "許多的": 7761,
      "怎樣做": 7762,
      "事奉我": 7763,
      "卻不得": 7764,
      "婦人說": 7765,
      "免得他": 7766,
      "教導他們": 7767,
      "和他的子孫": 7768,
      "和他的弟兄": 7769,
      "而是要": 7770,
      "眾百姓說": 7771,
      "喜愛的": 7772,
      "亞希多弗": 7773,
      "照樣做了": 7774,
      "的手藝": 7775,
      "一百二十": 7776,
      "可憎之物": 7777,
      "離棄耶和華": 7778,
      "主的道": 7779,
      "黑暗裏": 7780,
      "世界的": 7781,
      "按照聖所的舍客勒": 7782,
      "揀選的": 7783,
      "求告耶和華": 7784,
      "耶穌回答他們": 7785,
      "一座城": 7786,
      "我又看見": 7787,
      "益處呢": 7788,
      "他連得銀子": 7789,
      "轉臉不顧": 7790,
      "存到永遠": 7791,
      "硬著頸項": 7792,
      "所聽見的": 7793,
      "所犯的罪": 7794,
      "希斯崙": 7795,
      "野地的走獸": 7796,
      "救我們脫離": 7797,
      "絆腳石": 7798,
      "安提阿": 7799,
      "各從其類": 7800,
      "築了一座壇": 7801,
      "三萬": 7802,
      "上陣": 7803,
      "上騰": 7804,
      "下山": 7805,
      "不被": 7806,
      "並在": 7807,
      "之祖": 7808,
      "之地的": 7809,
      "亞珥": 7810,
      "亞羅": 7811,
      "亞衲": 7812,
      "人出": 7813,
      "他因": 7814,
      "他帶": 7815,
      "他有": 7816,
      "他量": 7817,
      "他看見": 7818,
      "任意": 7819,
      "何烈": 7820,
      "你有": 7821,
      "你不是": 7822,
      "你也要": 7823,
      "你就要": 7824,
      "使那": 7825,
      "供給": 7826,
      "供餅": 7827,
      "假如": 7828,
      "兩次": 7829,
      "利甲": 7830,
      "卻說": 7831,
      "厭煩": 7832,
      "去的時候": 7833,
      "各有": 7834,
      "合法": 7835,
      "同席": 7836,
      "和祭壇": 7837,
      "哀哉": 7838,
      "唾沫": 7839,
      "四萬": 7840,
      "回頭": 7841,
      "土產": 7842,
      "地區": 7843,
      "地說": 7844,
      "城中的": 7845,
      "基立": 7846,
      "基伊拉": 7847,
      "基哈西": 7848,
      "塊石頭": 7849,
      "壇前": 7850,
      "壓碎": 7851,
      "外院": 7852,
      "大城": 7853,
      "大臣": 7854,
      "天平": 7855,
      "天的": 7856,
      "如水": 7857,
      "妃嬪": 7858,
      "婆婆": 7859,
      "宴樂": 7860,
      "容易": 7861,
      "寬闊": 7862,
      "就叫": 7863,
      "就拿": 7864,
      "就對他們說": 7865,
      "巴尼": 7866,
      "帶回": 7867,
      "平平安": 7868,
      "強大": 7869,
      "從此": 7870,
      "從你們": 7871,
      "必致": 7872,
      "情願": 7873,
      "我會": 7874,
      "我不知道": 7875,
      "所起的誓": 7876,
      "手上": 7877,
      "打破": 7878,
      "把你們的": 7879,
      "拿刀": 7880,
      "指定": 7881,
      "接連": 7882,
      "損傷": 7883,
      "擊殺了": 7884,
      "擺在": 7885,
      "放聲": 7886,
      "故意": 7887,
      "斯都": 7888,
      "方面": 7889,
      "旋風": 7890,
      "星宿": 7891,
      "是可": 7892,
      "最大的": 7893,
      "有幾個": 7894,
      "案件": 7895,
      "樹枝": 7896,
      "正午": 7897,
      "每隻": 7898,
      "沉睡": 7899,
      "沙撒": 7900,
      "治好了": 7901,
      "活的": 7902,
      "流淚": 7903,
      "滅的": 7904,
      "灑在": 7905,
      "為她": 7906,
      "為耶和華所": 7907,
      "烏薛": 7908,
      "無數": 7909,
      "無聲": 7910,
      "爭吵": 7911,
      "牧羊": 7912,
      "狂風": 7913,
      "獅子的": 7914,
      "瑪挪亞": 7915,
      "當面": 7916,
      "白白": 7917,
      "的廟": 7918,
      "的說": 7919,
      "的邊": 7920,
      "的燔祭": 7921,
      "的帳棚": 7922,
      "的財物": 7923,
      "監督": 7924,
      "相同": 7925,
      "看著": 7926,
      "眾臣僕": 7927,
      "眾教會": 7928,
      "砍下": 7929,
      "碎秸": 7930,
      "示米": 7931,
      "立在": 7932,
      "第七天": 7933,
      "算是": 7934,
      "米迦勒": 7935,
      "終必": 7936,
      "絆跌": 7937,
      "義的": 7938,
      "聽到": 7939,
      "腓利": 7940,
      "腰束": 7941,
      "臨產": 7942,
      "自然": 7943,
      "艱難": 7944,
      "萬歲": 7945,
      "蒙耶和華": 7946,
      "虛謊": 7947,
      "虧負": 7948,
      "術士": 7949,
      "裝滿": 7950,
      "西弗": 7951,
      "西拿": 7952,
      "要救": 7953,
      "認出": 7954,
      "財主": 7955,
      "貪婪": 7956,
      "贖價": 7957,
      "身穿": 7958,
      "輕易": 7959,
      "這兩": 7960,
      "這時": 7961,
      "這約": 7962,
      "進貢": 7963,
      "遠處": 7964,
      "那個": 7965,
      "邪靈": 7966,
      "都能": 7967,
      "都可以": 7968,
      "關係": 7969,
      "隨意": 7970,
      "雅哈": 7971,
      "露體": 7972,
      "面紗": 7973,
      "願他": 7974,
      "願我": 7975,
      "願那": 7976,
      "骨肉": 7977,
      "高興": 7978,
      "你們不知道": 7979,
      "我們可以": 7980,
      "我們已經": 7981,
      "的人嗎": 7982,
      "我的罪": 7983,
      "我的怒氣": 7984,
      "你的兒女": 7985,
      "你的信實": 7986,
      "因為他們的": 7987,
      "因為我是": 7988,
      "他的血": 7989,
      "他們的話": 7990,
      "甚麼時候": 7991,
      "祭司說": 7992,
      "我要作": 7993,
      "猶大列王": 7994,
      "看見我": 7995,
      "上帝的使者": 7996,
      "上帝的旨意": 7997,
      "於是我": 7998,
      "所以主耶和華如此說": 7999,
      "在那裏有": 8000,
      "不能救": 8001,
      "智慧和": 8002,
      "智慧的": 8003,
      "王的臣僕": 8004,
      "孩子的": 8005,
      "萬軍之耶和華說": 8006,
      "其中有": 8007,
      "任何東西": 8008,
      "第二年": 8009,
      "亞希米勒": 8010,
      "律例典章": 8011,
      "亞瑪撒": 8012,
      "所行的道": 8013,
      "追趕他們": 8014,
      "服事你": 8015,
      "歌唱的": 8016,
      "求問耶和華": 8017,
      "感謝上帝": 8018,
      "雕刻的偶像": 8019,
      "勞碌得來的": 8020,
      "有罪了": 8021,
      "伊法細麵": 8022,
      "舉目觀看": 8023,
      "馨香的火祭": 8024,
      "作我的子民": 8025,
      "親眼看見": 8026,
      "西珥山": 8027,
      "同獻的素祭和澆酒祭": 8028,
      "瑪基雅": 8029,
      "空中的飛鳥": 8030,
      "沒有留下一個": 8031,
      "歸榮耀給上帝": 8032,
      "哈沙比雅": 8033,
      "假冒為善": 8034,
      "阿拉伯": 8035,
      "幼發拉底河": 8036,
      "平平安安": 8037,
      "猶大列王記": 8038,
      "一夜": 8039,
      "上好的": 8040,
      "不同": 8041,
      "不安": 8042,
      "主耶和華說": 8043,
      "也被": 8044,
      "也未曾": 8045,
      "亙古": 8046,
      "人將": 8047,
      "人有": 8048,
      "人間": 8049,
      "人耶穌": 8050,
      "他以": 8051,
      "他那裏": 8052,
      "他已經": 8053,
      "以先": 8054,
      "仰賴": 8055,
      "但耶和華": 8056,
      "作他": 8057,
      "作素祭": 8058,
      "作平安祭": 8059,
      "你使": 8060,
      "你還": 8061,
      "你這裏": 8062,
      "來自": 8063,
      "來的人": 8064,
      "侵犯": 8065,
      "保守": 8066,
      "保障": 8067,
      "信他": 8068,
      "偉大": 8069,
      "內室": 8070,
      "六千": 8071,
      "凡血肉之軀": 8072,
      "分辨": 8073,
      "刺繡": 8074,
      "力氣": 8075,
      "勢力": 8076,
      "勸你們": 8077,
      "包括": 8078,
      "十肘": 8079,
      "受造": 8080,
      "受欺壓": 8081,
      "只能": 8082,
      "叫你們": 8083,
      "吃奶": 8084,
      "向那": 8085,
      "咆哮": 8086,
      "和水": 8087,
      "和官長": 8088,
      "哈難": 8089,
      "問候": 8090,
      "問他說": 8091,
      "園中": 8092,
      "在主": 8093,
      "在乎": 8094,
      "城堡": 8095,
      "基納": 8096,
      "大哭": 8097,
      "大而": 8098,
      "大軍": 8099,
      "如經上所記": 8100,
      "娼妓": 8101,
      "安排": 8102,
      "害你": 8103,
      "容忍": 8104,
      "小山羊": 8105,
      "山頂": 8106,
      "巖石": 8107,
      "已把": 8108,
      "帶了": 8109,
      "得撒": 8110,
      "從遠方": 8111,
      "復原": 8112,
      "必遭": 8113,
      "必受詛咒": 8114,
      "惱恨": 8115,
      "我不能": 8116,
      "我未曾": 8117,
      "所作": 8118,
      "所傳": 8119,
      "所結": 8120,
      "所剩下的": 8121,
      "所出的": 8122,
      "所應許的": 8123,
      "拉巴": 8124,
      "拉比": 8125,
      "拒絕": 8126,
      "拔示巴": 8127,
      "挑選": 8128,
      "挪移": 8129,
      "提到": 8130,
      "攻破": 8131,
      "教誨": 8132,
      "日出": 8133,
      "明亮": 8134,
      "是不潔淨的": 8135,
      "景況": 8136,
      "有這": 8137,
      "束上": 8138,
      "束腰": 8139,
      "東邊的": 8140,
      "枝條": 8141,
      "梅珥": 8142,
      "歸順": 8143,
      "死人的": 8144,
      "沒藥": 8145,
      "沙利": 8146,
      "河水": 8147,
      "河西": 8148,
      "沿海": 8149,
      "波浪": 8150,
      "注意": 8151,
      "洗巴": 8152,
      "派他": 8153,
      "海中": 8154,
      "準備": 8155,
      "滿心": 8156,
      "漏症": 8157,
      "激起": 8158,
      "烈的": 8159,
      "無賴": 8160,
      "無關": 8161,
      "照你的": 8162,
      "燒燬": 8163,
      "營裏": 8164,
      "父啊": 8165,
      "獨一": 8166,
      "王必": 8167,
      "瑪斯": 8168,
      "當耶和華": 8169,
      "瘸腿": 8170,
      "發昏": 8171,
      "的惡": 8172,
      "的母": 8173,
      "的祭": 8174,
      "的官長": 8175,
      "的東西": 8176,
      "盆座": 8177,
      "直通到": 8178,
      "相比": 8179,
      "真正": 8180,
      "私慾": 8181,
      "童女": 8182,
      "第七年": 8183,
      "米非": 8184,
      "索取": 8185,
      "給他的": 8186,
      "給祭司": 8187,
      "聽啊": 8188,
      "腰間": 8189,
      "葉子": 8190,
      "蔭下": 8191,
      "薛西": 8192,
      "處理": 8193,
      "表明": 8194,
      "被囚": 8195,
      "褥子": 8196,
      "西羅": 8197,
      "要求": 8198,
      "見自己": 8199,
      "親口": 8200,
      "設計": 8201,
      "詫異": 8202,
      "誰就": 8203,
      "譏誚": 8204,
      "負責": 8205,
      "走吧": 8206,
      "走迷": 8207,
      "跪拜": 8208,
      "路斯": 8209,
      "轉過來": 8210,
      "逃城": 8211,
      "造就": 8212,
      "遮掩": 8213,
      "選民": 8214,
      "邪惡的": 8215,
      "都因": 8216,
      "都當": 8217,
      "金合歡木": 8218,
      "鉤子": 8219,
      "銀幣": 8220,
      "長了": 8221,
      "附近": 8222,
      "降為": 8223,
      "除酵": 8224,
      "除非": 8225,
      "青蛙": 8226,
      "願你們": 8227,
      "首級": 8228,
      "騎上": 8229,
      "驅逐": 8230,
      "耶和華要": 8231,
      "耶和華對他說": 8232,
      "上帝對": 8233,
      "我們好": 8234,
      "我們該": 8235,
      "的人就": 8236,
      "我的榮耀": 8237,
      "我的眼睛": 8238,
      "你的弟兄": 8239,
      "你的仇敵": 8240,
      "你的眼睛": 8241,
      "因為你是": 8242,
      "他的榮耀": 8243,
      "他的產業": 8244,
      "耶穌那裏": 8245,
      "就是從": 8246,
      "就是你們": 8247,
      "就是上帝": 8248,
      "一個地方": 8249,
      "他們的罪孽": 8250,
      "知道我": 8251,
      "不可再": 8252,
      "不可用": 8253,
      "我要以": 8254,
      "你們的話": 8255,
      "求你救我脫離": 8256,
      "離開了": 8257,
      "在他旁邊": 8258,
      "支派的人": 8259,
      "以利以謝": 8260,
      "我所要": 8261,
      "平安地": 8262,
      "妻子的": 8263,
      "並且要": 8264,
      "並且生兒育女": 8265,
      "出去打仗的": 8266,
      "無論大小": 8267,
      "無論男女": 8268,
      "使他們在": 8269,
      "二十四": 8270,
      "免得他們": 8271,
      "以利亞實": 8272,
      "預備了": 8273,
      "給他們看": 8274,
      "還有所屬的村莊": 8275,
      "上來攻擊": 8276,
      "的一切器具": 8277,
      "主人說": 8278,
      "怎麼樣": 8279,
      "應當聽": 8280,
      "亞希突": 8281,
      "三十個": 8282,
      "差遣我": 8283,
      "一百肘": 8284,
      "使徒的": 8285,
      "天上的上帝": 8286,
      "愚昧人的": 8287,
      "以利沙瑪": 8288,
      "？』」": 8289,
      "眼中看為惡的事": 8290,
      "戰車長": 8291,
      "磐石上": 8292,
      "三個月": 8293,
      "領受的": 8294,
      "上所寫的": 8295,
      "歸給耶和華": 8296,
      "喜悅的": 8297,
      "我指著永生的耶和華起誓": 8298,
      "保護你": 8299,
      "側耳聽": 8300,
      "二萬五千": 8301,
      "一定要": 8302,
      "躺臥在": 8303,
      "行耶和華眼中看為正的事": 8304,
      "寫信給你們": 8305,
      "留心聽": 8306,
      "有些人": 8307,
      "十四日": 8308,
      "這地的百姓": 8309,
      "按手在": 8310,
      "凱撒利亞": 8311,
      "新酒和": 8312,
      "亞米拿達": 8313,
      "登基的時候年二十": 8314,
      "真實的": 8315,
      "剩餘的": 8316,
      "天空的": 8317,
      "亞達薛西": 8318,
      "包上金子": 8319,
      "宣佈他為": 8320,
      "遠遠地": 8321,
      "陷入罪裏的": 8322,
      "街市上": 8323,
      "夢的解釋": 8324,
      "亞羅珥": 8325,
      "米非波設": 8326,
      "一對": 8327,
      "一直": 8328,
      "上加": 8329,
      "不讓": 8330,
      "中沒有": 8331,
      "也可以": 8332,
      "乾涸": 8333,
      "亞利": 8334,
      "亞她": 8335,
      "交在我": 8336,
      "亭拿": 8337,
      "人作": 8338,
      "人聽見": 8339,
      "人一樣": 8340,
      "人名的": 8341,
      "他曾": 8342,
      "他與": 8343,
      "他沒有": 8344,
      "伸出來的": 8345,
      "何時": 8346,
      "你把": 8347,
      "你沒有": 8348,
      "使地": 8349,
      "俄斐": 8350,
      "做這些事": 8351,
      "偷竊": 8352,
      "償還": 8353,
      "充足": 8354,
      "其他": 8355,
      "凡二十歲以上": 8356,
      "出到": 8357,
      "切慕": 8358,
      "前去": 8359,
      "前往": 8360,
      "加略": 8361,
      "動了": 8362,
      "勝於": 8363,
      "十分": 8364,
      "半夜": 8365,
      "又使": 8366,
      "又有人": 8367,
      "受傷": 8368,
      "受過": 8369,
      "口裏": 8370,
      "各種": 8371,
      "同他": 8372,
      "向來": 8373,
      "和她的": 8374,
      "哈拉": 8375,
      "哈薩": 8376,
      "善事": 8377,
      "喧嚷": 8378,
      "嗎哪": 8379,
      "四散": 8380,
      "園戶": 8381,
      "在一處": 8382,
      "在基督裏": 8383,
      "基底": 8384,
      "基色": 8385,
      "大力": 8386,
      "失去": 8387,
      "她丈夫": 8388,
      "孚尼": 8389,
      "安放": 8390,
      "安穩": 8391,
      "完畢": 8392,
      "害他": 8393,
      "容許": 8394,
      "審問": 8395,
      "寬一肘": 8396,
      "就撕裂衣服": 8397,
      "山岡": 8398,
      "山谷": 8399,
      "帶進": 8400,
      "幾乎": 8401,
      "幾天": 8402,
      "建殿": 8403,
      "強盜": 8404,
      "往曠野": 8405,
      "得拉": 8406,
      "從地極": 8407,
      "心利": 8408,
      "心所": 8409,
      "意見": 8410,
      "愛你們": 8411,
      "懷了": 8412,
      "我用": 8413,
      "我見": 8414,
      "我從前": 8415,
      "所為": 8416,
      "所充滿": 8417,
      "打他": 8418,
      "把血": 8419,
      "把這事": 8420,
      "把它們": 8421,
      "抵押": 8422,
      "拉著": 8423,
      "招魂": 8424,
      "拿去": 8425,
      "掉落": 8426,
      "提多": 8427,
      "擔子": 8428,
      "收拾": 8429,
      "收藏": 8430,
      "文字": 8431,
      "斑點": 8432,
      "斷了": 8433,
      "日後": 8434,
      "是有": 8435,
      "是何等": 8436,
      "暗蘭": 8437,
      "曉得": 8438,
      "更大的": 8439,
      "朝東": 8440,
      "未到": 8441,
      "權杖": 8442,
      "止住": 8443,
      "殿役": 8444,
      "母羊": 8445,
      "求甚麼": 8446,
      "治好": 8447,
      "淨盡": 8448,
      "淫婦": 8449,
      "深信": 8450,
      "湧出": 8451,
      "澎湃": 8452,
      "為樂": 8453,
      "為我的": 8454,
      "烏撒": 8455,
      "無意": 8456,
      "無一人": 8457,
      "照例": 8458,
      "燒了": 8459,
      "燒滅": 8460,
      "理會": 8461,
      "甘甜": 8462,
      "生在": 8463,
      "百農": 8464,
      "的油": 8465,
      "的約": 8466,
      "的臉": 8467,
      "的兩個": 8468,
      "的手中": 8469,
      "的牲畜": 8470,
      "的產業": 8471,
      "的嘴唇": 8472,
      "的士兵": 8473,
      "的外人": 8474,
      "的士師": 8475,
      "直等到": 8476,
      "看他": 8477,
      "眾祭司": 8478,
      "石版": 8479,
      "示法": 8480,
      "稱呼": 8481,
      "立你作": 8482,
      "第六": 8483,
      "第雅": 8484,
      "米羅": 8485,
      "終結": 8486,
      "結出": 8487,
      "總是": 8488,
      "繼承": 8489,
      "缺少": 8490,
      "罪中": 8491,
      "罷特": 8492,
      "美物": 8493,
      "而又": 8494,
      "耶孚尼": 8495,
      "聖衣": 8496,
      "聯合": 8497,
      "肩上": 8498,
      "英勇": 8499,
      "蒙赦免": 8500,
      "衰殘": 8501,
      "被剪除": 8502,
      "裏有": 8503,
      "裝在": 8504,
      "要向": 8505,
      "設下": 8506,
      "誰是": 8507,
      "警衛": 8508,
      "讓你們": 8509,
      "賜他": 8510,
      "路的": 8511,
      "轉去": 8512,
      "迦百農": 8513,
      "逃往": 8514,
      "野狗": 8515,
      "金的": 8516,
      "開門": 8517,
      "陶匠": 8518,
      "離俗": 8519,
      "離去": 8520,
      "靈魂": 8521,
      "青翠": 8522,
      "非斯都": 8523,
      "領了": 8524,
      "額上": 8525,
      "香爐": 8526,
      "馬和": 8527,
      "騾子": 8528,
      "黎明": 8529,
      "黑門": 8530,
      "他們在那裏": 8531,
      "你們世世代代": 8532,
      "我們這裏": 8533,
      "我的面": 8534,
      "我的聖所": 8535,
      "你的地": 8536,
      "你的訓詞": 8537,
      "因為凡": 8538,
      "因為有": 8539,
      "他的作為": 8540,
      "他的軍隊": 8541,
      "一切的事": 8542,
      "他們的罪": 8543,
      "他們的神明": 8544,
      "這是在": 8545,
      "這些城鎮": 8546,
      "看見那": 8547,
      "自己的性命": 8548,
      "不是出於": 8549,
      "求你使我": 8550,
      "我必懲罰": 8551,
      "你們要把": 8552,
      "聽見這話": 8553,
      "所以耶和華": 8554,
      "所以你要": 8555,
      "也不會": 8556,
      "中的一個": 8557,
      "有人居住": 8558,
      "到了晚上": 8559,
      "在他頭上": 8560,
      "所有的仇敵": 8561,
      "住在其中": 8562,
      "潔淨的人": 8563,
      "有一萬二千": 8564,
      "做的是": 8565,
      "平安嗎": 8566,
      "我說話": 8567,
      "出去了": 8568,
      "仇敵面前": 8569,
      "怎樣待": 8570,
      "事奉它們": 8571,
      "在他們眼前": 8572,
      "免得你們": 8573,
      "的城門": 8574,
      "聽從他": 8575,
      "聽從耶和華": 8576,
      "預備好了": 8577,
      "外邦女子": 8578,
      "你的上帝必": 8579,
      "會眾中": 8580,
      "幫助我們": 8581,
      "會幕門口": 8582,
      "為業之地": 8583,
      "生了兒子": 8584,
      "亞瑪利雅": 8585,
      "與我一同": 8586,
      "既然我們": 8587,
      "為你名": 8588,
      "牠們的": 8589,
      "先前的": 8590,
      "戰車和": 8591,
      "有甚麼益處呢": 8592,
      "的居民哪": 8593,
      "異象中": 8594,
      "領受了": 8595,
      "有的說": 8596,
      "患難中": 8597,
      "四個翹角": 8598,
      "之人的手": 8599,
      "肉體的": 8600,
      "亞實基": 8601,
      "赤身露體": 8602,
      "大有能力": 8603,
      "是甚麼意思": 8604,
      "交在你手裏": 8605,
      "一無所": 8606,
      "擺設宴席": 8607,
      "的地業中": 8608,
      "一隻公山羊作贖罪祭": 8609,
      "朽壞的": 8610,
      "無可指責": 8611,
      "何烈山": 8612,
      "降為卑": 8613,
      "除酵節": 8614,
      "人名的數目": 8615,
      "一段": 8616,
      "一生的": 8617,
      "不以": 8618,
      "不及": 8619,
      "不多": 8620,
      "不說": 8621,
      "之人": 8622,
      "之年": 8623,
      "九百": 8624,
      "也為": 8625,
      "也能": 8626,
      "也知道": 8627,
      "乾了": 8628,
      "乾渴": 8629,
      "了的": 8630,
      "了你們": 8631,
      "了他們的": 8632,
      "亞勒": 8633,
      "享福": 8634,
      "人人": 8635,
      "人住在": 8636,
      "他名": 8637,
      "他吩咐": 8638,
      "他對他們說": 8639,
      "以此": 8640,
      "伊磯": 8641,
      "但你": 8642,
      "但上帝": 8643,
      "住在你": 8644,
      "佔據": 8645,
      "作對": 8646,
      "你了": 8647,
      "你上帝的": 8648,
      "你必不": 8649,
      "使他們的": 8650,
      "俄備": 8651,
      "做事": 8652,
      "停留": 8653,
      "像他": 8654,
      "僕役": 8655,
      "兩頭公牛": 8656,
      "八百": 8657,
      "冊上": 8658,
      "出聲": 8659,
      "分給他們": 8660,
      "到西": 8661,
      "到這裏來": 8662,
      "到如今": 8663,
      "加害": 8664,
      "勞動": 8665,
      "匹驢": 8666,
      "卻在": 8667,
      "又大": 8668,
      "受辱": 8669,
      "合花": 8670,
      "同坐": 8671,
      "吐唾沫": 8672,
      "吶喊": 8673,
      "呼召": 8674,
      "和崙": 8675,
      "和所": 8676,
      "和門徒": 8677,
      "和憤怒": 8678,
      "和王宮": 8679,
      "哥亞": 8680,
      "善的": 8681,
      "善良": 8682,
      "囚犯": 8683,
      "四角": 8684,
      "在城門": 8685,
      "在火中": 8686,
      "基述": 8687,
      "報償": 8688,
      "增長": 8689,
      "壇上的": 8690,
      "多得": 8691,
      "大拉": 8692,
      "大袞": 8693,
      "女婿": 8694,
      "她錄": 8695,
      "好使": 8696,
      "好使你們": 8697,
      "姊姊": 8698,
      "安得": 8699,
      "定為": 8700,
      "宣揚": 8701,
      "家和": 8702,
      "家中的": 8703,
      "容貌": 8704,
      "將它": 8705,
      "對僕人說": 8706,
      "小事": 8707,
      "小綿羊": 8708,
      "就向": 8709,
      "就不能": 8710,
      "就俯伏": 8711,
      "尼歌": 8712,
      "屋子裏": 8713,
      "工錢": 8714,
      "巴西萊": 8715,
      "帶出來": 8716,
      "帶兵器": 8717,
      "常存": 8718,
      "座位": 8719,
      "廂房": 8720,
      "廢掉": 8721,
      "得很": 8722,
      "得起": 8723,
      "從那": 8724,
      "心靈": 8725,
      "快快": 8726,
      "情面": 8727,
      "想念": 8728,
      "愚蒙": 8729,
      "應得的": 8730,
      "懲治": 8731,
      "懷裏": 8732,
      "我向你": 8733,
      "或有": 8734,
      "所在": 8735,
      "所定": 8736,
      "所說": 8737,
      "所應許": 8738,
      "所發的": 8739,
      "手來": 8740,
      "才是": 8741,
      "拜他": 8742,
      "拜偶像": 8743,
      "拿順": 8744,
      "捆鎖": 8745,
      "接近": 8746,
      "擄到": 8747,
      "收的": 8748,
      "攻取了": 8749,
      "敗在": 8750,
      "斑鳩": 8751,
      "方法": 8752,
      "昏花": 8753,
      "是的": 8754,
      "是為了": 8755,
      "暴力": 8756,
      "更改": 8757,
      "曾在": 8758,
      "東風": 8759,
      "枉然": 8760,
      "歌珊": 8761,
      "歪曲": 8762,
      "歸向我": 8763,
      "殷勤": 8764,
      "每人": 8765,
      "比珥": 8766,
      "毗珥": 8767,
      "水就": 8768,
      "求耶穌": 8769,
      "沙得拉": 8770,
      "洗革拉": 8771,
      "活人之地": 8772,
      "清晨": 8773,
      "溫柔": 8774,
      "為首": 8775,
      "為人所": 8776,
      "為供物": 8777,
      "照你": 8778,
      "爬行": 8779,
      "王國": 8780,
      "王若": 8781,
      "王萬歲": 8782,
      "班的": 8783,
      "男孩": 8784,
      "畏懼": 8785,
      "疑惑": 8786,
      "發芽": 8787,
      "發誓": 8788,
      "百合花": 8789,
      "的啊": 8790,
      "的世代": 8791,
      "的軍兵": 8792,
      "的兩個兒子": 8793,
      "盤子": 8794,
      "相信": 8795,
      "相對": 8796,
      "眾兒子": 8797,
      "睚珥": 8798,
      "硫磺": 8799,
      "碟子": 8800,
      "禮服": 8801,
      "稀少": 8802,
      "穀物": 8803,
      "穗子": 8804,
      "笑柄": 8805,
      "籌算": 8806,
      "米煞": 8807,
      "精緻": 8808,
      "約拿達": 8809,
      "純潔": 8810,
      "總管": 8811,
      "而生": 8812,
      "聖會": 8813,
      "聚會": 8814,
      "腳掌": 8815,
      "與人": 8816,
      "與基督": 8817,
      "若在": 8818,
      "落空": 8819,
      "蒙了": 8820,
      "被接": 8821,
      "要給": 8822,
      "要知道": 8823,
      "規條": 8824,
      "該死": 8825,
      "說方言": 8826,
      "譏笑": 8827,
      "跑到": 8828,
      "跟著他": 8829,
      "躺下": 8830,
      "辦事": 8831,
      "迅速": 8832,
      "送他": 8833,
      "逃走": 8834,
      "這書": 8835,
      "過去了": 8836,
      "道上": 8837,
      "那是": 8838,
      "邦國": 8839,
      "部分": 8840,
      "醉酒": 8841,
      "醒了": 8842,
      "重量": 8843,
      "金器": 8844,
      "鐮刀": 8845,
      "鑄成的": 8846,
      "長的": 8847,
      "雙手": 8848,
      "面貌": 8849,
      "領我們": 8850,
      "飲酒": 8851,
      "香壇": 8852,
      "馬大": 8853,
      "點燈": 8854,
      "點鐘": 8855,
      "他們要在": 8856,
      "你們倒": 8857,
      "你們還": 8858,
      "耶和華從": 8859,
      "耶和華曾": 8860,
      "耶和華怎樣": 8861,
      "耶和華殿裏": 8862,
      "我們主耶穌基督的": 8863,
      "的人是": 8864,
      "的人手中": 8865,
      "我的約": 8866,
      "我的羊": 8867,
      "我的安息日": 8868,
      "我的弟兄們": 8869,
      "你的腳": 8870,
      "因為沒有": 8871,
      "他的腳": 8872,
      "就是他們": 8873,
      "這樣看來": 8874,
      "上帝的榮耀": 8875,
      "不是從": 8876,
      "直到如今": 8877,
      "你們要將": 8878,
      "基督是": 8879,
      "一樣的": 8880,
      "也不得": 8881,
      "以及他的": 8882,
      "賜給我們的": 8883,
      "有一隻": 8884,
      "有一件事": 8885,
      "亞伯尼歌": 8886,
      "的子孫有": 8887,
      "的子孫中有": 8888,
      "我所做的": 8889,
      "心裏的": 8890,
      "在耶和華殿的": 8891,
      "免得我": 8892,
      "作為搖祭": 8893,
      "裏的水": 8894,
      "認識他": 8895,
      "認識我": 8896,
      "禱告說": 8897,
      "拯救我們": 8898,
      "坐在我的": 8899,
      "藉著他": 8900,
      "為我名": 8901,
      "敬畏你": 8902,
      "幫助你": 8903,
      "無人能": 8904,
      "他是我的": 8905,
      "回來了": 8906,
      "被擄到": 8907,
      "怎麼能": 8908,
      "亞希瑪斯": 8909,
      "指示你": 8910,
      "差遣使者": 8911,
      "死亡的": 8912,
      "五十夫長": 8913,
      "希伯倫": 8914,
      "與我同在": 8915,
      "城鎮和": 8916,
      "到我這裏": 8917,
      "官長和": 8918,
      "堅固的城": 8919,
      "羊群中": 8920,
      "向他顯現": 8921,
      "滅絕他們": 8922,
      "滅亡了": 8923,
      "尼布撒拉": 8924,
      "的眾長老": 8925,
      "回去吧": 8926,
      "亞摩斯": 8927,
      "的路程": 8928,
      "法利賽人和": 8929,
      "三個勇士": 8930,
      "耶和華的殿中": 8931,
      "細麻衣": 8932,
      "拆毀了": 8933,
      "側耳聽我的": 8934,
      "遠離我": 8935,
      "燈臺的": 8936,
      "的各族": 8937,
      "應驗了": 8938,
      "軟弱的": 8939,
      "約雅斤": 8940,
      "二萬四千人": 8941,
      "橄欖山": 8942,
      "百姓中剪除": 8943,
      "往前走": 8944,
      "痲瘋病": 8945,
      "在會幕裏": 8946,
      "我父啊": 8947,
      "甚麼事呢": 8948,
      "修造的是": 8949,
      "經上說": 8950,
      "這麼做": 8951,
      "獻燔祭和": 8952,
      "與她同寢": 8953,
      "彼此相愛": 8954,
      "甘心祭": 8955,
      "米利暗": 8956,
      "回自己的帳棚": 8957,
      "的一份": 8958,
      "亞斯她錄": 8959,
      "廣場上": 8960,
      "瑪他尼": 8961,
      "傳遍了": 8962,
      "歸耶和華為聖": 8963,
      "自高自大": 8964,
      "從東到西": 8965,
      "釘在十字架上": 8966,
      "有一大群人": 8967,
      "經常獻的燔祭": 8968,
      "隱密處": 8969,
      "生養眾多": 8970,
      "臨產的婦人": 8971,
      "西拿基立": 8972,
      "輕易發怒": 8973,
      "二萬五千肘": 8974,
      "亞她利雅": 8975,
      "凡二十歲以上能": 8976,
      "伊磯倫": 8977,
      "俄備得": 8978,
      "尼布撒拉旦": 8979,
      "』。": 8980,
      "一搖": 8981,
      "一隊": 8982,
      "不久": 8983,
      "不受": 8984,
      "不屬": 8985,
      "不願": 8986,
      "中午": 8987,
      "之主": 8988,
      "之民": 8989,
      "之財": 8990,
      "九十": 8991,
      "也無": 8992,
      "也當": 8993,
      "也死了": 8994,
      "也照樣": 8995,
      "井裏": 8996,
      "亞干": 8997,
      "交出來": 8998,
      "交給他": 8999,
      "人們": 9000,
      "人對": 9001,
      "人手中": 9002,
      "今夜": 9003,
      "他叫": 9004,
      "他僕人": 9005,
      "他行耶和華眼中看為惡的事": 9006,
      "以諾": 9007,
      "以刺繡": 9008,
      "但現在": 9009,
      "作祭司": 9010,
      "你雖": 9011,
      "你百姓": 9012,
      "你起來": 9013,
      "你今日": 9014,
      "你都要": 9015,
      "你使我": 9016,
      "你只管": 9017,
      "使百姓": 9018,
      "來吃": 9019,
      "信靠": 9020,
      "個個": 9021,
      "假見證": 9022,
      "像你": 9023,
      "允許": 9024,
      "兇暴": 9025,
      "兩旁": 9026,
      "兩端": 9027,
      "再三": 9028,
      "出城": 9029,
      "分成": 9030,
      "別人的": 9031,
      "到自己": 9032,
      "到曠野": 9033,
      "刺透": 9034,
      "刻苦": 9035,
      "加利亞": 9036,
      "卑賤": 9037,
      "受害": 9038,
      "司提": 9039,
      "同來": 9040,
      "向它": 9041,
      "和長老": 9042,
      "和各樣": 9043,
      "和搓的細麻": 9044,
      "商人": 9045,
      "喝醉": 9046,
      "因他們的": 9047,
      "因這事": 9048,
      "國中的": 9049,
      "在一切": 9050,
      "在上帝的": 9051,
      "在自己的": 9052,
      "在法老": 9053,
      "在聖所": 9054,
      "在萬民中": 9055,
      "地要": 9056,
      "坦業": 9057,
      "城樓": 9058,
      "夏天": 9059,
      "多麼": 9060,
      "大尼": 9061,
      "大旗": 9062,
      "妝飾": 9063,
      "安居": 9064,
      "宣讀": 9065,
      "實行": 9066,
      "對岸": 9067,
      "對抗": 9068,
      "就這樣": 9069,
      "就非常": 9070,
      "尼波": 9071,
      "尾巴": 9072,
      "幔子的": 9073,
      "年間": 9074,
      "底座": 9075,
      "待你": 9076,
      "得平安": 9077,
      "得赦免": 9078,
      "怒中": 9079,
      "思念": 9080,
      "情況": 9081,
      "惡言": 9082,
      "惡道": 9083,
      "惹耶和華": 9084,
      "憎惡的": 9085,
      "懷中": 9086,
      "我這": 9087,
      "我雖": 9088,
      "我卻不": 9089,
      "我對你們": 9090,
      "戰戰兢": 9091,
      "戲弄": 9092,
      "把守": 9093,
      "抹在": 9094,
      "招聚": 9095,
      "拿坦業": 9096,
      "提哥亞": 9097,
      "搖一搖": 9098,
      "撒都": 9099,
      "擘開": 9100,
      "敗落": 9101,
      "易多": 9102,
      "有力": 9103,
      "有名": 9104,
      "有四": 9105,
      "木匠": 9106,
      "本城": 9107,
      "本為善": 9108,
      "杜頓": 9109,
      "柱子的": 9110,
      "欺負": 9111,
      "歌革": 9112,
      "歸你": 9113,
      "歸給他": 9114,
      "殺他們": 9115,
      "母腹": 9116,
      "毫不": 9117,
      "水泉": 9118,
      "求他": 9119,
      "沿著": 9120,
      "法術": 9121,
      "泥土": 9122,
      "派遣": 9123,
      "海的": 9124,
      "深入": 9125,
      "漫過": 9126,
      "為祭": 9127,
      "為他的": 9128,
      "為他所": 9129,
      "燃燒": 9130,
      "父家的": 9131,
      "獻澆酒祭": 9132,
      "王從": 9133,
      "瑣巴": 9134,
      "瑪拉": 9135,
      "瓦器": 9136,
      "用鐵": 9137,
      "用銀子": 9138,
      "由此": 9139,
      "留到早晨": 9140,
      "當夜": 9141,
      "疥瘡": 9142,
      "白天": 9143,
      "白日": 9144,
      "的刀": 9145,
      "的院": 9146,
      "的命令": 9147,
      "的對面": 9148,
      "的根基": 9149,
      "的弟弟": 9150,
      "眼看": 9151,
      "眾弟兄": 9152,
      "瞭望": 9153,
      "祝謝": 9154,
      "空中": 9155,
      "空地": 9156,
      "第五": 9157,
      "築壇": 9158,
      "籃子": 9159,
      "精明": 9160,
      "約在": 9161,
      "約帕": 9162,
      "給我的": 9163,
      "給百姓": 9164,
      "給別人": 9165,
      "罩棚": 9166,
      "美地": 9167,
      "羚羊": 9168,
      "群羊": 9169,
      "耶歇": 9170,
      "耶羅": 9171,
      "耶杜頓": 9172,
      "聽的": 9173,
      "肥沃": 9174,
      "能夠": 9175,
      "至大": 9176,
      "與那": 9177,
      "船上": 9178,
      "良善": 9179,
      "融化": 9180,
      "行動": 9181,
      "行邪術": 9182,
      "被火焚燒": 9183,
      "被定罪": 9184,
      "要去": 9185,
      "要往": 9186,
      "要看": 9187,
      "要攻打": 9188,
      "見你": 9189,
      "見識": 9190,
      "記在": 9191,
      "誤殺人的": 9192,
      "說甚麼": 9193,
      "調了": 9194,
      "證人": 9195,
      "證據": 9196,
      "警告": 9197,
      "財產": 9198,
      "責打": 9199,
      "責罰": 9200,
      "貴重的": 9201,
      "買了": 9202,
      "賙濟": 9203,
      "走來": 9204,
      "超乎": 9205,
      "超過": 9206,
      "追念": 9207,
      "這孩子": 9208,
      "這福音": 9209,
      "通往": 9210,
      "運到": 9211,
      "過了一": 9212,
      "那國": 9213,
      "那罪": 9214,
      "都告訴": 9215,
      "重軛": 9216,
      "量的": 9217,
      "金碟子": 9218,
      "鋪張": 9219,
      "鏈子": 9220,
      "鑄造": 9221,
      "門前": 9222,
      "門檻": 9223,
      "阿荷": 9224,
      "降下來": 9225,
      "陷在": 9226,
      "陷阱": 9227,
      "隔絕": 9228,
      "隔離": 9229,
      "雅弗": 9230,
      "雅謝": 9231,
      "離你": 9232,
      "青草": 9233,
      "面對面": 9234,
      "頌揚": 9235,
      "頭巾": 9236,
      "高位": 9237,
      "高聲": 9238,
      "他們如": 9239,
      "他們沒有": 9240,
      "他們列祖的上帝": 9241,
      "你們為": 9242,
      "你們上帝的": 9243,
      "你們應當": 9244,
      "耶和華上帝": 9245,
      "上帝要": 9246,
      "我們都": 9247,
      "我們中間": 9248,
      "我們不能": 9249,
      "的人在": 9250,
      "的人面前": 9251,
      "你的性命": 9252,
      "你的右手": 9253,
      "因為你必": 9254,
      "他的是": 9255,
      "他的臣僕": 9256,
      "那裏的": 9257,
      "耶穌是": 9258,
      "他們的父親": 9259,
      "他們的名字": 9260,
      "知道了": 9261,
      "耶和華的祭司": 9262,
      "不可在": 9263,
      "我要使你": 9264,
      "的事務": 9265,
      "耶路巴力": 9266,
      "不要讓": 9267,
      "不要害怕": 9268,
      "你要在": 9269,
      "自己的身體": 9270,
      "不是為": 9271,
      "聽見他": 9272,
      "聽見這些話": 9273,
      "他們說話": 9274,
      "我們的主耶穌基督": 9275,
      "到了早晨": 9276,
      "不能再": 9277,
      "許多國家": 9278,
      "有一天": 9279,
      "女兒們": 9280,
      "一切的話": 9281,
      "把他從": 9282,
      "無論誰": 9283,
      "萬軍之上帝": 9284,
      "萬軍之耶和華的": 9285,
      "免得有人": 9286,
      "以利亞敬": 9287,
      "他所行的": 9288,
      "裏面的": 9289,
      "禱告的時候": 9290,
      "至於你": 9291,
      "拯救你": 9292,
      "天使說": 9293,
      "上去攻打": 9294,
      "詛咒的": 9295,
      "遵守他的": 9296,
      "三十歲": 9297,
      "五十人": 9298,
      "正直人": 9299,
      "列祖起誓": 9300,
      "地上的走獸": 9301,
      "城裏的人": 9302,
      "詭詐的": 9303,
      "以斯哈": 9304,
      "到你這裏來": 9305,
      "以弗得的": 9306,
      "隨從別神": 9307,
      "耶和華所吩咐的": 9308,
      "撒拉鐵": 9309,
      "救贖主": 9310,
      "呼求耶和華": 9311,
      "一座壇": 9312,
      "站立不住": 9313,
      "向你們問安": 9314,
      "山區的": 9315,
      "耶大雅": 9316,
      "我曾說": 9317,
      "與我們同在": 9318,
      "呼叫說": 9319,
      "祭司的職分": 9320,
      "改變心意": 9321,
      "另一邊": 9322,
      "所做的一切事": 9323,
      "的女子啊": 9324,
      "不住地": 9325,
      "奇妙的作為": 9326,
      "口中的言語": 9327,
      "貧寒人": 9328,
      "交在你手中": 9329,
      "豐富的": 9330,
      "盡心盡性": 9331,
      "盛滿了香": 9332,
      "地府的人": 9333,
      "耶和華的怒氣向": 9334,
      "看得見": 9335,
      "這也是虛空": 9336,
      "和跟隨他的": 9337,
      "當得的份": 9338,
      "出母胎": 9339,
      "睡著了": 9340,
      "放聲大哭": 9341,
      "瘸腿的": 9342,
      "陷入罪裏的那罪": 9343,
      "示法提雅": 9344,
      "安得烈": 9345,
      "凡二十歲以上能出去打仗的": 9346,
      "以刺繡的手藝": 9347,
      "戰戰兢兢": 9348,
      "撒都該": 9349,
      "一份": 9350,
      "上和": 9351,
      "上山": 9352,
      "上門": 9353,
      "下雨": 9354,
      "下陰間": 9355,
      "不停": 9356,
      "不准": 9357,
      "不該": 9358,
      "不論": 9359,
      "不生育": 9360,
      "不輕易發怒": 9361,
      "並有": 9362,
      "之先": 9363,
      "之道": 9364,
      "也無人": 9365,
      "乾地": 9366,
      "二肘": 9367,
      "亞甲": 9368,
      "人手裏": 9369,
      "人聽了": 9370,
      "今世": 9371,
      "他班": 9372,
      "他都": 9373,
      "他雖": 9374,
      "他所有的": 9375,
      "以便": 9376,
      "以得": 9377,
      "伏兵": 9378,
      "但在": 9379,
      "住他": 9380,
      "作全": 9381,
      "作他的": 9382,
      "作先知": 9383,
      "作奴隸": 9384,
      "你父": 9385,
      "你那裏": 9386,
      "你脫離": 9387,
      "佳美的": 9388,
      "來往": 9389,
      "來說": 9390,
      "來跟從我": 9391,
      "保佑": 9392,
      "停在": 9393,
      "健全": 9394,
      "內衣": 9395,
      "全境": 9396,
      "六日": 9397,
      "分享": 9398,
      "利瑪利": 9399,
      "加倍": 9400,
      "十一": 9401,
      "千萬": 9402,
      "印記": 9403,
      "又到": 9404,
      "又要把": 9405,
      "反對": 9406,
      "取一": 9407,
      "只可": 9408,
      "只有一位": 9409,
      "各歸": 9410,
      "吉多": 9411,
      "向人": 9412,
      "向北": 9413,
      "向天": 9414,
      "向別神": 9415,
      "吞噬": 9416,
      "否則": 9417,
      "和好": 9418,
      "和屬": 9419,
      "哈嫩": 9420,
      "哈抹": 9421,
      "啞巴": 9422,
      "喝這": 9423,
      "四境": 9424,
      "四肘": 9425,
      "四分之一": 9426,
      "回報": 9427,
      "因我的": 9428,
      "國民": 9429,
      "圍攻": 9430,
      "在耶和華的": 9431,
      "在審判": 9432,
      "在家裏": 9433,
      "在基督耶穌裏": 9434,
      "地的時候": 9435,
      "執事": 9436,
      "基業": 9437,
      "報血": 9438,
      "壯丁": 9439,
      "大國": 9440,
      "奉到": 9441,
      "奉差遣": 9442,
      "奉我的名": 9443,
      "她是": 9444,
      "威嚇": 9445,
      "它就": 9446,
      "定要": 9447,
      "就來": 9448,
      "就能": 9449,
      "就出來": 9450,
      "就來到": 9451,
      "就給他": 9452,
      "就不潔淨": 9453,
      "尼陀": 9454,
      "巴施": 9455,
      "底璧": 9456,
      "形的": 9457,
      "往來": 9458,
      "很快": 9459,
      "得自由": 9460,
      "得不著": 9461,
      "從她": 9462,
      "復興": 9463,
      "徹底": 9464,
      "心存": 9465,
      "忠誠": 9466,
      "愛你": 9467,
      "愛子": 9468,
      "愛耶和華": 9469,
      "我了": 9470,
      "我問": 9471,
      "我豈": 9472,
      "我還": 9473,
      "我這裏": 9474,
      "我為你們": 9475,
      "我對你們說": 9476,
      "戒指": 9477,
      "或被": 9478,
      "戶篩": 9479,
      "房頂": 9480,
      "所做": 9481,
      "所剩": 9482,
      "所愛的": 9483,
      "所遭遇": 9484,
      "抗拒": 9485,
      "抬到": 9486,
      "拉麥": 9487,
      "拉上來": 9488,
      "拔出來": 9489,
      "拿出": 9490,
      "拿走": 9491,
      "拿你的": 9492,
      "拿盾牌": 9493,
      "收取": 9494,
      "攻城": 9495,
      "放縱": 9496,
      "救活": 9497,
      "散佈": 9498,
      "施捨": 9499,
      "旗幟": 9500,
      "是一個": 9501,
      "是先知": 9502,
      "更好": 9503,
      "有益": 9504,
      "有信心": 9505,
      "松樹": 9506,
      "桌子": 9507,
      "榮美": 9508,
      "橛子": 9509,
      "欣嫩": 9510,
      "歸向": 9511,
      "歸給你們": 9512,
      "殺滅": 9513,
      "母獅": 9514,
      "每個人": 9515,
      "氾濫": 9516,
      "沉淪": 9517,
      "沙漠": 9518,
      "洗德": 9519,
      "洗濯": 9520,
      "流無辜": 9521,
      "消逝": 9522,
      "減輕": 9523,
      "溪水": 9524,
      "火裏": 9525,
      "為一": 9526,
      "為百姓": 9527,
      "烏西": 9528,
      "烏鴉": 9529,
      "照管": 9530,
      "燒盡": 9531,
      "片時": 9532,
      "牽來": 9533,
      "王把": 9534,
      "王要": 9535,
      "王的兒子": 9536,
      "王對他說": 9537,
      "王如此說": 9538,
      "班長": 9539,
      "生物": 9540,
      "用油": 9541,
      "用火": 9542,
      "用這": 9543,
      "用石頭打死": 9544,
      "用大能的手": 9545,
      "田地的": 9546,
      "由他": 9547,
      "由於": 9548,
      "男的": 9549,
      "當你們": 9550,
      "的外": 9551,
      "的洗": 9552,
      "的類": 9553,
      "的四圍": 9554,
      "的福音": 9555,
      "的宗族": 9556,
      "的意思": 9557,
      "的十分之一": 9558,
      "的後代": 9559,
      "的房間": 9560,
      "的恩賜": 9561,
      "皮料": 9562,
      "盡是": 9563,
      "眼中的": 9564,
      "碎屑": 9565,
      "稱他們為": 9566,
      "穩固": 9567,
      "穿越": 9568,
      "站在那裏": 9569,
      "等我": 9570,
      "節制": 9571,
      "米吉多": 9572,
      "粉碎": 9573,
      "細基利": 9574,
      "結盟": 9575,
      "絕不會": 9576,
      "群聚": 9577,
      "而來的": 9578,
      "聽過": 9579,
      "聽我的話": 9580,
      "聽不見": 9581,
      "脫下": 9582,
      "脫去": 9583,
      "腳趾": 9584,
      "自取": 9585,
      "自古": 9586,
      "至終": 9587,
      "至聖": 9588,
      "至親": 9589,
      "與王": 9590,
      "苦工": 9591,
      "苦楚": 9592,
      "華美": 9593,
      "蒙著": 9594,
      "要作": 9595,
      "要做": 9596,
      "要像": 9597,
      "要害": 9598,
      "要死": 9599,
      "要在那裏": 9600,
      "見王": 9601,
      "見你們": 9602,
      "親愛": 9603,
      "誇大": 9604,
      "認得": 9605,
      "誓言": 9606,
      "誰的": 9607,
      "調油的細麵": 9608,
      "豈會": 9609,
      "豈不知道": 9610,
      "象牙": 9611,
      "買賣": 9612,
      "走到": 9613,
      "起程": 9614,
      "跟他們": 9615,
      "轉意": 9616,
      "這位": 9617,
      "這時候": 9618,
      "遍滿": 9619,
      "過節": 9620,
      "邊上": 9621,
      "都從": 9622,
      "野地": 9623,
      "銀器": 9624,
      "門扇": 9625,
      "關乎": 9626,
      "隨時": 9627,
      "隻羊": 9628,
      "頒佈": 9629,
      "領出來的": 9630,
      "願我的": 9631,
      "餅來": 9632,
      "餓了": 9633,
      "高山": 9634,
      "鬼魔": 9635,
      "鼓瑟": 9636,
      "他們被": 9637,
      "他們彼此": 9638,
      "你們有": 9639,
      "你們的人": 9640,
      "你們不是": 9641,
      "耶和華卻": 9642,
      "耶和華又": 9643,
      "上帝使": 9644,
      "我們上帝": 9645,
      "我們不知道": 9646,
      "的人身上": 9647,
      "我的命": 9648,
      "我的眼": 9649,
      "我的兄弟": 9650,
      "你的律例": 9651,
      "耶穌對她說": 9652,
      "就是他": 9653,
      "就是你的": 9654,
      "百姓從": 9655,
      "百姓中的": 9656,
      "一個也沒有": 9657,
      "他們的行為": 9658,
      "知道你": 9659,
      "知道自己": 9660,
      "耶和華的榮耀": 9661,
      "不可以": 9662,
      "我要把你": 9663,
      "所有在": 9664,
      "你要把": 9665,
      "你們要對": 9666,
      "你們要從": 9667,
      "如此行": 9668,
      "我們的父": 9669,
      "現在你們要": 9670,
      "也不致": 9671,
      "也不知道": 9672,
      "在你我": 9673,
      "在你前面": 9674,
      "那些先知": 9675,
      "所有的脂肪": 9676,
      "所有的男丁": 9677,
      "住在地上": 9678,
      "在我這裏": 9679,
      "在我眼前": 9680,
      "律法和": 9681,
      "王的手中": 9682,
      "也要這樣": 9683,
      "仇敵和": 9684,
      "仇敵的": 9685,
      "這事上": 9686,
      "把他帶到": 9687,
      "亞比拿達": 9688,
      "脫離我的手": 9689,
      "事奉我的": 9690,
      "的是誰呢": 9691,
      "十二歲": 9692,
      "必不致": 9693,
      "牲畜的": 9694,
      "憐憫他們": 9695,
      "坐在寶座上": 9696,
      "一隻一歲的小公羊": 9697,
      "的一切事": 9698,
      "在耶和華面前搖一搖": 9699,
      "長老和": 9700,
      "與他一同": 9701,
      "會幕的門口": 9702,
      "照著宗族": 9703,
      "與你交": 9704,
      "人中有": 9705,
      "前來攻擊": 9706,
      "被擄歸回": 9707,
      "把他們交在": 9708,
      "怎麼會": 9709,
      "怎麼辦": 9710,
      "其餘的人": 9711,
      "你就可以": 9712,
      "讚美你": 9713,
      "義人必": 9714,
      "刀劍臨到": 9715,
      "羊群牛群": 9716,
      "天上的萬象": 9717,
      "災禍臨到": 9718,
      "逃跑了": 9719,
      "敬拜上帝": 9720,
      "第三日": 9721,
      "第三次": 9722,
      "的眾兒子": 9723,
      "以弗崙": 9724,
      "上所寫": 9725,
      "為他們祝福": 9726,
      "祭司要檢查": 9727,
      "得罪了耶和華": 9728,
      "驕傲的人": 9729,
      "到你們這裏來": 9730,
      "選擇的地方": 9731,
      "荊棘和": 9732,
      "枯乾了": 9733,
      "聖徒的": 9734,
      "純金的": 9735,
      "來見我": 9736,
      "來見耶穌": 9737,
      "剩下的人": 9738,
      "確實知道": 9739,
      "說了這話": 9740,
      "回家去": 9741,
      "初熟的": 9742,
      "帶他到": 9743,
      "第四年": 9744,
      "守望者": 9745,
      "急難中": 9746,
      "硬著心": 9747,
      "再沒有別的": 9748,
      "在位的時候": 9749,
      "兩塊石版": 9750,
      "在世的日子": 9751,
      "正如耶和華所說的": 9752,
      "用水洗澡": 9753,
      "瑪哈念": 9754,
      "亞嫩河": 9755,
      "弓箭手": 9756,
      "成群的": 9757,
      "支搭帳棚": 9758,
      "這是甚麼意思": 9759,
      "大而可畏": 9760,
      "怎麼樣呢": 9761,
      "伸出來的膀臂": 9762,
      "無意中": 9763,
      "亞實基倫": 9764,
      "爬行動物": 9765,
      "報血仇": 9766,
      "尼陀法": 9767,
      "巴施戶珥": 9768,
      "的類群": 9769,
      "一為": 9770,
      "七位天使": 9771,
      "三名": 9772,
      "三座城": 9773,
      "上路": 9774,
      "下午": 9775,
      "不去": 9776,
      "不把": 9777,
      "中剪除": 9778,
      "之久": 9779,
      "之父": 9780,
      "乾淨": 9781,
      "二位": 9782,
      "五萬": 9783,
      "五分之一": 9784,
      "些日子": 9785,
      "亞弗": 9786,
      "亞革": 9787,
      "交出": 9788,
      "交合": 9789,
      "交在你們": 9790,
      "人用": 9791,
      "人被": 9792,
      "人來到": 9793,
      "仇恨": 9794,
      "他泊": 9795,
      "他可以": 9796,
      "他發怒": 9797,
      "以惡": 9798,
      "以笏": 9799,
      "伯大尼": 9800,
      "低頭": 9801,
      "你又": 9802,
      "你將": 9803,
      "你被": 9804,
      "你吩咐": 9805,
      "你一切的": 9806,
      "供應": 9807,
      "侮辱": 9808,
      "俊美": 9809,
      "俗語": 9810,
      "假誓": 9811,
      "做夢": 9812,
      "偷盜": 9813,
      "傍晚": 9814,
      "催逼": 9815,
      "像從前": 9816,
      "元年": 9817,
      "全地的": 9818,
      "兩天": 9819,
      "八年": 9820,
      "共四": 9821,
      "凡摸": 9822,
      "出征": 9823,
      "出戰": 9824,
      "出自": 9825,
      "判決": 9826,
      "別樣": 9827,
      "利合": 9828,
      "利巴": 9829,
      "到王那裏": 9830,
      "前行": 9831,
      "努力": 9832,
      "勉強": 9833,
      "十舍客勒的": 9834,
      "卻把": 9835,
      "去告訴": 9836,
      "去攻打": 9837,
      "又叫": 9838,
      "又派": 9839,
      "叫我們": 9840,
      "可怕": 9841,
      "可靠": 9842,
      "吃肉": 9843,
      "同時": 9844,
      "向著": 9845,
      "和所有的": 9846,
      "和公義": 9847,
      "哥尼雅": 9848,
      "哪一": 9849,
      "啊哈": 9850,
      "四周圍": 9851,
      "土利": 9852,
      "在耶穌": 9853,
      "在全地": 9854,
      "在患難": 9855,
      "在床上": 9856,
      "在肩上": 9857,
      "地必": 9858,
      "地領出來": 9859,
      "基多": 9860,
      "基達": 9861,
      "基低斯": 9862,
      "堅持": 9863,
      "塊地": 9864,
      "多日": 9865,
      "多有": 9866,
      "多馬": 9867,
      "大腿": 9868,
      "天父": 9869,
      "奉耶和華的名": 9870,
      "好處": 9871,
      "好話": 9872,
      "如在": 9873,
      "嫩枝": 9874,
      "孝敬": 9875,
      "守住": 9876,
      "安放在": 9877,
      "完成了": 9878,
      "家去": 9879,
      "密的": 9880,
      "將有": 9881,
      "尋得": 9882,
      "尋不著": 9883,
      "對法老說": 9884,
      "就回": 9885,
      "就算": 9886,
      "就不再": 9887,
      "就起身": 9888,
      "工匠": 9889,
      "巧匠": 9890,
      "希弗": 9891,
      "帶隊": 9892,
      "常有": 9893,
      "幔利": 9894,
      "年歲": 9895,
      "庇太": 9896,
      "底但": 9897,
      "廊子": 9898,
      "張口": 9899,
      "彼土利": 9900,
      "待他們": 9901,
      "後的": 9902,
      "得知": 9903,
      "得飽足": 9904,
      "從起初": 9905,
      "必像": 9906,
      "必永遠": 9907,
      "恩慈": 9908,
      "愛惜": 9909,
      "慕拿": 9910,
      "懊悔": 9911,
      "我正": 9912,
      "我被": 9913,
      "我自己": 9914,
      "我不再": 9915,
      "我先前": 9916,
      "我豈不": 9917,
      "我豈能": 9918,
      "我怎能": 9919,
      "房角": 9920,
      "所當": 9921,
      "所立": 9922,
      "所事奉": 9923,
      "手頭": 9924,
      "扶助": 9925,
      "找不著": 9926,
      "把手": 9927,
      "把他們的": 9928,
      "把衣服": 9929,
      "抬起頭": 9930,
      "抹大拉": 9931,
      "接過來": 9932,
      "搖動": 9933,
      "撒刻": 9934,
      "撒慕拿": 9935,
      "放在他": 9936,
      "救出來": 9937,
      "於我": 9938,
      "族人": 9939,
      "昏暗": 9940,
      "是人": 9941,
      "是他們的": 9942,
      "暴露": 9943,
      "有十": 9944,
      "有水": 9945,
      "有耳": 9946,
      "有酵": 9947,
      "有餘": 9948,
      "有憐憫": 9949,
      "有恩惠": 9950,
      "服勞役": 9951,
      "期間": 9952,
      "木料": 9953,
      "果真": 9954,
      "栽葡萄園": 9955,
      "榜樣": 9956,
      "次子": 9957,
      "欺哄": 9958,
      "殘忍": 9959,
      "比利亞": 9960,
      "毗拉": 9961,
      "汲淪": 9962,
      "沙瑪": 9963,
      "活人": 9964,
      "活過來": 9965,
      "流出來": 9966,
      "流的血": 9967,
      "海浪": 9968,
      "海中的": 9969,
      "海邊的": 9970,
      "淫蕩": 9971,
      "渡到": 9972,
      "潔白": 9973,
      "灰心": 9974,
      "災殃": 9975,
      "為它": 9976,
      "照耀": 9977,
      "照他們": 9978,
      "照你的話": 9979,
      "煽動": 9980,
      "熬煉": 9981,
      "爭訟": 9982,
      "牆上": 9983,
      "牛膝": 9984,
      "牽到": 9985,
      "獻供物": 9986,
      "王派": 9987,
      "王與": 9988,
      "王聽見": 9989,
      "珍珠": 9990,
      "珥楠": 9991,
      "瑕疵": 9992,
      "瑣拉": 9993,
      "甘露": 9994,
      "生出": 9995,
      "生一個兒子": 9996,
      "用銅": 9997,
      "界限": 9998,
      "發霉": 9999,
      "發生的": 10000,
      "的也": 10001,
      "的銅": 10002,
      "的門徒": 10003,
      "的大能": 10004,
      "的羔羊": 10005,
      "的山上": 10006,
      "的諸王": 10007,
      "的堡壘": 10008,
      "的形像": 10009,
      "的響聲": 10010,
      "盡力": 10011,
      "監工": 10012,
      "看不": 10013,
      "眾海島": 10014,
      "睡了": 10015,
      "瞎眼": 10016,
      "神人說": 10017,
      "禁令": 10018,
      "禮儀": 10019,
      "站在耶和華面前": 10020,
      "精兵": 10021,
      "約巴": 10022,
      "紅瑪瑙": 10023,
      "結束": 10024,
      "絕不能": 10025,
      "經火": 10026,
      "織布": 10027,
      "翻出來": 10028,
      "老年": 10029,
      "老先知": 10030,
      "耶拉": 10031,
      "耽延": 10032,
      "聚在一處": 10033,
      "腳凳": 10034,
      "腳上的": 10035,
      "臉上的": 10036,
      "菜蔬": 10037,
      "蒙憐憫": 10038,
      "藍寶石": 10039,
      "藏身": 10040,
      "蜂蜜": 10041,
      "行割禮": 10042,
      "裂開": 10043,
      "裏頭": 10044,
      "西番": 10045,
      "西面": 10046,
      "西庇太": 10047,
      "要讓": 10048,
      "親屬": 10049,
      "解救": 10050,
      "設立的": 10051,
      "許久": 10052,
      "請他": 10053,
      "講話": 10054,
      "謝非拉": 10055,
      "買來的": 10056,
      "貼上": 10057,
      "賜你的": 10058,
      "賜平安": 10059,
      "賣給": 10060,
      "走的路": 10061,
      "趁著": 10062,
      "越過": 10063,
      "轉眼": 10064,
      "迎擊": 10065,
      "迎見": 10066,
      "返回": 10067,
      "追討": 10068,
      "追逼": 10069,
      "這罪": 10070,
      "這道": 10071,
      "這兩個": 10072,
      "這婦人": 10073,
      "過河": 10074,
      "還願": 10075,
      "那隻": 10076,
      "那領": 10077,
      "醫生": 10078,
      "重修": 10079,
      "銀匠": 10080,
      "長和": 10081,
      "長二十肘": 10082,
      "開墾": 10083,
      "阿珥楠": 10084,
      "陣亡": 10085,
      "隱祕": 10086,
      "雅億": 10087,
      "雛鴿": 10088,
      "雲中": 10089,
      "雲柱": 10090,
      "頭上的": 10091,
      "顯為": 10092,
      "飄流": 10093,
      "駐軍": 10094,
      "高升": 10095,
      "高大的": 10096,
      "他們向": 10097,
      "他們當中": 10098,
      "你們今日": 10099,
      "你們從前": 10100,
      "耶和華將": 10101,
      "上帝已經": 10102,
      "我們身上": 10103,
      "的人同": 10104,
      "的人都要": 10105,
      "我的言語": 10106,
      "我的憤怒": 10107,
      "你的罪": 10108,
      "你的面": 10109,
      "因為他說": 10110,
      "他的頭": 10111,
      "他的一切": 10112,
      "他的後裔": 10113,
      "他的供物": 10114,
      "他的慈愛永遠長存": 10115,
      "自己是": 10116,
      "沒有兒子": 10117,
      "耶穌卻": 10118,
      "人的罪": 10119,
      "人的族長": 10120,
      "就是這樣": 10121,
      "一切所吩咐的": 10122,
      "面前趕出": 10123,
      "耶和華的受膏者": 10124,
      "不可露": 10125,
      "甚麼人": 10126,
      "祭司那裏": 10127,
      "祭司的兒子": 10128,
      "這是要": 10129,
      "這是我的": 10130,
      "的事奉": 10131,
      "的事蹟": 10132,
      "你們的兒女": 10133,
      "你們的祖宗": 10134,
      "看見一": 10135,
      "看見就": 10136,
      "看見他們": 10137,
      "看見耶穌": 10138,
      "吩咐他們說": 10139,
      "不要為": 10140,
      "於是二人": 10141,
      "不是你": 10142,
      "不是在": 10143,
      "不是要": 10144,
      "求你將你的": 10145,
      "我必從": 10146,
      "我必使他們": 10147,
      "子孫和": 10148,
      "已經來到": 10149,
      "以及所有": 10150,
      "先知所說的話": 10151,
      "有人從": 10152,
      "有人把": 10153,
      "都是按照聖所的舍客勒": 10154,
      "所有的百姓": 10155,
      "的上帝是應當稱頌的": 10156,
      "來到你這裏": 10157,
      "潔淨自己": 10158,
      "有一百": 10159,
      "成為一": 10160,
      "支派被數的共有": 10161,
      "以利雅": 10162,
      "他就死了": 10163,
      "和他一同": 10164,
      "在耶和華殿裏": 10165,
      "在耶和華殿中": 10166,
      "女兒啊": 10167,
      "一切的罪": 10168,
      "一切的住處": 10169,
      "領袖和": 10170,
      "衣服上": 10171,
      "法老對": 10172,
      "法老的女兒": 10173,
      "無論往哪裏去": 10174,
      "亞比戶": 10175,
      "二十個": 10176,
      "二十年": 10177,
      "在你們裏面": 10178,
      "哪裏來的": 10179,
      "十二個人": 10180,
      "必不得": 10181,
      "建造房屋": 10182,
      "他所說的": 10183,
      "任何勞動": 10184,
      "裏面盛滿了": 10185,
      "作王十": 10186,
      "以法他": 10187,
      "拯救我": 10188,
      "正如今日一樣": 10189,
      "為我伸冤": 10190,
      "那人就": 10191,
      "各人要": 10192,
      "臣僕說": 10193,
      "居住的": 10194,
      "倒在地上": 10195,
      "指示你的": 10196,
      "你若不": 10197,
      "的名聲": 10198,
      "的那位": 10199,
      "的那地": 10200,
      "可憎惡的事": 10201,
      "既然你們": 10202,
      "正直的人": 10203,
      "舍客勒銀子": 10204,
      "施行拯救": 10205,
      "接續他的是": 10206,
      "下到地府的人": 10207,
      "地上的君王": 10208,
      "敬拜它們": 10209,
      "困苦人的": 10210,
      "向他們顯現": 10211,
      "第三年": 10212,
      "聰明人": 10213,
      "治理我們": 10214,
      "到你那裏": 10215,
      "到你面前": 10216,
      "的路上": 10217,
      "三個兒子": 10218,
      "求告你": 10219,
      "遇見他": 10220,
      "褻瀆的話": 10221,
      "貧窮的人": 10222,
      "若是這樣": 10223,
      "不義之財": 10224,
      "伸手攻擊": 10225,
      "得罪你": 10226,
      "七十個": 10227,
      "七十舍客勒的銀": 10228,
      "的各城": 10229,
      "被數的有": 10230,
      "到你們那裏": 10231,
      "俯伏在地": 10232,
      "我今日所吩咐你的": 10233,
      "雕刻的像": 10234,
      "隱藏的": 10235,
      "巴拉巴": 10236,
      "說謊話": 10237,
      "四百名": 10238,
      "大利拉": 10239,
      "掌權者": 10240,
      "血肉的": 10241,
      "先知的門徒": 10242,
      "月初十": 10243,
      "哀求耶和華": 10244,
      "按著宗族所得": 10245,
      "藍色的": 10246,
      "的工都不可做": 10247,
      "地面上": 10248,
      "強壯的": 10249,
      "皮膚上": 10250,
      "一歲的小公羊作平安祭": 10251,
      "不要怕他們": 10252,
      "祭司長和文士": 10253,
      "五隻公綿羊": 10254,
      "五隻公山羊": 10255,
      "五隻一歲的小公羊作平安祭": 10256,
      "實現了": 10257,
      "獨自一人": 10258,
      "貧寒人的": 10259,
      "一個重一百三十": 10260,
      "一個重十舍客勒的": 10261,
      "一個重七十舍客勒的銀": 10262,
      "十八年": 10263,
      "獻給耶和華的火祭": 10264,
      "六個月": 10265,
      "豐盛的慈愛": 10266,
      "十五日": 10267,
      "派使者到": 10268,
      "子孫的後代": 10269,
      "人的領袖是": 10270,
      "一隻公山羊為贖罪祭": 10271,
      "日落的時候": 10272,
      "賜你為業": 10273,
      "亞大雅": 10274,
      "新的油": 10275,
      "環繞我": 10276,
      "有話說": 10277,
      "這要成為": 10278,
      "被擄的人歸回": 10279,
      "一帶地方": 10280,
      "重重懲罰": 10281,
      "舍客勒的銀盤": 10282,
      "慈愛和信實": 10283,
      "何珥山": 10284,
      "聖職禮": 10285,
      "被刀所殺": 10286,
      "內有二萬四千人": 10287,
      "腰束麻布": 10288,
      "所作所為": 10289,
      "天空的飛鳥": 10290,
      "懷了孕": 10291,
      "黑門山": 10292,
      "他的軍隊被數的有": 10293,
      "獻燔祭和平安祭": 10294,
      "耶羅罕": 10295,
      "調了油的細麵": 10296,
      "他班內有二萬四千人": 10297,
      "班長是": 10298,
      "調油的細麵作素祭": 10299,
      "一隻一歲的小公羊作燔祭": 10300,
      "帶隊的是": 10301,
      "牛膝草": 10302,
      "任何勞動的工都不可做": 10303,
      "裏面盛滿了調油的細麵作素祭": 10304,
      "一個重一百三十舍客勒的銀盤": 10305,
      "一個重十舍客勒的金碟子": 10306,
      "一個重七十舍客勒的銀碗": 10307,
      "。）": 10308,
      "一一": 10309,
      "一下": 10310,
      "一想": 10311,
      "一齊": 10312,
      "一舍客勒": 10313,
      "七倍": 10314,
      "七頭": 10315,
      "三人": 10316,
      "三歲": 10317,
      "上來的": 10318,
      "下襬": 10319,
      "下的人": 10320,
      "不守": 10321,
      "不對": 10322,
      "不遠": 10323,
      "不降": 10324,
      "不離開": 10325,
      "主管": 10326,
      "乃是": 10327,
      "了路": 10328,
      "了這": 10329,
      "了這些話": 10330,
      "事務": 10331,
      "井旁": 10332,
      "亞何": 10333,
      "亞底": 10334,
      "亞文": 10335,
      "亞杜": 10336,
      "亞波": 10337,
      "亞西": 10338,
      "亞該": 10339,
      "亞雅": 10340,
      "享用": 10341,
      "人不": 10342,
      "他造": 10343,
      "他在那裏": 10344,
      "他也要": 10345,
      "他一切的": 10346,
      "他怎樣": 10347,
      "他祖先": 10348,
      "仗著": 10349,
      "以至於": 10350,
      "休妻": 10351,
      "伸到": 10352,
      "但我要": 10353,
      "住的": 10354,
      "何西": 10355,
      "何細亞": 10356,
      "你都": 10357,
      "你向我": 10358,
      "使水": 10359,
      "使這": 10360,
      "使它們": 10361,
      "供奉": 10362,
      "信徒": 10363,
      "信給": 10364,
      "做吧": 10365,
      "傳來": 10366,
      "兇惡": 10367,
      "兇手": 10368,
      "光滑": 10369,
      "內袍": 10370,
      "全部": 10371,
      "八千": 10372,
      "八名": 10373,
      "公理": 10374,
      "共活了": 10375,
      "其次": 10376,
      "其他的": 10377,
      "再過": 10378,
      "准許": 10379,
      "分地": 10380,
      "分裂": 10381,
      "分產業": 10382,
      "切齒": 10383,
      "利息": 10384,
      "利汛": 10385,
      "利比拉": 10386,
      "到幾時呢": 10387,
      "割下": 10388,
      "創世": 10389,
      "加在": 10390,
      "加拉": 10391,
      "勉勵": 10392,
      "勒索": 10393,
      "動身": 10394,
      "北面": 10395,
      "去找": 10396,
      "去行": 10397,
      "又被": 10398,
      "又有一": 10399,
      "反芻": 10400,
      "取下": 10401,
      "取些": 10402,
      "取代": 10403,
      "可作": 10404,
      "司酒": 10405,
      "各類": 10406,
      "合乎": 10407,
      "同一個": 10408,
      "同一位": 10409,
      "同著他": 10410,
      "向南": 10411,
      "向誰": 10412,
      "呻吟": 10413,
      "和銅": 10414,
      "和那些": 10415,
      "和牲畜": 10416,
      "和葡萄園": 10417,
      "哈琳": 10418,
      "哈該": 10419,
      "哭號": 10420,
      "因人": 10421,
      "因無": 10422,
      "圍著": 10423,
      "土堆": 10424,
      "在外": 10425,
      "在王面前": 10426,
      "在聖殿裏": 10427,
      "在城門口": 10428,
      "地都": 10429,
      "堅強": 10430,
      "堆積": 10431,
      "報答": 10432,
      "塊田": 10433,
      "塞特": 10434,
      "塵沙": 10435,
      "多珥": 10436,
      "大道": 10437,
      "奪走": 10438,
      "奮勇": 10439,
      "女僕": 10440,
      "她為妻": 10441,
      "好讓我們": 10442,
      "妻妾": 10443,
      "存著": 10444,
      "季節": 10445,
      "學問": 10446,
      "密迦": 10447,
      "察覺": 10448,
      "察驗": 10449,
      "射箭": 10450,
      "將你們": 10451,
      "將要在": 10452,
      "尊大": 10453,
      "對我們說": 10454,
      "小心": 10455,
      "就更": 10456,
      "就該": 10457,
      "就不可": 10458,
      "就住在": 10459,
      "就把他": 10460,
      "尺寸": 10461,
      "尼利亞": 10462,
      "屋頂": 10463,
      "工人": 10464,
      "巫術": 10465,
      "己心": 10466,
      "巴旦": 10467,
      "希雅": 10468,
      "平息": 10469,
      "底本": 10470,
      "底波": 10471,
      "座山": 10472,
      "強迫": 10473,
      "影子": 10474,
      "往西": 10475,
      "待我": 10476,
      "得不到": 10477,
      "從火中": 10478,
      "從窗戶": 10479,
      "必死": 10480,
      "必說": 10481,
      "恨我的人": 10482,
      "想一想": 10483,
      "惹動": 10484,
      "憎恨": 10485,
      "成一": 10486,
      "成熟": 10487,
      "我想": 10488,
      "我該": 10489,
      "我僕人": 10490,
      "我為何": 10491,
      "我喜愛": 10492,
      "我百姓的": 10493,
      "或說": 10494,
      "戴在": 10495,
      "戶蘭": 10496,
      "所寫的": 10497,
      "打傷": 10498,
      "打斷": 10499,
      "打死": 10500,
      "扔進": 10501,
      "把這些事": 10502,
      "抬著": 10503,
      "拔刀": 10504,
      "拿細": 10505,
      "拿一個": 10506,
      "指派": 10507,
      "掉在": 10508,
      "掛慮": 10509,
      "接生": 10510,
      "提醒": 10511,
      "揭開": 10512,
      "摩利": 10513,
      "撒羅": 10514,
      "撤退": 10515,
      "擅自": 10516,
      "攪擾": 10517,
      "收成": 10518,
      "收集": 10519,
      "放心": 10520,
      "敗亡": 10521,
      "整夜": 10522,
      "斷定": 10523,
      "方式": 10524,
      "於你": 10525,
      "施展": 10526,
      "施憐憫": 10527,
      "既是": 10528,
      "是照": 10529,
      "是被": 10530,
      "是那": 10531,
      "時期": 10532,
      "更強": 10533,
      "書信": 10534,
      "書念": 10535,
      "有病": 10536,
      "有過": 10537,
      "有錢": 10538,
      "有男丁": 10539,
      "望的": 10540,
      "木架": 10541,
      "本為大": 10542,
      "林中的": 10543,
      "桑樹": 10544,
      "樹上": 10545,
      "正像": 10546,
      "步兵": 10547,
      "歸到他": 10548,
      "殘害": 10549,
      "母示": 10550,
      "母鹿": 10551,
      "每一": 10552,
      "比勒": 10553,
      "比較": 10554,
      "比錄": 10555,
      "民間": 10556,
      "水來": 10557,
      "水裏": 10558,
      "永久": 10559,
      "求王": 10560,
      "洗手": 10561,
      "洗腳": 10562,
      "流人的血": 10563,
      "渡口": 10564,
      "渴了": 10565,
      "漲溢": 10566,
      "激發": 10567,
      "火在": 10568,
      "炎熱": 10569,
      "炭火": 10570,
      "無懼": 10571,
      "無罪": 10572,
      "照我所吩咐": 10573,
      "爭鬧": 10574,
      "獲得": 10575,
      "獵取": 10576,
      "獻平安祭": 10577,
      "獻一隻公山羊為贖罪祭": 10578,
      "用刀劍": 10579,
      "田園": 10580,
      "畜牲": 10581,
      "疆土": 10582,
      "發生了": 10583,
      "白髮": 10584,
      "的美": 10585,
      "的胸": 10586,
      "的蓋": 10587,
      "的金": 10588,
      "的高": 10589,
      "的列國": 10590,
      "的天使": 10591,
      "的公牛": 10592,
      "的戰車": 10593,
      "的道路": 10594,
      "的官員": 10595,
      "的形狀": 10596,
      "的香柏樹": 10597,
      "的災病": 10598,
      "盜賊": 10599,
      "監牢": 10600,
      "看重": 10601,
      "眾山": 10602,
      "眾王": 10603,
      "砍下來": 10604,
      "示拉": 10605,
      "禮冠": 10606,
      "禾捆": 10607,
      "秉公": 10608,
      "稱他為": 10609,
      "空手": 10610,
      "突然": 10611,
      "等著": 10612,
      "筵席": 10613,
      "米拿": 10614,
      "米施": 10615,
      "精美": 10616,
      "糠秕": 10617,
      "約亞": 10618,
      "約撒拔": 10619,
      "結婚": 10620,
      "給他們的": 10621,
      "網油": 10622,
      "罪了": 10623,
      "群人": 10624,
      "群眾": 10625,
      "翻騰": 10626,
      "耶烏": 10627,
      "聖城": 10628,
      "肚子": 10629,
      "肝上的": 10630,
      "肺腑": 10631,
      "背後": 10632,
      "能看見": 10633,
      "脫了": 10634,
      "自相": 10635,
      "與耶和華": 10636,
      "與我說": 10637,
      "舒暢": 10638,
      "若說": 10639,
      "華麗": 10640,
      "華美的": 10641,
      "萬神": 10642,
      "蒼蠅": 10643,
      "號筒": 10644,
      "蠍子": 10645,
      "行姦淫": 10646,
      "行巫術": 10647,
      "衰敗": 10648,
      "袍子": 10649,
      "被他們": 10650,
      "西卜": 10651,
      "要得": 10652,
      "要向耶和華": 10653,
      "要變為": 10654,
      "見到我": 10655,
      "計劃": 10656,
      "請求": 10657,
      "謀害": 10658,
      "謎語": 10659,
      "變臉": 10660,
      "貪戀": 10661,
      "貴重": 10662,
      "賀梅珥": 10663,
      "走近": 10664,
      "趕快": 10665,
      "趕走": 10666,
      "身後": 10667,
      "身所生的": 10668,
      "車上": 10669,
      "轉消": 10670,
      "辟拉": 10671,
      "迦瑪": 10672,
      "造成": 10673,
      "過路": 10674,
      "遞給": 10675,
      "遭報": 10676,
      "遷移": 10677,
      "選的": 10678,
      "遺忘": 10679,
      "都帶": 10680,
      "都一同": 10681,
      "都聚集": 10682,
      "鄉村": 10683,
      "野驢": 10684,
      "量器": 10685,
      "鈕環": 10686,
      "銀的": 10687,
      "鐵鏈": 10688,
      "長壽": 10689,
      "長者": 10690,
      "長二萬五千肘": 10691,
      "門框": 10692,
      "關了": 10693,
      "陣痛": 10694,
      "露出": 10695,
      "非哈": 10696,
      "領我": 10697,
      "頭牛": 10698,
      "願他們的": 10699,
      "顯為聖": 10700,
      "騎馬": 10701,
      "點燃": 10702,
      "點的": 10703,
      "鼻孔": 10704,
      "他們來": 10705,
      "他們離開": 10706,
      "他們心裏": 10707,
      "他們一切的": 10708,
      "他們全都": 10709,
      "你們會": 10710,
      "你們不能": 10711,
      "你們心裏": 10712,
      "耶和華是我的": 10713,
      "上帝也": 10714,
      "上帝國的": 10715,
      "我們又": 10716,
      "我們呢": 10717,
      "我們沒有": 10718,
      "我們不是": 10719,
      "我們和我們的": 10720,
      "的人所": 10721,
      "的人數": 10722,
      "我的道": 10723,
      "我的骨頭": 10724,
      "我的聖名": 10725,
      "你的口": 10726,
      "你的時候": 10727,
      "你的言語": 10728,
      "你的居所": 10729,
      "因為經上記著": 10730,
      "他的聲音": 10731,
      "他的父母": 10732,
      "那裏的人": 10733,
      "沒有一樣": 10734,
      "沒有律法": 10735,
      "沒有別的": 10736,
      "耶穌進了": 10737,
      "人的話": 10738,
      "就是基督": 10739,
      "的兒子們": 10740,
      "一個在": 10741,
      "時候到了": 10742,
      "甚麼話": 10743,
      "這是因為": 10744,
      "這些東西": 10745,
      "你們的父": 10746,
      "你們的子孫": 10747,
      "你們的祖先": 10748,
      "看見我的": 10749,
      "上帝的大能": 10750,
      "出來的時候": 10751,
      "不要帶": 10752,
      "你要將": 10753,
      "你要對他們說": 10754,
      "你要謹慎": 10755,
      "自己的話": 10756,
      "自己的百姓": 10757,
      "自己的行為": 10758,
      "直到地極": 10759,
      "僕人就": 10760,
      "求你用": 10761,
      "你們要聽": 10762,
      "你們要知道": 10763,
      "我們的心": 10764,
      "我們的罪": 10765,
      "子孫中": 10766,
      "現在我們": 10767,
      "所以耶和華如此說": 10768,
      "已經死了": 10769,
      "父親說": 10770,
      "先知說": 10771,
      "有人在": 10772,
      "都是這樣": 10773,
      "離開這裏": 10774,
      "不能看見": 10775,
      "地上萬國": 10776,
      "有一件": 10777,
      "支派的地業中": 10778,
      "我是誰": 10779,
      "地的根基": 10780,
      "以利戶": 10781,
      "女兒嫁給": 10782,
      "一切的器具": 10783,
      "法老面前": 10784,
      "亞比蘭": 10785,
      "脫離一切": 10786,
      "的是甚麼": 10787,
      "你所賜給": 10788,
      "在你們心裏": 10789,
      "石頭上": 10790,
      "聽從我的話": 10791,
      "聽從他的話": 10792,
      "生命樹": 10793,
      "牲畜和": 10794,
      "至於你們": 10795,
      "拯救他們": 10796,
      "使他從死人中復活": 10797,
      "指著耶和華": 10798,
      "眾百姓要說": 10799,
      "這話是": 10800,
      "交給我": 10801,
      "帶著兵器": 10802,
      "因為我知道": 10803,
      "怎麼做": 10804,
      "懲罰你們": 10805,
      "為他贖罪": 10806,
      "其餘的血": 10807,
      "指示我": 10808,
      "做了一個": 10809,
      "差遣他們": 10810,
      "倚靠你": 10811,
      "倚靠的": 10812,
      "的那一邊": 10813,
      "一百個": 10814,
      "家裏的人": 10815,
      "官長們": 10816,
      "主的僕人": 10817,
      "贖罪祭牲": 10818,
      "家的祭司": 10819,
      "施行報應": 10820,
      "沒有人知道": 10821,
      "上帝所賜的": 10822,
      "得以長久": 10823,
      "先前一樣": 10824,
      "在這地方": 10825,
      "因為你們在": 10826,
      "四十晝夜": 10827,
      "請你來": 10828,
      "與你們一同": 10829,
      "按照宗族": 10830,
      "祭物和": 10831,
      "非常嚴重": 10832,
      "我的心哪": 10833,
      "留在這裏": 10834,
      "全會眾都": 10835,
      "在我們中間": 10836,
      "與他們立約": 10837,
      "還沒有到": 10838,
      "基督耶穌裏的": 10839,
      "惡人的手": 10840,
      "悖逆之家": 10841,
      "不義的": 10842,
      "得罪耶和華": 10843,
      "側耳聽我": 10844,
      "陰間的": 10845,
      "登基作": 10846,
      "支派中得了": 10847,
      "壇的四個翹角": 10848,
      "受了洗": 10849,
      "萬國中": 10850,
      "受苦難": 10851,
      "哈拿尼": 10852,
      "二萬二千": 10853,
      "六百人": 10854,
      "凡有血肉之軀": 10855,
      "人面前逃跑": 10856,
      "亞拿尼亞": 10857,
      "消滅了": 10858,
      "守衛房": 10859,
      "兩隻公綿羊": 10860,
      "五百名": 10861,
      "從耶和華面前": 10862,
      "窺探那地": 10863,
      "與她同房": 10864,
      "和所屬的村莊": 10865,
      "他連得金子": 10866,
      "形狀像": 10867,
      "亞多尼": 10868,
      "未受割禮的": 10869,
      "施洗的": 10870,
      "臨近了": 10871,
      "虛假的": 10872,
      "亞米忽": 10873,
      "回家去了": 10874,
      "飢餓的人": 10875,
      "在海中": 10876,
      "門的走廊": 10877,
      "以下是": 10878,
      "同獻的澆酒祭": 10879,
      "制伏了": 10880,
      "米利巴": 10881,
      "話的天使": 10882,
      "指教我": 10883,
      "美麗的": 10884,
      "作他們的王": 10885,
      "因自己的罪孽": 10886,
      "當聽耶和華的話": 10887,
      "第八日": 10888,
      "令人驚駭": 10889,
      "虛無的神明": 10890,
      "的時刻": 10891,
      "亞嫩谷": 10892,
      "亞基帕": 10893,
      "吃飽了": 10894,
      "為奴之家": 10895,
      "怎麼說呢": 10896,
      "得為業的地上": 10897,
      "稅吏和": 10898,
      "孩子們哪": 10899,
      "黃昏的時候": 10900,
      "亞法撒": 10901,
      "我與你為敵": 10902,
      "麥基洗德": 10903,
      "十分之二": 10904,
      "為耶和華所憎惡": 10905,
      "沒有留下一個倖存者": 10906,
      "基納斯": 10907,
      "西羅非哈": 10908,
      "新酒和新的油": 10909,
      "所充滿的": 10910,
      "又大又": 10911,
      "班的班長是": 10912,
      "耶和華怎樣吩咐": 10913,
      "司提反": 10914,
      "群聚動物": 10915,
      "汲淪溪": 10916,
      "他的供物是": 10917,
      "亞杜蘭": 10918,
      "亞波羅": 10919,
      "底波拉": 10920,
      "拿細耳": 10921,
      "精美皮料": 10922,
      "肝上的網油": 10923,
      "一十": 10924,
      "七人": 10925,
      "三個人": 10926,
      "上金": 10927,
      "不將": 10928,
      "不法": 10929,
      "不起": 10930,
[...]
