{
  "version": "1.0",
  "truncation": null,
  "padding": null,
  "added_tokens": [
    {
      "id": 0,
      "content": "<pad>",
      "single_word": false,
      "lstrip": false,
      "rstrip": false,
      "normalized": false,
      "special": true
    },
    {
      "id": 1,
      "content": "<unk>",
      "single_word": false,
      "lstrip": false,
      "rstrip": false,
      "normalized": false,
      "special": true
    },
    {
      "id": 2,
      "content": "<s>",
      "single_word": false,
      "lstrip": false,
      "rstrip": false,
      "normalized": false,
      "special": true
    },
    {
      "id": 3,
      "content": "</s>",
      "single_word": false,
      "lstrip": false,
      "rstrip": false,
      "normalized": false,
      "special": true
    }
  ],
  "normalizer": null,
  "pre_tokenizer": {
    "type": "Sequence",
    "pretokenizers": [
      {
        "type": "Whitespace"
      },
      {
        "type": "Split",
        "pattern": {
          "Regex": "(?<=[ऀ-ॿ஀-௿฀-๿຀-໿က-႟ក-៿一-鿿꤀-꤯])(?=[A-Za-z0-9])|(?<=[A-Za-z0-9])(?=[ऀ-ॿ஀-௿฀-๿຀-໿က-႟ក-៿一-鿿꤀-꤯])"
        },
        "behavior": "Isolated",
        "invert": false
      }
    ]
  },
  "post_processor": null,
  "decoder": null,
  "model": {
    "type": "BPE",
    "dropout": null,
    "unk_token": "<unk>",
    "continuing_subword_prefix": null,
    "end_of_word_suffix": null,
    "fuse_unk": false,
    "byte_fallback": false,
    "ignore_merges": false,
    "vocab": {
      "<pad>": 0,
      "<unk>": 1,
      "<s>": 2,
      "</s>": 3,
      "!": 4,
      "(": 5,
      ")": 6,
      ",": 7,
      "-": 8,
      ".": 9,
      "0": 10,
      "1": 11,
      "2": 12,
      "3": 13,
      "4": 14,
      "5": 15,
      "6": 16,
      "7": 17,
      "8": 18,
      "9": 19,
      ":": 20,
      ";": 21,
      "?": 22,
      "A": 23,
      "B": 24,
      "C": 25,
      "D": 26,
      "E": 27,
      "G": 28,
      "H": 29,
      "I": 30,
      "K": 31,
      "L": 32,
      "M": 33,
      "N": 34,
      "O": 35,
      "P": 36,
      "Q": 37,
      "R": 38,
      "S": 39,
      "T": 40,
      "U": 41,
      "V": 42,
      "X": 43,
      "Y": 44,
      "a": 45,
      "b": 46,
      "c": 47,
      "d": 48,
      "e": 49,
      "g": 50,
      "h": 51,
      "i": 52,
      "k": 53,
      "l": 54,
      "m": 55,
      "n": 56,
      "o": 57,
      "p": 58,
      "q": 59,
      "r": 60,
      "s": 61,
      "t": 62,
      "u": 63,
      "v": 64,
      "x": 65,
      "y": 66,
      "Á": 67,
      "Â": 68,
      "É": 69,
      "Ê": 70,
      "Í": 71,
      "Ó": 72,
      "Ô": 73,
      "Ú": 74,
      "Ý": 75,
      "à": 76,
      "á": 77,
      "â": 78,
      "ã": 79,
      "è": 80,
      "é": 81,
      "ê": 82,
      "ì": 83,
      "í": 84,
      "ò": 85,
      "ó": 86,
      "ô": 87,
      "õ": 88,
      "ù": 89,
      "ú": 90,
      "ý": 91,
      "Ă": 92,
      "ă": 93,
      "Đ": 94,
      "đ": 95,
      "ĩ": 96,
      "ũ": 97,
      "Ơ": 98,
      "ơ": 99,
      "Ư": 100,
      "ư": 101,
      "Ạ": 102,
      "ạ": 103,
      "Ả": 104,
      "ả": 105,
      "Ấ": 106,
      "ấ": 107,
      "ầ": 108,
      "ẩ": 109,
      "ẫ": 110,
      "ậ": 111,
      "Ắ": 112,
      "ắ": 113,
      "ằ": 114,
      "ẳ": 115,
      "Ẵ": 116,
      "ẵ": 117,
      "ặ": 118,
      "ẹ": 119,
      "ẻ": 120,
      "ẽ": 121,
      "Ế": 122,
      "ế": 123,
      "ề": 124,
      "ể": 125,
      "ễ": 126,
      "ệ": 127,
      "ỉ": 128,
      "ị": 129,
      "Ọ": 130,
      "ọ": 131,
      "ỏ": 132,
      "Ố": 133,
      "ố": 134,
      "Ồ": 135,
      "ồ": 136,
      "ổ": 137,
      "ỗ": 138,
      "ộ": 139,
      "ớ": 140,
      "ờ": 141,
      "Ở": 142,
      "ở": 143,
      "ỡ": 144,
      "ợ": 145,
      "ụ": 146,
      "Ủ": 147,
      "ủ": 148,
      "Ứ": 149,
      "ứ": 150,
      "ừ": 151,
      "ử": 152,
      "ữ": 153,
      "ự": 154,
      "ỳ": 155,
      "ỵ": 156,
      "ỷ": 157,
      "ỹ": 158,
      "—": 159,
      "‘": 160,
      "’": 161,
      "“": 162,
      "”": 163,
      "…": 164,
      "ng": 165,
      "nh": 166,
      "ch": 167,
      "th": 168,
      "tr": 169,
      "ời": 170,
      "kh": 171,
      "ngư": 172,
      "và": 173,
      "ên": 174,
      "ác": 175,
      "ông": 176,
      "là": 177,
      "ph": 178,
      "người": 179,
      "gi": 180,
      "ủa": 181,
      "của": 182,
      "các": 183,
      "ôi": 184,
      "on": 185,
      "Ng": 186,
      "Ch": 187,
      "cho": 188,
      "ài": 189,
      "con": 190,
      "ua": 191,
      "ân": 192,
      "sẽ": 193,
      "úng": 194,
      "ơi": 195,
      "ai": 196,
      "ến": 197,
      "ra": 198,
      "ại": 199,
      "không": 200,
      "tôi": 201,
      "Ngài": 202,
      "úa": 203,
      "ức": 204,
      "ong": 205,
      "ượ": 206,
      "đã": 207,
      "ướ": 208,
      "đi": 209,
      "Chúa": 210,
      "em": 211,
      "anh": 212,
      "chúng": 213,
      "Gi": 214,
      "ết": 215,
      "ấy": 216,
      "Ta": 217,
      "CH": 218,
      "ÚA": 219,
      "CHÚA": 220,
      "ất": 221,
      "ới": 222,
      "ột": 223,
      "ta": 224,
      "trong": 225,
      "ững": 226,
      "nó": 227,
      "ày": 228,
      "như": 229,
      "đến": 230,
      "họ": 231,
      "ước": 232,
      "iệ": 233,
      "ược": 234,
      "ều": 235,
      "uy": 236,
      "Tr": 237,
      "được": 238,
      "một": 239,
      "an": 240,
      "làm": 241,
      "với": 242,
      "có": 243,
      "ngươi": 244,
      "ình": 245,
      "Đức": 246,
      "ống": 247,
      "những": 248,
      "ti": 249,
      "vua": 250,
      "ôn": 251,
      "ải": 252,
      "sa": 253,
      "inh": 254,
      "ành": 255,
      "àn": 256,
      "Trời": 257,
      "ền": 258,
      "ãy": 259,
      "dân": 260,
      "ây": 261,
      "qu": 262,
      "Th": 263,
      "cả": 264,
      "Nh": 265,
      "để": 266,
      "chi": 267,
      "lại": 268,
      "hi": 269,
      ".”": 270,
      "ùng": 271,
      "chị": 272,
      "ánh": 273,
      "ũng": 274,
      "vì": 275,
      "khi": 276,
      "ầy": 277,
      "ật": 278,
      "ngh": 279,
      "thành": 280,
      "ần": 281,
      "ươ": 282,
      "ầu": 283,
      "đó": 284,
      "ao": 285,
      "bi": 286,
      "mình": 287,
      "ằng": 288,
      "phải": 289,
      "nói": 290,
      "ộc": 291,
      "Giê": 292,
      "về": 293,
      "trên": 294,
      "át": 295,
      "bị": 296,
      "cũng": 297,
      "ặt": 298,
      "ội": 299,
      "ay": 300,
      "eo": 301,
      "ậy": 302,
      "án": 303,
      "từ": 304,
      "òng": 305,
      "ào": 306,
      "qua": 307,
      "Như": 308,
      "ái": 309,
      "ương": 310,
      "sơ": 311,
      "này": 312,
      "ỏi": 313,
      "ồi": 314,
      "mà": 315,
      "ính": 316,
      "ối": 317,
      "đa": 318,
      "in": 319,
      "vào": 320,
      "Vì": 321,
      "êu": 322,
      "ọi": 323,
      "lời": 324,
      "òn": 325,
      "bả": 326,
      "lên": 327,
      "ận": 328,
      "lễ": 329,
      "ười": 330,
      "ừng": 331,
      "điều": 332,
      "ữa": 333,
      "theo": 334,
      "hãy": 335,
      "kẻ": 336,
      "đá": 337,
      "ăn": 338,
      "àng": 339,
      "ếu": 340,
      "Sa": 341,
      "ập": 342,
      "ườ": 343,
      "Nhưng": 344,
      "ngày": 345,
      "ho": 346,
      "sự": 347,
      "ắt": 348,
      "đất": 349,
      "tế": 350,
      "ạy": 351,
      "thì": 352,
      "cùng": 353,
      "ưa": 354,
      "ăm": 355,
      "trước": 356,
      "phán": 357,
      "ki": 358,
      "công": 359,
      "ường": 360,
      "nào": 361,
      "biết": 362,
      "còn": 363,
      "sống": 364,
      "ít": 365,
      "ục": 366,
      "ốt": 367,
      "su": 368,
      "uyền": 369,
      "ốn": 370,
      "iệc": 371,
      "Ph": 372,
      "uống": 373,
      "Các": 374,
      "ồng": 375,
      "thấy": 376,
      "Hãy": 377,
      "mặt": 378,
      "li": 379,
      "nhưng": 380,
      "trai": 381,
      "gia": 382,
      "nơi": 383,
      "hai": 384,
      "tại": 385,
      "ách": 386,
      "khỏi": 387,
      "bảo": 388,
      "tất": 389,
      "ỗi": 390,
      "mọi": 391,
      "úc": 392,
      "nước": 393,
      "thi": 394,
      "gì": 395,
      "Người": 396,
      "ổi": 397,
      "âng": 398,
      "áo": 399,
      "thế": 400,
      "việc": 401,
      "tay": 402,
      "Và": 403,
      "ứng": 404,
      "lòng": 405,
      "ứu": 406,
      "tội": 407,
      "nghe": 408,
      "thờ": 409,
      "áng": 410,
      "ung": 411,
      "ri": 412,
      "nhà": 413,
      "chính": 414,
      "ang": 415,
      "thể": 416,
      "uộc": 417,
      "nên": 418,
      "na": 419,
      "rằng": 420,
      "ơn": 421,
      "âu": 422,
      "ăng": 423,
      "ban": 424,
      "Giô": 425,
      "Con": 426,
      "đem": 427,
      "ạc": 428,
      "giờ": 429,
      "Vua": 430,
      "đều": 431,
      "oàn": 432,
      "ru": 433,
      "Khi": 434,
      "ạn": 435,
      "ba": 436,
      "ửa": 437,
      "tin": 438,
      "ực": 439,
      "tộc": 440,
      "ẫn": 441,
      "tiế": 442,
      "Tôi": 443,
      "xuống": 444,
      "xin": 445,
      "Chúng": 446,
      "ngo": 447,
      "Đa": 448,
      "rồi": 449,
      "áu": 450,
      "chết": 451,
      "lu": 452,
      "sinh": 453,
      "vật": 454,
      "iều": 455,
      "Họ": 456,
      "Ai": 457,
      "sao": 458,
      "đời": 459,
      "ện": 460,
      "áp": 461,
      "bằng": 462,
      "ươi": 463,
      "ép": 464,
      "dâng": 465,
      "se": 466,
      "trở": 467,
      "chỉ": 468,
      "ạo": 469,
      "quân": 470,
      "ượng": 471,
      "ỡi": 472,
      "phạ": 473,
      "cha": 474,
      "đồng": 475,
      "iệt": 476,
      "vít": 477,
      "đầu": 478,
      "ưở": 479,
      "lo": 480,
      "ưởng": 481,
      "uyện": 482,
      "vậy": 483,
      "ộng": 484,
      "lấy": 485,
      "ắc": 486,
      "thần": 487,
      "đường": 488,
      "đang": 489,
      "đáp": 490,
      "thứ": 491,
      "iện": 492,
      "Sau": 493,
      "ẳng": 494,
      "xứ": 495,
      "cầu": 496,
      "bên": 497,
      "nữa": 498,
      "khác": 499,
      "môn": 500,
      "năm": 501,
      "bà": 502,
      "âm": 503,
      "vi": 504,
      "am": 505,
      "Giu": 506,
      "giữa": 507,
      "óc": 508,
      "lệ": 509,
      "bỏ": 510,
      "mạ": 511,
      "ịnh": 512,
      "cứu": 513,
      "!”": 514,
      "ấng": 515,
      "tiên": 516,
      "thánh": 517,
      "Môi": 518,
      "trời": 519,
      "đền": 520,
      "ọn": 521,
      "Nếu": 522,
      "ét": 523,
      "đây": 524,
      "Ba": 525,
      "ặc": 526,
      "ích": 527,
      "ốc": 528,
      "Đấng": 529,
      "hạ": 530,
      "Kh": 531,
      "mu": 532,
      "thương": 533,
      "Vậy": 534,
      "?”": 535,
      "cái": 536,
      "hay": 537,
      "ấu": 538,
      "Xin": 539,
      "ca": 540,
      "uổi": 541,
      "giữ": 542,
      "êm": 543,
      "sau": 544,
      "lã": 545,
      "ản": 546,
      "toàn": 547,
      "lem": 548,
      "ừa": 549,
      "ma": 550,
      "thầy": 551,
      "truyền": 552,
      "ưới": 553,
      "úi": 554,
      "sợ": 555,
      "yêu": 556,
      "gian": 557,
      "phục": 558,
      "bàn": 559,
      "đầy": 560,
      "sai": 561,
      "tri": 562,
      "nhiều": 563,
      "phụ": 564,
      "tớ": 565,
      "ắp": 566,
      "ôm": 567,
      "Thế": 568,
      "ồn": 569,
      "chiến": 570,
      "cây": 571,
      "tiếng": 572,
      "Si": 573,
      "ọc": 574,
      "hỏi": 575,
      "đứng": 576,
      "bắt": 577,
      "dạy": 578,
      "ấn": 579,
      "ni": 580,
      "dùng": 581,
      "nhận": 582,
      "ớn": 583,
      "Ông": 584,
      "phạm": 585,
      "ợi": 586,
      "đừng": 587,
      "hơn": 588,
      "tên": 589,
      "vu": 590,
      "đánh": 591,
      "chẳng": 592,
      "giết": 593,
      "tự": 594,
      "bao": 595,
      "ảy": 596,
      "xa": 597,
      "mươi": 598,
      "ắng": 599,
      "la": 600,
      "ển": 601,
      "ứa": 602,
      "Gia": 603,
      "ấp": 604,
      "ắn": 605,
      "tì": 606,
      "ếm": 607,
      "nếu": 608,
      "kia": 609,
      "chân": 610,
      "quyền": 611,
      "uyên": 612,
      "sáng": 613,
      "núi": 614,
      "mi": 615,
      "giao": 616,
      "phần": 617,
      "diệt": 618,
      "sứ": 619,
      "đặt": 620,
      "ía": 621,
      "ịch": 622,
      "Không": 623,
      "thuộc": 624,
      "cố": 625,
      "đàn": 626,
      "cập": 627,
      "Hỡi": 628,
      "ót": 629,
      "cháu": 630,
      "tổ": 631,
      "tìm": 632,
      "Những": 633,
      "nhân": 634,
      "lô": 635,
      ".’": 636,
      "danh": 637,
      "mắt": 638,
      "vui": 639,
      "Trong": 640,
      "cao": 641,
      "hành": 642,
      "mười": 643,
      "ầm": 644,
      "lớn": 645,
      "phía": 646,
      "số": 647,
      "ẩn": 648,
      "trưởng": 649,
      "thu": 650,
      "Cứu": 651,
      "ám": 652,
      "giải": 653,
      "vị": 654,
      "Ma": 655,
      "hết": 656,
      "nay": 657,
      "định": 658,
      "mã": 659,
      "lãnh": 660,
      "bảy": 661,
      "đông": 662,
      "đổ": 663,
      "vàng": 664,
      "au": 665,
      "ạch": 666,
      "Sê": 667,
      "Thánh": 668,
      "gái": 669,
      "ủy": 670,
      "gọi": 671,
      "rôn": 672,
      "bệ": 673,
      "chiên": 674,
      "en": 675,
      "nhau": 676,
      "chịu": 677,
      "đối": 678,
      "trị": 679,
      "lệnh": 680,
      "luật": 681,
      "ảng": 682,
      "Anh": 683,
      "vợ": 684,
      "Lạy": 685,
      "uân": 686,
      "thù": 687,
      "ọng": 688,
      "cổ": 689,
      "lỗi": 690,
      "êng": 691,
      "muốn": 692,
      "lư": 693,
      "ụng": 694,
      "iên": 695,
      "bình": 696,
      "dự": 697,
      "xây": 698,
      "Áp": 699,
      "bò": 700,
      "thiêu": 701,
      "rơ": 702,
      "đâu": 703,
      "ướng": 704,
      "kinh": 705,
      "lập": 706,
      "gh": 707,
      "ặp": 708,
      "cứ": 709,
      "si": 710,
      "ín": 711,
      "Ha": 712,
      "vẫn": 713,
      "than": 714,
      "cư": 715,
      "tử": 716,
      "lành": 717,
      "dưới": 718,
      "lửa": 719,
      "ngoài": 720,
      "vinh": 721,
      "nguyện": 722,
      "uyết": 723,
      "tiếp": 724,
      "rê": 725,
      "Có": 726,
      "loài": 727,
      "thật": 728,
      "vụ": 729,
      "nhì": 730,
      "tình": 731,
      "mới": 732,
      "cách": 733,
      "ởi": 734,
      "tượng": 735,
      "ểu": 736,
      "gần": 737,
      "trại": 738,
      "hủy": 739,
      "tức": 740,
      "mỗi": 741,
      "hoàng": 742,
      "quan": 743,
      "Phi": 744,
      "hiện": 745,
      "gặp": 746,
      "báo": 747,
      "do": 748,
      "im": 749,
      "lơ": 750,
      "bạc": 751,
      "xử": 752,
      "ặng": 753,
      "sông": 754,
      "dòng": 755,
      "đạo": 756,
      "Lê": 757,
      "ngay": 758,
      "Bấy": 759,
      "Một": 760,
      "chứng": 761,
      "khôn": 762,
      "tha": 763,
      "thưa": 764,
      "dậy": 765,
      "ấm": 766,
      "bốn": 767,
      "vô": 768,
      "èn": 769,
      "nàng": 770,
      "đưa": 771,
      "ươm": 772,
      "tai": 773,
      "ìa": 774,
      "bánh": 775,
      "Cha": 776,
      "út": 777,
      "cô": 778,
      "Đây": 779,
      "đo": 780,
      "giận": 781,
      "ngự": 782,
      "kho": 783,
      "bu": 784,
      "lúc": 785,
      "éo": 786,
      "chạy": 787,
      "quanh": 788,
      "cốp": 789,
      "nữ": 790,
      "mạng": 791,
      "sạch": 792,
      "chuộc": 793,
      "cổng": 794,
      "gươm": 795,
      "mạnh": 796,
      "Đừng": 797,
      "nghiệ": 798,
      "cửa": 799,
      "iệng": 800,
      "óng": 801,
      "thân": 802,
      "xét": 803,
      "nhìn": 804,
      "trả": 805,
      "Pha": 806,
      "tâm": 807,
      "Là": 808,
      "tốt": 809,
      "mẹ": 810,
      "động": 811,
      "Ngươi": 812,
      "õi": 813,
      "thị": 814,
      "kính": 815,
      "mừng": 816,
      "hoặc": 817,
      "đuổi": 818,
      "chống": 819,
      "kêu": 820,
      "ạt": 821,
      "chưa": 822,
      "ằm": 823,
      "Còn": 824,
      "thức": 825,
      "giống": 826,
      "nầy": 827,
      "sĩ": 828,
      "ậu": 829,
      "ngoan": 830,
      "iệu": 831,
      "thời": 832,
      "đồ": 833,
      "hiểu": 834,
      "hương": 835,
      "quốc": 836,
      "úp": 837,
      "bất": 838,
      "nổi": 839,
      "nam": 840,
      "cung": 841,
      "cơn": 842,
      "mang": 843,
      "ếp": 844,
      "nhất": 845,
      "trái": 846,
      "nghịch": 847,
      "miệng": 848,
      "vầy": 849,
      "Từ": 850,
      "dẫn": 851,
      "dầu": 852,
      "ẹp": 853,
      "phạt": 854,
      "năng": 855,
      "ngoại": 856,
      "khắp": 857,
      "thiên": 858,
      "Do": 859,
      "đệ": 860,
      "ắm": 861,
      "đực": 862,
      "phước": 863,
      "Quân": 864,
      "chủ": 865,
      "cất": 866,
      "khóc": 867,
      "chia": 868,
      "xem": 869,
      "vùng": 870,
      "Phê": 871,
      "liền": 872,
      "lối": 873,
      "sản": 874,
      "lôn": 875,
      "biển": 876,
      "sức": 877,
      "lê": 878,
      "nộ": 879,
      "mù": 880,
      "hội": 881,
      "xe": 882,
      "Kinh": 883,
      "bố": 884,
      "quang": 885,
      "ngồi": 886,
      "nho": 887,
      "xác": 888,
      "Thầy": 889,
      "Ga": 890,
      "uế": 891,
      "ém": 892,
      "chỗ": 893,
      "Rồi": 894,
      "hàng": 895,
      "tối": 896,
      "Nó": 897,
      "hình": 898,
      "hô": 899,
      "nghĩ": 900,
      "hứa": 901,
      "linh": 902,
      "đê": 903,
      "đêm": 904,
      "xi": 905,
      "vâng": 906,
      "trăm": 907,
      "Tất": 908,
      "phép": 909,
      "thực": 910,
      "hướng": 911,
      "sê": 912,
      "hôm": 913,
      "tôn": 914,
      "đại": 915,
      "giới": 916,
      "Tại": 917,
      "tan": 918,
      "luôn": 919,
      "Bê": 920,
      "tù": 921,
      "rượ": 922,
      "Na": 923,
      "ảo": 924,
      "thịt": 925,
      "binh": 926,
      "mãi": 927,
      "tận": 928,
      "ẩm": 929,
      "ram": 930,
      "đáng": 931,
      "hại": 932,
      "khổ": 933,
      "00": 934,
      "Ca": 935,
      "dù": 936,
      "phá": 937,
      "nhờ": 938,
      "ngã": 939,
      "Chính": 940,
      "cu": 941,
      "quay": 942,
      "thề": 943,
      "tuổi": 944,
      "Cho": 945,
      "ếng": 946,
      "dựng": 947,
      "by": 948,
      "mê": 949,
      "sép": 950,
      "chọn": 951,
      "lần": 952,
      "ngàn": 953,
      "dõi": 954,
      "rất": 955,
      "ếc": 956,
      "mạc": 957,
      "sát": 958,
      "quả": 959,
      "rượu": 960,
      "mặc": 961,
      "nhớ": 962,
      "nghiệp": 963,
      "đẹp": 964,
      "quý": 965,
      "chiếm": 966,
      "Toàn": 967,
      "Hê": 968,
      "Linh": 969,
      "lừa": 970,
      "nu": 971,
      "tàn": 972,
      "đội": 973,
      "thú": 974,
      "bô": 975,
      "ham": 976,
      "ngôi": 977,
      "Thật": 978,
      "ghi": 979,
      "oi": 980,
      "vòng": 981,
      "Nguyện": 982,
      "bầy": 983,
      "tiêu": 984,
      "tục": 985,
      "Để": 986,
      "giúp": 987,
      "vừa": 988,
      "ngợi": 989,
      "Kẻ": 990,
      "Mê": 991,
      "óa": 992,
      "Nê": 993,
      "chung": 994,
      "ẩy": 995,
      "trọng": 996,
      "đủ": 997,
      "trách": 998,
      "đức": 999,
      "giả": 1000,
      "Bên": 1001,
      "tập": 1002,
      "tín": 1003,
      "oát": 1004,
      "lợi": 1005,
      "Dân": 1006,
      "vương": 1007,
      "trụ": 1008,
      "Thái": 1009,
      "hoang": 1010,
      "kéo": 1011,
      "phát": 1012,
      "họp": 1013,
      "lạ": 1014,
      "lúa": 1015,
      "tỏ": 1016,
      "đúng": 1017,
      "ngu": 1018,
      "cai": 1019,
      "bát": 1020,
      "hu": 1021,
      "àu": 1022,
      "chu": 1023,
      "họa": 1024,
      "hồn": 1025,
      "Gh": 1026,
      "Vạn": 1027,
      "nằm": 1028,
      "tháng": 1029,
      "hát": 1030,
      "từng": 1031,
      "dối": 1032,
      "uất": 1033,
      "dấu": 1034,
      "thịnh": 1035,
      "đóng": 1036,
      "cánh": 1037,
      "khiến": 1038,
      "xảy": 1039,
      "Cũng": 1040,
      "lý": 1041,
      "đốt": 1042,
      "trình": 1043,
      "phân": 1044,
      "vĩ": 1045,
      "thanh": 1046,
      "cơ": 1047,
      "dài": 1048,
      "đình": 1049,
      "nhục": 1050,
      "thêm": 1051,
      "tinh": 1052,
      "tuyên": 1053,
      "ạm": 1054,
      "thay": 1055,
      "lạc": 1056,
      "tường": 1057,
      "thượng": 1058,
      "suê": 1059,
      "thiếu": 1060,
      "xót": 1061,
      "thoát": 1062,
      "Này": 1063,
      "cầm": 1064,
      "triều": 1065,
      "cáo": 1066,
      "ạp": 1067,
      "suốt": 1068,
      "cỏ": 1069,
      "đau": 1070,
      "riêng": 1071,
      "tấn": 1072,
      "ữu": 1073,
      "Ngày": 1074,
      "thường": 1075,
      "hoa": 1076,
      "huy": 1077,
      "trẻ": 1078,
      "iệm": 1079,
      "ườn": 1080,
      "chim": 1081,
      "nhiên": 1082,
      "trốn": 1083,
      "bê": 1084,
      "mở": 1085,
      "sách": 1086,
      "kết": 1087,
      "Lu": 1088,
      "hữu": 1089,
      "mất": 1090,
      "nặng": 1091,
      "Thưa": 1092,
      "ặn": 1093,
      "ãi": 1094,
      "Đó": 1095,
      "thước": 1096,
      "tiền": 1097,
      "cắt": 1098,
      "trận": 1099,
      "èo": 1100,
      "đồi": 1101,
      "ệt": 1102,
      "vọng": 1103,
      "đứa": 1104,
      "ẫy": 1105,
      "Mọi": 1106,
      "nô": 1107,
      "pha": 1108,
      "Phải": 1109,
      "nạn": 1110,
      "quy": 1111,
      "xê": 1112,
      "Mô": 1113,
      "giá": 1114,
      "tài": 1115,
      "kỳ": 1116,
      "máu": 1117,
      "nát": 1118,
      "ỉnh": 1119,
      "bây": 1120,
      "lạy": 1121,
      "sáu": 1122,
      "đám": 1123,
      "phố": 1124,
      "Vào": 1125,
      "canh": 1126,
      "sắp": 1127,
      "đoàn": 1128,
      "trung": 1129,
      "ói": 1130,
      "chức": 1131,
      "chắc": 1132,
      "Dù": 1133,
      "dụng": 1134,
      "ểm": 1135,
      "diện": 1136,
      "lẫn": 1137,
      "kiếm": 1138,
      "ủng": 1139,
      "gây": 1140,
      "huyết": 1141,
      "òa": 1142,
      "ứt": 1143,
      "chồng": 1144,
      "cậy": 1145,
      "Lúc": 1146,
      "bức": 1147,
      "íp": 1148,
      "chép": 1149,
      "thăm": 1150,
      "vững": 1151,
      "Luật": 1152,
      "quyết": 1153,
      "lão": 1154,
      "tu": 1155,
      "kể": 1156,
      "éc": 1157,
      "lực": 1158,
      "vườn": 1159,
      "én": 1160,
      "ghét": 1161,
      "hề": 1162,
      "tạo": 1163,
      "Đến": 1164,
      "Hội": 1165,
      "che": 1166,
      "ướp": 1167,
      "Bết": 1168,
      "xuất": 1169,
      "áy": 1170,
      "Phao": 1171,
      "dại": 1172,
      "ngủ": 1173,
      "thắng": 1174,
      "dê": 1175,
      "ưu": 1176,
      "hoàn": 1177,
      "nỗi": 1178,
      "Đền": 1179,
      "ềm": 1180,
      "giáo": 1181,
      "tiến": 1182,
      "Kê": 1183,
      "đỡ": 1184,
      "chê": 1185,
      "thích": 1186,
      "phản": 1187,
      "tranh": 1188,
      "min": 1189,
      "chúa": 1190,
      "phi": 1191,
      "hổ": 1192,
      "mô": 1193,
      "rô": 1194,
      "rời": 1195,
      "răn": 1196,
      "Lời": 1197,
      "bụ": 1198,
      "cướp": 1199,
      "đanh": 1200,
      "Kìa": 1201,
      "bờ": 1202,
      "bởi": 1203,
      "Ép": 1204,
      "cấp": 1205,
      "ượt": 1206,
      "quá": 1207,
      "nghèo": 1208,
      "lưu": 1209,
      "Năng": 1210,
      "chớ": 1211,
      "giáng": 1212,
      "cảnh": 1213,
      "Âm": 1214,
      "chữa": 1215,
      "bước": 1216,
      "ha": 1217,
      "ạnh": 1218,
      "ngang": 1219,
      "Sự": 1220,
      "bạn": 1221,
      "lắng": 1222,
      "rõ": 1223,
      "rủa": 1224,
      "ịa": 1225,
      "giảng": 1226,
      "tấm": 1227,
      "xong": 1228,
      "phẩm": 1229,
      "súc": 1230,
      "đói": 1231,
      "nhiệm": 1232,
      "thổ": 1233,
      "sót": 1234,
      "Bây": 1235,
      "Ra": 1236,
      "phương": 1237,
      "lao": 1238,
      "rừng": 1239,
      "chàng": 1240,
      "loại": 1241,
      "mùa": 1242,
      "sâu": 1243,
      "tư": 1244,
      "đô": 1245,
      "ngụ": 1246,
      "rộng": 1247,
      "hằng": 1248,
      "rỗi": 1249,
      "Am": 1250,
      "ưng": 1251,
      "ủi": 1252,
      "chăn": 1253,
      "kiên": 1254,
      "phượng": 1255,
      "Ti": 1256,
      "mưu": 1257,
      "thôi": 1258,
      "hắn": 1259,
      "tưởng": 1260,
      "cảm": 1261,
      "viết": 1262,
      "vệ": 1263,
      "địa": 1264,
      "nghi": 1265,
      "nhỏ": 1266,
      "lâu": 1267,
      "đôm": 1268,
      "ầng": 1269,
      "Nước": 1270,
      "đập": 1271,
      "ớc": 1272,
      "phòng": 1273,
      "nghĩa": 1274,
      "khô": 1275,
      "nghỉ": 1276,
      "bệnh": 1277,
      "Ki": 1278,
      "bóng": 1279,
      "dịch": 1280,
      "tâu": 1281,
      "kiến": 1282,
      "ruộng": 1283,
      "ngựa": 1284,
      "cuộc": 1285,
      "sân": 1286,
      "tạ": 1287,
      "chuyện": 1288,
      "coi": 1289,
      "trí": 1290,
      "chiều": 1291,
      "hưởng": 1292,
      "nhi": 1293,
      "biệt": 1294,
      "sư": 1295,
      "sắc": 1296,
      "ón": 1297,
      "Rê": 1298,
      "bán": 1299,
      "ném": 1300,
      "thợ": 1301,
      "thẳng": 1302,
      "cạnh": 1303,
      "Giăng": 1304,
      "kế": 1305,
      "mời": 1306,
      "gió": 1307,
      "Làm": 1308,
      "léc": 1309,
      "ẵn": 1310,
      "chế": 1311,
      "thổi": 1312,
      "miền": 1313,
      "Ghê": 1314,
      "hy": 1315,
      "ẹn": 1316,
      "ghê": 1317,
      "!’": 1318,
      "xức": 1319,
      "ợp": 1320,
      "Sẽ": 1321,
      "dữ": 1322,
      "sác": 1323,
      "óp": 1324,
      "ọt": 1325,
      "thái": 1326,
      "khinh": 1327,
      "viên": 1328,
      "bụi": 1329,
      "Xê": 1330,
      "cớ": 1331,
      "mưa": 1332,
      "lưỡi": 1333,
      "bắc": 1334,
      "cần": 1335,
      "cưới": 1336,
      "dâm": 1337,
      "gai": 1338,
      "mây": 1339,
      "sẵn": 1340,
      "đai": 1341,
      "Trước": 1342,
      "bày": 1343,
      "đổi": 1344,
      "khẩn": 1345,
      "Xa": 1346,
      "cậu": 1347,
      "gỗ": 1348,
      "hệ": 1349,
      "ởm": 1350,
      "trừ": 1351,
      "phủ": 1352,
      "Su": 1353,
      "ỏa": 1354,
      "Mỗi": 1355,
      "dỗ": 1356,
      "đày": 1357,
      "ảm": 1358,
      "tràn": 1359,
      "khốn": 1360,
      "Tuy": 1361,
      "hầu": 1362,
      "ngọn": 1363,
      "thông": 1364,
      "trông": 1365,
      "quỷ": 1366,
      "tùy": 1367,
      "Ghi": 1368,
      "La": 1369,
      "dám": 1370,
      "rương": 1371,
      "tởm": 1372,
      "chôn": 1373,
      "cháy": 1374,
      "lưng": 1375,
      "hợp": 1376,
      "mua": 1377,
      "thảy": 1378,
      "Mi": 1379,
      "bộ": 1380,
      "bại": 1381,
      "hậu": 1382,
      "nê": 1383,
      "hiến": 1384,
      "cận": 1385,
      "xấu": 1386,
      "đèn": 1387,
      "uyển": 1388,
      "Sao": 1389,
      "to": 1390,
      "chúc": 1391,
      "da": 1392,
      "thơ": 1393,
      "trú": 1394,
      "trao": 1395,
      "nuốt": 1396,
      "cừ": 1397,
      "càng": 1398,
      "chắn": 1399,
      "mai": 1400,
      "ngài": 1401,
      "thuật": 1402,
      "cừu": 1403,
      "?’": 1404,
      "Bà": 1405,
      "lũng": 1406,
      "men": 1407,
      "đảo": 1408,
      "trừng": 1409,
      "cuối": 1410,
      "lẽ": 1411,
      "ớm": 1412,
      "Ngay": 1413,
      "loạn": 1414,
      "Gát": 1415,
      "cát": 1416,
      "kiêu": 1417,
      "cộng": 1418,
      "vết": 1419,
      "thung": 1420,
      "khí": 1421,
      "giàu": 1422,
      "thiết": 1423,
      "tám": 1424,
      "đạp": 1425,
      "ồm": 1426,
      "ộn": 1427,
      "thống": 1428,
      "phúc": 1429,
      "chiếc": 1430,
      "Phúc": 1431,
      "chuẩn": 1432,
      "dũng": 1433,
      "vây": 1434,
      "đu": 1435,
      "đốc": 1436,
      "ậm": 1437,
      "chăng": 1438,
      "điện": 1439,
      "bọn": 1440,
      "dây": 1441,
      "vấn": 1442,
      "ạng": 1443,
      "khó": 1444,
      "quản": 1445,
      "đoán": 1446,
      "nộp": 1447,
      "òi": 1448,
      "đấu": 1449,
      "ngai": 1450,
      "sang": 1451,
      "nia": 1452,
      "hỡi": 1453,
      "tây": 1454,
      "trọn": 1455,
      "gạt": 1456,
      "tầng": 1457,
      "yên": 1458,
      "chuyển": 1459,
      "hoan": 1460,
      "Về": 1461,
      "bé": 1462,
      "Thì": 1463,
      "niềm": 1464,
      "gặt": 1465,
      "hãi": 1466,
      "tiệc": 1467,
      "trang": 1468,
      "biến": 1469,
      "niên": 1470,
      "buồn": 1471,
      "Ho": 1472,
      "mắc": 1473,
      "tơ": 1474,
      "đợi": 1475,
      "chặt": 1476,
      "thủ": 1477,
      "trần": 1478,
      "Qua": 1479,
      "cải": 1480,
      "hóa": 1481,
      "lát": 1482,
      "nửa": 1483,
      "vải": 1484,
      "Thiên": 1485,
      "Ru": 1486,
      "thử": 1487,
      "thiện": 1488,
      "tham": 1489,
      "đón": 1490,
      "Bi": 1491,
      "bì": 1492,
      "bèn": 1493,
      "câu": 1494,
      "gồm": 1495,
      "lương": 1496,
      "man": 1497,
      "mọc": 1498,
      "thận": 1499,
      "buộc": 1500,
      "háp": 1501,
      "lìa": 1502,
      "san": 1503,
      "tăm": 1504,
      "quên": 1505,
      "dặn": 1506,
      "hiệu": 1507,
      "lũ": 1508,
      "tăng": 1509,
      "thư": 1510,
      "hoạn": 1511,
      "Nơi": 1512,
      "mốt": 1513,
      "tuân": 1514,
      "ấc": 1515,
      "ỡng": 1516,
      "khải": 1517,
      "xia": 1518,
      "rít": 1519,
      "suy": 1520,
      "vẻ": 1521,
      "phong": 1522,
      "cụ": 1523,
      "dành": 1524,
      "sôn": 1525,
      "tới": 1526,
      "chất": 1527,
      "rút": 1528,
      "xưa": 1529,
      "ềng": 1530,
      "giấu": 1531,
      "tẩy": 1532,
      "vực": 1533,
      "tra": 1534,
      "làng": 1535,
      "hư": 1536,
      "lặng": 1537,
      "tụ": 1538,
      "tàu": 1539,
      "xưng": 1540,
      "nhiêu": 1541,
      "quần": 1542,
      "hôn": 1543,
      "màn": 1544,
      "sủng": 1545,
      "tỉnh": 1546,
      "ngọc": 1547,
      "chín": 1548,
      "nghiệm": 1549,
      "hòa": 1550,
      "Ước": 1551,
      "ngôn": 1552,
      "gieo": 1553,
      "khiêng": 1554,
      "kém": 1555,
      "nài": 1556,
      "rốt": 1557,
      "tảng": 1558,
      "tụng": 1559,
      "đề": 1560,
      "đỏ": 1561,
      "Hết": 1562,
      "mấy": 1563,
      "suối": 1564,
      "gìn": 1565,
      "rơi": 1566,
      "yếu": 1567,
      "chú": 1568,
      "chấp": 1569,
      "trồng": 1570,
      "triệu": 1571,
      "khiếp": 1572,
      "Cả": 1573,
      "Hô": 1574,
      "cột": 1575,
      "lam": 1576,
      "sàng": 1577,
      "chảy": 1578,
      "trì": 1579,
      "phó": 1580,
      "luận": 1581,
      "Cập": 1582,
      "nan": 1583,
      "tính": 1584,
      "Ngh": 1585,
      "Nàng": 1586,
      "cốt": 1587,
      "gậy": 1588,
      "mong": 1589,
      "tướng": 1590,
      "chén": 1591,
      "thơm": 1592,
      "lôm": 1593,
      "tác": 1594,
      "óm": 1595,
      "ẫm": 1596,
      "thừa": 1597,
      "kiều": 1598,
      "chuyên": 1599,
      "xơ": 1600,
      "xanh": 1601,
      "nguyền": 1602,
      "thai": 1603,
      "tránh": 1604,
      "điểm": 1605,
      "Nhờ": 1606,
      "mát": 1607,
      "Trại": 1608,
      "món": 1609,
      "sửa": 1610,
      "xé": 1611,
      "Chỉ": 1612,
      "rao": 1613,
      "bia": 1614,
      "run": 1615,
      "000": 1616,
      "nắm": 1617,
      "àm": 1618,
      "buổi": 1619,
      "mỡ": 1620,
      "thẹn": 1621,
      "Tạm": 1622,
      "bội": 1623,
      "bạo": 1624,
      "cành": 1625,
      "dứt": 1626,
      "hộ": 1627,
      "mật": 1628,
      "nền": 1629,
      "tà": 1630,
      "độc": 1631,
      "ựng": 1632,
      "chờ": 1633,
      "Chớ": 1634,
      "miếng": 1635,
      "Sô": 1636,
      "báp": 1637,
      "lăm": 1638,
      "xung": 1639,
      "say": 1640,
      "quỳ": 1641,
      "nuôi": 1642,
      "cử": 1643,
      "mến": 1644,
      "nai": 1645,
      "vang": 1646,
      "hạt": 1647,
      "Nghe": 1648,
      "cân": 1649,
      "lính": 1650,
      "mộ": 1651,
      "môi": 1652,
      "nết": 1653,
      "sừng": 1654,
      "tùng": 1655,
      "vấp": 1656,
      "nhạo": 1657,
      "trường": 1658,
      "phận": 1659,
      "Trên": 1660,
      "kim": 1661,
      "lũy": 1662,
      "Bởi": 1663,
      "bột": 1664,
      "kìa": 1665,
      "năn": 1666,
      "vượt": 1667,
      "khát": 1668,
      "Kiến": 1669,
      "Lòng": 1670,
      "bay": 1671,
      "bọc": 1672,
      "lang": 1673,
      "tố": 1674,
      "ễn": 1675,
      "chào": 1676,
      "thê": 1677,
      "Canh": 1678,
      "Danh": 1679,
      "tích": 1680,
      "tồn": 1681,
      "chứ": 1682,
      "thẩm": 1683,
      "khả": 1684,
      "phụng": 1685,
      "Qu": 1686,
      "can": 1687,
      "cẩn": 1688,
      "đọc": 1689,
      "đãi": 1690,
      "quê": 1691,
      "Hôm": 1692,
      "bấy": 1693,
      "sóc": 1694,
      "đeo": 1695,
      "chay": 1696,
      "chối": 1697,
      "ranh": 1698,
      "vĩnh": 1699,
      "Nên": 1700,
      "bổ": 1701,
      "hồi": 1702,
      "lộ": 1703,
      "lầm": 1704,
      "lắm": 1705,
      "minh": 1706,
      "mầu": 1707,
      "rết": 1708,
      "sắt": 1709,
      "đựng": 1710,
      "ũi": 1711,
      "ẹt": 1712,
      "thỏa": 1713,
      "bim": 1714,
      "bản": 1715,
      "tổng": 1716,
      "cõi": 1717,
      "đòi": 1718,
      "giấc": 1719,
      "Gióp": 1720,
      "Phước": 1721,
      "Cô": 1722,
      "dư": 1723,
      "góc": 1724,
      "kê": 1725,
      "rắn": 1726,
      "đâm": 1727,
      "ộm": 1728,
      "ngạc": 1729,
      "nguyên": 1730,
      "Thần": 1731,
      ",”": 1732,
      "Hai": 1733,
      "bài": 1734,
      "bẫy": 1735,
      "cá": 1736,
      "ga": 1737,
      "gởi": 1738,
      "kèn": 1739,
      "tê": 1740,
      "vả": 1741,
      "đôi": 1742,
      "chà": 1743,
      "Rương": 1744,
      "lượng": 1745,
      "ne": 1746,
      "Ích": 1747,
      "đỉnh": 1748,
      "ựa": 1749,
      "khuyên": 1750,
      "tuy": 1751,
      "tóc": 1752,
      "nhu": 1753,
      "thở": 1754,
      "trinh": 1755,
      "khắc": 1756,
      "Mắt": 1757,
      "kín": 1758,
      "Ôi": 1759,
      "đồn": 1760,
      "đụng": 1761,
      "ưỡi": 1762,
      "bết": 1763,
      "cứng": 1764,
      "dị": 1765,
      "góa": 1766,
      "hùng": 1767,
      "lều": 1768,
      "reo": 1769,
      "rửa": 1770,
      "tem": 1771,
      "ngũ": 1772,
      "chứa": 1773,
      "trắng": 1774,
      "quở": 1775,
      "lia": 1776,
      "Khốn": 1777,
      "muôn": 1778,
      "khoảng": 1779,
      "Tiếng": 1780,
      "rối": 1781,
      "Điều": 1782,
      "đát": 1783,
      "tang": 1784,
      "Thành": 1785,
      "liên": 1786,
      "dẫy": 1787,
      "ganh": 1788,
      "ký": 1789,
      "mì": 1790,
      "Đi": 1791,
      "Đã": 1792,
      "Thờ": 1793,
      "đoạt": 1794,
      "bầu": 1795,
      "dọc": 1796,
      "oài": 1797,
      "sấp": 1798,
      "vội": 1799,
      "ão": 1800,
      "Đất": 1801,
      "khách": 1802,
      "bảng": 1803,
      "bá": 1804,
      "bụng": 1805,
      "dục": 1806,
      "mộng": 1807,
      "chiếu": 1808,
      "liu": 1809,
      "ria": 1810,
      "gác": 1811,
      "sỉ": 1812,
      "đảm": 1813,
      "ngục": 1814,
      "ngạo": 1815,
      "nhã": 1816,
      "nhằm": 1817,
      "nhóm": 1818,
      "phóng": 1819,
      "học": 1820,
      "hoại": 1821,
      "Cầu": 1822,
      "Hếp": 1823,
      "Sy": 1824,
      "mẽ": 1825,
      "tán": 1826,
      "Đan": 1827,
      "đinh": 1828,
      "Mích": 1829,
      "Vượt": 1830,
      "cũ": 1831,
      "hân": 1832,
      "kỵ": 1833,
      "đúc": 1834,
      "ảnh": 1835,
      "thuyền": 1836,
      "thưởng": 1837,
      "trộm": 1838,
      "bẻ": 1839,
      "hạn": 1840,
      "lai": 1841,
      "sớm": 1842,
      "vũ": 1843,
      "xuyên": 1844,
      "Ên": 1845,
      "đôn": 1846,
      "nhắc": 1847,
      "chiêm": 1848,
      "lui": 1849,
      "Li": 1850,
      "Rô": 1851,
      "tít": 1852,
      "chăm": 1853,
      "Giao": 1854,
      "dạ": 1855,
      "xương": 1856,
      "xúc": 1857,
      "đòn": 1858,
      "chút": 1859,
      "khu": 1860,
      "khích": 1861,
      "phù": 1862,
      "giường": 1863,
      "kiêng": 1864,
      "kiểm": 1865,
      "An": 1866,
      "Nầy": 1867,
      "bào": 1868,
      "gánh": 1869,
      "lột": 1870,
      "no": 1871,
      "đà": 1872,
      "già": 1873,
      "giám": 1874,
      "huấn": 1875,
      "căng": 1876,
      "dọn": 1877,
      "lông": 1878,
      "lóc": 1879,
      "liệu": 1880,
      "mũi": 1881,
      "Chẳng": 1882,
      "sợi": 1883,
      "nguồn": 1884,
      "cạn": 1885,
      "sả": 1886,
      "vốn": 1887,
      "xứng": 1888,
      "đan": 1889,
      "đắng": 1890,
      "ụp": 1891,
      "ngăn": 1892,
      "Gô": 1893,
      "Xô": 1894,
      "cúi": 1895,
      "di": 1896,
      "há": 1897,
      "láng": 1898,
      "nấy": 1899,
      "đặc": 1900,
      "đớn": 1901,
      "nhẫn": 1902,
      "chí": 1903,
      "chem": 1904,
      "phái": 1905,
      "rim": 1906,
      ",’": 1907,
      "Hu": 1908,
      "Hy": 1909,
      "bậ": 1910,
      "gốc": 1911,
      "hã": 1912,
      "lưới": 1913,
      "móc": 1914,
      "rẽ": 1915,
      "khai": 1916,
      "vài": 1917,
      "phàm": 1918,
      "giếng": 1919,
      "nóng": 1920,
      "iệp": 1921,
      "Thấy": 1922,
      "hiển": 1923,
      "bậc": 1924,
      "Mà": 1925,
      "Xi": 1926,
      "bề": 1927,
      "kích": 1928,
      "độ": 1929,
      "chấm": 1930,
      "Sam": 1931,
      "Nô": 1932,
      "mồ": 1933,
      "mách": 1934,
      "sở": 1935,
      "xông": 1936,
      "ịn": 1937,
      "thắt": 1938,
      "pháp": 1939,
      "giam": 1940,
      "Với": 1941,
      "bể": 1942,
      "cười": 1943,
      "hái": 1944,
      "hối": 1945,
      "liệt": 1946,
      "nề": 1947,
      "nôn": 1948,
      "nâng": 1949,
      "sanh": 1950,
      "tươi": 1951,
      "tặng": 1952,
      "Đạo": 1953,
      "chừng": 1954,
      "Cùng": 1955,
      "Vừa": 1956,
      "bỉ": 1957,
      "luyện": 1958,
      "oạn": 1959,
      "sữa": 1960,
      "ùm": 1961,
      "thả": 1962,
      "khăn": 1963,
      "giương": 1964,
      "tuyệt": 1965,
      "Hay": 1966,
      "cúng": 1967,
      "hài": 1968,
      "mỏi": 1969,
      "mục": 1970,
      "rẩy": 1971,
      "sua": 1972,
      "vai": 1973,
      "xống": 1974,
      "Ách": 1975,
      "đào": 1976,
      "chở": 1977,
      "giềng": 1978,
      "thuận": 1979,
      "cuốn": 1980,
      "Mạc": 1981,
      "Năm": 1982,
      "bớ": 1983,
      "hò": 1984,
      "lác": 1985,
      "nợ": 1986,
      "sít": 1987,
      "tương": 1988,
      "địch": 1989,
      "ngập": 1990,
      "Ty": 1991,
      "hang": 1992,
      "sờ": 1993,
      "tòa": 1994,
      "đống": 1995,
      "ằn": 1996,
      "nhảy": 1997,
      "phung": 1998,
      "phiền": 1999,
      "Hơn": 2000,
      "Mặt": 2001,
      "hào": 2002,
      "vỡ": 2003,
      "vạn": 2004,
      "đen": 2005,
      "nhọc": 2006,
      "trăng": 2007,
      "phê": 2008,
      "Tay": 2009,
      "cưỡi": 2010,
      "Hoặc": 2011,
      "gả": 2012,
      "mồi": 2013,
      "rách": 2014,
      "sụp": 2015,
      "Át": 2016,
      "chạm": 2017,
      "tháp": 2018,
      "thấp": 2019,
      "treo": 2020,
      "Bất": 2021,
      "gắn": 2022,
      "gớm": 2023,
      "tô": 2024,
      "vác": 2025,
      "ngực": 2026,
      "trúng": 2027,
      "phu": 2028,
      "điệ": 2029,
      "biên": 2030,
      "Gít": 2031,
      "cối": 2032,
      "hem": 2033,
      "hiệp": 2034,
      "lò": 2035,
      "lỗ": 2036,
      "ùa": 2037,
      "Ngoài": 2038,
      "Chi": 2039,
      "tiết": 2040,
      "quăng": 2041,
      "Nhà": 2042,
      "Cây": 2043,
      "Em": 2044,
      "báu": 2045,
      "bắn": 2046,
      "củi": 2047,
      "lan": 2048,
      "mòn": 2049,
      "săn": 2050,
      "vượng": 2051,
      "đế": 2052,
      "ổng": 2053,
      "ngón": 2054,
      "thất": 2055,
      "trống": 2056,
      "ngước": 2057,
      "Phần": 2058,
      "cuộn": 2059,
      "băng": 2060,
      "dừng": 2061,
      "dâu": 2062,
      "hố": 2063,
      "kỷ": 2064,
      "sổ": 2065,
      "van": 2066,
      "ùi": 2067,
      "Được": 2068,
      "Đang": 2069,
      "ỗng": 2070,
      "nguy": 2071,
      "nhủ": 2072,
      "loan": 2073,
      "mau": 2074,
      "12": 2075,
      "Cao": 2076,
      "Lẽ": 2077,
      "căn": 2078,
      "hồ": 2079,
      "hơi": 2080,
      "nở": 2081,
      "rát": 2082,
      "vã": 2083,
      "ngơi": 2084,
      "nhạc": 2085,
      "trấn": 2086,
      "Nhiều": 2087,
      "khiết": 2088,
      "mùi": 2089,
      "ghiếc": 2090,
      "Ban": 2091,
      "Hát": 2092,
      "bôn": 2093,
      "lá": 2094,
      "móng": 2095,
      "ròng": 2096,
      "chó": 2097,
      "khởi": 2098,
      "ượm": 2099,
      "kẻo": 2100,
      "thuế": 2101,
      "ghen": 2102,
      "Việc": 2103,
      "bí": 2104,
      "bền": 2105,
      "báng": 2106,
      "cắm": 2107,
      "gấp": 2108,
      "hải": 2109,
      "hạc": 2110,
      "nội": 2111,
      "xu": 2112,
      "Đê": 2113,
      "Ấy": 2114,
      "ốm": 2115,
      "ửi": 2116,
      "chầu": 2117,
      "thập": 2118,
      "qui": 2119,
      "luân": 2120,
      "hạnh": 2121,
      "Dòng": 2122,
      "Nép": 2123,
      "cào": 2124,
      "cốc": 2125,
      "lân": 2126,
      "sáp": 2127,
      "tắt": 2128,
      "xo": 2129,
      "ợc": 2130,
      "trá": 2131,
      "tim": 2132,
      "Biển": 2133,
      "Lưỡi": 2134,
      "Tội": 2135,
      "bồ": 2136,
      "dội": 2137,
      "dắt": 2138,
      "diệu": 2139,
      "lép": 2140,
      "đương": 2141,
      "đơn": 2142,
      "đích": 2143,
      "nhổ": 2144,
      "chọc": 2145,
      "thảm": 2146,
      "khước": 2147,
      "Chiên": 2148,
      "Hằng": 2149,
      "Lễ": 2150,
      "Mu": 2151,
      "Sáng": 2152,
      "Tức": 2153,
      "bóc": 2154,
      "cường": 2155,
      "cãi": 2156,
      "rảy": 2157,
      "tản": 2158,
      "vách": 2159,
      "ẳn": 2160,
      "nhanh": 2161,
      "nhập": 2162,
      "tro": 2163,
      "Chí": 2164,
      "quán": 2165,
      "Thi": 2166,
      "nghị": 2167,
      "Suốt": 2168,
      "be": 2169,
      "cay": 2170,
      "héo": 2171,
      "lụ": 2172,
      "mịn": 2173,
      "tắm": 2174,
      "đếm": 2175,
      "ngữ": 2176,
      "chên": 2177,
      "thụ": 2178,
      "tháo": 2179,
      "giáp": 2180,
      "khiên": 2181,
      "hoảng": 2182,
      "banh": 2183,
      "lâm": 2184,
      "nọ": 2185,
      "vong": 2186,
      "Ạt": 2187,
      "thủy": 2188,
      "phừng": 2189,
      "phót": 2190,
      "ran": 2191,
      "điêu": 2192,
      "Giờ": 2193,
      "Theo": 2194,
      "hiếp": 2195,
      "Bị": 2196,
      "Công": 2197,
      "Kính": 2198,
      "biện": 2199,
      "hẳn": 2200,
      "lánh": 2201,
      "non": 2202,
      "sết": 2203,
      "tạm": 2204,
      "đấy": 2205,
      "ễu": 2206,
      "ngọt": 2207,
      "thét": 2208,
      "thấu": 2209,
      "khéo": 2210,
      "ngược": 2211,
      "Chủ": 2212,
      "đia": 2213,
      "điếm": 2214,
      "màng": 2215,
      "mão": 2216,
      "đoái": 2217,
      "xiềng": 2218,
      "nghiêm": 2219,
      "toán": 2220,
      "Hoàng": 2221,
      "Tên": 2222,
      "Tâu": 2223,
      "cấm": 2224,
      "dồi": 2225,
      "gục": 2226,
      "huyền": 2227,
      "lịnh": 2228,
      "mệt": 2229,
      "rễ": 2230,
      "rỡ": 2231,
      "rực": 2232,
      "sẻ": 2233,
      "đao": 2234,
      "trói": 2235,
      "khám": 2236,
      "ngưỡng": 2237,
      "Chắc": 2238,
      "mạch": 2239,
      "miếu": 2240,
      "bói": 2241,
      "dò": 2242,
      "dương": 2243,
      "líp": 2244,
      "tật": 2245,
      "vắng": 2246,
      "xích": 2247,
      "đốn": 2248,
      "ĩa": 2249,
      "ớp": 2250,
      "Phủ": 2251,
      "khoe": 2252,
      "đuối": 2253,
      ").": 2254,
      "50": 2255,
      "Tiên": 2256,
      "bác": 2257,
      "cạo": 2258,
      "Đối": 2259,
      "ịt": 2260,
      "thác": 2261,
      "thầm": 2262,
      "trực": 2263,
      "Tha": 2264,
      "hoạch": 2265,
      "dưỡng": 2266,
      "Bô": 2267,
      "Tô": 2268,
      "hèn": 2269,
      "kg": 2270,
      "nén": 2271,
      "sử": 2272,
      "Đoạn": 2273,
      "ịp": 2274,
      "ngừng": 2275,
      "trữ": 2276,
      "choàng": 2277,
      "Giữa": 2278,
      "Ghinh": 2279,
      "Hi": 2280,
      "bó": 2281,
      "bối": 2282,
      "cắn": 2283,
      "gối": 2284,
      "hảo": 2285,
      "hỏa": 2286,
      "lanh": 2287,
      "lọc": 2288,
      "mái": 2289,
      "rập": 2290,
      "rung": 2291,
      "sương": 2292,
      "xâm": 2293,
      "đài": 2294,
      "đứt": 2295,
      "ỏng": 2296,
      "trải": 2297,
      "khen": 2298,
      "phơ": 2299,
      "giặt": 2300,
      "mãn": 2301,
      "Ghẹt": 2302,
      "chớp": 2303,
      "bão": 2304,
      "cày": 2305,
      "góp": 2306,
      "kiện": 2307,
      "niệm": 2308,
      "roi": 2309,
      "rạng": 2310,
      "sấm": 2311,
      "uồng": 2312,
      "ìm": 2313,
      "đơ": 2314,
      "phẫn": 2315,
      "giơ": 2316,
      "hãm": 2317,
      "Lót": 2318,
      "Mẹ": 2319,
      "Ni": 2320,
      "bè": 2321,
      "cắp": 2322,
      "gửi": 2323,
      "ly": 2324,
      "lít": 2325,
      "nồi": 2326,
      "tứ": 2327,
      "đe": 2328,
      "đẽ": 2329,
      "trò": 2330,
      "khe": 2331,
      "khói": 2332,
      "Thê": 2333,
      "màu": 2334,
      "Nói": 2335,
      "bách": 2336,
      "bồn": 2337,
      "dào": 2338,
      "lựa": 2339,
      "xóa": 2340,
      "Đồng": 2341,
      "đàng": 2342,
      "ngon": 2343,
      "trầm": 2344,
      "khủng": 2345,
      "Thân": 2346,
      "Kế": 2347,
      "Rời": 2348,
      "dẹp": 2349,
      "gầm": 2350,
      "lượm": 2351,
      "rể": 2352,
      "răng": 2353,
      "rậm": 2354,
      "tí": 2355,
      "tung": 2356,
      "Éc": 2357,
      "ệnh": 2358,
      "nhậm": 2359,
      "chém": 2360,
      "đam": 2361,
      "thuẫn": 2362,
      "khoen": 2363,
      "buôn": 2364,
      "),": 2365,
      "Sử": 2366,
      "Tai": 2367,
      "bốc": 2368,
      "dời": 2369,
      "duy": 2370,
      "dường": 2371,
      "gẫy": 2372,
      "hung": 2373,
      "hầm": 2374,
      "kịp": 2375,
      "náu": 2376,
      "nạp": 2377,
      "sầu": 2378,
      "sốt": 2379,
      "tàng": 2380,
      "táng": 2381,
      "un": 2382,
      "ván": 2383,
      "ớt": 2384,
      "ngờ": 2385,
      "chốn": 2386,
      "trục": 2387,
      "phan": 2388,
      "giỏ": 2389,
      "ượn": 2390,
      "điên": 2391,
      "uyến": 2392,
      "Biết": 2393,
      "Cơn": 2394,
      "Cạt": 2395,
      "Nào": 2396,
      "Tổng": 2397,
      "bốt": 2398,
      "cực": 2399,
      "dày": 2400,
      "hông": 2401,
      "sô": 2402,
      "vẹn": 2403,
      "xinh": 2404,
      "èm": 2405,
      "Đàng": 2406,
      "chai": 2407,
      "thám": 2408,
      "quấn": 2409,
      "hiểm": 2410,
      "tiếc": 2411,
      "viễn": 2412,
      "thuở": 2413,
      "Sống": 2414,
      "bữa": 2415,
      "côi": 2416,
      "cam": 2417,
      "múa": 2418,
      "rên": 2419,
      "rúc": 2420,
      "ríp": 2421,
      "so": 2422,
      "sét": 2423,
      "vầng": 2424,
      "thôn": 2425,
      "thang": 2426,
      "then": 2427,
      "trưa": 2428,
      "truồng": 2429,
      "khuất": 2430,
      "thiếp": 2431,
      "doanh": 2432,
      "khoang": 2433,
      "huệ": 2434,
      "tuần": 2435,
      "điệp": 2436,
      "bù": 2437,
      "dệt": 2438,
      "gãy": 2439,
      "gẫm": 2440,
      "mốc": 2441,
      "va": 2442,
      "văn": 2443,
      "đắp": 2444,
      "đạt": 2445,
      "đĩa": 2446,
      "ẳm": 2447,
      "thẳm": 2448,
      "phô": 2449,
      "què": 2450,
      "quấy": 2451,
      "quét": 2452,
      "tuôn": 2453,
      "xoay": 2454,
      "tím": 2455,
      "Hinh": 2456,
      "Miệng": 2457,
      "Số": 2458,
      "bồi": 2459,
      "dấy": 2460,
      "dàn": 2461,
      "hà": 2462,
      "hồng": 2463,
      "mảnh": 2464,
      "nương": 2465,
      "nít": 2466,
      "rúng": 2467,
      "xảo": 2468,
      "Đầy": 2469,
      "đảng": 2470,
      "ẫu": 2471,
      "ựu": 2472,
      "chắt": 2473,
      "châu": 2474,
      "chừa": 2475,
      "thách": 2476,
      "trổ": 2477,
      "phe": 2478,
      "quí": 2479,
      "nghề": 2480,
      "Cơ": 2481,
      "Tối": 2482,
      "dát": 2483,
      "dạn": 2484,
      "gào": 2485,
      "hễ": 2486,
      "hỉ": 2487,
      "lặn": 2488,
      "nỉ": 2489,
      "sập": 2490,
      "sóng": 2491,
      "tá": 2492,
      "ngõ": 2493,
      "thọ": 2494,
      "thúc": 2495,
      "ngưng": 2496,
      "quà": 2497,
      "bịnh": 2498,
      "Hắn": 2499,
      "Ký": 2500,
      "Lấy": 2501,
      "dụ": 2502,
      "hét": 2503,
      "lăng": 2504,
      "mập": 2505,
      "nướng": 2506,
      "rắc": 2507,
      "tái": 2508,
      "ênh": 2509,
      "đục": 2510,
      "ĩnh": 2511,
      "Ạc": 2512,
      "nhiệt": 2513,
      "thiệt": 2514,
      "phết": 2515,
      "nguôi": 2516,
      "dịp": 2517,
      "Lập": 2518,
      "Lạp": 2519,
      "dể": 2520,
      "hê": 2521,
      "hỗ": 2522,
      "heo": 2523,
      "lết": 2524,
      "lấp": 2525,
      "mên": 2526,
      "mẫu": 2527,
      "rác": 2528,
      "rải": 2529,
      "ràng": 2530,
      "tước": 2531,
      "ví": 2532,
      "đẩy": 2533,
      "ụi": 2534,
      "chợ": 2535,
      "chán": 2536,
      "trợ": 2537,
      "trút": 2538,
      "khung": 2539,
      "phế": 2540,
      "ruột": 2541,
      "thuê": 2542,
      "lụt": 2543,
      "Mã": 2544,
      "bú": 2545,
      "cống": 2546,
      "câm": 2547,
      "dao": 2548,
      "gương": 2549,
      "hút": 2550,
      "kiệt": 2551,
      "nẩy": 2552,
      "rai": 2553,
      "rầu": 2554,
      "rét": 2555,
      "soi": 2556,
      "vò": 2557,
      "Đấy": 2558,
      "nhẹ": 2559,
      "thốn": 2560,
      "giỏi": 2561,
      "Chuộc": 2562,
      "cản": 2563,
      "khiêm": 2564,
      "khiển": 2565,
      "mãnh": 2566,
      "rơm": 2567,
      "Nun": 2568,
      "Ráp": 2569,
      "cờ": 2570,
      "cám": 2571,
      "dính": 2572,
      "dập": 2573,
      "lôi": 2574,
      "lòa": 2575,
      "lựu": 2576,
      "mồng": 2577,
      "nấu": 2578,
      "rưỡi": 2579,
      "tị": 2580,
      "tạc": 2581,
      "vay": 2582,
      "Đem": 2583,
      "nhồi": 2584,
      "thạch": 2585,
      "giục": 2586,
      "giăng": 2587,
      "Chân": 2588,
      "Khỏi": 2589,
      "ghép": 2590,
      "nghiêng": 2591,
      "Binh": 2592,
      "Cu": 2593,
      "Của": 2594,
      "Dưới": 2595,
      "Mát": 2596,
      "Quyền": 2597,
      "Tê": 2598,
      "cự": 2599,
      "cởi": 2600,
      "dễ": 2601,
      "dật": 2602,
      "dạng": 2603,
      "gài": 2604,
      "gan": 2605,
      "gắng": 2606,
      "kỹ": 2607,
      "mượn": 2608,
      "nối": 2609,
      "om": 2610,
      "rình": 2611,
      "song": 2612,
      "tách": 2613,
      "Óc": 2614,
      "đùi": 2615,
      "ọa": 2616,
      "nhúng": 2617,
      "thêu": 2618,
      "thâu": 2619,
      "trán": 2620,
      "phí": 2621,
      "phả": 2622,
      "điền": 2623,
      "quen": 2624,
      "lum": 2625,
      "sen": 2626,
      "bụa": 2627,
      "Bọn": 2628,
      "Lửa": 2629,
      "Manh": 2630,
      "Mấy": 2631,
      "Vị": 2632,
      "bọ": 2633,
      "dung": 2634,
      "kí": 2635,
      "múc": 2636,
      "mót": 2637,
      "náo": 2638,
      "nứt": 2639,
      "sôi": 2640,
      "sồi": 2641,
      "đẻ": 2642,
      "ốp": 2643,
      "chữ": 2644,
      "chước": 2645,
      "thà": 2646,
      "thây": 2647,
      "trũng": 2648,
      "khấn": 2649,
      "Chúc": 2650,
      "tia": 2651,
      "quảng": 2652,
      "Thăm": 2653,
      "muối": 2654,
      "Sim": 2655,
      "dựa": 2656,
      "đoan": 2657,
      "Dùng": 2658,
      "Líp": 2659,
      "Nay": 2660,
      "San": 2661,
      "Tình": 2662,
      "béo": 2663,
      "côn": 2664,
      "cặp": 2665,
      "dáng": 2666,
      "hòn": 2667,
      "hừng": 2668,
      "kin": 2669,
      "len": 2670,
      "mày": 2671,
      "nản": 2672,
      "Ăn": 2673,
      "đấng": 2674,
      "ỏe": 2675,
      "ờng": 2676,
      "”.": 2677,
      "trạng": 2678,
      "phú": 2679,
      "giã": 2680,
      "Giống": 2681,
      "Phía": 2682,
      "Khiến": 2683,
      "hãnh": 2684,
      "Bánh": 2685,
      "Cứ": 2686,
      "Dầu": 2687,
      "Mặc": 2688,
      "bai": 2689,
      "dép": 2690,
      "lường": 2691,
      "me": 2692,
      "may": 2693,
      "nếm": 2694,
      "núp": 2695,
      "não": 2696,
      "rào": 2697,
      "sánh": 2698,
      "tú": 2699,
      "tỳ": 2700,
      "tống": 2701,
      "ve": 2702,
      "xếp": 2703,
      "Đô": 2704,
      "Đường": 2705,
      "ngại": 2706,
      "ngắn": 2707,
      "chổi": 2708,
      "chậm": 2709,
      "chìm": 2710,
      "thô": 2711,
      "thùng": 2712,
      "trộn": 2713,
      "khỏe": 2714,
      "giầu": 2715,
      "Nhân": 2716,
      "biểu": 2717,
      "siếc": 2718,
      "xiết": 2719,
      "bênh": 2720,
      "nghiền": 2721,
      "dịu": 2722,
      "Xiếc": 2723,
      "Bàn": 2724,
      "Dít": 2725,
      "Mác": 2726,
      "Núi": 2727,
      "bông": 2728,
      "bỗng": 2729,
      "gỡ": 2730,
      "lẻ": 2731,
      "lình": 2732,
      "leo": 2733,
      "lớp": 2734,
      "mỹ": 2735,
      "mết": 2736,
      "mét": 2737,
      "nín": 2738,
      "rèn": 2739,
      "rãi": 2740,
      "rụi": 2741,
      "sậy": 2742,
      "tuyết": 2743,
      "xà": 2744,
      "ìu": 2745,
      "Đều": 2746,
      "thóc": 2747,
      "thuyết": 2748,
      "trọ": 2749,
      "khối": 2750,
      "phiên": 2751,
      "giễu": 2752,
      "rau": 2753,
      "Giép": 2754,
      "nhường": 2755,
      "Thà": 2756,
      "nghênh": 2757,
      "tổn": 2758,
      "5m": 2759,
      "Bệ": 2760,
      "Bao": 2761,
      "Bát": 2762,
      "Vinh": 2763,
      "Vương": 2764,
      "gô": 2765,
      "gấu": 2766,
      "gáy": 2767,
      "gom": 2768,
      "long": 2769,
      "lay": 2770,
      "lăn": 2771,
      "lục": 2772,
      "mả": 2773,
      "rếp": 2774,
      "xuân": 2775,
      "đắc": 2776,
      "chóng": 2777,
      "khuyến": 2778,
      "phường": 2779,
      "Chị": 2780,
      "Chàng": 2781,
      "điềm": 2782,
      "nhoáng": 2783,
      "cuồng": 2784,
      "Kẻo": 2785,
      "tỏa": 2786,
      "toan": 2787,
      "diễn": 2788,
      "Muôn": 2789,
      "500": 2790,
      "Kích": 2791,
      "Lều": 2792,
      "Mười": 2793,
      "Tốt": 2794,
      "bàng": 2795,
      "dột": 2796,
      "gốm": 2797,
      "lồ": 2798,
      "miện": 2799,
      "mắng": 2800,
      "oán": 2801,
      "rước": 2802,
      "râu": 2803,
      "tể": 2804,
      "tông": 2805,
      "vú": 2806,
      "Đứa": 2807,
      "đằng": 2808,
      "ếch": 2809,
      "chinh": 2810,
      "chậu": 2811,
      "thình": 2812,
      "thạo": 2813,
      "thấm": 2814,
      "trôi": 2815,
      "khúc": 2816,
      "pho": 2817,
      "giốt": 2818,
      "Trái": 2819,
      "biếng": 2820,
      "đáo": 2821,
      "chuồng": 2822,
      "chuộng": 2823,
      "phia": 2824,
      "điệu": 2825,
      "vãn": 2826,
      "bùn": 2827,
      "10": 2828,
      "80": 2829,
      "Bảy": 2830,
      "Loài": 2831,
      "Sư": 2832,
      "Tế": 2833,
      "Tâm": 2834,
      "Xong": 2835,
      "Xim": 2836,
      "bơ": 2837,
      "bừng": 2838,
      "bãi": 2839,
      "cáp": 2840,
      "củng": 2841,
      "hở": 2842,
      "mờ": 2843,
      "mướ": 2844,
      "mệnh": 2845,
      "rã": 2846,
      "sưa": 2847,
      "sáo": 2848,
      "sói": 2849,
      "tệ": 2850,
      "vứt": 2851,
      "Đứng": 2852,
      "đè": 2853,
      "đậu": 2854,
      "ngả": 2855,
      "nhũ": 2856,
      "chơi": 2857,
      "chục": 2858,
      "chấu": 2859,
      "thói": 2860,
      "kiểu": 2861,
      "sung": 2862,
      "niêm": 2863,
      "giảm": 2864,
      "đuôi": 2865,
      "Thiếu": 2866,
      "đẽo": 2867,
      "400": 2868,
      "Bình": 2869,
      "Cánh": 2870,
      "Cái": 2871,
      "Cậu": 2872,
      "Kết": 2873,
      "Nữ": 2874,
      "Ri": 2875,
      "Tu": 2876,
      "Vả": 2877,
      "Viên": 2878,
      "Xu": 2879,
      "bực": 2880,
      "bám": 2881,
      "bạch": 2882,
      "bén": 2883,
      "duyên": 2884,
      "hàm": 2885,
      "lùng": 2886,
      "mụ": 2887,
      "mức": 2888,
      "meo": 2889,
      "sành": 2890,
      "sườn": 2891,
      "soạn": 2892,
      "tiện": 2893,
      "tưới": 2894,
      "tuế": 2895,
      "xúi": 2896,
      "Đêm": 2897,
      "Ếch": 2898,
      "ngào": 2899,
      "nhánh": 2900,
      "nhằn": 2901,
      "chóc": 2902,
      "thắp": 2903,
      "khờ": 2904,
      "phì": 2905,
      "Khác": 2906,
      "tựa": 2907,
      "cưỡng": 2908,
      "quyệt": 2909,
      "Bu": 2910,
      "Cát": 2911,
      "Gươm": 2912,
      "Lớn": 2913,
      "Ninh": 2914,
      "Sanh": 2915,
      "Vợ": 2916,
      "Vâng": 2917,
      "Xem": 2918,
      "dọa": 2919,
      "gà": 2920,
      "lõ": 2921,
      "lật": 2922,
      "lộc": 2923,
      "lọt": 2924,
      "nông": 2925,
      "son": 2926,
      "sững": 2927,
      "soát": 2928,
      "õng": 2929,
      "Đúng": 2930,
      "ngà": 2931,
      "chồi": 2932,
      "chuyền": 2933,
      "châm": 2934,
      "thủng": 2935,
      "trổi": 2936,
      "truân": 2937,
      "trùm": 2938,
      "khanh": 2939,
      "khao": 2940,
      "phen": 2941,
      "Thu": 2942,
      "Thô": 2943,
      "viếng": 2944,
      "miễn": 2945,
      "khoác": 2946,
      "quyến": 2947,
      "Quý": 2948,
      "Cuối": 2949,
      "mướn": 2950,
      "Hạt": 2951,
      "Lã": 2952,
      "Lô": 2953,
      "Sông": 2954,
      "Sem": 2955,
      "Tổ": 2956,
      "Tích": 2957,
      "cọc": 2958,
      "gm": 2959,
      "hăng": 2960,
      "lầu": 2961,
      "mối": 2962,
      "mọn": 2963,
      "nại": 2964,
      "nắng": 2965,
      "rủ": 2966,
      "yết": 2967,
      "Ánh": 2968,
      "ìn": 2969,
      "ýt": 2970,
      "Đáng": 2971,
      "ổn": 2972,
      "chương": 2973,
      "chốc": 2974,
      "trượng": 2975,
      "khá": 2976,
      "giày": 2977,
      "giật": 2978,
      "giêng": 2979,
      "Chưa": 2980,
      "Giai": 2981,
      "nóc": 2982,
      "Trưởng": 2983,
      "quận": 2984,
      "quặn": 2985,
      "Thời": 2986,
      "Than": 2987,
      "Thim": 2988,
      "hiếu": 2989,
      "Phu": 2990,
      "rượt": 2991,
      "chuốc": 2992,
      "bớt": 2993,
      "Lãnh": 2994,
      "22": 2995,
      "24": 2996,
      "30": 2997,
      ";”": 2998,
      "Di": 2999,
      "Hễ": 3000,
      "Hẹt": 3001,
      "Kít": 3002,
      "Xác": 3003,
      "du": 3004,
      "dốc": 3005,
      "gót": 3006,
      "hớn": 3007,
      "lười": 3008,
      "luống": 3009,
      "lộn": 3010,
      "nàn": 3011,
      "noi": 3012,
      "rụng": 3013,
      "rìu": 3014,
      "té": 3015,
      "túng": 3016,
      "túp": 3017,
      "um": 3018,
      "xay": 3019,
      "Đỏ": 3020,
      "đành": 3021,
      "”,": 3022,
      "ngòi": 3023,
      "nhọt": 3024,
      "chỗi": 3025,
      "thua": 3026,
      "thảo": 3027,
      "trô": 3028,
      "truy": 3029,
      "tròn": 3030,
      "khớp": 3031,
      "Chung": 3032,
      "Giốc": 3033,
      "nót": 3034,
      "Thuộc": 3035,
      "ươn": 3036,
      "bịt": 3037,
      "Phát": 3038,
      "thia": 3039,
      "mia": 3040,
      "ghế": 3041,
      "Tiểu": 3042,
      "khuôn": 3043,
      "Bốn": 3044,
      "Ly": 3045,
      "Rim": 3046,
      "Tạo": 3047,
      "búa": 3048,
      "bồng": 3049,
      "cài": 3050,
      "dã": 3051,
      "dồn": 3052,
      "hả": 3053,
      "hôi": 3054,
      "hỏng": 3055,
      "kèm": 3056,
      "lở": 3057,
      "má": 3058,
      "nắp": 3059,
      "nắn": 3060,
      "nịt": 3061,
      "rũ": 3062,
      "tầm": 3063,
      "tĩnh": 3064,
      "vỏ": 3065,
      "vân": 3066,
      "vươn": 3067,
      "xô": 3068,
      "xua": 3069,
      "Đế": 3070,
      "Đàn": 3071,
      "ẻo": 3072,
      "ỉa": 3073,
      "nhặt": 3074,
      "thối": 3075,
      "thừng": 3076,
      "khố": 3077,
      "Ngôi": 3078,
      "Ngọn": 3079,
      "Ngựa": 3080,
      "Cháu": 3081,
      "hiền": 3082,
      "lim": 3083,
      "luồng": 3084,
      "hạng": 3085,
      "vuông": 3086,
      "đoạn": 3087,
      "khoản": 3088,
      "xuẩn": 3089,
      "200": 3090,
      "Báp": 3091,
      "Buổi": 3092,
      "Cụ": 3093,
      "Cổng": 3094,
      "Mên": 3095,
      "Minh": 3096,
      "Mít": 3097,
      "Rượ": 3098,
      "Síp": 3099,
      "bôi": 3100,
      "cỗ": 3101,
      "cỡi": 3102,
      "dỡ": 3103,
      "hưng": 3104,
      "lốt": 3105,
      "lách": 3106,
      "lót": 3107,
      "mũ": 3108,
      "mạo": 3109,
      "nể": 3110,
      "ninh": 3111,
      "oa": 3112,
      "sắm": 3113,
      "síp": 3114,
      "túc": 3115,
      "xược": 3116,
      "Ôm": 3117,
      "ãn": 3118,
      "Đầu": 3119,
      "Đặt": 3120,
      "đột": 3121,
      "đậy": 3122,
      "thỉnh": 3123,
      "trào": 3124,
      "truất": 3125,
      "phơi": 3126,
      "giác": 3127,
      "giặc": 3128,
      "ướt": 3129,
      "điếc": 3130,
      "Tháp": 3131,
      "hoãn": 3132,
      "kiềm": 3133,
      "liêng": 3134,
      "thiêng": 3135,
      "lãng": 3136,
      "mim": 3137,
      "vụn": 3138,
      "chui": 3139,
      "50m": 3140,
      "chợt": 3141,
      "Rượu": 3142,
      ".)": 3143,
      "20": 3144,
      "60": 3145,
      "Bằng": 3146,
      "Bắt": 3147,
      "Bạc": 3148,
      "Bảo": 3149,
      "Cai": 3150,
      "Dọc": 3151,
      "Huống": 3152,
      "Lên": 3153,
      "Lại": 3154,
      "Ne": 3155,
      "Nim": 3156,
      "Rỗi": 3157,
      "Tạc": 3158,
      "bứng": 3159,
      "bút": 3160,
      "cạm": 3161,
      "cặn": 3162,
      "dinh": 3163,
      "dang": 3164,
      "hốt": 3165,
      "huống": 3166,
      "mơ": 3167,
      "mộc": 3168,
      "mít": 3169,
      "mực": 3170,
      "nếp": 3171,
      "oai": 3172,
      "rống": 3173,
      "rỗng": 3174,
      "tờ": 3175,
      "vá": 3176,
      "vỗ": 3177,
      "ven": 3178,
      "xẻ": 3179,
      "Đá": 3180,
      "Đoàn": 3181,
      "đốm": 3182,
      "nhái": 3183,
      "nhịn": 3184,
      "chùm": 3185,
      "thèm": 3186,
      "phai": 3187,
      "giọt": 3188,
      "Cham": 3189,
      "tam": 3190,
      "quì": 3191,
      "quỵ": 3192,
      "khiêu": 3193,
      "sum": 3194,
      "liều": 3195,
      "Khắp": 3196,
      "lau": 3197,
      "sim": 3198,
      "bun": 3199,
      "khổng": 3200,
      "huyệt": 3201,
      "vòm": 3202,
      "110": 3203,
      "600": 3204,
      "Biệt": 3205,
      "Bích": 3206,
      "Bỗng": 3207,
      "Hình": 3208,
      "Hàng": 3209,
      "Mách": 3210,
      "Máu": 3211,
      "Men": 3212,
      "Nắp": 3213,
      "Ranh": 3214,
      "Sức": 3215,
      "Xương": 3216,
      "bang": 3217,
      "bứt": 3218,
      "cong": 3219,
      "cầy": 3220,
      "cương": 3221,
      "cỏi": 3222,
      "căm": 3223,
      "cùm": 3224,
      "dàng": 3225,
      "gạch": 3226,
      "hao": 3227,
      "hấp": 3228,
      "lấn": 3229,
      "lẫy": 3230,
      "lĩnh": 3231,
      "mài": 3232,
      "mầy": 3233,
      "méc": 3234,
      "nung": 3235,
      "tả": 3236,
      "tịch": 3237,
      "vẽ": 3238,
      "vồ": 3239,
      "vạt": 3240,
      "xỏ": 3241,
      "xấc": 3242,
      "xóm": 3243,
      "đố": 3244,
      "đua": 3245,
      "đéc": 3246,
      "đùa": 3247,
      "đượm": 3248,
      "ngành": 3249,
      "ngắm": 3250,
      "nhở": 3251,
      "nhắm": 3252,
      "chõng": 3253,
      "trù": 3254,
      "trùng": 3255,
      "tráng": 3256,
      "trọc": 3257,
      "khuyết": 3258,
      "khóa": 3259,
      "giẫm": 3260,
      "Chiều": 3261,
      "Thanh": 3262,
      "Nhìn": 3263,
      "hiếm": 3264,
      "biếu": 3265,
      "đáy": 3266,
      "Phân": 3267,
      "viền": 3268,
      "triền": 3269,
      "tựu": 3270,
      "thuốc": 3271,
      "buông": 3272,
      "cơm": 3273,
      "quyển": 3274,
      "nhuệ": 3275,
      "phun": 3276,
      "Dạ": 3277,
      "En": 3278,
      "Gót": 3279,
      "Tể": 3280,
      "Tự": 3281,
      "Tin": 3282,
      "Tìm": 3283,
      "bủa": 3284,
      "bọt": 3285,
      "cạp": 3286,
      "cằn": 3287,
      "dược": 3288,
      "gôn": 3289,
      "hua": 3290,
      "lỡ": 3291,
      "láo": 3292,
      "lốc": 3293,
      "lảo": 3294,
      "mửa": 3295,
      "nác": 3296,
      "nôm": 3297,
      "nẻo": 3298,
      "rền": 3299,
      "rồng": 3300,
      "rạp": 3301,
      "sắng": 3302,
      "tành": 3303,
      "tắc": 3304,
      "túi": 3305,
      "tẩm": 3306,
      "vọt": 3307,
      "Đưa": 3308,
      "Đám": 3309,
      "Địa": 3310,
      "Ết": 3311,
      "ngân": 3312,
      "nhai": 3313,
      "nhựa": 3314,
      "chư": 3315,
      "chận": 3316,
      "chập": 3317,
      "chít": 3318,
      "chèo": 3319,
      "chỏa": 3320,
      "thúng": 3321,
      "thốt": 3322,
      "trễ": 3323,
      "trích": 3324,
      "khốc": 3325,
      "khuân": 3326,
      "phẳng": 3327,
      "đim": 3328,
      "Trở": 3329,
      "Thể": 3330,
      "Thôi": 3331,
      "Thay": 3332,
      "Thượng": 3333,
      "cảng": 3334,
      "hin": 3335,
      "Phụ": 3336,
      "liềm": 3337,
      "liễu": 3338,
      "hạch": 3339,
      "ghé": 3340,
      "trụi": 3341,
      "lạnh": 3342,
      "Quả": 3343,
      "110gm": 3344,
      "Bò": 3345,
      "Cung": 3346,
      "Dâng": 3347,
      "Há": 3348,
      "Hóa": 3349,
      "Lệnh": 3350,
      "Mai": 3351,
      "Mùa": 3352,
      "Nằm": 3353,
      "Ram": 3354,
      "Sết": 3355,
      "Sinh": 3356,
      "Tiệt": 3357,
      "Vết": 3358,
      "Vật": 3359,
      "Xanh": 3360,
      "bã": 3361,
      "cọ": 3362,
      "cán": 3363,
      "cấu": 3364,
      "diều": 3365,
      "gát": 3366,
      "hẹp": 3367,
      "ka": 3368,
      "kề": 3369,
      "ken": 3370,
      "lì": 3371,
      "lắc": 3372,
      "lút": 3373,
      "mọ": 3374,
      "mại": 3375,
      "mạn": 3376,
      "oại": 3377,
      "oan": 3378,
      "rạ": 3379,
      "sùng": 3380,
      "tốn": 3381,
      "táo": 3382,
      "vút": 3383,
      "xã": 3384,
      "xỉ": 3385,
      "xôi": 3386,
      "yến": 3387,
      "Đời": 3388,
      "Đôi": 3389,
      "đạc": 3390,
      "ẹo": 3391,
      "Ọt": 3392,
      "ợn": 3393,
      "ửng": 3394,
      "ngất": 3395,
      "chói": 3396,
      "chạng": 3397,
      "thửa": 3398,
      "trứng": 3399,
      "triệt": 3400,
      "trấu": 3401,
      "trưng": 3402,
      "khuy": 3403,
      "khảo": 3404,
      "phỉ": 3405,
      "gié": 3406,
      "Gió": 3407,
      "Trọn": 3408,
      "ưởi": 3409,
      "thun": 3410,
      "đuốc": 3411,
      "Quan": 3412,
      "nguyệt": 3413,
      "50kg": 3414,
      "hỗn": 3415,
      "80kg": 3416,
      "lõm": 3417,
      "mọp": 3418,
      ";’": 3419,
      "Bắc": 3420,
      "Cổ": 3421,
      "Cáp": 3422,
      "Gặp": 3423,
      "Hơi": 3424,
      "Hiện": 3425,
      "Lý": 3426,
      "Mời": 3427,
      "Mũi": 3428,
      "Nền": 3429,
      "Nam": 3430,
      "Tinh": 3431,
      "Tướng": 3432,
      "Xíp": 3433,
      "bùng": 3434,
      "gân": 3435,
      "gang": 3436,
      "hận": 3437,
      "hách": 3438,
      "hẹn": 3439,
      "lái": 3440,
      "lượt": 3441,
      "lùa": 3442,
      "mác": 3443,
      "nem": 3444,
      "ráp": 3445,
      "rạch": 3446,
      "sỏi": 3447,
      "tủi": 3448,
      "tỉa": 3449,
      "vạ": 3450,
      "vận": 3451,
      "vung": 3452,
      "vạch": 3453,
      "vạng": 3454,
      "úm": 3455,
      "Đông": 3456,
      "Đánh": 3457,
      "Đáp": 3458,
      "Đóng": 3459,
      "đấm": 3460,
      "đèo": 3461,
      "ờn": 3462,
      "nhát": 3463,
      "nhốt": 3464,
      "nhượng": 3465,
      "chì": 3466,
      "chực": 3467,
      "the": 3468,
      "thự": 3469,
      "trạm": 3470,
      "phối": 3471,
      "Chạy": 3472,
      "Chồng": 3473,
      "đãng": 3474,
      "Giáp": 3475,
      "tao": 3476,
      "quạ": 3477,
      "Thú": 3478,
      "Thức": 3479,
      "Thung": 3480,
      "hia": 3481,
      "khiếu": 3482,
      "ruồi": 3483,
      "ruồng": 3484,
      "ngoảnh": 3485,
      "lãi": 3486,
      "nim": 3487,
      "khoa": 3488,
      "nun": 3489,
      "hum": 3490,
      "phiến": 3491,
      "Quỷ": 3492,
      "25m": 3493,
      "45": 3494,
      "Bước": 3495,
      "Bầy": 3496,
      "Bốt": 3497,
      "Bạn": 3498,
      "Cớ": 3499,
      "Cảm": 3500,
      "Da": 3501,
      "Dẫn": 3502,
      "Hà": 3503,
      "Khoảng": 3504,
      "Nỗi": 3505,
      "Ríp": 3506,
      "Sứ": 3507,
      "Sách": 3508,
      "Tù": 3509,
      "Tác": 3510,
      "Xáp": 3511,
      "Xoa": 3512,
      "bến": 3513,
      "bận": 3514,
      "bẩn": 3515,
      "cú": 3516,
      "dĩ": 3517,
      "hớt": 3518,
      "lược": 3519,
      "lỏng": 3520,
      "mông": 3521,
      "manh": 3522,
      "mầm": 3523,
      "mặn": 3524,
      "nịnh": 3525,
      "rỉ": 3526,
      "rưới": 3527,
      "sưng": 3528,
      "sưởi": 3529,
      "tột": 3530,
      "tía": 3531,
      "vôi": 3532,
      "xen": 3533,
      "Đội": 3534,
      "đác": 3535,
      "đong": 3536,
      "ẩu": 3537,
      "ặm": 3538,
      "Ốt": 3539,
      "ngẫm": 3540,
      "nhơ": 3541,
      "nhào": 3542,
      "nhen": 3543,
      "nhẹn": 3544,
      "nhấc": 3545,
      "thết": 3546,
      "thít": 3547,
      "khơi": 3548,
      "phấn": 3549,
      "phim": 3550,
      "giây": 3551,
      "giấm": 3552,
      "Ngu": 3553,
      "Chống": 3554,
      "Chim": 3555,
      "Giải": 3556,
      "Giốp": 3557,
      "Tri": 3558,
      "quệ": 3559,
      "quát": 3560,
      "quẫn": 3561,
      "nghệ": 3562,
      "hoạt": 3563,
      "giang": 3564,
      "muội": 3565,
      "khoét": 3566,
      "trụy": 3567,
      "chuột": 3568,
      "nhiếc": 3569,
      "cửu": 3570,
      "nhuộm": 3571,
      "khuấy": 3572,
      "xoa": 3573,
      "lụa": 3574,
      "lẻn": 3575,
      "khuya": 3576,
      "100": 3577,
      "23": 3578,
      "300": 3579,
      "72": 3580,
      "75m": 3581,
      "9m": 3582,
      "Bin": 3583,
      "Bóng": 3584,
      "Cách": 3585,
      "Cọt": 3586,
      "Gần": 3587,
      "Hầu": 3588,
      "Im": 3589,
      "Mới": 3590,
      "Mam": 3591,
      "Rằng": 3592,
      "Rốt": 3593,
      "Se": 3594,
      "Sáu": 3595,
      "Tàn": 3596,
      "Tảng": 3597,
      "Vi": 3598,
      "Vu": 3599,
      "Vài": 3600,
      "Xứ": 3601,
      "bích": 3602,
      "bừa": 3603,
      "bùa": 3604,
      "co": 3605,
      "cấy": 3606,
      "dải": 3607,
      "dầm": 3608,
      "gõ": 3609,
      "gầy": 3610,
      "hí": 3611,
      "han": 3612,
      "kẽ": 3613,
      "lội": 3614,
      "lừng": 3615,
      "lặp": 3616,
      "liệm": 3617,
      "mé": 3618,
      "mền": 3619,
      "máng": 3620,
      "máy": 3621,
      "mềm": 3622,
      "mỏng": 3623,
      "nây": 3624,
      "re": 3625,
      "rinh": 3626,
      "rúp": 3627,
      "súp": 3628,
      "tát": 3629,
      "vất": 3630,
      "văng": 3631,
      "viện": 3632,
      "xôn": 3633,
      "xăm": 3634,
      "xách": 3635,
      "Đồ": 3636,
      "đẫm": 3637,
      "’,": 3638,
      "ngặt": 3639,
      "ngạnh": 3640,
      "chẻ": 3641,
      "chài": 3642,
      "tho": 3643,
      "thậm": 3644,
      "trương": 3645,
      "khôi": 3646,
      "khánh": 3647,
      "giòng": 3648,
      "Chu": 3649,
      "Chê": 3650,
      "Chỗ": 3651,
      "Chén": 3652,
      "rang": 3653,
      "điểu": 3654,
      "Giạt": 3655,
      "Trô": 3656,
      "tiễn": 3657,
      "bin": 3658,
      "loa": 3659,
      "muộn": 3660,
      "triển": 3661,
      "nui": 3662,
      "hộp": 3663,
      "Quản": 3664,
      "bổn": 3665,
      "nhuần": 3666,
      "hốp": 3667,
      "xui": 3668,
      "Thuở": 3669,
      "Vui": 3670,
      "Biên": 3671,
      "Dây": 3672,
      "Gu": 3673,
      "Gai": 3674,
      "Hải": 3675,
      "Hủy": 3676,
      "Kể": 3677,
      "Kho": 3678,
      "Lần": 3679,
      "Mưa": 3680,
      "Sép": 3681,
      "Tư": 3682,
      "Tài": 3683,
      "Tây": 3684,
      "Vực": 3685,
      "Xe": 3686,
      "bật": 3687,
      "bét": 3688,
      "bóp": 3689,
      "dủ": 3690,
      "dần": 3691,
      "dẫm": 3692,
      "hè": 3693,
      "hứng": 3694,
      "hâu": 3695,
      "hót": 3696,
      "lầy": 3697,
      "lộng": 3698,
      "lén": 3699,
      "lượn": 3700,
      "miệt": 3701,
      "mịt": 3702,
      "nét": 3703,
      "nọc": 3704,
      "nảy": 3705,
      "quyên": 3706,
      "rầy": 3707,
      "rớt": 3708,
      "sin": 3709,
      "sướng": 3710,
      "sẩy": 3711,
      "sệt": 3712,
      "vấy": 3713,
      "vẩy": 3714,
      "vùi": 3715,
      "xan": 3716,
      "xao": 3717,
      "xim": 3718,
      "Ác": 3719,
      "Óp": 3720,
      "Đổ": 3721,
      "đính": 3722,
      "đăng": 3723,
      "đầm": 3724,
      "’.": 3725,
      "ngộ": 3726,
      "nhàn": 3727,
      "chìa": 3728,
      "chặn": 3729,
      "chụp": 3730,
      "thí": 3731,
      "thăng": 3732,
      "trề": 3733,
      "trật": 3734,
      "trội": 3735,
      "trúc": 3736,
      "trắc": 3737,
      "vành": 3738,
      "phút": 3739,
      "phéc": 3740,
      "giê": 3741,
      "giành": 3742,
      "giầy": 3743,
      "giọng": 3744,
      "Giáo": 3745,
      "họng": 3746,
      "Trung": 3747,
      "cóc": 3748,
      "quặt": 3749,
      "quái": 3750,
      "Thịt": 3751,
      "nghiệt": 3752,
      "nghén": 3753,
      "nghẹt": 3754,
      "Phô": 3755,
      "liếm": 3756,
      "Họt": 3757,
      "loáng": 3758,
      "triết": 3759,
      "vun": 3760,
      "vuốt": 3761,
      "siết": 3762,
      "tuỳ": 3763,
      "tuông": 3764,
      "tuốt": 3765,
      "Ruộng": 3766,
      "nom": 3767,
      "diêm": 3768,
      "Muối": 3769,
      "mụt": 3770,
      "tuếch": 3771,
      "Tùy": 3772,
      "Nguồn": 3773,
      "14": 3774,
      "18": 3775,
      "32": 3776,
      "40": 3777,
      "46": 3778,
      "Cá": 3779,
      "Cỏ": 3780,
      "Cúc": 3781,
      "Cửa": 3782,
      "Coi": 3783,
      "Dựng": 3784,
      "Hạ": 3785,
      "Hốt": 3786,
      "Hồng": 3787,
      "Hướng": 3788,
      "Hữu": 3789,
      "Lao": 3790,
      "Lừa": 3791,
      "Liệu": 3792,
      "Mày": 3793,
      "Nu": 3794,
      "Rừng": 3795,
      "Sơ": 3796,
      "Sở": 3797,
      "Sin": 3798,
      "Uống": 3799,
      "Vùng": 3800,
      "Vườn": 3801,
      "Xinh": 3802,
      "bế": 3803,
      "cúp": 3804,
      "cẩm": 3805,
      "dơ": 3806,
      "dốt": 3807,
      "dằm": 3808,
      "gò": 3809,
      "gạn": 3810,
      "hóc": 3811,
      "kên": 3812,
      "kít": 3813,
      "kiệu": 3814,
      "lú": 3815,
      "lề": 3816,
      "lâng": 3817,
      "lằn": 3818,
      "mò": 3819,
      "mỏ": 3820,
      "mép": 3821,
      "mút": 3822,
      "nã": 3823,
      "nỡ": 3824,
      "nua": 3825,
      "rá": 3826,
      "ren": 3827,
      "rệt": 3828,
      "rộn": 3829,
      "rợn": 3830,
      "sớ": 3831,
      "sém": 3832,
      "tanh": 3833,
      "táp": 3834,
      "vức": 3835,
      "vóc": 3836,
      "vựa": 3837,
      "vớt": 3838,
      "xí": 3839,
      "xên": 3840,
      "òe": 3841,
      "Đại": 3842,
      "Đẹp": 3843,
      "đả": 3844,
      "đẳng": 3845,
      "ụt": 3846,
      "ngơ": 3847,
      "ngải": 3848,
      "nhức": 3849,
      "nhọn": 3850,
      "chánh": 3851,
      "chốt": 3852,
      "chồn": 3853,
      "chòi": 3854,
      "thẻ": 3855,
      "thiệp": 3856,
      "tráo": 3857,
      "khống": 3858,
      "khùng": 3859,
      "phò": 3860,
      "phôn": 3861,
      "phàn": 3862,
      "phách": 3863,
      "giai": 3864,
      "giấy": 3865,
      "Chứ": 3866,
      "Chết": 3867,
      "Chứng": 3868,
      "Giết": 3869,
      "Giám": 3870,
      "Tan": 3871,
      "Trí": 3872,
      "Trận": 3873,
      "Triều": 3874,
      "sam": 3875,
      "Thư": 3876,
      "Nhận": 3877,
      "sơn": 3878,
      "hoi": 3879,
      "Phá": 3880,
      "Phích": 3881,
      "lệch": 3882,
      "bỏng": 3883,
      "Khinh": 3884,
      "Khói": 3885,
      "miên": 3886,
      "siêu": 3887,
      "cưu": 3888,
      "tửu": 3889,
      "khoan": 3890,
      "cuồn": 3891,
      "nghiên": 3892,
      "nhiễu": 3893,
      "Hoa": 3894,
      "Cảnh": 3895,
      "sờn": 3896,
      "Chiến": 3897,
      "xuýt": 3898,
      "Thiêu": 3899,
      "Niềm": 3900,
      "Riêng": 3901,
      "lõa": 3902,
      "xỉu": 3903,
      "33": 3904,
      "52": 3905,
      "70": 3906,
      "700": 3907,
      "Bẻ": 3908,
      "Bộ": 3909,
      "Bầu": 3910,
      "Ben": 3911,
      "Càng": 3912,
      "Cút": 3913,
      "Hành": 3914,
      "Kêu": 3915,
      "Lũng": 3916,
      "Mở": 3917,
      "Môn": 3918,
      "Rít": 3919,
      "Tận": 3920,
      "Tường": 3921,
      "Tóc": 3922,
      "Vàng": 3923,
      "Vầng": 3924,
      "Xây": 3925,
      "Xưa": 3926,
      "Xuống": 3927,
      "Xếp": 3928,
      "bầm": 3929,
      "bằm": 3930,
      "bếp": 3931,
      "bẹp": 3932,
      "bưng": 3933,
      "cỡ": 3934,
      "cua": 3935,
      "côm": 3936,
      "dãy": 3937,
      "dìu": 3938,
      "gạo": 3939,
      "gặm": 3940,
      "hán": 3941,
      "húc": 3942,
      "hực": 3943,
      "hốc": 3944,
      "kem": 3945,
      "lể": 3946,
      "lữ": 3947,
      "luộc": 3948,
      "lứa": 3949,
      "lịch": 3950,
      "lằm": 3951,
      "lùm": 3952,
      "mủ": 3953,
      "méo": 3954,
      "nụ": 3955,
      "neo": 3956,
      "rú": 3957,
      "rẻ": 3958,
      "rồ": 3959,
      "rép": 3960,
      "rặng": 3961,
      "sầm": 3962,
      "sút": 3963,
      "shê": 3964,
      "te": 3965,
      "tua": 3966,
      "tấp": 3967,
      "tuyển": 3968,
      "vái": 3969,
      "xòe": 3970,
      "Áo": 3971,
      "ãng": 3972,
      "òm": 3973,
      "ùn": 3974,
      "Đủ": 3975,
      "Đuổi": 3976,
      "Đắp": 3977,
      "đắn": 3978,
      "Ếp": 3979,
      "ựt": 3980,
      "nga": 3981,
      "ngỏ": 3982,
      "ngời": 3983,
      "ngát": 3984,
      "ngạt": 3985,
      "nhộn": 3986,
      "chua": 3987,
      "chật": 3988,
      "chót": 3989,
      "chen": 3990,
      "chảo": 3991,
      "chạp": 3992,
      "chửi": 3993,
      "chuyến": 3994,
      "thệ": 3995,
      "thắc": 3996,
      "thâm": 3997,
      "thắm": 3998,
      "trơ": 3999,
      "trượt": 4000,
      "khế": 4001,
      "khan": 4002,
      "kham": 4003,
      "phên": 4004,
      "pham": 4005,
      "giập": 4006,
      "Chất": 4007,
      "đin": 4008,
      "Giả": 4009,
      "Giát": 4010,
      "Giảng": 4011,
      "Trẻ": 4012,
      "quế": 4013,
      "quãng": 4014,
      "Thợ": 4015,
      "Thây": 4016,
      "Nhánh": 4017,
      "Nhóm": 4018,
      "hiên": 4019,
      "nghiện": 4020,
      "bịp": 4021,
      "hoành": 4022,
      "Phán": 4023,
      "Phản": 4024,
      "Khải": 4025,
      "sia": 4026,
      "buồm": 4027,
      "mênh": 4028,
      "lạp": 4029,
      "Luôn": 4030,
      "Tiền": 4031,
      "Tiếp": 4032,
      "nghiến": 4033,
      "toang": 4034,
      "đui": 4035,
      "Quay": 4036,
      "cửi": 4037,
      "Muốn": 4038,
      "Mãn": 4039,
      "Tuần": 4040,
      "xẻng": 4041,
      "Chuẩn": 4042,
      "28": 4043,
      "42": 4044,
      "54": 4045,
      "74": 4046,
      "Bỏ": 4047,
      "Bách": 4048,
      "Bảng": 4049,
      "Bẹt": 4050,
      "Bão": 4051,
      "Bụi": 4052,
      "Cất": 4053,
      "Cuộc": 4054,
      "Dạy": 4055,
      "Diệt": 4056,
      "Dích": 4057,
      "Díp": 4058,
      "Hin": 4059,
      "Hoàn": 4060,
      "Kiệt": 4061,
      "Kíp": 4062,
      "Lít": 4063,
      "Lạc": 4064,
      "Mây": 4065,
      "Mang": 4066,
      "Mặn": 4067,
      "Mạng": 4068,
      "Ném": 4069,
      "Răng": 4070,
      "Sít": 4071,
      "Sáp": 4072,
      "Sắc": 4073,
      "Sấm": 4074,
      "Tử": 4075,
      "Tim": 4076,
      "Tạt": 4077,
      "Xát": 4078,
      "bái": 4079,
      "cọng": 4080,
      "cút": 4081,
      "dầy": 4082,
      "dằn": 4083,
      "guộc": 4084,
      "gợi": 4085,
      "huyên": 4086,
      "hờn": 4087,
      "kè": 4088,
      "kịch": 4089,
      "lả": 4090,
      "liệng": 4091,
      "mí": 4092,
      "mẻ": 4093,
      "ná": 4094,
      "nổ": 4095,
      "nức": 4096,
      "nanh": 4097,
      "rùng": 4098,
      "rữa": 4099,
      "ráo": 4100,
      "rôm": 4101,
      "rầm": 4102,
      "sem": 4103,
      "sào": 4104,
      "sính": 4105,
      "sặc": 4106,
      "tân": 4107,
      "tược": 4108,
      "tòng": 4109,
      "vía": 4110,
      "vặn": 4111,
      "xá": 4112,
      "xéc": 4113,
      "Ét": 4114,
      "Đu": 4115,
      "Đồi": 4116,
      "Đâu": 4117,
      "Đặng": 4118,
      "đỗi": 4119,
      "đọng": 4120,
      "đìa": 4121,
      "đọa": 4122,
      "ểnh": 4123,
      "ễm": 4124,
      "ợm": 4125,
      "ợt": 4126,
      "ngô": 4127,
      "ngắt": 4128,
      "ngóng": 4129,
      "nhô": 4130,
      "nhan": 4131,
      "nhành": 4132,
      "nhung": 4133,
      "nhịp": 4134,
      "chan": 4135,
      "thán": 4136,
      "thẫm": 4137,
      "trân": 4138,
      "trẫm": 4139,
      "khứ": 4140,
      "khảy": 4141,
      "làn": 4142,
      "giũ": 4143,
      "giở": 4144,
      "giùm": 4145,
      "giựt": 4146,
      "Ngợi": 4147,
      "Chó": 4148,
      "Châm": 4149,
      "Chảy": 4150,
      "Chuyên": 4151,
      "Gie": 4152,
      "Giữ": 4153,
      "Gian": 4154,
      "Giáng": 4155,
      "Trăng": 4156,
      "tiểu": 4157,
      "quẻ": 4158,
      "quật": 4159,
      "quàng": 4160,
      "Thực": 4161,
      "Thiệt": 4162,
      "chiêu": 4163,
      "him": 4164,
      "hiu": 4165,
      "hoài": 4166,
      "thìa": 4167,
      "suông": 4168,
      "Phơ": 4169,
      "Phòng": 4170,
      "Phút": 4171,
      "thiếc": 4172,
      "via": 4173,
      "Khôn": 4174,
      "Khách": 4175,
      "muông": 4176,
      "khoái": 4177,
      "Nóp": 4178,
      "thềm": 4179,
      "ghim": 4180,
      "huýt": 4181,
      "Ghíp": 4182,
      "huynh": 4183,
      "ngủi": 4184,
      "ngụy": 4185,
      "Tiếc": 4186,
      "Suối": 4187,
      "Quên": 4188,
      "xuôi": 4189,
      "sửng": 4190,
      "rủn": 4191,
      "lún": 4192,
      ");": 4193,
      "13": 4194,
      "15": 4195,
      "27": 4196,
      "2m": 4197,
      "62": 4198,
      "67": 4199,
      "Ao": 4200,
      "Bông": 4201,
      "Bay": 4202,
      "Báo": 4203,
      "Bam": 4204,
      "Bạt": 4205,
      "Cành": 4206,
      "Cào": 4207,
      "Cốt": 4208,
      "Cầm": 4209,
      "Cướp": 4210,
      "Cạnh": 4211,
      "Dê": 4212,
      "Dắt": 4213,
      "Dim": 4214,
      "Gậy": 4215,
      "Gáp": 4216,
      "Góc": 4217,
      "Gíp": 4218,
      "Hậu": 4219,
      "Hóp": 4220,
      "Hếch": 4221,
      "Kim": 4222,
      "Lợi": 4223,
      "Lút": 4224,
      "My": 4225,
      "Mong": 4226,
      "Mình": 4227,
      "Min": 4228,
      "Nâng": 4229,
      "Răn": 4230,
      "Sọ": 4231,
      "Sợ": 4232,
      "Sừng": 4233,
      "Sản": 4234,
      "Sóng": 4235,
      "Soi": 4236,
      "Tớ": 4237,
      "Tanh": 4238,
      "Từng": 4239,
      "Tàu": 4240,
      "Típ": 4241,
      "Trao": 4242,
      "Vốn": 4243,
      "Vẫn": 4244,
      "Xông": 4245,
      "Xét": 4246,
      "Yêu": 4247,
      "bủ": 4248,
      "bử": 4249,
      "bơi": 4250,
      "bộc": 4251,
      "bục": 4252,
      "bẩy": 4253,
      "càn": 4254,
      "cục": 4255,
      "dả": 4256,
      "dở": 4257,
      "dưa": 4258,
      "dạo": 4259,
      "dòi": 4260,
      "gờ": 4261,
      "gấm": 4262,
      "gẩy": 4263,
      "gốp": 4264,
      "hươ": 4265,
      "hăm": 4266,
      "hệt": 4267,
      "hói": 4268,
      "hùa": 4269,
      "kô": 4270,
      "kịt": 4271,
      "lồng": 4272,
      "lung": 4273,
      "lẩn": 4274,
      "léo": 4275,
      "lẫm": 4276,
      "lùi": 4277,
      "lướt": 4278,
      "mổ": 4279,
      "mảng": 4280,
      "nán": 4281,
      "nêu": 4282,
      "nốt": 4283,
      "nang": 4284,
      "nấng": 4285,
      "nấm": 4286,
      "nặn": 4287,
      "rêu": 4288,
      "rọi": 4289,
      "ráng": 4290,
      "rằn": 4291,
      "sỡ": 4292,
      "sủa": 4293,
      "sọc": 4294,
      "sảnh": 4295,
      "tề": 4296,
      "tánh": 4297,
      "tầu": 4298,
      "teo": 4299,
      "tậu": 4300,
      "tạp": 4301,
      "tấc": 4302,
      "tẩu": 4303,
      "vó": 4304,
      "vơ": 4305,
      "vời": 4306,
      "vơi": 4307,
      "vại": 4308,
      "vồng": 4309,
      "xả": 4310,
      "xíp": 4311,
      "xúm": 4312,
      "Ái": 4313,
      "íu": 4314,
      "Đập": 4315,
      "Đốt": 4316,
      "Định": 4317,
      "Đợi": 4318,
      "Đíp": 4319,
      "đĩ": 4320,
      "đờ": 4321,
      "đêu": 4322,
      "đặng": 4323,
      "đắm": 4324,
      "đạm": 4325,
      "đàm": 4326,
      "ĩu": 4327,
      "ẵm": 4328,
      "ỉu": 4329,
      "ỡn": 4330,
      "ngâm": 4331,
      "ngậm": 4332,
      "ngửi": 4333,
      "nhật": 4334,
      "nhàng": 4335,
      "nháy": 4336,
      "chẽ": 4337,
      "chệ": 4338,
      "chằng": 4339,
      "chấn": 4340,
      "chướng": 4341,
      "chóp": 4342,
      "chùi": 4343,
      "chửng": 4344,
      "chễm": 4345,
      "thong": 4346,
      "thải": 4347,
      "thầu": 4348,
      "thao": 4349,
      "thòng": 4350,
      "thau": 4351,
      "thiệu": 4352,
      "thớt": 4353,
      "thỉu": 4354,
      "tru": 4355,
      "tròng": 4356,
      "trơn": 4357,
      "trọt": 4358,
      "kháng": 4359,
      "khang": 4360,
      "khép": 4361,
      "vàn": 4362,
      "phao": 4363,
      "phủi": 4364,
      "phỏng": 4365,
      "Ngai": 4366,
      "Nguyền": 4367,
      "Ngực": 4368,
      "Ngoại": 4369,
      "Chờ": 4370,
      "Châu": 4371,
      "điếu": 4372,
      "Trụ": 4373,
      "Trừ": 4374,
      "Tránh": 4375,
      "Trường": 4376,
      "Trốn": 4377,
      "Trồng": 4378,
      "tiếu": 4379,
      "quỹ": 4380,
      "quậy": 4381,
      "quạnh": 4382,
      "quẹo": 4383,
      "Thống": 4384,
      "Thương": 4385,
      "Tháng": 4386,
      "Thích": 4387,
      "Thoát": 4388,
      "Nhằm": 4389,
      "kiếp": 4390,
      "suýt": 4391,
      "Phù": 4392,
      "Phóng": 4393,
      "liêm": 4394,
      "chỉa": 4395,
      "mun": 4396,
      "niêu": 4397,
      "thuần": 4398,
      "vịn": 4399,
      "ghít": 4400,
      "siêng": 4401,
      "vụt": 4402,
      "khoẻ": 4403,
      "khoảnh": 4404,
      "nuối": 4405,
      "phiêu": 4406,
      "Kiêu": 4407,
      "toa": 4408,
      "lẽo": 4409,
      "đuợc": 4410,
      "Biến": 4411,
      "Nghịch": 4412,
      "Nghĩa": 4413,
      "Quần": 4414,
      "Quăng": 4415,
      "120": 4416,
      "lụy": 4417,
      "mụn": 4418,
      "duỗi": 4419,
      "23m": 4420,
      "thoáng": 4421,
      "46m": 4422,
      "Nuốt": 4423,
      "bủn": 4424,
      "bửu": 4425,
      "hươu": 4426,
      "254": 4427,
      "34": 4428,
      "35": 4429,
      "36": 4430,
      "Bể": 4431,
      "Bức": 4432,
      "Bán": 4433,
      "Cố": 4434,
      "Cột": 4435,
      "Cậy": 4436,
      "Câu": 4437,
      "Cõi": 4438,
      "Dĩ": 4439,
      "Dang": 4440,
      "Dệt": 4441,
      "Gây": 4442,
      "Gọi": 4443,
      "Hộ": 4444,
      "Hên": 4445,
      "Hân": 4446,
      "Hòn": 4447,
      "Ham": 4448,
      "Hốp": 4449,
      "Lá": 4450,
      "Lò": 4451,
      "Lúa": 4452,
      "Lính": 4453,
      "Lối": 4454,
      "Lỗi": 4455,
      "Lâu": 4456,
      "Mí": 4457,
      "Mến": 4458,
      "Mem": 4459,
      "Mươi": 4460,
      "Mưu": 4461,
      "Nạn": 4462,
      "Nẹt": 4463,
      "Rễ": 4464,
      "Rửa": 4465,
      "Rắn": 4466,
      "Sh": 4467,
      "Sân": 4468,
      "Sai": 4469,
      "Tra": 4470,
      "Tước": 4471,
      "Tôn": 4472,
      "Tập": 4473,
      "Tượng": 4474,
      "Tưới": 4475,
      "Tóm": 4476,
      "Vũ": 4477,
      "Vòng": 4478,
      "Vấn": 4479,
      "Vọng": 4480,
      "bo": 4481,
      "bặt": 4482,
      "beo": 4483,
      "bêu": 4484,
      "bít": 4485,
      "búc": 4486,
      "bện": 4487,
      "cò": 4488,
      "cữ": 4489,
      "cưa": 4490,
      "cỗi": 4491,
      "cựu": 4492,
      "dông": 4493,
      "dai": 4494,
      "dưng": 4495,
      "dĩa": 4496,
      "dặm": 4497,
      "gơ": 4498,
      "gở": 4499,
      "gao": 4500,
      "gắt": 4501,
      "gắp": 4502,
      "gảy": 4503,
      "gũi": 4504,
      "he": 4505,
      "hũ": 4506,
      "hất": 4507,
      "hàn": 4508,
      "hấn": 4509,
      "ke": 4510,
      "kẹt": 4511,
      "ló": 4512,
      "lọ": 4513,
      "lơn": 4514,
      "lọn": 4515,
      "lét": 4516,
      "lắp": 4517,
      "lụng": 4518,
      "lóng": 4519,
      "lúp": 4520,
      "lói": 4521,
      "lủng": 4522,
      "luyến": 4523,
      "mâm": 4524,
      "mắn": 4525,
      "mọt": 4526,
      "mèm": 4527,
      "nao": 4528,
      "ràn": 4529,
      "rót": 4530,
      "sà": 4531,
      "sải": 4532,
      "sàn": 4533,
      "sảy": 4534,
      "sảo": 4535,
      "tịnh": 4536,
      "tặc": 4537,
      "tót": 4538,
      "uốn": 4539,
      "vần": 4540,
      "vắt": 4541,
      "việt": 4542,
      "vịnh": 4543,
      "vảy": 4544,
      "voi": 4545,
      "vênh": 4546,
      "vẹo": 4547,
      "xõ": 4548,
      "xế": 4549,
      "xáo": 4550,
      "xâu": 4551,
      "Ân": 4552,
      "Ôn": 4553,
      "Độ": 4554,
      "Đào": 4555,
      "Đâm": 4556,
      "Đẹt": 4557,
      "đên": 4558,
      "đết": 4559,
      "đắt": 4560,
      "đút": 4561,
      "đặn": 4562,
      "ỳnh": 4563,
      "ngó": 4564,
      "ngông": 4565,
      "ngấy": 4566,
      "ngột": 4567,
      "ngán": 4568,
      "ngầm": 4569,
      "ngạch": 4570,
      "nha": 4571,
      "nhả": 4572,
      "nhối": 4573,
      "nhặng": 4574,
      "chè": 4575,
      "chần": 4576,
      "chích": 4577,
      "chểnh": 4578,
      "thố": 4579,
      "thản": 4580,
      "thạnh": 4581,
      "trệ": 4582,
      "trát": 4583,
      "tràng": 4584,
      "trau": 4585,
      "trèo": 4586,
      "khập": 4587,
      "khảm": 4588,
      "phất": 4589,
      "phít": 4590,
      "giò": 4591,
      "giô": 4592,
      "giông": 4593,
      "Ngũ": 4594,
      "Ngủ": 4595,
      "Nghi": 4596,
      "Chà": 4597,
      "Chú": 4598,
      "Chế": 4599,
      "Chặt": 4600,
      "Chào": 4601,
      "Chồi": 4602,
      "Chăn": 4603,
      "Chuyện": 4604,
      "Chọn": 4605,
      "Chậm": 4606,
      "Giường": 4607,
      "Trả": 4608,
      "Trông": 4609,
      "Trải": 4610,
      "Tràn": 4611,
      "Trách": 4612,
      "Trút": 4613,
      "que": 4614,
      "quẩn": 4615,
      "Thử": 4616,
      "Thình": 4617,
      "Thiện": 4618,
      "Thẩm": 4619,
      "chiết": 4620,
      "đóa": 4621,
      "Giêm": 4622,
      "hoen": 4623,
      "kiềng": 4624,
      "Phơi": 4625,
      "Phép": 4626,
      "Phạt": 4627,
      "Phàm": 4628,
      "Phun": 4629,
      "ngoái": 4630,
      "Đau": 4631,
      "cham": 4632,
      "loè": 4633,
      "loé": 4634,
      "loạt": 4635,
      "vim": 4636,
      "Khô": 4637,
      "Khắc": 4638,
      "Khởi": 4639,
      "niu": 4640,
      "lưỡng": 4641,
      "ghên": 4642,
      "cuốc": 4643,
      "num": 4644,
      "lạng": 4645,
      "nguời": 4646,
      "huênh": 4647,
      "huỳnh": 4648,
      "chuông": 4649,
      "Ghít": 4650,
      "tuấn": 4651,
      "hổn": 4652,
      "môt": 4653,
      "bụm": 4654,
      "bụt": 4655,
      "Tiến": 4656,
      "Tiêu": 4657,
      "toại": 4658,
      "cụt": 4659,
      "Quốc": 4660,
      "bổng": 4661,
      "tuyến": 4662,
      "nhuốc": 4663,
      "Chiếc": 4664,
      "128": 4665,
      "Hiểu": 4666,
      "túy": 4667,
      "lẻo": 4668,
      "337": 4669,
      "xõa": 4670,
      "16": 4671,
      "17": 4672,
      "112": 4673,
      "150": 4674,
      "180": 4675,
      "172": 4676,
      "170": 4677,
      "345": 4678,
      "450": 4679,
      "53": 4680,
      "56": 4681,
      "64": 4682,
      "66": 4683,
      "760": 4684,
      "800": 4685,
      "Bá": 4686,
      "Bồ": 4687,
      "Bác": 4688,
      "Bột": 4689,
      "Bôn": 4690,
      "Bạo": 4691,
      "Bốc": 4692,
      "Bắn": 4693,
      "Bụng": 4694,
      "Bẫy": 4695,
      "Bóp": 4696,
      "Bun": 4697,
      "Cài": 4698,
      "Cân": 4699,
      "Cộng": 4700,
      "Cúi": 4701,
      "Cưu": 4702,
      "Cưỡi": 4703,
      "Cuồng": 4704,
      "Dương": 4705,
      "Dục": 4706,
      "Dốt": 4707,
      "Dựa": 4708,
      "Gỗ": 4709,
      "Gìn": 4710,
      "Hổ": 4711,
      "Hỏi": 4712,
      "Huyền": 4713,
      "Hạc": 4714,
      "Hứa": 4715,
      "Ka": 4716,
      "Kô": 4717,
      "Kỷ": 4718,
      "Kéo": 4719,
      "Lo": 4720,
      "Lư": 4721,
      "Lẫn": 4722,
      "Lắc": 4723,
      "Liên": 4724,
      "Lớp": 4725,
      "Loại": 4726,
      "Loan": 4727,
      "Mỡ": 4728,
      "Man": 4729,
      "Mầy": 4730,
      "May": 4731,
      "Mái": 4732,
      "Mừng": 4733,
      "Mọc": 4734,
      "Míp": 4735,
      "Mão": 4736,
      "Mùi": 4737,
      "Mệnh": 4738,
      "Nương": 4739,
      "Nối": 4740,
      "Nổi": 4741,
      "Nửa": 4742,
      "Nét": 4743,
      "Nấu": 4744,
      "Nọc": 4745,
      "Niên": 4746,
      "Nốp": 4747,
      "Song": 4748,
      "Sơn": 4749,
      "Sạt": 4750,
      "Súp": 4751,
      "Sha": 4752,
      "Sẵn": 4753,
      "Tỏ": 4754,
      "Tát": 4755,
      "Tương": 4756,
      "Tiệc": 4757,
      "Tuổi": 4758,
      "Tấn": 4759,
      "Tám": 4760,
      "Tín": 4761,
      "Tấm": 4762,
      "Trang": 4763,
      "Ví": 4764,
      "Vó": 4765,
      "bấn": 4766,
      "bạt": 4767,
      "bíp": 4768,
      "bón": 4769,
      "cộ": 4770,
      "còng": 4771,
      "cuống": 4772,
      "cúc": 4773,
      "càu": 4774,
      "cợt": 4775,
      "dẻ": 4776,
      "dơi": 4777,
      "gỉ": 4778,
      "gồ": 4779,
      "gừ": 4780,
      "gông": 4781,
      "gộc": 4782,
      "gập": 4783,
      "găm": 4784,
      "gút": 4785,
      "gúp": 4786,
      "gọt": 4787,
      "hẻ": 4788,
      "hanh": 4789,
      "hít": 4790,
      "hển": 4791,
      "hám": 4792,
      "hão": 4793,
      "hụt": 4794,
      "kẹp": 4795,
      "le": 4796,
      "lẹ": 4797,
      "lỵ": 4798,
      "lây": 4799,
      "lêu": 4800,
      "lận": 4801,
      "láp": 4802,
      "lảng": 4803,
      "lòi": 4804,
      "lờn": 4805,
      "lợm": 4806,
      "mị": 4807,
      "mương": 4808,
      "mam": 4809,
      "mèo": 4810,
      "mẫm": 4811,
      "nơ": 4812,
      "nẻ": 4813,
      "núng": 4814,
      "nới": 4815,
      "nồng": 4816,
      "náp": 4817,
      "nêm": 4818,
      "núm": 4819,
      "níu": 4820,
      "rong": 4821,
      "rem": 4822,
      "rảo": 4823,
      "rứt": 4824,
      "réc": 4825,
      "rợp": 4826,
      "sục": 4827,
      "sưu": 4828,
      "tã": 4829,
      "tỵ": 4830,
      "tồi": 4831,
      "tọa": 4832,
      "tợn": 4833,
      "uổng": 4834,
      "vờ": 4835,
      "vanh": 4836,
      "vũng": 4837,
      "vát": 4838,
      "váng": 4839,
      "vạc": 4840,
      "vắn": 4841,
      "vảng": 4842,
      "vụng": 4843,
      "váy": 4844,
      "xì": 4845,
      "xạ": 4846,
      "xai": 4847,
      "xới": 4848,
      "xít": 4849,
      "xam": 4850,
      "xướng": 4851,
      "xéo": 4852,
      "xộn": 4853,
      "xuyến": 4854,
      "Íp": 4855,
      "Ít": 4856,
      "Út": 4857,
      "Đà": 4858,
      "Đúc": 4859,
      "Đổi": 4860,
      "Đọc": 4861,
      "Địch": 4862,
      "Đạt": 4863,
      "đậm": 4864,
      "đờn": 4865,
      "Ơn": 4866,
      "Ấn": 4867,
      "Ắt": 4868,
      "ểng": 4869,
      "ễng": 4870,
      "ợng": 4871,
      "”;": 4872,
      "…”": 4873,
      "ngỗ": 4874,
      "ngùng": 4875,
      "ngàng": 4876,
      "ngửa": 4877,
      "ngớt": 4878,
      "nhí": 4879,
      "nhược": 4880,
      "nheo": 4881,
      "nhậy": 4882,
      "nhăn": 4883,
      "nhơn": 4884,
      "nhện": 4885,
      "nhắn": 4886,
      "nhót": 4887,
      "nhút": 4888,
      "nhẵn": 4889,
      "chề": 4890,
      "chổ": 4891,
      "cháo": 4892,
      "chặng": 4893,
      "chéo": 4894,
      "chằm": 4895,
      "chợp": 4896,
      "chồm": 4897,
      "thò": 4898,
      "thỏ": 4899,
      "thơi": 4900,
      "thát": 4901,
      "thảnh": 4902,
      "thoa": 4903,
      "trác": 4904,
      "trêu": 4905,
      "trọi": 4906,
      "trốt": 4907,
      "tróc": 4908,
      "trướng": 4909,
      "trửng": 4910,
      "trĩu": 4911,
      "khay": 4912,
      "khít": 4913,
      "khạc": 4914,
      "khắng": 4915,
      "phè": 4916,
      "phác": 4917,
      "phình": 4918,
      "phào": 4919,
      "phốt": 4920,
      "phồng": 4921,
      "phỡn": 4922,
      "giôn": 4923,
      "gián": 4924,
      "giản": 4925,
      "Ngồi": 4926,
      "Ngón": 4927,
      "Ngọt": 4928,
      "Chương": 4929,
      "Chạm": 4930,
      "Chuồng": 4931,
      "choáng": 4932,
      "Giá": 4933,
      "Ginh": 4934,
      "Giác": 4935,
      "Giới": 4936,
      "Giương": 4937,
      "Giúc": 4938,
      "Giếng": 4939,
      "Giàu": 4940,
      "Trăm": 4941,
      "Trẫm": 4942,
      "quại": 4943,
      "quạt": 4944,
      "quằn": 4945,
      "Thủ": 4946,
      "Thác": 4947,
      "Thất": 4948,
      "Tham": 4949,
      "Thêm": 4950,
      "Thạch": 4951,
      "Thủy": 4952,
      "Thỏa": 4953,
      "Nhu": 4954,
      "Nhạo": 4955,
      "Nhắm": 4956,
      "chịt": 4957,
      "khiếm": 4958,
      "khiễng": 4959,
      "nghễ": 4960,
      "nghinh": 4961,
      "bịa": 4962,
      "quai": 4963,
      "sực": 4964,
      "suất": 4965,
      "Phạm": 4966,
      "thiển": 4967,
      "riếc": 4968,
      "nhàu": 4969,
      "luồn": 4970,
      "chỉnh": 4971,
      "loà": 4972,
      "viển": 4973,
      "hạp": 4974,
      "Khóc": 4975,
      "muồi": 4976,
      "muỗi": 4977,
      "triu": 4978,
      "ghẻ": 4979,
      "ghề": 4980,
      "Phin": 4981,
      "đoản": 4982,
      "khoải": 4983,
      "khoát": 4984,
      "buốt": 4985,
      "chủng": 4986,
      "xiêu": 4987,
      "dùi": 4988,
      "nhớp": 4989,
      "chuỗi": 4990,
      "chuôm": 4991,
      "phiếm": 4992,
      "Tuyệt": 4993,
      "toả": 4994,
      "khóm": 4995,
      "Quang": 4996,
      "Quanh": 4997,
      "Quá": 4998,
      "xoáy": 4999,
      "Thiết": 5000,
      "trợt": 5001,
      "Cuộn": 5002,
      "túm": 5003,
      "400kg": 5004,
      "Buồn": 5005,
      "thoải": 5006,
      "Khoác": 5007,
      "144": 5008,
      "14m": 5009,
      "Nuôi": 5010,
      "27m": 5011,
      "truớc": 5012,
      "Lưỡng": 5013,
      "hẻm": 5014,
      "):": 5015,
      "0m": 5016,
      "052": 5017,
      "017": 5018,
      "1m": 5019,
      "15m": 5020,
      "130": 5021,
      "29": 5022,
      "280": 5023,
      "39": 5024,
      "3kg": 5025,
      "320": 5026,
      "360": 5027,
      "372": 5028,
      "41": 5029,
      "4m": 5030,
      "435": 5031,
      "57": 5032,
      "59": 5033,
      "550": 5034,
      "61": 5035,
      "650": 5036,
      "6kg": 5037,
      "6gm": 5038,
      "652": 5039,
      "642": 5040,
      "73": 5041,
      "7m": 5042,
      "730": 5043,
      "720": 5044,
      "95": 5045,
      "98": 5046,
      "973": 5047,
      "Bề": 5048,
      "Bài": 5049,
      "Beo": 5050,
      "Bữa": 5051,
      "Búc": 5052,
      "Băng": 5053,
      "Bóc": 5054,
      "Bản": 5055,
      "Bồn": 5056,
      "Bám": 5057,
      "Búp": 5058,
      "Bệnh": 5059,
      "Cư": 5060,
      "Cỗ": 5061,
      "Côn": 5062,
      "Cần": 5063,
      "Cán": 5064,
      "Cắt": 5065,
      "Căm": 5066,
      "Cứng": 5067,
      "Căng": 5068,
      "Cạo": 5069,
      "Cẩn": 5070,
      "Củi": 5071,
      "Du": 5072,
      "Dũng": 5073,
      "Dao": 5074,
      "Dấu": 5075,
      "Duyên": 5076,
      "Dẹp": 5077,
      "Gê": 5078,
      "Gơ": 5079,
      "Gánh": 5080,
      "Gặt": 5081,
      "Gắn": 5082,
      "Ghết": 5083,
      "Gởi": 5084,
      "Gạt": 5085,
      "Góp": 5086,
      "Gom": 5087,
      "Hư": 5088,
      "Hồ": 5089,
      "Hác": 5090,
      "Hách": 5091,
      "Hang": 5092,
      "Hồn": 5093,
      "Hen": 5094,
      "Huyết": 5095,
      "Hòa": 5096,
      "Hợp": 5097,
      "Hẳn": 5098,
      "Kỵ": 5099,
      "Kên": 5100,
      "Lệ": 5101,
      "Lột": 5102,
      "Lật": 5103,
      "Lát": 5104,
      "Leo": 5105,
      "Lang": 5106,
      "Lăng": 5107,
      "Lưới": 5108,
      "Lắng": 5109,
      "Lau": 5110,
      "Len": 5111,
      "Lìa": 5112,
      "Lắm": 5113,
      "Mo": 5114,
      "Má": 5115,
      "Mơ": 5116,
      "Mụ": 5117,
      "Mua": 5118,
      "Màn": 5119,
      "Mộc": 5120,
      "Mục": 5121,
      "Mạch": 5122,
      "Móng": 5123,
      "Nanh": 5124,
      "Nát": 5125,
      "Nít": 5126,
      "Náp": 5127,
      "Níp": 5128,
      "Pa": 5129,
      "Quy": 5130,
      "Rất": 5131,
      "Rình": 5132,
      "Rải": 5133,
      "Rồng": 5134,
      "Rộng": 5135,
      "Rau": 5136,
      "Rút": 5137,
      "Roi": 5138,
      "So": 5139,
      "Sĩ": 5140,
      "Suy": 5141,
      "Sát": 5142,
      "Săn": 5143,
      "Sắt": 5144,
      "Sốt": 5145,
      "Súc": 5146,
      "Sâu": 5147,
      "Sắp": 5148,
      "Sợi": 5149,
      "Sen": 5150,
      "Shê": 5151,
      "Tính": 5152,
      "Táp": 5153,
      "Tưởng": 5154,
      "Tuyên": 5155,
      "Tặng": 5156,
      "Tòa": 5157,
      "Tóp": 5158,
      "Tựa": 5159,
      "Tốp": 5160,
      "Toán": 5161,
      "Uy": 5162,
      "Vô": 5163,
      "Vải": 5164,
      "Vội": 5165,
      "Văn": 5166,
      "Vách": 5167,
      "Vang": 5168,
      "Vạch": 5169,
      "Vớt": 5170,
      "Xo": 5171,
      "Xơ": 5172,
      "Xạ": 5173,
      "Xẻ": 5174,
      "Xỏ": 5175,
      "Xết": 5176,
      "Xung": 5177,
      "Xấu": 5178,
      "Xóa": 5179,
      "Yết": 5180,
      "bẽ": 5181,
      "bợ": 5182,
      "bua": 5183,
      "bành": 5184,
      "bậy": 5185,
      "băn": 5186,
      "bâu": 5187,
      "bửa": 5188,
      "bộng": 5189,
      "bắp": 5190,
      "bướng": 5191,
      "bỉnh": 5192,
      "bợm": 5193,
      "cà": 5194,
      "cở": 5195,
      "cội": 5196,
      "cắc": 5197,
      "cựa": 5198,
      "còm": 5199,
      "dề": 5200,
      "dua": 5201,
      "dan": 5202,
      "diệc": 5203,
      "dỗi": 5204,
      "dẳng": 5205,
      "dấp": 5206,
      "dạt": 5207,
      "dửng": 5208,
      "go": 5209,
      "gật": 5210,
      "gội": 5211,
      "gán": 5212,
      "gói": 5213,
      "gợn": 5214,
      "hé": 5215,
      "hý": 5216,
      "hủi": 5217,
      "hòi": 5218,
      "hẻo": 5219,
      "hửng": 5220,
      "kệ": 5221,
      "keo": 5222,
      "kép": 5223,
      "két": 5224,
      "kèo": 5225,
      "lị": 5226,
      "lon": 5227,
      "lải": 5228,
      "lậy": 5229,
      "lỏi": 5230,
      "lồi": 5231,
      "lọi": 5232,
      "lạt": 5233,
      "lẩy": 5234,
      "lợp": 5235,
      "lởm": 5236,
      "líu": 5237,
      "mõ": 5238,
      "mỉ": 5239,
      "mải": 5240,
      "mánh": 5241,
      "miệc": 5242,
      "mẫn": 5243,
      "mích": 5244,
      "moi": 5245,
      "mượt": 5246,
      "mỉa": 5247,
      "né": 5248,
      "nỗ": 5249,
      "nần": 5250,
      "nép": 5251,
      "nấp": 5252,
      "nòi": 5253,
      "oằn": 5254,
      "ro": 5255,
      "rè": 5256,
      "rộ": 5257,
      "rờ": 5258,
      "rành": 5259,
      "rốn": 5260,
      "róc": 5261,
      "rích": 5262,
      "rọc": 5263,
      "réo": 5264,
      "rủi": 5265,
      "rịt": 5266,
      "rưởi": 5267,
      "rụt": 5268,
      "sá": 5269,
      "sọ": 5270,
      "sụ": 5271,
      "sài": 5272,
      "sòng": 5273,
      "sạn": 5274,
      "sấu": 5275,
      "sảng": 5276,
      "sủi": 5277,
      "sậm": 5278,
      "sẫm": 5279,
      "sùi": 5280,
      "sếch": 5281,
      "sẹo": 5282,
      "tễ": 5283,
      "tâng": 5284,
      "tốc": 5285,
      "tủy": 5286,
      "tóm": 5287,
      "tĩu": 5288,
      "vè": 5289,
      "vê": 5290,
      "võ": 5291,
      "vù": 5292,
      "vỉ": 5293,
      "vớ": 5294,
      "vông": 5295,
      "veo": 5296,
      "vin": 5297,
      "vót": 5298,
      "vãi": 5299,
      "xào": 5300,
      "xối": 5301,
      "xép": 5302,
      "xẳng": 5303,
      "xóc": 5304,
      "xắn": 5305,
      "xém": 5306,
      "xẩm": 5307,
      "xoi": 5308,
      "xén": 5309,
      "xớm": 5310,
      "xỉa": 5311,
      "ya": 5312,
      "yểu": 5313,
      "Án": 5314,
      "õy": 5315,
      "ún": 5316,
      "Đo": 5317,
      "Đỡ": 5318,
      "Đống": 5319,
      "Đin": 5320,
      "Đòn": 5321,
      "Đít": 5322,
      "Đèo": 5323,
      "Đỉnh": 5324,
      "Đẩu": 5325,
      "đọ": 5326,
      "đùng": 5327,
      "đọt": 5328,
      "độn": 5329,
      "ơm": 5330,
      "ấõy": 5331,
      "ẩng": 5332,
      "ụa": 5333,
      "’;": 5334,
      "ngò": 5335,
      "ngây": 5336,
      "ngầu": 5337,
      "ngăm": 5338,
      "ngách": 5339,
      "ngạn": 5340,
      "ngóc": 5341,
      "ngốc": 5342,
      "ngứa": 5343,
      "ngói": 5344,
      "nhé": 5345,
      "nhác": 5346,
      "nhải": 5347,
      "nhạn": 5348,
      "nhặn": 5349,
      "nhứt": 5350,
      "nhảm": 5351,
      "nhũi": 5352,
      "nhụt": 5353,
      "chô": 5354,
      "chác": 5355,
      "chông": 5356,
      "chao": 5357,
      "chét": 5358,
      "chầm": 5359,
      "chèn": 5360,
      "chẩy": 5361,
      "chíp": 5362,
      "chởm": 5363,
      "chĩa": 5364,
      "chòm": 5365,
      "thừ": 5366,
      "thinh": 5367,
      "thũng": 5368,
      "thằng": 5369,
      "thục": 5370,
      "thắn": 5371,
      "thịch": 5372,
      "thụng": 5373,
      "thặng": 5374,
      "thoi": 5375,
      "thõng": 5376,
      "thoại": 5377,
      "thấõy": 5378,
      "trỏ": 5379,
      "trố": 5380,
      "trỗ": 5381,
      "trăn": 5382,
      "trâu": 5383,
      "truyện": 5384,
      "khua": 5385,
      "khẳng": 5386,
      "khỏa": 5387,
      "khịt": 5388,
      "khúm": 5389,
      "khẩu": 5390,
      "khòm": 5391,
      "khểnh": 5392,
      "ngượng": 5393,
      "vàm": 5394,
      "phờ": 5395,
      "phin": 5396,
      "phập": 5397,
      "phắt": 5398,
      "phích": 5399,
      "giạ": 5400,
      "giẻ": 5401,
      "giàn": 5402,
      "giỡn": 5403,
      "Ngã": 5404,
      "Ngó": 5405,
      "Ngụ": 5406,
      "Ngự": 5407,
      "Ngước": 5408,
      "Ngàn": 5409,
      "Nguyên": 5410,
      "Ngẫm": 5411,
      "Che": 5412,
      "Chọc": 5413,
      "Chứa": 5414,
      "Chói": 5415,
      "Già": 5416,
      "Giơ": 5417,
      "Giày": 5418,
      "Giòng": 5419,
      "Giỏi": 5420,
      "Giốt": 5421,
      "Giam": 5422,
      "Giúp": 5423,
      "Tru": 5424,
      "Try": 5425,
      "Trò": 5426,
      "Trai": 5427,
      "Trống": 5428,
      "Trinh": 5429,
      "Trần": 5430,
      "Treo": 5431,
      "Trào": 5432,
      "Truyền": 5433,
      "Trùm": 5434,
      "cói": 5435,
      "quờ": 5436,
      "quây": 5437,
      "quắt": 5438,
      "quách": 5439,
      "quạng": 5440,
      "Thả": 5441,
      "Thẻ": 5442,
      "Thổ": 5443,
      "Thở": 5444,
      "Thước": 5445,
      "Thằng": 5446,
      "Thắt": 5447,
      "Thuyền": 5448,
      "Thổi": 5449,
      "Tháo": 5450,
      "Thẳng": 5451,
      "Thóc": 5452,
      "Thừa": 5453,
      "Thảy": 5454,
      "Thậm": 5455,
      "Nhất": 5456,
      "Nhành": 5457,
      "Nhục": 5458,
      "Nhiệt": 5459,
      "Nhảy": 5460,
      "nghìn": 5461,
      "biếc": 5462,
      "Giêng": 5463,
      "đat": 5464,
      "Sang": 5465,
      "ườm": 5466,
      "kiết": 5467,
      "kiếu": 5468,
      "Phó": 5469,
      "Phong": 5470,
      "Phanh": 5471,
      "Phan": 5472,
      "Phủi": 5473,
      "liếc": 5474,
      "thiểu": 5475,
      "riết": 5476,
      "Khiêm": 5477,
      "Khiêng": 5478,
      "lun": 5479,
      "Họa": 5480,
      "Học": 5481,
      "Họp": 5482,
      "loát": 5483,
      "loét": 5484,
      "mạp": 5485,
      "Kha": 5486,
      "Khe": 5487,
      "Khích": 5488,
      "muời": 5489,
      "Sia": 5490,
      "niền": 5491,
      "cốm": 5492,
      "vịt": 5493,
      "Mau": 5494,
      "thùa": 5495,
      "thùy": 5496,
      "ghem": 5497,
      "khom": 5498,
      "khoanh": 5499,
      "khoăn": 5500,
      "buột": 5501,
      "đệm": 5502,
      "lêt": 5503,
      "lênh": 5504,
      "đênh": 5505,
      "xiêm": 5506,
      "xiếc": 5507,
      "chuốt": 5508,
      "tuột": 5509,
      "phiếu": 5510,
      "Tia": 5511,
      "Kiểm": 5512,
      "nhiểu": 5513,
      "Miền": 5514,
      "Miếng": 5515,
      "toà": 5516,
      "toác": 5517,
      "toạc": 5518,
      "?’,": 5519,
      "khóe": 5520,
      "Hoan": 5521,
      "Hoang": 5522,
      "Hoạn": 5523,
      "Hoạch": 5524,
      "Run": 5525,
      "Biếc": 5526,
      "cụm": 5527,
      "tụt": 5528,
      "000l": 5529,
      "000kg": 5530,
      "Qui": 5531,
      "Quà": 5532,
      "Quê": 5533,
      "Quỳ": 5534,
      "Quấn": 5535,
      "kênh": 5536,
      "Điêu": 5537,
      "Liền": 5538,
      "khuông": 5539,
      "khuây": 5540,
      "diết": 5541,
      "diếm": 5542,
      "hòm": 5543,
      "Chia": 5544,
      "Chiếu": 5545,
      "Chiếm": 5546,
      "122": 5547,
      "123": 5548,
      "xoắn": 5549,
      "nhổm": 5550,
      "lụi": 5551,
      "thụt": 5552,
      "50gm": 5553,
      "Hiến": 5554,
      "Cuồn": 5555,
      "Chịu": 5556,
      "mướt": 5557,
      "nhũn": 5558,
      "Tuôn": 5559,
      "Buông": 5560,
      "Thuẫn": 5561,
      "220": 5562,
      "223": 5563,
      "245": 5564,
      "247": 5565,
      "30m": 5566,
      "30kg": 5567,
      "20m": 5568,
      "601": 5569,
      "603": 5570,
      "60m": 5571,
      "khuynh": 5572,
      "100l": 5573,
      "thoảng": 5574,
      "Khoanh": 5575,
      "lúy": 5576,
      "743": 5577,
      "Đuôi": 5578,
      "273": 5579,
      "621": 5580,
      "675": 5581,
      "34kg": 5582,
      "Shơ": 5583,
      "Shau": 5584,
      "lóe": 5585,
      "Nghiêm": 5586,
      "Nghiêng": 5587,
      "170kg": 5588,
      "nhím": 5589,
      "392": 5590,
      "Xoáy": 5591,
      "lịm": 5592,
      "mõm": 5593,
      "mỉm": 5594
    },
    "merges": [
      [
        "n",
        "g"
      ],
      [
        "n",
        "h"
      ],
      [
        "c",
        "h"
      ],
      [
        "t",
        "h"
      ],
      [
        "t",
        "r"
      ],
      [
        "ờ",
        "i"
      ],
      [
        "k",
        "h"
      ],
      [
        "ng",
        "ư"
      ],
      [
        "v",
        "à"
      ],
      [
        "ê",
        "n"
      ],
      [
        "á",
        "c"
      ],
      [
        "ô",
        "ng"
      ],
      [
        "l",
        "à"
      ],
      [
        "p",
        "h"
      ],
      [
        "ngư",
        "ời"
      ],
      [
        "g",
        "i"
      ],
      [
        "ủ",
        "a"
      ],
      [
        "c",
        "ủa"
      ],
      [
        "c",
        "ác"
      ],
      [
        "ô",
        "i"
      ],
      [
        "o",
        "n"
      ],
      [
        "N",
        "g"
      ],
      [
        "C",
        "h"
      ],
      [
        "ch",
        "o"
      ],
      [
        "à",
        "i"
      ],
      [
        "c",
        "on"
      ],
      [
        "u",
        "a"
      ],
      [
        "â",
        "n"
      ],
      [
        "s",
        "ẽ"
      ],
      [
        "ú",
        "ng"
      ],
      [
        "ơ",
        "i"
      ],
      [
        "a",
        "i"
      ],
      [
        "ế",
        "n"
      ],
      [
        "r",
        "a"
      ],
      [
        "ạ",
        "i"
      ],
      [
        "kh",
        "ông"
      ],
      [
        "t",
        "ôi"
      ],
      [
        "Ng",
        "ài"
      ],
      [
        "ú",
        "a"
      ],
      [
        "ứ",
        "c"
      ],
      [
        "o",
        "ng"
      ],
      [
        "ư",
        "ợ"
      ],
      [
        "đ",
        "ã"
      ],
      [
        "ư",
        "ớ"
      ],
      [
        "đ",
        "i"
      ],
      [
        "Ch",
        "úa"
      ],
      [
        "e",
        "m"
      ],
      [
        "a",
        "nh"
      ],
      [
        "ch",
        "úng"
      ],
      [
        "G",
        "i"
      ],
      [
        "ế",
        "t"
      ],
      [
        "ấ",
        "y"
      ],
      [
        "T",
        "a"
      ],
      [
        "C",
        "H"
      ],
      [
        "Ú",
        "A"
      ],
      [
        "CH",
        "ÚA"
      ],
      [
        "ấ",
        "t"
      ],
      [
        "ớ",
        "i"
      ],
      [
        "ộ",
        "t"
      ],
      [
        "t",
        "a"
      ],
      [
        "tr",
        "ong"
      ],
      [
        "ữ",
        "ng"
      ],
      [
        "n",
        "ó"
      ],
      [
        "à",
        "y"
      ],
      [
        "nh",
        "ư"
      ],
      [
        "đ",
        "ến"
      ],
      [
        "h",
        "ọ"
      ],
      [
        "ướ",
        "c"
      ],
      [
        "i",
        "ệ"
      ],
      [
        "ượ",
        "c"
      ],
      [
        "ề",
        "u"
      ],
      [
        "u",
        "y"
      ],
      [
        "T",
        "r"
      ],
      [
        "đ",
        "ược"
      ],
      [
        "m",
        "ột"
      ],
      [
        "a",
        "n"
      ],
      [
        "là",
        "m"
      ],
      [
        "v",
        "ới"
      ],
      [
        "c",
        "ó"
      ],
      [
        "ngư",
        "ơi"
      ],
      [
        "ì",
        "nh"
      ],
      [
        "Đ",
        "ức"
      ],
      [
        "ố",
        "ng"
      ],
      [
        "nh",
        "ững"
      ],
      [
        "t",
        "i"
      ],
      [
        "v",
        "ua"
      ],
      [
        "ô",
        "n"
      ],
      [
        "ả",
        "i"
      ],
      [
        "s",
        "a"
      ],
      [
        "i",
        "nh"
      ],
      [
        "à",
        "nh"
      ],
      [
        "à",
        "n"
      ],
      [
        "Tr",
        "ời"
      ],
      [
        "ề",
        "n"
      ],
      [
        "ã",
        "y"
      ],
      [
        "d",
        "ân"
      ],
      [
        "â",
        "y"
      ],
      [
        "q",
        "u"
      ],
      [
        "T",
        "h"
      ],
      [
        "c",
        "ả"
      ],
      [
        "N",
        "h"
      ],
      [
        "đ",
        "ể"
      ],
      [
        "ch",
        "i"
      ],
      [
        "l",
        "ại"
      ],
      [
        "h",
        "i"
      ],
      [
        ".",
        "”"
      ],
      [
        "ù",
        "ng"
      ],
      [
        "ch",
        "ị"
      ],
      [
        "á",
        "nh"
      ],
      [
        "ũ",
        "ng"
      ],
      [
        "v",
        "ì"
      ],
      [
        "kh",
        "i"
      ],
      [
        "ầ",
        "y"
      ],
      [
        "ậ",
        "t"
      ],
      [
        "ng",
        "h"
      ],
      [
        "th",
        "ành"
      ],
      [
        "ầ",
        "n"
      ],
      [
        "ư",
        "ơ"
      ],
      [
        "ầ",
        "u"
      ],
      [
        "đ",
        "ó"
      ],
      [
        "a",
        "o"
      ],
      [
        "b",
        "i"
      ],
      [
        "m",
        "ình"
      ],
      [
        "ằ",
        "ng"
      ],
      [
        "ph",
        "ải"
      ],
      [
        "nó",
        "i"
      ],
      [
        "ộ",
        "c"
      ],
      [
        "Gi",
        "ê"
      ],
      [
        "v",
        "ề"
      ],
      [
        "tr",
        "ên"
      ],
      [
        "á",
        "t"
      ],
      [
        "b",
        "ị"
      ],
      [
        "c",
        "ũng"
      ],
      [
        "ặ",
        "t"
      ],
      [
        "ộ",
        "i"
      ],
      [
        "a",
        "y"
      ],
      [
        "e",
        "o"
      ],
      [
        "ậ",
        "y"
      ],
      [
        "á",
        "n"
      ],
      [
        "t",
        "ừ"
      ],
      [
        "ò",
        "ng"
      ],
      [
        "à",
        "o"
      ],
      [
        "q",
        "ua"
      ],
      [
        "Nh",
        "ư"
      ],
      [
        "á",
        "i"
      ],
      [
        "ươ",
        "ng"
      ],
      [
        "s",
        "ơ"
      ],
      [
        "n",
        "ày"
      ],
      [
        "ỏ",
        "i"
      ],
      [
        "ồ",
        "i"
      ],
      [
        "m",
        "à"
      ],
      [
        "í",
        "nh"
      ],
      [
        "ố",
        "i"
      ],
      [
        "đ",
        "a"
      ],
      [
        "i",
        "n"
      ],
      [
        "và",
        "o"
      ],
      [
        "V",
        "ì"
      ],
      [
        "ê",
        "u"
      ],
      [
        "ọ",
        "i"
      ],
      [
        "l",
        "ời"
      ],
      [
        "ò",
        "n"
      ],
      [
        "b",
        "ả"
      ],
      [
        "l",
        "ên"
      ],
      [
        "ậ",
        "n"
      ],
      [
        "l",
        "ễ"
      ],
      [
        "ư",
        "ời"
      ],
      [
        "ừ",
        "ng"
      ],
      [
        "đi",
        "ều"
      ],
      [
        "ữ",
        "a"
      ],
      [
        "th",
        "eo"
      ],
      [
        "h",
        "ãy"
      ],
      [
        "k",
        "ẻ"
      ],
      [
        "đ",
        "á"
      ],
      [
        "ă",
        "n"
      ],
      [
        "à",
        "ng"
      ],
      [
        "ế",
        "u"
      ],
      [
        "S",
        "a"
      ],
      [
        "ậ",
        "p"
      ],
      [
        "ư",
        "ờ"
      ],
      [
        "Như",
        "ng"
      ],
      [
        "ng",
        "ày"
      ],
      [
        "h",
        "o"
      ],
      [
        "s",
        "ự"
      ],
      [
        "ắ",
        "t"
      ],
      [
        "đ",
        "ất"
      ],
      [
        "t",
        "ế"
      ],
      [
        "ạ",
        "y"
      ],
      [
        "th",
        "ì"
      ],
      [
        "c",
        "ùng"
      ],
      [
        "ư",
        "a"
      ],
      [
        "ă",
        "m"
      ],
      [
        "tr",
        "ước"
      ],
      [
        "ph",
        "án"
      ],
      [
        "k",
        "i"
      ],
      [
        "c",
        "ông"
      ],
      [
        "ườ",
        "ng"
      ],
      [
        "n",
        "ào"
      ],
      [
        "bi",
        "ết"
      ],
      [
        "c",
        "òn"
      ],
      [
        "s",
        "ống"
      ],
      [
        "í",
        "t"
      ],
      [
        "ụ",
        "c"
      ],
      [
        "ố",
        "t"
      ],
      [
        "s",
        "u"
      ],
      [
        "uy",
        "ền"
      ],
      [
        "ố",
        "n"
      ],
      [
        "iệ",
        "c"
      ],
      [
        "P",
        "h"
      ],
      [
        "u",
        "ống"
      ],
      [
        "C",
        "ác"
      ],
      [
        "ồ",
        "ng"
      ],
      [
        "th",
        "ấy"
      ],
      [
        "H",
        "ãy"
      ],
      [
        "m",
        "ặt"
      ],
      [
        "l",
        "i"
      ],
      [
        "như",
        "ng"
      ],
      [
        "tr",
        "ai"
      ],
      [
        "gi",
        "a"
      ],
      [
        "n",
        "ơi"
      ],
      [
        "h",
        "ai"
      ],
      [
        "t",
        "ại"
      ],
      [
        "á",
        "ch"
      ],
      [
        "kh",
        "ỏi"
      ],
      [
        "bả",
        "o"
      ],
      [
        "t",
        "ất"
      ],
      [
        "ỗ",
        "i"
      ],
      [
        "m",
        "ọi"
      ],
      [
        "ú",
        "c"
      ],
      [
        "n",
        "ước"
      ],
      [
        "th",
        "i"
      ],
      [
        "g",
        "ì"
      ],
      [
        "Ng",
        "ười"
      ],
      [
        "ổ",
        "i"
      ],
      [
        "â",
        "ng"
      ],
      [
        "á",
        "o"
      ],
      [
        "th",
        "ế"
      ],
      [
        "v",
        "iệc"
      ],
      [
        "ta",
        "y"
      ],
      [
        "V",
        "à"
      ],
      [
        "ứ",
        "ng"
      ],
      [
        "l",
        "òng"
      ],
      [
        "ứ",
        "u"
      ],
      [
        "t",
        "ội"
      ],
      [
        "ngh",
        "e"
      ],
      [
        "th",
        "ờ"
      ],
      [
        "á",
        "ng"
      ],
      [
        "u",
        "ng"
      ],
      [
        "r",
        "i"
      ],
      [
        "nh",
        "à"
      ],
      [
        "ch",
        "ính"
      ],
      [
        "a",
        "ng"
      ],
      [
        "th",
        "ể"
      ],
      [
        "u",
        "ộc"
      ],
      [
        "n",
        "ên"
      ],
      [
        "n",
        "a"
      ],
      [
        "r",
        "ằng"
      ],
      [
        "ơ",
        "n"
      ],
      [
        "â",
        "u"
      ],
      [
        "ă",
        "ng"
      ],
      [
        "b",
        "an"
      ],
      [
        "Gi",
        "ô"
      ],
      [
        "C",
        "on"
      ],
      [
        "đ",
        "em"
      ],
      [
        "ạ",
        "c"
      ],
      [
        "gi",
        "ờ"
      ],
      [
        "V",
        "ua"
      ],
      [
        "đ",
        "ều"
      ],
      [
        "o",
        "àn"
      ],
      [
        "r",
        "u"
      ],
      [
        "K",
        "hi"
      ],
      [
        "ạ",
        "n"
      ],
      [
        "b",
        "a"
      ],
      [
        "ử",
        "a"
      ],
      [
        "ti",
        "n"
      ],
      [
        "ự",
        "c"
      ],
      [
        "t",
        "ộc"
      ],
      [
        "ẫ",
        "n"
      ],
      [
        "ti",
        "ế"
      ],
      [
        "T",
        "ôi"
      ],
      [
        "x",
        "uống"
      ],
      [
        "x",
        "in"
      ],
      [
        "Ch",
        "úng"
      ],
      [
        "ng",
        "o"
      ],
      [
        "Đ",
        "a"
      ],
      [
        "r",
        "ồi"
      ],
      [
        "á",
        "u"
      ],
      [
        "ch",
        "ết"
      ],
      [
        "l",
        "u"
      ],
      [
        "s",
        "inh"
      ],
      [
        "v",
        "ật"
      ],
      [
        "i",
        "ều"
      ],
      [
        "H",
        "ọ"
      ],
      [
        "A",
        "i"
      ],
      [
        "sa",
        "o"
      ],
      [
        "đ",
        "ời"
      ],
      [
        "ệ",
        "n"
      ],
      [
        "á",
        "p"
      ],
      [
        "b",
        "ằng"
      ],
      [
        "ư",
        "ơi"
      ],
      [
        "é",
        "p"
      ],
      [
        "d",
        "âng"
      ],
      [
        "s",
        "e"
      ],
      [
        "tr",
        "ở"
      ],
      [
        "ch",
        "ỉ"
      ],
      [
        "ạ",
        "o"
      ],
      [
        "qu",
        "ân"
      ],
      [
        "ượ",
        "ng"
      ],
      [
        "ỡ",
        "i"
      ],
      [
        "ph",
        "ạ"
      ],
      [
        "ch",
        "a"
      ],
      [
        "đ",
        "ồng"
      ],
      [
        "iệ",
        "t"
      ],
      [
        "v",
        "ít"
      ],
      [
        "đ",
        "ầu"
      ],
      [
        "ư",
        "ở"
      ],
      [
        "l",
        "o"
      ],
      [
        "ưở",
        "ng"
      ],
      [
        "uy",
        "ện"
      ],
      [
        "v",
        "ậy"
      ],
      [
        "ộ",
        "ng"
      ],
      [
        "l",
        "ấy"
      ],
      [
        "ắ",
        "c"
      ],
      [
        "th",
        "ần"
      ],
      [
        "đ",
        "ường"
      ],
      [
        "đa",
        "ng"
      ],
      [
        "đá",
        "p"
      ],
      [
        "th",
        "ứ"
      ],
      [
        "iệ",
        "n"
      ],
      [
        "Sa",
        "u"
      ],
      [
        "ẳ",
        "ng"
      ],
      [
        "x",
        "ứ"
      ],
      [
        "c",
        "ầu"
      ],
      [
        "b",
        "ên"
      ],
      [
        "n",
        "ữa"
      ],
      [
        "kh",
        "ác"
      ],
      [
        "m",
        "ôn"
      ],
      [
        "n",
        "ăm"
      ],
      [
        "b",
        "à"
      ],
      [
        "â",
        "m"
      ],
      [
        "v",
        "i"
      ],
      [
        "a",
        "m"
      ],
      [
        "Gi",
        "u"
      ],
      [
        "gi",
        "ữa"
      ],
      [
        "ó",
        "c"
      ],
      [
        "l",
        "ệ"
      ],
      [
        "b",
        "ỏ"
      ],
      [
        "m",
        "ạ"
      ],
      [
        "ị",
        "nh"
      ],
      [
        "c",
        "ứu"
      ],
      [
        "!",
        "”"
      ],
      [
        "ấ",
        "ng"
      ],
      [
        "ti",
        "ên"
      ],
      [
        "th",
        "ánh"
      ],
      [
        "M",
        "ôi"
      ],
      [
        "tr",
        "ời"
      ],
      [
        "đ",
        "ền"
      ],
      [
        "ọ",
        "n"
      ],
      [
        "N",
        "ếu"
      ],
      [
        "é",
        "t"
      ],
      [
        "đ",
        "ây"
      ],
      [
        "B",
        "a"
      ],
      [
        "ặ",
        "c"
      ],
      [
        "í",
        "ch"
      ],
      [
        "ố",
        "c"
      ],
      [
        "Đ",
        "ấng"
      ],
      [
        "h",
        "ạ"
      ],
      [
        "K",
        "h"
      ],
      [
        "m",
        "u"
      ],
      [
        "th",
        "ương"
      ],
      [
        "V",
        "ậy"
      ],
      [
        "?",
        "”"
      ],
      [
        "c",
        "ái"
      ],
      [
        "h",
        "ay"
      ],
      [
        "ấ",
        "u"
      ],
      [
        "X",
        "in"
      ],
      [
        "c",
        "a"
      ],
      [
        "u",
        "ổi"
      ],
      [
        "gi",
        "ữ"
      ],
      [
        "ê",
        "m"
      ],
      [
        "sa",
        "u"
      ],
      [
        "l",
        "ã"
      ],
      [
        "ả",
        "n"
      ],
      [
        "t",
        "oàn"
      ],
      [
        "l",
        "em"
      ],
      [
        "ừ",
        "a"
      ],
      [
        "m",
        "a"
      ],
      [
        "th",
        "ầy"
      ],
      [
        "tr",
        "uyền"
      ],
      [
        "ướ",
        "i"
      ],
      [
        "ú",
        "i"
      ],
      [
        "s",
        "ợ"
      ],
      [
        "y",
        "êu"
      ],
      [
        "gi",
        "an"
      ],
      [
        "ph",
        "ục"
      ],
      [
        "b",
        "àn"
      ],
      [
        "đ",
        "ầy"
      ],
      [
        "s",
        "ai"
      ],
      [
        "tr",
        "i"
      ],
      [
        "nh",
        "iều"
      ],
      [
        "ph",
        "ụ"
      ],
      [
        "t",
        "ớ"
      ],
      [
        "ắ",
        "p"
      ],
      [
        "ô",
        "m"
      ],
      [
        "Th",
        "ế"
      ],
      [
        "ồ",
        "n"
      ],
      [
        "chi",
        "ến"
      ],
      [
        "c",
        "ây"
      ],
      [
        "tiế",
        "ng"
      ],
      [
        "S",
        "i"
      ],
      [
        "ọ",
        "c"
      ],
      [
        "h",
        "ỏi"
      ],
      [
        "đ",
        "ứng"
      ],
      [
        "b",
        "ắt"
      ],
      [
        "d",
        "ạy"
      ],
      [
        "ấ",
        "n"
      ],
      [
        "n",
        "i"
      ],
      [
        "d",
        "ùng"
      ],
      [
        "nh",
        "ận"
      ],
      [
        "ớ",
        "n"
      ],
      [
        "Ô",
        "ng"
      ],
      [
        "phạ",
        "m"
      ],
      [
        "ợ",
        "i"
      ],
      [
        "đ",
        "ừng"
      ],
      [
        "h",
        "ơn"
      ],
      [
        "t",
        "ên"
      ],
      [
        "v",
        "u"
      ],
      [
        "đ",
        "ánh"
      ],
      [
        "ch",
        "ẳng"
      ],
      [
        "gi",
        "ết"
      ],
      [
        "t",
        "ự"
      ],
      [
        "b",
        "ao"
      ],
      [
        "ả",
        "y"
      ],
      [
        "x",
        "a"
      ],
      [
        "m",
        "ươi"
      ],
      [
        "ắ",
        "ng"
      ],
      [
        "l",
        "a"
      ],
      [
        "ể",
        "n"
      ],
      [
        "ứ",
        "a"
      ],
      [
        "Gi",
        "a"
      ],
      [
        "ấ",
        "p"
      ],
      [
        "ắ",
        "n"
      ],
      [
        "t",
        "ì"
      ],
      [
        "ế",
        "m"
      ],
      [
        "n",
        "ếu"
      ],
      [
        "ki",
        "a"
      ],
      [
        "ch",
        "ân"
      ],
      [
        "q",
        "uyền"
      ],
      [
        "uy",
        "ên"
      ],
      [
        "s",
        "áng"
      ],
      [
        "n",
        "úi"
      ],
      [
        "m",
        "i"
      ],
      [
        "gi",
        "ao"
      ],
      [
        "ph",
        "ần"
      ],
      [
        "d",
        "iệt"
      ],
      [
        "s",
        "ứ"
      ],
      [
        "đ",
        "ặt"
      ],
      [
        "í",
        "a"
      ],
      [
        "ị",
        "ch"
      ],
      [
        "Kh",
        "ông"
      ],
      [
        "th",
        "uộc"
      ],
      [
        "c",
        "ố"
      ],
      [
        "đ",
        "àn"
      ],
      [
        "c",
        "ập"
      ],
      [
        "H",
        "ỡi"
      ],
      [
        "ó",
        "t"
      ],
      [
        "ch",
        "áu"
      ],
      [
        "t",
        "ổ"
      ],
      [
        "tì",
        "m"
      ],
      [
        "Nh",
        "ững"
      ],
      [
        "nh",
        "ân"
      ],
      [
        "l",
        "ô"
      ],
      [
        ".",
        "’"
      ],
      [
        "d",
        "anh"
      ],
      [
        "m",
        "ắt"
      ],
      [
        "vu",
        "i"
      ],
      [
        "Tr",
        "ong"
      ],
      [
        "c",
        "ao"
      ],
      [
        "h",
        "ành"
      ],
      [
        "m",
        "ười"
      ],
      [
        "ầ",
        "m"
      ],
      [
        "l",
        "ớn"
      ],
      [
        "ph",
        "ía"
      ],
      [
        "s",
        "ố"
      ],
      [
        "ẩ",
        "n"
      ],
      [
        "tr",
        "ưởng"
      ],
      [
        "th",
        "u"
      ],
      [
        "C",
        "ứu"
      ],
      [
        "á",
        "m"
      ],
      [
        "gi",
        "ải"
      ],
      [
        "v",
        "ị"
      ],
      [
        "M",
        "a"
      ],
      [
        "h",
        "ết"
      ],
      [
        "n",
        "ay"
      ],
      [
        "đ",
        "ịnh"
      ],
      [
        "m",
        "ã"
      ],
      [
        "lã",
        "nh"
      ],
      [
        "bả",
        "y"
      ],
      [
        "đ",
        "ông"
      ],
      [
        "đ",
        "ổ"
      ],
      [
        "và",
        "ng"
      ],
      [
        "a",
        "u"
      ],
      [
        "ạ",
        "ch"
      ],
      [
        "S",
        "ê"
      ],
      [
        "Th",
        "ánh"
      ],
      [
        "g",
        "ái"
      ],
      [
        "ủ",
        "y"
      ],
      [
        "g",
        "ọi"
      ],
      [
        "r",
        "ôn"
      ],
      [
        "b",
        "ệ"
      ],
      [
        "chi",
        "ên"
      ],
      [
        "e",
        "n"
      ],
      [
        "nh",
        "au"
      ],
      [
        "chị",
        "u"
      ],
      [
        "đ",
        "ối"
      ],
      [
        "tr",
        "ị"
      ],
      [
        "lệ",
        "nh"
      ],
      [
        "lu",
        "ật"
      ],
      [
        "ả",
        "ng"
      ],
      [
        "A",
        "nh"
      ],
      [
        "v",
        "ợ"
      ],
      [
        "L",
        "ạy"
      ],
      [
        "u",
        "ân"
      ],
      [
        "th",
        "ù"
      ],
      [
        "ọ",
        "ng"
      ],
      [
        "c",
        "ổ"
      ],
      [
        "l",
        "ỗi"
      ],
      [
        "ê",
        "ng"
      ],
      [
        "mu",
        "ốn"
      ],
      [
        "l",
        "ư"
      ],
      [
        "ụ",
        "ng"
      ],
      [
        "i",
        "ên"
      ],
      [
        "b",
        "ình"
      ],
      [
        "d",
        "ự"
      ],
      [
        "x",
        "ây"
      ],
      [
        "Á",
        "p"
      ],
      [
        "b",
        "ò"
      ],
      [
        "thi",
        "êu"
      ],
      [
        "r",
        "ơ"
      ],
      [
        "đ",
        "âu"
      ],
      [
        "ướ",
        "ng"
      ],
      [
        "k",
        "inh"
      ],
      [
        "l",
        "ập"
      ],
      [
        "g",
        "h"
      ],
      [
        "ặ",
        "p"
      ],
      [
        "c",
        "ứ"
      ],
      [
        "s",
        "i"
      ],
      [
        "í",
        "n"
      ],
      [
        "H",
        "a"
      ],
      [
        "v",
        "ẫn"
      ],
      [
        "th",
        "an"
      ],
      [
        "c",
        "ư"
      ],
      [
        "t",
        "ử"
      ],
      [
        "là",
        "nh"
      ],
      [
        "d",
        "ưới"
      ],
      [
        "l",
        "ửa"
      ],
      [
        "ngo",
        "ài"
      ],
      [
        "v",
        "inh"
      ],
      [
        "ng",
        "uyện"
      ],
      [
        "uy",
        "ết"
      ],
      [
        "tiế",
        "p"
      ],
      [
        "r",
        "ê"
      ],
      [
        "C",
        "ó"
      ],
      [
        "lo",
        "ài"
      ],
      [
        "th",
        "ật"
      ],
      [
        "v",
        "ụ"
      ],
      [
        "nh",
        "ì"
      ],
      [
        "t",
        "ình"
      ],
      [
        "m",
        "ới"
      ],
      [
        "c",
        "ách"
      ],
      [
        "ở",
        "i"
      ],
      [
        "t",
        "ượng"
      ],
      [
        "ể",
        "u"
      ],
      [
        "g",
        "ần"
      ],
      [
        "tr",
        "ại"
      ],
      [
        "h",
        "ủy"
      ],
      [
        "t",
        "ức"
      ],
      [
        "m",
        "ỗi"
      ],
      [
        "ho",
        "àng"
      ],
      [
        "qua",
        "n"
      ],
      [
        "P",
        "hi"
      ],
      [
        "h",
        "iện"
      ],
      [
        "g",
        "ặp"
      ],
      [
        "b",
        "áo"
      ],
      [
        "d",
        "o"
      ],
      [
        "i",
        "m"
      ],
      [
        "l",
        "ơ"
      ],
      [
        "b",
        "ạc"
      ],
      [
        "x",
        "ử"
      ],
      [
        "ặ",
        "ng"
      ],
      [
        "s",
        "ông"
      ],
      [
        "d",
        "òng"
      ],
      [
        "đ",
        "ạo"
      ],
      [
        "L",
        "ê"
      ],
      [
        "ng",
        "ay"
      ],
      [
        "B",
        "ấy"
      ],
      [
        "M",
        "ột"
      ],
      [
        "ch",
        "ứng"
      ],
      [
        "kh",
        "ôn"
      ],
      [
        "th",
        "a"
      ],
      [
        "th",
        "ưa"
      ],
      [
        "d",
        "ậy"
      ],
      [
        "ấ",
        "m"
      ],
      [
        "b",
        "ốn"
      ],
      [
        "v",
        "ô"
      ],
      [
        "è",
        "n"
      ],
      [
        "n",
        "àng"
      ],
      [
        "đ",
        "ưa"
      ],
      [
        "ươ",
        "m"
      ],
      [
        "t",
        "ai"
      ],
      [
        "ì",
        "a"
      ],
      [
        "b",
        "ánh"
      ],
      [
        "Ch",
        "a"
      ],
      [
        "ú",
        "t"
      ],
      [
        "c",
        "ô"
      ],
      [
        "Đ",
        "ây"
      ],
      [
        "đ",
        "o"
      ],
      [
        "gi",
        "ận"
      ],
      [
        "ng",
        "ự"
      ],
      [
        "kh",
        "o"
      ],
      [
        "b",
        "u"
      ],
      [
        "l",
        "úc"
      ],
      [
        "é",
        "o"
      ],
      [
        "ch",
        "ạy"
      ],
      [
        "qua",
        "nh"
      ],
      [
        "cố",
        "p"
      ],
      [
        "n",
        "ữ"
      ],
      [
        "mạ",
        "ng"
      ],
      [
        "s",
        "ạch"
      ],
      [
        "ch",
        "uộc"
      ],
      [
        "cổ",
        "ng"
      ],
      [
        "g",
        "ươm"
      ],
      [
        "mạ",
        "nh"
      ],
      [
        "Đ",
        "ừng"
      ],
      [
        "ngh",
        "iệ"
      ],
      [
        "c",
        "ửa"
      ],
      [
        "iệ",
        "ng"
      ],
      [
        "ó",
        "ng"
      ],
      [
        "th",
        "ân"
      ],
      [
        "x",
        "ét"
      ],
      [
        "nhì",
        "n"
      ],
      [
        "tr",
        "ả"
      ],
      [
        "Ph",
        "a"
      ],
      [
        "t",
        "âm"
      ],
      [
        "L",
        "à"
      ],
      [
        "t",
        "ốt"
      ],
      [
        "m",
        "ẹ"
      ],
      [
        "đ",
        "ộng"
      ],
      [
        "Ng",
        "ươi"
      ],
      [
        "õ",
        "i"
      ],
      [
        "th",
        "ị"
      ],
      [
        "k",
        "ính"
      ],
      [
        "m",
        "ừng"
      ],
      [
        "ho",
        "ặc"
      ],
      [
        "đ",
        "uổi"
      ],
      [
        "ch",
        "ống"
      ],
      [
        "k",
        "êu"
      ],
      [
        "ạ",
        "t"
      ],
      [
        "ch",
        "ưa"
      ],
      [
        "ằ",
        "m"
      ],
      [
        "C",
        "òn"
      ],
      [
        "th",
        "ức"
      ],
      [
        "gi",
        "ống"
      ],
      [
        "n",
        "ầy"
      ],
      [
        "s",
        "ĩ"
      ],
      [
        "ậ",
        "u"
      ],
      [
        "ngo",
        "an"
      ],
      [
        "iệ",
        "u"
      ],
      [
        "th",
        "ời"
      ],
      [
        "đ",
        "ồ"
      ],
      [
        "hi",
        "ểu"
      ],
      [
        "h",
        "ương"
      ],
      [
        "qu",
        "ốc"
      ],
      [
        "ú",
        "p"
      ],
      [
        "b",
        "ất"
      ],
      [
        "n",
        "ổi"
      ],
      [
        "na",
        "m"
      ],
      [
        "c",
        "ung"
      ],
      [
        "c",
        "ơn"
      ],
      [
        "m",
        "ang"
      ],
      [
        "ế",
        "p"
      ],
      [
        "nh",
        "ất"
      ],
      [
        "tr",
        "ái"
      ],
      [
        "ngh",
        "ịch"
      ],
      [
        "m",
        "iệng"
      ],
      [
        "v",
        "ầy"
      ],
      [
        "T",
        "ừ"
      ],
      [
        "d",
        "ẫn"
      ],
      [
        "d",
        "ầu"
      ],
      [
        "ẹ",
        "p"
      ],
      [
        "phạ",
        "t"
      ],
      [
        "n",
        "ăng"
      ],
      [
        "ngo",
        "ại"
      ],
      [
        "kh",
        "ắp"
      ],
      [
        "thi",
        "ên"
      ],
      [
        "D",
        "o"
      ],
      [
        "đ",
        "ệ"
      ],
      [
        "ắ",
        "m"
      ],
      [
        "đ",
        "ực"
      ],
      [
        "ph",
        "ước"
      ],
      [
        "Q",
        "uân"
      ],
      [
        "ch",
        "ủ"
      ],
      [
        "c",
        "ất"
      ],
      [
        "kh",
        "óc"
      ],
      [
        "chi",
        "a"
      ],
      [
        "x",
        "em"
      ],
      [
        "v",
        "ùng"
      ],
      [
        "Ph",
        "ê"
      ],
      [
        "li",
        "ền"
      ],
      [
        "l",
        "ối"
      ],
      [
        "s",
        "ản"
      ],
      [
        "l",
        "ôn"
      ],
      [
        "bi",
        "ển"
      ],
      [
        "s",
        "ức"
      ],
      [
        "l",
        "ê"
      ],
      [
        "n",
        "ộ"
      ],
      [
        "m",
        "ù"
      ],
      [
        "h",
        "ội"
      ],
      [
        "x",
        "e"
      ],
      [
        "K",
        "inh"
      ],
      [
        "b",
        "ố"
      ],
      [
        "qua",
        "ng"
      ],
      [
        "ng",
        "ồi"
      ],
      [
        "nh",
        "o"
      ],
      [
        "x",
        "ác"
      ],
      [
        "Th",
        "ầy"
      ],
      [
        "G",
        "a"
      ],
      [
        "u",
        "ế"
      ],
      [
        "é",
        "m"
      ],
      [
        "ch",
        "ỗ"
      ],
      [
        "R",
        "ồi"
      ],
      [
        "h",
        "àng"
      ],
      [
        "t",
        "ối"
      ],
      [
        "N",
        "ó"
      ],
      [
        "h",
        "ình"
      ],
      [
        "h",
        "ô"
      ],
      [
        "ngh",
        "ĩ"
      ],
      [
        "h",
        "ứa"
      ],
      [
        "l",
        "inh"
      ],
      [
        "đ",
        "ê"
      ],
      [
        "đ",
        "êm"
      ],
      [
        "x",
        "i"
      ],
      [
        "v",
        "âng"
      ],
      [
        "tr",
        "ăm"
      ],
      [
        "T",
        "ất"
      ],
      [
        "ph",
        "ép"
      ],
      [
        "th",
        "ực"
      ],
      [
        "h",
        "ướng"
      ],
      [
        "s",
        "ê"
      ],
      [
        "h",
        "ôm"
      ],
      [
        "t",
        "ôn"
      ],
      [
        "đ",
        "ại"
      ],
      [
        "gi",
        "ới"
      ],
      [
        "T",
        "ại"
      ],
      [
        "ta",
        "n"
      ],
      [
        "lu",
        "ôn"
      ],
      [
        "B",
        "ê"
      ],
      [
        "t",
        "ù"
      ],
      [
        "r",
        "ượ"
      ],
      [
        "N",
        "a"
      ],
      [
        "ả",
        "o"
      ],
      [
        "thị",
        "t"
      ],
      [
        "b",
        "inh"
      ],
      [
        "mã",
        "i"
      ],
      [
        "t",
        "ận"
      ],
      [
        "ẩ",
        "m"
      ],
      [
        "ra",
        "m"
      ],
      [
        "đá",
        "ng"
      ],
      [
        "h",
        "ại"
      ],
      [
        "kh",
        "ổ"
      ],
      [
        "0",
        "0"
      ],
      [
        "C",
        "a"
      ],
      [
        "d",
        "ù"
      ],
      [
        "ph",
        "á"
      ],
      [
        "nh",
        "ờ"
      ],
      [
        "ng",
        "ã"
      ],
      [
        "Ch",
        "ính"
      ],
      [
        "c",
        "u"
      ],
      [
        "qua",
        "y"
      ],
      [
        "th",
        "ề"
      ],
      [
        "t",
        "uổi"
      ],
      [
        "Ch",
        "o"
      ],
      [
        "ế",
        "ng"
      ],
      [
        "dự",
        "ng"
      ],
      [
        "b",
        "y"
      ],
      [
        "m",
        "ê"
      ],
      [
        "s",
        "ép"
      ],
      [
        "ch",
        "ọn"
      ],
      [
        "l",
        "ần"
      ],
      [
        "ng",
        "àn"
      ],
      [
        "d",
        "õi"
      ],
      [
        "r",
        "ất"
      ],
      [
        "ế",
        "c"
      ],
      [
        "m",
        "ạc"
      ],
      [
        "s",
        "át"
      ],
      [
        "qu",
        "ả"
      ],
      [
        "rượ",
        "u"
      ],
      [
        "m",
        "ặc"
      ],
      [
        "nh",
        "ớ"
      ],
      [
        "nghiệ",
        "p"
      ],
      [
        "đ",
        "ẹp"
      ],
      [
        "qu",
        "ý"
      ],
      [
        "chi",
        "ếm"
      ],
      [
        "T",
        "oàn"
      ],
      [
        "H",
        "ê"
      ],
      [
        "L",
        "inh"
      ],
      [
        "l",
        "ừa"
      ],
      [
        "n",
        "u"
      ],
      [
        "t",
        "àn"
      ],
      [
        "đ",
        "ội"
      ],
      [
        "th",
        "ú"
      ],
      [
        "b",
        "ô"
      ],
      [
        "h",
        "am"
      ],
      [
        "ng",
        "ôi"
      ],
      [
        "Th",
        "ật"
      ],
      [
        "g",
        "hi"
      ],
      [
        "o",
        "i"
      ],
      [
        "v",
        "òng"
      ],
      [
        "Ng",
        "uyện"
      ],
      [
        "b",
        "ầy"
      ],
      [
        "ti",
        "êu"
      ],
      [
        "t",
        "ục"
      ],
      [
        "Đ",
        "ể"
      ],
      [
        "gi",
        "úp"
      ],
      [
        "v",
        "ừa"
      ],
      [
        "ng",
        "ợi"
      ],
      [
        "K",
        "ẻ"
      ],
      [
        "M",
        "ê"
      ],
      [
        "ó",
        "a"
      ],
      [
        "N",
        "ê"
      ],
      [
        "ch",
        "ung"
      ],
      [
        "ẩ",
        "y"
      ],
      [
        "tr",
        "ọng"
      ],
      [
        "đ",
        "ủ"
      ],
      [
        "tr",
        "ách"
      ],
      [
        "đ",
        "ức"
      ],
      [
        "gi",
        "ả"
      ],
      [
        "B",
        "ên"
      ],
      [
        "t",
        "ập"
      ],
      [
        "t",
        "ín"
      ],
      [
        "o",
        "át"
      ],
      [
        "l",
        "ợi"
      ],
      [
        "D",
        "ân"
      ],
      [
        "v",
        "ương"
      ],
      [
        "tr",
        "ụ"
      ],
      [
        "Th",
        "ái"
      ],
      [
        "ho",
        "ang"
      ],
      [
        "k",
        "éo"
      ],
      [
        "ph",
        "át"
      ],
      [
        "họ",
        "p"
      ],
      [
        "l",
        "ạ"
      ],
      [
        "l",
        "úa"
      ],
      [
        "t",
        "ỏ"
      ],
      [
        "đ",
        "úng"
      ],
      [
        "ng",
        "u"
      ],
      [
        "c",
        "ai"
      ],
      [
        "b",
        "át"
      ],
      [
        "h",
        "u"
      ],
      [
        "à",
        "u"
      ],
      [
        "ch",
        "u"
      ],
      [
        "họ",
        "a"
      ],
      [
        "h",
        "ồn"
      ],
      [
        "G",
        "h"
      ],
      [
        "V",
        "ạn"
      ],
      [
        "n",
        "ằm"
      ],
      [
        "th",
        "áng"
      ],
      [
        "h",
        "át"
      ],
      [
        "từ",
        "ng"
      ],
      [
        "d",
        "ối"
      ],
      [
        "u",
        "ất"
      ],
      [
        "d",
        "ấu"
      ],
      [
        "th",
        "ịnh"
      ],
      [
        "đó",
        "ng"
      ],
      [
        "c",
        "ánh"
      ],
      [
        "khi",
        "ến"
      ],
      [
        "x",
        "ảy"
      ],
      [
        "C",
        "ũng"
      ],
      [
        "l",
        "ý"
      ],
      [
        "đ",
        "ốt"
      ],
      [
        "tr",
        "ình"
      ],
      [
        "ph",
        "ân"
      ],
      [
        "v",
        "ĩ"
      ],
      [
        "th",
        "anh"
      ],
      [
        "c",
        "ơ"
      ],
      [
        "d",
        "ài"
      ],
      [
        "đ",
        "ình"
      ],
      [
        "nh",
        "ục"
      ],
      [
        "th",
        "êm"
      ],
      [
        "ti",
        "nh"
      ],
      [
        "t",
        "uyên"
      ],
      [
        "ạ",
        "m"
      ],
      [
        "th",
        "ay"
      ],
      [
        "l",
        "ạc"
      ],
      [
        "t",
        "ường"
      ],
      [
        "th",
        "ượng"
      ],
      [
        "su",
        "ê"
      ],
      [
        "thi",
        "ếu"
      ],
      [
        "x",
        "ót"
      ],
      [
        "th",
        "oát"
      ],
      [
        "N",
        "ày"
      ],
      [
        "c",
        "ầm"
      ],
      [
        "tr",
        "iều"
      ],
      [
        "c",
        "áo"
      ],
      [
        "ạ",
        "p"
      ],
      [
        "su",
        "ốt"
      ],
      [
        "c",
        "ỏ"
      ],
      [
        "đa",
        "u"
      ],
      [
        "ri",
        "êng"
      ],
      [
        "t",
        "ấn"
      ],
      [
        "ữ",
        "u"
      ],
      [
        "Ng",
        "ày"
      ],
      [
        "th",
        "ường"
      ],
      [
        "ho",
        "a"
      ],
      [
        "h",
        "uy"
      ],
      [
        "tr",
        "ẻ"
      ],
      [
        "iệ",
        "m"
      ],
      [
        "ườ",
        "n"
      ],
      [
        "chi",
        "m"
      ],
      [
        "nh",
        "iên"
      ],
      [
        "tr",
        "ốn"
      ],
      [
        "b",
        "ê"
      ],
      [
        "m",
        "ở"
      ],
      [
        "s",
        "ách"
      ],
      [
        "k",
        "ết"
      ],
      [
        "L",
        "u"
      ],
      [
        "h",
        "ữu"
      ],
      [
        "m",
        "ất"
      ],
      [
        "n",
        "ặng"
      ],
      [
        "Th",
        "ưa"
      ],
      [
        "ặ",
        "n"
      ],
      [
        "ã",
        "i"
      ],
      [
        "Đ",
        "ó"
      ],
      [
        "th",
        "ước"
      ],
      [
        "ti",
        "ền"
      ],
      [
        "c",
        "ắt"
      ],
      [
        "tr",
        "ận"
      ],
      [
        "è",
        "o"
      ],
      [
        "đ",
        "ồi"
      ],
      [
        "ệ",
        "t"
      ],
      [
        "v",
        "ọng"
      ],
      [
        "đ",
        "ứa"
      ],
      [
        "ẫ",
        "y"
      ],
      [
        "M",
        "ọi"
      ],
      [
        "n",
        "ô"
      ],
      [
        "ph",
        "a"
      ],
      [
        "Ph",
        "ải"
      ],
      [
        "n",
        "ạn"
      ],
      [
        "q",
        "uy"
      ],
      [
        "x",
        "ê"
      ],
      [
        "M",
        "ô"
      ],
      [
        "gi",
        "á"
      ],
      [
        "t",
        "ài"
      ],
      [
        "k",
        "ỳ"
      ],
      [
        "m",
        "áu"
      ],
      [
        "n",
        "át"
      ],
      [
        "ỉ",
        "nh"
      ],
      [
        "b",
        "ây"
      ],
      [
        "l",
        "ạy"
      ],
      [
        "s",
        "áu"
      ],
      [
        "đá",
        "m"
      ],
      [
        "ph",
        "ố"
      ],
      [
        "V",
        "ào"
      ],
      [
        "c",
        "anh"
      ],
      [
        "s",
        "ắp"
      ],
      [
        "đ",
        "oàn"
      ],
      [
        "tr",
        "ung"
      ],
      [
        "ó",
        "i"
      ],
      [
        "ch",
        "ức"
      ],
      [
        "ch",
        "ắc"
      ],
      [
        "D",
        "ù"
      ],
      [
        "d",
        "ụng"
      ],
      [
        "ể",
        "m"
      ],
      [
        "d",
        "iện"
      ],
      [
        "l",
        "ẫn"
      ],
      [
        "ki",
        "ếm"
      ],
      [
        "ủ",
        "ng"
      ],
      [
        "g",
        "ây"
      ],
      [
        "h",
        "uyết"
      ],
      [
        "ò",
        "a"
      ],
      [
        "ứ",
        "t"
      ],
      [
        "ch",
        "ồng"
      ],
      [
        "c",
        "ậy"
      ],
      [
        "L",
        "úc"
      ],
      [
        "b",
        "ức"
      ],
      [
        "í",
        "p"
      ],
      [
        "ch",
        "ép"
      ],
      [
        "th",
        "ăm"
      ],
      [
        "v",
        "ững"
      ],
      [
        "Lu",
        "ật"
      ],
      [
        "q",
        "uyết"
      ],
      [
        "lã",
        "o"
      ],
      [
        "t",
        "u"
      ],
      [
        "k",
        "ể"
      ],
      [
        "é",
        "c"
      ],
      [
        "l",
        "ực"
      ],
      [
        "v",
        "ườn"
      ],
      [
        "é",
        "n"
      ],
      [
        "gh",
        "ét"
      ],
      [
        "h",
        "ề"
      ],
      [
        "t",
        "ạo"
      ],
      [
        "Đ",
        "ến"
      ],
      [
        "H",
        "ội"
      ],
      [
        "ch",
        "e"
      ],
      [
        "ướ",
        "p"
      ],
      [
        "B",
        "ết"
      ],
      [
        "x",
        "uất"
      ],
      [
        "á",
        "y"
      ],
      [
        "Ph",
        "ao"
      ],
      [
        "d",
        "ại"
      ],
      [
        "ng",
        "ủ"
      ],
      [
        "th",
        "ắng"
      ],
      [
        "d",
        "ê"
      ],
      [
        "ư",
        "u"
      ],
      [
        "ho",
        "àn"
      ],
      [
        "n",
        "ỗi"
      ],
      [
        "Đ",
        "ền"
      ],
      [
        "ề",
        "m"
      ],
      [
        "gi",
        "áo"
      ],
      [
        "ti",
        "ến"
      ],
      [
        "K",
        "ê"
      ],
      [
        "đ",
        "ỡ"
      ],
      [
        "ch",
        "ê"
      ],
      [
        "th",
        "ích"
      ],
      [
        "ph",
        "ản"
      ],
      [
        "tr",
        "anh"
      ],
      [
        "m",
        "in"
      ],
      [
        "ch",
        "úa"
      ],
      [
        "ph",
        "i"
      ],
      [
        "h",
        "ổ"
      ],
      [
        "m",
        "ô"
      ],
      [
        "r",
        "ô"
      ],
      [
        "r",
        "ời"
      ],
      [
        "r",
        "ăn"
      ],
      [
        "L",
        "ời"
      ],
      [
        "b",
        "ụ"
      ],
      [
        "c",
        "ướp"
      ],
      [
        "đ",
        "anh"
      ],
      [
        "K",
        "ìa"
      ],
      [
        "b",
        "ờ"
      ],
      [
        "b",
        "ởi"
      ],
      [
        "É",
        "p"
      ],
      [
        "c",
        "ấp"
      ],
      [
        "ượ",
        "t"
      ],
      [
        "qu",
        "á"
      ],
      [
        "ngh",
        "èo"
      ],
      [
        "lư",
        "u"
      ],
      [
        "N",
        "ăng"
      ],
      [
        "ch",
        "ớ"
      ],
      [
        "gi",
        "áng"
      ],
      [
        "cả",
        "nh"
      ],
      [
        "Â",
        "m"
      ],
      [
        "ch",
        "ữa"
      ],
      [
        "b",
        "ước"
      ],
      [
        "h",
        "a"
      ],
      [
        "ạ",
        "nh"
      ],
      [
        "ng",
        "ang"
      ],
      [
        "S",
        "ự"
      ],
      [
        "b",
        "ạn"
      ],
      [
        "l",
        "ắng"
      ],
      [
        "r",
        "õ"
      ],
      [
        "r",
        "ủa"
      ],
      [
        "ị",
        "a"
      ],
      [
        "gi",
        "ảng"
      ],
      [
        "t",
        "ấm"
      ],
      [
        "x",
        "ong"
      ],
      [
        "ph",
        "ẩm"
      ],
      [
        "s",
        "úc"
      ],
      [
        "đó",
        "i"
      ],
      [
        "nh",
        "iệm"
      ],
      [
        "th",
        "ổ"
      ],
      [
        "s",
        "ót"
      ],
      [
        "B",
        "ây"
      ],
      [
        "R",
        "a"
      ],
      [
        "ph",
        "ương"
      ],
      [
        "l",
        "ao"
      ],
      [
        "r",
        "ừng"
      ],
      [
        "ch",
        "àng"
      ],
      [
        "lo",
        "ại"
      ],
      [
        "mù",
        "a"
      ],
      [
        "s",
        "âu"
      ],
      [
        "t",
        "ư"
      ],
      [
        "đ",
        "ô"
      ],
      [
        "ng",
        "ụ"
      ],
      [
        "r",
        "ộng"
      ],
      [
        "h",
        "ằng"
      ],
      [
        "r",
        "ỗi"
      ],
      [
        "A",
        "m"
      ],
      [
        "ư",
        "ng"
      ],
      [
        "ủ",
        "i"
      ],
      [
        "ch",
        "ăn"
      ],
      [
        "ki",
        "ên"
      ],
      [
        "ph",
        "ượng"
      ],
      [
        "T",
        "i"
      ],
      [
        "m",
        "ưu"
      ],
      [
        "th",
        "ôi"
      ],
      [
        "h",
        "ắn"
      ],
      [
        "t",
        "ưởng"
      ],
      [
        "cả",
        "m"
      ],
      [
        "vi",
        "ết"
      ],
      [
        "v",
        "ệ"
      ],
      [
        "đ",
        "ịa"
      ],
      [
        "ng",
        "hi"
      ],
      [
        "nh",
        "ỏ"
      ],
      [
        "l",
        "âu"
      ],
      [
        "đ",
        "ôm"
      ],
      [
        "ầ",
        "ng"
      ],
      [
        "N",
        "ước"
      ],
      [
        "đ",
        "ập"
      ],
      [
        "ớ",
        "c"
      ],
      [
        "ph",
        "òng"
      ],
      [
        "nghĩ",
        "a"
      ],
      [
        "kh",
        "ô"
      ],
      [
        "ngh",
        "ỉ"
      ],
      [
        "bệ",
        "nh"
      ],
      [
        "K",
        "i"
      ],
      [
        "b",
        "óng"
      ],
      [
        "d",
        "ịch"
      ],
      [
        "t",
        "âu"
      ],
      [
        "ki",
        "ến"
      ],
      [
        "ru",
        "ộng"
      ],
      [
        "ngự",
        "a"
      ],
      [
        "c",
        "uộc"
      ],
      [
        "s",
        "ân"
      ],
      [
        "t",
        "ạ"
      ],
      [
        "ch",
        "uyện"
      ],
      [
        "c",
        "oi"
      ],
      [
        "tr",
        "í"
      ],
      [
        "chi",
        "ều"
      ],
      [
        "h",
        "ưởng"
      ],
      [
        "nh",
        "i"
      ],
      [
        "b",
        "iệt"
      ],
      [
        "s",
        "ư"
      ],
      [
        "s",
        "ắc"
      ],
      [
        "ó",
        "n"
      ],
      [
        "R",
        "ê"
      ],
      [
        "b",
        "án"
      ],
      [
        "n",
        "ém"
      ],
      [
        "th",
        "ợ"
      ],
      [
        "th",
        "ẳng"
      ],
      [
        "c",
        "ạnh"
      ],
      [
        "Gi",
        "ăng"
      ],
      [
        "k",
        "ế"
      ],
      [
        "m",
        "ời"
      ],
      [
        "gi",
        "ó"
      ],
      [
        "Là",
        "m"
      ],
      [
        "l",
        "éc"
      ],
      [
        "ẵ",
        "n"
      ],
      [
        "ch",
        "ế"
      ],
      [
        "th",
        "ổi"
      ],
      [
        "mi",
        "ền"
      ],
      [
        "Gh",
        "ê"
      ],
      [
        "h",
        "y"
      ],
      [
        "ẹ",
        "n"
      ],
      [
        "gh",
        "ê"
      ],
      [
        "!",
        "’"
      ],
      [
        "x",
        "ức"
      ],
      [
        "ợ",
        "p"
      ],
      [
        "S",
        "ẽ"
      ],
      [
        "d",
        "ữ"
      ],
      [
        "s",
        "ác"
      ],
      [
        "ó",
        "p"
      ],
      [
        "ọ",
        "t"
      ],
      [
        "th",
        "ái"
      ],
      [
        "kh",
        "inh"
      ],
      [
        "vi",
        "ên"
      ],
      [
        "bụ",
        "i"
      ],
      [
        "X",
        "ê"
      ],
      [
        "c",
        "ớ"
      ],
      [
        "m",
        "ưa"
      ],
      [
        "lư",
        "ỡi"
      ],
      [
        "b",
        "ắc"
      ],
      [
        "c",
        "ần"
      ],
      [
        "c",
        "ưới"
      ],
      [
        "d",
        "âm"
      ],
      [
        "g",
        "ai"
      ],
      [
        "m",
        "ây"
      ],
      [
        "s",
        "ẵn"
      ],
      [
        "đ",
        "ai"
      ],
      [
        "Tr",
        "ước"
      ],
      [
        "b",
        "ày"
      ],
      [
        "đ",
        "ổi"
      ],
      [
        "kh",
        "ẩn"
      ],
      [
        "X",
        "a"
      ],
      [
        "c",
        "ậu"
      ],
      [
        "g",
        "ỗ"
      ],
      [
        "h",
        "ệ"
      ],
      [
        "ở",
        "m"
      ],
      [
        "tr",
        "ừ"
      ],
      [
        "ph",
        "ủ"
      ],
      [
        "S",
        "u"
      ],
      [
        "ỏ",
        "a"
      ],
      [
        "M",
        "ỗi"
      ],
      [
        "d",
        "ỗ"
      ],
      [
        "đ",
        "ày"
      ],
      [
        "ả",
        "m"
      ],
      [
        "tr",
        "àn"
      ],
      [
        "kh",
        "ốn"
      ],
      [
        "T",
        "uy"
      ],
      [
        "h",
        "ầu"
      ],
      [
        "ng",
        "ọn"
      ],
      [
        "th",
        "ông"
      ],
      [
        "tr",
        "ông"
      ],
      [
        "qu",
        "ỷ"
      ],
      [
        "tù",
        "y"
      ],
      [
        "G",
        "hi"
      ],
      [
        "L",
        "a"
      ],
      [
        "d",
        "ám"
      ],
      [
        "r",
        "ương"
      ],
      [
        "t",
        "ởm"
      ],
      [
        "ch",
        "ôn"
      ],
      [
        "ch",
        "áy"
      ],
      [
        "lư",
        "ng"
      ],
      [
        "h",
        "ợp"
      ],
      [
        "m",
        "ua"
      ],
      [
        "th",
        "ảy"
      ],
      [
        "M",
        "i"
      ],
      [
        "b",
        "ộ"
      ],
      [
        "b",
        "ại"
      ],
      [
        "h",
        "ậu"
      ],
      [
        "n",
        "ê"
      ],
      [
        "hi",
        "ến"
      ],
      [
        "c",
        "ận"
      ],
      [
        "x",
        "ấu"
      ],
      [
        "đ",
        "èn"
      ],
      [
        "uy",
        "ển"
      ],
      [
        "S",
        "ao"
      ],
      [
        "t",
        "o"
      ],
      [
        "ch",
        "úc"
      ],
      [
        "d",
        "a"
      ],
      [
        "th",
        "ơ"
      ],
      [
        "tr",
        "ú"
      ],
      [
        "tr",
        "ao"
      ],
      [
        "nu",
        "ốt"
      ],
      [
        "c",
        "ừ"
      ],
      [
        "c",
        "àng"
      ],
      [
        "ch",
        "ắn"
      ],
      [
        "m",
        "ai"
      ],
      [
        "ng",
        "ài"
      ],
      [
        "thu",
        "ật"
      ],
      [
        "cừ",
        "u"
      ],
      [
        "?",
        "’"
      ],
      [
        "B",
        "à"
      ],
      [
        "l",
        "ũng"
      ],
      [
        "m",
        "en"
      ],
      [
        "đ",
        "ảo"
      ],
      [
        "tr",
        "ừng"
      ],
      [
        "cu",
        "ối"
      ],
      [
        "l",
        "ẽ"
      ],
      [
        "ớ",
        "m"
      ],
      [
        "Ng",
        "ay"
      ],
      [
        "lo",
        "ạn"
      ],
      [
        "G",
        "át"
      ],
      [
        "c",
        "át"
      ],
      [
        "ki",
        "êu"
      ],
      [
        "c",
        "ộng"
      ],
      [
        "v",
        "ết"
      ],
      [
        "th",
        "ung"
      ],
      [
        "kh",
        "í"
      ],
      [
        "gi",
        "àu"
      ],
      [
        "thi",
        "ết"
      ],
      [
        "t",
        "ám"
      ],
      [
        "đ",
        "ạp"
      ],
      [
        "ồ",
        "m"
      ],
      [
        "ộ",
        "n"
      ],
      [
        "th",
        "ống"
      ],
      [
        "ph",
        "úc"
      ],
      [
        "chi",
        "ếc"
      ],
      [
        "Ph",
        "úc"
      ],
      [
        "chu",
        "ẩn"
      ],
      [
        "d",
        "ũng"
      ],
      [
        "v",
        "ây"
      ],
      [
        "đ",
        "u"
      ],
      [
        "đ",
        "ốc"
      ],
      [
        "ậ",
        "m"
      ],
      [
        "ch",
        "ăng"
      ],
      [
        "đi",
        "ện"
      ],
      [
        "b",
        "ọn"
      ],
      [
        "d",
        "ây"
      ],
      [
        "v",
        "ấn"
      ],
      [
        "ạ",
        "ng"
      ],
      [
        "kh",
        "ó"
      ],
      [
        "qu",
        "ản"
      ],
      [
        "đo",
        "án"
      ],
      [
        "nộ",
        "p"
      ],
      [
        "ò",
        "i"
      ],
      [
        "đ",
        "ấu"
      ],
      [
        "ng",
        "ai"
      ],
      [
        "sa",
        "ng"
      ],
      [
        "ni",
        "a"
      ],
      [
        "h",
        "ỡi"
      ],
      [
        "t",
        "ây"
      ],
      [
        "tr",
        "ọn"
      ],
      [
        "g",
        "ạt"
      ],
      [
        "t",
        "ầng"
      ],
      [
        "y",
        "ên"
      ],
      [
        "ch",
        "uyển"
      ],
      [
        "ho",
        "an"
      ],
      [
        "V",
        "ề"
      ],
      [
        "b",
        "é"
      ],
      [
        "Th",
        "ì"
      ],
      [
        "ni",
        "ềm"
      ],
      [
        "g",
        "ặt"
      ],
      [
        "h",
        "ãi"
      ],
      [
        "t",
        "iệc"
      ],
      [
        "tr",
        "ang"
      ],
      [
        "bi",
        "ến"
      ],
      [
        "ni",
        "ên"
      ],
      [
        "bu",
        "ồn"
      ],
      [
        "H",
        "o"
      ],
      [
        "m",
        "ắc"
      ],
      [
        "t",
        "ơ"
      ],
      [
        "đ",
        "ợi"
      ],
      [
        "ch",
        "ặt"
      ],
      [
        "th",
        "ủ"
      ],
      [
        "tr",
        "ần"
      ],
      [
        "Q",
        "ua"
      ],
      [
        "c",
        "ải"
      ],
      [
        "h",
        "óa"
      ],
      [
        "l",
        "át"
      ],
      [
        "n",
        "ửa"
      ],
      [
        "v",
        "ải"
      ],
      [
        "Th",
        "iên"
      ],
      [
        "R",
        "u"
      ],
      [
        "th",
        "ử"
      ],
      [
        "th",
        "iện"
      ],
      [
        "th",
        "am"
      ],
      [
        "đó",
        "n"
      ],
      [
        "B",
        "i"
      ],
      [
        "b",
        "ì"
      ],
      [
        "b",
        "èn"
      ],
      [
        "c",
        "âu"
      ],
      [
        "g",
        "ồm"
      ],
      [
        "l",
        "ương"
      ],
      [
        "m",
        "an"
      ],
      [
        "m",
        "ọc"
      ],
      [
        "th",
        "ận"
      ],
      [
        "b",
        "uộc"
      ],
      [
        "h",
        "áp"
      ],
      [
        "l",
        "ìa"
      ],
      [
        "s",
        "an"
      ],
      [
        "t",
        "ăm"
      ],
      [
        "qu",
        "ên"
      ],
      [
        "d",
        "ặn"
      ],
      [
        "h",
        "iệu"
      ],
      [
        "l",
        "ũ"
      ],
      [
        "t",
        "ăng"
      ],
      [
        "th",
        "ư"
      ],
      [
        "ho",
        "ạn"
      ],
      [
        "N",
        "ơi"
      ],
      [
        "m",
        "ốt"
      ],
      [
        "t",
        "uân"
      ],
      [
        "ấ",
        "c"
      ],
      [
        "ỡ",
        "ng"
      ],
      [
        "kh",
        "ải"
      ],
      [
        "xi",
        "a"
      ],
      [
        "r",
        "ít"
      ],
      [
        "s",
        "uy"
      ],
      [
        "v",
        "ẻ"
      ],
      [
        "ph",
        "ong"
      ],
      [
        "c",
        "ụ"
      ],
      [
        "d",
        "ành"
      ],
      [
        "s",
        "ôn"
      ],
      [
        "t",
        "ới"
      ],
      [
        "ch",
        "ất"
      ],
      [
        "r",
        "út"
      ],
      [
        "x",
        "ưa"
      ],
      [
        "ề",
        "ng"
      ],
      [
        "gi",
        "ấu"
      ],
      [
        "t",
        "ẩy"
      ],
      [
        "v",
        "ực"
      ],
      [
        "tr",
        "a"
      ],
      [
        "là",
        "ng"
      ],
      [
        "h",
        "ư"
      ],
      [
        "l",
        "ặng"
      ],
      [
        "t",
        "ụ"
      ],
      [
        "t",
        "àu"
      ],
      [
        "x",
        "ưng"
      ],
      [
        "nhi",
        "êu"
      ],
      [
        "qu",
        "ần"
      ],
      [
        "h",
        "ôn"
      ],
      [
        "m",
        "àn"
      ],
      [
        "s",
        "ủng"
      ],
      [
        "t",
        "ỉnh"
      ],
      [
        "ng",
        "ọc"
      ],
      [
        "ch",
        "ín"
      ],
      [
        "nghiệ",
        "m"
      ],
      [
        "h",
        "òa"
      ],
      [
        "Ư",
        "ớc"
      ],
      [
        "ng",
        "ôn"
      ],
      [
        "gi",
        "eo"
      ],
      [
        "khi",
        "êng"
      ],
      [
        "k",
        "ém"
      ],
      [
        "n",
        "ài"
      ],
      [
        "r",
        "ốt"
      ],
      [
        "t",
        "ảng"
      ],
      [
        "t",
        "ụng"
      ],
      [
        "đ",
        "ề"
      ],
      [
        "đ",
        "ỏ"
      ],
      [
        "H",
        "ết"
      ],
      [
        "m",
        "ấy"
      ],
      [
        "su",
        "ối"
      ],
      [
        "gì",
        "n"
      ],
      [
        "r",
        "ơi"
      ],
      [
        "y",
        "ếu"
      ],
      [
        "ch",
        "ú"
      ],
      [
        "ch",
        "ấp"
      ],
      [
        "tr",
        "ồng"
      ],
      [
        "tr",
        "iệu"
      ],
      [
        "khi",
        "ếp"
      ],
      [
        "C",
        "ả"
      ],
      [
        "H",
        "ô"
      ],
      [
        "c",
        "ột"
      ],
      [
        "l",
        "am"
      ],
      [
        "s",
        "àng"
      ],
      [
        "ch",
        "ảy"
      ],
      [
        "tr",
        "ì"
      ],
      [
        "ph",
        "ó"
      ],
      [
        "lu",
        "ận"
      ],
      [
        "C",
        "ập"
      ],
      [
        "n",
        "an"
      ],
      [
        "t",
        "ính"
      ],
      [
        "Ng",
        "h"
      ],
      [
        "N",
        "àng"
      ],
      [
        "c",
        "ốt"
      ],
      [
        "g",
        "ậy"
      ],
      [
        "m",
        "ong"
      ],
      [
        "t",
        "ướng"
      ],
      [
        "ch",
        "én"
      ],
      [
        "thơ",
        "m"
      ],
      [
        "l",
        "ôm"
      ],
      [
        "t",
        "ác"
      ],
      [
        "ó",
        "m"
      ],
      [
        "ẫ",
        "m"
      ],
      [
        "th",
        "ừa"
      ],
      [
        "ki",
        "ều"
      ],
      [
        "ch",
        "uyên"
      ],
      [
        "x",
        "ơ"
      ],
      [
        "x",
        "anh"
      ],
      [
        "ng",
        "uyền"
      ],
      [
        "th",
        "ai"
      ],
      [
        "tr",
        "ánh"
      ],
      [
        "đi",
        "ểm"
      ],
      [
        "Nh",
        "ờ"
      ],
      [
        "m",
        "át"
      ],
      [
        "Tr",
        "ại"
      ],
      [
        "m",
        "ón"
      ],
      [
        "s",
        "ửa"
      ],
      [
        "x",
        "é"
      ],
      [
        "Ch",
        "ỉ"
      ],
      [
        "ra",
        "o"
      ],
      [
        "bi",
        "a"
      ],
      [
        "ru",
        "n"
      ],
      [
        "00",
        "0"
      ],
      [
        "n",
        "ắm"
      ],
      [
        "à",
        "m"
      ],
      [
        "b",
        "uổi"
      ],
      [
        "m",
        "ỡ"
      ],
      [
        "th",
        "ẹn"
      ],
      [
        "T",
        "ạm"
      ],
      [
        "b",
        "ội"
      ],
      [
        "b",
        "ạo"
      ],
      [
        "c",
        "ành"
      ],
      [
        "d",
        "ứt"
      ],
      [
        "h",
        "ộ"
      ],
      [
        "m",
        "ật"
      ],
      [
        "n",
        "ền"
      ],
      [
        "t",
        "à"
      ],
      [
        "đ",
        "ộc"
      ],
      [
        "ự",
        "ng"
      ],
      [
        "ch",
        "ờ"
      ],
      [
        "Ch",
        "ớ"
      ],
      [
        "mi",
        "ếng"
      ],
      [
        "S",
        "ô"
      ],
      [
        "b",
        "áp"
      ],
      [
        "l",
        "ăm"
      ],
      [
        "x",
        "ung"
      ],
      [
        "sa",
        "y"
      ],
      [
        "qu",
        "ỳ"
      ],
      [
        "nu",
        "ôi"
      ],
      [
        "c",
        "ử"
      ],
      [
        "m",
        "ến"
      ],
      [
        "n",
        "ai"
      ],
      [
        "v",
        "ang"
      ],
      [
        "hạ",
        "t"
      ],
      [
        "Ngh",
        "e"
      ],
      [
        "c",
        "ân"
      ],
      [
        "l",
        "ính"
      ],
      [
        "m",
        "ộ"
      ],
      [
        "m",
        "ôi"
      ],
      [
        "n",
        "ết"
      ],
      [
        "s",
        "ừng"
      ],
      [
        "t",
        "ùng"
      ],
      [
        "v",
        "ấp"
      ],
      [
        "nh",
        "ạo"
      ],
      [
        "tr",
        "ường"
      ],
      [
        "ph",
        "ận"
      ],
      [
        "Tr",
        "ên"
      ],
      [
        "ki",
        "m"
      ],
      [
        "lũ",
        "y"
      ],
      [
        "B",
        "ởi"
      ],
      [
        "b",
        "ột"
      ],
      [
        "k",
        "ìa"
      ],
      [
        "n",
        "ăn"
      ],
      [
        "v",
        "ượt"
      ],
      [
        "kh",
        "át"
      ],
      [
        "Ki",
        "ến"
      ],
      [
        "L",
        "òng"
      ],
      [
        "b",
        "ay"
      ],
      [
        "b",
        "ọc"
      ],
      [
        "l",
        "ang"
      ],
      [
        "t",
        "ố"
      ],
      [
        "ễ",
        "n"
      ],
      [
        "ch",
        "ào"
      ],
      [
        "th",
        "ê"
      ],
      [
        "C",
        "anh"
      ],
      [
        "D",
        "anh"
      ],
      [
        "t",
        "ích"
      ],
      [
        "t",
        "ồn"
      ],
      [
        "ch",
        "ứ"
      ],
      [
        "th",
        "ẩm"
      ],
      [
        "kh",
        "ả"
      ],
      [
        "phụ",
        "ng"
      ],
      [
        "Q",
        "u"
      ],
      [
        "c",
        "an"
      ],
      [
        "c",
        "ẩn"
      ],
      [
        "đ",
        "ọc"
      ],
      [
        "đã",
        "i"
      ],
      [
        "qu",
        "ê"
      ],
      [
        "H",
        "ôm"
      ],
      [
        "b",
        "ấy"
      ],
      [
        "s",
        "óc"
      ],
      [
        "đ",
        "eo"
      ],
      [
        "ch",
        "ay"
      ],
      [
        "ch",
        "ối"
      ],
      [
        "ra",
        "nh"
      ],
      [
        "vĩ",
        "nh"
      ],
      [
        "N",
        "ên"
      ],
      [
        "b",
        "ổ"
      ],
      [
        "h",
        "ồi"
      ],
      [
        "l",
        "ộ"
      ],
      [
        "l",
        "ầm"
      ],
      [
        "l",
        "ắm"
      ],
      [
        "m",
        "inh"
      ],
      [
        "m",
        "ầu"
      ],
      [
        "r",
        "ết"
      ],
      [
        "s",
        "ắt"
      ],
      [
        "đ",
        "ựng"
      ],
      [
        "ũ",
        "i"
      ],
      [
        "ẹ",
        "t"
      ],
      [
        "th",
        "ỏa"
      ],
      [
        "bi",
        "m"
      ],
      [
        "bả",
        "n"
      ],
      [
        "tổ",
        "ng"
      ],
      [
        "c",
        "õi"
      ],
      [
        "đ",
        "òi"
      ],
      [
        "gi",
        "ấc"
      ],
      [
        "Gi",
        "óp"
      ],
      [
        "Ph",
        "ước"
      ],
      [
        "C",
        "ô"
      ],
      [
        "d",
        "ư"
      ],
      [
        "g",
        "óc"
      ],
      [
        "k",
        "ê"
      ],
      [
        "r",
        "ắn"
      ],
      [
        "đ",
        "âm"
      ],
      [
        "ộ",
        "m"
      ],
      [
        "ng",
        "ạc"
      ],
      [
        "ng",
        "uyên"
      ],
      [
        "Th",
        "ần"
      ],
      [
        ",",
        "”"
      ],
      [
        "H",
        "ai"
      ],
      [
        "b",
        "ài"
      ],
      [
        "b",
        "ẫy"
      ],
      [
        "c",
        "á"
      ],
      [
        "g",
        "a"
      ],
      [
        "g",
        "ởi"
      ],
      [
        "k",
        "èn"
      ],
      [
        "t",
        "ê"
      ],
      [
        "v",
        "ả"
      ],
      [
        "đ",
        "ôi"
      ],
      [
        "ch",
        "à"
      ],
      [
        "R",
        "ương"
      ],
      [
        "l",
        "ượng"
      ],
      [
        "n",
        "e"
      ],
      [
        "Í",
        "ch"
      ],
      [
        "đ",
        "ỉnh"
      ],
      [
        "ự",
        "a"
      ],
      [
        "kh",
        "uyên"
      ],
      [
        "t",
        "uy"
      ],
      [
        "t",
        "óc"
      ],
      [
        "nh",
        "u"
      ],
      [
        "th",
        "ở"
      ],
      [
        "tr",
        "inh"
      ],
      [
        "kh",
        "ắc"
      ],
      [
        "M",
        "ắt"
      ],
      [
        "k",
        "ín"
      ],
      [
        "Ô",
        "i"
      ],
      [
        "đ",
        "ồn"
      ],
      [
        "đ",
        "ụng"
      ],
      [
        "ư",
        "ỡi"
      ],
      [
        "b",
        "ết"
      ],
      [
        "c",
        "ứng"
      ],
      [
        "d",
        "ị"
      ],
      [
        "g",
        "óa"
      ],
      [
        "h",
        "ùng"
      ],
      [
        "l",
        "ều"
      ],
      [
        "r",
        "eo"
      ],
      [
        "r",
        "ửa"
      ],
      [
        "t",
        "em"
      ],
      [
        "ng",
        "ũ"
      ],
      [
        "ch",
        "ứa"
      ],
      [
        "tr",
        "ắng"
      ],
      [
        "qu",
        "ở"
      ],
      [
        "li",
        "a"
      ],
      [
        "Kh",
        "ốn"
      ],
      [
        "mu",
        "ôn"
      ],
      [
        "kho",
        "ảng"
      ],
      [
        "Ti",
        "ếng"
      ],
      [
        "r",
        "ối"
      ],
      [
        "Đ",
        "iều"
      ],
      [
        "đ",
        "át"
      ],
      [
        "ta",
        "ng"
      ],
      [
        "Th",
        "ành"
      ],
      [
        "li",
        "ên"
      ],
      [
        "d",
        "ẫy"
      ],
      [
        "g",
        "anh"
      ],
      [
        "k",
        "ý"
      ],
      [
        "m",
        "ì"
      ],
      [
        "Đ",
        "i"
      ],
      [
        "Đ",
        "ã"
      ],
      [
        "Th",
        "ờ"
      ],
      [
        "đo",
        "ạt"
      ],
      [
        "b",
        "ầu"
      ],
      [
        "d",
        "ọc"
      ],
      [
        "o",
        "ài"
      ],
      [
        "s",
        "ấp"
      ],
      [
        "v",
        "ội"
      ],
      [
        "ã",
        "o"
      ],
      [
        "Đ",
        "ất"
      ],
      [
        "kh",
        "ách"
      ],
      [
        "bả",
        "ng"
      ],
      [
        "b",
        "á"
      ],
      [
        "b",
        "ụng"
      ],
      [
        "d",
        "ục"
      ],
      [
        "m",
        "ộng"
      ],
      [
        "chi",
        "ếu"
      ],
      [
        "li",
        "u"
      ],
      [
        "ri",
        "a"
      ],
      [
        "g",
        "ác"
      ],
      [
        "s",
        "ỉ"
      ],
      [
        "đ",
        "ảm"
      ],
      [
        "ng",
        "ục"
      ],
      [
        "ng",
        "ạo"
      ],
      [
        "nh",
        "ã"
      ],
      [
        "nh",
        "ằm"
      ],
      [
        "nh",
        "óm"
      ],
      [
        "ph",
        "óng"
      ],
      [
        "họ",
        "c"
      ],
      [
        "ho",
        "ại"
      ],
      [
        "C",
        "ầu"
      ],
      [
        "H",
        "ếp"
      ],
      [
        "S",
        "y"
      ],
      [
        "m",
        "ẽ"
      ],
      [
        "t",
        "án"
      ],
      [
        "Đ",
        "an"
      ],
      [
        "đi",
        "nh"
      ],
      [
        "M",
        "ích"
      ],
      [
        "V",
        "ượt"
      ],
      [
        "c",
        "ũ"
      ],
      [
        "h",
        "ân"
      ],
      [
        "k",
        "ỵ"
      ],
      [
        "đ",
        "úc"
      ],
      [
        "ả",
        "nh"
      ],
      [
        "th",
        "uyền"
      ],
      [
        "th",
        "ưởng"
      ],
      [
        "tr",
        "ộm"
      ],
      [
        "b",
        "ẻ"
      ],
      [
        "h",
        "ạn"
      ],
      [
        "l",
        "ai"
      ],
      [
        "s",
        "ớm"
      ],
      [
        "v",
        "ũ"
      ],
      [
        "x",
        "uyên"
      ],
      [
        "Ê",
        "n"
      ],
      [
        "đ",
        "ôn"
      ],
      [
        "nh",
        "ắc"
      ],
      [
        "chi",
        "êm"
      ],
      [
        "lu",
        "i"
      ],
      [
        "L",
        "i"
      ],
      [
        "R",
        "ô"
      ],
      [
        "t",
        "ít"
      ],
      [
        "ch",
        "ăm"
      ],
      [
        "Gi",
        "ao"
      ],
      [
        "d",
        "ạ"
      ],
      [
        "x",
        "ương"
      ],
      [
        "x",
        "úc"
      ],
      [
        "đ",
        "òn"
      ],
      [
        "ch",
        "út"
      ],
      [
        "kh",
        "u"
      ],
      [
        "kh",
        "ích"
      ],
      [
        "ph",
        "ù"
      ],
      [
        "gi",
        "ường"
      ],
      [
        "ki",
        "êng"
      ],
      [
        "ki",
        "ểm"
      ],
      [
        "A",
        "n"
      ],
      [
        "N",
        "ầy"
      ],
      [
        "b",
        "ào"
      ],
      [
        "g",
        "ánh"
      ],
      [
        "l",
        "ột"
      ],
      [
        "n",
        "o"
      ],
      [
        "đ",
        "à"
      ],
      [
        "gi",
        "à"
      ],
      [
        "gi",
        "ám"
      ],
      [
        "hu",
        "ấn"
      ],
      [
        "c",
        "ăng"
      ],
      [
        "d",
        "ọn"
      ],
      [
        "l",
        "ông"
      ],
      [
        "l",
        "óc"
      ],
      [
        "l",
        "iệu"
      ],
      [
        "m",
        "ũi"
      ],
      [
        "Ch",
        "ẳng"
      ],
      [
        "sợ",
        "i"
      ],
      [
        "ngu",
        "ồn"
      ],
      [
        "c",
        "ạn"
      ],
      [
        "s",
        "ả"
      ],
      [
        "v",
        "ốn"
      ],
      [
        "x",
        "ứng"
      ],
      [
        "đ",
        "an"
      ],
      [
        "đ",
        "ắng"
      ],
      [
        "ụ",
        "p"
      ],
      [
        "ng",
        "ăn"
      ],
      [
        "G",
        "ô"
      ],
      [
        "X",
        "ô"
      ],
      [
        "c",
        "úi"
      ],
      [
        "d",
        "i"
      ],
      [
        "h",
        "á"
      ],
      [
        "l",
        "áng"
      ],
      [
        "n",
        "ấy"
      ],
      [
        "đ",
        "ặc"
      ],
      [
        "đ",
        "ớn"
      ],
      [
        "nh",
        "ẫn"
      ],
      [
        "ch",
        "í"
      ],
      [
        "ch",
        "em"
      ],
      [
        "ph",
        "ái"
      ],
      [
        "ri",
        "m"
      ],
      [
        ",",
        "’"
      ],
      [
        "H",
        "u"
      ],
      [
        "H",
        "y"
      ],
      [
        "b",
        "ậ"
      ],
      [
        "g",
        "ốc"
      ],
      [
        "h",
        "ã"
      ],
      [
        "l",
        "ưới"
      ],
      [
        "m",
        "óc"
      ],
      [
        "r",
        "ẽ"
      ],
      [
        "kh",
        "ai"
      ],
      [
        "và",
        "i"
      ],
      [
        "ph",
        "àm"
      ],
      [
        "gi",
        "ếng"
      ],
      [
        "nó",
        "ng"
      ],
      [
        "iệ",
        "p"
      ],
      [
        "Th",
        "ấy"
      ],
      [
        "hi",
        "ển"
      ],
      [
        "bậ",
        "c"
      ],
      [
        "M",
        "à"
      ],
      [
        "X",
        "i"
      ],
      [
        "b",
        "ề"
      ],
      [
        "k",
        "ích"
      ],
      [
        "đ",
        "ộ"
      ],
      [
        "ch",
        "ấm"
      ],
      [
        "Sa",
        "m"
      ],
      [
        "N",
        "ô"
      ],
      [
        "m",
        "ồ"
      ],
      [
        "m",
        "ách"
      ],
      [
        "s",
        "ở"
      ],
      [
        "x",
        "ông"
      ],
      [
        "ị",
        "n"
      ],
      [
        "th",
        "ắt"
      ],
      [
        "ph",
        "áp"
      ],
      [
        "gia",
        "m"
      ],
      [
        "V",
        "ới"
      ],
      [
        "b",
        "ể"
      ],
      [
        "c",
        "ười"
      ],
      [
        "h",
        "ái"
      ],
      [
        "h",
        "ối"
      ],
      [
        "l",
        "iệt"
      ],
      [
        "n",
        "ề"
      ],
      [
        "n",
        "ôn"
      ],
      [
        "n",
        "âng"
      ],
      [
        "s",
        "anh"
      ],
      [
        "t",
        "ươi"
      ],
      [
        "t",
        "ặng"
      ],
      [
        "Đ",
        "ạo"
      ],
      [
        "ch",
        "ừng"
      ],
      [
        "C",
        "ùng"
      ],
      [
        "V",
        "ừa"
      ],
      [
        "b",
        "ỉ"
      ],
      [
        "l",
        "uyện"
      ],
      [
        "o",
        "ạn"
      ],
      [
        "s",
        "ữa"
      ],
      [
        "ù",
        "m"
      ],
      [
        "th",
        "ả"
      ],
      [
        "kh",
        "ăn"
      ],
      [
        "gi",
        "ương"
      ],
      [
        "tuy",
        "ệt"
      ],
      [
        "H",
        "ay"
      ],
      [
        "c",
        "úng"
      ],
      [
        "h",
        "ài"
      ],
      [
        "m",
        "ỏi"
      ],
      [
        "m",
        "ục"
      ],
      [
        "r",
        "ẩy"
      ],
      [
        "s",
        "ua"
      ],
      [
        "v",
        "ai"
      ],
      [
        "x",
        "ống"
      ],
      [
        "Á",
        "ch"
      ],
      [
        "đ",
        "ào"
      ],
      [
        "ch",
        "ở"
      ],
      [
        "gi",
        "ềng"
      ],
      [
        "thu",
        "ận"
      ],
      [
        "cu",
        "ốn"
      ],
      [
        "M",
        "ạc"
      ],
      [
        "N",
        "ăm"
      ],
      [
        "b",
        "ớ"
      ],
      [
        "h",
        "ò"
      ],
      [
        "l",
        "ác"
      ],
      [
        "n",
        "ợ"
      ],
      [
        "s",
        "ít"
      ],
      [
        "t",
        "ương"
      ],
      [
        "đ",
        "ịch"
      ],
      [
        "ng",
        "ập"
      ],
      [
        "T",
        "y"
      ],
      [
        "h",
        "ang"
      ],
      [
        "s",
        "ờ"
      ],
      [
        "t",
        "òa"
      ],
      [
        "đ",
        "ống"
      ],
      [
        "ằ",
        "n"
      ],
      [
        "nh",
        "ảy"
      ],
      [
        "ph",
        "ung"
      ],
      [
        "phi",
        "ền"
      ],
      [
        "H",
        "ơn"
      ],
      [
        "M",
        "ặt"
      ],
      [
        "h",
        "ào"
      ],
      [
        "v",
        "ỡ"
      ],
      [
        "v",
        "ạn"
      ],
      [
        "đ",
        "en"
      ],
      [
        "nh",
        "ọc"
      ],
      [
        "tr",
        "ăng"
      ],
      [
        "ph",
        "ê"
      ],
      [
        "Ta",
        "y"
      ],
      [
        "cư",
        "ỡi"
      ],
      [
        "Ho",
        "ặc"
      ],
      [
        "g",
        "ả"
      ],
      [
        "m",
        "ồi"
      ],
      [
        "r",
        "ách"
      ],
      [
        "s",
        "ụp"
      ],
      [
        "Á",
        "t"
      ],
      [
        "ch",
        "ạm"
      ],
      [
        "th",
        "áp"
      ],
      [
        "th",
        "ấp"
      ],
      [
        "tr",
        "eo"
      ],
      [
        "B",
        "ất"
      ],
      [
        "g",
        "ắn"
      ],
      [
        "g",
        "ớm"
      ],
      [
        "t",
        "ô"
      ],
      [
        "v",
        "ác"
      ],
      [
        "ng",
        "ực"
      ],
      [
        "tr",
        "úng"
      ],
      [
        "ph",
        "u"
      ],
      [
        "đi",
        "ệ"
      ],
      [
        "bi",
        "ên"
      ],
      [
        "G",
        "ít"
      ],
      [
        "c",
        "ối"
      ],
      [
        "h",
        "em"
      ],
      [
        "h",
        "iệp"
      ],
      [
        "l",
        "ò"
      ],
      [
        "l",
        "ỗ"
      ],
      [
        "ù",
        "a"
      ],
      [
        "Ng",
        "oài"
      ],
      [
        "Ch",
        "i"
      ],
      [
        "ti",
        "ết"
      ],
      [
        "qu",
        "ăng"
      ],
      [
        "Nh",
        "à"
      ],
      [
        "C",
        "ây"
      ],
      [
        "E",
        "m"
      ],
      [
        "b",
        "áu"
      ],
      [
        "b",
        "ắn"
      ],
      [
        "c",
        "ủi"
      ],
      [
        "l",
        "an"
      ],
      [
        "m",
        "òn"
      ],
      [
        "s",
        "ăn"
      ],
      [
        "v",
        "ượng"
      ],
      [
        "đ",
        "ế"
      ],
      [
        "ổ",
        "ng"
      ],
      [
        "ng",
        "ón"
      ],
      [
        "th",
        "ất"
      ],
      [
        "tr",
        "ống"
      ],
      [
        "ngư",
        "ớc"
      ],
      [
        "Ph",
        "ần"
      ],
      [
        "cu",
        "ộn"
      ],
      [
        "b",
        "ăng"
      ],
      [
        "d",
        "ừng"
      ],
      [
        "d",
        "âu"
      ],
      [
        "h",
        "ố"
      ],
      [
        "k",
        "ỷ"
      ],
      [
        "s",
        "ổ"
      ],
      [
        "v",
        "an"
      ],
      [
        "ù",
        "i"
      ],
      [
        "Đ",
        "ược"
      ],
      [
        "Đ",
        "ang"
      ],
      [
        "ỗ",
        "ng"
      ],
      [
        "ng",
        "uy"
      ],
      [
        "nh",
        "ủ"
      ],
      [
        "lo",
        "an"
      ],
      [
        "ma",
        "u"
      ],
      [
        "1",
        "2"
      ],
      [
        "C",
        "ao"
      ],
      [
        "L",
        "ẽ"
      ],
      [
        "c",
        "ăn"
      ],
      [
        "h",
        "ồ"
      ],
      [
        "h",
        "ơi"
      ],
      [
        "n",
        "ở"
      ],
      [
        "r",
        "át"
      ],
      [
        "v",
        "ã"
      ],
      [
        "ng",
        "ơi"
      ],
      [
        "nh",
        "ạc"
      ],
      [
        "tr",
        "ấn"
      ],
      [
        "Nh",
        "iều"
      ],
      [
        "khi",
        "ết"
      ],
      [
        "mù",
        "i"
      ],
      [
        "ghi",
        "ếc"
      ],
      [
        "B",
        "an"
      ],
      [
        "H",
        "át"
      ],
      [
        "b",
        "ôn"
      ],
      [
        "l",
        "á"
      ],
      [
        "m",
        "óng"
      ],
      [
        "r",
        "òng"
      ],
      [
        "ch",
        "ó"
      ],
      [
        "kh",
        "ởi"
      ],
      [
        "ượ",
        "m"
      ],
      [
        "kẻ",
        "o"
      ],
      [
        "thu",
        "ế"
      ],
      [
        "gh",
        "en"
      ],
      [
        "V",
        "iệc"
      ],
      [
        "b",
        "í"
      ],
      [
        "b",
        "ền"
      ],
      [
        "b",
        "áng"
      ],
      [
        "c",
        "ắm"
      ],
      [
        "g",
        "ấp"
      ],
      [
        "h",
        "ải"
      ],
      [
        "h",
        "ạc"
      ],
      [
        "n",
        "ội"
      ],
      [
        "x",
        "u"
      ],
      [
        "Đ",
        "ê"
      ],
      [
        "Ấ",
        "y"
      ],
      [
        "ố",
        "m"
      ],
      [
        "ử",
        "i"
      ],
      [
        "ch",
        "ầu"
      ],
      [
        "th",
        "ập"
      ],
      [
        "qu",
        "i"
      ],
      [
        "lu",
        "ân"
      ],
      [
        "hạ",
        "nh"
      ],
      [
        "D",
        "òng"
      ],
      [
        "N",
        "ép"
      ],
      [
        "c",
        "ào"
      ],
      [
        "c",
        "ốc"
      ],
      [
        "l",
        "ân"
      ],
      [
        "s",
        "áp"
      ],
      [
        "t",
        "ắt"
      ],
      [
        "x",
        "o"
      ],
      [
        "ợ",
        "c"
      ],
      [
        "tr",
        "á"
      ],
      [
        "ti",
        "m"
      ],
      [
        "Bi",
        "ển"
      ],
      [
        "L",
        "ưỡi"
      ],
      [
        "T",
        "ội"
      ],
      [
        "b",
        "ồ"
      ],
      [
        "d",
        "ội"
      ],
      [
        "d",
        "ắt"
      ],
      [
        "d",
        "iệu"
      ],
      [
        "l",
        "ép"
      ],
      [
        "đ",
        "ương"
      ],
      [
        "đ",
        "ơn"
      ],
      [
        "đ",
        "ích"
      ],
      [
        "nh",
        "ổ"
      ],
      [
        "ch",
        "ọc"
      ],
      [
        "th",
        "ảm"
      ],
      [
        "kh",
        "ước"
      ],
      [
        "Ch",
        "iên"
      ],
      [
        "H",
        "ằng"
      ],
      [
        "L",
        "ễ"
      ],
      [
        "M",
        "u"
      ],
      [
        "S",
        "áng"
      ],
      [
        "T",
        "ức"
      ],
      [
        "b",
        "óc"
      ],
      [
        "c",
        "ường"
      ],
      [
        "c",
        "ãi"
      ],
      [
        "r",
        "ảy"
      ],
      [
        "t",
        "ản"
      ],
      [
        "v",
        "ách"
      ],
      [
        "ẳ",
        "n"
      ],
      [
        "nh",
        "anh"
      ],
      [
        "nh",
        "ập"
      ],
      [
        "tr",
        "o"
      ],
      [
        "Ch",
        "í"
      ],
      [
        "qu",
        "án"
      ],
      [
        "Th",
        "i"
      ],
      [
        "ngh",
        "ị"
      ],
      [
        "Su",
        "ốt"
      ],
      [
        "b",
        "e"
      ],
      [
        "c",
        "ay"
      ],
      [
        "h",
        "éo"
      ],
      [
        "l",
        "ụ"
      ],
      [
        "m",
        "ịn"
      ],
      [
        "t",
        "ắm"
      ],
      [
        "đ",
        "ếm"
      ],
      [
        "ng",
        "ữ"
      ],
      [
        "ch",
        "ên"
      ],
      [
        "th",
        "ụ"
      ],
      [
        "th",
        "áo"
      ],
      [
        "gi",
        "áp"
      ],
      [
        "khi",
        "ên"
      ],
      [
        "ho",
        "ảng"
      ],
      [
        "b",
        "anh"
      ],
      [
        "l",
        "âm"
      ],
      [
        "n",
        "ọ"
      ],
      [
        "v",
        "ong"
      ],
      [
        "Ạ",
        "t"
      ],
      [
        "th",
        "ủy"
      ],
      [
        "ph",
        "ừng"
      ],
      [
        "ph",
        "ót"
      ],
      [
        "ra",
        "n"
      ],
      [
        "đi",
        "êu"
      ],
      [
        "Gi",
        "ờ"
      ],
      [
        "Th",
        "eo"
      ],
      [
        "hi",
        "ếp"
      ],
      [
        "B",
        "ị"
      ],
      [
        "C",
        "ông"
      ],
      [
        "K",
        "ính"
      ],
      [
        "b",
        "iện"
      ],
      [
        "h",
        "ẳn"
      ],
      [
        "l",
        "ánh"
      ],
      [
        "n",
        "on"
      ],
      [
        "s",
        "ết"
      ],
      [
        "t",
        "ạm"
      ],
      [
        "đ",
        "ấy"
      ],
      [
        "ễ",
        "u"
      ],
      [
        "ng",
        "ọt"
      ],
      [
        "th",
        "ét"
      ],
      [
        "th",
        "ấu"
      ],
      [
        "kh",
        "éo"
      ],
      [
        "ngư",
        "ợc"
      ],
      [
        "Ch",
        "ủ"
      ],
      [
        "đi",
        "a"
      ],
      [
        "đi",
        "ếm"
      ],
      [
        "mà",
        "ng"
      ],
      [
        "mã",
        "o"
      ],
      [
        "đo",
        "ái"
      ],
      [
        "xi",
        "ềng"
      ],
      [
        "nghi",
        "êm"
      ],
      [
        "to",
        "án"
      ],
      [
        "Ho",
        "àng"
      ],
      [
        "T",
        "ên"
      ],
      [
        "T",
        "âu"
      ],
      [
        "c",
        "ấm"
      ],
      [
        "d",
        "ồi"
      ],
      [
        "g",
        "ục"
      ],
      [
        "h",
        "uyền"
      ],
      [
        "l",
        "ịnh"
      ],
      [
        "m",
        "ệt"
      ],
      [
        "r",
        "ễ"
      ],
      [
        "r",
        "ỡ"
      ],
      [
        "r",
        "ực"
      ],
      [
        "s",
        "ẻ"
      ],
      [
        "đ",
        "ao"
      ],
      [
        "tr",
        "ói"
      ],
      [
        "kh",
        "ám"
      ],
      [
        "ngư",
        "ỡng"
      ],
      [
        "Ch",
        "ắc"
      ],
      [
        "mạ",
        "ch"
      ],
      [
        "mi",
        "ếu"
      ],
      [
        "b",
        "ói"
      ],
      [
        "d",
        "ò"
      ],
      [
        "d",
        "ương"
      ],
      [
        "l",
        "íp"
      ],
      [
        "t",
        "ật"
      ],
      [
        "v",
        "ắng"
      ],
      [
        "x",
        "ích"
      ],
      [
        "đ",
        "ốn"
      ],
      [
        "ĩ",
        "a"
      ],
      [
        "ớ",
        "p"
      ],
      [
        "Ph",
        "ủ"
      ],
      [
        "kho",
        "e"
      ],
      [
        "đu",
        "ối"
      ],
      [
        ")",
        "."
      ],
      [
        "5",
        "0"
      ],
      [
        "T",
        "iên"
      ],
      [
        "b",
        "ác"
      ],
      [
        "c",
        "ạo"
      ],
      [
        "Đ",
        "ối"
      ],
      [
        "ị",
        "t"
      ],
      [
        "th",
        "ác"
      ],
      [
        "th",
        "ầm"
      ],
      [
        "tr",
        "ực"
      ],
      [
        "Th",
        "a"
      ],
      [
        "ho",
        "ạch"
      ],
      [
        "dư",
        "ỡng"
      ],
      [
        "B",
        "ô"
      ],
      [
        "T",
        "ô"
      ],
      [
        "h",
        "èn"
      ],
      [
        "k",
        "g"
      ],
      [
        "n",
        "én"
      ],
      [
        "s",
        "ử"
      ],
      [
        "Đ",
        "oạn"
      ],
      [
        "ị",
        "p"
      ],
      [
        "ng",
        "ừng"
      ],
      [
        "tr",
        "ữ"
      ],
      [
        "cho",
        "àng"
      ],
      [
        "Gi",
        "ữa"
      ],
      [
        "Gh",
        "inh"
      ],
      [
        "H",
        "i"
      ],
      [
        "b",
        "ó"
      ],
      [
        "b",
        "ối"
      ],
      [
        "c",
        "ắn"
      ],
      [
        "g",
        "ối"
      ],
      [
        "h",
        "ảo"
      ],
      [
        "h",
        "ỏa"
      ],
      [
        "l",
        "anh"
      ],
      [
        "l",
        "ọc"
      ],
      [
        "m",
        "ái"
      ],
      [
        "r",
        "ập"
      ],
      [
        "r",
        "ung"
      ],
      [
        "s",
        "ương"
      ],
      [
        "x",
[...]
