{
  "version": "1.0",
  "truncation": null,
  "padding": null,
  "added_tokens": [
    {
      "id": 0,
      "content": "<pad>",
      "single_word": false,
      "lstrip": false,
      "rstrip": false,
      "normalized": false,
      "special": true
    },
    {
      "id": 1,
      "content": "<unk>",
      "single_word": false,
      "lstrip": false,
      "rstrip": false,
      "normalized": false,
      "special": true
    },
    {
      "id": 2,
      "content": "<s>",
      "single_word": false,
      "lstrip": false,
      "rstrip": false,
      "normalized": false,
      "special": true
    },
    {
      "id": 3,
      "content": "</s>",
      "single_word": false,
      "lstrip": false,
      "rstrip": false,
      "normalized": false,
      "special": true
    }
  ],
  "normalizer": null,
  "pre_tokenizer": {
    "type": "Sequence",
    "pretokenizers": [
      {
        "type": "Whitespace"
      },
      {
        "type": "Split",
        "pattern": {
          "Regex": "(?<=[ऀ-ॿ஀-௿฀-๿຀-໿က-႟ក-៿一-鿿꤀-꤯])(?=[A-Za-z0-9])|(?<=[A-Za-z0-9])(?=[ऀ-ॿ஀-௿฀-๿຀-໿က-႟ក-៿一-鿿꤀-꤯])"
        },
        "behavior": "Isolated",
        "invert": false
      }
    ]
  },
  "post_processor": null,
  "decoder": null,
  "model": {
    "type": "BPE",
    "dropout": null,
    "unk_token": "<unk>",
    "continuing_subword_prefix": null,
    "end_of_word_suffix": null,
    "fuse_unk": false,
    "byte_fallback": false,
    "ignore_merges": false,
    "vocab": {
      "<pad>": 0,
      "<unk>": 1,
      "<s>": 2,
      "</s>": 3,
      "!": 4,
      "(": 5,
      ")": 6,
      ",": 7,
      "-": 8,
      ".": 9,
      "/": 10,
      "0": 11,
      "1": 12,
      "2": 13,
      "3": 14,
      "4": 15,
      "5": 16,
      "6": 17,
      "7": 18,
      "8": 19,
      "9": 20,
      ":": 21,
      "?": 22,
      "{": 23,
      "}": 24,
      "ก": 25,
      "ข": 26,
      "ค": 27,
      "ฆ": 28,
      "ง": 29,
      "จ": 30,
      "ฉ": 31,
      "ช": 32,
      "ซ": 33,
      "ฌ": 34,
      "ญ": 35,
      "ฎ": 36,
      "ฏ": 37,
      "ฐ": 38,
      "ฑ": 39,
      "ฒ": 40,
      "ณ": 41,
      "ด": 42,
      "ต": 43,
      "ถ": 44,
      "ท": 45,
      "ธ": 46,
      "น": 47,
      "บ": 48,
      "ป": 49,
      "ผ": 50,
      "ฝ": 51,
      "พ": 52,
      "ฟ": 53,
      "ภ": 54,
      "ม": 55,
      "ย": 56,
      "ร": 57,
      "ฤ": 58,
      "ล": 59,
      "ว": 60,
      "ศ": 61,
      "ษ": 62,
      "ส": 63,
      "ห": 64,
      "ฬ": 65,
      "อ": 66,
      "ฮ": 67,
      "ะ": 68,
      "ั": 69,
      "า": 70,
      "ำ": 71,
      "ิ": 72,
      "ี": 73,
      "ึ": 74,
      "ื": 75,
      "ุ": 76,
      "ู": 77,
      "เ": 78,
      "แ": 79,
      "โ": 80,
      "ใ": 81,
      "ไ": 82,
      "ๆ": 83,
      "็": 84,
      "่": 85,
      "้": 86,
      "๊": 87,
      "๋": 88,
      "์": 89,
      "ํ": 90,
      "–": 91,
      "‘": 92,
      "’": 93,
      "“": 94,
      "”": 95,
      "…": 96,
      "อง": 97,
      "้า": 98,
      "ระ": 99,
      "่า": 100,
      "พระ": 101,
      "ของ": 102,
      "แล": 103,
      "รา": 104,
      "ี่": 105,
      "เจ": 106,
      "เจ้า": 107,
      "ที่": 108,
      "เข": 109,
      "และ": 110,
      "็น": 111,
      "ค์": 112,
      "เป": 113,
      "่ง": 114,
      "องค์": 115,
      "ั้": 116,
      "ู้": 117,
      "ับ": 118,
      "เป็น": 119,
      "เขา": 120,
      "่อ": 121,
      "จะ": 122,
      "ผู้": 123,
      "มา": 124,
      "ด้": 125,
      "าม": 126,
      "ัน": 127,
      "ว่า": 128,
      "ือ": 129,
      "าย": 130,
      "าก": 131,
      "ให": 132,
      "อย": 133,
      "เรา": 134,
      "รง": 135,
      "พระองค์": 136,
      "ไม": 137,
      "วก": 138,
      "ใน": 139,
      "ให้": 140,
      "คน": 141,
      "าร": 142,
      "ัง": 143,
      "ตร": 144,
      "ได้": 145,
      "่าน": 146,
      "ทรง": 147,
      "ข้า": 148,
      "เห": 149,
      "ไม่": 150,
      "ีย": 151,
      "ไป": 152,
      "พวก": 153,
      "ื่อ": 154,
      "ั้ง": 155,
      "ั้น": 156,
      "ห์": 157,
      "หน": 158,
      "่น": 159,
      "เพ": 160,
      "ิน": 161,
      "คร": 162,
      "ท่าน": 163,
      "ิด": 164,
      "ู่": 165,
      "เอ": 166,
      "นั้น": 167,
      "ก็": 168,
      "มี": 169,
      "จาก": 170,
      "เม": 171,
      "ชา": 172,
      "แต": 173,
      "ประ": 174,
      "ี้": 175,
      "คว": 176,
      "กล": 177,
      "าน": 178,
      "กับ": 179,
      "ทำ": 180,
      "้น": 181,
      "ึง": 182,
      "ทั้ง": 183,
      "ึ่ง": 184,
      "แต่": 185,
      "ความ": 186,
      "้ว": 187,
      "เล": 188,
      "อา": 189,
      "ัก": 190,
      "อยู่": 191,
      "สิ": 192,
      "าง": 193,
      "รร": 194,
      "พระผู้": 195,
      "เป็นเจ้า": 196,
      "พระผู้เป็นเจ้า": 197,
      "เส": 198,
      "วย": 199,
      "ิส": 200,
      "อก": 201,
      "้อง": 202,
      "าห์": 203,
      "แล้ว": 204,
      "่าง": 205,
      "นี้": 206,
      "ติ": 207,
      "หล": 208,
      "พวกเขา": 209,
      "ัส": 210,
      "ูก": 211,
      "การ": 212,
      "ัว": 213,
      "ย์": 214,
      "พระเจ้า": 215,
      "อบ": 216,
      "รับ": 217,
      "แก": 218,
      "่ว": 219,
      "ิต": 220,
      "้อ": 221,
      "เช": 222,
      "พเจ้า": 223,
      "เร": 224,
      "เอล": 225,
      "เย": 226,
      "ข้าพเจ้า": 227,
      "ุก": 228,
      "จง": 229,
      "ราะ": 230,
      "องค์พระผู้เป็นเจ้า": 231,
      "เพราะ": 232,
      "ดา": 233,
      "ด้วย": 234,
      "ซึ่ง": 235,
      "บุ": 236,
      "เหล": 237,
      "ว้": 238,
      "บา": 239,
      "เก": 240,
      "ไว้": 241,
      "เด": 242,
      "ตาม": 243,
      "เมื่อ": 244,
      "บั": 245,
      "ื่": 246,
      "จึง": 247,
      "หร": 248,
      "แก่": 249,
      "ขึ": 250,
      "ขึ้น": 251,
      "หรือ": 252,
      "สั": 253,
      "ทุก": 254,
      "เพื่อ": 255,
      "อิส": 256,
      "ัตร": 257,
      "ต่อ": 258,
      "เว": 259,
      "วง": 260,
      "ใจ": 261,
      "มือ": 262,
      "ถึง": 263,
      "บุตร": 264,
      "วัน": 265,
      "ื่อง": 266,
      "โล": 267,
      "แด": 268,
      "หม": 269,
      "ออก": 270,
      "ชน": 271,
      "สิ่ง": 272,
      "ข้าพระองค์": 273,
      "อิสรา": 274,
      "หน้า": 275,
      "อิสราเอล": 276,
      "ริ": 277,
      "โร": 278,
      "แห": 279,
      "ตรัส": 280,
      "กษ": 281,
      "อย่าง": 282,
      "เข้า": 283,
      "ยาห์": 284,
      "เน": 285,
      "ิย์": 286,
      "ใช": 287,
      "ตัว": 288,
      "ธิ": 289,
      "อด": 290,
      "ัตริย์": 291,
      "กษัตริย์": 292,
      "ถูก": 293,
      "ัด": 294,
      "หนึ่ง": 295,
      "ือง": 296,
      "อน": 297,
      "ยัง": 298,
      "แห่ง": 299,
      "้ำ": 300,
      "ลา": 301,
      "้าง": 302,
      "ลง": 303,
      "คือ": 304,
      "เมือง": 305,
      "นำ": 306,
      "ัย": 307,
      "ญญ": 308,
      "หาร": 309,
      "กัน": 310,
      "ขอ": 311,
      "ดิน": 312,
      "่าว": 313,
      "จน": 314,
      "ีก": 315,
      "ูล": 316,
      "สา": 317,
      "กำ": 318,
      "ทาง": 319,
      "เท": 320,
      "ูด": 321,
      "เผ": 322,
      "โม": 323,
      "โด": 324,
      "ทธิ": 325,
      "วิ": 326,
      "หลาย": 327,
      "คำ": 328,
      "ต้อง": 329,
      "ใด": 330,
      "บู": 331,
      "บรร": 332,
      "ทธิ์": 333,
      "เห็น": 334,
      "ชี": 335,
      "รุ": 336,
      "บน": 337,
      "ชาว": 338,
      "ชาย": 339,
      "โย": 340,
      "ดี": 341,
      "ลูก": 342,
      "สำ": 343,
      "ซา": 344,
      "ไร": 345,
      "แดน": 346,
      "ต่าง": 347,
      "วิต": 348,
      "้าน": 349,
      "เคร": 350,
      "กล่าว": 351,
      "ชีวิต": 352,
      "นา": 353,
      "ใช้": 354,
      "ั่ว": 355,
      "ร์": 356,
      "ของเรา": 357,
      "อีก": 358,
      "มือน": 359,
      "กา": 360,
      "กระ": 361,
      "เวห์": 362,
      "ไม่ได้": 363,
      "เหมือน": 364,
      "หา": 365,
      "ทั้งหลาย": 366,
      "ยาห์เวห์": 367,
      "พระยาห์เวห์": 368,
      "ียง": 369,
      "ญญา": 370,
      "เครื่อง": 371,
      "ยา": 372,
      "บูชา": 373,
      "นาง": 374,
      "ื่น": 375,
      "ตั้ง": 376,
      "ืน": 377,
      "ไม่มี": 378,
      "ดัง": 379,
      "่ม": 380,
      "โดย": 381,
      "น้ำ": 382,
      "แม": 383,
      "ุด": 384,
      "ต์": 385,
      "เถ": 386,
      "ั่น": 387,
      "เค": 388,
      "ื้อ": 389,
      "อัน": 390,
      "พร": 391,
      "ของเขา": 392,
      "้ง": 393,
      "กลับ": 394,
      "วาย": 395,
      "รัก": 396,
      "รู้": 397,
      "มัน": 398,
      "อย่า": 399,
      "รู": 400,
      "รรม": 401,
      "เหล่าน": 402,
      "ลัง": 403,
      "ดู": 404,
      "ยิ": 405,
      "เบ": 406,
      "ุม": 407,
      "ถวาย": 408,
      "เต": 409,
      "ัม": 410,
      "ิง": 411,
      "ซู": 412,
      "ชาติ": 413,
      "ปวง": 414,
      "เถิด": 415,
      "เอง": 416,
      "เยซู": 417,
      "ทั้งปวง": 418,
      "ตน": 419,
      "ใคร": 420,
      "สอง": 421,
      "ากร": 422,
      "ราช": 423,
      "ประช": 424,
      "ประท": 425,
      "พระเยซู": 426,
      "ทำให้": 427,
      "สว": 428,
      "หมด": 429,
      "บรรดา": 430,
      "พิ": 431,
      "ตาย": 432,
      "ดาว": 433,
      "ี่ย": 434,
      "ั่ง": 435,
      "ต่างๆ": 436,
      "ชั่ว": 437,
      "ฟัง": 438,
      "ึก": 439,
      "ทูล": 440,
      "ดินแดน": 441,
      "็ม": 442,
      "ปล": 443,
      "เดีย": 444,
      "ิดา": 445,
      "พูด": 446,
      "่วย": 447,
      "แท": 448,
      "เรีย": 449,
      "้อม": 450,
      "ประชากร": 451,
      "ธรรม": 452,
      "ยิน": 453,
      "่อน": 454,
      "ดาวิด": 455,
      "กำลัง": 456,
      "ร้อง": 457,
      "ละ": 458,
      "ปี": 459,
      "ของเจ้า": 460,
      "มาย": 461,
      "้าย": 462,
      "บาป": 463,
      "ิม": 464,
      "ที่น": 465,
      "ร้าง": 466,
      "บัติ": 467,
      "หิต": 468,
      "อม": 469,
      "หญ": 470,
      "ยิ่ง": 471,
      "่วน": 472,
      "สัต": 473,
      "โลก": 474,
      "บร": 475,
      "บอก": 476,
      "บ้าน": 477,
      "หรับ": 478,
      "แผ": 479,
      "ตอบ": 480,
      "บิดา": 481,
      "ูง": 482,
      "็จ": 483,
      "สำหรับ": 484,
      "่าย": 485,
      "ช่วย": 486,
      "เช่น": 487,
      "ส่วน": 488,
      "ราบ": 489,
      "พัน": 490,
      "มน": 491,
      "หาก": 492,
      "เลย": 493,
      "วา": 494,
      "เอา": 495,
      "ปุ": 496,
      "งาน": 497,
      "ิสุ": 498,
      "ยก": 499,
      "โรหิต": 500,
      "ปุโรหิต": 501,
      "ทิ": 502,
      "อร์": 503,
      "มาก": 504,
      "ชอบ": 505,
      "ตา": 506,
      "เชื่อ": 507,
      "น้อง": 508,
      "สิบ": 509,
      "ลาย": 510,
      "พระวิ": 511,
      "เหน": 512,
      "เง": 513,
      "ทั้งหมด": 514,
      "ได้รับ": 515,
      "สร้าง": 516,
      "อับ": 517,
      "อะ": 518,
      "นิ": 519,
      "ดังนั้น": 520,
      "เซ": 521,
      "ส่ง": 522,
      "ปร": 523,
      "?”": 524,
      "พี่": 525,
      "เสส": 526,
      "พบ": 527,
      "ครอง": 528,
      "โมเสส": 529,
      "จัก": 530,
      "สม": 531,
      "คล": 532,
      "สง": 533,
      "ใหญ": 534,
      "เหล่านี้": 535,
      "หญิง": 536,
      "ประทาน": 537,
      "ใหญ่": 538,
      "สาม": 539,
      "สะ": 540,
      "อะไร": 541,
      "ะนั้น": 542,
      "กว่า": 543,
      "ิป": 544,
      "อั": 545,
      "เหล่า": 546,
      "็ด": 547,
      "ต่อหน้า": 548,
      "้อย": 549,
      "ูดาห์": 550,
      "ปฏ": 551,
      "ซาเล": 552,
      "ตก": 553,
      "พระบา": 554,
      "เยรู": 555,
      "ดำ": 556,
      "ซาเล็ม": 557,
      "เยรูซาเล็ม": 558,
      "่ำ": 559,
      "รับใช้": 560,
      "พันธ": 561,
      "ประกา": 562,
      "ประกาศ": 563,
      "เหนือ": 564,
      "กิ": 565,
      "นม": 566,
      "ว์": 567,
      "แกะ": 568,
      "จำ": 569,
      "ปฏิ": 570,
      "สุด": 571,
      "โอ": 572,
      "ผล": 573,
      "มาร": 574,
      "บริสุ": 575,
      "บริสุทธิ์": 576,
      "ยูดาห์": 577,
      "โท": 578,
      "สวรร": 579,
      "ฉะนั้น": 580,
      "ณะ": 581,
      "สวรรค์": 582,
      "นาย": 583,
      "ษา": 584,
      "้ม": 585,
      "ตุ": 586,
      "ครั้ง": 587,
      "ุษ": 588,
      "ไม้": 589,
      "อื่น": 590,
      "มนุษ": 591,
      "เกิด": 592,
      "ภา": 593,
      "ประชา": 594,
      "สัตว์": 595,
      "สิ้น": 596,
      "หมาย": 597,
      "๋ย": 598,
      "ฐาน": 599,
      "อีย": 600,
      "ิปต์": 601,
      "อียิปต์": 602,
      "หัว": 603,
      "พระบาท": 604,
      "เสียง": 605,
      "สัญญา": 606,
      "เผา": 607,
      "ือน": 608,
      "สั่ง": 609,
      "ร้าย": 610,
      "หลัง": 611,
      "ัพ": 612,
      "มนุษย์": 613,
      "ฉัน": 614,
      "ถ้า": 615,
      "โค": 616,
      "แม้": 617,
      "ตะ": 618,
      "วน": 619,
      "ทุกคน": 620,
      "วจน": 621,
      "วจนะ": 622,
      "ใช่": 623,
      "ถาม": 624,
      "พร้อม": 625,
      "ทำลาย": 626,
      "พระวจนะ": 627,
      "ตล": 628,
      "แผ่น": 629,
      "แน": 630,
      "ได้ยิน": 631,
      "้อน": 632,
      "ผิด": 633,
      "คริส": 634,
      "ข้าแต่": 635,
      "กิน": 636,
      "นัก": 637,
      "เวลา": 638,
      "เรื่อง": 639,
      "พล": 640,
      "ฤทธิ์": 641,
      "อาหาร": 642,
      "บท": 643,
      "ศ์": 644,
      "เอ๋ย": 645,
      "ตลอด": 646,
      "เหตุ": 647,
      "ขณะ": 648,
      "่วม": 649,
      "ทอง": 650,
      "พี่น้อง": 651,
      "มาถึง": 652,
      "ที่นั่น": 653,
      "เหลือ": 654,
      "ออกมา": 655,
      "เลือ": 656,
      "ุ่น": 657,
      "สุ": 658,
      "ปรา": 659,
      "รว": 660,
      "คืน": 661,
      "สถ": 662,
      "ณ์": 663,
      "าด": 664,
      "ยืน": 665,
      "เดียว": 666,
      "กรุ": 667,
      "ทู": 668,
      "่อย": 669,
      "เสริ": 670,
      "เสด": 671,
      "เสด็จ": 672,
      "วาง": 673,
      "ุ่ม": 674,
      "เฮ": 675,
      "พระวิหาร": 676,
      "่วง": 677,
      "เผย": 678,
      "ชื่อ": 679,
      "ฟ้า": 680,
      "ตามที่": 681,
      "จริ": 682,
      "ต้น": 683,
      "จริง": 684,
      "ณา": 685,
      "ไม่ใช่": 686,
      "สรร": 687,
      "ญญาณ": 688,
      "ซี": 689,
      "ทิ้ง": 690,
      "ยง": 691,
      "บัญ": 692,
      "กลาง": 693,
      "เรียก": 694,
      "เงิน": 695,
      "็ก": 696,
      "ิ่น": 697,
      "ยอม": 698,
      "หมู่": 699,
      "ตู": 700,
      "ยาม": 701,
      "ออกไป": 702,
      "ทะ": 703,
      "ียาห์": 704,
      "ประตู": 705,
      "ดิ": 706,
      "โทษ": 707,
      "แผ่นดิน": 708,
      "นาม": 709,
      "รบ": 710,
      "ฆ่า": 711,
      "ปก": 712,
      "เกีย": 713,
      "ศัย": 714,
      "ชอบธรรม": 715,
      "าร์": 716,
      "ุ่ง": 717,
      "ข์": 718,
      "ัติ": 719,
      "อาศัย": 720,
      "ทุกข์": 721,
      "สู่": 722,
      "เศ": 723,
      "โก": 724,
      "อาย": 725,
      "กาล": 726,
      "เหล่านั้น": 727,
      "ร่วม": 728,
      "วัง": 729,
      "ส่": 730,
      "โฮ": 731,
      "เดิน": 732,
      "บัญญ": 733,
      "บัญญัติ": 734,
      "ภัย": 735,
      "แข": 736,
      "ชนชาติ": 737,
      "กอง": 738,
      "ชู": 739,
      "มอบ": 740,
      "แท่น": 741,
      "แด่": 742,
      "สาว": 743,
      "คิด": 744,
      "คริสต์": 745,
      "ภู": 746,
      "นี่": 747,
      "แพ": 748,
      "หาย": 749,
      "คง": 750,
      "เจ็ด": 751,
      "เพียง": 752,
      "บัด": 753,
      "เผ่า": 754,
      "โต": 755,
      "ไฟ": 756,
      "เสีย": 757,
      "ฝูง": 758,
      "จักร": 759,
      "ด้าน": 760,
      "เกี่ย": 761,
      "ตระ": 762,
      "บิ": 763,
      "หย": 764,
      "ขอให้": 765,
      "ถือ": 766,
      "ก่อน": 767,
      "ทา": 768,
      "พา": 769,
      "จัด": 770,
      "แบ": 771,
      "บัดนี้": 772,
      "อัม": 773,
      "ครอบ": 774,
      "บัญชา": 775,
      "ทูต": 776,
      "ทร": 777,
      "พย": 778,
      "ใส่": 779,
      "รอด": 780,
      "เปล": 781,
      "เคย": 782,
      "บทบัญญัติ": 783,
      "วงศ์": 784,
      "ผ้า": 785,
      "สาย": 786,
      "พัก": 787,
      "ศัตร": 788,
      "00": 789,
      "สน": 790,
      "กรุง": 791,
      "องุ่น": 792,
      "คุ": 793,
      "ศัตรู": 794,
      "ตรง": 795,
      "ผ่าน": 796,
      "เกียร": 797,
      "ญา": 798,
      "เกียรติ": 799,
      "สิทธิ์": 800,
      "ภูเขา": 801,
      "วี": 802,
      "ทัพ": 803,
      "ทั่ว": 804,
      "โลม": 805,
      "บุรุ": 806,
      "บุรุษ": 807,
      "จิต": 808,
      "ัญ": 809,
      "ใต": 810,
      "โลน": 811,
      "บรรพ": 812,
      "ทรงเป็น": 813,
      "ทะเล": 814,
      "ผู้เผย": 815,
      "ว่าง": 816,
      "กลัว": 817,
      "ผู้เผยพระวจนะ": 818,
      "รี": 819,
      "วาน": 820,
      "สี่": 821,
      "ภรร": 822,
      "ใต้": 823,
      "ภรรยา": 824,
      "เก็": 825,
      "กระทำ": 826,
      "ได้แก่": 827,
      "หัน": 828,
      "พวกเจ้า": 829,
      "บรรพบุรุษ": 830,
      "ศิ": 831,
      "สูง": 832,
      "โปร": 833,
      "เก็บ": 834,
      "ปฏิบัติ": 835,
      "พันธสัญญา": 836,
      "ิ่ม": 837,
      "อุ": 838,
      "ต่อไป": 839,
      "พ้น": 840,
      "วกับ": 841,
      "โรน": 842,
      "อาบ": 843,
      "ฝ่า": 844,
      "วัว": 845,
      "ยินดี": 846,
      "กาย": 847,
      "สอน": 848,
      "้วน": 849,
      "ียน": 850,
      "หนี": 851,
      "สู้": 852,
      "แต่ง": 853,
      "อย่างไร": 854,
      "นอก": 855,
      "กล้": 856,
      "ใกล้": 857,
      "ควร": 858,
      "!”": 859,
      "พื": 860,
      "บาง": 861,
      "มั่น": 862,
      "รักษา": 863,
      "โปรด": 864,
      "ปาก": 865,
      "มล": 866,
      "อูล": 867,
      "ัสการ": 868,
      "นมัสการ": 869,
      "ี้ยง": 870,
      "รวม": 871,
      "เสริญ": 872,
      "สรรเสริญ": 873,
      "จับ": 874,
      "ประชาชน": 875,
      "ห้า": 876,
      "โซ": 877,
      "โคบ": 878,
      "ยาโคบ": 879,
      "อาณา": 880,
      "พ่อ": 881,
      "ซาอูล": 882,
      "อื่นๆ": 883,
      "ทั้งสอง": 884,
      "รอบ": 885,
      "กลับมา": 886,
      "กูล": 887,
      "ดาร": 888,
      "ติด": 889,
      "ที": 890,
      "ัต": 891,
      "ียบ": 892,
      "เลี้ยง": 893,
      "ฟี": 894,
      "รูป": 895,
      "ตระกูล": 896,
      "ดังนี้": 897,
      "่อม": 898,
      "ตอบว่า": 899,
      "ไหน": 900,
      "ลิ": 901,
      "เล่า": 902,
      "ซึ่งเป็น": 903,
      "โบ": 904,
      "อธิ": 905,
      "ตัด": 906,
      "ถิ่น": 907,
      "อำ": 908,
      "ตั้งแต่": 909,
      "คุณ": 910,
      "ทรงฤทธิ์": 911,
      "คา": 912,
      "ดื่": 913,
      "เฝ": 914,
      "ราม": 915,
      "โยน": 916,
      "ดื่ม": 917,
      "ชื่น": 918,
      "บาบิ": 919,
      "เนื้อ": 920,
      "บาบิโลน": 921,
      "ทิน": 922,
      "ข้าง": 923,
      "หลังจาก": 924,
      "มลทิน": 925,
      "ล้าง": 926,
      "ลึก": 927,
      "ราย": 928,
      "เฝ้า": 929,
      "พอ": 930,
      "ฝ่าพระบาท": 931,
      "ไห": 932,
      "หนัก": 933,
      "เนื่อง": 934,
      "ปล่อย": 935,
      "มิ": 936,
      "สัน": 937,
      "พระนาม": 938,
      "แม่น": 939,
      "รส": 940,
      "โส": 941,
      "ิว": 942,
      "อาณาจักร": 943,
      "เลวี": 944,
      "วงศ์วาน": 945,
      "สถาน": 946,
      "อาห": 947,
      "เทศ": 948,
      "แม่น้ำ": 949,
      "ึด": 950,
      "ทรงให้": 951,
      "เข้ามา": 952,
      "มอง": 953,
      "อาโรน": 954,
      "กันดาร": 955,
      "ดวง": 956,
      "น่า": 957,
      "รัส": 958,
      "ษฐาน": 959,
      "อธิษฐาน": 960,
      "ตี": 961,
      "นับ": 962,
      "ยึด": 963,
      "เท้า": 964,
      "เสื้อ": 965,
      "เนิน": 966,
      "รุ่ง": 967,
      "ฟา": 968,
      "ข้าว": 969,
      "ดาบ": 970,
      "ลุก": 971,
      "หิน": 972,
      "ไถ": 973,
      "วันที่": 974,
      "ฮา": 975,
      "ทหาร": 976,
      "แส": 977,
      "สามาร": 978,
      "แม่": 979,
      "สามารถ": 980,
      "แดง": 981,
      "สาวก": 982,
      "ขณะที่": 983,
      "นาจ": 984,
      "ตะวัน": 985,
      "ยาก": 986,
      "สิน": 987,
      "็ง": 988,
      "แทน": 989,
      "ครัว": 990,
      "อายุ": 991,
      "ม้า": 992,
      "ล่": 993,
      "ียม": 994,
      "เยโฮ": 995,
      "ที่สุด": 996,
      "ัท": 997,
      "ียด": 998,
      "แข็ง": 999,
      "ข้อ": 1000,
      "แรง": 1001,
      "เต็ม": 1002,
      "ภาพ": 1003,
      "ทราบ": 1004,
      "ลำ": 1005,
      "อำนาจ": 1006,
      "ท์": 1007,
      "บัน": 1008,
      "ีบ": 1009,
      "แต่ละ": 1010,
      "เช่นนี้": 1011,
      "ชม": 1012,
      "ชิ": 1013,
      "ยุ": 1014,
      "หนัง": 1015,
      "หลาน": 1016,
      "ค่า": 1017,
      "เข้าไป": 1018,
      "ยิ่งใหญ่": 1019,
      "วันนี้": 1020,
      "เซฟ": 1021,
      "เบน": 1022,
      "อาร": 1023,
      "อาห์": 1024,
      "เพื่อน": 1025,
      "โยเซฟ": 1026,
      "รู้ว่า": 1027,
      "ประชาชาติ": 1028,
      "หุ": 1029,
      "แร": 1030,
      "ทองคำ": 1031,
      "ม่": 1032,
      "ใหม่": 1033,
      "ดับ": 1034,
      "ประมา": 1035,
      "เลือด": 1036,
      "เธ": 1037,
      "ประทับ": 1038,
      "พระคริสต์": 1039,
      "เลือก": 1040,
      "ฝ่าย": 1041,
      "วด": 1042,
      "ความรัก": 1043,
      "ปกครอง": 1044,
      "ทำไม": 1045,
      "บาน": 1046,
      "จม": 1047,
      "จาร": 1048,
      "สัก": 1049,
      "ทุกสิ่ง": 1050,
      "สี": 1051,
      "โรธ": 1052,
      "เชล": 1053,
      "ดิ์": 1054,
      "ฟีล": 1055,
      "พิโรธ": 1056,
      "ฟ้าสวรรค์": 1057,
      "อิม": 1058,
      "เกรง": 1059,
      "ดำรัส": 1060,
      "วิญญาณ": 1061,
      "เกี่ยวกับ": 1062,
      "นก": 1063,
      "ที่จะ": 1064,
      "็นท์": 1065,
      "เอลี": 1066,
      "เต็นท์": 1067,
      "โอรส": 1068,
      "ลอง": 1069,
      "โลมอน": 1070,
      "โซโลมอน": 1071,
      "โมน": 1072,
      "ภาย": 1073,
      "ไล่": 1074,
      "ไม่ว่า": 1075,
      "ทุ่ง": 1076,
      "ปั": 1077,
      "เกล": 1078,
      "พระวิญญาณ": 1079,
      "จด": 1080,
      "แจ": 1081,
      "อัส": 1082,
      "านา": 1083,
      "ท้อง": 1084,
      "กลาย": 1085,
      "ไถ่": 1086,
      "กฎ": 1087,
      "วกัน": 1088,
      "กราบ": 1089,
      "ทัย": 1090,
      "พระคุณ": 1091,
      "เดือน": 1092,
      "ซื่อ": 1093,
      "พระชน": 1094,
      "ข่าว": 1095,
      "รถ": 1096,
      "ารพ": 1097,
      "ชื่นชม": 1098,
      "หน้าที่": 1099,
      "ชำ": 1100,
      "ท่า": 1101,
      "ราห์": 1102,
      "บางคน": 1103,
      "ิยาห์": 1104,
      "เฟ": 1105,
      "ลี": 1106,
      "ฮัม": 1107,
      "เจ้าชีวิต": 1108,
      "เท่า": 1109,
      "เบธ": 1110,
      "กร": 1111,
      "าะ": 1112,
      "องค์เจ้าชีวิต": 1113,
      "อาว": 1114,
      "เข้าใจ": 1115,
      "นอน": 1116,
      "ศี": 1117,
      "ค่าย": 1118,
      "โน": 1119,
      "มากมาย": 1120,
      "ชุม": 1121,
      "เด็ก": 1122,
      "จำน": 1123,
      "ครอบครัว": 1124,
      "นั่ง": 1125,
      "อาด": 1126,
      "อาวุ": 1127,
      "ล้ม": 1128,
      "ุน": 1129,
      "หนด": 1130,
      "พระทัย": 1131,
      "ข้าพระบาท": 1132,
      "ไร้": 1133,
      "คลุม": 1134,
      "สัตย์": 1135,
      "เช่นนั้น": 1136,
      "เดินทาง": 1137,
      "ลม": 1138,
      "ดูแล": 1139,
      "ทัน": 1140,
      "ืด": 1141,
      "จนถึง": 1142,
      "ฝัง": 1143,
      "อิ": 1144,
      "โรห์": 1145,
      "เดียวกัน": 1146,
      "ที่นี่": 1147,
      "ฟาโรห์": 1148,
      "ศา": 1149,
      "ราก": 1150,
      "ตนเอง": 1151,
      "แป": 1152,
      "เตีย": 1153,
      "รัน": 1154,
      "ศพ": 1155,
      "เนื่องจาก": 1156,
      "โห": 1157,
      "ิสเตีย": 1158,
      "ฟีลิสเตีย": 1159,
      "จำนวน": 1160,
      "คอย": 1161,
      "ลาด": 1162,
      "จิตใจ": 1163,
      "พาก": 1164,
      "ัตถ": 1165,
      "ักดิ์": 1166,
      "เชื่อฟัง": 1167,
      "รณ์": 1168,
      "ความเชื่อ": 1169,
      "ชั่วร้าย": 1170,
      "หัตถ": 1171,
      "พระดำรัส": 1172,
      "ลงโทษ": 1173,
      "ขนม": 1174,
      "พระบิดา": 1175,
      "เคารพ": 1176,
      "เขียน": 1177,
      "รันด": 1178,
      "ราฮัม": 1179,
      "ความจริง": 1180,
      "คียาห์": 1181,
      "แหล": 1182,
      "หนุ่ม": 1183,
      "หัตถ์": 1184,
      "รั": 1185,
      "พระหัตถ์": 1186,
      "อับราฮัม": 1187,
      "กลายเป็น": 1188,
      "ชำระ": 1189,
      "ล่วง": 1190,
      "เชื้อ": 1191,
      "นิรันด": 1192,
      "ข้าม": 1193,
      "กำหนด": 1194,
      "ลูกหลาน": 1195,
      "ดำเนิน": 1196,
      "อ่อน": 1197,
      "เหย": 1198,
      "กรรม": 1199,
      "หอม": 1200,
      "ุ์": 1201,
      "มายัง": 1202,
      "ขึ้นมา": 1203,
      "รู้จัก": 1204,
      "พันธุ์": 1205,
      "แน่": 1206,
      "ปัญญา": 1207,
      "พระชนม": 1208,
      "เตร": 1209,
      "พระชนม์": 1210,
      "ขาย": 1211,
      "คี": 1212,
      "ล้วน": 1213,
      "ริม": 1214,
      "หัวหน้า": 1215,
      "แน่น": 1216,
      "สุข": 1217,
      "นาน": 1218,
      "แท่นบูชา": 1219,
      "ศักดิ์": 1220,
      "พระเน": 1221,
      "มาน": 1222,
      "สิริ": 1223,
      "นิรันดร์": 1224,
      "วาด": 1225,
      "พระเนตร": 1226,
      "บริ": 1227,
      "เตรียม": 1228,
      "เสม": 1229,
      "เรือ": 1230,
      "มารดา": 1231,
      "ทาส": 1232,
      "าโล": 1233,
      "เปาโล": 1234,
      "เชลย": 1235,
      "ประหาร": 1236,
      "มกลาง": 1237,
      "ว้าง": 1238,
      "ประมาณ": 1239,
      "ท่ามกลาง": 1240,
      "ถ้อย": 1241,
      "ทุกอย่าง": 1242,
      "ใดๆ": 1243,
      "ถ้อยคำ": 1244,
      "ขับ": 1245,
      "ศึก": 1246,
      "ทรงนำ": 1247,
      "พวกเรา": 1248,
      "ลาน": 1249,
      "หวัง": 1250,
      "ชนะ": 1251,
      "พื้น": 1252,
      "ธาน": 1253,
      "สู": 1254,
      "่อง": 1255,
      "เหล้า": 1256,
      "แจ้ง": 1257,
      "เสมอ": 1258,
      "ีย์": 1259,
      "ชูวา": 1260,
      "ซาร์": 1261,
      "ทน": 1262,
      "ทอด": 1263,
      "ยิ่งกว่า": 1264,
      "เกิดขึ้น": 1265,
      "ดั่ง": 1266,
      "มืด": 1267,
      "กลับไป": 1268,
      "พยาน": 1269,
      "ตตา": 1270,
      "ธี": 1271,
      "หีบ": 1272,
      "เมตตา": 1273,
      "แรก": 1274,
      "ปัง": 1275,
      "ไกล": 1276,
      "้าว": 1277,
      "ประจำ": 1278,
      "แพง": 1279,
      "ญาณ": 1280,
      "ไห้": 1281,
      "ขนมปัง": 1282,
      "หก": 1283,
      "แยก": 1284,
      "เปิด": 1285,
      "น้ำมัน": 1286,
      "สวน": 1287,
      "ไม่ใช่หรือ": 1288,
      "ชัง": 1289,
      "ร้อน": 1290,
      "เจ้านาย": 1291,
      "สวม": 1292,
      "งาม": 1293,
      "โอน": 1294,
      "ทั้งสิ้น": 1295,
      "เปโ": 1296,
      "าการ": 1297,
      "ขาด": 1298,
      "โยชูวา": 1299,
      "โจม": 1300,
      "รับประทาน": 1301,
      "าศ": 1302,
      "ทรงสร้าง": 1303,
      "สัม": 1304,
      "น้อย": 1305,
      "ลบ": 1306,
      "แพะ": 1307,
      "เขต": 1308,
      "ไม่ยอม": 1309,
      "มั่นคง": 1310,
      "บ้าง": 1311,
      "ศอก": 1312,
      "เอฟ": 1313,
      "กำแพง": 1314,
      "ิญ": 1315,
      "เพลง": 1316,
      "ัพย์": 1317,
      "ยืนอยู่": 1318,
      "เธอ": 1319,
      "ลุกขึ้น": 1320,
      "แค": 1321,
      "ไม่ให้": 1322,
      "ข่ม": 1323,
      "ณี": 1324,
      "มะ": 1325,
      "เริ่ม": 1326,
      "รูปเคารพ": 1327,
      "กรรมสิทธิ์": 1328,
      "ระห": 1329,
      "เช้า": 1330,
      "เข้าเฝ้า": 1331,
      "แบ่ง": 1332,
      "ตัวเอง": 1333,
      "ทรัพย์": 1334,
      "รัช": 1335,
      "ให้แก่": 1336,
      "เสา": 1337,
      "เชิญ": 1338,
      "สำแดง": 1339,
      "บัง": 1340,
      "ยำ": 1341,
      "ไม่เคย": 1342,
      "ิตย์": 1343,
      "ตะวันออก": 1344,
      "รัชกาล": 1345,
      "ฉลอง": 1346,
      "รษ": 1347,
      "วล": 1348,
      "แช": 1349,
      "ขึ้นไป": 1350,
      "ยุติ": 1351,
      "เปโตร": 1352,
      "สว่าง": 1353,
      "ปฏิญาณ": 1354,
      "เสื้อผ้า": 1355,
      "ระหว่าง": 1356,
      "คู่": 1357,
      "อาจ": 1358,
      "ตำ": 1359,
      "็บ": 1360,
      "กิจ": 1361,
      "เกี่ยว": 1362,
      "ยำเกรง": 1363,
      "ขา": 1364,
      "ง่": 1365,
      "ผู้หญิง": 1366,
      "นุม": 1367,
      "ยศ": 1368,
      "เล็ก": 1369,
      "โรค": 1370,
      "แช่ง": 1371,
      "ชั้น": 1372,
      "โมอับ": 1373,
      "ตัดสิน": 1374,
      "ชุมนุม": 1375,
      "วญ": 1376,
      "ครวญ": 1377,
      "ทูตสวรรค์": 1378,
      "สื": 1379,
      "พระเกียรติ": 1380,
      "กองทัพ": 1381,
      "เฉ": 1382,
      "โง่": 1383,
      "วยพร": 1384,
      "เสด็จมา": 1385,
      "ณฑ": 1386,
      "ลงมา": 1387,
      "อย่าให้": 1388,
      "พิพาก": 1389,
      "นี่คือ": 1390,
      "เหล้าองุ่น": 1391,
      "พิพากษา": 1392,
      "ราอิม": 1393,
      "อัล": 1394,
      "อวยพร": 1395,
      "ต่อสู้": 1396,
      "ครอบครอง": 1397,
      "ศีรษ": 1398,
      "ศีรษะ": 1399,
      "ขอบ": 1400,
      "ูเอล": 1401,
      "โจมตี": 1402,
      "คัญ": 1403,
      "สือ": 1404,
      "สำคัญ": 1405,
      "หนังสือ": 1406,
      "ราว": 1407,
      "เวศ": 1408,
      "นิเวศ": 1409,
      "กบ": 1410,
      "ร่ำ": 1411,
      "อยาก": 1412,
      "ชาวย": 1413,
      "ถามว่า": 1414,
      "แบบ": 1415,
      "ดก": 1416,
      "ไม่ต้อง": 1417,
      "เมล": 1418,
      "ยามิน": 1419,
      "ศักดิ์สิทธิ์": 1420,
      "ยอ": 1421,
      "หัก": 1422,
      "ทรงทำ": 1423,
      "ทิศ": 1424,
      "ซื่อสัตย์": 1425,
      "ขย": 1426,
      "จอร์": 1427,
      "ตอน": 1428,
      "พง": 1429,
      "ือก": 1430,
      "พร้อมกับ": 1431,
      "จอร์แดน": 1432,
      "ขัด": 1433,
      "สาร": 1434,
      "ห้อง": 1435,
      "เท่าน": 1436,
      "มาหา": 1437,
      "พืช": 1438,
      "ปิด": 1439,
      "อาวุโส": 1440,
      "ร้อย": 1441,
      "หญ้า": 1442,
      "แม้แต่": 1443,
      "หยุด": 1444,
      "ยุติธรรม": 1445,
      "สล": 1446,
      "ริบ": 1447,
      "โดม": 1448,
      "สมบัติ": 1449,
      "สงบ": 1450,
      "พิน": 1451,
      "สัง": 1452,
      "ืม": 1453,
      "ข้าราช": 1454,
      "ี่ยม": 1455,
      "เบนยามิน": 1456,
      "สืบ": 1457,
      "กว้าง": 1458,
      "ล้อม": 1459,
      "แคว": 1460,
      "เอฟราอิม": 1461,
      "แคว้น": 1462,
      "ขวา": 1463,
      "ใบ": 1464,
      "เหง": 1465,
      "ี้ย": 1466,
      "ักษ": 1467,
      "บูรณ์": 1468,
      "กู้": 1469,
      "ต่างชาติ": 1470,
      "โกร": 1471,
      "อาบี": 1472,
      "แน่นอน": 1473,
      "ขว": 1474,
      "ทึก": 1475,
      "ื้อง": 1476,
      "ระลึก": 1477,
      "ช่าง": 1478,
      "พัง": 1479,
      "ก้อน": 1480,
      "สติ": 1481,
      "โศ": 1482,
      "ห์น": 1483,
      "เรือน": 1484,
      "ศิลา": 1485,
      "ยอห์น": 1486,
      "เท่านั้น": 1487,
      "ซ่อน": 1488,
      "นั่น": 1489,
      "พลา": 1490,
      "ัล": 1491,
      "ับพลา": 1492,
      "ยิ่งนัก": 1493,
      "พลับพลา": 1494,
      "หุบ": 1495,
      "กฏ": 1496,
      "ยาว": 1497,
      "พูดว่า": 1498,
      "ปรากฏ": 1499,
      "ิก": 1500,
      "เห็นว่า": 1501,
      "สามี": 1502,
      "เปล่า": 1503,
      "พระเกียรติสิริ": 1504,
      "ลาห์": 1505,
      "ปรน": 1506,
      "นคร": 1507,
      "เปร": 1508,
      "กล้า": 1509,
      "ความตาย": 1510,
      "หุบเขา": 1511,
      "กระจ": 1512,
      "ี่ยว": 1513,
      "ป่า": 1514,
      "ยู": 1515,
      "เที่": 1516,
      "ไม่อ": 1517,
      "สิ่งใด": 1518,
      "ฉลาด": 1519,
      "ลับ": 1520,
      "สิง": 1521,
      "เย็น": 1522,
      "เกิน": 1523,
      "ข่มเหง": 1524,
      "นะ": 1525,
      "ร่าง": 1526,
      "วอน": 1527,
      "ความผิด": 1528,
      "ศิโยน": 1529,
      "แตก": 1530,
      "การณ์": 1531,
      "นิบัติ": 1532,
      "ติดตาม": 1533,
      "ปรนนิบัติ": 1534,
      "แถ": 1535,
      "เคล": 1536,
      "อัค": 1537,
      "ศ์พันธุ์": 1538,
      "เกลียด": 1539,
      "ณฑ์": 1540,
      "พงศ์พันธุ์": 1541,
      "ก่อ": 1542,
      "ราชย์": 1543,
      "ครองราชย์": 1544,
      "พินาศ": 1545,
      "ชิง": 1546,
      "มหา": 1547,
      "ย่อม": 1548,
      "บัล": 1549,
      "ดง": 1550,
      "มีย์": 1551,
      "ัสเส": 1552,
      "ดำรง": 1553,
      "โกรธ": 1554,
      "ฟัน": 1555,
      "เมฆ": 1556,
      "โบอัม": 1557,
      "สัมฤทธิ์": 1558,
      "กบฏ": 1559,
      "คานา": 1560,
      "ประสง": 1561,
      "เยเร": 1562,
      "เตือน": 1563,
      "ต้นไม้": 1564,
      "บันทึก": 1565,
      "ชาวยิว": 1566,
      "ประสงค์": 1567,
      "ก์": 1568,
      "นัด": 1569,
      "ประเสริ": 1570,
      "เช่นกัน": 1571,
      "มนัสเส": 1572,
      "ประเสริฐ": 1573,
      "มนัสเสห์": 1574,
      "มร": 1575,
      "แซ": 1576,
      "ไข": 1577,
      "ไท": 1578,
      "ที่รัก": 1579,
      "ื่อน": 1580,
      "บาโต": 1581,
      "ี่ยง": 1582,
      "สะบาโต": 1583,
      "000": 1584,
      "รอ": 1585,
      "รัง": 1586,
      "ทรงส่ง": 1587,
      "ยังคง": 1588,
      "เบื้อง": 1589,
      "ี่ยน": 1590,
      "เหตุใด": 1591,
      "คัด": 1592,
      "แก้": 1593,
      "คานาอัน": 1594,
      "จา": 1595,
      "ถี": 1596,
      "บาร": 1597,
      "ป้อม": 1598,
      "อยู่ใน": 1599,
      "ถูกต้อง": 1600,
      "วิถี": 1601,
      "เร็จ": 1602,
      "สำเร็จ": 1603,
      "เซอร์": 1604,
      "คาห์": 1605,
      "บาด": 1606,
      "จนกว่า": 1607,
      "พรม": 1608,
      "พูดกับ": 1609,
      "เยเรมีย์": 1610,
      "ช้า": 1611,
      "ฝี": 1612,
      "แสง": 1613,
      "อามา": 1614,
      "ลังก์": 1615,
      "พิบัติ": 1616,
      "ซีเรีย": 1617,
      "บัลลังก์": 1618,
      "สอบ": 1619,
      "ที่ดิน": 1620,
      "เข้ม": 1621,
      "ต้องการ": 1622,
      "แผน": 1623,
      "มวล": 1624,
      "าจ": 1625,
      "ลูกชาย": 1626,
      "แต่งงาน": 1627,
      "แสดง": 1628,
      "ไม่อาจ": 1629,
      "รอง": 1630,
      "หู": 1631,
      "เจ็บ": 1632,
      "ียว": 1633,
      "ประโย": 1634,
      "กลุ่ม": 1635,
      "ชน์": 1636,
      "โยอาบ": 1637,
      "ลูกแกะ": 1638,
      "กระด": 1639,
      "ยิว": 1640,
      "ประโยชน์": 1641,
      "คราม": 1642,
      "นู": 1643,
      "สงคราม": 1644,
      "ดิฉัน": 1645,
      "กฎหมาย": 1646,
      "จารย์": 1647,
      "ซาม": 1648,
      "แห้ง": 1649,
      "ช่วยเหลือ": 1650,
      "แต่งตั้ง": 1651,
      "นัดพบ": 1652,
      "จุด": 1653,
      "ธิดา": 1654,
      "บาย": 1655,
      "ผู้ชาย": 1656,
      "อิสอัค": 1657,
      "ดูเถิด": 1658,
      "หัวปี": 1659,
      "ภัยพิบัติ": 1660,
      "เทศกาล": 1661,
      "แหละ": 1662,
      "ชัย": 1663,
      "ยอด": 1664,
      "รัม": 1665,
      "อี": 1666,
      "อภัย": 1667,
      "กิเล": 1668,
      "แต่ละคน": 1669,
      "พระนาง": 1670,
      "อับอาย": 1671,
      "อารัม": 1672,
      "เที่ยง": 1673,
      "ซามูเอล": 1674,
      "ซื้อ": 1675,
      "บ่อ": 1676,
      "ปนา": 1677,
      "ูบ": 1678,
      "ป้อง": 1679,
      "พระราช": 1680,
      "เซคียาห์": 1681,
      "เฮเซคียาห์": 1682,
      "อัสซีเรีย": 1683,
      "เมล็ด": 1684,
      "หยิ": 1685,
      "กระนั้น": 1686,
      "สันติ": 1687,
      "ทันที": 1688,
      "คาร": 1689,
      "ตร์": 1690,
      "หลับ": 1691,
      "กิเลอาด": 1692,
      "ฝน": 1693,
      "ชาฟ": 1694,
      "จิตวิญญาณ": 1695,
      "ขับไล่": 1696,
      "จบ": 1697,
      "เจิม": 1698,
      "เล่น": 1699,
      "สมบูรณ์": 1700,
      "ครั้งนั้น": 1701,
      "ผ่านทาง": 1702,
      "ขี่": 1703,
      "ธา": 1704,
      "ยับ": 1705,
      "ลืม": 1706,
      "ุภาพ": 1707,
      "ไหล": 1708,
      "ทรงทำให้": 1709,
      "อาท": 1710,
      "หลง": 1711,
      "วิ่ง": 1712,
      "เพื่อนบ้าน": 1713,
      "เอลีชา": 1714,
      "?’": 1715,
      "ต้อน": 1716,
      "ธัญ": 1717,
      "เอโดม": 1718,
      "สั่น": 1719,
      "สาบาน": 1720,
      "แท้": 1721,
      "เหตุการณ์": 1722,
      "ฝูงสัตว์": 1723,
      "คม": 1724,
      "ทุ": 1725,
      "อุด": 1726,
      "แตะ": 1727,
      "นักรบ": 1728,
      "ผลา": 1729,
      "ฝัน": 1730,
      "ต่อมา": 1731,
      "เนีย": 1732,
      "สถา": 1733,
      "ผลาญ": 1734,
      "ผม": 1735,
      "วม": 1736,
      "ชาน": 1737,
      "ทูลถาม": 1738,
      "อาหิ": 1739,
      "สติปัญญา": 1740,
      "สถาปนา": 1741,
      "กอบ": 1742,
      "ชัก": 1743,
      "ดาน": 1744,
      "ฮู": 1745,
      "ความรอด": 1746,
      "เข้มแข็ง": 1747,
      "มุ่ง": 1748,
      "กรุณา": 1749,
      "แซม": 1750,
      "ล่า": 1751,
      "อ้าง": 1752,
      "ุง": 1753,
      "ทำงาน": 1754,
      "โยนา": 1755,
      "ละทิ้ง": 1756,
      "เปลี่ยน": 1757,
      "คับ": 1758,
      "ค่ำ": 1759,
      "ยื่น": 1760,
      "มาเรีย": 1761,
      "สะมาเรีย": 1762,
      "ขอบพระคุณ": 1763,
      "กระจาย": 1764,
      "อาทิตย์": 1765,
      "กุ": 1766,
      "คุก": 1767,
      "ทับ": 1768,
      "ือด": 1769,
      "เลค": 1770,
      "เรื่องนี้": 1771,
      "โกน": 1772,
      "แปด": 1773,
      "หยิบ": 1774,
      "คัน": 1775,
      "หวาด": 1776,
      "้ย": 1777,
      "หลวง": 1778,
      "สถิต": 1779,
      "หมู่บ้าน": 1780,
      "ญาติ": 1781,
      "จดหมาย": 1782,
      "สูญ": 1783,
      "มรดก": 1784,
      "จรร": 1785,
      "ศจรร": 1786,
      "คร่ำ": 1787,
      "เอลียาห์": 1788,
      "เย้ย": 1789,
      "เดิม": 1790,
      "สิบสอง": 1791,
      "สั่งสอน": 1792,
      "เยโฮยา": 1793,
      "ศจรรย์": 1794,
      "ติสุ": 1795,
      "ตจักร": 1796,
      "นิม": 1797,
      "พระบุตร": 1798,
      "เร็": 1799,
      "ฉันใด": 1800,
      "คริสตจักร": 1801,
      "ร่วมกับ": 1802,
      "สันติสุ": 1803,
      "ไถ่บาป": 1804,
      "สันติสุข": 1805,
      "คุม": 1806,
      "ฟาก": 1807,
      "มาห์": 1808,
      "หนิ": 1809,
      "ควบ": 1810,
      "ทางเข้า": 1811,
      "พร้อมทั้ง": 1812,
      "สู้รบ": 1813,
      "ตำหนิ": 1814,
      "อุดม": 1815,
      "หนัต": 1816,
      "หรือไม่": 1817,
      "หมิ่น": 1818,
      "กิ่ง": 1819,
      "สุหนัต": 1820,
      "แค้น": 1821,
      "ย่อง": 1822,
      "ล้ำ": 1823,
      "ความชั่ว": 1824,
      "เทพเจ้า": 1825,
      "ากรณ์": 1826,
      "บรวม": 1827,
      "รวบรวม": 1828,
      "พยากรณ์": 1829,
      "ขน": 1830,
      "ถน": 1831,
      "ไม่รู้": 1832,
      "เห็นแก่": 1833,
      "ลูกๆ": 1834,
      "ราชกิจ": 1835,
      "อัมโมน": 1836,
      "คร่ำครวญ": 1837,
      "สย": 1838,
      "ติศ": 1839,
      "สาป": 1840,
      "ผิดชอบ": 1841,
      "ที่ไหน": 1842,
      "ความหวัง": 1843,
      "ความมืด": 1844,
      "หลุม": 1845,
      "เนบู": 1846,
      "แสวง": 1847,
      "โยนาธาน": 1848,
      "คาน": 1849,
      "ช่วง": 1850,
      "ทาร": 1851,
      "นึก": 1852,
      "ยี่": 1853,
      "แตร": 1854,
      "ระเบ": 1855,
      "ครบ": 1856,
      "อาสา": 1857,
      "รับผิดชอบ": 1858,
      "พอพระทัย": 1859,
      "ม้าศึก": 1860,
      "แสวงหา": 1861,
      "ซาก": 1862,
      "ภ์": 1863,
      "ย่ำ": 1864,
      "ฮาน": 1865,
      "ึ้ง": 1866,
      "มาจาก": 1867,
      "เนิด": 1868,
      "กำเนิด": 1869,
      "ยอมรับ": 1870,
      "โศก": 1871,
      "ลี้": 1872,
      "เจริ": 1873,
      "ร้องเพลง": 1874,
      "น้องชาย": 1875,
      "ปรารถ": 1876,
      "ตะวันตก": 1877,
      "กราบทูล": 1878,
      "สาปแช่ง": 1879,
      "เจริญ": 1880,
      "ปรารถนา": 1881,
      "กวาด": 1882,
      "ายาม": 1883,
      "ทรงทราบ": 1884,
      "ครร": 1885,
      "เกณฑ์": 1886,
      "พิธี": 1887,
      "ชั่วอายุ": 1888,
      "คลอด": 1889,
      "พยายาม": 1890,
      "รวมทั้ง": 1891,
      "ขนา": 1892,
      "ธนู": 1893,
      "ผี": 1894,
      "ห้ว": 1895,
      "ื่อย": 1896,
      "เพิ่ม": 1897,
      "ตลอดไป": 1898,
      "ปราการ": 1899,
      "เก็บเกี่ยว": 1900,
      "ดัก": 1901,
      "อิ่ม": 1902,
      "ระวัง": 1903,
      "แล้": 1904,
      "ตรี": 1905,
      "อนุ": 1906,
      "ยี่สิบ": 1907,
      "ด้าว": 1908,
      "นั": 1909,
      "พฤ": 1910,
      "หะ": 1911,
      "แปล": 1912,
      "เข้าสู่": 1913,
      "ต่างด้าว": 1914,
      "ไม่มีใคร": 1915,
      "ร้องไห้": 1916,
      "ปราน": 1917,
      "ภายใน": 1918,
      "ถนน": 1919,
      "ครรภ์": 1920,
      "กด": 1921,
      "ห่าง": 1922,
      "ไหม": 1923,
      "ทรงเรียก": 1924,
      "วิบัติ": 1925,
      "แป้ง": 1926,
      "ร่ำไห้": 1927,
      "ธาร": 1928,
      "๊ะ": 1929,
      "พระพัก": 1930,
      "เยโร": 1931,
      "เหล็ก": 1932,
      "วิหาร": 1933,
      "ปล้น": 1934,
      "โต๊ะ": 1935,
      "พฤติ": 1936,
      "พระพักตร์": 1937,
      "กัด": 1938,
      "จร": 1939,
      "ตื่น": 1940,
      "อู": 1941,
      "ื่อม": 1942,
      "เมิด": 1943,
      "อาโม": 1944,
      "เสธ": 1945,
      "ละเมิด": 1946,
      "ฉันนั้น": 1947,
      "ปกป้อง": 1948,
      "แถบ": 1949,
      "ทด": 1950,
      "เนส": 1951,
      "ปลอด": 1952,
      "ยกให้": 1953,
      "ปฏิเสธ": 1954,
      "นอกจาก": 1955,
      "วัด": 1956,
      "เมเลค": 1957,
      "ด้วยกัน": 1958,
      "อย่างนี้": 1959,
      "ซาโลม": 1960,
      "ประชุม": 1961,
      "ที่นั่ง": 1962,
      "อับซาโลม": 1963,
      "เส้น": 1964,
      "บาลา": 1965,
      "โมง": 1966,
      "อัศจรรย์": 1967,
      "ใส่ใจ": 1968,
      "อาหับ": 1969,
      "ดวงอาทิตย์": 1970,
      "ขนาด": 1971,
      "ตราบ": 1972,
      "ไซ": 1973,
      "ที่สูง": 1974,
      "ถึงแม้": 1975,
      "หมอบ": 1976,
      "ชนิด": 1977,
      "หายนะ": 1978,
      "จัดการ": 1979,
      "ชิงชัง": 1980,
      "คาด": 1981,
      "มัด": 1982,
      "หยิ่ง": 1983,
      "คนหนึ่ง": 1984,
      "คิดว่า": 1985,
      "ฝูงชน": 1986,
      "รีบ": 1987,
      "โห่": 1988,
      "อาจจะ": 1989,
      "ชาฟัท": 1990,
      "กาง": 1991,
      "ปา": 1992,
      "พรร": 1993,
      "ม่าน": 1994,
      "ทรงมี": 1995,
      "ครึ่ง": 1996,
      "เอซา": 1997,
      "อาช": 1998,
      "เสื่อม": 1999,
      "นำมา": 2000,
      "ยกย่อง": 2001,
      "ทรมาน": 2002,
      "ห้าม": 2003,
      "นิมิต": 2004,
      "เอซาว": 2005,
      "ขุน": 2006,
      "บุก": 2007,
      "พติศ": 2008,
      "ความรู้": 2009,
      "ความทุกข์": 2010,
      "ความสุข": 2011,
      "บัพติศ": 2012,
      "พี่ชาย": 2013,
      "กิเบ": 2014,
      "เกลียดชัง": 2015,
      "โห่ร้อง": 2016,
      "งอก": 2017,
      "ดีก": 2018,
      "ฟาร": 2019,
      "มุ": 2020,
      "็ญ": 2021,
      "ียา": 2022,
      "เรือง": 2023,
      "เนื่องด้วย": 2024,
      "อาหัส": 2025,
      "คัดเนส": 2026,
      "กระดูก": 2027,
      "เนบูคัดเนส": 2028,
      "ปลอดภัย": 2029,
      "บัพติศมา": 2030,
      "ดีกว่า": 2031,
      "เนบูคัดเนสซาร์": 2032,
      "วก็": 2033,
      "หนา": 2034,
      "ประพฤติ": 2035,
      "เลิก": 2036,
      "ลูกสาว": 2037,
      "กระท": 2038,
      "เรียน": 2039,
      "วาจา": 2040,
      "ลี้ภัย": 2041,
      "แล้วก็": 2042,
      "เยโรโบอัม": 2043,
      "คบ": 2044,
      "ตรา": 2045,
      "ปีก": 2046,
      "อกล": 2047,
      "ทรงมอบ": 2048,
      "ชาวอียิปต์": 2049,
      "เกียจ": 2050,
      "ญาต": 2051,
      "รุ่งขึ้น": 2052,
      "ภายใต้": 2053,
      "สังหาร": 2054,
      "ลิน": 2055,
      "ูน": 2056,
      "แย": 2057,
      "ราง": 2058,
      "แม่ทัพ": 2059,
      "ชิ้น": 2060,
      "ทุ่งหญ้า": 2061,
      "พาย": 2062,
      "ราน": 2063,
      "ที่ดี": 2064,
      "เชิง": 2065,
      "เว้น": 2066,
      "เทว": 2067,
      "วิง": 2068,
      "อิช": 2069,
      "ค้าง": 2070,
      "ซาร": 2071,
      "พาร": 2072,
      "ิศ": 2073,
      "โชน": 2074,
      "เหว": 2075,
      "ไปยัง": 2076,
      "ภาษา": 2077,
      "มิฉะนั้น": 2078,
      "รถม้าศึก": 2079,
      "อาวุธ": 2080,
      "ล้มลง": 2081,
      "วิงวอน": 2082,
      "คอ": 2083,
      "จ่าย": 2084,
      "ดุ": 2085,
      "ฤดู": 2086,
      "กาด": 2087,
      "ปลาย": 2088,
      "อัคร": 2089,
      "บริพาร": 2090,
      "เคลื่อน": 2091,
      "ขัน": 2092,
      "ฟาด": 2093,
      "สดับ": 2094,
      "ิจ": 2095,
      "ทูลขอ": 2096,
      "ปลด": 2097,
      "สงสาร": 2098,
      "พระราชวัง": 2099,
      "แตะต้อง": 2100,
      "ลินิน": 2101,
      "ตั": 2102,
      "บอด": 2103,
      "ปัส": 2104,
      "ปรัก": 2105,
      "ฝั่ง": 2106,
      "ลิด": 2107,
      "ิสี": 2108,
      "หลัก": 2109,
      "เพื่อให้": 2110,
      "ออกจาก": 2111,
      "เข้าสุหนัต": 2112,
      "เยโฮชาฟัท": 2113,
      "ข้าราชบริพาร": 2114,
      "ฟาริสี": 2115,
      "อัครทูต": 2116,
      "ค้า": 2117,
      "ตัก": 2118,
      "ไน": 2119,
      "ประเทศ": 2120,
      "เทือก": 2121,
      "โดยรอบ": 2122,
      "เงียบ": 2123,
      "แกะผู้": 2124,
      "หนีไป": 2125,
      "ระเบียบ": 2126,
      "ผูก": 2127,
      "มุม": 2128,
      "หาม": 2129,
      "หว่า": 2130,
      "อิน": 2131,
      "ิล": 2132,
      "ประการ": 2133,
      "เพราะว่า": 2134,
      "เกร": 2135,
      "เทิด": 2136,
      "เท็จ": 2137,
      "รุน": 2138,
      "พิณ": 2139,
      "สถานที่": 2140,
      "เนินเขา": 2141,
      "วิถีทาง": 2142,
      "เร็ว": 2143,
      "หว่าน": 2144,
      "ป่วย": 2145,
      "รุก": 2146,
      "วัย": 2147,
      "ห่วง": 2148,
      "เภ": 2149,
      "ความคิด": 2150,
      "ทุกวันนี้": 2151,
      "อย่างที่": 2152,
      "อย่างนั้น": 2153,
      "กระจัด": 2154,
      "กดขี่": 2155,
      "คลัง": 2156,
      "คัม": 2157,
      "ทาย": 2158,
      "ท่วม": 2159,
      "สบ": 2160,
      "ึกษ": 2161,
      "ทรงเลือก": 2162,
      "เยาะ": 2163,
      "วางใจ": 2164,
      "มองดู": 2165,
      "รุ่งเรือง": 2166,
      "พายุ": 2167,
      "เทือกเขา": 2168,
      "กระจัดกระจาย": 2169,
      "ึกษา": 2170,
      "ดาร์": 2171,
      "ต่ำ": 2172,
      "ปลูก": 2173,
      "มั่ง": 2174,
      "ล่อ": 2175,
      "มีเดีย": 2176,
      "ถึงกระนั้น": 2177,
      "คำสอน": 2178,
      "แผล": 2179,
      "สมัย": 2180,
      "อัป": 2181,
      "ลิตร": 2182,
      "ลิ้น": 2183,
      "รุนแรง": 2184,
      "กอก": 2185,
      "จ้าง": 2186,
      "ดอก": 2187,
      "ถอน": 2188,
      "เป่า": 2189,
      "ทรงใช้": 2190,
      "วันรุ่งขึ้น": 2191,
      "ตัวผู้": 2192,
      "รูเบน": 2193,
      "ทรยศ": 2194,
      "ชื่นชมยินดี": 2195,
      "ขวัญ": 2196,
      "ท้าย": 2197,
      "ม่าย": 2198,
      "ย่อย": 2199,
      "อาก": 2200,
      "โหย": 2201,
      "ทรงสัญญา": 2202,
      "เยฮู": 2203,
      "เดือด": 2204,
      "ไรต์": 2205,
      "เครูบ": 2206,
      "ื้อน": 2207,
      "ครั้งหนึ่ง": 2208,
      "ฐานะ": 2209,
      "เผาผลาญ": 2210,
      "ยากจน": 2211,
      "เหยียด": 2212,
      "สวนองุ่น": 2213,
      "แก้แค้น": 2214,
      "เทวรูป": 2215,
      "ย่อยยับ": 2216,
      "12": 2217,
      "ต้าน": 2218,
      "บำ": 2219,
      "ิ่ง": 2220,
      "โฟ": 2221,
      "โอก": 2222,
      "เจ้าหน้าที่": 2223,
      "เอส": 2224,
      "หลั่ง": 2225,
      "คำสั่ง": 2226,
      "เบล": 2227,
      "สะอาด": 2228,
      "เหตุนี้": 2229,
      "ทูน": 2230,
      "สี่สิบ": 2231,
      "โปรดปราน": 2232,
      "บังคับ": 2233,
      "ักษ์": 2234,
      "โธ": 2235,
      "เปี่ยม": 2236,
      "เอเล": 2237,
      "ความสว่าง": 2238,
      "เลว": 2239,
      "เพื่อว่า": 2240,
      "ปลอบ": 2241,
      "ฝูงแกะ": 2242,
      "แบก": 2243,
      "เชื้อสาย": 2244,
      "อาโมไรต์": 2245,
      "อัปยศ": 2246,
      "ฉีก": 2247,
      "ลุ": 2248,
      "เขลา": 2249,
      "ื้อม": 2250,
      "นิ่ง": 2251,
      "มะกอก": 2252,
      "เทิดทูน": 2253,
      "ขโม": 2254,
      "ขวาง": 2255,
      "อ่าน": 2256,
      "เมา": 2257,
      "เติ": 2258,
      "หลอกล": 2259,
      "เดค": 2260,
      "โลหิต": 2261,
      "โยบ": 2262,
      "ปรึกษา": 2263,
      "สิ้นพระชนม์": 2264,
      "โกหก": 2265,
      "รายงาน": 2266,
      "ประมาท": 2267,
      "ทอดพระเนตร": 2268,
      "สิงโต": 2269,
      "ห้วง": 2270,
      "อนุญาต": 2271,
      "ขโมย": 2272,
      "!’": 2273,
      "ขม": 2274,
      "นิตย์": 2275,
      "ฮาด": 2276,
      "หนอ": 2277,
      "ทั้งๆ": 2278,
      "อาเช": 2279,
      "เมื่อนั้น": 2280,
      "เดียวกับ": 2281,
      "แนะ": 2282,
      "กลางคืน": 2283,
      "อุส": 2284,
      "แปลก": 2285,
      "เอเลอา": 2286,
      "ขณ": 2287,
      "ร้า": 2288,
      "ลด": 2289,
      "ลาม": 2290,
      "แอ": 2291,
      "้วย": 2292,
      "สิยาห์": 2293,
      "ตาบอด": 2294,
      "สิ้นชีวิต": 2295,
      "สั่งให้": 2296,
      "เศร้า": 2297,
      "ท้องทุ่ง": 2298,
      "เท่าใด": 2299,
      "โนอาห์": 2300,
      "ปัสกา": 2301,
      "ขณะนั้น": 2302,
      "ขี้": 2303,
      "ถ้วย": 2304,
      "ร็จ": 2305,
      "โป": 2306,
      "่ย": 2307,
      "เสร็จ": 2308,
      "เชบา": 2309,
      "โล่": 2310,
      "พระบาอัล": 2311,
      "เจ็ดวัน": 2312,
      "ถือว่า": 2313,
      "พอใจ": 2314,
      "ี้ยว": 2315,
      "ไขมัน": 2316,
      "เล่นงาน": 2317,
      "ชาการ": 2318,
      "พึ่ง": 2319,
      "ดาเนีย": 2320,
      "เนอร์": 2321,
      "จน์": 2322,
      "บัญชาการ": 2323,
      "หันไป": 2324,
      "ชุมชน": 2325,
      "ร่างกาย": 2326,
      "แซมสัน": 2327,
      "ฮานัน": 2328,
      "กระทั่ง": 2329,
      "ดาเนียล": 2330,
      "นาห์": 2331,
      "ม้วน": 2332,
      "วจ": 2333,
      "ฮี": 2334,
      "ื้น": 2335,
      "เขน": 2336,
      "ตรวจ": 2337,
      "ทำนาย": 2338,
      "อาล": 2339,
      "โยสิยาห์": 2340,
      "ตลอดจน": 2341,
      "แขน": 2342,
      "ปล่อยให้": 2343,
      "เหยียบ": 2344,
      "ชับ": 2345,
      "ชัด": 2346,
      "ชุด": 2347,
      "ซิ": 2348,
      "นอง": 2349,
      "ผืน": 2350,
      "ผิว": 2351,
      "ฝาก": 2352,
      "ยัน": 2353,
      "โช": 2354,
      "ได้ทรง": 2355,
      "เสลาห์": 2356,
      "แห่งนี้": 2357,
      "ตะโกน": 2358,
      "เศษ": 2359,
      "กอบกู้": 2360,
      "กางเขน": 2361,
      "สดับฟัง": 2362,
      "ซ่อม": 2363,
      "ถ่อม": 2364,
      "บาก": 2365,
      "หิว": 2366,
      "ีป": 2367,
      "ี๋ย": 2368,
      "ือร": 2369,
      "ทรงอยู่": 2370,
      "ดาล": 2371,
      "เดี๋ย": 2372,
      "ต่อต้าน": 2373,
      "ประทีป": 2374,
      "ตรงหน้า": 2375,
      "ต่อไปนี้": 2376,
      "หักพัง": 2377,
      "หลอกลวง": 2378,
      "ฮาดัด": 2379,
      "เดี๋ยว": 2380,
      "ตกล": 2381,
      "ถ้วน": 2382,
      "ทลาย": 2383,
      "ธุ": 2384,
      "ปลา": 2385,
      "ผึ้ง": 2386,
      "รอย": 2387,
      "วบ": 2388,
      "ส์": 2389,
      "ระย": 2390,
      "พระที่นั่ง": 2391,
      "เรโห": 2392,
      "โรด": 2393,
      "โมท": 2394,
      "เตลิด": 2395,
      "ปีติ": 2396,
      "บอกว่า": 2397,
      "งานเลี้ยง": 2398,
      "น้องสาว": 2399,
      "สมควร": 2400,
      "ซีโมน": 2401,
      "กลางวัน": 2402,
      "สูงสุด": 2403,
      "เลี้ยงดู": 2404,
      "เสื้อคลุม": 2405,
      "ยากไร้": 2406,
      "ทอดทิ้ง": 2407,
      "ขาว": 2408,
      "ชัยชนะ": 2409,
      "ถอย": 2410,
      "นี": 2411,
      "โบร": 2412,
      "กำจัด": 2413,
      "เคม": 2414,
      "กลับใจ": 2415,
      "เฮโบร": 2416,
      "หลังจากที่": 2417,
      "ต้อนรับ": 2418,
      "เหวี่ยง": 2419,
      "ปรักหักพัง": 2420,
      "เฮโบรน": 2421,
      "งู": 2422,
      "ทั": 2423,
      "ผน": 2424,
      "มง": 2425,
      "หว": 2426,
      "แต่ก็": 2427,
      "เยรี": 2428,
      "นำไป": 2429,
      "ดูหมิ่น": 2430,
      "โทสะ": 2431,
      "โค่น": 2432,
      "ปราศ": 2433,
      "มอบให้": 2434,
      "นั่งอยู่": 2435,
      "ฝังศพ": 2436,
      "พืชผล": 2437,
      "ข้าราชการ": 2438,
      "เอเลอาซาร์": 2439,
      "คู": 2440,
      "คดี": 2441,
      "จุ": 2442,
      "๊ก": 2443,
      "ทรงรัก": 2444,
      "ตัวหนึ่ง": 2445,
      "เครื่องใช้": 2446,
      "เครื่องดื่ม": 2447,
      "ซีดาร์": 2448,
      "โสเภ": 2449,
      "เบธเอล": 2450,
      "ขุนนาง": 2451,
      "ผนัง": 2452,
      "โสเภณี": 2453,
      "คราว": 2454,
      "รำ": 2455,
      "รวย": 2456,
      "หอก": 2457,
      "อาน": 2458,
      "เมน": 2459,
      "เวณ": 2460,
      "หม้อ": 2461,
      "หม่อม": 2462,
      "เพียงแต่": 2463,
      "หุ้ม": 2464,
      "ศาลา": 2465,
      "บริเวณ": 2466,
      "แนะนำ": 2467,
      "ถัด": 2468,
      "สึก": 2469,
      "หัส": 2470,
      "หนาม": 2471,
      "เลบาน": 2472,
      "เดื่อ": 2473,
      "เดคียาห์": 2474,
      "อดสู": 2475,
      "ตั้งไว้": 2476,
      "เค็ญ": 2477,
      "มารีย์": 2478,
      "ภาชนะ": 2479,
      "พร้อมด้วย": 2480,
      "เศเดคียาห์": 2481,
      "ผ้าลินิน": 2482,
      "เลี้ยงแกะ": 2483,
      "ลำเค็ญ": 2484,
      "ท้องฟ้า": 2485,
      "มะเดื่อ": 2486,
      "ทุบ": 2487,
      "หวั่น": 2488,
      "จัน": 2489,
      "ฉา": 2490,
      "ถา": 2491,
      "ทราย": 2492,
      "นวด": 2493,
      "รเสียง": 2494,
      "ีร์": 2495,
      "โคร": 2496,
      "คนอื่น": 2497,
      "คนเดียว": 2498,
      "เกาะ": 2499,
      "สำนึก": 2500,
      "กระสอบ": 2501,
      "เงื้อม": 2502,
      "สุรเสียง": 2503,
      "ผ่านไป": 2504,
      "อุโมง": 2505,
      "ก้อนหิน": 2506,
      "ระยะ": 2507,
      "ปราศจาก": 2508,
      "อุโมงค์": 2509,
      "กุม": 2510,
      "คิม": 2511,
      "ไกร": 2512,
      "มีชีวิต": 2513,
      "แต่ถ้า": 2514,
      "กระหาย": 2515,
      "เถา": 2516,
      "ปรี": 2517,
      "สะท": 2518,
      "ภาระ": 2519,
      "มองเห็น": 2520,
      "ค่ายพัก": 2521,
      "ขายหน้า": 2522,
      "เที่ยงธรรม": 2523,
      "เลบานอน": 2524,
      "กรร": 2525,
      "ชิต": 2526,
      "ทราม": 2527,
      "อ้อน": 2528,
      "มาเถิด": 2529,
      "กลิ่น": 2530,
      "ด้วยเหตุนี้": 2531,
      "พิชิต": 2532,
      "อับราม": 2533,
      "ทุกข์ยาก": 2534,
      "ร่วมชาติ": 2535,
      "คิดถึง": 2536,
      "ลิยาห์": 2537,
      "กฎเกณฑ์": 2538,
      "ริมฝี": 2539,
      "สลาก": 2540,
      "อาบีเมเลค": 2541,
      "รังเกียจ": 2542,
      "หวาดกลัว": 2543,
      "มีเดียน": 2544,
      "ตกลง": 2545,
      "หม่อมฉัน": 2546,
      "ริมฝีปาก": 2547,
      "คั่ง": 2548,
      "ปวด": 2549,
      "สุก": 2550,
      "ิลี": 2551,
      "แสน": 2552,
      "ที่อาศัย": 2553,
      "สิทธิ": 2554,
      "เยี่ยม": 2555,
      "เกียง": 2556,
      "อัช": 2557,
      "ภาษ": 2558,
      "สัตว์ป่า": 2559,
      "ตะเกียง": 2560,
      "กาลิลี": 2561,
      "โต้": 2562,
      "บาลาอัม": 2563,
      "ปีติยินดี": 2564,
      "เงื้อมมือ": 2565,
      "คาย": 2566,
      "บด": 2567,
      "รก": 2568,
      "รเดค": 2569,
      "ล่าง": 2570,
      "วะ": 2571,
      "อานา": 2572,
      "เหี่ยว": 2573,
      "เออร์": 2574,
      "เสวย": 2575,
      "หลู่": 2576,
      "เชเคม": 2577,
      "ลาต": 2578,
      "โมรเดค": 2579,
      "ปกคลุม": 2580,
      "ภูมิ": 2581,
      "สายตา": 2582,
      "ไหว": 2583,
      "ไหว้": 2584,
      "สลัก": 2585,
      "กุฎ": 2586,
      "มงกุฎ": 2587,
      "โมรเดคัย": 2588,
      "ข้": 2589,
      "ซัด": 2590,
      "ทิม": 2591,
      "ธัน": 2592,
      "ธรร": 2593,
      "พัด": 2594,
      "ลวง": 2595,
      "ฮาม": 2596,
      "มาจารย์": 2597,
      "เหมา": 2598,
      "เพศ": 2599,
      "เอียด": 2600,
      "ความฝัน": 2601,
      "เชิด": 2602,
      "กำชับ": 2603,
      "คำพูด": 2604,
      "อย่าทำ": 2605,
      "ละเอียด": 2606,
      "ปีลาต": 2607,
      "มากกว่า": 2608,
      "สะด": 2609,
      "ทรัพย์สิน": 2610,
      "ขัดสน": 2611,
      "ธรรมาจารย์": 2612,
      "ตาน": 2613,
      "ทาน": 2614,
      "ยั": 2615,
      "ย้าย": 2616,
      "ลู": 2617,
      "ล้น": 2618,
      "ลั่น": 2619,
      "ไว": 2620,
      "ราคา": 2621,
      "เจ้าข้า": 2622,
      "ที่จริง": 2623,
      "แกร": 2624,
      "หรอก": 2625,
      "อดทน": 2626,
      "ตั้งใจ": 2627,
      "วาระ": 2628,
      "เงา": 2629,
      "เซีย": 2630,
      "ตกใจ": 2631,
      "ผลิต": 2632,
      "วางแผน": 2633,
      "เฮโรด": 2634,
      "จริงๆ": 2635,
      "ควรจะ": 2636,
      "ถิ่นฐาน": 2637,
      "ทันใด": 2638,
      "อ่อนแอ": 2639,
      "พรมแดน": 2640,
      "แสงสว่าง": 2641,
      "เยาะเย้ย": 2642,
      "อ้อนวอน": 2643,
      "เหมาะ": 2644,
      "ทธ": 2645,
      "พรุ่ง": 2646,
      "ริน": 2647,
      "เอ่ย": 2648,
      "ประหล": 2649,
      "บาอัล": 2650,
      "เดโอน": 2651,
      "เมื่อใด": 2652,
      "พบว่า": 2653,
      "กิเดโอน": 2654,
      "สุดท้าย": 2655,
      "ไม้เท้า": 2656,
      "เธอร์": 2657,
      "ขยี้": 2658,
      "รอคอย": 2659,
      "สะดุด": 2660,
      "แกร่ง": 2661,
      "ประหลาด": 2662,
      "งด": 2663,
      "ตราย": 2664,
      "รื้อ": 2665,
      "ลาก": 2666,
      "ล้อ": 2667,
      "แอก": 2668,
      "ที่สอง": 2669,
      "เขล": 2670,
      "มาอา": 2671,
      "ให้กำเนิด": 2672,
      "ตรึง": 2673,
      "หนทาง": 2674,
      "เลข": 2675,
      "เชเขล": 2676,
      "วิธี": 2677,
      "กล่าวหา": 2678,
      "เหมือนที่": 2679,
      "รู้สึก": 2680,
      "กำลังใจ": 2681,
      "นิ้ว": 2682,
      "ภาค": 2683,
      "แม้ว่า": 2684,
      "ยืนยัน": 2685,
      "อุป": 2686,
      "ยึดครอง": 2687,
      "ครัวเรือน": 2688,
      "โนน": 2689,
      "ศาล": 2690,
      "ลบหลู่": 2691,
      "เยรีโค": 2692,
      "พรุ่งนี้": 2693,
      "กัส": 2694,
      "ซ้าย": 2695,
      "ทธาน": 2696,
      "บัส": 2697,
      "ฤทธาน": 2698,
      "ลอย": 2699,
      "ห่ม": 2700,
      "ที่ประทับ": 2701,
      "อาจารย์": 2702,
      "รับฟัง": 2703,
      "ริ้ว": 2704,
      "ถูกฝัง": 2705,
      "รุ่น": 2706,
      "ตั้งชื่อ": 2707,
      "โลกนี้": 2708,
      "แขวน": 2709,
      "นี่แหละ": 2710,
      "เปล่ง": 2711,
      "แต่งกาย": 2712,
      "มิตร": 2713,
      "เฉล": 2714,
      "เปรียบ": 2715,
      "ไทระ": 2716,
      "ญาติพี่น้อง": 2717,
      "ฤทธานุภาพ": 2718,
      "ชรา": 2719,
      "บาห์": 2720,
      "พุ": 2721,
      "อวด": 2722,
      "กลืน": 2723,
      "สิ่งมีชีวิต": 2724,
      "ลาบัน": 2725,
      "นำตัว": 2726,
      "น้ำผึ้ง": 2727,
      "เบด": 2728,
      "คล้าย": 2729,
      "สัตว์ร้าย": 2730,
      "หยัน": 2731,
      "รายชื่อ": 2732,
      "ล้มตาย": 2733,
      "แค่": 2734,
      "ควบคู่": 2735,
      "อูฐ": 2736,
      "มั่งคั่ง": 2737,
      "เป่าแตร": 2738,
      "อากาศ": 2739,
      "ธุลี": 2740,
      "เรโหโบอัม": 2741,
      "50": 2742,
      "กั้น": 2743,
      "ถ้ำ": 2744,
      "พิส": 2745,
      "มิส": 2746,
      "ยั้ง": 2747,
      "อภ": 2748,
      "ฮิต": 2749,
      "ไต": 2750,
      "ที่ว่า": 2751,
      "ที่พระเจ้า": 2752,
      "เข่น": 2753,
      "ามัส": 2754,
      "เอก": 2755,
      "หลบ": 2756,
      "บาชาน": 2757,
      "เกอร์": 2758,
      "อดอาหาร": 2759,
      "ตอบแทน": 2760,
      "สามสิบ": 2761,
      "สุนั": 2762,
      "เฮม": 2763,
      "ทั่วโลก": 2764,
      "เหยื่อ": 2765,
      "ไทต์": 2766,
      "แผนการ": 2767,
      "เย้ยหยัน": 2768,
      "เชิดชู": 2769,
      "ทันใดนั้น": 2770,
      "ฮิตไทต์": 2771,
      "เข่นฆ่า": 2772,
      "สุนัข": 2773,
      "ซ้ำ": 2774,
      "ด่า": 2775,
      "ดามัส": 2776,
      "ปัก": 2777,
      "ปาห์": 2778,
      "อ่าง": 2779,
      "โบน": 2780,
      "มาร์": 2781,
      "คนอื่นๆ": 2782,
      "เพิ่ง": 2783,
      "เอน": 2784,
      "เอว": 2785,
      "เอโฟ": 2786,
      "น้ำพุ": 2787,
      "ดินแดนนี้": 2788,
      "ทั้งหมดนี้": 2789,
      "หญิงม่าย": 2790,
      "ครั้งที่": 2791,
      "สรรพ": 2792,
      "เศคาร": 2793,
      "มอบหมาย": 2794,
      "ชิเม": 2795,
      "ทดสอบ": 2796,
      "เดี๋ยวนี้": 2797,
      "สะท้าน": 2798,
      "ดามัสกัส": 2799,
      "เศคาริยาห์": 2800,
      "ขบ": 2801,
      "ขว้าง": 2802,
      "จาน": 2803,
      "ดึง": 2804,
      "ดื้อ": 2805,
      "บ่าว": 2806,
      "ปั้น": 2807,
      "ลักษ": 2808,
      "สาน": 2809,
      "หอ": 2810,
      "อัย": 2811,
      "ูจน์": 2812,
      "มาเอล": 2813,
      "ได้เห็น": 2814,
      "หนี้": 2815,
      "เก้า": 2816,
      "ลงใน": 2817,
      "ชีพ": 2818,
      "อับเนอร์": 2819,
      "หญิงสาว": 2820,
      "ทุกข์โศก": 2821,
      "ส่อง": 2822,
      "เพียงใด": 2823,
      "มั่นใจ": 2824,
      "ข้อความ": 2825,
      "จารี": 2826,
      "คีช": 2827,
      "ขวบ": 2828,
      "หลับนอน": 2829,
      "คมดาบ": 2830,
      "ตราบจน": 2831,
      "พิสูจน์": 2832,
      "10": 2833,
      "ชาม": 2834,
      "ถอด": 2835,
      "บิน": 2836,
      "ลือ": 2837,
      "โคน": 2838,
      "โอบ": 2839,
      "ราด": 2840,
      "เขามา": 2841,
      "ผู้นำ": 2842,
      "ทรงรับ": 2843,
      "เอ็น": 2844,
      "ก็ตาม": 2845,
      "บาล": 2846,
      "เผื่อ": 2847,
      "โยอาช": 2848,
      "เหน็จ": 2849,
      "นิท": 2850,
      "คลน": 2851,
      "หัวเมือง": 2852,
      "แนว": 2853,
      "กราบไหว้": 2854,
      "พากัน": 2855,
      "ฝีมือ": 2856,
      "สูญสิ้น": 2857,
      "มุข": 2858,
      "บำเหน็จ": 2859,
      "ขัง": 2860,
      "จวบ": 2861,
      "ชี้": 2862,
      "ซิยาห์": 2863,
      "ติส": 2864,
      "ฟื้น": 2865,
      "ภีร์": 2866,
      "รติส": 2867,
      "ิ้ง": 2868,
      "ที่มี": 2869,
      "องค์ผู้": 2870,
      "เมโอน": 2871,
      "เชือก": 2872,
      "เริง": 2873,
      "ทางเหนือ": 2874,
      "โดยทาง": 2875,
      "เอาชีวิต": 2876,
      "จำเป็น": 2877,
      "สั่งว่า": 2878,
      "แข็งแกร่ง": 2879,
      "เลือกสรร": 2880,
      "เกรงกลัว": 2881,
      "เฟรติส": 2882,
      "ยิ่งกว่านั้น": 2883,
      "เปิดเผย": 2884,
      "ยูเฟรติส": 2885,
      "เจ็บปวด": 2886,
      "เยโฮยาดา": 2887,
      "ทารก": 2888,
      "อิชมาเอล": 2889,
      "คัมภีร์": 2890,
      "เดือดร้อน": 2891,
      "สรรพสิ่ง": 2892,
      "จวบจน": 2893,
      "ค้ำ": 2894,
      "ฝุ่น": 2895,
      "ฟืน": 2896,
      "มัก": 2897,
      "ม่วง": 2898,
      "รียาห์": 2899,
      "สภาพ": 2900,
      "แหน": 2901,
      "ที่ราบ": 2902,
      "ประเว": 2903,
      "ประดับ": 2904,
      "ความหมาย": 2905,
      "อาเมน": 2906,
      "เริศ": 2907,
      "เก่า": 2908,
      "อิสยาห์": 2909,
      "โลท": 2910,
      "หมจารี": 2911,
      "สิ่งนี้": 2912,
      "นำหน้า": 2913,
      "จนกระทั่ง": 2914,
      "โดน": 2915,
      "อันตราย": 2916,
      "พร่": 2917,
      "พรหมจารี": 2918,
      "เรื่องราว": 2919,
      "แพ้": 2920,
      "ฮาท": 2921,
      "ภายหลัง": 2922,
      "เขียนไว้": 2923,
      "ล่วงลับ": 2924,
      "โง่เขลา": 2925,
      "ปลดปล่อย": 2926,
      "เถาองุ่น": 2927,
      "ประเวณี": 2928,
      "เริศร้าง": 2929,
      "ซบ": 2930,
      "ดอน": 2931,
      "ทอ": 2932,
      "ผย": 2933,
      "พ่าย": 2934,
      "วร": 2935,
      "ผู้ช่วย": 2936,
      "ไม่ถูก": 2937,
      "ไม่รู้จัก": 2938,
      "เอเซอร์": 2939,
      "แตน": 2940,
      "การชำระ": 2941,
      "เรื่อย": 2942,
      "ซาตาน": 2943,
      "สามวัน": 2944,
      "เสริม": 2945,
      "ข้าวของ": 2946,
      "ล่วงหน้า": 2947,
      "อีร์": 2948,
      "นัฟ": 2949,
      "เรียนรู้": 2950,
      "ตั๊ก": 2951,
      "ผยอง": 2952,
      "ตั๊กแตน": 2953,
      "ขุด": 2954,
      "บูล": 2955,
      "ย่าง": 2956,
      "ระบาด": 2957,
      "ระบาย": 2958,
      "แลก": 2959,
      "ที่เป็น": 2960,
      "ทำชั่ว": 2961,
      "หล่อ": 2962,
      "ทุกแห่ง": 2963,
      "โดก": 2964,
      "กล่าวโทษ": 2965,
      "นาดับ": 2966,
      "หาญ": 2967,
      "พูดกัน": 2968,
      "แทบ": 2969,
      "เรียกว่า": 2970,
      "ฐานราก": 2971,
      "เสียงดัง": 2972,
      "หันเห": 2973,
      "ทีเดียว": 2974,
      "ข้างหน้า": 2975,
      "ดวงดาว": 2976,
      "ฮามาน": 2977,
      "ศาโดก": 2978,
      "สืบไป": 2979,
      "ควบคุม": 2980,
      "ก้าว": 2981,
      "คด": 2982,
      "คะ": 2983,
      "ชด": 2984,
      "ซุ่ม": 2985,
      "ทม": 2986,
      "ทวี": 2987,
      "ยาน": 2988,
      "พระคัมภีร์": 2989,
      "สาส์": 2990,
      "โดด": 2991,
      "รุด": 2992,
      "ลูกวัว": 2993,
      "นาธัน": 2994,
      "น้ำเงิน": 2995,
      "เตียง": 2996,
      "พิษ": 2997,
      "โลกรัม": 2998,
      "กิโลกรัม": 2999,
      "ทาลี": 3000,
      "เนื้อดี": 3001,
      "ทุ่งนา": 3002,
      "ไร้ค่า": 3003,
      "ฉลองพระองค์": 3004,
      "เส้นทาง": 3005,
      "กิเบโอน": 3006,
      "ล่อลวง": 3007,
      "เหยียบย่ำ": 3008,
      "ซ่อมแซม": 3009,
      "ประหลาดใจ": 3010,
      "นัฟทาลี": 3011,
      "สาส์น": 3012,
      "ถาน": 3013,
      "ฝา": 3014,
      "หยาม": 3015,
      "ผู้รับใช้": 3016,
      "ทรงวาง": 3017,
      "เพล": 3018,
      "กลา": 3019,
      "สิเมโอน": 3020,
      "ิสถาน": 3021,
      "ไว้ทุกข์": 3022,
      "เนียม": 3023,
      "เทียบ": 3024,
      "กระถ": 3025,
      "ใคร่": 3026,
      "ราชวงศ์": 3027,
      "ธรรมเนียม": 3028,
      "ิสุทธ": 3029,
      "สะสม": 3030,
      "อัญ": 3031,
      "สุดใจ": 3032,
      "ไม้สน": 3033,
      "ตลอดกาล": 3034,
      "เฮอร์": 3035,
      "เศรุ": 3036,
      "ติดกับ": 3037,
      "ยุค": 3038,
      "จารึก": 3039,
      "สีน้ำเงิน": 3040,
      "สัตย์ซื่อ": 3041,
      "ชั้นใน": 3042,
      "เปรม": 3043,
      "เมล็ดข้าว": 3044,
      "อาหัสยาห์": 3045,
      "เติบ": 3046,
      "ยั่วย": 3047,
      "อุปมา": 3048,
      "ิสุทธิสถาน": 3049,
      "จอง": 3050,
      "ด้าย": 3051,
      "รน": 3052,
      "ษฎ": 3053,
      "อธรรม": 3054,
      "พระพร": 3055,
      "ราวกับ": 3056,
      "ที่อยู่": 3057,
      "เข่า": 3058,
      "ให้ท่าน": 3059,
      "คนนั้น": 3060,
      "ทรงรักษา": 3061,
      "ทำร้าย": 3062,
      "อาซาร": 3063,
      "้อวด": 3064,
      "เดช": 3065,
      "อดี": 3066,
      "เผชิ": 3067,
      "หลายคน": 3068,
      "ลูกเอ๋ย": 3069,
      "ียงไกร": 3070,
      "เรียบร": 3071,
      "โอ้อวด": 3072,
      "รวด": 3073,
      "ยืนหย": 3074,
      "เปลือ": 3075,
      "จับกุม": 3076,
      "ลำบาก": 3077,
      "อามาเลข": 3078,
      "เกรียงไกร": 3079,
      "ปรีดิ์": 3080,
      "เปรมปรีดิ์": 3081,
      "เผชิญ": 3082,
      "เรียบร้อย": 3083,
      "ยืนหยัด": 3084,
      "กริ้ว": 3085,
      "ขื่น": 3086,
      "ค้น": 3087,
      "จอม": 3088,
      "ฉบ": 3089,
      "ดม": 3090,
      "พุ่ง": 3091,
      "สื่อ": 3092,
      "สลาย": 3093,
      "ไส": 3094,
      "เจ้าของ": 3095,
      "องค์หนึ่ง": 3096,
      "เมช": 3097,
      "ความดี": 3098,
      "เลเฮม": 3099,
      "ทุกวัน": 3100,
      "เพื่อท่าน": 3101,
      "ถึงเวลา": 3102,
      "เตา": 3103,
      "พิจาร": 3104,
      "ละอาย": 3105,
      "รอดชีวิต": 3106,
      "นอกเหนือ": 3107,
      "แช่งด่า": 3108,
      "อามาซิยาห์": 3109,
      "กิเบอาห์": 3110,
      "ตักเตือน": 3111,
      "เอสเธอร์": 3112,
      "ขมขื่น": 3113,
      "ยั่วยุ": 3114,
      "อาซาริยาห์": 3115,
      "พิจารณา": 3116,
      "ขจัด": 3117,
      "คาร์": 3118,
      "ตราก": 3119,
      "บ่น": 3120,
      "บาร์": 3121,
      "มห": 3122,
      "มิด": 3123,
      "ยิส": 3124,
      "สซี": 3125,
      "เจสซี": 3126,
      "ที่สาม": 3127,
      "ที่เจ็ด": 3128,
      "ตรำ": 3129,
      "ียร": 3130,
      "ไปเถิด": 3131,
      "หนำ": 3132,
      "ควัน": 3133,
      "เกต": 3134,
      "วันหนึ่ง": 3135,
      "หมื่น": 3136,
      "ออกรบ": 3137,
      "ลงมือ": 3138,
      "คำปฏิญาณ": 3139,
      "ตั้งอยู่": 3140,
      "หมดสิ้น": 3141,
      "ส่วนหนึ่ง": 3142,
      "ขณะนี้": 3143,
      "ทุกข์ร้อน": 3144,
      "เศบูล": 3145,
      "โซ่": 3146,
      "แข็งแรง": 3147,
      "เบธเลเฮม": 3148,
      "เล็กน้อย": 3149,
      "สังเกต": 3150,
      "หยิบมือ": 3151,
      "ไซดอน": 3152,
      "อุสซ": 3153,
      "คูช": 3154,
      "ลั่นวาจา": 3155,
      "งดงาม": 3156,
      "ขบวน": 3157,
      "เติบโต": 3158,
      "สื่อสาร": 3159,
      "ตรากตรำ": 3160,
      "เศบูลุน": 3161,
      "กี่": 3162,
      "คณะ": 3163,
      "ชั่ง": 3164,
      "ท้อ": 3165,
      "นุ่ง": 3166,
      "ฟ้อง": 3167,
      "มัว": 3168,
      "ลาการ": 3169,
      "ที่เรา": 3170,
      "ที่มั่น": 3171,
      "ับสน": 3172,
      "เรเอล": 3173,
      "อนิจ": 3174,
      "เทียม": 3175,
      "คำแนะนำ": 3176,
      "คำอุปมา": 3177,
      "ชายฝั่ง": 3178,
      "ตั้งครรภ์": 3179,
      "กิล": 3180,
      "ตุลาการ": 3181,
      "อื่นใด": 3182,
      "โคฮาท": 3183,
      "ปกติ": 3184,
      "หายใจ": 3185,
      "พักอยู่": 3186,
      "ใกล้ๆ": 3187,
      "โหด": 3188,
      "เล็กๆ": 3189,
      "ล้ำค่า": 3190,
      "รุกไล่": 3191,
      "อาลัย": 3192,
      "เอโฟด": 3193,
      "ชดใช้": 3194,
      "ยิสเรเอล": 3195,
      "จัง": 3196,
      "ผา": 3197,
      "พึง": 3198,
      "มัท": 3199,
      "รื่น": 3200,
      "หวน": 3201,
      "าส": 3202,
      "ื้อย": 3203,
      "ราเชล": 3204,
      "ที่หนึ่ง": 3205,
      "ทรงสอน": 3206,
      "เมรา": 3207,
      "เมีย": 3208,
      "ประพรม": 3209,
      "ประกอบ": 3210,
      "ดาส": 3211,
      "ตัวเขา": 3212,
      "ถูกทิ้ง": 3213,
      "ช่วยกู้": 3214,
      "ซีส": 3215,
      "โสโดม": 3216,
      "แพะผู้": 3217,
      "ตำแหน": 3218,
      "ยูเดีย": 3219,
      "แถว": 3220,
      "บารมี": 3221,
      "ห่างไกล": 3222,
      "พรรค": 3223,
      "ภาษี": 3224,
      "ชิเมอี": 3225,
      "ตำแหน่ง": 3226,
      "ก้อง": 3227,
      "ขาน": 3228,
      "ชู้": 3229,
      "ช่อง": 3230,
      "นานา": 3231,
      "ร่ม": 3232,
      "วุ่น": 3233,
      "ศรี": 3234,
      "เปอร์": 3235,
      "เปื้อน": 3236,
      "เราได้": 3237,
      "หน่ำ": 3238,
      "ความโกรธ": 3239,
      "เลื้อย": 3240,
      "บัท": 3241,
      "สิ่งต่างๆ": 3242,
      "อย่างยิ่ง": 3243,
      "คำตอบ": 3244,
      "รุง": 3245,
      "กล่าวว่า": 3246,
      "กระหน่ำ": 3247,
      "แผ่": 3248,
      "ใหญ่หลวง": 3249,
      "ดำริ": 3250,
      "ยืนขึ้น": 3251,
      "ตระหนัก": 3252,
      "เปลว": 3253,
      "สนอง": 3254,
      "โบอา": 3255,
      "อิจ": 3256,
      "ล้วนเป็น": 3257,
      "ศักดิ์ศรี": 3258,
      "กล้าหาญ": 3259,
      "ยูดาส": 3260,
      "เกินกว่า": 3261,
      "เบื้องบน": 3262,
      "บ่อน้ำ": 3263,
      "ชักนำ": 3264,
      "ค่ำคืน": 3265,
      "สยอง": 3266,
      "กวาดต้อน": 3267,
      "ครึ่งหนึ่ง": 3268,
      "แย้ง": 3269,
      "หอคอย": 3270,
      "ใคร่ครวญ": 3271,
      "เปลือย": 3272,
      "นุ่งห่ม": 3273,
      "ฆา": 3274,
      "ซัก": 3275,
      "ดาห์": 3276,
      "ทัก": 3277,
      "ธาห์": 3278,
      "นัล": 3279,
      "พิง": 3280,
      "วิน": 3281,
      "อัด": 3282,
      "เขาว่า": 3283,
      "ท่านได้": 3284,
      "กลบ": 3285,
      "กับดัก": 3286,
      "ิสัย": 3287,
      "เดชาน": 3288,
      "ถูกฆ่า": 3289,
      "สาลี": 3290,
      "กำพร": 3291,
      "กำนัล": 3292,
      "เห็นชอบ": 3293,
      "ชายหนุ่ม": 3294,
      "ต่างหาก": 3295,
      "เบไน": 3296,
      "คลี่": 3297,
      "หญิงนั้น": 3298,
      "ห้าสิบ": 3299,
      "เต็มที่": 3300,
      "ฟีลิป": 3301,
      "ตอนนี้": 3302,
      "สงบสุข": 3303,
      "เซอร์ซีส": 3304,
      "กวาดล้าง": 3305,
      "พรรษา": 3306,
      "โอกาส": 3307,
      "ปลอบโยน": 3308,
      "อาเชอร์": 3309,
      "เดชานุภาพ": 3310,
      "กำพร้า": 3311,
      "เบไนยาห์": 3312,
      "กัท": 3313,
      "ดสยอง": 3314,
      "ถุง": 3315,
      "ปู": 3316,
      "พ้อง": 3317,
      "ภ้": 3318,
      "สอด": 3319,
      "เซา": 3320,
      "ใภ้": 3321,
      "้าม": 3322,
      "ระบุ": 3323,
      "ระดม": 3324,
      "เราะ": 3325,
      "แต่น": 3326,
      "เลบ": 3327,
      "เลื่อง": 3328,
      "เลิศ": 3329,
      "เยบุ": 3330,
      "สิ่งดี": 3331,
      "ริยา": 3332,
      "สาคาร์": 3333,
      "คำบัญชา": 3334,
      "ราชบัลลังก์": 3335,
      "มายุ": 3336,
      "สะใภ้": 3337,
      "ผลิ": 3338,
      "ครั้งนี้": 3339,
      "บทเพลง": 3340,
      "เรียกร้อง": 3341,
      "หายไป": 3342,
      "หยั่ง": 3343,
      "บันดาล": 3344,
      "พระชนมายุ": 3345,
      "คีริยา": 3346,
      "ร่ำรวย": 3347,
      "อยากให้": 3348,
      "ขยาย": 3349,
      "สยดสยอง": 3350,
      "ห้วงน้ำ": 3351,
      "ผิวหนัง": 3352,
      "หิวโหย": 3353,
      "มิสปาห์": 3354,
      "เอ็นดู": 3355,
      "วุ่นวาย": 3356,
      "เปลวไฟ": 3357,
      "เยบุส": 3358,
      "20": 3359,
      "จูง": 3360,
      "รวง": 3361,
      "ศร": 3362,
      "ฮีบ": 3363,
      "โจร": 3364,
      "ที่พัก": 3365,
      "เขย": 3366,
      "เอ็ด": 3367,
      "เลง": 3368,
      "เสบ": 3369,
      "เชี่ยว": 3370,
      "เอลียา": 3371,
      "ต่อเรา": 3372,
      "ดังที่": 3373,
      "น้ำตา": 3374,
      "พิราบ": 3375,
      "ปลอม": 3376,
      "เงย": 3377,
      "คลาน": 3378,
      "เกิดผล": 3379,
      "ก่อนหน้า": 3380,
      "จัดเตรียม": 3381,
      "ตรงข้าม": 3382,
      "อุทิศ": 3383,
      "ห้าตัว": 3384,
      "คาบ": 3385,
      "คาเลบ": 3386,
      "ยากอบ": 3387,
      "ล่ะ": 3388,
      "บริบูรณ์": 3389,
      "บาดเจ็บ": 3390,
      "จุดจบ": 3391,
      "หวาดหวั่น": 3392,
      "คุมตัว": 3393,
      "ครบถ้วน": 3394,
      "หยิ่งผยอง": 3395,
      "ฟาดฟัน": 3396,
      "ลักษณะ": 3397,
      "อดีต": 3398,
      "อิจฉา": 3399,
      "ฮีบรู": 3400,
      "ขืน": 3401,
      "คิว": 3402,
      "ชะ": 3403,
      "ทร์": 3404,
      "ฝ่": 3405,
      "สนิท": 3406,
      "ใฝ่": 3407,
      "ที่ใช้": 3408,
      "และพวก": 3409,
      "ทำหน้าที่": 3410,
      "เสาะ": 3411,
      "การอภัย": 3412,
      "ทุกๆ": 3413,
      "อิสสาคาร์": 3414,
      "โรท": 3415,
      "เถ้า": 3416,
      "ยิง": 3417,
      "ราชอาณาจักร": 3418,
      "สง่า": 3419,
      "สิ้นสุด": 3420,
      "หมายความ": 3421,
      "ร่วมกัน": 3422,
      "บิท": 3423,
      "วงศ์ตระกูล": 3424,
      "หันหน้า": 3425,
      "แรม": 3426,
      "คีน": 3427,
      "เฉา": 3428,
      "เคล้า": 3429,
      "รังแก": 3430,
      "หมิ่นประมาท": 3431,
      "ทัณฑ์": 3432,
      "จันทร์": 3433,
      "ฉบับ": 3434,
      "25": 3435,
      "ทนา": 3436,
      "ธาม": 3437,
      "บ่า": 3438,
      "บิด": 3439,
      "ร่วง": 3440,
      "โพ": 3441,
      "พระสัญญา": 3442,
      "เจ้าคน": 3443,
      "ที่ติ": 3444,
      "ไม่ควร": 3445,
      "หน่อย": 3446,
      "เมอร์": 3447,
      "ชาญ": 3448,
      "เชท": 3449,
      "เกบ": 3450,
      "โลห์": 3451,
      "อย่างดี": 3452,
      "ขอโปรด": 3453,
      "คำราม": 3454,
      "ซาราห์": 3455,
      "เคียง": 3456,
      "อันที่จริง": 3457,
      "เบเออร์": 3458,
      "ชั่วช้า": 3459,
      "ร้องเรียก": 3460,
      "บ้านเรือน": 3461,
      "ตะล": 3462,
      "เหลืออยู่": 3463,
      "พาะ": 3464,
      "นับถือ": 3465,
      "ลำพัง": 3466,
      "จดจำ": 3467,
      "ทนทุกข์": 3468,
      "เฉพาะ": 3469,
      "พืชพันธุ์": 3470,
      "บาลาค": 3471,
      "คบคิด": 3472,
      "ถ่อมใจ": 3473,
      "คิวบิท": 3474,
      "ข้อง": 3475,
      "ดาย": 3476,
      "ทัส": 3477,
      "ป่าว": 3478,
      "พำ": 3479,
      "ร้าว": 3480,
      "ษ์": 3481,
      "ัคร": 3482,
      "แล่น": 3483,
      "เจต": 3484,
      "เขียว": 3485,
      "ไมอาห์": 3486,
      "ทรงเจิม": 3487,
      "ไม่ทำ": 3488,
      "ไม่เชื่อ": 3489,
      "เอียง": 3490,
      "เชไมอาห์": 3491,
      "เยฟ": 3492,
      "หมอง": 3493,
      "เนเกบ": 3494,
      "อนา": 3495,
      "ีกา": 3496,
      "กระต": 3497,
      "ยิ่งขึ้น": 3498,
      "สมัคร": 3499,
      "เหล่าศัตรู": 3500,
      "ตกอยู่": 3501,
      "หัวใจ": 3502,
      "หัวเราะ": 3503,
      "นักโทษ": 3504,
      "ซีนาย": 3505,
      "เจ็ดสิบ": 3506,
      "อัมมี": 3507,
      "ดวงจันทร์": 3508,
      "ลำดับ": 3509,
      "สีแดง": 3510,
      "เกลือ": 3511,
      "รถรบ": 3512,
      "ศาส": 3513,
      "ช่างฝีมือ": 3514,
      "ยอดเขา": 3515,
      "สั่นสะท้าน": 3516,
      "ทับทิม": 3517,
      "เยโฮยาคิม": 3518,
      "เหยียดหยาม": 3519,
      "อาเชราห์": 3520,
      "ซบหน้า": 3521,
      "กิลกาล": 3522,
      "เลื่องลือ": 3523,
      "เสบียง": 3524,
      "กฤ": 3525,
      "กวน": 3526,
      "คต": 3527,
      "จูบ": 3528,
      "ดน": 3529,
      "ตัน": 3530,
      "พลัง": 3531,
      "พราก": 3532,
      "มเห": 3533,
      "รด": 3534,
      "สกัด": 3535,
      "ุณ": 3536,
      "เจ้าแม่": 3537,
      "ที่ตั้ง": 3538,
      "ให้เกียรติ": 3539,
      "ทรงฟัง": 3540,
      "ไม่รู้ว่า": 3541,
      "ประจัก": 3542,
      "เสอีร์": 3543,
      "ไว้ชีวิต": 3544,
      "ตามทาง": 3545,
      "แก่ท่าน": 3546,
      "ทางใต้": 3547,
      "บรรเลง": 3548,
      "กระแส": 3549,
      "ไม่มีวัน": 3550,
      "กลับสู่": 3551,
      "ดูว่า": 3552,
      "เบอร์": 3553,
      "เบือน": 3554,
      "พระเยซูเจ้า": 3555,
      "เช่นเดียวกัน": 3556,
      "เช่นเดียวกับ": 3557,
      "ยกทัพ": 3558,
      "ิปักษ์": 3559,
      "ปฏิปักษ์": 3560,
      "ตกต่ำ": 3561,
      "เฮช": 3562,
      "คงอยู่": 3563,
      "คุกเข่า": 3564,
      "ทารุณ": 3565,
      "เว้นแต่": 3566,
      "ดุจ": 3567,
      "สบประมาท": 3568,
      "อนุญาตให้": 3569,
      "ฮามัท": 3570,
      "เมรารี": 3571,
      "พรรคพวก": 3572,
      "เซาโล": 3573,
      "อนาคต": 3574,
      "ดนตรี": 3575,
      "มเหสี": 3576,
      "ประจักษ์": 3577,
      "ธาร์": 3578,
      "ผาก": 3579,
      "มัล": 3580,
      "ยืม": 3581,
      "ร่อน": 3582,
      "สตรี": 3583,
      "หวง": 3584,
      "ุล": 3585,
      "พระประสงค์": 3586,
      "แลบ": 3587,
      "วกราด": 3588,
      "ได้ชื่อ": 3589,
      "ไม่ช้า": 3590,
      "พวกท่าน": 3591,
      "เพช": 3592,
      "คร้าม": 3593,
      "มีใจ": 3594,
      "ทั้งนี้": 3595,
      "ราะห์": 3596,
      "บาอา": 3597,
      "เดน": 3598,
      "ตามแต่": 3599,
      "ริยาห์": 3600,
      "อย่างหนัก": 3601,
      "สาหัส": 3602,
      "คำนับ": 3603,
      "สำรว": 3604,
      "นาบัส": 3605,
      "ไม่ได้รับ": 3606,
      "เคราะห์": 3607,
      "เชื่อถือ": 3608,
      "สิบสี่": 3609,
      "ตกอยู่ใน": 3610,
      "พลอย": 3611,
      "พลเมือง": 3612,
      "เหตุฉะนั้น": 3613,
      "สาวใช้": 3614,
      "คุ้ม": 3615,
      "ทะเลทราย": 3616,
      "อุรียาห์": 3617,
      "เยโฮรัม": 3618,
      "ทิศเหนือ": 3619,
      "ี้ยวกราด": 3620,
      "ยังคงอยู่": 3621,
      "บารนาบัส": 3622,
      "กระด้าง": 3623,
      "สูญเสีย": 3624,
      "ทดลอง": 3625,
      "เกรี้ยวกราด": 3626,
      "เลวร้าย": 3627,
      "ือร้น": 3628,
      "ือรือร้น": 3629,
      "ถาวร": 3630,
      "บดขยี้": 3631,
      "เหี่ยวเฉา": 3632,
      "เพลิง": 3633,
      "เจตนา": 3634,
      "กระตือรือร้น": 3635,
      "เฮชโบน": 3636,
      "สำรวจ": 3637,
      "30": 3638,
      "จ้า": 3639,
      "ณหา": 3640,
      "ทผล": 3641,
      "ทุ่ม": 3642,
      "ปูน": 3643,
      "ผสม": 3644,
      "พุ่ม": 3645,
      "มัส": 3646,
      "ยชาติ": 3647,
      "รม": 3648,
      "ล้า": 3649,
      "ลัก": 3650,
      "ล่ม": 3651,
      "สบาย": 3652,
      "เคน": 3653,
      "แคลน": 3654,
      "โหน": 3655,
      "ใส": 3656,
      "พระเม": 3657,
      "แล้ง": 3658,
      "เป้า": 3659,
      "มีคา": 3660,
      "การถวาย": 3661,
      "ถูกนำ": 3662,
      "ถูกตัด": 3663,
      "บน้ำ": 3664,
      "ลูกศร": 3665,
      "กลับกลาย": 3666,
      "พิเศษ": 3667,
      "ปลุก": 3668,
      "ที่นอน": 3669,
      "สิบเอ็ด": 3670,
      "มนุษยชาติ": 3671,
      "หมายถึง": 3672,
      "วางไว้": 3673,
      "แขก": 3674,
      "เสียใจ": 3675,
      "ทรวง": 3676,
      "คุย": 3677,
      "หันกลับมา": 3678,
      "โยนาห์": 3679,
      "ชิโลห์": 3680,
      "เท่ากับ": 3681,
      "จุดไฟ": 3682,
      "ตัณหา": 3683,
      "อินทผล": 3684,
      "ข้อบ": 3685,
      "พ่ายแพ้": 3686,
      "พูดกันว่า": 3687,
      "อุสซียาห์": 3688,
      "เปอร์เซีย": 3689,
      "โบอาส": 3690,
      "คีริยาท": 3691,
      "อินทผลัม": 3692,
      "ก้าน": 3693,
      "ฉัย": 3694,
      "ชิด": 3695,
      "ฐ์": 3696,
      "ปัน": 3697,
      "พะ": 3698,
      "ภรณ์": 3699,
      "ยโส": 3700,
      "รีย": 3701,
      "ษฐ์": 3702,
      "อวัย": 3703,
      "รามาห์": 3704,
      "ที่สี่": 3705,
      "ทรงอภัย": 3706,
      "เห็บ": 3707,
      "ท่านเอง": 3708,
      "มีคาห์": 3709,
      "ทั้งคู่": 3710,
      "เลย์": 3711,
      "สิโหน": 3712,
      "เรื้อน": 3713,
      "ด้วยเถิด": 3714,
      "วงล้อ": 3715,
      "ถึงกับ": 3716,
      "เข้าใส่": 3717,
      "ตัวเจ้า": 3718,
      "สาสม": 3719,
      "ลูกเห็บ": 3720,
      "เตียน": 3721,
      "ส่วนแบ่ง": 3722,
      "สิบลด": 3723,
      "นายทหาร": 3724,
      "นักร้อง": 3725,
      "ชื่อเสียง": 3726,
      "เดินไป": 3727,
      "ชูอา": 3728,
      "ปฏิบัติต่อ": 3729,
      "รอบๆ": 3730,
      "หลังจากนั้น": 3731,
      "ดวงตา": 3732,
      "ข้อนี้": 3733,
      "ข้อปฏิบัติ": 3734,
      "เต็มใจ": 3735,
      "เบนฮาดัด": 3736,
      "แจก": 3737,
      "ลมหายใจ": 3738,
      "สัมพันธ": 3739,
      "โรคระบาด": 3740,
      "ชั้นนอก": 3741,
      "ทิศใต้": 3742,
      "สิงห์": 3743,
      "อิ่มหนำ": 3744,
      "ถึงแม้ว่า": 3745,
      "ิจฉัย": 3746,
      "นำไปสู่": 3747,
      "เหมาะสม": 3748,
      "เกอร์โชน": 3749,
      "บาร์เลย์": 3750,
      "วินิจฉัย": 3751,
      "เงยหน้า": 3752,
      "อวัยวะ": 3753,
      "100": 3754,
      "กัง": 3755,
      "ถ่าน": 3756,
      "บี": 3757,
      "ปะ": 3758,
      "ปลง": 3759,
      "พี": 3760,
      "พลาด": 3761,
      "ฟู": 3762,
      "มณฑ": 3763,
      "ลธรรม": 3764,
      "วิสัย": 3765,
      "ษโป": 3766,
      "สั้น": 3767,
      "ฮูด": 3768,
      "ัญญา": 3769,
      "โบท": 3770,
      "เจิด": 3771,
      "่อ่า": 3772,
      "ผู้เดียว": 3773,
      "ไม่ขาด": 3774,
      "ประสบ": 3775,
      "ทำตาม": 3776,
      "เลอาห์": 3777,
      "อาภรณ์": 3778,
      "เสน": 3779,
      "หลอม": 3780,
      "เรเบ": 3781,
      "อิสระ": 3782,
      "ต่อตา": 3783,
      "ถึงตาย": 3784,
      "โลภ": 3785,
      "สิ่งใดๆ": 3786,
      "หน้าต่าง": 3787,
      "ตัวสั่น": 3788,
      "เทพ": 3789,
      "บรรจุ": 3790,
      "เถิดว่า": 3791,
      "ร้องว่า": 3792,
      "โอษฐ์": 3793,
      "โอ่อ่า": 3794,
      "โคราห์": 3795,
      "ตรงกับ": 3796,
      "หันมา": 3797,
      "อาบียาห์": 3798,
      "ไหนล่ะ": 3799,
      "โบเชท": 3800,
      "รุ่งเช้า": 3801,
      "ข้าวสาลี": 3802,
      "ลุกโชน": 3803,
      "ค่าจ้าง": 3804,
      "ศีลธรรม": 3805,
      "เด็กนั้น": 3806,
      "แหล่ง": 3807,
      "ธัญบูชา": 3808,
      "คลอดบุตร": 3809,
      "ครึ่งเผ่า": 3810,
      "เสร็จแล้ว": 3811,
      "มาอาคาห์": 3812,
      "รวดเร็ว": 3813,
      "อนิจจัง": 3814,
      "รื่นเริง": 3815,
      "พำนัก": 3816,
      "สมัครใจ": 3817,
      "พระเมษโป": 3818,
      "มณฑล": 3819,
      "เรเบคาห์": 3820,
      "พระเมษโปดก": 3821,
      "ขู่": 3822,
      "ชุ่ม": 3823,
      "ญ์": 3824,
      "ทบ": 3825,
      "ธง": 3826,
      "ปริ": 3827,
      "ปราช": 3828,
      "ปราบ": 3829,
      "ผง": 3830,
      "ัช": 3831,
      "แพร่": 3832,
      "่ห์": 3833,
      "ราศี": 3834,
      "ราโมท": 3835,
      "เจน": 3836,
      "ที่ปรึกษา": 3837,
      "ได้ฟัง": 3838,
      "ไม่ตาย": 3839,
      "ินี": 3840,
      "มีค่า": 3841,
      "อาบน้ำ": 3842,
      "สัย": 3843,
      "ชาติต่างๆ": 3844,
      "แทง": 3845,
      "พี่สาว": 3846,
      "คลื่น": 3847,
      "นายกอง": 3848,
      "ฆ่าฟัน": 3849,
      "โกง": 3850,
      "ทามาร์": 3851,
      "อัมโนน": 3852,
      "รอดพ้น": 3853,
      "สนทนา": 3854,
      "เก็บไว้": 3855,
      "เฝ้าดู": 3856,
      "คีร์": 3857,
      "โรคเรื้อน": 3858,
      "หยุดพัก": 3859,
      "แท้จริง": 3860,
      "ล้ำลึก": 3861,
      "โศกเศร้า": 3862,
      "เติม": 3863,
      "อภิสุทธิสถาน": 3864,
      "ไต่": 3865,
      "เสาะหา": 3866,
      "เบเออร์เชบา": 3867,
      "ปราชญ์": 3868,
      "22": 3869,
      "กรี": 3870,
      "จู่": 3871,
      "ฝึก": 3872,
      "วัล": 3873,
      "ษาการ": 3874,
      "สอย": 3875,
      "สภา": 3876,
      "สารพ": 3877,
      "อรุ": 3878,
      "ฮิล": 3879,
      "าท": 3880,
      "ที่ลี้ภัย": 3881,
      "และจะ": 3882,
      "ข้าศึก": 3883,
      "ครั่น": 3884,
      "ประกัน": 3885,
      "ทั้งคืน": 3886,
      "อาโดน": 3887,
      "หลีก": 3888,
      "เชม": 3889,
      "ดาลิยาห์": 3890,
      "ด้วยว่า": 3891,
      "เน่า": 3892,
      "ตัวท่าน": 3893,
      "ยังจะ": 3894,
      "โม่": 3895,
      "คำพยาน": 3896,
      "โยรัม": 3897,
      "โยธาม": 3898,
      "ต่างก็": 3899,
      "น้ำค้าง": 3900,
      "รักษาการ": 3901,
      "อย่าไป": 3902,
      "เต้น": 3903,
      "วาท": 3904,
      "ยกเว้น": 3905,
      "ต่อหน้าต่อตา": 3906,
      "ผลผลิต": 3907,
      "ตะกร": 3908,
      "ฟ้าแลบ": 3909,
      "ซีเอล": 3910,
      "เผ่ารูเบน": 3911,
      "หย่า": 3912,
      "บางส่วน": 3913,
      "ชื่นใจ": 3914,
      "นับตั้งแต่": 3915,
      "ยึดมั่น": 3916,
      "นอนอยู่": 3917,
      "ขยะ": 3918,
      "ป้องกัน": 3919,
      "เยโฮยาคีน": 3920,
      "อาสาฟ": 3921,
      "ธารน้ำ": 3922,
      "จริต": 3923,
      "รางวัล": 3924,
      "แปลกหน้า": 3925,
      "ษฎีกา": 3926,
      "โหดร้าย": 3927,
      "ฆาตก": 3928,
      "ทักทาย": 3929,
      "กฤษฎีกา": 3930,
      "จู่โจม": 3931,
      "สารพัด": 3932,
      "อาโดนียาห์": 3933,
      "รักษาการณ์": 3934,
      "ข่าย": 3935,
      "ชัล": 3936,
      "ณาการ": 3937,
      "ถม": 3938,
      "ปั่น": 3939,
      "มหิต": 3940,
      "สาง": 3941,
      "อิด": 3942,
      "เจ้าบ่าว": 3943,
      "ว่าการ": 3944,
      "ไม่ทรง": 3945,
      "คว่ำ": 3946,
      "ความยินดี": 3947,
      "อาราบ": 3948,
      "เสมือน": 3949,
      "อกำ": 3950,
      "เกดาลิยาห์": 3951,
      "วันนั้น": 3952,
      "สิ่งของ": 3953,
      "ตัวเมีย": 3954,
      "ถูกจับ": 3955,
      "ทางด้าน": 3956,
      "บรรณาการ": 3957,
      "เถียง": 3958,
      "เคี้ยว": 3959,
      "พรึง": 3960,
      "โอเบด": 3961,
      "ร้ายแรง": 3962,
      "พลม้า": 3963,
      "เพียงนี้": 3964,
      "ตระการ": 3965,
      "หย่อน": 3966,
      "อุ้ม": 3967,
      "อาบียา": 3968,
      "อำมหิต": 3969,
      "เทศนา": 3970,
      "ดวงใจ": 3971,
      "สีม่วง": 3972,
      "ปัจ": 3973,
      "เท่าที่": 3974,
      "นั่งลง": 3975,
      "อ่อนโยน": 3976,
      "พื้นดิน": 3977,
      "ซ่อนตัว": 3978,
      "เกินไป": 3979,
      "ก่อสร้าง": 3980,
      "รองเท้า": 3981,
      "ห้วย": 3982,
      "ไหม้": 3983,
      "เอสรา": 3984,
      "ตรวจดู": 3985,
      "เฉลิม": 3986,
      "กลืนกิน": 3987,
      "ท้อแท้": 3988,
      "อรุณ": 3989,
      "ฮิลคียาห์": 3990,
      "ครั่นคร้าม": 3991,
      "500": 3992,
      "ทึ": 3993,
      "ท่อน": 3994,
      "ภัก": 3995,
      "ล์": 3996,
      "หวาน": 3997,
      "ฮัก": 3998,
      "ได": 3999,
      "ที่ได้": 4000,
      "มาหะ": 4001,
      "รงาน": 4002,
      "ตรู่": 4003,
      "ไม่กล้า": 4004,
      "ไปหา": 4005,
      "มีคาย": 4006,
      "เล่ม": 4007,
      "เลขา": 4008,
      "อาคม": 4009,
      "เสี่ยง": 4010,
      "เร่": 4011,
      "เร่ง": 4012,
      "เอลาม": 4013,
      "จงรัก": 4014,
      "เพื่อเรา": 4015,
      "ซาเร็": 4016,
      "นาอา": 4017,
      "นาโอ": 4018,
      "นาซาเร็": 4019,
      "การงาน": 4020,
      "ยาด": 4021,
      "เบิก": 4022,
      "ละเลย": 4023,
      "เอาไป": 4024,
      "มากขึ้น": 4025,
      "ส่งมา": 4026,
      "ตกแต่ง": 4027,
      "เศียร": 4028,
      "โฮร์": 4029,
      "ชูมือ": 4030,
      "ชูร์": 4031,
      "คงจะ": 4032,
      "เผ่าเลวี": 4033,
      "ทรี": 4034,
      "อย่างไรก็ตาม": 4035,
      "ติดต่อ": 4036,
      "โบย": 4037,
      "อธิบาย": 4038,
      "ปล่อยตัว": 4039,
      "สินค้า": 4040,
      "เฟล": 4041,
      "แหลก": 4042,
      "อ่อนล้า": 4043,
      "เตรียมไว้": 4044,
      "เช้าตรู่": 4045,
      "ชาวยูดาห์": 4046,
      "ขัดขวาง": 4047,
      "นูน": 4048,
      "ชาฟาน": 4049,
      "ยับยั้ง": 4050,
      "อ้างว่า": 4051,
      "แปดเปื้อน": 4052,
      "งอกงาม": 4053,
      "อินทรี": 4054,
      "ทายาท": 4055,
      "ฟ้องร้อง": 4056,
      "เลื้อยคลาน": 4057,
      "เชี่ยวชาญ": 4058,
      "เพชร": 4059,
      "แจกจ่าย": 4060,
      "อาราบาห์": 4061,
      "อาบียาธาร์": 4062,
      "ทึบ": 4063,
      "ภักดี": 4064,
      "มีคายาห์": 4065,
      "นาโอมี": 4066,
      "นาซาเร็ธ": 4067,
      "กัก": 4068,
      "คิ": 4069,
      "จ์": 4070,
      "ชิม": 4071,
      "ตบ": 4072,
      "ถัง": 4073,
      "บ่วง": 4074,
      "สหาย": 4075,
      "หมา": 4076,
      "อ้อม": 4077,
      "ัค": 4078,
      "ุค": 4079,
      "ใย": 4080,
      "ระโหย": 4081,
      "พระกาย": 4082,
      "ของมัน": 4083,
      "ไม่ดี": 4084,
      "ไม่ซื่อสัตย์": 4085,
      "พวกผู้หญิง": 4086,
      "รับโทษ": 4087,
      "รับรอง": 4088,
      "บุค": 4089,
      "ลงสู่": 4090,
      "ทางเพศ": 4091,
      "เทือน": 4092,
      "นาญ": 4093,
      "อีกคนหนึ่ง": 4094,
      "เหมือนกัน": 4095,
      "ดูสิ": 4096,
      "พิการ": 4097,
      "อัท": 4098,
      "เสียงร้อง": 4099,
      "ถ้าเช่นนั้น": 4100,
      "นอกค่าย": 4101,
      "บางที": 4102,
      "พ่อค้า": 4103,
      "ดื่มน้ำ": 4104,
      "ฮาซา": 4105,
      "เยโฮอาช": 4106,
      "ชำนาญ": 4107,
      "กรัม": 4108,
      "ล้วนแต่": 4109,
      "แตกต่าง": 4110,
      "แตกแยก": 4111,
      "สยบ": 4112,
      "ซากศพ": 4113,
      "ชิ้นๆ": 4114,
      "ไนล์": 4115,
      "ดอกไม้": 4116,
      "แปลกๆ": 4117,
      "ไส้": 4118,
      "คบคิดกัน": 4119,
      "บาอาชา": 4120,
      "สัมพันธ์": 4121,
      "60": 4122,
      "กี": 4123,
      "ขนาน": 4124,
      "ค่อย": 4125,
      "จ้อง": 4126,
      "ฉกรร": 4127,
      "ถล": 4128,
      "นิน": 4129,
      "นิด": 4130,
      "มณี": 4131,
      "ลวด": 4132,
      "ศยา": 4133,
      "ิอัส": 4134,
      "โฉ": 4135,
      "’?": 4136,
      "ราณ": 4137,
      "ที่ประชุม": 4138,
      "ังคับ": 4139,
      "ตรวน": 4140,
      "ครี": 4141,
      "เอช": 4142,
      "เอม": 4143,
      "ทำนอง": 4144,
      "เสอาห์": 4145,
      "หลุด": 4146,
      "การดี": 4147,
      "รับสั่ง": 4148,
      "่วแน่": 4149,
      "เยี่ยง": 4150,
      "เยชูอา": 4151,
      "เพราะฉะนั้น": 4152,
      "เหลี่ยม": 4153,
      "บั่น": 4154,
      "เวท": 4155,
      "วันเวลา": 4156,
      "หน้าผาก": 4157,
      "ถูกเผา": 4158,
      "ขอพระคุณ": 4159,
      "สาบ": 4160,
      "โมธี": 4161,
      "ชายแดน": 4162,
      "สำนัก": 4163,
      "เครื่องเทศ": 4164,
      "อันว่า": 4165,
      "ราชสี": 4166,
      "เอาใจ": 4167,
      "ทิโมธี": 4168,
      "สั่งไว้": 4169,
      "แน่วแน่": 4170,
      "ตลอดชีวิต": 4171,
      "คืนมา": 4172,
      "ซีซาร์": 4173,
      "แพศยา": 4174,
      "ด้านนอก": 4175,
      "สนับสน": 4176,
      "ตรงกัน": 4177,
      "ลิ้ม": 4178,
      "โบราณ": 4179,
      "มองไป": 4180,
      "สินบน": 4181,
      "แปลง": 4182,
      "เขียนถึง": 4183,
      "ขับร้อง": 4184,
      "ล้อมรอบ": 4185,
      "ระลึกถึง": 4186,
      "มหาศาล": 4187,
      "บารุค": 4188,
      "คารเมล": 4189,
      "ความชั่วช้า": 4190,
      "มุสา": 4191,
      "หนาว": 4192,
      "ถัดจาก": 4193,
      "กระถิน": 4194,
      "สง่าราศี": 4195,
      "โพก": 4196,
      "คุ้มครอง": 4197,
      "ข้อบังคับ": 4198,
      "กังวล": 4199,
      "ฉกรรจ์": 4200,
      "ลวดลาย": 4201,
      "ราชสีห์": 4202,
      "สนับสนุน": 4203,
      "จอก": 4204,
      "ฉวย": 4205,
      "ต้อย": 4206,
      "ต้ม": 4207,
      "ทักษ์": 4208,
      "ยั่ว": 4209,
      "ยั่ง": 4210,
      "ยุ่ง": 4211,
      "วียน": 4212,
      "สด": 4213,
      "สวย": 4214,
      "ฮาร": 4215,
      "าดี": 4216,
      "ึมา": 4217,
      "พระศิลา": 4218,
      "เป็นอันว่า": 4219,
      "่อหยิ่ง": 4220,
      "ก็จะ": 4221,
      "ชาวก": 4222,
      "ทั้งมวล": 4223,
      "หลอก": 4224,
      "การรบ": 4225,
      "เย่อหยิ่ง": 4226,
      "เกวียน": 4227,
      "โล่ง": 4228,
      "กำไร": 4229,
      "บรรทม": 4230,
      "ลูกหัวปี": 4231,
      "โดยเร็ว": 4232,
      "รูธ": 4233,
      "พิเคราะห์": 4234,
      "พิทักษ์": 4235,
      "สามคน": 4236,
      "สะเทือน": 4237,
      "พันธมิตร": 4238,
      "นายท่าน": 4239,
      "ยืนยาว": 4240,
      "ต้นมะเดื่อ": 4241,
      "ยามค่ำคืน": 4242,
      "โทษทัณฑ์": 4243,
      "เศราห์": 4244,
      "เผ่ากาด": 4245,
      "สนซีดาร์": 4246,
      "รวมตัว": 4247,
      "คาเดช": 4248,
      "ข้างๆ": 4249,
      "บันได": 4250,
      "สีขาว": 4251,
      "เกลื่อน": 4252,
      "ท้องทะเล": 4253,
      "ประจำวัน": 4254,
      "แบ่งสรร": 4255,
      "ปิดบัง": 4256,
      "สันติภาพ": 4257,
      "มุ่งหน้า": 4258,
      "ตื่นขึ้น": 4259,
      "เชิงเขา": 4260,
      "สี่สิบปี": 4261,
      "จุบัน": 4262,
      "โต้แย้ง": 4263,
      "รกราก": 4264,
      "ข้อกำ": 4265,
      "ลูม": 4266,
      "เรื่อยๆ": 4267,
      "อัญเชิญ": 4268,
      "มหึมา": 4269,
      "ชัลลูม": 4270,
      "ปัจจุบัน": 4271,
      "ยั่งยืน": 4272,
      "ข้อกำหนด": 4273,
      "24": 4274,
      "กึก": 4275,
      "คทา": 4276,
      "จุ่ม": 4277,
      "ชัม": 4278,
      "ซัส": 4279,
      "ด่าง": 4280,
      "ดุง": 4281,
      "ผดุง": 4282,
      "ฝัก": 4283,
      "วอด": 4284,
      "ศิม": 4285,
      "อาร์": 4286,
      "อ้วน": 4287,
      "แวะ": 4288,
      "โพ้น": 4289,
      "ระง": 4290,
      "พระบารมี": 4291,
      "ที่ถูก": 4292,
      "ที่ห้า": 4293,
      "เข็ญ": 4294,
      "เขาสัตว์": 4295,
      "ผู้ว่าการ": 4296,
      "มาซิ": 4297,
      "ไปใน": 4298,
      "ทั้งเจ็ด": 4299,
      "เช่า": 4300,
      "เรท": 4301,
      "เรบ": 4302,
      "เกราะ": 4303,
      "ไว้ใน": 4304,
      "ตามหา": 4305,
      "ตามเสด็จ": 4306,
      "สัป": 4307,
      "โลด": 4308,
      "ชนเผ่า": 4309,
      "โรย": 4310,
      "ยังอยู่": 4311,
      "ลงไป": 4312,
      "กำบัง": 4313,
      "เผ่าย": 4314,
      "โดเนีย": 4315,
      "วิวาท": 4316,
      "คำสาบาน": 4317,
      "ชายคน": 4318,
      "โยก": 4319,
      "พร่ำ": 4320,
      "เบียน": 4321,
      "พูดถึง": 4322,
      "แผด": 4323,
      "ตาข่าย": 4324,
      "เซ่น": 4325,
      "สมทบ": 4326,
      "นายร้อย": 4327,
      "ไม้กางเขน": 4328,
      "หลังคา": 4329,
      "ใช่ไหม": 4330,
      "สุภาพ": 4331,
      "เฮล": 4332,
      "เรียกกัน": 4333,
      "หมู่คน": 4334,
      "ด้านเหนือ": 4335,
      "เคยเป็น": 4336,
      "จิตสำนึก": 4337,
      "ทะเลาะ": 4338,
      "ทะเลสาบ": 4339,
      "สูงส่ง": 4340,
      "โปรย": 4341,
      "อาณาเขต": 4342,
      "พ่อตา": 4343,
      "รุ่งอรุณ": 4344,
      "หินขว้าง": 4345,
      "เด็กๆ": 4346,
      "ตำหนัก": 4347,
      "ตัดสินใจ": 4348,
      "นะเวห์": 4349,
      "พินาศไป": 4350,
      "บาดแผล": 4351,
      "เมล็ดพืช": 4352,
      "กุมาร": 4353,
      "ปรานี": 4354,
      "ต่ำต้อย": 4355,
      "ชัดเจน": 4356,
      "นีนะเวห์": 4357,
      "ฉาบ": 4358,
      "ค้นหา": 4359,
      "หวนกลับ": 4360,
      "เขย่า": 4361,
      "ฉบับนี้": 4362,
      "บิดเบือน": 4363,
      "ศาสนา": 4364,
      "นาอามาน": 4365,
      "ตรงกันข้าม": 4366,
      "กึกก้อง": 4367,
      "มาซิโดเนีย": 4368,
      "เผ่ายูดาห์": 4369,
      "ซาห์": 4370,
      "ฏิ": 4371,
      "นัย": 4372,
      "น้อม": 4373,
      "บั้น": 4374,
      "ปรุง": 4375,
      "ผ่า": 4376,
      "ผลง": 4377,
      "ภพ": 4378,
      "มด": 4379,
      "ยว": 4380,
      "ยี": 4381,
      "ลัย": 4382,
      "สร้อย": 4383,
      "หัง": 4384,
      "ที่ใด": 4385,
      "และให้": 4386,
      "ผู้สร้าง": 4387,
      "ได้ว่า": 4388,
      "ได้ทำ": 4389,
      "เหือด": 4390,
      "เหรีย": 4391,
      "ไม่เชื่อฟัง": 4392,
      "ไม่นาน": 4393,
      "ไปด้วย": 4394,
      "เอเฟ": 4395,
      "ประโลม": 4396,
      "ประกาย": 4397,
      "ทำดี": 4398,
      "เลื่อน": 4399,
      "การรักษา": 4400,
      "การเจิม": 4401,
      "บาเบล": 4402,
      "ไว้อาลัย": 4403,
      "เด่น": 4404,
      "ตามนั้น": 4405,
      "ตามอย่าง": 4406,
      "ลงแรง": 4407,
      "เมืองอัย": 4408,
      "หารือ": 4409,
      "หาริย์": 4410,
      "ขอร้อง": 4411,
      "ดีใจ": 4412,
      "นาอิม": 4413,
      "หาส": 4414,
      "ยาเบ": 4415,
      "น้ำมือ": 4416,
      "พิภพ": 4417,
      "ร้องขอ": 4418,
      "ตาดู": 4419,
      "เชื่อว่า": 4420,
      "เหนื่อย": 4421,
      "คลอน": 4422,
      "สามปี": 4423,
      "ผลดี": 4424,
      "ผลไม้": 4425,
      "เหตุผล": 4426,
      "คืนนั้น": 4427,
      "เฮส": 4428,
      "เสียชีวิต": 4429,
      "เสียหาย": 4430,
      "ฝูงวัว": 4431,
      "ด้านหน้า": 4432,
      "หันกลับ": 4433,
      "ใกล้ชิด": 4434,
      "จับตาดู": 4435,
      "ทีละ": 4436,
      "ข้าวบาร์เลย์": 4437,
      "ยุคน": 4438,
      "นกพิราบ": 4439,
      "ข้ามไป": 4440,
      "อาบีชัย": 4441,
      "เที่ยว": 4442,
      "หลงผิด": 4443,
      "วิ่งไป": 4444,
      "ทับทรวง": 4445,
      "ปาฏิ": 4446,
      "บุกเข้า": 4447,
      "ภูมิใจ": 4448,
      "ไวต์": 4449,
      "ดื้อด้าน": 4450,
      "เศรุยาห์": 4451,
      "จองจำ": 4452,
      "เมชุล": 4453,
      "เจิดจ้า": 4454,
      "เสนอ": 4455,
      "ไต่สวน": 4456,
      "ตะกร้า": 4457,
      "ฮาซาเอล": 4458,
      "สัปดาห์": 4459,
      "ผลงาน": 4460,
      "เหรียญ": 4461,
      "ปาฏิหาริย์": 4462,
      "18": 4463,
      "400": 4464,
      "คราง": 4465,
      "ฆี่ยน": 4466,
      "งอน": 4467,
      "ดล": 4468,
      "ดฟ้า": 4469,
      "ธร": 4470,
      "นวล": 4471,
      "บบาเบล": 4472,
      "พละ": 4473,
      "พนัก": 4474,
      "ฟาง": 4475,
      "มึ": 4476,
      "รัด": 4477,
      "สรณ์": 4478,
      "หึง": 4479,
      "ฮาก": 4480,
      "ุบ": 4481,
      "เฆี่ยน": 4482,
      "ไก": 4483,
      "ระทม": 4484,
      "ที่พำนัก": 4485,
      "และทำ": 4486,
      "เปเร": 4487,
      "องค์เดียว": 4488,
      "เป็นเหตุ": 4489,
      "ผู้ใหญ่": 4490,
      "ไม่อย": 4491,
      "ได้ข่าว": 4492,
      "ทรงช่วย": 4493,
      "ไปตาม": 4494,
      "เพิง": 4495,
      "เมค": 4496,
      "เม็ด": 4497,
      "านี": 4498,
      "้วาง": 4499,
      "อาโมน": 4500,
      "อาหาส": 4501,
      "เชย": 4502,
      "เร้า": 4503,
      "เหลียว": 4504,
      "เมื่อเรา": 4505,
      "ขึ้นสู่": 4506,
      "ใจคด": 4507,
      "ออกผล": 4508,
      "หน้าซื่อ": 4509,
      "แหง": 4510,
      "เนหัส": 4511,
      "เนบัท": 4512,
      "ลาส": 4513,
      "กำราบ": 4514,
      "คำปรึกษา": 4515,
      "บรรทุก": 4516,
      "ลูกธนู": 4517,
      "วิตก": 4518,
      "นาโบท": 4519,
      "น้ำนม": 4520,
      "ราชินี": 4521,
      "ปีน": 4522,
      "บ้านเมือง": 4523,
      "บ้านเกิด": 4524,
      "ส่วนร่วม": 4525,
      "เหนียว": 4526,
      "สมรส": 4527,
      "โอโฮ": 4528,
      "ยอมให้": 4529,
      "ด้านหนึ่ง": 4530,
      "บิยาห์": 4531,
      "หนีรอด": 4532,
      "นอกเมือง": 4533,
      "ดาริอัส": 4534,
      "ฟีเนหัส": 4535,
      "ลิบน": 4536,
      "ข้างนอก": 4537,
      "เยโฮอาหาส": 4538,
      "ลำธาร": 4539,
      "อารโนน": 4540,
      "ภายนอก": 4541,
      "ไล่ตาม": 4542,
      "ไล่ล่า": 4543,
      "นอนลง": 4544,
      "แหลกลา": 4545,
      "ไม่ยอมรับ": 4546,
      "เอฟาห์": 4547,
      "คู่ควร": 4548,
      "กิจการ": 4549,
      "ใบหน้า": 4550,
      "ักษณ์": 4551,
      "แห้งแล้ง": 4552,
      "อนุสรณ์": 4553,
      "เชิงงอน": 4554,
      "ห่วงใย": 4555,
      "เมามาย": 4556,
      "ฮานันยาห์": 4557,
      "ฮีไวต์": 4558,
      "ไว้วาง": 4559,
      "หรอกหรือ": 4560,
      "มาอาเสอาห์": 4561,
      "เศรุบบาเบล": 4562,
      "จอมปลอม": 4563,
      "ร่มเงา": 4564,
      "ยุคนี้": 4565,
      "เมชุลลาม": 4566,
      "ธรณี": 4567,
      "พละกำลัง": 4568,
      "มึน": 4569,
      "หึงหวง": 4570,
      "แหลกลาญ": 4571,
      "ไว้วางใจ": 4572,
      "กึ่ง": 4573,
      "กอด": 4574,
      "ง่าย": 4575,
      "ช้ำ": 4576,
      "ตาก": 4577,
      "ถาง": 4578,
      "บค่ำ": 4579,
      "ผ่อน": 4580,
      "รเทศ": 4581,
      "วัช": 4582,
      "สาห์": 4583,
      "สุม": 4584,
      "อาการ": 4585,
      "เวย": 4586,
      "เบา": 4587,
      "เขาไป": 4588,
      "ายิล": 4589,
      "คนนี้": 4590,
      "คร้าน": 4591,
      "ประสู": 4592,
      "ประจัน": 4593,
      "ความกลัว": 4594,
      "เลท": 4595,
      "อารา": 4596,
      "เสรา": 4597,
      "เชเมช": 4598,
      "เยา": 4599,
      "เด็ด": 4600,
      "มือขวา": 4601,
      "วันคืน": 4602,
      "สิ่งเหล่านี้": 4603,
      "เนรเทศ": 4604,
      "ชาวโลก": 4605,
      "โยฮานัน": 4606,
      "สำมะ": 4607,
      "เหมือนกับ": 4608,
      "ตั้งให้": 4609,
      "ตั้งขึ้น": 4610,
      "น้ำหนัก": 4611,
      "อันมาก": 4612,
      "ฟังคำ": 4613,
      "ส่วนเจ้า": 4614,
      "สงสัย": 4615,
      "พันธกิจ": 4616,
      "จำลอง": 4617,
      "ผลัก": 4618,
      "ผลแรก": 4619,
      "โทบ": 4620,
      "พลบค่ำ": 4621,
      "ยืนยง": 4622,
      "ทะเบียน": 4623,
      "ทุกข์ใจ": 4624,
      "ด้านใต้": 4625,
      "ใส่ร้าย": 4626,
      "ทะเลแดง": 4627,
      "หันหนี": 4628,
      "จับตัว": 4629,
      "รอบด้าน": 4630,
      "เลี้ยงสัตว์": 4631,
      "ชื่นบาน": 4632,
      "น่ารังเกียจ": 4633,
      "ข้อหา": 4634,
      "ลำห้วย": 4635,
      "เฟท": 4636,
      "กรณี": 4637,
      "มืดมน": 4638,
      "ประจำที่": 4639,
      "ลบล้าง": 4640,
      "แบ่งปัน": 4641,
      "เกี่ยวข้อง": 4642,
      "โรคติดต่อ": 4643,
      "สังเวย": 4644,
      "กว้างขวาง": 4645,
      "กิ่งก้าน": 4646,
      "คานาห์": 4647,
      "อิ่มเอม": 4648,
      "เกียจคร้าน": 4649,
      "ขันที": 4650,
      "ขี้เถ้า": 4651,
      "ซิบ": 4652,
      "บากบั่น": 4653,
      "ถัดไป": 4654,
      "อานาค": 4655,
      "ลอยขึ้น": 4656,
      "ธุลีดิน": 4657,
      "สภาพดี": 4658,
      "อัญมณี": 4659,
      "ถูกฆ่าตาย": 4660,
      "ใฝ่หา": 4661,
      "นินทา": 4662,
      "ดลใจ": 4663,
      "พนักงาน": 4664,
      "ประสูติ": 4665,
      "ก้ม": 4666,
      "กวาง": 4667,
      "ขั้น": 4668,
      "ง่อย": 4669,
      "ดัน": 4670,
      "ตวง": 4671,
      "ท้น": 4672,
      "ทาห์": 4673,
      "ฝืน": 4674,
      "พูน": 4675,
      "มูล": 4676,
      "หง": 4677,
      "หาน": 4678,
      "หิม": 4679,
      "อล": 4680,
      "ีเอล": 4681,
      "แอบ": 4682,
      "แจง": 4683,
      "ไล": 4684,
      "ที่เขา": 4685,
      "มารับ": 4686,
      "มานา": 4687,
      "มาสู่": 4688,
      "มาคีร์": 4689,
      "ให้เป็น": 4690,
      "ให้บริสุทธิ์": 4691,
      "ทรงเข้า": 4692,
      "ทรงถูก": 4693,
      "ทรงปล่อย": 4694,
      "เอโคร": 4695,
      "เลี่ยง": 4696,
      "เล่ห์": 4697,
      "สิลาส": 4698,
      "ิสซี": 4699,
      "เหลว": 4700,
      "ถึงเพียงนี้": 4701,
      "หมัน": 4702,
      "โรจน์": 4703,
      "เข้าร่วม": 4704,
      "เนห์": 4705,
      "สาเหตุ": 4706,
      "ทางนั้น": 4707,
      "โมราห์": 4708,
      "โดร์": 4709,
      "รุม": 4710,
      "เคร่ง": 4711,
      "นาบาล": 4712,
      "กาซา": 4713,
      "เถอะ": 4714,
      "เคือง": 4715,
      "ยิ้ม": 4716,
      "ปวงชน": 4717,
      "ใครเล่า": 4718,
      "คล้อง": 4719,
      "สามครั้ง": 4720,
      "สะพรึง": 4721,
      "อะไรเลย": 4722,
      "สุดปลาย": 4723,
      "ครั้งใหญ่": 4724,
      "ครั้งเดียว": 4725,
      "ฐานรอง": 4726,
      "ตะขอ": 4727,
      "โกโมราห์": 4728,
      "ร่วมโต๊ะ": 4729,
      "ด้านละ": 4730,
      "ตั้งแต่ต้น": 4731,
      "คาอิน": 4732,
      "ข้างหลัง": 4733,
      "รุ่งโรจน์": 4734,
      "แรงงาน": 4735,
      "แหลม": 4736,
      "ขับผี": 4737,
      "เปิดออก": 4738,
      "แคบ": 4739,
      "เริ่มต้น": 4740,
      "ครวญคราง": 4741,
      "สารภาพ": 4742,
      "ใบไม้": 4743,
      "เปริสซี": 4744,
      "ไข้": 4745,
      "เบื้องล่าง": 4746,
      "ฝนตก": 4747,
      "ไม่รู้หรือ": 4748,
      "ไซรัส": 4749,
      "ผูกมัด": 4750,
      "นิ่งเงียบ": 4751,
      "ฮีราม": 4752,
      "ฮาดัดเอเซอร์": 4753,
      "อานุภาพ": 4754,
      "เฉลียว": 4755,
      "แนวรบ": 4756,
      "เสริมสร้าง": 4757,
      "กระถาง": 4758,
      "เปลือยเปล่า": 4759,
      "ป่าวร้อง": 4760,
      "เยฟธาห์": 4761,
      "ฆาตกร": 4762,
      "บุคคล": 4763,
      "วอดวาย": 4764,
      "เฮสโรน": 4765,
      "เปเรศ": 4766,
      "หิมะ": 4767,
      "เอโครน": 4768,
      "ขวาน": 4769,
      "คอก": 4770,
      "คิยาห์": 4771,
      "ฉลาก": 4772,
      "ชวน": 4773,
      "ณาม": 4774,
      "ถาก": 4775,
      "ทยาน": 4776,
      "นรก": 4777,
      "ปัด": 4778,
      "พราง": 4779,
      "วรร": 4780,
      "สนม": 4781,
      "หอง": 4782,
      "หับ": 4783,
      "ห่อ": 4784,
      "หาง": 4785,
      "อึก": 4786,
      "อวน": 4787,
      "อูเอล": 4788,
      "ิบ": 4789,
      "โอง": 4790,
      "โกล": 4791,
      "ไพร่": 4792,
      "แลง": 4793,
      "เจ้าสาว": 4794,
      "ที่สิบ": 4795,
      "ผู้ตาย": 4796,
      "ไม่เจตนา": 4797,
      "เพาะ": 4798,
      "ครั้น": 4799,
      "เมิน": 4800,
      "ประหนึ่ง": 4801,
      "ประณาม": 4802,
      "ทำเป็น": 4803,
      "แต่ก่อน": 4804,
      "สิเสรา": 4805,
      "จงระวัง": 4806,
      "เกรา": 4807,
      "ไว้ว่า": 4808,
      "หรือว่า": 4809,
      "สิ่งนั้น": 4810,
      "ถูกแล้ว": 4811,
      "เทิน": 4812,
      "โยเอล": 4813,
      "ลูกแพะ": 4814,
      "อันทิ": 4815,
      "ใครๆ": 4816,
      "ผลองุ่น": 4817,
      "เสียงแตร": 4818,
      "สัญญาณ": 4819,
      "แม้จะ": 4820,
      "เรื่องที่": 4821,
      "เหลือเกิน": 4822,
      "สุสาน": 4823,
      "ทิ้งร้าง": 4824,
      "บัญชี": 4825,
      "ยามเช้า": 4826,
      "แผ่นดินไหว": 4827,
      "ผ่านพ้น": 4828,
      "เกียรติยศ": 4829,
      "อุทยาน": 4830,
      "พ่อแม่": 4831,
      "โบร์": 4832,
      "อาหิยาห์": 4833,
      "ฮาโซ": 4834,
      "ฮาราน": 4835,
      "แทนที่จะ": 4836,
      "ค่าไถ่": 4837,
      "จมูก": 4838,
      "เฟอร์": 4839,
      "อาดัม": 4840,
      "ริมโมน": 4841,
      "มืดมิด": 4842,
      "แบบนี้": 4843,
      "ขย้ำ": 4844,
      "อยู่ในมือ": 4845,
      "รองรับ": 4846,
      "เจ็บป่วย": 4847,
      "เที่ยงตรง": 4848,
      "คานหาม": 4849,
      "ย่ำยี": 4850,
      "ผีสิง": 4851,
      "เชิงเทิน": 4852,
      "ค้าขาย": 4853,
      "โชติ": 4854,
      "คราวนี้": 4855,
      "อานาห์": 4856,
      "ภูมิภาค": 4857,
      "ตกใจกลัว": 4858,
      "ค้ำประกัน": 4859,
      "จองหอง": 4860,
      "ทุ่มเท": 4861,
      "ราโมทกิเลอาด": 4862,
      "เฉลิมฉลอง": 4863,
      "ศิมรี": 4864,
      "ยาเบช": 4865,
      "ฮาการ์": 4866,
      "โองการ": 4867,
      "200": 4868,
      "กิต": 4869,
      "จิน": 4870,
      "ดเล็ก": 4871,
      "ปน": 4872,
      "ปิ": 4873,
      "ผวา": 4874,
      "ยาร": 4875,
      "ยาง": 4876,
      "สระ": 4877,
      "สดุ": 4878,
      "หด": 4879,
      "ฮัน": 4880,
      "ฮาร์": 4881,
      "โคลน": 4882,
      "่าม": 4883,
      "เจ้าเอง": 4884,
      "เปื่อย": 4885,
      "ไมตรี": 4886,
      "ไม่เป็น": 4887,
      "ไม่ปล่อย": 4888,
      "ครู": 4889,
      "คร่า": 4890,
      "กลิ้ง": 4891,
      "เสรี": 4892,
      "การทำ": 4893,
      "แก้ว": 4894,
      "เอลคานาห์": 4895,
      "เยเซ": 4896,
      "สัญ": 4897,
      "ทุกเมือง": 4898,
      "หมั้น": 4899,
      "หมุด": 4900,
      "เนียน": 4901,
      "ลาซาร": 4902,
      "ลาคีช": 4903,
      "คำพยากรณ์": 4904,
      "โยท": 4905,
      "ตั้งรกราก": 4906,
      "โดยที่": 4907,
      "แมง": 4908,
      "อันเป็น": 4909,
      "กลับคืน": 4910,
      "ใครก็ตาม": 4911,
      "สองเท่า": 4912,
      "ราชธิดา": 4913,
      "ราชโองการ": 4914,
      "หมดแรง": 4915,
      "เรียว": 4916,
      "กำลังจะ": 4917,
      "กำลังพล": 4918,
      "ส่วนตัว": 4919,
      "สิบห้า": 4920,
      "เซน": 4921,
      "ส่งข่าว": 4922,
      "สงวน": 4923,
      "กิโล": 4924,
      "นายพัน": 4925,
      "ครั้งแรก": 4926,
      "ไม้กระถิน": 4927,
      "สิ้นหวัง": 4928,
      "ตะแลง": 4929,
      "พลัน": 4930,
      "พลุ่ง": 4931,
      "ตลอดคืน": 4932,
      "สุสา": 4933,
      "บิล": 4934,
      "ผ่านมา": 4935,
      "ฝ่าฝืน": 4936,
      "ทีร": 4937,
      "นับได้": 4938,
      "ลำน้ำ": 4939,
      "เกรงว่า": 4940,
      "เบธเชเมช": 4941,
      "เตรียมตัว": 4942,
      "เริ่มจาก": 4943,
      "ขัดขืน": 4944,
      "สืบๆ": 4945,
      "นั่นแหละ": 4946,
      "นครนั้น": 4947,
      "มหาดเล็ก": 4948,
      "จบแล้ว": 4949,
      "คันธนู": 4950,
      "คลอดลูก": 4951,
      "เพิ่มขึ้น": 4952,
      "คาดเอว": 4953,
      "ท่วมท้น": 4954,
      "นองเลือด": 4955,
      "กรรณ": 4956,
      "อัชโดด": 4957,
      "ผลิตผล": 4958,
      "อภิ": 4959,
      "โอบาดี": 4960,
      "ย่างก้าว": 4961,
      "ขานรับ": 4962,
      "แต่นี้": 4963,
      "ตะลึง": 4964,
      "ดายาห์": 4965,
      "กระแสน้ำ": 4966,
      "อ้วนพี": 4967,
      "แผดเผา": 4968,
      "เอเฟซัส": 4969,
      "เยาว์": 4970,
      "ถากถาง": 4971,
      "อันทิโอก": 4972,
      "ฮาโซร์": 4973,
      "สดุดี": 4974,
      "เยเซเบล": 4975,
      "ลาซารัส": 4976,
      "โอบาดีห์": 4977,
      "15": 4978,
      "34": 4979,
      "600": 4980,
      "ขึง": 4981,
      "ขุ่น": 4982,
      "คค": 4983,
      "ตวรร": 4984,
      "ธัญญา": 4985,
      "บ่อย": 4986,
      "ป้าย": 4987,
      "ปัญ": 4988,
      "พริบ": 4989,
      "ฟาห์": 4990,
      "มู": 4991,
      "วาห์": 4992,
      "ศมี": 4993,
      "ศตวรร": 4994,
      "สเท": 4995,
      "สทัส": 4996,
      "ัศจรรย์": 4997,
      "ืบ": 4998,
      "ุ้ง": 4999,
      "ุทร": 5000,
      "แวบ": 5001,
      "เขี้ยว": 5002,
      "องค์นั้น": 5003,
      "ทรงตัดสิน": 5004,
      "ทรงเปี่ยม": 5005,
      "หน่อ": 5006,
      "หน่วง": 5007,
      "เอเช": 5008,
      "เอเดน": 5009,
      "ชาห์": 5010,
      "ทำไป": 5011,
      "ทำสิ่ง": 5012,
      "อาโร": 5013,
      "หลาก": 5014,
      "เยอาร": 5015,
      "เยเซอร์": 5016,
      "ด้วยการ": 5017,
      "เกหะ": 5018,
      "หรือของ": 5019,
      "ทุกเผ่า": 5020,
      "โลหะ": 5021,
      "แหวน": 5022,
      "หนึ่งใน": 5023,
      "สาคร": 5024,
      "เทา": 5025,
      "เห็นใจ": 5026,
      "ลูกสะใภ้": 5027,
      "กระทำให้": 5028,
      "เครื่องหมาย": 5029,
      "ตั้งเต็นท์": 5030,
      "พรวน": 5031,
      "ดูถูก": 5032,
      "เบเร": 5033,
      "เตอร์": 5034,
      "ชั่วโมง": 5035,
      "นิล": 5036,
      "ปรำ": 5037,
      "สมุทร": 5038,
      "คลุก": 5039,
      "คลั่ง": 5040,
      "โอท": 5041,
      "โอหัง": 5042,
      "บทอด": 5043,
      "ยามที่": 5044,
      "ทะลุ": 5045,
      "โกก": 5046,
      "แด่พระเจ้า": 5047,
      "ถือเป็น": 5048,
      "ก่อนที่": 5049,
      "จัดหา": 5050,
      "ผ้ากระสอบ": 5051,
      "หันหลัง": 5052,
      "มิล": 5053,
      "ลำเอียง": 5054,
      "สักคน": 5055,
      "เอลีอับ": 5056,
      "ซื่อตรง": 5057,
      "อิธา": 5058,
      "รัศมี": 5059,
      "แน่ใจ": 5060,
      "ริมแม่น้ำ": 5061,
      "ชุมนุมกัน": 5062,
      "สืบทอด": 5063,
      "เฉย": 5064,
      "ร่ำร้อง": 5065,
      "อยากจะ": 5066,
      "สืบต่อ": 5067,
      "นั่นคือ": 5068,
      "เบื้องขวา": 5069,
      "อยู่ในใจ": 5070,
      "อาหิเมเลค": 5071,
      "อาหิคัม": 5072,
      "มุ่งร้าย": 5073,
      "ล่าม": 5074,
      "กิ่งไม้": 5075,
      "ปล้นชิง": 5076,
      "รีบรุด": 5077,
      "ค้างคืน": 5078,
      "ขันสาคร": 5079,
      "ปรักปรำ": 5080,
      "ลุย": 5081,
      "ทุบตี": 5082,
      "ภาษิต": 5083,
      "เหี่ยวแห้ง": 5084,
      "เอกโลน": 5085,
      "ซุ่มอยู่": 5086,
      "ราวกับว่า": 5087,
      "มหัศจรรย์": 5088,
      "แต่นี่": 5089,
      "เร่ร่อน": 5090,
      "ไก่": 5091,
      "เฉลียวฉลาด": 5092,
      "ธัญญาหาร": 5093,
      "ศตวรรษ": 5094,
      "เยอาริม": 5095,
      "อิธามาร์": 5096,
      "กะ": 5097,
      "ซุง": 5098,
      "ซึ้ง": 5099,
      "ดึก": 5100,
      "ดริน": 5101,
      "ถี่": 5102,
      "ปฐ": 5103,
      "ฟ่อน": 5104,
      "ษยา": 5105,
      "สับสน": 5106,
      "หั่น": 5107,
      "อร": 5108,
      "อริบ": 5109,
      "ฮิน": 5110,
      "ิช": 5111,
      "โถม": 5112,
      "ระดับ": 5113,
      "พระวงศ์": 5114,
      "เป็นไป": 5115,
      "ามิ": 5116,
      "ือบ": 5117,
      "ได้มา": 5118,
      "ทรงเปิด": 5119,
      "ไม่ถ้วน": 5120,
      "ียวย": 5121,
      "่นา": 5122,
      "เอโน": 5123,
      "มีอยู่": 5124,
      "เมดิ": 5125,
      "กลั้น": 5126,
      "แต่ผู้เดียว": 5127,
      "ความร้อน": 5128,
      "้วง": 5129,
      "อาคีช": 5130,
      "เสไร": 5131,
      "การที่": 5132,
      "เชยา": 5133,
      "เรฟา": 5134,
      "เรเนียน": 5135,
      "เยียวย": 5136,
      "จงฟัง": 5137,
      "ดาดฟ้า": 5138,
      "บัย": 5139,
      "วันยัง": 5140,
      "แดด": 5141,
      "ออกศึก": 5142,
      "อย่างสันติ": 5143,
      "เนธาน": 5144,
      "กันเถิด": 5145,
      "เทมาน": 5146,
      "ชาวอารัม": 5147,
      "ชาวคูช": 5148,
      "ไร่นา": 5149,
      "นาเค": 5150,
      "นาศี": 5151,
      "น้ำลาย": 5152,
      "น้ำท่วม": 5153,
      "อย่าลืม": 5154,
      "ดูเหมือน": 5155,
      "สวัส": 5156,
      "ชั่วนิรันดร์": 5157,
      "พูดจา": 5158,
      "เรียม": 5159,
      "อมรี": 5160,
      "พบกับ": 5161,
      "แม้กระทั่ง": 5162,
      "สุจริต": 5163,
      "สุคค": 5164,
      "เฮดริน": 5165,
      "ฟ้าร้อง": 5166,
      "จริงใจ": 5167,
      "ซีซาร": 5168,
      "โฮเชยา": 5169,
      "เสียอีก": 5170,
      "สนใจ": 5171,
      "ใต้เท้า": 5172,
      "คุณค่า": 5173,
      "ชื่นชอบ": 5174,
      "เนื้อความ": 5175,
      "ล้างผลาญ": 5176,
      "รายรอบ": 5177,
      "มองหา": 5178,
      "น่าจะ": 5179,
      "นับไม่ถ้วน": 5180,
      "ชิช": 5181,
      "เลือดเนื้อ": 5182,
      "เชลาห์": 5183,
      "กรม": 5184,
      "กรีก": 5185,
      "ล้มล้าง": 5186,
      "ลาดเขา": 5187,
      "ริมฝั่ง": 5188,
      "เสมอเหมือน": 5189,
      "หกสิบ": 5190,
      "บังอาจ": 5191,
      "ชั้นบน": 5192,
      "มรณา": 5193,
      "แซน": 5194,
      "อามาสา": 5195,
      "อาหิโธ": 5196,
      "ทารชิช": 5197,
      "อาสาเฮล": 5198,
      "นอกจากนี้": 5199,
      "หมอบลง": 5200,
      "คบชู้": 5201,
      "ฤดูร้อน": 5202,
      "หลักฐาน": 5203,
      "รุกราน": 5204,
      "โธท": 5205,
      "เลวทราม": 5206,
      "อาลักษณ์": 5207,
      "โต้ตอบ": 5208,
      "คายา": 5209,
      "อานาโธท": 5210,
      "วิธีนี้": 5211,
      "ชี้แจง": 5212,
      "แทบเท้า": 5213,
      "เผชิญหน้า": 5214,
      "บ่นว่า": 5215,
      "ถุงหนัง": 5216,
      "เคียงข้าง": 5217,
      "พุ่มไม้": 5218,
      "ล่มจม": 5219,
      "คีริยาทเยอาริม": 5220,
      "ระงับ": 5221,
      "ธรณีประตู": 5222,
      "โทบียาห์": 5223,
      "เซนนาเค": 5224,
      "เอเชีย": 5225,
      "เกหะซี": 5226,
      "เตอร์เรเนียน": 5227,
      "เมดิเตอร์เรเนียน": 5228,
      "เยียวยา": 5229,
      "วันยังค่ำ": 5230,
      "เนธานิยาห์": 5231,
      "นาศีร์": 5232,
      "ซีซารียา": 5233,
      "อาหิโธเฟล": 5234,
      "เซนนาเคอริบ": 5235,
      "110": 5236,
      "กิด": 5237,
      "กีบ": 5238,
      "กริบ": 5239,
      "ขาม": 5240,
      "ขวาย": 5241,
      "ขวน": 5242,
      "จิ": 5243,
      "จ่อ": 5244,
      "ฉับ": 5245,
      "ฉาย": 5246,
      "ชาก": 5247,
      "ชัส": 5248,
      "ซอก": 5249,
      "ญานา": 5250,
      "ทิต": 5251,
      "ธ์": 5252,
      "ป่วน": 5253,
      "พญานา": 5254,
      "ฟัส": 5255,
      "ยอบ": 5256,
      "รัย": 5257,
      "ว่ง": 5258,
      "วาร": 5259,
      "วิสุทธิสถาน": 5260,
      "ษย์": 5261,
      "ห้อม": 5262,
      "อุม": 5263,
      "าล": 5264,
      "ิอัท": 5265,
      "ุติ": 5266,
      "โรง": 5267,
      "โกลา": 5268,
      "ไง": 5269,
      "่ะ": 5270,
      "ราษฎ": 5271,
      "ที่นา": 5272,
      "ที่หก": 5273,
      "ผู้คน": 5274,
      "ันต์": 5275,
      "อยุติ": 5276,
      "เราเอง": 5277,
      "ให้คน": 5278,
      "ให้การ": 5279,
      "ได้อย่างไร": 5280,
      "เหี้ย": 5281,
      "ไม่ตก": 5282,
      "ไปที่": 5283,
      "เพียร": 5284,
      "ท่านด้วย": 5285,
      "เมชา": 5286,
      "ทั้งที่": 5287,
      "แต่เพียง": 5288,
      "เลีย": 5289,
      "อาธา": 5290,
      "การสร้าง": 5291,
      "รับรู้": 5292,
      "แกว่ง": 5293,
      "เร้น": 5294,
      "เรคาบ": 5295,
      "บารา": 5296,
      "ไว้กับ": 5297,
      "เมื่อเขา": 5298,
      "ต่อกัน": 5299,
      "หมอ": 5300,
      "หมุน": 5301,
      "หน้าตา": 5302,
      "โรมัน": 5303,
      "อย่างละ": 5304,
      "อดกลั้น": 5305,
      "กำมือ": 5306,
      "รุมล": 5307,
      "บนบัลลังก์": 5308,
      "ซาบาด": 5309,
      "นาโฮร์": 5310,
      "ดังเดิม": 5311,
      "แมลง": 5312,
      "เครา": 5313,
      "เคาะ": 5314,
      "เคอี": 5315,
      "รู้ถึง": 5316,
      "อย่าเลย": 5317,
      "สองสาม": 5318,
      "สองร้อย": 5319,
      "มนตร์": 5320,
      "เอาชนะ": 5321,
      "สิบแปด": 5322,
      "สร้างขึ้น": 5323,
      "เซเดค": 5324,
      "พี่ๆ": 5325,
      "สุดท้อง": 5326,
      "ไม้เรียว": 5327,
      "หัวแม่": 5328,
      "ัพท์": 5329,
      "ถามกัน": 5330,
      "พร้อมที่จะ": 5331,
      "ทะน": 5332,
      "ดิ่ง": 5333,
      "ปกรณ์": 5334,
      "ด้านใน": 5335,
      "ตระหง": 5336,
      "พาต": 5337,
      "อัมพาต": 5338,
      "สี่เหลี่ยม": 5339,
      "ศิบา": 5340,
      "ศิษย์": 5341,
      "อุบาย": 5342,
      "ใกล้จะ": 5343,
      "คาถา": 5344,
      "ข้างใน": 5345,
      "นับแต่": 5346,
      "รุ่งสาง": 5347,
      "เพื่อนๆ": 5348,
      "นกอินทรี": 5349,
      "เท่าไร": 5350,
      "อิฐ": 5351,
      "บริวาร": 5352,
      "ประจำการ": 5353,
      "ประจำเดือน": 5354,
      "เสาหาน": 5355,
      "เมลคี": 5356,
      "ตอนที่": 5357,
      "ปรากฏขึ้น": 5358,
      "แสดงตัว": 5359,
      "เที่ยงวัน": 5360,
      "คมกริบ": 5361,
      "ชักจูง": 5362,
      "เปลี่ยนแปลง": 5363,
      "ติศัพท์": 5364,
      "เพิ่มพูน": 5365,
      "หยิ่งยโส": 5366,
      "อิชโบเชท": 5367,
      "ผูกพัน": 5368,
      "อุสซีเอล": 5369,
      "หันไปทาง": 5370,
      "สุกร": 5371,
      "ดื้อดึง": 5372,
      "ค้ำชู": 5373,
      "ฝุ่นธุลี": 5374,
      "มัททาน": 5375,
      "รวงข้าว": 5376,
      "ตะลันต์": 5377,
      "ตกต่ำลง": 5378,
      "เคนัส": 5379,
      "ปั่นป่วน": 5380,
      "โอเบดเอโดม": 5381,
      "โบยตี": 5382,
      "เวทมนตร์": 5383,
      "เอาใจใส่": 5384,
      "ลิ้มรส": 5385,
      "บั้นปลาย": 5386,
      "มดยอบ": 5387,
      "สำมะโน": 5388,
      "โกลิอัท": 5389,
      "โชติช่วง": 5390,
      "กิตติศัพท์": 5391,
      "จินดา": 5392,
      "ทีรซาห์": 5393,
      "ปัญหา": 5394,
      "หนึ่งในสิบ": 5395,
      "เรฟาอิม": 5396,
      "สุคคท": 5397,
      "ขวนขวาย": 5398,
      "ทิตัส": 5399,
      "พญานาค": 5400,
      "ห้อมล้อม": 5401,
      "โกลาหล": 5402,
      "อยุติธรรม": 5403,
      "รุมล้อม": 5404,
      "เคอีลาห์": 5405,
      "ตระหง่าน": 5406,
      "13": 5407,
      "32": 5408,
      "40": 5409,
      "800": 5410,
      "กัย": 5411,
      "คอบ": 5412,
      "จั": 5413,
      "ซาน": 5414,
      "ถู": 5415,
      "บีบ": 5416,
      "ปาน": 5417,
      "ปิ้ง": 5418,
      "ผัก": 5419,
      "พอง": 5420,
      "ภักดิ์": 5421,
      "มฟ": 5422,
      "ย่าน": 5423,
      "ษก": 5424,
      "สับ": 5425,
      "สมา": 5426,
      "ส่าย": 5427,
      "หิ": 5428,
      "หมี": 5429,
      "หัท": 5430,
      "อุ่น": 5431,
      "เษก": 5432,
      "แกล": 5433,
      "แกลบ": 5434,
      "โว": 5435,
      "โคล": 5436,
      "ไพ": 5437,
      "ระดาน": 5438,
      "ของท่าน": 5439,
      "ที่ชุมนุม": 5440,
      "มาอัส": 5441,
      "ให้ทำ": 5442,
      "ให้พ้น": 5443,
      "คนรับใช้": 5444,
      "ทรงพบ": 5445,
      "ทรงยึด": 5446,
      "เหม": 5447,
      "ไม่กิน": 5448,
      "ไปกับ": 5449,
      "ไปถึง": 5450,
      "ครัด": 5451,
      "ท่านไว้": 5452,
      "เอฮูด": 5453,
      "นั้นไป": 5454,
      "เมเช": 5455,
      "เมฟี": 5456,
      "กลาก": 5457,
      "ทำบาป": 5458,
      "ความลับ": 5459,
      "อาคาร": 5460,
      "ติเตียน": 5461,
      "เชน": 5462,
      "เรด": 5463,
      "เอลาห์": 5464,
      "เกือบ": 5465,
      "ไว้ใจ": 5466,
      "เดอร์": 5467,
      "ทุกปี": 5468,
      "ใจของ": 5469,
      "ถึงขนาด": 5470,
      "วันแรก": 5471,
      "เข้าหา": 5472,
      "เนา": 5473,
      "ีกายิล": 5474,
      "สาระ": 5475,
      "คำโกหก": 5476,
      "บนโลก": 5477,
      "บนพื้น": 5478,
      "ดีๆ": 5479,
      "ลูกอ่อน": 5480,
      "ลูกจ้าง": 5481,
      "ซาระดาน": 5482,
      "ต่างแดน": 5483,
      "กล่าวถึง": 5484,
      "ใช้ชีวิต": 5485,
      "ยาอา": 5486,
      "ดูแคลน": 5487,
      "เบี้ย": 5488,
      "ซูร์": 5489,
      "สองปี": 5490,
      "สวามิ": 5491,
      "ชั่วชีวิต": 5492,
      "ปลิว": 5493,
      "วาบ": 5494,
      "ยกโทษ": 5495,
      "สิบคน": 5496,
      "สิบหก": 5497,
      "ตกตะลึง": 5498,
      "สุดจิต": 5499,
      "โอ๊ก": 5500,
      "ไม้สอย": 5501,
      "พลี": 5502,
      "ตลอดวัน": 5503,
      "คืนดี": 5504,
      "ทูบ": 5505,
      "ต้นมะกอก": 5506,
      "โก่ง": 5507,
      "โฮเรบ": 5508,
      "มอบไว้": 5509,
      "สายคาดเอว": 5510,
      "สนธ": 5511,
      "อาบีกายิล": 5512,
      "รอบคอบ": 5513,
      "เลี้ยงชีพ": 5514,
      "มิเรียม": 5515,
      "ตีสอน": 5516,
      "ยึดถือ": 5517,
      "ชิก": 5518,
      "แร่": 5519,
      "เกรงขาม": 5520,
      "กราบลง": 5521,
      "เฟน": 5522,
      "เฟสทัส": 5523,
      "เบธโฮ": 5524,
      "เด็กหนุ่ม": 5525,
      "พยานเท็จ": 5526,
      "ข่มขู่": 5527,
      "มะนา": 5528,
      "บังเกิด": 5529,
      "ใบ้": 5530,
      "มวลมนุษย์": 5531,
      "กลุ่มใหญ่": 5532,
      "พระราชกฤษฎีกา": 5533,
      "ขี่ม้า": 5534,
      "เนบูซาระดาน": 5535,
      "ประชุมกัน": 5536,
      "เสื่อมเสีย": 5537,
      "บุกโจมตี": 5538,
      "แยแส": 5539,
      "เคลื่อนไป": 5540,
      "หลักแหลม": 5541,
      "บำรุง": 5542,
      "รำมะนา": 5543,
      "ตั้งใจฟัง": 5544,
      "ภาคภูมิใจ": 5545,
      "ลอยนวล": 5546,
      "แค่ไหน": 5547,
      "เตาไฟ": 5548,
      "โซ่ตรวน": 5549,
      "ชู้รัก": 5550,
      "ระดมพล": 5551,
      "ก่อนหน้านี้": 5552,
      "ลักขโมย": 5553,
      "มีคาล": 5554,
      "คิ้ว": 5555,
      "ถลุง": 5556,
      "โฉม": 5557,
      "ลิบนาห์": 5558,
      "มึนเมา": 5559,
      "เคร่งครัด": 5560,
      "ไพร่พล": 5561,
      "พลุ่งขึ้น": 5562,
      "อภิเษก": 5563,
      "แต่นี้ไป": 5564,
      "สเทเฟน": 5565,
      "อาโรเออร์": 5566,
      "ปฐม": 5567,
      "ฟ่อนข้าว": 5568,
      "เสไรอาห์": 5569,
      "แซนเฮดริน": 5570,
      "ฉับพลัน": 5571,
      "ชัสซาร์": 5572,
      "อาธาลิยาห์": 5573,
      "เมฟีโบเชท": 5574,
      "สวามิภักดิ์": 5575,
      "70": 5576,
      "ขุม": 5577,
      "คืบ": 5578,
      "จี": 5579,
      "จวน": 5580,
      "ฉาน": 5581,
      "ชโลม": 5582,
      "ดูก": 5583,
      "ดัย": 5584,
      "ทรุด": 5585,
      "น่ะ": 5586,
      "ยาย": 5587,
      "ร่า": 5588,
      "ล้าน": 5589,
      "ศัก": 5590,
      "ส่อน": 5591,
      "หอบ": 5592,
      "หิยาห์": 5593,
      "หยาด": 5594,
      "แว": 5595,
      "พระโม": 5596,
      "ราญ": 5597,
      "ราคะ": 5598,
      "ที่พระองค์": 5599,
      "ที่เหลือ": 5600,
      "เข็ม": 5601,
      "เปอร": 5602,
      "เขาเอง": 5603,
      "มาโนอาห์": 5604,
      "ทรงตอบ": 5605,
      "ไม่ทำให้": 5606,
      "ไม่ผิด": 5607,
      "ไม่กลัว": 5608,
      "หนวก": 5609,
      "หนอน": 5610,
      "ครู่": 5611,
      "กลม": 5612,
      "แต่ไกล": 5613,
      "ความงาม": 5614,
      "ความยาว": 5615,
      "พระผู้ไถ่": 5616,
      "รับบี": 5617,
      "เยฮี": 5618,
      "ด้วยมือ": 5619,
      "เก่ง": 5620,
      "ทุกเช้า": 5621,
      "วันเดียว": 5622,
      "หม่น": 5623,
      "เนม": 5624,
      "ตัวเมือง": 5625,
      "ตัวแทน": 5626,
      "ยังไม่": 5627,
      "คำเตือน": 5628,
      "ดีงาม": 5629,
      "สำส่อน": 5630,
      "สำราญ": 5631,
      "ซาราย": 5632,
      "นาอุม": 5633,
      "เครื่องใน": 5634,
      "ดังกล่าว": 5635,
      "รู้ตัว": 5636,
      "อย่าได้": 5637,
      "หมดไป": 5638,
      "หมดแล้ว": 5639,
      "ราบคาบ": 5640,
      "พันคน": 5641,
      "เอาตัว": 5642,
      "ส่งเสียง": 5643,
      "สามร้อย": 5644,
      "ตุรัส": 5645,
      "ครั้งก่อน": 5646,
      "ถ้าเรา": 5647,
      "ตะก": 5648,
      "วนาห์": 5649,
      "พลิก": 5650,
      "ตลอดทาง": 5651,
      "ปราณ": 5652,
      "เฮมาน": 5653,
      "ต้นเหตุ": 5654,
      "ต้นสน": 5655,
      "เพียงพอ": 5656,
      "ด้านบน": 5657,
      "อัมราม": 5658,
      "สายน้ำ": 5659,
      "ตรงนี้": 5660,
      "ต่อไปอีก": 5661,
      "รอบเมือง": 5662,
      "ตั้งแต่แรก": 5663,
      "คาเปอร": 5664,
      "เฝ้าระวัง": 5665,
      "นับว่า": 5666,
      "ข้อกล่าวหา": 5667,
      "โน้น": 5668,
      "โน้ม": 5669,
      "ุนเนห์": 5670,
      "ไร้สาระ": 5671,
      "รากฐาน": 5672,
      "โหรา": 5673,
      "ล่วงประเวณี": 5674,
      "เชื้อรา": 5675,
      "แน่นหนา": 5676,
      "อามาริยาห์": 5677,
      "ธาทัพ": 5678,
      "อาหิมาอัส": 5679,
      "อาหิทูบ": 5680,
      "ล้ำเลิศ": 5681,
      "นึกถึง": 5682,
      "ตราบใด": 5683,
      "จ่ายเงิน": 5684,
      "ฤดูหนาว": 5685,
      "พิณใหญ่": 5686,
      "โธน": 5687,
      "มะกอกเทศ": 5688,
      "เศร้าโศก": 5689,
      "พึ่งพา": 5690,
      "หันไปหา": 5691,
      "ถอยหนี": 5692,
      "หุ้มด้วย": 5693,
      "โต้เถียง": 5694,
      "ลักษณ์": 5695,
      "โอบล้อม": 5696,
      "เฮอร์โมน": 5697,
      "เอลียาคิม": 5698,
      "เยฟุนเนห์": 5699,
      "อัมมีนาดับ": 5700,
      "กรีธาทัพ": 5701,
      "เหือดแห้ง": 5702,
      "ไม่อยู่": 5703,
      "เม็ดทราย": 5704,
      "อาราวนาห์": 5705,
      "อึกทึก": 5706,
      "เพาะปลูก": 5707,
      "ฮันนาห์": 5708,
      "เสรีภาพ": 5709,
      "กิโลลิตร": 5710,
      "ราษฎร": 5711,
      "บาราค": 5712,
      "เมลคีเซเดค": 5713,
      "มัททานิยาห์": 5714,
      "จัตุรัส": 5715,
      "พระโมเลค": 5716,
      "คาเปอรนาอุม": 5717,
      "14": 5718,
      "กธาร": 5719,
      "กราน": 5720,
      "ค้าน": 5721,
      "ฉุด": 5722,
      "ซี่": 5723,
      "ซัน": 5724,
      "ณิช": 5725,
      "ดรู": 5726,
      "ตลาด": 5727,
      "ถัน": 5728,
      "ท้า": 5729,
      "บอง": 5730,
      "บ้า": 5731,
      "พั": 5732,
      "มิน": 5733,
      "ย้อน": 5734,
      "รั้ง": 5735,
      "ฤดูก": 5736,
      "ลอบ": 5737,
      "ศดี": 5738,
      "ห้ำ": 5739,
      "ฮาห์": 5740,
      "ัป": 5741,
      "ราหับ": 5742,
      "ที่มา": 5743,
      "เปีย": 5744,
      "องค์นี้": 5745,
      "ั้ว": 5746,
      "มาพบ": 5747,
      "ใหล": 5748,
      "ให้ดี": 5749,
      "ให้หาย": 5750,
      "าริ": 5751,
      "ทรงมา": 5752,
      "ทรงบอก": 5753,
      "ทรงเอา": 5754,
      "ครืน": 5755,
      "เอื้อ": 5756,
      "เอียน": 5757,
      "เอื้อม": 5758,
      "มีชัย": 5759,
      "ชาต": 5760,
      "ชาบิยาห์": 5761,
      "เลมิ": 5762,
      "อาโด": 5763,
      "อาเซ": 5764,
      "เสท": 5765,
      "เสนา": 5766,
      "การกบฏ": 5767,
      "การแก้แค้น": 5768,
      "รับบาห์": 5769,
      "เกบา": 5770,
      "ตามใจ": 5771,
      "สัล": 5772,
      "เวร": 5773,
      "เวียน": 5774,
      "หมอด": 5775,
      "ริษยา": 5776,
      "โรม": 5777,
      "อย่างมาก": 5778,
      "เข้าออก": 5779,
      "เข้าใกล้": 5780,
      "ตัวนั้น": 5781,
      "ถูกนับ": 5782,
      "เมืองกัท": 5783,
      "จนครบ": 5784,
      "กำมะ": 5785,
      "เทิง": 5786,
      "เทวี": 5787,
      "โมร์": 5788,
      "คำมั่น": 5789,
      "คำอธิษฐาน": 5790,
      "บรรเทา": 5791,
      "ชีบ": 5792,
      "ชาวเลวี": 5793,
      "นาหา": 5794,
      "ไม่ได้ทำ": 5795,
      "เครื่องทอง": 5796,
      "โดยกำเนิด": 5797,
      "แม่ม": 5798,
      "เบลา": 5799,
      "ละเว้น": 5800,
      "ละมั่ง": 5801,
      "เงื้อ": 5802,
      "ส่งคน": 5803,
      "ส่งไป": 5804,
      "พบเห็น": 5805,
      "สามพัน": 5806,
      "ตกเป็น": 5807,
      "เผาทิ้ง": 5808,
      "โคอา": 5809,
      "ตะกล": 5810,
      "ตลบ": 5811,
      "ผิดพลาด": 5812,
      "คืนนี้": 5813,
      "เรียกตัว": 5814,
      "ดิบ": 5815,
      "ดิภาพ": 5816,
      "รบกวน": 5817,
      "โกเชน": 5818,
      "แข่ง": 5819,
      "กองพล": 5820,
      "เพียงไร": 5821,
      "เสียด": 5822,
      "หยด": 5823,
      "ทาเซอร์ซีส": 5824,
      "พยุง": 5825,
      "เคยมี": 5826,
      "สายสืบ": 5827,
      "สนุก": 5828,
      "ตรงไป": 5829,
      "วีร": 5830,
      "ว่างเปล่า": 5831,
      "หันมาหา": 5832,
      "ศิล": 5833,
      "ศิกลาก": 5834,
      "อุ้ง": 5835,
      "เล่าให้": 5836,
      "เล่าถึง": 5837,
      "ข้างหนึ่ง": 5838,
      "มิค": 5839,
      "ฮาชาบิยาห์": 5840,
      "บันเทิง": 5841,
      "ชมเชย": 5842,
      "อารทาเซอร์ซีส": 5843,
      "แร้ว": 5844,
      "ฝ่ายโลก": 5845,
      "นอนหลับ": 5846,
      "ลมุน": 5847,
      "ลมปราณ": 5848,
      "รัค": 5849,
      "กำหนดไว้": 5850,
      "แน่ๆ": 5851,
      "เสมอมา": 5852,
      "ร้อนแรง": 5853,
      "เปโอร์": 5854,
      "แบ่งกัน": 5855,
      "โรคภัย": 5856,
      "ขยับ": 5857,
      "ตอนเช้า": 5858,
      "โกรกธาร": 5859,
      "กระจาด": 5860,
      "คัดเลือก": 5861,
      "คัดค้าน": 5862,
      "แก้ไข": 5863,
      "บารซ": 5864,
      "แสดงว่า": 5865,
      "อภัยบาป": 5866,
      "ทันทีที่": 5867,
      "ธาอิม": 5868,
      "สั่นคลอน": 5869,
      "ขนแกะ": 5870,
      "เพิ่มเติม": 5871,
      "ม่านกั้น": 5872,
      "เสื่อมสลาย": 5873,
      "เภท": 5874,
      "มั่งมี": 5875,
      "ดอกเบี้ย": 5876,
      "หลั่งเลือด": 5877,
      "ลุ่ย": 5878,
      "แขนง": 5879,
      "โค่นล้ม": 5880,
      "หวั่นไหว": 5881,
      "ล้นเหลือ": 5882,
      "เอ่ยปาก": 5883,
      "ที่พักพิง": 5884,
      "เอลียาชีบ": 5885,
      "มีคาเอล": 5886,
      "เต้นรำ": 5887,
      "จงรักภักดี": 5888,
      "เบิกบาน": 5889,
      "บ่วงแร้ว": 5890,
      "หมาใน": 5891,
      "เหลียวแล": 5892,
      "แวบวาบ": 5893,
      "ถี่ถ้วน": 5894,
      "สวัสดิภาพ": 5895,
      "สมาชิก": 5896,
      "เบธโฮโรน": 5897,
      "โหราจารย์": 5898,
      "พัศดี": 5899,
      "ฤดูกาล": 5900,
      "ห้ำหั่น": 5901,
      "หมอดู": 5902,
      "กำมะถัน": 5903,
      "ขี": 5904,
      "ขูด": 5905,
      "คอง": 5906,
      "จุน": 5907,
      "จิ้ง": 5908,
      "ฉก": 5909,
      "ฉาง": 5910,
      "ฐี": 5911,
      "ด์": 5912,
      "ตอ": 5913,
      "ตับ": 5914,
      "ตอก": 5915,
      "ทึ้ง": 5916,
      "บ่าย": 5917,
      "ป่อง": 5918,
      "ผัน": 5919,
      "พวง": 5920,
      "ฟฟา": 5921,
      "ฟุ้ง": 5922,
      "ยักษ์": 5923,
      "ร่าย": 5924,
      "ลอก": 5925,
      "ลอด": 5926,
      "ลุ่ม": 5927,
      "ลีบ": 5928,
      "ศุ": 5929,
      "ศู": 5930,
      "หกร": 5931,
      "ิโอท": 5932,
      "ไย": 5933,
      "’?”": 5934,
      "ระอุ": 5935,
      "ราชา": 5936,
      "เจ้าได้": 5937,
      "ที่บ้าน": 5938,
      "เป็นธรรม": 5939,
      "ายาห์": 5940,
      "ในใจ": 5941,
      "ให้มี": 5942,
      "ให้อภัย": 5943,
      "ทรงดี": 5944,
      "ทรงรู้จัก": 5945,
      "ไม่รัก": 5946,
      "ไม่ทราบ": 5947,
      "เอเบอร์": 5948,
      "มีสิทธิ์": 5949,
      "ประดา": 5950,
      "ประเภท": 5951,
      "ประคอง": 5952,
      "คว้า": 5953,
      "ทำศึก": 5954,
      "ทั้งสี่": 5955,
      "ความโง่": 5956,
      "ความอดทน": 5957,
      "อาแบ": 5958,
      "อาเบด": 5959,
      "ิสนิท": 5960,
      "การไถ่": 5961,
      "การละเมิด": 5962,
      "แกง": 5963,
      "เชอัล": 5964,
      "เรอาห์": 5965,
      "เยรุ": 5966,
      "ด้วยใจ": 5967,
      "เกเซอร์": 5968,
      "เกชูร์": 5969,
      "ตามไป": 5970,
      "จึงได้": 5971,
      "ขึ้นกับ": 5972,
      "มือเปล่า": 5973,
      "เนโค": 5974,
      "เนโก": 5975,
      "เนธัน": 5976,
      "อนด์": 5977,
      "เมืองนั้น": 5978,
      "นำทาง": 5979,
      "ขอรับ": 5980,
      "ทางขวา": 5981,
      "เทโคอา": 5982,
      "คำน": 5983,
      "คำร้อง": 5984,
      "ชาวโมอับ": 5985,
      "เครื่องมือ": 5986,
      "ยาฮา": 5987,
      "ยาอีร์": 5988,
      "ดังก้อง": 5989,
      "โดยเฉพาะ": 5990,
      "น้ำหอม": 5991,
      "เค้า": 5992,
      "เคเร": 5993,
      "อันยิ่งใหญ่": 5994,
      "อันดรู": 5995,
      "้งฉาง": 5996,
      "ดูสี": 5997,
      "ประชิด": 5998,
      "ประชวร": 5999,
      "ปลิด": 6000,
      "ธรรมชาติ": 6001,
      "ร้องบอก": 6002,
      "ทิเอล": 6003,
      "ส่งให้": 6004,
      "สมกับ": 6005,
      "สามัญ": 6006,
      "สามเดือน": 6007,
      "สะดูสี": 6008,
      "อัลม": 6009,
      "ตกเย็น": 6010,
      "ประกาศิต": 6011,
      "มารธา": 6012,
      "นายทัพ": 6013,
      "ตุ้ม": 6014,
      "สิ้นเชิง": 6015,
      "ฉันท์": 6016,
      "คืนให้": 6017,
      "ยืนกราน": 6018,
      "ต้นหญ้า": 6019,
      "ซีด": 6020,
      "เงินทอง": 6021,
      "ออกไปยัง": 6022,
      "ดิ้น": 6023,
      "รบชนะ": 6024,
      "เศรษ": 6025,
      "โกเมน": 6026,
      "กองโจร": 6027,
      "ฝูงตั๊กแตน": 6028,
      "ตระหน": 6029,
      "ก่อนๆ": 6030,
      "ครอบคลุม": 6031,
      "เคยทำ": 6032,
      "สี่ร้อย": 6033,
      "ศิฟ": 6034,
      "อุปกรณ์": 6035,
      "รวมกัน": 6036,
      "จับได้": 6037,
      "รอบตัว": 6038,
      "กลับมาหา": 6039,
      "ตั้งแต่เกิด": 6040,
      "คุณสมบัติ": 6041,
      "คาเรอาห์": 6042,
      "ลึกซึ้ง": 6043,
      "หนักแน่น": 6044,
      "นับพัน": 6045,
      "ฟาส": 6046,
      "ไถนา": 6047,
      "ยุ้งฉาง": 6048,
      "อารบา": 6049,
      "ฝ่ายใต้": 6050,
      "บานี": 6051,
      "นกเขา": 6052,
      "นกเค้า": 6053,
      "เอลีซา": 6054,
      "เอลีฟัส": 6055,
      "ลองดี": 6056,
      "เกลียว": 6057,
      "แจ่ม": 6058,
      "ข่าวดี": 6059,
      "เฟือ": 6060,
      "เด็กเล็กๆ": 6061,
      "จำนน": 6062,
      "ฝังไว้": 6063,
      "คอยดูแล": 6064,
      "เสมอไป": 6065,
      "หกวัน": 6066,
      "แยกแย": 6067,
      "หนังสือนี้": 6068,
      "แบบอย่าง": 6069,
      "ข้าราชสำนัก": 6070,
      "พังทลาย": 6071,
      "โศบาห์": 6072,
      "ซ่อนเร้น": 6073,
      "ยูน": 6074,
      "อามาห์": 6075,
      "หูหนวก": 6076,
      "อีเอล": 6077,
      "เอลีชามา": 6078,
      "สถิตอยู่": 6079,
      "มาห์ลี": 6080,
      "ฮานูน": 6081,
      "ยี่สิบสี่": 6082,
      "จรด": 6083,
      "อาชญ": 6084,
      "เลิกทำ": 6085,
      "ญาติสนิท": 6086,
      "เหวลึก": 6087,
      "ดุเดือด": 6088,
      "หลักหมุด": 6089,
      "ไนต์": 6090,
      "เงียบๆ": 6091,
      "ปลูกไว้": 6092,
      "หลั่งไหล": 6093,
      "ตรวจสอบ": 6094,
      "ชัดรัค": 6095,
      "ถอยทัพ": 6096,
      "รำพึง": 6097,
      "ปรีชา": 6098,
      "ยัฟฟา": 6099,
      "เอ่ยถึง": 6100,
      "หลบซ่อน": 6101,
      "จานเงิน": 6102,
      "โคนขา": 6103,
      "ฟื้นฟู": 6104,
      "เทียบเท่า": 6105,
      "พุ่งขึ้น": 6106,
      "ลงมือทำ": 6107,
      "หยั่งรู้": 6108,
      "ร้าวราน": 6109,
      "ปูนบำเหน็จ": 6110,
      "พุ่มหนาม": 6111,
      "พะยูน": 6112,
      "ฝึกฝน": 6113,
      "อิดโด": 6114,
      "มาหะนาอิม": 6115,
      "เป็นเหตุให้": 6116,
      "วัชพืช": 6117,
      "แมงป่อง": 6118,
      "พริบตา": 6119,
      "เหี้ยม": 6120,
      "เมชาค": 6121,
      "เยฮีเอล": 6122,
      "หม่นหมอง": 6123,
      "เลมิยาห์": 6124,
      "อาโดนี": 6125,
      "คำมั่นสัญญา": 6126,
      "หกร้อย": 6127,
      "อาแบล": 6128,
      "อาเบดเนโก": 6129,
      "เยรุบ": 6130,
      "เนธันเอล": 6131,
      "อันดรูว์": 6132,
      "อัลมอนด์": 6133,
      "เศรษฐี": 6134,
      "แยกแยะ": 6135,
      "28": 6136,
      "300": 6137,
      "กก": 6138,
      "กพร": 6139,
      "ขลุ่ย": 6140,
      "คัส": 6141,
      "งา": 6142,
      "งำ": 6143,
      "ช้าง": 6144,
      "ชเฮอร์": 6145,
      "ซ้อน": 6146,
      "ญแจ": 6147,
      "ถ่ม": 6148,
      "ธู": 6149,
      "ธูน": 6150,
      "นาการ": 6151,
      "บึง": 6152,
      "ป่าน": 6153,
      "ป่น": 6154,
      "ปี้": 6155,
      "ปอล": 6156,
      "ผอม": 6157,
      "ฝ่อ": 6158,
      "ฟาน": 6159,
      "มั": 6160,
      "ยืด": 6161,
      "รั้น": 6162,
      "รั้ว": 6163,
      "ลี่": 6164,
      "ลิง": 6165,
      "ลัท": 6166,
      "หัด": 6167,
      "อปอล": 6168,
      "ึม": 6169,
      "ุ้ม": 6170,
      "แปร": 6171,
      "โหม": 6172,
      "โอด": 6173,
      "โนม": 6174,
      "ระบ": 6175,
      "ที่กำลัง": 6176,
      "ที่ซ่อน": 6177,
      "และกัน": 6178,
      "เปคาห์": 6179,
      "เปเลท": 6180,
      "มาลิยาห์": 6181,
      "ด้อย": 6182,
      "ว่าร้าย": 6183,
      "ไม้ว": 6184,
      "ให้เกิด": 6185,
      "คนงาน": 6186,
      "ได้ให้": 6187,
      "ได้ไป": 6188,
      "ทรงเกียรติ": 6189,
      "ไม่ปรานี": 6190,
      "ไม่แยแส": 6191,
      "ไปได้": 6192,
      "ท่านทำ": 6193,
      "มีด": 6194,
      "กลาด": 6195,
      "ทำขึ้น": 6196,
      "แต่เขา": 6197,
      "เลือน": 6198,
      "รรดิ": 6199,
      "ิสัญญา": 6200,
      "การกดขี่": 6201,
      "อบรม": 6202,
      "เชฟา": 6203,
      "เรียง": 6204,
      "เรอูเอล": 6205,
      "เรมาลิยาห์": 6206,
      "เยดู": 6207,
      "เยดายาห์": 6208,
      "เยอีเอล": 6209,
      "ข้าพเจ้าเอง": 6210,
      "จึงให้": 6211,
      "ทุกด้าน": 6212,
      "อิสฮาร์": 6213,
      "บุตรี": 6214,
      "สิ่งชั่วร้าย": 6215,
      "เข้าข้าง": 6216,
      "เนือง": 6217,
      "เนโท": 6218,
      "เนโบ": 6219,
      "ตัวเรา": 6220,
      "ถูกปล้น": 6221,
      "ถูกกดขี่": 6222,
      "แห่งชีวิต": 6223,
      "สาธาร": 6224,
      "เทราห์": 6225,
      "คำตัดสิน": 6226,
      "บนิ่ง": 6227,
      "บนเตียง": 6228,
      "ชาวนา": 6229,
      "ซาดัก": 6230,
      "กาจ": 6231,
      "กระห": 6232,
      "กระตุ": 6233,
      "กระโดด": 6234,
      "ยาเซอร์": 6235,
      "ยาเฟท": 6236,
      "ตั้งมั่น": 6237,
      "เคโลน": 6238,
      "เคี่ยว": 6239,
      "เคียว": 6240,
      "เคไนต์": 6241,
      "อันมี": 6242,
      "รูปร": 6243,
      "เบเอ": 6244,
      "เบียด": 6245,
      "ราชการ": 6246,
      "ราชสำนัก": 6247,
      "ปีละ": 6248,
      "ช่วยกัน": 6249,
      "เอามา": 6250,
      "งานฉลอง": 6251,
      "ยกเลิก": 6252,
      "ทิยาห์": 6253,
      "เหนี่ยว": 6254,
      "จักรว": 6255,
      "สงบนิ่ง": 6256,
      "สะอิด": 6257,
      "สะเอียน": 6258,
      "พันธนาการ": 6259,
      "แกะสลัก": 6260,
      "หัวแข็ง": 6261,
      "ถ้าหาก": 6262,
      "แนบ": 6263,
      "พลาง": 6264,
      "เหลือรอด": 6265,
      "เหลือเฟือ": 6266,
      "ต้นหนาม": 6267,
      "ยอมแพ้": 6268,
      "แท่นนั้น": 6269,
      "คิดร้าย": 6270,
      "เผ่าพันธุ์": 6271,
      "รอดได้": 6272,
      "เคยเห็น": 6273,
      "ตรงกลาง": 6274,
      "ทั่วไป": 6275,
      "รีเอล": 6276,
      "พ้นโทษ": 6277,
      "ใกล้เคียง": 6278,
      "รวมพล": 6279,
      "ฟีร์": 6280,
      "น่าละอาย": 6281,
      "นับหมื่น": 6282,
      "ฮาโมร์": 6283,
      "แทนที่": 6284,
      "หลานชาย": 6285,
      "หุชัย": 6286,
      "เฟื้อ": 6287,
      "ล่วงล้ำ": 6288,
      "สัมภาระ": 6289,
      "เชิญมา": 6290,
      "ขัดแย้ง": 6291,
      "ปิดปาก": 6292,
      "สลด": 6293,
      "สลัด": 6294,
      "พินิจ": 6295,
      "ขวิด": 6296,
      "ช่างทอง": 6297,
      "โศราห์": 6298,
      "ซ่อนไว้": 6299,
      "ปรากฏตัว": 6300,
      "เปรย": 6301,
      "เปรี้ยว": 6302,
      "ไม่ออก": 6303,
      "โกรธจัด": 6304,
      "เบื้องหน้า": 6305,
      "จบลง": 6306,
      "ทุจริต": 6307,
      "กุล": 6308,
      "กุญแจ": 6309,
      "สูญเปล่า": 6310,
      "คุมขัง": 6311,
      "ขนสัตว์": 6312,
      "หลุมพราง": 6313,
      "ระเบียง": 6314,
      "ลี้ลับ": 6315,
      "แล้วกัน": 6316,
      "ห่างๆ": 6317,
      "อาโมศ": 6318,
      "ปาชเฮอร์": 6319,
      "ิลลัย": 6320,
      "สมัยนั้น": 6321,
      "120": 6322,
      "บังคับให้": 6323,
      "ถาโถม": 6324,
      "ระยะหนึ่ง": 6325,
      "แสนดี": 6326,
      "อัชเคโลน": 6327,
      "อานาเนีย": 6328,
      "ทิมนาห์": 6329,
      "ดื้อรั้น": 6330,
      "แนวทาง": 6331,
      "อนิจจา": 6332,
      "ชะตาก": 6333,
      "มัลคียาห์": 6334,
      "เน่าเปื่อย": 6335,
      "ขนานนาม": 6336,
      "สวยงาม": 6337,
      "เกลื่อนกลาด": 6338,
      "โอโฮลี": 6339,
      "เด็ดขาด": 6340,
      "เบเรคิยาห์": 6341,
      "ฮินโนม": 6342,
      "ซอกหิน": 6343,
      "ทะนง": 6344,
      "เหม็น": 6345,
      "สนธิสัญญา": 6346,
      "ร่าเริง": 6347,
      "ตราบใดที่": 6348,
      "เอื้อเฟื้อ": 6349,
      "บารซิลลัย": 6350,
      "เชอัลทิเอล": 6351,
      "เยรุบบาอัล": 6352,
      "กพร่อง": 6353,
      "งาช้าง": 6354,
      "ป่นปี้": 6355,
      "ไม้วัด": 6356,
      "เชฟาทิยาห์": 6357,
      "เยดูธูน": 6358,
      "เนโทฟาห์": 6359,
      "กระตุ้น": 6360,
      "รูปร่าง": 6361,
      "จักรวรรดิ": 6362,
      "สะอิดสะเอียน": 6363,
      "ชะตากรรม": 6364,
      "42": 6365,
      "กาห์": 6366,
      "กรู": 6367,
      "ข้น": 6368,
      "คั้น": 6369,
      "งง": 6370,
      "งัน": 6371,
      "ดฉันท์": 6372,
      "ถัก": 6373,
      "ทอน": 6374,
      "บดี": 6375,
      "ปรับ": 6376,
      "ปปา": 6377,
      "ผนึก": 6378,
      "พาด": 6379,
      "ฟาร์": 6380,
      "มัม": 6381,
      "มิม": 6382,
      "ยม": 6383,
      "รอก": 6384,
      "รีก": 6385,
      "ลัม": 6386,
      "วสาน": 6387,
      "อ้อ": 6388,
      "อักษ": 6389,
      "อวสาน": 6390,
      "ื้ม": 6391,
      "แฝ": 6392,
      "แพร": 6393,
      "แวด": 6394,
      "โตร": 6395,
      "โหล": 6396,
      "พระศพ": 6397,
      "ราธาห์": 6398,
      "เจือ": 6399,
      "เจาะ": 6400,
      "ที่ยัง": 6401,
      "ที่เกิด": 6402,
      "ที่หัว": 6403,
      "ที่ไม่ใช่": 6404,
      "ที่เคย": 6405,
      "ที่แปด": 6406,
      "ที่สิบสอง": 6407,
      "เขมือ": 6408,
      "ับบัส": 6409,
      "เขาไว้": 6410,
      "มากับ": 6411,
      "ามือ": 6412,
      "ทรงเตือน": 6413,
      "ทรงแสนดี": 6414,
      "ไม่ช่วย": 6415,
      "ไม่หยุด": 6416,
      "ไปเป็น": 6417,
      "หนวด": 6418,
      "หนุน": 6419,
      "เพียบ": 6420,
      "เอเบด": 6421,
      "นั้นเอง": 6422,
      "เมตร": 6423,
      "เมกิด": 6424,
      "แตกระ": 6425,
      "ประเมิน": 6426,
      "ทำได้": 6427,
      "ความเท็จ": 6428,
      "ความโลภ": 6429,
      "เลียน": 6430,
      "เลียบ": 6431,
      "เลโบ": 6432,
      "อาซา": 6433,
      "การจ": 6434,
      "การเชิดชู": 6435,
      "แก้ม": 6436,
      "เช็ด": 6437,
      "เชือด": 6438,
      "เรช": 6439,
      "เรี่ยว": 6440,
      "เยือน": 6441,
      "เยโธ": 6442,
      "ดาลา": 6443,
      "ด้วยหรือ": 6444,
      "เดลิ": 6445,
      "แก่เขา": 6446,
      "ขึ้นบัญชี": 6447,
      "ทุกที": 6448,
      "ต่อว่า": 6449,
      "ต่อให้": 6450,
      "ต่อกร": 6451,
      "บุตรชาย": 6452,
      "วันละ": 6453,
      "หมวก": 6454,
      "ออกเป็น": 6455,
      "ริปปา": 6456,
      "อดตาย": 6457,
      "กันและกัน": 6458,
      "สามาน": 6459,
      "สาขา": 6460,
      "ทางหลวง": 6461,
      "วิจาร": 6462,
      "คำกล่าว": 6463,
      "คำทำนาย": 6464,
      "ลูกน้อง": 6465,
      "ลูกเรือ": 6466,
      "ไร่": 6467,
      "ใช้สอย": 6468,
      "กระหยิ": 6469,
      "กระชาก": 6470,
      "กระบอง": 6471,
      "ดังขึ้น": 6472,
      "น้ำใจ": 6473,
      "เคดาร์": 6474,
      "เคเดช": 6475,
      "รู้อยู่": 6476,
      "ยิม": 6477,
      "เบ้า": 6478,
      "เบดี": 6479,
      "ราชัน": 6480,
      "ตายไป": 6481,
      "ชั่วคราว": 6482,
      "ปลั่ง": 6483,
      "ปลื้ม": 6484,
      "เดียดฉันท์": 6485,
      "เรียบ": 6486,
      "ธรรมดา": 6487,
      "กำลังมา": 6488,
      "ร้องทุกข์": 6489,
      "ละลาย": 6490,
      "ตอบสนอง": 6491,
      "มากนัก": 6492,
      "สิบสาม": 6493,
      "คลำ": 6494,
      "คลอง": 6495,
      "สะบัด": 6496,
      "ตกทอด": 6497,
      "จำกัด": 6498,
      "โอค": 6499,
      "โอทน": 6500,
      "โอฟีร์": 6501,
      "เกิดมา": 6502,
      "เกิดจาก": 6503,
      "ผิดบาป": 6504,
      "กินดื่ม": 6505,
      "เวลานั้น": 6506,
      "เหลือบ": 6507,
      "เหลือล้น": 6508,
      "เฮเฟอร์": 6509,
      "ต้นโอ๊ก": 6510,
      "หมู่เมฆ": 6511,
      "ทะยาน": 6512,
      "ปกปิด": 6513,
      "เศเบดี": 6514,
      "เพียงเพื่อ": 6515,
      "เสียบ": 6516,
      "ทาโบร์": 6517,
      "สายฝน": 6518,
      "ศิครี": 6519,
      "ฝ่ามือ": 6520,
      "นอกใจ": 6521,
      "รอบรู้": 6522,
      "ติดอยู่": 6523,
      "รูปจำลอง": 6524,
      "ลิอัส": 6525,
      "อำน": 6526,
      "รายล้อม": 6527,
      "โสโคร": 6528,
      "น่ากลัว": 6529,
      "น่าเกลียด": 6530,
      "ยึดมา": 6531,
      "ยากลำบาก": 6532,
      "ค่าตัว": 6533,
      "หุสบ": 6534,
      "ฝ่ายเหนือ": 6535,
      "เอลีฮู": 6536,
      "ปัล": 6537,
      "เกล็ด": 6538,
      "ท่าที": 6539,
      "เท่าเทียม": 6540,
      "เบธานี": 6541,
      "นอนตาย": 6542,
      "โน้": 6543,
      "โน่น": 6544,
      "อิท": 6545,
      "คอยดู": 6546,
      "หนุ่มๆ": 6547,
      "ล่วงละเมิด": 6548,
      "ขายตัว": 6549,
      "ริมทะเล": 6550,
      "ลานเมือง": 6551,
      "หวังว่า": 6552,
      "ประจำปี": 6553,
      "น้ำมันหอม": 6554,
      "เขตแดน": 6555,
      "เอฟราธาห์": 6556,
      "เริ่มขึ้น": 6557,
      "ชั้นเยี่ยม": 6558,
      "เฉียด": 6559,
      "แบบเดียว": 6560,
      "ไม่ต้องการ": 6561,
      "ขยัน": 6562,
      "ริบไป": 6563,
      "กว้างใหญ่": 6564,
      "อาบีฮู": 6565,
      "อาบีนาดับ": 6566,
      "ขวามือ": 6567,
      "ช่างไม้": 6568,
      "เปล่าประโยชน์": 6569,
      "ลับๆ": 6570,
      "เคลเดีย": 6571,
      "รออยู่": 6572,
      "เบื้องสูง": 6573,
      "บารับบัส": 6574,
      "ซื้อมา": 6575,
      "พระราชสาส์น": 6576,
      "มุ่งหมาย": 6577,
      "แปลว่า": 6578,
      "ตราบเท่าที่": 6579,
      "คาดคิด": 6580,
      "มัดจำ": 6581,
      "จ่ายให้": 6582,
      "อากัก": 6583,
      "อากริปปา": 6584,
      "โธมัส": 6585,
      "ปลอบใจ": 6586,
      "ลุล่วง": 6587,
      "อุสซี": 6588,
      "โปง": 6589,
      "โชก": 6590,
      "เรโหบ": 6591,
      "คดีความ": 6592,
      "สำนึกผิด": 6593,
      "หลบหนี": 6594,
      "สุนัขป่า": 6595,
      "ซ้ำแล้ว": 6596,
      "เอโฟรน": 6597,
      "มักดาลา": 6598,
      "ทอผ้า": 6599,
      "สะสมไว้": 6600,
      "ละอายใจ": 6601,
      "ฆาต": 6602,
      "สิ้นสุดลง": 6603,
      "ศาสตร์": 6604,
      "เดนาริ": 6605,
      "เป้าหมาย": 6606,
      "ยโสโอหัง": 6607,
      "กีด": 6608,
      "ชาวกรีก": 6609,
      "โล่งเตียน": 6610,
      "ไลยาห์": 6611,
      "ยาเบชกิเลอาด": 6612,
      "ป้ายสี": 6613,
      "แหวนตรา": 6614,
      "มิลคาห์": 6615,
      "เอโนค": 6616,
      "กรมวัง": 6617,
      "คาถาอาคม": 6618,
      "แกล้ว": 6619,
      "เข็มขัด": 6620,
      "ชาติน": 6621,
      "เสนาบดี": 6622,
      "ตะกละ": 6623,
      "ขีด": 6624,
      "อปอลโล": 6625,
      "โอดครวญ": 6626,
      "อักษร": 6627,
      "เขมือบ": 6628,
      "เพียบพร้อม": 6629,
      "เมกิดโด": 6630,
      "แตกระแหง": 6631,
      "เลโบฮามัท": 6632,
      "เยโธร": 6633,
      "เดลิลาห์": 6634,
      "สามานย์": 6635,
      "กระหยิ่ม": 6636,
      "โสโครก": 6637,
      "เดนาริอัน": 6638,
      "17": 6639,
      "23": 6640,
      "700": 6641,
      "กัม": 6642,
      "กส์": 6643,
      "ขิด": 6644,
      "คลา": 6645,
      "ค้อม": 6646,
      "จล": 6647,
      "จิก": 6648,
      "ชอง": 6649,
      "ชัน": 6650,
      "ช่ำ": 6651,
      "ซุบ": 6652,
      "ณญาณ": 6653,
      "ดเขลา": 6654,
      "ท้วง": 6655,
      "บวม": 6656,
      "บีร์": 6657,
      "ปึก": 6658,
      "ผืด": 6659,
      "ภาร": 6660,
      "มณ์": 6661,
      "มัค": 6662,
      "รอน": 6663,
      "รจา": 6664,
      "ลุง": 6665,
      "ศนา": 6666,
      "ศิป": 6667,
      "ส้น": 6668,
      "สละ": 6669,
      "สกุล": 6670,
      "อ้า": 6671,
      "ัฟ": 6672,
      "ำนาจ": 6673,
      "ูร": 6674,
      "แวก": 6675,
      "โข": 6676,
      "โอร์": 6677,
      "่วกัน": 6678,
      "ระเห": 6679,
      "เจรจา": 6680,
      "ที่เก้า": 6681,
      "เขม": 6682,
      "ผู้อาวุโส": 6683,
      "มาช": 6684,
      "มาเยี่ยม": 6685,
      "มาเวท": 6686,
      "ว่ากล่าว": 6687,
      "ให้ร้าย": 6688,
      "ตรอง": 6689,
      "ได้ตรัส": 6690,
      "ได้ดี": 6691,
      "ทรงปรากฏ": 6692,
      "เห่า": 6693,
      "ไม่ถึง": 6694,
      "ไม่ฆ่า": 6695,
      "มีแก่": 6696,
      "มีแด่": 6697,
      "มีอำนาจ": 6698,
      "มีหู": 6699,
      "มีครรภ์": 6700,
      "เมรีบ": 6701,
      "ชาอูล": 6702,
      "ทำสวน": 6703,
      "ทั้งวัน": 6704,
      "แต่ให้": 6705,
      "เลม": 6706,
      "เลล": 6707,
      "เลื่อย": 6708,
      "เลี้ยว": 6709,
      "อยู่กับ": 6710,
      "่างาม": 6711,
      "หล่น": 6712,
      "การดูแล": 6713,
      "เชมา": 6714,
      "เชคาน": 6715,
      "เรซี": 6716,
      "เยราห์": 6717,
      "ดาโกน": 6718,
      "ด้วยวิธี": 6719,
      "เดโบ": 6720,
      "เดดาน": 6721,
      "เดบีร์": 6722,
      "เมื่อก่อน": 6723,
      "ทุกเรื่อง": 6724,
      "อิสคาร": 6725,
      "ต่อเมื่อ": 6726,
      "มือซ้าย": 6727,
      "หมอก": 6728,
      "เข้าสิง": 6729,
      "เนริยาห์": 6730,
      "อดุล": 6731,
      "ถูกโยน": 6732,
      "ลาล": 6733,
      "ลาเมค": 6734,
      "ลาจล": 6735,
      "ขอทาน": 6736,
      "จนหมด": 6737,
      "สาด": 6738,
      "กำกับ": 6739,
      "บูชาย": 6740,
      "ชายาห์": 6741,
      "ชายเสื้อ": 6742,
      "โยอาห์": 6743,
      "โยซาบาด": 6744,
      "ดีพร้อม": 6745,
      "ดีโบน": 6746,
      "สำรอก": 6747,
      "นาหะ": 6748,
      "ใช้เวลา": 6749,
      "กาอัล": 6750,
      "กระสัน": 6751,
      "หาทาง": 6752,
      "ยาโลน": 6753,
      "เบเอล": 6754,
      "เบรียาห์": 6755,
      "เบโอร์": 6756,
      "ถวายบูชา": 6757,
      "ตนไว้": 6758,
      "สองคน": 6759,
      "พิพา": 6760,
      "พูดคุย": 6761,
      "ละแวก": 6762,
      "ปีนั้น": 6763,
      "บอกไว้": 6764,
      "ส่วนใหญ่": 6765,
      "มน้าว": 6766,
      "มนตรี": 6767,
      "วาณิช": 6768,
      "ยกชู": 6769,
      "สิบเก้า": 6770,
      "เงี่ย": 6771,
      "ส่งเสริม": 6772,
      "ปรัส": 6773,
      "คลอ": 6774,
      "สง่างาม": 6775,
      "ใหญ่โต": 6776,
      "สามัค": 6777,
      "สะโล": 6778,
      "ดำบรรพ": 6779,
      "ผลทับทิม": 6780,
      "โทรม": 6781,
      "โทเฟท": 6782,
      "หัวเสา": 6783,
      "หลังลา": 6784,
      "โครง": 6785,
      "ผิดศีลธรรม": 6786,
      "สุรา": 6787,
      "คืนวัน": 6788,
      "เฮเบอร์": 6789,
      "ต้นเรือน": 6790,
      "ดิยาห์": 6791,
      "เศฟัน": 6792,
      "วังชา": 6793,
      "แขยง": 6794,
      "กองทหาร": 6795,
      "ชูบ": 6796,
      "ชูเนม": 6797,
      "มอบตัว": 6798,
      "แท่นเผา": 6799,
      "เสียขวัญ": 6800,
      "ด้านหลัง": 6801,
      "ถือกำเนิด": 6802,
      "ผ้าคลุม": 6803,
      "พักพิง": 6804,
      "คุ้น": 6805,
      "รีด": 6806,
      "อย่างไรดี": 6807,
      "บางอย่าง": 6808,
      "จับผิด": 6809,
      "โซเซ": 6810,
      "ติดไว้": 6811,
      "รูปทรง": 6812,
      "ลิกส์": 6813,
      "โบก": 6814,
      "มิช": 6815,
      "ดวงตะวัน": 6816,
      "น่ารัก": 6817,
      "น่าเชื่อถือ": 6818,
      "แม่สามี": 6819,
      "ชิล": 6820,
      "อารี": 6821,
      "อารเมค": 6822,
      "เพื่อนฝูง": 6823,
      "เพื่อนสนิท": 6824,
      "หุราม": 6825,
      "แร้ง": 6826,
      "ฝ่ายเรา": 6827,
      "เกลี้ยง": 6828,
      "จดจ่อ": 6829,
      "ไถ่คืน": 6830,
      "เฟลิกส์": 6831,
      "ลีเซีย": 6832,
      "โนอัม": 6833,
      "เหยี่ยว": 6834,
      "แน่ะ": 6835,
      "ร้อนใจ": 6836,
      "เสาประตู": 6837,
      "เสาเมฆ": 6838,
      "สลิง": 6839,
      "ริบลาห์": 6840,
      "อาบีรัม": 6841,
      "ช่างปั้น": 6842,
      "พังผืด": 6843,
      "มหาสมุทร": 6844,
      "กลุ่มคน": 6845,
      "กระดาน": 6846,
      "ยอดนักรบ": 6847,
      "เที่ยงแท้": 6848,
      "เมล็ดพันธุ์": 6849,
      "หลงเหลือ": 6850,
      "ทุราย": 6851,
      "ทุรน": 6852,
      "ฮูม": 6853,
      "ล่าช้า": 6854,
      "โยนาดับ": 6855,
      "หยิบยื่น": 6856,
      "หวาดผวา": 6857,
      "สิบสองคน": 6858,
      "ฮานานี": 6859,
      "ตื่นเถิด": 6860,
      "ไซปรัส": 6861,
      "ปาราน": 6862,
      "พรรณ": 6863,
      "กระทบ": 6864,
      "ดุร้าย": 6865,
      "พายุหมุน": 6866,
      "ถอนทัพ": 6867,
      "แปลกใจ": 6868,
      "ขี้เมา": 6869,
      "ตะโกนว่า": 6870,
      "ทั่วกัน": 6871,
      "รำลึก": 6872,
      "ตกลงมา": 6873,
      "ปวดร้าว": 6874,
      "ตาน้ำ": 6875,
      "มิตรสหาย": 6876,
      "เปรียบเปรย": 6877,
      "ซ้ำเล่า": 6878,
      "เอนกาย": 6879,
      "โดดเด่น": 6880,
      "รุดหน้า": 6881,
      "อุสซาห์": 6882,
      "บัทเชบา": 6883,
      "สอดคล้อง": 6884,
      "หยั่งราก": 6885,
      "ปลอมตัว": 6886,
      "ยิงธนู": 6887,
      "เชื่อถือได้": 6888,
      "รมย์": 6889,
      "ปริปาก": 6890,
      "ปริศนา": 6891,
      "ขยะแขยง": 6892,
      "ถูกจับไป": 6893,
      "ฮักกัย": 6894,
      "เร่งเร้า": 6895,
      "จ้องมอง": 6896,
      "โฉดเขลา": 6897,
      "ฮาริม": 6898,
      "คลอนแคลน": 6899,
      "ทีละคน": 6900,
      "ปัดดาน": 6901,
      "ตะแลงแกง": 6902,
      "บิลฮาห์": 6903,
      "ขุ่นเคือง": 6904,
      "ดึกดำบรรพ": 6905,
      "โคล์": 6906,
      "ปฐมกาล": 6907,
      "เปียก": 6908,
      "แม่ม่าย": 6909,
      "มิคมาช": 6910,
      "คำนึง": 6911,
      "เคเรธี": 6912,
      "ตุ้มหู": 6913,
      "ปรีชาญาณ": 6914,
      "มัมเร": 6915,
      "วิจารณญาณ": 6916,
      "โอทนีเอล": 6917,
      "โน้มน้าว": 6918,
      "ซ้ำแล้วซ้ำเล่า": 6919,
      "ขิดโรน": 6920,
      "ช่ำชอง": 6921,
      "ปึกแผ่น": 6922,
      "ภารกิจ": 6923,
      "ส้นเท้า": 6924,
      "เมรีบาห์": 6925,
      "เชคานิยาห์": 6926,
      "เรซีน": 6927,
      "เดโบราห์": 6928,
      "อิสคาริโอท": 6929,
      "อดุลลัม": 6930,
      "บูชายัญ": 6931,
      "พิพาท": 6932,
      "สามัคคี": 6933,
      "เศฟันยาห์": 6934,
      "ทุรนทุราย": 6935,
      "ดึกดำบรรพ์": 6936,
      "33": 6937,
      "45": 6938,
      "52": 6939,
      "80": 6940,
      "กรง": 6941,
      "ก้น": 6942,
      "กวัด": 6943,
      "กเถียง": 6944,
      "ขัย": 6945,
      "ขยาด": 6946,
      "คาม": 6947,
      "คลาย": 6948,
      "ฉ้อ": 6949,
      "ซิม": 6950,
      "ฑูร": 6951,
      "ดัด": 6952,
      "ดิม": 6953,
      "ถง": 6954,
      "ถ่าย": 6955,
      "ถาด": 6956,
      "ถกเถียง": 6957,
      "ทัด": 6958,
      "นุ": 6959,
      "น์": 6960,
      "บ่ง": 6961,
      "ปี่": 6962,
      "ปิส": 6963,
      "ฟอง": 6964,
      "ฟราห์": 6965,
      "มอด": 6966,
      "มัย": 6967,
      "รื่อ": 6968,
      "รมาห์": 6969,
      "ลลา": 6970,
      "ลื่น": 6971,
      "วับ": 6972,
      "ว้าว": 6973,
      "ศั": 6974,
      "ศิน": 6975,
      "ศูน": 6976,
      "สนาม": 6977,
      "ห้อย": 6978,
      "หงอก": 6979,
      "อัก": 6980,
      "อพย": 6981,
      "ฮือ": 6982,
      "ักล": 6983,
      "าลิ": 6984,
      "ิท": 6985,
      "ึ่ม": 6986,
      "โจ": 6987,
      "โผล": 6988,
      "โถง": 6989,
      "้ป": 6990,
      "๋า": 6991,
      "ระโก": 6992,
      "พระกุมาร": 6993,
      "เจิง": 6994,
      "ที่ได้ยิน": 6995,
      "ที่ว่าง": 6996,
      "และโลก": 6997,
      "เขาอีก": 6998,
      "ผู้น้อย": 6999,
      "มาระโก": 7000,
      "ได้ไหม": 7001,
      "่านม": 7002,
      "ทรงร้อง": 7003,
      "ทรงได้ยิน": 7004,
      "ทรงอำนาจ": 7005,
      "ทรงพระชนม์": 7006,
      "ทรงแสดง": 7007,
      "ทรงพลัง": 7008,
      "ไม่พูด": 7009,
      "ไม่เข้าใจ": 7010,
      "ไม่ทัน": 7011,
      "พวกผู้ชาย": 7012,
      "่นแคว้น": 7013,
      "เพดาน": 7014,
      "เอร์": 7015,
      "เอื้อง": 7016,
      "นั้นไว้": 7017,
      "มีสติ": 7018,
      "เมเอล": 7019,
      "ชาเอล": 7020,
      "ประจบ": 7021,
      "านิยาห์": 7022,
      "ทำที": 7023,
      "ทั้งเป็น": 7024,
      "ความเป็น": 7025,
      "ความกว้าง": 7026,
      "ความขมขื่น": 7027,
      "อาหรับ": 7028,
      "อาเฟ": 7029,
      "อาคายา": 7030,
      "ักขา": 7031,
      "เสือ": 7032,
      "เสอร์": 7033,
      "เสเพล": 7034,
      "ติว่า": 7035,
      "ูกัน": 7036,
      "การนำ": 7037,
      "การประกาศ": 7038,
      "การกิน": 7039,
      "การดูหมิ่น": 7040,
      "แก่ง": 7041,
      "เชเลมิยาห์": 7042,
      "เยอู": 7043,
      "เยเธอร์": 7044,
      "จงรักษา": 7045,
      "ดาธาน": 7046,
      "บาอานาห์": 7047,
      "เกด": 7048,
      "เกริ": 7049,
      "เดี่ยว": 7050,
      "ตามหลัง": 7051,
      "ตามแบบ": 7052,
      "เมื่อถึง": 7053,
      "ทุกภาษา": 7054,
      "เวน": 7055,
      "โลเฟ": 7056,
      "ชนบท": 7057,
      "สิ่งเดียว": 7058,
      "หน้าผา": 7059,
      "อย่างหนึ่ง": 7060,
      "เข้ากับ": 7061,
      "เนลิอัส": 7062,
      "ตัวอย่าง": 7063,
      "ตัวแรก": 7064,
      "ธิยาห์": 7065,
      "อดอยาก": 7066,
      "ถูกตี": 7067,
      "ถูกหัก": 7068,
      "จนตาย": 7069,
      "สาฟ": 7070,
      "ทางนี้": 7071,
      "ทางซ้าย": 7072,
      "เทีย": 7073,
      "เทอร์": 7074,
      "เทชัสซาร์": 7075,
      "โมโห": 7076,
      "คำวิงวอน": 7077,
      "คำตักเตือน": 7078,
      "บูร": 7079,
      "เห็นด้วย": 7080,
      "ชาวดาน": 7081,
      "ชายทะเล": 7082,
      "ลูกที่รัก": 7083,
      "อีกครั้ง": 7084,
      "กระเจิง": 7085,
      "ยาบ": 7086,
      "เค็ม": 7087,
      "เคอร์": 7088,
      "เบีย": 7089,
      "เบ็ด": 7090,
      "สองวัน": 7091,
      "ราชรถ": 7092,
      "ฟังอยู่": 7093,
      "ธรรมบัญญัติ": 7094,
      "ยินยอม": 7095,
      "เลยว่า": 7096,
      "ตาชั่ง": 7097,
      "ลายด่าง": 7098,
      "สมมุ": 7099,
      "คล้ำ": 7100,
      "คล้อย": 7101,
      "คลุ้ม": 7102,
      "ตกทุกข์": 7103,
      "เหนือกว่า": 7104,
      "สัตว์เลี้ยง": 7105,
      "หัวมุม": 7106,
      "เสียงพิณ": 7107,
      "นักดนตรี": 7108,
      "เหลือแต่": 7109,
      "เหลือไว้": 7110,
      "ทูบัล": 7111,
      "ต้นอ้อ": 7112,
      "ทะลัก": 7113,
      "ฆ่าตาย": 7114,
      "เศบาห์": 7115,
      "เศโลเฟ": 7116,
      "โฮรี": 7117,
      "เดินตาม": 7118,
      "ชูธง": 7119,
      "เจ็ดพัน": 7120,
      "ฝูงเหลือบ": 7121,
      "หย่านม": 7122,
      "ทาโรท": 7123,
      "พักผ่อน": 7124,
      "สนั่น": 7125,
      "สูงศักดิ์": 7126,
      "ใกล้ถึง": 7127,
      "รวมเป็น": 7128,
      "โซซัด": 7129,
      "โบส": 7130,
      "เนื้อสัตว์": 7131,
      "ข้างละ": 7132,
      "รายได้": 7133,
      "หนักหน่วง": 7134,
      "สันบาล": 7135,
      "อธิษฐานเผื่อ": 7136,
      "แสก": 7137,
      "แส้": 7138,
      "ข้อตกลง": 7139,
      "เต็มไปด้วย": 7140,
      "แต่ละวัน": 7141,
      "ยุทธ": 7142,
      "เบนฮินโนม": 7143,
      "อารมณ์": 7144,
      "อารักขา": 7145,
      "ฝ่ายถูก": 7146,
      "สักคำ": 7147,
      "สักหน่อย": 7148,
      "อิมเมอร์": 7149,
      "เอลีเอล": 7150,
      "เอลีเฟ": 7151,
      "เฟีย": 7152,
      "เบธูเอล": 7153,
      "เด็กน้อย": 7154,
      "อาดาห์": 7155,
      "ล้มเหลว": 7156,
      "คลุมหน้า": 7157,
      "ลมพัด": 7158,
      "ริมน้ำ": 7159,
      "สุขใจ": 7160,
      "บริหาร": 7161,
      "ทาสหญิง": 7162,
      "มืดมัว": 7163,
      "แยกย้าย": 7164,
      "ร้อนรน": 7165,
      "ข่มขืน": 7166,
      "ร่ำไป": 7167,
      "ทิศทาง": 7168,
      "ตอนแรก": 7169,
      "ห้องชั้นบน": 7170,
      "ห้องโถง": 7171,
      "เท่านี้": 7172,
      "สลับ": 7173,
      "โศอาร์": 7174,
      "ัลโมน": 7175,
      "เปล่าๆ": 7176,
      "ไข่": 7177,
      "บารเนีย": 7178,
      "อภัยโทษ": 7179,
      "ปนาท": 7180,
      "ไหล่": 7181,
      "วิ่งมา": 7182,
      "วิ่งหนี": 7183,
      "ล่าถอย": 7184,
      "กิ่งหุสบ": 7185,
      "ช่วงเวลา": 7186,
      "เพิ่มอีก": 7187,
      "ห่างจาก": 7188,
      "เยโรฮัม": 7189,
      "อาโมส": 7190,
      "เคลื่อนที่": 7191,
      "เคลื่อนย้าย": 7192,
      "ขวัญผวา": 7193,
      "โฟน": 7194,
      "เบลเทชัสซาร์": 7195,
      "แบกหาม": 7196,
      "โปทิ": 7197,
      "โป้ป": 7198,
      "นาห์โชน": 7199,
      "ตรวจตรา": 7200,
      "ชัดดัย": 7201,
      "ผืนดิน": 7202,
      "รอยแผล": 7203,
      "งูพิษ": 7204,
      "โครเนลิอัส": 7205,
      "สุกปลั่ง": 7206,
      "รุ่นแรก": 7207,
      "เปรียบเทียบ": 7208,
      "ขบเขี้ยว": 7209,
      "คดโกง": 7210,
      "คะนอง": 7211,
      "เทียบกับ": 7212,
      "เตาหลอม": 7213,
      "ท้อใจ": 7214,
      "โหดเหี้ยม": 7215,
      "ผาสุก": 7216,
      "พึงพอใจ": 7217,
      "ปูวาห์": 7218,
      "ชาญฉลาด": 7219,
      "อัมมีฮูด": 7220,
      "กระแสลม": 7221,
      "มัลคี": 7222,
      "ล่มสลาย": 7223,
      "ปลุกปั่น": 7224,
      "สั้นๆ": 7225,
      "กรีด": 7226,
      "ฆาตกรรม": 7227,
      "เคี้ยวฟัน": 7228,
      "เคี้ยวเอื้อง": 7229,
      "เล่มหนึ่ง": 7230,
      "กักตัว": 7231,
      "ไส้ตะเกียง": 7232,
      "ยุ่งยาก": 7233,
      "ชาวกาลิ": 7234,
      "คาเดชบารเนีย": 7235,
      "เซ่นไหว้": 7236,
      "นัยน์": 7237,
      "วัชที": 7238,
      "ยิ้มย่อง": 7239,
      "เกราร์": 7240,
      "ผ่านพ้นไป": 7241,
      "สัญจร": 7242,
      "เยาว์วัย": 7243,
      "มูชี": 7244,
      "หน่วงเหนี่ยว": 7245,
      "ส่ายหน้า": 7246,
      "ไพฑูร": 7247,
      "เมเชค": 7248,
      "แว่นแคว้น": 7249,
      "ท้าทาย": 7250,
      "มินา": 7251,
      "นาหาช": 7252,
      "อุ้งมือ": 7253,
      "ลมุนนา": 7254,
      "จิ้งจอก": 7255,
      "ร่ายรำ": 7256,
      "ตระหนก": 7257,
      "เอลีซาเบธ": 7258,
      "กระหึ่ม": 7259,
      "การจลาจล": 7260,
      "กัมปนาท": 7261,
      "ซุบซิบ": 7262,
      "คุ้นเคย": 7263,
      "ว้าวุ่น": 7264,
      "ศัลมุนนา": 7265,
      "ศูนย์": 7266,
      "สนามรบ": 7267,
      "อพยพ": 7268,
      "ักล้าง": 7269,
      "โผล่": 7270,
      "สมมุติว่า": 7271,
      "คลุ้มคลั่ง": 7272,
      "เศโลเฟหัด": 7273,
      "โซซัดโซเซ": 7274,
      "สันบาลลัท": 7275,
      "ขบเขี้ยวเคี้ยวฟัน": 7276,
      "ชาวกาลิลี": 7277,
      "นัยน์ตา": 7278,
      "ไพฑูรย์": 7279,
      "16": 7280,
      "กาม": 7281,
      "กรอบ": 7282,
      "กัล": 7283,
      "ขาก": 7284,
      "ขจี": 7285,
      "ค้อน": 7286,
      "ฆะ": 7287,
      "จืด": 7288,
      "ชอก": 7289,
      "ชื้น": 7290,
      "ฐิ": 7291,
      "ดอกล": 7292,
      "ตวัด": 7293,
      "ท่อง": 7294,
      "ธัย": 7295,
      "นิสัย": 7296,
      "ปาง": 7297,
      "ผุ": 7298,
      "ผิง": 7299,
      "ฝัด": 7300,
      "พู": 7301,
      "มติ": 7302,
      "ย่าม": 7303,
      "ลูด": 7304,
      "หยาบ": 7305,
      "อเล็ก": 7306,
      "โปล": 7307,
      "ไอ": 7308,
      "ไข่ม": 7309,
      "็บท": 7310,
      "เจ็บท": 7311,
      "เจ้าเล่ห์": 7312,
      "ที่ที่": 7313,
      "ที่ไม่รู้": 7314,
      "และรู้": 7315,
      "องค์อื่นๆ": 7316,
      "เป็นอิสระ": 7317,
      "เขาคู่": 7318,
      "มาตร": 7319,
      "มารร": 7320,
      "มาโอน": 7321,
      "วกราก": 7322,
      "ให้มา": 7323,
      "คนละ": 7324,
      "ได้ยาก": 7325,
      "ทรงได้รับ": 7326,
      "ทรงกระทำ": 7327,
      "ทรงหยุด": 7328,
      "ทรงดลใจ": 7329,
      "เหรื่อ": 7330,
      "ไม่บอก": 7331,
      "ไม่เลย": 7332,
      "ไม่คิด": 7333,
      "หนู": 7334,
      "เพ่ง": 7335,
      "เพณี": 7336,
      "ินธ์": 7337,
      "ครึก": 7338,
      "เอบ": 7339,
      "มีเอล": 7340,
      "มีผล": 7341,
      "เมนา": 7342,
      "ชาโรน": 7343,
      "ประสาน": 7344,
      "ประเพณี": 7345,
      "กลาห์": 7346,
      "กล้ำ": 7347,
      "ทำไว้": 7348,
      "ทั้งคน": 7349,
      "ทั้งโลก": 7350,
      "แต่ลำพัง": 7351,
      "เลก": 7352,
      "เล็บ": 7353,
      "อาดี": 7354,
      "อาคาน": 7355,
      "อาระเบ": 7356,
      "อาเบล": 7357,
      "สิลลา": 7358,
      "การให้": 7359,
      "การรับใช้": 7360,
      "การฉลอง": 7361,
      "การตัดสิน": 7362,
      "การต่อสู้": 7363,
      "การสู้รบ": 7364,
      "รับไว้": 7365,
      "รับมือ": 7366,
      "่วัว": 7367,
      "เชเร": 7368,
      "เชบน": 7369,
      "เชี่ย": 7370,
      "เยชิ": 7371,
      "ซึ่งๆ": 7372,
      "บามาห์": 7373,
      "บาดิยาห์": 7374,
      "เกเบอร์": 7375,
      "ตามปกติ": 7376,
      "บัค": 7377,
      "ต่อๆ": 7378,
      "ต่อเขา": 7379,
      "ต่อคน": 7380,
      "ใจกลาง": 7381,
      "ใจแข็ง": 7382,
      "วันต่อมา": 7383,
      "หมู": 7384,
      "เข้ายึด": 7385,
      "เนหะ": 7386,
      "ตัวนี้": 7387,
      "ถูกตัดสิน": 7388,
      "ถูกข่มเหง": 7389,
      "ถูกบด": 7390,
      "ลาป่า": 7391,
      "กันแสง": 7392,
      "จนอิ่ม": 7393,
      "กำไล": 7394,
      "ทางเดิน": 7395,
      "เทลง": 7396,
      "โมช": 7397,
      "โมฆะ": 7398,
      "วิปร": 7399,
      "คำสั่งสอน": 7400,
      "คำรน": 7401,
      "ชายฉกรรจ์": 7402,
      "โยธา": 7403,
      "ดีนาห์": 7404,
      "ดีฝ่อ": 7405,
      "ลูกเกด": 7406,
      "สำเนา": 7407,
      "นาอามาห์": 7408,
      "ใช้เงิน": 7409,
      "กระพ": 7410,
      "กระยา": 7411,
      "กระแท": 7412,
      "กระทะ": 7413,
      "กระซิบ": 7414,
      "หาท": 7415,
      "หาเรื่อง": 7416,
      "ยาบิน": 7417,
      "ยาคีน": 7418,
      "ตั้งแต่นี้ไป": 7419,
      "น้ำองุ่น": 7420,
      "แม่วัว": 7421,
      "เคีย": 7422,
      "เคดาห์": 7423,
      "เคโมช": 7424,
      "พรั่ง": 7425,
      "กลับเป็น": 7426,
      "ดูซิ": 7427,
      "เบซาเล": 7428,
      "เบโอน": 7429,
      "ชั่วพริบตา": 7430,
      "พูดได้": 7431,
      "แท้ง": 7432,
      "บอกมา": 7433,
      "ช่วยให้": 7434,
      "ส่วนใน": 7435,
      "ราบเรียบ": 7436,
      "พันปี": 7437,
      "วาทะ": 7438,
      "เอาแต่": 7439,
      "เหน็ด": 7440,
      "นิกา": 7441,
      "สม่ำ": 7442,
      "สมคบ": 7443,
      "อะไรกัน": 7444,
      "โอล": 7445,
      "โอชะ": 7446,
      "โอฟราห์": 7447,
      "โทเรท": 7448,
      "สั่งห้าม": 7449,
      "หลังนั้น": 7450,
      "มนุษย์ยักษ์": 7451,
      "ตลิ่ง": 7452,
      "ได้ยินว่า": 7453,
      "พลั้ง": 7454,
      "พล่อย": 7455,
      "พลรบ": 7456,
      "ตลอดมา": 7457,
      "ปราย": 7458,
      "ต้นหนึ่ง": 7459,
      "ไม่ใช่ว่า": 7460,
      "ทิ้งไป": 7461,
      "กลางแจ้ง": 7462,
      "ทะนาน": 7463,
      "ฆ่าเสีย": 7464,
      "เศบาดิยาห์": 7465,
      "ร่วมงาน": 7466,
      "โฮรมาห์": 7467,
      "กองพัน": 7468,
      "คิดเห็น": 7469,
      "เผ่าละ": 7470,
      "เสียที": 7471,
      "ด้านข้าง": 7472,
      "บิก": 7473,
      "เปลือก": 7474,
      "เปลื้อง": 7475,
      "สายฟ้า": 7476,
      "กรุงโรม": 7477,
      "ตรงที่": 7478,
      "ทัพพี": 7479,
      "ทั่วทั้ง": 7480,
      "รีรอ": 7481,
      "หนีดีฝ่อ": 7482,
      "สู้คดี": 7483,
      "โปรดให้": 7484,
      "ห้าร้อย": 7485,
      "ติดตั้ง": 7486,
      "รูปปั้น": 7487,
      "ลิบ": 7488,
      "โยนทิ้ง": 7489,
      "เฝ้าอยู่": 7490,
      "มิใช่": 7491,
      "มิกด": 7492,
      "สถานการณ์": 7493,
      "นับเป็น": 7494,
      "ลุกฮือ": 7495,
      "ฮาเร": 7496,
      "ฮาซาร": 7497,
      "ทหารราบ": 7498,
      "เยโฮฮานัน": 7499,
      "ข้อมือ": 7500,
      "ชิชัก": 7501,
      "เธสะโล": 7502,
      "ทุ่งกว้าง": 7503,
      "อัสมาเวท": 7504,
      "เบธชาน": 7505,
      "เด็กหญิง": 7506,
      "อาดาร์": 7507,
      "อาดายาห์": 7508,
      "อิบ": 7509,
      "พากเพียร": 7510,
      "ล่วงเกิน": 7511,
      "เหยือก": 7512,
      "นานแล้ว": 7513,
      "นานัป": 7514,
      "ชนะใจ": 7515,
      "หีบนั้น": 7516,
      "เปิดปาก": 7517,
      "ขาดหาย": 7518,
      "ชั้นดี": 7519,
      "ขอบฟ้า": 7520,
      "ตอนนั้น": 7521,
      "ห้องยาม": 7522,
      "หยุดนิ่ง": 7523,
      "สืบดู": 7524,
      "สืบสกุล": 7525,
      "อาบีเอเซอร์": 7526,
      "นั่นไง": 7527,
      "เกินกำลัง": 7528,
      "แถลง": 7529,
      "ก่อไฟ": 7530,
      "ก่อให้เกิด": 7531,
      "จุดหมาย": 7532,
      "เที่ยงคืน": 7533,
      "พระราชินี": 7534,
      "คารมี": 7535,
      "หลับใหล": 7536,
      "จบสิ้น": 7537,
      "ชักชวน": 7538,
      "แปดสิบ": 7539,
      "ขนแพะ": 7540,
      "ถนอม": 7541,
      "พิธีชำระ": 7542,
      "ตื่นตกใจ": 7543,
      "ขนาดใหญ่": 7544,
      "กางปีก": 7545,
      "คบหา": 7546,
      "แย่ง": 7547,
      "เทวสถาน": 7548,
      "ิลลี่": 7549,
      "พิณเขาคู่": 7550,
      "วัยฉกรรจ์": 7551,
      "ขวัญหนีดีฝ่อ": 7552,
      "โหยหา": 7553,
      "บำบัด": 7554,
      "บังคับบัญชา": 7555,
      "โยบับ": 7556,
      "ขี้ปาก": 7557,
      "ขี้เกียจ": 7558,
      "โชบาล": 7559,
      "เยรีโมท": 7560,
      "หม้อดิน": 7561,
      "โครินธ์": 7562,
      "ระยะเวลา": 7563,
      "แสนยาน": 7564,
      "อัชโทเรท": 7565,
      "ทิมนา": 7566,
      "ภาคเหนือ": 7567,
      "อวดดี": 7568,
      "อัยยาโลน": 7569,
      "ค้ำจุน": 7570,
      "มักเคดาห์": 7571,
      "เรื่อยมา": 7572,
      "ทวีขึ้น": 7573,
      "ฝาผนัง": 7574,
      "ด้ายแดง": 7575,
      "มัวหมอง": 7576,
      "ช่องทาง": 7577,
      "สิ่งดีๆ": 7578,
      "เถ้าถ่าน": 7579,
      "เขียวขจี": 7580,
      "สีแดงเข้ม": 7581,
      "คุ้มกัน": 7582,
      "ผสมพันธุ์": 7583,
      "สบายใจ": 7584,
      "ถูกตัดขาด": 7585,
      "แขกเหรื่อ": 7586,
      "ทรวงอก": 7587,
      "คุยโว": 7588,
      "คีริยาทอารบา": 7589,
      "ปันส่วน": 7590,
      "ฟูมฟ": 7591,
      "แหล่งน้ำ": 7592,
      "หย่าร้าง": 7593,
      "เสี่ยงชีวิต": 7594,
      "ชัมมาห์": 7595,
      "ผดุงครรภ์": 7596,
      "ฝักใฝ่": 7597,
      "พร่ำบ่น": 7598,
      "สร้อยคอ": 7599,
      "ไม่อยาก": 7600,
      "ง่ายดาย": 7601,
      "ใส่ร้ายป้ายสี": 7602,
      "มูลค่า": 7603,
      "ยิ้มเยาะ": 7604,
      "ห่อหุ้ม": 7605,
      "คายาฟาส": 7606,
      "หัวแม่มือ": 7607,
      "หัวแม่เท้า": 7608,
      "จวนจะ": 7609,
      "ศักเกอร์": 7610,
      "ตะกั่ว": 7611,
      "ตลบตะแลง": 7612,
      "ปลิดชีวิต": 7613,
      "ลิงโลด": 7614,
      "เบเอโรท": 7615,
      "เบียดเสียด": 7616,
      "แพร่ง": 7617,
      "เลียนแบบ": 7618,
      "อำนวย": 7619,
      "กีดขวาง": 7620,
      "เยราห์เมเอล": 7621,
      "กวัดแกว่ง": 7622,
      "ถ่ายทอด": 7623,
      "อาเฟค": 7624,
      "เยอูช": 7625,
      "ตกทุกข์ได้ยาก": 7626,
      "ชอกช้ำ": 7627,
      "ดอกลิลลี่": 7628,
      "อเล็กซาน": 7629,
      "โปลิส": 7630,
      "ไข่มุก": 7631,
      "เจ็บท้อง": 7632,
      "มารร้าย": 7633,
      "เมนาเฮม": 7634,
      "อาระเบีย": 7635,
      "เชเรบิยาห์": 7636,
      "เชี่ยวกราก": 7637,
      "เนหะมีย์": 7638,
      "วิปริต": 7639,
      "กระยาหาร": 7640,
      "กระแทก": 7641,
      "เบซาเลล": 7642,
      "เหน็ดเหนื่อย": 7643,
      "สม่ำเสมอ": 7644,
      "เธสะโลนิกา": 7645,
      "นานัปการ": 7646,
      "แสนยานุภาพ": 7647,
      "21": 7648,
      "29": 7649,
      "35": 7650,
      "36": 7651,
      "66": 7652,
      "กอ": 7653,
      "กรวด": 7654,
      "ขูบ": 7655,
      "ครา": 7656,
      "งก": 7657,
      "งวด": 7658,
      "จาง": 7659,
      "จ้อน": 7660,
      "ฉล": 7661,
      "ชก": 7662,
      "ชุ": 7663,
      "ซ่าน": 7664,
      "ซ้อง": 7665,
      "ซุก": 7666,
      "ฒ่า": 7667,
      "ดูด": 7668,
      "ดื่น": 7669,
      "ด่วน": 7670,
      "ตึก": 7671,
      "ถั่ว": 7672,
      "ทวน": 7673,
      "ทุน": 7674,
      "ธานา": 7675,
      "บมือ": 7676,
      "ปปูวาห์": 7677,
      "พับ": 7678,
      "พวย": 7679,
      "พอดี": 7680,
      "ภั": 7681,
      "ภยัน": 7682,
      "ยั้น": 7683,
      "ย้อม": 7684,
      "ร้ง": 7685,
      "ลู่": 7686,
      "ล่อน": 7687,
      "ววับ": 7688,
      "สาก": 7689,
      "ส่วย": 7690,
      "อากร": 7691,
      "อสุ": 7692,
      "อื้น": 7693,
      "ฮัท": 7694,
      "าบ": 7695,
      "เฒ่า": 7696,
      "โฉบ": 7697,
      "่ซ้อง": 7698,
      "องคร": 7699,
      "ระมัด": 7700,
      "พระคลัง": 7701,
      "พระดาโกน": 7702,
      "ของตน": 7703,
      "ราฟา": 7704,
      "เจ้าหนี้": 7705,
      "ที่เจ้า": 7706,
      "ที่รู้": 7707,
      "ที่อื่น": 7708,
      "ที่สัตย์ซื่อ": 7709,
      "และจาก": 7710,
      "และร้อง": 7711,
      "เปี่ย": 7712,
      "เปดายาห์": 7713,
      "่งหู": 7714,
      "เป็นต้น": 7715,
      "เขาอยู่": 7716,
      "มาด": 7717,
      "มาเร": 7718,
      "มาบอก": 7719,
      "ือม": 7720,
      "คนโต": 7721,
      "ได้ถูก": 7722,
      "ได้รู้": 7723,
      "ได้พบ": 7724,
      "ได้โปรด": 7725,
      "ทรงไว้": 7726,
      "ทรงจำ": 7727,
      "ทรงตัด": 7728,
      "ข้าเอง": 7729,
      "เหิน": 7730,
      "เหียน": 7731,
      "ไม่ตอบ": 7732,
      "ไม่ปิด": 7733,
      "พวกผู้นำ": 7734,
      "เพิก": 7735,
      "เพทุ": 7736,
      "ท่านนั้น": 7737,
      "เอเด": 7738,
      "เอโลน": 7739,
      "เอธาน": 7740,
      "เอือม": 7741,
      "นั้นด้วย": 7742,
      "เมท": 7743,
      "เมเร": 7744,
      "เมมฟ": 7745,
      "เมธู": 7746,
      "ประมุข": 7747,
      "ควัก": 7748,
      "กลัท": 7749,
      "แต่ว่า": 7750,
      "ความกระหาย": 7751,
      "เลอ": 7752,
      "เลา": 7753,
      "อาณ": 7754,
      "อาสาย": 7755,
      "อาเวน": 7756,
      "ติง": 7757,
      "ติ่งหู": 7758,
      "การตาย": 7759,
      "การพูด": 7760,
      "การรู้จัก": 7761,
      "การแบ่ง": 7762,
      "การทำชั่ว": 7763,
      "อบอุ่น": 7764,
      "แกรง": 7765,
      "้อำนาจ": 7766,
      "เชโลม": 7767,
      "เรฮูม": 7768,
      "เยิน": 7769,
      "จงใจ": 7770,
      "บุญ": 7771,
      "บุบ": 7772,
      "บาท": 7773,
      "ไว้ให้": 7774,
      "เด็น": 7775,
      "ตามลำพัง": 7776,
      "เมื่อวาน": 7777,
      "หรู": 7778,
      "ขึ้นใหม่": 7779,
      "ขึ้นฝั่ง": 7780,
      "สัด": 7781,
      "ทุกชนิด": 7782,
      "เวลาน": 7783,
      "วันก่อน": 7784,
      "หมก": 7785,
      "หม่าน": 7786,
      "ชนชาติน": 7787,
      "โรนาอิม": 7788,
      "อย่างน้อย": 7789,
      "ถูกทำลาย": 7790,
      "ถูกขับไล่": 7791,
      "ถูกโค่น": 7792,
      "ถูกตรึง": 7793,
      "ยังเมือง": 7794,
      "ลงทัณฑ์": 7795,
      "นำแกะ": 7796,
      "ดินเผา": 7797,
      "สาท": 7798,
      "ทางกาย": 7799,
      "หลายวัน": 7800,
      "บรรลุ": 7801,
      "ชีอาห์": 7802,
      "บนโต๊ะ": 7803,
      "ชาวมีเดีย": 7804,
      "ชายคา": 7805,
      "ชายชรา": 7806,
      "ดีเยี่ยม": 7807,
      "ลูกพี่": 7808,
      "ใช้จ่าย": 7809,
      "ไม่ได้ยิน": 7810,
      "หาด": 7811,
      "ยาเอล": 7812,
      "ยาหาท": 7813,
      "แมว": 7814,
      "ั่นพรึง": 7815,
      "เคบาร์": 7816,
      "พรั่นพรึง": 7817,
      "กลับบ้าน": 7818,
      "รู้ดี": 7819,
      "ใครบ้าง": 7820,
      "ประทัง": 7821,
      "เช่นไร": 7822,
      "ส่วนใด": 7823,
      "ส่วนหลัง": 7824,
      "วาล": 7825,
      "เอาเปรียบ": 7826,
      "ยกขึ้น": 7827,
      "เชื่อใจ": 7828,
      "เชื่อมั่น": 7829,
      "สิบวัน": 7830,
      "ลายลักษณ์": 7831,
      "เงื่อน": 7832,
      "อับโดน": 7833,
      "นิโค": 7834,
      "เซ็น": 7835,
      "ส่งผล": 7836,
      "ปรบมือ": 7837,
      "พบเรา": 7838,
      "สมสู่": 7839,
      "คลึง": 7840,
      "สะกด": 7841,
      "สะโพก": 7842,
      "สะอื้น": 7843,
      "เหล่าผู้นำ": 7844,
      "ปฏิส": 7845,
      "จำคุก": 7846,
      "โอโน": 7847,
      "โทลา": 7848,
      "นายหญิง": 7849,
      "สัตว์น้ำ": 7850,
      "สิ้นแรง": 7851,
      "ถ้ามี": 7852,
      "ตะแกรง": 7853,
      "นักปราชญ์": 7854,
      "พล่าน": 7855,
      "ฤทธิ์เดช": 7856,
      "คืนหนึ่ง": 7857,
      "เฮเล": 7858,
      "เฮฮา": 7859,
      "ซีโอน": 7860,
      "เรียกหา": 7861,
      "หมู่พี่น้อง": 7862,
      "ตูม": 7863,
      "ประตูน้ำ": 7864,
      "รบเร้า": 7865,
      "ทุกข์เข็ญ": 7866,
      "โกเมอร์": 7867,
      "ร่วมรบ": 7868,
      "โฮด": 7869,
      "โฮโรนาอิม": 7870,
      "เดินผ่าน": 7871,
      "กองร้อย": 7872,
      "แด่พระองค์": 7873,
      "เจ็ดคน": 7874,
      "ไฟนั้น": 7875,
      "ฝูงอูฐ": 7876,
      "ด้านล่าง": 7877,
      "บิครี": 7878,
      "ถือโทษ": 7879,
      "ทาโอล": 7880,
      "ครอบงำ": 7881,
      "เปลี้ย": 7882,
      "สายลม": 7883,
      "พักอาศัย": 7884,
      "พักแรม": 7885,
      "สนาน": 7886,
      "ทั่วเมือง": 7887,
      "ใต้อำนาจ": 7888,
      "ศิเบโอน": 7889,
      "กายเดียว": 7890,
      "แต่งตัว": 7891,
      "บางสิ่ง": 7892,
      "มล้น": 7893,
      "จับใจ": 7894,
      "ห้าพัน": 7895,
      "ทีธิยาห์": 7896,
      "ตัดขาด": 7897,
      "เนื้อหนัง": 7898,
      "ข้างโน้น": 7899,
      "ปล่อยไว้": 7900,
      "มิชาเอล": 7901,
      "โสโค": 7902,
      "นับแต่นี้ไป": 7903,
      "ยึดเอา": 7904,
      "เสื้อเกราะ": 7905,
      "แสร้ง": 7906,
      "อายุยืน": 7907,
      "อายุขัย": 7908,
      "เยโฮซาดัก": 7909,
      "แข็งขัน": 7910,
      "ข้อเสนอ": 7911,
      "เต็มไป": 7912,
      "เต็มล้น": 7913,
      "ลำพอง": 7914,
      "ลำเนา": 7915,
      "หลานสาว": 7916,
      "อารคี": 7917,
      "ใหม่ๆ": 7918,
      "สีเขียว": 7919,
      "เอลีเยเซอร์": 7920,
      "เกลือก": 7921,
      "กร่อน": 7922,
      "เด็กชาย": 7923,
      "นั่งที่": 7924,
      "ลมัย": 7925,
      "ศาเร": 7926,
      "ศาบาด": 7927,
      "รันทด": 7928,
      "ล่วงรู้": 7929,
      "เชื้อชาติ": 7930,
      "สุขุม": 7931,
      "สุขภาพ": 7932,
      "ทาสรับใช้": 7933,
      "ขับเคี่ยว": 7934,
      "พื้นที่": 7935,
      "หกคน": 7936,
      "เปิดโปง": 7937,
      "งามสง่า": 7938,
      "ขาดแคลน": 7939,
      "น้อยใหญ่": 7940,
      "บังเหียน": 7941,
      "คู่หมั้น": 7942,
      "เกี่ยวข้าว": 7943,
      "ตัดสินโทษ": 7944,
      "ตอนหนึ่ง": 7945,
      "ตอนเย็น": 7946,
      "พงหนาม": 7947,
      "ขัดมีเอล": 7948,
      "หยุดหย่อน": 7949,
      "ี้ยน": 7950,
      "พังลง": 7951,
      "เปล่าเลย": 7952,
      "กระจ่าง": 7953,
      "ต้นไม้นั้น": 7954,
      "แซ่ซ้อง": 7955,
      "รอี": 7956,
      "แก้ตัว": 7957,
      "แก้ต่าง": 7958,
      "เข้มงวด": 7959,
      "แห้งผาก": 7960,
      "แห้งเหือด": 7961,
      "บ่อน้ำพุ": 7962,
      "ลืมตา": 7963,
      "ทุกล": 7964,
      "เปลี่ยนไป": 7965,
      "ขนบ": 7966,
      "ซากสัตว์": 7967,
      "ขนาบ": 7968,
      "พฤติกรรม": 7969,
      "อูส": 7970,
      "อูรี": 7971,
      "คาดหวัง": 7972,
      "นิมิตนั้น": 7973,
      "ขุนพล": 7974,
      "เลิกรา": 7975,
      "เร็วๆ": 7976,
      "เร็วเข้า": 7977,
      "วัยหนุ่ม": 7978,
      "คลังหลวง": 7979,
      "แบกรับ": 7980,
      "ลดลง": 7981,
      "แอ่ง": 7982,
      "เสร็จสิ้น": 7983,
      "ซิลีเซีย": 7984,
      "ผืนนั้น": 7985,
      "โชค": 7986,
      "ถ่อมตัว": 7987,
      "ตกลูก": 7988,
      "ธุระ": 7989,
      "นีเอล": 7990,
      "ทัปปูวาห์": 7991,
      "โครม": 7992,
      "มีชีวิตอยู่": 7993,
      "กรรไกร": 7994,
      "สุกใส": 7995,
      "บดบัง": 7996,
      "ภูมิลำเนา": 7997,
      "ย้ายไป": 7998,
      "ล้นพ้น": 7999,
      "ราคาแพง": 8000,
      "รื้อฟื้น": 8001,
      "วิธีการ": 8002,
      "เฉลียง": 8003,
      "อวดอ้าง": 8004,
      "ปักใจ": 8005,
      "บินนุ": 8006,
      "เผื่อแผ่": 8007,
      "ชี้แนะ": 8008,
      "เก่าแก่": 8009,
      "คะยอ": 8010,
      "คะยั้น": 8011,
      "รวดร้าว": 8012,
      "ค้นพบ": 8013,
      "กิลโบอา": 8014,
      "มัททีธิยาห์": 8015,
      "ทักท้วง": 8016,
      "หมายความว่า": 8017,
      "เขียวสด": 8018,
      "รดน้ำ": 8019,
      "ร่อนเร่": 8020,
      "ได้ชื่อว่า": 8021,
      "ข้อบกพร่อง": 8022,
      "ชุ่มชื่น": 8023,
      "ผงธุลี": 8024,
      "โม่แป้ง": 8025,
      "ท่อนๆ": 8026,
      "ฮักกี": 8027,
      "เสี่ยงๆ": 8028,
      "อ้อมอก": 8029,
      "อ้อมแขน": 8030,
      "ถลก": 8031,
      "เอชทาโอล": 8032,
      "ระงม": 8033,
      "เฆี่ยนตี": 8034,
      "แหงน": 8035,
      "อลหม่าน": 8036,
      "บ่อยๆ": 8037,
      "มิลโล": 8038,
      "ฉายแสง": 8039,
      "หมอผี": 8040,
      "อาเซล": 8041,
      "สนุกสนาน": 8042,
      "ไยดี": 8043,
      "สามัญสำนึก": 8044,
      "สาธารณ": 8045,
      "โอโฮลีบามาห์": 8046,
      "โหลก": 8047,
      "เรี่ยวแรง": 8048,
      "โขส": 8049,
      "ระเหเร่ร่อน": 8050,
      "ฉ้อฉล": 8051,
      "ปิสกาห์": 8052,
      "อักขูบ": 8053,
      "บูรณะ": 8054,
      "โบสราห์": 8055,
      "แสกๆ": 8056,
      "เอลีเฟเลท": 8057,
      "โป้ปด": 8058,
      "ครึกโครม": 8059,
      "เชบนา": 8060,
      "พล่อยๆ": 8061,
      "ฮาเร็ม": 8062,
      "ฟูมฟัก": 8063,
      "พวยพุ่ง": 8064,
      "ภัณฑ์": 8065,
      "ภยันตราย": 8066,
      "ล่อนจ้อน": 8067,
      "อสุจิ": 8068,
      "องครักษ์": 8069,
      "ระมัดระวัง": 8070,
      "เปี่ยมล้น": 8071,
      "มาเรชาห์": 8072,
      "เพทุบาย": 8073,
      "เอเดรอี": 8074,
      "เมมฟิส": 8075,
      "อาสายาห์": 8076,
      "ลูกพี่ลูกน้อง": 8077,
      "บินนุย": 8078,
      "คะยั้นคะยอ": 8079,
      "150": 8080,
      "250": 8081,
      "450": 8082,
      "75": 8083,
      "90": 8084,
      "กราย": 8085,
      "กสะท้าน": 8086,
      "ขอย": 8087,
      "ขื่อ": 8088,
      "คิน": 8089,
      "คชา": 8090,
      "คัย": 8091,
      "คลาด": 8092,
      "งน": 8093,
      "งการ": 8094,
      "จฉาน": 8095,
      "ฉงน": 8096,
      "ชั": 8097,
      "ซึม": 8098,
      "ซักล้าง": 8099,
      "ฎีกา": 8100,
      "ดถอย": 8101,
      "ตราช": 8102,
      "ถดถอย": 8103,
      "ทก์": 8104,
      "นิส": 8105,
      "บับ": 8106,
      "บัว": 8107,
      "บงการ": 8108,
      "ปป": 8109,
      "ปอ": 8110,
      "ปอง": 8111,
      "ปศุ": 8112,
      "ผุด": 8113,
      "พาน": 8114,
      "พิต": 8115,
      "พราย": 8116,
      "ฟอก": 8117,
      "มื้อ": 8118,
      "รี่": 8119,
      "รั่ว": 8120,
      "ร่อง": 8121,
      "ศับ": 8122,
      "ศึกษา": 8123,
      "ษรา": 8124,
      "สอ": 8125,
      "สรุ": 8126,
      "สมาน": 8127,
      "อึ้ง": 8128,
      "ฮูก": 8129,
      "ฮายิล": 8130,
      "าศัย": 8131,
      "ิ้น": 8132,
      "ูม": 8133,
      "ู่อ": 8134,
      "แนม": 8135,
      "โหร": 8136,
      "โชม": 8137,
      "โขม": 8138,
      "ไฮ": 8139,
      "ไพบ": 8140,
      "ระแวด": 8141,
      "พระธรรม": 8142,
      "พระพิโรธ": 8143,
      "พระฉาย": 8144,
      "ของผม": 8145,
      "เจีย": 8146,
      "ที่อย": 8147,
      "ที่ต้อง": 8148,
      "ที่มืด": 8149,
      "ที่แท้": 8150,
      "ที่สิบเอ็ด": 8151,
      "ที่กำบัง": 8152,
      "เข็ด": 8153,
      "เปเลก": 8154,
      "องค์ไหน": 8155,
      "เป็นไฟ": 8156,
      "ผู้ที่": 8157,
      "ผู้นั้น": 8158,
      "มาณ": 8159,
      "มาส": 8160,
      "มาด้วย": 8161,
      "มาลิ": 8162,
      "มาหยุด": 8163,
      "ว่าย": 8164,
      "ากรรม": 8165,
      "ในที่สุด": 8166,
      "คนชั่ว": 8167,
      "าริม": 8168,
      "ตรึก": 8169,
      "ได้ถวาย": 8170,
      "ได้พัก": 8171,
      "ข้าหลวง": 8172,
      "เหส": 8173,
      "ไม่ฟัง": 8174,
      "ไม่ทำลาย": 8175,
      "ไม่รวม": 8176,
      "ไม่นับ": 8177,
      "ไม่ซื่อ": 8178,
      "ไม่เช่นนั้น": 8179,
      "หนอง": 8180,
      "คร้าย": 8181,
      "ครุ่น": 8182,
      "เอ่อ": 8183,
      "เอบาล": 8184,
      "เอซีโอน": 8185,
      "มีจำนวน": 8186,
      "จากนั้น": 8187,
      "เมดา": 8188,
      "ประมง": 8189,
      "ควิล": 8190,
      "กลอน": 8191,
      "กล่อม": 8192,
      "ทำกัน": 8193,
      "้นแค้น": 8194,
      "ทั้งนั้น": 8195,
      "ทั้งตัว": 8196,
      "แต่เมื่อ": 8197,
      "แต่เช้า": 8198,
      "ความดูแล": 8199,
      "ความฉลาด": 8200,
      "ความทรงจำ": 8201,
      "เลาดี": 8202,
      "อาเร": 8203,
      "อาควิล": 8204,
      "รรไกร": 8205,
      "เสบา": 8206,
      "เสฟาร": 8207,
      "ิสสิลลา": 8208,
      "การเข้า": 8209,
      "การร้าย": 8210,
      "การสอน": 8211,
      "การบังคับ": 8212,
      "รับเชิญ": 8213,
      "รับมรดก": 8214,
      "เชื่อง": 8215,
      "เชียง": 8216,
      "เรล": 8217,
      "เร่า": 8218,
      "เอลัท": 8219,
      "เอลนาธัน": 8220,
      "เยชายาห์": 8221,
      "ดาษ": 8222,
      "ด้วยซ้ำ": 8223,
      "บุษรา": 8224,
      "เหลือง": 8225,
      "บาเสม": 8226,
      "บาดาล": 8227,
      "เกโดร์": 8228,
      "เดไลยาห์": 8229,
      "ตามมา": 8230,
      "ขึ้นอีก": 8231,
      "หรือเปล่า": 8232,
      "ทุกหน": 8233,
      "ทุกทาง": 8234,
      "ทุกแบบ": 8235,
      "อิสชีอาห์": 8236,
      "เวทนา": 8237,
      "วงกบ": 8238,
      "ถึงพื้น": 8239,
      "ถึงจุดจบ": 8240,
      "วันฉลอง": 8241,
      "วันพิพากษา": 8242,
      "โลทาน": 8243,
      "โรช": 8244,
      "อย่างสูง": 8245,
      "อย่างลับๆ": 8246,
      "เนิ่น": 8247,
      "เนเรท": 8248,
      "ตัวใด": 8249,
      "ตัวเดียว": 8250,
      "ถูกรับ": 8251,
      "ลาเลล": 8252,
      "ลาเทีย": 8253,
      "กันเอง": 8254,
      "ขอแต่": 8255,
      "ูลย์": 8256,
      "ทางชั่ว": 8257,
      "เทล": 8258,
      "เทโม": 8259,
      "เทนัย": 8260,
      "ทธิว": 8261,
      "ทธิพล": 8262,
      "วิยาห์": 8263,
      "วิจิ": 8264,
      "หลายๆ": 8265,
      "หลายครั้ง": 8266,
      "เห็นถึง": 8267,
      "เห็นดี": 8268,
      "รุ้ง": 8269,
      "โยง": 8270,
      "โยยา": 8271,
      "ดีมาก": 8272,
      "ดีโชน": 8273,
      "ต่างกัน": 8274,
      "ใช้หนี้": 8275,
      "กาชี": 8276,
      "กามาลิ": 8277,
      "กาลาเทีย": 8278,
      "กระเจิด": 8279,
      "ไม่ได้อยู่": 8280,
      "เหมือนคน": 8281,
      "หาว่า": 8282,
      "ยาพิษ": 8283,
      "นางสิงห์": 8284,
      "นางสนม": 8285,
      "ตั้งราคา": 8286,
      "ไม่มีเลย": 8287,
      "ดังสนั่น": 8288,
      "่มแทง": 8289,
      "น้ำหน้า": 8290,
      "น้ำไหล": 8291,
      "เคลิ้ม": 8292,
      "อันดี": 8293,
      "อันนา": 8294,
      "พรู": 8295,
      "รู้แน่": 8296,
      "อย่าทำให้": 8297,
      "ลังเล": 8298,
      "ุมพิต": 8299,
      "ชาติอื่นๆ": 8300,
      "ใครกัน": 8301,
      "สองปีก": 8302,
      "หมดตัว": 8303,
      "ชั่วขณะ": 8304,
      "ชั่วครู่": 8305,
      "ปลีก": 8306,
      "ปลาร์": 8307,
      "ปลิ้น": 8308,
      "แท่ง": 8309,
      "บาปหนา": 8310,
      "ยิ่งๆ": 8311,
      "ส่วนนี้": 8312,
      "หากิน": 8313,
      "วาอิม": 8314,
      "ยกพล": 8315,
      "ทิรา": 8316,
      "ทิ่มแทง": 8317,
      "มาก่อน": 8318,
      "น้องๆ": 8319,
      "สิบเจ็ด": 8320,
      "อับปาง": 8321,
      "เซบุบ": 8322,
      "ปริสสิลลา": 8323,
      "พี่เลี้ยง": 8324,
      "สมอ": 8325,
      "คลี": 8326,
      "อะไรให้": 8327,
      "อะไรได้": 8328,
      "อะไรหรือ": 8329,
      "อัฟ": 8330,
      "จำไว้": 8331,
      "โอเมอร์": 8332,
      "โอเรบ": 8333,
      "สัตว์ต่างๆ": 8334,
      "สิ้นคิด": 8335,
      "สิ้นชีพ": 8336,
      "เสียงนั้น": 8337,
      "ร้ายกาจ": 8338,
      "วนเวียน": 8339,
      "พร้อมแล้ว": 8340,
      "พร้อมใจ": 8341,
      "เรื่องใด": 8342,
      "พลอ": 8343,
      "พลัด": 8344,
      "อาหารนี้": 8345,
      "ทองแดง": 8346,
      "สุภาษิต": 8347,
      "ปราสาท": 8348,
      "เฮโร": 8349,
      "เฮนา": 8350,
      "ชื่อว่า": 8351,
      "จริงหรือ": 8352,
      "จริงจัง": 8353,
      "เงินถวาย": 8354,
      "หมู่ดาว": 8355,
      "เศโบ": 8356,
      "โกบ": 8357,
      "ร่วมทาง": 8358,
      "ร่วมทัพ": 8359,
      "โฮน": 8360,
      "เดินมา": 8361,
      "แข้ง": 8362,
      "ชูอาห์": 8363,
      "เจ็ดองค์": 8364,
      "เสียจริง": 8365,
      "ฝูงลา": 8366,
      "ก่อนอื่น": 8367,
      "ทาอานาค": 8368,
      "พาล": 8369,
      "สายวัด": 8370,
      "รีน": 8371,
      "สูงใหญ่": 8372,
      "เก็บภาษี": 8373,
      "อาบาริม": 8374,
      "นอกบ้าน": 8375,
      "รวมถึง": 8376,
      "รวมหัว": 8377,
      "จับสลาก": 8378,
      "ฟีนิ": 8379,
      "ลิเบีย": 8380,
      "เล่าขาน": 8381,
      "เนื้อที่": 8382,
      "ข้างต้น": 8383,
      "ข้างขวา": 8384,
      "ล้างเท้า": 8385,
      "รายละเอียด": 8386,
      "พอๆ": 8387,
      "มิบ": 8388,
      "มิหนำ": 8389,
      "รสดี": 8390,
      "น่าอับอาย": 8391,
      "ลุกเป็นไฟ": 8392,
      "หินผา": 8393,
      "ฮาโน": 8394,
      "ทหารม้า": 8395,
      "ข้อพิสูจน์": 8396,
      "เต็มเปี่ยม": 8397,
      "ยุท": 8398,
      "ยุยง": 8399,
      "ค่าแรง": 8400,
      "ค่าตอบแทน": 8401,
      "ค่าใช้จ่าย": 8402,
      "อารปั": 8403,
      "แร้นแค้น": 8404,
      "เลือดแพะ": 8405,
      "เธเบ": 8406,
      "ฝ่ายหนึ่ง": 8407,
      "จมน้ำ": 8408,
      "จมดิ่ง": 8409,
      "สีหน้า": 8410,
      "สีข้าง": 8411,
      "นกกา": 8412,
      "นกกระ": 8413,
      "นกฮูก": 8414,
      "ทุ่งโล่ง": 8415,
      "เกลี่ย": 8416,
      "อัสรีเอล": 8417,
      "เดือนนั้น": 8418,
      "ท่าทาง": 8419,
      "เท่ากัน": 8420,
      "เบธไซ": 8421,
      "โนบ": 8422,
      "เด็กผู้ชาย": 8423,
      "คลุมทับ": 8424,
      "ลมๆ": 8425,
      "อิธ": 8426,
      "อิฟ": 8427,
      "อิทธิพล": 8428,
      "คอยอยู่": 8429,
      "รัจฉาน": 8430,
      "เชื้อเชิญ": 8431,
      "เชื้อเพลิง": 8432,
      "นิรันดร": 8433,
      "ขึ้นมาได้": 8434,
      "ลานบ้าน": 8435,
      "สูบ": 8436,
      "ทอดยาว": 8437,
      "กลับไปหา": 8438,
      "ประจำตัว": 8439,
      "เปิดกว้าง": 8440,
      "สวมใส่": 8441,
      "โอนัน": 8442,
      "ขอบเขต": 8443,
      "แบบจำลอง": 8444,
      "ปิดกั้น": 8445,
      "สงบเงียบ": 8446,
      "เหงื่อ": 8447,
      "โศอัน": 8448,
      "ปรากฏว่า": 8449,
      "ก่อขึ้น": 8450,
      "โกรธแค้น": 8451,
      "โกรธเคือง": 8452,
      "แผนงาน": 8453,
      "ยับบอก": 8454,
      "ยับเยิน": 8455,
      "หลงไป": 8456,
      "หลงรัก": 8457,
      "วิ่งไล่": 8458,
      "ฝันเห็น": 8459,
      "อาหิโนอัม": 8460,
      "มุ่งหวัง": 8461,
      "ควบม้า": 8462,
      "เห็นแก่ตัว": 8463,
      "ความมืดมน": 8464,
      "ความมืดทึบ": 8465,
      "หลุมฝังศพ": 8466,
      "ช่วงนั้น": 8467,
      "โศกสลด": 8468,
      "อิ่มใจ": 8469,
      "ไซรีน": 8470,
      "หยิ่งจองหอง": 8471,
      "รีบไป": 8472,
      "บุกมา": 8473,
      "ความสุขุม": 8474,
      "แย่": 8475,
      "เคลื่อนทัพ": 8476,
      "ต้านทาน": 8477,
      "เบลชัสซาร์": 8478,
      "ฉีกขาด": 8479,
      "ลุค": 8480,
      "นิ่งเสีย": 8481,
      "เมาเหล้า": 8482,
      "หลอกล่อ": 8483,
      "ลามก": 8484,
      "เศร้าหมอง": 8485,
      "ขี้แร่": 8486,
      "โปร์": 8487,
      "ปลาบ": 8488,
      "ถอยหลัง": 8489,
      "เหวี่ยงทิ้ง": 8490,
      "โคร์": 8491,
      "สะทกสะท้าน": 8492,
      "กรรเชียง": 8493,
      "รกร้าง": 8494,
      "ลูส": 8495,
      "ลูกลา": 8496,
      "บาอัลเซ": 8497,
      "สุดท้ายนี้": 8498,
      "ภาคหน้า": 8499,
      "เกอร์โชม": 8500,
      "เกอร์กาชี": 8501,
      "สุนัขจิ้งจอก": 8502,
      "เอนัน": 8503,
      "อัยยาห์": 8504,
      "ส่องแสง": 8505,
      "โอบอุ้ม": 8506,
      "ที่ราบสูง": 8507,
      "เรื่อยไป": 8508,
      "ย่างเท้า": 8509,
      "หล่อเลี้ยง": 8510,
      "คดเคี้ยว": 8511,
      "มัวเมา": 8512,
      "พักอยู่ที่": 8513,
      "รื่นรมย์": 8514,
      "คลี่ออก": 8515,
      "สอดแนม": 8516,
      "สิ่งดีงาม": 8517,
      "คีริยาธาอิม": 8518,
      "ชะตา": 8519,
      "ร่วงโรย": 8520,
      "มัลลุค": 8521,
      "หวงแหน": 8522,
      "สบายดี": 8523,
      "แล้งๆ": 8524,
      "พะเนิน": 8525,
      "ประสบการณ์": 8526,
      "ปริมาณ": 8527,
      "ผงคลี": 8528,
      "หลีกหนี": 8529,
      "อย่าไปฟัง": 8530,
      "ถูกจับได้": 8531,
      "หย่อนลง": 8532,
      "มาหะลาเลล": 8533,
      "ชิมโรน": 8534,
      "ตบมือ": 8535,
      "หมาง": 8536,
      "นิดเดียว": 8537,
      "ครีต": 8538,
      "เอชเทโม": 8539,
      "สดใส": 8540,
      "โลดเต้น": 8541,
      "ยังอยู่ที่": 8542,
      "โยกย้าย": 8543,
      "โปรยปราย": 8544,
      "บั้นเอว": 8545,
      "หารือกัน": 8546,
      "วิตกกังวล": 8547,
      "โอโฮลีบ": 8548,
      "ลิบนี": 8549,
      "ง่ายกว่า": 8550,
      "ก้มลง": 8551,
      "ก้มกราบ": 8552,
      "ทาห์ปาน": 8553,
      "ยาริบ": 8554,
      "คร่าชีวิต": 8555,
      "สัญลักษณ์": 8556,
      "หมั้นหมาย": 8557,
      "คลุกฝุ่น": 8558,
      "เอโนช": 8559,
      "ถูกล": 8560,
      "เกือบจะ": 8561,
      "ทรุดโทรม": 8562,
      "ซันยาห์": 8563,
      "บ้าคลั่ง": 8564,
      "อาเซคาห์": 8565,
      "สัลโมน": 8566,
      "วีรกรรม": 8567,
      "ศิลปาห์": 8568,
      "ขูดรีด": 8569,
      "ฉกฉวย": 8570,
      "ผันแปร": 8571,
      "พวงองุ่น": 8572,
      "ยาฮาส": 8573,
      "ยาฮาซีเอล": 8574,
      "ดิ้นรน": 8575,
      "นกเค้าแมว": 8576,
      "อาชญากร": 8577,
      "อาชญากรรม": 8578,
      "มัทธิว": 8579,
      "แฝด": 8580,
      "หนวดเครา": 8581,
      "รอนแรม": 8582,
      "ศิปโปร์": 8583,
      "เบเอลเซบุบ": 8584,
      "ทัดทาน": 8585,
      "โจทก์": 8586,
      "เสือดาว": 8587,
      "ยุทธภัณฑ์": 8588,
      "กรีดร้อง": 8589,
      "ศูนย์กลาง": 8590,
      "ขากรรไกร": 8591,
      "ฝัดร่อน": 8592,
      "พูต": 8593,
      "มาตรฐาน": 8594,
      "พรั่งพรู": 8595,
      "มิใช่หรือ": 8596,
      "แพร่งพราย": 8597,
      "เพิกเฉย": 8598,
      "เมเรโมท": 8599,
      "อาณัติ": 8600,
      "เชโลมิท": 8601,
      "เวลานี้": 8602,
      "ชนชาตินี้": 8603,
      "เงื่อนไข": 8604,
      "ทุกลูก": 8605,
      "สาธารณชน": 8606,
      "คินเนเรท": 8607,
      "คชาด": 8608,
      "ปอปลาร์": 8609,
      "ปองร้าย": 8610,
      "ปศุสัตว์": 8611,
      "สอพลอ": 8612,
      "สรุป": 8613,
      "ู่อาศัย": 8614,
      "โขมง": 8615,
      "ไพบูลย์": 8616,
      "ที่อยู่อาศัย": 8617,
      "ตรึกตรอง": 8618,
      "ครุ่นคิด": 8619,
      "เอซีโอนเกเบอร์": 8620,
      "เลาดีเซีย": 8621,
      "อาควิลลา": 8622,
      "เสฟารวาอิม": 8623,
      "บุษราคัม": 8624,
      "บาเสมัท": 8625,
      "วิจิตร": 8626,
      "กามาลิเอล": 8627,
      "มิหนำซ้ำ": 8628,
      "ฮาโนค": 8629,
      "อารปัคชาด": 8630,
      "เบธไซดา": 8631,
      "โอโฮลีบาห์": 8632,
      "ทาห์ปานเหส": 8633,
      "37": 8634,
      "41": 8635,
      "74": 8636,
      "กเช่น": 8637,
      "ขิบ": 8638,
      "งูก": 8639,
      "จอด": 8640,
      "ชิน": 8641,
      "ชบี": 8642,
      "ชุบ": 8643,
      "ซวน": 8644,
      "ดั้ง": 8645,
      "ดียา": 8646,
      "ด้าม": 8647,
      "ท่อ": 8648,
      "น้า": 8649,
      "นหัน": 8650,
      "นส์": 8651,
      "นนี": 8652,
      "บก": 8653,
      "ปเป": 8654,
      "ปาร": 8655,
      "ปอน": 8656,
      "ผัส": 8657,
      "ผื่น": 8658,
      "พ่น": 8659,
      "พเน": 8660,
      "พนา": 8661,
      "พญา": 8662,
      "พราน": 8663,
      "ฟัท": 8664,
      "ฟนี": 8665,
      "มุ่น": 8666,
      "ยล": 8667,
      "ริส": 8668,
      "รัต": 8669,
      "รภาพ": 8670,
      "ลิส": 8671,
      "ลัส": 8672,
      "ลัด": 8673,
      "ลัพ": 8674,
      "ว่": 8675,
      "วัก": 8676,
      "วิสุ": 8677,
      "ห่า": 8678,
      "หู่": 8679,
      "อเป": 8680,
      "อาม": 8681,
      "อึด": 8682,
      "อหัง": 8683,
      "ิ้": 8684,
      "ีน": 8685,
      "ึ้ม": 8686,
      "แคง": 8687,
      "แง่": 8688,
      "โจน": 8689,
      "โสม": 8690,
      "ไพร": 8691,
      "”?": 8692,
      "ระคาย": 8693,
      "พระแสง": 8694,
      "พระเศียร": 8695,
      "พระโรง": 8696,
      "พระวาทะ": 8697,
      "แล่ง": 8698,
      "ราร์": 8699,
      "ราวาน": 8700,
      "เจอ": 8701,
      "เจียน": 8702,
      "ที่ตาย": 8703,
      "ที่ถือ": 8704,
      "และดื่ม": 8705,
      "เปน": 8706,
      "เปดา": 8707,
      "เปลา": 8708,
      "เป๋า": 8709,
      "เปนีเอล": 8710,
      "ับถือ": 8711,
      "เขาทั้งหลาย": 8712,
      "มาพัก": 8713,
      "ว่าความ": 8714,
      "ว่าด้วย": 8715,
      "ว่าดี": 8716,
      "เราไป": 8717,
      "ในนาม": 8718,
      "ให้กับ": 8719,
      "ให้เห็น": 8720,
      "ให้พร้อม": 8721,
      "คนๆ": 8722,
      "ารัด": 8723,
      "ได้กิน": 8724,
      "ทรงจัด": 8725,
      "ทรงล้ม": 8726,
      "ทรงคว่ำ": 8727,
      "เหิม": 8728,
      "ไม่เห็น": 8729,
      "ไม่กลับ": 8730,
      "ไม่พบ": 8731,
      "ไม่ชนะ": 8732,
      "ไม่กี่": 8733,
      "ไม่นับถือ": 8734,
      "ียูม": 8735,
      "ไปสู่": 8736,
      "พวกฟาริสี": 8737,
      "หน่วย": 8738,
      "่นี้": 8739,
      "เพ้อ": 8740,
      "ครึ้ม": 8741,
      "เอตาม": 8742,
      "เอเธ": 8743,
      "เอารัด": 8744,
      "ก็ดี": 8745,
      "มีแต่": 8746,
      "มีอะไร": 8747,
      "มีอยู่ใน": 8748,
      "มีโอกาส": 8749,
      "ชาเร": 8750,
      "ประกบ": 8751,
      "ประเดี๋ยว": 8752,
      "ประจาน": 8753,
      "ประเด็น": 8754,
      "ควาน": 8755,
      "กลัด": 8756,
      "แต่คน": 8757,
      "แต่แล้ว": 8758,
      "แต่กระนั้น": 8759,
      "แต่เดิม": 8760,
      "ความบาป": 8761,
      "ความชอบ": 8762,
      "ความอยาก": 8763,
      "ความยุติธรรม": 8764,
      "ความทารุณ": 8765,
      "ความสิ้นหวัง": 8766,
      "เลเท": 8767,
      "เล็ง": 8768,
      "เลื่อม": 8769,
      "เลเสอร์": 8770,
      "อาโห": 8771,
      "อยู่เพิง": 8772,
      "เสราห์": 8773,
      "เสือก": 8774,
      "การทำให้": 8775,
      "การใหญ่": 8776,
      "การปฏิบัติ": 8777,
      "การชุมนุม": 8778,
      "การยกย่อง": 8779,
      "การเลี้ยงดู": 8780,
      "การพิสูจน์": 8781,
      "การวิวาท": 8782,
      "การฝึกฝน": 8783,
      "พระเจ้าเอง": 8784,
      "รับเสด็จ": 8785,
      "รับสินบน": 8786,
      "เชช": 8787,
      "เชบาน": 8788,
      "เรื้อ": 8789,
      "เรเสท": 8790,
      "เอลิม": 8791,
      "เยียน": 8792,
      "เยดียา": 8793,
      "ดาอิม": 8794,
      "ดาวิยาห์": 8795,
      "บุล": 8796,
      "บาเอล": 8797,
      "บาฮู": 8798,
      "บาอาล": 8799,
      "เกเด": 8800,
      "เกดี": 8801,
      "เดล": 8802,
      "ขึ้นศาล": 8803,
      "ขึ้นเรื่อยๆ": 8804,
      "ทุกส่วน": 8805,
      "เพื่อเจ้า": 8806,
      "อิสรภาพ": 8807,
      "ต่อย": 8808,
      "วงล้อม": 8809,
      "ใจกว้าง": 8810,
      "ถึงได้": 8811,
      "วันตาย": 8812,
      "ออกแบบ": 8813,
      "ชนชั้น": 8814,
      "สิ่งหนึ่ง": 8815,
      "สิ่งเหล่านั้น": 8816,
      "สิ่งอื่นๆ": 8817,
      "โรเกล": 8818,
      "โรคร้าย": 8819,
      "แห่": 8820,
      "อย่างอื่น": 8821,
      "เข้าโจมตี": 8822,
      "เนย": 8823,
      "เนียง": 8824,
      "ตัวนาง": 8825,
      "ธิคุณ": 8826,
      "ถูกมัด": 8827,
      "ถูกดูหมิ่น": 8828,
      "ยังได้": 8829,
      "ยังต้อง": 8830,
      "ลาอิช": 8831,
      "ลงทุน": 8832,
      "หาร์": 8833,
      "ขอมอบ": 8834,
      "ขออนุญาต": 8835,
      "ทางหนึ่ง": 8836,
      "เท่ห์": 8837,
      "โมรา": 8838,
      "โมเร": 8839,
      "โดเอก": 8840,
      "ทธิชน": 8841,
      "วิลาห์": 8842,
      "คำเทศนา": 8843,
      "ต้องทน": 8844,
      "บรรยาย": 8845,
      "ชาวเมือง": 8846,
      "ชาวเกาะ": 8847,
      "ดีเอล": 8848,
      "ลูกพรวน": 8849,
      "ลูกกรง": 8850,
      "สำเนียง": 8851,
      "ต่างถิ่น": 8852,
      "เครือ": 8853,
      "นาโยท": 8854,
      "นาธานา": 8855,
      "กระโจน": 8856,
      "กระเป๋า": 8857,
      "เครื่องทรง": 8858,
      "ยาบัน": 8859,
      "ยาเรด": 8860,
      "ยาชูบ": 8861,
      "ตั้งตัว": 8862,
      "ตั้งต้น": 8863,
      "ดังเช่น": 8864,
      "โดยตลอด": 8865,
      "โดยลำพัง": 8866,
      "น้ำทะเล": 8867,
      "น้ำอสุจิ": 8868,
      "เคเด": 8869,
      "อันดับ": 8870,
      "พร้อย": 8871,
      "มันก็": 8872,
      "รูปล": 8873,
      "ดูดาอิม": 8874,
      "ยิบ": 8875,
      "เบ่ง": 8876,
      "เบื่อ": 8877,
      "เบเซ": 8878,
      "เบรี": 8879,
      "เบบัย": 8880,
      "เบเคอร์": 8881,
      "เต้า": 8882,
      "เต่ง": 8883,
      "ซูบ": 8884,
      "สองครั้ง": 8885,
      "ราชบุตร": 8886,
      "ราชมนตรี": 8887,
      "ปล้อน": 8888,
      "เดียส": 8889,
      "พูดได้ว่า": 8890,
      "กำลังวังชา": 8891,
      "ร้องหา": 8892,
      "ละม": 8893,
      "ปีหน้า": 8894,
      "อมตะ": 8895,
      "สัตยาบัน": 8896,
      "บ้านนั้น": 8897,
      "หากว่า": 8898,
      "วาววับ": 8899,
      "เอาเถิด": 8900,
      "ยกหนี้": 8901,
      "ทิกลัท": 8902,
      "ทิชบี": 8903,
      "เหน็บ": 8904,
      "นิยม": 8905,
      "เซเอล": 8906,
      "ส่งตัว": 8907,
      "คล่ำ": 8908,
      "คลุ้ง": 8909,
      "สะสาง": 8910,
      "สะอึก": 8911,
      "อะไรดี": 8912,
      "ิปราย": 8913,
      "ตกดิน": 8914,
      "พันธะ": 8915,
      "กิบ": 8916,
      "จำเลย": 8917,
      "สุดกำลัง": 8918,
      "สุดเสียง": 8919,
      "ผลัด": 8920,
      "ผลลัพ": 8921,
      "มาร่วม": 8922,
      "ไม้คาน": 8923,
      "สิ้นเนื้อ": 8924,
      "สิ้นยุค": 8925,
      "หมายเลข": 8926,
      "สัญญาไว้": 8927,
      "สั่งการ": 8928,
      "หลังม้า": 8929,
      "ถ้าใคร": 8930,
      "ตะแคง": 8931,
      "ใช่แล้ว": 8932,
      "พร้อมกัน": 8933,
      "แผ่นฟ้า": 8934,
      "ผิดหวัง": 8935,
      "กินเลี้ยง": 8936,
      "นักธนู": 8937,
      "พลธนู": 8938,
      "พล่าม": 8939,
      "บทนี้": 8940,
      "ปราด": 8941,
      "ยืนนิ่ง": 8942,
      "วางมือ": 8943,
      "ฟ้าสาง": 8944,
      "ต้นขา": 8945,
      "กลางทาง": 8946,
      "ยอมจำนน": 8947,
      "ยามีน": 8948,
      "ทะมึน": 8949,
      "อาศัยอยู่": 8950,
      "เศเอบ": 8951,
      "เศบุล": 8952,
      "โกยิม": 8953,
      "โฮเมอร์": 8954,
      "โฮซัน": 8955,
      "โฮดาวิยาห์": 8956,
      "เดินเรือ": 8957,
      "ชูบาเอล": 8958,
      "แท่นนี้": 8959,
      "นี่หรือ": 8960,
      "นี่แน่ะ": 8961,
      "หายป่วย": 8962,
      "เจ็ดเท่า": 8963,
      "เสียก่อน": 8964,
      "เสียดาย": 8965,
      "เสียดฟ้า": 8966,
      "ฝูงม้า": 8967,
      "จักรวาล": 8968,
      "ทาหัท": 8969,
      "ทรหด": 8970,
      "เปลาห์": 8971,
      "ผ้าห่ม": 8972,
      "สายธาร": 8973,
      "สายรัด": 8974,
      "พักค้างคืน": 8975,
      "ศัตรูกัน": 8976,
      "สน์": 8977,
      "สนเท่ห์": 8978,
      "ตรงๆ": 8979,
      "ทะเลตาย": 8980,
      "รีคัม": 8981,
      "สี่ตัว": 8982,
      "สูงอายุ": 8983,
      "เก็บของ": 8984,
      "เก็บเงิน": 8985,
      "เก็บองุ่น": 8986,
      "พ้นผิด": 8987,
      "อย่างไรก็ดี": 8988,
      "บางครั้ง": 8989,
      "โซน": 8990,
      "เลี้ยงฉลอง": 8991,
      "ลิเดีย": 8992,
      "เล่าเรื่อง": 8993,
      "อำลา": 8994,
      "คุณภาพ": 8995,
      "คาล": 8996,
      "คาราวาน": 8997,
      "หลังจากนี้": 8998,
      "ล้างแค้น": 8999,
      "ลุกไหม้": 9000,
      "ฮาชู": 9001,
      "ฮาธา": 9002,
      "ฮาวิลาห์": 9003,
      "ทหารยาม": 9004,
      "ทหารกล้า": 9005,
      "แทนเรา": 9006,
      "ข้อต่อ": 9007,
      "แรงกล้า": 9008,
      "หนังแกะ": 9009,
      "ค่าเสียหาย": 9010,
      "อาริส": 9011,
      "อารเท": 9012,
      "อารีเอล": 9013,
      "อารปัด": 9014,
      "หุนหัน": 9015,
      "สักอย่าง": 9016,
      "สักนิด": 9017,
      "เอลีเอเซอร์": 9018,
      "เกลี้ย": 9019,
      "อัสชูร์": 9020,
      "อัสรีคัม": 9021,
      "ท้องถนน": 9022,
      "ท้องพระโรง": 9023,
      "เท่าๆ": 9024,
      "กร้าว": 9025,
      "เข้าใจได้": 9026,
      "ล้มเลิก": 9027,
      "ไร้ผล": 9028,
      "ลมใต้": 9029,
      "ลมปาก": 9030,
      "อิรา": 9031,
      "อิโคน": 9032,
      "โหว่": 9033,
      "จำนวนปี": 9034,
      "ลาดาน": 9035,
      "ลาดเลา": 9036,
      "หนุ่มสาว": 9037,
      "อ่อนแรง": 9038,
      "อ่อนเปลี้ย": 9039,
      "ปัญญาจารย์": 9040,
      "สุขสบาย": 9041,
      "เตรียมทาง": 9042,
      "หวังใจ": 9043,
      "พื้นโลก": 9044,
      "พื้นฐาน": 9045,
      "มืดไป": 9046,
      "แยกตัว": 9047,
      "ร้อนระอุ": 9048,
      "ขาดคำ": 9049,
      "สัมผัส": 9050,
      "น้อยนิด": 9051,
      "แค่นี้": 9052,
      "ข่มขวัญ": 9053,
      "ระหว่างนั้น": 9054,
      "คู่ๆ": 9055,
      "เฉกเช่น": 9056,
      "ต่อสู้กัน": 9057,
      "ราวๆ": 9058,
      "หักหลัง": 9059,
      "ขัดเงา": 9060,
      "ห้องนอน": 9061,
      "ปิดตา": 9062,
      "ร้อยตัว": 9063,
      "หยุดยั้ง": 9064,
      "ล้อมวง": 9065,
      "อาบีฮายิล": 9066,
      "พังครืน": 9067,
      "นั่นเอง": 9068,
      "ป่าไม้": 9069,
      "วอนขอ": 9070,
      "แตกฉาน": 9071,
      "อัคโบร์": 9072,
      "แก้ฝัน": 9073,
      "วิถีชีวิต": 9074,
      "บาดหมาง": 9075,
      "แสดงให้": 9076,
      "จุดตะเกียง": 9077,
      "จุดเริ่มต้น": 9078,
      "ยอดรัก": 9079,
      "ซื้อขาย": 9080,
      "หลงทาง": 9081,
      "หลงหาย": 9082,
      "หลงใหล": 9083,
      "วิ่งตาม": 9084,
      "แท้ๆ": 9085,
      "ฝันไป": 9086,
      "ผมหงอก": 9087,
      "อาหิโย": 9088,
      "อาหิเยเซอร์": 9089,
      "มุ่งมั่น": 9090,
      "มุ่งมอง": 9091,
      "กรุณาธิคุณ": 9092,
      "คุกคาม": 9093,
      "แปดคน": 9094,
      "หวาดวิตก": 9095,
      "พิธีนี้": 9096,
      "หะเรเสท": 9097,
      "อูริม": 9098,
      "นอกจากนั้น": 9099,
      "ขนาดนี้": 9100,
      "ขนาดยาว": 9101,
      "หยิ่งทะนง": 9102,
      "ปาหัท": 9103,
      "ปาโรช": 9104,
      "เสื่อมสูญ": 9105,
      "หนาทึบ": 9106,
      "คบไฟ": 9107,
      "คบเพลิง": 9108,
      "เคลื่อนไหว": 9109,
      "ขันแข็ง": 9110,
      "มุมโลก": 9111,
      "วัยเยาว์": 9112,
      "ต่ำทราม": 9113,
      "สมัยก่อน": 9114,
      "ดอกหนึ่ง": 9115,
      "ทรยศต่อ": 9116,
      "โฟท": 9117,
      "ขมับ": 9118,
      "แอปเป": 9119,
      "พึ่งพิง": 9120,
      "ตรวจการ": 9121,
      "เหยียบย่าง": 9122,
      "ถ่อมลง": 9123,
      "ถ่อมสุภาพ": 9124,
      "ทัลมัย": 9125,
      "หม้อน้ำ": 9126,
      "เยี่ยมเยียน": 9127,
      "อัชทาโรท": 9128,
      "อานาท": 9129,
      "ไหวพริบ": 9130,
      "พัดพา": 9131,
      "รุ่นหลัง": 9132,
      "คล้ายคลึง": 9133,
      "อภิปราย": 9134,
      "เอนเกดี": 9135,
      "หนี้สิน": 9136,
      "ส่องสว่าง": 9137,
      "โอบกอด": 9138,
      "ขังคุก": 9139,
      "มักจะ": 9140,
      "ประดับประดา": 9141,
      "เก่าก่อน": 9142,
      "ทอแสง": 9143,
      "ขุดไว้": 9144,
      "แทบจะ": 9145,
      "คะเน": 9146,
      "พิษสง": 9147,
      "พิษร้าย": 9148,
      "พิษงู": 9149,
      "เตาอบ": 9150,
      "หนำใจ": 9151,
      "สังเกตดู": 9152,
      "เทียมม้า": 9153,
      "เทียมแอก": 9154,
      "เมราโยท": 9155,
      "ช่องแคบ": 9156,
      "ฟีลิปปี": 9157,
      "จูงใจ": 9158,
      "เอลียาสาฟ": 9159,
      "โพรง": 9160,
      "อัมมีเอล": 9161,
      "จูบลา": 9162,
      "ไม่ช้านี้": 9163,
      "บาอาลาห์": 9164,
      "สัมพันธไมตรี": 9165,
      "ถ่านไฟ": 9166,
      "ปะทุ": 9167,
      "ชุ่มชื้น": 9168,
      "แพร่ขยาย": 9169,
      "คีร์หะเรเสท": 9170,
      "กรีซ": 9171,
      "เบิกตา": 9172,
      "คิท": 9173,
      "บุคคี": 9174,
      "กีโฮน": 9175,
      "เอชโคล์": 9176,
      "สดชื่น": 9177,
      "ชัมมัย": 9178,
      "โลดแล่น": 9179,
      "โรยแรง": 9180,
      "โยกทาน": 9181,
      "หลงผิดไป": 9182,
      "สำมะเลเท": 9183,
      "ผลักไส": 9184,
      "กรณีพิพาท": 9185,
      "มูลเหตุ": 9186,
      "เล่ห์เหลี่ยม": 9187,
      "เหลวไหล": 9188,
      "ปิเลเสอร์": 9189,
      "ยารมู": 9190,
      "ยางอาย": 9191,
      "สระน้ำ": 9192,
      "หดหู่": 9193,
      "บ่อย่ำ": 9194,
      "กะโหลก": 9195,
      "บีบคั้น": 9196,
      "ปลิวไป": 9197,
      "น่ะสิ": 9198,
      "เก่งกล้า": 9199,
      "ตามใจชอบ": 9200,
      "ไยรัส": 9201,
      "ประดาตัว": 9202,
      "บึงไฟ": 9203,
      "ป่านนี้": 9204,
      "โตรอัส": 9205,
      "เอเบดเมเลค": 9206,
      "อาซาเรล": 9207,
      "ปัลที": 9208,
      "ปัลลู": 9209,
      "อิททัย": 9210,
      "ขยันขันแข็ง": 9211,
      "คลาคล่ำ": 9212,
      "มัคเปลาห์": 9213,
      "อารีโอค": 9214,
      "เกริก": 9215,
      "โปทิฟาร์": 9216,
      "บิกวัย": 9217,
      "มิกดล": 9218,
      "แย่งชิง": 9219,
      "สากล": 9220,
      "เป็นต้นไป": 9221,
      "เมธูเสลาห์": 9222,
      "สัดส่วน": 9223,
      "หมกมุ่น": 9224,
      "โฮดียาห์": 9225,
      "โชคชะตา": 9226,
      "ปปิม": 9227,
      "ระแวดระวัง": 9228,
      "เร่าร้อน": 9229,
      "ดาษดื่น": 9230,
      "เนิ่นนาน": 9231,
      "กระเจิดกระเจิง": 9232,
      "ปลีกตัว": 9233,
      "ปลิ้นปล้อน": 9234,
      "เฮโรเดียส": 9235,
      "เอชเทโมอา": 9236,
      "ซวนเซ": 9237,
      "ดั้งเดิม": 9238,
      "พเนจร": 9239,
      "ลิสตรา": 9240,
      "วิสุทธิชน": 9241,
      "อเปหิ": 9242,
      "อหังการ": 9243,
      "ิ้ล": 9244,
      "โสมม": 9245,
      "เอเธนส์": 9246,
      "เอารัดเอาเปรียบ": 9247,
      "ชาเรเซอร์": 9248,
      "เลื่อมใส": 9249,
      "อาโหอาห์": 9250,
      "เชบานิยาห์": 9251,
      "เรื้อรัง": 9252,
      "เยดียาเอล": 9253,
      "บาฮูริม": 9254,
      "นาธานาเอล": 9255,
      "รูปลักษณ์": 9256,
      "เบเซก": 9257,
      "สะอึกสะอื้น": 9258,
      "ผลลัพธ์": 9259,
      "สิ้นเนื้อประดาตัว": 9260,
      "โฮซันนา": 9261,
      "เกลี้ยกล่อม": 9262,
      "อิโคนียูม": 9263,
      "ปาหัทโมอับ": 9264,
      "แอปเปิ้ล": 9265,
      "สำมะเลเทเมา": 9266,
      "ยารมูท": 9267,
      "27": 9268,
      "62": 9269,
      "95": 9270,
      "กต": 9271,
      "กย่อง": 9272,
      "ขวด": 9273,
      "ขนัด": 9274,
      "คณ": 9275,
      "คฤ": 9276,
      "คิส": 9277,
      "คั่ว": 9278,
      "คุ่ม": 9279,
      "คิก": 9280,
      "คราด": 9281,
      "คัฟ": 9282,
      "งอ": 9283,
      "งอม": 9284,
      "ง่วง": 9285,
      "จจา": 9286,
      "จุมพิต": 9287,
      "ฉ่ำ": 9288,
      "ฉุน": 9289,
      "ชอ": 9290,
      "ซับ": 9291,
      "ซิน": 9292,
      "ซีก": 9293,
      "ฌฆาต": 9294,
      "ณฐาน": 9295,
      "ด่ำ": 9296,
      "ตาร์": 9297,
      "ตื้น": 9298,
      "ถัม": 9299,
      "ถ่อง": 9300,
      "ทียาห์": 9301,
      "ทาร์": 9302,
      "ทธี": 9303,
      "ทัลโมน": 9304,
      "ธพาล": 9305,
      "น่าน": 9306,
      "น่าย": 9307,
      "นุ่ม": 9308,
      "บอ": 9309,
      "บอบ": 9310,
      "บกพร่อง": 9311,
      "ป้า": 9312,
      "ปัม": 9313,
      "ปัท": 9314,
      "ปชั": 9315,
      "ผัง": 9316,
      "ผ่อง": 9317,
      "พู่": 9318,
      "พอก": 9319,
      "พึม": 9320,
      "ฟาม": 9321,
      "มรร": 9322,
      "มมิม": 9323,
      "ร่น": 9324,
      "ร่อย": 9325,
      "รัท": 9326,
      "รัพย์": 9327,
      "รกิจ": 9328,
      "ลึ": 9329,
      "วัส": 9330,
      "วดาร": 9331,
      "ว่อง": 9332,
      "ศัท": 9333,
      "ศัลโมน": 9334,
      "ษณา": 9335,
      "หรา": 9336,
      "หอย": 9337,
      "อิต": 9338,
      "ออด": 9339,
      "ออน": 9340,
      "อ่าว": 9341,
      "ออม": 9342,
      "อสัตย์": 9343,
      "อวล": 9344,
      "ฮัด": 9345,
      "ฮึก": 9346,
      "ฮิม": 9347,
      "ะสะ": 9348,
      "าอะ": 9349,
      "าลี": 9350,
      "ิรันด": 9351,
      "ุการ": 9352,
      "ูมิ": 9353,
      "เสิบ": 9354,
      "แคร": 9355,
      "แยง": 9356,
      "โผ": 9357,
      "โปรา": 9358,
      "โสน": 9359,
      "ระอา": 9360,
      "ระแหง": 9361,
      "ระลอก": 9362,
      "่ามัว": 9363,
      "พระเมตตา": 9364,
      "พระราชา": 9365,
[...]
