{
  "version": "1.0",
  "truncation": null,
  "padding": null,
  "added_tokens": [
    {
      "id": 0,
      "content": "<pad>",
      "single_word": false,
      "lstrip": false,
      "rstrip": false,
      "normalized": false,
      "special": true
    },
    {
      "id": 1,
      "content": "<unk>",
      "single_word": false,
      "lstrip": false,
      "rstrip": false,
      "normalized": false,
      "special": true
    },
    {
      "id": 2,
      "content": "<s>",
      "single_word": false,
      "lstrip": false,
      "rstrip": false,
      "normalized": false,
      "special": true
    },
    {
      "id": 3,
      "content": "</s>",
      "single_word": false,
      "lstrip": false,
      "rstrip": false,
      "normalized": false,
      "special": true
    }
  ],
  "normalizer": null,
  "pre_tokenizer": {
    "type": "Sequence",
    "pretokenizers": [
      {
        "type": "Whitespace"
      },
      {
        "type": "Split",
        "pattern": {
          "Regex": "(?<=[ऀ-ॿ஀-௿฀-๿຀-໿က-႟ក-៿一-鿿꤀-꤯])(?=[A-Za-z0-9])|(?<=[A-Za-z0-9])(?=[ऀ-ॿ஀-௿฀-๿຀-໿က-႟ក-៿一-鿿꤀-꤯])"
        },
        "behavior": "Isolated",
        "invert": false
      }
    ]
  },
  "post_processor": null,
  "decoder": null,
  "model": {
    "type": "BPE",
    "dropout": null,
    "unk_token": "<unk>",
    "continuing_subword_prefix": null,
    "end_of_word_suffix": null,
    "fuse_unk": false,
    "byte_fallback": false,
    "ignore_merges": false,
    "vocab": {
      "<pad>": 0,
      "<unk>": 1,
      "<s>": 2,
      "</s>": 3,
      "!": 4,
      "(": 5,
      ")": 6,
      ",": 7,
      "-": 8,
      ".": 9,
      "0": 10,
      "1": 11,
      "2": 12,
      "3": 13,
      "4": 14,
      "5": 15,
      "6": 16,
      "7": 17,
      "8": 18,
      "9": 19,
      ":": 20,
      ";": 21,
      "?": 22,
      "A": 23,
      "B": 24,
      "D": 25,
      "G": 26,
      "H": 27,
      "I": 28,
      "K": 29,
      "L": 30,
      "M": 31,
      "N": 32,
      "P": 33,
      "R": 34,
      "S": 35,
      "T": 36,
      "U": 37,
      "W": 38,
      "Y": 39,
      "[": 40,
      "]": 41,
      "a": 42,
      "b": 43,
      "d": 44,
      "f": 45,
      "g": 46,
      "h": 47,
      "i": 48,
      "k": 49,
      "l": 50,
      "m": 51,
      "n": 52,
      "o": 53,
      "p": 54,
      "r": 55,
      "s": 56,
      "t": 57,
      "u": 58,
      "w": 59,
      "x": 60,
      "y": 61,
      "—": 62,
      "‘": 63,
      "’": 64,
      "“": 65,
      "”": 66,
      "an": 67,
      "ag": 68,
      "sa": 69,
      "ang": 70,
      "ka": 71,
      "un": 72,
      "in": 73,
      "da": 74,
      "ay": 75,
      "ti": 76,
      "ni": 77,
      "anga": 78,
      "si": 79,
      "kan": 80,
      "ma": 81,
      "manga": 82,
      "pag": 83,
      "pa": 84,
      "ya": 85,
      "ku": 86,
      "al": 87,
      "yu": 88,
      "ta": 89,
      "ug": 90,
      "il": 91,
      "mu": 92,
      "ri": 93,
      "man": 94,
      "mag": 95,
      "tu": 96,
      "ra": 97,
      "wa": 98,
      "ab": 99,
      "kay": 100,
      "bu": 101,
      "lu": 102,
      "wu": 103,
      "inu": 104,
      "na": 105,
      "ha": 106,
      "han": 107,
      "di": 108,
      "tan": 109,
      "aya": 110,
      "ala": 111,
      "tay": 112,
      "gan": 113,
      "su": 114,
      "ba": 115,
      "li": 116,
      "ina": 117,
      "pu": 118,
      "yus": 119,
      "aga": 120,
      "yi": 121,
      "ru": 122,
      "siya": 123,
      "may": 124,
      "ga": 125,
      "Pang": 126,
      "sida": 127,
      "inuun": 128,
      "Panginuun": 129,
      "du": 130,
      "bi": 131,
      "ki": 132,
      "kang": 133,
      "niya": 134,
      "hi": 135,
      "la": 136,
      "Di": 137,
      "tun": 138,
      "Diyus": 139,
      "kanda": 140,
      "tawu": 141,
      "inda": 142,
      "ana": 143,
      "kun": 144,
      "niku": 145,
      "mi": 146,
      "pat": 147,
      "aku": 148,
      "gi": 149,
      "hil": 150,
      "nag": 151,
      "anggan": 152,
      "hanggan": 153,
      "hu": 154,
      "kamu": 155,
      "nu": 156,
      "kanyu": 157,
      "unman": 158,
      "kanmu": 159,
      "inan": 160,
      "dug": 161,
      "mp": 162,
      "Pag": 163,
      "Hi": 164,
      "ung": 165,
      "niyu": 166,
      "Da": 167,
      ".”": 168,
      "ran": 169,
      "pan": 170,
      "wat": 171,
      "nida": 172,
      "ban": 173,
      "una": 174,
      "ili": 175,
      "hamp": 176,
      "nimu": 177,
      "kawu": 178,
      "alaw": 179,
      "waya": 180,
      "Na": 181,
      "tanan": 182,
      "pi": 183,
      "gid": 184,
      "anak": 185,
      "dahil": 186,
      "diman": 187,
      "rang": 188,
      "lang": 189,
      "hampay": 190,
      "Hu": 191,
      "Is": 192,
      "abi": 193,
      "ud": 194,
      "pina": 195,
      "usa": 196,
      "hari": 197,
      "hun": 198,
      "maka": 199,
      "dan": 200,
      "Si": 201,
      "balaw": 202,
      "bag": 203,
      "ut": 204,
      "Ti": 205,
      "angan": 206,
      "ginan": 207,
      "ali": 208,
      "Ka": 209,
      "sun": 210,
      "Isra": 211,
      "anan": 212,
      "gu": 213,
      "Sa": 214,
      "nga": 215,
      "Mag": 216,
      "yun": 217,
      "tag": 218,
      "sabi": 219,
      "manug": 220,
      "ati": 221,
      "magkun": 222,
      "aban": 223,
      "Dapat": 224,
      "ari": 225,
      "iba": 226,
      "kangku": 227,
      "uli": 228,
      "sug": 229,
      "kada": 230,
      "Nakan": 231,
      "handug": 232,
      "mas": 233,
      "kanya": 234,
      "tunda": 235,
      "daga": 236,
      "stu": 237,
      "bin": 238,
      "aw": 239,
      "sin": 240,
      "tin": 241,
      "Pagka": 242,
      "alay": 243,
      "ar": 244,
      "pari": 245,
      "matay": 246,
      "maya": 247,
      "san": 248,
      "Hisu": 249,
      "it": 250,
      "para": 251,
      "parihu": 252,
      "saku": 253,
      "Ma": 254,
      "paka": 255,
      "lud": 256,
      "wan": 257,
      "Hisus": 258,
      "dun": 259,
      "Nu": 260,
      "Bag": 261,
      "magka": 262,
      "ul": 263,
      "pin": 264,
      "rug": 265,
      "maw": 266,
      "banwa": 267,
      "Israil": 268,
      "ngan": 269,
      "mpu": 270,
      "rusa": 271,
      "bil": 272,
      "sal": 273,
      "Nag": 274,
      "kitan": 275,
      "mang": 276,
      "Magkun": 277,
      "taga": 278,
      "unu": 279,
      "dapat": 280,
      "bab": 281,
      "ngani": 282,
      "duy": 283,
      "sirang": 284,
      "imaw": 285,
      "tul": 286,
      "watun": 287,
      "ng": 288,
      "buhi": 289,
      "rani": 290,
      "ipina": 291,
      "ayu": 292,
      "laban": 293,
      "Dahil": 294,
      "pang": 295,
      "hin": 296,
      "sugu": 297,
      "tug": 298,
      "pagka": 299,
      "bug": 300,
      "hal": 301,
      "way": 302,
      "sabihun": 303,
      "nasaku": 304,
      "yas": 305,
      "alu": 306,
      "agaw": 307,
      "ilangan": 308,
      "ngatay": 309,
      "kanta": 310,
      "nasakupan": 311,
      "buwat": 312,
      "In": 313,
      "ayi": 314,
      "mat": 315,
      "Un": 316,
      "mayad": 317,
      "nguna": 318,
      "nan": 319,
      "waydi": 320,
      "Unman": 321,
      "tung": 322,
      "lala": 323,
      "kami": 324,
      "sawa": 325,
      "lim": 326,
      "tugka": 327,
      "sis": 328,
      "tud": 329,
      "Ag": 330,
      "pun": 331,
      "Mu": 332,
      "daut": 333,
      "ipa": 334,
      "ika": 335,
      "magpa": 336,
      "kul": 337,
      "lalaki": 338,
      "mun": 339,
      "maan": 340,
      "diyus": 341,
      "Inda": 342,
      "lung": 343,
      "rin": 344,
      "ilita": 345,
      "sir": 346,
      "Israilita": 347,
      "Dabi": 348,
      "Dabid": 349,
      "Sin": 350,
      "yari": 351,
      "babayi": 352,
      "naka": 353,
      "ibahan": 354,
      "bali": 355,
      "dara": 356,
      "buwatun": 357,
      "bri": 358,
      "isi": 359,
      "salanan": 360,
      "sulud": 361,
      "kuntay": 362,
      "kil": 363,
      "iri": 364,
      "pata": 365,
      "ulu": 366,
      "kanmi": 367,
      "sad": 368,
      "kit": 369,
      "ulian": 370,
      "Balay": 371,
      "kaw": 372,
      "rig": 373,
      "Pa": 374,
      "yaw": 375,
      "sinabi": 376,
      "bagaw": 377,
      "um": 378,
      "libu": 379,
      "mata": 380,
      "atu": 381,
      "Hirusa": 382,
      "baya": 383,
      "Hirusalim": 384,
      "tungkul": 385,
      "binwat": 386,
      "balay": 387,
      "kasalanan": 388,
      "kat": 389,
      "Hari": 390,
      "batu": 391,
      "kaibahan": 392,
      "tak": 393,
      "nas": 394,
      "pakaun": 395,
      "Ihi": 396,
      "rugar": 397,
      "alang": 398,
      "Ihip": 399,
      "manughandug": 400,
      "bilang": 401,
      "nasyun": 402,
      "Huda": 403,
      "angay": 404,
      "mahal": 405,
      "yan": 406,
      "pung": 407,
      "ysis": 408,
      "Muysis": 409,
      "kita": 410,
      "kailangan": 411,
      "bul": 412,
      "awa": 413,
      "kara": 414,
      "mar": 415,
      "atub": 416,
      "Kay": 417,
      "lin": 418,
      "mba": 419,
      "lahi": 420,
      "nakitan": 421,
      "panab": 422,
      "ngap": 423,
      "Ihiptu": 424,
      "tal": 425,
      "pagsabihun": 426,
      "pagpa": 427,
      "nakan": 428,
      "takinan": 429,
      "apu": 430,
      "danga": 431,
      "tuu": 432,
      "Danga": 433,
      "min": 434,
      "buu": 435,
      "atag": 436,
      "sadili": 437,
      "dalu": 438,
      "atubangan": 439,
      "hintay": 440,
      "duwa": 441,
      "ama": 442,
      "hay": 443,
      "alaman": 444,
      "ur": 445,
      "uda": 446,
      "mali": 447,
      "maski": 448,
      "patin": 449,
      "timpu": 450,
      "lina": 451,
      "asawa": 452,
      "nimi": 453,
      "maskihan": 454,
      "00": 455,
      "Balaw": 456,
      "nang": 457,
      "sarig": 458,
      "kalibu": 459,
      "sundalu": 460,
      "patar": 461,
      "May": 462,
      "?”": 463,
      "agi": 464,
      "gin": 465,
      "siyun": 466,
      "pala": 467,
      "tapu": 468,
      "is": 469,
      "Ban": 470,
      "tabug": 471,
      "panga": 472,
      "nita": 473,
      "ayup": 474,
      "kalibutan": 475,
      "ingan": 476,
      "mana": 477,
      "katpung": 478,
      "kaun": 479,
      "hayup": 480,
      "mpi": 481,
      "tutuu": 482,
      "Ab": 483,
      "Kiri": 484,
      "rat": 485,
      "sitay": 486,
      "ig": 487,
      "kalaban": 488,
      "tupa": 489,
      "diyu": 490,
      "linahi": 491,
      "dayaw": 492,
      "was": 493,
      "lun": 494,
      "Kiristu": 495,
      "kuri": 496,
      "piri": 497,
      "ila": 498,
      "abang": 499,
      ".’": 500,
      "lug": 501,
      "mara": 502,
      "ribri": 503,
      "sag": 504,
      "ir": 505,
      "id": 506,
      "angga": 507,
      "taynguna": 508,
      "run": 509,
      "alam": 510,
      "Aku": 511,
      "unun": 512,
      "tudlu": 513,
      "Bin": 514,
      "dlung": 515,
      "dugan": 516,
      "kaya": 517,
      "bang": 518,
      "langit": 519,
      "puru": 520,
      "kag": 521,
      "kamaskihan": 522,
      "magtal": 523,
      "inara": 524,
      "naan": 525,
      "Hudiyu": 526,
      "ingana": 527,
      "say": 528,
      "mayamu": 529,
      "namatay": 530,
      "udas": 531,
      "anakan": 532,
      "karan": 533,
      "nug": 534,
      "tig": 535,
      "ranidu": 536,
      "ayad": 537,
      "sala": 538,
      "Una": 539,
      "bay": 540,
      "nagpa": 541,
      "kawan": 542,
      "Ha": 543,
      "uun": 544,
      "kilala": 545,
      "ham": 546,
      "sirbi": 547,
      "pay": 548,
      "tara": 549,
      "surug": 550,
      "bagay": 551,
      "Kan": 552,
      "ayaw": 553,
      "pana": 554,
      "Li": 555,
      "kamang": 556,
      "gira": 557,
      "darang": 558,
      "alit": 559,
      "kabi": 560,
      "tulu": 561,
      "bantay": 562,
      "rutay": 563,
      "danum": 564,
      "rgu": 565,
      "abwat": 566,
      "pita": 567,
      "sakup": 568,
      "matadlung": 569,
      "dnug": 570,
      "karanidu": 571,
      "suguan": 572,
      "lakaw": 573,
      "kayu": 574,
      "suruguun": 575,
      "ngaran": 576,
      "unda": 577,
      "lan": 578,
      "udyi": 579,
      "lugud": 580,
      "mpa": 581,
      "bas": 582,
      "himu": 583,
      "bilug": 584,
      "ilun": 585,
      "pas": 586,
      "pagmahal": 587,
      "ipu": 588,
      "patingi": 589,
      "darangin": 590,
      "as": 591,
      "Pina": 592,
      "alaga": 593,
      "arani": 594,
      "put": 595,
      "tultul": 596,
      "Su": 597,
      "binu": 598,
      "yadu": 599,
      "ipinakaun": 600,
      "magut": 601,
      "us": 602,
      "tuhay": 603,
      "lab": 604,
      "law": 605,
      "lay": 606,
      "tawuhan": 607,
      "but": 608,
      "pangyari": 609,
      "daka": 610,
      "tida": 611,
      "Ana": 612,
      "Bu": 613,
      "Sinabi": 614,
      "bun": 615,
      "mamatay": 616,
      "ugu": 617,
      "mha": 618,
      "asan": 619,
      "tina": 620,
      "ayak": 621,
      "samba": 622,
      "pitu": 623,
      "bumali": 624,
      "wi": 625,
      "kurian": 626,
      "balik": 627,
      "ginu": 628,
      "diyusan": 629,
      "inga": 630,
      "haran": 631,
      "harandugan": 632,
      "surat": 633,
      "gintu": 634,
      "suun": 635,
      "galang": 636,
      "gustu": 637,
      "tagipu": 638,
      "tagipusuun": 639,
      "tiyu": 640,
      "bung": 641,
      "kaybi": 642,
      "rusahan": 643,
      "ras": 644,
      "malu": 645,
      "pal": 646,
      "abu": 647,
      "Man": 648,
      "ray": 649,
      "purupita": 650,
      "pak": 651,
      "ginurang": 652,
      "Isa": 653,
      "piritu": 654,
      "matyun": 655,
      "Anak": 656,
      "baka": 657,
      "Haku": 658,
      "pangyarihan": 659,
      "aba": 660,
      "Ati": 661,
      "Ipina": 662,
      "Saul": 663,
      "dnugan": 664,
      "Hakub": 665,
      "duk": 666,
      "Kasuguan": 667,
      "Bab": 668,
      "Hay": 669,
      "pagbuwatun": 670,
      "ilis": 671,
      "ugun": 672,
      "anggap": 673,
      "ilunya": 674,
      "Babilunya": 675,
      "am": 676,
      "Sinmagut": 677,
      "kab": 678,
      "kabitay": 679,
      "kainda": 680,
      "ipin": 681,
      "pir": 682,
      "inul": 683,
      "sulung": 684,
      "isip": 685,
      "lis": 686,
      "Pin": 687,
      "yabi": 688,
      "sunud": 689,
      "masyadu": 690,
      "utan": 691,
      "ib": 692,
      "tupad": 693,
      "dugay": 694,
      "sabian": 695,
      "kadala": 696,
      "Pab": 697,
      "ipakaun": 698,
      "bus": 699,
      "alad": 700,
      "Libi": 701,
      "ram": 702,
      "sagut": 703,
      "Ba": 704,
      "ibug": 705,
      "intin": 706,
      "mahimu": 707,
      "buru": 708,
      "awat": 709,
      "bah": 710,
      "marinu": 711,
      "Ispiritu": 712,
      "mpiyu": 713,
      "atabug": 714,
      "lus": 715,
      "anghil": 716,
      "Banal": 717,
      "Tay": 718,
      "Taynguna": 719,
      "Mana": 720,
      "arun": 721,
      "day": 722,
      "banal": 723,
      "Aarun": 724,
      "dayu": 725,
      "Hayga": 726,
      "yawan": 727,
      "intindi": 728,
      "hag": 729,
      "ugali": 730,
      "luan": 731,
      "hanan": 732,
      "kakurian": 733,
      "hit": 734,
      "bantud": 735,
      "agad": 736,
      "lag": 737,
      "lam": 738,
      "sawad": 739,
      "wag": 740,
      "pinili": 741,
      "rnan": 742,
      "ungan": 743,
      "sundu": 744,
      "harian": 745,
      "Kailangan": 746,
      "apuy": 747,
      "saru": 748,
      "rus": 749,
      "tapusan": 750,
      "dala": 751,
      "isipan": 752,
      "ustu": 753,
      "uman": 754,
      "kadautan": 755,
      "tapus": 756,
      "sunduan": 757,
      "Ama": 758,
      "Pari": 759,
      "uma": 760,
      "bumaliw": 761,
      "Kamu": 762,
      "katapusan": 763,
      "dura": 764,
      "alistu": 765,
      "dalan": 766,
      "rip": 767,
      "pila": 768,
      "mpulu": 769,
      "rak": 770,
      "agiw": 771,
      "kaharian": 772,
      "buruwatun": 773,
      "war": 774,
      "wuhun": 775,
      "panawuhun": 776,
      "surun": 777,
      "ingarnan": 778,
      "Tur": 779,
      "wuy": 780,
      "Makamaskihan": 781,
      "Turda": 782,
      "mabi": 783,
      "Sulu": 784,
      "yug": 785,
      "Husi": 786,
      "pilak": 787,
      "Sulumun": 788,
      "Hus": 789,
      "wala": 790,
      "pira": 791,
      "waan": 792,
      "ruku": 793,
      "ludluan": 794,
      "bahagi": 795,
      "dinara": 796,
      "makitan": 797,
      "tuludluan": 798,
      "luwas": 799,
      "Hihu": 800,
      "kahu": 801,
      "mut": 802,
      "irin": 803,
      "sang": 804,
      "magsabi": 805,
      "hana": 806,
      "pakarani": 807,
      "nangyari": 808,
      "baliwa": 809,
      "isug": 810,
      "alan": 811,
      "kadayawan": 812,
      "kam": 813,
      "kar": 814,
      "waka": 815,
      "wakawaan": 816,
      "Mi": 817,
      "maalaman": 818,
      "rinmas": 819,
      "pangawakawaan": 820,
      "pakakit": 821,
      "pirmi": 822,
      "pama": 823,
      "dugu": 824,
      "siyu": 825,
      "baliw": 826,
      "Pablu": 827,
      "habang": 828,
      "rumas": 829,
      "sinugu": 830,
      "pihu": 831,
      "dunung": 832,
      "matin": 833,
      "bulan": 834,
      "naisipan": 835,
      "gurang": 836,
      "Il": 837,
      "paladan": 838,
      "rita": 839,
      "Sida": 840,
      "Tunda": 841,
      "pug": 842,
      "parusahan": 843,
      "tangan": 844,
      "maghari": 845,
      "ing": 846,
      "dulu": 847,
      "Ga": 848,
      "Mayad": 849,
      "katida": 850,
      "tukawan": 851,
      "sunugun": 852,
      "uk": 853,
      "anun": 854,
      "mit": 855,
      "kas": 856,
      "kala": 857,
      "tutuuhanan": 858,
      "sari": 859,
      "ring": 860,
      "ita": 861,
      "yil": 862,
      "babaw": 863,
      "parargu": 864,
      "kadun": 865,
      "kin": 866,
      "raham": 867,
      "Abraham": 868,
      "taratu": 869,
      "agalit": 870,
      "kaparihu": 871,
      "sakit": 872,
      "pakan": 873,
      "ratan": 874,
      "inatay": 875,
      "pud": 876,
      "daya": 877,
      "pangagalit": 878,
      "im": 879,
      "kus": 880,
      "tahan": 881,
      "mhak": 882,
      "up": 883,
      "sampulu": 884,
      "kamatay": 885,
      "magbuwat": 886,
      "danun": 887,
      "Hin": 888,
      "hala": 889,
      "ayadan": 890,
      "surundanun": 891,
      "pili": 892,
      "kabaya": 893,
      "pagsarig": 894,
      "ustuhan": 895,
      "daw": 896,
      "magbagaw": 897,
      "magpan": 898,
      "udwaya": 899,
      "arita": 900,
      "Gi": 901,
      "Pilis": 902,
      "gus": 903,
      "kamatayan": 904,
      "dum": 905,
      "magsarig": 906,
      "inum": 907,
      "inupa": 908,
      "pinaka": 909,
      "Manga": 910,
      "lawuy": 911,
      "kayamu": 912,
      "Kawu": 913,
      "mangyari": 914,
      "Ri": 915,
      "binuwat": 916,
      "Sabi": 917,
      "upat": 918,
      "ani": 919,
      "madunung": 920,
      "luk": 921,
      "lumi": 922,
      "Hur": 923,
      "Sam": 924,
      "magbantay": 925,
      "hampang": 926,
      "patindug": 927,
      "Pid": 928,
      "manan": 929,
      "Hiri": 930,
      "kadunungan": 931,
      "Pidru": 932,
      "Ni": 933,
      "Ta": 934,
      "hagad": 935,
      "napa": 936,
      "suratan": 937,
      "Tu": 938,
      "kapangyarihan": 939,
      "dagat": 940,
      "kagustuhan": 941,
      "lubus": 942,
      "Pilistiyu": 943,
      "lalu": 944,
      "bar": 945,
      "gayak": 946,
      "puma": 947,
      "lungan": 948,
      "surip": 949,
      "kasiyun": 950,
      "init": 951,
      "damhak": 952,
      "tur": 953,
      "kasiyunan": 954,
      "wil": 955,
      "Ili": 956,
      "kadan": 957,
      "bahu": 958,
      "000": 959,
      "nadnugan": 960,
      "karaw": 961,
      "minatay": 962,
      "ini": 963,
      "diya": 964,
      "Siya": 965,
      "kabayaan": 966,
      "ara": 967,
      "tinapay": 968,
      "Pi": 969,
      "ubas": 970,
      "kasunduan": 971,
      "agud": 972,
      "tipun": 973,
      "tupadun": 974,
      "Libita": 975,
      "Huswi": 976,
      "Ginan": 977,
      "sayan": 978,
      "siku": 979,
      "puun": 980,
      "Bi": 981,
      "katunda": 982,
      "kaysa": 983,
      "makapa": 984,
      "butla": 985,
      "iwala": 986,
      "pra": 987,
      "tawag": 988,
      "Ud": 989,
      "tiri": 990,
      "kud": 991,
      "nab": 992,
      "kali": 993,
      "barita": 994,
      "kyas": 995,
      "nun": 996,
      "mitun": 997,
      "kabayu": 998,
      "tanda": 999,
      "manugsirbi": 1000,
      "katutuuhanan": 1001,
      "rum": 1002,
      "Hintay": 1003,
      "din": 1004,
      "tanggap": 1005,
      "hintulu": 1006,
      "agtin": 1007,
      "magkadala": 1008,
      "Nagpa": 1009,
      "kahusayan": 1010,
      "Ru": 1011,
      "sar": 1012,
      "dad": 1013,
      "dwa": 1014,
      "Manug": 1015,
      "tad": 1016,
      "nasawad": 1017,
      "butlakan": 1018,
      "rargu": 1019,
      "sirung": 1020,
      "atay": 1021,
      "agu": 1022,
      "kiusa": 1023,
      "sangput": 1024,
      "nagka": 1025,
      "ungud": 1026,
      "pangulu": 1027,
      "Alam": 1028,
      "kaayadan": 1029,
      "lana": 1030,
      "tindug": 1031,
      "Isi": 1032,
      "mahalaga": 1033,
      "Asir": 1034,
      "kilalan": 1035,
      "pinakan": 1036,
      "tarabahu": 1037,
      "wang": 1038,
      "luku": 1039,
      "Hurdan": 1040,
      "sara": 1041,
      "ilu": 1042,
      "mpatan": 1043,
      "pugri": 1044,
      "pagsunugun": 1045,
      "burak": 1046,
      "pulus": 1047,
      "dululaw": 1048,
      "inaratu": 1049,
      "salamat": 1050,
      "mala": 1051,
      "Pagkatapus": 1052,
      "wanta": 1053,
      "karampatan": 1054,
      "ranan": 1055,
      "Abi": 1056,
      "Ipa": 1057,
      "nangulian": 1058,
      "Parihu": 1059,
      "Kaban": 1060,
      "maglakaw": 1061,
      "Nakitan": 1062,
      "iribri": 1063,
      "!”": 1064,
      "naalaman": 1065,
      "palad": 1066,
      "Kang": 1067,
      "kaban": 1068,
      "hara": 1069,
      "Nagsagut": 1070,
      "rya": 1071,
      "kup": 1072,
      "ayamu": 1073,
      "Nan": 1074,
      "Huwan": 1075,
      "minsan": 1076,
      "dayawun": 1077,
      "hamtangan": 1078,
      "makaw": 1079,
      "dlu": 1080,
      "mnun": 1081,
      "kahamtangan": 1082,
      "bihag": 1083,
      "git": 1084,
      "itinaratu": 1085,
      "hayga": 1086,
      "dir": 1087,
      "salu": 1088,
      "katawuhan": 1089,
      "tus": 1090,
      "watan": 1091,
      "makadululaw": 1092,
      "bing": 1093,
      "kambing": 1094,
      "Bit": 1095,
      "bala": 1096,
      "pis": 1097,
      "dali": 1098,
      "barang": 1099,
      "saydan": 1100,
      "agwanta": 1101,
      "ribrihan": 1102,
      "kad": 1103,
      "tanman": 1104,
      "Sapa": 1105,
      "saruy": 1106,
      "daan": 1107,
      "ris": 1108,
      "guru": 1109,
      "Kanda": 1110,
      "warta": 1111,
      "kalisa": 1112,
      "bra": 1113,
      "sina": 1114,
      "tir": 1115,
      "buul": 1116,
      "ighit": 1117,
      "abunda": 1118,
      "baw": 1119,
      "lima": 1120,
      "mbahan": 1121,
      "kayamanan": 1122,
      "yahan": 1123,
      "Hiru": 1124,
      "inultul": 1125,
      "yaan": 1126,
      "ilin": 1127,
      "lumpiyu": 1128,
      "hamin": 1129,
      "alaala": 1130,
      "Binhamin": 1131,
      "yat": 1132,
      "girahan": 1133,
      "kuwarta": 1134,
      "Gil": 1135,
      "mir": 1136,
      "bangkay": 1137,
      "agting": 1138,
      "itudlu": 1139,
      "kampu": 1140,
      "kuman": 1141,
      "tultulanun": 1142,
      "dar": 1143,
      "angaranan": 1144,
      "mhakan": 1145,
      "bal": 1146,
      "inupadun": 1147,
      "baladaw": 1148,
      "amu": 1149,
      "simbahan": 1150,
      "kangaranan": 1151,
      "pinan": 1152,
      "bud": 1153,
      "tanum": 1154,
      "tunga": 1155,
      "akitan": 1156,
      "kina": 1157,
      "myas": 1158,
      "nagbuwat": 1159,
      "Imaw": 1160,
      "Lu": 1161,
      "Pu": 1162,
      "ak": 1163,
      "arayu": 1164,
      "salan": 1165,
      "tulduk": 1166,
      "halaga": 1167,
      "asnu": 1168,
      "kumandir": 1169,
      "asa": 1170,
      "pangan": 1171,
      "maaw": 1172,
      "bir": 1173,
      "away": 1174,
      "tinsiya": 1175,
      "kalasi": 1176,
      "kuyug": 1177,
      "magaw": 1178,
      "bak": 1179,
      "mayagting": 1180,
      "sak": 1181,
      "Muab": 1182,
      "isipun": 1183,
      "rukuan": 1184,
      "linu": 1185,
      "uhan": 1186,
      "kadamhakan": 1187,
      "kasu": 1188,
      "lulud": 1189,
      "irinmun": 1190,
      "at": 1191,
      "dipay": 1192,
      "dub": 1193,
      "kurang": 1194,
      "hig": 1195,
      "Hirimyas": 1196,
      "kaga": 1197,
      "makaun": 1198,
      "tagan": 1199,
      "sing": 1200,
      "magkaibug": 1201,
      "matinupadun": 1202,
      "panganay": 1203,
      "Huna": 1204,
      "ih": 1205,
      "ayakan": 1206,
      "uryan": 1207,
      "bili": 1208,
      "dang": 1209,
      "itin": 1210,
      "buam": 1211,
      "him": 1212,
      "mig": 1213,
      "makapangyarihan": 1214,
      "mpisa": 1215,
      "pirisu": 1216,
      "tadlungan": 1217,
      "dapu": 1218,
      "tudan": 1219,
      "Sirang": 1220,
      "Kasuratan": 1221,
      "Udyi": 1222,
      "Asirya": 1223,
      "inma": 1224,
      "madura": 1225,
      "Mas": 1226,
      "patawa": 1227,
      "Mayamu": 1228,
      "tlu": 1229,
      "daran": 1230,
      "subra": 1231,
      "panahun": 1232,
      "Isaak": 1233,
      "Dan": 1234,
      "gamitun": 1235,
      "tagu": 1236,
      "ulibu": 1237,
      "tungud": 1238,
      "marya": 1239,
      "yung": 1240,
      "sumpa": 1241,
      "Samwil": 1242,
      "iya": 1243,
      "magbaya": 1244,
      "wadi": 1245,
      "Pagpa": 1246,
      "linalang": 1247,
      "Kanmu": 1248,
      "kabantudan": 1249,
      "12": 1250,
      "muwat": 1251,
      "sur": 1252,
      "sintinsiya": 1253,
      "iglis": 1254,
      "malumpiyu": 1255,
      "iglisya": 1256,
      "kut": 1257,
      "inurat": 1258,
      "alala": 1259,
      "tunug": 1260,
      "magkaun": 1261,
      "Bantud": 1262,
      "kabisug": 1263,
      "pudil": 1264,
      "rayu": 1265,
      "tinu": 1266,
      "sapa": 1267,
      "agat": 1268,
      "pinag": 1269,
      "Pama": 1270,
      "As": 1271,
      "Barita": 1272,
      "marig": 1273,
      "turug": 1274,
      "wata": 1275,
      "rurum": 1276,
      "kamangyan": 1277,
      "ihandug": 1278,
      "alagiw": 1279,
      "awan": 1280,
      "Mahal": 1281,
      "mari": 1282,
      "pasan": 1283,
      "sulu": 1284,
      "Huab": 1285,
      "magkara": 1286,
      "balu": 1287,
      "kabag": 1288,
      "mabuhi": 1289,
      "tab": 1290,
      "muy": 1291,
      "haw": 1292,
      "sinun": 1293,
      "alagaan": 1294,
      "Mar": 1295,
      "labang": 1296,
      "uba": 1297,
      "pus": 1298,
      "wayak": 1299,
      "studa": 1300,
      "sarigan": 1301,
      "asi": 1302,
      "sinul": 1303,
      "uring": 1304,
      "mal": 1305,
      "pagbuwat": 1306,
      "pagmahalun": 1307,
      "ipinab": 1308,
      "Manasis": 1309,
      "ihinan": 1310,
      "pil": 1311,
      "katadlungan": 1312,
      "mitan": 1313,
      "panguna": 1314,
      "Tar": 1315,
      "mab": 1316,
      "husay": 1317,
      "pamahala": 1318,
      "mga": 1319,
      "kasuguan": 1320,
      "kanaway": 1321,
      "lub": 1322,
      "makamaskihan": 1323,
      "Ipra": 1324,
      "idad": 1325,
      "agin": 1326,
      "kim": 1327,
      "Samarya": 1328,
      "udasan": 1329,
      "kabisugan": 1330,
      "Amun": 1331,
      "Usa": 1332,
      "nanga": 1333,
      "magsunud": 1334,
      "awatan": 1335,
      "Ung": 1336,
      "isal": 1337,
      "ipakakit": 1338,
      "kaudasan": 1339,
      "risun": 1340,
      "manuk": 1341,
      "kayamuan": 1342,
      "gurupu": 1343,
      "Ungud": 1344,
      "luma": 1345,
      "histuda": 1346,
      "nuli": 1347,
      "wardiya": 1348,
      "hanap": 1349,
      "Ilis": 1350,
      "gal": 1351,
      "Magka": 1352,
      "libut": 1353,
      "labanan": 1354,
      "Ku": 1355,
      "Ra": 1356,
      "Tin": 1357,
      "pagsamba": 1358,
      "tuk": 1359,
      "buan": 1360,
      "ayawun": 1361,
      "gurangun": 1362,
      "Isikyas": 1363,
      "kasi": 1364,
      "durus": 1365,
      "isalpan": 1366,
      "nabu": 1367,
      "intus": 1368,
      "sundun": 1369,
      "ibgan": 1370,
      "Ilyas": 1371,
      "Ilisyu": 1372,
      "yad": 1373,
      "guwardiya": 1374,
      "kakit": 1375,
      "rib": 1376,
      "magpakaun": 1377,
      "magsirbi": 1378,
      "nagsugu": 1379,
      "tungkulan": 1380,
      "Idum": 1381,
      "riyu": 1382,
      "tugkaan": 1383,
      "malik": 1384,
      "Binwat": 1385,
      "Gilyad": 1386,
      "dangup": 1387,
      "Asa": 1388,
      "adan": 1389,
      "kaawa": 1390,
      "katugkaan": 1391,
      "hud": 1392,
      "Husa": 1393,
      "Kainda": 1394,
      "itinultul": 1395,
      "kilu": 1396,
      "Pamahari": 1397,
      "Dayawun": 1398,
      "Kana": 1399,
      "kla": 1400,
      "tudu": 1401,
      "Katunda": 1402,
      "kadaka": 1403,
      "mabisug": 1404,
      "Ipraim": 1405,
      "Akab": 1406,
      "karukuan": 1407,
      "maingana": 1408,
      "Siyun": 1409,
      "manugtudlu": 1410,
      "bilin": 1411,
      "Bala": 1412,
      "uran": 1413,
      "kadu": 1414,
      "abay": 1415,
      "ikadwa": 1416,
      "ikatlu": 1417,
      "rinu": 1418,
      "wir": 1419,
      "dam": 1420,
      "madi": 1421,
      "kug": 1422,
      "rupita": 1423,
      "Baal": 1424,
      "tiripun": 1425,
      "lukub": 1426,
      "katungkulan": 1427,
      "masulung": 1428,
      "pakiusa": 1429,
      "tar": 1430,
      "mus": 1431,
      "muyug": 1432,
      "lakawan": 1433,
      "panalu": 1434,
      "Pir": 1435,
      "lap": 1436,
      "bantug": 1437,
      "Sim": 1438,
      "tingi": 1439,
      "kadalaan": 1440,
      "matindugan": 1441,
      "diit": 1442,
      "liyun": 1443,
      "Pinili": 1444,
      "Nang": 1445,
      "dung": 1446,
      "isugu": 1447,
      "isinugu": 1448,
      "umpisa": 1449,
      "paggalang": 1450,
      "nuan": 1451,
      "sugkadan": 1452,
      "mangulian": 1453,
      "isinurat": 1454,
      "Ar": 1455,
      "ad": 1456,
      "api": 1457,
      "pasalamat": 1458,
      "dur": 1459,
      "linmakaw": 1460,
      "salatan": 1461,
      "patingihi": 1462,
      "Manugribri": 1463,
      "ibin": 1464,
      "mapa": 1465,
      "Bagkus": 1466,
      "Hihuya": 1467,
      "Habang": 1468,
      "Kabi": 1469,
      "pagta": 1470,
      "parusa": 1471,
      "kumun": 1472,
      "dis": 1473,
      "Siun": 1474,
      "bayad": 1475,
      "linmu": 1476,
      "Ahi": 1477,
      "ibri": 1478,
      "talu": 1479,
      "unan": 1480,
      "dal": 1481,
      "maisug": 1482,
      "itinu": 1483,
      "darahun": 1484,
      "ampara": 1485,
      "iin": 1486,
      "sung": 1487,
      "tpung": 1488,
      "dakit": 1489,
      "pagbagaw": 1490,
      "pagdayaw": 1491,
      "pad": 1492,
      "papalad": 1493,
      "maglaban": 1494,
      "siyas": 1495,
      "pakarayu": 1496,
      "uragin": 1497,
      "aritaan": 1498,
      "20": 1499,
      "Ara": 1500,
      "buhu": 1501,
      "hanun": 1502,
      "duun": 1503,
      "nagkara": 1504,
      "Katpung": 1505,
      "mindug": 1506,
      "Pihu": 1507,
      "Kanaan": 1508,
      "Kabitay": 1509,
      "ira": 1510,
      "ista": 1511,
      "lunsay": 1512,
      "Hunatan": 1513,
      "uya": 1514,
      "mabu": 1515,
      "magkabuhi": 1516,
      "anit": 1517,
      "agbuan": 1518,
      "magsamba": 1519,
      "has": 1520,
      "ilik": 1521,
      "kagamitan": 1522,
      "Taragbuan": 1523,
      "Igu": 1524,
      "bukun": 1525,
      "sumabi": 1526,
      "salum": 1527,
      "aman": 1528,
      "manugpamahala": 1529,
      "ikapitu": 1530,
      "baryu": 1531,
      "sinulput": 1532,
      "Bul": 1533,
      "La": 1534,
      "anyu": 1535,
      "dab": 1536,
      "sukadan": 1537,
      "Lin": 1538,
      "hali": 1539,
      "tangga": 1540,
      "papaladan": 1541,
      "mul": 1542,
      "rub": 1543,
      "kis": 1544,
      "His": 1545,
      "salman": 1546,
      "Bantay": 1547,
      "Nagpaingana": 1548,
      "turi": 1549,
      "ayawan": 1550,
      "makasalanan": 1551,
      "pagkaibgan": 1552,
      "turda": 1553,
      "wirtahan": 1554,
      "uy": 1555,
      "kal": 1556,
      "dap": 1557,
      "pagbaya": 1558,
      "Pagpatingi": 1559,
      "pit": 1560,
      "kagalit": 1561,
      "sikun": 1562,
      "pagkilalan": 1563,
      "paglumpiyu": 1564,
      "lihim": 1565,
      "Parisiyu": 1566,
      "itinudlu": 1567,
      "Mika": 1568,
      "Sina": 1569,
      "laga": 1570,
      "sanga": 1571,
      "ub": 1572,
      "matukawan": 1573,
      "puwirtahan": 1574,
      "naghari": 1575,
      "pinunu": 1576,
      "unum": 1577,
      "baba": 1578,
      "bangun": 1579,
      "girahun": 1580,
      "alagad": 1581,
      "palagiw": 1582,
      "yag": 1583,
      "mauring": 1584,
      "bumalik": 1585,
      "ringgit": 1586,
      "Gal": 1587,
      "tigus": 1588,
      "matupad": 1589,
      "manhandug": 1590,
      "ulid": 1591,
      "ipinauli": 1592,
      "mbawa": 1593,
      "Nabu": 1594,
      "amat": 1595,
      "sinu": 1596,
      "tang": 1597,
      "bulu": 1598,
      "nagbaliw": 1599,
      "stul": 1600,
      "paraan": 1601,
      "apustul": 1602,
      "nagkasala": 1603,
      "daraga": 1604,
      "Bagaw": 1605,
      "saka": 1606,
      "maglab": 1607,
      "buta": 1608,
      "rurisun": 1609,
      "kihampang": 1610,
      "humari": 1611,
      "bugan": 1612,
      "Buwatun": 1613,
      "Isaw": 1614,
      "Purupita": 1615,
      "ihinandug": 1616,
      "uyahun": 1617,
      "Nab": 1618,
      "gina": 1619,
      "kaayad": 1620,
      "patagu": 1621,
      "tagin": 1622,
      "arina": 1623,
      "sinabihan": 1624,
      "Ihipsiyu": 1625,
      "nagpaingana": 1626,
      "Gu": 1627,
      "Ipin": 1628,
      "rayaw": 1629,
      "agun": 1630,
      "sid": 1631,
      "pamga": 1632,
      "magdarangin": 1633,
      "nagpakarani": 1634,
      "Kasunduan": 1635,
      "sunug": 1636,
      "Absalum": 1637,
      "hintulutan": 1638,
      ".)": 1639,
      "Dagat": 1640,
      "utun": 1641,
      "manwa": 1642,
      "agadun": 1643,
      "big": 1644,
      "nagbagaw": 1645,
      "Pakan": 1646,
      "karatagan": 1647,
      "lubngan": 1648,
      "kasimanwa": 1649,
      "itultul": 1650,
      "siba": 1651,
      "makuri": 1652,
      "magpang": 1653,
      "nadur": 1654,
      "Mahimu": 1655,
      "maliw": 1656,
      "layan": 1657,
      "matingi": 1658,
      "birnadur": 1659,
      "alalahanun": 1660,
      "50": 1661,
      "Amu": 1662,
      "tuli": 1663,
      "turu": 1664,
      "pulu": 1665,
      "randay": 1666,
      "kantapu": 1667,
      "Pinakan": 1668,
      "Hirubuam": 1669,
      "taguban": 1670,
      "agut": 1671,
      "buk": 1672,
      "mayaman": 1673,
      "bulbugan": 1674,
      "bantayan": 1675,
      "sinunud": 1676,
      "ampu": 1677,
      "nisurat": 1678,
      "pagsirbi": 1679,
      "kum": 1680,
      "kuma": 1681,
      "mangay": 1682,
      "ipinakakit": 1683,
      "pangabuhi": 1684,
      "Tawu": 1685,
      "budyung": 1686,
      "Bil": 1687,
      "kapira": 1688,
      "laki": 1689,
      "Kaawa": 1690,
      "ilamnun": 1691,
      "baskug": 1692,
      "tanggapun": 1693,
      "Bantayi": 1694,
      "Pili": 1695,
      "dina": 1696,
      "kasan": 1697,
      "masawad": 1698,
      "kurus": 1699,
      "dumara": 1700,
      "manugpa": 1701,
      "pangaawa": 1702,
      "Kanyu": 1703,
      "Mid": 1704,
      "Pista": 1705,
      "hagadun": 1706,
      "nalagiw": 1707,
      "kakilala": 1708,
      "pamagaw": 1709,
      "tam": 1710,
      "tama": 1711,
      "bisug": 1712,
      "anani": 1713,
      "nakakit": 1714,
      "tirigu": 1715,
      "Malu": 1716,
      "magpu": 1717,
      "lit": 1718,
      "wanag": 1719,
      "minti": 1720,
      "rayhaw": 1721,
      "Husyas": 1722,
      "Husapat": 1723,
      "idu": 1724,
      "nabi": 1725,
      "mada": 1726,
      "maghagad": 1727,
      "buranday": 1728,
      "baul": 1729,
      "limtan": 1730,
      "lapsag": 1731,
      "Amuriyu": 1732,
      "bina": 1733,
      "ihag": 1734,
      "siti": 1735,
      "maminti": 1736,
      "pabay": 1737,
      "maggalang": 1738,
      "magkagalit": 1739,
      "burayhaw": 1740,
      "Ipinakaun": 1741,
      "hintulut": 1742,
      "Masyadu": 1743,
      "Pil": 1744,
      "rag": 1745,
      "kudun": 1746,
      "magpaka": 1747,
      "gara": 1748,
      "bit": 1749,
      "panangga": 1750,
      "udlu": 1751,
      "munud": 1752,
      "irinibri": 1753,
      "halimbawa": 1754,
      "Aram": 1755,
      "dag": 1756,
      "usur": 1757,
      "kalay": 1758,
      "iningarnan": 1759,
      "mabuwat": 1760,
      "madali": 1761,
      "bubun": 1762,
      "buwata": 1763,
      "puyaan": 1764,
      "nagpakaun": 1765,
      "iliya": 1766,
      "turunu": 1767,
      "Nabukudun": 1768,
      "Nabukudunusur": 1769,
      "30": 1770,
      "Unu": 1771,
      "alwas": 1772,
      "ugay": 1773,
      "magtudlu": 1774,
      "duma": 1775,
      "ikasampulu": 1776,
      "Sinugu": 1777,
      "Bumaliw": 1778,
      "Gad": 1779,
      "Tutuu": 1780,
      "tirga": 1781,
      "pagbagawun": 1782,
      "lalang": 1783,
      "lwas": 1784,
      "mama": 1785,
      "mulud": 1786,
      "basa": 1787,
      "purya": 1788,
      "nagsarig": 1789,
      "hula": 1790,
      "dahilan": 1791,
      "lugan": 1792,
      "Rihu": 1793,
      "Iliya": 1794,
      "ubasan": 1795,
      "Galiliya": 1796,
      "bwat": 1797,
      "halaman": 1798,
      "pinu": 1799,
      "maghandug": 1800,
      "magpatingi": 1801,
      "ruk": 1802,
      "kitun": 1803,
      "huray": 1804,
      "Naan": 1805,
      "pinaingana": 1806,
      "limbun": 1807,
      "uluhan": 1808,
      "Patingi": 1809,
      "Sulud": 1810,
      "pudilan": 1811,
      "ribru": 1812,
      "?’": 1813,
      "mtan": 1814,
      "sahan": 1815,
      "katunga": 1816,
      "nig": 1817,
      "alangan": 1818,
      "tata": 1819,
      "lumu": 1820,
      "gaw": 1821,
      "mpangan": 1822,
      "pitan": 1823,
      "Sakar": 1824,
      "armas": 1825,
      "tigay": 1826,
      "intindihan": 1827,
      "Rubin": 1828,
      "pinagka": 1829,
      "Rib": 1830,
      "labi": 1831,
      "mai": 1832,
      "madala": 1833,
      "pagbalik": 1834,
      "paman": 1835,
      "hiling": 1836,
      "binagaw": 1837,
      "tini": 1838,
      "ingay": 1839,
      "Samsun": 1840,
      "Marya": 1841,
      "Amunita": 1842,
      "lumaban": 1843,
      "buhuk": 1844,
      "brun": 1845,
      "yuk": 1846,
      "hat": 1847,
      "hiya": 1848,
      "nagsabi": 1849,
      "makakit": 1850,
      "binmalik": 1851,
      "unuunu": 1852,
      "matanggap": 1853,
      "pista": 1854,
      "nighit": 1855,
      "Sakaryas": 1856,
      "igu": 1857,
      "myu": 1858,
      "kabay": 1859,
      "pagpatingi": 1860,
      "alag": 1861,
      "mukaw": 1862,
      "magtupad": 1863,
      "wad": 1864,
      "nasaydan": 1865,
      "mis": 1866,
      "midamhak": 1867,
      "Hibrun": 1868,
      "makapakaun": 1869,
      "Sidi": 1870,
      "ultul": 1871,
      "tulbaw": 1872,
      "ipinatindug": 1873,
      "nagpadara": 1874,
      "kahulugan": 1875,
      "nabaritaan": 1876,
      "pirisuhan": 1877,
      "Iliyasar": 1878,
      "Patingihi": 1879,
      "kapudilan": 1880,
      "gamit": 1881,
      "tinanggap": 1882,
      "hing": 1883,
      "daraka": 1884,
      "Luung": 1885,
      "Balaam": 1886,
      "pamgasan": 1887,
      "punu": 1888,
      "putan": 1889,
      "pisahan": 1890,
      "Hub": 1891,
      "kadat": 1892,
      "ipauli": 1893,
      "Abala": 1894,
      "asikasu": 1895,
      "Kaawaawa": 1896,
      "Ang": 1897,
      "Gid": 1898,
      "snu": 1899,
      "paghari": 1900,
      "palibut": 1901,
      "busis": 1902,
      "luwang": 1903,
      "rup": 1904,
      "Simun": 1905,
      "Kada": 1906,
      "gubirnadur": 1907,
      "sabiha": 1908,
      "nakadnug": 1909,
      "ginira": 1910,
      "patawadun": 1911,
      "Mang": 1912,
      "yba": 1913,
      "tis": 1914,
      "mabaskug": 1915,
      "tubu": 1916,
      "ayas": 1917,
      "bibig": 1918,
      "mira": 1919,
      "ngapu": 1920,
      "tagud": 1921,
      "atubang": 1922,
      "abasad": 1923,
      "ripnan": 1924,
      "Sabihun": 1925,
      "napasakup": 1926,
      "ilinbung": 1927,
      "Pilatu": 1928,
      "tigayun": 1929,
      "nabwat": 1930,
      "yay": 1931,
      "til": 1932,
      "ridu": 1933,
      "magbu": 1934,
      "dul": 1935,
      "kung": 1936,
      "paniwala": 1937,
      "bagkus": 1938,
      "Mat": 1939,
      "pirimyu": 1940,
      "sagda": 1941,
      "aburidu": 1942,
      "harampangan": 1943,
      "sungay": 1944,
      "Angay": 1945,
      "baga": 1946,
      "klu": 1947,
      "pagku": 1948,
      "aldaw": 1949,
      "rikla": 1950,
      "sud": 1951,
      "rut": 1952,
      "miyu": 1953,
      "nagsitay": 1954,
      "banun": 1955,
      "dulum": 1956,
      "Danyil": 1957,
      "Pirmi": 1958,
      "kumbaba": 1959,
      "Sidikyas": 1960,
      "riklamu": 1961,
      "San": 1962,
      "uwa": 1963,
      "pagras": 1964,
      "paggamitun": 1965,
      "taran": 1966,
      "liwanag": 1967,
      "kunu": 1968,
      "nagbalik": 1969,
      "gub": 1970,
      "sugkud": 1971,
      "tinmindug": 1972,
      "yawun": 1973,
      "ipinalwas": 1974,
      "magpaniwala": 1975,
      "Ribru": 1976,
      "Gidyun": 1977,
      "100": 1978,
      "dak": 1979,
      "dasun": 1980,
      "nadura": 1981,
      "patli": 1982,
      "langu": 1983,
      "sturu": 1984,
      "tinayakan": 1985,
      "hingu": 1986,
      "gurangunun": 1987,
      "tagudtud": 1988,
      "kasuratan": 1989,
      "daus": 1990,
      "matu": 1991,
      "paggurangunun": 1992,
      "magmahal": 1993,
      "pumaka": 1994,
      "naglaban": 1995,
      "bugya": 1996,
      "ikap": 1997,
      "Barang": 1998,
      "lumian": 1999,
      "balhingu": 2000,
      "dubdub": 2001,
      "Laban": 2002,
      "kakitun": 2003,
      "pamarinu": 2004,
      "basad": 2005,
      "ling": 2006,
      "tigbak": 2007,
      "pudilun": 2008,
      "Bitil": 2009,
      "mighit": 2010,
      "pagbayaun": 2011,
      "It": 2012,
      "Sab": 2013,
      "blag": 2014,
      "karibrihan": 2015,
      "angas": 2016,
      "masabi": 2017,
      "malag": 2018,
      "tas": 2019,
      "bumuwat": 2020,
      "Namatay": 2021,
      "Papaladan": 2022,
      "hanapun": 2023,
      "inupad": 2024,
      "Midyan": 2025,
      "Din": 2026,
      "Tina": 2027,
      "apas": 2028,
      "kakaya": 2029,
      "mamu": 2030,
      "pagsu": 2031,
      "pagpaka": 2032,
      "ugan": 2033,
      "magkilala": 2034,
      "bid": 2035,
      "utang": 2036,
      "Nagbuwat": 2037,
      "pangakakitun": 2038,
      "Rumas": 2039,
      "sidru": 2040,
      "Dayu": 2041,
      "Dinara": 2042,
      "ptan": 2043,
      "intirga": 2044,
      "dahan": 2045,
      "tukaw": 2046,
      "namu": 2047,
      "hantu": 2048,
      "Sikim": 2049,
      "Karibrihan": 2050,
      "binihag": 2051,
      "ipinadara": 2052,
      "magpakiusa": 2053,
      "Kaybi": 2054,
      "bangkaw": 2055,
      "pakpak": 2056,
      "Sabiha": 2057,
      "barku": 2058,
      "Gustu": 2059,
      "Ki": 2060,
      "walu": 2061,
      "dautun": 2062,
      "mahala": 2063,
      "mangaun": 2064,
      "paglaban": 2065,
      "ababa": 2066,
      "natapus": 2067,
      "nagsagut": 2068,
      "makabaya": 2069,
      "manugbarita": 2070,
      "pinal": 2071,
      "Parusahan": 2072,
      "palaulian": 2073,
      "kakayahan": 2074,
      "An": 2075,
      "Us": 2076,
      "itan": 2077,
      "pauli": 2078,
      "manalu": 2079,
      "rahun": 2080,
      "tanas": 2081,
      "kiru": 2082,
      "Isma": 2083,
      "Satanas": 2084,
      "Mai": 2085,
      "nandarangin": 2086,
      "nakasurat": 2087,
      "ighi": 2088,
      "higpit": 2089,
      "magkaramatay": 2090,
      "turiti": 2091,
      "Binu": 2092,
      "Silu": 2093,
      "bgan": 2094,
      "ilyu": 2095,
      "magkumun": 2096,
      "tum": 2097,
      "pinapaladan": 2098,
      "Kaibahan": 2099,
      "Maa": 2100,
      "ringan": 2101,
      "patabgan": 2102,
      "kurianan": 2103,
      "Hiriku": 2104,
      "nabuhi": 2105,
      "balhinguun": 2106,
      "sakay": 2107,
      "masarigan": 2108,
      "pamakaun": 2109,
      "yamu": 2110,
      "taba": 2111,
      "magras": 2112,
      "abwatan": 2113,
      "tandug": 2114,
      "patayak": 2115,
      "naglalang": 2116,
      "kadam": 2117,
      "magkaalaman": 2118,
      "suguun": 2119,
      "Libanun": 2120,
      "sarut": 2121,
      "upatpulu": 2122,
      "Abim": 2123,
      "ginamit": 2124,
      "tinipun": 2125,
      "kirubin": 2126,
      "10": 2127,
      "slud": 2128,
      "kabanal": 2129,
      "maglumi": 2130,
      "maghanap": 2131,
      "magdangup": 2132,
      "bad": 2133,
      "hus": 2134,
      "ilikadu": 2135,
      "Naka": 2136,
      "Madi": 2137,
      "ulay": 2138,
      "pagkabihag": 2139,
      "ipadamhak": 2140,
      "palakaw": 2141,
      "haraban": 2142,
      "budlay": 2143,
      "asiwa": 2144,
      "buluhan": 2145,
      "kumaun": 2146,
      "Rihubuam": 2147,
      "dulman": 2148,
      "kadamlan": 2149,
      "Tultul": 2150,
      "iban": 2151,
      "tali": 2152,
      "saadan": 2153,
      "anglit": 2154,
      "kabuluhan": 2155,
      "dayi": 2156,
      "nir": 2157,
      "tubas": 2158,
      "lulumian": 2159,
      "nadala": 2160,
      "Damas": 2161,
      "Natan": 2162,
      "manugtarabahu": 2163,
      "Pagkalawuy": 2164,
      "Maka": 2165,
      "isda": 2166,
      "pasnu": 2167,
      "pamadaka": 2168,
      "Hirudis": 2169,
      "mirbi": 2170,
      "pinanmatay": 2171,
      "pagkumnun": 2172,
      "Damasku": 2173,
      "Mis": 2174,
      "iayaw": 2175,
      "igus": 2176,
      "daban": 2177,
      "pagdayawun": 2178,
      "pagsarigan": 2179,
      "pahalimbawa": 2180,
      "bulang": 2181,
      "sumunud": 2182,
      "nagpili": 2183,
      "Nadnugan": 2184,
      "Tiru": 2185,
      "Kara": 2186,
      "ulianan": 2187,
      "binug": 2188,
      "Abram": 2189,
      "puruyba": 2190,
      "Ilya": 2191,
      "sarag": 2192,
      "kadudulman": 2193,
      "hantup": 2194,
      "Maisturu": 2195,
      "Bir": 2196,
      "iyas": 2197,
      "sampa": 2198,
      "pagmatay": 2199,
      "maganit": 2200,
      "tuy": 2201,
      "haram": 2202,
      "sul": 2203,
      "sulang": 2204,
      "biya": 2205,
      "dugi": 2206,
      "alitan": 2207,
      "isik": 2208,
      "lingub": 2209,
      "Hadad": 2210,
      "umatag": 2211,
      "kamilyu": 2212,
      "ataytag": 2213,
      "pistahan": 2214,
      "mirmaminti": 2215,
      "sakyan": 2216,
      "Abimilik": 2217,
      "haramnuan": 2218,
      "),": 2219,
      "Kanani": 2220,
      "agda": 2221,
      "kahan": 2222,
      "sumirbi": 2223,
      "nagsamba": 2224,
      "paraharaban": 2225,
      "manglu": 2226,
      "Hudas": 2227,
      "aput": 2228,
      "Abnir": 2229,
      "darangpan": 2230,
      "Isayas": 2231,
      "Kananiyu": 2232,
      "Alala": 2233,
      "Hanggan": 2234,
      "Ipakaun": 2235,
      "nalu": 2236,
      "inanak": 2237,
      "madara": 2238,
      "pamanglu": 2239,
      "ilki": 2240,
      "riit": 2241,
      "manpa": 2242,
      "abanan": 2243,
      "Pangulu": 2244,
      "anaw": 2245,
      "nagsunud": 2246,
      "mpay": 2247,
      "panday": 2248,
      "makatanggap": 2249,
      "pinabay": 2250,
      "buhis": 2251,
      "ipinatawag": 2252,
      "layang": 2253,
      "dumugay": 2254,
      "duunduun": 2255,
      "saragtun": 2256,
      "Iyu": 2257,
      "galit": 2258,
      "kinan": 2259,
      "lagiw": 2260,
      "rduk": 2261,
      "agka": 2262,
      "kasa": 2263,
      "dariit": 2264,
      "mamatingi": 2265,
      "pagsunud": 2266,
      "mansamba": 2267,
      "lumuy": 2268,
      "bawi": 2269,
      "ruris": 2270,
      "gaan": 2271,
      "gimpu": 2272,
      "Daran": 2273,
      "Daut": 2274,
      "makaribri": 2275,
      "danan": 2276,
      "bagyu": 2277,
      "wayan": 2278,
      "Murduk": 2279,
      "magpasakup": 2280,
      "kaguluhan": 2281,
      "tinawag": 2282,
      "pakin": 2283,
      "gusyu": 2284,
      "pratis": 2285,
      "kaawaan": 2286,
      "Simyun": 2287,
      "nagkaramatay": 2288,
      "magpuya": 2289,
      "garamitun": 2290,
      "Iyupratis": 2291,
      "gimpuunan": 2292,
      "Murdukyu": 2293,
      "Basan": 2294,
      "Ina": 2295,
      "Kali": 2296,
      "Sila": 2297,
      "akan": 2298,
      "usi": 2299,
      "kalang": 2300,
      "tiyan": 2301,
      "maglawuy": 2302,
      "nap": 2303,
      "nakilala": 2304,
      "kib": 2305,
      "lakay": 2306,
      "nagras": 2307,
      "dugangan": 2308,
      "Pagras": 2309,
      "Tiripnan": 2310,
      "nakalawuy": 2311,
      "maraisug": 2312,
      "tipunun": 2313,
      "higut": 2314,
      "Aramiyu": 2315,
      "Asari": 2316,
      "ipatindug": 2317,
      "lal": 2318,
      "minan": 2319,
      "tayakan": 2320,
      "kap": 2321,
      "nigusyu": 2322,
      "paghagadun": 2323,
      "pamana": 2324,
      "magtar": 2325,
      "lukib": 2326,
      "biyag": 2327,
      "misa": 2328,
      "nagkuyug": 2329,
      "Hitiyu": 2330,
      "Magpa": 2331,
      "magkaapu": 2332,
      "baybay": 2333,
      "Pinaingana": 2334,
      "malumuy": 2335,
      "palalan": 2336,
      "bahala": 2337,
      "kastigus": 2338,
      "makapasulung": 2339,
      "Rakil": 2340,
      "lingut": 2341,
      "Asariyas": 2342,
      "Asi": 2343,
      "Kir": 2344,
      "Lalu": 2345,
      "blu": 2346,
      "tayaw": 2347,
      "anda": 2348,
      "kadugay": 2349,
      "mapag": 2350,
      "pagpatindug": 2351,
      "muli": 2352,
      "magtarabahu": 2353,
      "tumu": 2354,
      "lubung": 2355,
      "tayan": 2356,
      "suuk": 2357,
      "Katida": 2358,
      "Saduk": 2359,
      "parig": 2360,
      "pagkatawu": 2361,
      "Sinun": 2362,
      "apuun": 2363,
      "Ismail": 2364,
      "kalangitan": 2365,
      "danaw": 2366,
      "idarangin": 2367,
      "mug": 2368,
      "mahigpit": 2369,
      "alpa": 2370,
      "ilala": 2371,
      "tukad": 2372,
      "sukad": 2373,
      "dulaw": 2374,
      "bika": 2375,
      "kigan": 2376,
      "ungut": 2377,
      "unahan": 2378,
      "makakaun": 2379,
      "manugbantay": 2380,
      "sinmagut": 2381,
      "paratukawan": 2382,
      "matya": 2383,
      "magpadayaw": 2384,
      "talun": 2385,
      "idw": 2386,
      "bantayi": 2387,
      "malukung": 2388,
      "palpasan": 2389,
      "busang": 2390,
      "matindug": 2391,
      "Ribika": 2392,
      "Udwaya": 2393,
      "dlum": 2394,
      "maglabdaban": 2395,
      "Karatagan": 2396,
      "halay": 2397,
      "pya": 2398,
      "patigayun": 2399,
      "rikada": 2400,
      "manhagad": 2401,
      "maghi": 2402,
      "radu": 2403,
      "bur": 2404,
      "natanggap": 2405,
      "nagpatindug": 2406,
      "nagsalan": 2407,
      "hul": 2408,
      "Pagsa": 2409,
      "Istir": 2410,
      "alimtan": 2411,
      "Kar": 2412,
      "Nuwi": 2413,
      "matapus": 2414,
      "uray": 2415,
      "marapa": 2416,
      "pastangan": 2417,
      "Bukun": 2418,
      "Sabihi": 2419,
      "Nip": 2420,
      "pangunahan": 2421,
      "patlikud": 2422,
      "Ur": 2423,
      "sit": 2424,
      "madlum": 2425,
      "paggira": 2426,
      "kumuyug": 2427,
      "harus": 2428,
      "hustu": 2429,
      "Huas": 2430,
      "tinmukaw": 2431,
      "Mara": 2432,
      "ulun": 2433,
      "Nagbagaw": 2434,
      "Banwa": 2435,
      "igyaan": 2436,
      "pihuun": 2437,
      "kinmuyug": 2438,
      "piliun": 2439,
      "malakawan": 2440,
      "Hihuyada": 2441,
      "mabuyat": 2442,
      "Amin": 2443,
      "Inu": 2444,
      "gil": 2445,
      "masi": 2446,
      "maribri": 2447,
      "mangawat": 2448,
      "pada": 2449,
      "rit": 2450,
      "magta": 2451,
      "magdara": 2452,
      "magtawag": 2453,
      "alakawan": 2454,
      "gana": 2455,
      "liku": 2456,
      "liug": 2457,
      "inawatan": 2458,
      "lamisa": 2459,
      "giri": 2460,
      "dugsun": 2461,
      "Pagsabihun": 2462,
      "Hudiya": 2463,
      "hungaw": 2464,
      "Sidun": 2465,
      "kadaut": 2466,
      "talaga": 2467,
      "pangailangan": 2468,
      "marara": 2469,
      "marargu": 2470,
      "basta": 2471,
      "Pabay": 2472,
      "Gibiya": 2473,
      "Bitlihim": 2474,
      "Niptali": 2475,
      "Akas": 2476,
      "ahan": 2477,
      "dilikadu": 2478,
      "hina": 2479,
      "sta": 2480,
      "upa": 2481,
      "saad": 2482,
      "mapina": 2483,
      "maawa": 2484,
      "maatubangan": 2485,
      "maruku": 2486,
      "masalman": 2487,
      "paanyu": 2488,
      "muran": 2489,
      "magpangyari": 2490,
      "tukan": 2491,
      "bukan": 2492,
      "handum": 2493,
      "agas": 2494,
      "Pagbalik": 2495,
      "wayakun": 2496,
      "Mata": 2497,
      "bulun": 2498,
      "lini": 2499,
      "tudluan": 2500,
      "labag": 2501,
      "Amasiyas": 2502,
      "sarap": 2503,
      "sarakahan": 2504,
      "bihagun": 2505,
      "tabla": 2506,
      "Alalahana": 2507,
      "nalub": 2508,
      "40": 2509,
      "Amang": 2510,
      "Gib": 2511,
      "Kin": 2512,
      "Pinan": 2513,
      "arup": 2514,
      "hab": 2515,
      "iw": 2516,
      "ibalik": 2517,
      "usan": 2518,
      "kapitan": 2519,
      "tim": 2520,
      "masakyan": 2521,
      "taw": 2522,
      "magpakarani": 2523,
      "maghampang": 2524,
      "maghiling": 2525,
      "luhud": 2526,
      "sumarig": 2527,
      "pulud": 2528,
      "anad": 2529,
      "Hibri": 2530,
      "Magbaya": 2531,
      "Magkara": 2532,
      "manglaw": 2533,
      "karadwa": 2534,
      "pagpakan": 2535,
      "Haman": 2536,
      "patingihan": 2537,
      "Suduma": 2538,
      "Sabian": 2539,
      "Tamar": 2540,
      "dinayu": 2541,
      "kinaun": 2542,
      "uwaw": 2543,
      "Sabulun": 2544,
      "Hibriyu": 2545,
      "Amali": 2546,
      "Tug": 2547,
      "gun": 2548,
      "hinu": 2549,
      "yagu": 2550,
      "tiyagu": 2551,
      "mam": 2552,
      "paulian": 2553,
      "mani": 2554,
      "ayakun": 2555,
      "agawan": 2556,
      "lapastangan": 2557,
      "patalang": 2558,
      "Huram": 2559,
      "mayaw": 2560,
      "agawun": 2561,
      "ikasabi": 2562,
      "darahan": 2563,
      "marayaw": 2564,
      "malatuy": 2565,
      "iyamut": 2566,
      "Pilipi": 2567,
      "Santiyagu": 2568,
      "Midyanita": 2569,
      "ighitun": 2570,
      "Amalikita": 2571,
      "Ali": 2572,
      "Adun": 2573,
      "ahun": 2574,
      "sya": 2575,
      "tayak": 2576,
      "sim": 2577,
      "makilala": 2578,
      "mangabuhi": 2579,
      "par": 2580,
      "ugyung": 2581,
      "rihu": 2582,
      "mandarangin": 2583,
      "nama": 2584,
      "pumarargu": 2585,
      "lad": 2586,
      "mita": 2587,
      "Simaya": 2588,
      "utru": 2589,
      "Sara": 2590,
      "binsiya": 2591,
      "ipadayaw": 2592,
      "ipaabwat": 2593,
      "mahalun": 2594,
      "awati": 2595,
      "igpil": 2596,
      "purubinsiya": 2597,
      "labaw": 2598,
      "Gat": 2599,
      "itinagka": 2600,
      "sintinsiyahan": 2601,
      "magpanguragin": 2602,
      "pumakarani": 2603,
      "Sinunud": 2604,
      "Gibyun": 2605,
      "Am": 2606,
      "Gir": 2607,
      "Kina": 2608,
      "Rin": 2609,
      "Sun": 2610,
      "Sinu": 2611,
      "nalakawan": 2612,
      "ryu": 2613,
      "kalubngan": 2614,
      "inalistu": 2615,
      "dakup": 2616,
      "riil": 2617,
      "magba": 2618,
      "maggayak": 2619,
      "maglayang": 2620,
      "abangan": 2621,
      "luung": 2622,
      "naintindihan": 2623,
      "ayadun": 2624,
      "alak": 2625,
      "makapalagiw": 2626,
      "ariwaya": 2627,
      "magkasala": 2628,
      "Nagpakarani": 2629,
      "halgaan": 2630,
      "nasakup": 2631,
      "magpabalhinguun": 2632,
      "pagpabay": 2633,
      "nanganak": 2634,
      "Buus": 2635,
      "lagan": 2636,
      "tipunan": 2637,
      "tinuri": 2638,
      "balus": 2639,
      "balusan": 2640,
      "malangas": 2641,
      "paggalangun": 2642,
      "lagas": 2643,
      "Itinultul": 2644,
      "Kalib": 2645,
      "Mal": 2646,
      "adnugan": 2647,
      "binan": 2648,
      "talang": 2649,
      "yin": 2650,
      "tiid": 2651,
      "sita": 2652,
      "mahusay": 2653,
      "malimtan": 2654,
      "pagkilala": 2655,
      "pagtupadun": 2656,
      "paingana": 2657,
      "kur": 2658,
      "buyat": 2659,
      "lulubngan": 2660,
      "huyaw": 2661,
      "bantayaw": 2662,
      "Kapistahan": 2663,
      "manugkabayu": 2664,
      "Mapalad": 2665,
      "marun": 2666,
      "Binaya": 2667,
      "payag": 2668,
      "Buwata": 2669,
      "malukat": 2670,
      "ipinabwat": 2671,
      "lambung": 2672,
      "umapas": 2673,
      "Mira": 2674,
      "yilu": 2675,
      "iyaran": 2676,
      "apihun": 2677,
      "70": 2678,
      "Aha": 2679,
      "Du": 2680,
      "dil": 2681,
      "gungan": 2682,
      "uta": 2683,
      "kakay": 2684,
      "tiwala": 2685,
      "pagg": 2686,
      "butan": 2687,
      "lumakaw": 2688,
      "giyahan": 2689,
      "nagalit": 2690,
      "naglakaw": 2691,
      "Simi": 2692,
      "Tig": 2693,
      "anganta": 2694,
      "Kami": 2695,
      "sabihan": 2696,
      "Makitan": 2697,
      "salug": 2698,
      "pagkamatay": 2699,
      "ipadara": 2700,
      "magpaingana": 2701,
      "magpamahala": 2702,
      "lunggungan": 2703,
      "bayadan": 2704,
      "Ipinauli": 2705,
      "kayamuun": 2706,
      "Mikas": 2707,
      "Sinai": 2708,
      "hiyaput": 2709,
      "Birnabi": 2710,
      "60": 2711,
      "Dina": 2712,
      "Lut": 2713,
      "apan": 2714,
      "asaydan": 2715,
      "bya": 2716,
      "yang": 2717,
      "kata": 2718,
      "masa": 2719,
      "malay": 2720,
      "pagtupad": 2721,
      "tawad": 2722,
      "tub": 2723,
      "turun": 2724,
      "wati": 2725,
      "bumu": 2726,
      "suduk": 2727,
      "pumirmaminti": 2728,
      "bisis": 2729,
      "anakaw": 2730,
      "huru": 2731,
      "Karanidu": 2732,
      "sabihi": 2733,
      "piniyaran": 2734,
      "Naghari": 2735,
      "matalu": 2736,
      "ispiritu": 2737,
      "mpati": 2738,
      "listahan": 2739,
      "dayuun": 2740,
      "karayawan": 2741,
      "kalampati": 2742,
      "ihinanda": 2743,
      "Kaindaay": 2744,
      "dungun": 2745,
      "Hisriil": 2746,
      "madamul": 2747,
      "matutum": 2748,
      "Mispa": 2749,
      "usisa": 2750,
      "Ahasiyas": 2751,
      "!’": 2752,
      "14": 2753,
      "Gini": 2754,
      "Itiyu": 2755,
      "Pal": 2756,
      "irub": 2757,
      "anus": 2758,
      "kabuu": 2759,
      "karay": 2760,
      "tik": 2761,
      "kana": 2762,
      "pagbuul": 2763,
      "pagtiripun": 2764,
      "pagkadat": 2765,
      "pasi": 2766,
      "yam": 2767,
      "maggira": 2768,
      "napakakit": 2769,
      "sus": 2770,
      "suru": 2771,
      "nagbuul": 2772,
      "nul": 2773,
      "Nasari": 2774,
      "Kaabwat": 2775,
      "manugpanday": 2776,
      "mangun": 2777,
      "ayidan": 2778,
      "ipaalam": 2779,
      "nakamatay": 2780,
      "nakaras": 2781,
      "karas": 2782,
      "tigpa": 2783,
      "Susun": 2784,
      "paknul": 2785,
      "Isai": 2786,
      "Kuhat": 2787,
      "Pirsiya": 2788,
      "lalabanan": 2789,
      "Tugka": 2790,
      "Itiyupya": 2791,
      "kabuuhan": 2792,
      "500": 2793,
      "hanga": 2794,
      "uhay": 2795,
      "kaalaman": 2796,
      "dayun": 2797,
      "mati": 2798,
      "pagpangunahan": 2799,
      "suma": 2800,
      "bati": 2801,
      "puan": 2802,
      "dumun": 2803,
      "gitan": 2804,
      "nagtipun": 2805,
      "rangan": 2806,
      "Magsabi": 2807,
      "manugkanta": 2808,
      "ulit": 2809,
      "binhi": 2810,
      "tinag": 2811,
      "magkaimaw": 2812,
      "bulbul": 2813,
      "talinga": 2814,
      "Hasa": 2815,
      "Pinakabanal": 2816,
      "binuhi": 2817,
      "Isakar": 2818,
      "daykut": 2819,
      "Binhaminita": 2820,
      "Balak": 2821,
      "Nangyari": 2822,
      "yagan": 2823,
      "hingab": 2824,
      "dakpun": 2825,
      "malagti": 2826,
      "buluntad": 2827,
      "Rut": 2828,
      "hug": 2829,
      "ipag": 2830,
      "ukan": 2831,
      "umpu": 2832,
      "dapug": 2833,
      "pagbul": 2834,
      "pagkadalaan": 2835,
      "handa": 2836,
      "lat": 2837,
      "lapak": 2838,
      "anahun": 2839,
      "Kadaka": 2840,
      "gulung": 2841,
      "Saulu": 2842,
      "Masi": 2843,
      "magkalun": 2844,
      "ngalay": 2845,
      "ipakilala": 2846,
      "kilat": 2847,
      "maranahun": 2848,
      "mbak": 2849,
      "bangka": 2850,
      "ipud": 2851,
      "bunan": 2852,
      "sambahun": 2853,
      "diyablu": 2854,
      "salup": 2855,
      "kaawai": 2856,
      "ibinilin": 2857,
      "linmuwas": 2858,
      "iinanak": 2859,
      "taranuman": 2860,
      "binugyahan": 2861,
      "idwisik": 2862,
      "maawaun": 2863,
      "Gin": 2864,
      "Salu": 2865,
      "adal": 2866,
      "ainanak": 2867,
      "nayi": 2868,
      "inisip": 2869,
      "nianak": 2870,
      "malambung": 2871,
      "pagkan": 2872,
      "paghandug": 2873,
      "pahintulutan": 2874,
      "tarikada": 2875,
      "mandara": 2876,
      "magdayaw": 2877,
      "magtanggap": 2878,
      "busiyu": 2879,
      "inuli": 2880,
      "ayaan": 2881,
      "bawan": 2882,
      "baray": 2883,
      "lak": 2884,
      "nagluwas": 2885,
      "Hibusiyu": 2886,
      "Daka": 2887,
      "pinaayad": 2888,
      "sinagut": 2889,
      "Mamatay": 2890,
      "isipa": 2891,
      "isagda": 2892,
      "banglu": 2893,
      "Biir": 2894,
      "tingihan": 2895,
      "linmuwang": 2896,
      "Usyas": 2897,
      "Tultulanun": 2898,
      "Asira": 2899,
      "marapadayaw": 2900,
      "15": 2901,
      "18": 2902,
      "Arani": 2903,
      "Kita": 2904,
      "Ruma": 2905,
      "dlayan": 2906,
      "ngi": 2907,
      "puna": 2908,
      "snuan": 2909,
      "malang": 2910,
      "masaydan": 2911,
      "maturug": 2912,
      "mamaingana": 2913,
      "paglakaw": 2914,
      "patan": 2915,
      "tabu": 2916,
      "magsulud": 2917,
      "haklu": 2918,
      "susun": 2919,
      "gib": 2920,
      "makaawat": 2921,
      "gutan": 2922,
      "manugang": 2923,
      "manughusay": 2924,
      "pagkaun": 2925,
      "halin": 2926,
      "ipaparihu": 2927,
      "marag": 2928,
      "agiwan": 2929,
      "nagpalwas": 2930,
      "Liya": 2931,
      "bungsud": 2932,
      "palabi": 2933,
      "baliwun": 2934,
      "pinakamayad": 2935,
      "Nibu": 2936,
      "Pira": 2937,
      "agtingan": 2938,
      "patawad": 2939,
      "galbuk": 2940,
      "Kura": 2941,
      "Hihuyakim": 2942,
      "iinintirga": 2943,
      "Mikaya": 2944,
      "Bilang": 2945,
      "Matyun": 2946,
      "urayhaw": 2947,
      "baraydan": 2948,
      "200": 2949,
      "Bar": 2950,
      "Kil": 2951,
      "Nighit": 2952,
      "amut": 2953,
      "ahas": 2954,
      "dinu": 2955,
      "hung": 2956,
      "raya": 2957,
      "rana": 2958,
      "tru": 2959,
      "tinupad": 2960,
      "kaparusahan": 2961,
      "kaabasad": 2962,
      "mabanglu": 2963,
      "pagpan": 2964,
      "kuli": 2965,
      "manlaban": 2966,
      "maniwala": 2967,
      "abag": 2968,
      "busit": 2969,
      "gamut": 2970,
      "nagdara": 2971,
      "humbak": 2972,
      "dimanda": 2973,
      "pinaighit": 2974,
      "makadnug": 2975,
      "Sira": 2976,
      "alibutan": 2977,
      "pinun": 2978,
      "buhiun": 2979,
      "naniwala": 2980,
      "awaan": 2981,
      "ming": 2982,
      "Hamat": 2983,
      "tultulan": 2984,
      "Nigib": 2985,
      "arabwat": 2986,
      "malapad": 2987,
      "agwantahun": 2988,
      "Gilgal": 2989,
      "kasulungan": 2990,
      "maduraan": 2991,
      "Hisbun": 2992,
      "ublus": 2993,
      "sinulang": 2994,
      "sampak": 2995,
      "Matadlung": 2996,
      "Rinmas": 2997,
      "dumunung": 2998,
      "ngipun": 2999,
      "kulimpay": 3000,
      ",”": 3001,
      "Alaga": 3002,
      "Minatay": 3003,
      "Nini": 3004,
      "Piri": 3005,
      "umighit": 3006,
      "tigu": 3007,
      "madaya": 3008,
      "mawayak": 3009,
      "pagpili": 3010,
      "pagpuyaan": 3011,
      "magsumpa": 3012,
      "hiwat": 3013,
      "himanglaw": 3014,
      "hurag": 3015,
      "Pagpaka": 3016,
      "Hutam": 3017,
      "abita": 3018,
      "makabalik": 3019,
      "Kadis": 3020,
      "manugbuwat": 3021,
      "ipamatay": 3022,
      "patakinan": 3023,
      "tupada": 3024,
      "salakay": 3025,
      "binudlayan": 3026,
      "abat": 3027,
      "Midi": 3028,
      "Rurisun": 3029,
      "ipinabili": 3030,
      "halamanan": 3031,
      "labihun": 3032,
      "pamantay": 3033,
      "Ninibi": 3034,
      "Hana": 3035,
      "Sal": 3036,
      "Shi": 3037,
      "itu": 3038,
      "ipinu": 3039,
      "kya": 3040,
      "nana": 3041,
      "rung": 3042,
      "kampi": 3043,
      "madnugan": 3044,
      "yup": 3045,
      "mananakaw": 3046,
      "luwa": 3047,
      "wud": 3048,
      "inuringan": 3049,
      "natalu": 3050,
      "natayak": 3051,
      "ayawa": 3052,
      "ayasun": 3053,
      "alat": 3054,
      "sum": 3055,
      "baha": 3056,
      "pul": 3057,
      "pumakaun": 3058,
      "gaha": 3059,
      "gatus": 3060,
      "kir": 3061,
      "makakaray": 3062,
      "arian": 3063,
      "ikaayad": 3064,
      "Parargu": 3065,
      "nangisug": 3066,
      "ginminan": 3067,
      "diyusa": 3068,
      "runut": 3069,
      "Kanta": 3070,
      "kaindaay": 3071,
      "dalaun": 3072,
      "Niku": 3073,
      "baklayan": 3074,
      "mgas": 3075,
      "Nabaritaan": 3076,
      "unuunuhun": 3077,
      "mismu": 3078,
      "Mangyari": 3079,
      "Kiryat": 3080,
      "Uryas": 3081,
      "Mirari": 3082,
      "paggayakun": 3083,
      "huragkus": 3084,
      "400": 3085,
      "Al": 3086,
      "Hag": 3087,
      "Hilki": 3088,
      "Mabu": 3089,
      "Rama": 3090,
      "Ubid": 3091,
      "ikada": 3092,
      "kinu": 3093,
      "win": 3094,
      "agila": 3095,
      "kaisipan": 3096,
      "uni": 3097,
      "tiran": 3098,
      "simarun": 3099,
      "mak": 3100,
      "mapung": 3101,
      "pagribri": 3102,
      "pagsagda": 3103,
      "paghanapun": 3104,
      "pasay": 3105,
      "ilinan": 3106,
      "mumatay": 3107,
      "magpanguna": 3108,
      "sulungan": 3109,
      "siyam": 3110,
      "Hisi": 3111,
      "Nadala": 3112,
      "pian": 3113,
      "langan": 3114,
      "pinaulian": 3115,
      "alik": 3116,
      "Saadan": 3117,
      "manugpanguna": 3118,
      "tindugan": 3119,
      "manganak": 3120,
      "ikalima": 3121,
      "magpasnu": 3122,
      "nakaalam": 3123,
      "nakabalik": 3124,
      "pagparusa": 3125,
      "Abyas": 3126,
      "kagalitan": 3127,
      "Ipinatindug": 3128,
      "Girahun": 3129,
      "Ribri": 3130,
      "pumarihu": 3131,
      "dinma": 3132,
      "Nagpabuwat": 3133,
      "dinaut": 3134,
      "dumasun": 3135,
      "Maaka": 3136,
      "Shiba": 3137,
      "Hilkiyas": 3138,
      "Amnun": 3139,
      "Hanani": 3140,
      "Tinupad": 3141,
      "ymi": 3142,
      "sabang": 3143,
      "ayan": 3144,
      "mamara": 3145,
      "paighitun": 3146,
      "tawa": 3147,
      "ilinu": 3148,
      "mutiyu": 3149,
      "rim": 3150,
      "magya": 3151,
      "magli": 3152,
      "magtultul": 3153,
      "magpudil": 3154,
      "maghandum": 3155,
      "lusad": 3156,
      "nam": 3157,
      "namatingi": 3158,
      "sukat": 3159,
      "baan": 3160,
      "naghampang": 3161,
      "hur": 3162,
      "kamusta": 3163,
      "Pagkadat": 3164,
      "pinarusahan": 3165,
      "Sitay": 3166,
      "Sihun": 3167,
      "Siir": 3168,
      "Timutiyu": 3169,
      "Nuymi": 3170,
      "manguna": 3171,
      "ipinaalam": 3172,
      "pagkabuhi": 3173,
      "nanlaban": 3174,
      "ipatupad": 3175,
      "Abya": 3176,
      "galangun": 3177,
      "Pinunu": 3178,
      "duraun": 3179,
      "Misu": 3180,
      "uktukan": 3181,
      "harab": 3182,
      "Hunas": 3183,
      "sinuldan": 3184,
      "sibada": 3185,
      "kumbabaun": 3186,
      "Alistu": 3187,
      "tinaguktukan": 3188,
      "24": 3189,
      "Duy": 3190,
      "Gul": 3191,
      "Han": 3192,
      "Hab": 3193,
      "Ini": 3194,
      "Irin": 3195,
      "Min": 3196,
      "Ray": 3197,
      "Tini": 3198,
      "mri": 3199,
      "tala": 3200,
      "katu": 3201,
      "katun": 3202,
      "tiya": 3203,
      "makay": 3204,
      "maasawa": 3205,
      "pagpakaun": 3206,
      "pagpakakit": 3207,
      "alin": 3208,
      "tap": 3209,
      "manmatay": 3210,
      "magad": 3211,
      "wasan": 3212,
      "inapuan": 3213,
      "putun": 3214,
      "pulis": 3215,
      "lapad": 3216,
      "mirin": 3217,
      "giya": 3218,
      "nagtiripun": 3219,
      "panmatyun": 3220,
      "pika": 3221,
      "udyuk": 3222,
      "pinahintulutan": 3223,
      "gulu": 3224,
      "Magbagaw": 3225,
      "Nagkara": 3226,
      "ipinakilala": 3227,
      "limti": 3228,
      "ipabili": 3229,
      "ipahintulut": 3230,
      "ikawalu": 3231,
      "magpalagiw": 3232,
      "nakabaya": 3233,
      "taklub": 3234,
      "linaw": 3235,
      "taras": 3236,
      "Kanmi": 3237,
      "Sinabihan": 3238,
      "umati": 3239,
      "Gidal": 3240,
      "arawayan": 3241,
      "hintuluti": 3242,
      "iyaptan": 3243,
      "alalahana": 3244,
      "sinunug": 3245,
      "ipinablag": 3246,
      "nabubut": 3247,
      "linmuhud": 3248,
      "daldali": 3249,
      "dinakup": 3250,
      "bitbit": 3251,
      "magbulus": 3252,
      "Marara": 3253,
      "Aduniyas": 3254,
      "Girsun": 3255,
      "huruyawan": 3256,
      "Biirsiba": 3257,
      "Rayna": 3258,
      "600": 3259,
      "Kal": 3260,
      "Mir": 3261,
      "pti": 3262,
      "rga": 3263,
      "sarin": 3264,
      "kaaba": 3265,
      "kaawat": 3266,
      "kabahagi": 3267,
      "inmun": 3268,
      "daman": 3269,
      "pagga": 3270,
      "pagtalaga": 3271,
      "taung": 3272,
      "ilang": 3273,
      "mura": 3274,
      "magkanta": 3275,
      "magpangabuhi": 3276,
      "gar": 3277,
      "unghung": 3278,
      "abisug": 3279,
      "Sik": 3280,
      "Sisara": 3281,
      "manugsurat": 3282,
      "arimpu": 3283,
      "arunghung": 3284,
      "paratag": 3285,
      "sakupun": 3286,
      "Nagka": 3287,
      "Nagsugu": 3288,
      "ipinadakit": 3289,
      "nanudlu": 3290,
      "Muabita": 3291,
      "ipaburayhaw": 3292,
      "daraha": 3293,
      "kalibut": 3294,
      "bangdan": 3295,
      "Hada": 3296,
      "rayna": 3297,
      "ibina": 3298,
      "Baruk": 3299,
      "baragawun": 3300,
      "sinakup": 3301,
      "ipinaburayhaw": 3302,
      "pilay": 3303,
      "kaawaawa": 3304,
      "mustara": 3305,
      "Hihuyakin": 3306,
      "manugpadakit": 3307,
      "katapatan": 3308,
      "Salum": 3309,
      "Miditiran": 3310,
      "arimputu": 3311,
      "Miditiranyu": 3312,
      "25": 3313,
      "300": 3314,
      "Asan": 3315,
      "Awati": 3316,
      "Dayawa": 3317,
      "Ipakakit": 3318,
      "Nanga": 3319,
      "Nilu": 3320,
      "Saku": 3321,
      "ikan": 3322,
      "iuli": 3323,
      "mpara": 3324,
      "myaw": 3325,
      "milu": 3326,
      "ukang": 3327,
      "saman": 3328,
      "angputan": 3329,
      "kaluku": 3330,
      "kakampi": 3331,
      "ayag": 3332,
      "sip": 3333,
      "maunu": 3334,
      "mahalay": 3335,
      "paayadun": 3336,
      "alunan": 3337,
      "yukan": 3338,
      "uga": 3339,
      "ugpu": 3340,
      "magdaya": 3341,
      "magtubu": 3342,
      "tubangun": 3343,
      "bulung": 3344,
      "butir": 3345,
      "lubay": 3346,
      "tanyas": 3347,
      "dukun": 3348,
      "anap": 3349,
      "dugang": 3350,
      "unaid": 3351,
      "ilisan": 3352,
      "makaslud": 3353,
      "aliw": 3354,
      "guyu": 3355,
      "manugribri": 3356,
      "manughula": 3357,
      "magkasalman": 3358,
      "tagadara": 3359,
      "Harim": 3360,
      "isagut": 3361,
      "nagpauli": 3362,
      "tiyukya": 3363,
      "Hihuas": 3364,
      "kasya": 3365,
      "pinakaabwat": 3366,
      "aratubangun": 3367,
      "tandaan": 3368,
      "ilingutan": 3369,
      "asawan": 3370,
      "mabwat": 3371,
      "Asap": 3372,
      "buhus": 3373,
      "basadan": 3374,
      "hingbut": 3375,
      "Antiyukya": 3376,
      "pakinabang": 3377,
      "mapinakumbabaun": 3378,
      "hinuray": 3379,
      "Simiy": 3380,
      "dinmasun": 3381,
      "Irinibri": 3382,
      "Gidalyas": 3383,
      "kalukuhan": 3384,
      "22": 3385,
      "Ilin": 3386,
      "Kis": 3387,
      "Sunda": 3388,
      "asin": 3389,
      "dila": 3390,
      "dluan": 3391,
      "isun": 3392,
      "sanan": 3393,
      "kalun": 3394,
      "kailis": 3395,
      "tikis": 3396,
      "mapin": 3397,
      "mainit": 3398,
      "madulum": 3399,
      "paglab": 3400,
      "paingan": 3401,
      "patubas": 3402,
      "taan": 3403,
      "muk": 3404,
      "rian": 3405,
      "ratu": 3406,
      "har": 3407,
      "tungan": 3408,
      "mitay": 3409,
      "patalu": 3410,
      "nagtawag": 3411,
      "Pagbuwatun": 3412,
      "Hipti": 3413,
      "pipian": 3414,
      "pinatingihan": 3415,
      "makabuwat": 3416,
      "makapakarani": 3417,
      "Sib": 3418,
      "Sigi": 3419,
      "Magkadala": 3420,
      "tinaban": 3421,
      "tinalu": 3422,
      "dunya": 3423,
      "magkaturug": 3424,
      "mangu": 3425,
      "mangka": 3426,
      "buhian": 3427,
      "Iningarnan": 3428,
      "ayid": 3429,
      "nanlumi": 3430,
      "Para": 3431,
      "linti": 3432,
      "linagas": 3433,
      "pagpakay": 3434,
      "minana": 3435,
      "irbi": 3436,
      "labut": 3437,
      "wiran": 3438,
      "Baasa": 3439,
      "ringgitan": 3440,
      "Gira": 3441,
      "pinakamarinu": 3442,
      "salumangka": 3443,
      "itini": 3444,
      "inmatag": 3445,
      "amparahun": 3446,
      "hiyaptan": 3447,
      "yayungan": 3448,
      "muransa": 3449,
      "karasyaw": 3450,
      "Kilalan": 3451,
      "Abyatar": 3452,
      "Misulam": 3453,
      "Tinipun": 3454,
      ").": 3455,
      "11": 3456,
      "13": 3457,
      "Iribri": 3458,
      "Tab": 3459,
      "Tanan": 3460,
      "Ug": 3461,
      "amanan": 3462,
      "akasya": 3463,
      "bli": 3464,
      "isurat": 3465,
      "lilingutan": 3466,
      "muna": 3467,
      "nguru": 3468,
      "kasun": 3469,
      "kaariwaya": 3470,
      "kamalay": 3471,
      "tihan": 3472,
      "pagtu": 3473,
      "pasun": 3474,
      "pastu": 3475,
      "pabalik": 3476,
      "paliwanag": 3477,
      "pamagba": 3478,
      "yapun": 3479,
      "maglagas": 3480,
      "rabahu": 3481,
      "bum": 3482,
      "buyu": 3483,
      "lum": 3484,
      "naagaw": 3485,
      "dira": 3486,
      "suhul": 3487,
      "baras": 3488,
      "inadab": 3489,
      "puya": 3490,
      "kid": 3491,
      "nagbaya": 3492,
      "nagtultul": 3493,
      "hut": 3494,
      "human": 3495,
      "Pagbaya": 3496,
      "makamatay": 3497,
      "makalakaw": 3498,
      "Siru": 3499,
      "Sirya": 3500,
      "Magkumun": 3501,
      "magkakurian": 3502,
      "mpuk": 3503,
      "ikabaya": 3504,
      "magpatunug": 3505,
      "nakatanggap": 3506,
      "umpa": 3507,
      "atup": 3508,
      "katalunan": 3509,
      "mararinu": 3510,
      "Sumabi": 3511,
      "bunang": 3512,
      "Hihuram": 3513,
      "mitru": 3514,
      "kinilala": 3515,
      "pilit": 3516,
      "pumarusa": 3517,
      "turung": 3518,
      "Abisay": 3519,
      "pagsambahun": 3520,
      "kilumitru": 3521,
      "ibinayad": 3522,
      "Ipinab": 3523,
      "bisugun": 3524,
      "alagpak": 3525,
      "bugyahin": 3526,
      "badyas": 3527,
      "Karmilu": 3528,
      "alakpan": 3529,
      "Nasarit": 3530,
      "Masidunya": 3531,
      "haklupan": 3532,
      "Ribrihan": 3533,
      "ibinarita": 3534,
      "kaariwayahan": 3535,
      "Anan": 3536,
      "Adam": 3537,
      "Ik": 3538,
      "Ilam": 3539,
      "Nun": 3540,
      "Nir": 3541,
      "Pan": 3542,
      "Pika": 3543,
      "byas": 3544,
      "habi": 3545,
      "iru": 3546,
      "iis": 3547,
      "ialistu": 3548,
      "iyawun": 3549,
      "mna": 3550,
      "psa": 3551,
      "saw": 3552,
      "sada": 3553,
      "maas": 3554,
      "pagdara": 3555,
      "pagsunug": 3556,
      "paan": 3557,
      "manay": 3558,
      "magdu": 3559,
      "magpay": 3560,
      "magtiripun": 3561,
      "bulus": 3562,
      "lukat": 3563,
      "gadu": 3564,
      "nagsirbi": 3565,
      "nagluwang": 3566,
      "naglingut": 3567,
      "Pagkanta": 3568,
      "Pagtindug": 3569,
      "panu": 3570,
      "Napa": 3571,
      "Naaman": 3572,
      "rangu": 3573,
      "makasulud": 3574,
      "Magsarig": 3575,
      "Magsumpa": 3576,
      "manugnigusyu": 3577,
      "tinmu": 3578,
      "Hisuwa": 3579,
      "Madura": 3580,
      "magkaanak": 3581,
      "babuy": 3582,
      "hinagad": 3583,
      "alumanay": 3584,
      "magpasalamat": 3585,
      "nakalakaw": 3586,
      "alangun": 3587,
      "pagpasalamat": 3588,
      "ginayak": 3589,
      "isinu": 3590,
      "tigangan": 3591,
      "payan": 3592,
      "Lib": 3593,
      "lawig": 3594,
      "wiru": 3595,
      "palma": 3596,
      "pirmaminti": 3597,
      "Piniis": 3598,
      "hagun": 3599,
      "karinu": 3600,
      "karsada": 3601,
      "Ilkana": 3602,
      "nagkampu": 3603,
      "Isipa": 3604,
      "ayamuun": 3605,
      "daragun": 3606,
      "Aswiru": 3607,
      "sulul": 3608,
      "nangawat": 3609,
      "Tinmindug": 3610,
      "Ahiyas": 3611,
      "Lasaru": 3612,
      "Nabal": 3613,
      "magpangulian": 3614,
      "nabiyagan": 3615,
      "paniwalaan": 3616,
      "Ginira": 3617,
      "hingabtun": 3618,
      "16": 3619,
      "Ak": 3620,
      "Abil": 3621,
      "Biri": 3622,
      "Ipi": 3623,
      "Itultul": 3624,
      "Tinu": 3625,
      "iwan": 3626,
      "mil": 3627,
      "yanan": 3628,
      "agpak": 3629,
      "anggi": 3630,
      "kalu": 3631,
      "katan": 3632,
      "inman": 3633,
      "sik": 3634,
      "mabilang": 3635,
      "pagkanta": 3636,
      "pagsintinsiya": 3637,
      "pagpangabuhi": 3638,
      "alagiwan": 3639,
      "ugas": 3640,
      "muun": 3641,
      "magburak": 3642,
      "magkuyug": 3643,
      "tukun": 3644,
      "kayagtingan": 3645,
      "namaingana": 3646,
      "liw": 3647,
      "rubab": 3648,
      "gatas": 3649,
      "bitun": 3650,
      "higit": 3651,
      "naghandug": 3652,
      "nagmatay": 3653,
      "nagdangup": 3654,
      "hurusa": 3655,
      "Darahun": 3656,
      "Isinurat": 3657,
      "abis": 3658,
      "makaampara": 3659,
      "Kain": 3660,
      "Katipunan": 3661,
      "guradu": 3662,
      "manugtiid": 3663,
      "sinmaka": 3664,
      "sinmulud": 3665,
      "arma": 3666,
      "pakakitan": 3667,
      "magkaaburidu": 3668,
      "salyu": 3669,
      "Nagbaliw": 3670,
      "matnug": 3671,
      "ipabuwat": 3672,
      "nakapalagiw": 3673,
      "mataas": 3674,
      "matarum": 3675,
      "awak": 3676,
      "tuub": 3677,
      "maramuun": 3678,
      "tigpakaun": 3679,
      "Surubab": 3680,
      "Ipinatawag": 3681,
      "sangbaw": 3682,
      "Gasa": 3683,
      "Tupada": 3684,
      "pumasakup": 3685,
      "aradu": 3686,
      "Lubus": 3687,
      "inmapas": 3688,
      "nangaun": 3689,
      "lumawuy": 3690,
      "Arnun": 3691,
      "pakinabangan": 3692,
      "Silas": 3693,
      "likudan": 3694,
      "yinmut": 3695,
      "katuwiran": 3696,
      "Siruya": 3697,
      "Surubabil": 3698,
      "Ad": 3699,
      "Amus": 3700,
      "Bas": 3701,
      "Idu": 3702,
      "Tangga": 3703,
      "iyaw": 3704,
      "lunu": 3705,
      "manganta": 3706,
      "pnu": 3707,
      "rdahan": 3708,
      "umi": 3709,
      "usun": 3710,
      "katay": 3711,
      "sisi": 3712,
      "maman": 3713,
      "maha": 3714,
      "maapu": 3715,
      "marat": 3716,
      "masarap": 3717,
      "malinaw": 3718,
      "pagkuyug": 3719,
      "pagsundun": 3720,
      "padun": 3721,
      "riringgitan": 3722,
      "magkaga": 3723,
      "lut": 3724,
      "lukatun": 3725,
      "naw": 3726,
      "taning": 3727,
      "sub": 3728,
      "suk": 3729,
      "biyu": 3730,
      "Paglakaw": 3731,
      "Pagmahalun": 3732,
      "Daryu": 3733,
      "Namuwat": 3734,
      "Nadab": 3735,
      "pinauli": 3736,
      "Sip": 3737,
      "Sapan": 3738,
      "masnu": 3739,
      "binili": 3740,
      "Makir": 3741,
      "ping": 3742,
      "Nagras": 3743,
      "panguragin": 3744,
      "hinanap": 3745,
      "bugyahan": 3746,
      "halan": 3747,
      "nanhagad": 3748,
      "magpaawa": 3749,
      "mpita": 3750,
      "sagtun": 3751,
      "nagpasnu": 3752,
      "Pinaulian": 3753,
      "Subra": 3754,
      "bungut": 3755,
      "malus": 3756,
      "palayasun": 3757,
      "inulbaw": 3758,
      "ibgun": 3759,
      "Bat": 3760,
      "lagti": 3761,
      "sangputan": 3762,
      "dayami": 3763,
      "sarabi": 3764,
      "malahalan": 3765,
      "pinaganit": 3766,
      "Ramut": 3767,
      "maglabdab": 3768,
      "turumpita": 3769,
      "binasa": 3770,
      "lumuwang": 3771,
      "alagdun": 3772,
      "taranta": 3773,
      "Maasiyas": 3774,
      "dugihan": 3775,
      "kasaba": 3776,
      "Magkaramatay": 3777,
      "Malki": 3778,
      "ituturu": 3779,
      "Gulyat": 3780,
      "Ananiyas": 3781,
      "hurusayan": 3782,
      "katayung": 3783,
      "Habis": 3784,
      "Milki": 3785,
      "Say": 3786,
      "ibinu": 3787,
      "nal": 3788,
      "umagad": 3789,
      "sab": 3790,
      "sakun": 3791,
      "unut": 3792,
      "madaut": 3793,
      "maulian": 3794,
      "mamuwat": 3795,
      "maruris": 3796,
      "maalumanay": 3797,
      "pagbantay": 3798,
      "paabwat": 3799,
      "yur": 3800,
      "tasa": 3801,
      "mansirbi": 3802,
      "manudlu": 3803,
      "maga": 3804,
      "magpanga": 3805,
      "maghingbut": 3806,
      "tut": 3807,
      "rausa": 3808,
      "ramig": 3809,
      "wasakun": 3810,
      "buut": 3811,
      "lutuk": 3812,
      "lubid": 3813,
      "inudukun": 3814,
      "natupad": 3815,
      "napatayak": 3816,
      "sup": 3817,
      "pumig": 3818,
      "dumayaw": 3819,
      "gis": 3820,
      "nagribri": 3821,
      "nagsaka": 3822,
      "Hiram": 3823,
      "Hibiyu": 3824,
      "bandira": 3825,
      "Isti": 3826,
      "makabagaw": 3827,
      "makaalam": 3828,
      "makalawuy": 3829,
      "Siraya": 3830,
      "Tir": 3831,
      "ibarita": 3832,
      "sinmakay": 3833,
      "sandam": 3834,
      "itinan": 3835,
      "manginum": 3836,
      "pagkatapus": 3837,
      "matinudukun": 3838,
      "magpabili": 3839,
      "nakaaput": 3840,
      "rigsan": 3841,
      "umilis": 3842,
      "pagparusahan": 3843,
      "dalum": 3844,
      "hayag": 3845,
      "nangus": 3846,
      "maradaya": 3847,
      "puruan": 3848,
      "hamnu": 3849,
      "binurdahan": 3850,
      "labung": 3851,
      "palwas": 3852,
      "abahala": 3853,
      "lagsun": 3854,
      "iring": 3855,
      "dayaun": 3856,
      "Marinu": 3857,
      "Tinayakan": 3858,
      "Nangulian": 3859,
      "taluhun": 3860,
      "Lakis": 3861,
      "Linmu": 3862,
      "Linalang": 3863,
      "Linmakaw": 3864,
      "kalmu": 3865,
      "tulisan": 3866,
      "turukawan": 3867,
      "pinalpasan": 3868,
      "pasnui": 3869,
      "giriukan": 3870,
      "maragang": 3871,
      "Hisibil": 3872,
      "magyapang": 3873,
      "guyudun": 3874,
      "pasturan": 3875,
      "Ikrun": 3876,
      "habig": 3877,
      "Ipisu": 3878,
      "katayungtungan": 3879,
      "Dil": 3880,
      "Dugay": 3881,
      "Hanan": 3882,
      "Ila": 3883,
      "Ihandug": 3884,
      "Idin": 3885,
      "Nabat": 3886,
      "bangan": 3887,
      "bangas": 3888,
      "isin": 3889,
      "ibilang": 3890,
      "ibuhus": 3891,
      "mili": 3892,
      "nalagpak": 3893,
      "taya": 3894,
      "uranan": 3895,
      "kaabunda": 3896,
      "kaumpu": 3897,
      "maru": 3898,
      "mahu": 3899,
      "matag": 3900,
      "mamagaw": 3901,
      "pagkagalitan": 3902,
      "magti": 3903,
      "magpana": 3904,
      "magbuul": 3905,
      "magpatagu": 3906,
      "magdumara": 3907,
      "magtuub": 3908,
      "ratag": 3909,
      "nadaut": 3910,
      "hasi": 3911,
      "disir": 3912,
      "tanud": 3913,
      "sumulud": 3914,
      "bapa": 3915,
      "lian": 3916,
      "duhan": 3917,
      "tunila": 3918,
      "nagtudlu": 3919,
      "nagtindug": 3920,
      "nagdipay": 3921,
      "nagpatlikud": 3922,
      "huwa": 3923,
      "dugma": 3924,
      "Pagpakarani": 3925,
      "Pagkuyug": 3926,
      "Naalaman": 3927,
      "Nasaydan": 3928,
      "rangun": 3929,
      "ranguhan": 3930,
      "Huwil": 3931,
      "Timpu": 3932,
      "Kapira": 3933,
      "sunda": 3934,
      "Magpan": 3935,
      "taglun": 3936,
      "manugkalisa": 3937,
      "binmu": 3938,
      "itinulbaw": 3939,
      "magkakilala": 3940,
      "pinab": 3941,
      "ipinaku": 3942,
      "hiniyaptan": 3943,
      "pagkalimti": 3944,
      "bugtangan": 3945,
      "nanpa": 3946,
      "punun": 3947,
      "talya": 3948,
      "pagpahalgaan": 3949,
      "apus": 3950,
      "nanginum": 3951,
      "maraibgun": 3952,
      "nagpakihampang": 3953,
      "pasnuan": 3954,
      "Ipinakakit": 3955,
      "Paris": 3956,
      "surundun": 3957,
      "surunugan": 3958,
      "Gihasi": 3959,
      "singgit": 3960,
      "itinagu": 3961,
      "patawada": 3962,
      "Rahab": 3963,
      "dungug": 3964,
      "Nabut": 3965,
      "kumakit": 3966,
      "kluban": 3967,
      "Tinawag": 3968,
      "Tultulan": 3969,
      "dayik": 3970,
      "bursa": 3971,
      "ranata": 3972,
      "ikadayaw": 3973,
      "winayak": 3974,
      "talakup": 3975,
      "Hadadisir": 3976,
      "itinigana": 3977,
      "pinggan": 3978,
      "Batsiba": 3979,
      "sarabihun": 3980,
      "pumigranata": 3981,
      "kaabundahan": 3982,
      "kaumputan": 3983,
      "tunilada": 3984,
      "Ada": 3985,
      "Atay": 3986,
      "Bina": 3987,
      "Gina": 3988,
      "Giri": 3989,
      "Haga": 3990,
      "Kabay": 3991,
      "Rar": 3992,
      "apinan": 3993,
      "balang": 3994,
      "tlikudan": 3995,
      "uringan": 3996,
      "ybu": 3997,
      "’,": 3998,
      "unga": 3999,
      "inunu": 4000,
      "nil": 4001,
      "sipala": 4002,
      "madalum": 4003,
      "pagluwas": 4004,
      "pagpakarani": 4005,
      "paglakawan": 4006,
      "pagbantayan": 4007,
      "pagsuguun": 4008,
      "paghingabtun": 4009,
      "pakurianan": 4010,
      "alda": 4011,
      "tapat": 4012,
      "tabul": 4013,
      "ugasan": 4014,
      "risa": 4015,
      "manunu": 4016,
      "magsintinsiya": 4017,
      "luban": 4018,
      "inuman": 4019,
      "naturug": 4020,
      "napatagu": 4021,
      "bakul": 4022,
      "liba": 4023,
      "inasawa": 4024,
      "rumi": 4025,
      "rubay": 4026,
      "gap": 4027,
      "lawud": 4028,
      "nagsumpa": 4029,
      "Paghandug": 4030,
      "Pagdayawun": 4031,
      "Dara": 4032,
      "Namaingana": 4033,
      "Isin": 4034,
      "pinatawad": 4035,
      "daniwan": 4036,
      "Simis": 4037,
      "manugmatay": 4038,
      "dungan": 4039,
      "magkauwaw": 4040,
      "ulung": 4041,
      "Nagpatindug": 4042,
      "Nagpasnu": 4043,
      "ipinahintulut": 4044,
      "pagkalusad": 4045,
      "ipabahala": 4046,
      "ikamayad": 4047,
      "ikasiyam": 4048,
      "kulay": 4049,
      "ululi": 4050,
      "Patawa": 4051,
      "takluban": 4052,
      "linug": 4053,
      "binukasan": 4054,
      "butang": 4055,
      "palpas": 4056,
      "kabagawan": 4057,
      "barayaan": 4058,
      "sinaput": 4059,
      "sinaadan": 4060,
      "mpisahan": 4061,
      "inmati": 4062,
      "pasandam": 4063,
      "malagiw": 4064,
      "Magkaalaman": 4065,
      "Magkaibug": 4066,
      "tuksu": 4067,
      "rinuris": 4068,
      "pagtakigan": 4069,
      "Gumura": 4070,
      "hilingun": 4071,
      "Dinayu": 4072,
      "pagpakarig": 4073,
      "kabanalan": 4074,
      "mugsun": 4075,
      "magtakaw": 4076,
      "linibu": 4077,
      "iwidwisik": 4078,
      "sitaay": 4079,
      "hangal": 4080,
      "sumamba": 4081,
      "Hasail": 4082,
      "Pagpakarig": 4083,
      "Hananiyas": 4084,
      "ngurub": 4085,
      "armadu": 4086,
      "Sayrus": 4087,
      "itinanum": 4088,
      "Rargu": 4089,
      "balangbang": 4090,
      "manunukut": 4091,
      "35": 4092,
      "Har": 4093,
      "Miri": 4094,
      "irang": 4095,
      "iisip": 4096,
      "iisun": 4097,
      "lagat": 4098,
      "uhun": 4099,
      "sayaw": 4100,
      "kahig": 4101,
      "inagaw": 4102,
      "sib": 4103,
      "mapakinabangan": 4104,
      "masurundun": 4105,
      "pagmatyun": 4106,
      "pagdumara": 4107,
      "yamut": 4108,
      "kusug": 4109,
      "yumamu": 4110,
      "tapil": 4111,
      "magsagut": 4112,
      "magpakakit": 4113,
      "magpakarayu": 4114,
      "wasak": 4115,
      "sumu": 4116,
      "sumagut": 4117,
      "sumitay": 4118,
      "bari": 4119,
      "pumat": 4120,
      "yisir": 4121,
      "bis": 4122,
      "bisita": 4123,
      "kip": 4124,
      "mipay": 4125,
      "nagtaratu": 4126,
      "naggayak": 4127,
      "Hir": 4128,
      "pandaniwan": 4129,
      "Huhanan": 4130,
      "makasabi": 4131,
      "makasirbi": 4132,
      "Sisari": 4133,
      "Timna": 4134,
      "guba": 4135,
      "masranguhan": 4136,
      "alayung": 4137,
      "mayadun": 4138,
      "sakupan": 4139,
      "Masulung": 4140,
      "Madala": 4141,
      "pakampi": 4142,
      "pinalibutan": 4143,
      "Nagsabi": 4144,
      "Nagsitay": 4145,
      "tugnaw": 4146,
      "nanu": 4147,
      "takyay": 4148,
      "pagpapaladan": 4149,
      "udam": 4150,
      "Binihag": 4151,
      "sirbihan": 4152,
      "pasya": 4153,
      "ingaran": 4154,
      "intindihun": 4155,
      "saruhan": 4156,
      "pamasaruhan": 4157,
      "matiniisun": 4158,
      "pilitan": 4159,
      "Ilisa": 4160,
      "malad": 4161,
      "Abigil": 4162,
      "balukas": 4163,
      "musta": 4164,
      "Simri": 4165,
      "mabuut": 4166,
      "halip": 4167,
      "Midya": 4168,
      "tatataan": 4169,
      "bawiun": 4170,
      "Pinanmatay": 4171,
      "Pirisiyu": 4172,
      "Ilinbung": 4173,
      "karinuan": 4174,
      "iringayan": 4175,
      "kahigpitan": 4176,
      "Sisariya": 4177,
      "80": 4178,
      "Aru": 4179,
      "Bati": 4180,
      "Big": 4181,
      "Ig": 4182,
      "Ita": 4183,
      "Iba": 4184,
      "Inga": 4185,
      "Susa": 4186,
      "Wasa": 4187,
      "ibun": 4188,
      "itagu": 4189,
      "iyay": 4190,
      "pugun": 4191,
      "payid": 4192,
      "uru": 4193,
      "umayad": 4194,
      "kadugu": 4195,
      "kapatawa": 4196,
      "kalimtan": 4197,
      "insina": 4198,
      "sidi": 4199,
      "maawatan": 4200,
      "maintindihan": 4201,
      "mangalaga": 4202,
      "padaran": 4203,
      "kupa": 4204,
      "kura": 4205,
      "alwan": 4206,
      "tarut": 4207,
      "maglang": 4208,
      "magalit": 4209,
      "lid": 4210,
      "pumatindug": 4211,
      "dud": 4212,
      "laun": 4213,
      "miatag": 4214,
      "nagdayaw": 4215,
      "naghagad": 4216,
      "anggana": 4217,
      "huwad": 4218,
      "Pagbangun": 4219,
      "Nahur": 4220,
      "pinasnuan": 4221,
      "pinahaklupan": 4222,
      "makainum": 4223,
      "Saray": 4224,
      "binmangun": 4225,
      "binilinan": 4226,
      "bintukun": 4227,
      "Madali": 4228,
      "Matanyas": 4229,
      "magkadugu": 4230,
      "pinika": 4231,
      "nanalu": 4232,
      "ipasakup": 4233,
      "ipalwas": 4234,
      "kulbaan": 4235,
      "irisu": 4236,
      "umuna": 4237,
      "libutan": 4238,
      "takdan": 4239,
      "marka": 4240,
      "maray": 4241,
      "pagpahintuluti": 4242,
      "ginalit": 4243,
      "Haran": 4244,
      "Hasur": 4245,
      "Sukut": 4246,
      "bungul": 4247,
      "palanggana": 4248,
      "Pinmaingana": 4249,
      "Pinabay": 4250,
      "Hihuahas": 4251,
      "Mikul": 4252,
      "pudpud": 4253,
      "magpanlumuy": 4254,
      "napaminsan": 4255,
      "aramira": 4256,
      "Ipauli": 4257,
      "dubli": 4258,
      "kurangan": 4259,
      "Asdud": 4260,
      "marigus": 4261,
      "Hisrun": 4262,
      "pamgas": 4263,
      "kabaydanan": 4264,
      "patliku": 4265,
      "pinalayas": 4266,
      "masipag": 4267,
      "inulianan": 4268,
      "maturugan": 4269,
      "mirinsanan": 4270,
      "kasunu": 4271,
      "Milkisidi": 4272,
      "Istiban": 4273,
      "Hagar": 4274,
      "Wasakun": 4275,
      "kapatawadan": 4276,
      "pinikapika": 4277,
      "Milkisidik": 4278,
      "32": 4279,
      "Aban": 4280,
      "Ip": 4281,
      "Itinu": 4282,
      "Lang": 4283,
      "Panga": 4284,
      "Payag": 4285,
      "Rinu": 4286,
      "Sili": 4287,
      "Tung": 4288,
      "Utru": 4289,
      "Ubadyas": 4290,
      "idan": 4291,
      "ibayad": 4292,
      "iyinmut": 4293,
      "layas": 4294,
      "mina": 4295,
      "ngu": 4296,
      "antigu": 4297,
      "aghas": 4298,
      "agkung": 4299,
      "samit": 4300,
      "kakitan": 4301,
      "karani": 4302,
      "kahalay": 4303,
      "kapuruan": 4304,
      "inalagaan": 4305,
      "matan": 4306,
      "madayaw": 4307,
      "maampara": 4308,
      "pagbu": 4309,
      "paglabag": 4310,
      "pakay": 4311,
      "pasulud": 4312,
      "kub": 4313,
      "magsu": 4314,
      "magmatay": 4315,
      "magluwas": 4316,
      "tupil": 4317,
      "lulagan": 4318,
      "napakarani": 4319,
      "natipun": 4320,
      "nasalman": 4321,
      "nadugangan": 4322,
      "alakaw": 4323,
      "sudan": 4324,
      "yigu": 4325,
      "kirug": 4326,
      "nagbarita": 4327,
      "nagluhud": 4328,
      "mpang": 4329,
      "Pagmasulung": 4330,
      "panlakay": 4331,
      "hampangan": 4332,
      "Isbusit": 4333,
      "makaintindi": 4334,
      "makalangu": 4335,
      "Sipu": 4336,
      "gumira": 4337,
      "masangputan": 4338,
      "magkamatay": 4339,
      "magkasurip": 4340,
      "Naglingut": 4341,
      "pagkarausa": 4342,
      "magpakihampang": 4343,
      "linabag": 4344,
      "pagpasakup": 4345,
      "duwapulu": 4346,
      "palatandaan": 4347,
      "isina": 4348,
      "marapanalu": 4349,
      "Hampay": 4350,
      "surugun": 4351,
      "bantayun": 4352,
      "pasunaid": 4353,
      "Pinapaladan": 4354,
      "tinawu": 4355,
      "ingatan": 4356,
      "pinakaababa": 4357,
      "Tubyas": 4358,
      "Tupadun": 4359,
      "nagkaimaw": 4360,
      "saktan": 4361,
      "singlaw": 4362,
      "iyar": 4363,
      "Asya": 4364,
      "malalagiwan": 4365,
      "Tarsis": 4366,
      "Nangisug": 4367,
      "Ahitupil": 4368,
      "maglabag": 4369,
      "Gubirnadur": 4370,
      "malagpak": 4371,
      "Tinapay": 4372,
      "husgadu": 4373,
      "Ilyab": 4374,
      "andaman": 4375,
      "maghirak": 4376,
      "ipinurupita": 4377,
      "manguyug": 4378,
      "magkagasa": 4379,
      "aramirawan": 4380,
      "Rinuris": 4381,
      ",’": 4382,
      "Atabug": 4383,
      "Ahim": 4384,
      "Akis": 4385,
      "Atalya": 4386,
      "Binan": 4387,
      "Isurat": 4388,
      "Kur": 4389,
      "Nuli": 4390,
      "Nim": 4391,
      "Ripa": 4392,
      "Sil": 4393,
      "Tanda": 4394,
      "Ulian": 4395,
      "banga": 4396,
      "ik": 4397,
      "isu": 4398,
      "isalup": 4399,
      "sam": 4400,
      "kasaru": 4401,
      "kabuhian": 4402,
      "kakurangan": 4403,
      "das": 4404,
      "dapa": 4405,
      "maun": 4406,
      "mauman": 4407,
      "mainum": 4408,
      "malawig": 4409,
      "pagsa": 4410,
      "pagpag": 4411,
      "pagpat": 4412,
      "pagtanggapun": 4413,
      "pagbaliwun": 4414,
      "paku": 4415,
      "pamu": 4416,
      "pakun": 4417,
      "pabali": 4418,
      "paruk": 4419,
      "yatan": 4420,
      "manhanap": 4421,
      "mandumara": 4422,
      "magdayu": 4423,
      "magluwang": 4424,
      "magbugya": 4425,
      "magkadaut": 4426,
      "naayadan": 4427,
      "hatay": 4428,
      "pudu": 4429,
      "rumig": 4430,
      "hiri": 4431,
      "mipa": 4432,
      "nagsurat": 4433,
      "nagtanggap": 4434,
      "nagringgit": 4435,
      "Pagbuwat": 4436,
      "Dautun": 4437,
      "Namu": 4438,
      "pigil": 4439,
      "Huk": 4440,
      "pinadaran": 4441,
      "Siba": 4442,
      "Timan": 4443,
      "Tipunun": 4444,
      "Kas": 4445,
      "mayas": 4446,
      "magkaarimputu": 4447,
      "unuhun": 4448,
      "panglaw": 4449,
      "punpun": 4450,
      "ikamatay": 4451,
      "sadsad": 4452,
      "katlu": 4453,
      "talag": 4454,
      "gini": 4455,
      "tigagad": 4456,
      "salamatan": 4457,
      "binul": 4458,
      "Anatut": 4459,
      "Bukud": 4460,
      "tinakaw": 4461,
      "ugaliun": 4462,
      "pinilit": 4463,
      "Amasa": 4464,
      "mabiru": 4465,
      "Miparihu": 4466,
      "pamatunug": 4467,
      "kinabangan": 4468,
      "Tuhay": 4469,
      "inirub": 4470,
      "makapadamhak": 4471,
      "saradan": 4472,
      "lumpiyuhun": 4473,
      "singkaw": 4474,
      "itinalaga": 4475,
      "tinubu": 4476,
      "tinudluan": 4477,
      "mapait": 4478,
      "tamyaw": 4479,
      "nabihag": 4480,
      "lumuwas": 4481,
      "naduraan": 4482,
      "kadugayun": 4483,
      "ritsu": 4484,
      "Kinmuyug": 4485,
      "ipagira": 4486,
      "Nibusaradan": 4487,
      "Alagai": 4488,
      "ilinusad": 4489,
      "alinlangan": 4490,
      "Siklag": 4491,
      "sipris": 4492,
      "pagsunugan": 4493,
      "Tanggapa": 4494,
      "maratyan": 4495,
      "Giriyigu": 4496,
      "nilyu": 4497,
      "Itamar": 4498,
      "maraybung": 4499,
      "Ahimilik": 4500,
      "Kurnilyu": 4501,
      "Tandai": 4502,
      "Itin": 4503,
      "Mari": 4504,
      "Sur": 4505,
      "Umri": 4506,
      "ikina": 4507,
      "idaus": 4508,
      "ipayag": 4509,
      "lpas": 4510,
      "umu": 4511,
      "ulam": 4512,
      "sasar": 4513,
      "angbitun": 4514,
      "inayaw": 4515,
      "nibantug": 4516,
      "siguradu": 4517,
      "matun": 4518,
      "mamatindug": 4519,
      "mangasawa": 4520,
      "pagtultul": 4521,
      "pagbuwata": 4522,
      "pagdaus": 4523,
      "pagdayuun": 4524,
      "yaman": 4525,
      "takigan": 4526,
      "tapayan": 4527,
      "magkay": 4528,
      "magbalik": 4529,
      "magparargu": 4530,
      "magdungug": 4531,
      "tuud": 4532,
      "buha": 4533,
      "bukud": 4534,
      "bukasan": 4535,
      "nadulaw": 4536,
      "handaan": 4537,
      "sumaka": 4538,
      "inadalan": 4539,
      "pulaw": 4540,
      "rud": 4541,
      "garya": 4542,
      "mik": 4543,
      "miribri": 4544,
      "nagpatingi": 4545,
      "nagdugsun": 4546,
      "hulan": 4547,
      "Pagbuul": 4548,
      "Pagpakarayu": 4549,
      "Pagpalpas": 4550,
      "Himan": 4551,
      "unaw": 4552,
      "pikaw": 4553,
      "pibusit": 4554,
      "Hupi": 4555,
      "pinakurianan": 4556,
      "makauli": 4557,
      "Sipan": 4558,
      "Kam": 4559,
      "manugsalumangka": 4560,
      "stus": 4561,
      "itanggi": 4562,
      "paras": 4563,
      "magkaruku": 4564,
      "magkapsa": 4565,
      "pinmaingana": 4566,
      "pinayidan": 4567,
      "mawig": 4568,
      "mpuhan": 4569,
      "mangulid": 4570,
      "pagkalawuy": 4571,
      "puni": 4572,
      "punduhan": 4573,
      "magpatutuu": 4574,
      "magpakuri": 4575,
      "nakakilala": 4576,
      "nakasul": 4577,
      "bagawun": 4578,
      "matabul": 4579,
      "linma": 4580,
      "pagpahalaga": 4581,
      "nangulid": 4582,
      "manada": 4583,
      "irkirug": 4584,
      "bangdanan": 4585,
      "kagu": 4586,
      "hampak": 4587,
      "giraha": 4588,
      "Buhi": 4589,
      "uguy": 4590,
      "Isar": 4591,
      "abasa": 4592,
      "Pinal": 4593,
      "Barak": 4594,
      "karayu": 4595,
      "Mipibusit": 4596,
      "kinalimtan": 4597,
      "magpanalu": 4598,
      "pinakamahalaga": 4599,
      "Rimun": 4600,
      "iniyaw": 4601,
      "nabul": 4602,
      "Manugtulbaw": 4603,
      "Ipadakit": 4604,
      "ilinista": 4605,
      "singsing": 4606,
      "Pagpabwat": 4607,
      "Pamadaka": 4608,
      "Marta": 4609,
      "Asahil": 4610,
      "dungugun": 4611,
      "Ahimaas": 4612,
      "Mikail": 4613,
      "litru": 4614,
      "Mangulian": 4615,
      "magbuduy": 4616,
      "uwak": 4617,
      "Usyil": 4618,
      "Ilyakim": 4619,
      "tinawagan": 4620,
      "Inawatan": 4621,
      "patalangun": 4622,
      "Sinukat": 4623,
      "binantayan": 4624,
      "Dinaut": 4625,
      "malangba": 4626,
      "sumbung": 4627,
      "Mintaras": 4628,
      "paandam": 4629,
      "Libna": 4630,
      "hagunung": 4631,
      "katanmanan": 4632,
      "ybuyahan": 4633,
      "rumibri": 4634,
      "Tungkul": 4635,
      "kahalayan": 4636,
      "23": 4637,
      "Aya": 4638,
      "Atag": 4639,
      "Giba": 4640,
      "Hali": 4641,
      "Ibir": 4642,
      "Kab": 4643,
      "Mati": 4644,
      "Nga": 4645,
      "Taw": 4646,
      "Usi": 4647,
      "Uhu": 4648,
      "Yi": 4649,
      "ami": 4650,
      "aran": 4651,
      "apin": 4652,
      "aduk": 4653,
      "iyu": 4654,
      "isulung": 4655,
      "iampu": 4656,
      "angunahan": 4657,
      "maipa": 4658,
      "masunud": 4659,
      "mamakaun": 4660,
      "madugi": 4661,
      "mapnu": 4662,
      "paglumi": 4663,
      "pagdipay": 4664,
      "pagpanalu": 4665,
      "pagtudluan": 4666,
      "ugtang": 4667,
      "muhun": 4668,
      "manu": 4669,
      "manlumi": 4670,
      "manirbi": 4671,
      "magkada": 4672,
      "magribri": 4673,
      "magpihu": 4674,
      "magsalan": 4675,
      "maghusay": 4676,
      "rapra": 4677,
      "wadan": 4678,
      "abut": 4679,
      "abagat": 4680,
      "bura": 4681,
      "buyun": 4682,
      "lusan": 4683,
      "lumawig": 4684,
      "nak": 4685,
      "naum": 4686,
      "naparargu": 4687,
      "napirisu": 4688,
      "had": 4689,
      "suud": 4690,
      "bakan": 4691,
      "lira": 4692,
      "lisud": 4693,
      "pumanguna": 4694,
      "kirum": 4695,
      "kirib": 4696,
      "miburayhaw": 4697,
      "nagkaun": 4698,
      "nagtupad": 4699,
      "nagpaniwala": 4700,
      "huway": 4701,
      "inani": 4702,
      "Pagpatindug": 4703,
      "Hira": 4704,
      "Daan": 4705,
      "pantaung": 4706,
      "Nama": 4707,
      "makaya": 4708,
      "makaatag": 4709,
      "makabangun": 4710,
      "makasaka": 4711,
      "Sibi": 4712,
      "Titu": 4713,
      "Kapir": 4714,
      "Magtawag": 4715,
      "tagka": 4716,
      "paribri": 4717,
      "Mahala": 4718,
      "Makabaya": 4719,
      "magkataranta": 4720,
      "Nagbuul": 4721,
      "ipinamatay": 4722,
      "ipinasakup": 4723,
      "ipinaslud": 4724,
      "ayuk": 4725,
      "panganga": 4726,
      "pangpang": 4727,
      "pagkaawaan": 4728,
      "magpahari": 4729,
      "kila": 4730,
      "Pakakitan": 4731,
      "pagpalagiw": 4732,
      "atagan": 4733,
      "manahun": 4734,
      "ratwan": 4735,
      "saguta": 4736,
      "irung": 4737,
      "idina": 4738,
      "Hamu": 4739,
      "tinama": 4740,
      "Manwa": 4741,
      "bakalan": 4742,
      "buruybuyahan": 4743,
      "kahuray": 4744,
      "Misa": 4745,
      "pamakul": 4746,
      "itas": 4747,
      "kinabang": 4748,
      "Pilistiya": 4749,
      "inirangan": 4750,
      "ararayu": 4751,
      "Pistu": 4752,
      "ilubus": 4753,
      "Nandarangin": 4754,
      "sinamba": 4755,
      "linuwang": 4756,
      "inmamat": 4757,
      "tlumpulu": 4758,
      "magkarausa": 4759,
      "galun": 4760,
      "pagtamyaw": 4761,
      "Sinakirib": 4762,
      "bigla": 4763,
      "pagsirbihan": 4764,
      "manugpaanyu": 4765,
      "pinuyaan": 4766,
      "pagpatingihan": 4767,
      "pumakampi": 4768,
      "Binuwat": 4769,
      "tumupad": 4770,
      "burda": 4771,
      "manipis": 4772,
      "simray": 4773,
      "Amram": 4774,
      "kuruna": 4775,
      "usisaun": 4776,
      "matibay": 4777,
      "Alagaan": 4778,
      "gardin": 4779,
      "haryan": 4780,
      "irubun": 4781,
      "Idumita": 4782,
      "Tirsa": 4783,
      "Daraha": 4784,
      "Hirmun": 4785,
      "Aruwir": 4786,
      "Itinudlu": 4787,
      "pabalikun": 4788,
      "buhawi": 4789,
      "Uhuliba": 4790,
      "raprapa": 4791,
      "Kapirnaum": 4792,
      "700": 4793,
      "Ami": 4794,
      "Apulus": 4795,
      "Adar": 4796,
      "Bug": 4797,
      "Balu": 4798,
      "Id": 4799,
      "Ir": 4800,
      "Linu": 4801,
      "Mil": 4802,
      "Mali": 4803,
      "Manganta": 4804,
      "Nalagiw": 4805,
      "Pinu": 4806,
      "Raba": 4807,
      "Yahas": 4808,
      "apasan": 4809,
      "aratwan": 4810,
      "dna": 4811,
      "iwas": 4812,
      "iparargu": 4813,
      "kagad": 4814,
      "naga": 4815,
      "rayawan": 4816,
      "aninu": 4817,
      "agdan": 4818,
      "sap": 4819,
      "sarak": 4820,
      "katag": 4821,
      "karusa": 4822,
      "kabilang": 4823,
      "ayla": 4824,
      "ayut": 4825,
      "tipuna": 4826,
      "angalan": 4827,
      "malin": 4828,
      "masakup": 4829,
      "maayadan": 4830,
      "makinabangan": 4831,
      "pagpihu": 4832,
      "pagmatya": 4833,
      "pagmayadun": 4834,
      "padara": 4835,
      "padarahan": 4836,
      "yawa": 4837,
      "alyu": 4838,
      "tasir": 4839,
      "tabunan": 4840,
      "tatlumpulu": 4841,
      "mula": 4842,
      "maggi": 4843,
      "magsugu": 4844,
      "magpurupita": 4845,
      "magtipun": 4846,
      "magtanum": 4847,
      "magsaka": 4848,
      "magriklamu": 4849,
      "tubang": 4850,
      "tumindug": 4851,
      "wasay": 4852,
      "bumagaw": 4853,
      "bumalus": 4854,
      "napili": 4855,
      "nawayak": 4856,
      "hamuy": 4857,
      "diris": 4858,
      "susu": 4859,
      "subukan": 4860,
      "bahan": 4861,
      "likud": 4862,
      "inampara": 4863,
      "pusun": 4864,
      "pumang": 4865,
      "siyahan": 4866,
      "duming": 4867,
      "kiyu": 4868,
      "las": 4869,
      "anas": 4870,
      "mim": 4871,
      "misalup": 4872,
      "akup": 4873,
      "akuri": 4874,
      "nagparargu": 4875,
      "naglabag": 4876,
      "Pagsarig": 4877,
      "Pagpakan": 4878,
      "Hipuni": 4879,
      "rantahan": 4880,
      "ransing": 4881,
      "alawdan": 4882,
      "Napakakit": 4883,
      "pig": 4884,
      "rangin": 4885,
      "Hurun": 4886,
      "pinakay": 4887,
      "pinaingarnan": 4888,
      "pinaandaman": 4889,
      "makapitu": 4890,
      "Sipat": 4891,
      "alitun": 4892,
      "manugtanman": 4893,
      "kadali": 4894,
      "awi": 4895,
      "tinalakpan": 4896,
      "paraw": 4897,
      "paraingan": 4898,
      "ulila": 4899,
      "pinlud": 4900,
      "Nagsalan": 4901,
      "ipinaabwat": 4902,
      "ipinadamhak": 4903,
      "ayus": 4904,
      "pangagad": 4905,
      "hinig": 4906,
      "pagkapanawuhun": 4907,
      "pagkalimtan": 4908,
      "aluhan": 4909,
      "magpamu": 4910,
      "magpaayad": 4911,
      "magpalibut": 4912,
      "nakapa": 4913,
      "nakatapus": 4914,
      "isikan": 4915,
      "Paulian": 4916,
      "dalukap": 4917,
      "Bani": 4918,
      "maramig": 4919,
      "Hasar": 4920,
      "hampakun": 4921,
      "ipulaw": 4922,
      "ipinabahala": 4923,
      "sulungun": 4924,
      "lista": 4925,
      "mabit": 4926,
      "Mik": 4927,
      "Takinan": 4928,
      "Ilipas": 4929,
      "Iliyisir": 4930,
      "makapahari": 4931,
      "dinmugsun": 4932,
      "ataytabug": 4933,
      "ilubung": 4934,
      "taguan": 4935,
      "mabsug": 4936,
      "Artasir": 4937,
      "ibinugtang": 4938,
      "Ahitub": 4939,
      "iinalistu": 4940,
      "tanggapa": 4941,
      "Bantayan": 4942,
      "uyang": 4943,
      "kalalawdan": 4944,
      "Sinakup": 4945,
      "bululusan": 4946,
      "Gurangun": 4947,
      "tamyawun": 4948,
      "binakul": 4949,
      "basahun": 4950,
      "pinagkatakinan": 4951,
      "Matya": 4952,
      "aburiduhan": 4953,
      "namuduy": 4954,
      "Andiris": 4955,
      "Ilyasib": 4956,
      "napnu": 4957,
      "Aminadab": 4958,
      "umput": 4959,
      "Aldaw": 4960,
      "Hagay": 4961,
      "maglibun": 4962,
      "namhan": 4963,
      "Miryam": 4964,
      "kaabaan": 4965,
      "Nagkasala": 4966,
      "turungbawan": 4967,
      "magpaywas": 4968,
      "ibinuhus": 4969,
      "Dilayla": 4970,
      "marukirum": 4971,
      "matagsing": 4972,
      "Namuduy": 4973,
      "Halimbawa": 4974,
      "Ngatay": 4975,
      "kagadhan": 4976,
      "duminggu": 4977,
      "Artasirsis": 4978,
      "17": 4979,
      "Ayaw": 4980,
      "Bus": 4981,
      "Kini": 4982,
      "Lapus": 4983,
      "Nana": 4984,
      "Rika": 4985,
      "Silis": 4986,
      "Ulibu": 4987,
      "adi": 4988,
      "apasi": 4989,
      "ipagpa": 4990,
      "ikug": 4991,
      "ikadaut": 4992,
      "irangan": 4993,
      "ksu": 4994,
      "lili": 4995,
      "payidan": 4996,
      "payamuun": 4997,
      "umang": 4998,
      "sampu": 4999,
      "kapistahan": 5000,
      "insa": 5001,
      "inagwanta": 5002,
      "inintirga": 5003,
      "nipamgas": 5004,
      "sitapu": 5005,
      "maaga": 5006,
      "mabatu": 5007,
      "mamaski": 5008,
      "mairibri": 5009,
      "mapalad": 5010,
      "matandug": 5011,
      "maigyaan": 5012,
      "mapanglaw": 5013,
      "paghagad": 5014,
      "paggiyahan": 5015,
      "pagmalahalan": 5016,
      "pamaka": 5017,
      "padang": 5018,
      "pamul": 5019,
      "yamtan": 5020,
      "kuku": 5021,
      "yumaman": 5022,
      "ugat": 5023,
      "ilbung": 5024,
      "manda": 5025,
      "manruku": 5026,
      "mandangup": 5027,
      "magpat": 5028,
      "magharampangan": 5029,
      "magbangdan": 5030,
      "tumpuk": 5031,
      "hap": 5032,
      "hani": 5033,
      "tanya": 5034,
      "alakay": 5035,
      "puk": 5036,
      "pumasnu": 5037,
      "dumaka": 5038,
      "dusiyu": 5039,
      "hirak": 5040,
      "lawan": 5041,
      "lamak": 5042,
      "Dibura": 5043,
      "tunaw": 5044,
      "mibuyu": 5045,
      "nagsulud": 5046,
      "nagtanum": 5047,
      "nagbugya": 5048,
      "nagsakay": 5049,
      "Pagpuyaan": 5050,
      "Hiyil": 5051,
      "ungyaw": 5052,
      "pansin": 5053,
      "panlumpiyu": 5054,
      "unat": 5055,
      "Nas": 5056,
      "Nadugay": 5057,
      "Nakabaya": 5058,
      "Nasakupan": 5059,
      "pid": 5060,
      "piya": 5061,
      "pirigsan": 5062,
      "rangga": 5063,
      "Huwa": 5064,
      "abihag": 5065,
      "udan": 5066,
      "pinarig": 5067,
      "pinatlikudan": 5068,
      "makahandug": 5069,
      "makaagwanta": 5070,
      "makapatagu": 5071,
      "Siyba": 5072,
      "Tira": 5073,
      "Samba": 5074,
      "Sadusiyu": 5075,
      "manugtultul": 5076,
      "atihan": 5077,
      "ulitun": 5078,
      "sugdung": 5079,
      "sinsus": 5080,
      "paris": 5081,
      "Madunung": 5082,
      "magkaawa": 5083,
      "magkasawad": 5084,
      "unutan": 5085,
      "unutun": 5086,
      "ipinaasawa": 5087,
      "ipinasandam": 5088,
      "nanringgit": 5089,
      "Muluk": 5090,
      "ipas": 5091,
      "ipaababa": 5092,
      "magpalabaw": 5093,
      "munpun": 5094,
      "Indaay": 5095,
      "nakadipay": 5096,
      "Pasur": 5097,
      "matabu": 5098,
      "pagpatunug": 5099,
      "mintaras": 5100,
      "amak": 5101,
      "patindugan": 5102,
      "ginisi": 5103,
      "igalang": 5104,
      "nagpasya": 5105,
      "Pinarusahan": 5106,
      "Pinahintulutan": 5107,
      "layung": 5108,
      "tinatatataan": 5109,
      "ingat": 5110,
      "maluang": 5111,
      "rayan": 5112,
      "Ipinadara": 5113,
      "Bara": 5114,
      "intinsiyahan": 5115,
      "ugalian": 5116,
      "umal": 5117,
      "karunutan": 5118,
      "pugad": 5119,
      "dayawa": 5120,
      "pinakaarayu": 5121,
      "napadapa": 5122,
      "Bitanya": 5123,
      "tawagun": 5124,
      "dinayaw": 5125,
      "Nagpauli": 5126,
      "Nagpadara": 5127,
      "Isipun": 5128,
      "pinanalu": 5129,
      "Lumpiyu": 5130,
      "120": 5131,
      "Astarut": 5132,
      "balulang": 5133,
      "nangasawa": 5134,
      "Tinmukaw": 5135,
      "nabuwat": 5136,
      "Arba": 5137,
      "mapatutuuhanan": 5138,
      "iintirga": 5139,
      "Arauna": 5140,
      "Pihuun": 5141,
      "Gusin": 5142,
      "ampud": 5143,
      "ragang": 5144,
      "mamadara": 5145,
      "snui": 5146,
      "mamurak": 5147,
      "pagsubuk": 5148,
      "namuangan": 5149,
      "blusan": 5150,
      "Inuk": 5151,
      "Sunugun": 5152,
      "Dura": 5153,
      "tiwalaan": 5154,
      "ipinurya": 5155,
      "puldun": 5156,
      "Nagkaramatay": 5157,
      "mapininsa": 5158,
      "bliwa": 5159,
      "magpangabudlay": 5160,
      "mahuwayan": 5161,
      "aldawan": 5162,
      "ululidan": 5163,
      "Patawada": 5164,
      "pumatlikud": 5165,
      "Ilisama": 5166,
      "talaghusay": 5167,
      "aranyun": 5168,
      "pangangailangan": 5169,
      "sarakyan": 5170,
      "Sipatyas": 5171,
      "pamakaransing": 5172,
      "45": 5173,
      "Akan": 5174,
      "Adu": 5175,
      "Akaya": 5176,
      "Dur": 5177,
      "Dagun": 5178,
      "Hinum": 5179,
      "Ibin": 5180,
      "Kilala": 5181,
      "Lati": 5182,
      "Mab": 5183,
      "Mangay": 5184,
      "Par": 5185,
      "Taga": 5186,
      "Tama": 5187,
      "aka": 5188,
      "asup": 5189,
      "dyukan": 5190,
      "iminsan": 5191,
      "isumpa": 5192,
      "ipatalu": 5193,
      "ipayid": 5194,
      "layi": 5195,
      "nangay": 5196,
      "nalayung": 5197,
      "nabasa": 5198,
      "rkan": 5199,
      "stigus": 5200,
      "uyas": 5201,
      "aguman": 5202,
      "sawan": 5203,
      "kari": 5204,
      "kabu": 5205,
      "kabil": 5206,
      "kababayi": 5207,
      "kaaburiduhan": 5208,
      "damay": 5209,
      "damul": 5210,
      "sila": 5211,
      "silay": 5212,
      "siguru": 5213,
      "masakit": 5214,
      "mabawi": 5215,
      "maariwaya": 5216,
      "paglu": 5217,
      "pagsabi": 5218,
      "pagsitay": 5219,
      "pagtarabahu": 5220,
      "pagsabiha": 5221,
      "pagparig": 5222,
      "paglapastangan": 5223,
      "pagbugyahan": 5224,
      "pagguyudun": 5225,
      "paung": 5226,
      "padan": 5227,
      "padalaun": 5228,
      "kumut": 5229,
      "ripa": 5230,
      "ritan": 5231,
      "mantay": 5232,
      "manbayad": 5233,
      "magpili": 5234,
      "maghug": 5235,
      "tumang": 5236,
      "tumukaw": 5237,
      "bumayad": 5238,
      "butung": 5239,
      "bukas": 5240,
      "inumpisahan": 5241,
      "nadugay": 5242,
      "natandug": 5243,
      "diritsu": 5244,
      "batas": 5245,
      "yim": 5246,
      "dutun": 5247,
      "himalad": 5248,
      "miparihu": 5249,
      "nagriklamu": 5250,
      "huma": 5251,
      "humu": 5252,
      "huyup": 5253,
      "Hidaya": 5254,
      "Hitru": 5255,
      "Hidutun": 5256,
      "panan": 5257,
      "panag": 5258,
      "pansirang": 5259,
      "ranginan": 5260,
      "Hul": 5261,
      "pinatabul": 5262,
      "makaras": 5263,
      "makadipay": 5264,
      "makaigpil": 5265,
      "Tipuna": 5266,
      "aliwanag": 5267,
      "gubir": 5268,
      "Sampulu": 5269,
      "Magda": 5270,
      "Magpasalamat": 5271,
      "manugpatingi": 5272,
      "sinang": 5273,
      "ting": 5274,
      "tinab": 5275,
      "paraharyan": 5276,
      "Mahana": 5277,
      "magkab": 5278,
      "magkasangputan": 5279,
      "salun": 5280,
      "Nagsirbi": 5281,
      "Nagbalik": 5282,
      "Nagparargu": 5283,
      "Nagkuyug": 5284,
      "aluwas": 5285,
      "matayak": 5286,
      "sisyun": 5287,
      "Agripa": 5288,
      "magpamgas": 5289,
      "nakaribri": 5290,
      "nakaintindi": 5291,
      "Pauli": 5292,
      "Paingan": 5293,
      "uminum": 5294,
      "maraga": 5295,
      "daluk": 5296,
      "hayin": 5297,
      "ginitas": 5298,
      "pangadwa": 5299,
      "Hasir": 5300,
      "Hair": 5301,
      "Libya": 5302,
      "labay": 5303,
      "Ipinadaut": 5304,
      "pirma": 5305,
      "Pinalibutan": 5306,
      "irinman": 5307,
      "sangputun": 5308,
      "inggit": 5309,
      "kinabu": 5310,
      "Gisir": 5311,
      "Hirimut": 5312,
      "napatutuuhanan": 5313,
      "napablag": 5314,
      "arasawan": 5315,
      "Pitu": 5316,
      "Piyur": 5317,
      "kinaawaan": 5318,
      "magbayad": 5319,
      "maldan": 5320,
      "Tinalu": 5321,
      "pagsambahan": 5322,
      "maliksi": 5323,
      "klahan": 5324,
      "pagtadlung": 5325,
      "kalpas": 5326,
      "tangda": 5327,
      "ginapus": 5328,
      "sunuga": 5329,
      "magpanganak": 5330,
      "ragdag": 5331,
      "hurayun": 5332,
      "Matinupadun": 5333,
      "ighita": 5334,
      "tandugun": 5335,
      "suldun": 5336,
      "sulangun": 5337,
      "idwisikan": 5338,
      "Sundun": 5339,
      "hangadun": 5340,
      "Barsilay": 5341,
      "nanaratu": 5342,
      "Mabuhi": 5343,
      "kinup": 5344,
      "Kalaban": 5345,
      "Girar": 5346,
      "magduag": 5347,
      "panukat": 5348,
      "Iglun": 5349,
      "patlikudan": 5350,
      "nguy": 5351,
      "giniyahan": 5352,
      "Sipanyas": 5353,
      "Yiil": 5354,
      "Silisya": 5355,
      "mapininsarun": 5356,
      "asupri": 5357,
      "kabilyanan": 5358,
      "kababayihan": 5359,
      "gubirnu": 5360,
      "Mahanaim": 5361,
      "Bila": 5362,
      "Dag": 5363,
      "Dug": 5364,
      "Gug": 5365,
      "Hina": 5366,
      "Hati": 5367,
      "Hanun": 5368,
      "Ihud": 5369,
      "Kaya": 5370,
      "Kila": 5371,
      "Kid": 5372,
      "Lina": 5373,
      "Lis": 5374,
      "Luma": 5375,
      "Linma": 5376,
      "Mala": 5377,
      "Mina": 5378,
      "Pabisug": 5379,
      "Payamuun": 5380,
      "Sug": 5381,
      "ikin": 5382,
      "mhan": 5383,
      "”,": 5384,
      "agum": 5385,
      "kalumu": 5386,
      "induwa": 5387,
      "intuk": 5388,
      "niabay": 5389,
      "angaw": 5390,
      "makurian": 5391,
      "maagwanta": 5392,
      "maalaala": 5393,
      "pagharian": 5394,
      "pagbili": 5395,
      "pagmatutum": 5396,
      "pagbungsud": 5397,
      "pagtindugan": 5398,
      "paghampangan": 5399,
      "paibahan": 5400,
      "pakurian": 5401,
      "palus": 5402,
      "padakit": 5403,
      "pabisugun": 5404,
      "kuru": 5405,
      "kula": 5406,
      "alsa": 5407,
      "tahi": 5408,
      "taim": 5409,
      "ilagpak": 5410,
      "mumun": 5411,
      "manribri": 5412,
      "manumpa": 5413,
      "magtaratu": 5414,
      "magpatindug": 5415,
      "magpangulu": 5416,
      "magringgit": 5417,
      "magrayaw": 5418,
      "maggamit": 5419,
      "magdasun": 5420,
      "magyamu": 5421,
      "maghuruyawan": 5422,
      "magtanud": 5423,
      "maghuwad": 5424,
      "tula": 5425,
      "tupung": 5426,
      "waw": 5427,
      "busug": 5428,
      "naala": 5429,
      "nasabi": 5430,
      "naawa": 5431,
      "naisip": 5432,
      "nasakit": 5433,
      "nasulang": 5434,
      "natakdan": 5435,
      "diru": 5436,
      "diyas": 5437,
      "disisyun": 5438,
      "ayada": 5439,
      "alamun": 5440,
      "suwa": 5441,
      "listu": 5442,
      "libak": 5443,
      "liryu": 5444,
      "inarkan": 5445,
      "puti": 5446,
      "gapusun": 5447,
      "kipan": 5448,
      "hid": 5449,
      "himaldan": 5450,
      "indaay": 5451,
      "miya": 5452,
      "miminsan": 5453,
      "akuun": 5454,
      "gidu": 5455,
      "hilig": 5456,
      "nagpat": 5457,
      "nagbag": 5458,
      "nagpakakit": 5459,
      "nagbangun": 5460,
      "nagtukad": 5461,
      "husan": 5462,
      "huput": 5463,
      "inanan": 5464,
      "Pagdarangin": 5465,
      "Pagbantayan": 5466,
      "Naagaw": 5467,
      "pinas": 5468,
      "pinadarahan": 5469,
      "pinahalgaan": 5470,
      "makarani": 5471,
      "Sit": 5472,
      "Siti": 5473,
      "alibut": 5474,
      "gumalang": 5475,
      "sabit": 5476,
      "aritus": 5477,
      "masan": 5478,
      "mastigus": 5479,
      "binang": 5480,
      "sinmunud": 5481,
      "itina": 5482,
      "italaga": 5483,
      "Matupad": 5484,
      "Makapangyarihan": 5485,
      "Mamuwat": 5486,
      "magkastigus": 5487,
      "ruguun": 5488,
      "salil": 5489,
      "Nagtaratu": 5490,
      "mangisug": 5491,
      "hinagkung": 5492,
      "ilanganun": 5493,
      "pungan": 5494,
      "Musi": 5495,
      "ipaku": 5496,
      "ipasabi": 5497,
      "ipaalaala": 5498,
      "ipaamut": 5499,
      "magpakay": 5500,
      "magpadara": 5501,
      "magpapalad": 5502,
      "magpalwas": 5503,
      "magpalabi": 5504,
      "kiluhan": 5505,
      "matarung": 5506,
      "alangu": 5507,
      "maryas": 5508,
      "linun": 5509,
      "linlangan": 5510,
      "linakawan": 5511,
      "gininanan": 5512,
      "palaw": 5513,
      "tabugun": 5514,
      "manarabahu": 5515,
      "mpihan": 5516,
      "Abinadab": 5517,
      "lunan": 5518,
      "nagpahari": 5519,
      "nagpaayad": 5520,
      "nagpasalamat": 5521,
      "nagpakumbaba": 5522,
      "pasrangu": 5523,
      "alagai": 5524,
      "Suruguun": 5525,
      "binutung": 5526,
      "Buu": 5527,
      "malulunan": 5528,
      "Ipinahintulut": 5529,
      "umawat": 5530,
      "umatubang": 5531,
      "duraan": 5532,
      "surunugun": 5533,
      "kalap": 5534,
      "kalat": 5535,
      "kalawuy": 5536,
      "kalakal": 5537,
      "kadungan": 5538,
      "magpanruku": 5539,
      "magpanrukuan": 5540,
      "anitan": 5541,
      "anihun": 5542,
      "luksu": 5543,
      "Ilisabit": 5544,
      "butlak": 5545,
      "dinug": 5546,
      "Nagpakihampang": 5547,
      "panguluhan": 5548,
      "Isip": 5549,
      "Hiruham": 5550,
      "balyu": 5551,
      "Puti": 5552,
      "asahan": 5553,
      "higtan": 5554,
      "itinung": 5555,
      "Askalun": 5556,
      "Markus": 5557,
      "panaluhun": 5558,
      "turiun": 5559,
      "Nabuhi": 5560,
      "madakup": 5561,
      "gawun": 5562,
      "alaghut": 5563,
      "pauliun": 5564,
      "Binukasan": 5565,
      "Natanyil": 5566,
      "Makadululaw": 5567,
      "sampakan": 5568,
      "napayuk": 5569,
      "masilaw": 5570,
      "tubangan": 5571,
      "bumulus": 5572,
      "hingabut": 5573,
      "Ginminan": 5574,
      "halintang": 5575,
      "Salmun": 5576,
      "luwak": 5577,
      "Sikri": 5578,
      "aliwliw": 5579,
      "turungun": 5580,
      "tinmubu": 5581,
      "huwada": 5582,
      "bakulun": 5583,
      "Isinagda": 5584,
      "Iprun": 5585,
      "Silim": 5586,
      "Hamur": 5587,
      "Kiniyu": 5588,
      "Barabas": 5589,
      "karitun": 5590,
      "maghugut": 5591,
      "tumanggap": 5592,
      "Magdalina": 5593,
      "kinabuhi": 5594,
      "kalumuyan": 5595,
      "21": 5596,
      "Amarya": 5597,
      "Asur": 5598,
      "Bali": 5599,
      "Batu": 5600,
      "Ilim": 5601,
      "Isir": 5602,
      "Kus": 5603,
      "Pur": 5604,
      "Pilik": 5605,
      "Saba": 5606,
      "Tud": 5607,
      "Tulu": 5608,
      "Tudlu": 5609,
      "Win": 5610,
      "aha": 5611,
      "apasun": 5612,
      "bunda": 5613,
      "iti": 5614,
      "idun": 5615,
      "impi": 5616,
      "iram": 5617,
      "ibungsud": 5618,
      "kdan": 5619,
      "payu": 5620,
      "rni": 5621,
      "rnu": 5622,
      "usu": 5623,
      "umagaw": 5624,
      "anting": 5625,
      "agan": 5626,
      "agalitan": 5627,
      "sapi": 5628,
      "kapa": 5629,
      "kadwa": 5630,
      "katiwala": 5631,
      "untun": 5632,
      "inm": 5633,
      "inala": 5634,
      "inmuna": 5635,
      "dauta": 5636,
      "ayin": 5637,
      "tiripnan": 5638,
      "niburayhaw": 5639,
      "maba": 5640,
      "mabul": 5641,
      "maingay": 5642,
      "pagan": 5643,
      "pagpata": 5644,
      "pagtudlu": 5645,
      "paghuyaw": 5646,
      "pagsabihan": 5647,
      "paghiyaptan": 5648,
      "pagpuya": 5649,
      "pagbangdanan": 5650,
      "pasakup": 5651,
      "patutuuhanan": 5652,
      "kumang": 5653,
      "kumastigus": 5654,
      "alman": 5655,
      "tamaan": 5656,
      "tarat": 5657,
      "ilini": 5658,
      "mulum": 5659,
      "manhampang": 5660,
      "manrukuan": 5661,
      "manringgit": 5662,
      "magsi": 5663,
      "maglu": 5664,
      "magpara": 5665,
      "magkag": 5666,
      "magsurat": 5667,
      "magsulung": 5668,
      "magpatlikud": 5669,
      "magbarayaan": 5670,
      "magsinglaw": 5671,
      "tumul": 5672,
      "wak": 5673,
      "abala": 5674,
      "kayan": 5675,
      "buka": 5676,
      "bukaw": 5677,
      "bumangun": 5678,
      "inublusan": 5679,
      "nasa": 5680,
      "napata": 5681,
      "napakampi": 5682,
      "hanag": 5683,
      "tayun": 5684,
      "subuk": 5685,
      "limut": 5686,
      "rurisa": 5687,
      "mayid": 5688,
      "garis": 5689,
      "dumipay": 5690,
      "kiri": 5691,
      "Didan": 5692,
      "Dibir": 5693,
      "tunugun": 5694,
      "mitultul": 5695,
      "nagba": 5696,
      "naggira": 5697,
      "nagdarangin": 5698,
      "naghanap": 5699,
      "nagtubu": 5700,
      "nagharampangan": 5701,
      "nagyamu": 5702,
      "dugsak": 5703,
      "mpit": 5704,
      "Pagtupadun": 5705,
      "Pagsuguun": 5706,
      "panhigut": 5707,
      "Nakilala": 5708,
      "Natapus": 5709,
      "Nadulaw": 5710,
      "Nakaras": 5711,
      "Hubab": 5712,
      "Husay": 5713,
      "Iska": 5714,
      "pinakurian": 5715,
      "makaasawa": 5716,
      "makapihu": 5717,
      "makakalpas": 5718,
      "Sima": 5719,
      "Sibu": 5720,
      "utbaw": 5721,
      "Tida": 5722,
      "Kaipas": 5723,
      "binag": 5724,
      "sinungyaw": 5725,
      "pararihu": 5726,
      "Mak": 5727,
      "Matindugan": 5728,
      "Mamri": 5729,
      "pakababa": 5730,
      "magkalag": 5731,
      "magkauman": 5732,
      "magkaintindihan": 5733,
      "pinalagiw": 5734,
      "pinirisu": 5735,
      "Nagsarig": 5736,
      "mangayaw": 5737,
      "ipinapirisu": 5738,
      "panghas": 5739,
      "hini": 5740,
      "alus": 5741,
      "nandara": 5742,
      "nanagin": 5743,
      "nansagda": 5744,
      "ipalakaw": 5745,
      "ipablag": 5746,
      "ikarig": 5747,
      "magpas": 5748,
      "magpaminsan": 5749,
      "magpatigagad": 5750,
      "rintu": 5751,
      "Sinmunud": 5752,
      "nakasulung": 5753,
      "balikan": 5754,
      "Padarahan": 5755,
      "pagpas": 5756,
      "pagpakurianan": 5757,
      "buuk": 5758,
      "igya": 5759,
      "igilun": 5760,
      "marabisug": 5761,
      "idini": 5762,
      "tudlui": 5763,
      "magtalaluhan": 5764,
      "salamati": 5765,
      "Hail": 5766,
      "Hasub": 5767,
      "ayawi": 5768,
      "Libu": 5769,
      "lantag": 5770,
      "mpak": 5771,
      "paslud": 5772,
      "Sura": 5773,
      "Suba": 5774,
      "Bumalik": 5775,
      "pitumpulu": 5776,
      "bungsudan": 5777,
      "abuk": 5778,
      "ipinalakaw": 5779,
      "umanun": 5780,
      "umabunda": 5781,
      "baliwahan": 5782,
      "karga": 5783,
      "kardiru": 5784,
      "Miyun": 5785,
      "Gamitun": 5786,
      "pararguhan": 5787,
      "Risin": 5788,
      "Nitupa": 5789,
      "Turu": 5790,
      "Tumas": 5791,
      "pumatutuu": 5792,
      "aratubangan": 5793,
      "Bisalil": 5794,
      "dinaya": 5795,
      "Ruwil": 5796,
      "nagkaanak": 5797,
      "Abihu": 5798,
      "Abiram": 5799,
      "balat": 5800,
      "dalit": 5801,
      "kadilikadu": 5802,
      "balun": 5803,
      "baklay": 5804,
      "linumpiyu": 5805,
      "Hunadab": 5806,
      "kutkut": 5807,
      "tinulak": 5808,
      "Iprata": 5809,
      "Tinaban": 5810,
      "nabukasan": 5811,
      "klad": 5812,
      "kladan": 5813,
      "Ahikam": 5814,
      "Arabya": 5815,
      "nagkaradaut": 5816,
      "sinuratan": 5817,
      "sinubukan": 5818,
      "sakahan": 5819,
      "Ipinalwas": 5820,
      "Bilha": 5821,
      "manugpatigayun": 5822,
      "Rihub": 5823,
      "mairub": 5824,
      "Kadautan": 5825,
      "Sabdi": 5826,
      "namululagan": 5827,
      "pinalalagiw": 5828,
      "tumubu": 5829,
      "upahan": 5830,
      "timbang": 5831,
      "timbangan": 5832,
      "kurkuru": 5833,
      "Nasariyu": 5834,
      "tabuhun": 5835,
      "pagpanmatay": 5836,
      "mirinsan": 5837,
      "paglabagun": 5838,
      "Tabur": 5839,
      "magpayabang": 5840,
      "tinmukad": 5841,
      "tayaki": 5842,
      "Adayas": 5843,
      "Ginamit": 5844,
      "Pangaawa": 5845,
      "Binantayan": 5846,
      "Sibidiyu": 5847,
      "Nashun": 5848,
      "umalwan": 5849,
      "Duraun": 5850,
      "kabuyatan": 5851,
      "pananum": 5852,
      "Kidrun": 5853,
      "Tudluan": 5854,
      "Tudlui": 5855,
      "impirnu": 5856,
      "sapiru": 5857,
      "kadilikaduhan": 5858,
      ");": 5859,
      "28": 5860,
      "37": 5861,
      "52": 5862,
      "Awatan": 5863,
      "Bayadan": 5864,
      "Dinu": 5865,
      "Hug": 5866,
      "Hil": 5867,
      "Ira": 5868,
      "Itudlu": 5869,
      "Ialistu": 5870,
      "Misi": 5871,
      "Mig": 5872,
      "Puun": 5873,
      "Tal": 5874,
      "Tul": 5875,
      "Uni": 5876,
      "bngan": 5877,
      "bayi": 5878,
      "drak": 5879,
      "imun": 5880,
      "ibilin": 5881,
      "itulbaw": 5882,
      "ks": 5883,
      "ktan": 5884,
      "lagad": 5885,
      "nalimtan": 5886,
      "pnan": 5887,
      "rina": 5888,
      "rbi": 5889,
      "umasan": 5890,
      "wal": 5891,
      "sakan": 5892,
      "kadahil": 5893,
      "kadaga": 5894,
      "insan": 5895,
      "inmighit": 5896,
      "tip": 5897,
      "nipa": 5898,
      "sibut": 5899,
      "mahan": 5900,
      "maalagaan": 5901,
      "madulaw": 5902,
      "mapatawad": 5903,
      "mabugtangan": 5904,
      "pagti": 5905,
      "paggi": 5906,
      "pagkada": 5907,
      "paghin": 5908,
      "pagtindug": 5909,
      "pagdaran": 5910,
      "pagmasulung": 5911,
      "pagdarahun": 5912,
      "pagringgit": 5913,
      "pagtukaw": 5914,
      "pagdautun": 5915,
      "pagnigusyu": 5916,
      "pagpaniwalaan": 5917,
      "paglagsun": 5918,
      "paghilingun": 5919,
      "paghangadun": 5920,
      "paki": 5921,
      "pabaya": 5922,
      "patungud": 5923,
      "pasulungun": 5924,
      "papanaluhun": 5925,
      "pamayid": 5926,
      "kuyun": 5927,
      "yud": 5928,
      "tadan": 5929,
      "tasun": 5930,
      "rid": 5931,
      "mandaya": 5932,
      "manlubung": 5933,
      "maglangu": 5934,
      "magdahan": 5935,
      "magrit": 5936,
      "magsabang": 5937,
      "maghagunung": 5938,
      "maghingabut": 5939,
      "tuyan": 5940,
      "tudir": 5941,
      "tubuan": 5942,
      "rahan": 5943,
      "wasi": 5944,
      "butun": 5945,
      "lutu": 5946,
      "inudyukan": 5947,
      "naras": 5948,
      "naaburidu": 5949,
      "namadara": 5950,
      "nadakup": 5951,
      "natabu": 5952,
      "namalalagiwan": 5953,
      "hawa": 5954,
      "hawud": 5955,
      "tanuman": 5956,
      "supa": 5957,
      "sumin": 5958,
      "badan": 5959,
      "batang": 5960,
      "pur": 5961,
      "pulak": 5962,
      "purga": 5963,
      "agadan": 5964,
      "rumayaw": 5965,
      "mayang": 5966,
      "mayik": 5967,
      "duru": 5968,
      "kisu": 5969,
      "hirian": 5970,
      "Diit": 5971,
      "Dibun": 5972,
      "nagti": 5973,
      "nagbihag": 5974,
      "nagpakarayu": 5975,
      "nagsunug": 5976,
      "Pagluwas": 5977,
      "Pagpirmi": 5978,
      "Hipir": 5979,
      "ungug": 5980,
      "Datan": 5981,
      "pansulud": 5982,
      "panhirian": 5983,
      "nidamhak": 5984,
      "bantuyan": 5985,
      "Natalu": 5986,
      "Nahas": 5987,
      "pik": 5988,
      "piun": 5989,
      "pisus": 5990,
      "pihad": 5991,
      "usad": 5992,
      "makalaban": 5993,
      "makakilala": 5994,
      "makasalum": 5995,
      "makatukaw": 5996,
      "Sikanya": 5997,
      "Tisalun": 5998,
      "guhit": 5999,
      "Sama": 6000,
      "Magpakaun": 6001,
      "manugdaya": 6002,
      "manugbulung": 6003,
      "handugan": 6004,
      "sintu": 6005,
      "tinabu": 6006,
      "Pagkayamu": 6007,
      "itlug": 6008,
      "Masa": 6009,
      "Matu": 6010,
      "Madnugan": 6011,
      "Masarigan": 6012,
      "magkak": 6013,
      "magkaisug": 6014,
      "magkarubay": 6015,
      "pinanga": 6016,
      "Naglaban": 6017,
      "mangagwanta": 6018,
      "duyan": 6019,
      "ipinadaut": 6020,
      "ipinatupad": 6021,
      "ipinasaman": 6022,
      "pagkamatadlung": 6023,
      "pagkamatinupadun": 6024,
      "pagkamakamaskihan": 6025,
      "nanruku": 6026,
      "nanlulumian": 6027,
      "sawadan": 6028,
      "ipaasawa": 6029,
      "ipaingana": 6030,
      "magpaki": 6031,
      "magpausa": 6032,
      "magparusa": 6033,
      "magpaliwanag": 6034,
      "magpasya": 6035,
      "Sinmulud": 6036,
      "Pat": 6037,
      "Paran": 6038,
      "Padan": 6039,
      "Paighitun": 6040,
      "Pasalamati": 6041,
      "matahan": 6042,
      "matabunan": 6043,
      "matakdan": 6044,
      "pagpakuri": 6045,
      "pagpahintulutan": 6046,
      "pagpahiwat": 6047,
      "ilat": 6048,
      "kaganitan": 6049,
      "tigbagaw": 6050,
      "nagpabuwat": 6051,
      "Hapit": 6052,
      "Kantahan": 6053,
      "panakitun": 6054,
      "lantap": 6055,
      "Pinaka": 6056,
      "Pinatawad": 6057,
      "Suwa": 6058,
      "labdab": 6059,
      "buntuk": 6060,
      "buntukan": 6061,
      "tinarikada": 6062,
      "tinamyaw": 6063,
      "paksad": 6064,
      "ipinal": 6065,
      "ipiniyar": 6066,
      "buslut": 6067,
      "Baana": 6068,
      "wagan": 6069,
      "umampu": 6070,
      "umalinlangan": 6071,
      "Migidu": 6072,
      "dunungin": 6073,
      "Ilyil": 6074,
      "pugdak": 6075,
      "Gaal": 6076,
      "Gamita": 6077,
      "magpanlubay": 6078,
      "Rimal": 6079,
      "Ilihu": 6080,
      "makapasakup": 6081,
      "nabunut": 6082,
      "tandai": 6083,
      "Bitwil": 6084,
      "sinawadan": 6085,
      "lumpiyuha": 6086,
      "bals": 6087,
      "pinanbuul": 6088,
      "Asri": 6089,
      "tabana": 6090,
      "galingan": 6091,
      "Kurintu": 6092,
      "Rapa": 6093,
      "kasipagan": 6094,
      "riyuti": 6095,
      "rinuan": 6096,
      "panaluhan": 6097,
      "lapwas": 6098,
      "Simya": 6099,
      "Arpaksad": 6100,
      "pagtam": 6101,
      "mabukasan": 6102,
      "Lais": 6103,
      "sinukat": 6104,
      "binati": 6105,
      "maimatahan": 6106,
      "atubangun": 6107,
      "Sanbalat": 6108,
      "pagsubukan": 6109,
      "Kidar": 6110,
      "paulii": 6111,
      "Silumit": 6112,
      "Silupihad": 6113,
      "Birya": 6114,
      "naplid": 6115,
      "Kinalimtan": 6116,
      "mamili": 6117,
      "simbals": 6118,
      "Kinaaldawan": 6119,
      "Sinubukan": 6120,
      "tiklang": 6121,
      "minggit": 6122,
      "puldan": 6123,
      "uniks": 6124,
      "garalangun": 6125,
      "Sakur": 6126,
      "Sakupun": 6127,
      "mapinigilun": 6128,
      "pagtukuyun": 6129,
      "isinukad": 6130,
      "Aksa": 6131,
      "Tinudluan": 6132,
      "Basti": 6133,
      "umirub": 6134,
      "mahawag": 6135,
      "suktun": 6136,
      "Sipru": 6137,
      "Malkiyas": 6138,
      "binmulus": 6139,
      "Miriba": 6140,
      "irangi": 6141,
      "Ingarnan": 6142,
      "urupiun": 6143,
      "kurarug": 6144,
      "maglanguy": 6145,
      "umumpisa": 6146,
      "idinarangin": 6147,
      "Milka": 6148,
      "Mikmas": 6149,
      "Rikab": 6150,
      "Adulam": 6151,
      "palawta": 6152,
      "Winayak": 6153,
      "Iskariyuti": 6154,
      "kadahilanan": 6155,
      "pagkadamhak": 6156,
      "sumintinsiya": 6157,
      "purgada": 6158,
      "Sikanyas": 6159,
      "Tisalunika": 6160,
      "Rimalya": 6161,
      "27": 6162,
      "42": 6163,
      "Aba": 6164,
      "Asar": 6165,
      "Apasi": 6166,
      "Akila": 6167,
      "Guba": 6168,
      "Itan": 6169,
      "Iniya": 6170,
      "Imir": 6171,
      "Idaus": 6172,
      "Lini": 6173,
      "Misik": 6174,
      "Makuri": 6175,
      "Nalimtan": 6176,
      "Pun": 6177,
      "Palagiw": 6178,
      "Sala": 6179,
      "Sali": 6180,
      "Upir": 6181,
      "ahin": 6182,
      "aday": 6183,
      "dya": 6184,
      "gunaw": 6185,
      "hinul": 6186,
      "ianak": 6187,
      "isabi": 6188,
      "iadal": 6189,
      "isaw": 6190,
      "lya": 6191,
      "mdam": 6192,
      "mbuuk": 6193,
      "paya": 6194,
      "runutun": 6195,
      "suna": 6196,
      "tni": 6197,
      "tinda": 6198,
      "widwisik": 6199,
      "anyamu": 6200,
      "saya": 6201,
      "sapat": 6202,
      "angbu": 6203,
      "kawa": 6204,
      "karig": 6205,
      "kapanaluhan": 6206,
      "ungaan": 6207,
      "inilisan": 6208,
      "inalsa": 6209,
      "tisasar": 6210,
      "nia": 6211,
      "nimata": 6212,
      "sipag": 6213,
      "sikasu": 6214,
      "maagaw": 6215,
      "mapakan": 6216,
      "makaga": 6217,
      "maipakakit": 6218,
      "maayus": 6219,
      "mataguan": 6220,
      "mangatag": 6221,
      "pagtaratu": 6222,
      "paggirahun": 6223,
      "pagsaadan": 6224,
      "paglagas": 6225,
      "pagbati": 6226,
      "pagmuransa": 6227,
      "pagpanguragin": 6228,
      "pagdayaun": 6229,
      "pagsurugun": 6230,
      "pagbasahun": 6231,
      "pahari": 6232,
      "patuk": 6233,
      "pahintulut": 6234,
      "paling": 6235,
      "patukad": 6236,
      "pahintuluti": 6237,
      "alil": 6238,
      "alalay": 6239,
      "aling": 6240,
      "yut": 6241,
      "tat": 6242,
      "taban": 6243,
      "tabun": 6244,
      "ugsung": 6245,
      "ilan": 6246,
      "muuk": 6247,
      "mandayaw": 6248,
      "mandipay": 6249,
      "manultul": 6250,
      "manhandum": 6251,
      "magtu": 6252,
      "magha": 6253,
      "magginan": 6254,
      "magdaut": 6255,
      "magbul": 6256,
      "magsurug": 6257,
      "magdugay": 6258,
      "magtulbaw": 6259,
      "magtukad": 6260,
      "maglapastangan": 6261,
      "maggiya": 6262,
      "magdugang": 6263,
      "magmuransa": 6264,
      "rawa": 6265,
      "rawan": 6266,
      "busan": 6267,
      "inuyang": 6268,
      "nakurian": 6269,
      "diri": 6270,
      "dibati": 6271,
      "ganan": 6272,
      "ganit": 6273,
      "suka": 6274,
      "sulun": 6275,
      "bat": 6276,
      "litu": 6277,
      "inatag": 6278,
      "inatihan": 6279,
      "rupu": 6280,
      "dumaraga": 6281,
      "bim": 6282,
      "bista": 6283,
      "lasa": 6284,
      "larawan": 6285,
      "miusa": 6286,
      "miawat": 6287,
      "nagbuhi": 6288,
      "nagdaka": 6289,
      "naglumpiyu": 6290,
      "nagsulang": 6291,
      "nagtalang": 6292,
      "nagpanghas": 6293,
      "hudan": 6294,
      "dugsakan": 6295,
      "Pagpili": 6296,
      "Paglumi": 6297,
      "Pagsundun": 6298,
      "Hitir": 6299,
      "Hibir": 6300,
      "Dak": 6301,
      "rantayan": 6302,
      "panrutay": 6303,
      "panulung": 6304,
      "panungaan": 6305,
      "Natupad": 6306,
      "Napada": 6307,
      "pigis": 6308,
      "Humari": 6309,
      "Hurib": 6310,
      "pinasulungan": 6311,
      "makaibahan": 6312,
      "makasadili": 6313,
      "makasamba": 6314,
      "makatiwalaan": 6315,
      "makatupung": 6316,
      "Tik": 6317,
      "Tibis": 6318,
      "Maghagad": 6319,
      "Maggayak": 6320,
      "manugpana": 6321,
      "masduk": 6322,
      "binintuk": 6323,
      "tinunga": 6324,
      "sandaman": 6325,
      "Maalaman": 6326,
      "Matukawan": 6327,
      "Mawayak": 6328,
      "magkausa": 6329,
      "magkasulung": 6330,
      "magkalakawan": 6331,
      "magkatalu": 6332,
      "magkatandug": 6333,
      "magkairub": 6334,
      "Nagbaya": 6335,
      "Nagalit": 6336,
      "Nagsamba": 6337,
      "Naggayak": 6338,
      "Nagtawag": 6339,
      "mangba": 6340,
      "tagasunud": 6341,
      "tulsan": 6342,
      "ipinaatag": 6343,
      "ipinatahan": 6344,
      "hinunat": 6345,
      "pagkasarin": 6346,
      "halu": 6347,
      "matyan": 6348,
      "nanrutay": 6349,
      "nanhampang": 6350,
      "nanharampangan": 6351,
      "nanlalabanan": 6352,
      "tungdanan": 6353,
      "ipak": 6354,
      "ipaatubang": 6355,
      "magpablag": 6356,
      "magpalal": 6357,
      "nakasad": 6358,
      "nakaasawa": 6359,
      "nakaigpil": 6360,
      "iriyawan": 6361,
      "patakip": 6362,
      "Padaran": 6363,
      "Pasnui": 6364,
      "karadaya": 6365,
      "karasarin": 6366,
      "karabuhian": 6367,
      "marayawan": 6368,
      "pagpauli": 6369,
      "pagpakiusa": 6370,
      "ginhawa": 6371,
      "Bantayaw": 6372,
      "Abunda": 6373,
      "marasakit": 6374,
      "kayabangan": 6375,
      "kagalang": 6376,
      "salamin": 6377,
      "nagpasugu": 6378,
      "Hasi": 6379,
      "Kantapu": 6380,
      "Pinaighit": 6381,
      "putyukan": 6382,
      "ipinabu": 6383,
      "ipinabihag": 6384,
      "Pinab": 6385,
      "Parig": 6386,
      "alistuhan": 6387,
      "karag": 6388,
      "magpandaya": 6389,
      "dumug": 6390,
      "inupahan": 6391,
      "Nitanyas": 6392,
      "Tap": 6393,
      "Tubal": 6394,
      "arawatan": 6395,
      "Biyur": 6396,
      "Ipablag": 6397,
      "Kangku": 6398,
      "Nanhagad": 6399,
      "pispis": 6400,
      "abundahun": 6401,
      "ilinagpak": 6402,
      "sakti": 6403,
      "inmaput": 6404,
      "Pagpapaladan": 6405,
      "Pagpabisugun": 6406,
      "nangalat": 6407,
      "Husabad": 6408,
      "Nangus": 6409,
      "mapaighit": 6410,
      "Pihua": 6411,
      "Lamik": 6412,
      "Linagas": 6413,
      "Galanga": 6414,
      "Biltisasar": 6415,
      "magpakampi": 6416,
      "tataan": 6417,
      "tatatataan": 6418,
      "Ismailita": 6419,
      "kasayahan": 6420,
      "Karmi": 6421,
      "Pinanbuul": 6422,
      "uwawun": 6423,
      "Alihan": 6424,
      "Kinas": 6425,
      "Sunim": 6426,
      "yinmuk": 6427,
      "yangpas": 6428,
      "masali": 6429,
      "Palayasun": 6430,
      "tigpakilala": 6431,
      "haklup": 6432,
      "Barnia": 6433,
      "dinuawan": 6434,
      "ranas": 6435,
      "pagpansinun": 6436,
      "pagpilitun": 6437,
      "Salmuna": 6438,
      "ikadamhak": 6439,
      "Alistuhan": 6440,
      "Mirayut": 6441,
      "paglabuta": 6442,
      "Sibna": 6443,
      "maaslum": 6444,
      "Birikyas": 6445,
      "Basta": 6446,
      "mamantay": 6447,
      "Bigla": 6448,
      "Ayalun": 6449,
      "abagatnan": 6450,
      "Hirami": 6451,
      "Amihud": 6452,
      "Balusan": 6453,
      "katagbu": 6454,
      "pumanghas": 6455,
      "Ayawi": 6456,
      "Linmawuy": 6457,
      "Pabisugun": 6458,
      "Suguun": 6459,
      "Silimya": 6460,
      "idinimanda": 6461,
      "pagtamyawun": 6462,
      "ahinti": 6463,
      "palingki": 6464,
      "36": 6465,
      "800": 6466,
      "90": 6467,
      "Abin": 6468,
      "Amalik": 6469,
      "Apik": 6470,
      "Baliw": 6471,
      "Dali": 6472,
      "Dum": 6473,
      "Ginu": 6474,
      "Handa": 6475,
      "II": 6476,
      "Iru": 6477,
      "Idarangin": 6478,
      "Ipatindug": 6479,
      "Ilubus": 6480,
      "Itam": 6481,
      "Kinan": 6482,
      "Kinma": 6483,
      "Lun": 6484,
      "Lus": 6485,
      "Pis": 6486,
      "Sagu": 6487,
      "Salat": 6488,
      "Uri": 6489,
      "Utni": 6490,
      "apun": 6491,
      "dni": 6492,
      "dru": 6493,
      "gut": 6494,
      "hinan": 6495,
      "huna": 6496,
      "ipakarayu": 6497,
      "ikagalit": 6498,
      "irut": 6499,
      "imiyu": 6500,
      "ikupa": 6501,
      "munu": 6502,
      "plud": 6503,
      "pgap": 6504,
      "sba": 6505,
      "tdan": 6506,
      "tinultul": 6507,
      "uban": 6508,
      "umun": 6509,
      "uyaan": 6510,
      "umuli": 6511,
      "umuran": 6512,
      "yina": 6513,
      "anta": 6514,
      "anung": 6515,
      "sasa": 6516,
      "sarang": 6517,
      "sadan": 6518,
      "kapang": 6519,
      "kabagay": 6520,
      "karit": 6521,
      "katungdanan": 6522,
      "kauyaan": 6523,
      "inmu": 6524,
      "indug": 6525,
      "dat": 6526,
      "daug": 6527,
      "angal": 6528,
      "sigi": 6529,
      "mahun": 6530,
      "masugu": 6531,
      "maangay": 6532,
      "maila": 6533,
      "mabantayan": 6534,
      "mabasa": 6535,
      "maamanan": 6536,
      "makura": 6537,
      "maalwan": 6538,
      "pagsala": 6539,
      "pagalit": 6540,
      "pagdarangin": 6541,
      "pagsulung": 6542,
      "pagpanguna": 6543,
      "paghuray": 6544,
      "pagbugya": 6545,
      "paglubung": 6546,
      "pagpihuun": 6547,
      "pagsagtun": 6548,
      "pagkulbaan": 6549,
      "paghuwada": 6550,
      "pasa": 6551,
      "pahan": 6552,
      "pawan": 6553,
      "palibu": 6554,
      "patutuu": 6555,
      "palis": 6556,
      "pablag": 6557,
      "paliku": 6558,
      "papasun": 6559,
      "palibutan": 6560,
      "kurub": 6561,
      "kutub": 6562,
      "alun": 6563,
      "alaban": 6564,
      "almin": 6565,
      "tahun": 6566,
      "tasan": 6567,
      "tabanun": 6568,
      "ilya": 6569,
      "ilug": 6570,
      "ilung": 6571,
      "ilsan": 6572,
      "manti": 6573,
      "manmamatay": 6574,
      "manwayak": 6575,
      "manlulumian": 6576,
      "magwa": 6577,
      "magla": 6578,
      "magulu": 6579,
      "magdaka": 6580,
      "maglus": 6581,
      "magbili": 6582,
      "maghantup": 6583,
      "magnigusyu": 6584,
      "magbusang": 6585,
      "magbalus": 6586,
      "maghiyaput": 6587,
      "magharab": 6588,
      "magpilit": 6589,
      "magsayaw": 6590,
      "magtamyaw": 6591,
      "maglapwas": 6592,
      "tudi": 6593,
      "tumalu": 6594,
      "rab": 6595,
      "raw": 6596,
      "raramig": 6597,
      "bumag": 6598,
      "butu": 6599,
      "buki": 6600,
      "bubug": 6601,
      "bukul": 6602,
      "inusi": 6603,
      "inuwaw": 6604,
      "naug": 6605,
      "napung": 6606,
      "naapu": 6607,
      "naasawa": 6608,
      "namara": 6609,
      "nasurip": 6610,
      "namuwat": 6611,
      "nairub": 6612,
      "nauringan": 6613,
      "naaghas": 6614,
      "dit": 6615,
      "digan": 6616,
      "ganti": 6617,
      "susi": 6618,
      "baug": 6619,
      "lib": 6620,
      "pumu": 6621,
      "ruti": 6622,
      "mayabang": 6623,
      "dus": 6624,
      "duaw": 6625,
      "dulud": 6626,
      "durun": 6627,
      "hirin": 6628,
      "himyas": 6629,
      "laad": 6630,
      "latigu": 6631,
      "miku": 6632,
      "mihu": 6633,
      "misug": 6634,
      "mitama": 6635,
      "hilu": 6636,
      "nagpudil": 6637,
      "nagyuk": 6638,
      "nagyaman": 6639,
      "nagpinalalagiw": 6640,
      "huwayan": 6641,
      "Pagmay": 6642,
      "Pagsitay": 6643,
      "Pagparargu": 6644,
      "Paghagad": 6645,
      "Pagdahan": 6646,
      "Pagtukaw": 6647,
      "Pagpihuun": 6648,
      "Hius": 6649,
      "ungdan": 6650,
      "paninda": 6651,
      "panluwas": 6652,
      "Naama": 6653,
      "Nasakup": 6654,
      "Namadara": 6655,
      "Huya": 6656,
      "Ista": 6657,
      "udwa": 6658,
      "pinakaun": 6659,
      "pinainum": 6660,
      "pinauga": 6661,
      "makaati": 6662,
      "makatultul": 6663,
      "makatupad": 6664,
      "makaaman": 6665,
      "Sisak": 6666,
      "Sirib": 6667,
      "Sibadyas": 6668,
      "Tis": 6669,
      "Kad": 6670,
      "Sadrak": 6671,
      "Maghari": 6672,
      "Maglakaw": 6673,
      "Magdarangin": 6674,
      "Maghanap": 6675,
      "Maghiling": 6676,
      "sabiya": 6677,
      "manuggira": 6678,
      "masagut": 6679,
      "binunu": 6680,
      "binagawan": 6681,
      "binilang": 6682,
      "Pagkasurip": 6683,
      "parigus": 6684,
      "mataytag": 6685,
      "sanipa": 6686,
      "pararas": 6687,
      "pararigsan": 6688,
      "Maun": 6689,
      "Matan": 6690,
      "Maki": 6691,
      "Mamadara": 6692,
      "magkakuri": 6693,
      "magkarantahan": 6694,
      "pingi": 6695,
      "pinkul": 6696,
      "pinabu": 6697,
      "pinangunahan": 6698,
      "mpukan": 6699,
      "salanun": 6700,
      "Nagkaun": 6701,
      "Nagtindug": 6702,
      "Nagkampu": 6703,
      "mangulianan": 6704,
      "ipinauna": 6705,
      "ipinaatubang": 6706,
      "ipinadakup": 6707,
      "pangulian": 6708,
      "hinay": 6709,
      "tugan": 6710,
      "pagkahari": 6711,
      "pagkalalang": 6712,
      "pagkampuhan": 6713,
      "pagkailanganun": 6714,
      "bugtas": 6715,
      "Inan": 6716,
      "Inagaw": 6717,
      "tungbawan": 6718,
      "sawaan": 6719,
      "ipasirung": 6720,
      "ipadakit": 6721,
      "ipasipala": 6722,
      "ipaulam": 6723,
      "ipaagum": 6724,
      "magpabaya": 6725,
      "magpamab": 6726,
      "rini": 6727,
      "ringi": 6728,
      "Sinagut": 6729,
      "nakaya": 6730,
      "nakakaun": 6731,
      "nakarutay": 6732,
      "nakainum": 6733,
      "nakatagka": 6734,
      "dararan": 6735,
      "Pakay": 6736,
      "Pamul": 6737,
      "matapat": 6738,
      "balayan": 6739,
      "bulay": 6740,
      "linmayas": 6741,
      "talinduwa": 6742,
      "pagpaki": 6743,
      "pagpadara": 6744,
      "pagpadayaw": 6745,
      "pagpabili": 6746,
      "pagpakumbaba": 6747,
      "pagpasnuan": 6748,
      "apura": 6749,
      "mininsan": 6750,
      "nanguragin": 6751,
      "ginalang": 6752,
      "paladi": 6753,
      "Kirita": 6754,
      "maratag": 6755,
      "Binug": 6756,
      "Binmalik": 6757,
      "Binilinan": 6758,
      "bangkil": 6759,
      "karantahan": 6760,
      "tigbuwat": 6761,
      "bayan": 6762,
      "Has": 6763,
      "Hasabiya": 6764,
      "kilalahun": 6765,
      "panaun": 6766,
      "dnugi": 6767,
      "askug": 6768,
      "Pinaayad": 6769,
      "Pinatingihan": 6770,
      "Suar": 6771,
      "Subal": 6772,
      "binuwatan": 6773,
      "uguyan": 6774,
      "tinak": 6775,
      "widan": 6776,
      "Manalu": 6777,
      "ipinaluwas": 6778,
      "ibili": 6779,
      "Pabali": 6780,
      "intindiha": 6781,
      "umapu": 6782,
      "umasawa": 6783,
      "Hihuhanan": 6784,
      "alantaw": 6785,
      "Misak": 6786,
      "kinmaun": 6787,
      "Hiniyaptan": 6788,
      "magpanlalaki": 6789,
      "Gibir": 6790,
      "inumbung": 6791,
      "pinakapugri": 6792,
      "anitun": 6793,
      "Hurma": 6794,
      "hampangun": 6795,
      "Nisurat": 6796,
      "Nibantug": 6797,
      "Nihimyas": 6798,
      "napatulbaw": 6799,
      "Tula": 6800,
      "Ilipilit": 6801,
      "Pidaya": 6802,
      "kudradu": 6803,
      "nagkabugtangan": 6804,
      "Abisir": 6805,
      "Abidni": 6806,
      "Ipadara": 6807,
      "kabantugan": 6808,
      "Nandara": 6809,
      "Nanagin": 6810,
      "Nanudlu": 6811,
      "linukas": 6812,
      "dangtan": 6813,
      "Asmabit": 6814,
      "Mahalun": 6815,
      "magkarawayak": 6816,
      "tabgan": 6817,
      "malpus": 6818,
      "ipinabalik": 6819,
      "galanga": 6820,
      "Tinanggap": 6821,
      "ibinalik": 6822,
      "pagtama": 6823,
      "nagkarawayak": 6824,
      "mabukladan": 6825,
      "Lahi": 6826,
      "anyuan": 6827,
      "Gumir": 6828,
      "Ipinabahala": 6829,
      "Ipiniyar": 6830,
      "pululungan": 6831,
      "Pilig": 6832,
      "Pilisir": 6833,
      "Pilipus": 6834,
      "binari": 6835,
      "garaw": 6836,
      "dagit": 6837,
      "bubungan": 6838,
      "turunuhun": 6839,
      "hurayan": 6840,
      "Ribla": 6841,
      "maisturu": 6842,
      "klut": 6843,
      "pumakarayu": 6844,
      "Dinug": 6845,
      "mahalaan": 6846,
      "binugkus": 6847,
      "Alalahanun": 6848,
      "tumudlu": 6849,
      "mugtasun": 6850,
      "maghimanglaw": 6851,
      "Inus": 6852,
      "Inumpisahan": 6853,
      "giriw": 6854,
      "girirahan": 6855,
      "iwin": 6856,
      "maniwang": 6857,
      "Sinulang": 6858,
      "marunut": 6859,
      "bumurak": 6860,
      "Giniyahan": 6861,
      "tiktik": 6862,
      "dayunan": 6863,
      "Hasabya": 6864,
      "rayamtan": 6865,
      "kamustahun": 6866,
      "Handug": 6867,
      "Habin": 6868,
      "Kaldiyu": 6869,
      "Nangaun": 6870,
      "bumwat": 6871,
      "Niryas": 6872,
      "isinulung": 6873,
      "sisihun": 6874,
      "magamit": 6875,
      "Linmuwang": 6876,
      "Linmuhud": 6877,
      "magtiripnan": 6878,
      "bisti": 6879,
      "minamat": 6880,
      "Ripaim": 6881,
      "Ripaimiyu": 6882,
      "isupu": 6883,
      "pagpahalagaan": 6884,
      "kagurang": 6885,
      "Pinalpasan": 6886,
      "Tawaga": 6887,
      "magkadara": 6888,
      "ksulan": 6889,
      "haplas": 6890,
      "Lumpiyuha": 6891,
      "Minahim": 6892,
      "Sabad": 6893,
      "inmilis": 6894,
      "tumultul": 6895,
      "pabayadun": 6896,
      "supakil": 6897,
      "hinulma": 6898,
      "rawawan": 6899,
      "diripayan": 6900,
      "panrutayun": 6901,
      "Napadapa": 6902,
      "Saguta": 6903,
      "Salatyil": 6904,
      "antabay": 6905,
      "sarangwan": 6906,
      "kabagayan": 6907,
      "makurasug": 6908,
      "pagsalakan": 6909,
      "kurubyu": 6910,
      "almindru": 6911,
      "tudiran": 6912,
      "hirinangbitun": 6913,
      "Siribya": 6914,
      "magpamabayi": 6915,
      "Abidnigu": 6916,
      "110": 6917,
      "250": 6918,
      "Ari": 6919,
      "Asin": 6920,
      "Amat": 6921,
      "Agawun": 6922,
      "Dayi": 6923,
      "Gama": 6924,
      "Hinu": 6925,
      "Ipag": 6926,
      "Itay": 6927,
      "Ikun": 6928,
      "Iayaw": 6929,
      "Isulung": 6930,
      "Ikina": 6931,
      "Iyawun": 6932,
      "Iyamut": 6933,
      "Mib": 6934,
      "Mirin": 6935,
      "Milik": 6936,
      "Sugu": 6937,
      "Tan": 6938,
      "Taya": 6939,
      "Upra": 6940,
      "Udas": 6941,
      "Yabi": 6942,
      "Yuma": 6943,
      "amang": 6944,
      "amit": 6945,
      "isa": 6946,
      "iyagan": 6947,
      "isinagut": 6948,
      "idimanda": 6949,
      "ihayin": 6950,
      "lyil": 6951,
      "minu": 6952,
      "mnu": 6953,
      "mdaman": 6954,
      "no": 6955,
      "panak": 6956,
      "pinul": 6957,
      "plid": 6958,
      "sno": 6959,
      "tri": 6960,
      "uha": 6961,
      "urug": 6962,
      "uringi": 6963,
      "wis": 6964,
      "sayas": 6965,
      "salim": 6966,
      "saadi": 6967,
      "angun": 6968,
      "kapala": 6969,
      "kalan": 6970,
      "kaibug": 6971,
      "kapanahun": 6972,
      "kaaldaw": 6973,
      "unhun": 6974,
      "untug": 6975,
      "unib": 6976,
      "ininum": 6977,
      "insak": 6978,
      "inyup": 6979,
      "insik": 6980,
      "inaghas": 6981,
      "dasan": 6982,
      "ayit": 6983,
      "tiku": 6984,
      "nibilang": 6985,
      "siradu": 6986,
      "kanal": 6987,
      "masu": 6988,
      "malaban": 6989,
      "madugay": 6990,
      "maparusahan": 6991,
      "masuratan": 6992,
      "maabwatan": 6993,
      "masulang": 6994,
      "mahiyaptan": 6995,
      "mamalalagiwan": 6996,
      "masampakan": 6997,
      "mangalat": 6998,
      "pagginan": 6999,
      "pagsulud": 7000,
      "pagpanga": 7001,
      "pagdaya": 7002,
      "paghanap": 7003,
      "pagsung": 7004,
      "pagpakarayu": 7005,
      "pagdahan": 7006,
      "pagruris": 7007,
      "pagpiliun": 7008,
      "pagbalus": 7009,
      "pagpatawad": 7010,
      "pagsalakay": 7011,
      "paghamnu": 7012,
      "pagpatalangun": 7013,
      "pagturunuhun": 7014,
      "pasulungan": 7015,
      "painmun": 7016,
      "patunugun": 7017,
      "papaladi": 7018,
      "yasid": 7019,
      "kuan": 7020,
      "yupar": 7021,
      "takaw": 7022,
      "tatak": 7023,
      "tadlung": 7024,
      "taas": 7025,
      "tarum": 7026,
      "ilsi": 7027,
      "ilusad": 7028,
      "muru": 7029,
      "manlakaw": 7030,
      "manbili": 7031,
      "managut": 7032,
      "manhimanglaw": 7033,
      "manlut": 7034,
      "magbag": 7035,
      "maglulumian": 7036,
      "magsaad": 7037,
      "magpatalang": 7038,
      "magsinggit": 7039,
      "magdayik": 7040,
      "magbaklay": 7041,
      "magkurarug": 7042,
      "tuman": 7043,
      "tumun": 7044,
      "tumara": 7045,
      "tulad": 7046,
      "abug": 7047,
      "buang": 7048,
      "buwa": 7049,
      "burug": 7050,
      "busal": 7051,
      "buwis": 7052,
      "lup": 7053,
      "nahu": 7054,
      "naibug": 7055,
      "nasing": 7056,
      "namatindug": 7057,
      "nataw": 7058,
      "napasrangu": 7059,
      "nadangtan": 7060,
      "dimu": 7061,
      "diha": 7062,
      "taypuk": 7063,
      "bahi": 7064,
      "litan": 7065,
      "liyupar": 7066,
      "pukan": 7067,
      "pumakakit": 7068,
      "pumanalu": 7069,
      "pumihu": 7070,
      "rukan": 7071,
      "rumu": 7072,
      "mayun": 7073,
      "gastus": 7074,
      "dumulum": 7075,
      "bita": 7076,
      "kipagnigusyu": 7077,
      "his": 7078,
      "lahab": 7079,
      "miyil": 7080,
      "akut": 7081,
      "nagpu": 7082,
      "nagbul": 7083,
      "nagbantay": 7084,
      "nagpurupita": 7085,
      "naglus": 7086,
      "nagustuhan": 7087,
      "nagdaus": 7088,
      "nagbudlay": 7089,
      "nagtalaga": 7090,
      "nagburda": 7091,
      "nagpirma": 7092,
      "nagpululungan": 7093,
      "hum": 7094,
      "hubung": 7095,
      "husayan": 7096,
      "nud": 7097,
      "mpis": 7098,
      "mpayaan": 7099,
      "Pagdara": 7100,
      "Paggalang": 7101,
      "Pagbalusan": 7102,
      "Pagmatutum": 7103,
      "Pagtakigan": 7104,
      "Hisayas": 7105,
      "ungsud": 7106,
      "ungsudan": 7107,
      "ransa": 7108,
      "rantayun": 7109,
      "panti": 7110,
      "panlukat": 7111,
      "ilipanti": 7112,
      "wayakan": 7113,
      "Napatayak": 7114,
      "piti": 7115,
      "pinat": 7116,
      "pinari": 7117,
      "pinaalaman": 7118,
      "pinadala": 7119,
      "pinatukaw": 7120,
      "pinaumang": 7121,
      "pinasibut": 7122,
      "makab": 7123,
      "makaulian": 7124,
      "makaasan": 7125,
      "makaturug": 7126,
      "Siban": 7127,
      "alimus": 7128,
      "Kahusayan": 7129,
      "guminan": 7130,
      "gurung": 7131,
      "Sapat": 7132,
      "Sarun": 7133,
      "Magpaka": 7134,
      "Magpang": 7135,
      "Maglumi": 7136,
      "Magkagalit": 7137,
      "Magpaniwala": 7138,
      "manugtama": 7139,
      "arit": 7140,
      "ibar": 7141,
      "sugtan": 7142,
      "masnag": 7143,
      "sinug": 7144,
      "sinintinsiyahan": 7145,
      "tinung": 7146,
      "Pagkaibgan": 7147,
      "arya": 7148,
      "aragwantahun": 7149,
      "paraway": 7150,
      "parahuwayan": 7151,
      "magkampu": 7152,
      "magkampi": 7153,
      "magkayabi": 7154,
      "magkatapus": 7155,
      "magkadura": 7156,
      "magkalimtan": 7157,
      "magkalayung": 7158,
      "pini": 7159,
      "pinang": 7160,
      "pintu": 7161,
      "pinmat": 7162,
      "pinalitan": 7163,
      "Nagpat": 7164,
      "Nagdara": 7165,
      "Naglakaw": 7166,
      "Nagluwas": 7167,
      "Nagpili": 7168,
      "Nagtipun": 7169,
      "Nagsumpa": 7170,
      "Nagringgit": 7171,
      "Nagluwang": 7172,
      "tagapatigayun": 7173,
      "unumpulu": 7174,
      "ipinasulung": 7175,
      "ipinasumpa": 7176,
      "ipinatalu": 7177,
      "pagkas": 7178,
      "pagkawayak": 7179,
      "buga": 7180,
      "bugtung": 7181,
      "halga": 7182,
      "Unan": 7183,
      "nanabang": 7184,
      "nansalakay": 7185,
      "nanriringgitan": 7186,
      "Muri": 7187,
      "ipasulung": 7188,
      "ipasaru": 7189,
      "ipakihampang": 7190,
      "ipaliwanag": 7191,
      "ikaribri": 7192,
      "magpaanyu": 7193,
      "magpakumbaba": 7194,
      "yarib": 7195,
      "nakaalistu": 7196,
      "nakalista": 7197,
      "Paighita": 7198,
      "bayaw": 7199,
      "bayaun": 7200,
      "katna": 7201,
      "katpadan": 7202,
      "nasduk": 7203,
      "pakaunun": 7204,
      "bilangun": 7205,
      "linabanan": 7206,
      "pagpal": 7207,
      "pagpahari": 7208,
      "atagun": 7209,
      "isinumbung": 7210,
      "manakit": 7211,
      "Kiritiyu": 7212,
      "lugi": 7213,
      "maraw": 7214,
      "sagan": 7215,
      "Akub": 7216,
      "Binili": 7217,
      "kagalangan": 7218,
      "naani": 7219,
      "sayda": 7220,
      "tigraramig": 7221,
      "Hasu": 7222,
      "Harus": 7223,
      "Hakin": 7224,
      "Hahat": 7225,
      "payabang": 7226,
      "rutayan": 7227,
      "lakawun": 7228,
      "mpawan": 7229,
      "Suku": 7230,
      "layag": 7231,
      "Bukasi": 7232,
      "tinakluban": 7233,
      "maluhudan": 7234,
      "palpasi": 7235,
      "Ipinasakay": 7236,
      "ipinaliwanag": 7237,
      "inulbaan": 7238,
      "Pinag": 7239,
      "Pinangunahan": 7240,
      "Basi": 7241,
      "Bahala": 7242,
      "ibugtang": 7243,
      "Amasay": 7244,
      "umampara": 7245,
      "Hihusa": 7246,
      "mutsasa": 7247,
      "sangday": 7248,
      "kamhanan": 7249,
      "Mihi": 7250,
      "Midamhak": 7251,
      "Mimpis": 7252,
      "pihua": 7253,
      "Ilna": 7254,
      "ingun": 7255,
      "itadlung": 7256,
      "kinagalitan": 7257,
      "magpanudlu": 7258,
      "Gidi": 7259,
      "Gisur": 7260,
      "Tahat": 7261,
      "Tupit": 7262,
      "pumasampak": 7263,
      "sikumuru": 7264,
      "Bihagun": 7265,
      "Biirut": 7266,
      "tawagan": 7267,
      "nabilug": 7268,
      "aguabi": 7269,
      "nagkausa": 7270,
      "saradu": 7271,
      "harara": 7272,
      "Nanlaban": 7273,
      "Bitsayda": 7274,
      "Gilbuwa": 7275,
      "balag": 7276,
      "kinatawu": 7277,
      "kinamhan": 7278,
      "Pumirmaminti": 7279,
      "linukat": 7280,
      "higpiti": 7281,
      "itinuntun": 7282,
      "Pagpauli": 7283,
      "tinutdan": 7284,
      "pinagkagurang": 7285,
      "Aspinas": 7286,
      "Mahalalil": 7287,
      "magkaradura": 7288,
      "mablay": 7289,
      "nangatadlungan": 7290,
      "Kumun": 7291,
      "klak": 7292,
      "uranun": 7293,
      "Arti": 7294,
      "Aryuk": 7295,
      "durung": 7296,
      "mapasa": 7297,
      "parusahi": 7298,
      "distri": 7299,
      "sunggu": 7300,
      "Linabag": 7301,
      "rubtan": 7302,
      "tanggi": 7303,
      "bululagan": 7304,
      "Ipinal": 7305,
      "Ipinabwat": 7306,
      "Bilsasar": 7307,
      "Kaawai": 7308,
      "Kaawaan": 7309,
      "manugpatunug": 7310,
      "Maluk": 7311,
      "maipatindug": 7312,
      "miraw": 7313,
      "pirimyuhan": 7314,
      "Kimus": 7315,
      "Binuy": 7316,
      "sakayan": 7317,
      "talimbuuk": 7318,
      "kasarin": 7319,
      "biyagan": 7320,
      "Magpaingana": 7321,
      "tumukad": 7322,
      "Sinunug": 7323,
      "maghimalad": 7324,
      "Siduniyu": 7325,
      "hinampang": 7326,
      "mapinasuna": 7327,
      "Matat": 7328,
      "buluntadan": 7329,
      "mamhan": 7330,
      "bumulag": 7331,
      "hururayan": 7332,
      "sururatan": 7333,
      "Ginalit": 7334,
      "dinuksulan": 7335,
      "Pirisila": 7336,
      "Hanapun": 7337,
      "Nikudimu": 7338,
      "Mabuyat": 7339,
      "kinurang": 7340,
      "pagparusahi": 7341,
      "bulungun": 7342,
      "dugangi": 7343,
      "hinurayan": 7344,
      "rabahuun": 7345,
      "kidkid": 7346,
      "Pagbayaun": 7347,
      "Pikaya": 7348,
      "magdurut": 7349,
      "magpanamdam": 7350,
      "Patawadun": 7351,
      "pagdumarahan": 7352,
      "bariun": 7353,
      "nanuyu": 7354,
      "hirimugtasun": 7355,
      "Itinagka": 7356,
      "Marisa": 7357,
      "ikinarga": 7358,
      "garyahun": 7359,
      "Matitiya": 7360,
      "muhunun": 7361,
      "Misail": 7362,
      "Uhulibama": 7363,
      "Idri": 7364,
      "Yahasyil": 7365,
      "maggiuk": 7366,
      "magpamudil": 7367,
      "Busra": 7368,
      "piyaran": 7369,
      "Sambahun": 7370,
      "panagutan": 7371,
      "Hulda": 7372,
      "tinabunan": 7373,
      "Putipar": 7374,
      "Purya": 7375,
      "ayinmut": 7376,
      "napatakas": 7377,
      "magpasunaid": 7378,
      "Turuwas": 7379,
      "Tultuli": 7380,
      "pursintu": 7381,
      "ipinalayas": 7382,
      "Asrikam": 7383,
      "Asaril": 7384,
      "Gubaun": 7385,
      "pagmuransahun": 7386,
      "Dakpa": 7387,
      "Tikwa": 7388,
      "Tapwa": 7389,
      "masalimpayaan": 7390,
      "Hiramiil": 7391,
      "Baliwun": 7392,
      "Irubun": 7393,
      "Pisga": 7394,
      "Utniyil": 7395,
      "tinultulan": 7396,
      "yinamut": 7397,
      "kapanganakan": 7398,
      "pagbugyahi": 7399,
      "naugtasan": 7400,
      "Kadmiyil": 7401,
      "Makida": 7402,
      "Binugyahan": 7403,
      "Gamalyil": 7404,
      "Tayaki": 7405,
      "snow": 7406,
      "kapaladun": 7407,
      "kapanahunan": 7408,
      "insaktu": 7409,
      "insiktu": 7410,
      "burugtangan": 7411,
      "nahumpawan": 7412,
      "liyupardu": 7413,
      "distritu": 7414,
      "mapinasunaidun": 7415,
      "19": 7416,
      "29": 7417,
      "41": 7418,
      "Apu": 7419,
      "Apinan": 7420,
      "Ahinu": 7421,
      "Amaryas": 7422,
      "Bisik": 7423,
      "Duma": 7424,
      "Gala": 7425,
      "Gayu": 7426,
      "Gris": 7427,
      "Habuk": 7428,
      "Iri": 7429,
      "Ilun": 7430,
      "Ibinu": 7431,
      "Ibalik": 7432,
      "Iparargu": 7433,
      "Ibal": 7434,
      "Ipakarayu": 7435,
      "Ikupa": 7436,
      "Kala": 7437,
      "Kibar": 7438,
      "Lud": 7439,
      "Lutan": 7440,
      "Labanan": 7441,
      "Muli": 7442,
      "Malagiw": 7443,
      "Mabisug": 7444,
      "Palu": 7445,
      "Rug": 7446,
      "Ram": 7447,
      "Urib": 7448,
      "Urim": 7449,
      "Wayakun": 7450,
      "ail": 7451,
      "aruk": 7452,
      "gagad": 7453,
      "galitun": 7454,
      "ikay": 7455,
      "ipakarani": 7456,
      "imatun": 7457,
      "kagi": 7458,
      "mwat": 7459,
      "nanakaw": 7460,
      "payas": 7461,
      "sbas": 7462,
      "talakpan": 7463,
      "urusa": 7464,
      "upud": 7465,
      "uyup": 7466,
      "wanan": 7467,
      "”.": 7468,
      "anita": 7469,
      "sayun": 7470,
      "samuk": 7471,
      "sabakan": 7472,
      "kapu": 7473,
      "kakayu": 7474,
      "unlad": 7475,
      "inmayad": 7476,
      "inmuran": 7477,
      "inagawan": 7478,
      "insus": 7479,
      "inugasan": 7480,
      "timga": 7481,
      "tiidan": 7482,
      "nibuyu": 7483,
      "maki": 7484,
      "mampu": 7485,
      "matug": 7486,
      "malun": 7487,
      "mapagmahal": 7488,
      "mamit": 7489,
      "makut": 7490,
      "malangu": 7491,
      "maulianan": 7492,
      "mabayadan": 7493,
      "maasin": 7494,
      "mamunpun": 7495,
      "pagsi": 7496,
      "pagha": 7497,
      "paghu": 7498,
      "pagsugu": 7499,
      "pagpun": 7500,
      "pagbali": 7501,
      "pagsakup": 7502,
      "pagparargu": 7503,
      "pagsumpa": 7504,
      "paglabanan": 7505,
      "pagdangup": 7506,
      "pagbangun": 7507,
      "pagpatawadun": 7508,
      "pagpaniwala": 7509,
      "paglimti": 7510,
      "pagdugma": 7511,
      "pagsakti": 7512,
      "paw": 7513,
      "pali": 7514,
      "patig": 7515,
      "patunug": 7516,
      "pamulud": 7517,
      "paapasun": 7518,
      "paabundahun": 7519,
      "yamin": 7520,
      "yabang": 7521,
      "yataim": 7522,
      "kulu": 7523,
      "tau": 7524,
      "tatip": 7525,
      "ilyun": 7526,
      "mukan": 7527,
      "mumana": 7528,
      "manaw": 7529,
      "manmana": 7530,
      "mantaratu": 7531,
      "mantarabahu": 7532,
      "mansunug": 7533,
      "manlumuy": 7534,
      "mantiid": 7535,
      "manhuyaw": 7536,
      "magpag": 7537,
      "magtaga": 7538,
      "magsaru": 7539,
      "magdunung": 7540,
      "magustuhan": 7541,
      "magtindug": 7542,
      "magbasa": 7543,
      "maghula": 7544,
      "maglumuy": 7545,
      "maglubung": 7546,
      "magsukad": 7547,
      "magriringgitan": 7548,
      "maglagti": 7549,
      "magbutlak": 7550,
      "magkutub": 7551,
      "abun": 7552,
      "abunu": 7553,
      "bula": 7554,
      "bubung": 7555,
      "buwatan": 7556,
      "bukasi": 7557,
      "lumayas": 7558,
      "nakada": 7559,
      "nadara": 7560,
      "namakaun": 7561,
      "nasunug": 7562,
      "nasintinsiyahan": 7563,
      "natakluban": 7564,
      "napansin": 7565,
      "namunpun": 7566,
      "naragdag": 7567,
      "hasan": 7568,
      "hamuuk": 7569,
      "dipin": 7570,
      "susa": 7571,
      "badun": 7572,
      "basag": 7573,
      "baim": 7574,
      "inaw": 7575,
      "inaku": 7576,
      "garan": 7577,
      "gasid": 7578,
      "duag": 7579,
      "hirut": 7580,
      "lamba": 7581,
      "lapus": 7582,
      "lapid": 7583,
      "Disun": 7584,
      "mitagu": 7585,
      "akuk": 7586,
      "akurian": 7587,
      "gisiyu": 7588,
      "nagpanguna": 7589,
      "nagkumun": 7590,
      "nagdulum": 7591,
      "naggiya": 7592,
      "nagpakampi": 7593,
      "nagsimray": 7594,
      "humil": 7595,
      "inandasan": 7596,
      "Pagpangunahan": 7597,
      "Pagdugsun": 7598,
      "Paghuyaw": 7599,
      "Pagkamustahun": 7600,
      "Hihuna": 7601,
      "Dahanan": 7602,
      "panis": 7603,
      "pandaya": 7604,
      "panmatya": 7605,
      "unawa": 7606,
      "ilihan": 7607,
      "alawyan": 7608,
      "Nadura": 7609,
      "Nakakit": 7610,
      "Natakdan": 7611,
      "Nakipagnigusyu": 7612,
      "Hustu": 7613,
      "Isinu": 7614,
      "Isina": 7615,
      "udyukan": 7616,
      "pinasandaman": 7617,
      "usahan": 7618,
      "makaluwas": 7619,
      "makaparargu": 7620,
      "makabayad": 7621,
      "makabwat": 7622,
      "makaparibri": 7623,
      "danuman": 7624,
      "Sipar": 7625,
      "Sirini": 7626,
      "Tima": 7627,
      "Katapusan": 7628,
      "Karya": 7629,
      "Saputun": 7630,
      "Magbuwat": 7631,
      "Magkaun": 7632,
      "Magpatingi": 7633,
      "Magras": 7634,
      "Magpakarani": 7635,
      "Maganit": 7636,
      "Magdasun": 7637,
      "manuggiya": 7638,
      "abantay": 7639,
      "aris": 7640,
      "sugkad": 7641,
      "kadayaw": 7642,
      "binwatan": 7643,
      "binmagaw": 7644,
      "awun": 7645,
      "sinmu": 7646,
      "sinmarig": 7647,
      "sinalakay": 7648,
      "tinay": 7649,
      "Pagkamatay": 7650,
      "pararung": 7651,
      "Mahigpit": 7652,
      "Makalawuy": 7653,
      "magkasabi": 7654,
      "magkaisipan": 7655,
      "magkarag": 7656,
      "magkadulaw": 7657,
      "magkarunut": 7658,
      "pinana": 7659,
      "pinsan": 7660,
      "Nagpakaun": 7661,
      "Nagbantay": 7662,
      "Nagtultul": 7663,
      "Nagsunud": 7664,
      "Nagsaka": 7665,
      "manggira": 7666,
      "mangirkirug": 7667,
      "ipinatipun": 7668,
      "ipinasakay": 7669,
      "ipinamgas": 7670,
      "panginuun": 7671,
      "pagkabuwat": 7672,
      "pagkamanughandug": 7673,
      "bugsay": 7674,
      "alukayu": 7675,
      "alutatip": 7676,
      "Intin": 7677,
      "ayitun": 7678,
      "matpuk": 7679,
      "nanhandug": 7680,
      "nanmatay": 7681,
      "nandipay": 7682,
      "nanhimanglaw": 7683,
      "nanumpa": 7684,
      "ipatunug": 7685,
      "ipaingaran": 7686,
      "iparanas": 7687,
      "ikasampu": 7688,
      "magpauli": 7689,
      "magpadakit": 7690,
      "Sinmakay": 7691,
      "nakauli": 7692,
      "nakabangun": 7693,
      "nakatukaw": 7694,
      "nakapauli": 7695,
      "dararanginan": 7696,
      "iripnan": 7697,
      "Patar": 7698,
      "Paanyu": 7699,
      "Pahat": 7700,
      "Papasun": 7701,
      "matab": 7702,
      "matakluban": 7703,
      "atus": 7704,
      "Harid": 7705,
      "batuhan": 7706,
      "Hudabyas": 7707,
      "linga": 7708,
      "linayas": 7709,
      "pagpar": 7710,
      "pagpaingan": 7711,
      "urung": 7712,
      "malimus": 7713,
      "isang": 7714,
      "ismir": 7715,
      "manaratu": 7716,
      "Abdun": 7717,
      "kalabanun": 7718,
      "marapudil": 7719,
      "marapuya": 7720,
      "sagutun": 7721,
      "irinuman": 7722,
      "Binmu": 7723,
      "bangunun": 7724,
      "kaginan": 7725,
      "inaradu": 7726,
      "tigpamahala": 7727,
      "tigudwa": 7728,
      "tigkaibug": 7729,
      "nagpasakup": 7730,
      "nagpabili": 7731,
      "Ham": 7732,
      "Hara": 7733,
      "Haru": 7734,
      "tulul": 7735,
      "mpal": 7736,
      "himudil": 7737,
      "Pinarig": 7738,
      "Pinakurianan": 7739,
      "binuhusan": 7740,
      "labdaban": 7741,
      "Bumagaw": 7742,
      "tinata": 7743,
      "tinawidan": 7744,
      "bungtud": 7745,
      "maluag": 7746,
      "palalagiwan": 7747,
      "Manu": 7748,
      "Manlaban": 7749,
      "Manringgit": 7750,
      "Ipinamatay": 7751,
      "Ipinakilala": 7752,
      "Ipinadamhak": 7753,
      "Ipinakarani": 7754,
      "ilista": 7755,
      "Pinlud": 7756,
      "Pinwil": 7757,
      "Pinabisug": 7758,
      "ibalus": 7759,
      "ramdaman": 7760,
      "Bak": 7761,
      "bururak": 7762,
      "lagsa": 7763,
      "umani": 7764,
      "irininggit": 7765,
      "pamaunib": 7766,
      "inggu": 7767,
      "mitrus": 7768,
      "kinmampu": 7769,
      "Hinagkung": 7770,
      "Gihun": 7771,
      "Gidur": 7772,
      "pinakakitan": 7773,
      "pinakabanal": 7774,
      "pinakamabisug": 7775,
      "pinakabantug": 7776,
      "Mangabuhi": 7777,
      "Ripayas": 7778,
      "Sabihan": 7779,
      "anitay": 7780,
      "Taanak": 7781,
      "Tapanis": 7782,
      "napahalin": 7783,
      "napasalyu": 7784,
      "pumalya": 7785,
      "makapaminsan": 7786,
      "nabsug": 7787,
      "nablay": 7788,
      "nabawi": 7789,
      "baritaan": 7790,
      "Rurisa": 7791,
      "aguan": 7792,
      "lukuhun": 7793,
      "Ipasulung": 7794,
      "Ipahintulut": 7795,
      "kupya": 7796,
      "Nanruku": 7797,
      "sinadya": 7798,
      "limampulu": 7799,
      "Hirudiyas": 7800,
      "kumanta": 7801,
      "balud": 7802,
      "balangaw": 7803,
      "pinanwayak": 7804,
      "kinamusta": 7805,
      "kurangun": 7806,
      "singyanan": 7807,
      "bilihun": 7808,
      "Pagpakurianan": 7809,
      "tinubuan": 7810,
      "pinaginan": 7811,
      "malyam": 7812,
      "pamahalaan": 7813,
      "nangaku": 7814,
      "lumabag": 7815,
      "lumapus": 7816,
      "Asaya": 7817,
      "taraguan": 7818,
      "lapsi": 7819,
      "umpisahan": 7820,
      "Arkiyu": 7821,
      "apiha": 7822,
      "mapaingan": 7823,
      "iinilis": 7824,
      "Araba": 7825,
      "nagkarausa": 7826,
      "Bulun": 7827,
      "kalayawan": 7828,
      "sinuhulan": 7829,
      "tangi": 7830,
      "butaun": 7831,
      "agunsirung": 7832,
      "sidsid": 7833,
      "Pilit": 7834,
      "Pilitiyu": 7835,
      "magpukan": 7836,
      "madahan": 7837,
      "madamitan": 7838,
      "magpakabagaw": 7839,
      "magpakababa": 7840,
      "mamahala": 7841,
      "Rihum": 7842,
      "pinulaw": 7843,
      "pinagkaanak": 7844,
      "pinagkabilug": 7845,
      "hingbutun": 7846,
      "bagasbas": 7847,
      "Dinmugsun": 7848,
      "Dinungug": 7849,
      "mamudil": 7850,
      "pagsul": 7851,
      "Kitim": 7852,
      "Anung": 7853,
      "paulit": 7854,
      "tumpag": 7855,
      "Nakasurat": 7856,
      "Natanail": 7857,
      "Makakaray": 7858,
      "Inasawa": 7859,
      "usig": 7860,
      "Magpakihampang": 7861,
      "Asika": 7862,
      "Kiryataim": 7863,
      "maghiri": 7864,
      "masigasid": 7865,
      "magtaban": 7866,
      "mapinatawa": 7867,
      "manipun": 7868,
      "Girsum": 7869,
      "Girgisiyu": 7870,
      "kurti": 7871,
      "dilana": 7872,
      "Palti": 7873,
      "Palwasan": 7874,
      "Masipag": 7875,
      "dinurnan": 7876,
      "madayaan": 7877,
      "Hagriyu": 7878,
      "pagsagdahan": 7879,
      "hurnu": 7880,
      "Habila": 7881,
      "Habakuk": 7882,
      "Inirub": 7883,
      "Inisip": 7884,
      "Inibahan": 7885,
      "guluhun": 7886,
      "Sakup": 7887,
      "Sibyun": 7888,
      "mangubut": 7889,
      "Paraun": 7890,
      "Giraha": 7891,
      "pagtumpuk": 7892,
      "Panmatyun": 7893,
      "panubuk": 7894,
      "Libni": 7895,
      "Biriya": 7896,
      "Tinurun": 7897,
      "siksik": 7898,
      "Tanggapun": 7899,
      "maratyun": 7900,
      "magatul": 7901,
      "Dilaya": 7902,
      "huwadun": 7903,
      "binmuul": 7904,
      "Binasa": 7905,
      "Harmut": 7906,
      "Ingatan": 7907,
      "patlikudi": 7908,
      "Langit": 7909,
      "Sipur": 7910,
      "Sipura": 7911,
      "Nimrud": 7912,
      "Silpa": 7913,
      "pagpatnug": 7914,
      "rudkud": 7915,
      "linmawuy": 7916,
      "pagpahalagahan": 7917,
      "Pinalayas": 7918,
      "Matiyu": 7919,
      "pagpihua": 7920,
      "tunawun": 7921,
      "Sambaha": 7922,
      "butungun": 7923,
      "magkabsug": 7924,
      "Paulii": 7925,
      "nguynguy": 7926,
      "Listara": 7927,
      "Lumawuy": 7928,
      "binangdanan": 7929,
      "itinunghul": 7930,
      "inaladan": 7931,
      "kirisu": 7932,
      "Sibuyim": 7933,
      "Makpila": 7934,
      "pagpasrangu": 7935,
      "Hugla": 7936,
      "Unisi": 7937,
      "kadagatan": 7938,
      "paghinangbitun": 7939,
      "Matusalim": 7940,
      "tinarikadahan": 7941,
      "Iniyaw": 7942,
      "Salamat": 7943,
      "pagbatiun": 7944,
      "bistahun": 7945,
      "karadayaanun": 7946,
      "Duminggu": 7947,
      "Kinmampu": 7948,
      "Lunsay": 7949,
      "Istaul": 7950,
      "hinayang": 7951,
      "Pabalikun": 7952,
      "iwinidwisik": 7953,
      "Ipagira": 7954,
      "Ikunyu": 7955,
      "Yumamu": 7956,
      "tumarauk": 7957,
      "nasinggitan": 7958,
      "rumuris": 7959,
      "Sibanyas": 7960,
      "Basimat": 7961,
      "Ilnatan": 7962,
      "hararabun": 7963,
      "Artimis": 7964,
      "durungugun": 7965,
      "Ahinuam": 7966,
      "Galasya": 7967,
      "Grisya": 7968,
      "kakayuhan": 7969,
      "matugway": 7970,
      "patigmahun": 7971,
      "manawag": 7972,
      "garantiya": 7973,
      "pararungpungan": 7974,
      "ismiralda": 7975,
      "mapinatawadun": 7976,
      "33": 7977,
      "550": 7978,
      "74": 7979,
      "Asu": 7980,
      "Ala": 7981,
      "Atina": 7982,
      "Alag": 7983,
      "Ainanak": 7984,
      "Atarut": 7985,
      "Binul": 7986,
      "Daga": 7987,
      "Dinma": 7988,
      "Duwa": 7989,
      "Gan": 7990,
      "Gab": 7991,
      "Gisi": 7992,
      "Galangun": 7993,
      "Ib": 7994,
      "Ibid": 7995,
      "Iinalistu": 7996,
      "Ilat": 7997,
      "Ipatalu": 7998,
      "Kul": 7999,
      "Kim": 8000,
      "Kabag": 8001,
      "Lag": 8002,
      "Lagat": 8003,
      "Ladan": 8004,
      "Musa": 8005,
      "Nit": 8006,
      "Nayut": 8007,
      "Put": 8008,
      "Puma": 8009,
      "Pakuri": 8010,
      "Ris": 8011,
      "Sha": 8012,
      "Uma": 8013,
      "Uhula": 8014,
      "bsug": 8015,
      "dr": 8016,
      "dyil": 8017,
      "gayakun": 8018,
      "haban": 8019,
      "ihi": 8020,
      "itun": 8021,
      "isinabi": 8022,
      "iatubang": 8023,
      "ihigut": 8024,
      "ihid": 8025,
      "ihinunat": 8026,
      "krab": 8027,
      "pni": 8028,
      "sgan": 8029,
      "sanas": 8030,
      "umag": 8031,
      "udi": 8032,
      "upi": 8033,
      "uyug": 8034,
      "uwarta": 8035,
      "ukub": 8036,
      "umataytag": 8037,
      "ypun": 8038,
      "yngu": 8039,
      "sas": 8040,
      "angu": 8041,
      "kasal": 8042,
      "kaayu": 8043,
      "kapun": 8044,
      "kalalaki": 8045,
      "kadulu": 8046,
      "kaarayu": 8047,
      "kalagti": 8048,
      "kaduraan": 8049,
      "kapanagutan": 8050,
      "iniba": 8051,
      "inibahan": 8052,
      "data": 8053,
      "dami": 8054,
      "dayan": 8055,
      "dahanan": 8056,
      "tikan": 8057,
      "nipulaw": 8058,
      "mabag": 8059,
      "mamaw": 8060,
      "mabagaw": 8061,
      "malayan": 8062,
      "marup": 8063,
      "mamirmaminti": 8064,
      "matulsan": 8065,
      "mawayakan": 8066,
      "mabaritaan": 8067,
      "mangalistu": 8068,
      "mangasikasu": 8069,
      "pagli": 8070,
      "pagsun": 8071,
      "pagustu": 8072,
      "pagpirmi": 8073,
      "paglukat": 8074,
      "pagpigil": 8075,
      "pagkagu": 8076,
      "pagdungugun": 8077,
      "pagsangputun": 8078,
      "paghigpiti": 8079,
      "pausa": 8080,
      "pamas": 8081,
      "pakihampang": 8082,
      "pahalgaan": 8083,
      "pasalamatan": 8084,
      "paayada": 8085,
      "pauranun": 8086,
      "yab": 8087,
      "yahi": 8088,
      "yabas": 8089,
      "kusan": 8090,
      "kubli": 8091,
      "kumumun": 8092,
      "algub": 8093,
      "ugut": 8094,
      "mud": 8095,
      "mutul": 8096,
      "muyan": 8097,
      "risir": 8098,
      "manab": 8099,
      "mansulud": 8100,
      "manpakaun": 8101,
      "manlunggungan": 8102,
      "manlalabanan": 8103,
      "manharab": 8104,
      "mandr": 8105,
      "mansanas": 8106,
      "magtunug": 8107,
      "magkis": 8108,
      "magdaus": 8109,
      "magparig": 8110,
      "magdugsun": 8111,
      "magpangailangan": 8112,
      "magtayak": 8113,
      "maghanda": 8114,
      "magsalakay": 8115,
      "magmalahalan": 8116,
      "magmirinsanan": 8117,
      "maggarya": 8118,
      "magsimray": 8119,
      "magpugad": 8120,
      "magtiktik": 8121,
      "magarya": 8122,
      "tuma": 8123,
      "tukud": 8124,
      "tuhug": 8125,
      "rakan": 8126,
      "raim": 8127,
      "watak": 8128,
      "warawawan": 8129,
      "abaya": 8130,
      "abyaw": 8131,
      "buma": 8132,
      "buhun": 8133,
      "budan": 8134,
      "buduy": 8135,
      "bukadun": 8136,
      "buyuk": 8137,
      "buklad": 8138,
      "bumisug": 8139,
      "nadaya": 8140,
      "nauryan": 8141,
      "narubay": 8142,
      "nawasak": 8143,
      "natabunan": 8144,
      "namantay": 8145,
      "namagrit": 8146,
      "diklahan": 8147,
      "alami": 8148,
      "gantang": 8149,
      "sut": 8150,
      "subukun": 8151,
      "bada": 8152,
      "baal": 8153,
      "bahun": 8154,
      "basan": 8155,
      "barak": 8156,
      "baring": 8157,
      "barantayan": 8158,
      "lihus": 8159,
      "inapu": 8160,
      "inapasan": 8161,
      "puy": 8162,
      "pulan": 8163,
      "ruhan": 8164,
      "rubi": 8165,
      "mayagtingan": 8166,
      "gapus": 8167,
      "gamita": 8168,
      "duan": 8169,
      "durug": 8170,
      "duawan": 8171,
      "kidun": 8172,
      "kimut": 8173,
      "Dimit": 8174,
      "akupahan": 8175,
      "gitas": 8176,
      "nagpaka": 8177,
      "nagdugay": 8178,
      "nagwayak": 8179,
      "nagtulbaw": 8180,
      "nagsagda": 8181,
      "nagbawi": 8182,
      "nagbulus": 8183,
      "naglinug": 8184,
      "naglinuwang": 8185,
      "nagtangda": 8186,
      "nagpinalagiw": 8187,
      "hurim": 8188,
      "nuk": 8189,
      "dugpak": 8190,
      "mpilya": 8191,
      "Pagsulud": 8192,
      "Pagluwang": 8193,
      "Pagsaadan": 8194,
      "Pagtukad": 8195,
      "Paggiyahan": 8196,
      "Hisir": 8197,
      "Dar": 8198,
      "Daranginan": 8199,
      "panmarka": 8200,
      "ilid": 8201,
      "ilitu": 8202,
      "ilidan": 8203,
      "Nam": 8204,
      "Naawa": 8205,
      "Nasalman": 8206,
      "langba": 8207,
      "Huray": 8208,
      "Huyarib": 8209,
      "Isya": 8210,
      "Isyun": 8211,
      "Iskul": 8212,
      "udun": 8213,
      "udtu": 8214,
      "pinatu": 8215,
      "pinausa": 8216,
      "pinadaka": 8217,
      "pinasulung": 8218,
      "pinatutuuhanan": 8219,
      "pinakin": 8220,
      "pinakadaut": 8221,
      "pinatindugan": 8222,
      "pinainman": 8223,
      "pinauranan": 8224,
      "makasarig": 8225,
      "makasakit": 8226,
      "makatanum": 8227,
      "makabili": 8228,
      "makatalu": 8229,
      "makapakarayu": 8230,
      "makaatubang": 8231,
      "makapaniwala": 8232,
      "makaparig": 8233,
      "makapalwas": 8234,
      "Sita": 8235,
      "Sibul": 8236,
      "Siib": 8237,
      "Sitar": 8238,
      "utlu": 8239,
      "gutay": 8240,
      "gumanti": 8241,
      "Samay": 8242,
      "Sarisir": 8243,
      "Magdayaw": 8244,
      "Magtudlu": 8245,
      "Maglawuy": 8246,
      "Magkaga": 8247,
      "Magringgit": 8248,
      "Magharampangan": 8249,
      "Maglulumian": 8250,
      "yunay": 8251,
      "tagwak": 8252,
      "manugbagasbas": 8253,
      "atihi": 8254,
      "ibahi": 8255,
      "masing": 8256,
      "binayadan": 8257,
      "biniyagan": 8258,
      "sinay": 8259,
      "sinsiya": 8260,
      "sinirbi": 8261,
      "tinig": 8262,
      "Pagkarinu": 8263,
      "arkan": 8264,
      "pariga": 8265,
      "itbit": 8266,
      "paraulian": 8267,
      "paratabgan": 8268,
      "Mamatindug": 8269,
      "Mapnu": 8270,
      "Mamwat": 8271,
      "Nub": 8272,
      "magkabuu": 8273,
      "magkalakaw": 8274,
      "magkasakit": 8275,
      "magkalimut": 8276,
      "pinalakaw": 8277,
      "rusahi": 8278,
      "saling": 8279,
      "Nagtudlu": 8280,
      "Nagdipay": 8281,
      "Nagtiripun": 8282,
      "Nagdaus": 8283,
      "Naglinuwang": 8284,
      "mangingay": 8285,
      "ipinaati": 8286,
      "ipinapalad": 8287,
      "ipinahiwat": 8288,
      "ayum": 8289,
      "labanun": 8290,
      "sugua": 8291,
      "pagkaanak": 8292,
      "pagkayamu": 8293,
      "pagkampihan": 8294,
      "aluhun": 8295,
      "alumuy": 8296,
      "Inalagaan": 8297,
      "Inmati": 8298,
      "nandaya": 8299,
      "nandangup": 8300,
      "nanultul": 8301,
      "nanipag": 8302,
      "tungun": 8303,
      "tungbaw": 8304,
      "Agag": 8305,
      "pundu": 8306,
      "ipainum": 8307,
      "ipabihag": 8308,
      "ipahusay": 8309,
      "ipahayag": 8310,
      "ipahimalad": 8311,
      "ikakay": 8312,
      "ikasal": 8313,
      "ikarib": 8314,
      "magpatudlu": 8315,
      "magpaawat": 8316,
      "magpaalaala": 8317,
      "magpatungud": 8318,
      "magpaburayhaw": 8319,
      "magpaamut": 8320,
      "kulkulu": 8321,
      "maani": 8322,
      "rinmayaw": 8323,
      "sirngan": 8324,
      "Sinmaka": 8325,
      "Sintinsiya": 8326,
      "Sinalakay": 8327,
      "Sinsusa": 8328,
      "Sinikarib": 8329,
      "nakahimu": 8330,
      "nakatipun": 8331,
      "nakapasalamat": 8332,
      "nakaslud": 8333,
      "darahi": 8334,
      "irisgan": 8335,
      "Parus": 8336,
      "Paatay": 8337,
      "Paalala": 8338,
      "Paayadun": 8339,
      "Parusahi": 8340,
      "karamdaman": 8341,
      "linmus": 8342,
      "linmayang": 8343,
      "linangu": 8344,
      "pagpabuwat": 8345,
      "pagpakurian": 8346,
      "pagpatutuuhanan": 8347,
      "pagpadamhak": 8348,
      "pagpadalaun": 8349,
      "pagpabisugun": 8350,
      "pagpamuhunun": 8351,
      "dangat": 8352,
      "dangaw": 8353,
      "urungan": 8354,
      "linakaw": 8355,
      "nangingay": 8356,
      "nangirkirug": 8357,
      "tapusun": 8358,
      "manakaw": 8359,
      "maras": 8360,
      "marapakaun": 8361,
      "marabaskug": 8362,
      "maratabul": 8363,
      "Binilang": 8364,
      "banggi": 8365,
      "kagtun": 8366,
      "kaganit": 8367,
      "nagpaturun": 8368,
      "nagpahayag": 8369,
      "nagpalpas": 8370,
      "Hatak": 8371,
      "Hamin": 8372,
      "payagun": 8373,
      "Lihi": 8374,
      "daranginan": 8375,
      "mpas": 8376,
      "himud": 8377,
      "Pinaingarnan": 8378,
      "Pinasulungan": 8379,
      "Sup": 8380,
      "Suan": 8381,
      "Surip": 8382,
      "Suwal": 8383,
      "labagun": 8384,
      "Buki": 8385,
      "asantag": 8386,
      "tinap": 8387,
      "tinakawan": 8388,
      "tinakigan": 8389,
      "palagiwan": 8390,
      "Mandara": 8391,
      "Manlumi": 8392,
      "Mansagda": 8393,
      "Ipinaabwat": 8394,
      "ambag": 8395,
      "Baala": 8396,
      "Bahurim": 8397,
      "burutangan": 8398,
      "dayuan": 8399,
      "lagpak": 8400,
      "laguluhan": 8401,
      "umamat": 8402,
      "umaput": 8403,
      "sanglitan": 8404,
      "Ilinu": 8405,
      "Ilyunay": 8406,
      "mitsa": 8407,
      "kinalaman": 8408,
      "Gimaryas": 8409,
      "pinakasulud": 8410,
      "pinakaarani": 8411,
      "pinakamaisug": 8412,
      "Riyu": 8413,
      "Samwa": 8414,
      "Nibay": 8415,
      "Iliasa": 8416,
      "Bibay": 8417,
      "Biilsi": 8418,
      "makapatutuu": 8419,
      "makapadugay": 8420,
      "makapabisug": 8421,
      "makapaliwanag": 8422,
      "tiripulan": 8423,
      "dinmulud": 8424,
      "Manuglalang": 8425,
      "agura": 8426,
      "nagkal": 8427,
      "Isikil": 8428,
      "Abisag": 8429,
      "Abisuwa": 8430,
      "Ipap": 8431,
      "Ipaku": 8432,
      "Ipamatay": 8433,
      "Ipaalam": 8434,
      "Ipaabwat": 8435,
      "Ipasakup": 8436,
      "Ipadamhak": 8437,
      "haraim": 8438,
      "Nanu": 8439,
      "Nanlalabanan": 8440,
      "sinaputan": 8441,
      "sinampit": 8442,
      "sinaktan": 8443,
      "mirtu": 8444,
      "kampuhan": 8445,
      "amumutul": 8446,
      "pinansin": 8447,
      "pinandaut": 8448,
      "budlayan": 8449,
      "kinarudkud": 8450,
      "Lubada": 8451,
      "bakyang": 8452,
      "kasupangan": 8453,
      "ihinu": 8454,
      "ihina": 8455,
      "bilihan": 8456,
      "itinalaghut": 8457,
      "sumpaun": 8458,
      "Pagpabuwat": 8459,
      "tinumpuk": 8460,
      "marikut": 8461,
      "magkarapugdak": 8462,
      "ubahan": 8463,
      "pamahalaun": 8464,
      "galing": 8465,
      "Magkaimaw": 8466,
      "Magkabuhi": 8467,
      "Magkakilala": 8468,
      "Kumumun": 8469,
      "tukbun": 8470,
      "Simrun": 8471,
      "Arpad": 8472,
      "ibinungsud": 8473,
      "mapabay": 8474,
      "pagtamaun": 8475,
      "Ahiyu": 8476,
      "sungyaw": 8477,
      "Arabu": 8478,
      "Bulan": 8479,
      "Laudi": 8480,
      "uyanga": 8481,
      "bulusan": 8482,
      "ginarya": 8483,
      "ginatus": 8484,
      "kumilala": 8485,
      "kumampu": 8486,
      "dinaug": 8487,
      "manugpaliwanag": 8488,
      "tiriguhan": 8489,
      "binawi": 8490,
      "garapgap": 8491,
      "madalit": 8492,
      "mamauli": 8493,
      "pinagkausahan": 8494,
      "maibalik": 8495,
      "tinikis": 8496,
      "asikasuhun": 8497,
      "malagpakan": 8498,
      "Dinaya": 8499,
      "Tinakluban": 8500,
      "mamuduy": 8501,
      "mamululagan": 8502,
      "pagsulang": 8503,
      "namuul": 8504,
      "hantupun": 8505,
      "Kidi": 8506,
      "pinalwasan": 8507,
      "Anti": 8508,
      "Nakadnug": 8509,
      "Ilyada": 8510,
      "manpakihampang": 8511,
      "Asil": 8512,
      "kadugayan": 8513,
      "maghirut": 8514,
      "girik": 8515,
      "hinampangan": 8516,
      "hinamnu": 8517,
      "linibut": 8518,
      "Pinanalu": 8519,
      "Aduni": 8520,
      "parangalan": 8521,
      "namauli": 8522,
      "namaalam": 8523,
      "igpilan": 8524,
      "Gibyunita": 8525,
      "Kinaun": 8526,
      "Rinunut": 8527,
      "alakpa": 8528,
      "binansagan": 8529,
      "Mirab": 8530,
      "Duig": 8531,
      "Tigbak": 8532,
      "Tiglat": 8533,
      "Dinakup": 8534,
      "masamitan": 8535,
      "pasibut": 8536,
      "sumakup": 8537,
      "tinagum": 8538,
      "Ginisi": 8539,
      "maragritan": 8540,
      "dinura": 8541,
      "salakayun": 8542,
      "nanawag": 8543,
      "Kantahi": 8544,
      "ilinubus": 8545,
      "magyaman": 8546,
      "maglibak": 8547,
      "Hanuk": 8548,
      "Nagkausa": 8549,
      "guyud": 8550,
      "Sibwil": 8551,
      "itinibu": 8552,
      "Tabuni": 8553,
      "nguruyngu": 8554,
      "Ipinabili": 8555,
      "isinumpa": 8556,
      "Akbur": 8557,
      "anggihut": 8558,
      "pagkantahun": 8559,
      "liwliw": 8560,
      "umiba": 8561,
      "nalalang": 8562,
      "Linmuwas": 8563,
      "milihim": 8564,
      "tanudan": 8565,
      "Magpanlumuy": 8566,
      "Tinawagan": 8567,
      "libakun": 8568,
      "Isinugu": 8569,
      "sumuku": 8570,
      "gubaun": 8571,
      "Bigbay": 8572,
      "maglangba": 8573,
      "magsuku": 8574,
      "pagpatag": 8575,
      "Huktan": 8576,
      "linmaban": 8577,
      "amihanan": 8578,
      "Namarantayun": 8579,
      "idinaus": 8580,
      "Bugtung": 8581,
      "nagarya": 8582,
      "katagsing": 8583,
      "malinis": 8584,
      "pumangulu": 8585,
      "hinigtan": 8586,
      "hinigut": 8587,
      "magpamuya": 8588,
      "Lumpiyuhun": 8589,
      "paglubadun": 8590,
      "humusay": 8591,
      "sinanglay": 8592,
      "Libyatan": 8593,
      "Dugang": 8594,
      "Hatir": 8595,
      "tulakun": 8596,
      "itinakud": 8597,
      "balyuhan": 8598,
      "itinungbaw": 8599,
      "Ilimilik": 8600,
      "itigana": 8601,
      "mabata": 8602,
      "magkalaguluhan": 8603,
      "Migdul": 8604,
      "Talmay": 8605,
      "ilatyas": 8606,
      "Abarim": 8607,
      "ilantag": 8608,
      "matyanun": 8609,
      "magpalalagiwan": 8610,
      "Alihanduru": 8611,
      "angalhangal": 8612,
      "libru": 8613,
      "durunganan": 8614,
      "Tisbi": 8615,
      "minuransa": 8616,
      "panaklub": 8617,
      "pinathaw": 8618,
      "pagpalpasan": 8619,
      "Ibinuhus": 8620,
      "bulaklak": 8621,
      "lambat": 8622,
      "humiling": 8623,
      "Siparbaim": 8624,
      "Paanyui": 8625,
      "matabwan": 8626,
      "tinatakan": 8627,
      "kirisulitu": 8628,
      "Atinas": 8629,
      "Dinmasun": 8630,
      "Pakurianan": 8631,
      "Shaul": 8632,
      "umagwanta": 8633,
      "kaayusan": 8634,
      "kalalakihan": 8635,
      "kaduluman": 8636,
      "mandragura": 8637,
      "magkislap": 8638,
      "Dimitriyu": 8639,
      "Magkagasa": 8640,
      "sinirbihan": 8641,
      "salingsing": 8642,
      "Biilsibul": 8643,
      "tiripulanti": 8644,
      "Laudisiya": 8645,
      "nguruynguyan": 8646,
      "150": 8647,
      "39": 8648,
      "62": 8649,
      "66": 8650,
      "75": 8651,
      "95": 8652,
      "Ani": 8653,
      "Ayi": 8654,
      "Ahil": 8655,
      "Ahu": 8656,
      "Argu": 8657,
      "Aris": 8658,
      "Arayu": 8659,
      "Amisa": 8660,
      "Ahul": 8661,
      "Ayisir": 8662,
      "Dal": 8663,
      "Dutan": 8664,
      "Danaw": 8665,
      "Galit": 8666,
      "Hala": 8667,
      "Hinan": 8668,
      "Haban": 8669,
      "Hagi": 8670,
      "Hilis": 8671,
      "Hing": 8672,
      "Hatus": 8673,
      "Im": 8674,
      "Ilu": 8675,
      "Iuli": 8676,
      "Iminsan": 8677,
      "Idir": 8678,
      "Inuli": 8679,
      "Idina": 8680,
      "Ipalakaw": 8681,
      "Ibinug": 8682,
      "Imna": 8683,
      "Italya": 8684,
      "Ikadwa": 8685,
      "Iyinamut": 8686,
      "Kun": 8687,
      "Kisi": 8688,
      "Kayamu": 8689,
      "Kinulbaan": 8690,
      "Lid": 8691,
      "Mit": 8692,
      "Nani": 8693,
      "Pana": 8694,
      "Pali": 8695,
      "Punu": 8696,
      "Payidan": 8697,
      "Pilatyas": 8698,
      "Raya": 8699,
      "Runutun": 8700,
      "Sang": 8701,
      "Sinul": 8702,
      "Til": 8703,
      "Tabu": 8704,
      "Tinma": 8705,
      "Tabita": 8706,
      "Tapus": 8707,
      "Tunga": 8708,
      "Taluhun": 8709,
      "Upat": 8710,
      "Upil": 8711,
      "Umab": 8712,
      "Widwisikan": 8713,
      "Yawi": 8714,
      "ap": 8715,
      "ada": 8716,
      "adalan": 8717,
      "amiraw": 8718,
      "bgun": 8719,
      "dlay": 8720,
      "dlad": 8721,
      "gsay": 8722,
      "hagi": 8723,
      "haba": 8724,
      "hagadan": 8725,
      "iina": 8726,
      "ipan": 8727,
      "ibay": 8728,
      "iawat": 8729,
      "iwaan": 8730,
      "idamhak": 8731,
      "ipinan": 8732,
      "itanum": 8733,
      "ikuyug": 8734,
      "iwasan": 8735,
      "ibangdan": 8736,
      "ipinanalu": 8737,
      "kta": 8738,
      "kyan": 8739,
      "kbun": 8740,
      "lyam": 8741,
      "mugay": 8742,
      "milat": 8743,
      "nung": 8744,
      "nali": 8745,
      "nalangu": 8746,
      "pilita": 8747,
      "pugu": 8748,
      "rili": 8749,
      "tinan": 8750,
      "ubi": 8751,
      "urup": 8752,
      "wun": 8753,
      "wit": 8754,
      "wsaw": 8755,
      "yla": 8756,
      "yinma": 8757,
      "anud": 8758,
      "andam": 8759,
      "anuy": 8760,
      "agham": 8761,
      "saput": 8762,
      "sabak": 8763,
      "samitan": 8764,
      "sapilitan": 8765,
      "kalahi": 8766,
      "kaapu": 8767,
      "kakuri": 8768,
      "kaabwat": 8769,
      "kaarani": 8770,
      "katurug": 8771,
      "kaugalian": 8772,
      "kaupahan": 8773,
      "intas": 8774,
      "inalangun": 8775,
      "damhakan": 8776,
      "dahas": 8777,
      "aynu": 8778,
      "tira": 8779,
      "tigana": 8780,
      "nid": 8781,
      "nisar": 8782,
      "niminsan": 8783,
      "nisalup": 8784,
      "nidugsak": 8785,
      "nilantag": 8786,
      "angad": 8787,
      "sil": 8788,
      "sigu": 8789,
      "sihal": 8790,
      "sipun": 8791,
      "siing": 8792,
      "main": 8793,
      "maina": 8794,
      "mapihu": 8795,
      "mapug": 8796,
      "maaman": 8797,
      "masukadan": 8798,
      "mawasak": 8799,
      "marangga": 8800,
      "mahigtan": 8801,
      "madugsakan": 8802,
      "mabugtas": 8803,
      "pagu": 8804,
      "pagpu": 8805,
      "pagban": 8806,
      "pagkil": 8807,
      "pagsagut": 8808,
      "paggus": 8809,
      "pagguwardiya": 8810,
      "pagpatagu": 8811,
      "pagluwang": 8812,
      "pagriklamu": 8813,
      "pagpatayak": 8814,
      "pagtukad": 8815,
      "pagtipunan": 8816,
      "pagmapinakumbabaun": 8817,
      "pagsisi": 8818,
      "pagmaalumanay": 8819,
      "pagdauta": 8820,
      "pagtunawun": 8821,
      "paun": 8822,
      "pait": 8823,
      "pamayad": 8824,
      "padayaw": 8825,
      "pamara": 8826,
      "paalaala": 8827,
      "pabisug": 8828,
      "pasalanun": 8829,
      "kumis": 8830,
      "almug": 8831,
      "yupa": 8832,
      "yugan": 8833,
      "tawan": 8834,
      "takipan": 8835,
      "takalan": 8836,
      "ugang": 8837,
      "ilpit": 8838,
      "rihan": 8839,
      "rigan": 8840,
      "riyil": 8841,
      "riruk": 8842,
      "manhi": 8843,
      "mandaut": 8844,
      "manluwas": 8845,
      "manbuul": 8846,
      "manhusay": 8847,
      "manpamahala": 8848,
      "manpasalamat": 8849,
      "manpakarayu": 8850,
      "manriklamu": 8851,
      "mandaus": 8852,
      "manluhud": 8853,
      "mansalakay": 8854,
      "magsawad": 8855,
      "maging": 8856,
      "magbarita": 8857,
      "maglumpiyu": 8858,
      "magtagu": 8859,
      "magguwardiya": 8860,
      "magbangun": 8861,
      "magdag": 8862,
      "magtukaw": 8863,
      "magruris": 8864,
      "magbiyag": 8865,
      "maglingut": 8866,
      "magtim": 8867,
      "magluhud": 8868,
      "magtalang": 8869,
      "maglalabanan": 8870,
      "magdimanda": 8871,
      "maglubay": 8872,
      "magpirmaminti": 8873,
      "magmaratyan": 8874,
      "maghamuy": 8875,
      "maglili": 8876,
      "magluksu": 8877,
      "magtalimbuuk": 8878,
      "magkulkulu": 8879,
      "maganuy": 8880,
      "tumi": 8881,
      "tuhu": 8882,
      "rarug": 8883,
      "rawagan": 8884,
      "abagun": 8885,
      "bumin": 8886,
      "luli": 8887,
      "ludan": 8888,
      "lubusan": 8889,
      "inululi": 8890,
      "napu": 8891,
      "napakan": 8892,
      "naulid": 8893,
      "naruris": 8894,
      "napatlikud": 8895,
      "napalwas": 8896,
      "naparaw": 8897,
      "hama": 8898,
      "hail": 8899,
      "hapit": 8900,
      "did": 8901,
      "dim": 8902,
      "tanang": 8903,
      "ayaman": 8904,
      "gantihan": 8905,
      "sulay": 8906,
      "suriyu": 8907,
      "ligawun": 8908,
      "inaan": 8909,
      "inapi": 8910,
      "inatagan": 8911,
      "pumili": 8912,
      "gad": 8913,
      "gatung": 8914,
      "gasila": 8915,
      "Pangungud": 8916,
      "Pangunahan": 8917,
      "dutan": 8918,
      "dumang": 8919,
      "dukut": 8920,
      "durut": 8921,
      "dulawan": 8922,
      "kiku": 8923,
      "niyam": 8924,
      "hira": 8925,
      "ladun": 8926,
      "Disan": 8927,
      "Dirbi": 8928,
      "kunsihal": 8929,
      "mid": 8930,
      "miuli": 8931,
      "misis": 8932,
      "miblag": 8933,
      "mipulaw": 8934,
      "misugdung": 8935,
      "gipak": 8936,
      "nagmahal": 8937,
      "nagkag": 8938,
      "nagsakup": 8939,
      "nagtuhay": 8940,
      "nagdayu": 8941,
      "nagruku": 8942,
      "nagdaya": 8943,
      "naglinu": 8944,
      "nagbili": 8945,
      "nagmakapangyarihan": 8946,
      "naghistuda": 8947,
      "nagbisug": 8948,
      "naggamit": 8949,
      "nagtukaw": 8950,
[...]
