{
  "version": "1.0",
  "truncation": null,
  "padding": null,
  "added_tokens": [
    {
      "id": 0,
      "content": "<pad>",
      "single_word": false,
      "lstrip": false,
      "rstrip": false,
      "normalized": false,
      "special": true
    },
    {
      "id": 1,
      "content": "<unk>",
      "single_word": false,
      "lstrip": false,
      "rstrip": false,
      "normalized": false,
      "special": true
    },
    {
      "id": 2,
      "content": "<s>",
      "single_word": false,
      "lstrip": false,
      "rstrip": false,
      "normalized": false,
      "special": true
    },
    {
      "id": 3,
      "content": "</s>",
      "single_word": false,
      "lstrip": false,
      "rstrip": false,
      "normalized": false,
      "special": true
    }
  ],
  "normalizer": null,
  "pre_tokenizer": {
    "type": "Sequence",
    "pretokenizers": [
      {
        "type": "Whitespace"
      },
      {
        "type": "Split",
        "pattern": {
          "Regex": "(?<=[ऀ-ॿ஀-௿฀-๿຀-໿က-႟ក-៿一-鿿꤀-꤯])(?=[A-Za-z0-9])|(?<=[A-Za-z0-9])(?=[ऀ-ॿ஀-௿฀-๿຀-໿က-႟ក-៿一-鿿꤀-꤯])"
        },
        "behavior": "Isolated",
        "invert": false
      }
    ]
  },
  "post_processor": null,
  "decoder": null,
  "model": {
    "type": "BPE",
    "dropout": null,
    "unk_token": "<unk>",
    "continuing_subword_prefix": null,
    "end_of_word_suffix": null,
    "fuse_unk": false,
    "byte_fallback": false,
    "ignore_merges": false,
    "vocab": {
      "<pad>": 0,
      "<unk>": 1,
      "<s>": 2,
      "</s>": 3,
      "(": 4,
      ")": 5,
      ",": 6,
      ".": 7,
      "[": 8,
      "]": 9,
      "က": 10,
      "ခ": 11,
      "ဂ": 12,
      "ဃ": 13,
      "င": 14,
      "စ": 15,
      "ဆ": 16,
      "ဇ": 17,
      "ဈ": 18,
      "ဉ": 19,
      "ည": 20,
      "ဋ": 21,
      "ဌ": 22,
      "ဍ": 23,
      "ဏ": 24,
      "တ": 25,
      "ထ": 26,
      "ဒ": 27,
      "ဓ": 28,
      "န": 29,
      "ပ": 30,
      "ဖ": 31,
      "ဗ": 32,
      "ဘ": 33,
      "မ": 34,
      "ယ": 35,
      "ရ": 36,
      "လ": 37,
      "ဝ": 38,
      "သ": 39,
      "ဟ": 40,
      "ဠ": 41,
      "အ": 42,
      "ဣ": 43,
      "ဤ": 44,
      "ဥ": 45,
      "ဦ": 46,
      "ဧ": 47,
      "ဩ": 48,
      "ါ": 49,
      "ာ": 50,
      "ိ": 51,
      "ီ": 52,
      "ု": 53,
      "ူ": 54,
      "ေ": 55,
      "ဲ": 56,
      "ံ": 57,
      "့": 58,
      "း": 59,
      "္": 60,
      "်": 61,
      "ျ": 62,
      "ြ": 63,
      "ွ": 64,
      "ှ": 65,
      "ဿ": 66,
      "၀": 67,
      "၁": 68,
      "၂": 69,
      "၃": 70,
      "၄": 71,
      "၅": 72,
      "၆": 73,
      "၇": 74,
      "၈": 75,
      "၉": 76,
      "၊": 77,
      "။": 78,
      "၌": 79,
      "၍": 80,
      "၎": 81,
      "၏": 82,
      "​": 83,
      "‌": 84,
      "—": 85,
      "‘": 86,
      "’": 87,
      "“": 88,
      "”": 89,
      "ို": 90,
      "ော": 91,
      "င်": 92,
      "ည်": 93,
      "ား": 94,
      "ို့": 95,
      "က်": 96,
      "့်": 97,
      "ကို": 98,
      "ကြ": 99,
      "င်း": 100,
      "သည်": 101,
      "ော်": 102,
      "န်": 103,
      "စ်": 104,
      "ရို့": 105,
      "သော": 106,
      "တော်": 107,
      "၏။": 108,
      "င့်": 109,
      "ပြ": 110,
      "တ်": 111,
      "သူ": 112,
      "ီး": 113,
      "ဖြ": 114,
      "ျှ": 115,
      "ောက်": 116,
      "ည်း": 117,
      "ခြ": 118,
      "နှ": 119,
      "ငါ": 120,
      "ိမ": 121,
      "ောင်း": 122,
      "သို့": 123,
      "မှ": 124,
      "ဖြစ်": 125,
      "မူ": 126,
      "သင်": 127,
      "ုံ": 128,
      "ခြင်း": 129,
      "ရား": 130,
      "ထို": 131,
      "ယ်": 132,
      "မျ": 133,
      "အား": 134,
      "ပ်": 135,
      "ဟု": 136,
      "တော်မူ": 137,
      "ချ": 138,
      "ရို့သည်": 139,
      "တိ": 140,
      "မြ": 141,
      "ကျ": 142,
      "နှင့်": 143,
      "လည်း": 144,
      "ဘု": 145,
      "ဟိ": 146,
      "သျှ": 147,
      "ိန်": 148,
      "ိုး": 149,
      "ပါ": 150,
      "ခင်": 151,
      "ဘုရား": 152,
      "ည့်": 153,
      "တွ": 154,
      "သခင်": 155,
      "မည်": 156,
      "ရာ": 157,
      "တစ်": 158,
      "စီ": 159,
      "ိုင်": 160,
      "များ": 161,
      "လူ": 162,
      "ောင်": 163,
      "လျှ": 164,
      "ကား": 165,
      "်း": 166,
      "လာ": 167,
      "ကောင်း": 168,
      "ဘုရားသခင်": 169,
      "ုံး": 170,
      "သင်ရို့": 171,
      "ကိုယ်": 172,
      "န့်": 173,
      "ောင့်": 174,
      "ခံ": 175,
      "သောသူ": 176,
      "ပြီး": 177,
      "လျှင်": 178,
      "မ်း": 179,
      "ေါ": 180,
      "ယေ": 181,
      "ဖြင့်": 182,
      "လော": 183,
      "လို": 184,
      "အခ": 185,
      "ွန်": 186,
      "အသ": 187,
      "သျှု": 188,
      "ယေသျှု": 189,
      "ိမ့်": 190,
      "ဆို": 191,
      "ပြော": 192,
      "နိန်": 193,
      "ထား": 194,
      "ိ့": 195,
      "သား": 196,
      "ကြောင်း": 197,
      "ကြောင့်": 198,
      "သူရို့": 199,
      "ျက်": 200,
      "လိမ့်": 201,
      "ပီး": 202,
      "လိမ့်မည်": 203,
      "ိမိ": 204,
      "တွင်": 205,
      "လေ": 206,
      "ပြု": 207,
      "ုပ်": 208,
      "အခါ": 209,
      "ရှ": 210,
      "မိမိ": 211,
      "လား": 212,
      "စွ": 213,
      "မိ": 214,
      "တရား": 215,
      "ကိုယ်တော်": 216,
      "ဇာ": 217,
      "နိုင်": 218,
      "ယောက်": 219,
      "ရန်": 220,
      "သည့်": 221,
      "ပါး": 222,
      "ရွ": 223,
      "သာ": 224,
      "အကြောင်း": 225,
      "လုံး": 226,
      "ိတ်": 227,
      "လျက်": 228,
      "ိုင်း": 229,
      "ပေါ": 230,
      "သော်": 231,
      "ဉ်": 232,
      "န်း": 233,
      "အကျ": 234,
      "လော့": 235,
      "ထို့": 236,
      "နောက်": 237,
      "ငါရို့": 238,
      "ကြီး": 239,
      "အရာ": 240,
      "လည်းကောင်း": 241,
      "လိုက်": 242,
      "အတ": 243,
      "တိကို": 244,
      "မျိုး": 245,
      "သင်ရို့သည်": 246,
      "မှု": 247,
      "စား": 248,
      "ူး": 249,
      "မျှ": 250,
      "ငှ": 251,
      "ငါ့": 252,
      "မိန့်": 253,
      "တစ်ယောက်": 254,
      "ေး": 255,
      "စွာ": 256,
      "သူရို့သည်": 257,
      "ဆောင်": 258,
      "ရောက်": 259,
      "ိမ်": 260,
      "စာ": 261,
      "မြို့": 262,
      "နည်း": 263,
      "ငှာ": 264,
      "မှာ": 265,
      "နာ": 266,
      "ကြည်": 267,
      "ယုံ": 268,
      "သိ": 269,
      "ခရ": 270,
      "တော်ကို": 271,
      "ငါသည်": 272,
      "ဟုတ်": 273,
      "ထဲ": 274,
      "သျှင်": 275,
      "သီ": 276,
      "အပြ": 277,
      "ုတ်": 278,
      "ပင်": 279,
      "ခြင်းငှာ": 280,
      "များကို": 281,
      "ိန်း": 282,
      "သောအခါ": 283,
      "ယှ": 284,
      "ယုံကြည်": 285,
      "လက်": 286,
      "မဟုတ်": 287,
      "ဲ့": 288,
      "ကာ": 289,
      "မိန့်တော်မူ": 290,
      "ပြီးလျှင်": 291,
      "ခြင်းကို": 292,
      "ညာ": 293,
      "ယူ": 294,
      "စိတ်": 295,
      "မြင်": 296,
      "ထက်": 297,
      "သူသည်": 298,
      "အားဖြင့်": 299,
      "မူကား": 300,
      "အချ": 301,
      "ရု": 302,
      "အတွ": 303,
      "ကြလော့": 304,
      "ရပ်": 305,
      "စကား": 306,
      "မိန်း": 307,
      "မာ": 308,
      "ကြား": 309,
      "ပြန်": 310,
      "သက်": 311,
      "ခရစ်": 312,
      "လုပ်": 313,
      "ကြွ": 314,
      "အဖ": 315,
      "ပေ": 316,
      "သော်လည်း": 317,
      "သည်ကို": 318,
      "ရော": 319,
      "အပြစ်": 320,
      "ခေါ": 321,
      "အသက်": 322,
      "သောကြောင့်": 323,
      "နီ": 324,
      "ညီ": 325,
      "အကျွန်": 326,
      "ွက်": 327,
      "နား": 328,
      "အတွက်": 329,
      "ဝိ": 330,
      "ိုက်": 331,
      "ကင်": 332,
      "တည်း": 333,
      "ခံရ": 334,
      "ကောင်းကင်": 335,
      "အသျှင်": 336,
      "ွင့်": 337,
      "ခရစ်တော်": 338,
      "တ္": 339,
      "ဂု": 340,
      "ဆုံး": 341,
      "တပ": 342,
      "ဟူ": 343,
      "အကြောင်းမူကား": 344,
      "တိုင်": 345,
      "အမှု": 346,
      "တပည့်": 347,
      "နှစ်": 348,
      "အတူ": 349,
      "ညာဉ်": 350,
      "အာ": 351,
      "အလ": 352,
      "မဟိ": 353,
      "တောင်း": 354,
      "တတ်": 355,
      "ခြား": 356,
      "ရွှ": 357,
      "ခု": 358,
      "နိ့": 359,
      "တင်": 360,
      "ကဲ့": 361,
      "ကတ်": 362,
      "ခေါ်": 363,
      "ပျ": 364,
      "ဟော": 365,
      "ထို့ကြောင့်": 366,
      "ယာ": 367,
      "ဝိညာဉ်": 368,
      "ဖက်": 369,
      "လူမျိုး": 370,
      "ရင်": 371,
      "မှန်": 372,
      "ရာတွင်": 373,
      "လု": 374,
      "ဝင်": 375,
      "လျှောက်": 376,
      "မွ": 377,
      "ငါရို့သည်": 378,
      "တန်": 379,
      "ပေါင်း": 380,
      "ယု": 381,
      "လှ": 382,
      "ွဲ": 383,
      "၏”": 384,
      "တပည့်တော်": 385,
      "အားလုံး": 386,
      "တွိ့": 387,
      "ထို့နောက်": 388,
      "ကိုယ်တော်သည်": 389,
      "ထွက်": 390,
      "ံ့": 391,
      "ဘုရားသခင်သည်": 392,
      "ယေသျှုသည်": 393,
      "ကဲ့သို့": 394,
      "အိမ်": 395,
      "မြောက်": 396,
      "နိန်ကြ": 397,
      "ဘဲ": 398,
      "နှင့်အတူ": 399,
      "စုံ": 400,
      "စီခြင်းငှာ": 401,
      "သို့ရာတွင်": 402,
      "စဉ်": 403,
      "တမ": 404,
      "ယုဒ": 405,
      "န္": 406,
      "ပိုင်": 407,
      "သူ့": 408,
      "ကလည်း": 409,
      "ပါးသို့": 410,
      "ဟောပြော": 411,
      "သည်ကား": 412,
      "လင်": 413,
      "ါး": 414,
      "တော်မူသော": 415,
      "ထိုသို့": 416,
      "တမန်": 417,
      "ကေ": 418,
      "ုန်": 419,
      "ရှင်": 420,
      "အချိန်": 421,
      "တော": 422,
      "ဟိသော": 423,
      "သတ်": 424,
      "ပည": 425,
      "သင့်": 426,
      "လာကြ": 427,
      "ွယ်": 428,
      "မျက်": 429,
      "လဲ": 430,
      "သမ": 431,
      "ဦး": 432,
      "အပေါင်း": 433,
      "္ဂ": 434,
      "ပတ်": 435,
      "ထံ": 436,
      "ပြည်": 437,
      "ယှင်း": 438,
      "ပညတ်": 439,
      "အတိုင်း": 440,
      "ခိုး": 441,
      "ပု": 442,
      "အဂု": 443,
      "ဏ်": 444,
      "သင်ရို့အား": 445,
      "သခင်ဘုရား": 446,
      "သဖြင့်": 447,
      "ရီ": 448,
      "ငါ့ကို": 449,
      "ကျေး": 450,
      "ချက်": 451,
      "ကျမ်း": 452,
      "ပြောဆို": 453,
      "ရှိ့": 454,
      "ရိ": 455,
      "ရွှတ်": 456,
      "ယော": 457,
      "အရပ်": 458,
      "ဆင်း": 459,
      "ဝတ်": 460,
      "ကြလိမ့်မည်": 461,
      "ဇူး": 462,
      "စ္": 463,
      "သင်သည်": 464,
      "မြတ်": 465,
      "ဇ်": 466,
      "ကျေးဇူး": 467,
      "င်္ဂ": 468,
      "စု": 469,
      "အပ်": 470,
      "ထိုင်": 471,
      "တည်": 472,
      "လွ": 473,
      "ကေ့": 474,
      "တော်သည်": 475,
      "ထိုအခါ": 476,
      "သန့်": 477,
      "သတ": 478,
      "ဏာ": 479,
      "တူ": 480,
      "တစ်ခု": 481,
      "ထားသော": 482,
      "သမျှ": 483,
      "သောသူသည်": 484,
      "စ်ကို": 485,
      "ပေါလု": 486,
      "ထောင်": 487,
      "ဖို့": 488,
      "ကြောင်းကို": 489,
      "ငြ": 490,
      "ဆက်": 491,
      "ချစ်": 492,
      "မိမိရို့": 493,
      "ဖန်": 494,
      "သန့်ယှင်း": 495,
      "ဆိုး": 496,
      "ထိုသူ": 497,
      "တ္တ": 498,
      "ိမ်း": 499,
      "တန်ခိုး": 500,
      "ချင်း": 501,
      "ကိုယ်တော": 502,
      "ကိုယ်တော့်": 503,
      "ဆု": 504,
      "ရမည်": 505,
      "ဖြစ်ကြ": 506,
      "က္": 507,
      "မင်း": 508,
      "ယဇ်": 509,
      "ရက်": 510,
      "က္ခ": 511,
      "ကယ်": 512,
      "ထင်": 513,
      "မြီ": 514,
      "လိ": 515,
      "မည့်": 516,
      "အောင်": 517,
      "တစ်ပါး": 518,
      "သင်ရို့ကို": 519,
      "မေ": 520,
      "ဟိကြ": 521,
      "များသည်": 522,
      "အစ်ကို": 523,
      "ရို့အား": 524,
      "ပြည့်": 525,
      "ရဲ": 526,
      "ထိုသူရို့": 527,
      "လူတိ": 528,
      "မိန်းမ": 529,
      "အသက်ရှင်": 530,
      "ွန်း": 531,
      "လောက": 532,
      "ယေသျှုက": 533,
      "ဝမ်း": 534,
      "ချို့": 535,
      "နှုတ်": 536,
      "တိုင်း": 537,
      "တချို့": 538,
      "ညီအစ်ကို": 539,
      "စကားကို": 540,
      "အလို": 541,
      "ဆီး": 542,
      "သတင်း": 543,
      "မု": 544,
      "လည်": 545,
      "ကိုယ်တော့်ကို": 546,
      "စစ်": 547,
      "ဖြစ်စီ": 548,
      "တရု": 549,
      "ပျက်": 550,
      "ဒု": 551,
      "စီရင်": 552,
      "ဆိုင်": 553,
      "ပေတရု": 554,
      "လမ်း": 555,
      "ချီး": 556,
      "ျား": 557,
      "ငယ်": 558,
      "သို့ဖြစ်": 559,
      "သို့သော်": 560,
      "ယုံကြည်ခြင်း": 561,
      "ွီ": 562,
      "တရားကို": 563,
      "သုံး": 564,
      "ကြည့်": 565,
      "သို့သော်လည်း": 566,
      "အခြား": 567,
      "ကောင်းကင်တမန်": 568,
      "မှတ်": 569,
      "ရောက်လာ": 570,
      "စောင့်": 571,
      "ငံ": 572,
      "အုပ်": 573,
      "ရို့ကို": 574,
      "နိုင်ငံ": 575,
      "ကာလ": 576,
      "ဟန်": 577,
      "ဆရာ": 578,
      "ခွင့်": 579,
      "သနည်း": 580,
      "သည်မှာ": 581,
      "ွား": 582,
      "စီရန်": 583,
      "ရွက်": 584,
      "ထဲသို့": 585,
      "ဖော်": 586,
      "ဆုတောင်း": 587,
      "သောအရာ": 588,
      "အကြောင်းကို": 589,
      "မတ်": 590,
      "သူမ": 591,
      "ရေ": 592,
      "ပရော": 593,
      "ွီး": 594,
      "နတ်": 595,
      "အမျိုး": 596,
      "သိမ်း": 597,
      "မင်္ဂ": 598,
      "ာန်": 599,
      "နီရာ": 600,
      "ယောဟန်": 601,
      "မင်္ဂလာ": 602,
      "အံ့": 603,
      "ိပ်": 604,
      "ကပ်": 605,
      "၏၊": 606,
      "သူ့ကို": 607,
      "ပရောဖက်": 608,
      "ျာ": 609,
      "ရီး": 610,
      "ဤသို့": 611,
      "အလွန်": 612,
      "ဗြ": 613,
      "အမှန်": 614,
      "ာဝ": 615,
      "ဟိတ်": 616,
      "ကယ်တင်": 617,
      "ပီးတော်မူ": 618,
      "ပုရော": 619,
      "ဖြောင့်": 620,
      "သိကြ": 621,
      "ယဇ်ပုရော": 622,
      "ယဇ်ပုရောဟိတ်": 623,
      "ခါ": 624,
      "တိုက်": 625,
      "ကြိုး": 626,
      "ပြီးနောက်": 627,
      "သည်ဖြစ်": 628,
      "လုပ်ဆောင်": 629,
      "စ္စာ": 630,
      "အန": 631,
      "ဘုန်း": 632,
      "ကျမ်းစာ": 633,
      "များစွာ": 634,
      "သက်သီ": 635,
      "ဝါ": 636,
      "သလော": 637,
      "ခံယူ": 638,
      "မြီကြီး": 639,
      "သျှေ": 640,
      "ဝိညာဉ်တော်": 641,
      "သမီး": 642,
      "ကွယ်": 643,
      "တခြား": 644,
      "လွန်": 645,
      "ဖြောင့်မတ်": 646,
      "ဆင်": 647,
      "ခြင်းဖြစ်": 648,
      "ထုတ်": 649,
      "ပူ": 650,
      "သွန်": 651,
      "ဂါ": 652,
      "ကတ်ကေ့": 653,
      "စီရွှတ်": 654,
      "မွမ်း": 655,
      "ပွဲ": 656,
      "ကြောက်": 657,
      "ဇာသူ": 658,
      "ချီးမွမ်း": 659,
      "နှလုံး": 660,
      "ထိုသူသည်": 661,
      "လားကြ": 662,
      "ဇာပိုင်": 663,
      "မီး": 664,
      "သီး": 665,
      "သောက်": 666,
      "ဘုရင်": 667,
      "ကြွလာ": 668,
      "အဖြစ်": 669,
      "အစီ": 670,
      "သည်လည်း": 671,
      "ခမ": 672,
      "လူအပေါင်း": 673,
      "စိုး": 674,
      "ကြာ": 675,
      "ပါစီ": 676,
      "အခွင့်": 677,
      "နီထိုင်": 678,
      "သွန်သင်": 679,
      "သည်ဟု": 680,
      "ခံစား": 681,
      "န္ဓ": 682,
      "ခမည်း": 683,
      "ကွ": 684,
      "ဘော": 685,
      "မောင်": 686,
      "ပြစ်": 687,
      "အမှုကို": 688,
      "ကင်း": 689,
      "ပုံ": 690,
      "မြို့သို့": 691,
      "သတင်းကောင်း": 692,
      "စီး": 693,
      "တဖန်": 694,
      "ခြီ": 695,
      "သောသူတိ": 696,
      "ဉ်း": 697,
      "ဒ်": 698,
      "ဘာ": 699,
      "မှား": 700,
      "သူရို့ကို": 701,
      "နည်းတူ": 702,
      "ပြည့်စုံ": 703,
      "ထမြောက်": 704,
      "လူသား": 705,
      "အသီ": 706,
      "အသင်း": 707,
      "သည့်အတိုင်း": 708,
      "ဟူသော": 709,
      "ဖော်ပြ": 710,
      "ယ့်": 711,
      "ပေါ်": 712,
      "ရလိမ့်မည်": 713,
      "တော်နှင့်": 714,
      "စိတ်နှလုံး": 715,
      "ပညာ": 716,
      "ဗိမ": 717,
      "ဗိမာန်": 718,
      "ယင်း": 719,
      "သတိ": 720,
      "ပြီ": 721,
      "နှမ": 722,
      "ကိုယ်တိုင်": 723,
      "ဇာကြောင့်": 724,
      "သန့်ယှင်းသော": 725,
      "ခန္ဓ": 726,
      "ထာဝ": 727,
      "ဆောင်ရွက်": 728,
      "ခန္ဓာ": 729,
      "ထာဝရ": 730,
      "ခသော": 731,
      "ဆလင်": 732,
      "ယေရု": 733,
      "သူရို့အား": 734,
      "တစ်ယောက်ကို": 735,
      "ယေရုဆလင်": 736,
      "စရာ": 737,
      "သောသူရို့": 738,
      "တ္တိ": 739,
      "ဘုရားသခင်ကို": 740,
      "မျက်စ": 741,
      "တ္တာ": 742,
      "မောင်နှမ": 743,
      "ကုန်": 744,
      "စင်": 745,
      "အချင်း": 746,
      "တု": 747,
      "တောင်": 748,
      "ရည်": 749,
      "ခြင်းနှင့်": 750,
      "နိန်သော": 751,
      "မပြု": 752,
      "များနှင့်": 753,
      "တစ်ယောက်သည်": 754,
      "လွတ်": 755,
      "ဝမ်းမြောက်": 756,
      "တပ်": 757,
      "သိုး": 758,
      "အဖို့": 759,
      "အကျွန်ရို့": 760,
      "ပစ်": 761,
      "ရသော": 762,
      "ကောင်းသော": 763,
      "မော": 764,
      "ဟေ": 765,
      "မျှော်": 766,
      "ယုဒလူမျိုး": 767,
      "ကဲ": 768,
      "စီတော်မူ": 769,
      "လျက်ဟိ": 770,
      "စည်း": 771,
      "သိမ့်": 772,
      "ကျင့်": 773,
      "ကျောက်": 774,
      "အပြင်": 775,
      "တမန်တော်": 776,
      "သကဲ့သို့": 777,
      "အသံ": 778,
      "ဒုက္ခ": 779,
      "ဆိုသည်ကား": 780,
      "ရှာ": 781,
      "ကတိ": 782,
      "ထိုသူရို့သည်": 783,
      "ခြင်းသည်": 784,
      "သားသမီး": 785,
      "ငြင်း": 786,
      "မေတ္တာ": 787,
      "ရကြ": 788,
      "အမြ": 789,
      "ငါ့အား": 790,
      "ပညတ်တရား": 791,
      "၀၀": 792,
      "သီခြင်း": 793,
      "လှည့်": 794,
      "ဆင်းရဲ": 795,
      "ကိုလည်းကောင်း": 796,
      "အကျိုး": 797,
      "ကြိုးစား": 798,
      "ိမြ": 799,
      "လေး": 800,
      "အာဏာ": 801,
      "တန်း": 802,
      "မိုး": 803,
      "အစာ": 804,
      "ကိုး": 805,
      "သူငယ်": 806,
      "သင်္": 807,
      "နာမ": 808,
      "တိုင်အောင်": 809,
      "တော်သို့": 810,
      "ဇော်": 811,
      "ရှား": 812,
      "ဗျာ": 813,
      "အကြ": 814,
      "အကြီး": 815,
      "အကျွ": 816,
      "လိုက်ပါ": 817,
      "တိနှင့်": 818,
      "ရွီး": 819,
      "ပူဇော်": 820,
      "အချင်းချင်း": 821,
      "ကမ်း": 822,
      "ဖာ": 823,
      "ဖျား": 824,
      "အရာများကို": 825,
      "ဇံ": 826,
      "ပ္": 827,
      "ဗတ္တိ": 828,
      "အသက်ကို": 829,
      "ဂုဏ်": 830,
      "အားလုံးကို": 831,
      "ဗတ္တိဇံ": 832,
      "တပည့်တော်ရို့သည်": 833,
      "မုန့်": 834,
      "မသိ": 835,
      "သံ": 836,
      "ကြယ်": 837,
      "ယေသျှုကို": 838,
      "ထင်ရှား": 839,
      "ခါး": 840,
      "ဖူး": 841,
      "္မာ": 842,
      "မည်နည်း": 843,
      "အားလုံးသည်": 844,
      "လွှ": 845,
      "ကျင်": 846,
      "အသီး": 847,
      "ကိုယ်တော်က": 848,
      "ယုံကြည်သူ": 849,
      "အသင်းတော်": 850,
      "သစ္စာ": 851,
      "ဖြတ်": 852,
      "ချေ": 853,
      "ဆိုကြ": 854,
      "မြင်ရ": 855,
      "အကျွန့်": 856,
      "နောင်": 857,
      "ပယ်": 858,
      "ဘုံ": 859,
      "လီ": 860,
      "သရေ": 861,
      "ထဲမှ": 862,
      "နှုတ်က": 863,
      "မောသျှေ": 864,
      "လောက်": 865,
      "ထဲက": 866,
      "ထောက်": 867,
      "အောက်": 868,
      "လက်ခံ": 869,
      "နားထောင်": 870,
      "ကောင်းကင်ဘုံ": 871,
      "ဝါး": 872,
      "ပြင်": 873,
      "အခိုင်း": 874,
      "ယေသျှုကလည်း": 875,
      "လေ့": 876,
      "ဗိမာန်တော်": 877,
      "အခိုင်းအစီ": 878,
      "ပလ": 879,
      "လင့်": 880,
      "သြ": 881,
      "ဣသရေ": 882,
      "တစ်ဦး": 883,
      "သမ္မာ": 884,
      "မျက်စိ": 885,
      "ဣသရေလ": 886,
      "ချုပ်": 887,
      "ပါးမှ": 888,
      "ကူ": 889,
      "ဟံ": 890,
      "အယ": 891,
      "ထိုအသျှင်": 892,
      "ကိုယ်ကို": 893,
      "သောသူရို့သည်": 894,
      "သူရို့က": 895,
      "ဗြဟံ": 896,
      "ခွ": 897,
      "ဒဏ်": 898,
      "ဖြစ်သော": 899,
      "လူရို့သည်": 900,
      "စွန့်": 901,
      "အကျွန်သည်": 902,
      "ခပ်": 903,
      "တိက": 904,
      "နှစ်ယောက်": 905,
      "ဒါ": 906,
      "မဲ့": 907,
      "္လင်": 908,
      "၍၊": 909,
      "တရားစီရင်": 910,
      "ငါရို့ကို": 911,
      "ယှဲ": 912,
      "အာဗြဟံ": 913,
      "ရိယှဲ": 914,
      "ဘာသာ": 915,
      "ဖာရိယှဲ": 916,
      "ပလ္လင်": 917,
      "ခကြ": 918,
      "စိ့": 919,
      "နစ်": 920,
      "အစဉ်": 921,
      "ဟိသမျှ": 922,
      "ထားကြ": 923,
      "မျှော်လင့်": 924,
      "ထွန်း": 925,
      "အရ": 926,
      "တစ်စုံ": 927,
      "လူတိကို": 928,
      "အလင်း": 929,
      "နှုတ်ကပတ်": 930,
      "ကောက်": 931,
      "ဝေး": 932,
      "သနား": 933,
      "ကျွန်": 934,
      "ကြွတော်မူ": 935,
      "တည်းဟူသော": 936,
      "ဂေါ": 937,
      "ညှ": 938,
      "မရ": 939,
      "ယေသျှုခရစ်တော်": 940,
      "နိုင်ကြ": 941,
      "ဆိုင်သော": 942,
      "အယင်": 943,
      "ငွီ": 944,
      "ဆန့်": 945,
      "ပို": 946,
      "ယား": 947,
      "သားတော်": 948,
      "ခမည်းတော်": 949,
      "ခန့်": 950,
      "ဖမ်း": 951,
      "သတည်း": 952,
      "ွေး": 953,
      "ရို့က": 954,
      "စွဲ": 955,
      "အကျင့်": 956,
      "ပျောက်": 957,
      "က္ခဏာ": 958,
      "အခြားသော": 959,
      "နတ်ဆိုး": 960,
      "တခြားလူမျိုး": 961,
      "ဆောက်": 962,
      "အစ": 963,
      "အထက်": 964,
      "ကိုလည်း": 965,
      "လျှောက်ကြ": 966,
      "မောင်နှမရို့": 967,
      "ကိုးကွယ်": 968,
      "ပန်": 969,
      "လောင်း": 970,
      "အရာကို": 971,
      "သင့်ကို": 972,
      "သက်သီခံ": 973,
      "ကောင်": 974,
      "ဉာ": 975,
      "ခြင်းအားဖြင့်": 976,
      "ဆိုလျှင်": 977,
      "ခုနစ်": 978,
      "ငြိမ်": 979,
      "ခပ်သိမ်း": 980,
      "ဉာဏ်": 981,
      "လက္ခဏာ": 982,
      "သဘော": 983,
      "ငါး": 984,
      "ထိုက်": 985,
      "လျ": 986,
      "ဖြစ်လာ": 987,
      "ထိုမြို့": 988,
      "ကျန်း": 989,
      "နိုင်သော": 990,
      "လက်ဝါး": 991,
      "မွီး": 992,
      "ထွက်လား": 993,
      "ပျက်စီး": 994,
      "ဘုန်းတန်ခိုး": 995,
      "ကု": 996,
      "ကန်": 997,
      "ဆွီ": 998,
      "ထိ": 999,
      "တက်": 1000,
      "နိမိ": 1001,
      "အကဲ": 1002,
      "ချင်": 1003,
      "ပျင်": 1004,
      "ကပ်တိုင်": 1005,
      "လက်ဝါးကပ်တိုင်": 1006,
      "နိမိတ်": 1007,
      "လင်း": 1008,
      "ဖြစ်သောကြောင့်": 1009,
      "ချိန်": 1010,
      "လိုက်ကြ": 1011,
      "မာရိ": 1012,
      "လူအပေါင်းရို့သည်": 1013,
      "ထိန်း": 1014,
      "နိ": 1015,
      "ွင်း": 1016,
      "သျှိမ": 1017,
      "ငါရို့အား": 1018,
      "ကျေးဇူးတော်ကို": 1019,
      "နက်": 1020,
      "အဝတ်": 1021,
      "ချမ်း": 1022,
      "ပြီးမှ": 1023,
      "ထားတော်မူ": 1024,
      "ရွာ": 1025,
      "အကြီးအကဲ": 1026,
      "ဖျက်": 1027,
      "ဖွယ်": 1028,
      "အလုပ်": 1029,
      "ခရီး": 1030,
      "ကျန်းမာ": 1031,
      "ဝပ်": 1032,
      "အညီ": 1033,
      "ပြား": 1034,
      "ကူညီ": 1035,
      "သျှိမုန်": 1036,
      "စပျ": 1037,
      "တကွ": 1038,
      "ပိ": 1039,
      "ဗာ": 1040,
      "ရုံ": 1041,
      "သေ": 1042,
      "ထိုအရပ်": 1043,
      "မှန်သော": 1044,
      "ချက်ချင်း": 1045,
      "ယေရုဆလင်မြို့": 1046,
      "နိမိတ်လက္ခဏာ": 1047,
      "စပျစ်": 1048,
      "ခြင်းသို့": 1049,
      "မိမိကိုယ်ကို": 1050,
      "နှုတ်ဆက်": 1051,
      "စင်ကြယ်": 1052,
      "ရိုက်": 1053,
      "ဝန်": 1054,
      "အစား": 1055,
      "ကိုင်": 1056,
      "နှံ": 1057,
      "မှစ": 1058,
      "မြစ်": 1059,
      "သင်ရို့ပါးသို့": 1060,
      "ကြားရ": 1061,
      "သည်ကိုလည်းကောင်း": 1062,
      "ဆာ": 1063,
      "ပို့": 1064,
      "မိုက်": 1065,
      "မှူး": 1066,
      "ပြောပြ": 1067,
      "ထားခ": 1068,
      "ထံသို့": 1069,
      "ပြစ်မှား": 1070,
      "ဂေါင်း": 1071,
      "မယား": 1072,
      "အရီ": 1073,
      "ဤလောက": 1074,
      "နိ့ရက်": 1075,
      "အမျိုးမျိုး": 1076,
      "များစွာသော": 1077,
      "ဆန့်ကျင်": 1078,
      "ကိ": 1079,
      "ခွက်": 1080,
      "လယ်": 1081,
      "ကြသောအခါ": 1082,
      "ပြင်း": 1083,
      "တစ်ဆ": 1084,
      "ဘုရားသခင်က": 1085,
      "ပေါက်": 1086,
      "သီဆုံး": 1087,
      "နှစ်သက်": 1088,
      "ပေါလုသည်": 1089,
      "ဖန်ဆင်း": 1090,
      "လိလဲ": 1091,
      "ဂါလိလဲ": 1092,
      "တန်းခါး": 1093,
      "ဖွင့်": 1094,
      "ရပါ": 1095,
      "သျှိ": 1096,
      "ကြီးမြတ်": 1097,
      "အဖိုး": 1098,
      "အမိန့်": 1099,
      "ဖြစ်သည်": 1100,
      "အသိ": 1101,
      "အသွီး": 1102,
      "ယောက်ျား": 1103,
      "နာခံ": 1104,
      "ဖွား": 1105,
      "ရင်း": 1106,
      "အုတ်": 1107,
      "ဟိတော်မူ": 1108,
      "လူ့": 1109,
      "ပိုင်း": 1110,
      "ပြတ်": 1111,
      "ထိုနည်းတူ": 1112,
      "အမှုအရာ": 1113,
      "ပတ်သက်": 1114,
      "ထင်မှတ်": 1115,
      "လတ်": 1116,
      "ေဒ": 1117,
      "ကိုယ့်": 1118,
      "ကြလေ": 1119,
      "နှာ": 1120,
      "လာသော": 1121,
      "သာလျှင်": 1122,
      "ပြန်ထမြောက်": 1123,
      "သောကြောင့်ဖြစ်": 1124,
      "တတ်သော": 1125,
      "ရှင်ပြန်ထမြောက်": 1126,
      "ကုပ်": 1127,
      "ဆယ်": 1128,
      "တံ": 1129,
      "ဒေ": 1130,
      "တော်အားဖြင့်": 1131,
      "ဖြစ်တော်မူ": 1132,
      "ဖြစ်ကြောင်းကို": 1133,
      "ကိုယ်ခန္ဓာ": 1134,
      "ပြုကြ": 1135,
      "ကြွား": 1136,
      "ဆုံးမ": 1137,
      "ယာကုပ်": 1138,
      "စိုးရ": 1139,
      "စက်": 1140,
      "စိုက်": 1141,
      "မမူ": 1142,
      "ကြရ": 1143,
      "ိမှ": 1144,
      "တိအား": 1145,
      "လူတိုင်း": 1146,
      "သောသူဖြစ်": 1147,
      "နာမည်": 1148,
      "ထက်တွင်": 1149,
      "အတွင်း": 1150,
      "ခရစ်တော်သည်": 1151,
      "န္ဒ": 1152,
      "တစ်ခုကို": 1153,
      "မေသျှိ": 1154,
      "ယဇ်ပုရောဟိတ်မင်း": 1155,
      "မေသျှိယ": 1156,
      "ဇရပ်": 1157,
      "ဒင်္ဂ": 1158,
      "ဖိ": 1159,
      "အော်": 1160,
      "သည်း": 1161,
      "ထိုမိန်းမ": 1162,
      "မှုကို": 1163,
      "ရောက်လာကြ": 1164,
      "သျှင်ဘုရင်": 1165,
      "အံ့သြ": 1166,
      "အသီသတ်": 1167,
      "ပိလတ်": 1168,
      "အိပ်": 1169,
      "ဤသူသည်": 1170,
      "လိုအပ်": 1171,
      "ဆိုသော်": 1172,
      "ပီးအပ်": 1173,
      "နားမ": 1174,
      "ခရစ်တော်ယေသျှု": 1175,
      "ပျော်": 1176,
      "မျက်နှာ": 1177,
      "သတင်းကောင်းကို": 1178,
      "မက": 1179,
      "စွမ်း": 1180,
      "တရားဇရပ်": 1181,
      "မာရ": 1182,
      "ဝိဒ်": 1183,
      "တောင်းပန်": 1184,
      "န္တ": 1185,
      "ကျမ်းတတ်": 1186,
      "ဒါဝိဒ်": 1187,
      "အနား": 1188,
      "ကြသော": 1189,
      "ကြိမ်": 1190,
      "သောဝ": 1191,
      "ကျိန်": 1192,
      "တွန်း": 1193,
      "လူတချို့": 1194,
      "မိန်းတော်မူ": 1195,
      "ရောဂါ": 1196,
      "အိမ်သို့": 1197,
      "ရှိ့တော်": 1198,
      "ိမြို့": 1199,
      "ကျမ်းတတ်ဆရာ": 1200,
      "ဤသူ": 1201,
      "ဥစ္စာ": 1202,
      "တော်မမူ": 1203,
      "မှောက်": 1204,
      "တစ်နိ့": 1205,
      "နိန်သည်ကို": 1206,
      "ဗျာယ်": 1207,
      "လွှတ်": 1208,
      "ဣသရေလလူမျိုး": 1209,
      "ပျင်ဆင်": 1210,
      "ဒင်္ဂါး": 1211,
      "သည်းခံ": 1212,
      "ခသည့်": 1213,
      "ထမ": 1214,
      "ပထမ": 1215,
      "မ္": 1216,
      "မခံ": 1217,
      "ရုပ်": 1218,
      "လောင်": 1219,
      "ဝှ": 1220,
      "ဥပ": 1221,
      "ထိုအချိန်": 1222,
      "တွင်း": 1223,
      "တစ်လုံး": 1224,
      "ဘုရားသခင်အား": 1225,
      "သောသူများ": 1226,
      "နိန်စဉ်": 1227,
      "လူတိက": 1228,
      "ဗြီး": 1229,
      "ပါစီသောဝ": 1230,
      "သင်္ဘော": 1231,
      "ပါစီသောဝ်": 1232,
      "ဆွဲ": 1233,
      "ညစ်": 1234,
      "ဏ္": 1235,
      "ပန်း": 1236,
      "ပွား": 1237,
      "ဘေး": 1238,
      "ရုံး": 1239,
      "လို့": 1240,
      "ကျန်": 1241,
      "ဘုရားသခင်ထံ": 1242,
      "ပြောကြ": 1243,
      "အပြစ်ကို": 1244,
      "အပေါင်းရို့သည်": 1245,
      "တည်ဆောက်": 1246,
      "လောကီ": 1247,
      "စမ်း": 1248,
      "ဖောက်": 1249,
      "်နတ်": 1250,
      "ဖြေ": 1251,
      "ဖြစ်ပျက်": 1252,
      "တော်မူပါ": 1253,
      "တော်မူလိမ့်မည်": 1254,
      "ထက်သို့": 1255,
      "လျှောက်လေ": 1256,
      "သင့်အား": 1257,
      "ချစ်ခြင်း": 1258,
      "တ္တု": 1259,
      "မာရ်နတ်": 1260,
      "မတွိ့": 1261,
      "ဝီး": 1262,
      "ဟစ်": 1263,
      "ွဲ့": 1264,
      "ကြို": 1265,
      "ရို့နှင့်": 1266,
      "တော်မြတ်": 1267,
      "လားလေ": 1268,
      "သူ့အား": 1269,
      "ငြိမ်သက်": 1270,
      "ချမ်းသာ": 1271,
      "စပ်": 1272,
      "သူများ": 1273,
      "သူတစ်ပါး": 1274,
      "ဘုရားသခင်နှင့်": 1275,
      "ယေသျှုအား": 1276,
      "ရုဒ်": 1277,
      "ခေါင်း": 1278,
      "လှီး": 1279,
      "ပြောဆိုကြ": 1280,
      "မင်းကြီး": 1281,
      "ငြင်းပယ်": 1282,
      "ဖမ်းဆီး": 1283,
      "တစ်ဆယ့်": 1284,
      "ထပ်": 1285,
      "ရို": 1286,
      "သည်နှင့်": 1287,
      "မိတ်": 1288,
      "နောက်သို့": 1289,
      "နောက်ဆုံး": 1290,
      "တစ်ယောက်က": 1291,
      "ယုံကြည်ခြင်းအားဖြင့်": 1292,
      "နိုင်ငံတော်": 1293,
      "တိုက်တွန်း": 1294,
      "အရီဖျား": 1295,
      "ကရု": 1296,
      "ကွဲ": 1297,
      "ခိုင်": 1298,
      "တောက်": 1299,
      "ွမ်း": 1300,
      "သည်အတိုင်း": 1301,
      "သောသူကို": 1302,
      "ထားပြီး": 1303,
      "ရွံ့": 1304,
      "မဟုတ်ဘဲ": 1305,
      "ခံရလိမ့်မည်": 1306,
      "လှုပ်": 1307,
      "ပြည်သို့": 1308,
      "ထိုသူရို့အား": 1309,
      "အုပ်စိုး": 1310,
      "ဟေရုဒ်": 1311,
      "ကရုဏာ": 1312,
      "ခွဲ": 1313,
      "ဆီ": 1314,
      "လွဲ": 1315,
      "ဤအကြောင်း": 1316,
      "မှောင်": 1317,
      "ဖြစ်ပါ": 1318,
      "ချယ်": 1319,
      "တိယ": 1320,
      "နှင့်ဆိုင်သော": 1321,
      "လာပြီးလျှင်": 1322,
      "ရောက်သောအခါ": 1323,
      "ယှောင်": 1324,
      "ကြွီး": 1325,
      "တတ်ကြ": 1326,
      "ရွှီ": 1327,
      "ပညတ်တရားကို": 1328,
      "လွတ်မြောက်": 1329,
      "အမြဲ": 1330,
      "ရွီးချယ်": 1331,
      "ဆဲ": 1332,
      "ထူး": 1333,
      "သန်": 1334,
      "သပ်": 1335,
      "သွီး": 1336,
      "အိုင်": 1337,
      "လူရို့": 1338,
      "ပြုမူ": 1339,
      "သော်လည်းကောင်း": 1340,
      "အကျွန်ရို့သည်": 1341,
      "ကတ်ပါ": 1342,
      "ခေါ်ဆောင်": 1343,
      "အိမ်ထောင်": 1344,
      "ညီအစ်ကိုမောင်နှမရို့": 1345,
      "ပေတရုသည်": 1346,
      "ခွင့်ရွှတ်": 1347,
      "ဝါဒ": 1348,
      "ကြောက်ရွံ့": 1349,
      "အသီခံ": 1350,
      "သ်": 1351,
      "ဥပု": 1352,
      "မြှ": 1353,
      "ဆိုလို": 1354,
      "တွိ့မြင်": 1355,
      "ထံပါးသို့": 1356,
      "အမျိုးသား": 1357,
      "အမှန်ဆိုသည်ကား": 1358,
      "ဝါကြွား": 1359,
      "လူသားသည်": 1360,
      "ဝှက်": 1361,
      "အရီဖျားလှီး": 1362,
      "ဥပုသ်": 1363,
      "ခတ်": 1364,
      "စံ": 1365,
      "နီး": 1366,
      "မဖြစ်": 1367,
      "ယျာ": 1368,
      "ဥယျာ": 1369,
      "ကြလျှင်": 1370,
      "ကြကုန်": 1371,
      "နှိပ်": 1372,
      "ကျူး": 1373,
      "ဟိပါ": 1374,
      "စွပ်": 1375,
      "အဂုတွင်": 1376,
      "ယေရုဆလင်မြို့သို့": 1377,
      "အကြံ": 1378,
      "ဥပုသ်နိ့": 1379,
      "ဥယျာဉ်": 1380,
      "ငို": 1381,
      "မယုံကြည်": 1382,
      "ရဟိ": 1383,
      "ရိတ်": 1384,
      "ချိုင်း": 1385,
      "ကောင်းမြတ်": 1386,
      "အရာတိကို": 1387,
      "ထက်မှာ": 1388,
      "နားလည်": 1389,
      "အရပ်သို့": 1390,
      "သမျှကို": 1391,
      "ထိုသူအား": 1392,
      "သင်္ချိုင်း": 1393,
      "ဖျက်ဆီး": 1394,
      "တိုး": 1395,
      "ဒေါ": 1396,
      "သို့မဟုတ်": 1397,
      "ထိုနီရာ": 1398,
      "ကျယ်": 1399,
      "မည်သို့": 1400,
      "အသုံး": 1401,
      "ပြုတော်မူ": 1402,
      "ရှက်": 1403,
      "ရောမ": 1404,
      "ဝိညာဉ်တော်သည်": 1405,
      "မှန်ကန်": 1406,
      "ပြည့်ဝ": 1407,
      "ဖြောင့်မတ်ခြင်း": 1408,
      "၀၀၀": 1409,
      "ိမြင်": 1410,
      "ဥပမာ": 1411,
      "ဋိ": 1412,
      "ပစ္": 1413,
      "ပဋိ": 1414,
      "အထဲ": 1415,
      "ဖြစ်လိမ့်မည်": 1416,
      "ကောင်းကြီး": 1417,
      "သားရဲ": 1418,
      "ပါးက": 1419,
      "လိုက်နာ": 1420,
      "မြို့သား": 1421,
      "တပည့်တော်ရို့အား": 1422,
      "သမား": 1423,
      "ပ္ပ": 1424,
      "သမ္မာတရား": 1425,
      "ချစ်ခြင်းမေတ္တာ": 1426,
      "ရိုသီ": 1427,
      "ကမ္": 1428,
      "တမ်း": 1429,
      "ထမ်း": 1430,
      "ဒိတ်": 1431,
      "နန့်": 1432,
      "ပိတ်": 1433,
      "မတရား": 1434,
      "အပင်": 1435,
      "၏’": 1436,
      "ငါပြော": 1437,
      "သျှော": 1438,
      "မည်သည့်": 1439,
      "ထားသည့်": 1440,
      "ပီးလိုက်": 1441,
      "ဇာတိ": 1442,
      "ထို့အပြင်": 1443,
      "မိန့်မှာ": 1444,
      "ရောက်ကြ": 1445,
      "ယောသပ်": 1446,
      "အယင်က": 1447,
      "ရုပ်တု": 1448,
      "မြှောက်": 1449,
      "စွပ်စွဲ": 1450,
      "ခဲ": 1451,
      "ပရိ": 1452,
      "ဗေ": 1453,
      "မှီ": 1454,
      "အဖီး": 1455,
      "ကွာ": 1456,
      "ဉာဏ်ပညာ": 1457,
      "စိုးရိမ်": 1458,
      "ဂူ": 1459,
      "ညွ": 1460,
      "တား": 1461,
      "နယ်": 1462,
      "မပြော": 1463,
      "အကယ်": 1464,
      "ကြံ": 1465,
      "လာသောအခါ": 1466,
      "စားသောက်": 1467,
      "ယူဆောင်": 1468,
      "စကားသည်": 1469,
      "ကြွယ်": 1470,
      "မဟိဘဲ": 1471,
      "ခေါ်သော": 1472,
      "ဝိညာဉ်တော်ကို": 1473,
      "ချက်ကို": 1474,
      "ဆုကျေးဇူး": 1475,
      "ဝမ်းနည်း": 1476,
      "သူမသည်": 1477,
      "အနက်": 1478,
      "စီရွှတ်လိုက်": 1479,
      "ကြွလာတော်မူ": 1480,
      "အစီခံ": 1481,
      "ဗျာဒိတ်": 1482,
      "နောင်တ": 1483,
      "ကပင်": 1484,
      "ဆိတ်": 1485,
      "မက်": 1486,
      "သစ်": 1487,
      "ဧလိ": 1488,
      "တိတ်": 1489,
      "လူအ": 1490,
      "သင်ရို့နှင့်အတူ": 1491,
      "ပင်ဖြစ်": 1492,
      "မဟုတ်လော": 1493,
      "အပ်နှံ": 1494,
      "ဆင်းရဲဒုက္ခ": 1495,
      "မွီးဖွား": 1496,
      "ကြွယ်ဝ": 1497,
      "ခိုင်း": 1498,
      "ဓိ": 1499,
      "နေ": 1500,
      "မပီး": 1501,
      "ပြောင်း": 1502,
      "ဟိနိန်": 1503,
      "လျက်ဟိကြ": 1504,
      "ပင်လယ်": 1505,
      "အချို့": 1506,
      "ခံရသော": 1507,
      "တွိ့ရ": 1508,
      "ဦးစွာ": 1509,
      "ဦးဂေါင်း": 1510,
      "ဝတ်ပြု": 1511,
      "စစ်သား": 1512,
      "ပေတရုက": 1513,
      "သီခြင်းတရား": 1514,
      "နားမလည်": 1515,
      "တကား": 1516,
      "ထု": 1517,
      "မပြတ်": 1518,
      "သရ": 1519,
      "အမျက်": 1520,
      "ကြဲ": 1521,
      "ကြရန်": 1522,
      "အားနည်း": 1523,
      "သျှာ": 1524,
      "တစ်ခါ": 1525,
      "သောသူတိကို": 1526,
      "နှစ်ပါး": 1527,
      "ထွက်ခွ": 1528,
      "နိန်ကြသော": 1529,
      "ရွှတ်လိုက်": 1530,
      "ထိုသူကို": 1531,
      "အကျွန့်ကို": 1532,
      "အစားအစာ": 1533,
      "ေဒနာ": 1534,
      "ခေါင်းဆောင်": 1535,
      "ပစ္စည်း": 1536,
      "ခိုက်": 1537,
      "ဝေဒနာ": 1538,
      "အဲ": 1539,
      "အဓိ": 1540,
      "ဤအရပ်": 1541,
      "ခြင်းဖြင့်": 1542,
      "ဟိလျှင်": 1543,
      "ရာသို့": 1544,
      "သင်ရို့အတွက်": 1545,
      "သောသူရို့ကို": 1546,
      "ပြုသော": 1547,
      "ရှု": 1548,
      "နိုင်ပါ": 1549,
      "လုံးဝ": 1550,
      "လုံးကို": 1551,
      "ယှား": 1552,
      "ယုံကြည်ခြင်းကို": 1553,
      "ယုဒပြည်": 1554,
      "မုန်း": 1555,
      "တပ်မှူး": 1556,
      "အသီးသီး": 1557,
      "အဖိုးအဖီး": 1558,
      "အော်ဟစ်": 1559,
      "မိ့": 1560,
      "မမြင်": 1561,
      "ရုတ်": 1562,
      "ရဲ့": 1563,
      "ဝီ": 1564,
      "အမိ": 1565,
      "သူတိ": 1566,
      "ထိုအရာ": 1567,
      "လူစု": 1568,
      "ပီးပါ": 1569,
      "အကျဉ်း": 1570,
      "လိုက်သောအခါ": 1571,
      "သင်ရို့သည်လည်း": 1572,
      "ခရစ်တော်ကို": 1573,
      "ပေါ်ထွန်း": 1574,
      "ဇာကြောင့်ဆိုသော်": 1575,
      "စပျစ်ရည်": 1576,
      "ပိလတ်မင်း": 1577,
      "ကမ္ဘာ": 1578,
      "တုံး": 1579,
      "ပိုး": 1580,
      "ပူး": 1581,
      "ဖယ်": 1582,
      "မကြာ": 1583,
      "ရေး": 1584,
      "အဆုံး": 1585,
      "နှင်": 1586,
      "တော်မူလျှင်": 1587,
      "ကျွေး": 1588,
      "တစ်ဝ": 1589,
      "နိုင်ရန်": 1590,
      "ယှုံး": 1591,
      "လက်ကို": 1592,
      "စုံစမ်း": 1593,
      "ကျေးဇူးတော်": 1594,
      "ကယ်တင်ခြင်း": 1595,
      "သီခြင်းမှ": 1596,
      "ဂါလိလဲပြည်": 1597,
      "မှောင်မိုက်": 1598,
      "ခို": 1599,
      "စရိုက်": 1600,
      "ဆန်": 1601,
      "နုတ်": 1602,
      "ပွင့်": 1603,
      "အို": 1604,
      "ဤနိ့": 1605,
      "ဖြူ": 1606,
      "တိသည်": 1607,
      "များဖြင့်": 1608,
      "ပီးတော်မူသော": 1609,
      "ရွယ်": 1610,
      "စာရီး": 1611,
      "လက်သို့": 1612,
      "မွိ့": 1613,
      "ထွက်လာ": 1614,
      "အုပ်ချုပ်": 1615,
      "ရီးသား": 1616,
      "ပေါ်လာ": 1617,
      "သန့်ယှင်းသောဝိညာဉ်တော်": 1618,
      "အာဏာပိုင်": 1619,
      "ဗတ္တိဇံကို": 1620,
      "ဖိလိ": 1621,
      "နှိပ်စက်": 1622,
      "ကန်း": 1623,
      "ဆိပ်": 1624,
      "တေ": 1625,
      "ထည့်": 1626,
      "၏။”": 1627,
      "ဖြစ်သည်ဟု": 1628,
      "မြန်း": 1629,
      "မည်ဟု": 1630,
      "အသင့်": 1631,
      "ပြောလေ": 1632,
      "နိန်ရ": 1633,
      "တရားတော်ကို": 1634,
      "မျိုးစိ့": 1635,
      "အပြစ်စီရင်": 1636,
      "တ္ထ": 1637,
      "အလောင်း": 1638,
      "စုဝေး": 1639,
      "မင်္ဂလာကို": 1640,
      "ပုံဥပမာ": 1641,
      "ပ္ပု": 1642,
      "သမ္မာတရားကို": 1643,
      "ဒေသ": 1644,
      "ခပါ": 1645,
      "အင်္ဂ": 1646,
      "သောစိတ်": 1647,
      "ငါဆိုသည်ကား": 1648,
      "ခြင်းမှာ": 1649,
      "ကျွမ်း": 1650,
      "စီလို": 1651,
      "ပြုလျှင်": 1652,
      "သည့်အခါ": 1653,
      "ဂုတ္တု": 1654,
      "ကဲ့ရဲ့": 1655,
      "အဂုအခါ": 1656,
      "အလိုတော်": 1657,
      "ယဇ်ပုရောဟိတ်အကြီးအကဲ": 1658,
      "ခံစားရ": 1659,
      "မုန့်ကို": 1660,
      "ဘာသာစကား": 1661,
      "နှင်ထုတ်": 1662,
      "အင်္ဂါ": 1663,
      "ခုံ": 1664,
      "ဆန္ဒ": 1665,
      "တို့": 1666,
      "တိမ": 1667,
      "ဖခင်": 1668,
      "မဲ": 1669,
      "ယွင်း": 1670,
      "အနာ": 1671,
      "ြို": 1672,
      "ကြပြီးလျှင်": 1673,
      "သူဖြစ်": 1674,
      "မည်သူ": 1675,
      "များက": 1676,
      "သောသူအား": 1677,
      "ရှောက်": 1678,
      "စွာဖြင့်": 1679,
      "သိတော်မူ": 1680,
      "မဟုတ်ပါ": 1681,
      "မြင်သောအခါ": 1682,
      "မိန်းမြန်း": 1683,
      "အမှုတော်ကို": 1684,
      "လျှောက်ထား": 1685,
      "ပတ်လုံး": 1686,
      "စုရုံး": 1687,
      "ဖို့လဲ": 1688,
      "ဒုစရိုက်": 1689,
      "စောင့်ရှောက်": 1690,
      "မင်္ဂလာဟိ": 1691,
      "မင်္ဂလာဟိကြ": 1692,
      "ဇာသူမျှ": 1693,
      "အခွင့်အာဏာ": 1694,
      "သတိရ": 1695,
      "အကြိမ်": 1696,
      "ညှဉ်း": 1697,
      "ပို့ဆောင်": 1698,
      "တစ်လုံးတစ်ဝ": 1699,
      "သျှောလု": 1700,
      "အဲဂုတ္တု": 1701,
      "တစ်လုံးတစ်ဝတည်း": 1702,
      "ပုတ်": 1703,
      "ဖတ်": 1704,
      "မစ": 1705,
      "မရောက်": 1706,
      "သွင်း": 1707,
      "အမွ": 1708,
      "အမှီ": 1709,
      "ခြောက်": 1710,
      "ကျွန်း": 1711,
      "ပြုစု": 1712,
      "ရှည်": 1713,
      "အကြောင်းမှာ": 1714,
      "ထဲတွင်": 1715,
      "သီလွန်": 1716,
      "လက်ယာ": 1717,
      "ကောင်းကင်မှ": 1718,
      "ရွှင်": 1719,
      "ဆင်းသက်": 1720,
      "သမျှသော": 1721,
      "ပေါလုအား": 1722,
      "တစ်ပါးတည်း": 1723,
      "တချို့သည်": 1724,
      "စစ်မှန်သော": 1725,
      "ချီးမြှောက်": 1726,
      "ပြစ်ဒဏ်": 1727,
      "သိုးသူငယ်": 1728,
      "ပဋိညာဉ်": 1729,
      "ပရိသတ်": 1730,
      "ဆံ": 1731,
      "ဆုံ": 1732,
      "တီး": 1733,
      "ယောင်": 1734,
      "အဆွီ": 1735,
      "ပြတော်မူ": 1736,
      "မှတစ်ပါး": 1737,
      "ဖြစ်သတည်း": 1738,
      "မည်ကို": 1739,
      "အသစ်": 1740,
      "ပင်လျှင်": 1741,
      "မိန်းလျှောက်ကြ": 1742,
      "အကျွန်ရို့ကို": 1743,
      "ခံရကြ": 1744,
      "အသျှင်ဘုရား": 1745,
      "ဆုံးသော": 1746,
      "ဟောပြောကြ": 1747,
      "သခင်ဘုရားသည်": 1748,
      "စ္စ": 1749,
      "ဖို့ရန်": 1750,
      "ဆက်လက်": 1751,
      "ဒုတိယ": 1752,
      "အကျိုးကို": 1753,
      "ပျောက်ကင်း": 1754,
      "တခြားလူမျိုးတိ": 1755,
      "ညစ်ည": 1756,
      "ကြကုန်အံ့": 1757,
      "ပြောင်းလဲ": 1758,
      "ဖိလိပ္ပု": 1759,
      "ပသ": 1760,
      "ဖိတ်": 1761,
      "ရောင်း": 1762,
      "လိမ်": 1763,
      "ာယ်": 1764,
      "ွတ်": 1765,
      "။”": 1766,
      "သူတိကို": 1767,
      "ခြင်": 1768,
      "ဖြစ်ပြီး": 1769,
      "ပ်ဝပ်": 1770,
      "တော်မူပြီးလျှင်": 1771,
      "မြင့်": 1772,
      "တစ်ဖက်": 1773,
      "လာသည်ကား": 1774,
      "အသား": 1775,
      "ပီးကြ": 1776,
      "တစ်ယောက်မျှ": 1777,
      "စာတန်": 1778,
      "အပြစ်တရား": 1779,
      "အသျှင်ယေသျှု": 1780,
      "ပေါလုနှင့်": 1781,
      "ဆိုးမ": 1782,
      "မုဆိုးမ": 1783,
      "ယောဟန်သည်": 1784,
      "အနွယ်": 1785,
      "ကျမ်းစာတော်မြတ်": 1786,
      "ပတ္ထ": 1787,
      "ဖုံး": 1788,
      "မသိကြ": 1789,
      "ရမည့်": 1790,
      "ဝယ်": 1791,
      "သကာ": 1792,
      "ကြပေ": 1793,
      "ငါနှင့်အတူ": 1794,
      "များတွင်": 1795,
      "လူထု": 1796,
      "အသရေ": 1797,
      "ဆိုလေ": 1798,
      "ပီးသော": 1799,
      "ပီးကမ်း": 1800,
      "စွာသော": 1801,
      "စာကို": 1802,
      "ငါသည်လည်း": 1803,
      "ကာမ": 1804,
      "မြင်တွိ့": 1805,
      "တပည့်တော်ရို့": 1806,
      "ထိုသူရို့ကို": 1807,
      "ထာဝရဘုရား": 1808,
      "ပူဇော်သကာ": 1809,
      "အစည်": 1810,
      "အကြံအစည်": 1811,
      "ညွှ": 1812,
      "ပတ္ထနာ": 1813,
      "ကော": 1814,
      "ဆော်": 1815,
      "တာ": 1816,
      "တဲ": 1817,
      "နဗ": 1818,
      "နိုး": 1819,
      "ဖေ": 1820,
      "မဆို": 1821,
      "သတ္တ": 1822,
      "ကြော": 1823,
      "ကြော်": 1824,
      "ကြသောကြောင့်": 1825,
      "တော်ကောင်း": 1826,
      "မြည်း": 1827,
      "မည်လော": 1828,
      "လူတစ်ယောက်သည်": 1829,
      "သင်ရို့က": 1830,
      "ယေသျှုနှင့်": 1831,
      "ပီးရန်": 1832,
      "လားခ": 1833,
      "နောက်တစ်နိ့": 1834,
      "လိုက်လျှောက်": 1835,
      "ငှက်": 1836,
      "တစ်ယောက်ဖြစ်": 1837,
      "သူရို့သည်လည်း": 1838,
      "ကြားနာ": 1839,
      "ပြန်လည်": 1840,
      "ဆုံးဖြတ်": 1841,
      "ရှိ့တွင်": 1842,
      "ဝတ်ရုံ": 1843,
      "ငြိမ်း": 1844,
      "လူတိအား": 1845,
      "ဆုတောင်းပတ္ထနာ": 1846,
      "ဗာနဗ": 1847,
      "ကျိန်ဆို": 1848,
      "ပ္ပာယ်": 1849,
      "နောင်တရ": 1850,
      "အဓိပ္ပာယ်": 1851,
      "အမှီပြု": 1852,
      "ဗက်": 1853,
      "မိမ": 1854,
      "မောင်း": 1855,
      "မပါ": 1856,
      "အနည်း": 1857,
      "ဩဝါဒ": 1858,
      "ကိုသာ": 1859,
      "သူတော်ကောင်း": 1860,
      "နှင့်တကွ": 1861,
      "အခွန်": 1862,
      "သားကို": 1863,
      "သူရို့နှင့်အတူ": 1864,
      "ပြုကြလော့": 1865,
      "စားပွဲ": 1866,
      "အပြစ်တင်": 1867,
      "အတူတကွ": 1868,
      "ဝင်ရောက်": 1869,
      "ဝတ်ဆင်": 1870,
      "အလိုဟိ": 1871,
      "သုံးရက်": 1872,
      "ကောင်းကင်တမန်သည်": 1873,
      "အမှန်ပင်": 1874,
      "ခမည်းတော်သည်": 1875,
      "ထာဝရအသက်ကို": 1876,
      "ရွီးကောက်": 1877,
      "အရေး": 1878,
      "ဝန်ခံ": 1879,
      "မိတ်ဆွီ": 1880,
      "ပသခါ": 1881,
      "သတ္တဝါ": 1882,
      "ကန္တ": 1883,
      "ခွန်": 1884,
      "စတင်": 1885,
      "တုန်": 1886,
      "ထန်": 1887,
      "နဲ": 1888,
      "မကြောက်": 1889,
      "မကောင်းသော": 1890,
      "ရံ": 1891,
      "ရင့်": 1892,
      "ရိုး": 1893,
      "ရကြလိမ့်မည်": 1894,
      "လန့်": 1895,
      "ာရ": 1896,
      "ို့ငှာ": 1897,
      "ကြပါ": 1898,
      "တော်မှ": 1899,
      "ပြန့်": 1900,
      "နှံ့": 1901,
      "တစ်ကောင်": 1902,
      "သားတိ": 1903,
      "ပီးထား": 1904,
      "ပြုလုပ်": 1905,
      "ကိုယ်တော်နှင့်အတူ": 1906,
      "ယှက်": 1907,
      "မြင်လျှင်": 1908,
      "မိန်းကြ": 1909,
      "ကြားသောအခါ": 1910,
      "ပြန်လာ": 1911,
      "အပြစ်မှ": 1912,
      "အလို့ငှာ": 1913,
      "ဝိညာဉ်ဆိုး": 1914,
      "ဟောပြောသွန်သင်": 1915,
      "ရောက်လာသောအခါ": 1916,
      "ဝိညာဉ်တော်အားဖြင့်": 1917,
      "ပွဲတော်": 1918,
      "လူအပေါင်းရို့": 1919,
      "မှားယွင်း": 1920,
      "ဟိသမျှကို": 1921,
      "ကိစ္စ": 1922,
      "အရီဖျားလှီးခြင်းကို": 1923,
      "ကျူးလွန်": 1924,
      "ထွက်ခွာ": 1925,
      "အမွီ": 1926,
      "ကာမဂုဏ်": 1927,
      "ခန်း": 1928,
      "ခသည်ကို": 1929,
      "စည်": 1930,
      "မီ": 1931,
      "မုန်": 1932,
      "လုံ": 1933,
      "လပ်": 1934,
      "သု": 1935,
      "သိမြင်": 1936,
      "အင်": 1937,
      "အထံ": 1938,
      "ဤနီရာ": 1939,
      "ကြသနည်း": 1940,
      "ငါသိ": 1941,
      "ဖြစ်ကြောင်း": 1942,
      "ဖြစ်ရမည်": 1943,
      "မြဲ": 1944,
      "လူတစ်ယောက်": 1945,
      "သင်ရို့ကိုယ်တိုင်": 1946,
      "မိမိအား": 1947,
      "ဇာလောက်": 1948,
      "ထဲမှာ": 1949,
      "အတွက်ကြောင့်": 1950,
      "ဆုံးယှုံး": 1951,
      "ပျပ်ဝပ်": 1952,
      "စောင့်ထိန်း": 1953,
      "သူမဆို": 1954,
      "စီရွှတ်တော်မူ": 1955,
      "သတင်းကောင်းတရားကို": 1956,
      "တပ်မက်": 1957,
      "ဘုန်းတန်ခိုးတော်": 1958,
      "တံဆိပ်": 1959,
      "ဏ္ဍ": 1960,
      "ခက်": 1961,
      "ဒ္": 1962,
      "ဗု": 1963,
      "မနာ": 1964,
      "မဝင်": 1965,
      "သင်း": 1966,
      "အလုံး": 1967,
      "အသျှေ": 1968,
      "ှီး": 1969,
      "ကြစီရန်": 1970,
      "ကြရလိမ့်မည်": 1971,
      "ခြေ": 1972,
      "နှိမ့်": 1973,
      "မြင်း": 1974,
      "နှင့်တူ": 1975,
      "လာသည်ကို": 1976,
      "ပြောကြား": 1977,
      "လိမ့်မည်ဟု": 1978,
      "လားပြီးလျှင်": 1979,
      "သည့်နည်းတူ": 1980,
      "သည့်တိုင်အောင်": 1981,
      "ကြီးသော": 1982,
      "ရပ်လျက်": 1983,
      "စကားပြော": 1984,
      "ကြွေး": 1985,
      "တည်းခို": 1986,
      "အမှုတော်": 1987,
      "ရွှင့်": 1988,
      "တောကန္တ": 1989,
      "လမ်းကို": 1990,
      "သောအရာကို": 1991,
      "ရီးထား": 1992,
      "သားသမီးတိ": 1993,
      "ိမှတ်": 1994,
      "န္ဒြ": 1995,
      "တုန်လှုပ်": 1996,
      "ဏ္ဍာ": 1997,
      "အလုံးစုံ": 1998,
      "နှိမ့်ချ": 1999,
      "စိ": 2000,
      "စော": 2001,
      "ဇရက်": 2002,
      "ဘဝ": 2003,
      "မင်": 2004,
      "သွန်း": 2005,
      "အန္": 2006,
      "အဦး": 2007,
      "ကြသော်လည်း": 2008,
      "သည်တကား": 2009,
      "ဖြစ်လေ": 2010,
      "အားပီး": 2011,
      "တော်မူခ": 2012,
      "ကျော်": 2013,
      "နှင့်ပတ်သက်": 2014,
      "သောသူရို့အား": 2015,
      "သားတော်ကို": 2016,
      "ဇာသူ့ကို": 2017,
      "အကြောင်းအရာ": 2018,
      "လျက်ပင်": 2019,
      "နောက်တဖန်": 2020,
      "ငါရို့အတွက်": 2021,
      "လိုက်စား": 2022,
      "ငှား": 2023,
      "နာဇရက်": 2024,
      "စိတ်အား": 2025,
      "စိတ်ချ": 2026,
      "စိတ်ဝိညာဉ်": 2027,
      "ကြွင်း": 2028,
      "မျက်မှောက်": 2029,
      "ချက်များကို": 2030,
      "ထိုင်နိန်": 2031,
      "တစ်ခုလုံး": 2032,
      "ယဇ်ပလ္လင်": 2033,
      "တိုက်ခိုက်": 2034,
      "စိတ်နှလုံးထဲ": 2035,
      "အသံကို": 2036,
      "ကုန်း": 2037,
      "ငိုကြွီး": 2038,
      "သင်္ချိုင်းဂူ": 2039,
      "ဧလိယ": 2040,
      "ကြွေးကြော်": 2041,
      "ခသည့်အတိုင်း": 2042,
      "ဆောင်း": 2043,
      "တလျှောက်": 2044,
      "ထည်": 2045,
      "ဒိ": 2046,
      "ဒါး": 2047,
      "ဖလား": 2048,
      "မလား": 2049,
      "မယူ": 2050,
      "ရောင်": 2051,
      "ရစီခြင်းငှာ": 2052,
      "သလား": 2053,
      "သိမှတ်": 2054,
      "ဟောင်း": 2055,
      "အစောင့်": 2056,
      "အထူး": 2057,
      "ဧက": 2058,
      "ောသေ": 2059,
      "ကြပြီး": 2060,
      "ကြရမည်": 2061,
      "သောနိ့": 2062,
      "သင်္ဂ": 2063,
      "ခြင်းမှ": 2064,
      "ခြင်းခံရ": 2065,
      "ထိုး": 2066,
      "ချိုး": 2067,
      "သားစု": 2068,
      "ပီးသနား": 2069,
      "မိသားစု": 2070,
      "ဇာသူသည်": 2071,
      "မြို့မှ": 2072,
      "ထက်သန်": 2073,
      "ကြားသိ": 2074,
      "ပြန်ပြော": 2075,
      "မဟိသော": 2076,
      "မဟိလျှင်": 2077,
      "တပည့်တော်တိ": 2078,
      "လာကြလိမ့်မည်": 2079,
      "အပေါင်းရို့": 2080,
      "ပတ်သတ်": 2081,
      "လွင်": 2082,
      "ချစ်သော": 2083,
      "တိုင်းသည်": 2084,
      "တချို့ကို": 2085,
      "ဆိုင်ရာ": 2086,
      "သုံးဆောင်": 2087,
      "နိုင်ငံတော်သည်": 2088,
      "ဘုန်းတော်ကို": 2089,
      "အခွင့်ကို": 2090,
      "ခပ်သိမ်းသော": 2091,
      "နှုတ်ဆက်လိုက်ပါ": 2092,
      "အမျိုးမျိုးသော": 2093,
      "ပြင်းထန်": 2094,
      "အုတ်မြစ်": 2095,
      "ငြိမ်သက်ခြင်း": 2096,
      "ရိတ်သိမ်း": 2097,
      "တိမောသေ": 2098,
      "လိမ်လည်": 2099,
      "တောကန္တာရ": 2100,
      "သင်္ဂြို": 2101,
      "ကူး": 2102,
      "ကိန်း": 2103,
      "ခွန်း": 2104,
      "တိမှ": 2105,
      "ယုတ်": 2106,
      "လန်း": 2107,
      "အမှတ်": 2108,
      "အထဲမှ": 2109,
      "ဤအရာ": 2110,
      "ေဖန်": 2111,
      "ကြုံ": 2112,
      "သူကို": 2113,
      "ခြံ": 2114,
      "နှောင်": 2115,
      "ရာဇ်": 2116,
      "လာပြီး": 2117,
      "နိန်ကတ်": 2118,
      "ရှီး": 2119,
      "နိုင်မည်နည်း": 2120,
      "သာမက": 2121,
      "ယှာ": 2122,
      "လက်ဖြင့်": 2123,
      "မဟုတ်ပေ": 2124,
      "ရပ်တည်": 2125,
      "နှစ်သိမ့်": 2126,
      "အလျ": 2127,
      "တတ်နိုင်": 2128,
      "နိန်ကြသည်ကို": 2129,
      "စစ်ဆီး": 2130,
      "အံ့ဩ": 2131,
      "ကယ်တင်သျှင်": 2132,
      "ဖော်ပြထား": 2133,
      "ပညာဟိ": 2134,
      "သတိပီး": 2135,
      "ကူညီမစ": 2136,
      "လူတချို့သည်": 2137,
      "ဤသူကား": 2138,
      "ကြိုဆို": 2139,
      "မတရားသော": 2140,
      "ဖယ်ယှား": 2141,
      "မိမိမ": 2142,
      "ဧကရာဇ်": 2143,
      "တိမ်": 2144,
      "ဘဏ္ဍာ": 2145,
      "ဟ်": 2146,
      "အခြေ": 2147,
      "ကြသလော": 2148,
      "သူက": 2149,
      "ဖြား": 2150,
      "နှီး": 2151,
      "သားရို့သည်": 2152,
      "ပီးလေ": 2153,
      "ကိုယ်တော်နှင့်": 2154,
      "ပါးကို": 2155,
      "တိကိုလည်း": 2156,
      "မှုတ်": 2157,
      "သိလ": 2158,
      "အပြည့်": 2159,
      "များကိုလည်းကောင်း": 2160,
      "စိတ်အ": 2161,
      "စိတ်ကို": 2162,
      "သက်သာ": 2163,
      "အာမင်": 2164,
      "ပျိုး": 2165,
      "တန်ဆာ": 2166,
      "ထံမှ": 2167,
      "တစ်ခုမျှ": 2168,
      "တချို့က": 2169,
      "ညီအစ်ကိုမောင်နှမ": 2170,
      "ကြည့်ရှု": 2171,
      "ဆင်ခြင်": 2172,
      "ကင်းမဲ့": 2173,
      "သတင်းကောင်းတရား": 2174,
      "တော်နှင့်အညီ": 2175,
      "ပြီဖြစ်": 2176,
      "မပြုဘဲ": 2177,
      "အောက်မိ့": 2178,
      "ပလ္လင်တော်": 2179,
      "အကျင့်ကို": 2180,
      "ခပ်သိမ်းသောအရာ": 2181,
      "နက်နဲ": 2182,
      "အသိပညာ": 2183,
      "ဏ္ဌ": 2184,
      "ညွှန်": 2185,
      "စေ": 2186,
      "စောင်": 2187,
      "တနာ": 2188,
      "ထုံး": 2189,
      "နဂ": 2190,
      "ဖွဲ့": 2191,
      "မကောင်း": 2192,
      "အဆ": 2193,
      "ဤသည်ကား": 2194,
      "ို့ဝှက်": 2195,
      "ငါနှင့်": 2196,
      "ဖြစ်သည်ကို": 2197,
      "ဖြစ်စီခြင်းငှာ": 2198,
      "ဖြစ်လို့": 2199,
      "ုံ့": 2200,
      "စီတော်မူသော": 2201,
      "လျှို့ဝှက်": 2202,
      "လာလိမ့်မည်": 2203,
      "သင်ရို့အဖို့": 2204,
      "သောသူကား": 2205,
      "ပြီးသောအခါ": 2206,
      "လားပြီး": 2207,
      "မိခင်": 2208,
      "စကားများကို": 2209,
      "အဖွဲ့": 2210,
      "မွတ်": 2211,
      "တွိ့ဆုံ": 2212,
      "စုံလင်": 2213,
      "န္တု": 2214,
      "ကျေးဇူးတော်သည်": 2215,
      "သတို့": 2216,
      "ရွက်ရွှင့်": 2217,
      "အနေ": 2218,
      "ဇာသူက": 2219,
      "စိတ်နှလုံးကို": 2220,
      "ငြင်းခုံ": 2221,
      "အစဉ်မပြတ်": 2222,
      "နှုတ်ကပတ်တော်ကို": 2223,
      "လက်ဝါးကပ်တိုင်မှာ": 2224,
      "အဝတ်ကို": 2225,
      "အိပ်ပျော်": 2226,
      "တောက်ပ": 2227,
      "ကြံစည်": 2228,
      "သင်္ဂြိုဟ်": 2229,
      "ဏ္ဌာန်": 2230,
      "ငတ်": 2231,
      "ဆူး": 2232,
      "ဖီး": 2233,
      "ဖန်း": 2234,
      "ဘက်": 2235,
      "မစား": 2236,
      "မတည်": 2237,
      "ရသည့်": 2238,
      "ဝက်": 2239,
      "အိုး": 2240,
      "အပါ": 2241,
      "အမည်": 2242,
      "အကြွီး": 2243,
      "နှိုး": 2244,
      "ဖြစ်နိန်": 2245,
      "ထိုစကားကို": 2246,
      "မြွက်": 2247,
      "ဟိသောသူ": 2248,
      "တစ်မျိုး": 2249,
      "ပီးမည်": 2250,
      "ပီးလိမ့်မည်": 2251,
      "မိဘ": 2252,
      "ကြီးစွာသော": 2253,
      "အရာခပ်သိမ်း": 2254,
      "မွှီး": 2255,
      "ပညတ်တော်": 2256,
      "တစ်ပါးသည်": 2257,
      "ပီးတော်မူလိမ့်မည်": 2258,
      "တောင်မှ": 2259,
      "ပစ်ချ": 2260,
      "ကောင်းသောအမှုကို": 2261,
      "ဖျားနာ": 2262,
      "အသီးကို": 2263,
      "နားထောင်ကြလော့": 2264,
      "အာဗြဟံသည်": 2265,
      "တန်းခါးကို": 2266,
      "သည်နှင့်အညီ": 2267,
      "ကွဲပြား": 2268,
      "ခဏ": 2269,
      "ဂေ": 2270,
      "စိမ်": 2271,
      "ဆွေး": 2272,
      "ဇေ": 2273,
      "တာဝ": 2274,
      "နွယ်": 2275,
      "ဖိုး": 2276,
      "ဖဲ့": 2277,
      "မထ": 2278,
      "မား": 2279,
      "မလို": 2280,
      "မလိုက်": 2281,
      "မဖြစ်စီ": 2282,
      "သဏ္ဌာန်": 2283,
      "သဖန်း": 2284,
      "အဆက်": 2285,
      "ကြင်": 2286,
      "ကြစီခြင်းငှာ": 2287,
      "သည်ထက်": 2288,
      "ပြိုင်": 2289,
      "သူနှင့်": 2290,
      "ငါအမှန်ဆိုသည်ကား": 2291,
      "မှသာ": 2292,
      "ဖြစ်ပေ": 2293,
      "တော်မူခြင်းကို": 2294,
      "ကျိုး": 2295,
      "ကျရောက်": 2296,
      "ဟိနိန်ကြ": 2297,
      "တစ်ကိုယ်": 2298,
      "စီကြလော့": 2299,
      "များဖြစ်ကြ": 2300,
      "ကောင်းစွာ": 2301,
      "ဆိုထား": 2302,
      "မာကေ": 2303,
      "ကြားလျှင်": 2304,
      "သက်ဆိုင်": 2305,
      "အာဂ": 2306,
      "ထိုသို့ပြုလျှင်": 2307,
      "သတ်မှတ်": 2308,
      "သန့်ယှင်းစင်ကြယ်": 2309,
      "လိပ်": 2310,
      "ပေတရုနှင့်": 2311,
      "ဤသို့သော": 2312,
      "လွန်စွာ": 2313,
      "မီးခွက်": 2314,
      "လူအပေါင်းရို့အား": 2315,
      "ကင်းလွတ်": 2316,
      "ဉ်းစား": 2317,
      "လူသားကို": 2318,
      "ကျောက်ခဲ": 2319,
      "လေးစား": 2320,
      "ထိုအသျှင်သည်": 2321,
      "အစဉ်အမြဲ": 2322,
      "ိမြို့သို့": 2323,
      "ဒေါနိ": 2324,
      "ညှဉ်းဆဲ": 2325,
      "ယောင်ဆောင်": 2326,
      "ခွန်အား": 2327,
      "မနာလို": 2328,
      "အန္တိ": 2329,
      "တာဝန်": 2330,
      "မာကေဒေါနိ": 2331,
      "စဉ်းစား": 2332,
      "ထွား": 2333,
      "ထွီး": 2334,
      "နွား": 2335,
      "နွေး": 2336,
      "ပကတိ": 2337,
      "မလုပ်": 2338,
      "လွယ်": 2339,
      "ဝံ့": 2340,
      "သိမ်": 2341,
      "ဟာ": 2342,
      "ော့": 2343,
      "ကိုင်း": 2344,
      "ကိုမျှ": 2345,
      "ငါမြင်ရ": 2346,
      "ခြင်းများကို": 2347,
      "အားထုတ်": 2348,
      "တော်မူသည်ဖြစ်": 2349,
      "မြက်": 2350,
      "ဟိတော်မူသော": 2351,
      "စီပြီးလျှင်": 2352,
      "သင်ရို့နှင့်": 2353,
      "ပြောသော": 2354,
      "ပီးကြလော့": 2355,
      "မိဖ": 2356,
      "ဇာသူမဆို": 2357,
      "ဇာဖြစ်လို့": 2358,
      "ကြီးကို": 2359,
      "ကြီးထွား": 2360,
      "လိုက်လာကြ": 2361,
      "ငါ့စကားကို": 2362,
      "တစ်ယောက်သောသူ": 2363,
      "ဝင်ပူး": 2364,
      "အိမ်ထဲသို့": 2365,
      "နိန်ကြသနည်း": 2366,
      "ပြည်မှ": 2367,
      "ရီကို": 2368,
      "ပေါလုက": 2369,
      "ကြောင်းကိုလည်းကောင်း": 2370,
      "ဆက်ကပ်": 2371,
      "စောင့်မျှော်": 2372,
      "ခမည်းတော်ကို": 2373,
      "လွတ်လပ်": 2374,
      "စည်းစိမ်": 2375,
      "ဒုက္ခဆင်းရဲ": 2376,
      "လှည့်လည်": 2377,
      "လှည့်ဖြား": 2378,
      "နာမကို": 2379,
      "ဂုဏ်အသရေ": 2380,
      "မျက်စိကန်း": 2381,
      "ထိုက်တန်": 2382,
      "မိုက်မဲ": 2383,
      "ကိုယ့်ကို": 2384,
      "စိုက်ပျိုး": 2385,
      "လွှတ်တော်": 2386,
      "တစ်ဆယ့်နှစ်ပါး": 2387,
      "သွီးဆောင်": 2388,
      "ဒေါသ": 2389,
      "ဝေဒနာကို": 2390,
      "ရွှင်လန်း": 2391,
      "ဖိတ်ခေါ်": 2392,
      "အနည်းချေ": 2393,
      "စိတ်အားထက်သန်": 2394,
      "နဂါး": 2395,
      "အဖွဲ့ဝင်": 2396,
      "ဆွေးနွေး": 2397,
      "ဂျ": 2398,
      "စပါး": 2399,
      "ဇရု": 2400,
      "ညံ့": 2401,
      "တေး": 2402,
      "တဆီး": 2403,
      "နင်း": 2404,
      "ပိုက်": 2405,
      "ဖဲ": 2406,
      "မံ": 2407,
      "အဆင်": 2408,
      "အဝီး": 2409,
      "ဤအမှုအရာ": 2410,
      "ူပါ": 2411,
      "ကြေ": 2412,
      "သောအသံ": 2413,
      "ခြုံ": 2414,
      "ဖြစ်သည့်": 2415,
      "သင်ယူ": 2416,
      "တော်မူပြီး": 2417,
      "ချာ": 2418,
      "ချောင်း": 2419,
      "တိအတွက်": 2420,
      "ဟိခ": 2421,
      "ဟိသော်လည်း": 2422,
      "တစ်မြို့": 2423,
      "များအား": 2424,
      "များကဲ့သို့": 2425,
      "လူသည်": 2426,
      "လာရောက်": 2427,
      "လာဇရု": 2428,
      "နိန်ကြလော့": 2429,
      "သူရို့အတွက်": 2430,
      "ပီးခ": 2431,
      "ပြုလျက်": 2432,
      "တရားသည်": 2433,
      "ကိုယ်တော်ကလည်း": 2434,
      "ဇာသူ့": 2435,
      "လျက်ဟိသော": 2436,
      "စာရင်း": 2437,
      "နာရီ": 2438,
      "ယုံကြည်စိတ်ချ": 2439,
      "မိန်းလေ": 2440,
      "အကျွန်ရို့အား": 2441,
      "အာကာ": 2442,
      "တတ်သောသူ": 2443,
      "အိမ်ကို": 2444,
      "ထိုသို့သော": 2445,
      "အချိန်ကာလ": 2446,
      "ရှိ့မှာ": 2447,
      "မြတ်သော": 2448,
      "တန်ခိုးသျှင်": 2449,
      "မည့်သူ": 2450,
      "ထိုသူရို့က": 2451,
      "ကောင်းကင်တမန်က": 2452,
      "သူမအား": 2453,
      "မြီကြီးထက်": 2454,
      "ပြစ်တင်": 2455,
      "ရည်ရွယ်": 2456,
      "ဟေသျှာ": 2457,
      "မိုးတိမ်": 2458,
      "နာမတော်ကို": 2459,
      "မရနိုင်": 2460,
      "တံပိုး": 2461,
      "ဖောက်ပြန်": 2462,
      "လူစုတော်": 2463,
      "မည်သူမျှ": 2464,
      "ကိန်းဝပ်": 2465,
      "အာဂန္တု": 2466,
      "အန္တိအုတ်": 2467,
      "ဟေသျှာယ": 2468,
      "ဂြ": 2469,
      "မခံရ": 2470,
      "ရူပါ": 2471,
      "သဲ": 2472,
      "အရှိ့": 2473,
      "အဝေး": 2474,
      "အစိတ်အ": 2475,
      "ဣဇာ": 2476,
      "ဧဝ": 2477,
      "ဧဖက်": 2478,
      "ကြိတ်": 2479,
      "ကြသဖြင့်": 2480,
      "ထိုနိ့ရက်": 2481,
      "တော်မူခြင်း": 2482,
      "ဟိပါစီသောဝ်": 2483,
      "များမှ": 2484,
      "ခံထိုက်": 2485,
      "ပြီးဖြစ်": 2486,
      "ေါ်": 2487,
      "ယေဒါ": 2488,
      "အခက်": 2489,
      "နိန်ပါ": 2490,
      "နိန်သည့်": 2491,
      "ထားကြလော့": 2492,
      "ပြုတော်မူသော": 2493,
      "နိုင်ခြင်းငှာ": 2494,
      "ကြီးမား": 2495,
      "ငါ့ပါးသို့": 2496,
      "လက်မခံ": 2497,
      "စိတ်ရှည်": 2498,
      "မာန": 2499,
      "ပေရ": 2500,
      "ခံရကြလိမ့်မည်": 2501,
      "ခံရမည့်": 2502,
      "အလှ": 2503,
      "နိ့တိုင်း": 2504,
      "စဉ်က": 2505,
      "စဉ်တွင်": 2506,
      "ပိုင်ခွင့်": 2507,
      "လင်ယောက်ျား": 2508,
      "အဂုအချိန်": 2509,
      "ပေါလုကို": 2510,
      "တချို့သော": 2511,
      "အလိုတော်ကို": 2512,
      "နိုင်ငံတော်ကို": 2513,
      "သောအရာတိကို": 2514,
      "အနီး": 2515,
      "ကျမ်းစာလာသည်ကား": 2516,
      "တခြားသော": 2517,
      "အဖြစ်ဖြင့်": 2518,
      "ကျောက်တုံး": 2519,
      "ကတိတော်": 2520,
      "ဂုဏ်ယူ": 2521,
      "ထွန်းလင်း": 2522,
      "ငွီဒင်္ဂါး": 2523,
      "ထိုအရပ်မှ": 2524,
      "မယားကို": 2525,
      "ထိုမိန်းမသည်": 2526,
      "မိန်းတော်မူလျှင်": 2527,
      "တစ်ဆယ့်နှစ်": 2528,
      "တိုးပွား": 2529,
      "ကျယ်လောင်": 2530,
      "ဖြောင့်မတ်ခြင်းတရား": 2531,
      "ပိလတ်မင်းက": 2532,
      "လက်ယာဖက်": 2533,
      "အမှုတော်ဆောင်": 2534,
      "ကိုယ့်ကိုကိုယ်": 2535,
      "ဂျုံ": 2536,
      "ရူပါရုံ": 2537,
      "အစိတ်အပိုင်း": 2538,
      "ဣဇာက်": 2539,
      "ကွက်": 2540,
      "ခိ": 2541,
      "ခသည်မှာ": 2542,
      "ဂရု": 2543,
      "ဉ့်": 2544,
      "တုပ်": 2545,
      "တတိယ": 2546,
      "ဖူ": 2547,
      "ဗ္": 2548,
      "မခံယူ": 2549,
      "ရလျှင်": 2550,
      "ရိုင်း": 2551,
      "သွ": 2552,
      "အစွမ်း": 2553,
      "အရှက်": 2554,
      "ထိုအ": 2555,
      "ထိုနိ့": 2556,
      "တော်မူရာ": 2557,
      "ချထား": 2558,
      "တိရ": 2559,
      "နှင့်ပတ်သတ်": 2560,
      "ဟိသည်": 2561,
      "ဟိကြောင်းကို": 2562,
      "တစ်ပုံ": 2563,
      "စီသော": 2564,
      "စီကေ့": 2565,
      "များကြောင့်": 2566,
      "လူအုပ်": 2567,
      "သင်ရို့အားလုံး": 2568,
      "သင်ရို့အထဲ": 2569,
      "ခံ့": 2570,
      "သောသူနှင့်": 2571,
      "အခန်း": 2572,
      "နိန်တော်မူ": 2573,
      "သားရို့": 2574,
      "သားဖြစ်": 2575,
      "ပီးထားသော": 2576,
      "ပြုခြင်းငှာ": 2577,
      "ရန်သူ": 2578,
      "ရန်နှင့်": 2579,
      "လုံးနှင့်": 2580,
      "နောက်မှ": 2581,
      "အရာရာ": 2582,
      "သိပါ": 2583,
      "အချေ": 2584,
      "အချည်း": 2585,
      "အဖသည်": 2586,
      "အပြစ်ကင်း": 2587,
      "နှစ်ဦး": 2588,
      "တန်ဖိုး": 2589,
      "ထွက်ဗြီး": 2590,
      "ပိုင်သျှင်": 2591,
      "ဟောပြောသော": 2592,
      "အပေါင်းရို့အား": 2593,
      "ပတ်လည်": 2594,
      "ယှင်းလင်း": 2595,
      "အဂုပင်": 2596,
      "ကျေးဇူးတော်နှင့်": 2597,
      "သတေဖန်": 2598,
      "ချစ်တော်မူ": 2599,
      "ဟိကြသော": 2600,
      "များသည်လည်း": 2601,
      "ရဲရင့်": 2602,
      "လောကကို": 2603,
      "ပေတရုအား": 2604,
      "လမ်းခရီး": 2605,
      "ရောက်လာလိမ့်မည်": 2606,
      "သောအရာများကို": 2607,
      "ကယ်တင်ခြင်းကို": 2608,
      "ဖြောင့်မတ်ရာသို့": 2609,
      "ဘုရင်ခံ": 2610,
      "အမြစ်": 2611,
      "နာမတော်": 2612,
      "သံလွင်": 2613,
      "အလုပ်ကို": 2614,
      "သေချာ": 2615,
      "ခွက်ဖလား": 2616,
      "ကြီးမြတ်သော": 2617,
      "အိပ်ရာ": 2618,
      "လူတချို့က": 2619,
      "ကြိုတင်": 2620,
      "သူတစ်ပါးကို": 2621,
      "ခိုင်ခံ့": 2622,
      "ထားပြီးဖြစ်": 2623,
      "သရဖူ": 2624,
      "အမျက်တော်": 2625,
      "စပျစ်ရည်ကို": 2626,
      "အနာရောဂါ": 2627,
      "ညစ်ညူး": 2628,
      "မောင်းထုတ်": 2629,
      "ပြန့်နှံ့": 2630,
      "အထံတော်သို့": 2631,
      "ဗုလု": 2632,
      "န္ဒြေ": 2633,
      "ယှာမာရိ": 2634,
      "နှိုးဆော်": 2635,
      "အဆင်သင့်": 2636,
      "ဗ္ဗ": 2637,
      "ခရာ": 2638,
      "ခသော်လည်း": 2639,
      "ဇိ": 2640,
      "ညဉ့်": 2641,
      "တကာ": 2642,
      "နပ်": 2643,
      "နံ့": 2644,
      "ပဲ့": 2645,
      "ပံ့": 2646,
      "မကျင့်": 2647,
      "ရလေ": 2648,
      "ဝိုင်း": 2649,
      "အမူ": 2650,
      "အကောင်း": 2651,
      "အမြင်": 2652,
      "်ား": 2653,
      "ကြသည်ကို": 2654,
      "သူကြီး": 2655,
      "ချဉ်း": 2656,
      "တိလည်း": 2657,
      "မြွီ": 2658,
      "ကျလား": 2659,
      "ကျ်ား": 2660,
      "ဟိလိမ့်မည်": 2661,
      "ဟိသည့်": 2662,
      "ဘုရားဝတ်": 2663,
      "စီကြ": 2664,
      "လူများ": 2665,
      "လူကြီး": 2666,
      "လူရို့အား": 2667,
      "ကိုယ်အင်္ဂါ": 2668,
      "ခံတွင်း": 2669,
      "ဆိုသည်ကို": 2670,
      "တရားစကားကို": 2671,
      "စားစရာ": 2672,
      "ရောက်လေ": 2673,
      "မြို့သူ": 2674,
      "လက်ထပ်": 2675,
      "ယူလာ": 2676,
      "ရုန်း": 2677,
      "ပြန်လား": 2678,
      "အဖော်": 2679,
      "ခေါင်": 2680,
      "အသျှင်ကို": 2681,
      "အသျှင်သည်": 2682,
      "တိုင်တိုင်": 2683,
      "အာယှ": 2684,
      "တောင်းလျှောက်": 2685,
      "တောင်းဆိုကြ": 2686,
      "ကတ်လိမ့်မည်": 2687,
      "လူမျိုးခြား": 2688,
      "လှူ": 2689,
      "ယုဒအာဏာပိုင်": 2690,
      "ရှိ့သို့": 2691,
      "အရပ်ရပ်": 2692,
      "ဆိုးညစ်": 2693,
      "ဆိုးယုတ်": 2694,
      "ရမည်ကို": 2695,
      "မည့်အကြောင်း": 2696,
      "အောင်မြင်": 2697,
      "သတင်းစကားကို": 2698,
      "မှတ်ယူ": 2699,
      "အနန္တ": 2700,
      "ဖြောင့်မတ်သောသူ": 2701,
      "ပူပန်": 2702,
      "စီရွှတ်တော်မူသော": 2703,
      "သန့်ယှင်းသောဝိညာဉ်တော်ကို": 2704,
      "သိုးထိန်း": 2705,
      "ယုဒလူမျိုးတိ": 2706,
      "ကဲသရ": 2707,
      "ကတိတော်ကို": 2708,
      "ကြိုးစားအားထုတ်": 2709,
      "အစာကို": 2710,
      "သစ္စာဖောက်": 2711,
      "ကောင်းကင်ဘုံမှ": 2712,
      "စွန့်ပစ်": 2713,
      "တစ်စုံတစ်ခု": 2714,
      "ညှိုး": 2715,
      "ငြိမ်ဝပ်": 2716,
      "ထွက်လားလေ": 2717,
      "ဘုန်းတန်ခိုးတော်ကို": 2718,
      "အလုပ်လုပ်": 2719,
      "နိမိတ်လက္ခဏာများကို": 2720,
      "ရပါမည်နည်း": 2721,
      "ရွှီဒင်္ဂါး": 2722,
      "အရီဖျားလှီးခြင်း": 2723,
      "သိုးသူငယ်တော်": 2724,
      "စာတန်မာရ်နတ်": 2725,
      "လူထုပရိသတ်": 2726,
      "ပသခါပွဲ": 2727,
      "ကာမဂုဏ်လိုက်စား": 2728,
      "သွန်းလောင်း": 2729,
      "နာဇရက်မြို့သား": 2730,
      "ညွှန်ကြား": 2731,
      "ကြင်နာ": 2732,
      "အချည်းနှီး": 2733,
      "ချဉ်းကပ်": 2734,
      "ခပေ": 2735,
      "နိတ်": 2736,
      "မလာ": 2737,
      "မထား": 2738,
      "မသီ": 2739,
      "မွန်း": 2740,
      "လသ": 2741,
      "လ်": 2742,
      "ဝင်း": 2743,
      "ဧည့်": 2744,
      "ံဂေ": 2745,
      "ကြက်": 2746,
      "ကြပ်": 2747,
      "ကြူး": 2748,
      "ဖြစ်တော်မူသော": 2749,
      "ခြင်းသာ": 2750,
      "တော်မူလျက်": 2751,
      "ချိုင်": 2752,
      "တိတု": 2753,
      "တွား": 2754,
      "စီမည်": 2755,
      "စီပြီး": 2756,
      "စီလိမ့်မည်": 2757,
      "စီမံ": 2758,
      "များသို့": 2759,
      "လူငယ်": 2760,
      "လာသည်": 2761,
      "ခံခရ": 2762,
      "လိုလား": 2763,
      "နိန်သောကြောင့်": 2764,
      "ထားတော်မူသော": 2765,
      "သားရီ": 2766,
      "သူရို့နှင့်": 2767,
      "ပြုခြင်း": 2768,
      "ဇာခရ": 2769,
      "အကြောင်းအရာများကို": 2770,
      "နောက်တော်သို့": 2771,
      "မှုနှင့်": 2772,
      "မျှလောက်": 2773,
      "တစ်ယောက်တည်း": 2774,
      "စာစောင်": 2775,
      "မိန့်တော်မူသည်မှာ": 2776,
      "စိတ်သဘော": 2777,
      "လုပ်ဖော်": 2778,
      "ခေါ်ယူ": 2779,
      "လျှောက်ထားကြ": 2780,
      "ထွက်လာကြ": 2781,
      "ထွက်လားကြ": 2782,
      "အိမ်တော်": 2783,
      "ပိုင်ဆိုင်": 2784,
      "ဟောပြောရန်": 2785,
      "သင့်မြတ်": 2786,
      "ဦးမည်": 2787,
      "သခင်ဘုရားကို": 2788,
      "ရိပ်": 2789,
      "ယောကျ်ား": 2790,
      "ဆက်ဆံ": 2791,
      "ထိုသူက": 2792,
      "မိန်းမသည်": 2793,
      "လမ်းလျှောက်": 2794,
      "ယုံကြည်ခြင်းသည်": 2795,
      "ကောင်းကင်တမန်တိ": 2796,
      "ပီးတော်မူပါ": 2797,
      "ကြောက်လန့်": 2798,
      "စိတ်နှလုံးသည်": 2799,
      "မျက်စိမြင်": 2800,
      "စင်စစ်": 2801,
      "ဟေလသ": 2802,
      "အမြင့်": 2803,
      "လှည့်စား": 2804,
      "လှည့်ဖျား": 2805,
      "လေးပါး": 2806,
      "အစာယှောင်": 2807,
      "မောသျှေသည်": 2808,
      "ထိုအသျှင်ကို": 2809,
      "တစ်စုံတစ်ယောက်က": 2810,
      "နတ်ဆိုးတိကို": 2811,
      "ခုနစ်ပါး": 2812,
      "လျင်": 2813,
      "အံ့သြကြ": 2814,
      "ပန်းနှိပ်စက်": 2815,
      "ဆီမွှီး": 2816,
      "တားမြစ်": 2817,
      "သီခြင်းတရားမှ": 2818,
      "အသင့်ပျင်ဆင်": 2819,
      "ဝတ်ရုံကို": 2820,
      "အလျောက်": 2821,
      "စေတနာ": 2822,
      "မထီ": 2823,
      "သဖန်းပင်": 2824,
      "တံပိုးခရာ": 2825,
      "ဧဝံဂေ": 2826,
      "ဗုလုန်": 2827,
      "အာယှိ": 2828,
      "ဇာခရိ": 2829,
      "ဧဝံဂေလိ": 2830,
      "ကတည်း": 2831,
      "ခလျှင်": 2832,
      "ခလေ": 2833,
      "ခယာ": 2834,
      "ခွီး": 2835,
      "ဆုပ်": 2836,
      "တင်း": 2837,
      "တောင့်": 2838,
      "အများ": 2839,
      "အယူ": 2840,
      "အထဲက": 2841,
      "ဤကား": 2842,
      "ဤအမှု": 2843,
      "၌၊": 2844,
      "ကြသည်": 2845,
      "သောခါ": 2846,
      "ပြောင်": 2847,
      "သူအား": 2848,
      "နှောင့်": 2849,
      "ငါဆို": 2850,
      "တော်မူသောအခါ": 2851,
      "တော်မူကြောင်းကို": 2852,
      "ကျသော": 2853,
      "လျှံ": 2854,
      "သင်ရို့တွင်": 2855,
      "ဆိုလျက်": 2856,
      "သားတိကို": 2857,
      "သူရို့အားလုံးသည်": 2858,
      "တရားလွှတ်တော်": 2859,
      "နိုင်စီခြင်းငှာ": 2860,
      "သည့်အတွက်": 2861,
      "အရာဟိ": 2862,
      "မှုများကို": 2863,
      "ကြည်လင်": 2864,
      "မိန်းလျှောက်": 2865,
      "သက်ရောက်": 2866,
      "အပြစ်များကို": 2867,
      "အသျှင်ယေသျှုခရစ်တော်": 2868,
      "အလယ်": 2869,
      "ပေါင်းသင်း": 2870,
      "လှောင်": 2871,
      "လှမ်း": 2872,
      "ယုဒလူရို့သည်": 2873,
      "ယုဒအမျိုးသား": 2874,
      "အချိန်တွင်": 2875,
      "လာကြပြီးလျှင်": 2876,
      "ထံပါးမှ": 2877,
      "ထိုသူရို့ကလည်း": 2878,
      "ခွင့်ပြု": 2879,
      "အမျိုးအနွယ်": 2880,
      "ပုံတစ်ပုံ": 2881,
      "အသင်းတော်ကို": 2882,
      "သံကြိုး": 2883,
      "နှစ်ယောက်ကို": 2884,
      "တရားစီရင်ခြင်းကို": 2885,
      "နိုင်ကြစီရန်": 2886,
      "ငွီကို": 2887,
      "ပျောက်လား": 2888,
      "လျော့": 2889,
      "ဖွယ်သော": 2890,
      "ချက်ချင်းပင်": 2891,
      "လူ့ဇာတိ": 2892,
      "ယာကုပ်နှင့်": 2893,
      "တစ်ခုကိုမျှ": 2894,
      "တောင်းပန်ကြ": 2895,
      "အနားသို့": 2896,
      "လောင်ကျွမ်း": 2897,
      "စပ်ဆိုင်": 2898,
      "ကျယ်သောအသံ": 2899,
      "ကောင်းကြီးမင်္ဂလာကို": 2900,
      "ယောသပ်သည်": 2901,
      "ဗေလ": 2902,
      "တားဆီး": 2903,
      "လူအများ": 2904,
      "မကြာခင်": 2905,
      "ရီးသားထား": 2906,
      "အလောင်းကို": 2907,
      "အဆွီရို့": 2908,
      "ညစ်ညမ်း": 2909,
      "သူတော်ကောင်းယောင်ဆောင်": 2910,
      "အားပီးတိုက်တွန်း": 2911,
      "ပြင်းထန်စွာ": 2912,
      "အရာခပ်သိမ်းကို": 2913,
      "ခေ": 2914,
      "ခပြီး": 2915,
      "ဆပ်": 2916,
      "ဆာန်": 2917,
      "တရက်": 2918,
      "ထုန်": 2919,
      "နွမ်း": 2920,
      "ပုပ်": 2921,
      "မယုံ": 2922,
      "မသီး": 2923,
      "မကျန်းမာ": 2924,
      "မစင်ကြယ်": 2925,
      "မစိုးရိမ်": 2926,
      "ရခြင်းမှာ": 2927,
      "လမုန်": 2928,
      "လခိ": 2929,
      "အငယ်": 2930,
      "အစိုးရ": 2931,
      "အမင်္ဂလာဟိကြ": 2932,
      "အကိုင်း": 2933,
      "ဤကဲ့သို့": 2934,
      "င်းကို": 2935,
      "သူခိုး": 2936,
      "ဖြီ": 2937,
      "သို့မှသာ": 2938,
      "ဖြစ်လျှင်": 2939,
      "ဖြစ်လာကြ": 2940,
      "သင်နှင့်": 2941,
      "ထိုအိမ်": 2942,
      "ထိုပြည်": 2943,
      "တော်မူသည့်": 2944,
      "နှင့်အညီ": 2945,
      "ဟိသောကြောင့်": 2946,
      "သျှောင်": 2947,
      "ပါဝင်": 2948,
      "တစ်ရက်": 2949,
      "လူကို": 2950,
      "လျှာ": 2951,
      "သင်ရို့သိကြ": 2952,
      "သောသူများသည်": 2953,
      "လိုသော": 2954,
      "လိုချင်": 2955,
      "နိန်သောသူ": 2956,
      "မိစ္": 2957,
      "ဇာကို": 2958,
      "အရာများ": 2959,
      "မှုသည်": 2960,
      "မျှသာ": 2961,
      "ငါ့နောက်သို့": 2962,
      "သိကျွမ်း": 2963,
      "ယှု": 2964,
      "ယုံကြည်ကြ": 2965,
      "အကျွန်အား": 2966,
      "ခံရမည်": 2967,
      "တိုင်တည်": 2968,
      "အာန": 2969,
      "ခေါ်ပြီးလျှင်": 2970,
      "လှဲ": 2971,
      "ယုဒလူ": 2972,
      "ပြည်နှင့်": 2973,
      "အရပ်မှ": 2974,
      "စ္ဆာန်": 2975,
      "စုအဝေး": 2976,
      "တစ်ခုတည်း": 2977,
      "သမျှသည်": 2978,
      "မေထုန်": 2979,
      "အသက်ရှင်လျက်": 2980,
      "အသက်ရှင်တော်မူသော": 2981,
      "စောင့်ကြည့်": 2982,
      "ကာလပတ်လုံး": 2983,
      "မင်္ဂလာဆောင်": 2984,
      "ဘုန်းတော်": 2985,
      "သက်သီပြ": 2986,
      "ခြီကို": 2987,
      "ဗိမာန်တော်ကို": 2988,
      "ခန္ဓာကိုယ်": 2989,
      "တစ်ယောက်ကိုတစ်ယောက်": 2990,
      "ရွီးနုတ်": 2991,
      "ထင်ရှားစွာ": 2992,
      "သစ္စာနှင့်": 2993,
      "တစ်ဦးကို": 2994,
      "နှစ်ယောက်သည်": 2995,
      "ဘာသာရေး": 2996,
      "ဖာရိယှဲရို့": 2997,
      "မျှော်လင့်ခြင်း": 2998,
      "ထွန်းတောက်": 2999,
      "နှုတ်ကပတ်တော်": 3000,
      "နှုတ်ကပတ်တော်သည်": 3001,
      "နှုတ်ကပတ်တရားတော်ကို": 3002,
      "ညှည်း": 3003,
      "ယေသျှုခရစ်တော်အားဖြင့်": 3004,
      "ထိတိုင်အောင်": 3005,
      "ဖွယ်ရာ": 3006,
      "ယေရုဆလင်မြို့မှ": 3007,
      "စပျစ်ဥယျာဉ်": 3008,
      "အရီအတွက်": 3009,
      "ခွက်ကို": 3010,
      "ဖွားမြင်": 3011,
      "ရှင်ပြန်ထမြောက်ခြင်း": 3012,
      "နားမထောင်": 3013,
      "ဘုရားသခင်ထံမှ": 3014,
      "ဖြေကြား": 3015,
      "ဤအကြောင်းအရာများကို": 3016,
      "အမြဲတမ်း": 3017,
      "မိန့်မှာတော်မူ": 3018,
      "တိတ်ဆိတ်": 3019,
      "ဦးဂေါင်းကို": 3020,
      "ဝတ်ပြုကိုးကွယ်": 3021,
      "နိုင်ပါမည်နည်း": 3022,
      "ရုတ်တရက်": 3023,
      "ပြစ်ဒဏ်စီရင်": 3024,
      "ပဋိညာဉ်တရား": 3025,
      "ဖုံးအုပ်": 3026,
      "ဖေတ္တု": 3027,
      "မကြောက်ကတ်ကေ့": 3028,
      "သိမှတ်ကြလော့": 3029,
      "မိမိမယား": 3030,
      "အခြေအနေ": 3031,
      "ရည်ရွယ်ချက်": 3032,
      "တိရစ္ဆာန်": 3033,
      "အနန္တတန်ခိုးသျှင်": 3034,
      "မိစ္ဆာ": 3035,
      "ကပေရ": 3036,
      "ခဖူး": 3037,
      "ငရဲ": 3038,
      "ဆယ့်": 3039,
      "ညည်း": 3040,
      "ညစာ": 3041,
      "ဌေး": 3042,
      "တည့်": 3043,
      "ဒံ": 3044,
      "ဒန်": 3045,
      "ဓါး": 3046,
      "ပွ": 3047,
      "မယ်": 3048,
      "မစီရင်": 3049,
      "ရဗ္ဗ": 3050,
      "ဝန်း": 3051,
      "သနာ": 3052,
      "အောင့်": 3053,
      "အနိုင်": 3054,
      "အကူ": 3055,
      "အတိတ်": 3056,
      "ိုလ်": 3057,
      "ကြသည်ဖြစ်": 3058,
      "သည်ဖြစ်စီ": 3059,
      "သူဌေး": 3060,
      "နှောက်": 3061,
      "မူး": 3062,
      "ခြင်းကြောင့်": 3063,
      "ထိုအမှု": 3064,
      "ထိုအမှုကို": 3065,
      "ချီ": 3066,
      "ရို့သည်လည်း": 3067,
      "ကျင်း": 3068,
      "တွက်": 3069,
      "တစ်ကြိမ်": 3070,
      "လာမည့်": 3071,
      "သင်ရို့အားလုံးသည်": 3072,
      "ခံတော်မူ": 3073,
      "သားသည်": 3074,
      "သားရို့အား": 3075,
      "လေဝိ": 3076,
      "မိမိအသက်ကို": 3077,
      "တရားမဲ့": 3078,
      "ဇာမှာ": 3079,
      "လျက်နိန်": 3080,
      "အရာများသည်": 3081,
      "မျှမက": 3082,
      "ငါ့အတွက်": 3083,
      "မြို့ကြီး": 3084,
      "သျှင်သည်": 3085,
      "လက်နက်": 3086,
      "ခြင်းကိုလည်းကောင်း": 3087,
      "စိတ်မ": 3088,
      "ခရစ်ယာ": 3089,
      "ကောင်းကင်နှင့်": 3090,
      "ခရစ်တော်နှင့်အတူ": 3091,
      "ဟောကြား": 3092,
      "ဖက်သို့": 3093,
      "နိန်ကြစဉ်": 3094,
      "ဘဲနိန်": 3095,
      "သတ်ရန်": 3096,
      "ပညတ်တော်ကို": 3097,
      "တည်နိန်": 3098,
      "မင်းသည်": 3099,
      "မေလခိ": 3100,
      "အသက်ရှင်နီထိုင်": 3101,
      "အလိုသို့": 3102,
      "အလိုအတိုင်း": 3103,
      "ဆီးကြော": 3104,
      "ကြည့်ပါ": 3105,
      "နိုင်ငံတော်သို့": 3106,
      "ခွင့်ကို": 3107,
      "နီရာသို့": 3108,
      "ယောဟန်က": 3109,
      "ပရောဖက်တစ်ပါး": 3110,
      "ကျမ်းစာက": 3111,
      "ဝိညာဉ်တော်က": 3112,
      "သီးနှံ": 3113,
      "ပြည့်စုံသော": 3114,
      "မပြုကတ်ကေ့": 3115,
      "စီတော်မူလိမ့်မည်": 3116,
      "အပြင်သို့": 3117,
      "သားသမီးရို့": 3118,
      "သားသမီးများ": 3119,
      "ထောက်ပံ့": 3120,
      "သြဝါဒ": 3121,
      "ဟိသမျှသော": 3122,
      "အလင်းကို": 3123,
      "ထိုက်သော": 3124,
      "လျော်": 3125,
      "လျောက်": 3126,
      "ရွာသို့": 3127,
      "ဗာဗုလုန်": 3128,
      "ဆုံးမဩဝါဒ": 3129,
      "ဆုံးမပဲ့": 3130,
      "ဥစ္စာကို": 3131,
      "ဤအကြောင်းကြောင့်": 3132,
      "မဖြစ်နိုင်": 3133,
      "ကောင်းကြီးမင်္ဂလာ": 3134,
      "ဗျာဒိတ်တော်ကို": 3135,
      "တပ်မှူးသည်": 3136,
      "စာရီးလိုက်ပါ": 3137,
      "အပြစ်စီရင်ခြင်းကို": 3138,
      "အလောင်းတော်ကို": 3139,
      "ဘာသာစကားဖြင့်": 3140,
      "မိန်းမြန်းကြ": 3141,
      "တစ်ပါးတည်းသာ": 3142,
      "ဆံပင်": 3143,
      "အသစ်သော": 3144,
      "ပျပ်ဝပ်လျက်": 3145,
      "မြွက်ဆို": 3146,
      "ညံ့သိမ်": 3147,
      "ဖဲသာ": 3148,
      "အာကာပြင်": 3149,
      "ယေဒါလည်း": 3150,
      "အလှူ": 3151,
      "အကိုင်းအခက်": 3152,
      "ကပေရနောင်": 3153,
      "ခရစ်ယာန်": 3154,
      "ကန့်": 3155,
      "ငန်း": 3156,
      "ဇဒ္": 3157,
      "ထုပ်": 3158,
      "ဒူး": 3159,
      "ဒမာ": 3160,
      "နူး": 3161,
      "ဘူး": 3162,
      "မဿ": 3163,
      "မမြင်ရ": 3164,
      "ယို": 3165,
      "ယော်": 3166,
      "လံ": 3167,
      "သယ": 3168,
      "သုတ်": 3169,
      "သစ်ကို": 3170,
      "အံ": 3171,
      "အန္တ": 3172,
      "၁၂": 3173,
      "ကိုက်": 3174,
      "ကြမည်": 3175,
      "ကြသည့်": 3176,
      "သူတစ်ယောက်": 3177,
      "ိများ": 3178,
      "ဖြစ်သော်လည်း": 3179,
      "ဖြစ်ကြလိမ့်မည်": 3180,
      "ခြင်းများ": 3181,
      "ခြင်းမဟိဘဲ": 3182,
      "ဟုခေါ်သော": 3183,
      "တိကား": 3184,
      "တိနှင့်အတူ": 3185,
      "တိပါးသို့": 3186,
      "မြည်": 3187,
      "ကျီ": 3188,
      "ကျက်": 3189,
      "ကျခံ": 3190,
      "ကျသဖြင့်": 3191,
      "ဟိရာ": 3192,
      "ဟိကြလော့": 3193,
      "ဟိသည်ကို": 3194,
      "ပါက": 3195,
      "ပါမည်": 3196,
      "တစ်ရာ": 3197,
      "တစ်ခွန်း": 3198,
      "များပြား": 3199,
      "ကိုယ်စား": 3200,
      "ခံထား": 3201,
      "လောဘ": 3202,
      "ယေသျှုခရစ်": 3203,
      "ယေသျှုပါးသို့": 3204,
      "ထားသောသူ": 3205,
      "ပြုလော့": 3206,
      "တရားသူကြီး": 3207,
      "ကိုယ်တော်ထံသို့": 3208,
      "ရန်ဖြစ်": 3209,
      "သာသနာ": 3210,
      "ငါရို့နှင့်အတူ": 3211,
      "လိုက်လေ": 3212,
      "လိုက်လော့": 3213,
      "မျိုးစိ": 3214,
      "စားကြ": 3215,
      "စာလိပ်": 3216,
      "မြို့ကို": 3217,
      "မြို့တွင်": 3218,
      "ကာယ": 3219,
      "ကာရုတ်": 3220,
      "ထက်မှ": 3221,
      "မိန်းလျှင်": 3222,
      "မာသ": 3223,
      "ပြန်ပြောကြ": 3224,
      "အပြစ်ဒဏ်": 3225,
      "အသက်ကြီး": 3226,
      "ခံရသောအခါ": 3227,
      "ခရစ်တော်နှင့်": 3228,
      "ဟူမူကား": 3229,
      "တောင်းဆို": 3230,
      "ခေါ်တော်မူ": 3231,
      "ဝင်ပြီးလျှင်": 3232,
      "မွေး": 3233,
      "လှိုင်း": 3234,
      "တပည့်တော်ရို့က": 3235,
      "အားလုံးက": 3236,
      "မြောက်သောနိ့": 3237,
      "ယုဒသည်": 3238,
      "သတ်ပုတ်": 3239,
      "လာကြသောအခါ": 3240,
      "ပြည်သား": 3241,
      "ပညတ်ကျမ်း": 3242,
      "သခင်ဘုရားက": 3243,
      "ရှိ့က": 3244,
      "စုသိမ်း": 3245,
      "ထိုင်တော်မူ": 3246,
      "တူညီ": 3247,
      "ဆက်သ": 3248,
      "တန်ခိုးတော်": 3249,
      "တန်ခိုးတော်အားဖြင့်": 3250,
      "ရမည်နည်း": 3251,
      "ယဇ်ကောင်": 3252,
      "မိန်းမနှင့်": 3253,
      "မိန်းမတစ်ယောက်သည်": 3254,
      "အသက်ရှင်သော": 3255,
      "စစ်ကြော": 3256,
      "ဒုကဲ": 3257,
      "လမ်းပြ": 3258,
      "သို့ဖြစ်လျှင်": 3259,
      "သုံးပုံတစ်ပုံ": 3260,
      "ကြည့်လိုက်သောအခါ": 3261,
      "ပရောဖက်ရို့": 3262,
      "ပရောဖက်တိ": 3263,
      "လုပ်ဆောင်မှု": 3264,
      "လွန်ကျူး": 3265,
      "ခံစားရကြ": 3266,
      "ဖော်ပြတော်မူ": 3267,
      "ဆောင်ရွက်ရန်": 3268,
      "စရာအကြောင်း": 3269,
      "ကုန်ဆုံး": 3270,
      "ဝမ်းမြောက်စွာ": 3271,
      "ပညတ်တရားသည်": 3272,
      "သီခြင်းက": 3273,
      "သူငယ်ကို": 3274,
      "လွှမ်း": 3275,
      "ယုံကြည်သူများ": 3276,
      "ခွါ": 3277,
      "သနားကြင်နာ": 3278,
      "သားတော်အား": 3279,
      "ထိုမြို့တွင်": 3280,
      "စပျစ်သီး": 3281,
      "သီဆုံးလား": 3282,
      "အမိန့်ပီး": 3283,
      "အသိဉာဏ်": 3284,
      "ရင်းဆန်": 3285,
      "အမှုအရာတိကို": 3286,
      "ကိုယ်ခန္ဓာကို": 3287,
      "ကျိန်ဆဲ": 3288,
      "ဤသူကို": 3289,
      "ဥစ္စာပစ္စည်း": 3290,
      "မာရ်နတ်သည်": 3291,
      "ငြိမ်သက်ခြင်းကို": 3292,
      "ခိုင်မာ": 3293,
      "ခိုင်မြဲ": 3294,
      "ရွီးချယ်ထားသော": 3295,
      "ကောင်းမြတ်သော": 3296,
      "လူအစုအဝေး": 3297,
      "တစ်ခါက": 3298,
      "ထိုအရာများသည်": 3299,
      "ကျွေးမွေး": 3300,
      "သောစိတ်ဖြင့်": 3301,
      "မဟုတ်ပါလော": 3302,
      "မှားယွင်းသော": 3303,
      "အင်တန်": 3304,
      "ခက်ခဲ": 3305,
      "ဒ္ဒ": 3306,
      "အထူးသဖြင့်": 3307,
      "တိမှာ": 3308,
      "ဧကရာဇ်ဘုရင်": 3309,
      "ကြီးမားသော": 3310,
      "ဒန်မြစ်": 3311,
      "လျောက်ပတ်": 3312,
      "ဇဒ္ဒုကဲ": 3313,
      "ဒမာသက်": 3314,
      "နူးညံ့သိမ်": 3315,
      "ယော်ဒန်မြစ်": 3316,
      "ရင်းဆန်ခတ်": 3317,
      "ကော်": 3318,
      "စသည့်": 3319,
      "ညို": 3320,
      "ညောင်း": 3321,
      "တန့်": 3322,
      "ဖဝါး": 3323,
      "မကြား": 3324,
      "မနာခံ": 3325,
      "ရခြင်း": 3326,
      "ရယ်": 3327,
      "ရဖို့": 3328,
      "ဝဲ": 3329,
      "ဝေါ်": 3330,
      "သို": 3331,
      "သယ်": 3332,
      "သန်း": 3333,
      "အတိ": 3334,
      "အပြု": 3335,
      "အိတ်": 3336,
      "အနှစ်": 3337,
      "အမြတ်": 3338,
      "အထိ": 3339,
      "ဤသူရို့သည်": 3340,
      "္ကျီ": 3341,
      "ပြို": 3342,
      "သူနှင့်အတူ": 3343,
      "ဖြို": 3344,
      "ငါကား": 3345,
      "ဖြစ်နိုင်": 3346,
      "ထိုမျှမက": 3347,
      "တော်မူသောကြောင့်": 3348,
      "ချော": 3349,
      "ချင့်": 3350,
      "တိထက်": 3351,
      "မြား": 3352,
      "ပါသည်တကား": 3353,
      "တစ်ကျ": 3354,
      "တစ်ချိန်": 3355,
      "စီတတ်": 3356,
      "စီခိုင်း": 3357,
      "လူဝေး": 3358,
      "လျှော်": 3359,
      "လာခြင်းဖြစ်": 3360,
      "ကိုယ်ကာယ": 3361,
      "ယေသျှုထံပါးသို့": 3362,
      "ဆိုကေ": 3363,
      "နိန်ခ": 3364,
      "ထားခြင်းကို": 3365,
      "ပီးခြင်းငှာ": 3366,
      "ပြုခြင်းကို": 3367,
      "မိမိကိုယ်တိုင်": 3368,
      "ကိုယ်တော်တိုင်": 3369,
      "ဇာအချိန်": 3370,
      "ဇာခါ": 3371,
      "ဇာအမှုကို": 3372,
      "နိုင်သည့်": 3373,
      "နိုင်ကြလိမ့်မည်": 3374,
      "လုံးသည်": 3375,
      "ထို့ပြင်": 3376,
      "အရာအားလုံး": 3377,
      "မျိုးနွယ်": 3378,
      "တစ်ယောက်ဟိ": 3379,
      "တစ်ယောက်ကဲ့သို့": 3380,
      "ရောက်နိန်": 3381,
      "နည်းအားဖြင့်": 3382,
      "လက်ဆောင်": 3383,
      "လက်ထက်": 3384,
      "မဟုတ်သော": 3385,
      "မဟုတ်လား": 3386,
      "မိန့်တော်မူပြီးနောက်": 3387,
      "စိတ်ဖြင့်": 3388,
      "အချုပ်": 3389,
      "ရပ်နိန်ကြ": 3390,
      "စကားတိကို": 3391,
      "အမှုတော်မြတ်": 3392,
      "မဟိပေ": 3393,
      "ခုန်": 3394,
      "နိ့စဉ်": 3395,
      "ခေါ်ဝေါ်": 3396,
      "ပျို": 3397,
      "ငါရို့သည်လည်း": 3398,
      "ပညတ္တိ": 3399,
      "လဲကျ": 3400,
      "အပေါင်းအဖော်": 3401,
      "ယှင်းပြ": 3402,
      "ရှိ့မှောက်": 3403,
      "ဝတ်ကို": 3404,
      "တန်ခိုးအာဏာ": 3405,
      "လူတိသည်": 3406,
      "မိန်းမရို့သည်": 3407,
      "နှုတ်ဖြင့်": 3408,
      "အလိုတော်နှင့်အညီ": 3409,
      "လမ်းလွဲ": 3410,
      "သုံးကြိမ်": 3411,
      "သိမ်းယူ": 3412,
      "ရီးလိုက်": 3413,
      "ဇာသူနည်း": 3414,
      "ချီးမွမ်းကြ": 3415,
      "ချီးမွမ်းပါ": 3416,
      "ချီးမွမ်းကြလော့": 3417,
      "ပါစီသတည်း": 3418,
      "သွန်သင်ချက်": 3419,
      "ခြီတော်": 3420,
      "ထာဝရအသက်": 3421,
      "ရသောအခွင့်ကို": 3422,
      "ကျင့်သုံး": 3423,
      "ကျင့်ကြံ": 3424,
      "တမန်တော်ရို့သည်": 3425,
      "ကြိုးစားကြ": 3426,
      "လေးဆယ်": 3427,
      "မိုးထ": 3428,
      "သူငယ်မ": 3429,
      "ဂုဏ်တော်ကို": 3430,
      "သံသယ": 3431,
      "ချေပ": 3432,
      "ချေကို": 3433,
      "ကောင်းကင်ဘုံသို့": 3434,
      "ကောင်းကင်ဘုံသျှင်": 3435,
      "မျက်စိကို": 3436,
      "ဣသရေလအမျိုးသား": 3437,
      "စိ့စိ့": 3438,
      "နိုင်ကြပေ": 3439,
      "ခန့်အပ်": 3440,
      "လောင်းထက်သို့": 3441,
      "ဘုန်းတန်ခိုးတော်သည်": 3442,
      "ဘုန်းတန်ခိုးတော်နှင့်": 3443,
      "ချင်ပါ": 3444,
      "မာရိသည်": 3445,
      "ကိုင်ထား": 3446,
      "အမျိုးမျိုးကို": 3447,
      "ပြင်းစွာ": 3448,
      "ဖန်ဆင်းတော်မူ": 3449,
      "ဂါလိလဲပြည်သို့": 3450,
      "မေသျှိယသည်": 3451,
      "ရှိ့တော်မှောက်": 3452,
      "နောက်ဆုံးသော": 3453,
      "ဟေရုဒ်သည်": 3454,
      "ကြောက်ရွံ့တုန်လှုပ်": 3455,
      "အသုံးပြု": 3456,
      "ဖြောင့်မတ်ခြင်းတရားကို": 3457,
      "ရုပ်တုကို": 3458,
      "ထွက်ခွါ": 3459,
      "လူစုလူဝေး": 3460,
      "ညှဉ်းပန်းနှိပ်စက်": 3461,
      "အခွန်ခံ": 3462,
      "ရွီးကောက်တော်မူ": 3463,
      "အင်္ကျီ": 3464,
      "စောစော": 3465,
      "ဇာသူ့ကိုမျှ": 3466,
      "မတရားသောမေထုန်": 3467,
      "ထုံးစံ": 3468,
      "ရွက်ရွှင့်ကြ": 3469,
      "ငတ်မွတ်": 3470,
      "ဒေါသထွက်": 3471,
      "တုပ်နှောင်": 3472,
      "နံ့သာ": 3473,
      "ရုန်းရင်းဆန်ခတ်": 3474,
      "တောင့်တ": 3475,
      "လှောင်ပြောင်": 3476,
      "ပုပ်ပျက်": 3477,
      "အာနနိ": 3478,
      "တိတ်ဆိတ်စွာ": 3479,
      "အကူအညီ": 3480,
      "ဆုံးမပဲ့ပြင်": 3481,
      "ဒူးထောက်": 3482,
      "အပြုအမူ": 3483,
      "ပညတ္တိကျမ်း": 3484,
      "ခင်း": 3485,
      "စွန်း": 3486,
      "ဆွ": 3487,
      "ဇေဒ": 3488,
      "တို": 3489,
      "တုတ်": 3490,
      "ဖွီ": 3491,
      "ဗေဒ": 3492,
      "မွန်": 3493,
      "မနိန်": 3494,
      "မချင်း": 3495,
      "မသောက်": 3496,
      "မမှန်သော": 3497,
      "ယစ်": 3498,
      "သနိ": 3499,
      "အမျှ": 3500,
      "အပျက်": 3501,
      "အကြွင်း": 3502,
      "အထည်": 3503,
      "ဤသတင်း": 3504,
      "။’": 3505,
      "န်ကြာ": 3506,
      "သောအားဖြင့်": 3507,
      "ပြသ": 3508,
      "ဖြန့်": 3509,
      "ငါဟောပြော": 3510,
      "ငါအမှန်": 3511,
      "ငါကြားရ": 3512,
      "သို့တည်း": 3513,
      "ထိုအရာများကို": 3514,
      "တိကလည်း": 3515,
      "မြီး": 3516,
      "ဟိသောသူရို့": 3517,
      "ဟိနိန်စဉ်": 3518,
      "တွန်": 3519,
      "သခင်သည်": 3520,
      "ရာယ်": 3521,
      "များအတွက်": 3522,
      "သင်ရို့အဖ": 3523,
      "သောသူတိုင်း": 3524,
      "လိုသောသူသည်": 3525,
      "ဆိုလိမ့်မည်": 3526,
      "ထားသည်ကို": 3527,
      "သားများ": 3528,
      "သူရို့ကလည်း": 3529,
      "သူရို့ပါးသို့": 3530,
      "လေသာ": 3531,
      "ပြုရန်": 3532,
      "အခါယ": 3533,
      "မိမိကို": 3534,
      "လားကတ်": 3535,
      "တရားဟော": 3536,
      "ကိုယ်တော်ပါးသို့": 3537,
      "နိုင်လိမ့်မည်": 3538,
      "ရွိ့": 3539,
      "ငါရို့အသျှင်": 3540,
      "ငါရို့အားလုံးသည်": 3541,
      "အတန်ကြာ": 3542,
      "ငါ့သား": 3543,
      "တစ်ယောက်နှင့်": 3544,
      "ဆောင်ဖက်": 3545,
      "မြို့နှင့်": 3546,
      "ကြည်ညို": 3547,
      "သိစီလို": 3548,
      "မဟုတ်လျှင်": 3549,
      "မိန့်တော်မူသော": 3550,
      "စိတ်နှင့်": 3551,
      "အားဖြင့်သာ": 3552,
      "အချက်": 3553,
      "ရပ်နိန်": 3554,
      "မာဂ": 3555,
      "ပြန်မြင်": 3556,
      "ပြန်ရှင်": 3557,
      "လုပ်ခ": 3558,
      "လုပ်ငန်း": 3559,
      "အသက်တာ": 3560,
      "နားသို့": 3561,
      "ကောင်းကင်နိုင်ငံတော်": 3562,
      "ခရစ်တော်အားဖြင့်": 3563,
      "အာဒံ": 3564,
      "ခေါ်လား": 3565,
      "ပေါင်းများစွာ": 3566,
      "ယုပ္": 3567,
      "တပည့်တော်တိကို": 3568,
      "တပည့်တော်တိက": 3569,
      "တပည့်တော်တိအား": 3570,
      "ဟောပြောလေ": 3571,
      "မျက်ရည်": 3572,
      "အပေါင်းအပါ": 3573,
      "ယောန": 3574,
      "သင်သည်လည်း": 3575,
      "တစ်ခုလုံးကို": 3576,
      "ဖို့အတွက်": 3577,
      "တန်ခိုးဖြင့်": 3578,
      "ကိုယ်တော့်အား": 3579,
      "ဝမ်းသာ": 3580,
      "မှတ်မိ": 3581,
      "သောအရာသည်": 3582,
      "ပရောဖက်တိကို": 3583,
      "ဗြဲ": 3584,
      "သိကြပါ": 3585,
      "ကျမ်းစာကို": 3586,
      "ခံယူကြ": 3587,
      "မြီကြီးကို": 3588,
      "ကွယ်ဝှက်": 3589,
      "ချီးမွမ်းပြီးမှ": 3590,
      "မီးအိုင်": 3591,
      "ပုံကို": 3592,
      "ခြီဖဝါး": 3593,
      "ပြည့်စုံစီခြင်းငှာ": 3594,
      "ပြည့်စုံတော်မူသော": 3595,
      "ကုန်အံ့": 3596,
      "ဝမ်းမြောက်ကြလော့": 3597,
      "အဖို့အလို့ငှာ": 3598,
      "ဟေဗြဲ": 3599,
      "ယုဒလူမျိုးရို့": 3600,
      "စည်းဝေး": 3601,
      "တမန်တော်ရို့": 3602,
      "ရှာဖွီ": 3603,
      "ကမ်းခြီ": 3604,
      "လွှား": 3605,
      "ကျင်လည်": 3606,
      "အကျွန့်အား": 3607,
      "မောသျှေက": 3608,
      "လေ့ဟိ": 3609,
      "ခွတ်": 3610,
      "စွန့်ကြဲ": 3611,
      "အာဗြဟံအား": 3612,
      "ဖာရိယှဲရို့သည်": 3613,
      "အလင်းသည်": 3614,
      "ကြွတော်မူစဉ်": 3615,
      "အထက်သို့": 3616,
      "ကောင်ကို": 3617,
      "ထိုမြို့မှ": 3618,
      "ပျက်စီးခြင်းသို့": 3619,
      "ဆွီမျိုး": 3620,
      "ဝန်ထုပ်": 3621,
      "ကိလေသာ": 3622,
      "အသွီးအသား": 3623,
      "လူတိုင်းကို": 3624,
      "နာမည်ဟိသော": 3625,
      "အသီသတ်ခြင်းကို": 3626,
      "လိုအပ်သော": 3627,
      "ခရစ်တော်ယေသျှုအားဖြင့်": 3628,
      "မတွိ့ရ": 3629,
      "ဝီးကွာ": 3630,
      "ဟစ်အော်": 3631,
      "အိမ်ထောင်သျှင်": 3632,
      "ပိတ်ချော": 3633,
      "ဗေသနိ": 3634,
      "နေလိ": 3635,
      "အဆုံးသတ်": 3636,
      "စုံစမ်းသွီးဆောင်": 3637,
      "အင်္ဂါအစိတ်အပိုင်း": 3638,
      "ဒုစရိုက်အပြစ်": 3639,
      "အကြိမ်ကြိမ်": 3640,
      "အသားကို": 3641,
      "ပူဇော်သကာကို": 3642,
      "လားခယာ": 3643,
      "တစ်ကောင်ကို": 3644,
      "ပီးသနားတော်မူသော": 3645,
      "ကြားသိရ": 3646,
      "ကြိုဆိုလက်ခံ": 3647,
      "အန္တိအုတ်မြို့သို့": 3648,
      "ဂရုစိုက်": 3649,
      "သေချာစွာ": 3650,
      "လုပ်ဖော်ဆောင်ဖက်": 3651,
      "နှောင့်ယှက်": 3652,
      "မင်္ဂလာဆောင်သတို့": 3653,
      "ကျင်းပ": 3654,
      "အန္တရာယ်": 3655,
      "အင်တန်ကြာ": 3656,
      "ကော်နေလိ": 3657,
      "တစ်ကျိပ်": 3658,
      "ဇေဒက်": 3659,
      "ယုပ္ပေ": 3660,
      "စော်": 3661,
      "ဆင့်": 3662,
      "ဆေး": 3663,
      "ဇဗက်": 3664,
      "တအောင့်": 3665,
      "ဒလ": 3666,
      "ဓမ္": 3667,
      "နူ": 3668,
      "မသည်": 3669,
      "မကျ": 3670,
      "မပျက်စီး": 3671,
      "ရသနည်း": 3672,
      "ဝစွာ": 3673,
      "အီး": 3674,
      "အဝင်": 3675,
      "အဆိုး": 3676,
      "အငြင်း": 3677,
      "အရွယ်": 3678,
      "အဂြ": 3679,
      "အန္ဒြေ": 3680,
      "ဤအရာများကို": 3681,
      "ဤစာကို": 3682,
      "ဤမျှလောက်": 3683,
      "ိပ္ပ": 3684,
      "ေလ": 3685,
      "’”": 3686,
      "သောအချိန်": 3687,
      "ပြသော": 3688,
      "သူများကို": 3689,
      "ဖြန်": 3690,
      "ဖြည့်": 3691,
      "ခြိမ်း": 3692,
      "နှိုင်း": 3693,
      "ငါအား": 3694,
      "သို့ပင်": 3695,
      "မှည့်": 3696,
      "ဖြစ်သူ": 3697,
      "ဖြစ်သဖြင့်": 3698,
      "ဖြစ်သလော": 3699,
      "သင်ကြား": 3700,
      "ခြင်းပင်": 3701,
      "ထိုကဲ့သို့": 3702,
      "ထိုကောင်းကင်တမန်": 3703,
      "ထိုကာလ": 3704,
      "မျဉ်း": 3705,
      "တော်မူလေ": 3706,
      "တော်မူသည်မှာ": 3707,
      "တော်မူပါစီသောဝ်": 3708,
      "ဟိလေ": 3709,
      "ဟိကြလိမ့်မည်": 3710,
      "သျှစ်": 3711,
      "ခင်ကပင်": 3712,
      "မည်သည်ကား": 3713,
      "တစ်ပြား": 3714,
      "များမှာ": 3715,
      "လူရို့ကို": 3716,
      "လူတစ်ယောက်ကို": 3717,
      "လာသည့်": 3718,
      "လာလော့": 3719,
      "ကောင်းကို": 3720,
      "ကောင်းကျိုး": 3721,
      "ကောင်းမွန်": 3722,
      "ကိုယ်နှင့်": 3723,
      "ပြီးသော": 3724,
      "ပြောသည့်အတိုင်း": 3725,
      "နိန်သနည်း": 3726,
      "နိန်ရသော": 3727,
      "ထားလေ": 3728,
      "ထားသည့်အတိုင်း": 3729,
      "ထားခသော": 3730,
      "သားတော်သည်": 3731,
      "လိမ့်မည်နည်း": 3732,
      "မိမိနှင့်": 3733,
      "လျက်နှင့်": 3734,
      "အရာအားလုံးကို": 3735,
      "ငါ့ထံသို့": 3736,
      "စွာလဲ": 3737,
      "ဆောင်ယူ": 3738,
      "ရောက်စီ": 3739,
      "မြို့ထဲသို့": 3740,
      "သီမင်း": 3741,
      "သီဒဏ်": 3742,
      "သီကျလား": 3743,
      "ယူပြီးလျှင်": 3744,
      "မြင်လေ": 3745,
      "ကြားကြသောအခါ": 3746,
      "အပြစ်အတွက်": 3747,
      "အသျှင်သခင်": 3748,
      "မဟိသောကြောင့်": 3749,
      "မဟိယာ": 3750,
      "တင်ပြီး": 3751,
      "ကတ်ပါစီ": 3752,
      "ယာယ်": 3753,
      "ဝိညာဉ်ရေး": 3754,
      "ဝင်ရောက်လာ": 3755,
      "လှန်": 3756,
      "ထွက်ပေါ်လာ": 3757,
      "စဉ်ကို": 3758,
      "န္န": 3759,
      "လင်ယောကျ်ား": 3760,
      "ထိုသို့ပြု": 3761,
      "ပြည်ကို": 3762,
      "ချက်သည်": 3763,
      "ပြောဆိုနိန်ကြ": 3764,
      "ကျေးဇူးတော်အားဖြင့်": 3765,
      "ထိုင်လျက်": 3766,
      "ချစ်ကြလော့": 3767,
      "ထိုသူကား": 3768,
      "ဖြစ်ကြသော": 3769,
      "ယဇ်ပူဇော်": 3770,
      "မည့်အစား": 3771,
      "အသက်ရှင်ခြင်း": 3772,
      "အလိုမဟိ": 3773,
      "စစ်ဆေး": 3774,
      "ပေတရုကို": 3775,
      "ယုံကြည်ခြင်းဖြင့်": 3776,
      "ကြည့်လော့": 3777,
      "ကြည့်ကြလော့": 3778,
      "ကာလအစဉ်": 3779,
      "စီရန်နှင့်": 3780,
      "ဆုတောင်းပီး": 3781,
      "မတ်တပ်": 3782,
      "နတ်ဘုရား": 3783,
      "အံ့နည်း": 3784,
      "ကြိုးကို": 3785,
      "မြီကြီးထက်သို့": 3786,
      "ဝိညာဉ်တော်နှင့်": 3787,
      "တခြားလူတိကို": 3788,
      "မီးခိုး": 3789,
      "မီးလျှံ": 3790,
      "သီးစား": 3791,
      "အဖြစ်အပျက်": 3792,
      "သူရို့ကိုလည်း": 3793,
      "ပြည့်စုံခြင်းသို့": 3794,
      "ယင်းပိုင်": 3795,
      "သတိနှင့်": 3796,
      "သတိပြုကြလော့": 3797,
      "တုရု": 3798,
      "ဝမ်းမြောက်ခြင်း": 3799,
      "အပြင်ဖက်": 3800,
      "တမန်တော်ရို့အား": 3801,
      "သားသမီးတိကို": 3802,
      "မေတ္တာသည်": 3803,
      "အကျိုးမဟိ": 3804,
      "အကျိုးကျေးဇူး": 3805,
      "အကြီးမြတ်": 3806,
      "ဗတ္တိဇံယောဟန်": 3807,
      "ဗတ္တိဇံမင်္ဂလာကို": 3808,
      "သံကို": 3809,
      "လွှာ": 3810,
      "အသီးအ": 3811,
      "သစ္စာဟိ": 3812,
      "သစ္စာဟိသော": 3813,
      "လီယာ": 3814,
      "ဘာသာတရား": 3815,
      "သနားကရုဏာ": 3816,
      "မရဘဲ": 3817,
      "ခန့်ထားတော်မူ": 3818,
      "တခြားလူမျိုးရို့": 3819,
      "ခုနစ်ယောက်": 3820,
      "ခုနစ်လုံးကို": 3821,
      "ဗာရဗ္ဗ": 3822,
      "ထားခပြီးလျှင်": 3823,
      "များစွာသောလူရို့သည်": 3824,
      "ရပါဖို့လဲ": 3825,
      "လူတိုင်းက": 3826,
      "ပျော်ရွှင်": 3827,
      "စွမ်းရည်": 3828,
      "ပထမဆုံး": 3829,
      "ငြိမ်သက်ခြင်းသည်": 3830,
      "မင်းကြီးသည်": 3831,
      "မိတ်ဖွဲ့": 3832,
      "တိုက်တွန်းနှိုးဆော်": 3833,
      "လွဲမှား": 3834,
      "ခေါ်ဆောင်လားကြ": 3835,
      "မှန်ကန်ကြောင်းကို": 3836,
      "သျှောလမုန်": 3837,
      "ပရိယာယ်": 3838,
      "ညွတ်": 3839,
      "ဆုကျေးဇူးများကို": 3840,
      "ဗျာဒိတ်ရူပါရုံ": 3841,
      "ဧလိဇဗက်": 3842,
      "အမျက်တော်ကို": 3843,
      "ဝီငှ": 3844,
      "သန့်ယှင်းသောဝိညာဉ်တော်နှင့်": 3845,
      "အလိုတော်အတိုင်း": 3846,
      "သျှောလုသည်": 3847,
      "ပြန်လည်သင့်မြတ်": 3848,
      "ငြိမ်းချမ်း": 3849,
      "သုံးရက်မြောက်သောနိ့": 3850,
      "အမွီခံ": 3851,
      "နှင့်တူသော": 3852,
      "အလုံးစုံကို": 3853,
      "မျက်မှောက်တော်": 3854,
      "ဒါးပြ": 3855,
      "ဇေဗေဒ": 3856,
      "အဆက်ဆက်": 3857,
      "မြက်ရိုင်း": 3858,
      "ထိုအခြင်း": 3859,
      "သရဖူကို": 3860,
      "ကဲသရိမြို့သို့": 3861,
      "ကျယ်သောအသံဖြင့်": 3862,
      "အငယ်ဆုံး": 3863,
      "ညှည်းဆဲ": 3864,
      "ဝန်းကျင်": 3865,
      "မေလခိဇေဒက်": 3866,
      "လွှမ်းမိုး": 3867,
      "သို့တည်းမဟုတ်": 3868,
      "မာဂဒလ": 3869,
      "စော်ကား": 3870,
      "ဓမ္မ": 3871,
      "အဂြိပ္ပ": 3872,
      "သို့ပင်သျှောင်": 3873,
      "ဇေဗေဒဲ": 3874,
      "ခသည်": 3875,
      "ခသူ": 3876,
      "ခမ်း": 3877,
      "ဂြို": 3878,
      "ဆုတ်": 3879,
      "ညမပြတ်": 3880,
      "တင့်": 3881,
      "ထိမ်း": 3882,
      "ဒုံ": 3883,
      "နမ်း": 3884,
      "ပုန်": 3885,
      "ဖျ": 3886,
      "မထင်": 3887,
      "မလိုက်နာ": 3888,
      "မတတ်နိုင်": 3889,
      "မထိုက်တန်": 3890,
      "ရသည်": 3891,
      "ရထား": 3892,
      "ရခြင်းငှာ": 3893,
      "ဝေ": 3894,
      "သွား": 3895,
      "သန္ဓ": 3896,
      "သတ္တိ": 3897,
      "အထ": 3898,
      "အဝ": 3899,
      "အေ": 3900,
      "အပါး": 3901,
      "အကြာ": 3902,
      "အမှောင်": 3903,
      "အမင်္ဂလာဟိ": 3904,
      "အငှား": 3905,
      "ဤပိုင်": 3906,
      "ဤအရာတိကို": 3907,
      "ာန": 3908,
      "ူတည်း": 3909,
      "ကြမ်း": 3910,
      "ကြဉ်": 3911,
      "သောအမှု": 3912,
      "ငါကိုယ်တိုင်": 3913,
      "ငါမသိ": 3914,
      "ိမမြင်": 3915,
      "မှသာလျှင်": 3916,
      "ဖြစ်သနည်း": 3917,
      "သင်ကား": 3918,
      "ခြင်းသည်ကား": 3919,
      "ထိုမှ": 3920,
      "ထိုသူ့ကို": 3921,
      "ထိုအရာကို": 3922,
      "ထိုအကြောင်းအရာ": 3923,
      "တော်မူသဖြင့်": 3924,
      "ချွတ်": 3925,
      "ဟိသည်ဟု": 3926,
      "ဟိသိမ့်": 3927,
      "ပါသော": 3928,
      "ပါလဲ": 3929,
      "ပါမည်နည်း": 3930,
      "ဘုရားတရားမဲ့": 3931,
      "မည်သူ့ကို": 3932,
      "မည်ဆိုလျှင်": 3933,
      "ရာသီ": 3934,
      "တစ်ဆောင်": 3935,
      "တစ်ဖို့": 3936,
      "စီနိုင်": 3937,
      "စီသတည်း": 3938,
      "လူအားလုံး": 3939,
      "လူတစ်ယောက်က": 3940,
      "လူပရိသတ်": 3941,
      "လျှပ်": 3942,
      "ကောင်းသောအရာ": 3943,
      "သောသူတစ်ယောက်": 3944,
      "သောသူသည်ကား": 3945,
      "သောသူတိုင်းသည်": 3946,
      "အသတ်": 3947,
      "ဆိုသော": 3948,
      "ဆိုရာ": 3949,
      "နိန်ခြင်းဖြစ်": 3950,
      "ထားခြင်း": 3951,
      "လေပြီ": 3952,
      "ပြုလေ": 3953,
      "အခါမျှ": 3954,
      "မိမိသည်": 3955,
      "မိမိကိုယ်": 3956,
      "လားသော": 3957,
      "လားလာ": 3958,
      "လားလော့": 3959,
      "လားရမည်": 3960,
      "ဇာချင့်": 3961,
      "နိုင်မည်": 3962,
      "နိုင်စွမ်း": 3963,
      "လျက်နိန်ကြ": 3964,
      "နောက်ကို": 3965,
      "ငါရို့အဖ": 3966,
      "ငါရို့အဖို့": 3967,
      "အတင်း": 3968,
      "မျိုးကို": 3969,
      "မျိုးဆက်": 3970,
      "မှုန့်": 3971,
      "စားကြွင်း": 3972,
      "မျှတ": 3973,
      "တစ်ယောက်ဖြစ်သော": 3974,
      "ရောက်လျှင်": 3975,
      "ရောက်ကြသောအခါ": 3976,
      "နည်းလမ်း": 3977,
      "သျှင်က": 3978,
      "ယုံကြည်လာကြ": 3979,
      "လက်မှ": 3980,
      "ကာကွယ်": 3981,
      "ယူဆ": 3982,
      "မြင်တော်မူလျှင်": 3983,
      "သူသည်လည်း": 3984,
      "ရပ်နိန်သော": 3985,
      "စကားတစ်ခွန်း": 3986,
      "ကြားသိကြ": 3987,
      "သက်ဆိုင်သော": 3988,
      "ကြွလား": 3989,
      "အပြစ်သား": 3990,
      "ခေါက်": 3991,
      "ညီတော်": 3992,
      "နားညောင်း": 3993,
      "ကောင်းကင်သို့": 3994,
      "ကောင်းကင်နိုင်ငံတော်သည်": 3995,
      "တိုင်ပင်": 3996,
      "အမှုအရာများကို": 3997,
      "နှစ်ပတ်လုံး": 3998,
      "မဟိဟု": 3999,
      "မဟိပါ": 4000,
      "ခြားနား": 4001,
      "ခေါ်ထုတ်": 4002,
      "ခေါ်သွင်း": 4003,
      "လူမျိုးတကာ": 4004,
      "ရင်ဆိုင်": 4005,
      "လုယူ": 4006,
      "ဝင်သောအခါ": 4007,
      "လှုံ့": 4008,
      "တပည့်တော်ရို့ကို": 4009,
      "တွိ့သောအခါ": 4010,
      "အိမ်သူ": 4011,
      "နိန်ကြလျှင်": 4012,
      "ဟောပြောခ": 4013,
      "အချိန်သည်": 4014,
      "လာကြသော": 4015,
      "သခင်ဘုရားနှင့်": 4016,
      "ချက်တိကို": 4017,
      "ချက်တီး": 4018,
      "မြတ်နိုး": 4019,
      "ကျေးဇူးပြု": 4020,
      "တစ်ခုခု": 4021,
      "သောသူသည်လည်း": 4022,
      "ဖို့တစ်ဖို့": 4023,
      "ချစ်သောသူသည်": 4024,
      "မိမိရို့အား": 4025,
      "တန်ခိုးကို": 4026,
      "ရမည်ဟု": 4027,
      "က္ခာ": 4028,
      "မြီကွက်": 4029,
      "လူတိကား": 4030,
      "ဝမ်းဆာ": 4031,
      "တိုင်းနိုင်ငံ": 4032,
      "အလိုဟိကြ": 4033,
      "မုသာ": 4034,
      "စစ်သည်": 4035,
      "ယုံကြည်ခြင်းကြောင့်": 4036,
      "သုံးဆယ်": 4037,
      "ကြည့်လျက်": 4038,
      "ကောင်းကင်တမန်တစ်ပါးသည်": 4039,
      "ဆုတောင်းကြလော့": 4040,
      "ယောဟန်ကို": 4041,
      "ပရောဖက်များ": 4042,
      "ဤသို့ဖြင့်": 4043,
      "ပီးတော်မူခ": 4044,
      "လုပ်ဆောင်ကြလော့": 4045,
      "ခံယူရဟိ": 4046,
      "မြီကြီးထက်မှာ": 4047,
      "ထုတ်ဖော်": 4048,
      "ချီးမွမ်းခြင်းကို": 4049,
      "ကြွလာတော်မူသော": 4050,
      "နီထိုင်ကြသော": 4051,
      "သွန်သင်ချက်ကို": 4052,
      "ခံစားရလိမ့်မည်": 4053,
      "ပုံသဏ္ဌာန်": 4054,
      "ခြီရင်း": 4055,
      "သောသူတိသည်": 4056,
      "ပေါ်ပေါက်": 4057,
      "ယင်းနည်းတူ": 4058,
      "သောသူရို့က": 4059,
      "ခြင်းနှင့်ဆိုင်သော": 4060,
      "သိုးတိကို": 4061,
      "ပစ်ရန်": 4062,
      "ကောင်းသောအမှု": 4063,
      "လျက်ဟိသည်ကို": 4064,
      "မသိပါ": 4065,
      "အသင်းတော်လူကြီး": 4066,
      "ပြင်လုံး": 4067,
      "လေ့မဟိ": 4068,
      "ဗိမာန်တော်ထဲ": 4069,
      "အခိုင်းအစီကို": 4070,
      "အခိုင်းအစီတိကို": 4071,
      "ဒဏ်ရာ": 4072,
      "တရားစီရင်တော်မူရာ": 4073,
      "ဘာသာစကားကို": 4074,
      "ဖာရိယှဲနှင့်": 4075,
      "အလင်းရောင်": 4076,
      "ကောက်ခံ": 4077,
      "သနားတော်မူပါ": 4078,
      "အကျင့်အားဖြင့်": 4079,
      "သဘောပေါက်": 4080,
      "ထိုမြို့သည်": 4081,
      "လက်ဝါးကပ်တိုင်ထက်": 4082,
      "နက်ဖြန်": 4083,
      "ခရီးဆက်": 4084,
      "ကျန်းမာစီတော်မူ": 4085,
      "တစ်ဆူတည်း": 4086,
      "ဖန်ဆင်းတော်မူသော": 4087,
      "တန်းခါးဝ": 4088,
      "လူ့အသက်ကို": 4089,
      "ပိုင်းဖြတ်": 4090,
      "ကိုယ့်ကိုယ်ကို": 4091,
      "ဆယ်ဖို့တစ်ဖို့": 4092,
      "ရောက်လာကြပြီးလျှင်": 4093,
      "မျက်နှာကို": 4094,
      "တရားဇရပ်များ": 4095,
      "တောင်းပန်ပါ": 4096,
      "အနားတွင်": 4097,
      "ဘုရားသခင်ထံတော်မှ": 4098,
      "ချမ်းသာကြွယ်ဝ": 4099,
      "ခေါင်းပါး": 4100,
      "မင်းကြီးက": 4101,
      "ဤအကြောင်းအရာ": 4102,
      "ယှောင်ကြဉ်": 4103,
      "ခွင့်ရွှတ်ခြင်း": 4104,
      "ရှက်ကြောက်": 4105,
      "ရောမနိုင်ငံ": 4106,
      "ပဋိသန္ဓ": 4107,
      "ချစ်ခြင်းမေတ္တာသည်": 4108,
      "ရိုသီလေးစား": 4109,
      "ကွာယှင်း": 4110,
      "အနက်အဓိပ္ပာယ်": 4111,
      "သစ်ပင်": 4112,
      "စစ်သားရို့သည်": 4113,
      "နားမလည်ကြ": 4114,
      "အစားအစာကို": 4115,
      "အဓိက": 4116,
      "အကျဉ်းထောင်": 4117,
      "ကမ္ဘာအဆက်ဆက်": 4118,
      "စုံစမ်းနှောင့်ယှက်": 4119,
      "ဖြူစင်": 4120,
      "မွိ့လျော်": 4121,
      "မဟုတ်ပါလား": 4122,
      "ခြောက်သွ": 4123,
      "သိုးသူငယ်တော်သည်": 4124,
      "ဟောပြောကြေ": 4125,
      "မြင့်မြတ်": 4126,
      "အပြစ်တရားသည်": 4127,
      "အနွယ်မှ": 4128,
      "ပီးကမ်းစွန့်ကြဲ": 4129,
      "တဲတော်": 4130,
      "အနည်းငယ်": 4131,
      "ဟောပြောသွန်သင်တော်မူ": 4132,
      "လုံခြုံ": 4133,
      "တံဆိပ်ခတ်": 4134,
      "ချိုးဖောက်": 4135,
      "အပြည့်အဝ": 4136,
      "နက်နဲသော": 4137,
      "ထုံးတမ်း": 4138,
      "အမည်ဟိသော": 4139,
      "ပစ်ချခြင်းကို": 4140,
      "ကျောက်ခဲနှင့်": 4141,
      "ဟာယ": 4142,
      "ကြေနပ်": 4143,
      "ဧဖက်မြို့": 4144,
      "ကျယ်လောင်စွာ": 4145,
      "လူအုပ်ကြီး": 4146,
      "သံလွင်တောင်": 4147,
      "ငြိမ်ဝပ်ချမ်းသာ": 4148,
      "သားရီဘူး": 4149,
      "မစိုးရိမ်ကတ်ကေ့": 4150,
      "ညည်းတွား": 4151,
      "ပွါး": 4152,
      "ခိုင်မြဲစွာ": 4153,
      "နူးညံ့သိမ်မွိ့": 4154,
      "ခြီတော်ရင်း": 4155,
      "နူနာ": 4156,
      "ထိမ်းမြား": 4157,
      "ပုန်ကန်": 4158,
      "မည်သူ့ကိုမျှ": 4159,
      "လှုံ့ဆော်": 4160,
      "ပဋိသန္ဓေ": 4161,
      "ခြောက်သွိ့": 4162,
      "စောင်း": 4163,
      "စိမ်း": 4164,
      "ဆည်း": 4165,
      "ညအချိန်": 4166,
      "တလင်း": 4167,
      "ထူ": 4168,
      "ထပြီးလျှင်": 4169,
      "ဒုန်": 4170,
      "ဓလေ့": 4171,
      "နော": 4172,
      "နို့": 4173,
      "နမူ": 4174,
      "နက္ခ": 4175,
      "ဖု": 4176,
      "မ်": 4177,
      "မသတ်": 4178,
      "မရှာ": 4179,
      "မဖတ်": 4180,
      "မသက်ဆိုင်": 4181,
      "မဟာ": 4182,
      "ရဟိကြ": 4183,
      "လဇ်": 4184,
      "ဝတ္": 4185,
      "သဟာယ": 4186,
      "ဟိမ": 4187,
      "အထင်": 4188,
      "အမှား": 4189,
      "အလေး": 4190,
      "ဤစကားကို": 4191,
      "ဤအကြောင်းကို": 4192,
      "ေ့": 4193,
      "ကြီ": 4194,
      "သောမ": 4195,
      "တော်ပါးသို့": 4196,
      "၏။’": 4197,
      "ပြက်": 4198,
      "သူရဲ": 4199,
      "သူတစ်ယောက်သည်": 4200,
      "နှိုက်": 4201,
      "ငါလား": 4202,
      "ငါနန့်": 4203,
      "ဖြစ်လျက်": 4204,
      "ဖြစ်လျက်ပင်": 4205,
      "ထိုတရား": 4206,
      "ထိုအသံ": 4207,
      "ထိုသားရဲ": 4208,
      "ထိုအပင်": 4209,
      "ချလိုက်": 4210,
      "မြုပ်": 4211,
      "ဟိသောအခါ": 4212,
      "ရာအရပ်": 4213,
      "စီရ": 4214,
      "စီလော့": 4215,
      "စီစဉ်": 4216,
      "များလည်း": 4217,
      "များသာ": 4218,
      "လူအသီးသီး": 4219,
      "ခံကြရ": 4220,
      "သောသူမူကား": 4221,
      "လောဒိ": 4222,
      "ယေသျှုထံသို့": 4223,
      "ထားသောကြောင့်": 4224,
      "ထားသည်မှာ": 4225,
      "ထားခြင်းဖြစ်": 4226,
      "သူရို့အားလုံး": 4227,
      "ပီးလော့": 4228,
      "ပီးဖို့": 4229,
      "အခါက": 4230,
      "လားသောအခါ": 4231,
      "တရားရုံး": 4232,
      "တရားမျှတ": 4233,
      "နိုင်ပေ": 4234,
      "နိုင်သောကြောင့်": 4235,
      "သည့်အပြင်": 4236,
      "အကြောင်းနှင့်": 4237,
      "စားကျန်": 4238,
      "ငါ့ထက်": 4239,
      "ငါ့အဖ": 4240,
      "ငါ့ညီ": 4241,
      "ငါ့တပည့်": 4242,
      "ငါ့အကြောင်းကို": 4243,
      "ငါ့ခမည်းတော်": 4244,
      "ငါ့အထဲ": 4245,
      "တစ်ယောက်အား": 4246,
      "တစ်ယောက်လည်း": 4247,
      "တစ်ယောက်ယောက်": 4248,
      "မြို့တော်": 4249,
      "မြို့ရွာ": 4250,
      "မြို့ရိုး": 4251,
      "သီနိန်": 4252,
      "ပင်ပန်း": 4253,
      "ခြင်းငှာလည်းကောင်း": 4254,
      "များကိုလည်း": 4255,
      "လက်တော်": 4256,
      "လက်တော်ကို": 4257,
      "လက်ထဲသို့": 4258,
      "ယူလာကြ": 4259,
      "စိတ်ဆိုး": 4260,
      "မြင်ကြသောအခါ": 4261,
      "စကားတော်ကို": 4262,
      "မိန်းခွန်း": 4263,
      "မာကု": 4264,
      "ကြားရသော": 4265,
      "ကြားကြလျှင်": 4266,
      "ပြန်လားကြ": 4267,
      "အဖကို": 4268,
      "အပြစ်တိကို": 4269,
      "အပြစ်ရှာ": 4270,
      "အပြစ်ဖြေ": 4271,
      "အပြစ်သားတိ": 4272,
      "အပြစ်ကျူးလွန်": 4273,
      "ခံရခြင်း": 4274,
      "မဟိကြ": 4275,
      "ကတ်ယာ": 4276,
      "ပျင်း": 4277,
      "မှန်လျှင်": 4278,
      "မှန်သမျှကို": 4279,
      "တွိ့လျှင်": 4280,
      "တွိ့လိမ့်မည်": 4281,
      "တွိ့မြင်ရ": 4282,
      "ကဲ့သို့သော": 4283,
      "စီခြင်းငှာလည်းကောင်း": 4284,
      "မျက်ကန်း": 4285,
      "ပတ်ဝန်းကျင်": 4286,
      "ပုလဲ": 4287,
      "သခင်ဘုရားအား": 4288,
      "သခင်ဘုရားထံ": 4289,
      "ပြောဆိုခြင်းကို": 4290,
      "ဆင်းလာ": 4291,
      "တူကြ": 4292,
      "တစ်ခုသည်": 4293,
      "သမျှတိကို": 4294,
      "ထောင်ချ": 4295,
      "ထောင်လွှား": 4296,
      "တန်ခိုးနှင့်": 4297,
      "တန်ခိုးတော်ကို": 4298,
      "တန်ခိုးတော်သည်": 4299,
      "တစ်ပါးအမျိုးသား": 4300,
      "ပြည့်တန်ဆာ": 4301,
      "အသက်ရှင်လိမ့်မည်": 4302,
      "လောကသား": 4303,
      "ဖြစ်စီတတ်": 4304,
      "လမ်းမ": 4305,
      "သုံးယောက်": 4306,
      "အုပ်စု": 4307,
      "နိုင်ငံတော်နှင့်": 4308,
      "ဆုတောင်းပီးကြလော့": 4309,
      "သူမကို": 4310,
      "မင်္ဂလာပွဲ": 4311,
      "ပရောဖက်ပြု": 4312,
      "ပရောဖက်ကျမ်း": 4313,
      "အမှန်ပင်ဖြစ်": 4314,
      "ဘုန်းကြီး": 4315,
      "ကျမ်းစာလာ": 4316,
      "မြီကြီးထက်တွင်": 4317,
      "ဇာသူလေ့": 4318,
      "နှလုံးသား": 4319,
      "ကြွလာသောအခါ": 4320,
      "အဖြစ်သို့": 4321,
      "သွန်သင်တော်မူ": 4322,
      "ခြီထောက်": 4323,
      "သောသူတိအား": 4324,
      "သောသူတိနှင့်": 4325,
      "ဖော်ပြသော": 4326,
      "ဗိမာန်တော်သို့": 4327,
      "ယင်းကြောင့်": 4328,
      "တောင်ကုန်း": 4329,
      "ရည်မှတ်": 4330,
      "ပစ်လိုက်": 4331,
      "ရသောအခွင့်": 4332,
      "စည်းကမ်း": 4333,
      "စည်းမျဉ်း": 4334,
      "အသံတော်": 4335,
      "ဒုက္ခဝေဒနာ": 4336,
      "ကတိပီး": 4337,
      "ပညတ်တရားအားဖြင့်": 4338,
      "သီခြင်းတရားကို": 4339,
      "အကြီးဆုံး": 4340,
      "မုန့်ငါး": 4341,
      "နောင်တမ": 4342,
      "လောက်အောင်": 4343,
      "အောက်သို့": 4344,
      "ဗိမာန်တော်ထဲသို့": 4345,
      "ချုပ်တည်း": 4346,
      "မဲ့မြင်": 4347,
      "စိ့စပ်": 4348,
      "အရင်း": 4349,
      "တစ်စုံတစ်ခုကိုမျှ": 4350,
      "ကောက်သိမ်း": 4351,
      "သားတော်အားဖြင့်": 4352,
      "ပျောက်ကွယ်": 4353,
      "အစပြု": 4354,
      "ကုရေ": 4355,
      "ချင်သော": 4356,
      "မာရိနှင့်": 4357,
      "နိကော": 4358,
      "အလုပ်သမား": 4359,
      "ကူညီရန်": 4360,
      "မှန်သောစကားကို": 4361,
      "နိမိတ်လက္ခဏာကို": 4362,
      "နှုတ်ဆက်လိုက်ကြ": 4363,
      "ပြောပြကြ": 4364,
      "ထားခသည်မှာ": 4365,
      "ဆန့်ကျင်ဖက်": 4366,
      "နှစ်သက်ကြ": 4367,
      "နှစ်သက်တော်မူသော": 4368,
      "ဂါလိလဲအိုင်": 4369,
      "ဖွင့်ပြ": 4370,
      "အမိန့်ပီးလိုက်": 4371,
      "အသိအမှတ်": 4372,
      "အသွီးကို": 4373,
      "အံ့သြလျက်": 4374,
      "အသီသတ်ရန်": 4375,
      "တရားဇရပ်မှူး": 4376,
      "ဒါဝိဒ်သည်": 4377,
      "လူတချို့ကို": 4378,
      "ဣသရေလလူမျိုးရို့": 4379,
      "ဣသရေလလူမျိုးရို့သည်": 4380,
      "ပျင်ဆင်ထားသော": 4381,
      "မိတ်သဟာယ": 4382,
      "ကရုဏာတော်": 4383,
      "ဆီမီးခွက်": 4384,
      "ယှောင်ယှား": 4385,
      "သန်စွမ်း": 4386,
      "ခေါ်ဆောင်လား": 4387,
      "အိမ်ထောင်ပြု": 4388,
      "အသီခံတော်မူ": 4389,
      "ဝါကြွားစရာ": 4390,
      "မည်သည့်အခါမျှ": 4391,
      "ဗေရ": 4392,
      "ဉာဏ်ပညာကို": 4393,
      "ဉာဏ်ပညာနှင့်": 4394,
      "ယူဆောင်လာ": 4395,
      "ဆုကျေးဇူးကို": 4396,
      "ကြွလာတော်မူသောအခါ": 4397,
      "အချို့ကို": 4398,
      "အချို့သည်": 4399,
      "သျှာကာရုတ်": 4400,
      "ခေါင်းဆောင်တိ": 4401,
      "မုန်းတီး": 4402,
      "အဖိုးအဖီးတိ": 4403,
      "အော်ဟစ်ကြ": 4404,
      "အကျဉ်းကျခံ": 4405,
      "အဆုံးတိုင်အောင်": 4406,
      "မှောင်မိုက်ထဲ": 4407,
      "ပွင့်လင်း": 4408,
      "စာရီးလိုက်": 4409,
      "ပုံဥပမာကို": 4410,
      "သောစိတ်နှင့်": 4411,
      "သည့်အခါတိုင်း": 4412,
      "ယဇ်ပုရောဟိတ်အကြီးအကဲရို့နှင့်": 4413,
      "အခွင့်အာဏာကို": 4414,
      "အဲဂုတ္တုပြည်မှ": 4415,
      "ဒုတိယအကြိမ်": 4416,
      "ဖိလိပ္ပုသည်": 4417,
      "မသိကြသလော": 4418,
      "ထာဝရဘုရားသည်": 4419,
      "ကောရိ": 4420,
      "ဖေလဇ်": 4421,
      "ဆုတောင်းပတ္ထနာပြု": 4422,
      "မပါဘဲ": 4423,
      "အရေးကြီး": 4424,
      "ပြင်းထန်သော": 4425,
      "နိန်ကတ်လဲ": 4426,
      "ဧကရာဇ်မင်း": 4427,
      "သိလကို": 4428,
      "သက်သာလော": 4429,
      "အောက်မိ့သတိရ": 4430,
      "အနေဖြင့်": 4431,
      "တောက်ပသော": 4432,
      "အပါအဝင်": 4433,
      "စဉ်းစားဆင်ခြင်": 4434,
      "ဂြိုး": 4435,
      "ယှင်းလင်းစွာ": 4436,
      "ရဲရင့်စွာ": 4437,
      "ခွက်ဖလားမှ": 4438,
      "ဇိဒုန်": 4439,
      "ခံတွင်းမှ": 4440,
      "မြို့သူမြို့သား": 4441,
      "ဆိုးညစ်သော": 4442,
      "ညှိုးနွမ်း": 4443,
      "မထီမဲ့မြင်": 4444,
      "ကတည်းက": 4445,
      "တင်းကြပ်": 4446,
      "ယှုရိ": 4447,
      "မယ်တော်": 4448,
      "နှောက်ယှက်": 4449,
      "ကပေရနောင်မြို့သို့": 4450,
      "သာသနာပ": 4451,
      "သန်းခေါင်": 4452,
      "ဖြိုဖျက်": 4453,
      "ဇာခါမျှ": 4454,
      "နိ့စဉ်နိ့တိုင်း": 4455,
      "အကြွင်းမဲ့": 4456,
      "ဗေသနိရွာ": 4457,
      "အငြင်းပွား": 4458,
      "ဝိညာဉ်ရေးရာ": 4459,
      "အကြီးမြတ်ဆုံး": 4460,
      "ညွတ်တည်း": 4461,
      "အိမ်သူအိမ်": 4462,
      "နောဧ": 4463,
      "နမူနာ": 4464,
      "နက္ခတ်": 4465,
      "မဖတ်ဖူး": 4466,
      "ကယာ": 4467,
      "ခသောကြောင့်": 4468,
      "ခကြောင်းကို": 4469,
      "ဆူ": 4470,
      "ဆန်း": 4471,
      "ဇန္ဒြ": 4472,
      "ဈီး": 4473,
      "တယ်": 4474,
      "တရော": 4475,
      "ထလော့": 4476,
      "နန်း": 4477,
      "နဖူး": 4478,
      "ပင်း": 4479,
      "မန်": 4480,
      "မချ": 4481,
      "မသုံး": 4482,
      "မရကြ": 4483,
      "မပြစ်မှား": 4484,
      "မလိုအပ်": 4485,
      "မကျန်": 4486,
      "မဝီး": 4487,
      "မဆိုလို": 4488,
      "ရစီရန်": 4489,
      "ရခြင်းဖြစ်": 4490,
      "ရဖို့လဲ": 4491,
      "ဝင့်": 4492,
      "သေး": 4493,
      "သတ္": 4494,
      "အမင်္ဂလာ": 4495,
      "အယှက်": 4496,
      "ဤအမှုကို": 4497,
      "ဤနည်းအားဖြင့်": 4498,
      "ျိုး": 4499,
      "ကြေး": 4500,
      "သည်က": 4501,
      "သည်ဆိုလျှင်": 4502,
      "ရို့အတွက်": 4503,
      "ရို့ကလည်း": 4504,
      "သောဒုံ": 4505,
      "တော်မှု": 4506,
      "တော်များကို": 4507,
      "၏။)": 4508,
      "သူများနှင့်": 4509,
      "ငါလာ": 4510,
      "ငါမြင်": 4511,
      "ငါမူကား": 4512,
      "ဖြစ်ပါစီ": 4513,
      "ခြင်းမဟိ": 4514,
      "ထိုစာ": 4515,
      "ထိုစကား": 4516,
      "ထိုအကြောင်းကို": 4517,
      "ထိုကျောက်": 4518,
      "တော်မူရန်": 4519,
      "တော်မူသည်ကို": 4520,
      "တော်မူယာ": 4521,
      "နှင့်ရော": 4522,
      "ဟိစီခြင်းငှာ": 4523,
      "ဟိသောသူသည်": 4524,
      "ဟိသည်ဖြစ်": 4525,
      "ဟိသည့်အတိုင်း": 4526,
      "ပါကေ့": 4527,
      "ပါသနည်း": 4528,
      "တွေး": 4529,
      "မည်ဖြစ်": 4530,
      "မည်သူမဆို": 4531,
      "ရာဇ": 4532,
      "တစ်ပင်": 4533,
      "တစ်ထောင်": 4534,
      "စီတိုင်း": 4535,
      "စီချင်": 4536,
      "များထဲက": 4537,
      "လူး": 4538,
      "လူနာ": 4539,
      "လူသီ": 4540,
      "လူသတ်": 4541,
      "လူဆိုး": 4542,
      "လူအကြီးအကဲ": 4543,
      "လာရန်": 4544,
      "လာသဖြင့်": 4545,
      "သင်ရို့အားလုံးကို": 4546,
      "သင်ရို့အထဲမှ": 4547,
      "သောသူအပေါင်းရို့သည်": 4548,
      "ပြီးဆုံး": 4549,
      "ပြီးကေ": 4550,
      "လိုသဖြင့်": 4551,
      "ယေသျှုနှင့်အတူ": 4552,
      "နိန်လျှင်": 4553,
      "ထားပါ": 4554,
      "ထားပြီးလျှင်": 4555,
      "ပီးပြီးလျှင်": 4556,
      "ပီးရမည်": 4557,
      "ပီးစရာ": 4558,
      "ပီးလှူ": 4559,
      "ပြုခသော": 4560,
      "မိမိနှင့်အတူ": 4561,
      "မိသော": 4562,
      "ဇာသို့": 4563,
      "ဇာတိကို": 4564,
      "ဇာအရပ်": 4565,
      "နိုင်သောသူ": 4566,
      "ရန်အတွက်": 4567,
      "သည့်အရာကို": 4568,
      "ရွံ": 4569,
      "ရွား": 4570,
      "ငါရို့ကိုယ်တိုင်": 4571,
      "အတတ်": 4572,
      "ငါ့ကြောင့်": 4573,
      "တစ်ယောက်လေ့": 4574,
      "စွာကို": 4575,
      "စာရာ": 4576,
      "သိနားလည်": 4577,
      "သီရည်": 4578,
      "ယုံကြည်သော": 4579,
      "လက်တွိ့": 4580,
      "လက်ဝဲ": 4581,
      "မဟုတ်ဟု": 4582,
      "မဟုတ်ကြောင်းကို": 4583,
      "မိန့်တော်မူခ": 4584,
      "မိန့်တော်မူလျှင်": 4585,
      "မိန့်တော်မူသည်ကား": 4586,
      "ယူကြ": 4587,
      "စိတ်ဝမ်း": 4588,
      "စိတ်ပိုင်းဖြတ်": 4589,
      "မြင်ကြ": 4590,
      "မြင်ရလိမ့်မည်": 4591,
      "ရပ်တန့်": 4592,
      "ပြန်လာကြ": 4593,
      "သက်ဟိ": 4594,
      "လုပ်ထားသော": 4595,
      "အပြစ်တရားကို": 4596,
      "အသက်ဆုံးယှုံး": 4597,
      "အသက်ပြန်ရှင်": 4598,
      "နီရာတွင်": 4599,
      "ဟူသမျှသည်": 4600,
      "နှစ်ခု": 4601,
      "အာလေ": 4602,
      "အာပေါလု": 4603,
      "အာရုံ": 4604,
      "အာမခံ": 4605,
      "မဟိသည်ကို": 4606,
      "မဟိကတ်ကေ့": 4607,
      "နိ့ညမပြတ်": 4608,
      "ကတ်လား": 4609,
      "လုနီး": 4610,
      "ယေသျှုသည်လည်း": 4611,
      "အိမ်တွင်": 4612,
      "စုံကို": 4613,
      "ယုဒသျှင်ဘုရင်": 4614,
      "န္သု": 4615,
      "ဟောပြောနိန်": 4616,
      "ဟောပြောခသည့်": 4617,
      "အချိန်ကို": 4618,
      "အချိန်တန်": 4619,
      "သတ်ခြင်းငှာ": 4620,
      "သတ်ဖြတ်": 4621,
      "မျက်မမြင်": 4622,
      "ပညတ်တိကို": 4623,
      "အဂုမူကား": 4624,
      "အဂုကာလ": 4625,
      "အဂုမှစ": 4626,
      "ရီကန်": 4627,
      "ငါ့ကိုလည်း": 4628,
      "စုကို": 4629,
      "အပ်သော": 4630,
      "တည်ကြည်": 4631,
      "ဏာနိုင်ငံ": 4632,
      "ထောင်မှူး": 4633,
      "ဆိုးရွား": 4634,
      "ထိုသူအပေါင်းရို့သည်": 4635,
      "ဖြစ်ကြပြီး": 4636,
      "ဖြစ်ကြသောကြောင့်": 4637,
      "လူတိရှိ့": 4638,
      "အလိုကို": 4639,
      "ဖြစ်စီရန်": 4640,
      "ပေတရုကလည်း": 4641,
      "ကောင်းကင်တမန်တစ်ပါး": 4642,
      "ရောက်လာယာ": 4643,
      "စောင့်နိန်ကြလော့": 4644,
      "အုပ်ထိန်း": 4645,
      "ရို့ကိုလည်း": 4646,
      "ဆုတောင်းခြင်းကို": 4647,
      "အကြောင်းကိုလည်းကောင်း": 4648,
      "ရီးမှတ်": 4649,
      "အမှန်စင်စစ်": 4650,
      "ကယ်တင်ခြင်းသို့": 4651,
      "ယဇ်ပုရောဟိတ်တစ်ပါး": 4652,
      "ခါနီး": 4653,
      "ဘုန်းတော်နှင့်": 4654,
      "များစွာကို": 4655,
      "ခံယူထားသော": 4656,
      "မြီကြီးတစ်": 4657,
      "သမီးသည်": 4658,
      "ကွယ်ပျောက်လား": 4659,
      "ဖြောင့်မတ်သော": 4660,
      "ပွဲဝင်": 4661,
      "ချီးမွမ်းလေ": 4662,
      "ကြာသောအခါ": 4663,
      "အခွင့်အရေး": 4664,
      "နီထိုင်ကြ": 4665,
      "ခံစားရသော": 4666,
      "ခံစားကြရ": 4667,
      "ခြီနင်း": 4668,
      "ဗိမာန်တော်သည်": 4669,
      "သန့်ယှင်းသောဝိညာဉ်တော်သည်": 4670,
      "ဝမ်းမြောက်ကြ": 4671,
      "ဝမ်းမြောက်ခြင်းနှင့်": 4672,
      "ဝမ်းမြောက်ရွှင်လန်း": 4673,
      "ပစ်ကြ": 4674,
      "ဟေရော": 4675,
      "တမန်တော်တိ": 4676,
      "တမန်တော်တိကို": 4677,
      "ဒုက္ခဝေဒနာကို": 4678,
      "ကတိတော်သည်": 4679,
      "အမြော်": 4680,
      "အမြန်": 4681,
      "အကျိုးဟိ": 4682,
      "မိုးလင်း": 4683,
      "အကြင်": 4684,
      "မသိသော": 4685,
      "ဖူးသော": 4686,
      "နောင်အခါ": 4687,
      "လီဖြတ်": 4688,
      "လီပြင်း": 4689,
      "မောသျှေအား": 4690,
      "ထောက်ခံ": 4691,
      "တစ်ဦးသည်": 4692,
      "တစ်ဦးတည်း": 4693,
      "မျက်စိသည်": 4694,
      "မျက်စိပြန်မြင်": 4695,
      "ခွာ": 4696,
      "ခွင်": 4697,
      "ပလ္လင်ထက်တွင်": 4698,
      "မရဏာနိုင်ငံ": 4699,
      "ယေသျှုခရစ်တော်သည်": 4700,
      "ခမည်းတော်က": 4701,
      "ခမည်းတော်ဘုရား": 4702,
      "အစဦး": 4703,
      "အစအဦး": 4704,
      "ကိုးကွယ်ကြ": 4705,
      "ငါးနှစ်": 4706,
      "ဖြစ်လာမည့်": 4707,
      "မွီးသော": 4708,
      "ပျက်စီးခြင်း": 4709,
      "လက်ဝါးကပ်တိုင်ကို": 4710,
      "လက်ဝါးကပ်တိုင်တွင်": 4711,
      "လက်ဝါးကပ်တိုင်ထက်တွင်": 4712,
      "ထိန်းသိမ်း": 4713,
      "ထိန်းချုပ်": 4714,
      "ထိုအရပ်တွင်": 4715,
      "နိမိတ်လက္ခဏာတိကို": 4716,
      "ရိုက်ပုတ်": 4717,
      "ပြစ်မှားခြင်း": 4718,
      "ဤလောကကို": 4719,
      "ဤလောကသို့": 4720,
      "နှစ်သက်တော်မူ": 4721,
      "အဖိုးအခ": 4722,
      "ယောက်ျားသည်": 4723,
      "နာခံလိုက်လျှောက်": 4724,
      "ပိုင်းခြား": 4725,
      "ပြတ်သား": 4726,
      "ထင်မှတ်ကြ": 4727,
      "ရှင်ပြန်ထမြောက်စီတော်မူ": 4728,
      "စက်ဆုပ်": 4729,
      "ရောက်လာကြသောအခါ": 4730,
      "ပီးအပ်ထားသော": 4731,
      "တရားဇရပ်သို့": 4732,
      "ကြိမ်ဒဏ်": 4733,
      "ဥပဒေ": 4734,
      "ထိုအချိန်တွင်": 4735,
      "သင်္ဘောသည်": 4736,
      "ဆွဲထုတ်": 4737,
      "ဘုရားသခင်ထံပါးမှ": 4738,
      "လောကီသား": 4739,
      "အုပ်စိုးခြင်းကို": 4740,
      "ကရုဏာတော်ကို": 4741,
      "ခွဲခြား": 4742,
      "ခွဲဝီ": 4743,
      "အိုင်တစ်ဖက်": 4744,
      "ကြောက်ရွံ့ရိုသီ": 4745,
      "ဆိုလိုသတည်း": 4746,
      "စံနမူနာ": 4747,
      "မဖြစ်စီခြင်းငှာ": 4748,
      "ငါပြောမည်": 4749,
      "သစ်သား": 4750,
      "တစ်ခါမျှ": 4751,
      "ပြုသောအမှုကို": 4752,
      "မကြာမီ": 4753,
      "နုတ်ယူ": 4754,
      "မျိုးစိ့ကို": 4755,
      "အလိုတော်ဟိလျှင်": 4756,
      "အဲဂုတ္တုပြည်": 4757,
      "မရောက်ခင်": 4758,
      "ဆင်းသက်လာ": 4759,
      "ရောင်းချ": 4760,
      "မြင့်မြတ်သော": 4761,
      "တဲတစ်ဆောင်": 4762,
      "ဖေသာ": 4763,
      "ဆုံးဖြတ်ကြ": 4764,
      "ဗက်လင်": 4765,
      "ပသခါပွဲတော်": 4766,
      "မကြောက်ကေ့": 4767,
      "ရင့်ကျက်": 4768,
      "လုံလောက်": 4769,
      "တံဆိပ်ကို": 4770,
      "မြင်းစီး": 4771,
      "မျက်မှောက်ကာလ": 4772,
      "အစောင့်စစ်သား": 4773,
      "အလျင်": 4774,
      "ကင်းမဲ့သော": 4775,
      "အိပ်ပျော်နိန်": 4776,
      "ပြိုင်နက်": 4777,
      "တစ်ကိုယ်ကောင်း": 4778,
      "တစ်ယောက်သောသူက": 4779,
      "တစ်မြို့လုံး": 4780,
      "စိတ်ရှည်သည်းခံ": 4781,
      "ခိုင်ခံ့စွာ": 4782,
      "အရပ်ရပ်သို့": 4783,
      "မွန်းတည့်": 4784,
      "အမြင့်ဆုံးသော": 4785,
      "မထီလေးစား": 4786,
      "အာယှိပြည်": 4787,
      "သူတော်ကောင်းယောင်ဆောင်သောသူတိ": 4788,
      "ဖြေကြားတော်မူ": 4789,
      "မူးယစ်": 4790,
      "ချီဆောင်": 4791,
      "မြည်တမ်း": 4792,
      "ခံထားရ": 4793,
      "လျောက်ပတ်စွာ": 4794,
      "သယ်ဆောင်": 4795,
      "မိုးထစောစော": 4796,
      "နံ့သာပေါင်း": 4797,
      "မီးအိုင်ထဲသို့": 4798,
      "အဖြစ်အပျက်ကို": 4799,
      "အသီးအနှံ": 4800,
      "မြက်ရိုင်းပင်": 4801,
      "ထိုအခြင်းအရာကို": 4802,
      "တင့်တယ်": 4803,
      "စားကြွင်းစားကျန်": 4804,
      "ဆယ်ဖို့တစ်ဖို့ကို": 4805,
      "အလေးအနက်": 4806,
      "ကောရိန္သု": 4807,
      "ဂြိုးငှက်": 4808,
      "ကယာဖ": 4809,
      "ငလျင်": 4810,
      "စကြ": 4811,
      "ဆွီး": 4812,
      "ဋ္": 4813,
      "တညီ": 4814,
      "တုံ့": 4815,
      "တညွတ်တည်း": 4816,
      "ထောင့်": 4817,
      "နံ": 4818,
      "နိမ့်": 4819,
      "ပင့်": 4820,
      "ပုံး": 4821,
      "ပရု": 4822,
      "ပွတ်": 4823,
      "ဖို": 4824,
      "ဖျာ": 4825,
      "ဗျ": 4826,
      "ဗိုလ်": 4827,
      "ဘိ": 4828,
      "မနှင့်": 4829,
      "မိုင်": 4830,
      "မသင့်": 4831,
      "မစိုက်": 4832,
      "မဖျက်ဆီး": 4833,
      "ရူး": 4834,
      "ရတတ်": 4835,
      "ရဟိသော": 4836,
      "ရတနာ": 4837,
      "လသည်": 4838,
      "လွင့်": 4839,
      "လတ္တ": 4840,
      "ဝေဖန်": 4841,
      "သဘ": 4842,
      "ဟင်း": 4843,
      "ဠာ": 4844,
      "အနောက်": 4845,
      "အမာ": 4846,
      "အပါးသို့": 4847,
      "အပူ": 4848,
      "အစိုး": 4849,
      "အထောက်": 4850,
      "အဟောင်း": 4851,
      "အရိပ်": 4852,
      "အပျို": 4853,
      "ဣန္ဒြေ": 4854,
      "ဤစကား": 4855,
      "ဤသို့ဖြစ်": 4856,
      "ုန်း": 4857,
      "ုဒ္ဒ": 4858,
      "္သေ": 4859,
      "။)": 4860,
      "ကြပြီးနောက်": 4861,
      "ကြပြီ": 4862,
      "သူလည်း": 4863,
      "သူများသည်": 4864,
      "ခြည်": 4865,
      "နှက်": 4866,
      "ငါလည်း": 4867,
      "ငါပြု": 4868,
      "ဖြစ်သောသူ": 4869,
      "ဖြစ်အောင်": 4870,
      "ဖြစ်သကဲ့သို့": 4871,
      "ဖြစ်ပွား": 4872,
      "ဖြစ်ရလေ": 4873,
      "ခြင်းထက်": 4874,
      "ခြင်းအမှုကို": 4875,
      "ခြင်းတည်းဟူသော": 4876,
      "ထိုသတင်း": 4877,
      "ထိုမြို့သို့": 4878,
      "ထိုဝိညာဉ်တော်သည်": 4879,
      "ထိုနှုတ်ကပတ်တော်သည်": 4880,
      "တော်မူသည်": 4881,
      "တော်မူစဉ်": 4882,
      "တော်မူပြီ": 4883,
      "တိကဲ့သို့": 4884,
      "ကျူ": 4885,
      "ကျောင်း": 4886,
      "ကျလျက်": 4887,
      "နှင့်လည်းကောင်း": 4888,
      "ဟိသဖြင့်": 4889,
      "ဟိရမည်": 4890,
      "ဟိသည်အတိုင်း": 4891,
      "ပါတ်": 4892,
      "ပါလိမ့်မည်": 4893,
      "ပါလား": 4894,
      "တွဲ": 4895,
      "ရာမှ": 4896,
      "တစ်နာရီ": 4897,
      "စီခြင်း": 4898,
      "စီဘဲ": 4899,
      "စီတမန်": 4900,
      "စီကတ်ကေ့": 4901,
      "စီနိုင်သော": 4902,
      "ိုင်အမာ": 4903,
      "လူသူ": 4904,
      "လူတစ်ဦး": 4905,
      "လာမည်": 4906,
      "လာစီခြင်းငှာ": 4907,
      "သင်ရို့ရှိ့": 4908,
      "သင်ရို့ပါးမှ": 4909,
      "သင်ရို့ထံပါးသို့": 4910,
      "ကိုယ်ထင်": 4911,
      "ပြီးယာ": 4912,
      "လျှင်မူကား": 4913,
      "လိုသည်မှာ": 4914,
      "အခေါ်": 4915,
      "အခိုင်အမာ": 4916,
      "ယေသျှုခရစ်တော်ကို": 4917,
      "ဆိုင်း": 4918,
      "ဆိုပါက": 4919,
      "ပြောလိမ့်မည်": 4920,
      "ပြောသည့်": 4921,
      "ပြောသည်မှာ": 4922,
      "နိန်သူ": 4923,
      "နိန်ခြင်း": 4924,
      "နိန်သိမ့်": 4925,
      "သားကြီး": 4926,
      "သားဦး": 4927,
      "သားနှစ်ယောက်": 4928,
      "ပီးနိုင်": 4929,
      "ပီးခြင်းကို": 4930,
      "ပီးတော်မမူ": 4931,
      "ပီးမည်ဟု": 4932,
      "တွင်လည်း": 4933,
      "ပြုသင့်": 4934,
      "လားရ": 4935,
      "လားတတ်": 4936,
      "လားယာ": 4937,
      "ကိုယ်တော်အတွက်": 4938,
      "ဇာက": 4939,
      "ဇာအရာ": 4940,
      "ဇာလုပ်": 4941,
      "နိုင်သဖြင့်": 4942,
      "နိုင်စီရန်": 4943,
      "သာလွန်": 4944,
      "အကြောင်းပြု": 4945,
      "ထို့အတူ": 4946,
      "နောက်လိုက်": 4947,
      "ငါရို့မှာ": 4948,
      "ကြီးတစ်": 4949,
      "ကြီးပြင်း": 4950,
      "မှုကြောင့်": 4951,
      "စားသုံး": 4952,
      "ငါ့အဖို့": 4953,
      "တစ်ယောက်မှ": 4954,
      "တစ်ယောက်သောသူအား": 4955,
      "တစ်ယောက်အဖြစ်ဖြင့်": 4956,
      "ရောက်ကြရ": 4957,
      "မြို့တန်းခါး": 4958,
      "သိပ်": 4959,
      "သိသောကြောင့်": 4960,
      "သိစီခြင်းငှာ": 4961,
      "သိကြလိမ့်မည်": 4962,
      "ုတ်ချ": 4963,
      "ယှဉ်": 4964,
      "ယုံကြည်သောသူ": 4965,
      "ညာဖက်": 4966,
      "မြင်တော်မူ": 4967,
      "စကားအားဖြင့်": 4968,
      "ကြားတွင်": 4969,
      "ကြားပါစီ": 4970,
      "ကြားတော်မူလျှင်": 4971,
      "ပြန်လှည့်": 4972,
      "ပြန်လာသောအခါ": 4973,
      "ပြန်ရွှတ်လိုက်": 4974,
      "လုပ်ကိုင်": 4975,
      "အပြစ်ကြောင့်": 4976,
      "နားတွင်": 4977,
      "ခံရသည့်": 4978,
      "ခံရပြီးလျှင်": 4979,
      "ခံရသော်လည်း": 4980,
      "ကောင်းကင်နိုင်ငံ": 4981,
      "အသျှင်ယေသျှုကို": 4982,
      "အမှုတိကို": 4983,
      "တပည့်ဖြစ်": 4984,
      "နှစ်ဖက်": 4985,
      "နှစ်ရက်": 4986,
      "နိ့တိုင်အောင်": 4987,
      "တင်ပြ": 4988,
      "ဝိညာဉ်ကို": 4989,
      "ဖက်မှ": 4990,
      "မှန်ပါ": 4991,
      "မှန်ပေ": 4992,
      "ပေါင်းဖော်": 4993,
      "လှုံ": 4994,
      "တပည့်တော်ရို့နှင့်": 4995,
      "တပည့်တော်တိသည်": 4996,
      "တွိ့ကြ": 4997,
      "အိမ်မှ": 4998,
      "အိမ်ခေါင်": 4999,
      "နိန်ကြသည်": 5000,
      "နိန်ကြပါ": 5001,
      "နိန်ကြသောကြောင့်": 5002,
      "သူ့မယားကို": 5003,
      "ဟောပြောလျက်": 5004,
      "ထိုသို့ဆိုလျှင်": 5005,
      "ထိုသို့ဖြစ်လျှင်": 5006,
      "အချိန်ကား": 5007,
      "သင့်ပါးသို့": 5008,
      "သမုဒ္ဒ": 5009,
      "ဦးဆောင်": 5010,
      "ပညတ်သည်": 5011,
      "ပညတ်တော်မူ": 5012,
      "ပုဝါ": 5013,
      "အဂုလည်း": 5014,
      "ပြောဆိုခြင်း": 5015,
      "ကျေးဇူးတင်": 5016,
      "ထားသောအရာ": 5017,
      "ပေါလုကလည်း": 5018,
      "ထောင်ထဲ": 5019,
      "ဖို့သိမ့်": 5020,
      "ထိုသူနှစ်ယောက်": 5021,
      "တန်ခိုးတော်နှင့်": 5022,
      "ဆုကို": 5023,
      "ကယ်နုတ်": 5024,
      "လိကိ": 5025,
      "သင်ရို့ကိုလည်း": 5026,
      "ဟိကြသည်ဖြစ်": 5027,
      "ထိုသူရို့နှင့်အတူ": 5028,
      "လူတိအတွက်": 5029,
      "မိန်းမကို": 5030,
      "အသက်ရှင်တော်မူ": 5031,
      "ညီအစ်ကိုရို့": 5032,
      "ညီအစ်ကိုအား": 5033,
      "အလိုဆန္ဒ": 5034,
      "သတင်းတော်သည်": 5035,
      "စစ်မှန်": 5036,
      "ချီးကျူး": 5037,
      "ငယ်ရွယ်": 5038,
      "ယုံကြည်ခြင်းနှင့်": 5039,
      "ကောင်းကင်တမန်ရို့သည်": 5040,
      "ကောင်းကင်တမန်တိကို": 5041,
      "ရောက်လာပြီး": 5042,
      "ရောက်လာပြီးလျှင်": 5043,
      "အုပ်သည်": 5044,
      "ကာလအတန်ကြာ": 5045,
      "သောအရာများသည်": 5046,
      "နီရာတိုင်း": 5047,
      "ယောဟန်ရို့သည်": 5048,
      "ယောဟန်ပါးသို့": 5049,
      "အံ့ဖွယ်": 5050,
      "ာဝီး": 5051,
      "ယဇ်ပုရောဟိတ်ကြီး": 5052,
      "လုပ်ဆောင်ခ": 5053,
      "သက်သီကို": 5054,
      "ခံယူရန်": 5055,
      "ခံယူထားကြ": 5056,
      "လွန်သောအခါ": 5057,
      "ခြင်းဖြစ်သည်": 5058,
      "ပွဲခံ": 5059,
      "ချီးမွမ်းလျက်": 5060,
      "မီးတောက်": 5061,
      "သောက်စား": 5062,
      "သောက်ကြူး": 5063,
      "ကြွလာသော": 5064,
      "လူအပေါင်းရို့ကို": 5065,
      "လူအပေါင်းရို့က": 5066,
      "စိုးစံ": 5067,
      "ပါစီကေ့": 5068,
      "နီထိုင်ရာ": 5069,
      "နီထိုင်ကြလော့": 5070,
      "ခံစားနိန်ရ": 5071,
      "ကွင်း": 5072,
      "ကွာဝီး": 5073,
      "သောသူတိလည်း": 5074,
      "ထမြောက်စီတော်မူ": 5075,
      "ပေါ်လွင်": 5076,
      "ယင်းသို့": 5077,
      "သတိဖြင့်": 5078,
      "ကိုယ်တိုင်ပင်": 5079,
      "တစ်ယောက်ကိုမျှ": 5080,
      "စရာကောင်း": 5081,
      "သောသူရို့နှင့်": 5082,
      "တောင်ထက်သို့": 5083,
      "မပြုနိုင်": 5084,
      "တပ်ခွဲ": 5085,
      "ကောင်းသောအကျင့်": 5086,
      "ကောင်းသောအကျင့်ကို": 5087,
      "ကျင့်သော": 5088,
      "ဒုက္ခရောက်": 5089,
      "ရှာကြ": 5090,
      "ကတိပီးထား": 5091,
      "မေတ္တာတရား": 5092,
      "လှည့်ပတ်": 5093,
      "ဆင်းရဲသော": 5094,
      "ဆင်းရဲသားရို့အား": 5095,
      "အာဏာစက်": 5096,
      "ကိုးစား": 5097,
      "အကျွေး": 5098,
      "ပူဇော်ရန်": 5099,
      "ဗတ္တိဇံဆရာ": 5100,
      "ဖူးသောသူ": 5101,
      "အသီးမသီး": 5102,
      "ပယ်ဖျက်": 5103,
      "နှုတ်ကပါတ်": 5104,
      "ပြင်သို့": 5105,
      "အခိုင်းအစီသည်": 5106,
      "အခိုင်းအစီများ": 5107,
      "ဒါန်း": 5108,
      "တရားစီရင်တော်မူ": 5109,
      "ဖာရိယှဲရို့က": 5110,
      "ဟိသမျှနှင့်": 5111,
      "ဟိသမျှတိကို": 5112,
      "မျှော်လင့်လျက်": 5113,
      "တစ်စုံတစ်ယောက်သည်": 5114,
      "နှုတ်ကပတ်တော်အားဖြင့်": 5115,
      "စွဲလမ်း": 5116,
      "ဆောက်အဦး": 5117,
      "လောင်းကို": 5118,
      "အရာကိုမျှ": 5119,
      "ခုနစ်လုံး": 5120,
      "ငါးဖမ်း": 5121,
      "ဖြစ်လာလိမ့်မည်": 5122,
      "ထွက်လားပြီးလျှင်": 5123,
      "ကုလ": 5124,
      "ကုပရု": 5125,
      "တက်ကြွတော်မူ": 5126,
      "အလုပ်အကျွေး": 5127,
      "ကျန်းမာစီ": 5128,
      "သျှိမုန်အား": 5129,
      "သျှိမုန်နှင့်": 5130,
      "သေတ္တာ": 5131,
      "ဝန်ပိုး": 5132,
      "ကိုင်ဆောင်": 5133,
      "ဆာလံ": 5134,
      "ပို့လိုက်": 5135,
      "ကိလိကိ": 5136,
      "ဖန်ဆင်းခံ": 5137,
      "တန်းခါးပေါက်": 5138,
      "အသိစိတ်": 5139,
      "လူ့လက်ဖြင့်": 5140,
      "ကြွားဝါ": 5141,
      "ဆုံးမသြဝါဒ": 5142,
      "ယာကုပ်သည်": 5143,
      "နာမည်ကို": 5144,
      "ထိုမိန်းမကို": 5145,
      "မျက်နှာတော်ကို": 5146,
      "တရားဇရပ်မှ": 5147,
      "တောင်းပန်လေ": 5148,
      "ရောဂါကို": 5149,
      "ိမြို့မှ": 5150,
      "ကျမ်းတတ်ဆရာရို့သည်": 5151,
      "ဥစ္စာများကို": 5152,
      "ဣသရေလလူမျိုးတိ": 5153,
      "ခသည့်နည်းတူ": 5154,
      "သင်္ဘောဖြင့်": 5155,
      "ဆွဲဆောင်": 5156,
      "ဘေးမှ": 5157,
      "ကျန်ခ": 5158,
      "ခိုင်ခန့်": 5159,
      "ကတ်ပါကား": 5160,
      "ခေါ်ဆောင်လာကြ": 5161,
      "ဝှက်ထားသော": 5162,
      "တိုးပွါး": 5163,
      "မှန်ကန်သော": 5164,
      "ရိုသီစွာ": 5165,
      "အကယ်စင်စစ်": 5166,
      "စီရွှတ်လိုက်သော": 5167,
      "ဆိတ်ကွယ်": 5168,
      "ဆင်းရဲဒုက္ခကို": 5169,
      "မွီးဖွားခြင်းကို": 5170,
      "ပစ္စည်းများကို": 5171,
      "ယုဒပြည်မှ": 5172,
      "မမြင်နိုင်": 5173,
      "ဝီမျှ": 5174,
      "ပေါ်ထွန်းလာ": 5175,
      "ကမ္ဘာမြီကြီး": 5176,
      "လက်ကိုတင်": 5177,
      "ဂါလိလဲပြည်မှ": 5178,
      "မွိ့ပျော်": 5179,
      "မျိုးစိ့ကြဲ": 5180,
      "ကဲ့ရဲ့ပြောဆို": 5181,
      "မုန့်ကိုဖဲ့": 5182,
      "တို့ထိ": 5183,
      "အခွင့်အာဏာနှင့်": 5184,
      "သတိရကြလော့": 5185,
      "ကျွန်းသို့": 5186,
      "ပြုစုစောင့်ရှောက်": 5187,
      "ခြင်္သေ": 5188,
      "တပည့်တော်ရို့ကလည်း": 5189,
      "ဗာနဗသည်": 5190,
      "သတ္တဝါလေးပါး": 5191,
      "မုန်တိုင်း": 5192,
      "ဗုလ": 5193,
      "အလုံးစုံသော": 5194,
      "အဦးဆုံး": 5195,
      "ကြွေးကြော်ကြ": 5196,
      "တလျှောက်လုံး": 5197,
      "အစောင့်စစ်သည်": 5198,
      "ကြုံတွိ့": 5199,
      "ဆူးပင်": 5200,
      "ပညတ်တော်များကို": 5201,
      "ဇေဗုလ": 5202,
      "ကင်းလွတ်လိမ့်မည်": 5203,
      "မာကေဒေါနိပြည်သို့": 5204,
      "ပိုက်ကို": 5205,
      "ကြေညာ": 5206,
      "ပြစ်တင်စွပ်စွဲ": 5207,
      "အာဂန္တုဝတ်ကို": 5208,
      "ထိုနိ့ရက်ကာလ": 5209,
      "မာနထောင်လွှား": 5210,
      "ဂျုံစပါး": 5211,
      "ပိုင်သျှင်က": 5212,
      "ဝိုင်းရံ": 5213,
      "လှူဒါန်း": 5214,
      "ဆိုးယုတ်သော": 5215,
      "မွန်းလွဲ": 5216,
      "ဧည့်ခံ": 5217,
      "တံပိုးခရာကို": 5218,
      "ဧဝံဂေလိတရား": 5219,
      "ဆုပ်ကိုင်": 5220,
      "အယူဝါဒ": 5221,
      "ဗေလဇေဗုလ": 5222,
      "ခေတ်": 5223,
      "ဖေတ္တုမင်း": 5224,
      "ကုန်ဆုံးချိန်": 5225,
      "အမှုတော်မြတ်ကို": 5226,
      "ခေါ်ဝေါ်ခြင်းကို": 5227,
      "ရှိ့မှောက်သို့": 5228,
      "ဣသရေလအမျိုးသားရို့": 5229,
      "မသောက်ဘဲ": 5230,
      "ဤသတင်းစကားသည်": 5231,
      "အခါယပြည်": 5232,
      "ဝန်ထုပ်ဝန်ပိုး": 5233,
      "ရောမနိုင်ငံသား": 5234,
      "ဟိမည်": 5235,
      "ငါနန့်အတူ": 5236,
      "မုန့်ငါးလုံးနှင့်": 5237,
      "ပွင့်လင်းစွာ": 5238,
      "ဝင့်ကြွား": 5239,
      "တွေးတော": 5240,
      "အာလေဇန္ဒြ": 5241,
      "မြီကြီးတစ်ပြင်လုံး": 5242,
      "ဟေရောဒိ": 5243,
      "အမြော်အမြင်": 5244,
      "တစ်ကိုယ်ကောင်းဆန်": 5245,
      "ဋ္ဌ": 5246,
      "တညီတညွတ်တည်း": 5247,
      "သမုဒ္ဒရာ": 5248,
      "ခြင်္သေ့": 5249,
      "ခကတ်": 5250,
      "ဂလာ": 5251,
      "ဂ္ဂ": 5252,
      "စသည်": 5253,
      "စတု": 5254,
      "ဆား": 5255,
      "ဇဲ": 5256,
      "ဌာန": 5257,
      "တပါး": 5258,
      "ထွင်း": 5259,
      "ပွန်း": 5260,
      "မကို": 5261,
      "မမာ": 5262,
      "မတောင်း": 5263,
      "မတတ်": 5264,
      "မဟောပြော": 5265,
      "မခိုး": 5266,
      "မဆီး": 5267,
      "မပျက်": 5268,
      "မထောက်": 5269,
      "မတုံး": 5270,
      "မကျရောက်": 5271,
      "မတွန်": 5272,
      "မသန်စွမ်း": 5273,
      "ယောင်း": 5274,
      "ယခင်": 5275,
      "ရစ်": 5276,
      "ရစီ": 5277,
      "ရသောအခါ": 5278,
      "လိုင်": 5279,
      "လျား": 5280,
      "သုန်": 5281,
      "သဖွယ်": 5282,
      "အနိန်": 5283,
      "အနီ": 5284,
      "အုန်": 5285,
      "အစစ်": 5286,
      "အပယ်": 5287,
      "အကောင်": 5288,
      "အနှံ့": 5289,
      "ဣန": 5290,
      "ဤကိစ္စ": 5291,
      "ဥမာ": 5292,
      "ဧကန်": 5293,
      "ွှ": 5294,
      "င်္": 5295,
      "ကိုယူ": 5296,
      "ကြလော": 5297,
      "သည်သာမက": 5298,
      "ရို့နှင့်အတူ": 5299,
      "သောက": 5300,
      "တော်ဖက်": 5301,
      "ပြမည်": 5302,
      "သူတစ်ယောက်ကို": 5303,
      "သူတိုင်းသည်": 5304,
      "ငါပီး": 5305,
      "ငါပြောဆို": 5306,
      "ငါပီးမည်": 5307,
      "ငါဟောပြောသော": 5308,
      "ိမ္မာ": 5309,
      "သို့ပြုလျှင်": 5310,
      "မှလွဲ": 5311,
      "ဖြစ်ခ": 5312,
      "ဖြစ်ခြင်း": 5313,
      "ဖြစ်ပြီးလျှင်": 5314,
      "ဖြစ်တေ": 5315,
      "သင်သိ": 5316,
      "ခြင်းတွင်": 5317,
      "ခြင်းဆိုင်ရာ": 5318,
      "ထိုအကြောင်း": 5319,
      "ထိုအရာတိကို": 5320,
      "ထိုအကြောင်းအရာများကို": 5321,
      "ဟုန်": 5322,
      "ဟုခေါ်": 5323,
      "တော်မူကား": 5324,
      "တော်မူပြီးနောက်": 5325,
      "တော်မူသကဲ့သို့": 5326,
      "ချို": 5327,
      "ချပီးတော်မူ": 5328,
      "ကျရောက်လာ": 5329,
      "ကျွီး": 5330,
      "ဟိပြီး": 5331,
      "ဟိစဉ်": 5332,
      "ဟိစီရန်": 5333,
      "ဟိနိန်သော": 5334,
      "သျှဲ": 5335,
      "ပါလော့": 5336,
      "ပါသလော": 5337,
      "သခင်က": 5338,
      "မည်အကြောင်း": 5339,
      "တစ်စိတ်": 5340,
      "တစ်စု": 5341,
      "တစ်နိုင်ငံ": 5342,
      "များထက်": 5343,
      "ောင်ဆောင်": 5344,
      "လာသောကြောင့်": 5345,
      "သင်ရို့လည်း": 5346,
      "သင်ရို့ထဲက": 5347,
      "ောင့်ရဲ": 5348,
      "ခံလို": 5349,
      "ခံကြရလိမ့်မည်": 5350,
      "ပြီးပြီ": 5351,
      "ေါက်": 5352,
      "လိုပါ": 5353,
      "အခမဲ့": 5354,
      "ဆိုသော်လည်း": 5355,
      "ဆိုသည်မှာ": 5356,
      "ဆိုရိုး": 5357,
      "ပြောပါ": 5358,
      "ပြောလော့": 5359,
      "ပြောခသော": 5360,
      "နိန်သည်": 5361,
      "နိန်ယာ": 5362,
      "နိန်ရပါ": 5363,
      "သားစဉ်": 5364,
      "သားငယ်": 5365,
      "သူရို့ရှိ့": 5366,
      "သူရို့နှစ်ယောက်သည်": 5367,
      "ပီးလျက်": 5368,
      "ပီးကတ်": 5369,
      "ပီးခသော": 5370,
      "ပီးဆပ်": 5371,
      "ပြုသောသူ": 5372,
      "ပြုမှား": 5373,
      "ပြုပျင်": 5374,
      "မိမိပိုင်": 5375,
      "လားရန်": 5376,
      "လားသည့်": 5377,
      "လားသော်လည်း": 5378,
      "စွက်": 5379,
      "ကိုယ်တော်အား": 5380,
      "ကိုယ်တော်ထံပါးသို့": 5381,
      "ကိုယ်တော်ပြုတော်မူသော": 5382,
      "ဇာနီရာ": 5383,
      "ဇာတစ်ခုကိုမျှ": 5384,
      "ရန်ပင်": 5385,
      "ရန်သူ့": 5386,
      "ရန်သူတိကို": 5387,
      "သည့်အချိန်": 5388,
      "ပါးစပ်": 5389,
      "သာဘုရင်": 5390,
      "ငါရို့မူကား": 5391,
      "လိုက်လာ": 5392,
      "လိုက်ပို့": 5393,
      "သင်ရို့သည်ကား": 5394,
      "မှုများ": 5395,
      "ငါ့ထံ": 5396,
      "ငါ့အမိ": 5397,
      "သူရို့သည်ကား": 5398,
      "ရောက်တော်မူ": 5399,
      "မှာကြား": 5400,
      "သိသဖြင့်": 5401,
      "ဟုတ်မှန်": 5402,
      "အပြား": 5403,
      "ယုံကြည်သောသူသည်": 5404,
      "ယုံကြည်လက်ခံ": 5405,
      "လက်တင်": 5406,
      "လက်အောက်": 5407,
      "ကာမူ": 5408,
      "မိန့်တော်မူလေ": 5409,
      "မိန့်တော်မူခသော": 5410,
      "ခြင်းကိုလည်း": 5411,
      "ယူလား": 5412,
      "စိတ်ထဲ": 5413,
      "စိတ်ပျက်": 5414,
      "မြင်ရကြ": 5415,
      "မြင်တွိ့ရ": 5416,
      "အတွေး": 5417,
      "စကားဖြင့်": 5418,
      "ကြားရကြ": 5419,
      "ကြားတတ်သော": 5420,
      "လုပ်ရပါမည်နည်း": 5421,
      "ကြွီ": 5422,
      "အဖက": 5423,
      "အဖျား": 5424,
      "ပေတည်း": 5425,
      "အပြစ်နှင့်": 5426,
      "အပြစ်များ": 5427,
      "အပြစ်လွှတ်": 5428,
      "အသက်မ": 5429,
      "အသက်စာစောင်": 5430,
      "နီကြ": 5431,
      "နီနိ့": 5432,
      "နီမောင်း": 5433,
      "ခံရလျှင်": 5434,
      "တ္တပ": 5435,
      "အမှုများကို": 5436,
      "အာလ": 5437,
      "အာကုလ": 5438,
      "မဟိသောသူသည်": 5439,
      "တောင်းခံ": 5440,
      "တောင်းလျှင်": 5441,
      "တောင်းသမျှကို": 5442,
      "တတ်ပါ": 5443,
      "ခေါ်လာကြ": 5444,
      "လုတ္တ": 5445,
      "ဝင်ကြ": 5446,
      "ဝင်စား": 5447,
      "လျှောက်လှမ်း": 5448,
      "လှံ": 5449,
      "အားလုံးသော": 5450,
      "အားလုံးအတွက်": 5451,
      "တွိ့ကြုံ": 5452,
      "ယုဒသျှ": 5453,
      "ယုဒသျှာကာရုတ်": 5454,
      "ရှင်သန်": 5455,
      "သတ်ပစ်": 5456,
      "ပုဂ္ဂ": 5457,
      "အဂုပင်လျှင်": 5458,
      "ရီသည်": 5459,
      "ရီသောက်": 5460,
      "ရီတွင်း": 5461,
      "ပြောဆိုသော": 5462,
      "ပြောဆိုခြင်းဖြစ်": 5463,
      "ရှိ့တော်သို့": 5464,
      "ယောက္ခ": 5465,
      "အရပ်တွင်": 5466,
      "စုဆောင်း": 5467,
      "ထိုင်နိန်သည်ကို": 5468,
      "တစ်ခုလည်း": 5469,
      "ငြာ": 5470,
      "ဆက်ခံ": 5471,
      "သန့်ယှင်းသူ": 5472,
      "ချင်းစီ": 5473,
      "ကိုယ်တော့်ထံသို့": 5474,
      "ယဇ်ကို": 5475,
      "ရက်ရော": 5476,
      "ထင်မြင်": 5477,
      "မြီဆီ": 5478,
      "မြီမှုန့်": 5479,
      "အောင်နိုင်": 5480,
      "ထိုသူရို့ကား": 5481,
      "တချို့နှင့်": 5482,
      "လည်ပတ်": 5483,
      "စစ်တိုက်": 5484,
      "စီရင်တော်မူ": 5485,
      "ယုံကြည်ခြင်းတရား": 5486,
      "သုံးပါး": 5487,
      "သုံးဦး": 5488,
      "သုံးချက်တီး": 5489,
      "စောင့်နိန်ကြ": 5490,
      "ရို့ကိုလည်းကောင်း": 5491,
      "ကပ်ကမ္ဘာ": 5492,
      "ပရောဖက်ဟေသျှာယ": 5493,
      "ကယ်တင်တော်မူ": 5494,
      "လုပ်ဆောင်ကြ": 5495,
      "လုပ်ဆောင်သော": 5496,
      "မြီကြီးမှ": 5497,
      "ကွယ်ပျောက်": 5498,
      "တခြားလူတိက": 5499,
      "လွန်ခသော": 5500,
      "ဇာသူလဲ": 5501,
      "ဇာသူဖြစ်ကြောင်းကို": 5502,
      "ချီးမွမ်းကြကုန်အံ့": 5503,
      "လားကြသောအခါ": 5504,
      "သီးသန့်": 5505,
      "ကြွလာခြင်းဖြစ်": 5506,
      "အဖြစ်နှင့်": 5507,
      "ကြာမြင့်": 5508,
      "ကြာပွတ်": 5509,
      "အခွင့်နှင့်": 5510,
      "အခွင့်ထူး": 5511,
      "နီထိုင်သော": 5512,
      "နီထိုင်ရန်": 5513,
      "ကွပ်": 5514,
      "ပြစ်မှု": 5515,
      "ပုံစံ": 5516,
      "ပုံဥမာ": 5517,
      "ပြည့်စုံတော်မူ": 5518,
      "ပြည့်စုံလာ": 5519,
      "သတိထား": 5520,
      "ပြီဟု": 5521,
      "ခန္ဓာသည်": 5522,
      "စရာမလို": 5523,
      "ဝမ်းမြောက်စွာဖြင့်": 5524,
      "ကဲသာဘုရင်": 5525,
      "စီတော်မူပါ": 5526,
      "သိမ့်သောကြောင့်": 5527,
      "အပြင်ပန်း": 5528,
      "အသံတော်ကို": 5529,
      "သားသမီးရို့သည်": 5530,
      "ငြင်းဆန်": 5531,
      "ရကြမည်": 5532,
      "ပညတ်တရားနှင့်": 5533,
      "ပညတ်တရားများကို": 5534,
      "ပညတ်တရားအောက်": 5535,
      "အကျိုးအတွက်": 5536,
      "ကြိုးစားလုပ်ဆောင်": 5537,
      "တန်းထွီး": 5538,
      "တန်းစဉ်ကို": 5539,
      "မိုးကောင်းကင်": 5540,
      "မိုးသောက်": 5541,
      "မိုးရွာ": 5542,
      "နာမတော်မြတ်": 5543,
      "ပူဇော်သော": 5544,
      "တပည့်တော်ရို့သည်လည်း": 5545,
      "ထင်ရှားစီခြင်းငှာ": 5546,
      "လွှဲ": 5547,
      "မြင်ရကြလိမ့်မည်": 5548,
      "နောင်ကာလ": 5549,
      "ထောက်ရှု": 5550,
      "နားထောင်လော့": 5551,
      "ဗိမာန်တော်မှ": 5552,
      "အယောင်ဆောင်": 5553,
      "စွန့်ပယ်": 5554,
      "စွန့်ခွါ": 5555,
      "နှစ်ယောက်ထဲက": 5556,
      "ဖာရိယှဲတိ": 5557,
      "တစ်စုံတစ်ယောက်": 5558,
      "တစ်စုံတစ်ခုကို": 5559,
      "ပိုပြီး": 5560,
      "ခန့်ထား": 5561,
      "ခန့်ခွဲ": 5562,
      "နတ်ဆိုးသည်": 5563,
      "နတ်ဆိုးပူး": 5564,
      "အထက်မှာ": 5565,
      "လောင်းတစ်": 5566,
      "သက်သီခံတော်မူ": 5567,
      "သဘောကို": 5568,
      "ထွက်လားပြီးနောက်": 5569,
      "ထိခိုက်": 5570,
      "ခရီးပြု": 5571,
      "ခရီးလား": 5572,
      "ခရီးဦး": 5573,
      "ကျန်းမာလာ": 5574,
      "သျှိမုန်ပေတရု": 5575,
      "နှုတ်ဆက်ကြ": 5576,
      "စင်ကြယ်ခြင်း": 5577,
      "ကိုင်ထားသော": 5578,
      "ပြောပြလိမ့်မည်": 5579,
      "ပြစ်မှားသော": 5580,
      "မယားသည်": 5581,
      "ဤလောကတွင်": 5582,
      "နိ့ရက်ကာလ": 5583,
      "ပြင်းစွာသော": 5584,
      "နှစ်သက်မြတ်နိုး": 5585,
      "ဖန်ဆင်းထား": 5586,
      "ဖွင့်လိုက်သောအခါ": 5587,
      "ဖွင့်ပြတော်မူ": 5588,
      "အမိန့်ပီးတော်မူ": 5589,
      "အမိန့်ပီးလေ": 5590,
      "ဖြစ်သည်ဆိုလျှင်": 5591,
      "ဖြစ်သည်နှင့်အညီ": 5592,
      "အသွီးတော်အားဖြင့်": 5593,
      "အုတ်ဂူ": 5594,
      "ထိုနည်းတူစွာ": 5595,
      "အမှုအရာများ": 5596,
      "လာသောခါ": 5597,
      "အတွင်းသို့": 5598,
      "ထိုမိန်းမအား": 5599,
      "ပိလတ်က": 5600,
      "ပိလတ်သည်": 5601,
      "အိပ်မက်": 5602,
      "ကျိန်ခြင်းကို": 5603,
      "သည်းခံခြင်း": 5604,
      "ပထမဦးစွာ": 5605,
      "တွင်းနက်": 5606,
      "နိန်စဉ်က": 5607,
      "သင်္ဘောကို": 5608,
      "ပွားများ": 5609,
      "ဝီးသော": 5610,
      "ဖမ်းဆီးရန်": 5611,
      "တစ်ဆယ့်လေး": 5612,
      "နိုင်ငံတော်အကြောင်းကို": 5613,
      "ထားပြီးသော": 5614,
      "လွတ်မြောက်ခြင်းကို": 5615,
      "အိမ်ထောင်မပြုဘဲ": 5616,
      "နီးကပ်": 5617,
      "မယုံကြည်သောသူရို့": 5618,
      "သင်္ချိုင်းတွင်း": 5619,
      "ပြုတော်မူခြင်းမှာ": 5620,
      "ပြည့်ဝစုံလင်": 5621,
      "ဖြစ်လိမ့်မည်နည်း": 5622,
      "သားရဲနှင့်": 5623,
      "ပိတ်စ": 5624,
      "အပင်ပေါက်": 5625,
      "ပီးလိုက်လော့": 5626,
      "ဇာတိပကတိ": 5627,
      "ရုပ်တုအား": 5628,
      "စိုးရိမ်ပူပန်": 5629,
      "မပြောနိုင်": 5630,
      "မပြောကတ်ကေ့": 5631,
      "စားသောက်လျက်": 5632,
      "အနက်ကို": 5633,
      "အစီခံမိန်းမ": 5634,
      "အပ်နှံကြလိမ့်မည်": 5635,
      "ကြွယ်ဝစွာ": 5636,
      "ဝတ်ပြုစည်းဝေး": 5637,
      "သီခြင်းတရားသည်": 5638,
      "ရွှတ်လိုက်တော်မူ": 5639,
      "အစားအစာများကို": 5640,
      "ပြုသောအမှု": 5641,
      "အသီးသီးမှ": 5642,
      "မမြင်ဖူး": 5643,
      "အကျဉ်းသား": 5644,
      "ဤနိ့တွင်": 5645,
      "ပေါ်လာပြီး": 5646,
      "တေကျွန်း": 5647,
      "စုဝေးကြ": 5648,
      "ကဲ့ရဲ့ပြစ်တင်": 5649,
      "သိတော်မူသဖြင့်": 5650,
      "ဆင်းသက်လာသော": 5651,
      "တစ်ပါးတည်းသော": 5652,
      "ချီးမြှောက်ခြင်းကို": 5653,
      "ပြစ်ဒဏ်ပီး": 5654,
      "ဖိလိပ္ပုအား": 5655,
      "ဝယ်ယူ": 5656,
      "တပည့်တော်ရို့နှင့်အတူ": 5657,
      "ထာဝရဘုရားက": 5658,
      "ပူဇော်သကာများကို": 5659,
      "ဗာနဗနှင့်": 5660,
      "အဓိပ္ပာယ်ကို": 5661,
      "အမှီပြုလျက်": 5662,
      "ဗက်ဇဲ": 5663,
      "မပါသော": 5664,
      "ရိုးသား": 5665,
      "ပြုလုပ်ထားသော": 5666,
      "တပ်မက်ခြင်း": 5667,
      "အလုံးစုံတိကို": 5668,
      "တစ်ခုလုံးသည်": 5669,
      "အမှတ်လက္ခဏာ": 5670,
      "ကြုံတွိ့ရ": 5671,
      "ခြံသမား": 5672,
      "ရှီးကာလ": 5673,
      "ဘဏ္ဍာကို": 5674,
      "မှုတ်လိုက်သောအခါ": 5675,
      "ညွှန်ပြ": 5676,
      "အဆတစ်ရာ": 5677,
      "သတို့သား": 5678,
      "ငြင်းခုံကြ": 5679,
      "မိဘကို": 5680,
      "တစ်ကိုယ်တည်း": 5681,
      "ဆိုထားသည်မှာ": 5682,
      "မာကေဒေါနိပြည်": 5683,
      "မိဖရို့သည်": 5684,
      "ခမည်းတော်ကိုလည်း": 5685,
      "စည်းစိမ်ချမ်းသာ": 5686,
      "မိုက်မဲသောသူ": 5687,
      "ရွှင်လန်းစီ": 5688,
      "အန္တိအုတ်မြို့": 5689,
      "သဲသဲ": 5690,
      "ဂုဏ်ယူဝင့်ကြွား": 5691,
      "အစွမ်းကုန်": 5692,
      "ပတ်လည်တွင်": 5693,
      "သံလွင်ပင်": 5694,
      "ခွက်ဖလားကို": 5695,
      "ဇိအုန်": 5696,
      "ညဉ့်အခါ": 5697,
      "တကာရို့": 5698,
      "အကောင်းဆုံး": 5699,
      "မြွီဆိုး": 5700,
      "လူမျိုးခြားတိ": 5701,
      "ညှိုးငယ်": 5702,
      "ကာမဂုဏ်လိုက်စားခြင်း": 5703,
      "စေတနာစိတ်": 5704,
      "မစင်ကြယ်သော": 5705,
      "သိကျွမ်းခြင်း": 5706,
      "မိမိမယားကို": 5707,
      "တစ်ကြိမ်တည်း": 5708,
      "မဿဲ": 5709,
      "ယိုယွင်း": 5710,
      "တူညီသော": 5711,
      "စစ်ကြောစီရင်": 5712,
      "လူအစုအဝေးရို့သည်": 5713,
      "သိုထား": 5714,
      "ငတ်မွတ်ခေါင်းပါး": 5715,
      "ဒူးထောက်လျက်": 5716,
      "မြီးဆက်": 5717,
      "ကမ်းခြီသို့": 5718,
      "တစ်ကျိပ်နှစ်ပါး": 5719,
      "တအောင့်ကြာ": 5720,
      "ကောင်းမွန်စွာ": 5721,
      "ကာလအစဉ်အဆက်": 5722,
      "မာဂဒလမြို့သူ": 5723,
      "ကြမ်းတမ်း": 5724,
      "တိုင်ပင်ကြ": 5725,
      "အလင်းရောင်ကို": 5726,
      "တံဆိပ်ခတ်နှိပ်": 5727,
      "အပြစ်ဖြေရာ": 5728,
      "ကုရေနေ": 5729,
      "သက်သာလောနိတ်": 5730,
      "တင်းကြပ်စွာ": 5731,
      "သတ္တမ": 5732,
      "မိုးလင်းသောအခါ": 5733,
      "အကြင်သူသည်": 5734,
      "တုံ့ပြန်": 5735,
      "မစိုက်ဘဲ": 5736,
      "ပုဝါပိုင်း": 5737,
      "တပ်ခွဲမှူး": 5738,
      "ဋ္ဌမ": 5739,
      "ဂလာတိ": 5740,
      "တစ်စိတ်တစ်": 5741,
      "သားစဉ်မြီးဆက်": 5742,
      "နီမောင်းသော": 5743,
      "လုတ္တရ": 5744,
      "ပုဂ္ဂိုလ်": 5745,
      "ကြာမြင့်စွာ": 5746,
      "ဗက်ဇဲဒ": 5747,
      "ကရေ": 5748,
      "ကိမြို့": 5749,
      "ခီ": 5750,
      "ခပြီးလျှင်": 5751,
      "ငုံ့": 5752,
      "စို့": 5753,
      "စကို": 5754,
      "ဆွတ်": 5755,
      "ညက်": 5756,
      "ညစာကို": 5757,
      "တရ": 5758,
      "တူး": 5759,
      "တလိ": 5760,
      "ထောင်း": 5761,
      "ထိတ်": 5762,
      "ထိမ်": 5763,
      "ထရပ်": 5764,
      "ထိပ်": 5765,
      "ဒင်": 5766,
      "နု": 5767,
      "ပည်း": 5768,
      "ပွန်": 5769,
      "ပရိတ်": 5770,
      "ဗော": 5771,
      "မယ": 5772,
      "မိန်": 5773,
      "မသာ": 5774,
      "မတိုင်": 5775,
      "မချစ်": 5776,
      "မသန့်ယှင်း": 5777,
      "မတ္တ": 5778,
      "မထင်မှတ်": 5779,
      "မငြင်းပယ်": 5780,
      "မလပ်": 5781,
      "ယင်": 5782,
      "ရပြီးလျှင်": 5783,
      "ရအောင်": 5784,
      "ရသည်မှာ": 5785,
      "ရနံ့": 5786,
      "ရောင့်ရဲ": 5787,
      "လိမ်း": 5788,
      "ဝဠာ": 5789,
      "သနေ": 5790,
      "အစ်": 5791,
      "အောင်း": 5792,
      "အသင်": 5793,
      "အုံ": 5794,
      "အုံး": 5795,
      "အလျှောက်": 5796,
      "အဆင်း": 5797,
      "အရွက်": 5798,
      "အသောက်": 5799,
      "အရည်": 5800,
      "အပျော်": 5801,
      "အညစ်": 5802,
      "အဆောက်အဦး": 5803,
      "ဣကော": 5804,
      "ဤစာ": 5805,
      "ဤမြို့": 5806,
      "ဤသူရို့ကို": 5807,
      "ဤသူငယ်": 5808,
      "ဤမုန့်": 5809,
      "ဤလူတိကို": 5810,
      "ဤအရာကို": 5811,
      "ဤအရပ်သို့": 5812,
      "ဤညွှန်ကြား": 5813,
      "ဤမိန်းမသည်": 5814,
      "ဥပါ": 5815,
      "ဧပ": 5816,
      "ေပွန်": 5817,
      "္ပ": 5818,
      "၂၀၀": 5819,
      "“‘": 5820,
      "ကြစီ": 5821,
      "သည်ထိတိုင်အောင်": 5822,
      "န်ကို": 5823,
      "န်သည်": 5824,
      "ရို့ပါးသို့": 5825,
      "သော့": 5826,
      "သောလူ": 5827,
      "သောစာ": 5828,
      "သောလူတိ": 5829,
      "သောမိန်းမ": 5830,
      "သောကာလ": 5831,
      "တော်အတိုင်း": 5832,
      "ပြလိမ့်မည်": 5833,
      "သူကား": 5834,
      "သူကိုယ်တိုင်": 5835,
      "ဖြုန်း": 5836,
      "ငါဖော်ပြ": 5837,
      "ငါဖြစ်သည်": 5838,
      "ငါချစ်သော": 5839,
      "ငါစာရီးလိုက်": 5840,
      "သို့စေ": 5841,
      "မှန်း": 5842,
      "ဖြစ်သည်ကိုလည်းကောင်း": 5843,
      "ဖြစ်ပေါ်လာ": 5844,
      "မူလ": 5845,
      "ခြင်းက": 5846,
      "ခြင်းတိကို": 5847,
      "ခြင်းထဲသို့": 5848,
      "ထိုသခင်": 5849,
      "ထိုဝိညာဉ်": 5850,
      "ထိုတပည့်တော်": 5851,
      "ထိုဘုရားသခင်သည်": 5852,
      "ထိုစဉ်": 5853,
      "ထိုပညတ်": 5854,
      "ထိုဒေသ": 5855,
      "ထိုမုန့်ကို": 5856,
      "ထိုကျွန်း": 5857,
      "ထိုသတင်းကောင်းတရား": 5858,
      "ထိုခဏ": 5859,
      "ထိုနီရာတွင်": 5860,
      "အားမ": 5861,
      "တော်မူပြီးမှ": 5862,
      "ချကာ": 5863,
      "မြူး": 5864,
      "မြွတ်": 5865,
      "ကျလာ": 5866,
      "ကျလိမ့်မည်": 5867,
      "ကျိုင်း": 5868,
      "ကျေပွန်": 5869,
      "လည်းဖြစ်": 5870,
      "ဟိသော်": 5871,
      "ဟိလော့": 5872,
      "ဟိပေ": 5873,
      "ဟိသနည်း": 5874,
      "ဟိသောသူတိ": 5875,
      "ဟိသောကြောင့်ဖြစ်": 5876,
      "ပါသည်": 5877,
      "ပါကား": 5878,
      "ဘုရားကို": 5879,
      "ရာပါ": 5880,
      "ရာအရပ်သို့": 5881,
      "တစ်နည်း": 5882,
      "တစ်မြို့သို့": 5883,
      "တစ်တုံး": 5884,
      "တစ်ချောင်း": 5885,
      "စီပါ": 5886,
      "စီတတ်သော": 5887,
      "စီတိုင်းသည်": 5888,
      "စီမည့်အကြောင်း": 5889,
      "များပင်": 5890,
      "များကြား": 5891,
      "လူများစွာ": 5892,
      "လူအသက်ကို": 5893,
      "လူမိုက်": 5894,
      "လျှို": 5895,
      "လာယာ": 5896,
      "လာသကဲ့သို့": 5897,
      "လာသတည်း": 5898,
      "လာသည်ကိုလည်းကောင်း": 5899,
      "ဘုရားသခင်လူရို့": 5900,
      "ဘုရားသခင်ပီးတော်မူသော": 5901,
      "သင်ရို့ထက်": 5902,
      "သင်ရို့မူကား": 5903,
      "သင်ရို့ထဲမှ": 5904,
      "သင်ရို့အထဲက": 5905,
      "ကိုယ်ဝန်": 5906,
      "န့်ယှင်း": 5907,
      "ခံရန်": 5908,
      "ခံနိန်ကြ": 5909,
      "ခံနိန်ရ": 5910,
      "သောသူလည်း": 5911,
      "သောသူတစ်ယောက်ကို": 5912,
      "သောသူတည်းဟူသော": 5913,
      "ပြီးမြောက်": 5914,
      "ပြီးစီး": 5915,
      "ယေသျှဲ": 5916,
      "လိုလျှင်": 5917,
      "လိုစိတ်": 5918,
      "လိုသောကြောင့်": 5919,
      "အသစ်ကို": 5920,
      "အသန့်ယှင်း": 5921,
      "သျှုမောင်": 5922,
      "ဆိုရလျှင်": 5923,
      "ပြောကြလော့": 5924,
      "ပြောရမည်": 5925,
      "ပြောရလျှင်": 5926,
      "နိန်လိမ့်မည်": 5927,
      "နိန်သောအခါ": 5928,
      "နိန်သည်ဟု": 5929,
      "ထားလျက်": 5930,
      "ထားလိုက်": 5931,
      "ထားသည်ဖြစ်": 5932,
      "သားချင်း": 5933,
      "သူရို့အားလုံးကို": 5934,
      "သူရို့ထဲမှ": 5935,
      "ပီးသူ": 5936,
      "ပီးသည့်": 5937,
      "ပီးတတ်": 5938,
      "တွင်သော": 5939,
      "ပြုခ": 5940,
      "ပြုလိမ့်မည်": 5941,
      "ပြုသည့်": 5942,
      "ပြုစား": 5943,
      "ပြုသောအခါ": 5944,
      "ပြုသောသူသည်": 5945,
      "ပြုခသည့်": 5946,
      "မိမိသခင်": 5947,
      "မိမိအတွက်": 5948,
      "လားလိမ့်မည်": 5949,
      "လားပြီးနောက်": 5950,
      "လားအုတ်": 5951,
      "မိကြ": 5952,
      "တရားတော်သည်": 5953,
      "တရားပလ္လင်": 5954,
      "ကိုယ်တော်သျှင်": 5955,
      "ကိုယ်တော်ထံ": 5956,
      "ဇာနှစ်": 5957,
      "ဇာအရပ်သို့": 5958,
      "နိုင်သော်လည်း": 5959,
      "နိုင်သလော": 5960,
      "နိုင်မည်လော": 5961,
      "သည့်အရာ": 5962,
      "ပါးတွင်": 5963,
      "ရွတ်": 5964,
      "သာဖြစ်": 5965,
      "သာမန်": 5966,
      "အကြောင်းနှင့်ပတ်သတ်": 5967,
      "နောက်က": 5968,
      "နောက်ထပ်": 5969,
      "နောက်တစ်ခါ": 5970,
      "ငါရို့နှင့်": 5971,
      "ငါရို့သိကြ": 5972,
      "ကြီးသည်": 5973,
      "ကြီးတစ်ခု": 5974,
      "အရာဟူ": 5975,
      "အရာအားလုံးသည်": 5976,
      "လိုက်လျှောက်ကြ": 5977,
      "အတု": 5978,
      "အတောင်": 5979,
      "မျိုးစ": 5980,
      "မှုအတွက်": 5981,
      "မှုမဟိ": 5982,
      "မျှဝီ": 5983,
      "ငါ့ညီအစ်ကို": 5984,
      "တစ်ယောက်ပြီး": 5985,
      "တစ်ယောက်သာ": 5986,
      "တစ်ယောက်အဖြစ်": 5987,
      "ရောက်ဟိ": 5988,
      "ရောက်ကြလိမ့်မည်": 5989,
      "ရောက်စီတော်မူ": 5990,
      "မြို့တစ်မြို့": 5991,
      "နည်းအတိုင်း": 5992,
      "နာကျင်": 5993,
      "နာသနေ": 5994,
      "သိလျှင်": 5995,
      "သီကျ": 5996,
      "သီဆို": 5997,
      "ယုံကြည်ပါ": 5998,
      "ယုံကြည်မှု": 5999,
      "လက်နှင့်": 6000,
      "မဟုတ်သည်ကို": 6001,
      "မဟုတ်သောကြောင့်": 6002,
      "ကာန": 6003,
      "ကာဣန": 6004,
      "မိန့်တော်မူလိုက်": 6005,
      "မိန့်တော်မူသည့်အတိုင်း": 6006,
      "စိတ်ပူပန်": 6007,
      "စိတ်စွဲလမ်း": 6008,
      "မြင်ရသော": 6009,
      "ထက်ပို": 6010,
      "ထက်မက": 6011,
      "ရုဗ": 6012,
      "ရုန်": 6013,
      "စကားကြောင့်": 6014,
      "မိန်းသော်": 6015,
      "မာန်": 6016,
      "ကြားကြား": 6017,
      "ကြားဖူး": 6018,
      "ကြားသောခါ": 6019,
      "ပြန်လားလေ": 6020,
      "ပြန်လာပြီးလျှင်": 6021,
      "လုပ်ကျွေး": 6022,
      "အဖဘုရားသခင်နှင့်": 6023,
      "ပေသည်": 6024,
      "ပေလိမ့်မည်": 6025,
      "အပြစ်ဆို": 6026,
      "အပြစ်လုပ်": 6027,
      "အပြစ်များကြောင့်": 6028,
      "အသက်သည်": 6029,
      "နီတော်မူ": 6030,
      "နီဝင်": 6031,
      "အကျွန်က": 6032,
      "အကျွန်ကလည်း": 6033,
      "အကျွန်သိပါ": 6034,
      "နားရွက်": 6035,
      "နားဟိသောသူရို့": 6036,
      "တည်းဖြင့်": 6037,
      "ခံရသောသူ": 6038,
      "ခံရလေ": 6039,
      "အသျှင်ယေသျှုသည်": 6040,
      "အသျှင်ဖြစ်တော်မူ": 6041,
      "ခရစ်တော်အား": 6042,
      "အမှုကိစ္စ": 6043,
      "နှစ်ပေါင်းများစွာ": 6044,
      "အာရိ": 6045,
      "အာတေ": 6046,
      "အလကား": 6047,
      "မဟိသောသူ": 6048,
      "တောင်းစား": 6049,
      "ရွှိ့": 6050,
      "ခုခံ": 6051,
      "နိ့တွင်": 6052,
      "ကတ်စီ": 6053,
      "ကတ်လီ": 6054,
      "ခေါ်တော်မူသော": 6055,
      "ခေါ်ထားတော်မူ": 6056,
      "ယာဟု": 6057,
      "လူမျိုးအပေါင်းရို့အား": 6058,
      "မှန်သမျှ": 6059,
      "မှန်သလော": 6060,
      "လုလင်": 6061,
      "ဝင်လာ": 6062,
      "ဝင်လေ": 6063,
      "ဝင်ရလိမ့်မည်": 6064,
      "လျှောက်လဲ": 6065,
      "လှပ": 6066,
      "လှယ်": 6067,
      "လှိမ့်": 6068,
      "ထွက်လာပြီးလျှင်": 6069,
      "ံ့အ": 6070,
      "ဘုရားသခင်သည်လည်း": 6071,
      "အိမ်သျှင်": 6072,
      "အိမ်နီး": 6073,
      "ယုဒနှင့်": 6074,
      "ယုဒခေါင်းဆောင်": 6075,
      "ပိုင်သော": 6076,
      "ပိုင်တော်မူ": 6077,
      "သူ့ဥစ္စာကို": 6078,
      "ဟောပြောခြင်း": 6079,
      "ဟောပြောသောသူ": 6080,
      "ဟောပြောသည့်": 6081,
      "ဟောပြောသောအခါ": 6082,
      "တောရွာ": 6083,
      "သတ်ခြင်း": 6084,
      "သတ်ကြလိမ့်မည်": 6085,
      "လာကြပြီး": 6086,
      "လဲဆိုကေ": 6087,
      "အပေါင်းကို": 6088,
      "အပေါင်းနှင့်": 6089,
      "ပညတ်ကို": 6090,
      "ပညတ်ဖြစ်": 6091,
      "အဂုတိုင်အောင်": 6092,
      "သခင်ဘုရားအတွက်": 6093,
      "ရီအိုး": 6094,
      "ချက်များသည်": 6095,
      "ချက်များနှင့်": 6096,
      "ပြောဆိုပြီး": 6097,
      "ပြောဆိုသောသူသည်": 6098,
      "ရွှတ်လိုက်ကြ": 6099,
      "အရပ်လေး": 6100,
      "အရပ်ဒေသ": 6101,
      "ဝတ်ထားသော": 6102,
      "ဝတ်ဖြူ": 6103,
      "ကျေးဇူးပြုတော်မူ": 6104,
      "စုပ္": 6105,
      "အပ်လိမ့်မည်": 6106,
      "ထိုင်နိန်သော": 6107,
      "တည်သော": 6108,
      "တည်ဟိ": 6109,
      "တည်ပါစီသောဝ်": 6110,
      "ထောင်ကျ": 6111,
      "ချစ်ခင်": 6112,
      "ချစ်သား": 6113,
      "ချစ်လော့": 6114,
      "ချစ်သည်ကို": 6115,
      "ချစ်ရမည်": 6116,
      "မိမိရို့ကိုယ်တိုင်": 6117,
      "သန့်ယှင်းခြင်းသို့": 6118,
      "ထိုသူကလည်း": 6119,
      "ချင်းတွင်": 6120,
      "ရမည်လော": 6121,
      "လိပြည်": 6122,
      "ထိုသူရို့နှင့်": 6123,
      "မိန်းမတစ်ယောက်": 6124,
      "အသက်ရှင်ကြ": 6125,
      "လောကသားတိ": 6126,
      "အလိုတော်နှင့်": 6127,
      "အလိုတော်အားဖြင့်": 6128,
      "အလိုဟိလျှင်": 6129,
      "ဆီးတား": 6130,
      "မုသား": 6131,
      "စီရင်ဆုံးဖြတ်": 6132,
      "ငယ်သော": 6133,
      "ယုံကြည်ခြင်းသို့": 6134,
      "ယုံကြည်ခြင်းတရားကို": 6135,
      "သုံးလ": 6136,
      "ကြည့်တော်မူ": 6137,
      "ကြည့်ပြီး": 6138,
      "ကြည့်ရန်": 6139,
      "ကြည့်သောအခါ": 6140,
      "ကြည့်ကတ်ပါ": 6141,
      "ကြည့်တော်မူပြီးလျှင်": 6142,
      "အခြားလူမျိုး": 6143,
      "ကောင်းကင်တမန်ပါးသို့": 6144,
      "မှတ်သား": 6145,
      "ရောက်လာလျှင်": 6146,
      "စောင့်သောသူ": 6147,
      "နိုင်ငံသည်": 6148,
      "ကာလအတွင်း": 6149,
      "ခွင့်ရ": 6150,
      "စီရန်ဖြစ်": 6151,
      "ဆုတောင်းကြ": 6152,
      "ဆုတောင်းတော်မူ": 6153,
      "ဆုတောင်းပါ": 6154,
      "ဆုတောင်းသောအခါ": 6155,
      "အကြောင်းကိုသာ": 6156,
      "သူမက": 6157,
      "နီရာကို": 6158,
      "ယောဟန်အား": 6159,
      "ကပ်ဘေး": 6160,
      "အလွန်ပင်": 6161,
      "အလွန်ကြောက်လန့်": 6162,
      "အလွန်အံ့သြကြ": 6163,
      "ကယ်တင်ရန်": 6164,
      "ယဇ်ပုရောဟိတ်တိ": 6165,
      "လုပ်ဆောင်ရန်": 6166,
      "သက်သီပြတော်မူ": 6167,
      "မြီကြီးသားရို့အား": 6168,
      "ဖြောင့်မတ်စွာ": 6169,
      "ဖြောင့်မတ်သည်ဟု": 6170,
      "ထုတ်လိုက်": 6171,
      "ထုတ်ယူ": 6172,
      "စီရွှတ်မည်": 6173,
      "စီရွှတ်လိုက်ကြ": 6174,
      "ထိုသူသည်လည်း": 6175,
      "ဇာပိုင်လူ": 6176,
      "မီးထဲ": 6177,
      "မီးလောင်": 6178,
      "မီးဖို": 6179,
      "ကြွလာသည်ကို": 6180,
      "ကြွလာမည့်": 6181,
      "ကြွလာတော်မူလိမ့်မည်": 6182,
      "ကြာပြီးနောက်": 6183,
      "ကြာကြာ": 6184,
      "အခွင့်ဖြင့်": 6185,
      "အခွင့်မပီး": 6186,
      "နီထိုင်လေ": 6187,
      "ပြစ်ကိ": 6188,
      "ကင်းစင်": 6189,
      "ပုံနှင့်": 6190,
      "ပုံဆောင်": 6191,
      "ပုံပြင်": 6192,
      "သတင်းကောင်းသည်": 6193,
      "တဖန်ပြန်": 6194,
      "ခြီသည်": 6195,
      "ခြီတင်": 6196,
      "ပြည့်စုံခြင်း": 6197,
      "ထမြောက်တော်မူ": 6198,
      "ထမြောက်စီတော်မူသော": 6199,
      "လူသားအားလုံးသည်": 6200,
      "ဖော်ပြရန်": 6201,
      "ဖော်ပြလျက်ဟိ": 6202,
      "ပေါ်လာပြီးလျှင်": 6203,
      "ရလိမ့်မည်ဟု": 6204,
      "သတိပြု": 6205,
      "သတိထားကြလော့": 6206,
      "ပြီဖြစ်သောကြောင့်": 6207,
      "မျက်စိမမြင်": 6208,
      "ကုန်လွန်": 6209,
      "ရည်ကို": 6210,
      "မပြုကြ": 6211,
      "မပြုကေ့": 6212,
      "အကျွန်ရို့နှင့်": 6213,
      "ဟေဇ": 6214,
      "ယုဒလူမျိုးများ": 6215,
      "သိမ့်သော": 6216,
      "တမန်တော်များ": 6217,
      "တမန်တော်ရို့ကို": 6218,
      "ရှာမတွိ့": 6219,
      "သားသမီးမရဘဲ": 6220,
      "မေတ္တာကို": 6221,
      "မေတ္တာနှင့်": 6222,
      "ပညတ်တရားက": 6223,
      "အကျိုးမဟိသော": 6224,
      "ကြိုးစားနိန်": 6225,
      "လေးမြတ်": 6226,
      "လေးနက်": 6227,
      "မိုးထက်": 6228,
      "မိုးကြိုး": 6229,
      "အကြေး": 6230,
      "ကမ်းမှ": 6231,
      "မုန့်ညက်": 6232,
      "ထင်ရှားစီ": 6233,
      "ခါးပတ်": 6234,
      "ယုံကြည်သူတိ": 6235,
      "နောင်ဘဝ": 6236,
      "လီသည်": 6237,
      "လီနှင့်": 6238,
      "လီတိုက်": 6239,
      "လီဗျာယ်": 6240,
      "လက်ခံတော်မူ": 6241,
      "လက်ခံသောသူသည်": 6242,
      "လက်ခံတော်မူခ": 6243,
      "ပြင်ပ": 6244,
      "လေ့ဟိကြ": 6245,
      "လေ့ကျင့်": 6246,
      "ဗိမာန်တော်တွင်": 6247,
      "သြတ္တပ": 6248,
      "တစ်ဦးတစ်ယောက်မျှ": 6249,
      "ချုပ်နှောင်": 6250,
      "ထိုအသျှင်အားဖြင့်": 6251,
      "ဒဏ်ခတ်": 6252,
      "တရားစီရင်ခြင်း": 6253,
      "ခကြသော": 6254,
      "မျှော်လင့်ခြင်းကို": 6255,
      "အရိုး": 6256,
      "အရူး": 6257,
      "တစ်စုံတစ်ခုမျှ": 6258,
      "ကျွန်ဖြစ်": 6259,
      "ကျွန်တိကို": 6260,
      "ကျွန်တစ်ယောက်ကို": 6261,
      "ကြွတော်မူပြီးလျှင်": 6262,
      "ညှာ": 6263,
      "ညှင်း": 6264,
      "နိုင်ကြပါ": 6265,
      "နတ်ဆိုးကို": 6266,
      "နတ်ဆိုးဝင်ပူး": 6267,
      "တခြားလူမျိုးတိကို": 6268,
      "အထက်အရပ်": 6269,
      "အထက်ခန်း": 6270,
      "ကိုးကွယ်ဝတ်ပြု": 6271,
      "လောင်းသည်": 6272,
      "သက်သီခံကြ": 6273,
      "ခုနစ်လုံးနှင့်": 6274,
      "သဘောဖြင့်": 6275,
      "သဘောတူ": 6276,
      "ထိုက်သည့်": 6277,
      "လျောင်း": 6278,
      "ဖြစ်လာစီခြင်းငှာ": 6279,
      "မွီးရာပါ": 6280,
      "ထွက်လားရန်": 6281,
      "ပျက်စီးလိမ့်မည်": 6282,
      "ကုလားအုတ်": 6283,
      "ထိတိုင်": 6284,
      "လူအပေါင်းရို့သည်လည်း": 6285,
      "အဝတ်အစား": 6286,
      "ရွာများသို့": 6287,
      "ဖွယ်ကောင်း": 6288,
      "ဖွယ်ကောင်းသော": 6289,
      "ဗာလ": 6290,
      "မှန်သောစကား": 6291,
      "နှုတ်ဆက်ကြလော့": 6292,
      "ရိုက်ထားကြ": 6293,
      "အစားအသောက်": 6294,
      "ကိုင်ဖက်": 6295,
      "ဆာလောင်": 6296,
      "ဆာမွတ်": 6297,
      "ပြောပြပါ": 6298,
      "ထားခပြီး": 6299,
      "ပြစ်မှားမိ": 6300,
      "မယားနှင့်": 6301,
      "အမျိုးမျိုးဖြင့်": 6302,
      "ပြင်းပြ": 6303,
      "တစ်ဆင့်": 6304,
      "ကြီးမြတ်တော်မူ": 6305,
      "ကြီးမြတ်သောသူသည်": 6306,
      "အမိန့်ကို": 6307,
      "ယောက်ျားနှင့်": 6308,
      "နာခံကြလော့": 6309,
      "လူ့ဇာတိကို": 6310,
      "ထင်မှတ်လျက်": 6311,
      "ရှင်ပြန်ထမြောက်တော်မူ": 6312,
      "ရှင်ပြန်ထမြောက်လိမ့်မည်": 6313,
      "ဆယ်ချောင်း": 6314,
      "ဖြစ်တော်မူကြောင်းကို": 6315,
      "ကိုယ်ခန္ဓာသည်": 6316,
      "လူတိုင်းသည်": 6317,
      "နာမည်ကား": 6318,
      "ယဇ်ပုရောဟိတ်မင်းက": 6319,
      "ယဇ်ပုရောဟိတ်မင်းသည်": 6320,
      "ဖိနိတ်": 6321,
      "ရောက်လာကြသော": 6322,
      "သျှင်ဘုရင်တစ်ပါး": 6323,
      "အသီသတ်ခြင်းငှာ": 6324,
      "ပီးအပ်လေ": 6325,
      "ပျော်ပါး": 6326,
      "ဒါဝိဒ်က": 6327,
      "အနားယူ": 6328,
      "ရောဂါပျောက်ကင်း": 6329,
      "ကျမ်းတတ်ဆရာတိ": 6330,
      "ကျမ်းတတ်ဆရာတိနှင့်": 6331,
      "ကျမ်းတတ်ဆရာရို့က": 6332,
      "မှောက်လှန်": 6333,
      "သည်းခံနိုင်": 6334,
      "ဝှမ်း": 6335,
      "သောသူများကဲ့သို့": 6336,
      "သောသူများဖြစ်ကြ": 6337,
      "နိန်စဉ်တွင်": 6338,
      "သင်္ဘောထက်သို့": 6339,
      "ဆွဲတင်": 6340,
      "ပန်းဖွား": 6341,
      "ဘေးဒဏ်": 6342,
      "ဘေးဥပါ": 6343,
      "ကျန်ကြွင်း": 6344,
      "ဘုရားသခင်ထံပါးသို့": 6345,
      "လောကီမင်း": 6346,
      "ဖြစ်ပျက်ခ": 6347,
      "ငြင်းပယ်ကြ": 6348,
      "နောက်ဆုံးသောနိ့": 6349,
      "တိုက်တွန်းလိုက်": 6350,
      "လှုပ်ခြင်း": 6351,
      "ဤအကြောင်းအရာကို": 6352,
      "လွတ်မြောက်စီတော်မူ": 6353,
      "ခွင့်ရွှတ်လိမ့်မည်": 6354,
      "ကြောက်ရွံ့ကြ": 6355,
      "ဥယျာဉ်သို့": 6356,
      "ငိုယို": 6357,
      "ငိုကျွီး": 6358,
      "မယုံကြည်သော": 6359,
      "မယုံကြည်ကြသောကြောင့်": 6360,
      "နားလည်သဘောပေါက်": 6361,
      "ဖျက်ဆီးခြင်းကို": 6362,
      "အသုံးမဝင်": 6363,
      "ပြုတော်မူခသော": 6364,
      "ရောမဘုရင်ခံ": 6365,
      "မှန်ကန်စွာ": 6366,
      "ပစ္စုပ္": 6367,
      "သားရဲသည်": 6368,
      "လိုက်နာကျင့်သုံး": 6369,
      "သမ္မာတရားနှင့်": 6370,
      "ရိုသီလေးမြတ်": 6371,
      "ကမ္ပည်း": 6372,
      "အပင်ကို": 6373,
      "အပင်သည်": 6374,
      "ဇာတိအားဖြင့်": 6375,
      "မိန့်မှာလိုက်": 6376,
      "ရုပ်တုကိုးကွယ်": 6377,
      "ဝမ်းနည်းစီ": 6378,
      "ဝမ်းနည်းပူ": 6379,
      "အနက်ကား": 6380,
      "မပီးဘဲ": 6381,
      "လျက်ဟိကြသော": 6382,
      "သီခြင်းတရားနှင့်": 6383,
      "အားနည်းသော": 6384,
      "ခိုက်ရန်ဖြစ်": 6385,
      "မုန်းကြ": 6386,
      "အဖိုးအဖီးရို့": 6387,
      "မိ့လျော့": 6388,
      "အမိနှင့်": 6389,
      "ပိလတ်မင်းသည်": 6390,
      "ကျေးဇူးတော်ကြောင့်": 6391,
      "ကယ်တင်ခြင်းခံရ": 6392,
      "သန့်ယှင်းသောဝိညာဉ်တော်အားဖြင့်": 6393,
      "ထည့်ဝင်": 6394,
      "ပုံဥပမာဆောင်": 6395,
      "ဘာသာစကားများဖြင့်": 6396,
      "အနာဂ": 6397,
      "လျှောက်ထားလေ": 6398,
      "အဲဂုတ္တုပြည်သို့": 6399,
      "ပုတ်ခတ်": 6400,
      "ဖတ်ရှု": 6401,
      "အမွှီး": 6402,
      "သီလွန်သောသူရို့သည်": 6403,
      "လက်ယာတော်ဖက်": 6404,
      "သူတိကိုလည်း": 6405,
      "အသျှင်ယေသျှုခရစ်": 6406,
      "မြင်တွိ့ဖို့": 6407,
      "မြည်းချေကို": 6408,
      "နောက်တစ်နိ့တွင်": 6409,
      "တစ်ယောက်ဖြစ်သည့်": 6410,
      "ဝင်ရောက်ကာ": 6411,
      "မကောင်းသောအကျင့်ကို": 6412,
      "လန့်ကာ": 6413,
      "ထွက်ခွာလားလေ": 6414,
      "အမွီကို": 6415,
      "ခန်းထဲသို့": 6416,
      "အထံတော်ပါးသို့": 6417,
      "ဤနီရာသို့": 6418,
      "ဇာလောက်ထိ": 6419,
      "ဘုန်းတန်ခိုးတော်ဖြင့်": 6420,
      "ကျော်လွန်": 6421,
      "ကျော်ဖြတ်": 6422,
      "စိတ်ဝိညာဉ်ကို": 6423,
      "ငိုကြွီးမြည်တမ်း": 6424,
      "သင်္ချိုင်းဂူသို့": 6425,
      "ဆောင်းထား": 6426,
      "ထည်ကို": 6427,
      "မလားကတ်ကေ့": 6428,
      "ရောင်ခြည်": 6429,
      "တပည့်တော်တိပါးသို့": 6430,
      "ခြံငှား": 6431,
      "ရပ်တည်ကြလော့": 6432,
      "မတရားသောအမှုကို": 6433,
      "ဘဏ္ဍာစိုး": 6434,
      "အခြေခံ": 6435,
      "ညီအစ်ကိုမောင်နှမကို": 6436,
      "ခပ်သိမ်းသောအရာများသည်": 6437,
      "နက်နဲသောအရာကို": 6438,
      "လျှို့ဝှက်စွာ": 6439,
      "သင်္ဂြိုဟ်ခြင်းကို": 6440,
      "မဖြစ်စီရ": 6441,
      "သဖန်းသီး": 6442,
      "များဖြစ်ကြသော": 6443,
      "ခွန်အားကြီး": 6444,
      "မနာလိုခြင်း": 6445,
      "မြက်ပင်": 6446,
      "လွတ်လပ်မှုကို": 6447,
      "နဂါးသည်": 6448,
      "တေးခြင်း": 6449,
      "တေးခြင်းကို": 6450,
      "အဝီးသို့": 6451,
      "အဝီးမှ": 6452,
      "မိုးတိမ်တိုက်": 6453,
      "ကြိတ်ဆုံ": 6454,
      "ယေဒါလေ့": 6455,
      "လက်မခံကြ": 6456,
      "တတိယအကြိမ်": 6457,
      "သွပ်": 6458,
      "အရှက်ရ": 6459,
      "သင်ရို့အားလုံးနှင့်အတူ": 6460,
      "အပြစ်ကင်းစင်": 6461,
      "ညစ်ညူးသော": 6462,
      "ဖြောင့်မတ်သောသူအဖြစ်": 6463,
      "ကဲသရိမြို့": 6464,
      "ကြိုးစားအားထုတ်ကြလော့": 6465,
      "ငြိမ်ဝပ်စွာ": 6466,
      "အရီဖျားလှီးခြင်းမင်္ဂလာကို": 6467,
      "လူထုပရိသတ်ရို့သည်": 6468,
      "ခြင်းသာဖြစ်": 6469,
      "စီမံခန့်ခွဲ": 6470,
      "လိုလားတောင့်တ": 6471,
      "လုပ်ဖော်ကိုင်ဖက်": 6472,
      "ဆီမွှီးကို": 6473,
      "ကတည်းကပင်": 6474,
      "အများကြီး": 6475,
      "ကြည်လင်သော": 6476,
      "ကျယ်သောအသံနှင့်": 6477,
      "ထိုအိမ်သည်": 6478,
      "အရီအတွက်အားဖြင့်": 6479,
      "မိမိမယားနှင့်": 6480,
      "အနိုင်အထက်": 6481,
      "နှောက်အယှက်": 6482,
      "ဇာမှာနည်း": 6483,
      "ဗာဗုလုန်မြို့": 6484,
      "ဖဲသာအိတ်": 6485,
      "အာကာပြင်မှ": 6486,
      "ခရစ်ယာန်ညီအစ်ကို": 6487,
      "ကန့်လန့်ကာ": 6488,
      "ကိုက်ညီ": 6489,
      "လောဘလွန်ကျူး": 6490,
      "စာလိပ်ကို": 6491,
      "ဒမာသက်မြို့": 6492,
      "အနှစ်တစ်ထောင်": 6493,
      "ပြိုလဲ": 6494,
      "ဖြစ်နိုင်လျှင်": 6495,
      "နိန်ခသည်ကိုလည်းကောင်း": 6496,
      "ဇာအချိန်အခါ": 6497,
      "ဇာအမှုကိုမျှ": 6498,
      "ချေပပြောဆို": 6499,
      "နောက်ဆုံးသောကာလ": 6500,
      "ဆွံ့အ": 6501,
      "လုပ်ခကို": 6502,
      "ဆွီမျိုးသားချင်း": 6503,
      "ခြိမ်းသံ": 6504,
      "သျှစ်ရက်": 6505,
      "ကိုယ်နှင့်စပ်ဆိုင်": 6506,
      "ကိုယ်နှင့်အမျှ": 6507,
      "မတ်တပ်ရပ်": 6508,
      "အကျိုးကျေးဇူးကို": 6509,
      "အဂြိပ္ပမင်းကြီး": 6510,
      "အေသင်": 6511,
      "တစ်ခုခုကို": 6512,
      "မြီကွက်ကို": 6513,
      "ခရီးဆက်ကြ": 6514,
      "ဟောပြောကြေညာ": 6515,
      "တလင်းဂ": 6516,
      "လောဒိကိမြို့": 6517,
      "ပျင်းရိ": 6518,
      "ထောင်ချောက်": 6519,
      "ကျမ်းစာလာသည်အတိုင်း": 6520,
      "အရင်းအမြစ်": 6521,
      "နိကောဒင်": 6522,
      "မှန်သောစကားကိုသာ": 6523,
      "အကျဉ်းကျခံနိန်ရ": 6524,
      "ဇိဒုန်မြို့": 6525,
      "မလိုအပ်ပေ": 6526,
      "စိတ်ဝမ်းကွဲပြား": 6527,
      "အာရုံစိုက်": 6528,
      "ထောင်မှူးသည်": 6529,
      "အစအဦးကပင်": 6530,
      "ပြတ်သားစွာ": 6531,
      "ဖေသာဒင်္ဂါး": 6532,
      "အလျင်အမြန်": 6533,
      "ချီဆောင်ခြင်းကို": 6534,
      "စကြဝဠာ": 6535,
      "ဖျာကို": 6536,
      "လတ္တံ့": 6537,
      "အထောက်အ": 6538,
      "ဖြစ်ရလေခြင်း": 6539,
      "ကိုယ်ထင်ပြတော်မူ": 6540,
      "စတုတ္ထ": 6541,
      "မတွန်ခင်": 6542,
      "ွှာ": 6543,
      "အသက်မရှင်": 6544,
      "ရီသောက်ငတ်": 6545,
      "ရက်ရောစွာ": 6546,
      "မြီဆီလွှာ": 6547,
      "ကပ်ကမ္ဘာကုန်ဆုံးချိန်": 6548,
      "ကွပ်မျက်": 6549,
      "ကရေတေကျွန်း": 6550,
      "ပရိတ်သတ်": 6551,
      "အညစ်အကြေး": 6552,
      "ဣကောန": 6553,
      "သို့စေကာမူ": 6554,
      "ကျိုင်းကောင်": 6555,
      "နာသနေလ": 6556,
      "အိမ်နီးချင်း": 6557,
      "အရပ်လေးမျက်နှာ": 6558,
      "ဝတ်ဖြူစင်ကြယ်": 6559,
      "ပြစ်ကိလ": 6560,
      "သြတ္တပ္ပ": 6561,
      "ဘေးဥပါဒ်": 6562,
      "ပစ္စုပ္ပန်": 6563,
      "ကစ": 6564,
      "ကလော": 6565,
      "ကနိန်": 6566,
      "ခကို": 6567,
      "ခိတ်": 6568,
      "ခူး": 6569,
      "ဂဏ": 6570,
      "ဂိ": 6571,
      "ဂံ": 6572,
      "ငန်": 6573,
      "ငိုက်": 6574,
      "စမ": 6575,
      "စုတ်": 6576,
      "ဆဋ္ဌမ": 6577,
      "ဇက္ခ": 6578,
      "ဉ္": 6579,
      "တပြိုင်နက်": 6580,
      "ထလာ": 6581,
      "ဓာ": 6582,
      "ဓား": 6583,
      "ပက်": 6584,
      "ပမ်": 6585,
      "ပဉ္": 6586,
      "ဗိ": 6587,
      "ဘ်": 6588,
      "ဘွဲ့": 6589,
      "မသ": 6590,
      "မော်": 6591,
      "မကြီး": 6592,
      "မထွက်": 6593,
      "မကြည့်": 6594,
      "မရီး": 6595,
      "မဖော်ပြ": 6596,
      "မကြိုးစား": 6597,
      "မနီး": 6598,
      "မငို": 6599,
      "မဆက်ဆံ": 6600,
      "မစစ်ကြော": 6601,
      "မဆွ": 6602,
      "ယက်": 6603,
      "ယဉ်": 6604,
      "ယခု": 6605,
      "ရယူ": 6606,
      "ရသောသူသည်": 6607,
      "ရခြင်းသည်": 6608,
      "ရဗေ": 6609,
      "ရမီ": 6610,
      "လိမ္မာ": 6611,
      "ဝိမ": 6612,
      "ဝအောင်": 6613,
      "သခ": 6614,
      "သသည်": 6615,
      "သလောက်": 6616,
      "ဟန့်": 6617,
      "အလာ": 6618,
      "အဆို": 6619,
      "အရု": 6620,
      "အစုံ": 6621,
      "အပိုင်": 6622,
      "အကုန်": 6623,
      "အစည်း": 6624,
      "အစိ့": 6625,
      "အပို": 6626,
      "အပိုင်း": 6627,
      "အဗြီး": 6628,
      "ဣရု": 6629,
      "ဣတလိ": 6630,
      "ဤလူမျိုး": 6631,
      "ဤအတိုင်း": 6632,
      "ဤသူ့ကို": 6633,
      "ဤဥပမာ": 6634,
      "ဤပုံဥပမာ": 6635,
      "ဤဘဝ": 6636,
      "ုဘ": 6637,
      "ွာ": 6638,
      "ဿနာ": 6639,
      "​၏။": 6640,
      "င်နှင့်": 6641,
      "ကြိုင်": 6642,
      "ကြန့်": 6643,
      "ကြိမ်း": 6644,
      "ကြသည့်အခါ": 6645,
      "ရို့တွင်": 6646,
      "ရို့ဖြစ်ကြ": 6647,
      "သောစကားကို": 6648,
      "တော်ဖြင့်": 6649,
      "ပြေ": 6650,
      "ပြလေ": 6651,
      "ပြပ်ဝပ်": 6652,
      "ပြဿနာ": 6653,
      "သူပြည်": 6654,
      "သူအပေါင်းရို့သည်": 6655,
      "ဖြည်း": 6656,
      "ခြယ်": 6657,
      "ခြုပ်": 6658,
      "နှမြ": 6659,
      "နှိမ်": 6660,
      "ငါက": 6661,
      "ငါမ": 6662,
      "ငါကလည်း": 6663,
      "ငါတောင်းပန်": 6664,
      "ငါဆိုလို": 6665,
      "ငါတွိ့ရ": 6666,
      "ငါအလိုဟိ": 6667,
      "ငါလာသည်": 6668,
      "ငါရီးလိုက်": 6669,
      "ငါပြုသောအမှုကို": 6670,
      "သို့ပိုင်": 6671,
      "သို့မှသာလျှင်": 6672,
      "ဖြစ်နိန်ကြ": 6673,
      "ဖြစ်ပေါ်": 6674,
      "ဖြစ်ခကြ": 6675,
      "ဖြစ်ခသည့်": 6676,
      "ဖြစ်မည်ကို": 6677,
      "ဖြစ်လာကြလိမ့်မည်": 6678,
      "သင်က": 6679,
      "သင်အား": 6680,
      "သင်မူကား": 6681,
      "သင်နှင့်အတူ": 6682,
      "သင်ကိုယ်တိုင်": 6683,
      "ခြင်းတရား": 6684,
      "ခြင်းများသည်": 6685,
      "ခြင်းခံရသော": 6686,
      "ခြင်းများဖြင့်": 6687,
      "ခြင်းဝေဒနာကို": 6688,
      "ထိုသူ့": 6689,
      "ထိုအမျိုး": 6690,
      "ထိုကျေးဇူးတော်ကို": 6691,
      "ထိုစာကို": 6692,
      "ထိုအသံကို": 6693,
      "ထိုအုတ်မြစ်": 6694,
      "ထိုနည်းအတိုင်း": 6695,
      "မျော": 6696,
      "အားကြီး": 6697,
      "အားလျော့": 6698,
      "ချည်း": 6699,
      "ချထားခ": 6700,
      "တိတွင်": 6701,
      "မြန်": 6702,
      "နှင့်သာ": 6703,
      "နှင့်မျှ": 6704,
      "နှင့်ပြည့်": 6705,
      "ဟိသူ": 6706,
      "ဟိခြင်း": 6707,
      "ဟိသတည်း": 6708,
      "ဟိသောသူတိကို": 6709,
      "ဟိရာသို့": 6710,
      "သျှဏ္": 6711,
      "ပါကြ": 6712,
      "ပါတကား": 6713,
      "ပါရမီ": 6714,
      "ခင်ပွန်း": 6715,
      "တွီး": 6716,
      "မည်ဆိုပါက": 6717,
      "တစ်ည": 6718,
      "တစ်ပတ်": 6719,
      "တစ်ဘက်": 6720,
      "စီသည့်": 6721,
      "စီလျက်": 6722,
      "စီကာ": 6723,
      "စီသောသူသည်": 6724,
      "စီပြီးမှ": 6725,
      "စီတော်မမူ": 6726,
      "များအားဖြင့်": 6727,
      "လူရို့က": 6728,
      "လူဟောင်း": 6729,
      "လူအချို့သည်": 6730,
      "လာသူ": 6731,
      "လာကြောင်းကို": 6732,
      "လာဘ်": 6733,
      "ကောင်းကောင်း": 6734,
      "ကောင်းပေ": 6735,
      "ကောင်းယာ": 6736,
      "ဘုရားသခင်ထံသို့": 6737,
      "ဘုရားသခင်ရှိ့တော်": 6738,
      "ဘုရားသခင်ပီးထားသော": 6739,
      "သင်ရို့ကား": 6740,
      "သင်ရို့ထဲ": 6741,
      "သင်ရို့အကြောင်းကို": 6742,
      "သင်ရို့ပါးက": 6743,
      "ကိုယ်ကျိုး": 6744,
      "သောသူဟု": 6745,
      "မ်းဖြင့်": 6746,
      "ယေရိ": 6747,
      "ယေဇူး": 6748,
      "လိုသိမ့်": 6749,
      "အသိုက်": 6750,
      "ယေသျှုထံ": 6751,
      "ယေသျှုနောက်သို့": 6752,
      "ပြောခ": 6753,
      "ပြောလို": 6754,
      "ပြောလိုက်": 6755,
      "ပြောစရာ": 6756,
      "နိန်လဲ": 6757,
      "နိန်ကြောင်းကို": 6758,
      "နိန်သည်ဖြစ်": 6759,
      "နိန်ခသော": 6760,
      "နိန်သောသူရို့": 6761,
      "နိန်သောကြောင့်ဖြစ်": 6762,
      "ထားစီ": 6763,
      "ထားလျှင်": 6764,
      "ထားသော်လည်း": 6765,
      "ထားပစ်": 6766,
      "သားနှစ်ယောက်ကို": 6767,
      "သူရို့မှာ": 6768,
      "သူရို့မူကား": 6769,
      "သူရို့ကိုယ်တိုင်": 6770,
      "သူရို့အဖို့": 6771,
      "သူရို့ထဲက": 6772,
      "သူရို့ပါးမှ": 6773,
      "သူရို့အထဲက": 6774,
      "ပီးတော်": 6775,
      "ပီးစီခြင်းငှာ": 6776,
      "လေဝိမ": 6777,
      "ပြုဆရာ": 6778,
      "ပြုပြင်": 6779,
      "ပြုသမျှကို": 6780,
      "ပြုရမည့်": 6781,
      "ပြုလေ့ဟိ": 6782,
      "မိမိအိမ်": 6783,
      "မိမိအဖို့": 6784,
      "မိမိထံသို့": 6785,
      "မိမိအိမ်သို့": 6786,
      "မိမိကိုင်ထားသော": 6787,
      "လားလျှင်": 6788,
      "လားကာ": 6789,
      "လားဖို့": 6790,
      "တရားတော်": 6791,
      "တရားများကို": 6792,
      "တရားလွှတ်": 6793,
      "ကိုယ်တော်နောက်သို့": 6794,
      "ဇာတ": 6795,
      "ဇာအမှု": 6796,
      "ဇာအကြောင်းကို": 6797,
      "ဇာအကျိုး": 6798,
      "ဇာအတွက်ကြောင့်": 6799,
      "ဇာတစ်ခုမျှ": 6800,
      "ဇာတွက်": 6801,
      "နိုင်သည်": 6802,
      "နိုင်လျှင်": 6803,
      "နိုင်အောင်": 6804,
      "နိုင်သကဲ့သို့": 6805,
      "ရန်သူများ": 6806,
      "သည့်အရာများကို": 6807,
      "အကြောင်းအရာတိကို": 6808,
      "အကြောင်းစုံကို": 6809,
      "ပေါ့": 6810,
      "နောက်တစ်ရက်": 6811,
      "ငါရို့အထဲ": 6812,
      "ကြီးပွား": 6813,
      "လိုက်လျှင်": 6814,
      "လိုက်လား": 6815,
      "လိုက်လားကြ": 6816,
      "လိုက်ရှာ": 6817,
      "တိကိုသာ": 6818,
      "မှုတိကို": 6819,
      "စားရ": 6820,
      "စားကြလော့": 6821,
      "စားနိန်ကြ": 6822,
      "ငါ့နာမကို": 6823,
      "ရောက်သော": 6824,
      "ရောက်စီခြင်းငှာ": 6825,
      "ရောက်သည့်တိုင်အောင်": 6826,
      "ိမ်သည်": 6827,
      "မြို့တစ်မြို့သို့": 6828,
      "မှာလည်း": 6829,
      "နာယူ": 6830,
      "နာတောင်": 6831,
      "နာကြင်": 6832,
      "သိရ": 6833,
      "သိသောအခါ": 6834,
      "သိရကြ": 6835,
      "သိသောကြောင့်ဖြစ်": 6836,
      "သိက္ခာ": 6837,
      "သိနာတောင်": 6838,
      "ငါသည်ကား": 6839,
      "သီထိုက်သော": 6840,
      "အပြန်": 6841,
      "ယှို့": 6842,
      "ယုံကြည်သောသူရို့": 6843,
      "ယုံကြည်ကြသောကြောင့်": 6844,
      "လက်တော်သို့": 6845,
      "လက်တစ်ဖက်": 6846,
      "လက်သီနိန်": 6847,
      "ယူကြလော့": 6848,
      "စိတ်သည်": 6849,
      "စိတ်ဆန္ဒ": 6850,
      "ထက်က": 6851,
      "ရပ်နိန်သည်ကို": 6852,
      "မိန်းလျှောက်လေ": 6853,
      "ကြားစရာ": 6854,
      "ပြန်လျှောက်ကြ": 6855,
      "ပြန်လျှောက်လေ": 6856,
      "ပြန်ပြောလေ": 6857,
      "သက်သက်": 6858,
      "လုပ်နိုင်": 6859,
      "လုပ်ရမည်နည်း": 6860,
      "အပြစ်ဒုစရိုက်": 6861,
      "နီကို": 6862,
      "နီသည်": 6863,
      "ညီမ": 6864,
      "ညီသော": 6865,
      "အကျွန်နှင့်": 6866,
      "အတွက်သာ": 6867,
      "ခံရသူ": 6868,
      "ခံရသဖြင့်": 6869,
      "ခံရသောသူသည်": 6870,
      "ခံရသည်မှာ": 6871,
      "ခံရမည်ကို": 6872,
      "ကောင်းကင်နိုင်ငံတော်သို့": 6873,
      "အသျှင်အား": 6874,
      "အမှုထမ်း": 6875,
      "တပည့်တိ": 6876,
      "နှစ်ဆ": 6877,
      "နှစ်ခွ": 6878,
      "အတူတူ": 6879,
      "အာဗေလ": 6880,
      "အာရုန်": 6881,
      "အလည်": 6882,
      "မဟိစီခြင်းငှာ": 6883,
      "တောင်းလေ": 6884,
      "တောင်းလျှောက်ကြ": 6885,
      "တောင်းအပြည့်": 6886,
      "တတ်သည့်": 6887,
      "တတ်စွမ်း": 6888,
      "နိ့အချိန်": 6889,
      "တင်ကြ": 6890,
      "ကတ်သိမ့်": 6891,
      "ခေါ်ကြ": 6892,
      "ခေါ်ခြင်းငှာ": 6893,
      "ခေါ်လားကြ": 6894,
      "ခေါ်ဆိုကြ": 6895,
      "ခေါ်ဖိတ်": 6896,
      "ပျံ": 6897,
      "ပျံ့": 6898,
      "ဟောထားခသော": 6899,
      "ဟောသျှဏ္": 6900,
      "ယာများ": 6901,
      "ယာသုန်": 6902,
      "ယာဣရု": 6903,
      "ရင်အုပ်": 6904,
      "ဝင်သော": 6905,
      "ဝင်တော်မူ": 6906,
      "ဝင်ခွင့်": 6907,
      "လျှောက်လျှင်": 6908,
      "လျှောက်သော်": 6909,
      "တပည့်တော်နှစ်ယောက်": 6910,
      "တပည့်တော်တစ်ဆယ့်နှစ်ပါး": 6911,
      "တွိ့ရသော": 6912,
      "ထို့နောက်မှ": 6913,
      "ကိုယ်တော်သည်လည်း": 6914,
      "ထွက်ဆို": 6915,
      "ထွက်ပြီးလျှင်": 6916,
      "ထွက်လာသော": 6917,
      "ထွက်လာသောအခါ": 6918,
      "ကဲ့သို့ဖြစ်": 6919,
      "ကဲ့သို့လည်းကောင်း": 6920,
      "အိမ်တော်ကို": 6921,
      "အိမ်တော်သို့": 6922,
      "အိမ်သျှင်သည်": 6923,
      "မြောက်သော": 6924,
      "ဘဲနိန်ကြ": 6925,
      "စဉ်လာ": 6926,
      "စဉ်မျိုးဆက်": 6927,
      "ယုဒဘာသာ": 6928,
      "သူ့အတွက်": 6929,
      "ဟောပြောရမည်": 6930,
      "ဟောပြောသက်သီခံ": 6931,
      "ထိုသို့မဟုတ်": 6932,
      "ထိုသို့ဆိုသော်": 6933,
      "အချိန်အင်တန်ကြာ": 6934,
      "သတ်ကြ": 6935,
      "သတ်သောသူ": 6936,
      "သတ်ပြီး": 6937,
      "သင့်ပေ": 6938,
      "လာကြသည့်": 6939,
      "ဦးဂြို": 6940,
      "ပတ်စည်း": 6941,
      "ပတ်ရစ်": 6942,
      "ထံပါးက": 6943,
      "ပညတ်တော်သည်": 6944,
      "ပုန်း": 6945,
      "အဂုဘဝ": 6946,
      "သခင်ဘုရားသည်လည်း": 6947,
      "ရီကြီး": 6948,
      "ရီအားဖြင့်": 6949,
      "ရီငတ်": 6950,
      "ကျမ်းပြုဆရာ": 6951,
      "ပြောဆိုနိန်ကြသည်ကို": 6952,
      "ရွှတ်ပီး": 6953,
      "ယောသျှု": 6954,
      "အရပ်ကို": 6955,
      "ဆင်းလာသည်ကို": 6956,
      "ကြလိမ့်မည်ဟု": 6957,
      "ကျေးဇူးတရား": 6958,
      "တည်တော်မူ": 6959,
      "တည်လိမ့်မည်": 6960,
      "တည်စီခြင်းငှာ": 6961,
      "တည်မြဲ": 6962,
      "သန့်စင်": 6963,
      "တစ်ခုလေ့": 6964,
      "ထားသောကျောက်": 6965,
      "ငြား": 6966,
      "ချစ်သောကြောင့်": 6967,
      "ချစ်တော်မူသော": 6968,
      "ဖန်များစွာ": 6969,
      "သန့်ယှင်းတော်မူ": 6970,
      "သန့်ယှင်းမြင့်မြတ်": 6971,
      "ဆိုးသော": 6972,
      "တန်ခိုးအားဖြင့်": 6973,
      "တန်ခိုးကြီးသော": 6974,
      "ဖြစ်ကြသည့်": 6975,
      "ဖြစ်ကြပြီးလျှင်": 6976,
      "မင်းက": 6977,
      "ယဇ်ပရော": 6978,
      "မြီခွီး": 6979,
      "မည့်အချိန်": 6980,
      "တစ်ပါးသော": 6981,
      "မိန်းမအား": 6982,
      "မိန်းမတိကို": 6983,
      "အသက်ရှင်ခ": 6984,
      "အသက်ရှင်ခြင်းသို့": 6985,
      "လောကနှင့်": 6986,
      "လောကထဲသို့": 6987,
      "နှုတ်တော်": 6988,
      "တိုင်းတွင်": 6989,
      "တိုင်းပြည်": 6990,
      "တချို့မှာ": 6991,
      "အလိုဟိတော်မူ": 6992,
      "သတင်းကို": 6993,
      "သတင်းတော်ကို": 6994,
      "ဖြစ်စီတော်မူ": 6995,
      "လမ်းမှ": 6996,
      "လမ်းဖြင့်": 6997,
      "ငယ်ကို": 6998,
      "သုံးနှစ်": 6999,
      "ကြည့်နိန်ကြ": 7000,
      "အခြားသောသူ": 7001,
      "ကောင်းကင်တမန်ကို": 7002,
      "ကောင်းကင်တမန်ရို့": 7003,
      "ကောင်းကင်တမန်အား": 7004,
      "မှတ်တော်မူ": 7005,
      "ရောက်လာသော": 7006,
      "ရောက်လာခြင်းဖြစ်": 7007,
      "စောင့်ကြပ်": 7008,
      "စောင့်ဆိုင်း": 7009,
      "အုပ်စိုးရ": 7010,
      "ကာလတိုင်အောင်": 7011,
      "ဟန်ဆောင်": 7012,
      "စီရန်အတွက်": 7013,
      "ဆုတောင်းပီးကြ": 7014,
      "နတ်မိစ္ဆာ": 7015,
      "သိမ်းသွင်း": 7016,
      "ယောဟန်ရို့ကို": 7017,
      "အံ့သော": 7018,
      "အံ့မော": 7019,
      "ကပ်ကာလ": 7020,
      "သူ့ကိုလည်း": 7021,
      "ရီးထားခ": 7022,
      "ရီးပီးလိုက်": 7023,
      "ဤသို့ဆိုလျှင်": 7024,
      "အလွန်ဝမ်းမြောက်": 7025,
      "အမှန်အားဖြင့်": 7026,
      "အမှန်တရားကို": 7027,
      "ကယ်တင်ခြင်းငှာ": 7028,
      "ကယ်တင်ခြင်းသည်": 7029,
      "ခါမှ": 7030,
      "တိုက်ခတ်": 7031,
      "သည်ဖြစ်သောကြောင့်": 7032,
      "လုပ်ဆောင်လျက်ဟိသော": 7033,
      "အနမ်းဖြင့်": 7034,
      "ကျမ်းစာတော်": 7035,
      "ခံယူတော်မူ": 7036,
      "ခံယူပြီး": 7037,
      "ခံယူပြီးလျှင်": 7038,
      "မြီကြီးသည်": 7039,
      "မြီကြီးသို့": 7040,
      "သျှေကို": 7041,
      "ဝိညာဉ်တော်တန်ခိုးဖြင့်": 7042,
      "လွန်ပြီးနောက်": 7043,
      "လွန်ကြူး": 7044,
      "ဖြောင့်မတ်ခြင်းကို": 7045,
      "ဖြောင့်မတ်သောသူသည်": 7046,
      "ဆင်ယင်": 7047,
      "သွန်ချလိုက်": 7048,
      "ဂါယု": 7049,
      "စီရွှတ်ရန်": 7050,
      "ဇာပိုင်မျိုး": 7051,
      "မီးရှ": 7052,
      "မီးထဲသို့": 7053,
      "မီးကောက်": 7054,
      "မီးလှုံ": 7055,
      "မီးယှို့": 7056,
      "သီးသော": 7057,
      "သီးနှင့်": 7058,
      "ကြွလာမည်": 7059,
      "ကြွလာတော်မူပါ": 7060,
      "နီထိုင်သူ": 7061,
      "သွန်သင်ခြင်း": 7062,
      "သွန်သင်ပီး": 7063,
      "အမှုကိုသာ": 7064,
      "ကင်းမီးကောက်": 7065,
      "စီးပွား": 7066,
      "ခြီနှင့်": 7067,
      "ပြည့်စုံစီ": 7068,
      "ပြည့်စုံလျက်": 7069,
      "ပြည့်စုံလာခြင်းဖြစ်": 7070,
      "လူသားတိ": 7071,
      "လူသားအားလုံး": 7072,
      "လူသားအားလုံးကို": 7073,
      "အသီကောင်": 7074,
      "အသင်းတော်သည်": 7075,
      "စိတ်နှလုံးနှိမ့်ချ": 7076,
      "ပညာမဲ့": 7077,
      "ယင်းအတွက်ကြောင့်": 7078,
      "ယင်းသူကို": 7079,
      "သတိရကြ": 7080,
      "သတိပီးလိုက်": 7081,
      "ပြီလော": 7082,
      "ပြီဖြစ်ကြောင်း": 7083,
      "ကိုယ်တိုင်လည်း": 7084,
      "ဇာကြောင့်လဲဆိုကေ": 7085,
      "ဆောင်ရွက်ရာ": 7086,
      "ဆောင်ရွက်ကြလော့": 7087,
      "မျက်စိများ": 7088,
      "တ္တာခု": 7089,
      "ကုန်သည်": 7090,
      "တုခိတ်": 7091,
      "တောင်ဖက်": 7092,
      "တောင်မွိ့": 7093,
      "မပြုရ": 7094,
      "မပြုရန်": 7095,
      "မပြုစု": 7096,
      "အကျွန်ရို့အတွက်": 7097,
      "ကောင်းသောအသီးကို": 7098,
      "မောရ": 7099,
      "ဟေရ": 7100,
      "ယုဒလူမျိုးတိက": 7101,
      "လျက်ဟိပါ": 7102,
      "သိမ့်ပေ": 7103,
      "ကျင့်လျှင်": 7104,
      "ကျောက်ဆောင်": 7105,
      "ကျောက်မျက်": 7106,
      "ကျောက်ဖြူ": 7107,
      "ကျောက်ဆူး": 7108,
      "တမန်တော်အဖြစ်": 7109,
      "တမန်တော်တိအား": 7110,
      "ကတိတော်နှင့်": 7111,
      "ကတိထားတော်မူ": 7112,
      "မေတ္တာတော်သည်": 7113,
      "အမြွှာ": 7114,
      "ပညတ်တရားအတိုင်း": 7115,
      "ပညတ်တရားအရ": 7116,
      "အကျိုးအလို့ငှာ": 7117,
      "ကြိုးစားလေ": 7118,
      "လေးယောက်": 7119,
      "အစာမစား": 7120,
      "သူငယ်အား": 7121,
      "နာမကြောင့်": 7122,
      "အကြပ်": 7123,
      "ပူဇော်ထားသော": 7124,
      "ကမ်းသို့": 7125,
      "မုန့်နှင့်": 7126,
      "မသိဟု": 7127,
      "မသိနိုင်": 7128,
      "မသိသောကြောင့်": 7129,
      "ထင်ရှားစီရန်": 7130,
      "ထင်ရှားပြတော်မူ": 7131,
      "ခါးကို": 7132,
      "ယုံကြည်သူတိကို": 7133,
      "ယုံကြည်သူဖြစ်သော": 7134,
      "အသင်းတော်များ": 7135,
      "သစ္စာစောင့်": 7136,
      "သစ္စာဟိတော်မူ": 7137,
      "ချေတိကို": 7138,
      "ချေလောက်": 7139,
      "မြင်ရသည့်": 7140,
      "လီစွ": 7141,
      "ထောက်ထား": 7142,
      "အောက်တွင်": 7143,
      "လက်ခံကြ": 7144,
      "ကောင်းကင်ဘုံနှင့်ဆိုင်သော": 7145,
      "သမ္မာသတိ": 7146,
      "ထိုအသျှင်နှင့်အတူ": 7147,
      "ခွံ": 7148,
      "စွန့်တော်မူ": 7149,
      "မဲ့မုန့်": 7150,
      "တရားစီရင်သော": 7151,
      "တရားစီရင်မည့်": 7152,
      "ငါရို့ကိုလည်း": 7153,
      "အာဗြဟံက": 7154,
      "အာဗြဟံနှင့်": 7155,
      "ဖာရိယှဲရို့နှင့်": 7156,
      "ဖာရိယှဲတချို့သည်": 7157,
      "ဟိသမျှသည်": 7158,
      "အရောင်": 7159,
      "တစ်စုံတစ်ရာ": 7160,
      "တစ်စုံတစ်ယောက်သောသူက": 7161,
      "သနားခြင်း": 7162,
      "ကျွန်နှင့်": 7163,
      "ကျွန်ခံ": 7164,
      "ကြွတော်မူရာ": 7165,
      "မရို": 7166,
      "အယင်ဦးစွာ": 7167,
      "ငွီကြေး": 7168,
      "ခမည်းတော်ထံသို့": 7169,
      "အစနှင့်": 7170,
      "အထက်က": 7171,
      "ခုနစ်ကြိမ်": 7172,
      "ဉာဏ်အမြော်အမြင်": 7173,
      "ငါးကို": 7174,
      "ငါးယောက်": 7175,
      "ငါးဆယ်": 7176,
      "လျုန်": 7177,
      "ဖြစ်လာသော": 7178,
      "ဆွီစဉ်မျိုးဆက်": 7179,
      "လက်ဝါးကပ်တိုင်ထက်မှာ": 7180,
      "ဖြစ်သောကြောင့်တည်း": 7181,
      "မာရိအား": 7182,
      "အဝတ်တော်ကို": 7183,
      "အဝတ်များကို": 7184,
      "ရွာသူ": 7185,
      "ကျန်းမာခြင်းကို": 7186,
      "ပြားကို": 7187,
      "ကူညီခြင်းငှာ": 7188,
      "သျှိမုန်ဟု": 7189,
      "သျှိမုန်ပေတရုက": 7190,
      "ယေရုဆလင်မြို့တွင်": 7191,
      "နိမိတ်လက္ခဏာနှင့်": 7192,
      "ကြားရသောအခါ": 7193,
      "ပြောပြမည်": 7194,
      "ပြစ်မှားပြောဆို": 7195,
      "ဂေါင်းကို": 7196,
      "ဤလောကမှ": 7197,
      "ဤလောကထဲသို့": 7198,
      "နိ့ရက်သည်": 7199,
      "ဆန့်ကျင်သော": 7200,
      "ဆန့်ကျင်လျက်": 7201,
      "ဖန်ဆင်းထားတော်မူ": 7202,
      "ဂါလိလဲနယ်": 7203,
      "ကြီးမြတ်သောသူ": 7204,
      "အမိန့်အာဏာ": 7205,
      "အမိန့်တော်အားဖြင့်": 7206,
      "ဖြစ်သည်ဟူ": 7207,
      "အသွီးတော်ကို": 7208,
      "အသွီးကိုလည်းကောင်း": 7209,
      "ယောက်ျားကို": 7210,
      "တတ်သောသဘော": 7211,
      "ဆယ်ယောက်": 7212,
      "တံခါး": 7213,
      "ဒေရဗေ": 7214,
      "သောသူဖြစ်ပြီး": 7215,
      "အတွင်းမှာ": 7216,
      "မေသျှိယကို": 7217,
      "ထိုမိန်းမရို့သည်": 7218,
      "သျှင်ဘုရင်သည်": 7219,
      "ပီးအပ်တော်မူ": 7220,
      "ပျော်ပွဲ": 7221,
      "ပျော်မွိ့": 7222,
      "မျက်နှာသစ်": 7223,
      "တရားဇရပ်များတွင်": 7224,
      "ကြိမ်ဖန်များစွာ": 7225,
      "ရောဂါသည်": 7226,
      "အိမ်သို့ပြန်": 7227,
      "တော်မမူဘဲ": 7228,
      "တစ်နိ့တွင်": 7229,
      "ဣသရေလလူမျိုးတိကို": 7230,
      "ဣသရေလလူမျိုးတိနှင့်": 7231,
      "ပထမအကြိမ်": 7232,
      "မခံနိုင်": 7233,
      "ထိုအချိန်ကား": 7234,
      "တွင်းကို": 7235,
      "သောသူများဖြစ်": 7236,
      "လို့ဟိလျှင်": 7237,
      "ကျန်သော": 7238,
      "ဘုရားသခင်ထံတော်": 7239,
      "ဘုရားသခင်ထံတော်သို့": 7240,
      "ပြောကြသနည်း": 7241,
      "လောကီသားရို့သည်": 7242,
      "ဖြေကြ": 7243,
      "မာရ်နတ်ကို": 7244,
      "သူတစ်ပါးအား": 7245,
      "ဖမ်းဆီးကာ": 7246,
      "ဖမ်းဆီးပြီးလျှင်": 7247,
      "ထပ်ဆင့်": 7248,
      "သည်နှင့်တပြိုင်နက်": 7249,
      "ကွဲလေ": 7250,
      "အုပ်စိုးတော်မူ": 7251,
      "ဟေရုဒ်မင်းသည်": 7252,
      "ကရုဏာတော်နှင့်": 7253,
      "ဆီမီး": 7254,
      "ယှောင်ကြလော့": 7255,
      "ထူးခြား": 7256,
      "ထူးဆန်း": 7257,
      "သွီးသွန်": 7258,
      "ပြုမူနီထိုင်": 7259,
      "ကတ်ပါလဲ": 7260,
      "အသီခံတော်မူခြင်း": 7261,
      "နီးလာ": 7262,
      "မယုံကြည်ကြ": 7263,
      "မယုံကြည်သောကြောင့်": 7264,
      "ကောင်းမြတ်သည့်": 7265,
      "ဖျက်ဆီးခြင်းငှာ": 7266,
      "တိုးတက်": 7267,
      "မည်သို့မျှ": 7268,
      "မည်သို့နည်း": 7269,
      "ပြုတော်မူခ": 7270,
      "ပြည့်ဝလျက်": 7271,
      "ပြည့်ဝစွာ": 7272,
      "ပြည့်ဝပြီးလျှင်": 7273,
      "အထဲတွင်": 7274,
      "သားရဲတိရစ္ဆာန်": 7275,
      "သမ္မာတရားသည်": 7276,
      "ချစ်ခြင်းမေတ္တာကို": 7277,
      "ချစ်ခြင်းမေတ္တာနှင့်": 7278,
      "ပိတ်ပင်": 7279,
      "ငါပြောသည့်": 7280,
      "မည်သည့်အရာကိုမျှ": 7281,
      "ဇာတိခန္ဓာ": 7282,
      "ယောသပ်အား": 7283,
      "ယောသပ်နှင့်": 7284,
      "ရုပ်တုဆင်း": 7285,
      "နယ်သို့": 7286,
      "ကြွလာတော်မူမည့်": 7287,
      "နောင်တရကြ": 7288,
      "တိတ်တိတ်": 7289,
      "အပ်နှံကြ": 7290,
      "အပ်နှံခြင်းကို": 7291,
      "ဆင်းရဲဒုက္ခရောက်": 7292,
      "ခိုင်းလိုက်": 7293,
      "ပင်လယ်ထဲသို့": 7294,
      "အချို့က": 7295,
      "သီခြင်းတရားသို့": 7296,
      "သရော်": 7297,
      "အမျက်ထွက်": 7298,
      "သျှာလ": 7299,
      "ရွှတ်လိုက်သော": 7300,
      "ခြင်းဖြင့်လည်းကောင်း": 7301,
      "နိုင်ပါဖို့လဲ": 7302,
      "တပ်မှူးက": 7303,
      "အဖိုးအဖီးရို့သည်": 7304,
      "မမြင်နိုင်သော": 7305,
      "အမိကို": 7306,
      "ထိုအရာသည်": 7307,
      "ပီးပါမည်": 7308,
      "ပေါ်ထွန်းလာလိမ့်မည်": 7309,
      "မကြာမကြာ": 7310,
      "မကြာခဏ": 7311,
      "ကျွေးမွီး": 7312,
      "မှောင်မိုက်အတိ": 7313,
      "ဤနိ့ည": 7314,
      "ထွက်လာကြလော့": 7315,
      "သန့်ယှင်းသောဝိညာဉ်တော်က": 7316,
      "နှိပ်စက်ခြင်းကို": 7317,
      "နှိပ်စက်ညှဉ်းဆဲ": 7318,
      "ဆိပ်ကမ်း": 7319,
      "အသင့်ပျင်": 7320,
      "ခပါလဲ": 7321,
      "ကဲ့ရဲ့ပြောဆိုကြ": 7322,
      "ယဇ်ပုရောဟိတ်အကြီးအကဲတိနှင့်": 7323,
      "ခံစားရကြလိမ့်မည်": 7324,
      "ဖခင်က": 7325,
      "ဖခင်အား": 7326,
      "မင်္ဂလာဟိစီသတည်း": 7327,
      "အခွင့်အာဏာဖြင့်": 7328,
      "သျှောလုကို": 7329,
      "မရောက်သိမ့်": 7330,
      "ခြောက်လ": 7331,
      "ခြောက်ဆယ်": 7332,
      "သီလွန်သောသူရို့": 7333,
      "တီးမှုတ်": 7334,
      "အဆွီခင်ပွန်း": 7335,
      "ရောင်းဝယ်": 7336,
      "အနွယ်ဝင်": 7337,
      "ကျမ်းစာတော်မြတ်က": 7338,
      "ဖုံးကွယ်": 7339,
      "မြင်တွိ့ကြရလိမ့်မည်": 7340,
      "တပည့်တော်ရို့ပါးသို့": 7341,
      "ထာဝရဘုရားကို": 7342,
      "အကြံအစည်ကို": 7343,
      "အကြံအစည်တော်ကို": 7344,
      "ညွှန်း": 7345,
      "တာယှု": 7346,
      "တဲတော်ကို": 7347,
      "ငှက်တိ": 7348,
      "ကြားနာရ": 7349,
      "ဆုံးဖြတ်ချက်": 7350,
      "အခွန်ကောက်ခံ": 7351,
      "အပြစ်တင်ကြ": 7352,
      "အပြစ်တင်စွပ်စွဲ": 7353,
      "ဝတ်ဆင်ကြလော့": 7354,
      "ဝတ်ဆင်ထားသော": 7355,
      "မိတ်ဆွီရို့": 7356,
      "မကောင်းသောအမှု": 7357,
      "လူအပေါင်းရို့ရှိ့": 7358,
      "ကာမဂုဏ်ခံစား": 7359,
      "တပ်မက်စိတ်": 7360,
      "အမှုတော်ဆောင်ရွက်": 7361,
      "ထိုင်နိန်လော့": 7362,
      "ကုန်းမြီ": 7363,
      "ဧလိယသည်": 7364,
      "ကြွေးကြော်လေ": 7365,
      "ဆောင်းရာသီ": 7366,
      "ဒိပြည်": 7367,
      "အစောင့်တပ်": 7368,
      "ခြင်းခံရသည်ကို": 7369,
      "ပီးသနားတော်မူ": 7370,
      "တပည့်တော်တိကလည်း": 7371,
      "လိမ်လည်ပြောဆို": 7372,
      "တောကန္တာရသို့": 7373,
      "ကိန်းဂဏ": 7374,
      "ဤအရာသည်": 7375,
      "ရှီးဦးစွာ": 7376,
      "နှစ်သိမ့်ခြင်းကို": 7377,
      "တတ်နိုင်တော်မူ": 7378,
      "အံ့ဩကြ": 7379,
      "အံ့ဩဖွယ်": 7380,
      "ဘဏ္ဍာတိုက်": 7381,
      "သိလသည်": 7382,
      "ပလ္လင်တော်ရှိ့": 7383,
      "ခပ်သိမ်းသောအရာတိကို": 7384,
      "ခပ်သိမ်းသောအရာများကို": 7385,
      "မကောင်းမှု": 7386,
      "ဖီးနှင့်": 7387,
      "ရသည့်အကြောင်းမှာ": 7388,
      "ဝက်တိ": 7389,
      "ဝက်အုပ်": 7390,
      "မွှီးကြိုင်": 7391,
      "ပညတ်တော်တိကို": 7392,
      "မဖြစ်စီဘဲ": 7393,
      "ပြိုင်ပွဲ": 7394,
      "တစ်ကိုယ်လုံး": 7395,
      "များဖြစ်ကြပြီး": 7396,
      "သတ်မှတ်ထားသော": 7397,
      "ခွန်အားနှင့်": 7398,
      "မနာလိုစိတ်": 7399,
      "လွယ်အိတ်": 7400,
      "ဝံ့ကြပေ": 7401,
      "ဆက်ကပ်အပ်နှံ": 7402,
      "တစ်ဆယ့်နှစ်ပါးကို": 7403,
      "စိတ်အားထက်သန်စွာ": 7404,
      "တဆီးမဲ့မုန့်": 7405,
      "ဟေသျှာယက": 7406,
      "ခံထိုက်သော": 7407,
      "ပေရဂံ": 7408,
      "အနီးအနား": 7409,
      "အနီးအပါး": 7410,
      "ဂုဏ်ယူဝါကြွား": 7411,
      "ကျယ်လောင်သော": 7412,
      "ဣဇာက်ကို": 7413,
      "ဂရုမစိုက်ဘဲ": 7414,
      "မခံယူခင်": 7415,
      "အရှက်ရစီခြင်းငှာ": 7416,
      "လူအုပ်ကြီးကို": 7417,
      "လမ်းခရီးကို": 7418,
      "အနာရောဂါများကို": 7419,
      "ပြန့်နှံ့လေ": 7420,
      "ယှာမာရိပြည်": 7421,
      "မကျင့်ချင်သော": 7422,
      "အကောင်းဆုံးသော": 7423,
      "အကောင်းပကတိ": 7424,
      "ယုဒအာဏာပိုင်ရို့သည်": 7425,
      "မထားဘဲ": 7426,
      "ကြက်မတွန်ခင်": 7427,
      "တိတုသည်": 7428,
      "လူငယ်ကို": 7429,
      "ခေါ်ယူတော်မူခြင်းကို": 7430,
      "အိမ်တော်ဝင်း": 7431,
      "ဟေလသလူမျိုး": 7432,
      "လှည့်စားခြင်းကို": 7433,
      "လေးပါးရို့သည်": 7434,
      "တံပိုးခရာမှုတ်": 7435,
      "ဧဝံဂေလိတရားကို": 7436,
      "အယူခံ": 7437,
      "အလယ်တွင်": 7438,
      "ယုဒအမျိုးသားရို့": 7439,
      "သံကြိုးများဖြင့်": 7440,
      "ခေတ္တ": 7441,
      "လျှာကို": 7442,
      "သစ္စာနှင့်ပြည့်စုံ": 7443,
      "ဘာသာရေးခေါင်းဆောင်": 7444,
      "နားမထောင်လျှင်": 7445,
      "ပြစ်ဒဏ်စီရင်ခြင်းကို": 7446,
      "ရည်ရွယ်ချက်ဖြင့်": 7447,
      "မိစ္ဆာပရောဖက်": 7448,
      "ခဖူးသော": 7449,
      "ဓါးပြ": 7450,
      "အတိတ်ကာလ": 7451,
      "မြို့ကြီးသည်": 7452,
      "စိတ်မပျက်": 7453,
      "တည်နိန်သည်ကိုလည်းကောင်း": 7454,
      "မြွက်ဆိုတော်မူ": 7455,
      "ကပေရနောင်မြို့": 7456,
      "ကန့်နှင့်ရော": 7457,
      "အံသွား": 7458,
      "အသက်ကြီးသူ": 7459,
      "ပညတ်ကျမ်းနှင့်": 7460,
      "စပျစ်သီးနယ်": 7461,
      "မကြားဖူး": 7462,
      "တစ်ချိန်က": 7463,
      "တစ်ချိန်တည်း": 7464,
      "သုံးကြိမ်တိုင်တိုင်": 7465,
      "ကျင့်ကြံပြုမူ": 7466,
      "လေးဆယ်ပတ်လုံး": 7467,
      "ညှဉ်းပန်းနှိပ်စက်ခြင်းကို": 7468,
      "ဒေါသထွက်ခြင်း": 7469,
      "အကူအညီကို": 7470,
      "စွန်းမှ": 7471,
      "တိုတောင်း": 7472,
      "မနိန်ကတ်ကေ့": 7473,
      "ဖြန့်ခင်း": 7474,
      "ဟေဗြဲဘာသာ": 7475,
      "ကိလေသာစိတ်": 7476,
      "မင်္ဂလာဆောင်သတို့သား": 7477,
      "နှိုင်းပြ": 7478,
      "ဗာရဗ္ဗကို": 7479,
      "မာဂဒလရွာသူ": 7480,
      "မထင်ကတ်ကေ့": 7481,
      "အငှားသမား": 7482,
      "ဘုရားတရားမဲ့သော": 7483,
      "အတင်းပြော": 7484,
      "တိုင်းနိုင်ငံအသီးသီး": 7485,
      "မုသာကို": 7486,
      "နက်ဖြန်နိ့": 7487,
      "နက်ဖြန်ခါ": 7488,
      "တစ်ဆူတည်းသော": 7489,
      "ရှက်ကြောက်ခြင်း": 7490,
      "ဟောပြောကြေငြာ": 7491,
      "လုံခြုံစွာ": 7492,
      "ထုံးတမ်းစဉ်လာ": 7493,
      "ကြေနပ်စီခြင်းငှာ": 7494,
      "သံလွင်တောင်သို့": 7495,
      "နူးညံ့သိမ်မွိ့သော": 7496,
      "ခြီတော်ရင်းတွင်": 7497,
      "မသတ်ရ": 7498,
      "တရားရုံးသို့": 7499,
      "တရားမျှတမှု": 7500,
      "တစ်ယောက်ယောက်က": 7501,
      "ကတိပီးထားတော်မူ": 7502,
      "မိတ်သဟာယဖွဲ့": 7503,
      "ယှောင်ယှားလော့": 7504,
      "ညှိုးနွမ်းခြောက်သွိ့": 7505,
      "နောဧသည်": 7506,
      "နက္ခတ်ပညာဟိ": 7507,
      "ဆူပူ": 7508,
      "မရကြပေ": 7509,
      "ျိုးနွယ်": 7510,
      "လူနာကို": 7511,
      "အချိန်တန်သောအခါ": 7512,
      "ငါးနှစ်ကောင်": 7513,
      "စက်ဆုပ်ရွံ": 7514,
      "မြင်းစီးသူရဲ": 7515,
      "ရူးသွပ်": 7516,
      "သဘာဝ": 7517,
      "အပူဟိ": 7518,
      "အစိုးရသော": 7519,
      "သောက်စားမူးယစ်": 7520,
      "သောက်ကြူးသောသူ": 7521,
      "မျိုးစိ့ကြဲသောသူသည်": 7522,
      "ဟိမည်နည်း": 7523,
      "စသည်ဖြင့်": 7524,
      "မထောက်ဘဲ": 7525,
      "ယခင်က": 7526,
      "အနိန်ဖြင့်": 7527,
      "အနီရောင်": 7528,
      "အစစ်အမှန်": 7529,
      "ဧကန်အမှန်": 7530,
      "ဇာနီရာမှာ": 7531,
      "ရန်သူ့လက်သို့": 7532,
      "အာလဖဲ": 7533,
      "ယုဒသျှကာရုတ်": 7534,
      "သတ်ပစ်လိုက်ပါ": 7535,
      "အခွင့်ထူးကို": 7536,
      "ခရီးဦးကြို": 7537,
      "ငတ်မွတ်ခေါင်းပါးခြင်း": 7538,
      "တစ်စိတ်တစ်ဝမ်း": 7539,
      "ဧပဖြ": 7540,
      "အသန့်ယှင်းဆုံးသော": 7541,
      "မျိုးစိများ": 7542,
      "တစ်ယောက်ပြီးတစ်ယောက်": 7543,
      "အာရိတ္တာခု": 7544,
      "အာတေမိ": 7545,
      "မိုးကြိုးခြိမ်းသံ": 7546,
      "လီနှင့်လှိုင်း": 7547,
      "လီတိုက်ရာသို့": 7548,
      "ဗာလမ်": 7549,
      "ဝမ်းနည်းပူဆွီး": 7550,
      "ထည့်ဝင်လှူဒါန်း": 7551,
      "ကိုယ်နှင့်စပ်ဆိုင်သောသူကို": 7552,
      "တလင်းဂနီနိ့": 7553,
      "ဇက္ခဲ": 7554,
      "ဓာတ်": 7555,
      "ပမ်ဖု": 7556,
      "ပဉ္စမ": 7557,
      "မသိမမြင်": 7558,
      "မနီးမဝီး": 7559,
      "ဟန့်တား": 7560,
      "အရုဏ်": 7561,
      "ကြန့်ကြာ": 7562,
      "သို့ပိုင်သျှောင်": 7563,
      "ယေရိခေါ": 7564,
      "ယေဇူးနန့်": 7565,
      "လေဝိမျိုးနွယ်": 7566,
      "ကြားစရာနား": 7567,
      "ပျံ့နှံ့": 7568,
      "ဟောသျှဏ္ဏ": 7569,
      "ရင်အုပ်တန်ဆာ": 7570,
      "ယဇ်ပရောဟိတ်": 7571,
      "ကိန်းဂဏန်း": 7572,
      "ကန့်နှင့်ရောသော": 7573,
      ")။": 7574,
      "ကွန်": 7575,
      "ခလဲ": 7576,
      "ခသဖြင့်": 7577,
      "ခသမျှ": 7578,
      "ခသောကြောင့်ဖြစ်": 7579,
      "ခသူဖြစ်": 7580,
      "ခစဉ်က": 7581,
      "ဂို": 7582,
      "ငင်": 7583,
      "ငလျှင်": 7584,
      "စင်း": 7585,
      "စသော": 7586,
      "စနှင့်": 7587,
      "စလုံး": 7588,
      "စူး": 7589,
      "စရိတ်": 7590,
      "စလုံးသည်": 7591,
      "ညူ": 7592,
      "ညိတ်": 7593,
      "ဋ်": 7594,
      "ဏ်း": 7595,
      "တဲ့": 7596,
      "တယူ": 7597,
      "တစိုက်": 7598,
      "တဆိတ်": 7599,
      "တရံ": 7600,
      "ထသော": 7601,
      "ထွန်": 7602,
      "ထွာ": 7603,
      "ဒြ": 7604,
      "ဒပ်": 7605,
      "ဒဏ္ဍာ": 7606,
      "နနှင့်": 7607,
      "နွီး": 7608,
      "နဒပ်": 7609,
      "ပီ": 7610,
      "ပမာ": 7611,
      "ပလွ": 7612,
      "ဖား": 7613,
      "ဖောင်း": 7614,
      "ဖေါက်": 7615,
      "ဗလာ": 7616,
      "ဗင်္": 7617,
      "မပြ": 7618,
      "မရပ်": 7619,
      "မသက်": 7620,
      "မခေါ်": 7621,
      "မဆက်": 7622,
      "မဆိုင်": 7623,
      "မစောင့်": 7624,
      "မလုပ်ဆောင်": 7625,
      "မဆောင်ရွက်": 7626,
      "မလွတ်": 7627,
      "မစွန့်": 7628,
      "မထွန်း": 7629,
      "မစွဲ": 7630,
      "မကိုးကွယ်": 7631,
      "မဖြစ်လာ": 7632,
      "မသီဆုံး": 7633,
      "မလွှတ်": 7634,
      "မဖမ်းဆီး": 7635,
      "မယှောင်": 7636,
      "မခံရသော": 7637,
      "မကြဲ": 7638,
      "မကျွေး": 7639,
      "မတို့": 7640,
      "မဖုံး": 7641,
      "မငြိမ်း": 7642,
      "မကျူးလွန်": 7643,
      "မမှတ်မိ": 7644,
      "မန္န": 7645,
      "ယံ": 7646,
      "ယဉ်း": 7647,
      "ရဟု": 7648,
      "ရိုင်": 7649,
      "ရသော်": 7650,
      "ရသည်ကို": 7651,
      "ရသောကြောင့်": 7652,
      "ရထားကြ": 7653,
      "ရပိုင်ခွင့်": 7654,
      "ရနိုင်ပါမည်နည်း": 7655,
      "လွန်း": 7656,
      "လျာ": 7657,
      "လမဲ": 7658,
      "ဝလင့်": 7659,
      "သလဲ": 7660,
      "သရက်": 7661,
      "သငယ်": 7662,
      "သွဲ့": 7663,
      "ဟိမှ": 7664,
      "ဟန္န": 7665,
      "အဘ": 7666,
      "အခြင်း": 7667,
      "အလျှင်": 7668,
      "အပြော": 7669,
      "အလက်": 7670,
      "အထဲသို့": 7671,
      "အဘာ": 7672,
      "အစင်": 7673,
      "အညှ": 7674,
      "အမွီး": 7675,
      "အဖြေ": 7676,
      "အဆိပ်": 7677,
      "အပျင်း": 7678,
      "အဘိ": 7679,
      "ဤအချိန်": 7680,
      "ဤကျမ်းစာ": 7681,
      "ဤနှုတ်ဆက်": 7682,
      "ဤစကားသည်": 7683,
      "ဤစာစောင်": 7684,
      "ဤဗိမာန်တော်ကို": 7685,
      "ဤခွက်ကို": 7686,
      "ဤအချက်": 7687,
      "ဤအဖြစ်အပျက်ကို": 7688,
      "ဤမိန်းမကို": 7689,
      "ဤခေတ်": 7690,
      "ဤဆီမွှီးကို": 7691,
      "ဥတု": 7692,
      "ဧရ": 7693,
      "ဧလု": 7694,
      "ဩဇာ": 7695,
      "ာတိရ": 7696,
      "ိူး": 7697,
      "ိစ္စ": 7698,
      "ုနှင့်": 7699,
      "ွဋ်": 7700,
      "ဿဲ": 7701,
      "၁၄": 7702,
      "​၍": 7703,
      "ောချ": 7704,
      "ကိုပင်": 7705,
      "ကြခြင်း": 7706,
      "ကြရာ": 7707,
      "ကြသောသူ": 7708,
      "ကြိုက်": 7709,
      "ကြံ့": 7710,
      "ကြသည်မှာ": 7711,
      "သည်မဟုတ်": 7712,
      "သည်နည်းတူ": 7713,
      "သည်ဟိသော်": 7714,
      "ရို့လည်း": 7715,
      "ရို့ကား": 7716,
      "သောင်": 7717,
      "သောသန်": 7718,
      "သောအစာကို": 7719,
      "သောလမဲ": 7720,
      "ပြာ": 7721,
      "ပြဲ": 7722,
      "ပြောင့်": 7723,
      "ပြနိုင်": 7724,
      "ပြကြလော့": 7725,
      "သူလျှို": 7726,
      "ဖြဲ": 7727,
      "ဖြန်း": 7728,
      "နှင်း": 7729,
      "နှရို့": 7730,
      "ငါမှာ": 7731,
      "ငါခေါ်": 7732,
      "ငါမျှော်လင့်": 7733,
      "ငါထင်မှတ်": 7734,
      "ငါမတွိ့": 7735,
      "ငါလာသောအခါ": 7736,
      "ငါခံရသော": 7737,
      "ငါတည်းခို": 7738,
      "ငါသတိပီး": 7739,
      "ငါပြမည်": 7740,
      "ိမဿဲ": 7741,
      "မှော်": 7742,
      "မှရာ": 7743,
      "ဖြစ်မည်": 7744,
      "ဖြစ်ကာ": 7745,
      "ဖြစ်ထွန်း": 7746,
      "ဖြစ်ချင်": 7747,
      "ဖြစ်မည်ဟု": 7748,
      "ဖြစ်လိုသောသူသည်": 7749,
      "သင်ယုံကြည်": 7750,
      "သင်ခန်း": 7751,
      "ခြင်းတိ": 7752,
      "ခြင်းဟိ": 7753,
      "ခြင်းပင်ဖြစ်": 7754,
      "ထိုည": 7755,
      "ထိုလူ": 7756,
      "ထိုရီ": 7757,
      "ထိုပရောဖက်": 7758,
      "ထိုကျမ်းစာ": 7759,
      "ထိုပွဲ": 7760,
      "ထိုအဖြစ်": 7761,
      "ထိုအခိုင်းအစီ": 7762,
      "ထိုကျွန်": 7763,
      "ထိုသက်သီခံ": 7764,
      "ထိုအမှုအရာ": 7765,
      "ထိုသတင်းကောင်းကို": 7766,
      "ထိုအိမ်သို့": 7767,
      "ထိုချမ်းသာ": 7768,
      "ထိုပညတ်တရားကို": 7769,
      "ထိုဝိညာဉ်တော်ကို": 7770,
      "ထိုအစီခံ": 7771,
      "ထိုမှတစ်ပါး": 7772,
      "ထိုသားကို": 7773,
      "ထိုအခန်း": 7774,
      "ထိုသားတော်အားဖြင့်": 7775,
      "ထိုအဖြစ်အပျက်ကို": 7776,
      "မျို": 7777,
      "မျိူး": 7778,
      "အားခ": 7779,
      "အားကိုး": 7780,
      "ဟုဆို": 7781,
      "ချည်": 7782,
      "ချပြီး": 7783,
      "ချိန်း": 7784,
      "ချပြီးလျှင်": 7785,
      "ချထားသော": 7786,
      "ချမှတ်": 7787,
      "ချထားကြ": 7788,
      "ချပီးတော်မူသော": 7789,
      "တိကျ": 7790,
      "တိန်း": 7791,
      "တိထဲက": 7792,
      "ကျကြ": 7793,
      "ကျပ်": 7794,
      "ကျပြီး": 7795,
      "ကျုတ်": 7796,
      "ကျိန်း": 7797,
      "ကျဉ်း": 7798,
      "ကျသည်ထက်": 7799,
      "နှင့်ပင်": 7800,
      "ဟိကြောင်း": 7801,
      "ဟိပါစီ": 7802,
      "ဟိသောသူရို့သည်": 7803,
      "ဟိနိန်သည်ကို": 7804,
      "ဟိနိန်ကြသော": 7805,
      "ပါလျက်": 7806,
      "တွယ်": 7807,
      "မည်လား": 7808,
      "ရာရောက်": 7809,
      "ရာနိ့": 7810,
      "ရာနိ့ရက်": 7811,
      "တစ်သား": 7812,
      "တစ်နှစ်": 7813,
      "တစ်အိမ်": 7814,
      "တစ်နီရာ": 7815,
      "တစ်ခွက်": 7816,
      "တစ်အိမ်သို့": 7817,
      "တစ်ရွာသို့": 7818,
      "တစ်ပြိုင်နက်": 7819,
      "စီဖို့": 7820,
      "များသော": 7821,
      "များနှင့်အတူ": 7822,
      "လူကောင်း": 7823,
      "လူပေါင်း": 7824,
      "လူလွတ်": 7825,
      "လူနှစ်ယောက်": 7826,
      "လူပါးက": 7827,
      "လူပျို": 7828,
      "လူမမာ": 7829,
      "ကားဘဲ": 7830,
      "လာခြင်း": 7831,
      "လာပါ": 7832,
      "လာသောသူ": 7833,
      "လာလျှင်": 7834,
      "လာကာ": 7835,
      "လာကတ်": 7836,
      "လာတွိ့": 7837,
      "လာသောသူသည်": 7838,
      "လာလည်": 7839,
      "ကောင်းပါ": 7840,
      "ကောင်းလိမ့်မည်": 7841,
      "ကောင်းတစ်ယောက်": 7842,
      "ဘုရားသခင်အတွက်": 7843,
      "ဘုရားသခင်ရှိ့": 7844,
      "ဘုရားသခင်သာလျှင်": 7845,
      "ဘုရားသခင်ပီးသော": 7846,
      "ဘုရားသခင်ပြုတော်မူသော": 7847,
      "ဘုရားသခင်ပီးသနားတော်မူသော": 7848,
      "သင်ရို့တစ်ယောက်": 7849,
      "သင်ရို့မှာ": 7850,
      "သင်ရို့ကြား": 7851,
      "သင်ရို့ထံ": 7852,
      "သင်ရို့အချင်းချင်း": 7853,
      "သင်ရို့ပါးကို": 7854,
      "ကိုယ်ရံ": 7855,
      "ခံစီ": 7856,
      "ခံခြင်းငှာ": 7857,
      "ခံမြီ": 7858,
      "ခံနိန်ရသော": 7859,
      "ခံသေတ္တာ": 7860,
      "သောသူက": 7861,
      "သောသူများကို": 7862,
      "သောသူတစ်ယောက်သည်": 7863,
      "သောသူမည်သည်ကား": 7864,
      "ပြီးသည်နှင့်": 7865,
      "ယေရ": 7866,
      "လောတ": 7867,
      "ယေသျှုဟု": 7868,
      "ယေသျှုလည်း": 7869,
      "ဆိုက်": 7870,
      "ဆိုကာ": 7871,
      "ဆိုသောကြောင့်": 7872,
      "ဆိုကြလိမ့်မည်": 7873,
      "ဆိုသည့်အတိုင်း": 7874,
      "ပြောထား": 7875,
      "ပြောကာ": 7876,
      "ပြောသော်လည်း": 7877,
      "ပြောကြလိမ့်မည်": 7878,
      "ပြောခွင့်": 7879,
      "ပြောလိုက်ပါ": 7880,
      "ပြောသည်အတိုင်း": 7881,
      "ပြောခသည်ကို": 7882,
      "ပြောသည်က": 7883,
      "နိန်တော်မူသော": 7884,
      "နိန်ရလိမ့်မည်": 7885,
      "နိန်ခကြ": 7886,
      "နိန်ပြီဖြစ်": 7887,
      "ထားလော့": 7888,
      "ထားကာ": 7889,
      "ထားယာ": 7890,
      "ထားတော်မမူ": 7891,
      "ထားသောသူတိကို": 7892,
      "သားတော်နှင့်": 7893,
      "သားတိက": 7894,
      "သားအပေါင်းရို့သည်": 7895,
      "သားမြီး": 7896,
      "သားယောက်ျားကို": 7897,
      "ကြောင့်သာ": 7898,
      "သူရို့လည်း": 7899,
      "သူရို့ကား": 7900,
      "သူရို့တွင်": 7901,
      "သူရို့အထက်": 7902,
      "သူရို့အထဲ": 7903,
      "သူရို့လက်သို့": 7904,
      "ပီးခြင်း": 7905,
      "ပီးမည့်": 7906,
      "ပီးထားတော်မူ": 7907,
      "ပြုနိန်ကြ": 7908,
      "ပြုစီခြင်းငှာ": 7909,
      "ပြုသမျှ": 7910,
      "ပြုသနည်း": 7911,
      "ပြုခြင်းဖြစ်": 7912,
      "ပြုသောသူတိ": 7913,
      "ပြုသကဲ့သို့": 7914,
      "ပြုခြင်းအားဖြင့်": 7915,
      "ပြုတော်မူပါ": 7916,
      "ပြုစီလို": 7917,
      "ရှုံး": 7918,
      "ရှုန်": 7919,
      "ရှုတ်ချ": 7920,
      "မိမိထက်": 7921,
      "မိမိနီ": 7922,
      "မိမိလူမျိုး": 7923,
      "မိမိသားတော်": 7924,
      "မိမိဆန္ဒ": 7925,
      "မိမိအိမ်ကို": 7926,
      "မိမိလင်ယောက်ျား": 7927,
      "လားမည်": 7928,
      "လားရာ": 7929,
      "လားရောက်": 7930,
      "လားသည်ကို": 7931,
      "လားသဖြင့်": 7932,
      "လားကြလိမ့်မည်": 7933,
      "လားမည့်": 7934,
      "တရားနှင့်": 7935,
      "တရားသဖြင့်": 7936,
      "တရားစွဲ": 7937,
      "တရားလမ်းကို": 7938,
      "တရားခွင်": 7939,
      "ကိုယ်တော်သိပါ": 7940,
      "ဇာမာ": 7941,
      "ဇာဆိုင်": 7942,
      "ဇာအပြစ်ကို": 7943,
      "ဇာမျှလောက်": 7944,
      "နိုင်ဖို့လဲ": 7945,
      "ရန်တွိ့": 7946,
      "ရန်သူတိ": 7947,
      "ရန်သူကို": 7948,
      "သည့်အကြောင်းကို": 7949,
      "ပါးမှာ": 7950,
      "ရွီ": 7951,
      "အကြောင်းကြောင့်": 7952,
      "အကြောင်းနှင့်ပတ်သက်": 7953,
      "လုံးချင်း": 7954,
      "ိတ်နိ့": 7955,
      "သော်ငြား": 7956,
      "အကျယ်": 7957,
      "နောက်တွင်": 7958,
      "ငါရို့ကား": 7959,
      "ငါရို့ပါးသို့": 7960,
      "ငါရို့ပါးက": 7961,
      "ကြီးခြင်း": 7962,
      "အရာသို့": 7963,
      "အရာများသည်လည်း": 7964,
      "လိုက်ရန်": 7965,
      "လိုက်သဖြင့်": 7966,
      "တိကိုလည်းကောင်း": 7967,
      "မျိုးချစ်": 7968,
      "မှုကိုလည်းကောင်း": 7969,
      "မှုတည်းဟူသော": 7970,
      "စားရန်": 7971,
      "စားလော့": 7972,
      "စားသောသူသည်": 7973,
      "စားဖို့": 7974,
      "မျှဖြင့်": 7975,
      "ငါ့ရို့": 7976,
      "ငါ့နောက်": 7977,
      "ငါ့ဖက်": 7978,
      "ငါ့နောက်မှ": 7979,
      "တစ်ယောက်သည်လည်း": 7980,
      "တစ်ယောက်တစ်မျိုး": 7981,
      "စွာလား": 7982,
      "ရောက်လိမ့်မည်": 7983,
      "စာလမုန်": 7984,
      "မြို့ထဲ": 7985,
      "မြို့ပြင်": 7986,
      "နည်းဖြင့်": 7987,
      "မှာထား": 7988,
      "မှာပင်": 7989,
      "နာရှုန်": 7990,
      "ယုံမှား": 7991,
      "သိက်": 7992,
      "သိသည်": 7993,
      "သိသော": 7994,
      "သိလို": 7995,
      "သိခြင်းငှာ": 7996,
      "သိလွ": 7997,
      "သိထားပြီးဖြစ်": 7998,
      "သိဒိပြည်": 7999,
      "ခရသည့်": 8000,
      "ဟုတ်ပါ": 8001,
      "သီစီ": 8002,
      "သီလား": 8003,
      "သီရမည်": 8004,
      "သီတမ်း": 8005,
      "သီလားခယာ": 8006,
      "သီကြီ": 8007,
      "များကိုသာ": 8008,
      "ယှေ": 8009,
      "ယှိုင်း": 8010,
      "ယှုတ်ချ": 8011,
      "ယုံကြည်သူရို့": 8012,
      "ယုံကြည်သူရို့သည်": 8013,
      "ယုံကြည်သောကြောင့်": 8014,
      "ယုံကြည်ကိုးစား": 8015,
      "လက်တိကို": 8016,
      "လက်ဖျား": 8017,
      "လက်ရိပ်": 8018,
      "မဟုတ်သော်လည်း": 8019,
      "မိန့်တော်မူသည်": 8020,
      "မိန့်တော်မူပါ": 8021,
      "မိန့်တော်မူသည်ကို": 8022,
      "မိန့်တော်မူခသည့်အတိုင်း": 8023,
      "ခြင်းကိုပြု": 8024,
      "စိတ်သက်သာ": 8025,
      "စိတ်မကောင်း": 8026,
      "စိတ်နှစ်ခွ": 8027,
      "မြင်သော": 8028,
      "မြင်စီခြင်းငှာ": 8029,
      "မြင်သဖြင့်": 8030,
      "မြင်ကြရ": 8031,
      "သူသည်ကား": 8032,
      "စကားနှင့်": 8033,
      "စကားများ": 8034,
      "စကားများသည်": 8035,
      "စကားသံကို": 8036,
      "မိန်းကြလျှင်": 8037,
      "မာကြော": 8038,
      "ကြားဝင်": 8039,
      "ကြားကတ်ပါစီ": 8040,
      "ပြန်တွိ့": 8041,
      "ပြန်လာကြပြီးလျှင်": 8042,
      "လုပ်ပြ": 8043,
      "လုပ်ပြီး": 8044,
      "လုပ်အားခ": 8045,
      "အဖဘုရားသခင်": 8046,
      "အဖိတ်နိ့": 8047,
      "အသက်ကြီးသော": 8048,
      "အသက်အရွယ်": 8049,
      "အသက်ဘေးမှ": 8050,
      "နီရ": 8051,
      "နီရန်": 8052,
      "နီကြလော့": 8053,
      "နီပူ": 8054,
      "အကျွန်နှင့်အတူ": 8055,
      "နားမှာ": 8056,
      "နားသည်လည်း": 8057,
      "နားပင်း": 8058,
      "အတွက်ဖြစ်": 8059,
      "ခံရပြီး": 8060,
      "ခံရစီခြင်းငှာ": 8061,
      "ခံရသကဲ့သို့": 8062,
      "ခံရမည်နည်း": 8063,
      "ခံရကြလျှင်": 8064,
      "ကောင်းကင်က": 8065,
      "ကောင်းကင်ကို": 8066,
      "ကောင်းကင်ဖွင့်": 8067,
      "အသျှင်က": 8068,
      "အသျှင်နှင့်": 8069,
      "အသျှင်ကား": 8070,
      "အသျှင်မင်းကြီး": 8071,
      "ခရစ်တော်ယေသျှုသည်": 8072,
      "ခရစ်တော်သည်လည်း": 8073,
      "ဟူသည်ကား": 8074,
      "ဟူသည်မှာ": 8075,
      "တပည့်ရို့သည်": 8076,
      "နှစ်စဉ်": 8077,
      "နှစ်ဆယ့်": 8078,
      "အတူဟိ": 8079,
      "အာရံ": 8080,
      "အလျား": 8081,
      "မဟိသဖြင့်": 8082,
      "မဟိသိမ့်": 8083,
      "တောင်းကြ": 8084,
      "တောင်းနှင့်": 8085,
      "တောင်းဆိုလေ": 8086,
      "တတ်ရန်": 8087,
      "တတ်သောအရာသည်": 8088,
      "ကတ်တေ": 8089,
      "ကတ်စွာလဲ": 8090,
      "ကတ်ခီ": 8091,
      "ခေါ်သည့်": 8092,
      "ခေါ်တော်မူပြီးလျှင်": 8093,
      "ခေါ်လာလော့": 8094,
      "ပျား": 8095,
      "ယာမိန်": 8096,
      "ဝိညာဉ်များ": 8097,
      "ဝိညာဉ်ဆုကျေးဇူး": 8098,
      "ဝိညာဉ်ခုနစ်ပါး": 8099,
      "လူမျိုးတော်": 8100,
      "လူမျိုးအပေါင်းရို့": 8101,
      "လုဒ္ဒ": 8102,
      "ဝင်ဖို့": 8103,
      "ဝင်ငွီ": 8104,
      "ဝင်ရကြလိမ့်မည်": 8105,
      "မွေ့": 8106,
      "ငါရို့သည်ကား": 8107,
      "တပည့်တော်သည်": 8108,
      "တပည့်တော်သုံးယောက်": 8109,
      "အားလုံးသည်လည်း": 8110,
      "တွိ့တော်မူ": 8111,
      "တွိ့ရန်": 8112,
      "တွိ့သဖြင့်": 8113,
      "တွိ့ရကြ": 8114,
      "တွိ့ရပါ": 8115,
      "ထို့နောက်တွင်": 8116,
      "ထွက်ကြွတော်မူ": 8117,
      "အိမ်ထဲ": 8118,
      "အိမ်အပြင်": 8119,
      "အိမ်တန်းခါး": 8120,
      "နိန်ကြခြင်း": 8121,
      "နိန်ကြသော်လည်း": 8122,
      "နိန်ကြသည်မှာ": 8123,
      "နိန်ကြသလော": 8124,
      "နိန်ကြသည်တကား": 8125,
      "စုံဖက်": 8126,
      "စဉ်အခါက": 8127,
      "ယုဒလူရို့": 8128,
      "ယုဒတရားလွှတ်တော်": 8129,
      "ပိုင်တော်မူသော": 8130,
      "ဟောပြောတော်မူ": 8131,
      "ဟောပြောလော့": 8132,
      "ဟောပြောခြင်းငှာ": 8133,
      "ဟောပြောကြလော့": 8134,
      "ဟောပြောသည်ကို": 8135,
      "ဟောပြောသည်မှာ": 8136,
      "ဟောပြောခသော": 8137,
      "ဟောပြောခြင်းအားဖြင့်": 8138,
      "ဟောပြောနိုင်သော": 8139,
      "ဟောပြောပြီးသောအခါ": 8140,
      "ထိုသို့သောသူသည်": 8141,
      "အချိန်တိုင်း": 8142,
      "အချိန်ရောက်သောအခါ": 8143,
      "တောခွီး": 8144,
      "ဟိသောအရပ်": 8145,
      "သင့်သည်ကို": 8146,
      "သင့်သလား": 8147,
      "လာကြရာ": 8148,
      "လာကြသဖြင့်": 8149,
      "လဲလျောင်း": 8150,
      "ဦးရေ": 8151,
      "အပေါင်းအသင်း": 8152,
      "အပေါင်းရို့က": 8153,
      "အပေါင်းရို့နှင့်": 8154,
      "ထံတွင်": 8155,
      "ခိုးယူ": 8156,
      "အဂုကား": 8157,
      "ရီနှင့်": 8158,
      "ရီဖြင့်": 8159,
      "ရီထဲ": 8160,
      "ရီလွှမ်းမိုး": 8161,
      "ကျေးလက်": 8162,
      "ပြောဆိုလေ": 8163,
      "ပြောဆိုလျက်": 8164,
      "ပြောဆိုလော့": 8165,
      "ပြောဆိုသော်လည်း": 8166,
      "ပြောဆိုတတ်": 8167,
      "ယောဟန္န": 8168,
      "အရပ်က": 8169,
      "ဝတ်ပြီး": 8170,
      "ဝတ်လျက်": 8171,
      "ဝတ်လုံ": 8172,
      "အပ်သလော": 8173,
      "ထိုင်ကြ": 8174,
      "ထိုင်ကာ": 8175,
      "ထိုင်နိန်ကြ": 8176,
      "ထိုင်နိန်ကြသော": 8177,
      "တည်လျက်": 8178,
      "တည်စီတော်မူ": 8179,
      "တည်လျက်ဟိ": 8180,
      "လွမ်း": 8181,
      "တစ်ခုဖြင့်": 8182,
      "ပေါလုနှင့်အတူ": 8183,
      "ထောင်ကျခံ": 8184,
      "ဆက်စပ်": 8185,
      "ချစ်သလော": 8186,
      "ချစ်သကဲ့သို့": 8187,
      "မိမိရို့အတွက်": 8188,
      "မိမိရို့နှင့်အတူ": 8189,
      "သန့်ယှင်းခြင်း": 8190,
      "သန့်ယှင်းခြင်းနှင့်": 8191,
      "ထိုသူနှင့်": 8192,
      "ထိုသူနှစ်ဦး": 8193,
      "တန်ခိုးစွမ်းရည်": 8194,
      "ဆုလာဘ်": 8195,
      "ရမည်ဆိုလျှင်": 8196,
      "ဖြစ်ကြသော်လည်း": 8197,
      "ဖြစ်ကြသဖြင့်": 8198,
      "ဖြစ်ကြသလော": 8199,
      "ရက်ပေါင်း": 8200,
      "ရက်ပေါင်းများစွာ": 8201,
      "ထင်ကြသလော": 8202,
      "မြီငလျင်": 8203,
      "အောင်ပွဲခံ": 8204,
      "ဟိကြသည်": 8205,
      "ပြည့်နိန်သော": 8206,
      "ထိုသူရို့ကဲ့သို့": 8207,
      "လူတိလည်း": 8208,
      "လူတိထက်": 8209,
      "လူတိအားလုံး": 8210,
      "လူတိကလည်း": 8211,
      "အသက်ရှင်ရန်": 8212,
      "ဝမ်းထဲက": 8213,
      "ချို့တဲ့": 8214,
      "နှုတ်မှ": 8215,
      "နှုတ်ခမ်း": 8216,
      "တိုင်းထွာ": 8217,
      "ညီအစ်ကိုတိ": 8218,
      "စကားကိုလည်း": 8219,
      "အလိုနှင့်": 8220,
      "အလိုအလျောက်": 8221,
      "ဆီးဆရာ": 8222,
      "ဆီးသမား": 8223,
      "မုချ": 8224,
      "စစ်သူရဲ": 8225,
      "စစ်ဗိုလ်": 8226,
      "ဖြစ်စီသော": 8227,
      "ဖြစ်စီလော့": 8228,
      "ဖြစ်စီကြလော့": 8229,
      "ဖြစ်စီတော်မူပါ": 8230,
      "ပျက်ပြား": 8231,
      "ပျက်ရယ်": 8232,
      "လမ်းသို့": 8233,
      "လမ်းအတိုင်း": 8234,
      "လမ်းဘေး": 8235,
      "လမ်းစဉ်ကို": 8236,
      "ချီးမြောက်": 8237,
      "ချီးငှား": 8238,
      "သုံးစွဲ": 8239,
      "သုံးပေါက်": 8240,
      "သုံးနာရီ": 8241,
      "ကြည့်ပြီးလျှင်": 8242,
      "ကြည့်ကတ်": 8243,
      "အခြားသူ": 8244,
      "အခြားသောသူရို့သည်": 8245,
      "ကောင်းကင်တမန်များ": 8246,
      "စောင့်နိန်": 8247,
      "ကာလအင်တန်ကြာ": 8248,
      "ဆရာက": 8249,
      "ဆရာသည်": 8250,
      "ဆုတောင်းရာ": 8251,
      "ဆုတောင်းလေ": 8252,
      "ဆုတောင်းရန်": 8253,
      "ဆုတောင်းနိန်စဉ်": 8254,
      "ဆုတောင်းလျက်နိန်": 8255,
      "သောအရာများ": 8256,
      "သောအရာကား": 8257,
      "မတ်တတ်": 8258,
      "သူမပါးမှ": 8259,
      "နတ်က": 8260,
      "ယောဟန်ထက်": 8261,
      "ယောဟန်ကလည်း": 8262,
      "ယောဟန်သည်လည်း": 8263,
      "ပရောဖက်ရို့သည်": 8264,
      "ပရောဖက်ဉာဏ်": 8265,
      "ပရောဖက်တိလည်း": 8266,
      "ရီးထားသော": 8267,
      "ရီးထိုး": 8268,
      "အလွန်ဝမ်းနည်း": 8269,
      "ကယ်တင်တော်မူခြင်းကို": 8270,
      "သိကြသောကြောင့်": 8271,
      "တိုက်မိ": 8272,
      "တိုက်ပွဲ": 8273,
      "ကြိုးနှင့်": 8274,
      "ကြိုးဖြီ": 8275,
      "လုပ်ဆောင်လျက်": 8276,
      "လုပ်ဆောင်ချက်": 8277,
      "အနိမ့်": 8278,
      "အနိစ္စ": 8279,
      "များစွာရို့သည်": 8280,
      "များစွာဟိသော်လည်း": 8281,
      "ခံယူကြလော့": 8282,
      "မြီကြီးနှင့်ဆိုင်သော": 8283,
      "မြီကြီးသားရို့သည်": 8284,
      "သမီးများ": 8285,
      "ကွယ်ကာ": 8286,
      "ဂါတ်": 8287,
      "စီရွှတ်တော်မူလိမ့်မည်": 8288,
      "ကြောက်သောကြောင့်": 8289,
[...]
