{
  "version": "1.0",
  "truncation": null,
  "padding": null,
  "added_tokens": [
    {
      "id": 0,
      "content": "<pad>",
      "single_word": false,
      "lstrip": false,
      "rstrip": false,
      "normalized": false,
      "special": true
    },
    {
      "id": 1,
      "content": "<unk>",
      "single_word": false,
      "lstrip": false,
      "rstrip": false,
      "normalized": false,
      "special": true
    },
    {
      "id": 2,
      "content": "<s>",
      "single_word": false,
      "lstrip": false,
      "rstrip": false,
      "normalized": false,
      "special": true
    },
    {
      "id": 3,
      "content": "</s>",
      "single_word": false,
      "lstrip": false,
      "rstrip": false,
      "normalized": false,
      "special": true
    }
  ],
  "normalizer": null,
  "pre_tokenizer": {
    "type": "Sequence",
    "pretokenizers": [
      {
        "type": "Whitespace"
      },
      {
        "type": "Split",
        "pattern": {
          "Regex": "(?<=[ऀ-ॿ஀-௿฀-๿຀-໿က-႟ក-៿一-鿿꤀-꤯])(?=[A-Za-z0-9])|(?<=[A-Za-z0-9])(?=[ऀ-ॿ஀-௿฀-๿຀-໿က-႟ក-៿一-鿿꤀-꤯])"
        },
        "behavior": "Isolated",
        "invert": false
      }
    ]
  },
  "post_processor": null,
  "decoder": null,
  "model": {
    "type": "BPE",
    "dropout": null,
    "unk_token": "<unk>",
    "continuing_subword_prefix": null,
    "end_of_word_suffix": null,
    "fuse_unk": false,
    "byte_fallback": false,
    "ignore_merges": false,
    "vocab": {
      "<pad>": 0,
      "<unk>": 1,
      "<s>": 2,
      "</s>": 3,
      "!": 4,
      "'": 5,
      "(": 6,
      ")": 7,
      ",": 8,
      "-": 9,
      ".": 10,
      ":": 11,
      ";": 12,
      "?": 13,
      "A": 14,
      "B": 15,
      "C": 16,
      "D": 17,
      "E": 18,
      "F": 19,
      "G": 20,
      "H": 21,
      "I": 22,
      "J": 23,
      "K": 24,
      "L": 25,
      "M": 26,
      "N": 27,
      "O": 28,
      "P": 29,
      "Q": 30,
      "R": 31,
      "S": 32,
      "T": 33,
      "U": 34,
      "V": 35,
      "W": 36,
      "Y": 37,
      "Z": 38,
      "a": 39,
      "b": 40,
      "c": 41,
      "d": 42,
      "e": 43,
      "f": 44,
      "g": 45,
      "h": 46,
      "i": 47,
      "j": 48,
      "k": 49,
      "l": 50,
      "m": 51,
      "n": 52,
      "o": 53,
      "p": 54,
      "q": 55,
      "r": 56,
      "s": 57,
      "t": 58,
      "u": 59,
      "v": 60,
      "w": 61,
      "x": 62,
      "y": 63,
      "z": 64,
      "ng": 65,
      "ang": 66,
      "na": 67,
      "sa": 68,
      "ka": 69,
      "at": 70,
      "ay": 71,
      "ni": 72,
      "la": 73,
      "ga": 74,
      "ma": 75,
      "in": 76,
      "pa": 77,
      "si": 78,
      "an": 79,
      "mga": 80,
      "ong": 81,
      "ba": 82,
      "li": 83,
      "on": 84,
      "kani": 85,
      "ya": 86,
      "ing": 87,
      "ta": 88,
      "bi": 89,
      "wa": 90,
      "ak": 91,
      "it": 92,
      "ha": 93,
      "pag": 94,
      "lang": 95,
      "At": 96,
      "ra": 97,
      "yang": 98,
      "ina": 99,
      "da": 100,
      "bu": 101,
      "kaniyang": 102,
      "mag": 103,
      "yong": 104,
      "nag": 105,
      "ri": 106,
      "oon": 107,
      "lu": 108,
      "di": 109,
      "tu": 110,
      "yo": 111,
      "gay": 112,
      "su": 113,
      "pu": 114,
      "ko": 115,
      "pang": 116,
      "nak": 117,
      "angin": 118,
      "os": 119,
      "pagka": 120,
      "nang": 121,
      "Pangin": 122,
      "hi": 123,
      "hin": 124,
      "Panginoon": 125,
      "sang": 126,
      "siya": 127,
      "to": 128,
      "mang": 129,
      "aking": 130,
      "iyong": 131,
      "hat": 132,
      "lo": 133,
      "ito": 134,
      "ku": 135,
      "man": 136,
      "anak": 137,
      "han": 138,
      "sina": 139,
      "mu": 140,
      "ki": 141,
      "ako": 142,
      "niya": 143,
      "mo": 144,
      "hindi": 145,
      "mat": 146,
      "pat": 147,
      "may": 148,
      "sila": 149,
      "kanilang": 150,
      "bay": 151,
      "lala": 152,
      "Sa": 153,
      "hu": 154,
      "pina": 155,
      "hay": 156,
      "Di": 157,
      "Dios": 158,
      "isang": 159,
      "el": 160,
      "sabi": 161,
      "lahat": 162,
      "nan": 163,
      "ti": 164,
      "ag": 165,
      "mi": 166,
      "er": 167,
      "pi": 168,
      "kay": 169,
      "do": 170,
      "ala": 171,
      "kasa": 172,
      "id": 173,
      "kaniya": 174,
      "ara": 175,
      "ban": 176,
      "upang": 177,
      "sinabi": 178,
      "hari": 179,
      "lupa": 180,
      "nin": 181,
      "bayan": 182,
      "ling": 183,
      "gi": 184,
      "as": 185,
      "lita": 186,
      "gu": 187,
      "sapagka": 188,
      "baba": 189,
      "bo": 190,
      "nagsi": 191,
      "ata": 192,
      "ika": 193,
      "Ang": 194,
      "aya": 195,
      "kayo": 196,
      "araw": 197,
      "inyong": 198,
      "Is": 199,
      "wag": 200,
      "inu": 201,
      "ini": 202,
      "du": 203,
      "ro": 204,
      "hang": 205,
      "san": 206,
      "nga": 207,
      "Isra": 208,
      "Israel": 209,
      "so": 210,
      "lan": 211,
      "akin": 212,
      "kanila": 213,
      "bahay": 214,
      "no": 215,
      "iyo": 216,
      "maka": 217,
      "dala": 218,
      "wang": 219,
      "big": 220,
      "lalak": 221,
      "ayon": 222,
      "roon": 223,
      "go": 224,
      "kung": 225,
      "ayo": 226,
      "mula": 227,
      "nila": 228,
      "lat": 229,
      "salita": 230,
      "tao": 231,
      "walang": 232,
      "gawa": 233,
      "rito": 234,
      "is": 235,
      "long": 236,
      "kasama": 237,
      "pin": 238,
      "po": 239,
      "ninyo": 240,
      "Na": 241,
      "Si": 242,
      "gan": 243,
      "nig": 244,
      "es": 245,
      "bang": 246,
      "am": 247,
      "tan": 248,
      "Sapagka": 249,
      "lalake": 250,
      "le": 251,
      "hara": 252,
      "gang": 253,
      "inyo": 254,
      "nasa": 255,
      "bagay": 256,
      "kamay": 257,
      "nanga": 258,
      "ano": 259,
      "buong": 260,
      "lupain": 261,
      "papa": 262,
      "kod": 263,
      "magka": 264,
      "te": 265,
      "gaya": 266,
      "wan": 267,
      "magsi": 268,
      "pit": 269,
      "mpa": 270,
      "ig": 271,
      "mala": 272,
      "isa": 273,
      "hil": 274,
      "gayo": 275,
      "wal": 276,
      "sin": 277,
      "ibi": 278,
      "kan": 279,
      "pana": 280,
      "harap": 281,
      "uma": 282,
      "bas": 283,
      "tat": 284,
      "kita": 285,
      "laban": 286,
      "Da": 287,
      "ob": 288,
      "pan": 289,
      "ung": 290,
      "Je": 291,
      "yaon": 292,
      "yari": 293,
      "gina": 294,
      "masa": 295,
      "dahil": 296,
      "bat": 297,
      "tina": 298,
      "ikaw": 299,
      "kol": 300,
      "hanggang": 301,
      "usa": 302,
      "gin": 303,
      "puwa": 304,
      "Ju": 305,
      "dog": 306,
      "handog": 307,
      "Jo": 308,
      "itan": 309,
      "yan": 310,
      "huwag": 311,
      "naka": 312,
      "tung": 313,
      "mata": 314,
      "gayon": 315,
      "rang": 316,
      "baga": 317,
      "dak": 318,
      "nangag": 319,
      "pama": 320,
      "ita": 321,
      "ali": 322,
      "ulo": 323,
      "pung": 324,
      "ran": 325,
      "bana": 326,
      "buhay": 327,
      "ani": 328,
      "ating": 329,
      "Nang": 330,
      "dalawang": 331,
      "nagsisi": 332,
      "lili": 333,
      "ipina": 334,
      "matay": 335,
      "kapat": 336,
      "git": 337,
      "bing": 338,
      "bawa": 339,
      "wid": 340,
      "babae": 341,
      "gaw": 342,
      "iging": 343,
      "Oh": 344,
      "tas": 345,
      "sinasabi": 346,
      "daan": 347,
      "niyaon": 348,
      "kina": 349,
      "lingkod": 350,
      "Jer": 351,
      "siyang": 352,
      "atapuwa": 353,
      "kapatid": 354,
      "Mo": 355,
      "Ma": 356,
      "taga": 357,
      "alan": 358,
      "rin": 359,
      "sari": 360,
      "vid": 361,
      "David": 362,
      "ngu": 363,
      "susu": 364,
      "una": 365,
      "magitan": 366,
      "magiging": 367,
      "mabu": 368,
      "pamamagitan": 369,
      "nguni": 370,
      "ser": 371,
      "kalu": 372,
      "un": 373,
      "ilang": 374,
      "magkagayo": 375,
      "tayo": 376,
      "guni": 377,
      "ot": 378,
      "naman": 379,
      "lak": 380,
      "kas": 381,
      "ut": 382,
      "lik": 383,
      "parang": 384,
      "ila": 385,
      "dote": 386,
      "serdote": 387,
      "saserdote": 388,
      "pangalan": 389,
      "loob": 390,
      "ho": 391,
      "pe": 392,
      "napa": 393,
      "Jesu": 394,
      "eo": 395,
      "wi": 396,
      "sasabi": 397,
      "kun": 398,
      "ginawa": 399,
      "kasala": 400,
      "lin": 401,
      "ari": 402,
      "bigay": 403,
      "tang": 404,
      "wala": 405,
      "hon": 406,
      "sak": 407,
      "puso": 408,
      "ar": 409,
      "kala": 410,
      "ama": 411,
      "king": 412,
      "sok": 413,
      "patay": 414,
      "Juda": 415,
      "kundi": 416,
      "ming": 417,
      "utos": 418,
      "lay": 419,
      "ises": 420,
      "Moises": 421,
      "gitna": 422,
      "hati": 423,
      "nana": 424,
      "Nguni": 425,
      "en": 426,
      "indi": 427,
      "libo": 428,
      "lem": 429,
      "tungkol": 430,
      "doon": 431,
      "taon": 432,
      "pala": 433,
      "dakong": 434,
      "usalem": 435,
      "aming": 436,
      "mong": 437,
      "Jerusalem": 438,
      "ilan": 439,
      "gat": 440,
      "pinaka": 441,
      "asa": 442,
      "say": 443,
      "paka": 444,
      "pay": 445,
      "ac": 446,
      "ting": 447,
      "Ba": 448,
      "mara": 449,
      "hagi": 450,
      "Jesus": 451,
      "bun": 452,
      "narito": 453,
      "aw": 454,
      "kasamaan": 455,
      "tay": 456,
      "kami": 457,
      "dako": 458,
      "gawin": 459,
      "dam": 460,
      "magu": 461,
      "gip": 462,
      "sino": 463,
      "Egip": 464,
      "Datapuwa": 465,
      "Kung": 466,
      "guma": 467,
      "pos": 468,
      "silang": 469,
      "nay": 470,
      "pinag": 471,
      "tata": 472,
      "ibini": 473,
      "din": 474,
      "tong": 475,
      "kayong": 476,
      "bak": 477,
      "baka": 478,
      "paki": 479,
      "utu": 480,
      "ab": 481,
      "lig": 482,
      "th": 483,
      "pangyari": 484,
      "banal": 485,
      "nu": 486,
      "langit": 487,
      "sangbahay": 488,
      "naging": 489,
      "ibaba": 490,
      "yaya": 491,
      "tubig": 492,
      "mangag": 493,
      "sangbahayan": 494,
      "kad": 495,
      "sto": 496,
      "itina": 497,
      "manga": 498,
      "kaya": 499,
      "har": 500,
      "Egipto": 501,
      "Hu": 502,
      "naki": 503,
      "maging": 504,
      "min": 505,
      "toto": 506,
      "ibig": 507,
      "mating": 508,
      "kbo": 509,
      "luma": 510,
      "apat": 511,
      "Narito": 512,
      "kar": 513,
      "asawa": 514,
      "mon": 515,
      "paan": 516,
      "log": 517,
      "hanan": 518,
      "taong": 519,
      "ibang": 520,
      "lis": 521,
      "rinig": 522,
      "tin": 523,
      "dumating": 524,
      "hala": 525,
      "hihi": 526,
      "pintu": 527,
      "hina": 528,
      "maki": 529,
      "dina": 530,
      "matu": 531,
      "magulang": 532,
      "pitong": 533,
      "Hindi": 534,
      "rit": 535,
      "amin": 536,
      "ninyong": 537,
      "tatlong": 538,
      "duma": 539,
      "bilang": 540,
      "sinu": 541,
      "kasalanan": 542,
      "ning": 543,
      "al": 544,
      "puma": 545,
      "hukbo": 546,
      "Kaya": 547,
      "bansa": 548,
      "maga": 549,
      "nong": 550,
      "Huwag": 551,
      "iba": 552,
      "walay": 553,
      "kang": 554,
      "raan": 555,
      "puno": 556,
      "kata": 557,
      "kha": 558,
      "Ab": 559,
      "im": 560,
      "ulan": 561,
      "pati": 562,
      "kapi": 563,
      "sala": 564,
      "nito": 565,
      "magsisi": 566,
      "ed": 567,
      "nangyari": 568,
      "risto": 569,
      "dok": 570,
      "tol": 571,
      "katu": 572,
      "ibinigay": 573,
      "pirit": 574,
      "mana": 575,
      "bundok": 576,
      "bibig": 577,
      "apo": 578,
      "dal": 579,
      "ibabaw": 580,
      "ph": 581,
      "bubu": 582,
      "apoy": 583,
      "limang": 584,
      "piritu": 585,
      "matuwid": 586,
      "bag": 587,
      "bahagi": 588,
      "inila": 589,
      "sisi": 590,
      "masama": 591,
      "ec": 592,
      "pangyarihan": 593,
      "mpalat": 594,
      "nagsabi": 595,
      "ria": 596,
      "anomang": 597,
      "ev": 598,
      "bata": 599,
      "mali": 600,
      "mpalataya": 601,
      "kara": 602,
      "gali": 603,
      "Pangino": 604,
      "lim": 605,
      "ngayon": 606,
      "niyang": 607,
      "magpaka": 608,
      "Ako": 609,
      "lub": 610,
      "sum": 611,
      "paa": 612,
      "suma": 613,
      "Mag": 614,
      "dan": 615,
      "sariling": 616,
      "lalaman": 617,
      "tinig": 618,
      "pro": 619,
      "walhati": 620,
      "sasa": 621,
      "prope": 622,
      "kaka": 623,
      "nod": 624,
      "ping": 625,
      "kautu": 626,
      "mabuti": 627,
      "bayang": 628,
      "iti": 629,
      "nap": 630,
      "lamang": 631,
      "dagat": 632,
      "Se": 633,
      "hing": 634,
      "kap": 635,
      "Panginoong": 636,
      "sugo": 637,
      "kilala": 638,
      "gumawa": 639,
      "propeta": 640,
      "Be": 641,
      "tabak": 642,
      "ginto": 643,
      "ino": 644,
      "hatulan": 645,
      "kautusan": 646,
      "hoy": 647,
      "malaking": 648,
      "makatu": 649,
      "maha": 650,
      "luwa": 651,
      "dios": 652,
      "nawa": 653,
      "kabu": 654,
      "karoon": 655,
      "kaw": 656,
      "panahon": 657,
      "labing": 658,
      "bato": 659,
      "nakita": 660,
      "nagsasabi": 661,
      "tinapay": 662,
      "makatuwid": 663,
      "op": 664,
      "puri": 665,
      "sarili": 666,
      "away": 667,
      "lalaking": 668,
      "pinang": 669,
      "lot": 670,
      "libot": 671,
      "paga": 672,
      "Es": 673,
      "pinu": 674,
      "ib": 675,
      "gagawin": 676,
      "sinalita": 677,
      "dugo": 678,
      "magpakailan": 679,
      "mamatay": 680,
      "Gani": 681,
      "anan": 682,
      "uli": 683,
      "kaaway": 684,
      "dio": 685,
      "ipinag": 686,
      "hayop": 687,
      "kaluluwa": 688,
      "ru": 689,
      "Ganito": 690,
      "lag": 691,
      "ul": 692,
      "sam": 693,
      "tutu": 694,
      "kaaraw": 695,
      "dambana": 696,
      "buma": 697,
      "lam": 698,
      "kahari": 699,
      "nagpa": 700,
      "panana": 701,
      "ingat": 702,
      "Saul": 703,
      "dito": 704,
      "pagkata": 705,
      "kasu": 706,
      "bina": 707,
      "ligtas": 708,
      "Jac": 709,
      "rating": 710,
      "kapangyarihan": 711,
      "Cristo": 712,
      "laman": 713,
      "tab": 714,
      "lulu": 715,
      "kaarawan": 716,
      "yaong": 717,
      "dinala": 718,
      "kaharian": 719,
      "kinu": 720,
      "palibot": 721,
      "Ama": 722,
      "ad": 723,
      "mai": 724,
      "akong": 725,
      "susunu": 726,
      "kahoy": 727,
      "isina": 728,
      "hayag": 729,
      "Jacob": 730,
      "magot": 731,
      "maraming": 732,
      "Ito": 733,
      "pagsa": 734,
      "tuma": 735,
      "akot": 736,
      "para": 737,
      "Gayon": 738,
      "ch": 739,
      "nia": 740,
      "dali": 741,
      "galit": 742,
      "sanan": 743,
      "ding": 744,
      "ngang": 745,
      "pangin": 746,
      "Siya": 747,
      "yuma": 748,
      "ham": 749,
      "tupa": 750,
      "panginoon": 751,
      "mukha": 752,
      "pintuang": 753,
      "Lev": 754,
      "naparoon": 755,
      "atin": 756,
      "galing": 757,
      "sabihin": 758,
      "wiran": 759,
      "namin": 760,
      "kat": 761,
      "buwan": 762,
      "bong": 763,
      "ukol": 764,
      "pak": 765,
      "ring": 766,
      "ram": 767,
      "susunugin": 768,
      "langin": 769,
      "lakad": 770,
      "panga": 771,
      "kapisanan": 772,
      "hit": 773,
      "inam": 774,
      "Aar": 775,
      "labi": 776,
      "balik": 777,
      "Pag": 778,
      "sik": 779,
      "loo": 780,
      "pungan": 781,
      "datapuwa": 782,
      "kal": 783,
      "kaluwalhati": 784,
      "bin": 785,
      "Aaron": 786,
      "awa": 787,
      "nangasa": 788,
      "pakiki": 789,
      "mihan": 790,
      "Ikaw": 791,
      "angkan": 792,
      "lipi": 793,
      "yayari": 794,
      "laga": 795,
      "pagpapa": 796,
      "mainam": 797,
      "katuwiran": 798,
      "gap": 799,
      "pipi": 800,
      "kong": 801,
      "mak": 802,
      "tahan": 803,
      "sumu": 804,
      "sumagot": 805,
      "paning": 806,
      "looban": 807,
      "iniutos": 808,
      "re": 809,
      "anim": 810,
      "haha": 811,
      "luk": 812,
      "alaga": 813,
      "pagkatapos": 814,
      "Eli": 815,
      "kaluwalhatian": 816,
      "sasalita": 817,
      "oto": 818,
      "prin": 819,
      "ganito": 820,
      "pilak": 821,
      "anda": 822,
      "inilagay": 823,
      "sipe": 824,
      "yumaon": 825,
      "prinsipe": 826,
      "Sina": 827,
      "dang": 828,
      "kati": 829,
      "paanong": 830,
      "gagawa": 831,
      "paningin": 832,
      "nalalaman": 833,
      "ibibigay": 834,
      "isi": 835,
      "pagpa": 836,
      "Espiritu": 837,
      "teo": 838,
      "nilang": 839,
      "katoto": 840,
      "unang": 841,
      "nas": 842,
      "nis": 843,
      "humi": 844,
      "ernak": 845,
      "ayapaan": 846,
      "kahatulan": 847,
      "pas": 848,
      "lumabas": 849,
      "tabernak": 850,
      "Fi": 851,
      "dalhin": 852,
      "lalong": 853,
      "butan": 854,
      "ipinang": 855,
      "nili": 856,
      "tipan": 857,
      "ganda": 858,
      "tabernakulo": 859,
      "Anak": 860,
      "upo": 861,
      "lalagay": 862,
      "gabi": 863,
      "Salo": 864,
      "patayin": 865,
      "yu": 866,
      "ngan": 867,
      "anga": 868,
      "gtas": 869,
      "sangpung": 870,
      "kabulu": 871,
      "baya": 872,
      "Salomon": 873,
      "biha": 874,
      "bilo": 875,
      "ero": 876,
      "alaman": 877,
      "Babilo": 878,
      "ias": 879,
      "kali": 880,
      "lahi": 881,
      "Babilonia": 882,
      "Bu": 883,
      "langis": 884,
      "Filis": 885,
      "hel": 886,
      "him": 887,
      "kuku": 888,
      "Levita": 889,
      "Ha": 890,
      "ipa": 891,
      "labas": 892,
      "makita": 893,
      "hiwalay": 894,
      "ose": 895,
      "huhu": 896,
      "nagsalita": 897,
      "tinawag": 898,
      "liligtas": 899,
      "naga": 900,
      "hangga": 901,
      "punong": 902,
      "anghel": 903,
      "mangyayari": 904,
      "sinomang": 905,
      "alang": 906,
      "pon": 907,
      "gil": 908,
      "Fara": 909,
      "hiya": 910,
      "nagpapa": 911,
      "handa": 912,
      "pumasok": 913,
      "karamihan": 914,
      "Filisteo": 915,
      "paroon": 916,
      "Judio": 917,
      "mataas": 918,
      "sasabihin": 919,
      "co": 920,
      "sumasa": 921,
      "il": 922,
      "lumala": 923,
      "haring": 924,
      "Aking": 925,
      "Faraon": 926,
      "La": 927,
      "ungan": 928,
      "kapayapaan": 929,
      "He": 930,
      "dakilang": 931,
      "alagad": 932,
      "ia": 933,
      "sali": 934,
      "siko": 935,
      "bunga": 936,
      "lad": 937,
      "sangli": 938,
      "hangganan": 939,
      "Kayo": 940,
      "ilalim": 941,
      "sinoman": 942,
      "pong": 943,
      "kapuwa": 944,
      "alak": 945,
      "pananampalataya": 946,
      "kinuha": 947,
      "kain": 948,
      "sumpungan": 949,
      "oo": 950,
      "nog": 951,
      "hong": 952,
      "Ka": 953,
      "kaha": 954,
      "sing": 955,
      "lupaing": 956,
      "manan": 957,
      "pulu": 958,
      "manta": 959,
      "alipin": 960,
      "kam": 961,
      "Jose": 962,
      "libing": 963,
      "pangulo": 964,
      "titi": 965,
      "galak": 966,
      "pasok": 967,
      "gala": 968,
      "tapat": 969,
      "raham": 970,
      "Abraham": 971,
      "umu": 972,
      "hain": 973,
      "hali": 974,
      "Sila": 975,
      "mantalang": 976,
      "Abi": 977,
      "aba": 978,
      "pagkain": 979,
      "Isa": 980,
      "kot": 981,
      "pintuan": 982,
      "kabuluhan": 983,
      "putol": 984,
      "hias": 985,
      "malakas": 986,
      "kuta": 987,
      "harapan": 988,
      "alam": 989,
      "tinata": 990,
      "katotohanan": 991,
      "Ano": 992,
      "kawan": 993,
      "kaganda": 994,
      "bal": 995,
      "awit": 996,
      "bihag": 997,
      "tinu": 998,
      "daang": 999,
      "magpapa": 1000,
      "sulat": 1001,
      "pol": 1002,
      "Kani": 1003,
      "Oo": 1004,
      "basan": 1005,
      "bot": 1006,
      "aari": 1007,
      "way": 1008,
      "lilingkod": 1009,
      "bayo": 1010,
      "pinuno": 1011,
      "balita": 1012,
      "liman": 1013,
      "wanag": 1014,
      "kasan": 1015,
      "kapa": 1016,
      "gana": 1017,
      "akit": 1018,
      "huli": 1019,
      "totoong": 1020,
      "ipag": 1021,
      "umi": 1022,
      "nagsugo": 1023,
      "nanana": 1024,
      "namatay": 1025,
      "saan": 1026,
      "kamang": 1027,
      "Am": 1028,
      "sunod": 1029,
      "pinatay": 1030,
      "unawa": 1031,
      "kamatay": 1032,
      "anong": 1033,
      "lumi": 1034,
      "ginagawa": 1035,
      "masamang": 1036,
      "sanglibutan": 1037,
      "Bakit": 1038,
      "binu": 1039,
      "unungan": 1040,
      "edro": 1041,
      "kaban": 1042,
      "sia": 1043,
      "hini": 1044,
      "matanda": 1045,
      "indig": 1046,
      "klam": 1047,
      "luklu": 1048,
      "kamatayan": 1049,
      "dadala": 1050,
      "kila": 1051,
      "patoto": 1052,
      "Ben": 1053,
      "ub": 1054,
      "bis": 1055,
      "bangon": 1056,
      "lubos": 1057,
      "cha": 1058,
      "nim": 1059,
      "mati": 1060,
      "got": 1061,
      "ysay": 1062,
      "tunay": 1063,
      "umaga": 1064,
      "tabi": 1065,
      "sue": 1066,
      "magkakaroon": 1067,
      "sama": 1068,
      "mama": 1069,
      "alaala": 1070,
      "Josue": 1071,
      "Beth": 1072,
      "layo": 1073,
      "karuma": 1074,
      "pagsalang": 1075,
      "kailan": 1076,
      "higit": 1077,
      "karunungan": 1078,
      "sira": 1079,
      "luklukan": 1080,
      "Me": 1081,
      "Upang": 1082,
      "iwan": 1083,
      "lid": 1084,
      "ganti": 1085,
      "Eph": 1086,
      "natin": 1087,
      "dalawa": 1088,
      "naw": 1089,
      "nagka": 1090,
      "sumi": 1091,
      "mabuting": 1092,
      "inom": 1093,
      "isip": 1094,
      "ol": 1095,
      "se": 1096,
      "tumata": 1097,
      "aral": 1098,
      "babaing": 1099,
      "kit": 1100,
      "libong": 1101,
      "hamak": 1102,
      "nayon": 1103,
      "hinga": 1104,
      "lduma": 1105,
      "hahandog": 1106,
      "espiritu": 1107,
      "binhi": 1108,
      "ldumal": 1109,
      "nau": 1110,
      "pagi": 1111,
      "kuma": 1112,
      "karumaldumal": 1113,
      "Ca": 1114,
      "dating": 1115,
      "narinig": 1116,
      "kid": 1117,
      "mit": 1118,
      "nangat": 1119,
      "marami": 1120,
      "patotoo": 1121,
      "sab": 1122,
      "rap": 1123,
      "roo": 1124,
      "samantalang": 1125,
      "harina": 1126,
      "alis": 1127,
      "dinggin": 1128,
      "Pa": 1129,
      "or": 1130,
      "ulong": 1131,
      "magpa": 1132,
      "emi": 1133,
      "mayo": 1134,
      "mp": 1135,
      "susulat": 1136,
      "samo": 1137,
      "palat": 1138,
      "kayamanan": 1139,
      "bibigay": 1140,
      "biyaya": 1141,
      "itaas": 1142,
      "ngayo": 1143,
      "Jor": 1144,
      "Mi": 1145,
      "kumu": 1146,
      "temp": 1147,
      "untu": 1148,
      "palatuntu": 1149,
      "sta": 1150,
      "kanin": 1151,
      "dig": 1152,
      "Sinabi": 1153,
      "hawa": 1154,
      "pupu": 1155,
      "anoman": 1156,
      "kagandahang": 1157,
      "Su": 1158,
      "pad": 1159,
      "tasan": 1160,
      "ablo": 1161,
      "bayaan": 1162,
      "Ay": 1163,
      "sinak": 1164,
      "tali": 1165,
      "de": 1166,
      "bakit": 1167,
      "echias": 1168,
      "Jordan": 1169,
      "maa": 1170,
      "tala": 1171,
      "hik": 1172,
      "panahong": 1173,
      "ento": 1174,
      "mapapa": 1175,
      "raim": 1176,
      "bantay": 1177,
      "katawan": 1178,
      "ingatan": 1179,
      "ilog": 1180,
      "takot": 1181,
      "aklat": 1182,
      "bath": 1183,
      "nakiki": 1184,
      "templo": 1185,
      "silanganan": 1186,
      "Pagka": 1187,
      "kaloob": 1188,
      "aki": 1189,
      "lalabas": 1190,
      "dada": 1191,
      "pangulong": 1192,
      "hihiwalay": 1193,
      "Sino": 1194,
      "bili": 1195,
      "darating": 1196,
      "nagsipag": 1197,
      "tak": 1198,
      "bumang": 1199,
      "sumpa": 1200,
      "usap": 1201,
      "pakinig": 1202,
      "Benj": 1203,
      "digma": 1204,
      "kawal": 1205,
      "mas": 1206,
      "bago": 1207,
      "kor": 1208,
      "makapag": 1209,
      "May": 1210,
      "mina": 1211,
      "libis": 1212,
      "dini": 1213,
      "dakila": 1214,
      "sinugo": 1215,
      "palatuntunan": 1216,
      "ghati": 1217,
      "ikala": 1218,
      "malapit": 1219,
      "tanda": 1220,
      "Ephraim": 1221,
      "kahit": 1222,
      "kip": 1223,
      "salitang": 1224,
      "Iyong": 1225,
      "mapag": 1226,
      "matat": 1227,
      "song": 1228,
      "kampa": 1229,
      "bug": 1230,
      "anopa": 1231,
      "Kaniyang": 1232,
      "sinaktan": 1233,
      "Ez": 1234,
      "tom": 1235,
      "paraan": 1236,
      "simu": 1237,
      "liwanag": 1238,
      "Ngayon": 1239,
      "em": 1240,
      "ula": 1241,
      "anggap": 1242,
      "pagda": 1243,
      "tatag": 1244,
      "pangyarihang": 1245,
      "mento": 1246,
      "ron": 1247,
      "dadalhin": 1248,
      "nagsila": 1249,
      "ikat": 1250,
      "saysay": 1251,
      "aa": 1252,
      "roroon": 1253,
      "ario": 1254,
      "ipinanganak": 1255,
      "nasumpungan": 1256,
      "salot": 1257,
      "siping": 1258,
      "higa": 1259,
      "Moab": 1260,
      "ilangan": 1261,
      "bumalik": 1262,
      "rol": 1263,
      "pantas": 1264,
      "tolda": 1265,
      "Benjamin": 1266,
      "Ne": 1267,
      "alin": 1268,
      "qu": 1269,
      "nalabi": 1270,
      "kuran": 1271,
      "kin": 1272,
      "karo": 1273,
      "balat": 1274,
      "salamat": 1275,
      "sabbath": 1276,
      "emias": 1277,
      "kampamento": 1278,
      "San": 1279,
      "me": 1280,
      "stas": 1281,
      "kalooban": 1282,
      "dukha": 1283,
      "ganang": 1284,
      "binig": 1285,
      "bok": 1286,
      "ibigay": 1287,
      "ganap": 1288,
      "mapa": 1289,
      "sig": 1290,
      "lungan": 1291,
      "panganay": 1292,
      "kord": 1293,
      "manhik": 1294,
      "Sion": 1295,
      "sumpong": 1296,
      "namang": 1297,
      "kop": 1298,
      "bos": 1299,
      "eli": 1300,
      "og": 1301,
      "kadi": 1302,
      "mik": 1303,
      "asno": 1304,
      "kambing": 1305,
      "papatayin": 1306,
      "tuario": 1307,
      "mugan": 1308,
      "kadiliman": 1309,
      "lagay": 1310,
      "nagkaroon": 1311,
      "santuario": 1312,
      "sisid": 1313,
      "kumain": 1314,
      "Pablo": 1315,
      "heo": 1316,
      "kahi": 1317,
      "walong": 1318,
      "tumu": 1319,
      "sukan": 1320,
      "kom": 1321,
      "hilaga": 1322,
      "god": 1323,
      "sakit": 1324,
      "has": 1325,
      "poot": 1326,
      "mahal": 1327,
      "roonan": 1328,
      "Pedro": 1329,
      "lara": 1330,
      "suot": 1331,
      "gutom": 1332,
      "tatayo": 1333,
      "gawang": 1334,
      "mamamatay": 1335,
      "pagibig": 1336,
      "bukid": 1337,
      "boam": 1338,
      "inig": 1339,
      "gumagawa": 1340,
      "lumapit": 1341,
      "pulutong": 1342,
      "Ti": 1343,
      "muel": 1344,
      "bog": 1345,
      "bataan": 1346,
      "Heb": 1347,
      "oboam": 1348,
      "nat": 1349,
      "parito": 1350,
      "inan": 1351,
      "tumayo": 1352,
      "mba": 1353,
      "kasang": 1354,
      "sini": 1355,
      "walan": 1356,
      "sog": 1357,
      "halaga": 1358,
      "simulang": 1359,
      "Asi": 1360,
      "rusa": 1361,
      "gas": 1362,
      "mangmang": 1363,
      "makapangyarihang": 1364,
      "tanso": 1365,
      "nangaka": 1366,
      "Jeremias": 1367,
      "cristo": 1368,
      "kalahat": 1369,
      "manana": 1370,
      "lea": 1371,
      "Manas": 1372,
      "unat": 1373,
      "dumarating": 1374,
      "haligi": 1375,
      "Manases": 1376,
      "hangin": 1377,
      "marinig": 1378,
      "hintay": 1379,
      "hatol": 1380,
      "muling": 1381,
      "Siria": 1382,
      "kamangyan": 1383,
      "hilagaan": 1384,
      "buwal": 1385,
      "Dahil": 1386,
      "bli": 1387,
      "itat": 1388,
      "bukod": 1389,
      "isinu": 1390,
      "Joab": 1391,
      "pinakahandog": 1392,
      "Magsi": 1393,
      "binigyan": 1394,
      "nita": 1395,
      "silid": 1396,
      "wakas": 1397,
      "paglilingkod": 1398,
      "lumu": 1399,
      "Asiria": 1400,
      "tri": 1401,
      "paano": 1402,
      "bol": 1403,
      "damit": 1404,
      "pagiisip": 1405,
      "ora": 1406,
      "um": 1407,
      "kabayo": 1408,
      "pagbaba": 1409,
      "Samuel": 1410,
      "Jesucristo": 1411,
      "kumuha": 1412,
      "bumangon": 1413,
      "ci": 1414,
      "payo": 1415,
      "ath": 1416,
      "pali": 1417,
      "tag": 1418,
      "taas": 1419,
      "za": 1420,
      "kanan": 1421,
      "luwang": 1422,
      "roong": 1423,
      "isinaysay": 1424,
      "Mang": 1425,
      "yao": 1426,
      "nagsasalita": 1427,
      "nagsiparoon": 1428,
      "hagis": 1429,
      "galakan": 1430,
      "dininig": 1431,
      "kapan": 1432,
      "buhat": 1433,
      "Sama": 1434,
      "gawain": 1435,
      "leon": 1436,
      "pakikipag": 1437,
      "Lahat": 1438,
      "Re": 1439,
      "seo": 1440,
      "utan": 1441,
      "mayroon": 1442,
      "magsik": 1443,
      "pamahala": 1444,
      "bagong": 1445,
      "uu": 1446,
      "kagalakan": 1447,
      "pinapag": 1448,
      "nakaka": 1449,
      "kinabang": 1450,
      "tumahan": 1451,
      "trigo": 1452,
      "sasak": 1453,
      "nagini": 1454,
      "Juan": 1455,
      "malinis": 1456,
      "nananahan": 1457,
      "lumaka": 1458,
      "kis": 1459,
      "pini": 1460,
      "wil": 1461,
      "itinayo": 1462,
      "Kun": 1463,
      "uri": 1464,
      "kaalaman": 1465,
      "hanin": 1466,
      "himik": 1467,
      "toro": 1468,
      "patu": 1469,
      "tini": 1470,
      "ngaling": 1471,
      "Kundi": 1472,
      "naan": 1473,
      "madali": 1474,
      "malayo": 1475,
      "til": 1476,
      "doo": 1477,
      "giba": 1478,
      "kinggan": 1479,
      "makiki": 1480,
      "katiwala": 1481,
      "Isaac": 1482,
      "simula": 1483,
      "anyo": 1484,
      "bagaman": 1485,
      "Nag": 1486,
      "lansang": 1487,
      "ibigan": 1488,
      "umahon": 1489,
      "alisin": 1490,
      "salapi": 1491,
      "Bukod": 1492,
      "libingan": 1493,
      "ikatlong": 1494,
      "Acha": 1495,
      "tahanan": 1496,
      "hanap": 1497,
      "dalangin": 1498,
      "sumunod": 1499,
      "kahalili": 1500,
      "nathan": 1501,
      "Anong": 1502,
      "alay": 1503,
      "siwa": 1504,
      "bumaba": 1505,
      "Ezechias": 1506,
      "ilalagay": 1507,
      "kapit": 1508,
      "pagtata": 1509,
      "mor": 1510,
      "ibinu": 1511,
      "tinatawag": 1512,
      "Ra": 1513,
      "Walang": 1514,
      "tindig": 1515,
      "salo": 1516,
      "sampalataya": 1517,
      "kakila": 1518,
      "sias": 1519,
      "yak": 1520,
      "bubuhay": 1521,
      "pakaka": 1522,
      "pagsalangsang": 1523,
      "tumatahan": 1524,
      "Mga": 1525,
      "los": 1526,
      "nias": 1527,
      "tot": 1528,
      "mangat": 1529,
      "lalahanin": 1530,
      "pinili": 1531,
      "uloy": 1532,
      "layas": 1533,
      "Asa": 1534,
      "zar": 1535,
      "hasa": 1536,
      "luan": 1537,
      "hula": 1538,
      "roroonan": 1539,
      "pumaroon": 1540,
      "kakain": 1541,
      "pagasa": 1542,
      "ubasan": 1543,
      "kahu": 1544,
      "malili": 1545,
      "kanino": 1546,
      "mumu": 1547,
      "patuloy": 1548,
      "lubhang": 1549,
      "balitaan": 1550,
      "Samaria": 1551,
      "ngay": 1552,
      "nasusulat": 1553,
      "atan": 1554,
      "lakas": 1555,
      "sinta": 1556,
      "Jonathan": 1557,
      "nagsisipag": 1558,
      "cio": 1559,
      "sag": 1560,
      "kapang": 1561,
      "dapat": 1562,
      "nangang": 1563,
      "babalik": 1564,
      "ataas": 1565,
      "kalakasan": 1566,
      "Ge": 1567,
      "Gala": 1568,
      "Isang": 1569,
      "haw": 1570,
      "ikalabing": 1571,
      "magkaroon": 1572,
      "batang": 1573,
      "nakipag": 1574,
      "makikita": 1575,
      "lansangan": 1576,
      "daya": 1577,
      "hiran": 1578,
      "hulog": 1579,
      "timugan": 1580,
      "papasok": 1581,
      "tatak": 1582,
      "ginawang": 1583,
      "batong": 1584,
      "Ni": 1585,
      "galang": 1586,
      "mahi": 1587,
      "daing": 1588,
      "pumi": 1589,
      "sanga": 1590,
      "hanang": 1591,
      "tili": 1592,
      "malaki": 1593,
      "saksi": 1594,
      "diosan": 1595,
      "naginip": 1596,
      "don": 1597,
      "ging": 1598,
      "ubas": 1599,
      "lihim": 1600,
      "maya": 1601,
      "nandoon": 1602,
      "tungan": 1603,
      "sakdal": 1604,
      "nama": 1605,
      "bigyan": 1606,
      "ningas": 1607,
      "oras": 1608,
      "stahan": 1609,
      "pasa": 1610,
      "hana": 1611,
      "pulin": 1612,
      "patung": 1613,
      "tinatang": 1614,
      "unti": 1615,
      "paypay": 1616,
      "Baal": 1617,
      "ech": 1618,
      "pakakak": 1619,
      "ahon": 1620,
      "win": 1621,
      "kapala": 1622,
      "malalaman": 1623,
      "busog": 1624,
      "his": 1625,
      "sangpu": 1626,
      "siyam": 1627,
      "makapangyarihan": 1628,
      "umalis": 1629,
      "unay": 1630,
      "lino": 1631,
      "tingnan": 1632,
      "diosdiosan": 1633,
      "isinasamo": 1634,
      "Ja": 1635,
      "gong": 1636,
      "hos": 1637,
      "kakanin": 1638,
      "ayu": 1639,
      "suklam": 1640,
      "manggagawa": 1641,
      "pipisan": 1642,
      "bhasa": 1643,
      "iligtas": 1644,
      "nini": 1645,
      "gapin": 1646,
      "maba": 1647,
      "maalaman": 1648,
      "pagitan": 1649,
      "nagi": 1650,
      "naghari": 1651,
      "tumaka": 1652,
      "hita": 1653,
      "muli": 1654,
      "hukom": 1655,
      "dom": 1656,
      "dalaga": 1657,
      "pinto": 1658,
      "kinaumaga": 1659,
      "lumakad": 1660,
      "Tunay": 1661,
      "Ya": 1662,
      "otan": 1663,
      "buto": 1664,
      "niyaong": 1665,
      "kasuklam": 1666,
      "rusahan": 1667,
      "Bala": 1668,
      "phat": 1669,
      "sau": 1670,
      "gal": 1671,
      "mahala": 1672,
      "pal": 1673,
      "tum": 1674,
      "siyaon": 1675,
      "kapistahan": 1676,
      "ibon": 1677,
      "salom": 1678,
      "tumakas": 1679,
      "kasuklamsuklam": 1680,
      "nating": 1681,
      "bagan": 1682,
      "tawag": 1683,
      "mot": 1684,
      "human": 1685,
      "alabok": 1686,
      "ibina": 1687,
      "tatang": 1688,
      "Gen": 1689,
      "mhati": 1690,
      "lagi": 1691,
      "pasto": 1692,
      "sinag": 1693,
      "tagi": 1694,
      "dila": 1695,
      "igle": 1696,
      "huhula": 1697,
      "kinaumagahan": 1698,
      "As": 1699,
      "paya": 1700,
      "kau": 1701,
      "mar": 1702,
      "itong": 1703,
      "tumi": 1704,
      "tis": 1705,
      "Nabu": 1706,
      "tungkod": 1707,
      "susum": 1708,
      "Absalom": 1709,
      "Ammon": 1710,
      "pastor": 1711,
      "So": 1712,
      "sana": 1713,
      "kaming": 1714,
      "nitong": 1715,
      "tabing": 1716,
      "himagsik": 1717,
      "bakal": 1718,
      "siklo": 1719,
      "iglesia": 1720,
      "anin": 1721,
      "nara": 1722,
      "tumang": 1723,
      "init": 1724,
      "nangagsasabi": 1725,
      "nakikita": 1726,
      "samba": 1727,
      "samsam": 1728,
      "elio": 1729,
      "paroroon": 1730,
      "hahari": 1731,
      "magsalita": 1732,
      "pula": 1733,
      "mutan": 1734,
      "guan": 1735,
      "ikasangpung": 1736,
      "bigat": 1737,
      "gol": 1738,
      "panu": 1739,
      "Josa": 1740,
      "nakatayo": 1741,
      "inilabas": 1742,
      "Ga": 1743,
      "et": 1744,
      "takas": 1745,
      "sungay": 1746,
      "Gentil": 1747,
      "In": 1748,
      "No": 1749,
      "Puri": 1750,
      "ipang": 1751,
      "ray": 1752,
      "ngin": 1753,
      "sagot": 1754,
      "papag": 1755,
      "turo": 1756,
      "pagkabihag": 1757,
      "sinong": 1758,
      "tungku": 1759,
      "Jeroboam": 1760,
      "napasa": 1761,
      "layan": 1762,
      "ikalawang": 1763,
      "naming": 1764,
      "bali": 1765,
      "sun": 1766,
      "pus": 1767,
      "pangita": 1768,
      "kuwil": 1769,
      "matakot": 1770,
      "ikapitong": 1771,
      "dulang": 1772,
      "ibinibigay": 1773,
      "Esau": 1774,
      "asan": 1775,
      "om": 1776,
      "nagbigay": 1777,
      "tupang": 1778,
      "tok": 1779,
      "silakad": 1780,
      "bangkay": 1781,
      "palad": 1782,
      "tayong": 1783,
      "evang": 1784,
      "pakpak": 1785,
      "patutot": 1786,
      "eru": 1787,
      "latan": 1788,
      "kinaroroonan": 1789,
      "ruan": 1790,
      "lumalabas": 1791,
      "kordero": 1792,
      "Fari": 1793,
      "od": 1794,
      "maru": 1795,
      "yamang": 1796,
      "tulad": 1797,
      "humaha": 1798,
      "pootan": 1799,
      "tagapag": 1800,
      "kalunu": 1801,
      "lubong": 1802,
      "awaan": 1803,
      "Elias": 1804,
      "palibhasa": 1805,
      "Az": 1806,
      "gra": 1807,
      "ihihiwalay": 1808,
      "wak": 1809,
      "rio": 1810,
      "tumat": 1811,
      "kilik": 1812,
      "nakaw": 1813,
      "tatawag": 1814,
      "Galaad": 1815,
      "humantong": 1816,
      "Purihin": 1817,
      "Fariseo": 1818,
      "nio": 1819,
      "lima": 1820,
      "haba": 1821,
      "mangang": 1822,
      "hukay": 1823,
      "pisan": 1824,
      "Ar": 1825,
      "ksan": 1826,
      "kalig": 1827,
      "law": 1828,
      "rapa": 1829,
      "tinanggap": 1830,
      "pagpapala": 1831,
      "Canaan": 1832,
      "sisidlan": 1833,
      "pangitain": 1834,
      "evangelio": 1835,
      "kalunuran": 1836,
      "Cal": 1837,
      "pha": 1838,
      "kagutom": 1839,
      "atag": 1840,
      "mababa": 1841,
      "punan": 1842,
      "lalag": 1843,
      "lalas": 1844,
      "elech": 1845,
      "tik": 1846,
      "hanggan": 1847,
      "mabubu": 1848,
      "binata": 1849,
      "pagdaka": 1850,
      "higaan": 1851,
      "Ta": 1852,
      "akala": 1853,
      "gasan": 1854,
      "panaginip": 1855,
      "kanikaniyang": 1856,
      "dura": 1857,
      "makaka": 1858,
      "larawang": 1859,
      "Achab": 1860,
      "Gaba": 1861,
      "Kay": 1862,
      "ihahandog": 1863,
      "utis": 1864,
      "sagana": 1865,
      "kaibigan": 1866,
      "pasimula": 1867,
      "burol": 1868,
      "iniwan": 1869,
      "leba": 1870,
      "lakbay": 1871,
      "nakikilala": 1872,
      "bibigyan": 1873,
      "kaligtasan": 1874,
      "Ana": 1875,
      "Edom": 1876,
      "Kat": 1877,
      "Li": 1878,
      "ipaki": 1879,
      "katungku": 1880,
      "niel": 1881,
      "bilin": 1882,
      "daong": 1883,
      "bukal": 1884,
      "pagkamatay": 1885,
      "kumaka": 1886,
      "rangalan": 1887,
      "saysayin": 1888,
      "Santo": 1889,
      "pagbabaka": 1890,
      "Ara": 1891,
      "Co": 1892,
      "Rub": 1893,
      "eg": 1894,
      "osor": 1895,
      "mun": 1896,
      "tungtungan": 1897,
      "aring": 1898,
      "codon": 1899,
      "Nabucodon": 1900,
      "lebadura": 1901,
      "Nabucodonosor": 1902,
      "lon": 1903,
      "rong": 1904,
      "wika": 1905,
      "natu": 1906,
      "kanang": 1907,
      "kapin": 1908,
      "langsang": 1909,
      "patawa": 1910,
      "gulang": 1911,
      "makipag": 1912,
      "be": 1913,
      "tha": 1914,
      "kaawaan": 1915,
      "sukat": 1916,
      "lok": 1917,
      "mayroong": 1918,
      "Saan": 1919,
      "oth": 1920,
      "naparito": 1921,
      "sumampa": 1922,
      "Sela": 1923,
      "kalahati": 1924,
      "Inyong": 1925,
      "erubin": 1926,
      "),": 1927,
      "bon": 1928,
      "ke": 1929,
      "mamanhik": 1930,
      "pasukan": 1931,
      "rapat": 1932,
      "lum": 1933,
      "pagkaka": 1934,
      "tog": 1935,
      "manganga": 1936,
      "litaw": 1937,
      "mpas": 1938,
      "nakakita": 1939,
      "marapat": 1940,
      "purihin": 1941,
      "pastang": 1942,
      "Kami": 1943,
      "tagili": 1944,
      "Amor": 1945,
      "Ce": 1946,
      "Ding": 1947,
      "rheo": 1948,
      "bad": 1949,
      "liin": 1950,
      "yaw": 1951,
      "sugat": 1952,
      "sunog": 1953,
      "tila": 1954,
      "ikaapat": 1955,
      "ayaw": 1956,
      "dulo": 1957,
      "unu": 1958,
      "kasangkapan": 1959,
      "kapintasan": 1960,
      "Amorrheo": 1961,
      "Dinggin": 1962,
      "Mat": 1963,
      "Sin": 1964,
      "Ze": 1965,
      "ea": 1966,
      "ez": 1967,
      "gda": 1968,
      "iha": 1969,
      "tit": 1970,
      "yat": 1971,
      "ngatan": 1972,
      "naha": 1973,
      "pari": 1974,
      "bao": 1975,
      "maghari": 1976,
      "pok": 1977,
      "Siyang": 1978,
      "aliping": 1979,
      "kilabot": 1980,
      "Josaphat": 1981,
      "nya": 1982,
      "kabilang": 1983,
      "pawang": 1984,
      "yahan": 1985,
      "bini": 1986,
      "nagkasala": 1987,
      "huling": 1988,
      "Mar": 1989,
      "unahan": 1990,
      "ibigin": 1991,
      "sisira": 1992,
      "kasuutan": 1993,
      "kukunin": 1994,
      "patungo": 1995,
      "susumpungan": 1996,
      "Hang": 1997,
      "ililigtas": 1998,
      "natat": 1999,
      "bala": 2000,
      "lit": 2001,
      "magda": 2002,
      "diwa": 2003,
      "matutu": 2004,
      "tiwala": 2005,
      "boy": 2006,
      "purihan": 2007,
      "lumalakad": 2008,
      "nauukol": 2009,
      "demo": 2010,
      "takdang": 2011,
      "Gali": 2012,
      "pito": 2013,
      "wat": 2014,
      "kapu": 2015,
      "kahihi": 2016,
      "silo": 2017,
      "panganga": 2018,
      "huma": 2019,
      "pinaraan": 2020,
      "iniligtas": 2021,
      "nangabilang": 2022,
      "nakaupo": 2023,
      "kalasag": 2024,
      "itinaas": 2025,
      "patirapa": 2026,
      "maliit": 2027,
      "kaliwa": 2028,
      "talastas": 2029,
      "Mangag": 2030,
      "kapitan": 2031,
      "Katoto": 2032,
      "Hanggang": 2033,
      "kahihiyan": 2034,
      "Pina": 2035,
      "kalang": 2036,
      "malala": 2037,
      "hapon": 2038,
      "buti": 2039,
      "bulag": 2040,
      "ririnig": 2041,
      "naku": 2042,
      "siyasa": 2043,
      "pinahiran": 2044,
      "tim": 2045,
      "dumi": 2046,
      "Daniel": 2047,
      "hod": 2048,
      "Egipcio": 2049,
      "postol": 2050,
      "minamahal": 2051,
      "kakilakilabot": 2052,
      "he": 2053,
      "tuin": 2054,
      "hinu": 2055,
      "kuha": 2056,
      "iniu": 2057,
      "nilalang": 2058,
      "magkakasama": 2059,
      "nagsisitahan": 2060,
      "Hari": 2061,
      "cho": 2062,
      "deo": 2063,
      "ir": 2064,
      "ikina": 2065,
      "ngkahi": 2066,
      "kababa": 2067,
      "gawan": 2068,
      "pasan": 2069,
      "bansang": 2070,
      "guin": 2071,
      "arias": 2072,
      "tatahan": 2073,
      "itinalaga": 2074,
      "matibay": 2075,
      "ulap": 2076,
      "umbalik": 2077,
      "nararapat": 2078,
      "puspos": 2079,
      "Elea": 2080,
      "Mula": 2081,
      "api": 2082,
      "apostol": 2083,
      "bagang": 2084,
      "dahi": 2085,
      "naglakbay": 2086,
      "lalakad": 2087,
      "alapaa": 2088,
      "sod": 2089,
      "gawing": 2090,
      "Caldeo": 2091,
      "alapaap": 2092,
      "Tung": 2093,
      "nai": 2094,
      "kailangan": 2095,
      "gagaling": 2096,
      "pakinggan": 2097,
      "taba": 2098,
      "itutu": 2099,
      "habang": 2100,
      "nagu": 2101,
      "lugan": 2102,
      "dili": 2103,
      "didinggin": 2104,
      "kubli": 2105,
      "lingkuran": 2106,
      "gubat": 2107,
      "Jez": 2108,
      "Tungkol": 2109,
      "Uz": 2110,
      "aalisin": 2111,
      "ton": 2112,
      "sawa": 2113,
      "ati": 2114,
      "mawa": 2115,
      "baha": 2116,
      "damo": 2117,
      "nagdala": 2118,
      "nagbibigay": 2119,
      "gayong": 2120,
      "pusan": 2121,
      "kulang": 2122,
      "kulay": 2123,
      "inumin": 2124,
      "Jeri": 2125,
      "ariin": 2126,
      "matigas": 2127,
      "Selah": 2128,
      "Sinong": 2129,
      "demonio": 2130,
      "Ahi": 2131,
      "kru": 2132,
      "kawa": 2133,
      "lalo": 2134,
      "makasalanan": 2135,
      "rapan": 2136,
      "inalis": 2137,
      "kua": 2138,
      "hunan": 2139,
      "alastas": 2140,
      "nangakaka": 2141,
      "panata": 2142,
      "Joac": 2143,
      "maguli": 2144,
      "bubuwal": 2145,
      "hingahan": 2146,
      "nakikipag": 2147,
      "ikalawa": 2148,
      "tinatangkilik": 2149,
      "krus": 2150,
      "iyan": 2151,
      "son": 2152,
      "uro": 2153,
      "ngi": 2154,
      "saring": 2155,
      "masi": 2156,
      "pamay": 2157,
      "liban": 2158,
      "pupuno": 2159,
      "moog": 2160,
      "patata": 2161,
      "pinabayaan": 2162,
      "masasa": 2163,
      "nakasumpong": 2164,
      "bagabagan": 2165,
      "minom": 2166,
      "bilangguan": 2167,
      "humiwalay": 2168,
      "Gad": 2169,
      "ap": 2170,
      "ne": 2171,
      "oga": 2172,
      "kabagabagan": 2173,
      "sibat": 2174,
      "likuran": 2175,
      "bukas": 2176,
      "nanganga": 2177,
      "matata": 2178,
      "tiyan": 2179,
      "tatlo": 2180,
      "sarisaring": 2181,
      "mangaka": 2182,
      "Levi": 2183,
      "yuan": 2184,
      "kukuha": 2185,
      "hininga": 2186,
      "maaga": 2187,
      "Ruben": 2188,
      "Ac": 2189,
      "karangalan": 2190,
      "mabang": 2191,
      "baran": 2192,
      "wasay": 2193,
      "rami": 2194,
      "das": 2195,
      "riba": 2196,
      "tulan": 2197,
      "hur": 2198,
      "erong": 2199,
      "bano": 2200,
      "iniibig": 2201,
      "leeg": 2202,
      "Mac": 2203,
      "ilagay": 2204,
      "bunton": 2205,
      "paskua": 2206,
      "Laban": 2207,
      "Hebron": 2208,
      "Eleazar": 2209,
      "apid": 2210,
      "Dan": 2211,
      "ner": 2212,
      "ok": 2213,
      "nalala": 2214,
      "mabuhay": 2215,
      "pasiya": 2216,
      "ingnan": 2217,
      "dad": 2218,
      "luwalhati": 2219,
      "lugod": 2220,
      "tuli": 2221,
      "tuming": 2222,
      "hirap": 2223,
      "hihintay": 2224,
      "bayin": 2225,
      "nagsigawa": 2226,
      "hok": 2227,
      "halal": 2228,
      "hiyaw": 2229,
      "balabal": 2230,
      "Canan": 2231,
      "Isina": 2232,
      "eth": 2233,
      "laya": 2234,
      "unin": 2235,
      "sac": 2236,
      "kagi": 2237,
      "kapurihan": 2238,
      "lawan": 2239,
      "pagtutu": 2240,
      "dib": 2241,
      "silabas": 2242,
      "dum": 2243,
      "Simon": 2244,
      "batis": 2245,
      "banalan": 2246,
      "kalaliman": 2247,
      "kapighati": 2248,
      "melech": 2249,
      "kaunti": 2250,
      "mabalitaan": 2251,
      "daling": 2252,
      "buhok": 2253,
      "ago": 2254,
      "kasayahan": 2255,
      "guyang": 2256,
      "magsipag": 2257,
      "nagsisigawa": 2258,
      "mabubuhay": 2259,
      "tatanim": 2260,
      "nagkaanak": 2261,
      "nagsilabas": 2262,
      "hanapin": 2263,
      "sinagoga": 2264,
      "patawad": 2265,
      "Galilea": 2266,
      "ca": 2267,
      "uminom": 2268,
      "natutu": 2269,
      "nanakaw": 2270,
      "saka": 2271,
      "sanin": 2272,
      "atakot": 2273,
      "ayos": 2274,
      "mapang": 2275,
      "nagbubu": 2276,
      "kunin": 2277,
      "moy": 2278,
      "moth": 2279,
      "mig": 2280,
      "len": 2281,
      "nangaga": 2282,
      "Makapangyarihan": 2283,
      "tagapamahala": 2284,
      "ilawan": 2285,
      "mahalagang": 2286,
      "tumingin": 2287,
      "Cananeo": 2288,
      "gdan": 2289,
      "hem": 2290,
      "atang": 2291,
      "lipol": 2292,
      "itinu": 2293,
      "dalang": 2294,
      "buw": 2295,
      "pulot": 2296,
      "sangguni": 2297,
      "mangan": 2298,
      "patong": 2299,
      "dor": 2300,
      "inungaling": 2301,
      "landas": 2302,
      "lalakbay": 2303,
      "Jehu": 2304,
      "masarap": 2305,
      "maburol": 2306,
      "utang": 2307,
      "nakilala": 2308,
      "rurusahan": 2309,
      "kapalaluan": 2310,
      "Libano": 2311,
      "katungkulan": 2312,
      "munting": 2313,
      "ketong": 2314,
      "tagiliran": 2315,
      "Isinasamo": 2316,
      "abu": 2317,
      "upa": 2318,
      "naiwan": 2319,
      "saway": 2320,
      "kapulu": 2321,
      "Sam": 2322,
      "isasa": 2323,
      "ilaw": 2324,
      "Micha": 2325,
      "kapighatian": 2326,
      "kapulungan": 2327,
      "Nat": 2328,
      "Sed": 2329,
      "kso": 2330,
      "nabuhay": 2331,
      "natakot": 2332,
      "kapana": 2333,
      "kut": 2334,
      "ayaan": 2335,
      "inilibing": 2336,
      "pot": 2337,
      "igina": 2338,
      "Joas": 2339,
      "lilim": 2340,
      "kasinungaling": 2341,
      "ther": 2342,
      "sinungaling": 2343,
      "laging": 2344,
      "tumawag": 2345,
      "katibayan": 2346,
      "balon": 2347,
      "kapahingahan": 2348,
      "kitang": 2349,
      "payapa": 2350,
      "Sheo": 2351,
      "Zac": 2352,
      "amoy": 2353,
      "igi": 2354,
      "taling": 2355,
      "talen": 2356,
      "hahayag": 2357,
      "dab": 2358,
      "nangaki": 2359,
      "Sal": 2360,
      "Sara": 2361,
      "erna": 2362,
      "isda": 2363,
      "Sich": 2364,
      "ginhawa": 2365,
      "nubayan": 2366,
      "hihiganti": 2367,
      "sinunog": 2368,
      "Abimelech": 2369,
      "Kanilang": 2370,
      "isinumpa": 2371,
      "pakikipagbaka": 2372,
      "pamayan": 2373,
      "Sheol": 2374,
      "Car": 2375,
      "iyak": 2376,
      "zias": 2377,
      "bayad": 2378,
      "makakain": 2379,
      "salitain": 2380,
      "bati": 2381,
      "kinabu": 2382,
      "tanggapin": 2383,
      "Abram": 2384,
      "titiis": 2385,
      "korderong": 2386,
      "inanyuan": 2387,
      "ayuno": 2388,
      "Jerico": 2389,
      "kasinungalingan": 2390,
      "Sichem": 2391,
      "Pi": 2392,
      "bed": 2393,
      "kriba": 2394,
      "nal": 2395,
      "nababa": 2396,
      "masusumpungan": 2397,
      "bituin": 2398,
      "magsasalita": 2399,
      "nagtayo": 2400,
      "nagutos": 2401,
      "diwang": 2402,
      "niyao": 2403,
      "sand": 2404,
      "eskriba": 2405,
      "mangagpa": 2406,
      "Abner": 2407,
      "nilipol": 2408,
      "masdan": 2409,
      "sisidlang": 2410,
      "pagtatapat": 2411,
      "kapanglawan": 2412,
      "Balaam": 2413,
      "tumanggap": 2414,
      "kapanahunan": 2415,
      "Tu": 2416,
      "ahas": 2417,
      "saro": 2418,
      "kapamahala": 2419,
      "balak": 2420,
      "paglili": 2421,
      "lunya": 2422,
      "nanganak": 2423,
      "pis": 2424,
      "nagsidating": 2425,
      "inihagis": 2426,
      "makan": 2427,
      "gandang": 2428,
      "panalangin": 2429,
      "lilipulin": 2430,
      "Madi": 2431,
      "Baga": 2432,
      "itinakuwil": 2433,
      "ramdam": 2434,
      "kapaha": 2435,
      "larawan": 2436,
      "Wala": 2437,
      "nata": 2438,
      "gaano": 2439,
      "ingay": 2440,
      "raang": 2441,
      "riyan": 2442,
      "lupaypay": 2443,
      "sulok": 2444,
      "mangyari": 2445,
      "tiwasay": 2446,
      "Damas": 2447,
      "nangagsi": 2448,
      "alit": 2449,
      "aliw": 2450,
      "ipinamamanhik": 2451,
      "nagpasimulang": 2452,
      "kasulatan": 2453,
      "katotohanang": 2454,
      "kamangmangan": 2455,
      "sandata": 2456,
      "kapahamakan": 2457,
      "Bar": 2458,
      "Job": 2459,
      "iiwan": 2460,
      "kpan": 2461,
      "yung": 2462,
      "panini": 2463,
      "bibili": 2464,
      "bisig": 2465,
      "haga": 2466,
      "nagkaka": 2467,
      "naglagay": 2468,
      "didigma": 2469,
      "doch": 2470,
      "nangagpa": 2471,
      "napakita": 2472,
      "Basan": 2473,
      "Banal": 2474,
      "karu": 2475,
      "lulugod": 2476,
      "dalisay": 2477,
      "pangasiwa": 2478,
      "kamel": 2479,
      "tumindig": 2480,
      "Mardoch": 2481,
      "kapusukan": 2482,
      "timbang": 2483,
      "Mardocheo": 2484,
      "Elis": 2485,
      "nati": 2486,
      "talo": 2487,
      "akita": 2488,
      "hahanda": 2489,
      "dilim": 2490,
      "pumatay": 2491,
      "hisan": 2492,
      "lingap": 2493,
      "nangagsabi": 2494,
      "kabuti": 2495,
      "tuturo": 2496,
      "tabla": 2497,
      "maigi": 2498,
      "Buhay": 2499,
      "tinutu": 2500,
      "seba": 2501,
      "Tiro": 2502,
      "kahubaran": 2503,
      "tumigil": 2504,
      "Damasco": 2505,
      "yungib": 2506,
      "Eliseo": 2507,
      "Gaya": 2508,
      "Ngayo": 2509,
      "reo": 2510,
      "sar": 2511,
      "sampa": 2512,
      "kailang": 2513,
      "nisin": 2514,
      "yaring": 2515,
      "taluk": 2516,
      "wad": 2517,
      "paggawa": 2518,
      "magbibigay": 2519,
      "nagpipisan": 2520,
      "rias": 2521,
      "hir": 2522,
      "lalawi": 2523,
      "Isma": 2524,
      "nangagpapa": 2525,
      "katapusan": 2526,
      "Heth": 2527,
      "putolputol": 2528,
      "tataglay": 2529,
      "mabubuting": 2530,
      "kababalag": 2531,
      "dahila": 2532,
      "mabangis": 2533,
      "balakang": 2534,
      "lalawigan": 2535,
      "gtog": 2536,
      "non": 2537,
      "kamaga": 2538,
      "kadahila": 2539,
      "ganitong": 2540,
      "pakinabang": 2541,
      "tam": 2542,
      "tani": 2543,
      "taing": 2544,
      "tapang": 2545,
      "habag": 2546,
      "bumu": 2547,
      "putong": 2548,
      "kob": 2549,
      "doc": 2550,
      "gulong": 2551,
      "dalamhati": 2552,
      "kalagay": 2553,
      "palagi": 2554,
      "totoo": 2555,
      "halamanan": 2556,
      "karapat": 2557,
      "hingi": 2558,
      "pananalita": 2559,
      "sumigaw": 2560,
      "nagsilapit": 2561,
      "kalahating": 2562,
      "kumakain": 2563,
      "pastangan": 2564,
      "sanggunian": 2565,
      "El": 2566,
      "Hes": 2567,
      "alalahanin": 2568,
      "del": 2569,
      "msam": 2570,
      "wing": 2571,
      "nagan": 2572,
      "gak": 2573,
      "mapagka": 2574,
      "parurusahan": 2575,
      "tagat": 2576,
      "hahatulan": 2577,
      "buo": 2578,
      "buka": 2579,
      "busin": 2580,
      "nagta": 2581,
      "nagda": 2582,
      "pagkakasala": 2583,
      "kuan": 2584,
      "sinakop": 2585,
      "gumi": 2586,
      "bigkis": 2587,
      "lato": 2588,
      "Sime": 2589,
      "papawid": 2590,
      "Joia": 2591,
      "Josias": 2592,
      "matapang": 2593,
      "tanggap": 2594,
      "kalakip": 2595,
      "Esther": 2596,
      "hahain": 2597,
      "himpapawid": 2598,
      "dea": 2599,
      "querubin": 2600,
      "taglay": 2601,
      "kahulugan": 2602,
      "lagilalas": 2603,
      "marumi": 2604,
      "kagilagilalas": 2605,
      "pagtutuli": 2606,
      "Pilato": 2607,
      "karumihan": 2608,
      "Joiada": 2609,
      "iingatan": 2610,
      "va": 2611,
      "saling": 2612,
      "basa": 2613,
      "babangon": 2614,
      "yag": 2615,
      "inginig": 2616,
      "tahimik": 2617,
      "wasak": 2618,
      "hanay": 2619,
      "paghahari": 2620,
      "pumu": 2621,
      "Sadoc": 2622,
      "pinalayas": 2623,
      "pigil": 2624,
      "gilan": 2625,
      "inuming": 2626,
      "dalawangpu": 2627,
      "tingin": 2628,
      "ede": 2629,
      "lulupaypay": 2630,
      "reina": 2631,
      "sasalitain": 2632,
      "kalihim": 2633,
      "Isaias": 2634,
      "ubos": 2635,
      "Neph": 2636,
      "tumutu": 2637,
      "sasakyan": 2638,
      "ngipin": 2639,
      "kinabukasan": 2640,
      "kamelyo": 2641,
      "tainga": 2642,
      "Hero": 2643,
      "agan": 2644,
      "nabubuhay": 2645,
      "sad": 2646,
      "kabanalan": 2647,
      "gamit": 2648,
      "lihi": 2649,
      "likod": 2650,
      "ingin": 2651,
      "wakan": 2652,
      "pagpuri": 2653,
      "sanggalang": 2654,
      "hubad": 2655,
      "tio": 2656,
      "gugu": 2657,
      "iniunat": 2658,
      "iningatan": 2659,
      "magkaka": 2660,
      "igos": 2661,
      "unting": 2662,
      "bakahan": 2663,
      "Pagkata": 2664,
      "gantihan": 2665,
      "kinabangan": 2666,
      "pinisan": 2667,
      "makikipag": 2668,
      "Yamang": 2669,
      "Noe": 2670,
      "tatawagin": 2671,
      "Katotohanang": 2672,
      "Aman": 2673,
      "Chi": 2674,
      "Ger": 2675,
      "Sata": 2676,
      "bkob": 2677,
      "gpit": 2678,
      "isan": 2679,
      "usok": 2680,
      "katan": 2681,
      "lipulin": 2682,
      "pagbubu": 2683,
      "maghahandog": 2684,
      "nagpatirapa": 2685,
      "pangako": 2686,
      "nakit": 2687,
      "hintu": 2688,
      "muna": 2689,
      "mita": 2690,
      "alakal": 2691,
      "Joram": 2692,
      "saktan": 2693,
      "alpa": 2694,
      "lumusong": 2695,
      "natatakot": 2696,
      "kapamahalaan": 2697,
      "kailangang": 2698,
      "Satanas": 2699,
      "Dag": 2700,
      "ipo": 2701,
      "kabataan": 2702,
      "lian": 2703,
      "ligaw": 2704,
      "taasan": 2705,
      "inaa": 2706,
      "magsabi": 2707,
      "pagkakita": 2708,
      "manu": 2709,
      "sinasalita": 2710,
      "bayong": 2711,
      "pighati": 2712,
      "salitaan": 2713,
      "lec": 2714,
      "anod": 2715,
      "tinanong": 2716,
      "unong": 2717,
      "palaran": 2718,
      "hinahanap": 2719,
      "magaling": 2720,
      "magagalak": 2721,
      "sumumpa": 2722,
      "aariin": 2723,
      "Mera": 2724,
      "sera": 2725,
      "Miz": 2726,
      "lalagyan": 2727,
      "siyasat": 2728,
      "iniuutos": 2729,
      "Sedechias": 2730,
      "Bagaman": 2731,
      "kababalaghan": 2732,
      "Lu": 2733,
      "Zabu": 2734,
      "ilin": 2735,
      "ihiwalay": 2736,
      "rat": 2737,
      "kabanal": 2738,
      "niyan": 2739,
      "niningas": 2740,
      "lalang": 2741,
      "laanan": 2742,
      "mapu": 2743,
      "mabigat": 2744,
      "bautis": 2745,
      "bihisan": 2746,
      "wari": 2747,
      "paglalakbay": 2748,
      "magsasabi": 2749,
      "luwal": 2750,
      "lusong": 2751,
      "sangkap": 2752,
      "mangali": 2753,
      "silapit": 2754,
      "pinaki": 2755,
      "donia": 2756,
      "Nalalaman": 2757,
      "kandel": 2758,
      "gatas": 2759,
      "luluwalhati": 2760,
      "Amalec": 2761,
      "kalikuan": 2762,
      "mapapasa": 2763,
      "mababang": 2764,
      "buwis": 2765,
      "kabutihan": 2766,
      "taluktok": 2767,
      "Pagkatapos": 2768,
      "Hi": 2769,
      "Ho": 2770,
      "Roboam": 2771,
      "epo": 2772,
      "angaral": 2773,
      "lab": 2774,
      "gad": 2775,
      "pahi": 2776,
      "yaan": 2777,
      "yaman": 2778,
      "itata": 2779,
      "pagliligtas": 2780,
      "buksan": 2781,
      "magdadala": 2782,
      "tun": 2783,
      "sinalubong": 2784,
      "Sabi": 2785,
      "tibay": 2786,
      "lehem": 2787,
      "Maria": 2788,
      "tinang": 2789,
      "alon": 2790,
      "pumapasok": 2791,
      "Beer": 2792,
      "labingdalawang": 2793,
      "pakikiapid": 2794,
      "sumusunod": 2795,
      "humihi": 2796,
      "umiibig": 2797,
      "nangatatakot": 2798,
      "tumiti": 2799,
      "balikat": 2800,
      "kadahilanan": 2801,
      "mapagkailangan": 2802,
      "Simeon": 2803,
      "epod": 2804,
      "ipagka": 2805,
      "spang": 2806,
      "usig": 2807,
      "zer": 2808,
      "nawang": 2809,
      "nagawa": 2810,
      "natata": 2811,
      "salu": 2812,
      "niwala": 2813,
      "mal": 2814,
      "masumpungan": 2815,
      "magbigay": 2816,
      "lutan": 2817,
      "kok": 2818,
      "lalapit": 2819,
      "kayat": 2820,
      "kasagana": 2821,
      "nagsipasok": 2822,
      "ilabas": 2823,
      "palain": 2824,
      "minsan": 2825,
      "makinig": 2826,
      "magaspang": 2827,
      "sumamba": 2828,
      "bugho": 2829,
      "pinapaging": 2830,
      "Sodo": 2831,
      "kalagayan": 2832,
      "tagatanod": 2833,
      "Gil": 2834,
      "Kataas": 2835,
      "Mara": 2836,
      "Zo": 2837,
      "gnaw": 2838,
      "talim": 2839,
      "bita": 2840,
      "ral": 2841,
      "lumag": 2842,
      "suso": 2843,
      "kini": 2844,
      "matiti": 2845,
      "hugong": 2846,
      "aso": 2847,
      "inihiwalay": 2848,
      "nakata": 2849,
      "pungang": 2850,
      "taganas": 2851,
      "palalo": 2852,
      "pinagpala": 2853,
      "katulad": 2854,
      "eca": 2855,
      "sumiping": 2856,
      "magpasimulang": 2857,
      "stasin": 2858,
      "matatakot": 2859,
      "mananahan": 2860,
      "Azarias": 2861,
      "gdag": 2862,
      "masasamang": 2863,
      "talinghaga": 2864,
      "Madian": 2865,
      "Nephtali": 2866,
      "Sodoma": 2867,
      "Guro": 2868,
      "Gede": 2869,
      "Per": 2870,
      "To": 2871,
      "Yuma": 2872,
      "ugat": 2873,
      "naa": 2874,
      "naroon": 2875,
      "lahing": 2876,
      "mad": 2877,
      "mani": 2878,
      "madaling": 2879,
      "anyong": 2880,
      "bar": 2881,
      "itini": 2882,
      "dias": 2883,
      "puan": 2884,
      "muhan": 2885,
      "math": 2886,
      "ikaanim": 2887,
      "inihanda": 2888,
      "noong": 2889,
      "nagsisikain": 2890,
      "dumaing": 2891,
      "lubha": 2892,
      "yumu": 2893,
      "dadalamhati": 2894,
      "ube": 2895,
      "akip": 2896,
      "quel": 2897,
      "Raquel": 2898,
      "mayaman": 2899,
      "Jezre": 2900,
      "Ismael": 2901,
      "tambo": 2902,
      "Zabulon": 2903,
      "Yumaon": 2904,
      "Aser": 2905,
      "Ini": 2906,
      "hak": 2907,
      "lata": 2908,
      "sbasan": 2909,
      "uhaw": 2910,
      "nala": 2911,
      "naupo": 2912,
      "laan": 2913,
      "pakan": 2914,
      "maglala": 2915,
      "magisa": 2916,
      "luyan": 2917,
      "lubog": 2918,
      "yok": 2919,
      "pangala": 2920,
      "sanggol": 2921,
      "Salita": 2922,
      "nagsisunod": 2923,
      "inibig": 2924,
      "por": 2925,
      "popoot": 2926,
      "popootan": 2927,
      "malagi": 2928,
      "Jebu": 2929,
      "masasama": 2930,
      "hinabol": 2931,
      "Panginoo": 2932,
      "yukod": 2933,
      "Hana": 2934,
      "nangatakot": 2935,
      "matatanda": 2936,
      "kahirapan": 2937,
      "kasaganaan": 2938,
      "des": 2939,
      "elita": 2940,
      "raya": 2941,
      "napapa": 2942,
      "sai": 2943,
      "magandang": 2944,
      "papatay": 2945,
      "sigaw": 2946,
      "bibilang": 2947,
      "pagsunod": 2948,
      "pagdating": 2949,
      "dami": 2950,
      "bulak": 2951,
      "magbubu": 2952,
      "magnanakaw": 2953,
      "nagharing": 2954,
      "tubos": 2955,
      "pagkabuhay": 2956,
      "mangkok": 2957,
      "gutin": 2958,
      "nagsitakas": 2959,
      "not": 2960,
      "tanong": 2961,
      "nangasusulat": 2962,
      "mpain": 2963,
      "Judea": 2964,
      "nagsisisampalataya": 2965,
      "kinalulu": 2966,
      "Mapalad": 2967,
      "wisik": 2968,
      "tangis": 2969,
      "gatan": 2970,
      "pinakamana": 2971,
      "hihiga": 2972,
      "bubuti": 2973,
      "maliban": 2974,
      "pastulan": 2975,
      "alangalang": 2976,
      "umuwi": 2977,
      "umiyak": 2978,
      "Sumagot": 2979,
      "Ayon": 2980,
      "talima": 2981,
      "bughaw": 2982,
      "kakilabutan": 2983,
      "nagsisipagsabi": 2984,
      "Gabaa": 2985,
      "nakukuta": 2986,
      "karapatdapat": 2987,
      "Salitain": 2988,
      "bulaklak": 2989,
      "Big": 2990,
      "abo": 2991,
      "aawit": 2992,
      "abot": 2993,
      "gsak": 2994,
      "sedro": 2995,
      "wit": 2996,
      "zo": 2997,
      "gagawing": 2998,
      "pamig": 2999,
      "nagtindig": 3000,
      "tunog": 3001,
      "hating": 3002,
      "mumula": 3003,
      "pinala": 3004,
      "nino": 3005,
      "nagsitahan": 3006,
      "ikalimang": 3007,
      "ngawan": 3008,
      "Silo": 3009,
      "magkagayon": 3010,
      "magsiparoon": 3011,
      "tinakpan": 3012,
      "ipinasok": 3013,
      "kapatagan": 3014,
      "kalapati": 3015,
      "ibabalik": 3016,
      "sumama": 3017,
      "Seba": 3018,
      "ulila": 3019,
      "galingan": 3020,
      "huhulog": 3021,
      "kagandahan": 3022,
      "Balac": 3023,
      "humahanap": 3024,
      "paririto": 3025,
      "Herodes": 3026,
      "Mizpa": 3027,
      "Sabihin": 3028,
      "salubu": 3029,
      "Gedeon": 3030,
      "pamigkis": 3031,
      "Feli": 3032,
      "Suma": 3033,
      "ili": 3034,
      "ibubu": 3035,
      "usi": 3036,
      "zi": 3037,
      "sayan": 3038,
      "kasi": 3039,
      "kasin": 3040,
      "malalagay": 3041,
      "maliligtas": 3042,
      "pamumu": 3043,
      "yas": 3044,
      "taka": 3045,
      "maglilingkod": 3046,
      "tulong": 3047,
      "tulin": 3048,
      "siyahan": 3049,
      "loy": 3050,
      "mog": 3051,
      "patanda": 3052,
      "Samantalang": 3053,
      "tipon": 3054,
      "agos": 3055,
      "mili": 3056,
      "piling": 3057,
      "gulo": 3058,
      "nagsisilakad": 3059,
      "ikabubuti": 3060,
      "Issac": 3061,
      "usad": 3062,
      "pinagputolputol": 3063,
      "mangaawit": 3064,
      "Seme": 3065,
      "pagaling": 3066,
      "pagaani": 3067,
      "yumaong": 3068,
      "tupad": 3069,
      "tinik": 3070,
      "kapalaran": 3071,
      "Yaong": 3072,
      "Kayong": 3073,
      "mangangabayo": 3074,
      "mapanghimagsik": 3075,
      "Issachar": 3076,
      "Ach": 3077,
      "Ipina": 3078,
      "Pe": 3079,
      "noon": 3080,
      "nakan": 3081,
      "nawala": 3082,
      "natiti": 3083,
      "nabalitaan": 3084,
      "inang": 3085,
      "pamu": 3086,
      "akinig": 3087,
      "naghandog": 3088,
      "tuyong": 3089,
      "nanggaling": 3090,
      "kutan": 3091,
      "mok": 3092,
      "humu": 3093,
      "tiago": 3094,
      "minis": 3095,
      "nagsipang": 3096,
      "makapagpa": 3097,
      "gob": 3098,
      "kasamahan": 3099,
      "batu": 3100,
      "usapan": 3101,
      "ipinakita": 3102,
      "kalakas": 3103,
      "hinaluan": 3104,
      "makilala": 3105,
      "dinadala": 3106,
      "ritong": 3107,
      "Bena": 3108,
      "kabulaanan": 3109,
      "Amasias": 3110,
      "daliri": 3111,
      "hahasik": 3112,
      "Isai": 3113,
      "pader": 3114,
      "Santiago": 3115,
      "Hebreo": 3116,
      "itatayo": 3117,
      "nakakaalam": 3118,
      "Nathan": 3119,
      "kandelero": 3120,
      "tuntu": 3121,
      "Sid": 3122,
      "ilala": 3123,
      "wata": 3124,
      "napag": 3125,
      "nada": 3126,
      "kaunting": 3127,
      "nilili": 3128,
      "balahi": 3129,
      "tap": 3130,
      "takip": 3131,
      "hapunan": 3132,
      "nagiging": 3133,
      "nagpaka": 3134,
      "nagbalik": 3135,
      "nagpatuloy": 3136,
      "pulo": 3137,
      "pupuri": 3138,
      "hinusa": 3139,
      "pita": 3140,
      "kasalo": 3141,
      "noo": 3142,
      "Nazar": 3143,
      "alilang": 3144,
      "ipinagu": 3145,
      "kalakal": 3146,
      "mangabubuwal": 3147,
      "galitan": 3148,
      "sumpungang": 3149,
      "sasampa": 3150,
      "lambat": 3151,
      "binasbasan": 3152,
      "tumawid": 3153,
      "bayaran": 3154,
      "nauupo": 3155,
      "tatanggapin": 3156,
      "kaugali": 3157,
      "pagpapalain": 3158,
      "Taga": 3159,
      "sisirain": 3160,
      "salubungin": 3161,
      "tuntunin": 3162,
      "hinusay": 3163,
      "Jab": 3164,
      "ilalabas": 3165,
      "lhin": 3166,
      "kadu": 3167,
      "gabing": 3168,
      "madala": 3169,
      "mapagpa": 3170,
      "litan": 3171,
      "warin": 3172,
      "waray": 3173,
      "pagpatay": 3174,
      "nagsiyaon": 3175,
      "dilat": 3176,
      "tubo": 3177,
      "punin": 3178,
      "mangdidigma": 3179,
      "hatid": 3180,
      "mungkahi": 3181,
      "alab": 3182,
      "nagsitayo": 3183,
      "nagsiahon": 3184,
      "dungawan": 3185,
      "Silang": 3186,
      "leo": 3187,
      "malalim": 3188,
      "rangal": 3189,
      "nangagsasalita": 3190,
      "palaging": 3191,
      "Baka": 3192,
      "hinanap": 3193,
      "makikilala": 3194,
      "patibayan": 3195,
      "echa": 3196,
      "karami": 3197,
      "Seir": 3198,
      "yumaya": 3199,
      "tinatahanan": 3200,
      "hulihan": 3201,
      "Bethlehem": 3202,
      "hawak": 3203,
      "ikatlo": 3204,
      "Timugan": 3205,
      "natulog": 3206,
      "Joacim": 3207,
      "Samson": 3208,
      "paninibugho": 3209,
      "Hetheo": 3210,
      "kamaganak": 3211,
      "tanikala": 3212,
      "Merari": 3213,
      "Gilgal": 3214,
      "Jebuseo": 3215,
      "nakukutaan": 3216,
      "An": 3217,
      "Asera": 3218,
      "Cor": 3219,
      "De": 3220,
      "Go": 3221,
      "Hali": 3222,
      "Ilog": 3223,
      "Lot": 3224,
      "her": 3225,
      "sdan": 3226,
      "tos": 3227,
      "ulu": 3228,
      "nanasa": 3229,
      "sapalaran": 3230,
      "mapalad": 3231,
      "pahan": 3232,
      "pabayaan": 3233,
      "sikap": 3234,
      "bab": 3235,
      "balang": 3236,
      "binili": 3237,
      "hampas": 3238,
      "magsa": 3239,
      "magdala": 3240,
      "magkasala": 3241,
      "nagsasa": 3242,
      "nagtuturo": 3243,
      "tulungan": 3244,
      "subok": 3245,
      "tigil": 3246,
      "nangamatay": 3247,
      "terio": 3248,
      "ipinadala": 3249,
      "bubungan": 3250,
      "paanan": 3251,
      "che": 3252,
      "pipisanin": 3253,
      "Sinai": 3254,
      "hiyas": 3255,
      "sumasampalataya": 3256,
      "ganapin": 3257,
      "pupunan": 3258,
      "sinira": 3259,
      "layasin": 3260,
      "mahigpit": 3261,
      "sundo": 3262,
      "mangangalakal": 3263,
      "mawawalan": 3264,
      "Chiri": 3265,
      "porti": 3266,
      "tapyas": 3267,
      "Ada": 3268,
      "Akin": 3269,
      "Zi": 3270,
      "cias": 3271,
      "dra": 3272,
      "gmok": 3273,
      "iu": 3274,
      "ikinu": 3275,
      "olibo": 3276,
      "payapaan": 3277,
      "namamatay": 3278,
      "nahulog": 3279,
      "sal": 3280,
      "kamali": 3281,
      "kakut": 3282,
      "kagantihan": 3283,
      "mamana": 3284,
      "parin": 3285,
      "sikan": 3286,
      "litang": 3287,
      "halang": 3288,
      "hamog": 3289,
      "pagsisi": 3290,
      "pagtitiis": 3291,
      "naglingkod": 3292,
      "naghoy": 3293,
      "nagngang": 3294,
      "nanghimagsik": 3295,
      "kum": 3296,
      "sinapupunan": 3297,
      "kipag": 3298,
      "patnubayan": 3299,
      "pia": 3300,
      "giika": 3301,
      "nagsikain": 3302,
      "nangapa": 3303,
      "bagama": 3304,
      "nangagkaka": 3305,
      "alila": 3306,
      "sariwang": 3307,
      "liging": 3308,
      "lumaban": 3309,
      "bilanggo": 3310,
      "sinugatan": 3311,
      "magagawa": 3312,
      "phel": 3313,
      "pingga": 3314,
      "pinunong": 3315,
      "ades": 3316,
      "pipiliin": 3317,
      "pagpasok": 3318,
      "kukubli": 3319,
      "tinubos": 3320,
      "binubo": 3321,
      "maaaring": 3322,
      "Sinomang": 3323,
      "bumangong": 3324,
      "Assu": 3325,
      "patatawarin": 3326,
      "Mace": 3327,
      "Hesbon": 3328,
      "Jezreel": 3329,
      "portiko": 3330,
      "kakutyaan": 3331,
      "giikan": 3332,
      "Gath": 3333,
      "Ocho": 3334,
      "Te": 3335,
      "Tingnan": 3336,
      "iinom": 3337,
      "mbi": 3338,
      "phan": 3339,
      "tro": 3340,
      "nakasa": 3341,
      "napin": 3342,
      "namumu": 3343,
      "kagalitan": 3344,
      "las": 3345,
      "babayaan": 3346,
      "yab": 3347,
      "itayo": 3348,
      "haliging": 3349,
      "pagba": 3350,
      "butang": 3351,
      "bubun": 3352,
      "nagdaan": 3353,
      "dia": 3354,
      "sul": 3355,
      "pusta": 3356,
      "pagkaraan": 3357,
      "pagkaalipin": 3358,
      "mangon": 3359,
      "hugasan": 3360,
      "pinagaling": 3361,
      "kasaku": 3362,
      "banta": 3363,
      "gilalas": 3364,
      "nagsibalik": 3365,
      "nagsisampalataya": 3366,
      "inilalagay": 3367,
      "kasamaang": 3368,
      "leb": 3369,
      "isagawa": 3370,
      "tatakip": 3371,
      "nangagsisi": 3372,
      "Mabuti": 3373,
      "susuguin": 3374,
      "Bawa": 3375,
      "maganap": 3376,
      "bagsak": 3377,
      "Bet": 3378,
      "tutubusin": 3379,
      "katha": 3380,
      "pangalang": 3381,
      "Bumangon": 3382,
      "huhuli": 3383,
      "nagagalak": 3384,
      "singsing": 3385,
      "mamapuri": 3386,
      "Caleb": 3387,
      "isinulat": 3388,
      "mangatakot": 3389,
      "palma": 3390,
      "sinagot": 3391,
      "grani": 3392,
      "Gabaon": 3393,
      "ipakikilala": 3394,
      "ernador": 3395,
      "Dagat": 3396,
      "manugang": 3397,
      "gobernador": 3398,
      "Sidon": 3399,
      "balahibo": 3400,
      "ipinagutos": 3401,
      "nagngangalang": 3402,
      "Ochozias": 3403,
      "Hil": 3404,
      "Obed": 3405,
      "beca": 3406,
      "dinu": 3407,
      "fa": 3408,
      "iro": 3409,
      "iisa": 3410,
      "kda": 3411,
      "karan": 3412,
      "maawa": 3413,
      "pamat": 3414,
      "yanan": 3415,
      "yapak": 3416,
      "wahagi": 3417,
      "waring": 3418,
      "hasik": 3419,
      "pagligtas": 3420,
      "bulin": 3421,
      "naglili": 3422,
      "nagniningas": 3423,
      "rim": 3424,
      "luha": 3425,
      "tumit": 3426,
      "manging": 3427,
      "mangama": 3428,
      "manunu": 3429,
      "silaban": 3430,
      "alalayan": 3431,
      "idina": 3432,
      "gini": 3433,
      "litaan": 3434,
      "nakaharap": 3435,
      "lilinisin": 3436,
      "susunog": 3437,
      "Sehon": 3438,
      "lambong": 3439,
      "tumahimik": 3440,
      "pakikibaka": 3441,
      "Sinasabi": 3442,
      "Hamath": 3443,
      "sanglibutang": 3444,
      "galaw": 3445,
      "nakikipamayan": 3446,
      "nagiingat": 3447,
      "Kataastaasan": 3448,
      "Persia": 3449,
      "kasiraan": 3450,
      "granizo": 3451,
      "Alalahanin": 3452,
      "Che": 3453,
      "Etio": 3454,
      "Rab": 3455,
      "dero": 3456,
      "igagawa": 3457,
      "uban": 3458,
      "naalaman": 3459,
      "naririnig": 3460,
      "kaali": 3461,
      "nit": 3462,
      "magawa": 3463,
      "malay": 3464,
      "maganda": 3465,
      "liko": 3466,
      "walo": 3467,
      "inala": 3468,
      "dawag": 3469,
      "bulay": 3470,
      "maglingkod": 3471,
      "naglihi": 3472,
      "suko": 3473,
      "pagkakilala": 3474,
      "nangung": 3475,
      "lolo": 3476,
      "kiling": 3477,
      "huming": 3478,
      "pinayaon": 3479,
      "asin": 3480,
      "sob": 3481,
      "biglang": 3482,
      "nasaysay": 3483,
      "kitaan": 3484,
      "nagsisihanap": 3485,
      "ipinahayag": 3486,
      "ilanglang": 3487,
      "utin": 3488,
      "hol": 3489,
      "mangapapa": 3490,
      "dalhan": 3491,
      "bagsik": 3492,
      "dagatdagat": 3493,
      "ipinagbili": 3494,
      "hahanapin": 3495,
      "ipinangako": 3496,
      "kabuluhang": 3497,
      "Hai": 3498,
      "nagkakasala": 3499,
      "dadahas": 3500,
      "aalalahanin": 3501,
      "kasangguni": 3502,
      "nangakatayo": 3503,
      "sasaktan": 3504,
      "dumhan": 3505,
      "Hiram": 3506,
      "kaugalian": 3507,
      "kasakunaan": 3508,
      "En": 3509,
      "Lea": 3510,
      "Sumu": 3511,
      "gpong": 3512,
      "ksa": 3513,
      "phi": 3514,
      "uwi": 3515,
      "nayan": 3516,
      "sasaysayin": 3517,
      "kasinta": 3518,
      "gaganti": 3519,
      "mabagsik": 3520,
      "pasu": 3521,
      "andang": 3522,
      "lilingkuran": 3523,
      "kanikanilang": 3524,
      "tagu": 3525,
      "haz": 3526,
      "inaakala": 3527,
      "bugan": 3528,
      "dita": 3529,
      "tuyo": 3530,
      "putik": 3531,
      "pupurihin": 3532,
      "hiel": 3533,
      "hirang": 3534,
      "kusang": 3535,
      "munin": 3536,
      "pata": 3537,
      "gilid": 3538,
      "ikamamatay": 3539,
      "nangabuwal": 3540,
      "magsigawa": 3541,
      "magsipasok": 3542,
      "magsiawit": 3543,
      "likha": 3544,
      "nanalangin": 3545,
      "karne": 3546,
      "sasagot": 3547,
      "binalot": 3548,
      "labis": 3549,
      "makit": 3550,
      "humiyaw": 3551,
      "bayaang": 3552,
      "ipahayag": 3553,
      "lumiko": 3554,
      "nakikinig": 3555,
      "sinisinta": 3556,
      "Achaz": 3557,
      "pagtatalo": 3558,
      "Asaph": 3559,
      "tatakpan": 3560,
      "titingnan": 3561,
      "dibdib": 3562,
      "natira": 3563,
      "Felipe": 3564,
      "watawat": 3565,
      "Hilcias": 3566,
      "pamatok": 3567,
      "kasintahang": 3568,
      ".)": 3569,
      "Ed": 3570,
      "Iyo": 3571,
      "Rama": 3572,
      "cia": 3573,
      "ginu": 3574,
      "pre": 3575,
      "uupo": 3576,
      "nabuwal": 3577,
      "kabi": 3578,
      "gabag": 3579,
      "mahina": 3580,
      "sil": 3581,
      "taw": 3582,
      "bik": 3583,
      "biyanan": 3584,
      "itlo": 3585,
      "habol": 3586,
      "daraan": 3587,
      "nagdadala": 3588,
      "lulan": 3589,
      "luhong": 3590,
      "diablo": 3591,
      "tuwing": 3592,
      "nangis": 3593,
      "manghula": 3594,
      "kus": 3595,
      "kumi": 3596,
      "matayo": 3597,
      "matataas": 3598,
      "Sar": 3599,
      "tiis": 3600,
      "ere": 3601,
      "pilay": 3602,
      "guya": 3603,
      "nagsialis": 3604,
      "nagsisagot": 3605,
      "ikasiyam": 3606,
      "inuman": 3607,
      "inihandog": 3608,
      "hanging": 3609,
      "makaraan": 3610,
      "ibinag": 3611,
      "ipinatong": 3612,
      "ipinakilala": 3613,
      "kinapopootan": 3614,
      "linong": 3615,
      "Judas": 3616,
      "nanahan": 3617,
      "pinakaalaala": 3618,
      "pinakamasarap": 3619,
      "mangaga": 3620,
      "hihip": 3621,
      "pumarito": 3622,
      "sumakit": 3623,
      "tutuparin": 3624,
      "ingatang": 3625,
      "dalias": 3626,
      "kidlat": 3627,
      "Paanong": 3628,
      "Rebeca": 3629,
      "gibain": 3630,
      "dayami": 3631,
      "makakakita": 3632,
      "talentong": 3633,
      "kamalian": 3634,
      "mangamamatay": 3635,
      "Etiopia": 3636,
      "Ingatan": 3637,
      "Tha": 3638,
      "Tayo": 3639,
      "ju": 3640,
      "ksi": 3641,
      "ktan": 3642,
      "kerubin": 3643,
      "minu": 3644,
      "nagalit": 3645,
      "kadalamhati": 3646,
      "ayang": 3647,
      "maluwang": 3648,
      "bagin": 3649,
      "linis": 3650,
      "bibi": 3651,
      "pagsala": 3652,
      "inali": 3653,
      "bubo": 3654,
      "maghandog": 3655,
      "magsasa": 3656,
      "suguin": 3657,
      "panganak": 3658,
      "pagkagalit": 3659,
      "pagkakatiwala": 3660,
      "manghuhula": 3661,
      "kulog": 3662,
      "patan": 3663,
      "husay": 3664,
      "agu": 3665,
      "banang": 3666,
      "bababa": 3667,
      "both": 3668,
      "rog": 3669,
      "nilapastangan": 3670,
      "mpala": 3671,
      "kanlungan": 3672,
      "bating": 3673,
      "nangagkasala": 3674,
      "aninaw": 3675,
      "kinagabi": 3676,
      "kinakailangang": 3677,
      "kinahapunan": 3678,
      "Mal": 3679,
      "susuot": 3680,
      "dambanang": 3681,
      "mangagpaka": 3682,
      "itinatag": 3683,
      "hinapak": 3684,
      "hinawakan": 3685,
      "magalak": 3686,
      "katakutan": 3687,
      "magsisipasok": 3688,
      "kakaunti": 3689,
      "kilalanin": 3690,
      "oseth": 3691,
      "nagasawa": 3692,
      "nagalab": 3693,
      "lumalapit": 3694,
      "galaad": 3695,
      "tinuruan": 3696,
      "pagiinit": 3697,
      "itatag": 3698,
      "Gedalias": 3699,
      "pumihit": 3700,
      "talento": 3701,
      "hakbang": 3702,
      "Tagapagligtas": 3703,
      "Chiriath": 3704,
      "humingi": 3705,
      "kadalamhatian": 3706,
      "Aga": 3707,
      "Gri": 3708,
      "Gaw": 3709,
      "Kunin": 3710,
      "cam": 3711,
      "cedro": 3712,
      "ik": 3713,
      "angal": 3714,
      "nalili": 3715,
      "athar": 3716,
      "itit": 3717,
      "pagma": 3718,
      "paghuhu": 3719,
      "langan": 3720,
      "bud": 3721,
      "buhos": 3722,
      "magsilakad": 3723,
      "rita": 3724,
      "puin": 3725,
      "manglili": 3726,
      "handu": 3727,
      "matandang": 3728,
      "mimi": 3729,
      "pihit": 3730,
      "dudu": 3731,
      "ngal": 3732,
      "ganyan": 3733,
      "magsikain": 3734,
      "Johanan": 3735,
      "nakaraan": 3736,
      "bagabag": 3737,
      "kinain": 3738,
      "sinoma": 3739,
      "gumaling": 3740,
      "nubay": 3741,
      "dumaan": 3742,
      "sinukat": 3743,
      "bagyo": 3744,
      "bagkus": 3745,
      "karam": 3746,
      "Maging": 3747,
      "pinangan": 3748,
      "ipinagkaloob": 3749,
      "kasunod": 3750,
      "tumakbo": 3751,
      "pagparito": 3752,
      "humipo": 3753,
      "ipinangangaral": 3754,
      "nananatili": 3755,
      "lumitaw": 3756,
      "nangatutu": 3757,
      "pagdaramdam": 3758,
      "nakakakita": 3759,
      "Nagsi": 3760,
      "kapitel": 3761,
      "ibinuhos": 3762,
      "panukat": 3763,
      "sugatan": 3764,
      "ezer": 3765,
      "masikap": 3766,
      "Assuero": 3767,
      "Grie": 3768,
      "Gina": 3769,
      "Hel": 3770,
      "Nun": 3771,
      "Puma": 3772,
      "Uma": 3773,
      "uf": 3774,
      "uwil": 3775,
      "anganak": 3776,
      "sabing": 3777,
      "kasia": 3778,
      "labasan": 3779,
      "panig": 3780,
      "silong": 3781,
      "baon": 3782,
      "lipad": 3783,
      "takal": 3784,
      "haing": 3785,
      "magi": 3786,
      "magtata": 3787,
      "magsiyaon": 3788,
      "suwa": 3789,
      "panghihiganti": 3790,
      "pagkatao": 3791,
      "pagkasaserdote": 3792,
      "hihina": 3793,
      "mangga": 3794,
      "manglaw": 3795,
      "sinaysay": 3796,
      "pinagu": 3797,
      "sabihan": 3798,
      "piging": 3799,
      "gising": 3800,
      "guran": 3801,
      "ikawalong": 3802,
      "roth": 3803,
      "ngaw": 3804,
      "makata": 3805,
      "wangis": 3806,
      "latin": 3807,
      "espe": 3808,
      "tatanggap": 3809,
      "nakarinig": 3810,
      "Nangyari": 3811,
      "dalawangpung": 3812,
      "susunod": 3813,
      "mabubuwal": 3814,
      "pinagsisi": 3815,
      "ibinilang": 3816,
      "mangagsasabi": 3817,
      "karayaan": 3818,
      "hihimagsik": 3819,
      "magasawa": 3820,
      "mahalan": 3821,
      "lagpos": 3822,
      "kalaya": 3823,
      "Abiathar": 3824,
      "mamadali": 3825,
      "nagsipagsabi": 3826,
      "alinsunod": 3827,
      "tinatanggap": 3828,
      "tawagin": 3829,
      "ipakilala": 3830,
      "Coath": 3831,
      "pastanganin": 3832,
      "humahatol": 3833,
      "kalangitan": 3834,
      "isasagawa": 3835,
      "nakatanan": 3836,
      "Bigyan": 3837,
      "madalas": 3838,
      "Cordero": 3839,
      "ikinubli": 3840,
      "ibinagsak": 3841,
      "kinagabihan": 3842,
      "Bil": 3843,
      "Gi": 3844,
      "Hor": 3845,
      "Manga": 3846,
      "Tina": 3847,
      "amang": 3848,
      "boseth": 3849,
      "eb": 3850,
      "efa": 3851,
      "gyan": 3852,
      "kpok": 3853,
      "per": 3854,
      "uan": 3855,
      "yi": 3856,
      "napuno": 3857,
      "nahiwalay": 3858,
      "salangsang": 3859,
      "kapootan": 3860,
      "kagalingan": 3861,
      "kamahalan": 3862,
      "inhawa": 3863,
      "sis": 3864,
      "bakol": 3865,
      "binasa": 3866,
      "binilang": 3867,
      "paglubog": 3868,
      "bukin": 3869,
      "magtataglay": 3870,
      "nagbaba": 3871,
      "luto": 3872,
      "diyan": 3873,
      "tuhod": 3874,
      "suran": 3875,
      "supot": 3876,
      "pangdadahas": 3877,
      "pagkarinig": 3878,
      "pagkasala": 3879,
      "pagkakatu": 3880,
      "nangan": 3881,
      "kisan": 3882,
      "patungan": 3883,
      "lalaki": 3884,
      "Saphan": 3885,
      "pinatoto": 3886,
      "tig": 3887,
      "pili": 3888,
      "makakita": 3889,
      "malaon": 3890,
      "kanulo": 3891,
      "pand": 3892,
      "Jeph": 3893,
      "masayang": 3894,
      "Jonas": 3895,
      "nakasulat": 3896,
      "Mana": 3897,
      "Maac": 3898,
      "wiin": 3899,
      "wiwisik": 3900,
      "kundang": 3901,
      "palacio": 3902,
      "palalayasin": 3903,
      "pinakaloob": 3904,
      "ligid": 3905,
      "yayaon": 3906,
      "hinamak": 3907,
      "ningil": 3908,
      "salarin": 3909,
      "pagkatakot": 3910,
      "maipa": 3911,
      "kukulang": 3912,
      "nagalak": 3913,
      "dadalawin": 3914,
      "talastasin": 3915,
      "Mayroon": 3916,
      "marunong": 3917,
      "granada": 3918,
      "tumatang": 3919,
      "tumatanggap": 3920,
      "Cesar": 3921,
      "sakaling": 3922,
      "iginawa": 3923,
      "bautismo": 3924,
      "pahid": 3925,
      "ibubuhos": 3926,
      "Achito": 3927,
      "nakasakay": 3928,
      "dagatdagatan": 3929,
      "suwail": 3930,
      "Jephte": 3931,
      "Berna": 3932,
      "Ela": 3933,
      "Ipa": 3934,
      "ilong": 3935,
      "ibayo": 3936,
      "je": 3937,
      "mer": 3938,
      "uunawa": 3939,
      "via": 3940,
      "ngga": 3941,
      "nanini": 3942,
      "sakop": 3943,
      "kaita": 3944,
      "mahihiwalay": 3945,
      "maririnig": 3946,
      "pamanhik": 3947,
      "bakay": 3948,
      "lipat": 3949,
      "bias": 3950,
      "ituro": 3951,
      "pagod": 3952,
      "maglili": 3953,
      "maglalagay": 3954,
      "suway": 3955,
      "mangbubu": 3956,
      "mis": 3957,
      "bantog": 3958,
      "harias": 3959,
      "babaw": 3960,
      "iniisip": 3961,
      "makapito": 3962,
      "Nasa": 3963,
      "banggit": 3964,
      "nangapatay": 3965,
      "panali": 3966,
      "Dalhin": 3967,
      "matapos": 3968,
      "pamamahala": 3969,
      "aliwin": 3970,
      "nagsisipang": 3971,
      "layag": 3972,
      "nanaig": 3973,
      "enc": 3974,
      "enkan": 3975,
      "Baasa": 3976,
      "damdam": 3977,
      "hihiya": 3978,
      "imbabaw": 3979,
      "magsisipag": 3980,
      "karaha": 3981,
      "pakikipagka": 3982,
      "pipighati": 3983,
      "tahanang": 3984,
      "katipon": 3985,
      "ipahahayag": 3986,
      "wayway": 3987,
      "Amnon": 3988,
      "binuhay": 3989,
      "pupulong": 3990,
      "Sumpain": 3991,
      "tatagum": 3992,
      "pakikipagdigma": 3993,
      "ibinaba": 3994,
      "kaupahan": 3995,
      "Araba": 3996,
      "Katotohanan": 3997,
      "ituturo": 3998,
      "itutubos": 3999,
      "Uzzi": 4000,
      "Sallum": 4001,
      "yumukod": 4002,
      "Jabes": 4003,
      "karamihang": 4004,
      "kumbaba": 4005,
      "Griego": 4006,
      "Bernabe": 4007,
      "kaitaasan": 4008,
      "tatagumpay": 4009,
      ",)": 4010,
      "Cis": 4011,
      "Elam": 4012,
      "Luma": 4013,
      "Thar": 4014,
      "akasia": 4015,
      "uod": 4016,
      "nasumpungang": 4017,
      "salin": 4018,
      "kabuhay": 4019,
      "kadakila": 4020,
      "parusa": 4021,
      "baal": 4022,
      "liyab": 4023,
      "liwayway": 4024,
      "ingilin": 4025,
      "pagsi": 4026,
      "paghatol": 4027,
      "butas": 4028,
      "magba": 4029,
      "naghi": 4030,
      "lupang": 4031,
      "gayang": 4032,
      "suhol": 4033,
      "pukin": 4034,
      "nanginginig": 4035,
      "sangdali": 4036,
      "baybayin": 4037,
      "pista": 4038,
      "makapagpapa": 4039,
      "Naa": 4040,
      "bango": 4041,
      "tanyag": 4042,
      "magsiparito": 4043,
      "nagsisiibig": 4044,
      "Moa": 4045,
      "Mapapa": 4046,
      "susugo": 4047,
      "Jesua": 4048,
      "tanghali": 4049,
      "palabas": 4050,
      "bunso": 4051,
      "pakilala": 4052,
      "dumami": 4053,
      "hingin": 4054,
      "labingdalawa": 4055,
      "pinanga": 4056,
      "ibong": 4057,
      "kinulong": 4058,
      "siklong": 4059,
      "kalayaan": 4060,
      "pipigil": 4061,
      "sumulat": 4062,
      "rea": 4063,
      "kahalayan": 4064,
      "aariing": 4065,
      "Ezra": 4066,
      "Ramoth": 4067,
      "maliliit": 4068,
      "nakipagtipan": 4069,
      "mahirap": 4070,
      "patungkol": 4071,
      "hurno": 4072,
      "Zacarias": 4073,
      "Zacharias": 4074,
      "humihip": 4075,
      "kadusta": 4076,
      "salterio": 4077,
      "Macedonia": 4078,
      "matayog": 4079,
      "Gawin": 4080,
      "budhi": 4081,
      "kalayawan": 4082,
      ");": 4083,
      "Ad": 4084,
      "Ced": 4085,
      "Has": 4086,
      "Hev": 4087,
      "Lib": 4088,
      "Maki": 4089,
      "Nakita": 4090,
      "Phin": 4091,
      "Ro": 4092,
      "Uria": 4093,
      "ana": 4094,
      "dati": 4095,
      "mos": 4096,
      "sen": 4097,
      "us": 4098,
      "uhay": 4099,
      "uch": 4100,
      "upuan": 4101,
      "ngis": 4102,
      "nahayag": 4103,
      "naroroon": 4104,
      "salang": 4105,
      "sara": 4106,
      "kahuli": 4107,
      "lau": 4108,
      "lawa": 4109,
      "gapas": 4110,
      "mari": 4111,
      "malig": 4112,
      "mawalan": 4113,
      "panaghoy": 4114,
      "pababayaan": 4115,
      "sisa": 4116,
      "tal": 4117,
      "bid": 4118,
      "itataas": 4119,
      "inari": 4120,
      "inaasa": 4121,
      "magsilabas": 4122,
      "nagbangon": 4123,
      "sur": 4124,
      "nanggagaling": 4125,
      "nanglulupaypay": 4126,
      "hining": 4127,
      "sangling": 4128,
      "kulungan": 4129,
      "husan": 4130,
      "hugas": 4131,
      "dol": 4132,
      "gilin": 4133,
      "nagsitindig": 4134,
      "inutu": 4135,
      "dungis": 4136,
      "makaitlo": 4137,
      "latag": 4138,
      "anoa": 4139,
      "papahamak": 4140,
      "pitan": 4141,
      "pananim": 4142,
      "nakapag": 4143,
      "nangagtaka": 4144,
      "banalang": 4145,
      "ipinasiya": 4146,
      "kinakailangan": 4147,
      "Maa": 4148,
      "tagakita": 4149,
      "tagapangasiwa": 4150,
      "sakbat": 4151,
      "laylayan": 4152,
      "pinakaari": 4153,
      "tatakas": 4154,
      "bakang": 4155,
      "yayahan": 4156,
      "itinanong": 4157,
      "dumalangin": 4158,
      "ibalik": 4159,
      "magsisikain": 4160,
      "limangpu": 4161,
      "Sep": 4162,
      "kawika": 4163,
      "ipinagbilin": 4164,
      "nagpasimula": 4165,
      "paraang": 4166,
      "tuparin": 4167,
      "Pagpalain": 4168,
      "Elia": 4169,
      "umuusad": 4170,
      "sem": 4171,
      "talikod": 4172,
      "sumpain": 4173,
      "bugso": 4174,
      "bugtong": 4175,
      "nangakaupo": 4176,
      "itatatag": 4177,
      "rayang": 4178,
      "ezeo": 4179,
      "gdagan": 4180,
      "magdarayang": 4181,
      "siyasatin": 4182,
      "mawawala": 4183,
      "paglilinis": 4184,
      "Baruch": 4185,
      "hintulot": 4186,
      "Amalecita": 4187,
      "kinalulugdan": 4188,
      "Halika": 4189,
      "pagsisisi": 4190,
      "Sumunod": 4191,
      "Sarvia": 4192,
      "paghuhukom": 4193,
      "encina": 4194,
      "kabuhayan": 4195,
      "Moabita": 4196,
      "kadustaan": 4197,
      "Ah": 4198,
      "Bina": 4199,
      "Boo": 4200,
      "Cades": 4201,
      "Ibigay": 4202,
      "Iligtas": 4203,
      "Naki": 4204,
      "Sinu": 4205,
      "Tim": 4206,
      "adad": 4207,
      "ce": 4208,
      "ceo": 4209,
      "ees": 4210,
      "gid": 4211,
      "gkan": 4212,
      "tnubayan": 4213,
      "nabigay": 4214,
      "natatag": 4215,
      "kaga": 4216,
      "katin": 4217,
      "kagiba": 4218,
      "kaginhawa": 4219,
      "nilikha": 4220,
      "lagang": 4221,
      "mahalaga": 4222,
      "sim": 4223,
      "sip": 4224,
      "sirang": 4225,
      "lisin": 4226,
      "likat": 4227,
      "akila": 4228,
      "inakay": 4229,
      "magbalik": 4230,
      "maghahanda": 4231,
      "naglabas": 4232,
      "naghahandog": 4233,
      "rion": 4234,
      "riel": 4235,
      "ririto": 4236,
      "luming": 4237,
      "tulog": 4238,
      "hiling": 4239,
      "hilagpos": 4240,
      "manun": 4241,
      "muot": 4242,
      "patid": 4243,
      "giling": 4244,
      "guro": 4245,
      "ikadalawang": 4246,
      "robab": 4247,
      "Nabat": 4248,
      "Dario": 4249,
      "gintong": 4250,
      "ulol": 4251,
      "Mapula": 4252,
      "tagadala": 4253,
      "saklolo": 4254,
      "patayan": 4255,
      "marahil": 4256,
      "abe": 4257,
      "mangagalak": 4258,
      "dinalang": 4259,
      "maligayang": 4260,
      "karani": 4261,
      "sumampalataya": 4262,
      "sasamba": 4263,
      "binahagi": 4264,
      "pagpapasalamat": 4265,
      "Kapayapaan": 4266,
      "umupo": 4267,
      "ipagbili": 4268,
      "Mesul": 4269,
      "kumalat": 4270,
      "Heber": 4271,
      "pasanin": 4272,
      "panugtog": 4273,
      "Arnon": 4274,
      "natuyo": 4275,
      "nangakakakita": 4276,
      "natapos": 4277,
      "Gerson": 4278,
      "maputi": 4279,
      "Zorobab": 4280,
      "maniningil": 4281,
      "maglalaba": 4282,
      "ninoman": 4283,
      "kaaliwan": 4284,
      "pagkakatulog": 4285,
      "Heveo": 4286,
      "Phinees": 4287,
      "Booz": 4288,
      "Mesullam": 4289,
      "Zorobabel": 4290,
      "Husa": 4291,
      "Ina": 4292,
      "Ibig": 4293,
      "Kina": 4294,
      "Lac": 4295,
      "Man": 4296,
      "Mali": 4297,
      "Mil": 4298,
      "Phar": 4299,
      "Tol": 4300,
      "fe": 4301,
      "gos": 4302,
      "gso": 4303,
      "iisang": 4304,
      "ipakiki": 4305,
      "isulat": 4306,
      "kto": 4307,
      "mpay": 4308,
      "pkop": 4309,
      "rhan": 4310,
      "ud": 4311,
      "ukit": 4312,
      "napopoot": 4313,
      "saya": 4314,
      "saganang": 4315,
      "sagutin": 4316,
      "kagu": 4317,
      "kalak": 4318,
      "kahina": 4319,
      "ato": 4320,
      "malu": 4321,
      "manang": 4322,
      "mapupu": 4323,
      "marangal": 4324,
      "palala": 4325,
      "pababa": 4326,
      "paniwala": 4327,
      "anlong": 4328,
      "ligan": 4329,
      "tamad": 4330,
      "bia": 4331,
      "wagan": 4332,
      "itim": 4333,
      "hahatol": 4334,
      "pagdadalamhati": 4335,
      "nagpupuno": 4336,
      "tuni": 4337,
      "tugan": 4338,
      "sulong": 4339,
      "sunu": 4340,
      "pusin": 4341,
      "pangino": 4342,
      "pagkakasu": 4343,
      "pagkaunawa": 4344,
      "hiwa": 4345,
      "manglupaypay": 4346,
      "hath": 4347,
      "kusa": 4348,
      "moteo": 4349,
      "lalasing": 4350,
      "pinatnubayan": 4351,
      "tipang": 4352,
      "kasamang": 4353,
      "kasakit": 4354,
      "gihan": 4355,
      "gutan": 4356,
      "makasumpong": 4357,
      "makakakain": 4358,
      "nilabas": 4359,
      "bangong": 4360,
      "ampunan": 4361,
      "magsidating": 4362,
      "nakalulugod": 4363,
      "matamis": 4364,
      "nangagtatanim": 4365,
      "Jero": 4366,
      "ilabot": 4367,
      "pekto": 4368,
      "kasalanang": 4369,
      "argol": 4370,
      "libolibo": 4371,
      "tatanan": 4372,
      "tatahanan": 4373,
      "abel": 4374,
      "mangasiwa": 4375,
      "sinusugo": 4376,
      "Abel": 4377,
      "limangpung": 4378,
      "sumainyo": 4379,
      "kautusang": 4380,
      "bumabangon": 4381,
      "nagpapatotoo": 4382,
      "isinama": 4383,
      "reb": 4384,
      "bihasang": 4385,
      "Haza": 4386,
      "Abias": 4387,
      "Abisai": 4388,
      "hinihintay": 4389,
      "sumisigaw": 4390,
      "talaan": 4391,
      "mapapahiya": 4392,
      "bantayan": 4393,
      "dadalang": 4394,
      "Net": 4395,
      "Timoteo": 4396,
      "kasangkapang": 4397,
      "nanganghuhula": 4398,
      "tagapagmana": 4399,
      "tatawaging": 4400,
      "makakasumpong": 4401,
      "utismuhan": 4402,
      "katungkulang": 4403,
      "Zera": 4404,
      "Joachaz": 4405,
      "isasauli": 4406,
      "kabanalbanalang": 4407,
      "tumitiwala": 4408,
      "ministro": 4409,
      "batuhin": 4410,
      "mungkahiin": 4411,
      "yumayaon": 4412,
      "karahasan": 4413,
      "kadakilaan": 4414,
      "hiningi": 4415,
      "sanglinggo": 4416,
      "kagibaan": 4417,
      "kaginhawahan": 4418,
      "Tolda": 4419,
      "pektoral": 4420,
      ").": 4421,
      "Bago": 4422,
      "Ciro": 4423,
      "Du": 4424,
      "Tar": 4425,
      "dya": 4426,
      "dlad": 4427,
      "mri": 4428,
      "rda": 4429,
      "tham": 4430,
      "uwa": 4431,
      "namu": 4432,
      "sat": 4433,
      "sakay": 4434,
      "kapangyarihang": 4435,
      "nid": 4436,
      "lai": 4437,
      "lagan": 4438,
      "maisa": 4439,
      "malalaking": 4440,
      "mamimi": 4441,
      "paroo": 4442,
      "sikatan": 4443,
      "basin": 4444,
      "balot": 4445,
      "balum": 4446,
      "limutan": 4447,
      "yakan": 4448,
      "paglakad": 4449,
      "pagpalain": 4450,
      "dara": 4451,
      "buhangin": 4452,
      "magkasama": 4453,
      "nagma": 4454,
      "nagot": 4455,
      "nagtata": 4456,
      "nagmadali": 4457,
      "nagpatutot": 4458,
      "naghihintay": 4459,
      "lugdan": 4460,
      "tukso": 4461,
      "subukin": 4462,
      "puti": 4463,
      "panghuhula": 4464,
      "higanti": 4465,
      "kubkob": 4466,
      "manda": 4467,
      "monita": 4468,
      "patak": 4469,
      "Saulo": 4470,
      "pinakasa": 4471,
      "inihalal": 4472,
      "nilagyan": 4473,
      "banga": 4474,
      "nangabubuhay": 4475,
      "magsisampalataya": 4476,
      "mpakan": 4477,
      "banalin": 4478,
      "ipinatawag": 4479,
      "gunita": 4480,
      "kalapit": 4481,
      "palakasin": 4482,
      "itinalagang": 4483,
      "matupad": 4484,
      "almas": 4485,
      "katapang": 4486,
      "magsisitahan": 4487,
      "malipol": 4488,
      "Magiging": 4489,
      "sasama": 4490,
      "itisuran": 4491,
      "Sera": 4492,
      "pagsasalita": 4493,
      "katitisuran": 4494,
      "ramtan": 4495,
      "dangang": 4496,
      "ipinangaral": 4497,
      "sumasaiyo": 4498,
      "hulihin": 4499,
      "unawaan": 4500,
      "binuksan": 4501,
      "binubuka": 4502,
      "hinipo": 4503,
      "hinirang": 4504,
      "sirain": 4505,
      "nagkagayon": 4506,
      "Cain": 4507,
      "Miche": 4508,
      "talampakan": 4509,
      "minagaling": 4510,
      "simulan": 4511,
      "mapasa": 4512,
      "morra": 4513,
      "pumili": 4514,
      "nagiisa": 4515,
      "Asdo": 4516,
      "sundin": 4517,
      "magdaraya": 4518,
      "pangangalatin": 4519,
      "atiin": 4520,
      "Machir": 4521,
      "itinuro": 4522,
      "gumising": 4523,
      "ipoipo": 4524,
      "Benaias": 4525,
      "Gomorra": 4526,
      "pasukin": 4527,
      "Mapapalad": 4528,
      "sentu": 4529,
      "inaasahan": 4530,
      "semes": 4531,
      "Lachis": 4532,
      "hiwaga": 4533,
      "Hazael": 4534,
      "Micheas": 4535,
      ":)": 4536,
      "Amasa": 4537,
      "Adonia": 4538,
      "Batiin": 4539,
      "Ec": 4540,
      "Euf": 4541,
      "Her": 4542,
      "Itha": 4543,
      "Mas": 4544,
      "Og": 4545,
      "Paking": 4546,
      "Pel": 4547,
      "ihandog": 4548,
      "ilili": 4549,
      "lyok": 4550,
      "uling": 4551,
      "upong": 4552,
      "ungal": 4553,
      "ze": 4554,
      "naalaala": 4555,
      "nalagay": 4556,
      "kaba": 4557,
      "kari": 4558,
      "kakulang": 4559,
      "nilala": 4560,
      "mamumu": 4561,
      "pahamak": 4562,
      "bahala": 4563,
      "lito": 4564,
      "takbo": 4565,
      "tanim": 4566,
      "bisa": 4567,
      "wanan": 4568,
      "wasayan": 4569,
      "hal": 4570,
      "paglabas": 4571,
      "pagtatayo": 4572,
      "inalog": 4573,
      "bula": 4574,
      "buhin": 4575,
      "magma": 4576,
      "maghahari": 4577,
      "nagtatanim": 4578,
      "luhan": 4579,
      "dinig": 4580,
      "putulin": 4581,
      "nangak": 4582,
      "sangla": 4583,
      "manumbalik": 4584,
      "mayaya": 4585,
      "bor": 4586,
      "Nabal": 4587,
      "Naboth": 4588,
      "Jehiel": 4589,
      "ginaw": 4590,
      "batid": 4591,
      "nakamatay": 4592,
      "nangagka": 4593,
      "lilimutan": 4594,
      "kinapootan": 4595,
      "susun": 4596,
      "kalugod": 4597,
      "awitan": 4598,
      "pinagpapa": 4599,
      "mangagka": 4600,
      "katuwa": 4601,
      "pagagaling": 4602,
      "nagpadala": 4603,
      "binatang": 4604,
      "maipag": 4605,
      "maias": 4606,
      "pagsasanggalang": 4607,
      "panganakan": 4608,
      "katiwasayan": 4609,
      "ipapatong": 4610,
      "salimuot": 4611,
      "magpapalyok": 4612,
      "mamasdan": 4613,
      "Mesa": 4614,
      "Susan": 4615,
      "nagsipagdala": 4616,
      "uuwi": 4617,
      "lumakas": 4618,
      "tatakutan": 4619,
      "tumiwala": 4620,
      "Gaza": 4621,
      "Noemi": 4622,
      "Core": 4623,
      "Jezabel": 4624,
      "bahabahagi": 4625,
      "kawakasan": 4626,
      "nangagagalak": 4627,
      "Michas": 4628,
      "Carme": 4629,
      "sebada": 4630,
      "hintulutan": 4631,
      "rates": 4632,
      "bautismuhan": 4633,
      "itiningin": 4634,
      "Hananias": 4635,
      "ililitaw": 4636,
      "Nazaret": 4637,
      "tumitingin": 4638,
      "idinadalangin": 4639,
      "malayong": 4640,
      "inalaala": 4641,
      "Thamar": 4642,
      "aguila": 4643,
      "nangatutulog": 4644,
      "inutusan": 4645,
      "tunika": 4646,
      "Eufrates": 4647,
      "Pakinggan": 4648,
      "kalugodlugod": 4649,
      ";)": 4650,
      "Aro": 4651,
      "Aming": 4652,
      "Bel": 4653,
      "Ber": 4654,
      "Efe": 4655,
      "Guma": 4656,
      "Hanan": 4657,
      "Ner": 4658,
      "Pher": 4659,
      "Talastas": 4660,
      "iibigin": 4661,
      "lhan": 4662,
      "phon": 4663,
      "ngo": 4664,
      "nalipol": 4665,
      "nalulugod": 4666,
      "sanang": 4667,
      "saman": 4668,
      "katanghali": 4669,
      "ganid": 4670,
      "masabi": 4671,
      "maila": 4672,
      "mahulog": 4673,
      "mapula": 4674,
      "pani": 4675,
      "pasasa": 4676,
      "pabango": 4677,
      "baboy": 4678,
      "basob": 4679,
      "linisin": 4680,
      "tabang": 4681,
      "talaga": 4682,
      "bit": 4683,
      "bileo": 4684,
      "paglingkuran": 4685,
      "paglilingkuran": 4686,
      "lango": 4687,
      "dahon": 4688,
      "bulong": 4689,
      "butin": 4690,
      "magsilapit": 4691,
      "nagsa": 4692,
      "didiwang": 4693,
      "puyat": 4694,
      "pangpang": 4695,
      "nanghuhula": 4696,
      "hid": 4697,
      "hipo": 4698,
      "sangusapan": 4699,
      "kuman": 4700,
      "mus": 4701,
      "kiman": 4702,
      "baytang": 4703,
      "hud": 4704,
      "huyan": 4705,
      "kasakiman": 4706,
      "nagsisiyaon": 4707,
      "iniharap": 4708,
      "iniahon": 4709,
      "hangal": 4710,
      "makain": 4711,
      "nilamon": 4712,
      "ganyang": 4713,
      "bangan": 4714,
      "nangasumpungan": 4715,
      "malas": 4716,
      "Joel": 4717,
      "nangagbalik": 4718,
      "nagsisiusig": 4719,
      "ipinamanhik": 4720,
      "gaway": 4721,
      "susupukin": 4722,
      "kalum": 4723,
      "naparoroon": 4724,
      "wikang": 4725,
      "pinakamainam": 4726,
      "pinagsabihan": 4727,
      "ibinilin": 4728,
      "ibabagsak": 4729,
      "itinakda": 4730,
      "hihirap": 4731,
      "hinampas": 4732,
      "tatlongpu": 4733,
      "ningning": 4734,
      "kataasan": 4735,
      "edrin": 4736,
      "manatili": 4737,
      "eco": 4738,
      "malibang": 4739,
      "Magtindig": 4740,
      "pingan": 4741,
      "nawalan": 4742,
      "pinutol": 4743,
      "kinubkob": 4744,
      "palibotlibot": 4745,
      "pagsagot": 4746,
      "hambog": 4747,
      "Eliab": 4748,
      "katigilan": 4749,
      "bihasa": 4750,
      "abad": 4751,
      "umiiyak": 4752,
      "Ammonita": 4753,
      "mamahala": 4754,
      "tumatawag": 4755,
      "magpakalakas": 4756,
      "maamo": 4757,
      "matatag": 4758,
      "matatatag": 4759,
      "mapait": 4760,
      "nakakakilala": 4761,
      "tinipon": 4762,
      "malilipol": 4763,
      "mabait": 4764,
      "taginit": 4765,
      "maruming": 4766,
      "grado": 4767,
      "Zeba": 4768,
      "ihahagis": 4769,
      "pangangalunya": 4770,
      "Pinag": 4771,
      "hinuhod": 4772,
      "chor": 4773,
      "Achis": 4774,
      "tulisan": 4775,
      "cana": 4776,
      "nangakiki": 4777,
      "Elcana": 4778,
      "Semei": 4779,
      "iuunat": 4780,
      "makitang": 4781,
      "jubileo": 4782,
      "espesia": 4783,
      "lauta": 4784,
      "Maasias": 4785,
      "Timna": 4786,
      "panginoong": 4787,
      "balumbon": 4788,
      "binubukalan": 4789,
      "Asdod": 4790,
      "Ecron": 4791,
      "kakulangan": 4792,
      "Efeso": 4793,
      "Pherezeo": 4794,
      "Ado": 4795,
      "Adam": 4796,
      "Asia": 4797,
      "Bara": 4798,
      "Buma": 4799,
      "Cin": 4800,
      "Hat": 4801,
      "Im": 4802,
      "Ibini": 4803,
      "NG": 4804,
      "Sel": 4805,
      "Zim": 4806,
      "chias": 4807,
      "edom": 4808,
      "gon": 4809,
      "idalangin": 4810,
      "mel": 4811,
      "ur": 4812,
      "urong": 4813,
      "nais": 4814,
      "napatay": 4815,
      "nasira": 4816,
      "nadumhan": 4817,
      "kaa": 4818,
      "kayang": 4819,
      "kabag": 4820,
      "kaingay": 4821,
      "atay": 4822,
      "mahayag": 4823,
      "baog": 4824,
      "tawad": 4825,
      "wawalan": 4826,
      "wanagan": 4827,
      "itubos": 4828,
      "haka": 4829,
      "halo": 4830,
      "pagu": 4831,
      "pagla": 4832,
      "pagtangis": 4833,
      "pagtatagumpay": 4834,
      "bungang": 4835,
      "bumili": 4836,
      "magpipisan": 4837,
      "magpupuno": 4838,
      "nagligtas": 4839,
      "naglilingkod": 4840,
      "naghahari": 4841,
      "lugmok": 4842,
      "pangdigma": 4843,
      "nangyayari": 4844,
      "nanghula": 4845,
      "himi": 4846,
      "hiram": 4847,
      "mangyaya": 4848,
      "manghaha": 4849,
      "manghihiganti": 4850,
      "sinaway": 4851,
      "kilos": 4852,
      "humat": 4853,
      "humana": 4854,
      "pinaga": 4855,
      "pinasimulang": 4856,
      "nanunu": 4857,
      "tibayin": 4858,
      "pisanin": 4859,
      "gumu": 4860,
      "duwahagi": 4861,
      "makalalabas": 4862,
      "dalahan": 4863,
      "Simi": 4864,
      "Sisara": 4865,
      "ganting": 4866,
      "nangahulog": 4867,
      "panatili": 4868,
      "umabot": 4869,
      "ungu": 4870,
      "ginawan": 4871,
      "nangagi": 4872,
      "nangagsalita": 4873,
      "nangagbigay": 4874,
      "pamalo": 4875,
      "nagsisipasok": 4876,
      "ipinaki": 4877,
      "unos": 4878,
      "arim": 4879,
      "palakol": 4880,
      "buntong": 4881,
      "buntot": 4882,
      "bunyi": 4883,
      "pinagtibay": 4884,
      "nuin": 4885,
      "hinatulan": 4886,
      "sinumpa": 4887,
      "kataas": 4888,
      "magsisiparoon": 4889,
      "magsisiinom": 4890,
      "Semaias": 4891,
      "ipinagtayo": 4892,
      "lagyan": 4893,
      "pananalangin": 4894,
      "kasuutang": 4895,
      "pakikidigma": 4896,
      "makin": 4897,
      "pagpapatutot": 4898,
      "humihiwalay": 4899,
      "nilinis": 4900,
      "Haran": 4901,
      "ipahamak": 4902,
      "tinupad": 4903,
      "magpapasalamat": 4904,
      "kaparusahan": 4905,
      "umiinom": 4906,
      "binuhat": 4907,
      "kabantugan": 4908,
      "tumatakas": 4909,
      "talagang": 4910,
      "aahon": 4911,
      "Sanedrin": 4912,
      "nangakakita": 4913,
      "uusig": 4914,
      "pinapagmatigas": 4915,
      "Anath": 4916,
      "tagilirang": 4917,
      "kaliwanagan": 4918,
      "malalakas": 4919,
      "Uzzias": 4920,
      "kawasa": 4921,
      "nakikipagusap": 4922,
      "luwalhatiin": 4923,
      "sadya": 4924,
      "katandaan": 4925,
      "nakitang": 4926,
      "natatanaw": 4927,
      "Semeias": 4928,
      "waraywaray": 4929,
      "mbitan": 4930,
      "mangapapahiya": 4931,
      "tagumpay": 4932,
      "Eden": 4933,
      "pinatotohanan": 4934,
      "kundanganan": 4935,
      "Achitophel": 4936,
      "Roma": 4937,
      "abeto": 4938,
      "karaniwang": 4939,
      "Dumating": 4940,
      "katapangan": 4941,
      "senturion": 4942,
      "Ithamar": 4943,
      "karilagan": 4944,
      "musmos": 4945,
      "mangyayaring": 4946,
      "humanap": 4947,
      "Amon": 4948,
      "Dito": 4949,
      "Har": 4950,
      "Ke": 4951,
      "Ng": 4952,
      "Pali": 4953,
      "aani": 4954,
      "aalam": 4955,
      "cc": 4956,
      "dro": 4957,
      "fas": 4958,
      "ira": 4959,
      "ihanda": 4960,
      "ipatawad": 4961,
      "klak": 4962,
      "mpi": 4963,
      "res": 4964,
      "ve": 4965,
      "nahaha": 4966,
      "nalibing": 4967,
      "sapit": 4968,
      "kagana": 4969,
      "kaunawaan": 4970,
      "athita": 4971,
      "lapag": 4972,
      "paitaas": 4973,
      "pasalamat": 4974,
      "sib": 4975,
      "bai": 4976,
      "baan": 4977,
      "bait": 4978,
      "lila": 4979,
      "haharap": 4980,
      "paging": 4981,
      "pagtat": 4982,
      "pagsinta": 4983,
      "inaring": 4984,
      "inaaring": 4985,
      "dai": 4986,
      "buwang": 4987,
      "bukol": 4988,
      "butil": 4989,
      "magligtas": 4990,
      "magliligtas": 4991,
      "nagsaysay": 4992,
      "lubid": 4993,
      "tulos": 4994,
      "gayak": 4995,
      "suuban": 4996,
      "pagkaing": 4997,
      "pagkatu": 4998,
      "pagkayari": 4999,
      "hikayat": 5000,
      "hantong": 5001,
      "sinamba": 5002,
      "huel": 5003,
      "pinana": 5004,
      "pinalakas": 5005,
      "pinarami": 5006,
      "alamin": 5007,
      "lingid": 5008,
      "giginhawa": 5009,
      "guhit": 5010,
      "inisip": 5011,
      "Israelita": 5012,
      "bigla": 5013,
      "Nadab": 5014,
      "harapin": 5015,
      "nasaktan": 5016,
      "nangananahan": 5017,
      "magsiinom": 5018,
      "panamit": 5019,
      "panyapak": 5020,
      "tungo": 5021,
      "matalino": 5022,
      "anib": 5023,
      "nagsisiinom": 5024,
      "liliwanag": 5025,
      "Maka": 5026,
      "tagapagpa": 5027,
      "lindol": 5028,
      "nanatili": 5029,
      "mangagsi": 5030,
      "mangagpapa": 5031,
      "dumadaing": 5032,
      "pumaparito": 5033,
      "magsisipang": 5034,
      "manalangin": 5035,
      "pher": 5036,
      "inilagak": 5037,
      "maliwanag": 5038,
      "karalitaan": 5039,
      "pinggang": 5040,
      "mahabag": 5041,
      "ipinagsama": 5042,
      "binali": 5043,
      "maipanganak": 5044,
      "susunugan": 5045,
      "chri": 5046,
      "ising": 5047,
      "humihiyaw": 5048,
      "nilimot": 5049,
      "hiyawan": 5050,
      "Kahit": 5051,
      "kahabagan": 5052,
      "titibay": 5053,
      "titipunin": 5054,
      "lumihanan": 5055,
      "Paano": 5056,
      "mapapakinabangan": 5057,
      "dadaing": 5058,
      "dadaanin": 5059,
      "nagsilakad": 5060,
      "quia": 5061,
      "Magsiparito": 5062,
      "makikinig": 5063,
      "makikilos": 5064,
      "ngayong": 5065,
      "Gera": 5066,
      "anino": 5067,
      "tumanggi": 5068,
      "humahawak": 5069,
      "makipaglaban": 5070,
      "mangangalunya": 5071,
      "titindig": 5072,
      "Ahicam": 5073,
      "ramihin": 5074,
      "dumoon": 5075,
      "natutulog": 5076,
      "mangagpasalamat": 5077,
      "tioquia": 5078,
      "Gerso": 5079,
      "ipagkaloob": 5080,
      "Antioquia": 5081,
      "nangungulo": 5082,
      "minungkahi": 5083,
      "Ginawa": 5084,
      "Maacha": 5085,
      "jearim": 5086,
      "kawikaan": 5087,
      "kaguluhan": 5088,
      "Carmelo": 5089,
      "kalumbayan": 5090,
      "humatol": 5091,
      "kaganapan": 5092,
      "Alisin": 5093,
      "Bi": 5094,
      "Dina": 5095,
      "Eg": 5096,
      "Jar": 5097,
      "Manoa": 5098,
      "Nini": 5099,
      "Omri": 5100,
      "Pas": 5101,
      "Rim": 5102,
      "Recha": 5103,
      "bangin": 5104,
      "dat": 5105,
      "ilibing": 5106,
      "iwiwisik": 5107,
      "tla": 5108,
      "nanaginip": 5109,
      "nabasa": 5110,
      "sapat": 5111,
      "kalaban": 5112,
      "kaputol": 5113,
      "gapos": 5114,
      "maluma": 5115,
      "mabibigay": 5116,
      "maningas": 5117,
      "masisira": 5118,
      "balag": 5119,
      "limot": 5120,
      "tahang": 5121,
      "akuwil": 5122,
      "haharapin": 5123,
      "pagsasa": 5124,
      "pagdidigma": 5125,
      "ras": 5126,
      "ranan": 5127,
      "rakan": 5128,
      "dadaan": 5129,
      "busan": 5130,
      "magbangon": 5131,
      "magtatayo": 5132,
      "ris": 5133,
      "lutin": 5134,
      "tumali": 5135,
      "suka": 5136,
      "sumang": 5137,
      "pulong": 5138,
      "pangyayari": 5139,
      "nakinig": 5140,
      "pagkaalam": 5141,
      "pagkasira": 5142,
      "nangala": 5143,
      "nangakinig": 5144,
      "hilig": 5145,
      "hineo": 5146,
      "kulan": 5147,
      "patag": 5148,
      "pinainom": 5149,
      "doong": 5150,
      "alas": 5151,
      "alastasin": 5152,
      "guhin": 5153,
      "nagsibaba": 5154,
      "nagsitanggap": 5155,
      "iniingatan": 5156,
      "dumu": 5157,
      "makainom": 5158,
      "makatatayo": 5159,
      "makapapasok": 5160,
      "makatatanan": 5161,
      "Naas": 5162,
      "Narinig": 5163,
      "Sim": 5164,
      "eser": 5165,
      "leel": 5166,
      "nasasa": 5167,
      "nangaroon": 5168,
      "nangapopoot": 5169,
      "magsisilabas": 5170,
      "ungayaw": 5171,
      "nangagpaka": 5172,
      "itakuwil": 5173,
      "ipinako": 5174,
      "kinakain": 5175,
      "Maigi": 5176,
      "kaluguran": 5177,
      "saserdoteng": 5178,
      "palaso": 5179,
      "pinakatanda": 5180,
      "asawang": 5181,
      "pinagsi": 5182,
      "pinagta": 5183,
      "ibababa": 5184,
      "itinata": 5185,
      "itinanim": 5186,
      "itinaboy": 5187,
      "mangabuhay": 5188,
      "lumaki": 5189,
      "hihiyaw": 5190,
      "sinunod": 5191,
      "magaasawa": 5192,
      "ibabangon": 5193,
      "sumakaniya": 5194,
      "sumapit": 5195,
      "sasar": 5196,
      "propetang": 5197,
      "pinggan": 5198,
      "Sem": 5199,
      "inoo": 5200,
      "pinuri": 5201,
      "ipinagkasala": 5202,
      "nagpakita": 5203,
      "maiiwan": 5204,
      "isinampa": 5205,
      "pagsama": 5206,
      "kaliit": 5207,
      "kaliwang": 5208,
      "matira": 5209,
      "sumisi": 5210,
      "takda": 5211,
      "mapagbiyaya": 5212,
      "tumulong": 5213,
      "mananatili": 5214,
      "Repha": 5215,
      "pinigil": 5216,
      "ibinuka": 5217,
      "mangatiti": 5218,
      "Asael": 5219,
      "nakipaglaban": 5220,
      "panukala": 5221,
      "ipangingilin": 5222,
      "omer": 5223,
      "utismo": 5224,
      "Ananias": 5225,
      "wikaan": 5226,
      "patawarin": 5227,
      "thanias": 5228,
      "dahilan": 5229,
      "bahag": 5230,
      "nangangabayo": 5231,
      "nagbubunga": 5232,
      "Michal": 5233,
      "Sarai": 5234,
      "inaakalang": 5235,
      "Tobias": 5236,
      "Ipinamamanhik": 5237,
      "pamukpok": 5238,
      "Benaia": 5239,
      "ulunan": 5240,
      "gagantihin": 5241,
      "Umahon": 5242,
      "pinagsisikapan": 5243,
      "banggitin": 5244,
      "Libna": 5245,
      "lumingon": 5246,
      "kalakhan": 5247,
      "argolya": 5248,
      "Nethineo": 5249,
      "Gumawa": 5250,
      "katanghaliang": 5251,
      "Ibinigay": 5252,
      "Rimmon": 5253,
      "malumanay": 5254,
      "):": 5255,
      "Aho": 5256,
      "Anim": 5257,
      "Kumu": 5258,
      "Mel": 5259,
      "Phu": 5260,
      "Sen": 5261,
      "Tuma": 5262,
      "Talastasin": 5263,
      "aalis": 5264,
      "agas": 5265,
      "agad": 5266,
      "enita": 5267,
      "ebe": 5268,
      "ikasa": 5269,
      "ihayag": 5270,
      "isusulat": 5271,
      "ikubli": 5272,
      "iinumin": 5273,
      "plauta": 5274,
      "vo": 5275,
      "sarong": 5276,
      "sarea": 5277,
      "kabang": 5278,
      "kaham": 5279,
      "kabayong": 5280,
      "kabayaran": 5281,
      "kawangis": 5282,
      "kamalig": 5283,
      "ninanasa": 5284,
      "malik": 5285,
      "maitim": 5286,
      "paw": 5287,
      "pawalan": 5288,
      "sisiyahan": 5289,
      "livo": 5290,
      "bitin": 5291,
      "bihis": 5292,
      "wawasak": 5293,
      "akilan": 5294,
      "hahagis": 5295,
      "habulin": 5296,
      "pagtiti": 5297,
      "pagtingin": 5298,
      "pagsuway": 5299,
      "inakala": 5300,
      "dar": 5301,
      "magtayo": 5302,
      "maglagay": 5303,
      "magsunog": 5304,
      "magsusugo": 5305,
      "nagmula": 5306,
      "naglalagay": 5307,
      "naghanda": 5308,
      "naglalabas": 5309,
      "nagtaas": 5310,
      "naghalal": 5311,
      "rib": 5312,
      "turuan": 5313,
      "tuloy": 5314,
      "pangyapak": 5315,
      "nangakita": 5316,
      "hinuli": 5317,
      "kub": 5318,
      "kulong": 5319,
      "patiti": 5320,
      "pinatutu": 5321,
      "pinakinggan": 5322,
      "tikan": 5323,
      "pinig": 5324,
      "pisaan": 5325,
      "kasalan": 5326,
      "aralan": 5327,
      "babaliin": 5328,
      "nagsihiwalay": 5329,
      "ikaluluwalhati": 5330,
      "wagin": 5331,
      "sopo": 5332,
      "makalawa": 5333,
      "tandang": 5334,
      "malaong": 5335,
      "malabis": 5336,
      "kandili": 5337,
      "basbasan": 5338,
      "tatan": 5339,
      "ungusap": 5340,
      "Jotham": 5341,
      "matabang": 5342,
      "nangaghihintay": 5343,
      "buhayin": 5344,
      "anita": 5345,
      "nagsisiparoon": 5346,
      "likdan": 5347,
      "napahamak": 5348,
      "eor": 5349,
      "kunwaring": 5350,
      "ariing": 5351,
      "amain": 5352,
      "gatong": 5353,
      "pinagpa": 5354,
      "nuan": 5355,
      "mangabubuhay": 5356,
      "lumalang": 5357,
      "karit": 5358,
      "karro": 5359,
      "asawahin": 5360,
      "hinan": 5361,
      "hinagkan": 5362,
      "ibalita": 5363,
      "katahimi": 5364,
      "edan": 5365,
      "katubusan": 5366,
      "dalhing": 5367,
      "mahahabag": 5368,
      "ipinaghanda": 5369,
      "ipinagkatiwala": 5370,
      "bumababa": 5371,
      "binaba": 5372,
      "pararamihin": 5373,
      "pangalat": 5374,
      "pakikinig": 5375,
      "Elisama": 5376,
      "Sinagot": 5377,
      "kabulukan": 5378,
      "hangganang": 5379,
      "Kaniya": 5380,
      "titigil": 5381,
      "Ammi": 5382,
      "nimbang": 5383,
      "makapagliligtas": 5384,
      "pagdaraya": 5385,
      "aabot": 5386,
      "Nethanias": 5387,
      "namanglaw": 5388,
      "inanyayahan": 5389,
      "sinisikatan": 5390,
      "nangakarinig": 5391,
      "sasakyang": 5392,
      "pasakop": 5393,
      "palyok": 5394,
      "ibinalik": 5395,
      "payaunin": 5396,
      "Rubenita": 5397,
      "Cesarea": 5398,
      "Matu": 5399,
      "humawak": 5400,
      "malalaki": 5401,
      "nalalamang": 5402,
      "upasala": 5403,
      "batik": 5404,
      "timbangan": 5405,
      "sampahan": 5406,
      "kamaganakan": 5407,
      "nagdaramdam": 5408,
      "luwalhating": 5409,
      "pinakikinggan": 5410,
      "Horeb": 5411,
      "tinangnan": 5412,
      "barakilan": 5413,
      "pinalapit": 5414,
      "pamumuhay": 5415,
      "mapagpaimbabaw": 5416,
      "kabila": 5417,
      "handusay": 5418,
      "tumatangis": 5419,
      "Lumapit": 5420,
      "Eliasib": 5421,
      "Binabati": 5422,
      "manunumbalik": 5423,
      "kahinaan": 5424,
      "mamimighati": 5425,
      "Ninive": 5426,
      "sumangguni": 5427,
      "pinighati": 5428,
      "katahimikan": 5429,
      "Ag": 5430,
      "Al": 5431,
      "Akong": 5432,
      "Ahim": 5433,
      "Cham": 5434,
      "Do": 5435,
      "Kinu": 5436,
      "Le": 5437,
      "Mala": 5438,
      "Mes": 5439,
      "Muli": 5440,
      "Pang": 5441,
      "av": 5442,
      "eel": 5443,
      "glo": 5444,
      "iel": 5445,
      "ja": 5446,
      "kbong": 5447,
      "kyat": 5448,
      "runong": 5449,
      "uel": 5450,
      "uwak": 5451,
      "nabilang": 5452,
      "nahiga": 5453,
      "kasangbahay": 5454,
      "kaalit": 5455,
      "kapanganakan": 5456,
      "atha": 5457,
      "lamunin": 5458,
      "galig": 5459,
      "gail": 5460,
      "gaanong": 5461,
      "mapupuno": 5462,
      "maluwalhati": 5463,
      "mabibilang": 5464,
      "maluwalhating": 5465,
      "paang": 5466,
      "pasusu": 5467,
      "pahiya": 5468,
      "pahinga": 5469,
      "sisiyasatin": 5470,
      "bakod": 5471,
      "babatuhin": 5472,
      "tad": 5473,
      "tampala": 5474,
      "bito": 5475,
      "paglulu": 5476,
      "pagbibigay": 5477,
      "Athali": 5478,
      "inaali": 5479,
      "inaari": 5480,
      "inadab": 5481,
      "bunan": 5482,
      "magpuno": 5483,
      "magbabangon": 5484,
      "nagba": 5485,
      "naghain": 5486,
      "nagningas": 5487,
      "nagkasakit": 5488,
      "luku": 5489,
      "lugin": 5490,
      "dik": 5491,
      "dilig": 5492,
      "tuk": 5493,
      "sugpong": 5494,
      "subasob": 5495,
      "pumat": 5496,
      "pusong": 5497,
      "pugad": 5498,
      "panging": 5499,
      "pangaral": 5500,
      "panginginig": 5501,
      "panghampas": 5502,
      "panghihimagsik": 5503,
      "oso": 5504,
      "pagkapahamak": 5505,
      "hilan": 5506,
      "hikaw": 5507,
      "hinang": 5508,
      "hinlalaki": 5509,
      "siyaong": 5510,
      "mangaki": 5511,
      "handang": 5512,
      "muan": 5513,
      "matang": 5514,
      "matalas": 5515,
      "patnubay": 5516,
      "lalamunin": 5517,
      "hum": 5518,
      "hun": 5519,
      "pinapagpa": 5520,
      "sabias": 5521,
      "tiling": 5522,
      "mira": 5523,
      "kaysa": 5524,
      "araro": 5525,
      "babasa": 5526,
      "nagsilusong": 5527,
      "ikaliligtas": 5528,
      "ikabubuhay": 5529,
      "inihalaga": 5530,
      "iniligaw": 5531,
      "dugong": 5532,
      "dalaw": 5533,
      "dalagang": 5534,
      "daladalahan": 5535,
      "Nachor": 5536,
      "Sic": 5537,
      "Siba": 5538,
      "papahiran": 5539,
      "magsibalik": 5540,
      "magsialis": 5541,
      "isama": 5542,
      "umaa": 5543,
      "umaabot": 5544,
      "umaagos": 5545,
      "umakyat": 5546,
      "panulo": 5547,
      "panumbalik": 5548,
      "Jephon": 5549,
      "Joc": 5550,
      "Jona": 5551,
      "nangagu": 5552,
      "nangagpatirapa": 5553,
      "ipinapagkasala": 5554,
      "kalupkop": 5555,
      "napaka": 5556,
      "wiranan": 5557,
      "tangan": 5558,
      "walaan": 5559,
      "arga": 5560,
      "pakakanin": 5561,
      "acim": 5562,
      "tayan": 5563,
      "gumagawang": 5564,
      "pinagka": 5565,
      "pinaglingkuran": 5566,
      "tatahang": 5567,
      "yayaong": 5568,
      "mangagsisi": 5569,
      "mangagkaka": 5570,
      "mangakaka": 5571,
      "hinahatulan": 5572,
      "sinulat": 5573,
      "sinupok": 5574,
      "katawang": 5575,
      "magsisisamba": 5576,
      "katulong": 5577,
      "bagbag": 5578,
      "magpakatapang": 5579,
      "sumalubong": 5580,
      "sasaway": 5581,
      "mahabang": 5582,
      "pagal": 5583,
      "ratingin": 5584,
      "dinalaw": 5585,
      "Amarias": 5586,
      "paraanin": 5587,
      "hahawak": 5588,
      "hahabulin": 5589,
      "naganap": 5590,
      "Abigail": 5591,
      "Anomang": 5592,
      "balbas": 5593,
      "tinulungan": 5594,
      "Aminadab": 5595,
      "naum": 5596,
      "Caper": 5597,
      "nangatu": 5598,
      "Pabayaan": 5599,
      "puputulin": 5600,
      "Succ": 5601,
      "dena": 5602,
      "minasdan": 5603,
      "matatayo": 5604,
      "tatagang": 5605,
      "itatakuwil": 5606,
      "Magsiparoon": 5607,
      "Mangyayari": 5608,
      "mangatutu": 5609,
      "maliligo": 5610,
      "nanganganlong": 5611,
      "mahiko": 5612,
      "mahihina": 5613,
      "pasampa": 5614,
      "tatangi": 5615,
      "panumpa": 5616,
      "Gaano": 5617,
      "ipanganak": 5618,
      "ipangaral": 5619,
      "balisa": 5620,
      "tagapagligtas": 5621,
      "waksi": 5622,
      "Arabia": 5623,
      "pagkakaalit": 5624,
      "ihaharap": 5625,
      "binibigyan": 5626,
      "pangangasiwa": 5627,
      "dilidili": 5628,
      "nangangailangan": 5629,
      "matatapang": 5630,
      "nalalapit": 5631,
      "etheo": 5632,
      "saces": 5633,
      "sawayin": 5634,
      "Beerseba": 5635,
      "kinilos": 5636,
      "humukay": 5637,
      "nangagkakatipon": 5638,
      "bubunutin": 5639,
      "mangingibig": 5640,
      "Rabsaces": 5641,
      "ereta": 5642,
      "magsasaka": 5643,
      "manglilipol": 5644,
      "pinanganlang": 5645,
      "Pumaroon": 5646,
      "pigingan": 5647,
      "pandereta": 5648,
      "magbabayad": 5649,
      "Naaman": 5650,
      "kahulihuli": 5651,
      "marilag": 5652,
      "Sinugo": 5653,
      "bulaang": 5654,
      "Aroer": 5655,
      "hudyat": 5656,
      "Anathoth": 5657,
      "Kumuha": 5658,
      "kahambugan": 5659,
      "Matuwid": 5660,
      "Ahimelech": 5661,
      "globito": 5662,
      "panulok": 5663,
      "Jephone": 5664,
      "Capernaum": 5665,
      "Succoth": 5666,
      "Ari": 5667,
      "Bani": 5668,
      "Gos": 5669,
      "Hin": 5670,
      "Id": 5671,
      "Ipag": 5672,
      "Ipinag": 5673,
      "Mis": 5674,
      "Ose": 5675,
      "Pu": 5676,
      "Pati": 5677,
      "Tat": 5678,
      "epa": 5679,
      "era": 5680,
      "igawa": 5681,
      "ihain": 5682,
      "ibubuwal": 5683,
      "ipatata": 5684,
      "iilanglang": 5685,
      "iyakan": 5686,
      "jer": 5687,
      "jes": 5688,
      "khang": 5689,
      "linu": 5690,
      "msaman": 5691,
      "nting": 5692,
      "nsad": 5693,
      "spos": 5694,
      "tra": 5695,
      "tnan": 5696,
      "ugong": 5697,
      "zara": 5698,
      "nabubu": 5699,
      "nabagsak": 5700,
      "kasira": 5701,
      "ayong": 5702,
      "nib": 5703,
      "niwalang": 5704,
      "niluwalhati": 5705,
      "niluluwalhati": 5706,
      "niebe": 5707,
      "gai": 5708,
      "gasin": 5709,
      "gamot": 5710,
      "gaganapin": 5711,
      "makasa": 5712,
      "maas": 5713,
      "mapaki": 5714,
      "mainom": 5715,
      "mamalagi": 5716,
      "sid": 5717,
      "siniya": 5718,
      "simba": 5719,
      "liba": 5720,
      "tasa": 5721,
      "tamo": 5722,
      "tawid": 5723,
      "tapon": 5724,
      "tajer": 5725,
      "wakasan": 5726,
      "akyat": 5727,
      "ith": 5728,
      "hab": 5729,
      "halos": 5730,
      "pagwa": 5731,
      "pagpu": 5732,
      "pagdalaw": 5733,
      "daman": 5734,
      "daluhong": 5735,
      "bung": 5736,
      "buyan": 5737,
      "bulungan": 5738,
      "bunot": 5739,
      "maghihintay": 5740,
      "naghukom": 5741,
      "nagmamadali": 5742,
      "riam": 5743,
      "lutang": 5744,
      "tur": 5745,
      "suhin": 5746,
      "sungan": 5747,
      "puk": 5748,
      "pangang": 5749,
      "pangpahid": 5750,
      "sangkalangitan": 5751,
      "mangha": 5752,
      "mangakinig": 5753,
      "lobo": 5754,
      "mante": 5755,
      "manok": 5756,
      "sinampa": 5757,
      "mura": 5758,
      "kim": 5759,
      "matalastas": 5760,
      "lalapastanganin": 5761,
      "Saka": 5762,
      "Sadra": 5763,
      "humara": 5764,
      "hubog": 5765,
      "hukuman": 5766,
      "pinapatay": 5767,
      "tira": 5768,
      "tipunan": 5769,
      "mir": 5770,
      "gigibain": 5771,
      "gumin": 5772,
      "babahagi": 5773,
      "nagsisalangsang": 5774,
      "ikaka": 5775,
      "ikalima": 5776,
      "ikapito": 5777,
      "ikadalawangpu": 5778,
      "inihain": 5779,
      "inilalabas": 5780,
      "makaalam": 5781,
      "wangan": 5782,
      "esto": 5783,
      "nangapapa": 5784,
      "nangamamatay": 5785,
      "nangagalak": 5786,
      "magkakapatid": 5787,
      "gayahan": 5788,
      "magsisamba": 5789,
      "magsisilakad": 5790,
      "Jeho": 5791,
      "ginagawang": 5792,
      "nakaaalam": 5793,
      "nakapanamit": 5794,
      "nagsisisunod": 5795,
      "nagsisibangon": 5796,
      "nagsisitawag": 5797,
      "nagsisiusad": 5798,
      "nagsisihawak": 5799,
      "liligaw": 5800,
      "mabubusog": 5801,
      "unubos": 5802,
      "naparirito": 5803,
      "tanging": 5804,
      "tangke": 5805,
      "kalag": 5806,
      "sayin": 5807,
      "tingga": 5808,
      "magusisa": 5809,
      "mangagsalita": 5810,
      "itinali": 5811,
      "Hur": 5812,
      "dinaya": 5813,
      "sinun": 5814,
      "pumapatay": 5815,
      "magalit": 5816,
      "Abed": 5817,
      "piritung": 5818,
      "sumaiyo": 5819,
      "Bela": 5820,
      "nawawala": 5821,
      "pagaayuno": 5822,
      "nagpauna": 5823,
      "pananamit": 5824,
      "pananalitang": 5825,
      "lulubog": 5826,
      "tumanan": 5827,
      "tumahang": 5828,
      "paraa": 5829,
      "kaluwalhatiang": 5830,
      "pakikisama": 5831,
      "yutan": 5832,
      "himbing": 5833,
      "ipakita": 5834,
      "nagpapasalamat": 5835,
      "Laza": 5836,
      "Heman": 5837,
      "kapakinabangan": 5838,
      "ipagtayo": 5839,
      "kamangha": 5840,
      "lumikha": 5841,
      "Mephi": 5842,
      "nawin": 5843,
      "nangatiti": 5844,
      "palatuntunang": 5845,
      "pupugnaw": 5846,
      "bugbog": 5847,
      "Magsiawit": 5848,
      "pakikipagtalo": 5849,
      "Rabi": 5850,
      "malilinis": 5851,
      "nanganganak": 5852,
      "Japh": 5853,
      "Nabuzara": 5854,
      "Soba": 5855,
      "Gadita": 5856,
      "ipangilin": 5857,
      "tumatayo": 5858,
      "manganganak": 5859,
      "Arpha": 5860,
      "Artajer": 5861,
      "kumakatha": 5862,
      "makipagbaka": 5863,
      "parisukat": 5864,
      "pangangailangan": 5865,
      "Mangagingat": 5866,
      "hinukay": 5867,
      "nego": 5868,
      "natutunaw": 5869,
      "upahan": 5870,
      "tinuturuan": 5871,
      "tinutukso": 5872,
      "nagdaraan": 5873,
      "kabanalbanalan": 5874,
      "Marami": 5875,
      "lumagay": 5876,
      "matitira": 5877,
      "maglalapat": 5878,
      "mumulaklak": 5879,
      "natitira": 5880,
      "ulupong": 5881,
      "Ziph": 5882,
      "giniba": 5883,
      "husayin": 5884,
      "Agar": 5885,
      "enkanto": 5886,
      "Uzziel": 5887,
      "Manunubos": 5888,
      "Phares": 5889,
      "pagkakasugpong": 5890,
      "Jerobaal": 5891,
      "Tarsis": 5892,
      "pagagalingin": 5893,
      "Mesach": 5894,
      "mailap": 5895,
      "Zimri": 5896,
      "makintab": 5897,
      "Keila": 5898,
      "aanihin": 5899,
      "Athalia": 5900,
      "Siclag": 5901,
      "Jonadab": 5902,
      "argamasa": 5903,
      "kahulihulihang": 5904,
      "Gosen": 5905,
      "Oseas": 5906,
      "Sadrach": 5907,
      "humarap": 5908,
      "guminhawa": 5909,
      "Lazaro": 5910,
      "Mephiboseth": 5911,
      "Nabuzaradan": 5912,
      "Artajerjes": 5913,
      "Ale": 5914,
      "Asta": 5915,
      "Adad": 5916,
      "Cora": 5917,
      "Doo": 5918,
      "Dakila": 5919,
      "Eno": 5920,
      "Ges": 5921,
      "Or": 5922,
      "Oph": 5923,
      "Olivo": 5924,
      "Pitong": 5925,
      "Sop": 5926,
      "Tito": 5927,
      "Teco": 5928,
      "Urias": 5929,
      "ah": 5930,
      "cet": 5931,
      "ipapa": 5932,
      "ipapasok": 5933,
      "mtan": 5934,
      "nta": 5935,
      "phir": 5936,
      "ulang": 5937,
      "ugali": 5938,
      "ysayan": 5939,
      "nalalagay": 5940,
      "napoot": 5941,
      "nataas": 5942,
      "sarang": 5943,
      "katao": 5944,
      "karin": 5945,
      "kalilimutan": 5946,
      "nilingap": 5947,
      "lap": 5948,
      "lalata": 5949,
      "mabi": 5950,
      "maaari": 5951,
      "manini": 5952,
      "mahuhulog": 5953,
      "mahimbing": 5954,
      "par": 5955,
      "pakita": 5956,
      "sikang": 5957,
      "lipos": 5958,
      "lipas": 5959,
      "taa": 5960,
      "tai": 5961,
      "tawa": 5962,
      "bir": 5963,
      "biy": 5964,
      "akipag": 5965,
      "itig": 5966,
      "ititi": 5967,
      "habi": 5968,
      "halay": 5969,
      "paghahandog": 5970,
      "pagpupu": 5971,
      "inaalis": 5972,
      "daia": 5973,
      "buki": 5974,
      "bukang": 5975,
      "maglulu": 5976,
      "nagiwan": 5977,
      "nagpisan": 5978,
      "naghahain": 5979,
      "naghahasik": 5980,
      "riwa": 5981,
      "luray": 5982,
      "panguna": 5983,
      "panganganak": 5984,
      "panganib": 5985,
      "nakmal": 5986,
      "pagkasabi": 5987,
      "hibik": 5988,
      "sangdaling": 5989,
      "sinasa": 5990,
      "sinasaksi": 5991,
      "sinasadya": 5992,
      "kikita": 5993,
      "niyapakan": 5994,
      "Sadu": 5995,
      "pinapang": 5996,
      "pinasimulan": 5997,
      "pilit": 5998,
      "kasaysayan": 5999,
      "gugol": 6000,
      "nagsisamba": 6001,
      "ayaunin": 6002,
      "dut": 6003,
      "durog": 6004,
      "ronita": 6005,
      "sor": 6006,
      "makapasok": 6007,
      "makapal": 6008,
      "dalawin": 6009,
      "lath": 6010,
      "Naka": 6011,
      "nasain": 6012,
      "gayakan": 6013,
      "magsitakas": 6014,
      "basbas": 6015,
      "tatakot": 6016,
      "ungin": 6017,
      "Jop": 6018,
      "nangagsugo": 6019,
      "alituntunin": 6020,
      "ulog": 6021,
      "lilibuhin": 6022,
      "kinata": 6023,
      "Mahana": 6024,
      "kalugdan": 6025,
      "uth": 6026,
      "liksik": 6027,
      "horon": 6028,
      "kasalahan": 6029,
      "kalawakan": 6030,
      "palaka": 6031,
      "pinakain": 6032,
      "tayuan": 6033,
      "tatahimik": 6034,
      "tatawad": 6035,
      "itinataas": 6036,
      "magingat": 6037,
      "matulin": 6038,
      "sinulatan": 6039,
      "pumariyan": 6040,
      "walayan": 6041,
      "katabaan": 6042,
      "katalinu": 6043,
      "magsisitayo": 6044,
      "magsisiparito": 6045,
      "manaw": 6046,
      "manahan": 6047,
      "bibigkisan": 6048,
      "inilapit": 6049,
      "sumbong": 6050,
      "sumaksi": 6051,
      "Magda": 6052,
      "Set": 6053,
      "kabuo": 6054,
      "pagalan": 6055,
      "tutulungan": 6056,
      "nagpahinga": 6057,
      "isinauli": 6058,
      "mukhaan": 6059,
      "pagpapahinuhod": 6060,
      "hahanap": 6061,
      "katigasan": 6062,
      "kalimutan": 6063,
      "Hasabias": 6064,
      "nagpapahayag": 6065,
      "kahapon": 6066,
      "kahapisan": 6067,
      "pulupulutong": 6068,
      "kampi": 6069,
      "halip": 6070,
      "tinatakpan": 6071,
      "magpapahinga": 6072,
      "sulatan": 6073,
      "ipagtatayo": 6074,
      "umibig": 6075,
      "nananalangin": 6076,
      "Amos": 6077,
      "Amram": 6078,
      "lumilipad": 6079,
      "hiniwalayan": 6080,
      "patotohanan": 6081,
      "chakal": 6082,
      "Bethel": 6083,
      "Media": 6084,
      "Ephron": 6085,
      "sumisira": 6086,
      "nauunawa": 6087,
      "Sinoman": 6088,
      "bilinan": 6089,
      "taksil": 6090,
      "mapagmataas": 6091,
      "sinipingan": 6092,
      "isinuot": 6093,
      "taghoy": 6094,
      "uurong": 6095,
      "makikisama": 6096,
      "Rahab": 6097,
      "pinilit": 6098,
      "nagsisipaglingkod": 6099,
      "Gezer": 6100,
      "sundan": 6101,
      "marurunong": 6102,
      "humahamak": 6103,
      "tiktik": 6104,
      "Tawagin": 6105,
      "ipakikita": 6106,
      "Coathita": 6107,
      "lumbay": 6108,
      "lumpo": 6109,
      "kapusungan": 6110,
      "heba": 6111,
      "naiwang": 6112,
      "Uzza": 6113,
      "mabangong": 6114,
      "nalalabi": 6115,
      "itinuturo": 6116,
      "kutsarang": 6117,
      "Carea": 6118,
      "paglililo": 6119,
      "Madianita": 6120,
      "tataglayin": 6121,
      "tanikalang": 6122,
      "inaagasan": 6123,
      "Marahil": 6124,
      "naaalaala": 6125,
      "usisa": 6126,
      "milihan": 6127,
      "pagalingin": 6128,
      "Debir": 6129,
      "dragon": 6130,
      "mamanahin": 6131,
      "Malchias": 6132,
      "pinanganlan": 6133,
      "nangandoon": 6134,
      "nggaban": 6135,
      "Nakikita": 6136,
      "Husai": 6137,
      "sunugin": 6138,
      "mandag": 6139,
      "pinagpapala": 6140,
      "nangakikinig": 6141,
      "Barac": 6142,
      "kabagsikan": 6143,
      "waraywarayin": 6144,
      "Palibhasa": 6145,
      "pinagsikapan": 6146,
      "denario": 6147,
      "Iddo": 6148,
      "simbalo": 6149,
      "pukyutan": 6150,
      "Jehova": 6151,
      "sinundan": 6152,
      "cetro": 6153,
      "Saduceo": 6154,
      "Mahanaim": 6155,
      "katalinuhan": 6156,
      "Ata": 6157,
      "Aha": 6158,
      "Ahias": 6159,
      "Festo": 6160,
      "Hina": 6161,
      "Hag": 6162,
      "Hasa": 6163,
      "Ilagay": 6164,
      "Idum": 6165,
      "Nim": 6166,
      "Ophir": 6167,
      "Thir": 6168,
      "adita": 6169,
      "con": 6170,
      "cos": 6171,
      "calon": 6172,
      "dres": 6173,
      "enai": 6174,
      "iharap": 6175,
      "ipini": 6176,
      "ikiling": 6177,
      "isusuot": 6178,
      "kdal": 6179,
      "mpang": 6180,
      "mbot": 6181,
      "ndo": 6182,
      "nsin": 6183,
      "tsu": 6184,
      "thi": 6185,
      "uti": 6186,
      "wig": 6187,
      "zabad": 6188,
      "nayari": 6189,
      "nalag": 6190,
      "naalis": 6191,
      "narat": 6192,
      "nache": 6193,
      "napipighati": 6194,
      "kawalan": 6195,
      "kamar": 6196,
      "ninasa": 6197,
      "nilulu": 6198,
      "lasa": 6199,
      "lapastanganin": 6200,
      "garing": 6201,
      "gagawan": 6202,
      "mapatay": 6203,
      "maalaala": 6204,
      "mahigit": 6205,
      "mainit": 6206,
      "maibigin": 6207,
      "madilim": 6208,
      "pawan": 6209,
      "pagali": 6210,
      "palayo": 6211,
      "pakanin": 6212,
      "paroroonan": 6213,
      "pahiran": 6214,
      "pamilihan": 6215,
      "bada": 6216,
      "lilitaw": 6217,
      "yad": 6218,
      "tania": 6219,
      "tador": 6220,
      "binag": 6221,
      "wawalang": 6222,
      "hai": 6223,
      "hahang": 6224,
      "halili": 6225,
      "halim": 6226,
      "hapak": 6227,
      "hanias": 6228,
      "paghihiwalay": 6229,
      "pagpupulong": 6230,
      "inain": 6231,
      "inaalaala": 6232,
      "daanan": 6233,
      "bumi": 6234,
      "bumaka": 6235,
      "maghain": 6236,
      "magmadali": 6237,
      "naglala": 6238,
      "nagturo": 6239,
      "nagsunog": 6240,
      "nagkulang": 6241,
      "nagmadaling": 6242,
      "nagdadalamhati": 6243,
      "nagkukulang": 6244,
      "luhang": 6245,
      "lungin": 6246,
      "luhod": 6247,
      "dikit": 6248,
      "tug": 6249,
      "yod": 6250,
      "sua": 6251,
      "suhan": 6252,
      "sugin": 6253,
      "hinog": 6254,
      "mangung": 6255,
      "mangakita": 6256,
      "kupin": 6257,
      "kuwin": 6258,
      "muni": 6259,
      "matha": 6260,
      "patang": 6261,
      "pinara": 6262,
      "pinapatnubayan": 6263,
      "tipunin": 6264,
      "mim": 6265,
      "erno": 6266,
      "pile": 6267,
      "pierno": 6268,
      "kasakda": 6269,
      "kasaluku": 6270,
      "bante": 6271,
      "gib": 6272,
      "gis": 6273,
      "gupit": 6274,
      "guho": 6275,
      "babalutin": 6276,
      "nagsirating": 6277,
      "ikapapahamak": 6278,
      "initan": 6279,
      "inihahandog": 6280,
      "dumala": 6281,
      "dumaki": 6282,
      "sandali": 6283,
      "nom": 6284,
      "espiritung": 6285,
      "lena": 6286,
      "nangabusog": 6287,
      "papawiin": 6288,
      "magsihiwalay": 6289,
      "malasakit": 6290,
      "sindak": 6291,
      "ibibilang": 6292,
      "tatanong": 6293,
      "obato": 6294,
      "Jeth": 6295,
      "Jedut": 6296,
      "batobato": 6297,
      "itanyag": 6298,
      "nakagawa": 6299,
      "nakatayong": 6300,
      "nakapatong": 6301,
      "nangagdala": 6302,
      "nangagbubu": 6303,
      "nangagkaroon": 6304,
      "nangagkatipon": 6305,
      "nagsisitayo": 6306,
      "lilipas": 6307,
      "bingi": 6308,
      "Maha": 6309,
      "sariwa": 6310,
      "namanhik": 6311,
      "laksa": 6312,
      "naparoong": 6313,
      "kunwari": 6314,
      "kalagan": 6315,
      "layin": 6316,
      "hatias": 6317,
      "gumagalaw": 6318,
      "nayaya": 6319,
      "pinagsasa": 6320,
      "pinagkalooban": 6321,
      "pinagkasalahan": 6322,
      "tatawid": 6323,
      "ibinitin": 6324,
      "mangagdala": 6325,
      "mangaglingkod": 6326,
      "mangagingat": 6327,
      "mangagsasalita": 6328,
      "itinago": 6329,
      "itinatayo": 6330,
      "Humi": 6331,
      "lumabis": 6332,
      "halagang": 6333,
      "hihirapan": 6334,
      "hinahabol": 6335,
      "sinunggaban": 6336,
      "impierno": 6337,
      "patibay": 6338,
      "patisod": 6339,
      "edec": 6340,
      "katunayan": 6341,
      "bubusog": 6342,
      "malias": 6343,
      "limos": 6344,
      "sumalangsang": 6345,
      "Magpaka": 6346,
      "Magingat": 6347,
      "kapaya": 6348,
      "mahalay": 6349,
      "mahahayag": 6350,
      "mahabagin": 6351,
      "pinanggalingan": 6352,
      "Este": 6353,
      "ipinagdiwang": 6354,
      "kaarawang": 6355,
      "bumabalik": 6356,
      "kahariang": 6357,
      "nagpapaging": 6358,
      "binadab": 6359,
      "lulugmok": 6360,
      "pagsaway": 6361,
      "pararatingin": 6362,
      "daliring": 6363,
      "balikin": 6364,
      "loobang": 6365,
      "pagpapagal": 6366,
      "Elipha": 6367,
      "Eliezer": 6368,
      "yurakan": 6369,
      "kaligayahan": 6370,
      "Hada": 6371,
      "Hamor": 6372,
      "ipako": 6373,
      "nagpapahinga": 6374,
      "sumasagot": 6375,
      "iahon": 6376,
      "Kailan": 6377,
      "Silas": 6378,
      "ipagdidiwang": 6379,
      "binubuhay": 6380,
      "matigasin": 6381,
      "mamamana": 6382,
      "pagiingat": 6383,
      "mitra": 6384,
      "Mich": 6385,
      "Miriam": 6386,
      "kumukuha": 6387,
      "pupunuin": 6388,
      "maaawa": 6389,
      "mapapalad": 6390,
      "dadalangin": 6391,
      "nagsipagsalita": 6392,
      "takpan": 6393,
      "Benja": 6394,
      "Nebo": 6395,
      "alinlangan": 6396,
      "mapapatay": 6397,
      "mapahiya": 6398,
      "halagahan": 6399,
      "mananaig": 6400,
      "itatalaga": 6401,
      "Magsipag": 6402,
      "palit": 6403,
      "Remalias": 6404,
      "Nagkaroon": 6405,
      "pagasawa": 6406,
      "Galaadita": 6407,
      "nakipagsalitaan": 6408,
      "dayain": 6409,
      "hanael": 6410,
      "ayuan": 6411,
      "ibinalita": 6412,
      "Ascalon": 6413,
      "kaululan": 6414,
      "tumangis": 6415,
      "sambahin": 6416,
      "titingin": 6417,
      "paririyan": 6418,
      "Marta": 6419,
      "masipag": 6420,
      "mangakakita": 6421,
      "hurnong": 6422,
      "layain": 6423,
      "kagipitan": 6424,
      "natutuyo": 6425,
      "Nathanael": 6426,
      "pisngi": 6427,
      "nagtamo": 6428,
      "pagbubukang": 6429,
      "ipagkakaloob": 6430,
      "niwalaan": 6431,
      "magbubunga": 6432,
      "pinalaki": 6433,
      "Andres": 6434,
      "Tema": 6435,
      "bubuntong": 6436,
      "presil": 6437,
      "Agag": 6438,
      "handugan": 6439,
      "pinaguusig": 6440,
      "panday": 6441,
      "enkantador": 6442,
      "pinangalat": 6443,
      "cebada": 6444,
      "ipakikialam": 6445,
      "maisaysay": 6446,
      "Hermon": 6447,
      "Masdan": 6448,
      "magmapuri": 6449,
      "katuwaan": 6450,
      "Cineo": 6451,
      "bunganga": 6452,
      "unguento": 6453,
      "kataastaasan": 6454,
      "pagtatalaga": 6455,
      "Gersonita": 6456,
      "Eglon": 6457,
      "Rechab": 6458,
      "nangalabi": 6459,
      "Rephaim": 6460,
      "Sennache": 6461,
      "ikasasama": 6462,
      "inaalihan": 6463,
      "Hinnom": 6464,
      "ipatatawad": 6465,
      "kasiraang": 6466,
      "turbante": 6467,
      "biyayang": 6468,
      "sinasaksihan": 6469,
      "Magdalena": 6470,
      "Idumeo": 6471,
      "kamarero": 6472,
      "palayok": 6473,
      "kuwintas": 6474,
      "Jeduthun": 6475,
      "Sennacherib": 6476,
      "Adu": 6477,
      "Alin": 6478,
      "Aph": 6479,
      "Aram": 6480,
      "Abinadab": 6481,
      "Er": 6482,
      "Elim": 6483,
      "Ebed": 6484,
      "Gu": 6485,
      "Gan": 6486,
      "Ginoo": 6487,
      "It": 6488,
      "Iz": 6489,
      "Itina": 6490,
      "Iunat": 6491,
      "Kar": 6492,
      "Lam": 6493,
      "Muling": 6494,
      "Para": 6495,
      "Ram": 6496,
      "Ruth": 6497,
      "Say": 6498,
      "Zin": 6499,
      "Zal": 6500,
      "az": 6501,
      "ahong": 6502,
      "aaring": 6503,
      "bhan": 6504,
      "hob": 6505,
      "inin": 6506,
      "ihagis": 6507,
      "jo": 6508,
      "ksila": 6509,
      "men": 6510,
      "oni": 6511,
      "pling": 6512,
      "ryo": 6513,
      "uhin": 6514,
      "zil": 6515,
      "nauna": 6516,
      "nahuli": 6517,
      "nahihiga": 6518,
      "nasugatan": 6519,
      "namamahala": 6520,
      "nasisiyahan": 6521,
      "sayaw": 6522,
      "kapopootan": 6523,
      "lakaran": 6524,
      "laryo": 6525,
      "malin": 6526,
      "maingat": 6527,
      "maligtas": 6528,
      "maingatan": 6529,
      "mahiga": 6530,
      "maibigay": 6531,
      "mababalik": 6532,
      "masumpungang": 6533,
      "palu": 6534,
      "pako": 6535,
      "palili": 6536,
      "pahayag": 6537,
      "paminsan": 6538,
      "paritong": 6539,
      "papatnubayan": 6540,
      "sima": 6541,
      "sinila": 6542,
      "liling": 6543,
      "likan": 6544,
      "yaga": 6545,
      "yanig": 6546,
      "talin": 6547,
      "bitu": 6548,
      "halong": 6549,
      "halik": 6550,
      "pagsusu": 6551,
      "pagpighati": 6552,
      "pagtubos": 6553,
      "pagtalima": 6554,
      "pagsubok": 6555,
      "pagpipigil": 6556,
      "pagsusunugan": 6557,
      "daig": 6558,
      "daias": 6559,
      "bub": 6560,
      "buan": 6561,
      "buhan": 6562,
      "magsugo": 6563,
      "maghintay": 6564,
      "magtuturo": 6565,
      "magmumula": 6566,
      "magsilaban": 6567,
      "magkukulang": 6568,
      "magtagumpay": 6569,
      "nagtatag": 6570,
      "naglalakad": 6571,
      "nagkukubli": 6572,
      "nagtatakip": 6573,
      "nagbubo": 6574,
      "nagpupulong": 6575,
      "naglikat": 6576,
      "ludu": 6577,
      "lumata": 6578,
      "lumayo": 6579,
      "pangtubos": 6580,
      "pagkapanganay": 6581,
      "pagkasundo": 6582,
      "nanglupaypay": 6583,
      "hikan": 6584,
      "sangayon": 6585,
      "manglulu": 6586,
      "manglulupaypay": 6587,
      "manggugu": 6588,
      "kubin": 6589,
      "manhikan": 6590,
      "sinasabing": 6591,
      "lalakas": 6592,
      "pinapa": 6593,
      "pinaroroonan": 6594,
      "pinarurusahan": 6595,
      "pinatawad": 6596,
      "tirin": 6597,
      "miel": 6598,
      "pig": 6599,
      "pik": 6600,
      "pising": 6601,
      "donio": 6602,
      "aram": 6603,
      "gibang": 6604,
      "ase": 6605,
      "nagsiupo": 6606,
      "nagsidaing": 6607,
      "nagsisilabas": 6608,
      "inihayag": 6609,
      "iniwisik": 6610,
      "dusta": 6611,
      "dudumhan": 6612,
      "makarinig": 6613,
      "makapitong": 6614,
      "nilakaran": 6615,
      "Sidonio": 6616,
      "tandaan": 6617,
      "nasamsam": 6618,
      "nangana": 6619,
      "nangalat": 6620,
      "nangakata": 6621,
      "nangabihag": 6622,
      "magsitahan": 6623,
      "pantal": 6624,
      "masasabi": 6625,
      "tinapos": 6626,
      "tinalian": 6627,
      "nakawan": 6628,
      "nagsisibaba": 6629,
      "nagsisitangis": 6630,
      "ipinahahayag": 6631,
      "ipinakipag": 6632,
      "Oho": 6633,
      "kinapal": 6634,
      "kinalimutan": 6635,
      "Mabuhay": 6636,
      "Mahali": 6637,
      "susumpain": 6638,
      "mabuwal": 6639,
      "kaluwangan": 6640,
      "othita": 6641,
      "ilagak": 6642,
      "napakilala": 6643,
      "tanglaw": 6644,
      "hatiin": 6645,
      "pinakapagkain": 6646,
      "Baana": 6647,
      "Bauti": 6648,
      "marahas": 6649,
      "dakot": 6650,
      "dampot": 6651,
      "pinaglilingkuran": 6652,
      "pinagwikaan": 6653,
      "nukala": 6654,
      "yayapakan": 6655,
      "mangagkaroon": 6656,
      "mangagbalik": 6657,
      "mangagibigan": 6658,
      "itinapon": 6659,
      "itinanya": 6660,
      "kayamanang": 6661,
      "halaman": 6662,
      "hihikayat": 6663,
      "hinahamak": 6664,
      "makisama": 6665,
      "makilos": 6666,
      "kataksila": 6667,
      "patibayin": 6668,
      "salaping": 6669,
      "manahin": 6670,
      "sisiping": 6671,
      "malinaw": 6672,
      "sumakay": 6673,
      "Betania": 6674,
      "pagalaga": 6675,
      "pagaalis": 6676,
      "ibinang": 6677,
      "rumi": 6678,
      "lagpasan": 6679,
      "tuturuan": 6680,
      "binagabag": 6681,
      "rezer": 6682,
      "Eliacim": 6683,
      "isipin": 6684,
      "isipan": 6685,
      "nagpapalabas": 6686,
      "ilayo": 6687,
      "Kanino": 6688,
      "titira": 6689,
      "umurong": 6690,
      "Abiu": 6691,
      "magpapaka": 6692,
      "ipagbibili": 6693,
      "lumihis": 6694,
      "binunot": 6695,
      "hinipan": 6696,
      "hinihingi": 6697,
      "Megid": 6698,
      "tumatalikod": 6699,
      "nauuwi": 6700,
      "sabsa": 6701,
      "Pana": 6702,
      "magpapatawad": 6703,
      "kumuhang": 6704,
      "dezer": 6705,
      "mapapawi": 6706,
      "makapagsalita": 6707,
      "minamasdan": 6708,
      "alinmang": 6709,
      "kinang": 6710,
      "tumutupad": 6711,
      "mananamba": 6712,
      "lumulan": 6713,
      "pagbabalik": 6714,
      "paliko": 6715,
      "zaf": 6716,
      "nakakasumpong": 6717,
      "naginit": 6718,
      "tinikan": 6719,
      "pagtatanim": 6720,
      "mangatatakot": 6721,
      "tatakuwil": 6722,
      "namamalagi": 6723,
      "tatangkilik": 6724,
      "nararamtan": 6725,
      "ipanganganak": 6726,
      "tagapagingat": 6727,
      "mabababa": 6728,
      "tiktikan": 6729,
      "munti": 6730,
      "pagkakataon": 6731,
      "Zebed": 6732,
      "ezi": 6733,
      "natatalastas": 6734,
      "matutubos": 6735,
      "tiwalaan": 6736,
      "naguunawa": 6737,
      "nangakakarinig": 6738,
      "Acc": 6739,
      "pagtuturo": 6740,
      "nangakikita": 6741,
      "Barzil": 6742,
      "Hesron": 6743,
      "makikipagtipan": 6744,
      "Dagon": 6745,
      "luluwalhatiin": 6746,
      "itataboy": 6747,
      "tumitira": 6748,
      "nalagot": 6749,
      "pangalawa": 6750,
      "usita": 6751,
      "pamumungkahi": 6752,
      "Peka": 6753,
      "ministerio": 6754,
      "nagpakababa": 6755,
      "kaduludu": 6756,
      "namumunga": 6757,
      "maawain": 6758,
      "Rabba": 6759,
      "mangagagalak": 6760,
      "karamdaman": 6761,
      "Giezi": 6762,
      "Mangagalak": 6763,
      "Tharsis": 6764,
      "naghilian": 6765,
      "Cedron": 6766,
      "Sephatias": 6767,
      "gilingan": 6768,
      "Seraias": 6769,
      "susundin": 6770,
      "tumalikod": 6771,
      "patitigilin": 6772,
      "Kinuha": 6773,
      "pinapagpaalam": 6774,
      "pagwawaraywarayin": 6775,
      "ikakaila": 6776,
      "Astaroth": 6777,
      "Enoc": 6778,
      "Ornan": 6779,
      "taasang": 6780,
      "Joppe": 6781,
      "kabuoan": 6782,
      "tsutan": 6783,
      "halimbawa": 6784,
      "Eliphaz": 6785,
      "Benjamita": 6786,
      "Saysayin": 6787,
      "sinilaban": 6788,
      "talinhaga": 6789,
      "tirintas": 6790,
      "Bautista": 6791,
      "itinanyag": 6792,
      "kataksilan": 6793,
      "Megiddo": 6794,
      "Zebedeo": 6795,
      "Barzillai": 6796,
      "kaduluduluhang": 6797,
      "Apol": 6798,
      "Bo": 6799,
      "Beor": 6800,
      "Dedan": 6801,
      "Gog": 6802,
      "Ilabas": 6803,
      "Igalang": 6804,
      "Jes": 6805,
      "Lo": 6806,
      "Mina": 6807,
      "Pat": 6808,
      "Rib": 6809,
      "Secha": 6810,
      "Tho": 6811,
      "Tal": 6812,
      "Tum": 6813,
      "Umu": 6814,
      "apu": 6815,
      "bna": 6816,
      "cario": 6817,
      "dong": 6818,
      "fo": 6819,
      "hitan": 6820,
      "ipat": 6821,
      "ipama": 6822,
      "isusu": 6823,
      "ipatong": 6824,
      "idilat": 6825,
      "ikukubli": 6826,
      "lla": 6827,
      "lya": 6828,
      "mpot": 6829,
      "rak": 6830,
      "rata": 6831,
      "titina": 6832,
      "tru": 6833,
      "uga": 6834,
      "uwiran": 6835,
      "van": 6836,
      "ngkot": 6837,
      "nani": 6838,
      "nasisira": 6839,
      "nasusumpungan": 6840,
      "nanakit": 6841,
      "kaiba": 6842,
      "kahiya": 6843,
      "kasing": 6844,
      "ayan": 6845,
      "nilu": 6846,
      "mav": 6847,
      "mawala": 6848,
      "mapala": 6849,
      "maupo": 6850,
      "madadala": 6851,
      "masira": 6852,
      "malaya": 6853,
      "mahuhuli": 6854,
      "pasala": 6855,
      "paroong": 6856,
      "pababalik": 6857,
      "parusahan": 6858,
      "sio": 6859,
      "sinin": 6860,
      "silim": 6861,
      "anluwa": 6862,
      "babanggitin": 6863,
      "lisa": 6864,
      "tawiran": 6865,
      "tahilan": 6866,
      "biyan": 6867,
      "akma": 6868,
      "itang": 6869,
      "hagang": 6870,
      "pagsamba": 6871,
      "paglalakad": 6872,
      "pagmamapuri": 6873,
      "pagtibayin": 6874,
      "rai": 6875,
      "ralan": 6876,
      "rabas": 6877,
      "burda": 6878,
      "magat": 6879,
      "magbaba": 6880,
      "magdaan": 6881,
      "magpatuloy": 6882,
      "magkulang": 6883,
      "maghirap": 6884,
      "magmamana": 6885,
      "magtitina": 6886,
      "nagiba": 6887,
      "nagliligtas": 6888,
      "nagtiti": 6889,
      "nagpatotoo": 6890,
      "naghintay": 6891,
      "ripa": 6892,
      "riong": 6893,
      "dim": 6894,
      "dis": 6895,
      "diel": 6896,
      "tugin": 6897,
      "tulak": 6898,
      "tumaki": 6899,
      "sub": 6900,
      "sukin": 6901,
      "suguan": 6902,
      "supok": 6903,
      "pangangaral": 6904,
      "nakisama": 6905,
      "hipuin": 6906,
      "mangdada": 6907,
      "kumot": 6908,
      "sinasak": 6909,
      "muhin": 6910,
      "mungu": 6911,
      "mutin": 6912,
      "niyari": 6913,
      "humayo": 6914,
      "pinaroonan": 6915,
      "pinaniwalaan": 6916,
      "Dibon": 6917,
      "tid": 6918,
      "tining": 6919,
      "mia": 6920,
      "eroth": 6921,
      "pil": 6922,
      "doroon": 6923,
      "kasabay": 6924,
      "kasalatan": 6925,
      "nintay": 6926,
      "lingon": 6927,
      "giik": 6928,
      "nagsipatay": 6929,
      "nagsibangon": 6930,
      "nagsiparito": 6931,
      "atal": 6932,
      "ikabuti": 6933,
      "ikagagaling": 6934,
      "Iscario": 6935,
      "iniwang": 6936,
      "inilipat": 6937,
      "dumara": 6938,
      "makagagawa": 6939,
      "makaliligtas": 6940,
      "bigyang": 6941,
      "tansong": 6942,
      "leong": 6943,
      "nangauna": 6944,
      "papasalamat": 6945,
      "magsipang": 6946,
      "magsitayo": 6947,
      "magsibangon": 6948,
      "magsipangasiwa": 6949,
      "magsisilapit": 6950,
      "malag": 6951,
      "malagay": 6952,
      "isasagot": 6953,
      "panatak": 6954,
      "tatalastas": 6955,
      "ginanap": 6956,
      "Judi": 6957,
      "Joi": 6958,
      "Jozabad": 6959,
      "nakahiga": 6960,
      "nakaunat": 6961,
      "nakalugod": 6962,
      "mataba": 6963,
      "nangaghandog": 6964,
      "nangagdadala": 6965,
      "nangagsangusapan": 6966,
      "itapon": 6967,
      "alipusta": 6968,
      "banayad": 6969,
      "anias": 6970,
      "nagsisigaw": 6971,
      "nagsisitakas": 6972,
      "nagsisitiwala": 6973,
      "liliko": 6974,
      "lilimang": 6975,
      "ipinaalam": 6976,
      "kapatawa": 6977,
      "kinausap": 6978,
      "kinalugdan": 6979,
      "kinatatakutan": 6980,
      "Malayo": 6981,
      "ngumungu": 6982,
      "susumpa": 6983,
      "mabungang": 6984,
      "kalulugdan": 6985,
      "homer": 6986,
      "tanga": 6987,
      "payat": 6988,
      "utusan": 6989,
      "itinawag": 6990,
      "mangaani": 6991,
      "mangaaliw": 6992,
      "Humayo": 6993,
      "nakipamayan": 6994,
      "dinalhan": 6995,
      "bilangin": 6996,
      "almen": 6997,
      "katampala": 6998,
      "magsisisi": 6999,
      "manaog": 7000,
      "eve": 7001,
      "Magkaka": 7002,
      "kakal": 7003,
      "Selo": 7004,
      "pinupuri": 7005,
      "ibe": 7006,
      "tutubos": 7007,
      "kasulat": 7008,
      "binautismuhan": 7009,
      "pipihit": 7010,
      "Eliu": 7011,
      "isinili": 7012,
      "humihingi": 7013,
      "yuin": 7014,
      "angasiwa": 7015,
      "Buhat": 7016,
      "hiwalayan": 7017,
      "nagahon": 7018,
      "nagaalis": 7019,
      "lumalaki": 7020,
      "alakdan": 7021,
      "kahawa": 7022,
      "galawin": 7023,
      "halina": 7024,
      "Abiram": 7025,
      "putolputulin": 7026,
      "tinatakan": 7027,
      "tinutupad": 7028,
      "ipaghanda": 7029,
      "ipagdiwang": 7030,
      "karumalan": 7031,
      "sumibol": 7032,
      "Paran": 7033,
      "Padan": 7034,
      "hawakan": 7035,
      "dinidinig": 7036,
      "tumubo": 7037,
      "mananalangsang": 7038,
      "lumubog": 7039,
      "buhatan": 7040,
      "patubo": 7041,
      "ibinubo": 7042,
      "ibinuwal": 7043,
      "Geba": 7044,
      "nakipagbaka": 7045,
      "pasasalamat": 7046,
      "Jair": 7047,
      "ayusin": 7048,
      "Inyo": 7049,
      "tumatak": 7050,
      "Caldea": 7051,
      "phaad": 7052,
      "lalaglag": 7053,
      "lalagpak": 7054,
      "mabubuti": 7055,
      "mabububo": 7056,
      "munna": 7057,
      "makipagtalo": 7058,
      "Cedar": 7059,
      "Mathanias": 7060,
      "ihahanda": 7061,
      "nahahanda": 7062,
      "nahalata": 7063,
      "magdamag": 7064,
      "matutuyo": 7065,
      "nakuha": 7066,
      "hinubad": 7067,
      "Harim": 7068,
      "nagugu": 7069,
      "Ahimaas": 7070,
      "kawasang": 7071,
      "Joachin": 7072,
      "masid": 7073,
      "nangangalat": 7074,
      "magsipagingat": 7075,
      "nangagaayuno": 7076,
      "talinghagang": 7077,
      "nangakilala": 7078,
      "nangakikipag": 7079,
      "Salphaad": 7080,
      "titiisin": 7081,
      "nababagabag": 7082,
      "Barrabas": 7083,
      "gamitin": 7084,
      "mangalilipol": 7085,
      "tinangisan": 7086,
      "Kataastaasang": 7087,
      "lumago": 7088,
      "lumagpak": 7089,
      "matitisod": 7090,
      "Tomas": 7091,
      "manipis": 7092,
      "Hanani": 7093,
      "Sumainyo": 7094,
      "Sumampa": 7095,
      "takalan": 7096,
      "nagsipanggaling": 7097,
      "ilalagak": 7098,
      "Nazareo": 7099,
      "inaliw": 7100,
      "pagmamatigas": 7101,
      "manggagamot": 7102,
      "makatapos": 7103,
      "pakikipagkasundo": 7104,
      "Thare": 7105,
      "Cedes": 7106,
      "Hasor": 7107,
      "natatago": 7108,
      "kagamutan": 7109,
      "Kinakailangan": 7110,
      "satrapa": 7111,
      "pinakasamsam": 7112,
      "zebub": 7113,
      "mayayaman": 7114,
      "Bumalik": 7115,
      "kaamuan": 7116,
      "pagkatuwa": 7117,
      "Pashur": 7118,
      "kaliitli": 7119,
      "bahagya": 7120,
      "Melqu": 7121,
      "kabangisan": 7122,
      "kubling": 7123,
      "Agripa": 7124,
      "tampalasan": 7125,
      "mapakiapid": 7126,
      "Japhet": 7127,
      "bukiran": 7128,
      "binago": 7129,
      "tugtugin": 7130,
      "kasakdalan": 7131,
      "kapayapaang": 7132,
      "Hadadezer": 7133,
      "Michmas": 7134,
      "presilya": 7135,
      "Lamec": 7136,
      "Zalmunna": 7137,
      "onix": 7138,
      "zafiro": 7139,
      "Ribla": 7140,
      "pababalikin": 7141,
      "anluwagi": 7142,
      "biyanang": 7143,
      "magtitinapay": 7144,
      "tumakip": 7145,
      "Iscariote": 7146,
      "ngumunguya": 7147,
      "katampalasanan": 7148,
      "isinilid": 7149,
      "Aj": 7150,
      "Alat": 7151,
      "Bos": 7152,
      "Bath": 7153,
      "Cer": 7154,
      "Cusita": 7155,
      "Dat": 7156,
      "Doon": 7157,
      "GA": 7158,
      "Gumi": 7159,
      "Hades": 7160,
      "Ib": 7161,
      "Idina": 7162,
      "Lumi": 7163,
      "Mam": 7164,
      "Misa": 7165,
      "Nila": 7166,
      "Pis": 7167,
      "Pen": 7168,
      "Sang": 7169,
      "Sere": 7170,
      "Tang": 7171,
      "Tata": 7172,
      "Vas": 7173,
      "Zil": 7174,
      "aling": 7175,
      "bel": 7176,
      "bet": 7177,
      "fi": 7178,
      "gma": 7179,
      "ipit": 7180,
      "ipaa": 7181,
      "iunat": 7182,
      "ibuwal": 7183,
      "isod": 7184,
      "ihahain": 7185,
      "ikini": 7186,
      "jan": 7187,
      "khin": 7188,
      "mhan": 7189,
      "mnan": 7190,
      "mitan": 7191,
      "nti": 7192,
      "nea": 7193,
      "sheba": 7194,
      "than": 7195,
      "tsasar": 7196,
      "ubilin": 7197,
      "zia": 7198,
      "naz": 7199,
      "naba": 7200,
      "nasok": 7201,
      "nalaman": 7202,
      "napipi": 7203,
      "nabali": 7204,
      "nabubuwal": 7205,
      "nadalang": 7206,
      "nahuhulog": 7207,
      "napili": 7208,
      "nasubasob": 7209,
      "kalan": 7210,
      "kalis": 7211,
      "kapus": 7212,
      "kagulo": 7213,
      "katatakutan": 7214,
      "kamandag": 7215,
      "nisan": 7216,
      "niwalan": 7217,
      "ninakaw": 7218,
      "lana": 7219,
      "lapat": 7220,
      "lasing": 7221,
      "laok": 7222,
      "gampa": 7223,
      "ganiyang": 7224,
      "mapagpapa": 7225,
      "mailagay": 7226,
      "malubha": 7227,
      "pasang": 7228,
      "palo": 7229,
      "paku": 7230,
      "panangis": 7231,
      "andaan": 7232,
      "balu": 7233,
      "babayaran": 7234,
      "baguhin": 7235,
      "liwanagan": 7236,
      "kaning": 7237,
      "bim": 7238,
      "bitak": 7239,
      "wasan": 7240,
      "akpan": 7241,
      "itlog": 7242,
      "had": 7243,
      "hapis": 7244,
      "hahambog": 7245,
      "pagunawa": 7246,
      "pagpupuri": 7247,
      "pagtalikod": 7248,
      "langaw": 7249,
      "raw": 7250,
      "inagaw": 7251,
      "inaalalayan": 7252,
      "daluyan": 7253,
      "dadalhan": 7254,
      "magibig": 7255,
      "magpagaling": 7256,
      "nagpala": 7257,
      "nagmama": 7258,
      "nagnanasa": 7259,
      "nagdamdam": 7260,
      "naghugas": 7261,
      "naghuyan": 7262,
      "nagising": 7263,
      "tumaga": 7264,
      "tulutan": 7265,
      "tumanaw": 7266,
      "sulo": 7267,
      "sungin": 7268,
      "pul": 7269,
      "pugnaw": 7270,
      "panggapas": 7271,
      "pagkaligtas": 7272,
      "hila": 7273,
      "hiyang": 7274,
      "higan": 7275,
      "hilot": 7276,
      "higos": 7277,
      "hinintay": 7278,
      "hatulang": 7279,
      "loth": 7280,
      "kuko": 7281,
      "manti": 7282,
      "handaan": 7283,
      "sinasamba": 7284,
      "mayab": 7285,
      "maysakit": 7286,
      "baywang": 7287,
      "hugos": 7288,
      "pinalo": 7289,
      "pinasok": 7290,
      "pinawalan": 7291,
      "pinasuko": 7292,
      "piliin": 7293,
      "kayaya": 7294,
      "alaalang": 7295,
      "gulay": 7296,
      "bora": 7297,
      "nagsisila": 7298,
      "nagsiinom": 7299,
      "nagsisumpa": 7300,
      "nagsiahong": 7301,
      "inupahan": 7302,
      "inililigtas": 7303,
      "inilayo": 7304,
      "inilitaw": 7305,
      "iniatang": 7306,
      "iniyukod": 7307,
      "dukhang": 7308,
      "ngalang": 7309,
      "lanta": 7310,
      "makatayo": 7311,
      "makalabas": 7312,
      "Nabalitaan": 7313,
      "Sib": 7314,
      "estru": 7315,
      "nasakop": 7316,
      "nangahas": 7317,
      "papaga": 7318,
      "magkabi": 7319,
      "magsisiyaon": 7320,
      "magsipanatili": 7321,
      "mpasin": 7322,
      "sinang": 7323,
      "panaling": 7324,
      "panampalataya": 7325,
      "panatag": 7326,
      "umasa": 7327,
      "umaahon": 7328,
      "panun": 7329,
      "panhik": 7330,
      "Jeram": 7331,
      "masayod": 7332,
      "tinag": 7333,
      "tinamo": 7334,
      "usapin": 7335,
      "rangka": 7336,
      "nangagba": 7337,
      "nangagtata": 7338,
      "nangaglagay": 7339,
      "nangagbibili": 7340,
      "aniban": 7341,
      "Nanga": 7342,
      "ipinasan": 7343,
      "kinauu": 7344,
      "Maga": 7345,
      "tagapayo": 7346,
      "susuutan": 7347,
      "mabusog": 7348,
      "peor": 7349,
      "napawi": 7350,
      "napailanglang": 7351,
      "arib": 7352,
      "sakong": 7353,
      "kalaki": 7354,
      "enjo": 7355,
      "palalayain": 7356,
      "pinakamataas": 7357,
      "pinakamaliit": 7358,
      "Baba": 7359,
      "bundu": 7360,
      "tayin": 7361,
      "gumawang": 7362,
      "gumamit": 7363,
      "silangin": 7364,
      "pinagpu": 7365,
      "pinagtata": 7366,
      "pinagsapalaran": 7367,
      "pakikilala": 7368,
      "theo": 7369,
      "mangagsabi": 7370,
      "mangaglilingkod": 7371,
      "mangagpuyat": 7372,
      "ibangon": 7373,
      "dinaig": 7374,
      "dinakip": 7375,
      "tatlongpung": 7376,
      "dumadami": 7377,
      "dumaluhong": 7378,
      "sinubok": 7379,
      "alti": 7380,
      "imbak": 7381,
      "magsisibalik": 7382,
      "magsisibangon": 7383,
      "bibigkis": 7384,
      "pheth": 7385,
      "inilakas": 7386,
      "inilakad": 7387,
      "mpalatayanan": 7388,
      "karaming": 7389,
      "Magdala": 7390,
      "Magkaroon": 7391,
      "sasagutin": 7392,
      "pinukpok": 7393,
      "ulian": 7394,
      "nagpapang": 7395,
      "pagkatalaga": 7396,
      "binato": 7397,
      "maipakilala": 7398,
      "ngangalit": 7399,
      "kalbo": 7400,
      "pagpapakita": 7401,
      "lukso": 7402,
      "Elio": 7403,
      "Eliel": 7404,
      "Elisab": 7405,
      "Eliphel": 7406,
      "dangal": 7407,
      "dangkal": 7408,
      "isinagot": 7409,
      "pagpapatawad": 7410,
      "pagpakitaan": 7411,
      "humihihip": 7412,
      "kalibugan": 7413,
      "kalinisan": 7414,
      "Buc": 7415,
      "Bukas": 7416,
      "Hav": 7417,
      "ipapatay": 7418,
      "huhugasan": 7419,
      "sumasamba": 7420,
      "ladlad": 7421,
      "kahalay": 7422,
      "kahawig": 7423,
      "ballat": 7424,
      "tinuli": 7425,
      "kapaitan": 7426,
      "kapanaghilian": 7427,
      "kamanggagawa": 7428,
      "mamamalagi": 7429,
      "Ephrata": 7430,
      "magpasalamat": 7431,
      "padaya": 7432,
      "talian": 7433,
      "mapaparam": 7434,
      "dadagdag": 7435,
      "korni": 7436,
      "Maylalang": 7437,
      "minahal": 7438,
      "dakilain": 7439,
      "Nerias": 7440,
      "Sanballat": 7441,
      "mapani": 7442,
      "kahiling": 7443,
      "tumupad": 7444,
      "isinusulat": 7445,
      "lumuhod": 7446,
      "tagginaw": 7447,
      "Rehob": 7448,
      "uuhaw": 7449,
      "sasakmalin": 7450,
      "patunog": 7451,
      "Naging": 7452,
      "ibinukod": 7453,
      "bubuhayin": 7454,
      "kapanganiban": 7455,
      "nangangaral": 7456,
      "Getheo": 7457,
      "nakipagdigma": 7458,
      "nakipagtalo": 7459,
      "tatakbo": 7460,
      "Nico": 7461,
      "pumigil": 7462,
      "Jazer": 7463,
      "tumira": 7464,
      "tumilaok": 7465,
      "sundang": 7466,
      "tagapagturo": 7467,
      "lalagpasan": 7468,
      "makakaalam": 7469,
      "ihahayag": 7470,
      "ihahalaga": 7471,
      "titig": 7472,
      "nahaharap": 7473,
      "binilong": 7474,
      "matutuwa": 7475,
      "matutuwid": 7476,
      "watak": 7477,
      "hinugasan": 7478,
      "itutulad": 7479,
      "nakikipaglaban": 7480,
      "masisiyahan": 7481,
      "matatahanan": 7482,
      "matatalino": 7483,
      "Acaya": 7484,
      "mapanglaw": 7485,
      "nagbubukas": 7486,
      "buwaya": 7487,
      "Samma": 7488,
      "Michael": 7489,
      "nababalot": 7490,
      "Tubal": 7491,
      "karapatan": 7492,
      "naganyo": 7493,
      "basahin": 7494,
      "pumutol": 7495,
      "saddai": 7496,
      "mangalipol": 7497,
      "tumitigil": 7498,
      "Zoar": 7499,
      "Topheth": 7500,
      "madlang": 7501,
      "barnea": 7502,
      "kinaluluguran": 7503,
      "Debora": 7504,
      "magsasaysay": 7505,
      "nagsasabing": 7506,
      "Adar": 7507,
      "Zichri": 7508,
      "nangapahiya": 7509,
      "Bethuel": 7510,
      "dinumhan": 7511,
      "ginulo": 7512,
      "juda": 7513,
      "itititig": 7514,
      "manglilibak": 7515,
      "Pumasok": 7516,
      "magiingat": 7517,
      "naniniwala": 7518,
      "mangbubukid": 7519,
      "naghili": 7520,
      "kahulihulihan": 7521,
      "Maliban": 7522,
      "Millo": 7523,
      "Milca": 7524,
      "ililibing": 7525,
      "Beltsasar": 7526,
      "Adoni": 7527,
      "Hatulan": 7528,
      "manghahabol": 7529,
      "liliwanagin": 7530,
      "Gerar": 7531,
      "pinagtabuyan": 7532,
      "maliksi": 7533,
      "kariton": 7534,
      "avestru": 7535,
      "pahingahang": 7536,
      "pumatnubay": 7537,
      "sasawayin": 7538,
      "babahagihin": 7539,
      "Alejan": 7540,
      "Thirsa": 7541,
      "pilete": 7542,
      "dumakila": 7543,
      "Jethro": 7544,
      "Karunungan": 7545,
      "ibinangon": 7546,
      "sabsaban": 7547,
      "Apolos": 7548,
      "Tumindig": 7549,
      "maveth": 7550,
      "tiningnan": 7551,
      "Judiong": 7552,
      "kapatawaran": 7553,
      "kaliitliitan": 7554,
      "Dathan": 7555,
      "Gumising": 7556,
      "Mamre": 7557,
      "Vasthi": 7558,
      "kapuspusan": 7559,
      "tumagal": 7560,
      "mayabong": 7561,
      "avestruz": 7562,
      "Amo": 7563,
      "Aza": 7564,
      "Aod": 7565,
      "ANG": 7566,
      "Bayaan": 7567,
      "Cad": 7568,
      "Cir": 7569,
      "Cus": 7570,
      "Dala": 7571,
      "Dor": 7572,
      "Hac": 7573,
      "Ith": 7574,
      "Jaa": 7575,
      "Kapat": 7576,
      "Lalak": 7577,
      "Makipag": 7578,
      "Oba": 7579,
      "Par": 7580,
      "Res": 7581,
      "Suna": 7582,
      "Sora": 7583,
      "Tro": 7584,
      "Tapat": 7585,
      "The": 7586,
      "Zara": 7587,
      "Zab": 7588,
      "aj": 7589,
      "asu": 7590,
      "apin": 7591,
      "aaliwin": 7592,
      "ber": 7593,
      "cas": 7594,
      "cal": 7595,
      "dlan": 7596,
      "erita": 7597,
      "iga": 7598,
      "imik": 7599,
      "iinit": 7600,
      "ibayong": 7601,
      "ifas": 7602,
      "ipagsama": 7603,
      "klok": 7604,
      "mtin": 7605,
      "nes": 7606,
      "onita": 7607,
      "sel": 7608,
      "uin": 7609,
      "uman": 7610,
      "uhan": 7611,
      "umala": 7612,
      "uuna": 7613,
      "wis": 7614,
      "xad": 7615,
      "ngat": 7616,
      "nam": 7617,
      "natatayo": 7618,
      "nasunog": 7619,
      "napatungo": 7620,
      "nabuksan": 7621,
      "natatakpan": 7622,
      "naipagbili": 7623,
      "kakilala": 7624,
      "kalalagyan": 7625,
      "kaisipan": 7626,
      "atuwiran": 7627,
      "nica": 7628,
      "nieve": 7629,
      "laki": 7630,
      "lamad": 7631,
      "gaga": 7632,
      "gagaway": 7633,
      "mahagi": 7634,
      "mapuno": 7635,
      "maibibigay": 7636,
      "maibigan": 7637,
      "mauunawa": 7638,
      "mahinang": 7639,
      "paayon": 7640,
      "pamagitan": 7641,
      "papagpapa": 7642,
      "pahingahan": 7643,
      "pahirap": 7644,
      "pahalang": 7645,
      "panimbang": 7646,
      "pamagat": 7647,
      "banan": 7648,
      "balong": 7649,
      "yamot": 7650,
      "binan": 7651,
      "itulo": 7652,
      "haling": 7653,
      "hapay": 7654,
      "pagpipisan": 7655,
      "pagtawag": 7656,
      "pagsamsam": 7657,
      "paghihintay": 7658,
      "paglipol": 7659,
      "pagtatakip": 7660,
      "paghabol": 7661,
      "paghihirap": 7662,
      "paguusig": 7663,
      "ragdag": 7664,
      "inayo": 7665,
      "inabutan": 7666,
      "dagdag": 7667,
      "bumati": 7668,
      "bulaan": 7669,
      "magsila": 7670,
      "magpala": 7671,
      "maglabas": 7672,
      "magkubli": 7673,
      "magwiwisik": 7674,
      "nagbata": 7675,
      "nagmataas": 7676,
      "nagtatayo": 7677,
      "nagmatigas": 7678,
      "naglalakbay": 7679,
      "nagbanta": 7680,
      "nagmamapuri": 7681,
      "nagtanyag": 7682,
      "lumo": 7683,
      "lungaw": 7684,
      "didilim": 7685,
      "tuhan": 7686,
      "tuwang": 7687,
      "tuliin": 7688,
      "tubusin": 7689,
      "subo": 7690,
      "suwi": 7691,
      "sulit": 7692,
      "pukaw": 7693,
      "punya": 7694,
      "pangakong": 7695,
      "panggatong": 7696,
      "pagkapighati": 7697,
      "nangata": 7698,
      "nanginig": 7699,
      "hihingin": 7700,
      "hiligan": 7701,
      "sangang": 7702,
      "tohanan": 7703,
      "mangibang": 7704,
      "mangdudu": 7705,
      "manglalasing": 7706,
      "lop": 7707,
      "lonita": 7708,
      "kuwag": 7709,
      "kutang": 7710,
      "kupad": 7711,
      "sinabing": 7712,
      "sinalangsang": 7713,
      "sinasaway": 7714,
      "mulan": 7715,
      "lalabasin": 7716,
      "hulang": 7717,
      "hubo": 7718,
      "hulugan": 7719,
      "pinagi": 7720,
      "pinapasok": 7721,
      "pinaalis": 7722,
      "pinarusahan": 7723,
      "hayo": 7724,
      "sabihing": 7725,
      "nanumbalik": 7726,
      "tia": 7727,
      "pisi": 7728,
      "pilitan": 7729,
      "pigilin": 7730,
      "alalay": 7731,
      "kasagutan": 7732,
      "nindig": 7733,
      "gipit": 7734,
      "gigilalas": 7735,
      "gumanti": 7736,
      "babaan": 7737,
      "nagsitiwala": 7738,
      "nagsihanay": 7739,
      "nagsisilapit": 7740,
      "ikatatlong": 7741,
      "ikatiti": 7742,
      "ikahihiya": 7743,
      "ikatitibay": 7744,
      "ayain": 7745,
      "dulas": 7746,
      "rok": 7747,
      "rona": 7748,
      "sansala": 7749,
      "makala": 7750,
      "dalas": 7751,
      "bigatan": 7752,
      "isedec": 7753,
      "Sil": 7754,
      "bangang": 7755,
      "nangama": 7756,
      "nangasulat": 7757,
      "nangaroroon": 7758,
      "nangabuksan": 7759,
      "terap": 7760,
      "magsipuri": 7761,
      "magsikuha": 7762,
      "magsihiyaw": 7763,
      "magsipanalangin": 7764,
      "magsisampa": 7765,
      "magsitahimik": 7766,
      "magsisilaban": 7767,
      "malawak": 7768,
      "umahong": 7769,
      "umawit": 7770,
      "panunu": 7771,
      "ginapos": 7772,
      "ginaganap": 7773,
      "ginagamit": 7774,
      "tinalikdan": 7775,
      "Joah": 7776,
      "nakatata": 7777,
      "nakakilala": 7778,
      "nakapagpapa": 7779,
      "nakapagpa": 7780,
      "nakaalam": 7781,
      "tungang": 7782,
      "tungtungang": 7783,
      "matalinong": 7784,
      "bagabagin": 7785,
      "nangaglingkod": 7786,
      "pamamaga": 7787,
      "nagsisisi": 7788,
      "nagsisigawang": 7789,
      "lilibing": 7790,
      "ipinan": 7791,
      "ipinana": 7792,
      "bawalan": 7793,
      "kinabangin": 7794,
      "Molo": 7795,
      "Mahala": 7796,
      "Maawa": 7797,
      "Maupo": 7798,
      "susukatin": 7799,
      "hor": 7800,
      "napaiilanglang": 7801,
      "wirin": 7802,
      "tangi": 7803,
      "tanggol": 7804,
      "tangisan": 7805,
      "saksak": 7806,
      "saksing": 7807,
      "kalawang": 7808,
      "laybulay": 7809,
      "gitnaan": 7810,
      "libolibong": 7811,
      "palalong": 7812,
      "palasio": 7813,
      "asaph": 7814,
      "pinagpipi": 7815,
      "pinagpapatay": 7816,
      "pinagpagalan": 7817,
      "pakikinabangin": 7818,
      "yayamutan": 7819,
      "mangapahiya": 7820,
      "nakip": 7821,
      "nakipisan": 7822,
      "lumaganap": 7823,
      "matuwa": 7824,
      "ritano": 7825,
      "magalis": 7826,
      "magagandang": 7827,
      "Abdias": 7828,
      "kapisanang": 7829,
      "salamin": 7830,
      "magsisiahon": 7831,
      "magsisisagot": 7832,
      "bubuksan": 7833,
      "baging": 7834,
      "inilapag": 7835,
      "ecias": 7836,
      "sumaiyong": 7837,
      "sumaakin": 7838,
      "Magsalita": 7839,
      "sasapit": 7840,
      "sasalangsang": 7841,
      "kakaunting": 7842,
      "kakamtin": 7843,
      "Sema": 7844,
      "Sebna": 7845,
      "hinggil": 7846,
      "Beza": 7847,
      "diosang": 7848,
      "diosdiosang": 7849,
      "pagaasawa": 7850,
      "ipinagka": 7851,
      "ipinagkaka": 7852,
      "tutuyuin": 7853,
      "bumakay": 7854,
      "lamhati": 7855,
      "nagpahayag": 7856,
      "pagkatawag": 7857,
      "binabasa": 7858,
      "lulusong": 7859,
      "kinukuha": 7860,
      "maililigtas": 7861,
      "isinasa": 7862,
      "parami": 7863,
      "pangawan": 7864,
      "lagas": 7865,
      "sumusumpa": 7866,
      "paningkaw": 7867,
      "hahabol": 7868,
      "humigit": 7869,
      "nilisan": 7870,
      "kukub": 7871,
      "kukulangin": 7872,
      "kukulungin": 7873,
      "Hagai": 7874,
      "nagpapauna": 7875,
      "col": 7876,
      "pulutin": 7877,
      "umuungal": 7878,
      "umimik": 7879,
      "umigib": 7880,
      "unawain": 7881,
      "lumiwanag": 7882,
      "hiniling": 7883,
      "Meriba": 7884,
      "tumatahang": 7885,
      "hamakin": 7886,
      "pagiyak": 7887,
      "Caifas": 7888,
      "nangatira": 7889,
      "Parito": 7890,
      "maaalis": 7891,
      "nagsipagbanta": 7892,
      "makapagligtas": 7893,
      "bughu": 7894,
      "tatagubilin": 7895,
      "aabutan": 7896,
      "aalugin": 7897,
      "tumuloy": 7898,
      "tumungo": 7899,
      "hilagaang": 7900,
      "sinidlan": 7901,
      "pagbabago": 7902,
      "buhatin": 7903,
      "Samaritano": 7904,
      "uusi": 7905,
      "kislap": 7906,
      "pinipisan": 7907,
      "tinitiwalaan": 7908,
      "madalian": 7909,
      "Nagsisi": 7910,
      "Nagpapasalamat": 7911,
      "bumabautismo": 7912,
      "ibinubuka": 7913,
      "sampalatayanan": 7914,
      "mangatuwa": 7915,
      "Nilo": 7916,
      "pumipigil": 7917,
      "namamanglaw": 7918,
      "pasas": 7919,
      "tinatangay": 7920,
      "ayupapa": 7921,
      "tawaging": 7922,
      "humanda": 7923,
      "Sobal": 7924,
      "Gaal": 7925,
      "humahabol": 7926,
      "Tabor": 7927,
      "Anac": 7928,
      "Anaceo": 7929,
      "Arauna": 7930,
      "makipagtipan": 7931,
      "makipagusap": 7932,
      "pagkakaiba": 7933,
      "Cefas": 7934,
      "badya": 7935,
      "Zebu": 7936,
      "iniurong": 7937,
      "nagutom": 7938,
      "kublihan": 7939,
      "Jerimoth": 7940,
      "nangakakakilala": 7941,
      "nakikipagsanggunian": 7942,
      "nakikipagsalitaan": 7943,
      "patatahanan": 7944,
      "mangakarinig": 7945,
      "nagbubugso": 7946,
      "ketongin": 7947,
      "abuloy": 7948,
      "Sedecias": 7949,
      "igib": 7950,
      "igini": 7951,
      "nababago": 7952,
      "kapamahalaang": 7953,
      "Bagama": 7954,
      "nangagpasimulang": 7955,
      "bumuhay": 7956,
      "taglayin": 7957,
      "gugulayin": 7958,
      "makikipaglaban": 7959,
      "magalingin": 7960,
      "mangaligtas": 7961,
      "kandelerong": 7962,
      "itatali": 7963,
      "itatawag": 7964,
      "kinilala": 7965,
      "naaawa": 7966,
      "Jezreelita": 7967,
      "Iniibig": 7968,
      "Iniligtas": 7969,
      "nalakip": 7970,
      "pangalawang": 7971,
      "papataying": 7972,
      "aawitin": 7973,
      "Felix": 7974,
      "ziel": 7975,
      "gulod": 7976,
      "batuhan": 7977,
      "ilalapag": 7978,
      "Adarezer": 7979,
      "olibohan": 7980,
      "Maceda": 7981,
      "Teman": 7982,
      "Tesalo": 7983,
      "pagbabantay": 7984,
      "nangunguna": 7985,
      "karampatan": 7986,
      "Umalis": 7987,
      "magigiba": 7988,
      "Bilha": 7989,
      "Horma": 7990,
      "eber": 7991,
      "perlas": 7992,
      "kundangan": 7993,
      "Achitob": 7994,
      "mangbuburda": 7995,
      "pakikipagkaalit": 7996,
      "pipighatiin": 7997,
      "Makikita": 7998,
      "Nakikilala": 7999,
      "Inaakala": 8000,
      "palalakasin": 8001,
      "pagdadalamhatiin": 8002,
      "daragdag": 8003,
      "nagtatamo": 8004,
      "patakbo": 8005,
      "kabaitan": 8006,
      "mamumugnaw": 8007,
      "maipagbibili": 8008,
      "Berechias": 8009,
      "bulongbulungan": 8010,
      "Zebadias": 8011,
      "Immer": 8012,
      "Selemias": 8013,
      "pagupit": 8014,
      "nangagiingat": 8015,
      "tagapagpaatag": 8016,
      "Naason": 8017,
      "itinatakuwil": 8018,
      "sumisikat": 8019,
      "pinatutunayan": 8020,
      "tatanyag": 8021,
      "pasusuhin": 8022,
      "manteki": 8023,
      "Arphaxad": 8024,
      "Tecoa": 8025,
      "kinatawan": 8026,
      "Hasar": 8027,
      "mangunguna": 8028,
      "dumalagang": 8029,
      "bituka": 8030,
      "Sechanias": 8031,
      "dumaraan": 8032,
      "almendro": 8033,
      "Magkakaroon": 8034,
      "Melquisedec": 8035,
      "Ceretheo": 8036,
      "ikiniling": 8037,
      "kaliskis": 8038,
      "pulsera": 8039,
      "Babae": 8040,
      "Elioenai": 8041,
      "Elisabet": 8042,
      "kahilingan": 8043,
      "Lalake": 8044,
      "Obadias": 8045,
      "ajenjo": 8046,
      "asupre": 8047,
      "itulot": 8048,
      "inayos": 8049,
      "AR": 8050,
      "Ax": 8051,
      "Aba": 8052,
      "Amang": 8053,
      "Aqu": 8054,
      "Ariel": 8055,
      "Cen": 8056,
      "Chit": 8057,
      "Chem": 8058,
      "Cili": 8059,
      "Cher": 8060,
      "Duma": 8061,
      "Elon": 8062,
      "Gr": 8063,
      "Gib": 8064,
      "Ham": 8065,
      "Isi": 8066,
      "Iutos": 8067,
      "Isulat": 8068,
      "Iibigin": 8069,
      "Ikiling": 8070,
      "Jas": 8071,
      "Mig": 8072,
      "Musi": 8073,
      "Makinig": 8074,
      "MGA": 8075,
      "Nata": 8076,
      "Onan": 8077,
      "Po": 8078,
      "Pasa": 8079,
      "Rac": 8080,
      "SU": 8081,
      "Tin": 8082,
      "Uri": 8083,
      "Zer": 8084,
      "Zabad": 8085,
      "abay": 8086,
      "abang": 8087,
      "agaw": 8088,
      "akalang": 8089,
      "aalalayan": 8090,
      "aasawahin": 8091,
      "aayusin": 8092,
      "dlit": 8093,
      "eno": 8094,
      "ges": 8095,
      "geber": 8096,
      "hemias": 8097,
      "iy": 8098,
      "iwa": 8099,
      "iutos": 8100,
      "ihaha": 8101,
      "idini": 8102,
      "ihaw": 8103,
      "iligaw": 8104,
      "ipapahamak": 8105,
      "ipanumpa": 8106,
      "jas": 8107,
      "kman": 8108,
      "llam": 8109,
      "nelio": 8110,
      "pel": 8111,
      "ppi": 8112,
      "phar": 8113,
      "trito": 8114,
      "umang": 8115,
      "unan": 8116,
      "zin": 8117,
      "zan": 8118,
      "nadala": 8119,
      "nasin": 8120,
      "nalin": 8121,
      "naawa": 8122,
      "nasulat": 8123,
      "napisan": 8124,
      "naniwala": 8125,
      "nayanig": 8126,
      "kaaya": 8127,
      "kalat": 8128,
      "kabinata": 8129,
      "atham": 8130,
      "niman": 8131,
      "niluto": 8132,
      "lalangin": 8133,
      "gain": 8134,
      "gagawang": 8135,
      "maan": 8136,
      "mamu": 8137,
      "masalita": 8138,
      "masisi": 8139,
      "makuku": 8140,
      "maalam": 8141,
      "maalis": 8142,
      "mapisan": 8143,
      "maayos": 8144,
      "maaliw": 8145,
      "mapagaling": 8146,
      "masuway": 8147,
      "makasalanang": 8148,
      "papang": 8149,
      "palan": 8150,
      "pagan": 8151,
      "papagpa": 8152,
      "painumin": 8153,
      "palayasin": 8154,
      "pawiin": 8155,
      "pahintulutan": 8156,
      "pawawalan": 8157,
      "pabalikin": 8158,
      "pasilangin": 8159,
      "panakip": 8160,
      "silungan": 8161,
      "singaw": 8162,
      "anang": 8163,
      "anyayahan": 8164,
      "babayaang": 8165,
      "lip": 8166,
      "liw": 8167,
      "lisan": 8168,
      "lihis": 8169,
      "litid": 8170,
      "kaninong": 8171,
      "yapakan": 8172,
      "talu": 8173,
      "tabas": 8174,
      "taza": 8175,
      "tapunan": 8176,
      "taginaw": 8177,
      "bilhin": 8178,
      "itin": 8179,
      "hahalagahan": 8180,
      "hahatiin": 8181,
      "pagiging": 8182,
      "pagdadala": 8183,
      "pagnanakaw": 8184,
      "paglingap": 8185,
      "pagtanggap": 8186,
      "pagtupad": 8187,
      "langib": 8188,
      "inabot": 8189,
      "dac": 8190,
      "dalu": 8191,
      "dawagan": 8192,
      "dadalhing": 8193,
      "bugin": 8194,
      "bukong": 8195,
      "magbata": 8196,
      "magturo": 8197,
      "magnakaw": 8198,
      "magbubo": 8199,
      "maginhawa": 8200,
      "magdadalang": 8201,
      "magtamo": 8202,
      "naglulu": 8203,
      "naghiwalay": 8204,
      "nagdalang": 8205,
      "nagdilim": 8206,
      "nagkanulo": 8207,
      "nagdadalang": 8208,
      "nagsiyaong": 8209,
      "nagtatakuwil": 8210,
      "lumang": 8211,
      "luwat": 8212,
      "lutuin": 8213,
      "lungga": 8214,
      "lunsad": 8215,
      "tulo": 8216,
      "tuman": 8217,
      "tumala": 8218,
      "tubong": 8219,
      "tumik": 8220,
      "tuluyan": 8221,
      "sureo": 8222,
      "pangunang": 8223,
      "pangbalikat": 8224,
      "pangsirang": 8225,
      "pangungusap": 8226,
      "pangkalupkop": 8227,
      "panggagaway": 8228,
      "pagkan": 8229,
      "pagkapag": 8230,
      "pagkaibig": 8231,
      "pagkabata": 8232,
      "pagkabuwal": 8233,
      "pagkaalit": 8234,
      "pagkayaring": 8235,
      "nangyaring": 8236,
      "nanggilalas": 8237,
      "hirapan": 8238,
      "hinub": 8239,
      "manganak": 8240,
      "hateo": 8241,
      "kuto": 8242,
      "kupan": 8243,
      "kumba": 8244,
      "kumatha": 8245,
      "mano": 8246,
      "sinarhan": 8247,
      "muran": 8248,
      "kikilala": 8249,
      "moro": 8250,
      "matanggap": 8251,
      "patutu": 8252,
      "mayong": 8253,
      "lalamon": 8254,
      "Sala": 8255,
      "Sasabihin": 8256,
      "Saphat": 8257,
      "hungin": 8258,
      "pinadakila": 8259,
      "pinataba": 8260,
      "pinababayaan": 8261,
      "pinansin": 8262,
      "pinanukala": 8263,
      "tisa": 8264,
      "tipak": 8265,
      "tinimbang": 8266,
      "agang": 8267,
      "agila": 8268,
      "idlip": 8269,
      "giray": 8270,
      "asnong": 8271,
      "babagsak": 8272,
      "babaguhin": 8273,
      "boa": 8274,
      "nagsidaan": 8275,
      "nagsikuha": 8276,
      "nagsiiyak": 8277,
      "nagsisiyasat": 8278,
      "nagsitalima": 8279,
      "nagsitigil": 8280,
      "nagsisilaban": 8281,
      "nagsisulong": 8282,
      "ikapupuri": 8283,
      "inupasala": 8284,
      "inihahain": 8285,
      "inihatid": 8286,
      "dungan": 8287,
      "sot": 8288,
      "makaalis": 8289,
      "kungdi": 8290,
      "nilabasan": 8291,
      "gawaing": 8292,
      "Nasumpungan": 8293,
      "bangbang": 8294,
      "tanungin": 8295,
      "nasalubong": 8296,
      "nangapasa": 8297,
      "nangabali": 8298,
      "nangakasulat": 8299,
      "magsisunod": 8300,
      "magsitawag": 8301,
      "magsitalima": 8302,
      "pitin": 8303,
      "mpaan": 8304,
      "malamig": 8305,
      "isanin": 8306,
      "isauli": 8307,
      "sinsing": 8308,
      "kandungan": 8309,
      "panalang": 8310,
      "panaig": 8311,
      "umaasa": 8312,
      "tatayuan": 8313,
      "Jecho": 8314,
      "Jeus": 8315,
      "ginamit": 8316,
      "masaktan": 8317,
      "batan": 8318,
      "tinabas": 8319,
      "tinakasan": 8320,
      "Jobab": 8321,
      "tungayaw": 8322,
      "nangagtayo": 8323,
      "nangaglilingkod": 8324,
      "nangagsanggunian": 8325,
      "nangaghahain": 8326,
      "italaga": 8327,
      "alisan": 8328,
      "nagsisiasa": 8329,
      "nagsisikap": 8330,
      "nagsisisamba": 8331,
      "nagsisiiyak": 8332,
      "nagsisitanggap": 8333,
      "lilipol": 8334,
      "ipinasugo": 8335,
      "ipinahamak": 8336,
      "ipinahintulot": 8337,
      "ipinatawad": 8338,
      "bingwit": 8339,
      "kinalong": 8340,
      "kinalilimutan": 8341,
      "kinayayamutan": 8342,
      "Magalak": 8343,
      "tagak": 8344,
      "tagaibang": 8345,
      "tagapagalaga": 8346,
      "rinto": 8347,
      "likong": 8348,
      "ilag": 8349,
      "pusok": 8350,
      "arba": 8351,
      "kalagitnaan": 8352,
      "nanampalataya": 8353,
      "ene": 8354,
      "pinakamabuti": 8355,
      "pinakahuli": 8356,
      "pinakadakila": 8357,
      "pinakamalalim": 8358,
      "payayaunin": 8359,
      "marahan": 8360,
      "bunsong": 8361,
      "buntis": 8362,
      "magutom": 8363,
      "gumaganap": 8364,
      "pinagsalitaan": 8365,
      "pinagbilinan": 8366,
      "ibinibilang": 8367,
      "pakikita": 8368,
      "pakikinggan": 8369,
      "ligtad": 8370,
      "itinanaw": 8371,
      "mangamatay": 8372,
      "nakilos": 8373,
      "ibiging": 8374,
      "karong": 8375,
      "makipot": 8376,
      "dinaanan": 8377,
      "dinatnan": 8378,
      "dumapit": 8379,
      "magaan": 8380,
      "magaari": 8381,
      "imbot": 8382,
      "patigil": 8383,
      "magsisisampalataya": 8384,
      "magsisitanggap": 8385,
      "katusuhan": 8386,
      "daldal": 8387,
      "bubusugin": 8388,
      "iniladlad": 8389,
      "sisigaw": 8390,
      "mpalatayang": 8391,
      "maligaya": 8392,
      "magpakabanal": 8393,
      "sumpang": 8394,
      "Magpa": 8395,
      "Magsisi": 8396,
      "Magsiyaon": 8397,
      "sasaya": 8398,
      "sasaiyo": 8399,
      "propetisa": 8400,
      "kakampi": 8401,
      "pingol": 8402,
      "itinindig": 8403,
      "hingan": 8404,
      "Beria": 8405,
      "pagalis": 8406,
      "pinulot": 8407,
      "ipinagtatanim": 8408,
      "rubi": 8409,
      "lagnat": 8410,
      "tutubo": 8411,
      "nagpasiya": 8412,
      "kasutsutan": 8413,
      "lulumo": 8414,
      "kinuhang": 8415,
      "mailigtas": 8416,
      "isinagawa": 8417,
      "isinasaysay": 8418,
      "isinasakdal": 8419,
      "isinalangsang": 8420,
      "tumakbong": 8421,
      "Pagda": 8422,
      "siksik": 8423,
      "lagak": 8424,
      "pagpapakumbaba": 8425,
      "rei": 8426,
      "relihi": 8427,
      "hahanay": 8428,
      "hahawakan": 8429,
      "alagaan": 8430,
      "Elisa": 8431,
      "isini": 8432,
      "Filistia": 8433,
      "ipasok": 8434,
      "iparirinig": 8435,
      "ipahintulot": 8436,
      "nagpapagaling": 8437,
      "sumasagana": 8438,
      "Hepher": 8439,
      "sikomoro": 8440,
      "kahali": 8441,
      "mantala": 8442,
      "kamit": 8443,
      "magpapakita": 8444,
      "magpapasapit": 8445,
      "binuhusan": 8446,
      "luklukang": 8447,
      "kilalang": 8448,
      "matiis": 8449,
      "Medo": 8450,
      "sena": 8451,
      "nauuhaw": 8452,
      "kumapal": 8453,
      "Cainan": 8454,
      "mith": 8455,
      "Parang": 8456,
      "magpapatuloy": 8457,
      "templong": 8458,
      "pupuksa": 8459,
      "Sua": 8460,
      "dera": 8461,
      "mapapahamak": 8462,
      "mapapakinabang": 8463,
      "dadagdagan": 8464,
      "dadanasin": 8465,
      "nagsipaglingkod": 8466,
      "makapagsasabi": 8467,
      "mapagmatigas": 8468,
      "mapagpigil": 8469,
      "kampani": 8470,
      "ulanan": 8471,
      "pagdaraan": 8472,
      "sipingan": 8473,
      "Nehemias": 8474,
      "binigkisan": 8475,
      "mapawi": 8476,
      "mapahamak": 8477,
      "sinisira": 8478,
      "sinisiyasat": 8479,
      "pakikipaglaban": 8480,
      "Rehum": 8481,
      "nakakarinig": 8482,
      "nakakaunawa": 8483,
      "sasakdal": 8484,
      "pinipigil": 8485,
      "tiniis": 8486,
      "tinitiis": 8487,
      "kapitbahay": 8488,
      "malilimutan": 8489,
      "nanganghimagsik": 8490,
      "pumighati": 8491,
      "namamanhik": 8492,
      "mabasa": 8493,
      "nagiisip": 8494,
      "Yaon": 8495,
      "ibinababa": 8496,
      "tatangis": 8497,
      "lagim": 8498,
      "Socho": 8499,
      "pulaan": 8500,
      "papagtibayin": 8501,
      "tagapagtanggol": 8502,
      "Azmaveth": 8503,
      "grana": 8504,
      "tumatakip": 8505,
      "pagpapalalo": 8506,
      "Gabaonita": 8507,
      "Araw": 8508,
      "Corinto": 8509,
      "natuwa": 8510,
      "beri": 8511,
      "pagkakabahabahagi": 8512,
      "nahabag": 8513,
      "nahahayag": 8514,
      "Marcos": 8515,
      "matutulog": 8516,
      "humanay": 8517,
      "dumirinig": 8518,
      "naguutos": 8519,
      "nagulumihanan": 8520,
      "mawawasak": 8521,
      "kawali": 8522,
      "nangakakaalam": 8523,
      "nakikipagtalo": 8524,
      "nangangasiwa": 8525,
      "nalalanta": 8526,
      "kutya": 8527,
      "iginagawa": 8528,
      "iginawad": 8529,
      "Salmon": 8530,
      "Carmel": 8531,
      "batiin": 8532,
      "kinabukasa": 8533,
      "Tulad": 8534,
      "Tumayo": 8535,
      "nangagsisamba": 8536,
      "Ismaelita": 8537,
      "pumuti": 8538,
      "tumutulo": 8539,
      "tumutubo": 8540,
      "magkakaanak": 8541,
      "magkakabisa": 8542,
      "Chipre": 8543,
      "pagbububo": 8544,
      "Luz": 8545,
      "pahirapan": 8546,
      "itatapon": 8547,
      "tinanggihan": 8548,
      "Gilboa": 8549,
      "Maraming": 8550,
      "Hanapin": 8551,
      "napapahamak": 8552,
      "bibilangin": 8553,
      "usigin": 8554,
      "kasintahan": 8555,
      "pamunuan": 8556,
      "makapagpasalamat": 8557,
      "napagunawa": 8558,
      "Nazareno": 8559,
      "Jabin": 8560,
      "leopar": 8561,
      "echao": 8562,
      "yumayaong": 8563,
      "Cornelio": 8564,
      "naglilikat": 8565,
      "nagliliyab": 8566,
      "manunugtog": 8567,
      "Chebar": 8568,
      "kaalitan": 8569,
      "Enos": 8570,
      "tagubilin": 8571,
      "patawag": 8572,
      "Edrei": 8573,
      "kabilugan": 8574,
      "bibitayan": 8575,
      "magtatamo": 8576,
      "magtataas": 8577,
      "pinagusig": 8578,
      "makatanan": 8579,
      "especia": 8580,
      "pinagsisikapang": 8581,
      "nagbabadya": 8582,
      "pinatototohanan": 8583,
      "tigisang": 8584,
      "Manahem": 8585,
      "maglilikat": 8586,
      "Lumabas": 8587,
      "paniwalaan": 8588,
      "pagkakasundo": 8589,
      "Jeroham": 8590,
      "namulot": 8591,
      "nagmamataas": 8592,
      "Belsasar": 8593,
      "melec": 8594,
      "manghahabi": 8595,
      "nanunumpa": 8596,
      "Biyaya": 8597,
      "Bichri": 8598,
      "kulandong": 8599,
      "nangagpakabanal": 8600,
      "mangatitisod": 8601,
      "pagtitibayin": 8602,
      "Ammiud": 8603,
      "tuksuhin": 8604,
      "babasagin": 8605,
      "Tatlong": 8606,
      "siniyasat": 8607,
      "libama": 8608,
      "pupugnawin": 8609,
      "Ophra": 8610,
      "mabilog": 8611,
      "pagpupuyat": 8612,
      "magluluwat": 8613,
      "lurayin": 8614,
      "pangunahing": 8615,
      "pagaliw": 8616,
      "Adullam": 8617,
      "Aphec": 8618,
      "Ganyan": 8619,
      "paliliguan": 8620,
      "Panahon": 8621,
      "Accub": 8622,
      "apuyan": 8623,
      "foka": 8624,
      "distrito": 8625,
      "mangdadagit": 8626,
      "lilimangpuin": 8627,
      "Selomith": 8628,
      "Ajalon": 8629,
      "Misael": 8630,
      "Pisga": 8631,
      "Tanggapin": 8632,
      "gampanin": 8633,
      "baluti": 8634,
      "higante": 8635,
      "ngalangala": 8636,
      "sinangag": 8637,
      "Jerameel": 8638,
      "mapanibughu": 8639,
      "Cadmiel": 8640,
      "Dalawang": 8641,
      "punyagi": 8642,
      "Moloch": 8643,
      "Mahalaleel": 8644,
      "Bezaleel": 8645,
      "kukubkubin": 8646,
      "iginiba": 8647,
      "Tesalonica": 8648,
      "Axa": 8649,
      "Chemos": 8650,
      "Cilicia": 8651,
      "Tinanggap": 8652,
      "kabinataan": 8653,
      "masuwayin": 8654,
      "tumiktik": 8655,
      "hinubdan": 8656,
      "kumbabang": 8657,
      "tipaklong": 8658,
      "leopardo": 8659,
      "Av": 8660,
      "Ario": 8661,
      "Ahaz": 8662,
      "Asor": 8663,
      "Baya": 8664,
      "Binu": 8665,
      "Bilang": 8666,
      "Binig": 8667,
      "Bato": 8668,
      "Base": 8669,
      "Ch": 8670,
      "Cre": 8671,
      "Dinala": 8672,
      "Ebal": 8673,
      "Ethan": 8674,
      "Gin": 8675,
      "Gama": 8676,
      "HAR": 8677,
      "Ilang": 8678,
      "Ira": 8679,
      "Itong": 8680,
      "Ihanda": 8681,
      "Ibibigay": 8682,
      "Ituro": 8683,
      "JE": 8684,
      "Libi": 8685,
      "Lotan": 8686,
      "Min": 8687,
      "Mer": 8688,
      "Oreb": 8689,
      "Pha": 8690,
      "Pet": 8691,
      "Punu": 8692,
      "Patay": 8693,
      "Pisanin": 8694,
      "Sit": 8695,
      "Ser": 8696,
      "Thi": 8697,
      "Tel": 8698,
      "Urim": 8699,
      "awang": 8700,
      "ahunan": 8701,
      "chi": 8702,
      "chita": 8703,
      "cea": 8704,
      "eph": 8705,
      "gpung": 8706,
      "iya": 8707,
      "iniya": 8708,
      "isisi": 8709,
      "ipinu": 8710,
      "ico": 8711,
      "iitaas": 8712,
      "isuot": 8713,
      "ioth": 8714,
      "iiyak": 8715,
      "ihuhulog": 8716,
      "ihatid": 8717,
      "igaganti": 8718,
      "ibuhos": 8719,
      "iwawasak": 8720,
      "idadalangin": 8721,
      "kitan": 8722,
      "mbu": 8723,
      "oy": 8724,
      "odi": 8725,
      "oam": 8726,
      "ppor": 8727,
      "rsa": 8728,
      "rka": 8729,
      "ratang": 8730,
      "slo": 8731,
      "tero": 8732,
      "tsot": 8733,
      "usang": 8734,
      "ugit": 8735,
      "vi": 8736,
      "zec": 8737,
      "nayong": 8738,
      "nasang": 8739,
      "nael": 8740,
      "nawan": 8741,
      "nach": 8742,
      "naunawa": 8743,
      "napuspos": 8744,
      "namumulaklak": 8745,
      "nabibigkisan": 8746,
      "samin": 8747,
      "sakupin": 8748,
      "kalupa": 8749,
      "kadak": 8750,
      "kagalang": 8751,
      "kadalaga": 8752,
      "kagayakan": 8753,
      "kapulaan": 8754,
      "atias": 8755,
      "ayin": 8756,
      "nilusong": 8757,
      "laran": 8758,
      "laias": 8759,
      "lastas": 8760,
      "lawin": 8761,
      "lapatan": 8762,
      "lakarin": 8763,
      "gaod": 8764,
      "gagantihan": 8765,
      "gapusin": 8766,
      "mami": 8767,
      "maling": 8768,
      "mahihi": 8769,
      "mapanga": 8770,
      "mahiwalay": 8771,
      "mahuli": 8772,
      "malubos": 8773,
      "mabigyan": 8774,
      "mapipisan": 8775,
      "mapayapa": 8776,
      "maitayo": 8777,
      "masusunog": 8778,
      "madudu": 8779,
      "masinsing": 8780,
      "pain": 8781,
      "panan": 8782,
      "paso": 8783,
      "pagaw": 8784,
      "pasisi": 8785,
      "pasimulan": 8786,
      "pakundanganan": 8787,
      "paiinumin": 8788,
      "pababayaang": 8789,
      "baong": 8790,
      "bako": 8791,
      "baro": 8792,
      "bakan": 8793,
      "barin": 8794,
      "lib": 8795,
      "liel": 8796,
      "libak": 8797,
      "tanan": 8798,
      "tago": 8799,
      "tamia": 8800,
      "akbay": 8801,
      "itingin": 8802,
      "itinang": 8803,
      "hasin": 8804,
      "haim": 8805,
      "hahatid": 8806,
      "hagkan": 8807,
      "hahantong": 8808,
      "pagmu": 8809,
      "pagsasabi": 8810,
      "paghaha": 8811,
      "paghamak": 8812,
      "paggiba": 8813,
      "paghahain": 8814,
      "pagpihit": 8815,
      "pagtulog": 8816,
      "pagbuhatan": 8817,
      "pagngangalit": 8818,
      "langlang": 8819,
      "Ating": 8820,
      "inahon": 8821,
      "daiti": 8822,
      "buting": 8823,
      "bubog": 8824,
      "buslo": 8825,
      "maghiwalay": 8826,
      "magbunga": 8827,
      "magmama": 8828,
      "magsaysay": 8829,
      "magbuhat": 8830,
      "magtindig": 8831,
      "magbabalik": 8832,
      "maglakbay": 8833,
      "magbukas": 8834,
      "magpatawad": 8835,
      "magiiwan": 8836,
      "magtaglay": 8837,
      "magsiyasat": 8838,
      "magpalalo": 8839,
      "maghahasik": 8840,
      "maghasik": 8841,
      "magsusuot": 8842,
      "maghugas": 8843,
      "nagpipi": 8844,
      "nagbago": 8845,
      "nagsalitang": 8846,
      "nagsuot": 8847,
      "nagmalaki": 8848,
      "nagnanakaw": 8849,
      "nagtataglay": 8850,
      "nagtaglay": 8851,
      "nagsangusapan": 8852,
      "nagtatangi": 8853,
      "nagbubuntong": 8854,
      "nagtatangkilik": 8855,
      "luin": 8856,
      "lusin": 8857,
      "disin": 8858,
      "didili": 8859,
      "tuwa": 8860,
      "tugtog": 8861,
      "tumanda": 8862,
      "susi": 8863,
      "sumaga": 8864,
      "sukal": 8865,
      "supling": 8866,
      "pua": 8867,
      "pusang": 8868,
      "puksa": 8869,
      "pupulutin": 8870,
      "pangat": 8871,
      "panglaw": 8872,
      "panghabi": 8873,
      "pagkakati": 8874,
      "pagkaalis": 8875,
      "pagkasumpong": 8876,
      "pagkalito": 8877,
      "nanging": 8878,
      "nanghihina": 8879,
      "nanglulumo": 8880,
      "hia": 8881,
      "hian": 8882,
      "hisopo": 8883,
      "hinoam": 8884,
      "tor": 8885,
      "torio": 8886,
      "mangbaba": 8887,
      "manghang": 8888,
      "mangaral": 8889,
      "manghimagsik": 8890,
      "manggagaling": 8891,
      "manginginig": 8892,
      "manghihimagsik": 8893,
      "anakin": 8894,
      "sinasaysay": 8895,
[...]
