{
  "version": "1.0",
  "truncation": null,
  "padding": null,
  "added_tokens": [
    {
      "id": 0,
      "content": "<pad>",
      "single_word": false,
      "lstrip": false,
      "rstrip": false,
      "normalized": false,
      "special": true
    },
    {
      "id": 1,
      "content": "<unk>",
      "single_word": false,
      "lstrip": false,
      "rstrip": false,
      "normalized": false,
      "special": true
    },
    {
      "id": 2,
      "content": "<s>",
      "single_word": false,
      "lstrip": false,
      "rstrip": false,
      "normalized": false,
      "special": true
    },
    {
      "id": 3,
      "content": "</s>",
      "single_word": false,
      "lstrip": false,
      "rstrip": false,
      "normalized": false,
      "special": true
    }
  ],
  "normalizer": null,
  "pre_tokenizer": {
    "type": "Sequence",
    "pretokenizers": [
      {
        "type": "Whitespace"
      },
      {
        "type": "Split",
        "pattern": {
          "Regex": "(?<=[က-႟꤀-꤯])(?=[A-Za-z0-9])|(?<=[A-Za-z0-9])(?=[က-႟꤀-꤯])"
        },
        "behavior": "Isolated",
        "invert": false
      }
    ]
  },
  "post_processor": null,
  "decoder": null,
  "model": {
    "type": "BPE",
    "dropout": null,
    "unk_token": "<unk>",
    "continuing_subword_prefix": null,
    "end_of_word_suffix": null,
    "fuse_unk": false,
    "byte_fallback": false,
    "ignore_merges": false,
    "vocab": {
      "<pad>": 0,
      "<unk>": 1,
      "<s>": 2,
      "</s>": 3,
      "!": 4,
      "#": 5,
      "$": 6,
      "%": 7,
      "&": 8,
      "(": 9,
      ")": 10,
      "*": 11,
      "+": 12,
      ",": 13,
      "-": 14,
      ".": 15,
      "/": 16,
      "0": 17,
      "1": 18,
      "2": 19,
      "3": 20,
      "4": 21,
      "5": 22,
      "6": 23,
      "7": 24,
      "8": 25,
      "9": 26,
      ":": 27,
      ";": 28,
      "=": 29,
      "?": 30,
      "A": 31,
      "B": 32,
      "C": 33,
      "D": 34,
      "E": 35,
      "F": 36,
      "G": 37,
      "H": 38,
      "I": 39,
      "J": 40,
      "K": 41,
      "L": 42,
      "M": 43,
      "N": 44,
      "O": 45,
      "P": 46,
      "Q": 47,
      "R": 48,
      "S": 49,
      "T": 50,
      "U": 51,
      "V": 52,
      "W": 53,
      "X": 54,
      "Y": 55,
      "Z": 56,
      "[": 57,
      "]": 58,
      "_": 59,
      "a": 60,
      "b": 61,
      "c": 62,
      "d": 63,
      "e": 64,
      "f": 65,
      "g": 66,
      "h": 67,
      "i": 68,
      "j": 69,
      "k": 70,
      "l": 71,
      "m": 72,
      "n": 73,
      "o": 74,
      "p": 75,
      "q": 76,
      "r": 77,
      "s": 78,
      "t": 79,
      "u": 80,
      "v": 81,
      "w": 82,
      "x": 83,
      "y": 84,
      "z": 85,
      "{": 86,
      "|": 87,
      "}": 88,
      "°": 89,
      "½": 90,
      "é": 91,
      "ก": 92,
      "ข": 93,
      "ค": 94,
      "ง": 95,
      "จ": 96,
      "ช": 97,
      "ญ": 98,
      "ฏ": 99,
      "ฐ": 100,
      "ฑ": 101,
      "ฒ": 102,
      "ณ": 103,
      "ด": 104,
      "ต": 105,
      "ถ": 106,
      "ท": 107,
      "ธ": 108,
      "น": 109,
      "บ": 110,
      "ป": 111,
      "ฝ": 112,
      "พ": 113,
      "ภ": 114,
      "ม": 115,
      "ย": 116,
      "ร": 117,
      "ฤ": 118,
      "ล": 119,
      "ว": 120,
      "ศ": 121,
      "ษ": 122,
      "ส": 123,
      "ห": 124,
      "อ": 125,
      "ฮ": 126,
      "ะ": 127,
      "ั": 128,
      "า": 129,
      "ำ": 130,
      "ิ": 131,
      "ี": 132,
      "ึ": 133,
      "ื": 134,
      "ุ": 135,
      "ู": 136,
      "เ": 137,
      "แ": 138,
      "โ": 139,
      "ใ": 140,
      "ไ": 141,
      "็": 142,
      "่": 143,
      "้": 144,
      "๊": 145,
      "๋": 146,
      "์": 147,
      "က": 148,
      "ခ": 149,
      "ဂ": 150,
      "ဃ": 151,
      "င": 152,
      "စ": 153,
      "ဆ": 154,
      "ဇ": 155,
      "ဈ": 156,
      "ဉ": 157,
      "ည": 158,
      "ဋ": 159,
      "ဌ": 160,
      "ဍ": 161,
      "ဏ": 162,
      "တ": 163,
      "ထ": 164,
      "ဒ": 165,
      "ဓ": 166,
      "န": 167,
      "ပ": 168,
      "ဖ": 169,
      "ဗ": 170,
      "ဘ": 171,
      "မ": 172,
      "ယ": 173,
      "ရ": 174,
      "လ": 175,
      "ဝ": 176,
      "သ": 177,
      "ဟ": 178,
      "အ": 179,
      "ဢ": 180,
      "ဤ": 181,
      "ဥ": 182,
      "ဦ": 183,
      "ဧ": 184,
      "ဩ": 185,
      "ါ": 186,
      "ာ": 187,
      "ိ": 188,
      "ီ": 189,
      "ု": 190,
      "ူ": 191,
      "ေ": 192,
      "ဲ": 193,
      "ဵ": 194,
      "ံ": 195,
      "့": 196,
      "း": 197,
      "္": 198,
      "်": 199,
      "ျ": 200,
      "ြ": 201,
      "ွ": 202,
      "ှ": 203,
      "ဿ": 204,
      "၀": 205,
      "၁": 206,
      "၂": 207,
      "၃": 208,
      "၄": 209,
      "၅": 210,
      "၆": 211,
      "၇": 212,
      "၈": 213,
      "၉": 214,
      "၊": 215,
      "။": 216,
      "၏": 217,
      "ၢ": 218,
      "ၵ": 219,
      "ၶ": 220,
      "ၷ": 221,
      "ၸ": 222,
      "ၹ": 223,
      "ၺ": 224,
      "ၻ": 225,
      "ၼ": 226,
      "ၽ": 227,
      "ၾ": 228,
      "ၿ": 229,
      "ႁ": 230,
      "ႂ": 231,
      "ႃ": 232,
      "ႄ": 233,
      "ႅ": 234,
      "ႆ": 235,
      "ႇ": 236,
      "ႈ": 237,
      "ႉ": 238,
      "ႊ": 239,
      "႐": 240,
      "႑": 241,
      "႒": 242,
      "႓": 243,
      "႕": 244,
      "႖": 245,
      "႘": 246,
      "႙": 247,
      "႞": 248,
      "​": 249,
      "–": 250,
      "—": 251,
      "‘": 252,
      "’": 253,
      "“": 254,
      "”": 255,
      "…": 256,
      "″": 257,
      "−": 258,
      "区": 259,
      "厅": 260,
      "商": 261,
      "培": 262,
      "学": 263,
      "寨": 264,
      "工": 265,
      "市": 266,
      "昆": 267,
      "明": 268,
      "板": 269,
      "永": 270,
      "理": 271,
      "生": 272,
      "白": 273,
      "盘": 274,
      "管": 275,
      "训": 276,
      "路": 277,
      "边": 278,
      "院": 279,
      "餐": 280,
      "龙": 281,
      "ꧠ": 282,
      "ꧣ": 283,
      "ꨁ": 284,
      "ꨅ": 285,
      "꨸": 286,
      "ꩪ": 287,
      "်း": 288,
      "်ႈ": 289,
      "ၼ်": 290,
      "င်": 291,
      "င်း": 292,
      "ိူ": 293,
      "ို": 294,
      "ၼ်း": 295,
      "ဝ်": 296,
      "ႃႈ": 297,
      "်ႇ": 298,
      "င်ႈ": 299,
      "်ႉ": 300,
      "ၼႆ": 301,
      "ၢႆ": 302,
      "တီ": 303,
      "ဝ်း": 304,
      "ႃး": 305,
      "မိူ": 306,
      "မ်း": 307,
      "ၵူ": 308,
      "ႃႇ": 309,
      "တီႈ": 310,
      "တ်း": 311,
      "ဝ်ႈ": 312,
      "ၼ်ႈ": 313,
      "ၼ်ႉ": 314,
      "င်ႇ": 315,
      "ၵ်း": 316,
      "မိူင်း": 317,
      "ၵေ": 318,
      "ဝႃႈ": 319,
      "ၵူၼ်း": 320,
      "ႄႈ": 321,
      "မ်": 322,
      "ၼႆႉ": 323,
      "ႆႈ": 324,
      "ၵ်ႈ": 325,
      "ႁူ": 326,
      "လူ": 327,
      "ႆး": 328,
      "ဵၼ်": 329,
      "တေ": 330,
      "ၢင်း": 331,
      "ႃႉ": 332,
      "မ်ႇ": 333,
      "ၢင်": 334,
      "လႆႈ": 335,
      "ပဵၼ်": 336,
      "ပွ": 337,
      "ၼႂ": 338,
      "ိုင်ႈ": 339,
      "မႃး": 340,
      "ၼၼ်ႉ": 341,
      "ၢၼ်": 342,
      "ိုၵ်း": 343,
      "ၼႂ်း": 344,
      "ီး": 345,
      "ၵ်ႇ": 346,
      "တ်ႈ": 347,
      "တူ": 348,
      "ဵင်း": 349,
      "ဝ်ႉ": 350,
      "ၢၼ်ႈ": 351,
      "ၢႆး": 352,
      "ဢၼ်": 353,
      "မီး": 354,
      "ွင်ႈ": 355,
      "ူႇ": 356,
      "မ်ႈ": 357,
      "တၢင်း": 358,
      "ဢမ်ႇ": 359,
      "မ်ႉ": 360,
      "ၵၼ်": 361,
      "သေ": 362,
      "ၸိူ": 363,
      "တႆး": 364,
      "သိုၵ်း": 365,
      "ၵႂ": 366,
      "လႄႈ": 367,
      "ၶႃႈ": 368,
      "ႁဵ": 369,
      "ယူႇ": 370,
      "ဝၼ်း": 371,
      "ပ်း": 372,
      "ဝ်ႇ": 373,
      "ၵေႃႈ": 374,
      "ဢွ": 375,
      "ဝဵင်း": 376,
      "ၵေႃႉ": 377,
      "ဝႃႈၼႆ": 378,
      "20": 379,
      "ၵ်ႉ": 380,
      "ၵႂႃႇ": 381,
      "ုမ်း": 382,
      "ၵၢၼ်": 383,
      "ႂ်": 384,
      "ၽူ": 385,
      "တ်ႇ": 386,
      "ႆႉ": 387,
      "လူင်": 388,
      "တ်ႉ": 389,
      "ယဝ်ႉ": 390,
      "ၸိုင်ႈ": 391,
      "ၢတ်ႈ": 392,
      "ၽူႈ": 393,
      "ၸွ": 394,
      "လိူ": 395,
      "ပၢင်": 396,
      "လွင်ႈ": 397,
      "ႁဝ်း": 398,
      "င်ႉ": 399,
      "ႂ်ႈ": 400,
      "ိုင်": 401,
      "ဝႆႉ": 402,
      "ပ်ႉ": 403,
      "ၸႄႈ": 404,
      "တႄ": 405,
      "ႁဵတ်း": 406,
      "ပေ": 407,
      "ိုၼ်း": 408,
      "တွ": 409,
      "လိ": 410,
      "ဝၢၼ်ႈ": 411,
      "ၸုမ်း": 412,
      "ၼ်ႇ": 413,
      "ၶူ": 414,
      "ၸဝ်ႈ": 415,
      "မိူဝ်ႈ": 416,
      "လဵ": 417,
      "ႅင်း": 418,
      "ၸိူဝ်း": 419,
      "ႁွ": 420,
      "ပ်ႇ": 421,
      "လၢတ်ႈ": 422,
      "မၼ်း": 423,
      "တင်း": 424,
      "ယၢ": 425,
      "ႆႇ": 426,
      "မူ": 427,
      "ပီ": 428,
      "ၵူၼ်းမိူင်း": 429,
      "ၺ်း": 430,
      "ၢႆႇ": 431,
      "ပို": 432,
      "မၢၼ်ႈ": 433,
      "ႁူမ်ႈ": 434,
      "ၶၢ": 435,
      "ပၼ်": 436,
      "တႄႉ": 437,
      "လု": 438,
      "ၶဝ်": 439,
      "ၼိုင်ႈ": 440,
      "ၸၢ": 441,
      "ၶဝ်ႈ": 442,
      "ၼမ်ႉ": 443,
      "ဝၼ်းတီႈ": 444,
      "ယွ": 445,
      "တႃႇ": 446,
      "ပၢႆ": 447,
      "ၸႄႈဝဵင်း": 448,
      "ၾၢႆႇ": 449,
      "ၸၢႆး": 450,
      "ဝ်ႊ": 451,
      "ႁူဝ်": 452,
      "ထႅ": 453,
      "ဢဝ်": 454,
      "ၶွ": 455,
      "ၸႂ်": 456,
      "ႁႂ်ႈ": 457,
      "သွ": 458,
      "သူ": 459,
      "ၵၢင်": 460,
      "ၼင်ႇ": 461,
      "ထိုင်": 462,
      "တု": 463,
      "ႁၢ": 464,
      "ဢွၵ်ႇ": 465,
      "ႁႅင်း": 466,
      "ပေႃး": 467,
      "ပွင်": 468,
      "ၵွ": 469,
      "ၽွ": 470,
      "ေႃႈ": 471,
      "ယၢမ်း": 472,
      "လီ": 473,
      "ပိူ": 474,
      "တႅ": 475,
      "ၼွ": 476,
      "မၢ": 477,
      "ၸွမ်း": 478,
      "လိၵ်ႈ": 479,
      "ႁဝ်းၶႃႈ": 480,
      "ၵူၺ်း": 481,
      "ႂ်ႇ": 482,
      "ေး": 483,
      "သဵ": 484,
      "လဵဝ်": 485,
      "မွ": 486,
      "19": 487,
      "ၶိူ": 488,
      "ီႇ": 489,
      "ၢင်ႇ": 490,
      "ပွတ်း": 491,
      "ိုဝ်း": 492,
      "ၵျ": 493,
      "သင်": 494,
      "လွ": 495,
      "ၸိုင်ႈတႆး": 496,
      "ၸိူဝ်းၼႆႉ": 497,
      "ပ်ႈ": 498,
      "လၢႆး": 499,
      "ႁိူ": 500,
      "တူဝ်": 501,
      "ၶိုၼ်း": 502,
      "လႅ": 503,
      "တေႃႇ": 504,
      "SS": 505,
      "ိၼ်": 506,
      "ၼႃႈ": 507,
      "လူင်ပွင်": 508,
      "ၵု": 509,
      "ပႃႇ": 510,
      "လၢႆ": 511,
      "သမ်ႉ": 512,
      "တပ်ႉ": 513,
      "လူင်ပွင်ၸိုင်ႈ": 514,
      "သု": 515,
      "ယူႇတီႈ": 516,
      "ႁိူၼ်း": 517,
      "ၼမ်": 518,
      "ထႅင်ႈ": 519,
      "တီႇ": 520,
      "သၢ": 521,
      "သို": 522,
      "ထု": 523,
      "ထႆး": 524,
      "ပူ": 525,
      "ဢွၼ်": 526,
      "ိူဝ်": 527,
      "ပွၵ်ႈ": 528,
      "ႁူင်း": 529,
      "တိုၵ်း": 530,
      "ၸဵ": 531,
      "ဢူ": 532,
      "ထူ": 533,
      "ိုတ်း": 534,
      "ိတ်ႉ": 535,
      "ၶိူဝ်း": 536,
      "လိူၼ်": 537,
      "ၶႅ": 538,
      "တၢႆ": 539,
      "လုၵ်ႈ": 540,
      "ယႃ": 541,
      "ၵႃႈ": 542,
      "ပႃႇတီႇ": 543,
      "ပၢႆႈ": 544,
      "ၼႄ": 545,
      "လူင်း": 546,
      "ၶၢဝ်း": 547,
      "00": 548,
      "ပႃး": 549,
      "ၸတ်း": 550,
      "သိုၵ်းမၢၼ်ႈ": 551,
      "ယု": 552,
      "ၵဵ": 553,
      "တွၼ်ႈ": 554,
      "တင်ႈ": 555,
      "တၢင်းပဵၼ်": 556,
      "မၢႆ": 557,
      "ီႈ": 558,
      "ၼၢင်း": 559,
      "ၺႃး": 560,
      "ၵမ်း": 561,
      "ိုၼ်ႈ": 562,
      "ၵူၼ်းဝၢၼ်ႈ": 563,
      "ေႃ": 564,
      "တွႆႇ": 565,
      "ငိုၼ်း": 566,
      "ၵူႈ": 567,
      "ယွၼ်ႉ": 568,
      "သီႇ": 569,
      "ေႊ": 570,
      "တိ": 571,
      "ၸိူဝ်ႉ": 572,
      "သႅ": 573,
      "ႁွၵ်ႈ": 574,
      "လိၼ်": 575,
      "201": 576,
      "ၽူႈတွႆႇ": 577,
      "ၶူဝ်ႊ": 578,
      "ဢု": 579,
      "မၢၵ်ႇ": 580,
      "ပိုၼ်ႉ": 581,
      "ႁဵၼ်း": 582,
      "ႁို": 583,
      "မူတ်း": 584,
      "ၽွင်း": 585,
      "ဢိူ": 586,
      "ၼု": 587,
      "ၽူႈတွႆႇႁွၵ်ႈ": 588,
      "လၢတ်ႈတီႈ": 589,
      "ႁူႉ": 590,
      "ၶမ်း": 591,
      "ၽၢ": 592,
      "ၵဵင်း": 593,
      "တိူ": 594,
      "ယိ": 595,
      "ၵႃး": 596,
      "ပႆႇ": 597,
      "ႁိုဝ်": 598,
      "လိူဝ်": 599,
      "ၽေး": 600,
      "ထတ်း": 601,
      "ဝိတ်ႉ": 602,
      "လၢတ်ႈဝႃႈ": 603,
      "ပိုၼ်": 604,
      "ၸွႆႈ": 605,
      "ၵျွ": 606,
      "တုမ်": 607,
      "မိူင်းတႆး": 608,
      "ႄး": 609,
      "တႃႈ": 610,
      "ၶူဝ်ႊဝိတ်ႉ": 611,
      "ဢိူင်ႇ": 612,
      "ၶၢဝ်ႇ": 613,
      "ႁႃ": 614,
      "ဢေႃႈ": 615,
      "ႂ်ႉ": 616,
      "ၶႄ": 617,
      "ၽၢဝ်ႇ": 618,
      "ီႊ": 619,
      "ၼုမ်ႇ": 620,
      "မူင်း": 621,
      "ၸူ": 622,
      "ပိုၼ်ၽၢဝ်ႇ": 623,
      "တို": 624,
      "ၸိူင်ႉ": 625,
      "ၽူႈတွႆႇႁွၵ်ႈဝႃႈ": 626,
      "ထႅမ်": 627,
      "ႁွင်ႇ": 628,
      "ၢမ်း": 629,
      "မိူၼ်": 630,
      "ႁၼ်": 631,
      "2020": 632,
      "ပု": 633,
      "မွၵ်ႈ": 634,
      "ပၢႆး": 635,
      "လူႉ": 636,
      "ယိုဝ်း": 637,
      "တႅၼ်း": 638,
      "ၵေႃႉၼိုင်ႈ": 639,
      "သိုပ်ႇ": 640,
      "ၶိုၼ်ႈ": 641,
      "မႄး": 642,
      "ဢုပ်ႇ": 643,
      "ၶၢႆ": 644,
      "21": 645,
      "ၵိၼ်": 646,
      "ဢိ": 647,
      "တူၵ်း": 648,
      "လိူၵ်ႈ": 649,
      "ပၢင်တိုၵ်း": 650,
      "CSS": 651,
      "ယၢမ်းလဵဝ်": 652,
      "ၢၼ်း": 653,
      "ၸပ်း": 654,
      "သွင်": 655,
      "ပိူင်": 656,
      "ၼၼ်": 657,
      "ၶေႃႈ": 658,
      "ယႃႈ": 659,
      "ႁူမ်ႈၵၼ်": 660,
      "လွႆ": 661,
      "ၸၢဝ်း": 662,
      "ၸၢင်ႈ": 663,
      "10": 664,
      "ဝတ်ႉ": 665,
      "မူႇ": 666,
      "ၸိုင်ႈတႆးပွတ်း": 667,
      "ၼွင်ႉ": 668,
      "တီႉ": 669,
      "ဝူ": 670,
      "ႁူမ်ႈတုမ်": 671,
      "ၸတ်းႁဵတ်း": 672,
      "ၵူတ်ႇ": 673,
      "တပ်ႉသိုၵ်း": 674,
      "ဢွၼ်ၵၼ်": 675,
      "ၵူၼ်းၼုမ်ႇ": 676,
      "ပီႈ": 677,
      "RCSS": 678,
      "ပလိၵ်ႈ": 679,
      "လႂ်": 680,
      "မု": 681,
      "ႁိ": 682,
      "ၵႅ": 683,
      "မ်ႊ": 684,
      "ၶႄႇ": 685,
      "တႄႇ": 686,
      "ၵုမ်": 687,
      "ႁပ်ႉ": 688,
      "သၽ": 689,
      "သၢင်ႈ": 690,
      "ၵွင်ႈ": 691,
      "သူင်ႇ": 692,
      "တင်းမူတ်း": 693,
      "ၵူတ်ႇထတ်း": 694,
      "ဢမ်ႇမီး": 695,
      "လၢတ်ႈတီႈၽူႈတွႆႇႁွၵ်ႈဝႃႈ": 696,
      "ၶႂ်ႈ": 697,
      "ၵဵဝ်ႇ": 698,
      "ၼိူဝ်": 699,
      "တၢင်ႇ": 700,
      "်ႊ": 701,
      "တိုၵ်ႉ": 702,
      "မႄႈ": 703,
      "ပိုၼ်ႉတီႈ": 704,
      "ၼႂ်းၸႄႈဝဵင်း": 705,
      "မိူဝ်ႈၼႆႉ": 706,
      "ၵဝ်ႇ": 707,
      "ၼႃး": 708,
      "မႂ်ႇ": 709,
      "ပၢႆႈၽေး": 710,
      "2018": 711,
      "ၵပ်း": 712,
      "ၵမ်": 713,
      "တေလႆႈ": 714,
      "ပူၼ်ႉ": 715,
      "ၺ်ႈ": 716,
      "ပျ": 717,
      "ၵၢင်ၸႂ်": 718,
      "မိူင်းႁူမ်ႈတုမ်": 719,
      "သၽႃး": 720,
      "ယဵၼ်": 721,
      "ၽႂ်": 722,
      "လိူၵ်ႈတင်ႈ": 723,
      "တူၺ်း": 724,
      "ၵူၺ်းၵႃႈ": 725,
      "ပီႈၼွင်ႉ": 726,
      "ၸွမ်": 727,
      "ၵိုတ်း": 728,
      "ၸဵမ်": 729,
      "သႂ်ႇ": 730,
      "မႆႈ": 731,
      "မိူဝ်ႈဝၼ်းတီႈ": 732,
      "ၢၼ်ႇ": 733,
      "တူၼ်ႈ": 734,
      "ေႃႇ": 735,
      "ၸၼ်ႉ": 736,
      "ၸင်ႇ": 737,
      "မိုဝ်း": 738,
      "ၼင်ႇၼႆ": 739,
      "ၾႆး": 740,
      "ဢွင်ႇ": 741,
      "ၸၢဝ်းၶိူဝ်း": 742,
      "ၶူဝ်း": 743,
      "ထုၵ်ႇ": 744,
      "ၶႃႈဢေႃႈ": 745,
      "ၵၢ": 746,
      "ၸေႊ": 747,
      "ႁွင်ႈ": 748,
      "ယၢမ်းၵၢင်": 749,
      "သိူဝ်": 750,
      "သွၼ်": 751,
      "ႁႅ": 752,
      "2019": 753,
      "ပေႃႉ": 754,
      "ၾႃႉ": 755,
      "ထူပ်း": 756,
      "ယွၼ်း": 757,
      "ၼႃႇ": 758,
      "ၶူး": 759,
      "ပိူဝ်ႈ": 760,
      "ၵျွၵ်ႉ": 761,
      "လႃႈ": 762,
      "လဵၵ်း": 763,
      "ႁိမ်း": 764,
      "ပၢင်ၵုမ်": 765,
      "ယႂ်ႇ": 766,
      "ႁႅင်းၵၢၼ်": 767,
      "ဢွၼ်ႇ": 768,
      "ႁၢင်ႈ": 769,
      "”-": 770,
      "ၶီႈ": 771,
      "ၵျွၵ်ႉမႄး": 772,
      "ဝၢႆး": 773,
      "ၶွင်": 774,
      "သၢႆ": 775,
      "ၽို": 776,
      "ႁူပ်ႉ": 777,
      "ပႅ": 778,
      "ရူ": 779,
      "တိတ်း": 780,
      "မူႇၸေႊ": 781,
      "NL": 782,
      "ဢႃ": 783,
      "ၶဵ": 784,
      "ိၼ်း": 785,
      "ၸႂ်ႉ": 786,
      "့်": 787,
      "ပွႆး": 788,
      "သဵၼ်ႈ": 789,
      "လင်": 790,
      "ဢမ်ႇလႆႈ": 791,
      "ပိုတ်ႇ": 792,
      "ယူ": 793,
      "ၶွမ်ႊ": 794,
      "လုၵ်ႉ": 795,
      "ၸွႆႈထႅမ်": 796,
      "သဵဝ်ႈ": 797,
      "လုမ်း": 798,
      "ၼႆယဝ်ႉ": 799,
      "ၸၢတ်ႈ": 800,
      "ႁၢဝ်ႈ": 801,
      "တူင်ႉ": 802,
      "ႁူဝ်ပ": 803,
      "ၶၢဝ်းတၢင်း": 804,
      "ယိင်း": 805,
      "လႃႈသဵဝ်ႈ": 806,
      "ဢႃယု": 807,
      "ၸၢၼ်း": 808,
      "သၢၼ်": 809,
      "တဵ": 810,
      "ပိ": 811,
      "မႅင်း": 812,
      "သုၼ်ႇ": 813,
      "ႁဵတ်းၵၢၼ်": 814,
      "11": 815,
      "တႃႈၶီႈ": 816,
      "သႅၼ်": 817,
      "ိုဝ်ႈ": 818,
      "ၵူၼ်းပၢႆႈၽေး": 819,
      "ၶု": 820,
      "ဢၼ်ဝႃႈ": 821,
      "ၢင်ႉ": 822,
      "မေႃ": 823,
      "မိူင်းထႆး": 824,
      "ၶတ်း": 825,
      "ႁၢဝ်ႈႁႅင်း": 826,
      "ၽူႈတႅၼ်း": 827,
      "လူင်ပွင်ၸိုင်ႈမၢၼ်ႈ": 828,
      "ၺွ": 829,
      "လၢ": 830,
      "ၼိုင်": 831,
      "တႃႈၶီႈလဵၵ်း": 832,
      "ႁူင်းယႃ": 833,
      "ၵွပ်ႈ": 834,
      "ႃႊ": 835,
      "ၼႃႈတီႈ": 836,
      "ငမ်း": 837,
      "တီး": 838,
      "ယၢပ်ႇ": 839,
      "လိူဝ်ၼၼ်ႉ": 840,
      "လူႉတၢႆ": 841,
      "12": 842,
      "ပွၵ်ႉ": 843,
      "ၸႄႈတွၼ်ႈ": 844,
      "ၵမ်ႈ": 845,
      "ၼႂ်": 846,
      "ဢူဝ်း": 847,
      "သီႇပေႃႉ": 848,
      "သဵင်": 849,
      "တေႃႇထိုင်": 850,
      "ၵေႃ": 851,
      "ေႃး": 852,
      "2021": 853,
      "ယေး": 854,
      "တူင်ႉၼိုင်": 855,
      "ၽွၼ်း": 856,
      "သူၼ်": 857,
      "ၼွင်": 858,
      "ၺွပ်း": 859,
      "တၢင်းပဵၼ်ၶူဝ်ႊဝိတ်ႉ": 860,
      "ၶဝ်ႈႁူမ်ႈ": 861,
      "ၸဵပ်း": 862,
      "မႆႇ": 863,
      "လႅၼ်": 864,
      "ၵေႃႇ": 865,
      "ႁွင်ႉ": 866,
      "တိူဝ်ႉ": 867,
      "ယႃႈမ": 868,
      "တုင်": 869,
      "မၢတ်ႇ": 870,
      "လွင်ႈၼႆႉ": 871,
      "လႅင်း": 872,
      "သိ": 873,
      "တေႃႈ": 874,
      "တိတ်းၸပ်း": 875,
      "ၢၵ်ႇ": 876,
      "တူၼ်ႈတီး": 877,
      "ဝႆႉတီႈ": 878,
      "လူၺ်ႈ": 879,
      "ဝႃး": 880,
      "ၸိူဝ်ႉၸၢတ်ႈ": 881,
      "ၵွၼ်း": 882,
      "ေႇ": 883,
      "ၸႂ်ႈ": 884,
      "ၵဵင်းတုင်": 885,
      "ငဝ်ႈ": 886,
      "ရူတ်ႉ": 887,
      "ၵႂၢမ်း": 888,
      "သင်ၶ": 889,
      "ပုၼ်ႈ": 890,
      "ၼွၵ်ႈ": 891,
      "ဢူး": 892,
      "သဝ်း": 893,
      "ၼၼ်ႉၵေႃႈ": 894,
      "ၶိူင်ႈ": 895,
      "မိူၼ်ၼင်ႇ": 896,
      "ၵဵင်းမႆႇ": 897,
      "လုင်း": 898,
      "မိူဝ်း": 899,
      "တႅၵ်ႇ": 900,
      "ပဵၼ်ပၢင်တိုၵ်း": 901,
      "ယွမ်း": 902,
      "ပၵ်း": 903,
      "ယူႇလီ": 904,
      "ၶမ်ႈ": 905,
      "ပျႃး": 906,
      "ၵႄႈ": 907,
      "ၽိူ": 908,
      "PP": 909,
      "ၸိူဝ်ႉမႅင်း": 910,
      "SSA": 911,
      "ၾိ": 912,
      "ၵဵဝ်ႇၵပ်း": 913,
      "ၸိုဝ်ႈ": 914,
      "ၸိုင်": 915,
      "တေမီး": 916,
      "ယိပ်း": 917,
      "လူဝ်ႇ": 918,
      "30": 919,
      "ၸိုင်ႈတႆးပွတ်းႁွင်ႇ": 920,
      "ႁၢႆ": 921,
      "မၢတ်ႇၸဵပ်း": 922,
      "ႁူဝ်ပဝ်ႈ": 923,
      "ၸဝ်ႈၼႃႈတီႈ": 924,
      "ဢုပ်ႇဢူဝ်း": 925,
      "ၽႅ": 926,
      "တီႉၺွပ်း": 927,
      "တေႃႈလဵဝ်": 928,
      "တႃႉ": 929,
      "ပွႆႇ": 930,
      "ယၢၼ်": 931,
      "မိူင်းၶႄႇ": 932,
      "ဝႂ်": 933,
      "ႁူင်းႁဵၼ်း": 934,
      "ႁွင်ႈၵၢၼ်": 935,
      "ၽိ": 936,
      "ယဝ်ႉၵေႃႈ": 937,
      "ယင်း": 938,
      "လႅၼ်လိၼ်": 939,
      "ပႂ်ႉ": 940,
      "ယိုတ်း": 941,
      "ပူၼ်ႉမႃး": 942,
      "ပေႃႈ": 943,
      "ၼႄၵၢင်ၸႂ်": 944,
      "ပွတ်းႁွင်ႇ": 945,
      "ၸႄႈမိူင်း": 946,
      "ယႃႈမဝ်း": 947,
      "ၶူင်း": 948,
      "ပၢင်လိူၵ်ႈတင်ႈ": 949,
      "ၸိူဝ်းၼၼ်ႉ": 950,
      "တူင်ႇ": 951,
      "ၵၢတ်ႇ": 952,
      "လၢႆလၢႆ": 953,
      "ၵျွင်း": 954,
      "ယႃႈမဝ်းၵမ်": 955,
      "ပိူၼ်ႈ": 956,
      "ယၢမ်းၵၢင်ၼႂ်": 957,
      "ႁႄ": 958,
      "တူၼ်": 959,
      "ၵုမ်း": 960,
      "ၢမ်": 961,
      "ၽႄႈ": 962,
      "ၶွင်ႇ": 963,
      "ငဝ်း": 964,
      "ၸု": 965,
      "ပၢႆးယူႇလီ": 966,
      "တႃႇတေ": 967,
      "ၼႂ်းမိူင်းတႆး": 968,
      "ၵူၼ်းပၢႆႈၽေးသိုၵ်း": 969,
      "တ်ႊ": 970,
      "ပႅတ်ႈ": 971,
      "ၾိင်ႈ": 972,
      "မွၵ်ႇ": 973,
      "ဢႃႇ": 974,
      "မၼ်းၸၢႆး": 975,
      "ၶႅပ်း": 976,
      "လမ်း": 977,
      "ၵမ်ႉ": 978,
      "ႁူဝ်သိူဝ်": 979,
      "သုတ်း": 980,
      "15": 981,
      "ၼင်ႇႁိုဝ်": 982,
      "ယိူ": 983,
      "တီႈၼ": 984,
      "ဢၼ်မီး": 985,
      "တီႈဝဵင်း": 986,
      "ဢၼ်ဝႃႈၼၼ်ႉ": 987,
      "ထွ": 988,
      "မီႈ": 989,
      "လုၵ်ႈဢွၼ်ႇ": 990,
      "ယူတ်း": 991,
      "မႅ": 992,
      "လၢတ်ႈၼႄ": 993,
      "လႃး": 994,
      "သဵင်ႈ": 995,
      "ၵၢၼ်မိူင်း": 996,
      "ၶွင်ႇသီႇ": 997,
      "တူႈ": 998,
      "ၽၵ်း": 999,
      "ၵႂႃႇမႃး": 1000,
      "ြႃး": 1001,
      "သေတႃႉ": 1002,
      "တႅမ်ႈ": 1003,
      "ဝူင်း": 1004,
      "ၼ်ႊ": 1005,
      "ပုၼ်ႈၽွၼ်း": 1006,
      "သၢမ်": 1007,
      "ၽူႈတႅၼ်းသၽႃး": 1008,
      "တင်းၼမ်": 1009,
      "ၼမ်း": 1010,
      "ႁိူၼ်းယေး": 1011,
      "ုၼ်း": 1012,
      "ယူတ်းယႃ": 1013,
      "မၢႆမီႈ": 1014,
      "သႅင်": 1015,
      "လၵ်း": 1016,
      "ၼမ်ႉၶမ်း": 1017,
      "ပဵၼ်ၵူၼ်း": 1018,
      "ီႉ": 1019,
      "ၽွင်ႈ": 1020,
      "တိုၼ်း": 1021,
      "ၢႆႈ": 1022,
      "လုၵ်ႈႁဵၼ်း": 1023,
      "ၶွမ်ႊမ": 1024,
      "ၵၢင်ႇ": 1025,
      "ၶၼ်": 1026,
      "ႁဵတ်းႁႂ်ႈ": 1027,
      "ၽူႈၵွၼ်း": 1028,
      "ဢၼ်လႆႈ": 1029,
      "သင်ၶၸဝ်ႈ": 1030,
      "13": 1031,
      "ထၢမ်": 1032,
      "ၸမ်": 1033,
      "ၶူဝ်": 1034,
      "ၵဵပ်း": 1035,
      "ၸူး": 1036,
      "SSPP": 1037,
      "ငမ်းယဵၼ်": 1038,
      "ၵူဝ်": 1039,
      "ၽိုတ်ႇ": 1040,
      "ၸႅ": 1041,
      "မၢင်": 1042,
      "ထုင်ႉ": 1043,
      "NLA": 1044,
      "ၼမ်ႉတူႈ": 1045,
      "လၢမ်း": 1046,
      "သဵၼ်ႈတၢင်း": 1047,
      "ၼူ": 1048,
      "ႁၢၼ်ႉ": 1049,
      "ၶႅင်ႇ": 1050,
      "ႁူဝ်ၵူၼ်း": 1051,
      "ၵွင်ႈၵၢင်ႇ": 1052,
      "။“": 1053,
      "ၼပ်ႉ": 1054,
      "ငဝ်းလၢႆး": 1055,
      "မိူဝ်ႈဝႃး": 1056,
      "ပၼ်ႁႃ": 1057,
      "ႁူမ်ႇ": 1058,
      "လၢင်း": 1059,
      "သၢင်ႇ": 1060,
      "ပဵၼ်ပၢင်တိုၵ်းၵၼ်": 1061,
      "ႁႄႉ": 1062,
      "ယၢပ်ႇၽိုတ်ႇ": 1063,
      "ပၢင်ပွႆး": 1064,
      "သၢၼ်ၶတ်း": 1065,
      "TNLA": 1066,
      "ႁေႃ": 1067,
      "ၽဵ": 1068,
      "မီးၵူၼ်း": 1069,
      "ပဵင်း": 1070,
      "ၶျ": 1071,
      "တေဢမ်ႇ": 1072,
      "ၺ်ႇ": 1073,
      "ပၼ်ႇ": 1074,
      "ပွင်ႇ": 1075,
      "ၸိုင်ႈမိူင်း": 1076,
      "ယၢင်း": 1077,
      "သုင်": 1078,
      "000": 1079,
      "ၽု": 1080,
      "ၽွမ်ႉ": 1081,
      "ၵိူ": 1082,
      "ၸဵမ်ၸိူဝ်းၼႆႉ": 1083,
      "ပၢင်လူင်": 1084,
      "သင်ႇ": 1085,
      "ဢၢၼ်း": 1086,
      "ပၢၵ်ႇ": 1087,
      "တူင်ႇဝူင်း": 1088,
      "ဢိင်": 1089,
      "ႁႅၼ်း": 1090,
      "ပၢင်ႇ": 1091,
      "ၸွမ်းၼင်ႇ": 1092,
      "လၢႆးမိုဝ်း": 1093,
      "သႃ": 1094,
      "ပႃႇတီႇႁူဝ်သိူဝ်": 1095,
      "တုၵ်း": 1096,
      "ႁု": 1097,
      "ိၼ်ႊ": 1098,
      "ၽိတ်း": 1099,
      "တွပ်ႇ": 1100,
      "ႁဵင်": 1101,
      "သင်ဝႃႈ": 1102,
      "မဵ": 1103,
      "မီးလွင်ႈ": 1104,
      "ယႃႇ": 1105,
      "သိုၵ်းလူင်ပွင်ၸိုင်ႈမၢၼ်ႈ": 1106,
      "လိၵ်ႈလၢႆး": 1107,
      "ဝႆႉဝႃႈ": 1108,
      "သုၼ်ႇလႆႈ": 1109,
      "တီႊ": 1110,
      "ၵႃႇ": 1111,
      "ဢွၼ်ႁူဝ်": 1112,
      "ၸိူင်ႉၼႆ": 1113,
      "တဵမ်": 1114,
      "လူမ်ႈ": 1115,
      "ၶႂ": 1116,
      "မႆႉ": 1117,
      "ၵေႃႈမီး": 1118,
      "ဢႃႇၼႃႇ": 1119,
      "14": 1120,
      "ႁၢမ်ႈ": 1121,
      "တုၵ်းယွၼ်း": 1122,
      "သျ": 1123,
      "တၼ်း": 1124,
      "ၾူ": 1125,
      "ၶႃႈယဝ်ႉ": 1126,
      "ပိၵ်ႉ": 1127,
      "ႁူပ်ႉထူပ်း": 1128,
      "ၼၢင်းယိင်း": 1129,
      "လူင်းလၢႆးမိုဝ်း": 1130,
      "တႄႇဢဝ်": 1131,
      "ၸႄႈဝဵင်းမိူင်း": 1132,
      "တႃ": 1133,
      "ၢတ်ႇ": 1134,
      "ၽူႈမီး": 1135,
      "ၵင်ႈ": 1136,
      "ဝၢင်း": 1137,
      "လွတ်ႈ": 1138,
      "ႁူမ်ႇလူမ်ႈ": 1139,
      "ဢမ်ႇၸႂ်ႈ": 1140,
      "ႁၢၼ်": 1141,
      "ၼီႊ": 1142,
      "200": 1143,
      "မိူဝ်ႈပီ": 1144,
      "ၵွၼ်ႇ": 1145,
      "မႆႈၸႂ်": 1146,
      "ထုၼ်း": 1147,
      "ၵမ်ႈၼမ်": 1148,
      "မိ": 1149,
      "တႄႉတႄႉ": 1150,
      "ထိုင်မႃး": 1151,
      "ပေႉ": 1152,
      "လုမ်ႈ": 1153,
      "ဢူၺ်း": 1154,
      "ယိပ်းၵွင်ႈၵၢင်ႇ": 1155,
      "ပျီႇ": 1156,
      "မို": 1157,
      "ဢိၵ်ႇ": 1158,
      "ၸဝ်ႈၶူး": 1159,
      "တုမ်ႉ": 1160,
      "ပီၼႆႉ": 1161,
      "ထူၼ်ႈ": 1162,
      "ရိ": 1163,
      "ၸိူင်ႉႁိုဝ်": 1164,
      "လဵင်ႉ": 1165,
      "NLD": 1166,
      "ၼႂ်းပိုၼ်ႉတီႈ": 1167,
      "ႁႆႈ": 1168,
      "လုမ်ႈၾႃႉ": 1169,
      "မိူဝ်ႈလဵဝ်": 1170,
      "ၸုမ်းၶၢဝ်ႇ": 1171,
      "ၵွင်း": 1172,
      "တေႃႉ": 1173,
      "တြႃး": 1174,
      "တီႈဝတ်ႉ": 1175,
      "ပွၵ်ႈၵမ်း": 1176,
      "ဢၢင်း": 1177,
      "တူဝ်ႈ": 1178,
      "ဢွၵ်ႇမႃး": 1179,
      "ငိၼ်း": 1180,
      "ၽိူၵ်ႇ": 1181,
      "ပတ်း": 1182,
      "ဝၼ်းမိူဝ်ႈၼႆႉ": 1183,
      "ပၢၼ်": 1184,
      "သိုဝ်ႇ": 1185,
      "ႁွတ်ႈ": 1186,
      "မႅၼ်ႈ": 1187,
      "တွင်း": 1188,
      "ယဵ": 1189,
      "NC": 1190,
      "ၼႂ်းမိူင်း": 1191,
      "ဝၢၼ်ႈမိူင်း": 1192,
      "ၼၢႆး": 1193,
      "သူး": 1194,
      "တၢ": 1195,
      "ၸေ": 1196,
      "ၽူႈၼမ်း": 1197,
      "လႅၵ်ႈ": 1198,
      "ၽႂ်မၼ်း": 1199,
      "ိူဝ်ႊ": 1200,
      "ၸိုင်ႈထႆး": 1201,
      "လႅင်": 1202,
      "ၼႂ်းဝဵင်း": 1203,
      "17": 1204,
      "50": 1205,
      "ဢၼ်ပဵၼ်": 1206,
      "ထိုင်တီႈ": 1207,
      "ႁၢႆႉ": 1208,
      "ဝၢႆးဝၼ်း": 1209,
      "ၶႆႈ": 1210,
      "တတ်း": 1211,
      "တဢၢင်း": 1212,
      "ၵ်ႊ": 1213,
      "ၵႅတ်ႇ": 1214,
      "ၵေး": 1215,
      "ယိူင်း": 1216,
      "မျ": 1217,
      "မၼ်ႈ": 1218,
      "ၼႆသေ": 1219,
      "လႆႈႁူႉ": 1220,
      "တွတ်ႈ": 1221,
      "ၸူဝ်ႈ": 1222,
      "16": 1223,
      "ၼႂ်းဢိူင်ႇ": 1224,
      "ၵိုင်": 1225,
      "ၺ်": 1226,
      "ၽွင်းလူင်": 1227,
      "တေပဵၼ်": 1228,
      "ၸုမ်းယိပ်းၵွင်ႈၵၢင်ႇ": 1229,
      "ဢိုတ်း": 1230,
      "တီႈလိၼ်": 1231,
      "ၾင်ႇ": 1232,
      "ၵႆ": 1233,
      "တွၼ်ႈတႃႇ": 1234,
      "ဢွၵ်ႇၶူင်း": 1235,
      "ၶၢင်": 1236,
      "လိူင်ႈ": 1237,
      "ယိုၼ်ႈ": 1238,
      "ၸိုင်ႈတႆးပွတ်းၸၢၼ်း": 1239,
      "လူႇ": 1240,
      "ၶဝ်ႈမႃး": 1241,
      "မၢဝ်း": 1242,
      "ပူၵ်း": 1243,
      "ပၵ်းပိူင်": 1244,
      "ပၼီႊ": 1245,
      "ၵၼ်သေ": 1246,
      "ဢိင်ၼိူဝ်": 1247,
      "ဝႃႉ": 1248,
      "ၼိ": 1249,
      "ၵိုတ်းတိုၵ်း": 1250,
      "တၢၼ်း": 1251,
      "ၽုၵ်ႇ": 1252,
      "18": 1253,
      "an": 1254,
      "တီႉလႆႈ": 1255,
      "ပတ်းပိုၼ်ႉ": 1256,
      "ၵမ်ႈၽွင်ႈ": 1257,
      "ဢူၺ်းလီ": 1258,
      "ၸိူင်ႉၼၼ်": 1259,
      "ၶူဝ်းၶွင်": 1260,
      "ဢမ်ႇယွမ်း": 1261,
      "ယုၵ်ႉ": 1262,
      "တီႈမိူင်း": 1263,
      "သူၼ်း": 1264,
      "ၾၢႆႇၼိုင်ႈ": 1265,
      "ၶွမ်ႊပၼီႊ": 1266,
      "ၶုၼ်": 1267,
      "ဢၼ်တေ": 1268,
      "ဝိ": 1269,
      "ၸေႈ": 1270,
      "ထမ်း": 1271,
      "ဢမ်ႇႁူႉ": 1272,
      "25": 1273,
      "ႁိၼ်": 1274,
      "ၵႅမ်": 1275,
      "တီႈၼင်ႈ": 1276,
      "ၽႃႇ": 1277,
      "ႁိုင်": 1278,
      "ၼေႃႇ": 1279,
      "ငုၼ်း": 1280,
      "တိၵ်း": 1281,
      "တိူင်း": 1282,
      "မႃးၼႆႉ": 1283,
      "ၼႂ်းၵႄႈ": 1284,
      "သိုၵ်းလူင်": 1285,
      "ၶၢဝ်းယၢမ်း": 1286,
      "ၵွပ်ႈပိူဝ်ႈ": 1287,
      "ယႃႉ": 1288,
      "သီး": 1289,
      "ၵေႃႇသၢင်ႈ": 1290,
      "ငဝ်ႈငုၼ်း": 1291,
      "တႂ်ႈ": 1292,
      "တိုဝ်း": 1293,
      "ၶႅၼ်း": 1294,
      "လုင်းၸၢႆး": 1295,
      "ၵူၼ်းတိတ်းၸပ်း": 1296,
      "NCA": 1297,
      "မိူင်းမၢၼ်ႈ": 1298,
      "တ်ႉထ": 1299,
      "သိုဝ်ႇၶၢဝ်ႇ": 1300,
      "ဝႃႇ": 1301,
      "တုမ်ႉတိူဝ်ႉ": 1302,
      "လၢႆးၶႃႈ": 1303,
      "တီႈဝၢၼ်ႈ": 1304,
      "ဢွင်ႈ": 1305,
      "ၵူၼ်းမိူင်းတႆး": 1306,
      "တူင်ႇဝူင်းၵူၼ်း": 1307,
      "မၼ်းပဵၼ်": 1308,
      "သွင်ၾၢႆႇ": 1309,
      "ဝႆး": 1310,
      "မၼ်းၼၢင်း": 1311,
      "26": 1312,
      "ၼင်ႇၵဝ်ႇ": 1313,
      "လမ်": 1314,
      "ႁေႃႈ": 1315,
      "ယိုဝ်းၵၼ်": 1316,
      "ၶုတ်း": 1317,
      "သိုဝ်ႉ": 1318,
      "ဢမ်ႇၸၢင်ႈ": 1319,
      "လွင်ႈငမ်းယဵၼ်": 1320,
      "လၢင်းၶိူဝ်း": 1321,
      "လၵ်ႉ": 1322,
      "ၵဵဝ်ႇၵပ်းလွင်ႈၼႆႉ": 1323,
      "သုမ်း": 1324,
      "ထူမ်ႈ": 1325,
      "ၶႅပ်းၵၢင်ၸႂ်": 1326,
      "တၢင်": 1327,
      "ၵႆႉ": 1328,
      "ၶၢၼ်": 1329,
      "ယၢၼ်မိူင်း": 1330,
      "ႁႂ်ႈလႆႈ": 1331,
      "ဝႆႉယူႇ": 1332,
      "ၵူၼ်းၼုမ်ႇတႆး": 1333,
      "တင်းမူတ်းမီး": 1334,
      "ၵေးသီး": 1335,
      "ၼႆႉသေ": 1336,
      "လ်း": 1337,
      "ဢမ်ႇၵႃး": 1338,
      ")၊": 1339,
      "ပွင်ၵၢၼ်": 1340,
      "ႁၢင်ႈႁႅၼ်း": 1341,
      "ငႄႈ": 1342,
      "ၵႃႉ": 1343,
      "ဢမ်ႇၼၼ်": 1344,
      "28": 1345,
      "ၵူတ်ႉ": 1346,
      "တပ်ႉသိုၵ်းၸိုင်ႈတႆး": 1347,
      "ၵေႃလိၵ်ႈလၢႆး": 1348,
      "24": 1349,
      "23": 1350,
      "သွၼ်ႈ": 1351,
      "ၵဵဝ်ႇလူၺ်ႈ": 1352,
      "ၵိူတ်ႇ": 1353,
      "လိူၼ်ၵျ": 1354,
      "ၸၼ်ႉၸွမ်": 1355,
      "ၼႆၵေႃႈ": 1356,
      "ႁႄႉၵင်ႈ": 1357,
      "ၶရ": 1358,
      "ယႅ": 1359,
      "တီႈႁူင်းယႃ": 1360,
      "ၶွတ်ႇ": 1361,
      "ၾႆးမႆႈ": 1362,
      "မုၼ်": 1363,
      "လၢတ်ႈၼႄၼင်ႇၼႆ": 1364,
      "ဝႅ": 1365,
      "ၽႃ": 1366,
      "မေႊ": 1367,
      "ဢႅ": 1368,
      "ၶို": 1369,
      "ၾႅ": 1370,
      "ဢဝ်ၶိုၼ်း": 1371,
      "တႅပ်း": 1372,
      "ဢေႊ": 1373,
      "ပိုၼ်း": 1374,
      "ၽူႈမီးပုၼ်ႈၽွၼ်း": 1375,
      "တၢမ်ႇ": 1376,
      "ပေႃႈမႄႈ": 1377,
      "ti": 1378,
      "ၾိင်ႈငႄႈ": 1379,
      "သ်": 1380,
      "ၵိ": 1381,
      "ၼႆ့": 1382,
      "ၼႆလႄႈ": 1383,
      "တၵ်ႉ": 1384,
      "သွမ်ႈ": 1385,
      "ႁဵတ်းသၢင်ႈ": 1386,
      "ၵုင်း": 1387,
      "ၽူႈၸၢႆး": 1388,
      "ၵွင်": 1389,
      "ယိူင်းဢၢၼ်း": 1390,
      "ၶဵတ်ႇ": 1391,
      "ၶဝ်ႈဢွၵ်ႇ": 1392,
      "ၶႂ်ႈႁႂ်ႈ": 1393,
      "ဢွင်ႈတီႈ": 1394,
      "သိူ": 1395,
      "ၶိုင်": 1396,
      "မေး": 1397,
      "ယၢမ်ႈ": 1398,
      "ဢၼ်ၼႆႉ": 1399,
      "လၢၼ်ႉ": 1400,
      "ရူတ်ႉၵႃး": 1401,
      "ၶွမ်ႊမတီႊ": 1402,
      "ထိူ": 1403,
      "ေႃႉ": 1404,
      "ၼႃ": 1405,
      "ႁူၺ်ႈ": 1406,
      "ၶေႃ": 1407,
      "ၵမ်ႉထႅမ်": 1408,
      "ယူႇသဝ်း": 1409,
      "2017": 1410,
      "ပီႈၼွင်ႉတႆး": 1411,
      "ၶိုင်ႈ": 1412,
      "ပိူဝ်ႈတႃႇ": 1413,
      "ၶိုၼ်ႈမႃး": 1414,
      "ဢၼ်မႃး": 1415,
      "လွင်း": 1416,
      "ၶွၵ်ႈ": 1417,
      "ၶတ်းၸႂ်": 1418,
      "ၸိ": 1419,
      "ၽၵ်းတူ": 1420,
      "ၵၢင်ႉ": 1421,
      "မၵ်း": 1422,
      "လူတ်ႉ": 1423,
      "ႁႅင်းၵၢၼ်ယၢၼ်မိူင်း": 1424,
      "ၽႅၼ်": 1425,
      "er": 1426,
      "လူး": 1427,
      "သိုပ်ႇလၢတ်ႈဝႃႈ": 1428,
      "သႅၼ်ဝ": 1429,
      "ၶၵ်ႉ": 1430,
      "ၾၢႆ": 1431,
      "ယၢမ်းဝၢႆးဝၼ်း": 1432,
      "ပႃႈ": 1433,
      "ပဵၼ်တၢင်း": 1434,
      "လဵပ်ႈ": 1435,
      "တပ်ႉမ": 1436,
      "ၼၼ်ႉသေ": 1437,
      "ၶွပ်ႈ": 1438,
      "ၵျေႃႇ": 1439,
      "ၼႃႈလိၼ်": 1440,
      "ရီႊ": 1441,
      "ၶဵဝ်": 1442,
      "ႁင်း": 1443,
      "ၵူတ်ႉၶၢႆ": 1444,
      "ယၢၼ်း": 1445,
      "ၶႅင်": 1446,
      "ၸၢမ်": 1447,
      "ၸိတ်ႉ": 1448,
      "on": 1449,
      "ႁၢႆး": 1450,
      "01": 1451,
      "သႃႇ": 1452,
      "27": 1453,
      "ၵို": 1454,
      "ၽွတ်ႈ": 1455,
      "တေႁဵတ်း": 1456,
      "ၵူၼ်းပိုၼ်ႉတီႈ": 1457,
      "သီႊ": 1458,
      "ယဝ်ႉၶႃႈ": 1459,
      "ႄႇ": 1460,
      "100": 1461,
      "မွပ်ႈ": 1462,
      "သႅၼ်ဝီ": 1463,
      "ယွၼ်ႉဝႃႈ": 1464,
      "ၽွင်းငမ်း": 1465,
      "မဵတ်ႉ": 1466,
      "လူမ်း": 1467,
      "29": 1468,
      "ၵႂႃႇတၢင်း": 1469,
      "ဢိတ်း": 1470,
      "ငၢႆႈ": 1471,
      "ႂ်း": 1472,
      "ပေႃးဝႃႈ": 1473,
      "လႅဝ်း": 1474,
      "တူၵ်းလူင်း": 1475,
      "ၾူၼ်": 1476,
      "ထဝ်ႈ": 1477,
      "လို": 1478,
      "ဢဵၼ်": 1479,
      "ထၢင်ႇ": 1480,
      "ၽဵဝ်ႈ": 1481,
      "တေႃး": 1482,
      "ပဵၼ်မႃး": 1483,
      "ဢမ်ႇပၼ်": 1484,
      "ၵမ်းၼႆႉ": 1485,
      "ၽႅဝ်": 1486,
      "တိူဝ်ႊ": 1487,
      "22": 1488,
      "ၼႂ်းဝၢၼ်ႈ": 1489,
      "ဢုပ်ႇၵၼ်": 1490,
      "or": 1491,
      "ႁတ်း": 1492,
      "ထူပ်းႁၼ်": 1493,
      "လႅမ်": 1494,
      "ၶၢႆႉ": 1495,
      "ၵေႃႉၼၼ်ႉ": 1496,
      "ၽိုၼ်": 1497,
      "မၼ်းၸဝ်ႈ": 1498,
      "ပဵၼ်ဢၼ်": 1499,
      "မေႃယႃ": 1500,
      "ၶွင်ႇသီႇဢဝ်ၶိုၼ်း": 1501,
      "ထဵ": 1502,
      "သၢၼ်း": 1503,
      "တၢင်းပွတ်း": 1504,
      "ဝူင်ႈ": 1505,
      "ၵေႃႉလႄႈ": 1506,
      "ယွၼ်ႉပိူဝ်ႈ": 1507,
      "ၸႄႈဝဵင်းသီႇပေႃႉ": 1508,
      "လႅပ်ႈ": 1509,
      "ပရ": 1510,
      "ၵ်ႉယု": 1511,
      "ပၢင်ၵုမ်လူင်": 1512,
      "ငၢၼ်း": 1513,
      "လိူဝ်ႇ": 1514,
      "ၼ့်": 1515,
      "ၸုမ်းဢူၺ်းလီ": 1516,
      "သူၺ်ႇ": 1517,
      "ၵမ်းၼိုင်ႈ": 1518,
      "ၶၢၼ်ပၢၵ်ႇ": 1519,
      "ယွတ်ႈ": 1520,
      "ယွင်ႈ": 1521,
      "ၢၵ်ႈ": 1522,
      "လႄႈသင်": 1523,
      "လႃႇ": 1524,
      "လႆႈငိၼ်း": 1525,
      "ဢွၼ်တၢင်း": 1526,
      "သီ": 1527,
      "ၼႂ်းဝၼ်းတီႈ": 1528,
      "လ်": 1529,
      "ၸၢၵ်ႈ": 1530,
      "ၼႂ်းၼၼ်ႉ": 1531,
      "ၵတ်း": 1532,
      "ၻီႊ": 1533,
      "လွႆလႅမ်": 1534,
      "သျိၼ်ႊ": 1535,
      "ပူၵ်းပွင်": 1536,
      "ႄႊ": 1537,
      "ပၢႆႈၽေးသိုၵ်း": 1538,
      "ပိုၼ်ၽၢဝ်ႇဝႃႈ": 1539,
      "သေႇ": 1540,
      "ဝႆႉၼၼ်ႉ": 1541,
      "ၽူႈၶၢၼ်ပၢၵ်ႇ": 1542,
      "မွင်ႇ": 1543,
      "ယူတ်းယႃတူဝ်": 1544,
      "မၢၵ်ႇတႅၵ်ႇ": 1545,
      "မိၼ်": 1546,
      "ၶွၼ်ႈ": 1547,
      "မွၼ်း": 1548,
      "ၶဵင်ႈ": 1549,
      "ၵွႆ": 1550,
      "ပွတ်းၸၢၼ်း": 1551,
      "03": 1552,
      "ၼႆႉမႃး": 1553,
      "မူး": 1554,
      "ၸႅင်ႈ": 1555,
      "ဝၢတ်ႇ": 1556,
      "ႁၵ်ႉ": 1557,
      "ၸတ်းႁဵတ်းပၢင်": 1558,
      "ၢင်ႈ": 1559,
      "ၾၢင်ႉ": 1560,
      "ၸီႉ": 1561,
      "မႂ်ႇသုင်": 1562,
      "သိပ်း": 1563,
      "လႆႈႁပ်ႉ": 1564,
      "ပေႃးတေ": 1565,
      "ထုၵ်ႇလီ": 1566,
      "ၸၢမ်ႇ": 1567,
      "ပၢႆးပ": 1568,
      "ဢဵၼ်ႁႅင်း": 1569,
      "ႁဝ်းၶႃႈၼႆႉ": 1570,
      "လၢတ်ႈတီႈၸုမ်းၶၢဝ်ႇ": 1571,
      "ၽွမ်ႉႁူမ်ႈ": 1572,
      "ႁႃႉ": 1573,
      "လဵၼ်ႈ": 1574,
      "ႁွမ်း": 1575,
      "ၶွင်ႇသီႇဢဝ်ၶိုၼ်းၸိုင်ႈတႆး": 1576,
      "ၼွၼ်း": 1577,
      "ယၢမ်းၵၢင်ၶမ်ႈ": 1578,
      "ၵတ်ႉ": 1579,
      "ၶီႇ": 1580,
      "ၵူႈၵေႃႉ": 1581,
      "တူဝ်တႅၼ်း": 1582,
      "ၶဵတ်ႇလိူၵ်ႈတင်ႈ": 1583,
      "တၢင်းၵိၼ်": 1584,
      "ၵမ်းလဵဝ်": 1585,
      "မိုၼ်ႇ": 1586,
      "ဢၼ်ၶဝ်": 1587,
      "သႂ်": 1588,
      "ၵူၼ်းၸပ်း": 1589,
      "ၼၼ်ႉတႄႉ": 1590,
      "ရူတ်ႉၶိူင်ႈ": 1591,
      "တမ်း": 1592,
      "ၶၢမ်ႈ": 1593,
      "ၽဝ်": 1594,
      "ၸင်ႇလႆႈ": 1595,
      "လိတ်ႈ": 1596,
      "ၺႃ": 1597,
      "05": 1598,
      "ဢၢႆႈ": 1599,
      "တင်ႈတႄႇ": 1600,
      "ၸူမ်း": 1601,
      "ဢမ်ႇပေႃး": 1602,
      "မၢၵ်ႈ": 1603,
      "လိၵ်ႈတႆး": 1604,
      "ၵုင်ႈ": 1605,
      "တပ်ႉသိုၵ်းလူင်ပွင်ၸိုင်ႈမၢၼ်ႈ": 1606,
      "ယမ်": 1607,
      "ၶွတ်ႇၽွတ်ႈ": 1608,
      "ပ်ႊ": 1609,
      "ၶႃႈႁဝ်း": 1610,
      "ပိုတ်း": 1611,
      "ၼႂ်းမိူင်းႁူမ်ႈတုမ်": 1612,
      "ၶွင်ႇသီႇသိုၵ်းမၢၼ်ႈ": 1613,
      "မၵ်းမၼ်ႈ": 1614,
      "ar": 1615,
      "တူႉ": 1616,
      "ထၢၼ်ႇ": 1617,
      "ၼမ်ႉလ": 1618,
      "ၵုၼ်": 1619,
      "ပႅၼ်": 1620,
      "တပ်ႉမတေႃႇ": 1621,
      "တွၼ်း": 1622,
      "ႁွင်ႈၵၢၼ်ၾၢႆႇ": 1623,
      "ဢမ်ႇမီးလွင်ႈ": 1624,
      "ဝူၼ်ႉ": 1625,
      "ႁၢပ်ႇ": 1626,
      "ၶဵင်ႈၶႅင်": 1627,
      "in": 1628,
      "ၼႆႉၵေႃႈ": 1629,
      "သေယဝ်ႉ": 1630,
      "ၶေႃႈမု": 1631,
      "ယိုတ်းဢႃႇၼႃႇ": 1632,
      "ၶိ": 1633,
      "ဢမ်ႇပဵၼ်": 1634,
      "ၵေႃႉပဵၼ်": 1635,
      "သႅၼ်ပျႃး": 1636,
      "ၸၼ်": 1637,
      "သၢတ်ႇ": 1638,
      "ပွၵ်ႈမိူဝ်း": 1639,
      "သမ်း": 1640,
      "ၵႄႈလိတ်ႈ": 1641,
      "တွတ်ႈၶႅပ်းၵၢင်ၸႂ်": 1642,
      "ရၶႅင်ႇ": 1643,
      "ၵူၼ်းလူင်": 1644,
      "ပွၵ်ႈၶိုၼ်း": 1645,
      "ၵူႈဝၼ်း": 1646,
      "လုၵ်ႉတၢင်း": 1647,
      "တၵ်ႉၵႃႇ": 1648,
      "ပဵၼ်တၢင်းၵၢၼ်": 1649,
      "တႃႈၵုင်ႈ": 1650,
      "ၼႂ်းဝၼ်း": 1651,
      "တႅပ်းတတ်း": 1652,
      "ၽႃႈ": 1653,
      "ႁၢင်": 1654,
      "ၼႅ": 1655,
      "ၶဝ်ၵေႃႈ": 1656,
      "ဢွင်ႇပေႉ": 1657,
      "ထိ": 1658,
      "ပႆ": 1659,
      "တူတ်ႈ": 1660,
      "ၽႄႈလၢမ်း": 1661,
      "ၼႂ်းၶၢဝ်းတၢင်း": 1662,
      "ၶွမ်ႊမသျိၼ်ႊ": 1663,
      "ပူင်": 1664,
      "ၺႃးယိုဝ်း": 1665,
      "ၾႆးၾႃႉ": 1666,
      "တွင်ႉ": 1667,
      "ဢုပ်ႇဢူဝ်းၵၼ်": 1668,
      "တၢင်းၾၢႆႇ": 1669,
      "ႁၼ်ထိုင်": 1670,
      "ၸဝ်ႈၵဝ်ႇ": 1671,
      "ပူၼ်ႉပႅၼ်": 1672,
      "ၸဝ်ႈၾႃႉ": 1673,
      "ႁူဝ်ပၢၵ်ႇ": 1674,
      "ပၢင်သွၼ်": 1675,
      "မူၼ်ႉ": 1676,
      "မီးယူႇ": 1677,
      "ၸုမ်းလႂ်": 1678,
      "လွၵ်း": 1679,
      "ဝူဝ်း": 1680,
      "ပီမႂ်ႇ": 1681,
      "ၵုၼ်ႇ": 1682,
      "ယင်းပႆႇ": 1683,
      "ပႂ်ႉတူၺ်း": 1684,
      "လိူဝ်ႊ": 1685,
      "ၾိင်ႈငႄႈတႆး": 1686,
      "တဵင်း": 1687,
      "ၼႂ်းမိူင်းထႆး": 1688,
      "ၸိူဝ်းၼႆႉၵေႃႈ": 1689,
      "ၸိုင်ႈတႆးပွတ်းဢွၵ်ႇၶူင်း": 1690,
      "ၵုမ်းၵမ်": 1691,
      "တေၸၢင်ႈ": 1692,
      "ၶိုၵ်ႉ": 1693,
      "ၸွမ်သိုၵ်းလူင်": 1694,
      "08": 1695,
      "မိူဝ်းၼႃႈ": 1696,
      "07": 1697,
      "ဝုၼ်း": 1698,
      "တေဢဝ်": 1699,
      "ႁႅင်းသိုၵ်း": 1700,
      "SNLD": 1701,
      "တၢင်ႉ": 1702,
      "ၸဵင်ႇ": 1703,
      "မၢၵ်ႈမီး": 1704,
      "02": 1705,
      "လႆႈၸႂ်": 1706,
      "သွင်ၵေႃႉ": 1707,
      "ၸႅၵ်ႇ": 1708,
      "ၺ်ၺႃ": 1709,
      "ၵၢၼ်သိုၵ်း": 1710,
      "ဝိၼ်း": 1711,
      "သၢႆး": 1712,
      "တေႃႊ": 1713,
      "သွၵ်ႈ": 1714,
      "ပလိၵ်ႈမၢၼ်ႈ": 1715,
      "လႅၼ်လိၼ်တႆး": 1716,
      "ၾၢင်": 1717,
      "မူၼ်း": 1718,
      ")။": 1719,
      "သိူဝ်ၽိူၵ်ႇ": 1720,
      "တီႈႁိမ်း": 1721,
      "ႁွမ်": 1722,
      "တင်းသဵင်ႈ": 1723,
      "မုင်ႈ": 1724,
      "60": 1725,
      "ၸွင်ႇ": 1726,
      "ငူ": 1727,
      "ဢွၵ်ႇဝႆႉ": 1728,
      "ၸိူဝ်ႉၶိူဝ်း": 1729,
      "သဵင်ၵွင်ႈ": 1730,
      "ထွၼ်": 1731,
      "40": 1732,
      "ၽဵင်ႇ": 1733,
      "လိူဝ်သေ": 1734,
      "လေႃႇ": 1735,
      "ၵႃ": 1736,
      "သူႈ": 1737,
      "ပွၵ်ႈမႃး": 1738,
      "ၼွၵ်ႈမိူင်း": 1739,
      "တၢင်ႉယၢၼ်း": 1740,
      "ၺ်ႉ": 1741,
      "ဢွင်ႇသၢၼ်း": 1742,
      "တီႈႁူင်း": 1743,
      "ၵပ်းသိုပ်ႇ": 1744,
      "ဢၼ်ႁဝ်းၶႃႈ": 1745,
      "လၢႆႈ": 1746,
      "တပ်ႉသိုၵ်းမၢၼ်ႈ": 1747,
      "တေႃႇထိုင်ယၢမ်းလဵဝ်": 1748,
      "တူႉၸိတ်ႉ": 1749,
      "မုၵ်ႉ": 1750,
      "ၼူၵ်ႉယု": 1751,
      "သႅၼ်း": 1752,
      "လိုဝ်ႈ": 1753,
      "ၼၼ်လႄႈ": 1754,
      "ၵွင်းမူး": 1755,
      "ၸႄႈဝဵင်းၵျွၵ်ႉမႄး": 1756,
      "သိုဝ်ႈ": 1757,
      "တွင်ႈ": 1758,
      "ၵူၼ်းပဵၼ်": 1759,
      "ၵၼ်မႃး": 1760,
      "ၵၼ်တင်း": 1761,
      "မူဝ်ႊ": 1762,
      "ပၢႆႉ": 1763,
      "ၼမ်ႉလၼ်ႈ": 1764,
      "မူၼ်ႉမႄး": 1765,
      "09": 1766,
      "မူင်းၶိုင်ႈ": 1767,
      "သိုၵ်းတႆး": 1768,
      "ၼူၵ်ႉယုင်း": 1769,
      "ၵူႈပီ": 1770,
      "ႁႅမ်": 1771,
      "လဵပ်ႈႁဵၼ်း": 1772,
      "မႄႈသၢႆ": 1773,
      "ၸွမ်ၸိုင်ႈ": 1774,
      "ၵႅတ်ႇၶႄ": 1775,
      "06": 1776,
      "တေမႃး": 1777,
      "ၸိူဝ်းဢၼ်": 1778,
      "လူႇတၢၼ်း": 1779,
      "ပၢင်သဝ်း": 1780,
      "ထၢတ်ႈ": 1781,
      "ယုမ်ႇ": 1782,
      "ၶေႃႈမုလ်း": 1783,
      "ပႆႇၸၢင်ႈ": 1784,
      "ဢႅဝ်ႇ": 1785,
      "လၢၼ်ႇ": 1786,
      "တေႃႊလိူဝ်ႊ": 1787,
      "ၼႂ်းပီ": 1788,
      "မၼ်းဢမ်ႇ": 1789,
      "ဝ်ႊရီႊ": 1790,
      "လူင်းပိုၼ်ႉတီႈ": 1791,
      "ၽုၵ်ႇသွမ်ႈ": 1792,
      "ၶႃ": 1793,
      "တူတ်ႈတၢမ်ႇ": 1794,
      "လူတ်း": 1795,
      "ၵႂႃႇယဝ်ႉ": 1796,
      "ၼႂ်းၸႄႈဝဵင်းမိူင်း": 1797,
      "လွတ်ႈလႅဝ်း": 1798,
      "31": 1799,
      "ၺႃးမၢၵ်ႇ": 1800,
      "တေၵႂႃႇ": 1801,
      "ေႇပျီႇ": 1802,
      "ၽူႈၼမ်းၼႂ်း": 1803,
      "တီႈယူႇ": 1804,
      "ၶိူဝ်ႊ": 1805,
      "ရႄႊ": 1806,
      "ၼင်ႈ": 1807,
      "ပၢႆႈမႃး": 1808,
      "လၢတ်ႈတီႈၸုမ်းၶၢဝ်ႇၽူႈတွႆႇႁွၵ်ႈဝႃႈ": 1809,
      "ၶွင်ႈ": 1810,
      "ၵႅဝ်ႈ": 1811,
      "သပ်း": 1812,
      "ဢွၵ်ႇလိၵ်ႈ": 1813,
      "ႁၢၼ်ႉၶၢႆ": 1814,
      "ပူတ်း": 1815,
      "သတ်ႉထ": 1816,
      "တီႈလုမ်း": 1817,
      "ၵွၵ်ႇ": 1818,
      "ၵေႃလိၵ်ႈလၢႆးလႄႈ": 1819,
      "ၼႆႉတႄႉ": 1820,
      "US": 1821,
      "လႃႉ": 1822,
      "ဝႆ": 1823,
      "ပဵၼ်လႆႈ": 1824,
      "ၸိူဝ်ႉမႅင်းၶူဝ်ႊဝိတ်ႉ": 1825,
      "ဝတ်း": 1826,
      "ယူႇတီႈၸုမ်း": 1827,
      "ၼႆႉၵူၺ်း": 1828,
      "တႃႇသေႇ": 1829,
      "ပႃးၸဵမ်": 1830,
      "ပူႇ": 1831,
      "လႆႈၵႂႃႇ": 1832,
      "ၶူဝ်လမ်": 1833,
      "မူၺ်ႉ": 1834,
      "ေႇပျီႇတေႃႇ": 1835,
      "လႆႈသူင်ႇ": 1836,
      "ၶႂၢင်ႉ": 1837,
      "တီႈၼႂ်း": 1838,
      "တေၸတ်းႁဵတ်း": 1839,
      "ဢၼ်ၺႃး": 1840,
      "ၶွၼ်ႇ": 1841,
      "ၽိုၼ်ႉ": 1842,
      "ၿိူဝ်ႊ": 1843,
      "ၵၼ်ယူႇ": 1844,
      "ၵႃႉၶၢႆ": 1845,
      "ၸၢင်": 1846,
      "ၸဝ်ႈတူၼ်": 1847,
      "ၾၢႆႇပၢႆးယူႇလီ": 1848,
      "en": 1849,
      "မူဝ်ႊၶရ": 1850,
      "ယဝ်ႉလႄႈ": 1851,
      "ဢဝ်ၵႂႃႇ": 1852,
      "ND": 1853,
      "ၼၵ်း": 1854,
      "ၼႆၸိုင်": 1855,
      "မုၵ်ႉၸုမ်း": 1856,
      "လိုၼ်း": 1857,
      "သၢင်": 1858,
      "04": 1859,
      "ၶမ်": 1860,
      "လၢႆႊ": 1861,
      "လုမ်းလႃး": 1862,
      "ႁိမ်းႁွမ်း": 1863,
      "ၵတ်းယဵၼ်": 1864,
      "သူႇ": 1865,
      "ယဵပ်ႇ": 1866,
      "ဢေႊၶိူဝ်ႊ": 1867,
      "တၵ်း": 1868,
      "ထုပ်ႉ": 1869,
      "ၽဵင်ႇပဵင်း": 1870,
      "ၾူၼ်း": 1871,
      "ၾႅတ်ႊ": 1872,
      "ထိူၼ်ႇ": 1873,
      "လႆ": 1874,
      "ယုၵ်ႉယွင်ႈ": 1875,
      "ထမ်ႈ": 1876,
      "ယၢဝ်း": 1877,
      "မူဝ်": 1878,
      "မွင်း": 1879,
      "ၼႄး": 1880,
      "ၵဵဝ်ႇၶွင်ႈ": 1881,
      "တီႈၼိုင်ႈ": 1882,
      "တႃႇၶၢဝ်းတၢင်း": 1883,
      "မုၼ်း": 1884,
      "ၸႂ်ႈၶႃႈဢေႃႈ": 1885,
      "တိၵ်းတိၵ်း": 1886,
      "ၼင်ႇၵၼ်": 1887,
      "လွမ်ႉ": 1888,
      "ပျီႇတူႉၸိတ်ႉ": 1889,
      "ၵ်ႊတိူဝ်ႊ": 1890,
      "ထင်": 1891,
      "ပိၵ်ႉဢိုတ်း": 1892,
      "ၸဝ်ႈတူၼ်ၶူး": 1893,
      "ႁဝ်းၶႃႈၵေႃႈ": 1894,
      "ထူင်": 1895,
      "လၢဝ်": 1896,
      "AA": 1897,
      "ဝဵင်းမိူင်း": 1898,
      "လဵၵ်ႉ": 1899,
      "မၼ်းၵေႃႈ": 1900,
      "ဢိူင်ႇမိူင်း": 1901,
      "သတ်ႉထႃး": 1902,
      "ပဵၼ်တီႈ": 1903,
      "လိူတ်ႈ": 1904,
      "သိလ်": 1905,
      "လႆႈႁၼ်": 1906,
      "ႁွႆး": 1907,
      "ၵႃႈၶၼ်": 1908,
      "ဢေႇ": 1909,
      "ၵိုၵ်း": 1910,
      "ႁူဝ်ၶမ်ႈ": 1911,
      "သုၼ်ႇလႆႈၵူၼ်း": 1912,
      "မေႃး": 1913,
      "ဢေး": 1914,
      "ၽႄ": 1915,
      "လိၼ်း": 1916,
      "ၵႂႃႇၼၼ်ႉ": 1917,
      "ၶၢပ်ႈ": 1918,
      "ႁူမ်ႈၵၼ်သေ": 1919,
      "ဢၼ်ၼိုင်ႈ": 1920,
      "ပိူဝ်ႊ": 1921,
      "လၢဝ်း": 1922,
      "ၶွပ်ႈတဵမ်": 1923,
      "ၸီႉသင်ႇ": 1924,
      "ႁႆး": 1925,
      "ပလိၵ်ႈထႆး": 1926,
      "ႁၢပ်ႇၵၢၼ်": 1927,
      "ပဵၼ်ဝၼ်း": 1928,
      "ဢဝ်လိူင်ႈ": 1929,
      "ပၢႆးမၢၵ်ႈမီး": 1930,
      "ၸဵမ်မိူဝ်ႈ": 1931,
      "မႃႉ": 1932,
      "လေႃႉ": 1933,
      "ၼႂ်းလိူၼ်": 1934,
      "လုၵ်ႉၽိုၼ်ႉ": 1935,
      "ၵၢင်ၼႂ်": 1936,
      "ဝ့်": 1937,
      "ပၼ်ႁႅင်း": 1938,
      "ၸႄႈဝဵင်းတႃႈၶီႈလဵၵ်း": 1939,
      "ၵျီႇ": 1940,
      "ပႃႇတီႇသိူဝ်ၽိူၵ်ႇ": 1941,
      "လႅၵ်ႈငိုၼ်း": 1942,
      "ႁၢမ်း": 1943,
      "ၶင်": 1944,
      "ႊလၢႆႊ": 1945,
      "လႆႈလူႉတၢႆ": 1946,
      "ၽူႈယႂ်ႇ": 1947,
      "ပိုင်း": 1948,
      "လႅၵ်ႈလၢႆႈ": 1949,
      "al": 1950,
      "မႃးတူၺ်း": 1951,
      "ဝဵင်းတူၼ်ႈတီး": 1952,
      "ပၼ်ၶိုၼ်း": 1953,
      "ပွၵ်ႈၼႆႉ": 1954,
      "ၽိူဝ်ႇ": 1955,
      "ၾၢႆႇၼိုင်ႈၵေႃႈ": 1956,
      "ထၢၼ်ႇႁိၼ်": 1957,
      "ၺႃႇ": 1958,
      "ၶဝ်ႈပႃး": 1959,
      "ယႃႈမႃႉ": 1960,
      "ငိူ": 1961,
      "ၶဝ်ႈၼမ်ႉ": 1962,
      "သွၼ်ႈဝႆႉတီႈ": 1963,
      "သေဢမ်ႇၵႃး": 1964,
      "မိူၼ်ၵၼ်": 1965,
      "ဢုပ်ႇၵုမ်": 1966,
      "င့်": 1967,
      "ႁိူဝ်း": 1968,
      "လူႉသုမ်း": 1969,
      "ပူင်သွၼ်": 1970,
      "-“": 1971,
      "ဢမေႊ": 1972,
      "ၼႃႈၵၢၼ်": 1973,
      "လိူၼ်ၵျု": 1974,
      "500": 1975,
      "တႆးႁဝ်း": 1976,
      "လူႉၵွႆ": 1977,
      "ၸႂ်ႉတိုဝ်း": 1978,
      "ၵေႃႇတင်ႈ": 1979,
      "မေႃသွၼ်": 1980,
      "မိၼ်း": 1981,
      "300": 1982,
      "ၼႂ်းသၽႃး": 1983,
      "တၢင်းႁူႉ": 1984,
      "ဝၢၼ်ႈၼႃး": 1985,
      "ၸႄႈဝဵင်းမူႇၸေႊ": 1986,
      "ၽႅၼ်ၵၢၼ်": 1987,
      "ၶဵတ်ႇလိူၵ်ႈတင်ႈမၢႆ": 1988,
      "ြႃႇ": 1989,
      "လႆႈမႃး": 1990,
      "တူဝ်ၵဝ်ႇ": 1991,
      "ၶေႃႈၵႂၢမ်း": 1992,
      "ၽူႈတႅၼ်းသၽႃးၸႄႈမိူင်း": 1993,
      "ၸႄႈမိူင်းတႆး": 1994,
      "ၼမ်ႉၸၢင်": 1995,
      "လီလီ": 1996,
      "ႁႃၵိၼ်": 1997,
      "မူင်းပၢႆ": 1998,
      "ၼွင်း": 1999,
      "2015": 2000,
      "ရူဝ်ႊ": 2001,
      "ငၢမ်း": 2002,
      "ပဵၼ်ၸုမ်း": 2003,
      "တူဝ်ႈမိူင်း": 2004,
      "NU": 2005,
      "ၽြႃး": 2006,
      "ၵႃႈႁိုဝ်": 2007,
      "ၶိုၼ်ႈယႂ်ႇ": 2008,
      "မဵတ်ႉတႃႇ": 2009,
      "သြႃႇ": 2010,
      "ယႃႈယႃ": 2011,
      "တဝ်": 2012,
      "ၵေႃႉယဝ်ႉ": 2013,
      "တူဝ်တၢႆ": 2014,
      "တိုၵ်းသူၼ်း": 2015,
      "ၸူဝ်ႈၶၢဝ်း": 2016,
      "ၶႃႈႁႅမ်": 2017,
      "ႁဝ်းၵေႃႈ": 2018,
      "ၻွ": 2019,
      "တေဢမ်ႇလႆႈ": 2020,
      "ေႉ": 2021,
      "ၵႄႇ": 2022,
      "ၸႃႇ": 2023,
      "ၼၼ်ႉယဝ်ႉ": 2024,
      "တေႃႇၵၼ်": 2025,
      "ၼွၵ်ႈလိူဝ်ၼၼ်ႉ": 2026,
      "လွင်ႈတၢင်း": 2027,
      "ႁဝ်းၶႃႈတႄႉ": 2028,
      "70": 2029,
      "သၢင်း": 2030,
      "ၵၵ်း": 2031,
      "ဢိူဝ်ႈ": 2032,
      "ႁူမ်ႈသၢင်ႈ": 2033,
      "ၶၢဝ်": 2034,
      "ၶဝ်ႈၵႂႃႇ": 2035,
      "ဝုၼ်းၸု": 2036,
      "မတ်ႉ": 2037,
      "ၼၼ်ႉၵူၺ်း": 2038,
      "ၶူပ်ႇ": 2039,
      "တိူၵ်ႈ": 2040,
      "ယၢမ်းၵၢင်ဝၼ်း": 2041,
      "တဵၵ်း": 2042,
      "ယုမ်ႇယမ်": 2043,
      "သီႈ": 2044,
      "လႆႈယူႇ": 2045,
      "ႁႅၵ်ႈ": 2046,
      "လဵင်ႉတွင်ႉ": 2047,
      "tion": 2048,
      "ၽဵဝ်ႈမူၺ်ႉ": 2049,
      "ထီႉ": 2050,
      "တူၵ်းၸႂ်": 2051,
      "ၶၼ်လႅၵ်ႈငိုၼ်း": 2052,
      "ယွတ်ႈသိုၵ်း": 2053,
      "ငူပ်ႉ": 2054,
      "ၸၢႆႇ": 2055,
      "မၢၵ်ႇလူင်": 2056,
      "ထတ်းသၢင်": 2057,
      "ယို": 2058,
      "ဝဵင်းလိူဝ်ႇ": 2059,
      "ပႃႇတီႇမႂ်ႇသုင်": 2060,
      "ၶေႃႈပိုၼ်ၽၢဝ်ႇ": 2061,
      "မဵဝ်း": 2062,
      "ထင်တီႈ": 2063,
      "ၼႃႊ": 2064,
      "လွင်ႈႁူမ်ႇလူမ်ႈ": 2065,
      "သွမ်း": 2066,
      "ၼင်": 2067,
      "မီးဝႆႉ": 2068,
      "ဢမ်ႇဝႃႈ": 2069,
      "ၸၢၵ်ႇ": 2070,
      "ပီမႂ်ႇတႆး": 2071,
      "ၾႅတ်ႊၻ": 2072,
      "ဢမ်ႇတၼ်း": 2073,
      "ဢွၵ်ႇဝႆႉဝႃႈ": 2074,
      "ၵပ်းသၢၼ်": 2075,
      "2008": 2076,
      "ပၢႆးပၺ်ၺႃ": 2077,
      "သေၵမ်း": 2078,
      "မူင်းၼၼ်ႉ": 2079,
      "ပေႃႉထုပ်ႉ": 2080,
      "တၵ်ႉၵႃႇသတ်ႉထႃး": 2081,
      "om": 2082,
      "လမ်ႇ": 2083,
      "တၢင်းၾင်ႇ": 2084,
      "ႁိူၼ်းၵူၼ်းဝၢၼ်ႈ": 2085,
      "ေႃႊ": 2086,
      "ထွမ်ႇ": 2087,
      "သၢင်ႇသီႈ": 2088,
      "ၶဵၼ်": 2089,
      "ၵဵဝ်ႇၵပ်းလွင်ႈ": 2090,
      "တိုဝ်းၵမ်": 2091,
      "ပဵၼ်ၵူၼ်းဝၢၼ်ႈ": 2092,
      "ပွင်ႈ": 2093,
      "မိူဝ်ႈၽွင်း": 2094,
      "တၢင်တူဝ်": 2095,
      "RP": 2096,
      "ႁႃႈ": 2097,
      "ယူႇၼႂ်း": 2098,
      "ၶူးသွၼ်": 2099,
      "ၶႅမ်ႉ": 2100,
      "ၽွင်းလူင်ၾၢႆႇ": 2101,
      "ai": 2102,
      "တၢင်းယၢပ်ႇၽိုတ်ႇ": 2103,
      "တ်": 2104,
      "တူင်ႈ": 2105,
      "သိုၵ်းသိူဝ်": 2106,
      "လိူဝ်ႁႅင်း": 2107,
      "ယႃႇပေ": 2108,
      "ယေႃး": 2109,
      "ၽူႈတူင်ႉၼိုင်": 2110,
      "47": 2111,
      "ပဢူဝ်း": 2112,
      "ဝၼ်းၼႆႉ": 2113,
      "ငူပ်ႉင": 2114,
      "ၶႃႇ": 2115,
      "ၸႃႉ": 2116,
      "ၵူဝ်ႇ": 2117,
      "မႃးၶဝ်ႈႁူမ်ႈ": 2118,
      "ယူႇဝႆႉ": 2119,
      "သဵၼ်ႈမၢႆ": 2120,
      "ၵေႃ့": 2121,
      "တေႃႉသူင်ႇ": 2122,
      "ယႅမ်ႉ": 2123,
      "ၸုမ်းသိုၵ်း": 2124,
      "ST": 2125,
      "ရ်": 2126,
      "ၶႃး": 2127,
      "မိူင်းယ": 2128,
      "ၸူၼ်": 2129,
      "လွႆတႆး": 2130,
      "ၾႅတ်ႊၻရႄႊ": 2131,
      "ၶပ်း": 2132,
      "ၼေ": 2133,
      "ၼၼ့်": 2134,
      "ၵူႈလွင်ႈ": 2135,
      "လိူၼ်ၵျုၼ်ႊ": 2136,
      "ၼႆႉသမ်ႉ": 2137,
      "တေသိုပ်ႇ": 2138,
      "မီးမႃး": 2139,
      "ႁဵတ်းသင်": 2140,
      "ၵူႈပွၵ်ႈ": 2141,
      "ပိူင်လူင်": 2142,
      "တႅမ်ႈလိၵ်ႈ": 2143,
      "ၸဝ်ႈၶွင်": 2144,
      "ႁူမ်ႈမိုဝ်း": 2145,
      "ၶဝ်မႃး": 2146,
      "ၸွမ်းၵၼ်": 2147,
      "ပုင်ႇ": 2148,
      "ၼႂ်းၸႄႈဝဵင်းၵျွၵ်ႉမႄး": 2149,
      "ယူႇၶႃႈ": 2150,
      "ၸုမ်းၸွႆႈထႅမ်": 2151,
      "ၶၢတ်ႇ": 2152,
      "ၸၢဝ်းၶိူဝ်းတႆး": 2153,
      "ၵိင်ႇ": 2154,
      "တီႈပွၵ်ႉ": 2155,
      "ၵႅမ်ႁူဝ်ပဝ်ႈ": 2156,
      "ၵမ်ႇ": 2157,
      "ၽူဝ်": 2158,
      "ၶဝ်ႈၶႅင်ႇ": 2159,
      "ၸႄႈဝဵင်းလႃႈသဵဝ်ႈ": 2160,
      "ႁၢရ်": 2161,
      "ဝၢႆးလင်": 2162,
      "ပိုတ်းယိုဝ်းၵၼ်": 2163,
      "မူဝ်ႊၶရေႊ": 2164,
      "TY": 2165,
      "မ့်": 2166,
      "ၵူၼ်းၸိူဝ်း": 2167,
      "ဝၢႆးသေ": 2168,
      "ဢမေႊရိ": 2169,
      "42": 2170,
      "သၼ်": 2171,
      "လႆႈဢဝ်": 2172,
      "ယေးငိုၼ်း": 2173,
      "တွင်ႈထၢမ်": 2174,
      "KI": 2175,
      "တဝ်ႈ": 2176,
      "ၼႆႉပဵၼ်": 2177,
      "ႁူဝ်လိူၼ်": 2178,
      "ce": 2179,
      "င်ႊ": 2180,
      "ဝဵင်းလႃႈသဵဝ်ႈ": 2181,
      "ၽူႈယႂ်ႇၵူၼ်းလူင်": 2182,
      "လမ်ႇလွင်ႈ": 2183,
      "ပၼ်ၵူၼ်းမိူင်း": 2184,
      "ၸၢႆးသႅင်": 2185,
      "သူပ်း": 2186,
      "ပေႃးပဵၼ်": 2187,
      "ၸတ်းပၢင်": 2188,
      "လင်ႁိူၼ်း": 2189,
      "ၵိူဝ်း": 2190,
      "မိူင်းၵွၵ်ႇ": 2191,
      "လႆႈဢွၼ်ၵၼ်": 2192,
      "ဢၼ်ထုၵ်ႇ": 2193,
      "ပွၵ်ႈႁိူၼ်း": 2194,
      "တူၼ်ႈမႆႉ": 2195,
      "လုၵ်ႉတီႈ": 2196,
      "ဝုၼ်းၸုမ်ႉ": 2197,
      "ပပ်ႉ": 2198,
      "င်းၵ": 2199,
      "ဝႆႉယဝ်ႉ": 2200,
      "မႄႈၼမ်ႉ": 2201,
      "ႁေႃၶမ်း": 2202,
      "ပၢႆယဝ်ႉ": 2203,
      "ၵိုၼ်း": 2204,
      "ဝတ်းဝႂ်": 2205,
      "ၼႆႈ": 2206,
      "ငူပ်ႉငီႉ": 2207,
      "လူင်ပွင်ၸိုင်ႈမိူင်းတႆး": 2208,
      "မၢၵ်ႇၵွင်ႈ": 2209,
      "မေႃႇ": 2210,
      "တီႈႁိူၼ်း": 2211,
      "မိူင်းလႃး": 2212,
      "ၵၢၼ်လိူၵ်ႈတင်ႈ": 2213,
      "မိူဝ်ႈပူၼ်ႉမႃး": 2214,
      "ၵူၺ်းၶႃႈ": 2215,
      "ၸင်ႇတေ": 2216,
      "လူဝ်ႇလႆႈ": 2217,
      "သူၼ်းတုမ်": 2218,
      "ၵဵဝ်ႇလူၺ်ႈလွင်ႈ": 2219,
      "ၶဝ်ႈၼမ်ႉတၢင်းၵိၼ်": 2220,
      "ပ်": 2221,
      "ဝႄႈ": 2222,
      "သၼ်ႇ": 2223,
      "ဝဵင်းလူင်": 2224,
      "ၸဝ်ႈသူၼ်": 2225,
      "ၼမ်လိူဝ်": 2226,
      "သႃသ": 2227,
      "ပႃႇတီႇမႂ်ႇသုင်ၸိုင်ႈတႆး": 2228,
      "ၸိုၼ်ႈ": 2229,
      "ႁပ်ႉတွၼ်ႈ": 2230,
      "တေလႆႈဝႃႈ": 2231,
      "လွႆတႆးလႅင်း": 2232,
      "မႃႇ": 2233,
      "ၾင်": 2234,
      "45": 2235,
      "မိူဝ်ႈလဵဝ်ၼႆႉ": 2236,
      "ၼိမ်": 2237,
      "ဝိႁၢရ်": 2238,
      "te": 2239,
      "မိူင်းၵိုင်": 2240,
      "ငိုၼ်းထႆး": 2241,
      "ႁွင်ႉဝႃႈ": 2242,
      "ၸုမ်းၼိုင်ႈ": 2243,
      "199": 2244,
      "ၽွၼ်းလီ": 2245,
      "ၵမ်ႉၸွႆႈ": 2246,
      "ၵူၼ်းသိုၵ်း": 2247,
      "ၼႂ်းၸိုင်ႈတႆး": 2248,
      "ပၵ်းပိူင်မၢႆမီႈ": 2249,
      "ၵၵ်းတူဝ်": 2250,
      "ၾိုၵ်း": 2251,
      "ၵဵတ်ႉ": 2252,
      "ၵူၼ်းႁဵတ်းၵၢၼ်": 2253,
      "ႁူမ်": 2254,
      "ပွတ်းဢွၵ်ႇၶူင်း": 2255,
      "ၶူင်းၵၢၼ်": 2256,
      "တိူင်းသိုၵ်း": 2257,
      "ၵႂႃႇႁဵတ်းၵၢၼ်": 2258,
      "ၼမ်ႉထူမ်ႈ": 2259,
      "ယုၵ်း": 2260,
      "တိူဝ်ႉၺႃး": 2261,
      "တီႈၼၼ်ႈ": 2262,
      "လၢႆႇ": 2263,
      "ၵူၼ်းႁၢႆႉ": 2264,
      "ၼႂ်းပၢင်": 2265,
      "ၽူႈဢွၼ်ႁူဝ်": 2266,
      "ၸုမ်းတူင်ႉၼိုင်": 2267,
      "တိုဝ်ႉ": 2268,
      "ယၢမ်းလဵဝ်ၼႆႉ": 2269,
      "ပဵၼ်လုၵ်ႈ": 2270,
      "တင်းသွင်ၾၢႆႇ": 2271,
      "ႁႃသဵင်": 2272,
      "ၵၢပ်ႇ": 2273,
      "လမ်းၼိုင်ႈ": 2274,
      "သိလ်ထမ်း": 2275,
      "မိူင်းယၢင်း": 2276,
      "မၢႆတွင်း": 2277,
      "မူတ်းယဝ်ႉ": 2278,
      "မၢင်ၵေႃႉ": 2279,
      "ၵၢင်ဝဵင်း": 2280,
      "ပႆႇလႆႈ": 2281,
      "ၶျ်": 2282,
      "ၵူၼ်းဝၢၼ်ႈၵူၼ်းမိူင်း": 2283,
      "ၼပ်ႉႁူဝ်": 2284,
      "ဢမ်ႇလႆႈႁူႉ": 2285,
      "ၵေႃႁူမ်ႈသၢင်ႈ": 2286,
      "ႁွတ်ႈၽႅဝ်": 2287,
      "ႁေႃႈၵႃး": 2288,
      "ၸုမ်းဢူၺ်းလီပွတ်းႁွင်ႇ": 2289,
      "သပ်းလႅင်း": 2290,
      "35": 2291,
      "ၵူဝ်း": 2292,
      "လႆႈပၢႆႈ": 2293,
      "မႃးယဝ်ႉ": 2294,
      "ၸဝ်ႈၵႃး": 2295,
      "ၸဝ်ႈၼႃး": 2296,
      "ၼွင်ၶဵဝ်": 2297,
      "HR": 2298,
      "ၵဝ်ႈ": 2299,
      "မိူၵ်ႈ": 2300,
      "မိူင်းၼၢႆး": 2301,
      "ၶႅၵ်ႇ": 2302,
      "ပွင်ႇၶၢဝ်ႇ": 2303,
      "ၵေႃႉၼႆႉ": 2304,
      "ပႃႇတီႇၼူၵ်ႉယုင်း": 2305,
      "ၵီႊ": 2306,
      "ၶၢမ်ႇ": 2307,
      "ၸၢႆးဢွင်ႇ": 2308,
      "လိၵ်ႈႁူမ်ႈ": 2309,
      "ပိူင်ငဝ်ႈ": 2310,
      "PPST": 2311,
      "ၸေႈဝဵင်း": 2312,
      "ႁူး": 2313,
      "ၸွႆး": 2314,
      "ၼမ်ႉၵတ်ႉ": 2315,
      "သွၼ်း": 2316,
      "ၵၢင်ၶမ်ႈ": 2317,
      "လီႈ": 2318,
      "ပုတ်ႉထ": 2319,
      "ၸုမ်ႈ": 2320,
      "ၶၼ်ငိုၼ်း": 2321,
      "လၢမ်းၽႄႈ": 2322,
      "ၶၢပ်ႈတူဝ်": 2323,
      "ရၢင်း": 2324,
      "ႁဵတ်းၸွမ်း": 2325,
      "လၢတ်ႈၼင်ႇၼႆ": 2326,
      "ၶဝ်တေ": 2327,
      "ႁႂ်ႈပေႃး": 2328,
      "တႅၵ်ႈ": 2329,
      "ႁႆႈၼႃး": 2330,
      "ယဵပ်ႇၺႃးမၢၵ်ႇ": 2331,
      "ou": 2332,
      "ၵၼ်ႉ": 2333,
      "မ်မ": 2334,
      "ဢွၵ်ႇၼႄၵၢင်ၸႂ်": 2335,
      "မိူၼ်ၸိူင်ႉ": 2336,
      "လူႉသဵင်ႈ": 2337,
      "တုၵ်းယွၼ်းႁႂ်ႈ": 2338,
      "သႃသၼႃ": 2339,
      "ၽဵင်း": 2340,
      "ၵႂႃႇထႅင်ႈ": 2341,
      "ၸႄႈဝဵင်းၼမ်ႉတူႈ": 2342,
      "ႁူဝ်ၼႃႈ": 2343,
      "ၾၢင်ႁၢင်ႈ": 2344,
      "ပဵၼ်လွင်ႈ": 2345,
      "ယၢမ်းႁူဝ်ၶမ်ႈ": 2346,
      "ၶွၼ်ႈတုမ်": 2347,
      "ၼႅတ်ႈ": 2348,
      "သွၵ်ႈတဝ်": 2349,
      "ယၼ်": 2350,
      "ဝလ်း": 2351,
      "ဢၢၼ်ႇ": 2352,
      "တီႈလႂ်": 2353,
      "မၼ်းတေ": 2354,
      "ၸႄႈဝဵင်းၵဵင်းတုင်": 2355,
      "ပႆႇႁူႉ": 2356,
      "ပူၼ်ႉမႃးၼႆႉ": 2357,
      "ation": 2358,
      "ၶူဝ်ႊရူဝ်ႊ": 2359,
      "ပႆႇမီး": 2360,
      "ၾူၼ်တူၵ်း": 2361,
      "oc": 2362,
      "မိူင်းပၼ်ႇ": 2363,
      "လူဝ်ႊ": 2364,
      "ပၼ်တူတ်ႈတၢမ်ႇ": 2365,
      "လွမ်": 2366,
      "ၼိူဝ်သဵၼ်ႈတၢင်း": 2367,
      "ဝႅတ်ႉ": 2368,
      "ဢမ်ႇၶႂ်ႈ": 2369,
      "ဢွၵ်ႊ": 2370,
      "ပွင်ႇဝႃႈ": 2371,
      "တမ်းဝၢင်း": 2372,
      "ၼၢ": 2373,
      "ၼီႈ": 2374,
      "ၸဝ်ႈႁႆႈ": 2375,
      "လူင်းႁူင်းယႃ": 2376,
      "ႁဵတ်းႁႂ်ႈၵူၼ်းမိူင်း": 2377,
      "မိၼ်ႉ": 2378,
      "လိၵ်ႈႁူမ်ႈမၢႆ": 2379,
      "လေး": 2380,
      "မုင်ႈမွင်း": 2381,
      "ၻွၵ်ႊတိူဝ်ႊ": 2382,
      "ၽျ": 2383,
      "ၼႆၼၼ်ႉ": 2384,
      "မိူင်းသၢတ်ႇ": 2385,
      "လိူင်ႇ": 2386,
      "ၸုမ်းၵူၼ်းၼုမ်ႇတႆး": 2387,
      "ၸဝ်ႈႁၢၼ်": 2388,
      "တိူဝ်း": 2389,
      "တႅၼ်းၽွင်း": 2390,
      "ၵႅၼ်ႇ": 2391,
      "လူတ်းယွမ်း": 2392,
      "ပိုင်းမိူင်း": 2393,
      "ပင်း": 2394,
      "ၵူၼ်းထဝ်ႈ": 2395,
      "ၶၵ်ႉၵၢၼ်": 2396,
      "ၵူႈလွင်ႈလွင်ႈ": 2397,
      "ၸိုဝ်ႈသဵင်": 2398,
      "လေႃႇတိုၵ်း": 2399,
      "ၼႂ်းပွၵ်ႉ": 2400,
      "ၵေႃႈယဝ်ႉ": 2401,
      "ၵႂႃႇၸွမ်း": 2402,
      "ယၢၼ်ၵႆ": 2403,
      "36": 2404,
      "ႁူဝ်ႉ": 2405,
      "သိုၵ်းတဢၢင်း": 2406,
      "ႁဝ်းၼႆႉ": 2407,
      "ငိုၼ်းၶႄႇ": 2408,
      "ယွၼ်ႉၼၼ်": 2409,
      "ၼႂ်းၸႄႈဝဵင်းသီႇပေႃႉ": 2410,
      "သိူဝ်း": 2411,
      "ၶိုတ်း": 2412,
      "ပေႃးထိုင်မႃး": 2413,
      "မွၵ်ႇလၢတ်ႈ": 2414,
      "KIA": 2415,
      "ရၢင်းဝလ်း": 2416,
      "ၶူဝ်ႊရူဝ်ႊၼႃႊ": 2417,
      "ၽိူမ်ႉ": 2418,
      "မိုတ်ႈ": 2419,
      "လႆႈငိၼ်းဝႃႈ": 2420,
      "လုပ်ႇ": 2421,
      "ၵူႈတီႈ": 2422,
      "သေတႃႉၵေႃႈ": 2423,
      "ႁူမ်ၸူမ်း": 2424,
      "ၼိုင်ႈၵေႃႉ": 2425,
      "ၸႄႈတွၼ်ႈလွႆလႅမ်": 2426,
      "တေႃႇထိုင်ဝၼ်းမိူဝ်ႈၼႆႉ": 2427,
      "ရေး": 2428,
      "လႆႈမၢတ်ႇၸဵပ်း": 2429,
      "မႃးယူႇ": 2430,
      "ၵၼ်ဝႆႉ": 2431,
      "ၶဝ်ႈၵၢပ်ႇ": 2432,
      "ၵမ်းထူၼ်ႈ": 2433,
      "ပၢၼ်း": 2434,
      "ယႂ": 2435,
      "ယဝ့်": 2436,
      "ၵိၼ်း": 2437,
      "ၼႂ်းၸုမ်း": 2438,
      "တူမ်း": 2439,
      "ၸဝ်ႈသၢင်ႇ": 2440,
      "ၼႃႈႁိူၼ်း": 2441,
      "ၼၢင်းမူဝ်": 2442,
      "ၵူၼ်းၸပ်းတၢင်းပဵၼ်": 2443,
      "400": 2444,
      "မႃးၼၼ်ႉ": 2445,
      "ၼုင်ႈ": 2446,
      "တူၵ်းသႂ်ႇ": 2447,
      "ၶဵင်ႇ": 2448,
      "တဵင်": 2449,
      "ႁႃၵိၼ်လဵင်ႉတွင်ႉ": 2450,
      "ယင်ႉ": 2451,
      "ၼိူ": 2452,
      "ဢမ်ႇႁၼ်": 2453,
      "ၸဝ်ႈသိုၵ်း": 2454,
      "ဢုပ်ႇၶႆႈ": 2455,
      "တူၵ်းၶွၵ်ႈ": 2456,
      "ၵုမ်းတူဝ်": 2457,
      "ၵုမ်းၶင်": 2458,
      "ငိူင်ႉ": 2459,
      "ၵၼ်ၵႂႃႇ": 2460,
      "ၶဝ်ႈမိူင်း": 2461,
      "ၶူဝ်းၵုၼ်ႇ": 2462,
      "ပိၼ်ႇ": 2463,
      "ၸႄႈဝဵင်းမိူင်းၵိုင်": 2464,
      "ပိူင်ငဝ်ႈပိုင်းမိူင်း": 2465,
      "ၽျၢၵ်ႈ": 2466,
      "ၵူၼ်းတၢႆ": 2467,
      "ဢၼ်ႁဝ်း": 2468,
      "ၸၢႆးထုၼ်း": 2469,
      "ၸွမ်းလႅၼ်လိၼ်": 2470,
      "ယွၼ်ႉတၢင်းပဵၼ်ၶူဝ်ႊဝိတ်ႉ": 2471,
      "ၵီႊလူဝ်ႊ": 2472,
      "မူဝ်း": 2473,
      "သူႉ": 2474,
      "ၵုမ်ႇ": 2475,
      "တိုဝ်ႉတၢင်း": 2476,
      "ငေႃႉ": 2477,
      "ထမ်မ": 2478,
      "ၼေႃႈ": 2479,
      "ဝႆႉတီႈႁူင်းယႃ": 2480,
      "လၢင်ႉ": 2481,
      "မီးသုၼ်ႇ": 2482,
      "တင်းသွင်": 2483,
      "ယူႇတီႈၾၢႆႇ": 2484,
      "လိူၼ်ၼႆႉ": 2485,
      "ယႃၶႅၼ်း": 2486,
      "ၸိူဝ်ႉၸၢတ်ႈတႆး": 2487,
      "ၸိုဝ်ႈႁွင်ႉ": 2488,
      "ယိူဝ်ႊ": 2489,
      "မတ်ႉတႃ": 2490,
      "ၵိူဝ်းၵုမ်": 2491,
      "ၸဝ်ႉ": 2492,
      "ယဝ်ႉတူဝ်ႈ": 2493,
      "ၶူၼ်ႉ": 2494,
      "မၢၵ်ႇၶေႃ": 2495,
      "တေႃႈလဵဝ်ၼႆႉ": 2496,
      "DF": 2497,
      "ၵႅင်း": 2498,
      "ၵူၼ်ႇ": 2499,
      "ၼၼ်ႉသမ်ႉ": 2500,
      "တၢင်းၽိတ်း": 2501,
      "သုၼ်": 2502,
      "ၸေႃႇ": 2503,
      "ၼမ်ႉမၼ်း": 2504,
      "ၵူတ်ႇထတ်းႁၼ်": 2505,
      "မူဝ်ႊၶရေႊသီႊ": 2506,
      "th": 2507,
      "ဢိၼ်ႊ": 2508,
      "တီႈပၢင်": 2509,
      "လိူၼ်မေႊ": 2510,
      "ႁႅင်ႈ": 2511,
      "လၵ်းမိူင်း": 2512,
      "ၶၢႆး": 2513,
      "ၶေႃး": 2514,
      "ပဵၼ်ၽူႈ": 2515,
      "လဵတ်ႈ": 2516,
      "ၽႅၼ်ႇ": 2517,
      "ထုင်ႉမၢဝ်း": 2518,
      "ၵႅတ်ႇၵင်ႈ": 2519,
      "ၵၼ်ႉၸၼ်": 2520,
      "ဢီႈ": 2521,
      "ၵဝ်ႉ": 2522,
      "ယူႇတီႈလူင်ပွင်ၸိုင်ႈ": 2523,
      "ထႅမ်ႁႅင်းသိုၵ်း": 2524,
      "ၸမ်ၸႂ်": 2525,
      "SA": 2526,
      "ပဝ်ႇ": 2527,
      "ဢၼ်ယူႇ": 2528,
      "ဢၼ်ပၵ်း": 2529,
      "ဢမ်ႇလီ": 2530,
      "တႅတ်ႈ": 2531,
      "သင်ၶၸဝ်ႈလႄႈ": 2532,
      "ႁဵင်ပၢႆ": 2533,
      "ထိူမ်": 2534,
      "ၸွႆးတြႃး": 2535,
      "80": 2536,
      "ၵေႃႈလီ": 2537,
      "ပၢႆးမိူင်း": 2538,
      "ၶဝ်ဢမ်ႇ": 2539,
      "လဵဝ်ၵၼ်": 2540,
      "ပႃႇတီႇသၢင်ႇသီႈ": 2541,
      "ပိုၼ်ႉႁူႉ": 2542,
      "ၽွင်းၶၢဝ်း": 2543,
      "ယဵမ်ႈ": 2544,
      "ထပ်း": 2545,
      "သတိ": 2546,
      "ၵႃႊ": 2547,
      "ၶၢတ်ႈ": 2548,
      "တပ်ႉသိုၵ်းတဢၢင်း": 2549,
      "သိင်ႇ": 2550,
      "ၵေႃလိၵ်ႈလၢႆးလႄႈၾိင်ႈငႄႈတႆး": 2551,
      "မႃးသေ": 2552,
      "ၶဝ်ဝႃႈ": 2553,
      "ပႃးတင်း": 2554,
      "ပိုၼ်ၽၢဝ်ႇဝႆႉဝႃႈ": 2555,
      "သိုပ်ႇလၢတ်ႈၼႄၼင်ႇၼႆ": 2556,
      "ၸတ်းႁဵတ်းတီႈ": 2557,
      "ပွႆႇပၼ်": 2558,
      "င်းၵလဵတ်ႈ": 2559,
      "ထၢၼ်": 2560,
      "ၵ့်": 2561,
      "လႆႈပဵၼ်ပၢင်တိုၵ်းၵၼ်": 2562,
      "လႅၼ်ႈ": 2563,
      "ပေႃႈမႄႈၵူၼ်းမိူင်း": 2564,
      "လူးၵွၼ်ႇ": 2565,
      "ႁဵင်း": 2566,
      "တီႈမူႇၸေႊ": 2567,
      "ပဵၼ်ၶၢဝ်း": 2568,
      "ပေႃးဢမ်ႇ": 2569,
      "လီငၢမ်း": 2570,
      "တိုၼ်ႇ": 2571,
      "ဢွၼ်ၵၼ်ၵႂႃႇ": 2572,
      "မ်ႊၿိူဝ်ႊ": 2573,
      "လင်ၼိုင်ႈ": 2574,
      "ႁွင်ႈၵၢၼ်ပၢႆးယူႇလီ": 2575,
      "မီးၵူၼ်းတိတ်းၸပ်း": 2576,
      "ၺ်ႇၺႃႇ": 2577,
      "ၽဵင်းၵႂၢမ်း": 2578,
      "ဝႆႉၼႂ်း": 2579,
      "ဢိင်းၵလဵတ်ႈ": 2580,
      "ၼူဝ်ႊ": 2581,
      "လၢၼ်": 2582,
      "ဢၢင်ႈ": 2583,
      "တွတ်ႈၶႅပ်း": 2584,
      "ၶိၼ်ႇ": 2585,
      "ow": 2586,
      "ပႃ": 2587,
      "လတ်း": 2588,
      "သဝ်": 2589,
      "ၵေႃႈၼမ်": 2590,
      "လွင်ႈယၢပ်ႇၽိုတ်ႇ": 2591,
      "မိူဝ်ႈၵူႈပွၵ်ႈ": 2592,
      "လွၵ်ႇ": 2593,
      "CSSU": 2594,
      "ထၢင်ႇထိူမ်": 2595,
      "UW": 2596,
      "ter": 2597,
      "ပဝ်း": 2598,
      "မႂ်ႈ": 2599,
      "ႃႇဝ": 2600,
      "ၵၼ်ႊ": 2601,
      "ၵေႃႈလႆႈ": 2602,
      "လဵဝ်ၵူၺ်း": 2603,
      "မျႃႉ": 2604,
      "တၢင်းမိူင်းၶႄႇ": 2605,
      "တင်ႈဢဝ်": 2606,
      "ႁိမ်းဝၢၼ်ႈ": 2607,
      "ယႅၼ်ႉ": 2608,
      "ၶပ်းၶိုင်": 2609,
      "တီႈဢၼ်": 2610,
      "တီႈၼႆႈ": 2611,
      "ဝဵင်းၵျွၵ်ႉမႄး": 2612,
      "ႁူင်းပလိၵ်ႈ": 2613,
      "လုၵ်ႈၼိုင်ႈ": 2614,
      "ၵွပ်ႈၼႆလႄႈ": 2615,
      "မိူၵ်ႈမႂ်ႈ": 2616,
      "Dr": 2617,
      "ႁေႃး": 2618,
      "မူဝ်ႇ": 2619,
      "ၸႄႈဝဵင်းၼမ်ႉၶမ်း": 2620,
      "ၵိၼ်ယႅမ်ႉ": 2621,
      "ၵွပ်ႈၼၼ်": 2622,
      "ၼေႃႇၽူႈတႅၼ်း": 2623,
      "တၢင်းၸွႆႈထႅမ်": 2624,
      "ယၢင်ႇ": 2625,
      "ပႃႇတီႇၵၢၼ်မိူင်း": 2626,
      "ၶမ": 2627,
      "ၼႂ်းလိၵ်ႈ": 2628,
      "မီးၶၢဝ်းတၢင်း": 2629,
      "ၵူၼ်းမိူင်းႁဝ်း": 2630,
      "သိမ်း": 2631,
      "ႁုပ်ႈ": 2632,
      "တဵမ်ထူၼ်ႈ": 2633,
      "လူတ်ႉၵႃး": 2634,
      "ne": 2635,
      "ၵၢႆ": 2636,
      "ၽတ်ႉ": 2637,
      "ၵူၼ်းမၢတ်ႇၸဵပ်း": 2638,
      "ၸုမ်းၸၢဝ်းၶိူဝ်း": 2639,
      "ၼမ်ႉၸႂ်": 2640,
      "ယိုဝ်းသႂ်ႇ": 2641,
      "ၽိုၼ်လိၵ်ႈ": 2642,
      "is": 2643,
      "တိၼ်": 2644,
      "မႁႃ": 2645,
      "ဝၼ်းဢွၵ်ႇ": 2646,
      "ထုင်း": 2647,
      "ၶႅၼ်ႇ": 2648,
      "တၢင်းပဵၼ်ၼႆႉ": 2649,
      "ၸိူဝ်ႉၸၢတ်ႈၸိုင်ႈတႆး": 2650,
      "တီႉၺွပ်းလႆႈ": 2651,
      "ဝႅတ်ႉလွမ်ႉ": 2652,
      "ၸၢင်ႉ": 2653,
      "တ်ႈထၢမ်": 2654,
      "ၸိူင်း": 2655,
      "မူၼ်ႈ": 2656,
      "တၢင်ႇတီႈ": 2657,
      "ၸႄႈတွၼ်ႈၵဵင်းမႆႇ": 2658,
      "ဝႆးဝႆး": 2659,
      "မွပ်ႈယိုၼ်ႈ": 2660,
      "ပဵ": 2661,
      "ၵိုဝ်း": 2662,
      "ၸၵ်း": 2663,
      "လူင်ႉ": 2664,
      "ပေႇ": 2665,
      "ၵျီး": 2666,
      "ငိုၼ်းတေႃႊလိူဝ်ႊ": 2667,
      "ၽၢတ်ႇ": 2668,
      "လုမ်းတြႃး": 2669,
      "ၸႄႈတွၼ်ႈၵျွၵ်ႉမႄး": 2670,
      "ၸဝ်ႈၼႃႈတီႈၾၢႆႇ": 2671,
      "ယႃႇႁႂ်ႈ": 2672,
      "ၸုမ်းယိပ်းၵွင်ႈၵၢင်ႇၸၢဝ်းၶိူဝ်း": 2673,
      "UWSA": 2674,
      "မၢၼ်ႇ": 2675,
      "ယႂ်း": 2676,
      "ၵရ": 2677,
      "ႁွင်း": 2678,
      "တေႃႇဢွင်ႇသၢၼ်း": 2679,
      "ၼႃးမၢၵ်ႇၶေႃ": 2680,
      "သၢႆႈ": 2681,
      "ၵွပ်ႈၼၼ်လႄႈ": 2682,
      "တ့်": 2683,
      "ထမ်ႇ": 2684,
      "ၽူႈၸွႆႈထႅမ်": 2685,
      "ပၢင်ၼႄၵၢင်ၸႂ်": 2686,
      "ၵမ်းသိုဝ်ႈ": 2687,
      "ႁူပ်ႉၵၼ်": 2688,
      "ယိုတ်းမိူင်း": 2689,
      "ပွင်ႇၸႂ်": 2690,
      "လႆႈႁူႉၼင်ႇၼႆ": 2691,
      "ႁဵတ်းပၼ်": 2692,
      "တုင်း": 2693,
      "ၵုင်ႇ": 2694,
      "ၼႂ်းၸႄႈဝဵင်းၼမ်ႉတူႈ": 2695,
      "ပၢင်ၵုမ်သၽႃး": 2696,
      "ဢမ်ႇၼၼ်ၵေႃႈ": 2697,
      "မႃးထႅင်ႈ": 2698,
      "ၵႂႃႇတီႈ": 2699,
      "ၽူႈပွင်ၵၢၼ်": 2700,
      "ဝၢၼ်ႈႁႆး": 2701,
      "ၸုမ်းပွင်ၵၢၼ်": 2702,
      "ၸႄႈဝဵင်းတူၼ်ႈတီး": 2703,
      "ၸွမ်ၽွင်းလူင်": 2704,
      "ႁႅၼ်းသိုၵ်း": 2705,
      "လိုၼ်းသုတ်း": 2706,
      "ဢမ်ႇႁတ်း": 2707,
      "ၽူႈၶဝ်ႈႁူမ်ႈ": 2708,
      "ၸိူဝ်းၶဝ်": 2709,
      "ပိူင်ႈ": 2710,
      "ငိုၼ်းတွင်း": 2711,
      "လိူဝ်သေၼၼ်ႉ": 2712,
      "ဢေႃႊ": 2713,
      "တေႁူမ်ႈၵၼ်": 2714,
      "ၼၼ်ႉၶႃႈ": 2715,
      "ယွင်": 2716,
      "တႃႇႁႂ်ႈ": 2717,
      "ယႂ်ႇလူင်": 2718,
      "သဵၼ်ႈၸိုဝ်ႈ": 2719,
      "တိူဝ်ႉသႂ်ႇ": 2720,
      "ၶုတ်းထၢၼ်ႇႁိၼ်": 2721,
      "လူတ်ႉၶိူင်ႈ": 2722,
      "ႁၵ်ႉသႃ": 2723,
      "ော": 2724,
      "ၵူႇ": 2725,
      "ဝႃႈပဵၼ်": 2726,
      "ဝႆႉလႄႈ": 2727,
      "လၢတ်ႈထႅင်ႈ": 2728,
      "တုၵ်ႉ": 2729,
      "ဝတ်ႉၵျွင်း": 2730,
      "သၽႃႇဝ": 2731,
      "ၵွပ်ႈၼႆ": 2732,
      "မိုတ်ႈၵိုဝ်း": 2733,
      "ၵဝ်ႉငဝ်ႈ": 2734,
      "ူႊလၢႆႊ": 2735,
      "ၼေႇပျီႇတေႃႇ": 2736,
      "မီးၵႂႃႇ": 2737,
      "ၵႂၢင်ႈ": 2738,
      "ဝၢၼ်ႈၼွင်": 2739,
      "ယိၼ်း": 2740,
      "ထူပ်းၽေး": 2741,
      "ၸိူဝ်ႉမႅင်းတၢင်းပဵၼ်ၶူဝ်ႊဝိတ်ႉ": 2742,
      "တီႈၼေႇပျီႇတေႃႇ": 2743,
      "ၶိုၵ်ႉတွၼ်း": 2744,
      "ယဝ်ႉၼႆ": 2745,
      "တွင်ႇ": 2746,
      "မၼ်းမီး": 2747,
      "ၵၢင်ၶိုၼ်း": 2748,
      "ထဵင်": 2749,
      "လွၵ်းလၢႆး": 2750,
      "ဢႃး": 2751,
      "လူင်ႈ": 2752,
      "ၸပ်းတၢင်းပဵၼ်": 2753,
      "ၵိုင်ႉ": 2754,
      "မွပ်ႈပၼ်": 2755,
      "ငၢ": 2756,
      "သမ်ႉဝႃႈ": 2757,
      "ၵၢပ်ႈ": 2758,
      "ပိၼ်ႈ": 2759,
      "မုၼ်ၸဝ်ႈ": 2760,
      "သိူဝ်ႇ": 2761,
      "ပႆတၢင်း": 2762,
      "as": 2763,
      "ay": 2764,
      "မႃးၵေႃႈ": 2765,
      "လွၼ်ႉ": 2766,
      "လုၵ်ႈၸုမ်း": 2767,
      "တႃႈလူင်": 2768,
      "ႁူပ်ႉဢုပ်ႇၵၼ်": 2769,
      "ၸိင်ႇ": 2770,
      "ၼိူဝ်ႉ": 2771,
      "ဢီႈသင်": 2772,
      "ႅၼ်ႊ": 2773,
      "တီႈၵဵင်းမႆႇ": 2774,
      "မႃးၸွမ်း": 2775,
      "ၽူႈယိင်း": 2776,
      "တႄ့": 2777,
      "ၾိၼ်ႇ": 2778,
      "လၢႆလၢႆတီႈ": 2779,
      "ၸူဝ်ႈမူင်း": 2780,
      "ၾႅပ်ႊ": 2781,
      "သွၼ်းၼမ်ႉ": 2782,
      "ပႃႉ": 2783,
      "တေႉ": 2784,
      "မၢၼ်ႈၸၢမ်": 2785,
      "လုၵ်ႈလၢင်း": 2786,
      "ယၢမ်းၵၢင်ၶိုၼ်း": 2787,
      "ၼူၼ်း": 2788,
      "ၽဵဝ်ႈမူၺ်ႉယႃႈမဝ်းၵမ်": 2789,
      "မူဝ်ႇၶရ": 2790,
      "ၵိုင်ႉၵၢင်ႉ": 2791,
      "ၵူၼ်းႁိူၼ်း": 2792,
      "ၶႂ်ႈလႆႈ": 2793,
      "ၽႂ်ၵေႃႈ": 2794,
      "ယင်းတိုၵ်ႉ": 2795,
      "ႁုၼ်ႇ": 2796,
      "it": 2797,
      "ၶလ": 2798,
      "ၶေႉ": 2799,
      "တီႈလွႆ": 2800,
      "ပၢင်လွင်း": 2801,
      "သင်ၸိူဝ်ႉ": 2802,
      "ၵႃးတၢင်ႇ": 2803,
      "ၵွပ်ႈပိူဝ်ႈဝႃႈ": 2804,
      "ႁင်းၵူၺ်း": 2805,
      "တႅတ်ႈတေႃး": 2806,
      "ၼူဝ်ႊဝႅ": 2807,
      "မႂ်": 2808,
      "ၵၢႆႇ": 2809,
      "ၸီႇ": 2810,
      "ၼၢႆႇ": 2811,
      "တီႈသီႇပေႃႉ": 2812,
      "ၼၼ်ႉမႃး": 2813,
      "ၼႂ်းၸိုင်ႈတႆးပွတ်းႁွင်ႇ": 2814,
      "တၢင်းၼွၵ်ႈ": 2815,
      "ၵႂႃႇယူႇ": 2816,
      "မၼ်းတႄႉ": 2817,
      "ၼမ်ႉသၼ်ႇ": 2818,
      "ၾၢႆႇလဵဝ်": 2819,
      "ႁူင်းၾႆး": 2820,
      "လိူၼ်မၢ": 2821,
      "ၸတ်းၵၢၼ်": 2822,
      "ၼၢင်းမူဝ်ႁွမ်": 2823,
      "လူင်ႈၼႃႈ": 2824,
      "37": 2825,
      "55": 2826,
      "လွင်ႈၵၢၼ်": 2827,
      "ၸဝ်ႈသိုၵ်းလူင်": 2828,
      "မိူဝ်ႈလႂ်": 2829,
      "ၼမ်ႉပွင်ႈ": 2830,
      "ၼႂ်းၸႄႈဝဵင်းမူႇၸေႊ": 2831,
      "ႁႅင်းၵၢၼ်တႆး": 2832,
      "သုၼ်ႇတူဝ်": 2833,
      "ႁၢဝ်ႈႁႅင်းသေ": 2834,
      "ၽူႈတႅၼ်းသၽႃးၵူၼ်းမိူင်း": 2835,
      "ၽိတ်းမေႃး": 2836,
      "ၶဵင်ႈၶႅင်ၵၢၼ်သိုၵ်း": 2837,
      "ၸၢၵ်ႇမၢၵ်ႇ": 2838,
      "ဢႆ": 2839,
      "ား": 2840,
      "ၼိတ်ႉ": 2841,
      "ၵူၼ်းမိူင်းပိုၼ်ႉတီႈ": 2842,
      "ၶၢင်ႈ": 2843,
      "ၸၢႆးသၢႆ": 2844,
      "ပေႃးႁဝ်း": 2845,
      "ၵႅတ်ႈ": 2846,
      "လိုပ်ႈ": 2847,
      "ဢွၼ်တၢင်းသုတ်း": 2848,
      "Th": 2849,
      "ပိုင်ႈ": 2850,
      "ပႅင်း": 2851,
      "လဝ်ႈ": 2852,
      "ဢဝ်ႁူမ်ႇလူမ်ႈ": 2853,
      "ပေႃးလႆႈ": 2854,
      "လူင်းမႃး": 2855,
      "ဢႅဝ်ႇယဵမ်ႈ": 2856,
      "ပဵၼ်ၵၢၼ်": 2857,
      "ဝႆႉသေ": 2858,
      "ႁူဝ်ၶေႃႈ": 2859,
      "ပိူင်ၼိုင်ႈ": 2860,
      "ႁႅမ်း": 2861,
      "ဝႆ့": 2862,
      "38": 2863,
      "Ph": 2864,
      "to": 2865,
      "ၸႃ": 2866,
      "သိုၵ်းလူင်ပွင်ၸိုင်ႈ": 2867,
      "ၼိုင်ႈဝၼ်း": 2868,
      "ၸူဝ်း": 2869,
      "ၸၼ်ႉသုင်": 2870,
      "သၢႆမၢႆ": 2871,
      "ၼပ်ႉႁူဝ်ပၢၵ်ႇ": 2872,
      "ဢိတ်းၼိုင်ႈ": 2873,
      "ထၢင်ႇႁၢင်ႈ": 2874,
      "မူႉ": 2875,
      "မူင်ႈ": 2876,
      "ဢဝ်မႃး": 2877,
      "ႁႂ်ႈဢွၼ်ၵၼ်": 2878,
      "လႅဝ်": 2879,
      "ထႅင်ႈၵမ်းၼိုင်ႈ": 2880,
      "မိူင်းႁူမ်ႈတုမ်မၢၼ်ႈ": 2881,
      "ပီႈၼွင်ႉၵူၼ်းမိူင်း": 2882,
      "ၶျၢင်း": 2883,
      "သုၼ်ႇလႆႈသုၼ်ႇ": 2884,
      "ၸၢမ်ႇထုၼ်း": 2885,
      "ႁႃႇ": 2886,
      "ဢၼ်ဢမ်ႇ": 2887,
      "တၢင်းယၢပ်ႇ": 2888,
      "ၶဝ်ႈသၢၼ်": 2889,
      "ၵဵင်းႁၢႆး": 2890,
      "ထပ်းၵၼ်": 2891,
      "ပၢၼ်ႇ": 2892,
      "ၵၼ်ၼၼ်ႉ": 2893,
      "ၸၢႆးၼုမ်ႇ": 2894,
      "ထႅင်ႈၵေႃႉၼိုင်ႈ": 2895,
      "တ်ႊသ်": 2896,
      "ယၢင်းလႅင်": 2897,
      "မိူင်းယေႃ": 2898,
      "ၸုမ်ႈၶူး": 2899,
      "own": 2900,
      "46": 2901,
      "ၿိ": 2902,
      "ယွၼ်ႉသင်": 2903,
      "ႁိတ": 2904,
      "ၵူတ်ႇထတ်းတူၺ်း": 2905,
      "သင်ႇၶႃႇ": 2906,
      "တေႁဵတ်းႁိုဝ်": 2907,
      "ပရိူဝ်ႊ": 2908,
      "ယွင်ႁူၺ်ႈ": 2909,
      "39": 2910,
      "တၢင်းမိူင်း": 2911,
      "ၸၢႆးဝၼ်း": 2912,
      "ၺႃးတီႉ": 2913,
      "ၸိုင်ႈတႆးပွတ်းဢွၵ်ႇ": 2914,
      "ဢွၼ်ၵၼ်ပၢႆႈ": 2915,
      "ယွမ်းႁပ်ႉ": 2916,
      "တွပ်ႇလိၵ်ႈ": 2917,
      "ock": 2918,
      "ႁုၼ်ႇႁၢင်ႈ": 2919,
      "ၸေႇ": 2920,
      "ဢၼ်လုၵ်ႉတၢင်း": 2921,
      "ဝၼ်းၵိူတ်ႇ": 2922,
      "ၸဝ်ႈသြႃႇ": 2923,
      "သင်ၶတႆး": 2924,
      "ၵၢတ်ႇလူင်": 2925,
      "မိတ်ႈ": 2926,
      "တီႈၵဵင်းတုင်": 2927,
      "ပဵၼ်ပွၵ်ႈၵမ်း": 2928,
      "ဝဵင်းတႃႈၶီႈလဵၵ်း": 2929,
      "ၵေႃႉလႂ်": 2930,
      "ၸိူဝ်းၼၼ်ႉၵေႃႈ": 2931,
      "ပီႇ": 2932,
      "လူင်ပွင်ၸိုင်ႈထႆး": 2933,
      "တီႇမူဝ်ႇၶရ": 2934,
      "ပိုၼ်ၽၢဝ်ႇဝႆႉ": 2935,
      "ယိုဝ်းၵွင်ႈ": 2936,
      "သၢႆတၢင်း": 2937,
      "ယၢၼ်ႁိူၼ်းယေး": 2938,
      "ၽူႈတႅၼ်းသၽႃးၸိူဝ်ႉၸၢတ်ႈ": 2939,
      "လႆႈႁူႉဝႃႈ": 2940,
      "ၼႂ်းၵၢၼ်": 2941,
      "တ်ႉသ်": 2942,
      "ဝၢၼ်ႈၼမ်ႉ": 2943,
      "ပီပၢႆ": 2944,
      "ၶဝ်ၸဝ်ႈ": 2945,
      "ၸၢႆးၵျေႃႇ": 2946,
      "လႅၼ်ႇ": 2947,
      "ၼမ်ၼမ်": 2948,
      "ဢေႊပရိူဝ်ႊ": 2949,
      "ၸိၵ်း": 2950,
      "NDAA": 2951,
      "ၿိဝ်ႊရီႊ": 2952,
      "Ne": 2953,
      "ဢၼ်လူင်းလၢႆးမိုဝ်း": 2954,
      "သေႃး": 2955,
      "ႁိူင်း": 2956,
      "သွင်ၸုမ်း": 2957,
      "သူၼ်ႁႆႈၼႃး": 2958,
      "ဢႃႇယု": 2959,
      "လိူၼ်ၵျူႊလၢႆႊ": 2960,
      "ၺီႇ": 2961,
      "ၼႂ်းႁိူၼ်း": 2962,
      "ၼႂ်းဝၢင်း": 2963,
      "ငဝ်ႈၸိုင်ႈ": 2964,
      "တေမီးမွၵ်ႈ": 2965,
      "ၸဝ်ႈၼႃႈတီႈပလိၵ်ႈ": 2966,
      "ပူၼ်ႉမႃးၼၼ်ႉ": 2967,
      "ၼၢဝ်": 2968,
      "il": 2969,
      "သတ်း": 2970,
      "တီႈၸမ်": 2971,
      "ဢမ်ႇပႆႇ": 2972,
      "ၵူၼ်းမိူင်းႁဝ်းၶႃႈ": 2973,
      "ဝၢႆးၼၼ်ႉ": 2974,
      "ပရႁိတ": 2975,
      "ၶွၼ်ႈတုမ်ၵၼ်": 2976,
      "ၵႂၢႆး": 2977,
      "ယူႇၾၢႆႇ": 2978,
      "ၸုမ်းၵူၼ်းၼုမ်ႇ": 2979,
      "ႁွင်ႈသွၼ်": 2980,
      "ၾိင်ႈထုင်း": 2981,
      "ၽုၵ်ႈ": 2982,
      "ၽႃႈတူမ်း": 2983,
      "ငို": 2984,
      "ထၢၼ်း": 2985,
      "ဢၼ်ၵႂႃႇ": 2986,
      "ဝဵင်းမူႇၸေႊ": 2987,
      "ပေႃးဢဝ်": 2988,
      "တပ်ႉၵွင်": 2989,
      "ၵိုတ်းဝႆႉ": 2990,
      "ၼိဝ်ႊရီႊ": 2991,
      "ပိုတ်းယိုဝ်း": 2992,
      "TYO": 2993,
      "ၽႅၼ်ႇလိၼ်": 2994,
      "48": 2995,
      "Lock": 2996,
      "လူမ်ႉ": 2997,
      "ၼွႆႉ": 2998,
      "ထႅင်ႈၾၢႆႇၼိုင်ႈၵေႃႈ": 2999,
      "ၵဵင်းတွင်း": 3000,
      "ၸူႉ": 3001,
      "သၢင်ႈၾၢႆ": 3002,
      "ၶႂ်ႈဝႃႈ": 3003,
      "ႁႄႉၵင်ႈတၢင်းပဵၼ်ၶူဝ်ႊဝိတ်ႉ": 3004,
      "တၵ်းလႆႈ": 3005,
      "တၢၼ်ႈ": 3006,
      "တႅင်း": 3007,
      "ၸေႃး": 3008,
      "ၼႆသေတႃႉ": 3009,
      "တေၶဝ်ႈ": 3010,
      "ဝဵင်းၵဵင်းမႆႇ": 3011,
      "ၸိူဝ်းယူႇ": 3012,
      "တႃႇၼ": 3013,
      "ပေႃးမႃးတူၺ်း": 3014,
      "မၢၵ်ႇၼင်": 3015,
      "ပၢႆးမွၼ်း": 3016,
      "ယႃႈၾိၼ်ႇ": 3017,
      "ၸုၵ်း": 3018,
      "CRP": 3019,
      "ဝွ": 3020,
      "ၵဝ်": 3021,
      "ၽၼ်း": 3022,
      "ၽႂ်း": 3023,
      "ပၼ်တၢင်းႁူႉ": 3024,
      "ပႃးထႅင်ႈ": 3025,
      "တိၼ်ႇ": 3026,
      "သႅင်ႇ": 3027,
      "မိူၼ်ၵဝ်ႇ": 3028,
      "ပၢႆးပၺ်ႇၺႃႇ": 3029,
      "သၢႆႈတႅၼ်း": 3030,
      "CRPH": 3031,
      "ၺု": 3032,
      "ႁူႇ": 3033,
      "တေပိုတ်ႇ": 3034,
      "ၵူၼ်းမိူင်းႁူမ်ႈတုမ်": 3035,
      "ဢွၵ်ႇႁိူၼ်း": 3036,
      "ပႃႇမႆႉ": 3037,
      "ႁူင်းၸၢၵ်ႈ": 3038,
      "ၼၢင်းၶမ်း": 3039,
      "ယွၼ်ႉတၢင်းပဵၼ်": 3040,
      "ၸွမ်သိုၵ်း": 3041,
      "ၸွမ်ႁၢၼ်": 3042,
      "ယိပ်းၵွင်ႈ": 3043,
      "တီႈၸႄႈဝဵင်း": 3044,
      "ၵူၼ်းႁေႃႈၵႃး": 3045,
      "ဢၼ်ပၢႆႈမႃး": 3046,
      "မွတ်ႇ": 3047,
      "ဢိၼ်း": 3048,
      "မူႇဝၢၼ်ႈ": 3049,
      "မႄႈႁွင်ႈသွၼ်": 3050,
      "ႁူဝ်ပဝ်ႈလူင်": 3051,
      "ၸုပ်ႈ": 3052,
      "လိုမ်း": 3053,
      "ၶမယ": 3054,
      "ဢၢႆ": 3055,
      "ၼႂ်းၵဵင်းမႆႇ": 3056,
      "ၵွၵ်း": 3057,
      "လၢတ်ႈတီႈၽူႈတွႆႇႁွၵ်ႈ": 3058,
      "တိုၵ်ႉမီး": 3059,
      "ပိူဝ်ႈတႃႇတေ": 3060,
      "သူၼ်ၸႂ်": 3061,
      "ၸုမ်းၶၢဝ်ႇၽူႈတွႆႇႁွၵ်ႈ": 3062,
      "မျၢၼ်ႇ": 3063,
      "NDP": 3064,
      "ဢမေႊရိၵၼ်ႊ": 3065,
      "ၸဝ်ႈႁႆႈၸဝ်ႈၼႃး": 3066,
      "သိင်ႇဝႅတ်ႉလွမ်ႉ": 3067,
      "ၾႅပ်ႊၿိဝ်ႊရီႊ": 3068,
      "ႁူင်းၾႆးမိၼ်": 3069,
      "75": 3070,
      "လေႃး": 3071,
      "တီႈၵျွၵ်ႉမႄး": 3072,
      "မိူင်းတူၼ်": 3073,
      "ပွမ်": 3074,
      "ဝၼ်းၼၼ်ႉ": 3075,
      "ၸဵဝ်း": 3076,
      "2016": 3077,
      "လႃးႁူႇ": 3078,
      "ၺႃးယိုဝ်းတၢႆ": 3079,
      "33": 3080,
      "ပ့်": 3081,
      "လႆႈထုၵ်ႇ": 3082,
      "ၼႂ်းထုင်ႉ": 3083,
      "ပၢင်ႁူပ်ႉထူပ်း": 3084,
      "မၼ်းသေ": 3085,
      "တင်းလၢႆ": 3086,
      "ၶဝ်ၼၼ်ႉ": 3087,
      "ပေႃးမီး": 3088,
      "တေႃႇလွင်း": 3089,
      "ပူင်း": 3090,
      "ၵူဝ်ႁႄ": 3091,
      "ႁွတ်ႈထိုင်": 3092,
      "လိုၵ်ႉ": 3093,
      "ငိုတ်ႈ": 3094,
      "တၢၼ်ႈၶႆႈ": 3095,
      "တၢင်းၼႃႈ": 3096,
      "ႁႂ်ႈမၼ်း": 3097,
      "ပိူင်ႇ": 3098,
      "လၢႆးၵၢၼ်": 3099,
      "လုၵ်ႈၸၢႆး": 3100,
      "ၽွင်းတၢင်": 3101,
      "ၵိုတ်းယင်ႉ": 3102,
      "လႅင်းၶမ်း": 3103,
      "ၼမ်းၼႃႈ": 3104,
      "ၵဵပ်းၶွၼ်ႇ": 3105,
      "ထမ်ႇမ": 3106,
      "ic": 3107,
      "ၵူၼ်းဢၼ်": 3108,
      "တူၵ်ႇ": 3109,
      "ဢၼ်ႁွင်ႉဝႃႈ": 3110,
      "ၸုမ်းပျီႇတူႉၸိတ်ႉ": 3111,
      "တႅင်": 3112,
      "ႁပ်ႉႁွင်း": 3113,
      "ၵၢၼ်ႉ": 3114,
      "ယွၼ်းသူး": 3115,
      "ၼွင်းထူမ်ႈ": 3116,
      "99": 3117,
      "ၼႆႉၵႂႃႇ": 3118,
      "ၵၼ်လႆႈ": 3119,
      "ယူႇတႃႇသေႇ": 3120,
      "ၽူႈၶဝ်ႈ": 3121,
      "လွင်ႈၼိုင်ႈ": 3122,
      "ယၢတ်ႇ": 3123,
      "ၼိုင်ႈပွၵ်ႈ": 3124,
      "ၵွင်ႉ": 3125,
      "လူင်ပွင်ၸိုင်ႈမိူင်းထႆး": 3126,
      "ယွၼ်ႉၼၼ်လႄႈ": 3127,
      "သၢႆၸႂ်": 3128,
      "ၽူႈၵွၼ်းဢိူင်ႇ": 3129,
      "ႁုင်": 3130,
      "ၾင်လိၼ်": 3131,
      "SNDP": 3132,
      "လူၼ်ႉ": 3133,
      "ဝဵင်းလၢႆးၶႃႈ": 3134,
      "ၵႂႃႇႁဵတ်း": 3135,
      "ဝၢၼ်ႈပၢင်": 3136,
      "မၼ်းဢမ်ႇၸႂ်ႈ": 3137,
      "ထူဝ်ႊ": 3138,
      "ၶိူင်ႈမိၼ်": 3139,
      "ပွႆႇတူဝ်": 3140,
      "ၸႄႈမိူင်းၶၢင်": 3141,
      "တင်းၼမ်လၢႆ": 3142,
      "ၵုၼ်ႁဵင်": 3143,
      "ဢွၵ်ႇလိၵ်ႈပိုၼ်ၽၢဝ်ႇ": 3144,
      "ငိူင်ႉဝႄႈ": 3145,
      "ႅၼ်ႊၼိဝ်ႊရီႊ": 3146,
      "မႃးတီႈ": 3147,
      "ၼ်ႇတ": 3148,
      "ႁႂ်ႈၵူၼ်းမိူင်း": 3149,
      "ၵၢင်ဝၼ်း": 3150,
      "ယူဝ်း": 3151,
      "ၽႃသႃ": 3152,
      "ထဵပ်ႈ": 3153,
      "ၵႄႈလိတ်ႈပၼ်ႁႃ": 3154,
      "ဝၢၼ်": 3155,
      "ဢေႃး": 3156,
      "ၼႆၶႃႈ": 3157,
      "တီႈသုတ်း": 3158,
      "ၼႂ်းတူင်ႇဝူင်းၵူၼ်း": 3159,
      "သိုၵ်းလွႆ": 3160,
      "ဝဵင်းၵဵင်းတုင်": 3161,
      "ၽူဝ်း": 3162,
      "ၽူႈၵိူဝ်းၵုမ်": 3163,
      "ၸွမ်းတၢင်း": 3164,
      "ထွႆ": 3165,
      "တၼ်းႁဵင်း": 3166,
      "ၶဝ်ႈဢွၵ်ႇၵႂႃႇမႃး": 3167,
      "ႁၢႆးငၢၼ်း": 3168,
      "ယိုၼ်": 3169,
      "down": 3170,
      "es": 3171,
      "ၼႂ်းၵႃး": 3172,
      "ယွမ်ႇ": 3173,
      "ၾၢႆႇၸၢၼ်း": 3174,
      "ႁၢင်ႇ": 3175,
      "ၽွင်းၼၼ်ႉ": 3176,
      "တၢင်ႇထိုင်": 3177,
      "ၼႄးဝႃႈ": 3178,
      "ၵဝ်ႈၵၢင်ႉ": 3179,
      "88": 3180,
      "IC": 3181,
      "တိတ်ႉ": 3182,
      "ၵူၼ်းမႃး": 3183,
      "သိုၵ်းၶၢင်": 3184,
      "ယူႇတီႈၽူႈမီးပုၼ်ႈၽွၼ်း": 3185,
      "ပုၼ်ႉ": 3186,
      "တပ်ႉသိုၵ်းလူင်ပွင်ၸိုင်ႈ": 3187,
      "သူင်ႇတူဝ်": 3188,
      "ၸင်ႇဝႃႈ": 3189,
      "သွၼ်လိၵ်ႈ": 3190,
      "မိူဝ်ႈဝႃးၼႆႉ": 3191,
      "သူးရၢင်းဝလ်း": 3192,
      "NUG": 3193,
      "UN": 3194,
      "ၵဝ်း": 3195,
      "တီႈႁူင်းႁဵၼ်း": 3196,
      "ဝႆႉပၼ်": 3197,
      "ၶဝ်သမ်ႉ": 3198,
      "ပေႃးႁဝ်းၶႃႈ": 3199,
      "ႁၢင်ႈၵၢင်": 3200,
      "သဵၼ်ႈတႃႈ": 3201,
      "မွၵ်ႇလၢတ်ႈၶေႃႈၵႂၢမ်း": 3202,
      "ၶလယ": 3203,
      "ၾၼ်း": 3204,
      "ၼႂ်းၼႃႈလိၼ်": 3205,
      "သေဢိတ်း": 3206,
      "ၵၢၼ်ငၢၼ်း": 3207,
      "လွင်ႈဝႃႈ": 3208,
      "ႁဵတ်းဢွၵ်ႇ": 3209,
      "တႄႉၵေႃႈ": 3210,
      "ၸၢႆးၶမ်း": 3211,
      "ႁႂ်ႈပဵၼ်": 3212,
      "ပုင်ႈ": 3213,
      "ၸတ်းႁဵတ်းပၢင်ၵုမ်": 3214,
      "လူင်ႉလႅၼ်ႇ": 3215,
      "ၸၢႆးဝၼ်းလႅင်းၶမ်း": 3216,
      "ပၢင်း": 3217,
      "ယၢင်": 3218,
      "ပဵၼ်ၸဝ်ႈ": 3219,
      "ပဵၼ်ၽႂ်": 3220,
      "ၼႂ်းသူၼ်": 3221,
      "ၸိူဝ်းၼႆ့": 3222,
      "ၶၢၵ်ႇ": 3223,
      "ၼမ်ႉမၢဝ်း": 3224,
      "ၸႄႈဝဵင်းၵေးသီး": 3225,
      "ၼမ်မႃး": 3226,
      "ၶူဝ်ႊဝိ": 3227,
      "ၵေႃပွင်ၵၢၼ်": 3228,
      "တူင်ႉၼိုင်ၵႂႃႇမႃး": 3229,
      "ၺုၼ်ႉ": 3230,
      "ၸၵ": 3231,
      "ၺၢၼ်ႇ": 3232,
      "တီႈဢိူင်ႇ": 3233,
      "မီးမွၵ်ႈ": 3234,
      "ႁႂ်ႈမေႃ": 3235,
      "ၵျႃႇ": 3236,
      "လိူဝ်ၵဝ်ႇ": 3237,
      "ပၢင်တိုၵ်းသိုၵ်းသိူဝ်": 3238,
      "ၶုၼ်ႇ": 3239,
      "ယၢင်းၽိူၵ်ႇ": 3240,
      "တူင်ႇဝူင်းတႆး": 3241,
      "ၶႂၢၵ်ႈ": 3242,
      "Lockdown": 3243,
      "ve": 3244,
      "ယၵ်း": 3245,
      "ယွႆႈ": 3246,
      "ပိူင်း": 3247,
      "ၵူႈၸၢဝ်းၶိူဝ်း": 3248,
      "ႁၢင်ႈလီ": 3249,
      "ၸႂ်ႉလၢႆး": 3250,
      "ၶီႇရူတ်ႉၶိူင်ႈ": 3251,
      "ၸဝ်ႈတူၼ်ၶူးလူင်": 3252,
      "ပူင်သွၼ်ပၼ်": 3253,
      "သင်ၸိူဝ်ႉဝႃႈ": 3254,
      "ၵူၼ်းၵႃႉ": 3255,
      "ၵေႃႈဢမ်ႇ": 3256,
      "မူၵ်း": 3257,
      "ၸၢႆးလၢဝ်": 3258,
      "ဢွၵ်ႇၶေႃႈပိုၼ်ၽၢဝ်ႇ": 3259,
      "ၵွၼ်": 3260,
      "ၼႄႇ": 3261,
      "ၵေႃၵမ်": 3262,
      "ၸိူဝ်ႉမႅင်းတၢင်းပဵၼ်": 3263,
      "တေမီးယူႇ": 3264,
      "မေးၼၢင်း": 3265,
      "ၶိင်း": 3266,
      "oo": 3267,
      "လိုဝ်း": 3268,
      "ပဵၼ်ၼမ်ႉ": 3269,
      "ၼႂ်းဝၼ်းမိူဝ်ႈၼႆႉ": 3270,
      "ႁဝ်းတေ": 3271,
      "ႁဵတ်းႁိုဝ်": 3272,
      "ၶဝ်ၼႆႉ": 3273,
      "ပႃႇတီႇတႆး": 3274,
      "ပိူင်ပဵၼ်": 3275,
      "ယုၵ်ႉမုၼ်း": 3276,
      "ဢၼု": 3277,
      "။(": 3278,
      "ပွၵ်ႈၶဝ်ႈမႃး": 3279,
      "သီႇသႅင်ႇ": 3280,
      "ပိုၼ်ၽၢဝ်ႇဢွၵ်ႇဝႆႉ": 3281,
      "ႁႅင်းၵၢၼ်မိူင်းႁူမ်ႈတုမ်": 3282,
      "ယိုတ်းဢဝ်": 3283,
      "လွၵ်ႇငိုတ်ႈ": 3284,
      "ငၢဝ်း": 3285,
      "ဢမ်ႇၽွမ်ႉ": 3286,
      "ၸဝ်ႈၸၢမ်ႇထုၼ်း": 3287,
      "ၶဝ်ႈၽၵ်း": 3288,
      "ပွတ်းဢွၵ်ႇ": 3289,
      "ပူး": 3290,
      "ပႆႇလႆႈႁူႉ": 3291,
      "ယိုဝ်းတၢႆ": 3292,
      "သူင်ႇပၼ်": 3293,
      "ၸႄႈတွၼ်ႈလႃႈသဵဝ်ႈ": 3294,
      "ၸႄႈဝဵင်းမိူင်းပၼ်ႇ": 3295,
      "ၵိဝ်ႇ": 3296,
      "ဝူင်ႈၵၢင်": 3297,
      "ယိုၼ်ယၼ်": 3298,
      "တၢမ်း": 3299,
      "ႊသီႊ": 3300,
      "တီႈၶူဝ်": 3301,
      "တေၸတ်း": 3302,
      "လႆႈဝႃႈ": 3303,
      "ဝဵင်းပၢင်လူင်": 3304,
      "ၵေႃႉဢၼ်": 3305,
      "ၶၢၼ်း": 3306,
      "ၸၼ်ႉသိပ်း": 3307,
      "သႅၼ်ပၢႆ": 3308,
      "ၸိူဝ်ႉၶိူဝ်းတႆး": 3309,
      "ဢမ်ႇတၼ်းလႆႈ": 3310,
      "65": 3311,
      "ၢပ်ႈ": 3312,
      "လူလၢႆ": 3313,
      "ႁဵဝ်း": 3314,
      "ၽူင်း": 3315,
      "ၸုမ်းသိုၵ်းမၢၼ်ႈ": 3316,
      "တိတ်းတေႃႇ": 3317,
      "တီႈဝဵင်းတူၼ်ႈတီး": 3318,
      "တူဝ်ႈတၼ်း": 3319,
      "ၵုင်းထဵပ်ႈ": 3320,
      "ထဵတ်ႈထၢမ်": 3321,
      "ၵတ်ႉၶႅၼ်ႇ": 3322,
      "သဵင်ၵွင်ႈတႅၵ်ႇ": 3323,
      "ၽူဝ်မေး": 3324,
      "ၵဝ်ႉငဝ်ႈသုၼ်ႇလႆႈၵူၼ်း": 3325,
      "EA": 3326,
      "St": 3327,
      "မဝ်း": 3328,
      "တီႈလႃႈသဵဝ်ႈ": 3329,
      "တီႈတႃႈၶီႈလဵၵ်း": 3330,
      "ၵူၼ်းၵႂႃႇမႃး": 3331,
      "ၼႂ်းလုမ်ႈၾႃႉ": 3332,
      "ၵၼ်လႄႈ": 3333,
      "ယူႇၼႆႉ": 3334,
      "ၵၢၼ်ႁဵၼ်း": 3335,
      "ယွင်း": 3336,
      "ထႅင်ႈယူႇ": 3337,
      "ႁိမ်": 3338,
      "ၵပ်းတူဝ်": 3339,
      "ထူပ်းတၢင်းယၢပ်ႇၽိုတ်ႇ": 3340,
      "ပိုတ်ႇလိူင်ႈ": 3341,
      "ၺွင်ႇ": 3342,
      "ပၢင်လိူၵ်ႈတင်ႈသွမ်ႈ": 3343,
      "သိူဝ်ႈ": 3344,
      "600": 3345,
      "KNU": 3346,
      "တမ်": 3347,
      "န်": 3348,
      "မီႊ": 3349,
      "ၼႂ်းၵၢတ်ႇ": 3350,
      "ဝၼ်းၸိူဝ်ႉၸၢတ်ႈၸိုင်ႈတႆး": 3351,
      "ဢဝ်တူဝ်": 3352,
      "ယႃႊ": 3353,
      "ၵႃးလူင်": 3354,
      "ဝတ်ႉဝိႁၢရ်": 3355,
      "ၼႂ်းဢိူင်ႇမိူင်း": 3356,
      "လိူၼ်ၵျႅၼ်ႊၼိဝ်ႊရီႊ": 3357,
      "90": 3358,
      "ထို": 3359,
      "လဝ်း": 3360,
      "ၼေႇ": 3361,
      "ဝႃႈၼၼ်": 3362,
      "ဢၼ်ၵူၼ်းမိူင်း": 3363,
      "သေပွၵ်ႈ": 3364,
      "ႁဵတ်းၼၼ်": 3365,
      "ၵူၼ်းမိူင်းၵေႃႈ": 3366,
      "ၸႄႈဝဵင်းလၢႆးၶႃႈ": 3367,
      "ႁဝ်းၶႃႈလႆႈ": 3368,
      "ၵူၺ်းဢမ်ႇၵႃး": 3369,
      "1947": 3370,
      "ငိုၼ်းမၢၼ်ႈ": 3371,
      "ဢမ်ႇမီးၽႂ်": 3372,
      "ၵႆႉၵႆႉ": 3373,
      "ႁဵတ်းသၢင်ႈၵႂႃႇ": 3374,
      "ၼႂ်းလိၵ်ႈပိုၼ်ၽၢဝ်ႇ": 3375,
      "ပၺ်ၺႃ": 3376,
      "သိၼ်": 3377,
      "မိူင်းၼွင်": 3378,
      "မႃးၶိုၼ်း": 3379,
      "တၢင်းမိူင်းထႆး": 3380,
      "ယဝ်ႉသေ": 3381,
      "ပၼ်ၾၢင်ႉ": 3382,
      "ၽွၼ်ႉ": 3383,
      "သိုၵ်းမၢၼ်ႈၶဝ်": 3384,
      "ပိုၼ်ၽႄႈ": 3385,
      "ဢုပ်ႇဢူဝ်းငူပ်ႉငီႉ": 3386,
      "ပွႆႇမၢၵ်ႇ": 3387,
      "ႁုၼ်ႈ": 3388,
      "ၵႅတ်ႇၶႄႁႄႉၵင်ႈ": 3389,
      "32": 3390,
      "CD": 3391,
      "က်": 3392,
      "ၼဵ": 3393,
      "မိူဝ်ႈၽုၵ်ႈ": 3394,
      "ၸိူဝ်းပဵၼ်": 3395,
      "ယွၼ်ႈ": 3396,
      "ယွၼ်ႇ": 3397,
      "ၼမ်သုတ်း": 3398,
      "တွၼ်ႈၼိူဝ်": 3399,
      "ၵူႈၸုမ်း": 3400,
      "တႃႈလိူဝ်ႇ": 3401,
      "ၸႂ်ႉၸၢႆႇ": 3402,
      "မိၼ်းဢွင်ႇ": 3403,
      "DP": 3404,
      "ႃ့": 3405,
      "လၢႆးတၢင်း": 3406,
      "တပ်ႉပၢင်သဝ်း": 3407,
      "ၶိူဝ်းယႂ်း": 3408,
      "ၶႄၾႆး": 3409,
      "ၵူတ်ႇထတ်းထူပ်းႁၼ်": 3410,
      "ယိုၼ်ႈယွၼ်း": 3411,
      "ၵိုင်ႇ": 3412,
      "ၵူဝ်းၵၢင်ႉ": 3413,
      "han": 3414,
      "ဢီႇ": 3415,
      "တီႈၵျွင်း": 3416,
      "လႆႈၶဝ်ႈ": 3417,
      "ပေႃးထိုင်": 3418,
      "တေႃႇသူႈ": 3419,
      "ထႅင်ႈလွင်ႈၼိုင်ႈ": 3420,
      "မုင်ႉ": 3421,
      "ပေႃႈလဵင်ႉ": 3422,
      "ပတ်းပိုၼ်ႉတူဝ်ႈမိူင်း": 3423,
      "တီႇမူဝ်ႇၶရေႇ": 3424,
      "SHR": 3425,
      "မဝ်": 3426,
      "ဢဵ": 3427,
      "ၾွ": 3428,
      "တၢင်းၶဝ်ႈ": 3429,
      "ၼမ်ႉၶူင်း": 3430,
      "ၸတ်းႁဵတ်းပၢင်ပွႆး": 3431,
      "တ်ႊၶျ်": 3432,
      "ႁႄႉႁၢမ်ႈ": 3433,
      "ၽွင်းငမ်းတူဝ်ၵဝ်ႇ": 3434,
      "လဵၼ်ႈႁႅင်း": 3435,
      "SHRF": 3436,
      "57": 3437,
      "ia": 3438,
      "ဝဵင်းၼမ်ႉၶမ်း": 3439,
      "ပၼ်ပိုၼ်ႉႁူႉ": 3440,
      "လီႊ": 3441,
      "ႁိတ်ႈ": 3442,
      "ပိုတ်ႇပၼ်": 3443,
      "ၻီႊမူဝ်ႊၶရေႊသီႊ": 3444,
      "သၼ်လွႆ": 3445,
      "ဢွၵ်ႊထူဝ်ႊ": 3446,
      "ယႂႃႇ": 3447,
      "MNDAA": 3448,
      "NRP": 3449,
      "uar": 3450,
      "ဢမ်ႇႁပ်ႉ": 3451,
      "ၽူႈႁၢပ်ႇၵၢၼ်": 3452,
      "တိုၵ်းတေႃး": 3453,
      "ၶၢဝ်းမႆႈ": 3454,
      "ၼၢင်းသႅင်": 3455,
      "ၸႄႈတွၼ်ႈလၢင်းၶိူဝ်း": 3456,
      "ဢိၵ်ႇလူၺ်ႈ": 3457,
      "ၶၵ်ႉတွၼ်ႈ": 3458,
      "ႁၢၼ်ႉၶၢႆၶူဝ်း": 3459,
      "ပူတ်းပွႆႇ": 3460,
      "ယုၵ်းယၵ်း": 3461,
      "NRPC": 3462,
      "ယ်": 3463,
      "ၵ်": 3464,
      "တေႇ": 3465,
      "လႆႈမႆႈၸႂ်": 3466,
      "ပွတ်ႇ": 3467,
      "ၵၼ်ႇ": 3468,
      "ဝၼ်းယဝ်ႉ": 3469,
      "ႁဝ်းၶႃႈတေ": 3470,
      "ၶေႃႈတူၵ်းလူင်း": 3471,
      "ၵေႃႇမ": 3472,
      "ႁိူၼ်းယေးၽႂ်မၼ်း": 3473,
      "ႁင်းၶေႃ": 3474,
      "ၸႅင်ႈလႅင်း": 3475,
      "ၵူၼ်ႇပင်း": 3476,
      "သဵၼ်ႈတႃႈသၢႆတၢင်း": 3477,
      "62": 3478,
      "700": 3479,
      "ရေႃး": 3480,
      "ၢတ်ႉ": 3481,
      "ၶႃႈလႃႇ": 3482,
      "ႁဵပ်း": 3483,
      "ၾၢႆႇလူင်ပွင်ၸိုင်ႈ": 3484,
      "မွင်": 3485,
      "ဢုပ်ႉ": 3486,
      "ၸွႆႈၵၼ်": 3487,
      "ပိုၼ်ၽၢဝ်ႇၵိုတ်းတိုၵ်း": 3488,
      "ၼႂ်းၸႄႈဝဵင်းတႃႈၶီႈလဵၵ်း": 3489,
      "မိူၼ်ၸိူင်ႉၼင်ႇ": 3490,
      "တႄႉမၼ်း": 3491,
      "ယူႇတီႈပလိၵ်ႈ": 3492,
      "ဢုတ်ႇ": 3493,
      "ပုတ်ႈ": 3494,
      "ၶုမ်": 3495,
      "ၸဝ်ႈၶူးဝႃး": 3496,
      "ing": 3497,
      "ၶိုၵ်ႉၶၵ်ႉ": 3498,
      "လႆႈသူင်ႇယူတ်းယႃတူဝ်": 3499,
      "တုၵ်ႉၶ": 3500,
      "ws": 3501,
      "တီႈတူၼ်ႈတီး": 3502,
      "ႁူၵ်း": 3503,
      "ၵၼ်ဝႃႈ": 3504,
      "ပၢင်ၵႅဝ်ႈ": 3505,
      "ၶဝ်သေ": 3506,
      "တၢႆထင်တီႈ": 3507,
      "ဝတ်ႉဝႃး": 3508,
      "မူႇၸုမ်း": 3509,
      "ဢိၵ်ႇထႅင်ႈ": 3510,
      "ႁၢင်လိူၼ်": 3511,
      "ၼပ်ႉႁူဝ်ႁဵင်": 3512,
      "EAO": 3513,
      "FP": 3514,
      "ace": 3515,
      "ၼၼ်ႉဝႃႈ": 3516,
      "ႁဝ်းဢမ်ႇ": 3517,
      "ႁဵတ်းပၢင်ၵုမ်": 3518,
      "မၢၼ်ႈလီႈ": 3519,
      "ၼိုင်ႈပီ": 3520,
      "ပူင်ႇ": 3521,
      "ၶိူဝ်းတႆး": 3522,
      "တူၵ်းမႅၼ်ႈ": 3523,
      "ႁိမ်းၸမ်": 3524,
      "လၢၵ်ႇ": 3525,
      "ၸႄႈတွၼ်ႈမူႇၸေႊ": 3526,
      "တီႉၺွပ်းၵႂႃႇ": 3527,
      "ဝႂ်ၵပ်းတူဝ်": 3528,
      "ထိပ်ႇ": 3529,
      "ႁၼ်ထိုင်ဝႃႈ": 3530,
      "NP": 3531,
      "oto": 3532,
      "ငႅ": 3533,
      "ငႃး": 3534,
      "ထႃး": 3535,
      "မီႇ": 3536,
      "မထၢၼ်း": 3537,
      "ဢၼ်လုၵ်ႉ": 3538,
      "ၽူႈသိုဝ်ႇၶၢဝ်ႇ": 3539,
      "ၸွမ်းၼႂ်း": 3540,
      "ဢွင်ႇပူၼ်ႉ": 3541,
      "ၶုၼ်ႁေႃၶမ်း": 3542,
      "ဢေႃႊၵ": 3543,
      "မျၢၼ်ႇမႃႉ": 3544,
      "CDM": 3545,
      "EC": 3546,
      "In": 3547,
      "of": 3548,
      "ထီး": 3549,
      "ယႆ": 3550,
      "သၢၼ်ႈ": 3551,
      "ၸႂ်း": 3552,
      "လူၵ်ႈ": 3553,
      "ၢၼ်ႊ": 3554,
      "ယူႇၼၼ်ႉ": 3555,
      "လိူမ်ႈ": 3556,
      "လွင်ႈၽွမ်ႉႁူမ်ႈ": 3557,
      "ၸဝ်ႈဢႃႇၼႃႇ": 3558,
      "ပၼ်ၶႂၢင်ႉ": 3559,
      "ၾၢႆႇသိုၵ်း": 3560,
      "သွၼ်ႇ": 3561,
      "တုၸိတ်ႉ": 3562,
      "သုၵ်ႉယု": 3563,
      "တွၼ်ႈတႃႇတေ": 3564,
      "ဢုမ်ႈ": 3565,
      "ထႅမ်ႊ": 3566,
      "ၵၢမ်ႇ": 3567,
      "ယူဝ်ႉ": 3568,
      "ၵႂၢမ်းတႆး": 3569,
      "ဢူၺ်းလီပွတ်းႁွင်ႇ": 3570,
      "ၵူၼ်းတိတ်းၸပ်းၸိူဝ်ႉမႅင်းၶူဝ်ႊဝိတ်ႉ": 3571,
      "ၽႄႈလၢမ်းႁၢဝ်ႈႁႅင်း": 3572,
      "ၶဵၼ်ႇ": 3573,
      "ႁိတ်ႈႁွႆး": 3574,
      "ၵေႃႇမတီႇ": 3575,
      "56": 3576,
      "Ch": 3577,
      "ယိုင်ႈ": 3578,
      "လႆႈပၢႆႈၽေးသိုၵ်း": 3579,
      "ပဵၼ်ၵူၼ်းမိူင်း": 3580,
      "ဢၼ်ပႃး": 3581,
      "တၢင်းဝၢၼ်ႈ": 3582,
      "တွၵ်ႇ": 3583,
      "ၸဝ်ႈၵွၼ်း": 3584,
      "မၼ်းယူႇ": 3585,
      "ပၼ်တၢင်း": 3586,
      "ၸႄႈဝဵင်းသႅၼ်ဝီ": 3587,
      "ၾၢႆႇၽွင်းငမ်း": 3588,
      "ႁၢတ်ႇ": 3589,
      "ၸိူဝ်းၼႆႉသေ": 3590,
      "ၵူႈမိူင်း": 3591,
      "ၸဝ်ႈၼႃႈတီႈထႆး": 3592,
      "ႁေႃႁိူၼ်း": 3593,
      "ႁိူဝ်းမိၼ်": 3594,
      "မႂ်ငိုၼ်း": 3595,
      "Photo": 3596,
      "ၽႃႈတူမ်းသူပ်း": 3597,
      "ed": 3598,
      "ဢီႊ": 3599,
      "ၼႆႉယဝ်ႉ": 3600,
      "မီးၵၢၼ်": 3601,
      "ၵၼ်ၼႆႉ": 3602,
      "ဝႃႈၼႆဝႆႉ": 3603,
      "ႁဝ်းၸဝ်ႈ": 3604,
      "ၼင်ႇၼၼ်": 3605,
      "ၵျိၼ်ႊ": 3606,
      "ႁဵၼ်းလိၵ်ႈ": 3607,
      "ႁပ်ႉဢဝ်": 3608,
      "တဵင်ႈ": 3609,
      "ၼူၵ်ႉ": 3610,
      "ဢွၼ်ႁူဝ်ၼမ်းၼႃႈ": 3611,
      "ဢိၵ်ႇပႃး": 3612,
      "ၸေႈမိူင်း": 3613,
      "ဢမ်ႇမီးလွင်ႈႁူမ်ႇလူမ်ႈ": 3614,
      "သူႇသမ်း": 3615,
      "ၵိင်ႇၽႄ": 3616,
      "ၽၢတ်ႇဢွၵ်ႇ": 3617,
      "ၵေႃၵမ်ၵၢၼ်": 3618,
      "49": 3619,
      "am": 3620,
      "ch": 3621,
      "တရ": 3622,
      "ပြ": 3623,
      "ိၼ်ႉ": 3624,
      "ၼမ့်": 3625,
      "ၼႆတႄႉ": 3626,
      "ၼႆဝႃႇ": 3627,
      "ပဵၼ်ၽေး": 3628,
      "မႃးလႄႈ": 3629,
      "ဢၼ်တိတ်းၸပ်း": 3630,
      "ဢွတ်း": 3631,
      "ႁဝ်းလူဝ်ႇ": 3632,
      "တင်ႈၸႂ်": 3633,
      "တေႃႇထိုင်ဝၼ်းတီႈ": 3634,
      "မၢင်တီႈ": 3635,
      "ႁုင်း": 3636,
      "ၸဝ်ႈၶူးမေႃ": 3637,
      "ပၵ်းပိူင်လၵ်းမိူင်း": 3638,
      "လၢတ်ႈထႅင်ႈဝႃႈ": 3639,
      "PC": 3640,
      "တၢမ်": 3641,
      "ဢလိၼ်း": 3642,
      "တေဢၢၼ်း": 3643,
      "ၸႄႈဝဵင်းၵူတ်ႉၶၢႆ": 3644,
      "သုတ်ႇ": 3645,
      "ၶၢႆၶူဝ်း": 3646,
      "ၵိုမ်း": 3647,
      "သူႉၵျီႇ": 3648,
      "ထၢႆႇ": 3649,
      "ပရိ": 3650,
      "ဝႆႈ": 3651,
      "ၵလႃႇ": 3652,
      "ဝဵင်းသီႇပေႃႉ": 3653,
      "ၽူႈလူင်ႉလႅၼ်ႇ": 3654,
      "ၼမ်ႉၼၵ်း": 3655,
      "ႁူဝ်ပီ": 3656,
      "ႁၢၵ်ႈ": 3657,
      "ထူၺ်း": 3658,
      "ႁူႉၸၵ်း": 3659,
      "ပုင်း": 3660,
      "ၼႂ်းၸႄႈဝဵင်းၼမ်ႉၶမ်း": 3661,
      "ပိဝ်": 3662,
      "ၵဵဝ်ႇၵပ်းလူၺ်ႈ": 3663,
      "လွတ်ႈၽေး": 3664,
      "ဢူၺ်းၵေႃႉ": 3665,
      "ၽႃႇၺႃး": 3666,
      "သွၼ်ႈဝႆႉ": 3667,
      "ၵိုၵ်းပိုၼ်း": 3668,
      "ၵိုၼ်းၶွၼ်ႈ": 3669,
      "ၼိမ်သဝ်း": 3670,
      "34": 3671,
      "ate": 3672,
      "တၢတ်ႇ": 3673,
      "ဢီး": 3674,
      "ၶပ်ႉ": 3675,
      "တေမႃးၼႆႉ": 3676,
      "ဢၼ်တိုၵ်ႉ": 3677,
      "မီးတၢင်း": 3678,
      "ဢမ်ႇပႃး": 3679,
      "ၸုမ်းၼႆႉ": 3680,
      "ၶဝ်ၵႂႃႇ": 3681,
      "ထိုင်ယၢမ်းလဵဝ်": 3682,
      "ၵူၺ်းယဝ်ႉ": 3683,
      "ၶိုၼ်းသႂ်": 3684,
      "သၢပ်ႇ": 3685,
      "ၺႃးသိုၵ်းမၢၼ်ႈ": 3686,
      "ယွၼ်ႉပၢင်တိုၵ်း": 3687,
      "ၵိုတ်းလိုဝ်ႈ": 3688,
      "ၸွမ်သိုၵ်းလူင်ယွတ်ႈသိုၵ်း": 3689,
      "ယိုတ်ႈ": 3690,
      "TYN": 3691,
      "HRDF": 3692,
      "သုၵ်ႉယုင်ႈ": 3693,
      "ငၢႆး": 3694,
      "ၾု": 3695,
      "ၵူၼ်းမိူင်းလႄႈ": 3696,
      "လီႇ": 3697,
      "သမ်ႉပဵၼ်": 3698,
      "ပႃႇတီႇပၢႆးမိူင်း": 3699,
      "မ်ႊပိူဝ်ႊ": 3700,
      "ပႅၵ်ႇ": 3701,
      "မွၵ်ႇမႆႇ": 3702,
      "မိုဝ်ႉ": 3703,
      "ရေႃးၵႃႇ": 3704,
      "န်း": 3705,
      "ၵူၼ်းလၵ်ႉ": 3706,
      "ၼႆႉမီး": 3707,
      "မႃးႁဵတ်း": 3708,
      "တွၼ်ႉ": 3709,
      "လုၵ်ႈလၢၼ်": 3710,
      "ၶူးဝႃး": 3711,
      "ၸွႆႈထႅမ်ပၼ်": 3712,
      "သပ်းၸႅင်ႈ": 3713,
      "ၸၢႆးသၢႆမၢဝ်း": 3714,
      "My": 3715,
      "တၢၼ်ႇ": 3716,
      "မီးပၼ်ႁႃ": 3717,
      "ဝႃႈၼႆသေတႃႉ": 3718,
      "ၶိုၼ်ႈၼိူဝ်": 3719,
      "ဝူႊ": 3720,
      "ၸတ်းႁဵတ်းမႃး": 3721,
      "ၼႂ်းၸႄႈဝဵင်းၵဵင်းတုင်": 3722,
      "တႅမ်ႈဝႆႉ": 3723,
      "ဢၼ်ပဵၼ်ယူႇ": 3724,
      "တင်းမူတ်းမီးၵႂႃႇ": 3725,
      "ent": 3726,
      "သိလ်ထမ်းဝုၼ်းၸုမ်ႉ": 3727,
      "ၵိူဝ်": 3728,
      "ၸၢင်း": 3729,
      "ၵူၼ်းယူႇ": 3730,
      "ၼႆႉၶႃႈ": 3731,
      "ၽူႈၼင်ႈ": 3732,
      "ႁဵတ်းမႃး": 3733,
      "ၸၢႆးဢူး": 3734,
      "လၢႆတီႈ": 3735,
      "ၸူမ်": 3736,
      "ရူတ်ႉထိပ်ႇ": 3737,
      "ၸုတ်ႇ": 3738,
      "ၶွမ်ႊမသျိၼ်ႊပၢင်လိူၵ်ႈတင်ႈ": 3739,
      "ပုင်ႇဝူဝ်း": 3740,
      "ၵိၼ်းၸႂ်": 3741,
      "မုင်ႉႁေႃႁိူၼ်း": 3742,
      "မျၢၼ်ႇမႃႉဢလိၼ်း": 3743,
      "ၵႄး": 3744,
      "ဢမ်ႇႁဵတ်း": 3745,
      "ၵႂႃႇၼႆႉ": 3746,
      "ၸဝ်ႈၶုၼ်": 3747,
      "ပေႃးတေဢမ်ႇ": 3748,
      "ပွတ်းတွၼ်ႈ": 3749,
      "ႁိုဝ်ႉ": 3750,
      "တေလႆႈမီး": 3751,
      "ပႂ်ႉၵူတ်ႇထတ်း": 3752,
      "ၽူႈၵွၼ်းပွၵ်ႉ": 3753,
      "မၢင်ၸိူဝ်း": 3754,
      "မိၼိတ်ႉ": 3755,
      "NCC": 3756,
      "မျိၼ်ႉ": 3757,
      "ၵူၼ်းတိတ်းၸပ်းတၢင်းပဵၼ်ၶူဝ်ႊဝိတ်ႉ": 3758,
      "ပွၵ်ႈမိူဝ်းၶိုၼ်း": 3759,
      "ပႂ်ႉတူၺ်းငဝ်းလၢႆး": 3760,
      "တီႈႁိမ်းဝၢၼ်ႈ": 3761,
      "တိူၵ်ႈသွၼ်လိၵ်ႈ": 3762,
      "တဵၵ်းတဵင်": 3763,
      "မိူင်းယႆ": 3764,
      "ၶၵ်ႉၵၢၼ်လွင်ႈငမ်းယဵၼ်": 3765,
      "ဢုပ်ႉပိူင်ႇ": 3766,
      "မင်း": 3767,
      "ယိုၼ်း": 3768,
      "ရႃႊ": 3769,
      "ၵၢႆး": 3770,
      "ႁၢၼ်ႇ": 3771,
      "တီႈၸၼ်ႉၸွမ်": 3772,
      "မီးၼၼ်ႉ": 3773,
      "မီးပီႈၼွင်ႉ": 3774,
      "ၸဝ်ႈတႃႇၼ": 3775,
      "ၸႂ်ယႂ်ႇ": 3776,
      "ပွင်ပဵၼ်": 3777,
      "မွၼ်": 3778,
      "ၸိူဝ်းၼႆႉတႄႉ": 3779,
      "သမ်ႉမီး": 3780,
      "လိူၼ်ဢေႊပရိူဝ်ႊ": 3781,
      "ၵေႃႉၼိုင်ႈလၢတ်ႈဝႃႈ": 3782,
      "လႂ်ၵေႃႈ": 3783,
      "ယဵၼ်ႇ": 3784,
      "လၢၵ်ႈ": 3785,
      "ၼႂ်းမိူင်းတႆးၼႆႉ": 3786,
      "သုင်သုတ်း": 3787,
      "သိုဝ်ႉၶၢႆ": 3788,
      "ၻီႊသႅ": 3789,
      "ၵုမ်းၶင်တူဝ်": 3790,
      "ook": 3791,
      "ဢေႃႊၵတ်ႊသ်": 3792,
      "ဢုမ်ႈၶိူဝ်း": 3793,
      "mar": 3794,
      "လႆႇ": 3795,
      "ၼႂ်းပၢင်ၵုမ်": 3796,
      "ၼႂ်းႁူင်းႁဵၼ်း": 3797,
      "သိုၵ်းဝႃႉ": 3798,
      "ႁဝ်းၶဝ်": 3799,
      "မိူဝ်ႈဝၼ်း": 3800,
      "တႄႉလၢတ်ႈဝႃႈ": 3801,
      "ၾၢႆႇႁွင်ႇ": 3802,
      "ၾၢႆႇႁူမ်ႇလူမ်ႈ": 3803,
      "ႁူဝ်ယွႆႈ": 3804,
      "ပွၵ်ႈယဝ်ႉ": 3805,
      "လူင်းၵႂႃႇ": 3806,
      "မၢၵ်ႇမႅင်း": 3807,
      "ပုၵ်ႉ": 3808,
      "သၽႃးၸိူဝ်ႉၸၢတ်ႈ": 3809,
      "မိုဝ်းၽႂ်": 3810,
      "ၸၢတ်ႈၸိုင်ႈ": 3811,
      "ၽူႈတႅၼ်းၽွင်း": 3812,
      "ၽူႈၸၢႆးၵေႃႉၼိုင်ႈ": 3813,
      "ၼူဝ်ႊဝႅမ်ႊၿိူဝ်ႊ": 3814,
      "66": 3815,
      "ယႃး": 3816,
      "ဝီႊ": 3817,
      "ၵူၼ်းမူႇၸေႊ": 3818,
      "ၵူၼ်းၼႄၵၢင်ၸႂ်": 3819,
      "ပဵၼ်ဝဵင်း": 3820,
      "ဢၼ်ၶဝ်ႈ": 3821,
      "ယူႇႁိူၼ်း": 3822,
      "ႁဵတ်းၼႆ": 3823,
      "ၵူၼ်းမိူင်းသေ": 3824,
      "လႅင်ႇ": 3825,
      "ဢွၼ်ႊလၢႆႊ": 3826,
      "လုၵ်ႈယိင်း": 3827,
      "ၶၢဝ်ႇငၢဝ်း": 3828,
      "ၼႂ်းၸႄႈဝဵင်းလႃႈသဵဝ်ႈ": 3829,
      "သႂ်ႇၸႂ်": 3830,
      "ၾိုၵ်းၽွၼ်ႉ": 3831,
      "လိၵ်ႈႁူမ်ႈမၢႆပၢင်လူင်": 3832,
      "သႃး": 3833,
      "ၸေး": 3834,
      "ၿၢတ်ႇ": 3835,
      "ႄႉ": 3836,
      "မိူင်းႁဝ်း": 3837,
      "ဝႃႈဝႃႈ": 3838,
      "ဢၼ်ပၢႆႈ": 3839,
      "တၢင်းၶဝ်ႈဢွၵ်ႇ": 3840,
      "ႁူဝ်ပူင်း": 3841,
      "ဢွၵ်ႇၼွၵ်ႈ": 3842,
      "ႁႅင်းၼႃႇ": 3843,
      "လႅတ်ႇ": 3844,
      "မိူင်းတႆးပွတ်းႁွင်ႇ": 3845,
      "ယၢမ်းလဵဝ်တႄႉ": 3846,
      "သူင်ႇၸူး": 3847,
      "150": 3848,
      "ႁေႃသႅင်": 3849,
      "ၶႂၢင်": 3850,
      "သျွ": 3851,
      "and": 3852,
      "ၵူၼ်းတိတ်းၸပ်းတၢင်းပဵၼ်": 3853,
      "ၶႅမ်ႉလႅပ်ႈ": 3854,
      "ဝဵင်းလူင်တူၼ်ႈတီး": 3855,
      "ယိၼ်းၸူမ်း": 3856,
      "FPNCC": 3857,
      "ၶဵၼ်ႇတႅမ်ႈ": 3858,
      "41": 3859,
      "မေႃႈ": 3860,
      "ၸၼ်ႇ": 3861,
      "ပဵၼ်ပၼ်ႁႃ": 3862,
      "ယူႇၸွမ်း": 3863,
      "ဝႆႉၼင်ႇၼႆ": 3864,
      "မူၺ်": 3865,
      "ၶဝ်ႈယိုဝ်း": 3866,
      "သၢဝ်": 3867,
      "ၶႅမ်": 3868,
      "ယွၼ်ႉသိုၵ်း": 3869,
      "လွႆၵေႃႇ": 3870,
      "တိုၵ်ႉသိုပ်ႇ": 3871,
      "တူၺ်းထိုင်": 3872,
      "သၢႆႉ": 3873,
      "ႁူပ်ႉလွင်ႈယၢပ်ႇၽိုတ်ႇ": 3874,
      "မၢတ်ႇၸဵပ်းလူႉတၢႆ": 3875,
      "ၵဵပ်းငိုၼ်း": 3876,
      "ပ့်": 3877,
      "ၵေႃႁူမ်ႈသၢင်ႈၵူၼ်းၼုမ်ႇတႆး": 3878,
      "ပုင်ႈၶိုၼ်ႈ": 3879,
      "လိူမ်ႈလႆႇ": 3880,
      "?။": 3881,
      "ol": 3882,
      "တေၶတ်းၸႂ်": 3883,
      "ၼၼ်ႉၶႃႈယဝ်ႉ": 3884,
      "ၶႃႈၼေႃႈ": 3885,
      "ၵႂႃႇႁႃ": 3886,
      "ဝႆႉၶႃႈဢေႃႈ": 3887,
      "ပီႁူဝ်ပၢၵ်ႇ": 3888,
      "ႁူဝ်ၸႂ်": 3889,
      "ပေႃးမႃး": 3890,
      "ၵျၢၼ်ႇ": 3891,
      "လၢႆၾၢႆႇ": 3892,
      "သုမ်ႉ": 3893,
      "လိူၼ်ပၢႆ": 3894,
      "လူင်းသူၼ်းတုမ်": 3895,
      "တိပ်ႉ": 3896,
      "ႁူႉဝႃႈ": 3897,
      "ဢိူင်ႇဝၢၼ်ႈ": 3898,
      "ႁၼ်လီ": 3899,
      "ၸၢဝ်းတႆး": 3900,
      "မုင်း": 3901,
      "ႁူင်းယႃလူင်": 3902,
      "သႃမိ": 3903,
      "ႁၢမ်ႈၵူၼ်း": 3904,
      "ၵူၼ်းၸပ်းတၢင်းပဵၼ်ၶူဝ်ႊဝိတ်ႉ": 3905,
      "ၸႃတိ": 3906,
      "Shan": 3907,
      "ရႃႇ": 3908,
      "ၾၢၵ်ႇ": 3909,
      "တၢင်းၼိုင်ႈ": 3910,
      "သေလႄႈ": 3911,
      "ပေႃႇ": 3912,
      "မိူဝ်ႈဢွၼ်တၢင်း": 3913,
      "ၶဝ်တႄႉ": 3914,
      "ၶဝ်ႈမိူင်းထႆး": 3915,
      "ၼမ်ႉတဵင်း": 3916,
      "ၶၢဝ်ႇမျၢၼ်ႇမႃႉဢလိၼ်း": 3917,
      "ယႃႉပႅတ်ႈ": 3918,
      "ဢမေႊရိၵႃႊ": 3919,
      "ပိုင်ႈဢိင်": 3920,
      "ၵူႈမိူင်းမိူင်း": 3921,
      "ယီႈ": 3922,
      "သၵ်ႉ": 3923,
      "ၼႂ်းၼႃႈတီႈ": 3924,
      "တူႇ": 3925,
      "ဢၼ်ၼၼ်ႉ": 3926,
      "ဢမ်ႇၵႂႃႇ": 3927,
      "ၶႃႈလူး": 3928,
      "ၵၢၼ်ၵႃႉၶၢႆ": 3929,
      "ႁဵတ်းၵိၼ်": 3930,
      "ၸဝ်ႈၶိုၼ်းသႂ်": 3931,
      "ၼမ်ၼႃႇ": 3932,
      "ႁူင်းႁႅမ်း": 3933,
      "ၵိၼ်ၵႅၼ်ႇ": 3934,
      "တဵၼ်း": 3935,
      "ၵွပ်ႈသင်": 3936,
      "ၽုၵ်ႇတူၼ်ႈမႆႉ": 3937,
      "တီႈမိူင်းၵိုင်": 3938,
      "တပ်ႉမတေႃႇသိုၵ်းမၢၼ်ႈ": 3939,
      "ဢွၵ်ႇဝႆႉၼင်ႇၼႆ": 3940,
      "ပူႇၵႄႇ": 3941,
      "မုၵ်ႉၸုမ်းၸၢဝ်းၶိူဝ်းတႆး": 3942,
      "ပိူင်လူင်မၼ်း": 3943,
      "လၢၵ်ႇလၢႆး": 3944,
      "တၼႃႇ": 3945,
      "ၵူၼ်းတူၵ်းၶွၵ်ႈ": 3946,
      "ပဵၼ်မိူင်း": 3947,
      "ဢၼ်လူင်ပွင်ၸိုင်ႈ": 3948,
      "ဢမ်ႇၶႂ်ႈႁႂ်ႈ": 3949,
      "ၵႂႃႇမိူဝ်းၼႃႈ": 3950,
      "တ်ႉၶျ်": 3951,
      "လွင်ႈၽဵင်ႇပဵင်း": 3952,
      "ၵူၼ်းမိူင်းမၢၼ်ႈ": 3953,
      "မၢၼ်ႈပၢင်ႇ": 3954,
      "လုၼ်ႇ": 3955,
      "ၸၢႆးႁေႃသႅင်": 3956,
      "ပေႃးတေလႆႈ": 3957,
      "မၢပ်ႇ": 3958,
      "ၶိုၼ်းယဝ်ႉ": 3959,
      "ပွၵ်ႈႁိူၼ်းယေး": 3960,
      "မၢႆၾၢင်": 3961,
      "ႁိုၼ်ႇ": 3962,
      "သၽႃးၸႄႈမိူင်း": 3963,
      "ထုၵ်ႇမႅၼ်ႈ": 3964,
      "ဢၼ်ဝႃႈၼၼ်ႉတႄႉ": 3965,
      "သပ်းလႅင်းၼႄ": 3966,
      "ၶၼ်ငိုၼ်းမိူဝ်ႈဝႃး": 3967,
      "The": 3968,
      "မိၼ်းဢွင်ႇလၢႆႇ": 3969,
      "Myan": 3970,
      "သေႃႉ": 3971,
      "မၼ်းၵူၺ်း": 3972,
      "ၾၢႆႇသိုၵ်းမၢၼ်ႈ": 3973,
      "ၸဵင်": 3974,
      "ၵူႈၾၢႆႇ": 3975,
      "105": 3976,
      "ပလိၵ်ႈၾၢႆႇ": 3977,
      "ၼႂ်းၸႄႈဝဵင်းၵူတ်ႉၶၢႆ": 3978,
      "ဢူးဝိၼ်း": 3979,
      "သၢၼ်ၶတ်းတေႃႇ": 3980,
      "လဵင်ႉလူ": 3981,
      "ၵွပ်ႈပိူဝ်ႈၸိူင်ႉၼႆ": 3982,
      "ၶိုင်ပွင်": 3983,
      "တူၵ်းလူင်းလႆႈၸႂ်": 3984,
      "ၶႃႈႁႅမ်တၢႆ": 3985,
      "ႁူမ်ၸူမ်းႁပ်ႉတွၼ်ႈ": 3986,
      "သုၼ်ၵၢင်": 3987,
      "58": 3988,
      "73": 3989,
      "ur": 3990,
      "ပဝ်ႈ": 3991,
      "ႅတ်ႉ": 3992,
      "င်ႇၵလႃႇ": 3993,
      "တေၺႃး": 3994,
      "ၼႂ်းမိူင်းၶႄႇ": 3995,
      "ဢၼ်တူင်ႉၼိုင်": 3996,
      "တၢင်းလင်": 3997,
      "ဢမ်ႇထုၵ်ႇလီ": 3998,
      "ၵၼ်ယဝ်ႉ": 3999,
      "သေး": 4000,
      "ႁဵတ်းၵႂႃႇ": 4001,
      "မိူဝ်ႈလိူၼ်": 4002,
      "ၶဝ်ႈၵူတ်ႇထတ်း": 4003,
      "ၶွင်ႉ": 4004,
      "တပ်ႉၸုမ်း": 4005,
      "ပူဝ်ႇ": 4006,
      "လူင်းၵူတ်ႇထတ်း": 4007,
      "သီႇရိ": 4008,
      "သႅပ်ႊ": 4009,
      "ဢုပ": 4010,
      "ဢိူင်ႇၼႃး": 4011,
      "ဢုပ်ႇလၢတ်ႈ": 4012,
      "ဢွၼ်ၵၼ်မႃး": 4013,
      "သၽႃးၵူၼ်းမိူင်း": 4014,
      "ဢၼ်ဝႃႈၼႆႉ": 4015,
      "မွၵ်ႇထိုင်": 4016,
      "ၽိတ်းမၢႆမီႈ": 4017,
      "ႁူပ်ႉထူပ်းၵူၼ်းမိူင်း": 4018,
      "ဢမ်ႇႁူႉၾၢႆႇ": 4019,
      "တိုၼ်ႇသၢၼ်ႈ": 4020,
      "ၶၢင်ႈတၢင်း": 4021,
      "ထေး": 4022,
      "တီႈၼႃႈ": 4023,
      "တေၶိုၼ်း": 4024,
      "ဢၼ်ၸတ်းႁဵတ်း": 4025,
      "သေၵေႃႉ": 4026,
      "ၸဝ်ႈႁိူၼ်း": 4027,
      "ၸဝ်ႈပေႃႈ": 4028,
      "ၾၢႆႇဢွၵ်ႇ": 4029,
      "ၸၢႆးလႃႉ": 4030,
      "ႁွၵ်ႈဝႃႈ": 4031,
      "ပူၼ်ႉၶၢပ်ႈတူဝ်": 4032,
      "လုမ်းၵပ်းသၢၼ်": 4033,
      "ပုၼ်ႈတႃႇ": 4034,
      "ၶိူင်ႈၵွင်ႈၵၢင်ႇ": 4035,
      "ႁွင်ႈၵၢၼ်ပိုၼ်ၽၢဝ်ႇ": 4036,
      "လုၵ်ႈႁဵၼ်းၸၼ်ႉၸွမ်": 4037,
      "ၶွပ်ႈၶူပ်ႇ": 4038,
      "ine": 4039,
      "ထိင်း": 4040,
      "USDP": 4041,
      "ပဵၼ်လုၵ်ႈၸၢႆး": 4042,
      "ၵူႇတဝ်ႈ": 4043,
      "ငဝ်ႈၸိုင်ႈလွႆတႆးလႅင်း": 4044,
      "တီႇမူဝ်ႇၶရေႇၸီႇ": 4045,
      "wor": 4046,
      "ၶႆ": 4047,
      "မိူင်းၵႅတ်ႇ": 4048,
      "လႆႈၼၼ်ႉ": 4049,
      "ဢၼ်ႁဵတ်း": 4050,
      "တၢင်းၵႃႈ": 4051,
      "ၵၼ်ၶႃႈ": 4052,
      "ၶႃႈၵေႃႈ": 4053,
      "ၸၢႆးပိူင်း": 4054,
      "ႁႂ်ႈၵိုတ်း": 4055,
      "သုၵ်ႉ": 4056,
      "ငိုၼ်းၵွင်": 4057,
      "ၶမ်းၸၢမ်ႇ": 4058,
      "ၶိုၼ်ႈႁဵၼ်း": 4059,
      "ၸၢဝ်းၶႄႇ": 4060,
      "တေမီးလွင်ႈ": 4061,
      "ႁၢၼ်ႉၸႂ်": 4062,
      "ၸိူင်ႉၼႆၼႆႉ": 4063,
      "ၽႃႇသႃႇ": 4064,
      "tine": 4065,
      "မူင်းပၢႆၼၼ်ႉ": 4066,
      "ပွၵ်ႈႁိူၼ်းၶိုၼ်း": 4067,
      "os": 4068,
      "us": 4069,
      "ၵၢတ်ႈ": 4070,
      "ၵူၼ်းၼႂ်း": 4071,
      "လႆႈပဵၼ်": 4072,
      "မႃးႁၢဝ်ႈႁႅင်း": 4073,
      "ၼႂ်းမိုဝ်း": 4074,
      "လိူင်": 4075,
      "ႁဵတ်းပွႆး": 4076,
      "ဝၢၼ်ႈပၢင်ႇ": 4077,
      "မိူဝ်ႈၼၼ်ႉ": 4078,
      "ဢဝ်ပုၼ်ႈၽွၼ်း": 4079,
      "ဢွၵ်ႇၵႂႃႇ": 4080,
      "လိၵ်ႈမၢၼ်ႈ": 4081,
      "ၵူၺ်းၼင်ႇၵဝ်ႇ": 4082,
      "လၢႆၸုမ်း": 4083,
      "ဢူၵ်း": 4084,
      "ပႃႇတီႇၸၢဝ်းၶိူဝ်း": 4085,
      "ၵူတ်ႇထတ်းၵူၼ်း": 4086,
      "ၶျႃႊ": 4087,
      "လူင်းလၢႆးမိုဝ်းၵိုတ်းတိုၵ်း": 4088,
      "ဝၢင်းၽႅၼ်": 4089,
      "ထမ်းတြႃး": 4090,
      "ၵဵဝ်ႇလူၺ်ႈလွင်ႈၼႆႉ": 4091,
      "ၵိုတ်ႈ": 4092,
      "ၼမ်လိူဝ်ပိူၼ်ႈ": 4093,
      "ၶိုၵ်ႉတွၼ်းမၢႆ": 4094,
      "64": 4095,
      "ငွ": 4096,
      "ယႄး": 4097,
      "ၵႆႇ": 4098,
      "ၵေႃး": 4099,
      "ၵူၼ်းၼမ်": 4100,
      "ဢၼ်လႂ်": 4101,
      "ၶႃႈႁၢပ်ႇၵၢၼ်": 4102,
      "ယူႇတိၵ်းတိၵ်း": 4103,
      "ႁဝ်းလႆႈ": 4104,
      "ႁွပ်ႈ": 4105,
      "ၸၢင်ႇ": 4106,
      "လူင်ပွင်ၸိုင်ႈမိူင်းႁူမ်ႈတုမ်": 4107,
      "ပၢင်တိုၵ်းၼႆႉ": 4108,
      "ၵဝ်ႇၵႄႇ": 4109,
      "ပိုတ်ႇပၢင်": 4110,
      "သၢၼ်မိုဝ်း": 4111,
      "သိမ်ႇ": 4112,
      "ၾိင်ႈႁိတ်ႈႁွႆး": 4113,
      "တေဢမ်ႇၸၢင်ႈ": 4114,
      "ၸႄႈဝဵင်းမိူင်းတူၼ်": 4115,
      "ၸဝ်ႈၾႃႉလူင်": 4116,
      "800": 4117,
      "Quar": 4118,
      "လူမ်ႇ": 4119,
      "ပဵၼ်ႁိုဝ်": 4120,
      "သေႃႇ": 4121,
      "ယူႇယဝ်ႉ": 4122,
      "ၽူႈလႂ်": 4123,
      "လုၵ်း": 4124,
      "ႁူဝ်ၼပ်ႉ": 4125,
      "ဢွၵ်ႇၶၢဝ်းတၢင်း": 4126,
      "ၶိုၼ်းမႃး": 4127,
      "လၢႆဝၼ်း": 4128,
      "ယူႇတီႈႁဝ်းၶႃႈ": 4129,
      "ပၢႆႈလွတ်ႈ": 4130,
      "ၶၢဝ်းႁိုင်": 4131,
      "တိၺွပ်း": 4132,
      "မိူၼ်တင်း": 4133,
      "ၶိုၼ်ႈပဵၼ်": 4134,
      "ၶေႃႈတွပ်ႇ": 4135,
      "ၼိူဝ်လွႆ": 4136,
      "တၢင်ႇယွၼ်း": 4137,
      "ၸိုင်ႈတႆးပွတ်းႁွင်ႇၼၼ်ႉ": 4138,
      "လႃးလႃး": 4139,
      "တိုၼ်းတေ": 4140,
      "ၽူႈမီးၸၼ်ႉ": 4141,
      "ဢမ်ႇၸႂ်ႈဝႃႈ": 4142,
      "antine": 4143,
      "မိုၼ်ႇပၢႆ": 4144,
      "ငႅၼ်း": 4145,
      "Quarantine": 4146,
      "52": 4147,
      "vi": 4148,
      "တႃႊ": 4149,
      "တလေး": 4150,
      "ၸမ်ႈ": 4151,
      "ႁိုၼ်း": 4152,
      "တီ့": 4153,
      "မိူင်းမၢဝ်း": 4154,
      "မိူင်းသူႈ": 4155,
      "မီးသုၼ်ႇလႆႈ": 4156,
      "ဢမ်ႇၵိုတ်း": 4157,
      "ဢမ်ႇတွၼ်ႉ": 4158,
      "မၼ်းမႃး": 4159,
      "ၸၢႆးႁိၼ်": 4160,
      "ထႅဝ်": 4161,
      "လိူၼ်ႁႃႈ": 4162,
      "တွၼ်ႈၼိုင်ႈ": 4163,
      "ပႆႇႁၼ်": 4164,
      "ဢွင်ႇမ": 4165,
      "ဢွၼ်ႇၸၢႆး": 4166,
      "ဢွၼ်ႇယိင်း": 4167,
      "ၽူႈၵွၼ်းၸႄႈဝဵင်း": 4168,
      "ang": 4169,
      "လုင်းၸၢႆးဢၢႆႈ": 4170,
      "ဢိတ်းဢွတ်း": 4171,
      "တီႈႁူင်းပလိၵ်ႈ": 4172,
      "ၶူၼ်ႉၶႂ": 4173,
      "ပဵၼ်ပွၵ်ႈၵမ်းႁႅၵ်ႈ": 4174,
      "ၸၢတ်ႈၸိုင်ႈလုမ်ႈၾႃႉ": 4175,
      "ng": 4176,
      "ဝၼ်ႇ": 4177,
      "ၵူၼ်းတင်းၼမ်": 4178,
      "လူမ်": 4179,
      "တေပၼ်": 4180,
      "တူမ်ႈ": 4181,
      "မီးတီႈ": 4182,
      "တၢင်းၵၢၼ်": 4183,
      "ဝၼ်းတူၵ်း": 4184,
      "ဝဵင်းၼမ်ႉလၼ်ႈ": 4185,
      "ၵၢၼ်ၽွမ်ႉႁူမ်ႈ": 4186,
      "ၸၢႆးလႅင်း": 4187,
      "ၸၢႆးၸၢမ်ႇ": 4188,
      "ဢဝ်ၵွင်ႈ": 4189,
      "သွႆး": 4190,
      "တုၺ်ႈ": 4191,
      "သင်ၶႃႈ": 4192,
      "မူတ်းသႂ်": 4193,
      "လၢပ်ႈ": 4194,
      "ႁုၵ်ႉ": 4195,
      "ၵႃႇလ": 4196,
      "ႁၢမ်ႈႁႄႉ": 4197,
      "ႁၢမ်းငၢႆး": 4198,
      "တၢင်းၾင်ႇမိူင်းၶႄႇ": 4199,
      "ႁဵတ်းသင်လႄႈ": 4200,
      "လိူၼ်မၢတ်ႊၶျ်": 4201,
      "Tai": 4202,
      "book": 4203,
      "ယၼ်ႇ": 4204,
      "ရွ": 4205,
      "ဝတီႇ": 4206,
      "ၸင်း": 4207,
      "လႆႈတီႈၼင်ႈ": 4208,
      "ပဵၼ်ယွၼ်ႉ": 4209,
      "ယူႇလႄႈ": 4210,
      "ႁဵတ်းႁၢႆႉ": 4211,
      "ဝၢၼ်ႈမႂ်ႇ": 4212,
      "ဝၢၼ်ႈၵုင်း": 4213,
      "ၸႄႈဝဵင်းတၢင်ႉယၢၼ်း": 4214,
      "ၸၢႆးသၢမ်": 4215,
      "သင်သေ": 4216,
      "ၶႅၼ်ႈ": 4217,
      "ၼႄတူဝ်": 4218,
      "သိုၵ်းမၢၼ်ႈတင်း": 4219,
      "ၶၢဝ်ႇဝႃႈ": 4220,
      "ႁပ်ႉပုၼ်ႈၽွၼ်း": 4221,
      "လၢဝ်ႇ": 4222,
      "ဢုပ်ႇဢူဝ်းၵၢၼ်မိူင်း": 4223,
      "ၼပ်ႉယမ်": 4224,
      "ၼႂ်းမိူင်းမၢၼ်ႈ": 4225,
      "ၾၢႆႇၼိုင်ႈတၢင်းၼိုင်ႈ": 4226,
      "ၶုတ်းၶမ်း": 4227,
      "ပေႃႈမႄႈပီႈၼွင်ႉ": 4228,
      "ပရႃႊ": 4229,
      "သွၼ်ႈဝႆႉတီႈဝတ်ႉ": 4230,
      "acebook": 4231,
      "71": 4232,
      "Facebook": 4233,
      "TNP": 4234,
      "မႃ": 4235,
      "ၵၢၼ်း": 4236,
      "လႆႈႁဵတ်း": 4237,
      "ၼႂ်းဝူင်ႈ": 4238,
      "ၵေႃႉထူၼ်ႈ": 4239,
      "ၸိုင်ႈမၢၼ်ႈ": 4240,
      "ဝႆႉတႄႉ": 4241,
      "ႁူဝ်ၼႃး": 4242,
      "ႁႂ်ႈၶဝ်": 4243,
      "ၸွမ်းလႅၼ်လိၼ်တႆး": 4244,
      "လွႆး": 4245,
      "လႅင်ႉ": 4246,
      "ၼႃႈသိုၵ်း": 4247,
      "ထတ်းတူၺ်း": 4248,
      "မူင်းၼႆႉ": 4249,
      "ၵေႃႉၼိုင်ႈလႄႈ": 4250,
      "211": 4251,
      "ၶွင်ႊသီႊ": 4252,
      "ယူႊ": 4253,
      "ႁွင်ႉၵႂႃႇ": 4254,
      "လူဝ်ႇတၢင်းၸွႆႈထႅမ်": 4255,
      "ႁၢႆၵႂႃႇ": 4256,
      "သၢမ်ၸဵင်ႇ": 4257,
      "ၽွမ်ႉၵၼ်": 4258,
      "တုၵ်းယွၼ်းထိုင်": 4259,
      "တေႃႉသၢင်ႇ": 4260,
      "ၵမ်ႈၽွင်ႈၵေႃႈ": 4261,
      "မုၼ်ယႂ်ႇ": 4262,
      "ထွၼ်ဢွၵ်ႇ": 4263,
      "ome": 4264,
      "ၽႅၼ်ႇလိၼ်ဝႆ": 4265,
      "ထိုဝ်": 4266,
      "Myanmar": 4267,
      "သႅပ်ႊထႅမ်ႊ": 4268,
      "ရတ်ႉ": 4269,
      "ႁူတ်း": 4270,
      "ႁဵဝ်ႈ": 4271,
      "လွင်ႈတေ": 4272,
      "ၸုမ်းတူင်ႇဝူင်းၵူၼ်း": 4273,
      "ၼမ်ႉႁူး": 4274,
      "ပေႃးၼႆ": 4275,
      "ၵူၺ်းလႄႈ": 4276,
      "ယူႇတီႈႁွင်ႈၵၢၼ်ပၢႆးယူႇလီ": 4277,
      "ၵႅပ်ႈ": 4278,
      "ၵူတ်ႇထတ်းတၢင်းပဵၼ်": 4279,
      "ဢမ်ႇမီးဝႂ်": 4280,
      "ၵိုတ်းထႅင်ႈ": 4281,
      "ၶမ်ႈဝႃး": 4282,
      "ပွႆႇပၼ်ၶိုၼ်း": 4283,
      "ၸုၵျီႇ": 4284,
      "သဵၼ်ႈတၢင်းလူင်": 4285,
      "သျိူဝ်ႊ": 4286,
      "ၼၢင်းယိင်းတႆး": 4287,
      "မၼ်ႈၵိုမ်း": 4288,
      "ၼေႃႇၽူႈတႅၼ်းသၽႃး": 4289,
      "ပဵၼ်ဢၼ်လီ": 4290,
      "တၢင်းပွတ်းတွၼ်ႈ": 4291,
      "မူင်းၶိုင်ႈၼၼ်ႉ": 4292,
      "ဢုပ်ႇၵုမ်ၵၼ်": 4293,
      "outh": 4294,
      "ႁႅၼ်းသိုၵ်းလေႃႇတိုၵ်း": 4295,
      "ယၢတ်ႇၼမ်ႉ": 4296,
      "PNL": 4297,
      "ra": 4298,
      "မၢႆး": 4299,
      "လႃႊ": 4300,
      "လႄႇ": 4301,
      "သႃႊ": 4302,
      "လႆႈယဝ်ႉ": 4303,
      "သေပိူၼ်ႈ": 4304,
      "လွင်ႈဢၼ်": 4305,
      "ၸုမ်းယိပ်းၵွင်ႈ": 4306,
      "မၼ်းတလေး": 4307,
      "ၶွပ်ႇ": 4308,
      "လွၼ်ႇ": 4309,
      "လၢႆၵမ်း": 4310,
      "တပ်ႉသိုၵ်းတႆး": 4311,
      "ၼႃးပၢင်ႇ": 4312,
      "တဵဝ်း": 4313,
      "ၵွပ်ႈဝႃႈ": 4314,
      "ၶိူင်ႈၸၢၵ်ႈ": 4315,
      "တီႈဝဵင်းလႃႈသဵဝ်ႈ": 4316,
      "ၸွမ်းၼင်ႇပၵ်းပိူင်မၢႆမီႈ": 4317,
      "တႄႉတႄႉဝႃႈဝႃႈ": 4318,
      "ႁင်းၽႂ်မၼ်း": 4319,
      "လူမ်းမႆႈ": 4320,
      "တၵ်းတေလႆႈ": 4321,
      "ၶေႉၶဵင်ႇ": 4322,
      "ၼဵင်ႈ": 4323,
      "ငိုၼ်းၵွင်ၵၢင်": 4324,
      "ၶူၼ်ႉၶႂႃႉ": 4325,
      "PNLO": 4326,
      "တီႈတၢင်း": 4327,
      "မိူင်းငေႃႉ": 4328,
      "ၼႂ်းၸႄႈတွၼ်ႈ": 4329,
      "မီးၸႂ်": 4330,
      "ၵႂၼ်း": 4331,
      "ယူႇဝႆႉတီႈ": 4332,
      "ယဝ်ႉၵႂႃႇ": 4333,
      "ပၢင်တေႃႇလွင်း": 4334,
      "လွင်ႈၵိၼ်ယႅမ်ႉ": 4335,
      "ဝႆႉၸူဝ်ႈၶၢဝ်း": 4336,
      "ၾၢႆႇပလိၵ်ႈ": 4337,
      "ဢဝ်လၢႆး": 4338,
      "ယူႇတီႈပႃႇတီႇ": 4339,
      "သၢၵ်ႈ": 4340,
      "မူတ်းမူတ်း": 4341,
      "ပုၼ်း": 4342,
      "ၶိုၼ်ႈႁွတ်ႈ": 4343,
      "ၶႂ်ႈပဵၼ်": 4344,
      "ၵေႃတႆး": 4345,
      "ပၵ်းတႃ": 4346,
      "မၢတ်ႇၸဵပ်းႁၢဝ်ႈႁႅင်း": 4347,
      "ၼင်ႇႁိုဝ်တေ": 4348,
      "ပွင်ႇလႅင်း": 4349,
      "ပွၵ်ႈၵမ်းၼႆႉ": 4350,
      "ဢိင်ၼိူဝ်လွင်ႈ": 4351,
      "တီႈႁူင်းယႃလူင်": 4352,
      "တူၵ်းလူင်းၵၼ်": 4353,
      "ၸႅၵ်ႇပၼ်": 4354,
      "ယႃႈၾိၼ်ႇၽိူၵ်ႇ": 4355,
      "44": 4356,
      "Un": 4357,
      "ကြ": 4358,
      "ည်": 4359,
      "ပလွင်ႈ": 4360,
      "ၽေႃႇ": 4361,
      "ၼႆၶႃႈဢေႃႈ": 4362,
      "ပဵၼ်မၢၵ်ႇ": 4363,
      "ဢမ်ႇမႃး": 4364,
      "ၵေႃႉပၢႆ": 4365,
      "ၸုမ်းၼၼ်ႉ": 4366,
      "ၸဝ်ႈၼိုင်ႈ": 4367,
      "ၵူၼ်းမိူင်းလႆႈ": 4368,
      "လၢႆၵေႃႉ": 4369,
      "ပႃးဝႆႉဝႃႈ": 4370,
      "တိူင်ႇ": 4371,
      "ၵမ်မထၢၼ်း": 4372,
      "ၵၢဝ်ႇ": 4373,
      "လုၵ်ႉႁိုၼ်ႇ": 4374,
      "ၸႅတ်ႈ": 4375,
      "သၢင်ႇလွင်း": 4376,
      "ၸိုင်ႈမိူင်းမႃး": 4377,
      "ၶႂႃ": 4378,
      "တုမ်ႉယွၼ်ႈ": 4379,
      "ပႃႈတႂ်ႈ": 4380,
      "သီရိ": 4381,
      "ၵႃယၢင်း": 4382,
      "လႆႈဢွၼ်ၵၼ်ပၢႆႈ": 4383,
      "ၽိူမ်ႉထႅမ်": 4384,
      "တီႈၸမ်ၵႆ": 4385,
      "ၵ့်": 4386,
      "လၢဝ်ႇၵၢႆး": 4387,
      "59": 4388,
      "79": 4389,
      "ကျ": 4390,
      "မႁႃႇ": 4391,
      "သ်ႉ": 4392,
      "မိူင်းၶၢၵ်ႇ": 4393,
      "ၵူၼ်းၸၢႆး": 4394,
      "ႁူင်": 4395,
      "လႆႈၶႂၢင်ႉ": 4396,
      "မီးၸုမ်းယိပ်းၵွင်ႈၵၢင်ႇ": 4397,
      "မီးယိူင်းဢၢၼ်း": 4398,
      "ၶႃႈတၢႆ": 4399,
      "ၵႂႃႇၶဝ်ႈႁူမ်ႈ": 4400,
      "ၵူၼ်းမိူင်းၼႆႉ": 4401,
      "ပိုၼ့်": 4402,
      "ပၼ်ၶဝ်": 4403,
      "ၶဝ်ႈၼႂ်း": 4404,
      "ႁႅင်းၵူၼ်း": 4405,
      "သင်မႃး": 4406,
      "လၢႆလွင်ႈ": 4407,
      "လုၵ်ႈၼွင်ႉ": 4408,
      "ၵဵင်": 4409,
      "ၵူၼ်းဝၢၼ်ႈၼႃး": 4410,
      "တၢင်ႇလၢတ်ႈ": 4411,
      "လၢႆလၢႆၸုမ်း": 4412,
      "ဢၼ်မီးတီႈ": 4413,
      "ယၢပ်ႇၽိုတ်ႇတႃႇ": 4414,
      "ၶႂမ်ႈ": 4415,
      "505": 4416,
      "ယႅၵ်ႈ": 4417,
      "ၾႆးမႆႈႁိူၼ်း": 4418,
      "ယွင်ႈယေႃး": 4419,
      "ႁူဝ်ပၢၵ်ႇပီ": 4420,
      "သၢင်းၵျၢၼ်ႇ": 4421,
      "ၵိင်ႇၸႄႈဝဵင်း": 4422,
      "လူင်းႁူင်းယႃယဝ်ႉ": 4423,
      "ယႂၼ်": 4424,
      "ၵေႃပွင်ၵၢၼ်ၽွမ်ႉႁူမ်ႈ": 4425,
      "ပူတ်းပွႆႇၸိူဝ်ႉၸၢတ်ႈ": 4426,
      "ၵၼ်ႇတေႃး": 4427,
      "ၸၢႆးႁိၼ်လဵၵ်း": 4428,
      "89": 4429,
      "တႃး": 4430,
      "တႆႈ": 4431,
      "ၵူၼ်းၼႂ်းပိုၼ်ႉတီႈ": 4432,
      "ၵူၼ်းႁေႃႈ": 4433,
      "လူလွမ်": 4434,
      "တႆးႁွတ်ႈ": 4435,
      "ၸွၵ်ႇ": 4436,
      "မၼ်းၵႂႃႇ": 4437,
      "တႄႉၶႃႈ": 4438,
      "ၸၢႆးဢၢႆႈ": 4439,
      "ၼွမ်း": 4440,
      "ၺႃးၽေး": 4441,
      "ပိုၼ်ႉထၢၼ်": 4442,
      "ဢွၼ်ၵၼ်မႆႈၸႂ်": 4443,
      "သူင်ႇႁူင်းယႃ": 4444,
      "တိုၵ်ႉယူတ်းယႃ": 4445,
      "သဵၼ်ႈသၢႆမၢႆ": 4446,
      "ထွင်": 4447,
      "မႅင်ႇ": 4448,
      "သၢမ်သိပ်း": 4449,
      "ပၢင်ႇသၢႆး": 4450,
      "ထုၼ်းဢူး": 4451,
      "ႁႄႉၵင်ႈတၢင်းပဵၼ်": 4452,
      "ငၢႆႈငၢႆႈ": 4453,
      "တွင်ႈတဵဝ်း": 4454,
      "ၵမ်ႇၽႃႇ": 4455,
      "ational": 4456,
      "ၻီႊသႅမ်ႊၿိူဝ်ႊ": 4457,
      "TV": 4458,
      "လပ်း": 4459,
      "ၵူၼ်းသူၼ်": 4460,
      "လႆႈလူႉသဵင်ႈ": 4461,
      "ၼၼ်ႉၼႃႇ": 4462,
      "ၼႂ်းၸိုင်ႈတႆးပွတ်းၸၢၼ်း": 4463,
      "ၵေႃႈတေ": 4464,
      "ဝဵင်းလၢင်းၶိူဝ်း": 4465,
      "လူင်ၼႆႉ": 4466,
      "ၸွပ်ႇ": 4467,
      "ပၢင်ၸႃႉ": 4468,
      "ၸုမ်းဝႃႉ": 4469,
      "ပီယဝ်ႉ": 4470,
      "ပီၵၢႆ": 4471,
      "ႁူမ်ႈပႃး": 4472,
      "တႄႉဝႃႈ": 4473,
      "လင်ၶႃး": 4474,
      "ႁွင်ႉၽဵင်းၵႂၢမ်း": 4475,
      "တူၼ်ၼိုင်ႈ": 4476,
      "မွၵ်ႇၸၢမ်": 4477,
      "ပၢၼ်လူင်ပွင်ၸိုင်ႈ": 4478,
      "ၶႅၼ်းတေႃႈ": 4479,
      "ဝႅပ်ႊ": 4480,
      "ထွၼ်တူဝ်": 4481,
      "တေႃႇဢွင်ႇသၢၼ်းသူႉၵျီႇ": 4482,
      "ၶူဝ်ႊဝိတ်ႊ": 4483,
      "ၵဝ်ႉငဝ်ႈသုၼ်ႇလႆႈၵူၼ်းၸိုင်ႈတႆး": 4484,
      "ၾွမ်ႊ": 4485,
      "iti": 4486,
      "ပဵၼ်ၽူႈၸၢႆး": 4487,
      "ဢၼ်ပိုတ်ႇ": 4488,
      "ၼိုင်ႈလိူၼ်": 4489,
      "သူမ်ႈ": 4490,
      "သမ်ႉမႃး": 4491,
      "ၸဵတ်း": 4492,
      "လၢႆလၢႆၸႄႈဝဵင်း": 4493,
      "မၼ်းၸၢႆးၼႆႉ": 4494,
      "လၢမ်းမႆႈ": 4495,
      "ပၢင်ပွႆးပီမႂ်ႇတႆး": 4496,
      "ယုၵ်ႉလိူၵ်ႈ": 4497,
      "ၶိုပ်ႈ": 4498,
      "ၸႅင်ႈၵႂၢမ်း": 4499,
      "ၸဵင်ႇႁွင်ႇ": 4500,
      "တီႈႁူင်းႁေႃ": 4501,
      "မၢၵ်ႇလူင်တူၵ်းသႂ်ႇ": 4502,
      "ၸဝ်ႈသၢင်ႇဢွၼ်ႇ": 4503,
      "ပဵၵ်ႉ": 4504,
      "ၽိတ်းမေႃးၵၼ်": 4505,
      "သုၼ်ႇလႆႈသုၼ်ႇပဵၼ်": 4506,
      "ၼႂ်းလိၵ်ႈပိုၼ်ၽၢဝ်ႇၼၼ်ႉ": 4507,
      "43": 4508,
      "69": 4509,
      "ၵူၼ်းမီး": 4510,
      "ၵူၼ်းၸူၼ်": 4511,
      "မႃးတၢင်း": 4512,
      "ဢၼ်ဢွၵ်ႇ": 4513,
      "မီးထႅင်ႈ": 4514,
      "ၵၼ်ၶႃႈဢေႃႈ": 4515,
      "ႁွၼ်ႈ": 4516,
      "ၶဝ်ႈၸႂ်": 4517,
      "ဢဝ်ငိုၼ်း": 4518,
      "ႁႂ်ႈမီးလွင်ႈ": 4519,
      "လီႉ": 4520,
      "တေႃႇၼႃႈ": 4521,
      "ဢူဝ်ႊ": 4522,
      "လိူၼ်သီႇ": 4523,
      "တၢင်ႇလိၵ်ႈ": 4524,
      "တိုၵ်ႉပဵၼ်": 4525,
      "တိုၵ်ႉၵူတ်ႇထတ်း": 4526,
      "ႁွင်ႈၵၢၼ်ၶၢဝ်ႇ": 4527,
      "ၼႄၵၢင်ၸႂ်သၢၼ်ၶတ်း": 4528,
      "လၵ်းထၢၼ်": 4529,
      "ပဵင်းလူင်": 4530,
      "တီႊမူဝ်ႊၶရေႊသီႊ": 4531,
      "ပၢင်သဝ်းၵူၼ်းပၢႆႈၽေး": 4532,
      "ယုမ်ႇယမ်ဝႃႈ": 4533,
      "ၸုမ်းတူင်ႉၼိုင်တူင်ႇဝူင်းၵူၼ်း": 4534,
      "ဢႆႊ": 4535,
      "လၢတ်ႈတီႈၽူႈတွႆႇႁွၵ်ႈၼင်ႇၼႆ": 4536,
      "ၼၢၼ်း": 4537,
      "ႁႄႈ": 4538,
      "မိူင်းၽျၢၵ်ႈ": 4539,
      "ႁူၺ်း": 4540,
      "ပဵၼ်ၵႂႃႇ": 4541,
      "ၼၼ်ႉယူႇ": 4542,
      "ၼႂ်းႁိူၼ်းယေး": 4543,
      "ဢၼ်ၵိုတ်း": 4544,
      "တႆးလႄႈ": 4545,
      "ၵေႃႈပိူင်ၼိုင်ႈ": 4546,
      "ႁဵတ်းလွင်ႈ": 4547,
      "ဝၢၼ်ႈၸၢမ်": 4548,
      "မၼ်းသမ်ႉ": 4549,
      "ၾၢႆႇတၢင်း": 4550,
      "ၸႂ်ယဵၼ်": 4551,
      "လွၵ်ႉ": 4552,
      "ထူၺ်ႈ": 4553,
      "မၢၵ်ႇမႆႉ": 4554,
      "ဢိူင်ႇၼွင်": 4555,
      "သိုပ်ႇလၢတ်ႈၼႄ": 4556,
      "ဢွၼ်ၵၼ်ပွၵ်ႈၶိုၼ်း": 4557,
      "ၸၼ်ႉငဝ်ႈ": 4558,
      "ၸင်ႇမႃး": 4559,
      "ယူင်ႉ": 4560,
      "လူႉတၢႆၵႂႃႇ": 4561,
      "လူႉတၢႆတႄႉ": 4562,
      "တေႃႈလဵဝ်တႄႉ": 4563,
      "လႅၼ်လိၼ်ထႆး": 4564,
      "တီႈဝဵင်းလူင်": 4565,
      "တႅမ်ႈဝႆႉဝႃႈ": 4566,
      "ၽွမ်ႉႁူမ်ႈၵၼ်": 4567,
      "မိူဝ်ႈပီၵၢႆ": 4568,
      "တီႉလႆႈယႃႈမဝ်းၵမ်": 4569,
      "ဢွင်ႇပေႉပၢင်လိူၵ်ႈတင်ႈ": 4570,
      "လွမ်ႉႁူဝ်ႉ": 4571,
      "News": 4572,
      "ၽူႈၶဝ်ႈၸုမ်း": 4573,
      "ဢီႇၼၢႆး": 4574,
      "ဢွၵ်ႊထူဝ်ႊၿိူဝ်ႊ": 4575,
      "သျွတ်ႉ": 4576,
      "လုင်းၸၢႆးဢၢႆႈပဝ်း": 4577,
      "ၵေႃပွင်ၵၢၼ်ၽွမ်ႉႁူမ်ႈၸိုင်ႈတႆး": 4578,
      "ၶိုပ်ႈၼႃႈ": 4579,
      "ig": 4580,
      "ထၢတ်ႇ": 4581,
      "ထိူဝ်ႊ": 4582,
      "ပၢ": 4583,
      "ဝု": 4584,
      "ၼႂ်းႁွင်ႈ": 4585,
      "မီးတင်းၼမ်": 4586,
      "ယဝ်ႉဝႃႈၼႆ": 4587,
      "ၽူႈတၢင်တူဝ်": 4588,
      "ၸွတ်ႇ": 4589,
      "မၼ်းတိုၼ်း": 4590,
      "ပၼ်တီႈ": 4591,
      "ၼမ်ႉမႃႉ": 4592,
      "ဢွၵ်ႇၶေႃႈ": 4593,
      "လၢႆးႁဵတ်း": 4594,
      "ပူႊ": 4595,
      "ထူဝ်ႈ": 4596,
      "ပႃးဝႃႈ": 4597,
      "ၺႃးၸၢၵ်ႇ": 4598,
      "ဢုၼ်ႇ": 4599,
      "ၵဵင်းမႂ်ႇ": 4600,
      "လိူဝ်ပိူၼ်ႈ": 4601,
      "ၸတ်းႁဵတ်းပွႆး": 4602,
      "ႁူဝ်ပၢင်ႇ": 4603,
      "ၵေႃႇၵၢၼ်": 4604,
      "သုတ်းမုၼ်": 4605,
      "ယဵတ်ႈ": 4606,
      "ၶႆႈၼႄ": 4607,
      "လႆႈႁူႉၸွမ်း": 4608,
      "ယိုၼ်ႈလိၵ်ႈ": 4609,
      "သူႇၸႂ်း": 4610,
      "ၶႅၵ်ႇလီ": 4611,
      "ၽတ်ႉပဝ်ႇ": 4612,
      "ၸၢႆးၼုမ်ႇတုၺ်ႈ": 4613,
      "လူၼ်ႉၾင်ႇ": 4614,
      "ၽူဝ်းတေႃႇ": 4615,
      "54": 4616,
      "UP": 4617,
      "at": 4618,
      "မိူင်းလၢဝ်း": 4619,
      "ၵူၼ်းၶၢႆ": 4620,
      "လႆႈတီႈ": 4621,
      "ဢၼ်လီ": 4622,
      "ဢၼ်ယူႇတီႈ": 4623,
      "ယူႇသေတႃႉ": 4624,
      "ဝၼ်းမႃးၼႆႉ": 4625,
      "ၵၢၼ်ငမ်းယဵၼ်": 4626,
      "ဝႆႉၸိူဝ်းၼၼ်ႉ": 4627,
      "တွၵ်ႊတိူဝ်ႊ": 4628,
      "ပီၼၼ်ႉ": 4629,
      "ပၢႆၼၼ်ႉ": 4630,
      "ၸၢႆးၶိူဝ်း": 4631,
      "ၸွမ်းပိူင်": 4632,
      "ၵုသူ": 4633,
      "ပႃႇပဝ်ႈ": 4634,
      "ပွၵ်ႈၼိုင်ႈ": 4635,
      "မၢၵ်ႇႁိၼ်": 4636,
      "ၽွင်းတႅၼ်း": 4637,
      "ၶိုၼ်ႈလွႆ": 4638,
      "ပိူင်ယႂ်ႇ": 4639,
      "သႅၼ်ႊ": 4640,
      "ၶုၵ်း": 4641,
      "ၼွၵ်ႈၼႃးပၢင်ႇ": 4642,
      "လၢႆလၢႆၵေႃႉ": 4643,
      "ဢၼ်လႆႈႁပ်ႉ": 4644,
      "ပျီႇတုၸိတ်ႉ": 4645,
      "ပီႈၼွင်ႉတႆးႁဝ်း": 4646,
      "လွၵ်းပိူင်": 4647,
      "လႆႈလူႉတၢႆၵႂႃႇ": 4648,
      "ယေႃးတူဝ်": 4649,
      "ောင်": 4650,
      "ပႃႉၺၢၼ်ႇ": 4651,
      "MC": 4652,
      "မေႇ": 4653,
      "ႁၵ်း": 4654,
      "ဝ့်": 4655,
      "ပဵၼ်ၸုမ်းလႂ်": 4656,
      "တၢင်းဢွၵ်ႇ": 4657,
      "ဝဵင်းၶူဝ်လမ်": 4658,
      "ၽူႈၸတ်းၵၢၼ်": 4659,
      "ယၢင်ႈ": 4660,
      "ၵူၼ်းမိူင်းၸိူဝ်း": 4661,
      "ၾၢႆႇတူၵ်း": 4662,
      "ဢွၵ်ႇၸိုဝ်ႈ": 4663,
      "ၽွင်": 4664,
      "ၸွမ်းဝၢၼ်ႈ": 4665,
      "တူဝ်ၸဝ်ႈၵဝ်ႇ": 4666,
      "ၵုတ်း": 4667,
      "ပုမ်": 4668,
      "သိုပ်ႇလၢတ်ႈထႅင်ႈဝႃႈ": 4669,
      "ၼွၵ်ႈသေ": 4670,
      "ၵႄႈၶႆ": 4671,
      "ရိယ": 4672,
      "တေပဵၼ်မႃး": 4673,
      "ၼႃႈလိၼ်ၶိုၵ်ႉတွၼ်းမၢႆ": 4674,
      "ၶၢမ်ႈမိူင်း": 4675,
      "ၸဵင်ႇၸၢၼ်း": 4676,
      "ၼႂ်းၸႄႈဝဵင်းမိူင်းၵိုင်": 4677,
      "တူင်ႈၼႃး": 4678,
      "မိူင်းယၢင်းလႅင်": 4679,
      "ၵုင်ႇမုၼ်": 4680,
      "ၼၼ်ႉၶႃႈၼႃႇ": 4681,
      "ၶွင်ႉၶမ်": 4682,
      "le": 4683,
      "တရႄႊ": 4684,
      "ၵၢင်း": 4685,
      "ၵူင်း": 4686,
      "တီႈၵူၼ်း": 4687,
      "တီႈၼမ်ႉတူႈ": 4688,
      "တၢင်းၼိူဝ်": 4689,
      "မၼ်းဢမ်ႇမီး": 4690,
      "ၶဝ်ႈၸူး": 4691,
      "ၸၢႆးငိုၼ်း": 4692,
      "ၸွမ်းတူဝ်": 4693,
      "ၼႄၼင်ႇၼႆ": 4694,
      "မၢႆၾူၼ်း": 4695,
      "ၸိူင်ႉၼင်ႇ": 4696,
      "ၸွမ်ၸိၵ်း": 4697,
      "ၵျွင်းမုၼ်ၸဝ်ႈ": 4698,
      "တၢင်ႈ": 4699,
      "ၽၵ်းတူမိူင်း": 4700,
      "ႁၢင်ပီ": 4701,
      "မျႃႉဝတီႇ": 4702,
      "ႁုၵ်ႉႁၢႆႉ": 4703,
      "ၶႅၵ်ႇလီပၢင်ၸႃႉ": 4704,
      "ld": 4705,
      "ယၵ": 4706,
      "ဢၢပ်ႈ": 4707,
      "ၼၼ်ႇ": 4708,
      "ၵူၼ်းႁဵတ်း": 4709,
      "ၵူၼ်းၵႃႉၶၢႆ": 4710,
      "မႃးဝႃႈ": 4711,
      "ၵၼ်ၵေႃႈ": 4712,
      "ၵႂၢတ်ႇ": 4713,
      "ဝၼ်းၼိုင်ႈ": 4714,
      "ၵေႃႈလၢတ်ႈဝႃႈ": 4715,
      "လွင်ႈၵိၼ်": 4716,
      "ၵူၼ်းမိူင်းၶႄႇ": 4717,
      "ႁူမ်ႈႁွမ်း": 4718,
      "ႁႂ်ႈမီး": 4719,
      "ႁၢမ်": 4720,
      "သိုၵ်းမၢၼ်ႈယိုတ်းဢႃႇၼႃႇ": 4721,
      "ယွၼ်ႉငဝ်းလၢႆး": 4722,
      "2010": 4723,
      "ယိင်ႈ": 4724,
      "ပႆႇယဵၼ်": 4725,
      "သၢင်ႈလွင်ႈ": 4726,
      "တင်းမူတ်းတင်းသဵင်ႈ": 4727,
      "ပိင်": 4728,
      "ယိူဝ်ႈ": 4729,
      "ၽူႈၵွၼ်းၸႄႈတွၼ်ႈ": 4730,
      "လုင်းၸၢႆးလူင်": 4731,
      "ႁၢင်ႈႁႅၼ်းဝႆႉ": 4732,
      "ႁတ်းႁၢၼ်": 4733,
      "တပ်ႉမတေႃႇမၢၼ်ႈ": 4734,
      "ၶွမ်ႊမသျိၼ်ႊၵၢၼ်လိူၵ်ႈတင်ႈ": 4735,
      "မုၵ်ႉၸုမ်းလူင်": 4736,
      "ၸိုဝ်ႈသဵင်ယႂ်ႇ": 4737,
      "ၸၢႆးထုၼ်းဝိၼ်း": 4738,
      "ၶၢႆးႁဵဝ်း": 4739,
      "ၶဵင်ႈၶႅင်ၵၢၼ်သိုၵ်းတေႃႇၵၼ်": 4740,
      "သုၼ်ႇလႆႈသုၼ်ႇပဵၼ်ၵူၼ်း": 4741,
      "ယၢၼ်ႁိူၼ်းယေးတီႈယူႇ": 4742,
      "State": 4743,
      "သူႇသမ်းၵိၼ်": 4744,
      "85": 4745,
      "ပီး": 4746,
      "ဝၢတ်ႈ": 4747,
      "သၵ်း": 4748,
      "ဢမူႉ": 4749,
      "ၾရ": 4750,
      "ၢႆႉ": 4751,
      "ၵူၵ်း": 4752,
      "မိူင်းၶၢင်": 4753,
      "မိူင်းရၶႅင်ႇ": 4754,
      "တေဢွၼ်ၵၼ်": 4755,
      "လႆႈငိုၼ်း": 4756,
      "ပဵၼ်သိုၵ်း": 4757,
      "ပဵၼ်ၶူဝ်ႊဝိတ်ႉ": 4758,
      "ယဝ်ႉၼၼ်ႉ": 4759,
      "ပၢင်ဢုပ်ႇၶႆႈ": 4760,
      "မိူဝ်ႈတႄႇ": 4761,
      "ပၼ်ႊ": 4762,
      "ၶဝ်ၸိူဝ်းၼႆႉ": 4763,
      "ၸၢႆးမွင်ႇ": 4764,
      "ပေႃးတူၺ်း": 4765,
      "သုမ်ႇ": 4766,
      "ပႆႇႁတ်း": 4767,
      "ႁႃၵၼ်": 4768,
      "မူင်းဝၢႆးဝၼ်း": 4769,
      "ပၢႆးဝူၼ်ႉ": 4770,
      "ပလိၵ်ႈၶဝ်": 4771,
      "ပလိၵ်ႈသိုၵ်းမၢၼ်ႈ": 4772,
      "သူင်ႇၵႂႃႇ": 4773,
      "လႅင်းသႂ်": 4774,
      "တႅၵ်ႇလႅင်း": 4775,
      "ႁူဝ်ပဝ်ႈပႃႇတီႇႁူဝ်သိူဝ်": 4776,
      "ပႂ်ႉပႃး": 4777,
      "ၶႅပ်းႁၢင်ႈ": 4778,
      "ၽွင်ႈၶႃႈ": 4779,
      "ၼိမ်း": 4780,
      "ၵိုတ်းတိုၵ်းတူဝ်ႈမိူင်း": 4781,
      "ၵူၼ်းတိတ်းၸပ်းၸိူဝ်ႉမႅင်း": 4782,
      "သွၵ်ႈႁႃ": 4783,
      "ၶိုတ်းတၼ်း": 4784,
      "ၵုမ်ႇထူၼ်ႈ": 4785,
      "ၸဝ်ႈၶူးမေႃလိၵ်ႈတႆး": 4786,
      "သပ်းၸႅင်ႈၶၢဝ်ႇ": 4787,
      "ဢႆႊသ်": 4788,
      "BC": 4789,
      "မၢတ်ႈ": 4790,
      "ၽၢၼ်ႇ": 4791,
      "တီႈႁူဝ်": 4792,
      "တီႈတႄႉမၼ်း": 4793,
      "ၵေႇ": 4794,
      "ပဵၼ်ၶွင်": 4795,
      "မီးၽူႈ": 4796,
      "ၵၢၼ်ပၢႆးမၢၵ်ႈမီး": 4797,
      "မူၺ်ႇ": 4798,
      "ၼမ်ႉတႃ": 4799,
      "ႁႂ်ႈၵူၼ်းၼုမ်ႇ": 4800,
      "ၵၢင်လိူၼ်": 4801,
      "ပေႃးၶဝ်": 4802,
      "တႅဝ်း": 4803,
      "ၼႃႈၼႆႉ": 4804,
      "ထႅင်ႈသေ": 4805,
      "တၢႆၵႂႃႇ": 4806,
      "ၼႄႉ": 4807,
      "ၼႄၾၢင်ႁၢင်ႈ": 4808,
      "လၢတ်ႈတီႈသိုဝ်ႇၶၢဝ်ႇ": 4809,
      "ထတ်းထွင်": 4810,
      "တပ်ႉသိုၵ်းဝႃႉ": 4811,
      "မုၵ်ႈ": 4812,
      "တူၼ်ႈၵႅင်း": 4813,
      "ဝၢႆးမႃး": 4814,
      "ႁူပ်ႉတၢင်းယၢပ်ႇ": 4815,
      "ယူပ်ႈ": 4816,
      "လုမ်းၽွင်းတၢင်": 4817,
      "ႁွင်ႉၵႂၢမ်း": 4818,
      "ၸဝ်ႈၼႃႈတီႈပလိၵ်ႈထႆး": 4819,
      "ပၼ်ႇရူတ်ႉထိပ်ႇ": 4820,
      "ပေႉၵိၼ်": 4821,
      "မႅၼ်ႈငိုၼ်း": 4822,
      "လႅပ်ႈတေ": 4823,
      "လႆႈႁပ်ႉသူး": 4824,
      "ၵႃလိ": 4825,
      "တ့်": 4826,
      "မွပ်ႈယိုၼ်ႈပၼ်": 4827,
      "ၸေႇတၼႃႇ": 4828,
      "ၵွၵ်းႁူဝ်": 4829,
      "လွႆၵေႃႇဝၼ်း": 4830,
      "74": 4831,
      "op": 4832,
      "por": 4833,
      "တဝ်း": 4834,
      "တႆႇ": 4835,
      "မြ": 4836,
      "သၼႃႇ": 4837,
      "ၻီး": 4838,
      "တီႈပၢင်ၵုမ်": 4839,
      "တီႈငဝ်ႈငုၼ်း": 4840,
      "ၵူၼ်းထႆး": 4841,
      "လႆႈပၼ်": 4842,
      "ၼႂ်းၸေႈဝဵင်း": 4843,
      "တူဝ်း": 4844,
      "မီးၸုမ်း": 4845,
      "သိုၵ်းယိုတ်းဢႃႇၼႃႇ": 4846,
      "ၵေႃႉလဵဝ်": 4847,
      "ၵၢၼ်သွၼ်": 4848,
      "လွင်ႈတုမ်ႉတိူဝ်ႉ": 4849,
      "ၶူင်ႇ": 4850,
      "ယၢၵ်း": 4851,
      "ၼမ်ႉလုပ်ႇ": 4852,
      "ၾၢႆႇၸွႆႈထႅမ်": 4853,
      "ၾၢႆႇလဵၼ်ႈႁႅင်း": 4854,
      "ဢွၵ်ႇတၢင်း": 4855,
      "ၽၢၵ်ႇ": 4856,
      "ၵေႃႉၼိုင်ႈလၢတ်ႈ": 4857,
      "သိုပ်ႇလၢတ်ႈ": 4858,
      "ၶႂ်ႈႁဵတ်း": 4859,
      "သင်ႇၶ": 4860,
      "ယႃႇႁႂ်ႈလႆႈ": 4861,
      "ႁူပ်ႉထူပ်းဢုပ်ႇဢူဝ်းၵၼ်": 4862,
      "ပၢင်သွၼ်လိၵ်ႈတႆး": 4863,
      "ၺႃးမၢၵ်ႇၵွင်ႈ": 4864,
      "ထွၼ်တူဝ်ဢွၵ်ႇ": 4865,
      "ၵေႃႇၵၢၼ်ႁၢႆႉ": 4866,
      "Re": 4867,
      "ချ": 4868,
      "ပိတ်ႉ": 4869,
      "ယၢႆႈ": 4870,
      "ၶၢင်း": 4871,
      "ႆႊ": 4872,
      "မိူင်းပဵင်း": 4873,
      "ဝႃႈတေ": 4874,
      "ပဵၼ်တၢင်းပဵၼ်": 4875,
      "မႃးၶဝ်ႈ": 4876,
      "ၸိုင်ႈမိူင်းႁူမ်ႈတုမ်": 4877,
      "ၶူမ်း": 4878,
      "ၸၢမ်း": 4879,
      "ပွင်သၢင်ႈ": 4880,
      "တႅင်ႇ": 4881,
      "ၸွမ်းမၢႆမီႈ": 4882,
      "ၺႃးၵူၼ်း": 4883,
      "ထတ်းႁၼ်": 4884,
      "မူႇၸေႈ": 4885,
      "ဢိၵ်ႇတင်း": 4886,
      "ဢမ်ႇယွမ်းႁပ်ႉ": 4887,
      "ဝႃႇသႃ": 4888,
      "ၽႃသိူဝ်ႇ": 4889,
      "ၽႃၵၢၼ်ႉ": 4890,
      "ၽူႈမီးပုၼ်ႈၽွၼ်းၶဝ်": 4891,
      "လဵၼ်ႈမၢၵ်ႇၼင်": 4892,
      "ၶဝ်ႈၶႅင်ႇၵၼ်": 4893,
      "ယဵပ်ႇၺႃးမၢၵ်ႇမႅင်း": 4894,
      "လၢင်ႉမိုဝ်း": 4895,
      "လိူၼ်မၢတ်ႉၶျ်": 4896,
      "ၶုမ်ၵုတ်း": 4897,
      "ၸၼ်ႇတီႇ": 4898,
      "မုၼ်ယႂ်ႇၶုၼ်ႁေႃၶမ်း": 4899,
      "ပိုၼ့်တီႈ": 4900,
      "UEC": 4901,
      "ad": 4902,
      "ယီႇ": 4903,
      "။”": 4904,
      "ၵလ": 4905,
      "လႆႈလူႉ": 4906,
      "ပဵၼ်ထမ်း": 4907,
      "မႃးယိုဝ်း": 4908,
      "ၸိုင်ႈမိူင်းၶႄႇ": 4909,
      "လိပ်း": 4910,
      "ဝၢၼ်ႈဢိူင်ႇ": 4911,
      "မိူဝ်ႈပၢင်လိူၵ်ႈတင်ႈ": 4912,
      "တင်းလုမ်ႈၾႃႉ": 4913,
      "ၵူၼ်းမိူင်းၼမ်ႉၶမ်း": 4914,
      "ပၼ်တၢမ်ႇ": 4915,
      "ၸၢႆးသိူဝ်": 4916,
      "ၸၢႆးလဵၵ်ႉ": 4917,
      "ႁႅင်းၸႂ်": 4918,
      "ၵူၺ်းၵေႃႈ": 4919,
      "သင်ၵေႃႈ": 4920,
      "ယူႇတီႈၶွမ်ႊမတီႊ": 4921,
      "ၼမ်လႄႈ": 4922,
      "လိူၼ်ယဝ်ႉ": 4923,
      "တင်ႈလၢၼ်ႇ": 4924,
      "2013": 4925,
      "ၽေးသိုၵ်း": 4926,
      "မူင်းထိုင်": 4927,
      "ၵိုတ်းယိုတ်း": 4928,
      "ၽိဝ်ႇ": 4929,
      "ၵူဝ်ပဵၼ်ပၢင်တိုၵ်း": 4930,
      "ပၢင်ပွႆးယုၵ်ႉယွင်ႈ": 4931,
      "ၸဝ်ႈၶူးလူင်": 4932,
      "ထိုင်တီႈလႆႈ": 4933,
      "မေႃယႃၶဝ်": 4934,
      "ယူႇတီႈၸုမ်းၸွႆႈထႅမ်": 4935,
      "ထမ်ႈမိူင်းၵႅတ်ႇ": 4936,
      "တဵၵ်းၸႂ်ႉ": 4937,
      "ဢွၵ်ႊသီႊ": 4938,
      "သိမ်းဢႃႇၼႃႇ": 4939,
      "မူၼ်ႈသိူဝ်း": 4940,
      "ၸဝ်ႈၼႃႈတီႈၾၢႆႇမၢႆမီႈ": 4941,
      "သိူဝ်ႈၶူဝ်း": 4942,
      "ၵိုင်ႇလီ": 4943,
      "ဢုပၢတ်ႈ": 4944,
      "မူၺ်ႇတေႃႇ": 4945,
      "77": 4946,
      "re": 4947,
      "ထဝ်ႇ": 4948,
      "ၸႆး": 4949,
      "ၼိၼ်း": 4950,
      "ဝႃႈတႄႉ": 4951,
      "ၵူၼ်းတႆး": 4952,
      "ၵူၼ်းႁဝ်း": 4953,
      "လူ့": 4954,
      "မႃးၼႆ": 4955,
      "ၵၢၼ်ႇ": 4956,
      "ၵၢၼ်ႁႃၵိၼ်လဵင်ႉတွင်ႉ": 4957,
      "ၸဝ်ႈၼၢင်း": 4958,
      "ၶဝ်လႆႈ": 4959,
      "ၾၢႆႇပၢႆး": 4960,
      "သူဝ်း": 4961,
      "သမ်ႉၶိုၼ်း": 4962,
      "တပ်ႉပလိၵ်ႈ": 4963,
      "လူင်ပွင်ၸိုင်ႈလႄႈ": 4964,
      "ယုင်း": 4965,
      "2014": 4966,
      "တႃႈႁိူဝ်း": 4967,
      "ၸူင်": 4968,
      "ဢမ်ႇမီးယဝ်ႉ": 4969,
      "သၽႃးမိူင်းတႆး": 4970,
      "ပီႈၼွင်ႉႁဝ်းၶႃႈ": 4971,
      "သွၼ်ပၼ်": 4972,
      "ၸႄႈတွၼ်ႈမိူင်းသၢတ်ႇ": 4973,
      "သဵင်ၵၢင်ၸႂ်": 4974,
      "ပွႆႇသဵင်": 4975,
      "လၢႆလၢႆဝဵင်း": 4976,
      "ႁေႃလူင်": 4977,
      "ၵႆယၢၼ်": 4978,
      "ဢၼ်တေၸတ်းႁဵတ်း": 4979,
      "ပၢင်ၵုမ်လူင်ပၢင်လူင်": 4980,
      "ၽဵင်ႇပဵင်းၵၼ်": 4981,
      "ၶိုၼ်ႈယႂ်ႇမႂ်ႇသုင်": 4982,
      "ထီႉၼိုင်ႈ": 4983,
      "ၸၢႆးသႅင်မိူင်း": 4984,
      "iss": 4985,
      "ity": 4986,
      "ၼိုင်ႈဝၼ်းလႂ်": 4987,
      "ၸုတ်ႇၽဝ်": 4988,
      "တီ့ၺွပ်း": 4989,
      "Mas": 4990,
      "ယမ်ႉ": 4991,
      "ဝၢႆ": 4992,
      "ၸီႊ": 4993,
      "တေလီ": 4994,
      "မႃးထိုင်": 4995,
      "တၢင်းလူင်": 4996,
      "တၢင်းမိူင်းတႆး": 4997,
      "တၢင်းတႃႈၶီႈလဵၵ်း": 4998,
      "ဢမ်ႇႁိုင်": 4999,
      "ပၢင်သၢင်း": 5000,
      "ဝႆႉၼၵ်း": 5001,
      "မိူဝ်ႈပၢၼ်": 5002,
      "ၼမ်ႉၼႄတူဝ်": 5003,
      "ၼမ်ႉမုၵ်ႈ": 5004,
      "ႁႂ်ႈၵႂႃႇ": 5005,
      "ပွင်ပဵၼ်လႆႈ": 5006,
      "ၵျူ": 5007,
      "ယူႇတီႈၵူၼ်းမိူင်း": 5008,
      "ထူဝ်ႇ": 5009,
      "ပိုၼ်ၽၢဝ်ႇဢွၵ်ႇမႃး": 5010,
      "တၢင်ႇၵူၼ်း": 5011,
      "ၼႂ်းၸႄႈဝဵင်းတူၼ်ႈတီး": 5012,
      "ၽိတ်ႈ": 5013,
      "ၼပ်ႉႁဵင်": 5014,
      "မီးၵူၼ်းလူႉတၢႆ": 5015,
      "တွပ်ႇလၢတ်ႈ": 5016,
      "လိၵ်ႈလၢႆးတႆး": 5017,
      "ႁူပ်ႉထူပ်းၵၼ်": 5018,
      "ၼႃႈလိၼ်ၽွင်းငမ်းတူဝ်ၵဝ်ႇ": 5019,
      "ၼႂ်းမိူင်းႁူမ်ႈတုမ်ၼႆႉ": 5020,
      "ယုၵ်းယၢၵ်း": 5021,
      "လိူင်ႇၼမ်": 5022,
      "ယိုတ်ႈၶၢဝ်းယၢမ်း": 5023,
      "ၽူႈၼင်ႈၸိုင်ႈ": 5024,
      "လွၵ်ႉၸွၵ်ႇ": 5025,
      "ၵႂၢတ်ႇလၢင်ႉ": 5026,
      "ခြ": 5027,
      "တၼ်": 5028,
      "ထီႇ": 5029,
      "ယၼ်ႊ": 5030,
      "ဢင်း": 5031,
      "တီႈႁွင်ႈ": 5032,
      "မႃးၸွႆႈ": 5033,
      "ၼႂ်းၸႄႈမိူင်း": 5034,
      "ၼႂ်းၸိုင်ႈထႆး": 5035,
      "ဢၼ်သိုၵ်းမၢၼ်ႈ": 5036,
      "မီးၼမ်": 5037,
      "2000": 5038,
      "ၽူင်ႉ": 5039,
      "ၼိုင်ႈလႄႈ": 5040,
      "သုၵ်း": 5041,
      "တိုၵ်းၵၼ်": 5042,
      "ပႆႇပဵၼ်": 5043,
      "ၸိူင်ႉၼင်ႇၼႆ": 5044,
      "ဢိတ်ႇ": 5045,
      "ဝတ်ႉၼွင်": 5046,
      "တိုၵ်ႉလႆႈ": 5047,
      "တူၺ်းလူ": 5048,
      "ဢွင်ႇပၢၼ်း": 5049,
      "ႁၢင်ႈပွင်": 5050,
      "ယၢမ်းၵၢင်ၼႂ်ၸဝ်ႉ": 5051,
      "ထွင်း": 5052,
      "မီးၵူၼ်းၸပ်း": 5053,
      "ၶျွ": 5054,
      "ၸႄႈဝဵင်းမိူင်းၼၢႆး": 5055,
      "ငဝ်ႈငုၼ်းတီႇမူဝ်ႇၶရေႇၸီႇ": 5056,
      "ၶၢႆႉၵႂႃႇ": 5057,
      "ယူတ်းယႃတူဝ်ဝႆႉ": 5058,
      "ငိူၼ်ႈ": 5059,
      "ထၢၼ်ႈ": 5060,
      "ၵႆႈ": 5061,
      "ၵမ်ႊ": 5062,
      "ၾဵ": 5063,
      "ႁေႃႇ": 5064,
      "”–": 5065,
      "……": 5066,
      "တေတႄႇ": 5067,
      "မႃးတႄႉ": 5068,
      "မီးၶေႃႈ": 5069,
      "ယူႇၵူႈဝၼ်း": 5070,
      "ပီလႄႈ": 5071,
      "ၵူၼ်းမိူင်းၵႂႃႇမႃး": 5072,
      "ၸၢႆးဢွၼ်ႇ": 5073,
      "ၸၢႆးၼေႃႇ": 5074,
      "သွၼ်ႉ": 5075,
      "ထႅင်ႈဢၼ်ၼိုင်ႈ": 5076,
      "ၵႃႈသၢႆႈတႅၼ်း": 5077,
      "ၼၢင်းမူၺ်": 5078,
      "ဢိင်ႇ": 5079,
      "လွႆၶေႃ": 5080,
      "ၵၢဝ်": 5081,
      "ပိုတ်ႇလုမ်း": 5082,
      "ၵွၼ်းၶေႃ": 5083,
      "ဢူးတဵင်း": 5084,
      "ၸိုဝ်ႈဝႃႈ": 5085,
      "လမ်းပုၼ်း": 5086,
      "ၸူမ်းသိူဝ်း": 5087,
      "ႁွင်ႈၵၢၼ်ၾၢႆႇႁႅင်းၵၢၼ်": 5088,
      "ၼႅၼ်ႈ": 5089,
      "တီႈႁူင်းႁႅမ်း": 5090,
      "တင်ႈဢဝ်ဝၼ်းတီႈ": 5091,
      "လွၼ်ႉလွၼ်ႉ": 5092,
      "ယွၼ်ႉသင်လႄႈ": 5093,
      "ပၢႆးမွၼ်းတႆး": 5094,
      "ၽႂ်းၽႂ်း": 5095,
      "ပၢၵ်ႈ": 5096,
      "ဝေႇ": 5097,
      "ၺၢတ်ႈ": 5098,
      "မိူင်းမွၼ်း": 5099,
      "တော": 5100,
      "ၼၼ်ႉလႄႈသင်": 5101,
      "ၼႂ်းၸႄႈ": 5102,
      "ဢၼ်လမ်ႇလွင်ႈ": 5103,
      "မီးႁူဝ်ၵူၼ်း": 5104,
      "ၵႂႃႇလႆႈ": 5105,
      "ၸဝ်ႈသိလ်ထမ်းဝုၼ်းၸုမ်ႉ": 5106,
      "လၢတ်ႈၵႂၢမ်း": 5107,
      "မၼ်းတေပဵၼ်": 5108,
      "ႁူမ်ႈမဵတ်ႉတႃႇ": 5109,
      "ပၼ်သေ": 5110,
      "ၶဝ်ယူႇ": 5111,
      "ၸၢႆးသၢင်ႇ": 5112,
      "ႁႂ်ႈယဝ်ႉ": 5113,
      "တႅမ်ႇ": 5114,
      "ၶိုၼ်းဢွၼ်ၵၼ်": 5115,
      "ပၢႆႈဢွၵ်ႇမႃး": 5116,
      "ပႃးၸွမ်း": 5117,
      "တိုင်း": 5118,
      "ဢွၼ်ၵၼ်ပၢႆႈၽေးသိုၵ်း": 5119,
      "မႄႈၼမ်ႉတူႈ": 5120,
      "ၵိုတ်းၵၢၼ်": 5121,
      "ၸဵမ်မိူဝ်ႈပီ": 5122,
      "ပႅတ်ႇ": 5123,
      "ၸႄႈတွၼ်ႈၵဵင်းႁၢႆး": 5124,
      "မွၵ်ႇၵွၼ်": 5125,
      "ၵမ်ႉယၼ်": 5126,
      "ၸႄႈဝဵင်းမိူင်းသၢတ်ႇ": 5127,
      "ၵမ်ႈၼမ်ပဵၼ်": 5128,
      "ဝႆးရ": 5129,
      "လၢၼ်ႉပၢႆ": 5130,
      "တူၵ်းၸႂ်ၵူဝ်ႁႄ": 5131,
      "ႁူမ်ႈမိုဝ်းၵၼ်": 5132,
      "ဢိၵ်ႇလူၺ်ႈပႃးတင်း": 5133,
      "ပြည်": 5134,
      "BA": 5135,
      "Co": 5136,
      "ag": 5137,
      "တဝ်ႇ": 5138,
      "နယ်": 5139,
      "ႅတ်ႊ": 5140,
      "မိူင်းယဵၼ်": 5141,
      "ၵူၼ်းပၢႆႈ": 5142,
      "ၵူၼ်းတူၼ်ႈတီး": 5143,
      "ၵူၼ်းထူပ်းၽေး": 5144,
      "ပဵၼ်ၵေႃႉ": 5145,
      "ပဵၼ်ယႂ်ႇ": 5146,
      "ၼႂ်းပၢင်ပွႆး": 5147,
      "တၢင်းထုင်ႉ": 5148,
      "ဢမ်ႇထၢတ်ႇ": 5149,
      "ဝၢၼ်ႈလွႆ": 5150,
      "ၸုမ်းတႆး": 5151,
      "ၸုမ်းၼၢင်းယိင်း": 5152,
      "ၸိူဝ်းမီး": 5153,
      "ၵူၼ်းမိူင်းဢၼ်": 5154,
      "ၵူၼ်းမိူင်းၵိုင်": 5155,
      "ၶဝ်ႈတီႉၺွပ်း": 5156,
      "တႃႇၵူၼ်းမိူင်း": 5157,
      "ဢဝ်မၢၵ်ႇ": 5158,
      "ဢဝ်မိတ်ႈ": 5159,
      "ပေႃးၸ": 5160,
      "ႁဝ်းၶႃႈတေလႆႈ": 5161,
      "သင်ပဵၼ်လႆႈ": 5162,
      "ထုတ်ႉ": 5163,
      "ပူၵ်ႉ": 5164,
      "ပႃႇတီႇတဢၢင်း": 5165,
      "လူင်းတိုၼ်း": 5166,
      "ထႅမ်ႁႅင်း": 5167,
      "ပုတ်း": 5168,
      "ပၢင်တိုၵ်းတႄႉ": 5169,
      "ၸပ်းၵၼ်": 5170,
      "ပိူင်ၵၢၼ်": 5171,
      "ၼၼ့်": 5172,
      "ၼႂ်းၸႄႈဝဵင်းၵေးသီး": 5173,
      "ပၢင်ၵုမ်ၼႆႉ": 5174,
      "ရူင်ႇ": 5175,
      "ဢၼ်ဝႃႈၼၼ်ႉၵေႃႈ": 5176,
      "တိူဝ်ႉမၢတ်ႇ": 5177,
      "ပၵ်းသဝ်း": 5178,
      "ၸိူဝ်းၼၼ်ႉတႄႉ": 5179,
      "ဢွၼ်ႁူဝ်သေ": 5180,
      "ပွၵ်ႈၵမ်းသၢမ်": 5181,
      "ၼိဝ်ႉ": 5182,
      "ပတ်းပိုၼ်ႉမိူင်းႁူမ်ႈတုမ်": 5183,
      "ၶိုၼ်": 5184,
      "လူမ်းလႅင်ႉ": 5185,
      "ပူၼ်ႉပႅၼ်သုၼ်ႇလႆႈၵူၼ်း": 5186,
      "ၶမ်ဝႆႉ": 5187,
      "ဢမ်ႇၶႂ်ႈဢွၵ်ႇၸိုဝ်ႈ": 5188,
      "ဢီႊရ": 5189,
      "ၾုင်": 5190,
      "ႁွၼ်ႈထဝ်ႇ": 5191,
      "ထူၺ်ႈၸႂ်": 5192,
      "ယူပ်ႈယွမ်း": 5193,
      "ဢွၵ်ႊသီႊၵျိၼ်ႊ": 5194,
      "1000": 5195,
      "Com": 5196,
      "Day": 5197,
      "Pos": 5198,
      "တၼ်ႊ": 5199,
      "ယၢတ်ႈ": 5200,
      "ဢို": 5201,
      "ဢမ်း": 5202,
      "ၸီး": 5203,
      "ႁပ်း": 5204,
      "မိူင်းၵႅတ်ႈ": 5205,
      "ၼၼ်ႉလႄႈ": 5206,
      "သိုၵ်းဢူၺ်းလီပွတ်းႁွင်ႇ": 5207,
      "ၵေႃႈၸႂ်ႈ": 5208,
      "ၵေႃႉသေ": 5209,
      "ၵႂႃႇၸွႆႈ": 5210,
      "ၽူၼ်": 5211,
      "ဝၢၼ်ႈၵွင်း": 5212,
      "မိူဝ်ႈၵႆႈ": 5213,
      "ပၼ်ဝႆႉ": 5214,
      "ၸႄႈဝဵင်းၼမ်ႉၸၢင်": 5215,
      "လိၵ်ႈလူင်": 5216,
      "သုၸၼ်ႇတီႇ": 5217,
      "ၶၢဝ်းယၢဝ်း": 5218,
      "0000": 5219,
      "ၵမ်းလိုၼ်း": 5220,
      "ၵူႈၸႄႈဝဵင်း": 5221,
      "ၽေးၶဵၼ်": 5222,
      "ႁၼ်ဝႃႈ": 5223,
      "လွႆတွၼ်း": 5224,
      "ႁိပ်ႈ": 5225,
      "ၵူတ်ႇထတ်းတီႉလႆႈ": 5226,
      "တၢင်ႇၵုၼ်ႇ": 5227,
      "ၶဝ်ႈႁူမ်ႈၸွမ်း": 5228,
      "ႁွင်ႉဢဝ်": 5229,
      "ၼွၵ်ႈလိူဝ်": 5230,
      "လၢမ်းၶၢတ်ႈ": 5231,
      "ပၢင်ႇလေႃႉ": 5232,
      "ပၢင်ႇလၢႆႇ": 5233,
      "ၵေႃႇသၢင်ႈမိူင်းႁူမ်ႈတုမ်": 5234,
      "သိုဝ်ႇၶၢဝ်ႇထႆး": 5235,
      "ၶွတ်ႇယွတ်ႈ": 5236,
      "ပႃႈၼၢင်း": 5237,
      "ပွၵ်ႈၶိုၼ်းႁိူၼ်း": 5238,
      "ယေႃးမုၼ်": 5239,
      "1996": 5240,
      "ဢမ်ႇလႆႈႁူႉၸွမ်း": 5241,
      "မၢၼ်ႇမႅၼ်ႈ": 5242,
      "မိုတ်ႈၵိုဝ်းၸမ်ၸႂ်": 5243,
      "ႁၢင်ႈၵၢင်ဝႆႉ": 5244,
      "ၶႃႈႁၢပ်ႇၵၢၼ်ၶုၼ်": 5245,
      "Mask": 5246,
      "63": 5247,
      "72": 5248,
      "Con": 5249,
      "SP": 5250,
      "line": 5251,
      "မှ": 5252,
      "ၶၢင်ႉ": 5253,
      "ၽေႇ": 5254,
      "လႆႈပိုတ်ႇ": 5255,
      "ပဵၼ်ပၢင်": 5256,
      "ၼႂ်းတူင်ႇဝူင်း": 5257,
      "ၵေႃႈဢမ်ႇလႆႈ": 5258,
      "ၵၢၼ်ၽုၵ်ႇသွမ်ႈ": 5259,
      "ႁဵတ်းဝႂ်": 5260,
      "ၸဝ်ႈမုၼ်ယႂ်ႇၶုၼ်ႁေႃၶမ်း": 5261,
      "ဢဝ်ၵႃး": 5262,
      "ၸိူဝ်းၼႆႉၵေႃႈမီး": 5263,
      "ထႅင်ႈလႄႈ": 5264,
      "ၵႃႈၸႂ်ႉၸၢႆႇ": 5265,
      "ၵဵဝ်": 5266,
      "ၵူႈတၢင်း": 5267,
      "ပၢင်တိုၵ်းၵၼ်": 5268,
      "ၵႅတ်ႉသ်": 5269,
      "ၼႂ်းၸႄႈဝဵင်းလၢႆးၶႃႈ": 5270,
      "သႂ်ႇၼႂ်း": 5271,
      "ၸၼ်ႉဢွၼ်": 5272,
      "ၸႂ်ႉၶၢဝ်းယၢမ်း": 5273,
      "သူၼ်ၶဝ်ႈၵၢပ်ႇ": 5274,
      "လူၺ်ႈလၢႆး": 5275,
      "ၸဝ်ႈၼႃႈတီႈၶဝ်": 5276,
      "ႁိူၼ်းယေးၵူၼ်းဝၢၼ်ႈ": 5277,
      "တႄႉတႄႉၶႃႈ": 5278,
      "ငဝ်ႈငုၼ်းမုၵ်ႉၸုမ်းလူင်": 5279,
      "ဝဵင်းမိူင်းၼၢႆး": 5280,
      "ပိူဝ်ႊသႅၼ်ႊ": 5281,
      "ၼိူဝ်သဵၼ်ႈတၢင်းလူင်": 5282,
      "ဢိၼ်ႊတီႊ": 5283,
      "ၼူဝ်ႊဝႅမ်ႊပိူဝ်ႊ": 5284,
      "ပေႃႇလ": 5285,
      "တူမ်ႈႁုင်": 5286,
      "120": 5287,
      "CC": 5288,
      "aw": 5289,
      "ma": 5290,
      "ပလ": 5291,
      "ပႃႊ": 5292,
      "မႂ်း": 5293,
      "သမ့်": 5294,
      "ၶၢႆႇ": 5295,
      "ၻူ": 5296,
      "ဝႃႈလႆႈ": 5297,
      "ပဵၼ်လူင်ပွင်ၸိုင်ႈ": 5298,
      "မႃးႁဵတ်းၵၢၼ်": 5299,
      "မႃးသွၼ်ႈဝႆႉတီႈ": 5300,
      "ၼႂ်းတိူင်း": 5301,
      "ဢၼ်ယၢမ်ႈ": 5302,
      "ဢမ်ႇသႂ်ႇ": 5303,
      "ၵ်ႉၵ": 5304,
      "ႁဵတ်းၽိတ်း": 5305,
      "ၶဝ်မီး": 5306,
      "ၾၢႆႇလိူမ်ႈလႆႇ": 5307,
      "ၶွၼ်": 5308,
      "မွၼ်ႇ": 5309,
      "တေႃႇၵူၼ်းမိူင်း": 5310,
      "ၵုၼ်း": 5311,
      "ဢူႈ": 5312,
      "ၵူႈမူႇ": 5313,
      "ဢိူမ်ႈ": 5314,
      "ပိုၼ်ၽၢဝ်ႇပဵၼ်တၢင်းၵၢၼ်": 5315,
      "210": 5316,
      "ၸေႊၵဝ်ႇ": 5317,
      "ၽိုတ်ႉ": 5318,
      "ယူဝ်": 5319,
      "ၼႂ်ၼႆႉ": 5320,
      "ၵၢတ်ႇလေႃႉ": 5321,
      "သၢမ်ၵေႃႉ": 5322,
      "တိုၼ်းပဵၼ်": 5323,
      "ၽူႈၵွၼ်းဝတ်ႉ": 5324,
      "သၢင်ႇထုၵ်ႇ": 5325,
      "သိုၵ်းလူင်ပွင်ၸိုင်ႈမၢၼ်ႈတင်း": 5326,
      "ပွၵ်ႈၵမ်းႁႅၵ်ႈ": 5327,
      "ပၢၼ်မႂ်ႇ": 5328,
      "ဢိင်ၼိူဝ်လွင်ႈၼႆႉ": 5329,
      "ၵိူတ်ႇၶိုၼ်ႈ": 5330,
      "ယဵပ်ႇၺႃး": 5331,
      "ဢေႊၶိူဝ်ႊပၢႆ": 5332,
      "ပဵၼ်ၸုမ်းဢၼ်လူင်းလၢႆးမိုဝ်း": 5333,
      "ယဝ်ႉတူဝ်ႈလီငၢမ်း": 5334,
      "ၸိၵ်းၸွမ်": 5335,
      "ဢၼုၺၢတ်ႈ": 5336,
      "ဢွၵ်ႇၼွၵ်ႈႁိူၼ်း": 5337,
      "ၵူတ်ႇထတ်းၵူၼ်းၶဝ်ႈမိူင်း": 5338,
      "ပေႃႇလသီႇ": 5339,
      "76": 5340,
      "CO": 5341,
      "JMC": 5342,
      "ပၢႆႇ": 5343,
      "ပၢင်ႈ": 5344,
      "ၽရ": 5345,
      "တီႈၵႆ": 5346,
      "မိူင်းၼႆႉ": 5347,
      "လႆႈၵူတ်ႇထတ်း": 5348,
      "ဢၼ်ဢဝ်": 5349,
      "မီးႁိမ်း": 5350,
      "ဢမ်ႇယူႇလီ": 5351,
      "သိုၵ်းၸၢဝ်းၶိူဝ်း": 5352,
      "ၵေႃႈပႃး": 5353,
      "ဝဵင်းတႃႈၵုင်ႈ": 5354,
      "ၵႂႃႇသေ": 5355,
      "ၵႂႃႇတူၺ်း": 5356,
      "ယဝ်ႉသေတႃႉ": 5357,
      "ႁွႆႈ": 5358,
      "လၢတ်ႈမႃး": 5359,
      "ပီယၢဝ်း": 5360,
      "ၶၢမ်း": 5361,
      "ပၼ်ၵႂႃႇ": 5362,
      "ပၼ်ငိုၼ်း": 5363,
      "လုတ်ႈ": 5364,
      "ၶဝ်ႁဵတ်း": 5365,
      "ၶဝ်ႈတိုဝ်းၵမ်": 5366,
      "ၸၢႆးၼွင်ႉ": 5367,
      "တူဝ်သတ်း": 5368,
      "ၵုၺ်": 5369,
      "ပႃႇႁဵဝ်ႈ": 5370,
      "ဢူၼ်": 5371,
      "လိူၼ်သိပ်း": 5372,
      "ၵမ်းတီႈ": 5373,
      "လိၼ်ႁိၼ်": 5374,
      "ပိုၼ်ၽၢဝ်ႇဢွၵ်ႇ": 5375,
      "ၵိၼ်ၶဝ်ႈ": 5376,
      "ထူပ်းတၢင်းယၢပ်ႇ": 5377,
      "မၢင်ပွၵ်ႈ": 5378,
      "ၽူႈမီးၼမ်ႉၸႂ်": 5379,
      "မိၵ်ႈ": 5380,
      "ၽႃႇသႂ်ႇ": 5381,
      "ၽႃႇတတ်း": 5382,
      "ၵႂႃႇတၢင်းလႂ်": 5383,
      "ငူၺ်ႇ": 5384,
      "လိုဝ်ႈၵၢၼ်": 5385,
      "ၼုင်ႈၶူဝ်း": 5386,
      "ပိူင်ႈၵၼ်": 5387,
      "လၢတ်ႈထႅင်ႈၼင်ႇၼႆ": 5388,
      "ၸေႇယ": 5389,
      "ပဵၼ်ၼမ်ႉမိုဝ်းၽႂ်": 5390,
      "မွင်ၸႂ်": 5391,
      "Miss": 5392,
      "em": 5393,
      "ip": 5394,
      "တၢၵ်ႇ": 5395,
      "ႁႆႇ": 5396,
      "ၵ်းႁၢႆႉ": 5397,
      "ၵူၼ်းၶဝ်ႈ": 5398,
      "တေလူင်း": 5399,
      "ပွၼ်": 5400,
      "ဢၼ်ပိူၼ်ႈ": 5401,
      "တၢင်းႁၼ်": 5402,
      "ဝၼ်းလႂ်": 5403,
      "ႁဝ်းမီး": 5404,
      "ၸဝ်ႈသူၺ်ႇ": 5405,
      "လၢတ်ႈၼေ": 5406,
      "မၼ်းၼၼ်ႉ": 5407,
      "မၼ်းယဝ်ႉ": 5408,
      "ပီႊ": 5409,
      "ၵူၼ်းမိူင်းပၼ်ႇ": 5410,
      "ၼမ်ႉႁူၺ်ႈ": 5411,
      "ႁႅင်းသေ": 5412,
      "တူဝ်ယၢင်ႇ": 5413,
      "သုတ်ႉ": 5414,
      "ထႅင်ႈတင်းၼမ်": 5415,
      "ၵမ်းၵမ်း": 5416,
      "ၶမ်းမၢႆ": 5417,
      "တႃႈတေ": 5418,
      "ၵိၼ်လဝ်ႈ": 5419,
      "သူင်ႇၶၢဝ်ႇ": 5420,
      "ၸၼ်ႉၵၢင်": 5421,
      "ႁၢဝ်ႈႁႅင်းလႄႈ": 5422,
      "တိတ်းၸပ်းၸိူဝ်ႉမႅင်း": 5423,
      "ဢူးဢွင်ႇ": 5424,
      "ႁူင်းႁဵၼ်းၸိူဝ်ႉၸၢတ်ႈ": 5425,
      "ယင်းမီး": 5426,
      "ႁုၵ်းႁၢႆႉ": 5427,
      "ၵေႃႈမီးတင်းၼမ်": 5428,
      "ယဵၼ်း": 5429,
      "ႁၢႆႉၸႃႉ": 5430,
      "ၼႂ်းဢိူင်ႇဝၢၼ်ႈ": 5431,
      "ဢမ်ႇႁူႉဝႃႈ": 5432,
      "ၼေႃႇတႅၼ်း": 5433,
      "ယူတ်းယႃတူဝ်ဝႆႉတီႈႁူင်းယႃ": 5434,
      "သမ်းယႃ": 5435,
      "ၵႃလီႉ": 5436,
      "ပွၵ်ႈမႃးၶိုၼ်း": 5437,
      "မုၼ်းလႅင်း": 5438,
      "ထမ်မသႃမိ": 5439,
      "ဢၼုယၢတ်ႈ": 5440,
      "Inter": 5441,
      "51": 5442,
      "ID": 5443,
      "မင်ႇၵလႃႇ": 5444,
      "ယၢၼ်ႇ": 5445,
      "လဵင်း": 5446,
      "ၸရေး": 5447,
      "ၼဝ": 5448,
      "တီႈတႃႈၵုင်ႈ": 5449,
      "ၵူၼ်းၵိုၼ်း": 5450,
      "ပွင်း": 5451,
      "မႃးၸွမ်းၵၼ်": 5452,
      "ၼႂ်းၶေႃႈပိုၼ်ၽၢဝ်ႇ": 5453,
      "ၼႂ်းပၢင်ၵုမ်သၽႃး": 5454,
      "ဢၼ်ႁဵတ်းၵၢၼ်": 5455,
      "ဢၼ်တီႉလႆႈ": 5456,
      "ၵႂႃႇၵူတ်ႇထတ်း": 5457,
      "လွင်ႈပၼ်ႁႃ": 5458,
      "ၸိူဝ်းၺႃး": 5459,
      "ၵူၼ်းမိူင်းၼႂ်းပိုၼ်ႉတီႈ": 5460,
      "ၼိုင်ႈဝူင်ႈ": 5461,
      "ၼမ်ႉၵိၼ်": 5462,
      "ၸႄႈဝဵင်းမႄႈ": 5463,
      "ၸၢႆးယီႈ": 5464,
      "ဢဝ်ၶူဝ်းၶွင်": 5465,
      "ၶွၼ်ႊ": 5466,
      "သူင်": 5467,
      "1962": 5468,
      "ၽွင်းတိုၵ်ႉ": 5469,
      "ပၢႆးႁၼ်": 5470,
      "တၢင်ႇယိုၼ်ႈ": 5471,
      "ပီႈၼွင်ႉႁႅင်းၵၢၼ်": 5472,
      "ၶူဝ်းၼုင်ႈ": 5473,
      "ႁူပ်ႉဢုပ်ႇ": 5474,
      "ပိုတ်ႇၶိုၼ်း": 5475,
      "ၼွင့်": 5476,
      "တေႃႈၼင်ႇ": 5477,
      "ၶႅင်ႇၵၼ်": 5478,
      "သင်ႇပိၵ်ႉ": 5479,
      "မျၢတ်ႈ": 5480,
      "ၵမ်ႉထႅမ်ပၼ်": 5481,
      "ၵုၼ်လူင်": 5482,
      "ဝူၼ်ႉဝႃႈ": 5483,
      "လူတ်းယွၼ်ႇ": 5484,
      "ပိၵ်ႉဢိုတ်းဝႆႉ": 5485,
      "ယုၵ်ႉမုၼ်းၼမ်ႉၵတ်ႉ": 5486,
      "ႁုၼ်ႈမႂ်ႇ": 5487,
      "ဝူႊႁၢၼ်": 5488,
      "ပွင်ပဵၼ်ပၢင်ပွႆး": 5489,
      "တႆႈတဵၼ်း": 5490,
      "ၵူႈမူႇၵူႈၸုမ်း": 5491,
      "98": 5492,
      "On": 5493,
      "ုပ်": 5494,
      "​​": 5495,
      "တီႈလူင်ပွင်ၸိုင်ႈ": 5496,
      "တီႈၵဵတ်ႉ": 5497,
      "တီႈငဝ်ႈၸိုင်ႈလွႆတႆးလႅင်း": 5498,
      "ၵူၼ်းၵျွၵ်ႉမႄး": 5499,
      "ၵူၼ်းၼွၵ်ႈမိူင်း": 5500,
      "လႆႈပိုတ်ႇလိူင်ႈ": 5501,
      "ပဵၼ်ႁိူၼ်း": 5502,
      "မႃးၶၢဝ်းတၢင်း": 5503,
      "ၼႂ်းထိူၼ်ႇ": 5504,
      "ၵၼ်ဝႆႉယူႇ": 5505,
      "တႆးၼႆႉ": 5506,
      "ၵေႃႉတႄႉ": 5507,
      "ၽူႈလၵ်ႉ": 5508,
      "ပၢင်တၢၼ်ႈၶႆႈ": 5509,
      "လွင်ႈယူႇ": 5510,
      "ၵူၼ်းမိူင်းတႄႉ": 5511,
      "တႃႇၵူၼ်း": 5512,
      "ၸႄႈဝဵင်းလွႆလႅမ်": 5513,
      "ႁဝ်းၶႃႈသမ်ႉ": 5514,
      "ၵျပၼ်ႊ": 5515,
      "ပႃႇထိူၼ်ႇ": 5516,
      "ထုၺ်": 5517,
      "ၶိူဝ်းၼိမ်း": 5518,
      "ယုင်ႈ": 5519,
      "ႁႃလၢႆးတၢင်း": 5520,
      "ၶိုၼ်ႈလုမ်းတြႃး": 5521,
      "2114": 5522,
      "ၶေႃႈတႅပ်းတတ်း": 5523,
      "ယႃႈဢႆႊသ်": 5524,
      "သၢင်ႈႁၢင်ႈပွင်": 5525,
      "ထုၵ်ႇသိုၵ်းမၢၼ်ႈ": 5526,
      "ၶွင်ၵိၼ်": 5527,
      "ၶဵမ်": 5528,
      "တိတ်းၸပ်းတၢင်းပဵၼ်": 5529,
      "ဝႆႉတီႈႁူင်းပလိၵ်ႈ": 5530,
      "ၾိင်ႈၾႃႉ": 5531,
      "ပဵၼ်ၵူၼ်းၸႃတိ": 5532,
      "ၽူႈၵွၼ်းႁူင်းႁဵၼ်း": 5533,
      "တၼ်းသဝ်း": 5534,
      "ၸိူင်ႉၼၼ်ၵူၺ်း": 5535,
      "ႁိုင်မွၵ်ႈ": 5536,
      "ဢမ်ႇပဵၼ်လႆႈ": 5537,
      "မိူဝ်ႈၽွင်းၼၼ်ႉ": 5538,
      "ၸိုၼ်ႈၸၢင်ႇ": 5539,
      "ၼိုင်ႈၵေႃႉလႂ်": 5540,
      "လႅၼ်ႈပၢႆႈ": 5541,
      "ယိုဝ်းၵွင်ႈလူင်": 5542,
      "ဢၼ်ပၢႆႈမႃးသွၼ်ႈဝႆႉတီႈ": 5543,
      "ၶူးဝႃးဝုၼ်းၸုမ်ႉ": 5544,
      "ႁူဝ်ယွႆႈမၼ်း": 5545,
      "လူမ်ႇယိုဝ်း": 5546,
      "ၵုသူလ်": 5547,
      "de": 5548,
      "ထႆ": 5549,
      "ဝၢႆႇ": 5550,
      "ဢၢ": 5551,
      "ၵပ်ႉ": 5552,
      "ၶၻီႊ": 5553,
      "င့်": 5554,
      "ိုး": 5555,
      "ၵူၼ်းတႃႈၶီႈလဵၵ်း": 5556,
      "ပွင်ႉ": 5557,
      "ဢၼ်ၸဝ်ႈ": 5558,
      "ဢမ်ႇထိုင်တီႈ": 5559,
      "ၵႂႃႇၸူး": 5560,
      "ႁဝ်းဝႃႈ": 5561,
      "လုတၢႆ": 5562,
      "ၶဝ်ႈဝဵင်း": 5563,
      "ၼမ်ႉႁွင်ႈ": 5564,
      "ဢွၵ်ႇၶၢဝ်ႇ": 5565,
      "ၸွမ်းလူၺ်ႈ": 5566,
      "ၸွမ်းႁိမ်းႁွမ်း": 5567,
      "ပႃႇၵိူဝ်": 5568,
      "ပႃႇၶႅမ်": 5569,
      "လၢႆၸႄႈဝဵင်း": 5570,
      "ယူႇတီႈပႃႇတီႇႁူဝ်သိူဝ်": 5571,
      "လိူၼ်ၼူဝ်ႊဝႅမ်ႊၿိူဝ်ႊ": 5572,
      "ၵႃႈလႆႈ": 5573,
      "ဢုမ်": 5574,
      "ဢိူင်ႇႁူဝ်": 5575,
      "ပၢင်တိုၵ်းယဵၼ်": 5576,
      "သူင်ႇထိုင်": 5577,
      "သူင်ႇလိၵ်ႈ": 5578,
      "သူင်ႇပွၵ်ႈ": 5579,
      "ပီႈၼွင်ႉႁဝ်း": 5580,
      "ၸၼ်ႉၸိူဝ်ႉၸၢတ်ႈတႆး": 5581,
      "ၶိူင်ႈၸႂ်ႉ": 5582,
      "ႁၢႆၶႅၼ်း": 5583,
      "ႁွင်ႈၵၢၼ်လူင်ပွင်ၸိုင်ႈ": 5584,
      "တင်းၼမ်တင်းလၢႆ": 5585,
      "မဵဝ်ႉ": 5586,
      "တႄႇဢဝ်ဝၼ်းတီႈ": 5587,
      "တေႃႉယႃႈ": 5588,
      "ၶႆႈၸႂ်": 5589,
      "တီႉလႆႈယႃႈမႃႉ": 5590,
      "ၼေႃႇတႅၼ်းၽွင်း": 5591,
      "ၼႂ်းၵႄႈၵၢင်": 5592,
      "ယူႇသဝ်းဝႆႉ": 5593,
      "ၼႃႈလိၼ်သိုၵ်း": 5594,
      "ၾၢင်ႉသတိ": 5595,
      "ၶေႃႈမုၼ်း": 5596,
      "သႅၼ်ပျႃးပၢႆ": 5597,
      "သမ်းပၼ်": 5598,
      "ၼၵ်းၼႃ": 5599,
      "ၼေၵၢင်ၸႂ်": 5600,
      "ၸုမ်းတူင်ႉၼိုင်တူင်ႇဝူင်းတႆး": 5601,
      "ပိုၼ်ၽၢဝ်ႇဝႆႉၼင်ႇၼႆ": 5602,
      "ၽူႈၵိူဝ်းၵုမ်ၸိုင်ႈမိူင်း": 5603,
      "ၸဝ်ႈၶူးဝႃးဝုၼ်းၸုမ်ႉ": 5604,
      "ၸဝ်ႈၵွၼ်းဝတ်ႉ": 5605,
      "တႃႈတေႈ": 5606,
      "53": 5607,
      "NM": 5608,
      "ik": 5609,
      "ဒေ": 5610,
      "ပတ်ႉ": 5611,
      "မိတ်ႉ": 5612,
      "ၶႆႇ": 5613,
      "ၵူၼ်းၸွမ်း": 5614,
      "ၵူၼ်းလူႉတၢႆ": 5615,
      "ႁူၼ်း": 5616,
      "ၼႂ်းၵၢင်": 5617,
      "တူဝ်ႇ": 5618,
      "ဢၼ်ပႆႇ": 5619,
      "ဢမ်ႇလူဝ်ႇ": 5620,
      "သေမႃး": 5621,
      "ၵၢၼ်ပူၵ်းပွင်": 5622,
      "လွင်ႈသိုၵ်းမၢၼ်ႈ": 5623,
      "ႁဝ်းမႃး": 5624,
      "ဝႆႉသတိ": 5625,
      "ႁဵတ်းပဵၼ်": 5626,
      "မိူဝ်ႈၵွၼ်ႇ": 5627,
      "တင်းၸုမ်း": 5628,
      "ၵူၼ်းမိူင်းမူႇၸေႊ": 5629,
      "ၸႄႈဝဵင်းၵဵင်းမႆႇ": 5630,
      "ၾၢႆႇလႂ်": 5631,
      "ဢဝ်ၶၢဝ်ႇ": 5632,
      "ပေႃးယဝ်ႉ": 5633,
      "သိုင်ႇ": 5634,
      "ႁူင်းၵၢၼ်": 5635,
      "လိူၼ်ၾႅပ်ႊၿိဝ်ႊရီႊ": 5636,
      "ၵူႈဝဵင်း": 5637,
      "ၽူႈတွႆႇႁွၵ်ႈၼင်ႇၼႆ": 5638,
      "ႁႃတူဝ်": 5639,
      "ႁူမ်ႈၵၼ်တင်းမူတ်း": 5640,
      "ဢမ်ႇမီးဝတ်းဝႂ်": 5641,
      "သၢႆႊ": 5642,
      "ၵႂၢမ်းလၢတ်ႈ": 5643,
      "တႅၵ်ႇတိူဝ်ႉသႂ်ႇ": 5644,
      "ၸႄႈမိူင်းယၢင်းလႅင်": 5645,
      "လၢႆလၢႆဢၼ်": 5646,
      "လၢႆလၢႆၵမ်း": 5647,
      "ပိူၼ်ႈၵေႃႈ": 5648,
      "ၽၵ်းၶဵဝ်": 5649,
      "ၸႅတ်ႈထၢမ်": 5650,
      "တီႈဝတ်ႉၵျွင်း": 5651,
      "ၽႃႇၵၼ်": 5652,
      "ၼႅင်ႈ": 5653,
      "ၵေႃႇတင်ႈမႃး": 5654,
      "တၢင်းၾင်ႇတႃႈၶီႈလဵၵ်း": 5655,
      "သၼ်သၢႆး": 5656,
      "ၵေႃႁူမ်ႈသၢင်ႈၸိူဝ်ႉၸၢတ်ႈတႆး": 5657,
      "ၵူႈတီႈတီႈ": 5658,
      "ၸဝ်ႈပေႃႈသိလ်ထမ်း": 5659,
      "သၢၵ်ႈသေႇ": 5660,
      "ႁူင်ပင်း": 5661,
      "ပဵၵ်ႉသမ်ႉဝႃႈ": 5662,
      "AC": 5663,
      "LD": 5664,
      "PDF": 5665,
      "ၽီ": 5666,
      "ၽႄး": 5667,
      "ၾႃ့": 5668,
      "——": 5669,
      "ိုင်း": 5670,
      "တီႈလၢၼ်ႇ": 5671,
      "တေဢမ်ႇမီး": 5672,
      "လႆႈၶိုၼ်း": 5673,
      "ၼႂ်းထမ်ႈ": 5674,
      "သိုၵ်းၶဝ်": 5675,
      "ယူႇၵေႃႈ": 5676,
      "ဝၼ်းၸိူဝ်ႉၸၢတ်ႈ": 5677,
      "ဝႆႉထႅင်ႈ": 5678,
      "မၼ်းဝႃႈ": 5679,
      "တႄႉၶႃႈဢေႃႈ": 5680,
      "ၶဝ်ႈႁဵတ်းၵၢၼ်": 5681,
      "ၼမ်ႉလၢႆး": 5682,
      "ယွၼ့်": 5683,
      "ၸၢႆးလူင်": 5684,
      "သွႆ": 5685,
      "ပႃႇရူင်ႇ": 5686,
      "သမ်ႉဢမ်ႇ": 5687,
      "ၶႅၼ်": 5688,
      "ၵႃႈၸၢင်ႈ": 5689,
      "လူင်းမိုဝ်း": 5690,
      "ၼၢင်းၶိၼ်ႇ": 5691,
      "ၵိၼ်သၢင်ႈ": 5692,
      "လႂ်မႃး": 5693,
      "တၢင်ႇမိူင်း": 5694,
      "တေလႆႈၵႂႃႇ": 5695,
      "တေလႆႈဢဝ်": 5696,
      "ဢႃႊ": 5697,
      "ယူႉ": 5698,
      "ပိဝ်ႇ": 5699,
      "လူႉတၢႆထင်တီႈ": 5700,
      "ၵႂၢမ်းမၼ်ႈ": 5701,
      "တႅၵ်ႇသႂ်ႇ": 5702,
      "ၽူႈၵွၼ်းတိူင်းသိုၵ်း": 5703,
      "ထုင်ႉႁူၺ်ႈ": 5704,
      "ၸွမ်းၼင်ႇမၢႆမီႈ": 5705,
      "ၽႂ်မၼ်းသေ": 5706,
      "ၼႂ်းဢိူင်ႇၼႃး": 5707,
      "ၶွတ်ႇလိူတ်ႈ": 5708,
      "ဝႅၼ်": 5709,
      "ၵုင်းသႃႇ": 5710,
      "ၸိင်း": 5711,
      "ႁင်းမၼ်း": 5712,
      "လူမ်းလူင်": 5713,
      "ၽိုၼ်တၢမ်း": 5714,
      "ယွၼ်ႉပိူဝ်ႈဝႃႈ": 5715,
      "ၻီႊမူဝ်ႊၶရ": 5716,
      "ၻီႊယိူဝ်ႊ": 5717,
      "လႆႈၸႂ်ၵၼ်": 5718,
      "ပုင်ႇပႃႇၶႅမ်": 5719,
      "ၸူႉၵျီႇ": 5720,
      "ၸုၵ်းမၼ်ႈ": 5721,
      "ၶူဝ်ႊဝိတ့်": 5722,
      "ၸၵၶ": 5723,
      "မဝ်မၢင်": 5724,
      "ဝတ်ႉဝႃးၽႃသိူဝ်ႇ": 5725,
      "တီႈဝဵင်းလူင်တူၼ်ႈတီး": 5726,
      "ယဵတ်ႈၶွၵ်ႈ": 5727,
      "ယိင်ႈၶႅၼ်း": 5728,
      "Online": 5729,
      "Wor": 5730,
      "Youth": 5731,
      "ႁပ့်": 5732,
      "မိူဝ်": 5733,
      "တီႈလၢင်းၶိူဝ်း": 5734,
      "တီႈၽၵ်းတူ": 5735,
      "ၵူၼ်းၼမ်ႉၶမ်း": 5736,
      "ႁူႈ": 5737,
      "လူင်ႇ": 5738,
      "တေဢွၵ်ႇ": 5739,
      "ပဵၼ်တႆး": 5740,
      "ပဵၼ်ပီႈၼွင်ႉ": 5741,
      "မႃးတေႃႇထိုင်": 5742,
      "မႃးၵူႈပီ": 5743,
      "ၼႂ်းတူဝ်": 5744,
      "ၵၼ်ၶိုၼ်း": 5745,
      "ဝဵင်းၼမ်ႉတူႈ": 5746,
      "ၵႂႃႇဝႃႈ": 5747,
      "ႁဝ်းၵႂႃႇ": 5748,
      "ႁဵတ်းဝႆႉ": 5749,
      "ႁဵတ်းလိၵ်ႈ": 5750,
      "ႁဵတ်းသူၼ်": 5751,
      "လိင်ႇ": 5752,
      "ၸဝ်ႈမိူင်း": 5753,
      "ၸိူဝ်းမႃး": 5754,
      "မၼ်းတေဢမ်ႇ": 5755,
      "ႁူမ်ႈယဵၼ်": 5756,
      "ၶဝ်ႈဝၢၼ်ႈ": 5757,
      "ၼမ်ႉၸႂ်ႉ": 5758,
      "ၸၢႆးႁၢၼ်": 5759,
      "ၸၢႆးသူႉ": 5760,
      "ၸွမ်းသၢပ်ႇ": 5761,
      "တူဝ်ၸႂ်": 5762,
      "ႁူႉၸွမ်း": 5763,
      "ပိူင်ပိုင်း": 5764,
      "ၶေႃႈထၢမ်": 5765,
      "ပလိၵ်ႈလႄႈ": 5766,
      "ၵူတ်ႇထတ်းတီႉၺွပ်း": 5767,
      "ဢမ်ႇမီးၵူၼ်း": 5768,
      "တၢင်ႇထီး": 5769,
      "တိုၵ်ႉမီးယူႇ": 5770,
      "ၸေႊလၢၼ်ႉ": 5771,
      "ႁႅင်": 5772,
      "ပၢင်ၵုမ်ၵၢၼ်မိူင်း": 5773,
      "ႁူပ်ႉႁၼ်": 5774,
      "ၸႄႈတွၼ်ႈတူၼ်ႈတီး": 5775,
      "သိတ်ႇ": 5776,
      "ဝႂ်ႁပ်ႉႁွင်း": 5777,
      "ယိုတ်းလႆႈ": 5778,
      "ၶႅပ်းမႄး": 5779,
      "ပဵၼ်ၵူၼ်းထဝ်ႈ": 5780,
      "ႁူဝ်ၵူၼ်းမီး": 5781,
      "ၵိုတ်းတိုၵ်းပတ်းပိုၼ်ႉတူဝ်ႈမိူင်း": 5782,
      "ၽႃႈႁူမ်ႇ": 5783,
      "ၵၢႆႇၸူး": 5784,
      "ထႅင်ႈလွင်ႈၼိုင်ႈၵေႃႈ": 5785,
      "ပိုၼ်ၽၢဝ်ႇၵိုတ်းတိုၵ်းၾၢႆႇလဵဝ်": 5786,
      "ယိုင်ႈၶႅၼ်း": 5787,
      "ဝႆႈသႃ": 5788,
      "ၶပ်ႉမၢႆ": 5789,
      "work": 5790,
      "ဢင်းၵိ": 5791,
      "ပီယၢဝ်းၶၢဝ်းႁိုင်": 5792,
      "ၼေႃႇတႅၼ်းၶိူဝ်း": 5793,
      "ဝူႊႁၢၼ်ႊ": 5794,
      "ဢၢပ်ႇ": 5795,
      "78": 5796,
      "BS": 5797,
      "CN": 5798,
      "FC": 5799,
      "HO": 5800,
      "ထရ": 5801,
      "ယေႃ": 5802,
      "ဝၢင်ႈ": 5803,
      "သိၼ်ႊ": 5804,
      "ၽတ်း": 5805,
      "ႃဝ": 5806,
      "ၼႆဢေႃႈ": 5807,
      "မိူင်": 5808,
      "တီႈၵၢတ်ႇ": 5809,
      "တေတုမ်ႉတိူဝ်ႉ": 5810,
      "ပဵၼ်ၵႃး": 5811,
      "ဢၼ်လူဝ်ႇ": 5812,
      "ဢၼ်လဵဝ်ၵူၺ်း": 5813,
      "မီးပၢင်": 5814,
      "တႆးလွတ်ႈလႅဝ်း": 5815,
      "ဝဵင်းၼိုင်ႈ": 5816,
      "ၸုမ်းၵပ်းသၢၼ်": 5817,
      "ၸုမ်းမိူင်းလႃး": 5818,
      "ၶူႈ": 5819,
      "မိူဝ်ႈႁူဝ်လိူၼ်": 5820,
      "မိူဝ်ႈၶမ်ႈဝႃး": 5821,
      "ၼမ်ႉမေႃႇ": 5822,
      "ယွင်ႇ": 5823,
      "တႃႇတေလႆႈ": 5824,
      "ၾၢႆႇတပ်ႉသိုၵ်း": 5825,
      "သွတ်ႇ": 5826,
      "ပေႃးၶႂ်ႈ": 5827,
      "ပွင်ၸိုင်ႈ": 5828,
      "ႁဝ်းၶႃႈသေ": 5829,
      "ပွတ်းဢွၼ်ႇ": 5830,
      "တူဝ်ၵႂႃႇ": 5831,
      "ႁိူၼ်းပီႈၼွင်ႉ": 5832,
      "ဢူင်း": 5833,
      "လိူၼ်ပၢႆယဝ်ႉ": 5834,
      "ၼၢင်းမွၼ်း": 5835,
      "လၢတ်ႈတီႈၽူႈတွႆႇ": 5836,
      "2113": 5837,
      "တူၵ်းၵၢၼ်": 5838,
      "ၸပ်းတၢင်းပဵၼ်ၶူဝ်ႊဝိတ်ႉ": 5839,
      "လွႆၸၢၵ်ႈ": 5840,
      "ၵွင်ႈလူင်": 5841,
      "သၽႃးၸႄႈမိူင်းတႆး": 5842,
      "မႆႈပႃး": 5843,
      "ႁွင်ႈလိုၵ်ႉ": 5844,
      "ယွၼ်းႁႂ်ႈ": 5845,
      "ၼႃႇၶႃႈ": 5846,
      "ဢမ်ႇလႆႈၸႂ်": 5847,
      "မႅၵ်ႇ": 5848,
      "လၢတ်ႈၼႄဝႃႈ": 5849,
      "ထုင်ႉလွႆ": 5850,
      "ၼပ်ႉပၢၵ်ႇ": 5851,
      "ပၼ်ႇလဵပ်ႈ": 5852,
      "140": 5853,
      "ဝၢၼ်ႈမိူင်းမီးၼၼ်ႉ": 5854,
      "ၼၢႆးၸၢင်ႈ": 5855,
      "တၢပ်ႈ": 5856,
      "ၵႅမ်ၽူႈၼမ်းၼႂ်း": 5857,
      "ၶၢၼ်ၸႂ်": 5858,
      "ၶရိတ်ႉ": 5859,
      "tive": 5860,
      "ၵိပ်ႇ": 5861,
      "ၶဵတ်ႇသဵင်": 5862,
      "ႁၢႆးယႃႈ": 5863,
      "ငၢႆႈလူမ်": 5864,
      "ထၢင်ႇတႄႉ": 5865,
      "မၵ်းမၼ်ႈပၼ်": 5866,
      "လိုဝ်ႈသဝ်း": 5867,
      "ၵူၼ်းပဵၼ်ၶူဝ်ႊဝိတ်ႉ": 5868,
      "ၵမ်ႇပေႃးၸ": 5869,
      "တဝ်ႈၼမ်ႉ": 5870,
      "ပဵၼ်လုၵ်ႈၸုမ်း": 5871,
      "ပွင်ႇၶၢဝ်ႇၸူး": 5872,
      "ၵၼ်ႉၸၼ်လူလၢႆ": 5873,
      "တေႃႇဢွင်ႇသၢၼ်းၸုၵျီႇ": 5874,
      "ယွၼ်ႇယၢၼ်း": 5875,
      "တၢမ်တူဝ်": 5876,
      "သုတ်ႇမုၼ်း": 5877,
      "LDU": 5878,
      "ver": 5879,
      "လဝ်ႇ": 5880,
      "ဝၵ်ႉ": 5881,
      "သိုၼ်း": 5882,
      "ဢၢင်ႇ": 5883,
      "ၼၢတ်ႈ": 5884,
      "မိူဝ်ႇ": 5885,
      "တီႈၼွင်": 5886,
      "ၵူၼ်းတိတ်း": 5887,
      "ပဵၼ်ႁူဝ်ပဝ်ႈ": 5888,
      "မီးသင်": 5889,
      "ဢမ်ႇမႅၼ်ႈ": 5890,
      "ဢမ်ႇႁဵတ်းၸွမ်း": 5891,
      "ၵၼ်ၼမ်": 5892,
      "သိုၵ်းလႄႈ": 5893,
      "လွင်ႈလူႉသုမ်း": 5894,
      "ႁဝ်းတႄႉ": 5895,
      "ၵူၼ်းမိူင်းၵျွၵ်ႉမႄး": 5896,
      "မၢၼ်ႈပဵင်း": 5897,
      "ပၼ်သဵင်": 5898,
      "ၶဝ်ဢဝ်": 5899,
      "ၶဝ်သွင်ၵေႃႉ": 5900,
      "ၶဝ်ႈသွႆး": 5901,
      "ပၢႆၵႂၢမ်း": 5902,
      "ၸႄႈဝဵင်းၵုၼ်ႁဵင်": 5903,
      "ၼွင့်": 5904,
      "ၸွမ်းသဵၼ်ႈတၢင်း": 5905,
      "လူင်ပွင်ၸိုင်ႈၵေႃႈ": 5906,
      "ၼမ်တီႈသုတ်း": 5907,
      "ထူဝ်း": 5908,
      "ၸတ်းပွႆး": 5909,
      "ၺႃးၽဝ်": 5910,
      "ၵူႈမိုဝ်ႉ": 5911,
      "ဢုင်": 5912,
      "ပၢင်တိုၵ်းပဵၼ်": 5913,
      "ၵူတ်ႇထတ်းပၢႆးယူႇလီ": 5914,
      "မႂ်ႇထႅင်ႈ": 5915,
      "ၵပ်းၾူၼ်း": 5916,
      "ထုၵ်ႇလႆႈ": 5917,
      "ထုၵ်ႇတီႉၺွပ်း": 5918,
      "ၼႃႇယဝ်ႉ": 5919,
      "ယႂ်ႇၼမ်": 5920,
      "ၸွႆႈထႅမ်ၵူၼ်းပၢႆႈၽေးသိုၵ်း": 5921,
      "ပိတ်း": 5922,
      "သင်ၶၢၼ်": 5923,
      "ၵုမ်းထိင်း": 5924,
      "ၵဵပ်းသဵၼ်ႈမၢႆ": 5925,
      "ႁၢၼ်ႉတေႃႇ": 5926,
      "ၸႄႈဝဵင်းမိူင်းၽျၢၵ်ႈ": 5927,
      "ပီၼႆႉတႄႉ": 5928,
      "တီႈဝတ်ႉဝိႁၢရ်": 5929,
      "ၾင်ႇမိူင်းၶႄႇ": 5930,
      "ၵွပ်ႈပိူဝ်ႈၸိူင်ႉၼၼ်": 5931,
      "ႁၢင်ႈႁႅၼ်းတႃႇ": 5932,
      "ႁၢႆးၵုၺ်": 5933,
      "ၻီႊမူဝ်ႊၶရေႊ": 5934,
      "ၸတ်းႁဵတ်းပၢင်ၵႅဝ်ႈ": 5935,
      "မႂ်ႇသုင်ၶႃႈ": 5936,
      "လၢတ်ႈတီႈၸုမ်းၶၢဝ်ႇၽူႈတွႆႇႁွၵ်ႈ": 5937,
      "တင်ႈတႄႇဝၼ်းတီႈ": 5938,
      "ဝူဝ်းၵႂၢႆး": 5939,
      "မိူဝ်းၼႃႈမႃး": 5940,
      "ဢေႇသုတ်း": 5941,
      "ႁႆးလူင်": 5942,
      "ၸႃႇတိ": 5943,
      "ၵေႃ့ၼိုင်ႈ": 5944,
      "ၾိုၵ်းသွၼ်": 5945,
      "ၵႅၼ်ႇၶႅင်": 5946,
      "ၶၵ်ႉၵၢၼ်ငမ်းယဵၼ်": 5947,
      "ဢမ်ႇႁၼ်လီ": 5948,
      "ဝွၵ်း": 5949,
      "တူၵ်ႇတၵ်ႉ": 5950,
      "ၼႂ်းၵႃးၼၼ်ႉ": 5951,
      "ၸၵၸ": 5952,
      "ယိုၼ်းယၢဝ်း": 5953,
      "ၽူႈလႂ်ၽႂ်": 5954,
      "လိၼ်ႁိၼ်ၽႃ": 5955,
      "ဢင်းၵိတ်း": 5956,
      "250": 5957,
      "PN": 5958,
      "tor": 5959,
      "ယုမ်း": 5960,
      "ဢၢႆး": 5961,
      "မ့်": 5962,
      "ဢၼ်လၵ်ႉ": 5963,
      "ဢမ်ႇဢဝ်": 5964,
      "ၵေႃႈဢမ်ႇႁူႉ": 5965,
      "ၵၢၼ်ၵေႃႇသၢင်ႈ": 5966,
      "ႁဝ်းသေ": 5967,
      "ဝႆႉၸိူင်ႉၼၼ်": 5968,
      "ပ်ႉပႃႇရူင်ႇ": 5969,
      "ဝၢၼ်ႈပဵင်း": 5970,
      "ၸုမ်းၸိူဝ်း": 5971,
      "မၼ်းတေမီး": 5972,
      "တင်းလင်": 5973,
      "ယၢၵ်ႈ": 5974,
      "ၶဝ်လႄႈ": 5975,
      "ၾၢႆႇၽဵဝ်ႈမူၺ်ႉယႃႈမဝ်းၵမ်": 5976,
      "ဢွၵ်ႇဝၢၼ်ႈ": 5977,
      "ဢွၵ်ႇတၢင်းၼွၵ်ႈ": 5978,
      "ပေႃးဢမ်ႇမီး": 5979,
      "ၵျု": 5980,
      "ၶိုၼ်းမႄး": 5981,
      "ထႅင်ႈလူးၵွၼ်ႇ": 5982,
      "ႁူင်းပွႆႇသဵင်": 5983,
      "ဢူၼ်း": 5984,
      "ပၢႆႈၵႂႃႇ": 5985,
      "သိုၵ်းမၢၼ်ႈလႄႈ": 5986,
      "ၼၢင်းၸၢမ်": 5987,
      "ၵူၼ်းဝၢၼ်ႈၵူၼ်းသူၼ်": 5988,
      "မိူင်းတႆးၼႆႉ": 5989,
      "လူႉလႅဝ်": 5990,
      "ၶိုၼ်ႈယိုဝ်း": 5991,
      "သွင်မိူင်း": 5992,
      "သွင်ဝၼ်း": 5993,
      "ဝူၺ်ႇ": 5994,
      "ႁပ်ႉၸၢင်ႈ": 5995,
      "မႄႈထဝ်ႈ": 5996,
      "ၸင်ႇတေၸၢင်ႈ": 5997,
      "ႁွင်ႈၼမ်ႉ": 5998,
      "ပိုတ်ႇၼႃႈသိုၵ်း": 5999,
      "ၽွၼ်းၵၢၼ်": 6000,
      "တိူဝ်ႉမၢတ်ႇၸဵပ်း": 6001,
      "ယိုတ်းတီႈလိၼ်": 6002,
      "ၵုမ်းလုမ်းလႃး": 6003,
      "ဢၼ်မီးၼႂ်း": 6004,
      "ၼပ်ႉသွၼ်ႇ": 6005,
      "ပဵၼ်ပၢင်တိုၵ်းၵၼ်ႁၢဝ်ႈႁႅင်း": 6006,
      "ထိုင်မႃးဝၼ်းတီႈ": 6007,
      "ၸုမ်းၶၢဝ်ႇၽူႈတွႆႇႁွၵ်ႈဝႃႈ": 6008,
      "တေႃႉတႆႇ": 6009,
      "ငိၼ်းဝႃႈ": 6010,
      "ၵူၼ်းတိတ်းၸပ်းၸိူဝ်ႉမႅင်းတၢင်းပဵၼ်ၶူဝ်ႊဝိတ်ႉ": 6011,
      "ႁဵတ်းသၢင်ႈမႃး": 6012,
      "လၢၼ်ႉပျႃး": 6013,
      "ပေႃးတေမႃးတူၺ်း": 6014,
      "ၶၢမ်ႈပူၼ်ႉ": 6015,
      "ၼႂ်းၸႄႈဝဵင်းမိူင်းပၼ်ႇ": 6016,
      "ၵဵဝ်ႇၶွင်ႈၸွမ်း": 6017,
      "လႆႈလူႉတၢႆထင်တီႈ": 6018,
      "ၶဝ်ႈၵႂႃႇႁဵတ်းၵၢၼ်": 6019,
      "ပိၼ်ႈၶႂမ်ႈ": 6020,
      "ၵွင်ႉသၢၼ်": 6021,
      "ဢွင်ႇပူၼ်ႉၸၼ်ႉသိပ်း": 6022,
      "ဢွင်ႇမၢၼ်": 6023,
      "ၽိုၼ်တၢမ်းငဝ်းလၢႆး": 6024,
      "130": 6025,
      "JIC": 6026,
      "oi": 6027,
      "တိုတ်း": 6028,
      "ထႃႈ": 6029,
      "ၵၼ်း": 6030,
      "တီႈမိူင်းထႆး": 6031,
      "ၵူၼ်းၵႂႃႇ": 6032,
      "တေႃ": 6033,
      "မႃးသွၼ်ႈ": 6034,
      "ၼၼ်ႉၶႃႈဢေႃႈ": 6035,
      "မီးထိုင်": 6036,
      "သိုၵ်းႁၢၼ်": 6037,
      "ၵေႃႈဢမ်ႇမီး": 6038,
      "ဝဵင်းတၢင်ႉယၢၼ်း": 6039,
      "ၵၢၼ်သၢင်ႈၾၢႆ": 6040,
      "ၽူႈမၢႆ": 6041,
      "ဝၢၼ်ႈတႃႈလူင်": 6042,
      "ၸုမ်းလူင်းလၢႆးမိုဝ်း": 6043,
      "ၵူၼ်းမိူင်းသီႇပေႃႉ": 6044,
      "မၢၼ်ႈတူင်ႈ": 6045,
      "ပၼ်ၵူၼ်း": 6046,
      "ၶဝ်ၶႂ်ႈ": 6047,
      "ပၢႆၼႆႉ": 6048,
      "ၾၢႆႇၶႂႃ": 6049,
      "ႁူဝ်မိူင်း": 6050,
      "ႁႂ်ႈမႃး": 6051,
      "သူၸဝ်ႈ": 6052,
      "ၵွင်ႇ": 6053,
      "ႁဝ်းၶႃႈမႃး": 6054,
      "ႁဝ်းၶႃႈၵႂႃႇ": 6055,
      "သင်ၼႆ": 6056,
      "လၢႆးလုၵ်ႉၽိုၼ်ႉ": 6057,
      "ႁိူၼ်းၵူၼ်း": 6058,
      "ၼၢင်းငၢမ်း": 6059,
      "2012": 6060,
      "တႃႈပႆတၢင်း": 6061,
      "လူႉလွၼ်ႇ": 6062,
      "ဢွၼ်ၵၼ်ပၢႆႈမႃး": 6063,
      "မႄႈလဵင်ႉ": 6064,
      "မႄႈၶၢဝ်": 6065,
      "ပွႆးသၢင်ႇလွင်း": 6066,
      "သူၼ်ႁႆႈ": 6067,
      "ႁူင်းႁဵၼ်းၸၼ်ႉသုင်": 6068,
      "ယိုတ်းသိမ်းဢႃႇၼႃႇ": 6069,
      "ယႃႈမဝ်းၵမ်ၼႆႉ": 6070,
      "ႁိူၼ်းယေးၵၼ်": 6071,
      "ဝၢၼ်ႈမိူင်းမီး": 6072,
      "တၢၼ်းဢွင်ႇ": 6073,
      "ႁူၺ်ႈၵိုတ်ႈ": 6074,
      "ဢၼ်မႃးသွၼ်ႈဝႆႉတီႈ": 6075,
      "ပဵၼ်ဢၼ်မႆႈၸႂ်": 6076,
      "ႁွင်ႈၵၢၼ်ၾၢႆႇပၢႆးယူႇလီ": 6077,
      "သႅၼ်းႁုၼ်ႈမႂ်ႇ": 6078,
      "ပႆႇၸၢင်ႈပွၵ်ႈႁိူၼ်းယေး": 6079,
      "ႁပ်ႉတွၼ်ႈပီမႂ်ႇတႆး": 6080,
      "Thai": 6081,
      "သင်ႇၶႃႇၸိုင်ႈတႆး": 6082,
      "ၸႂ်ႉလၢႆးႁုၵ်ႉႁၢႆႉ": 6083,
      "ဝူႊႁၢၼ်ႉ": 6084,
      "ၸၢႆးၸၢမ်ႇမိူင်း": 6085,
      "ၼႅၼ်ႈၼႃ": 6086,
      "ၸဝ်ႈသူၺ်ႇတႅၵ်ႈ": 6087,
      "JICM": 6088,
      "61": 6089,
      "AN": 6090,
      "Pr": 6091,
      "ach": 6092,
      "ထၢင်": 6093,
      "လဝ": 6094,
      "ဝႃ": 6095,
      "သတ်ႉ": 6096,
      "ၶေႇ": 6097,
      "ၸွင်ႈ": 6098,
      "ၼဝ်ႈ": 6099,
      "ၼၼ်ႈ": 6100,
      "ၽိုၵ်း": 6101,
      "ၽေႃး": 6102,
      "ၼႆယူႇ": 6103,
      "ၼႆယဝ့်": 6104,
      "ၵူပ်ႉ": 6105,
      "တီႈၵေးသီး": 6106,
      "ၵူၼ်းႁိမ်းႁွမ်း": 6107,
      "ႁူ့": 6108,
      "တေႁပ်ႉ": 6109,
      "လႆႈၵိုတ်းယင်ႉ": 6110,
      "မႃးလိူဝ်ၵဝ်ႇ": 6111,
      "ၼႂ်းၸႄႈမိူင်းတႆး": 6112,
      "ၶႃႈၼႃ": 6113,
      "ၽူႈၵတ်ႉၶႅၼ်ႇ": 6114,
      "ၶူပ်း": 6115,
      "ၼမ်ႉလိၼ်ႁိၼ်ၽႃ": 6116,
      "ႁႅင်းလႄႈ": 6117,
      "ၼွင်ႇ": 6118,
      "ၵုတ်ႈ": 6119,
      "ပူၵ်ႇ": 6120,
      "ၵဵတ်း": 6121,
      "ၸိူဝ်ႉၽၼ်း": 6122,
      "ၽွင်းယၢမ်း": 6123,
      "ဝတ်ႉၵူႇတဝ်ႈ": 6124,
      "ဢွၼ်ၵၼ်ပွၵ်ႈမိူဝ်း": 6125,
      "ပီႈၼွင့်": 6126,
      "ၵႅၼ်": 6127,
      "တူၺ်းငဝ်းလၢႆး": 6128,
      "ၶူဝ်းလၢႆး": 6129,
      "ၶူဝ်းဝိတ်ႉ": 6130,
      "ပိူဝ်ႈႁႂ်ႈ": 6131,
      "ႁူပ်ႉတၢင်းယၢပ်ႇၽိုတ်ႇ": 6132,
      "ၽွၼ်းပၢင်ႈ": 6133,
      "ၶဝ်ႈႁူမ်ႈပႃး": 6134,
      "တႃႇတေပဵၼ်မႃး": 6135,
      "တီႈဝဵင်းတႃႈၶီႈလဵၵ်း": 6136,
      "ၵေႃႈမီးၼမ်": 6137,
      "ၸေႈတွၼ်ႈ": 6138,
      "ၾႅတ်ႇ": 6139,
      "ၵႂႃႇတၢင်းၼႃႈ": 6140,
      "မေႃယႃလူင်": 6141,
      "ၸီႉၸမ်ႈ": 6142,
      "ပၢင်သွၼ်ၼႆႉ": 6143,
      "ယင်းပႆႇႁူႉ": 6144,
      "ၸႅၵ်ႇၽႄ": 6145,
      "သၢႆးၶၢဝ်": 6146,
      "ၶႃသွင်ၵေႃႉ": 6147,
      "ၶၢပ်ႈတူဝ်တၢႆ": 6148,
      "ဢဝ်လိူင်ႈလၢဝ်း": 6149,
      "ပွင်ႈပၢႆ": 6150,
      "လႆႈပၢႆႈယၢၼ်ႁိူၼ်းယေးတီႈယူႇ": 6151,
      "မီးသုၼ်ႇတွတ်ႈၶႅပ်းၵၢင်ၸႂ်": 6152,
      "ၸိူင်းလႅဝ်း": 6153,
      "ass": 6154,
      "လိုပ်ႈလမ်း": 6155,
      "ပီႇတူႉၸိတ်ႉ": 6156,
      "edia": 6157,
      "သုၵ်ႉသၵ်ႉ": 6158,
      "သႅပ်ႊထႅမ်ႊၿိူဝ်ႊ": 6159,
      "ၸဵင်ႇႁွင်ႇဝၼ်းဢွၵ်ႇ": 6160,
      "Ac": 6161,
      "DV": 6162,
      "Mor": 6163,
      "WHO": 6164,
      "ht": 6165,
      "မီ": 6166,
      "လင်း": 6167,
      "ၻေႃႊ": 6168,
      "တီႈၼမ်ႉၶမ်း": 6169,
      "တီႈပၢင်ႇ": 6170,
      "ပဵၼ်ပွၵ်ႈ": 6171,
      "ပဵၼ်ၶၢဝ်ႇ": 6172,
      "ၼႂ်းလုၵ်ႈ": 6173,
      "မီးလုၵ်ႈ": 6174,
      "ဢမ်ႇပဵၼ်တၢင်းၵၢၼ်": 6175,
      "ဝဵင်းဢိၼ်း": 6176,
      "ၵႂႃႇဢဝ်": 6177,
      "ၽူး": 6178,
      "လွင်ႈတူင်ႉၼိုင်": 6179,
      "ႁဵတ်းပၢင်": 6180,
      "ဝၢၼ်ႈႁူဝ်": 6181,
      "တႃႇလႆႈ": 6182,
      "ၸႄႈဝဵင်းသီႇသႅင်ႇ": 6183,
      "ၾၢႆႇထႆး": 6184,
      "ၾၢႆႇႁႅင်းၵၢၼ်": 6185,
      "ၾၢႆႇပွင်ႇၶၢဝ်ႇ": 6186,
      "ထိုင်ၼႆႉ": 6187,
      "တေႃႇဝတ်းဝႂ်": 6188,
      "တပ်ႉၶလယ": 6189,
      "ၼၢင်းလၢဝ်": 6190,
      "ၵူၼ်းဝၢၼ်ႈပၢင်": 6191,
      "သီႇၵိပ်ႇ": 6192,
      "တိၵ်ႊ": 6193,
      "မိူၼ်ၼၼ်": 6194,
      "တႅၼ်းတၢင်": 6195,
      "သိုပ်ႇၵႂႃႇ": 6196,
      "သွင်ၽူဝ်မေး": 6197,
      "တီႉၵႂႃႇ": 6198,
      "ပီႈဢၢႆႈ": 6199,
      "တႄႇပိုတ်ႇ": 6200,
      "ၵူတ်ႇထတ်းပၼ်": 6201,
      "တၢင်ႇဝဵင်း": 6202,
      "ၶွင်ၵိၼ်ယႅမ်ႉ": 6203,
      "ပွႆးသွၼ်းၼမ်ႉ": 6204,
      "လုမ်းလုမ်း": 6205,
      "ပိင်း": 6206,
      "ၼွင်ႁၢႆးယႃႈ": 6207,
      "ၵႂၢမ်းတွပ်ႇ": 6208,
      "ႁူဝ်ပဝ်ႈပႃႇတီႇသိူဝ်ၽိူၵ်ႇ": 6209,
      "ႁူင်းႁဵၼ်းလူင်ပွင်ၸိုင်ႈ": 6210,
      "တ်ႊသ": 6211,
      "ယိူင်ႈ": 6212,
      "မႅတ်ႇ": 6213,
      "ၽၵ်းၵႃႇ": 6214,
      "ၵဵပ်းသိုၵ်း": 6215,
      "ၸိုင်ႈမိူင်းၼႆႉ": 6216,
      "ၼၢင်းယိင်းၵေႃႉၼိုင်ႈ": 6217,
      "ၾိင်ႈငႄႈၾိင်ႈထုင်း": 6218,
      "ၸုမ်းဢူၺ်းလီသိုၵ်း": 6219,
      "ၸတ်းႁဵတ်းပၢင်သွၼ်": 6220,
      "ၶီႇလူတ်ႉၶိူင်ႈ": 6221,
      "တီႈယူႇတၼ်းသဝ်း": 6222,
      "ၶဝ်ႈပႃးၼႂ်း": 6223,
      "ထတ်းသၢင်ဝႃႈ": 6224,
      "ယုၵ်းယၢင်ႇ": 6225,
      "ဢုပ်ႇၶႆႈၼႄ": 6226,
      "ႁုၼ်ႈမုၼ်း": 6227,
      "ဢဵၼ်း": 6228,
      "Chin": 6229,
      "ပရိတ်ႈ": 6230,
      "ဢူးဝိၼ်းမိၼ်ႉ": 6231,
      "တႅဝ်းႁူမ်ႈ": 6232,
      "ပိတ်ႉမၢၵ်ႇၼင်": 6233,
      "NMSP": 6234,
      "92": 6235,
      "As": 6236,
      "ယေႇ": 6237,
      "သဵၼ်": 6238,
      "သႅင်း": 6239,
      "ၸၢၼ်ႈ": 6240,
      "ၸၵ်ႉ": 6241,
      "ၽႃး": 6242,
      "ၽၢၼ်": 6243,
      "ၽိုၼ်း": 6244,
      "တီႈသွင်": 6245,
      "တီႈၶႃ": 6246,
      "မိူင်းႁူမ်ႈ": 6247,
      "တေသူင်ႇ": 6248,
      "ၼၼ်ႉပဵၼ်": 6249,
      "ၼႂ်းပၢင်တိုၵ်း": 6250,
      "ၼႂ်းတူင်ႇ": 6251,
      "ၼႂ်းပီၼႆႉ": 6252,
      "ၼႂ်းႁူဝ်လိူၼ်": 6253,
      "တူး": 6254,
      "မီးၶၢဝ်ႇ": 6255,
      "မီးၽူႈၶဝ်ႈႁူမ်ႈ": 6256,
      "တၢင်းႁၼ်ထိုင်": 6257,
      "ၵႂင်": 6258,
      "ဝၼ်းလဵဝ်": 6259,
      "ၸုမ်းပရႁိတ": 6260,
      "ၸိူဝ်းၵႂႃႇ": 6261,
      "မၼ်းလႆႈ": 6262,
      "ၼိုင်ႈလမ်း": 6263,
      "ၼမ်ႉသၢႆ": 6264,
      "ၼမ်ႉတွၼ်း": 6265,
      "တႃႇၵေႃႇသၢင်ႈ": 6266,
      "ဝ်ႊတိူဝ်ႊ": 6267,
      "ၸႂ်ဢမ်ႇလီ": 6268,
      "ႁႂ်ႈၸၢင်ႈ": 6269,
      "သွင်း": 6270,
      "ပေႃးၵႂႃႇ": 6271,
      "ႁိူဝ်ႉ": 6272,
      "သမ်ႉတေ": 6273,
      "ယူႇတီႈၶွမ်ႊမသျိၼ်ႊ": 6274,
      "တၢႆယွၼ်ႉ": 6275,
      "ၶမ်းၼႆႉ": 6276,
      "ၵႃးလမ်းၼိုင်ႈ": 6277,
      "တိုတ်ႉ": 6278,
      "ယၢမ်းလဵဝ်သမ်ႉ": 6279,
      "ႁူမ်ႈၵၼ်ၸတ်းႁဵတ်း": 6280,
      "ၸဵမ်ၸဝ်ႉ": 6281,
      "သႂ်ႇပၼ်": 6282,
      "ယွၼ်းတၢင်းၸွႆႈထႅမ်": 6283,
      "ၵုမ်းလႆႈ": 6284,
      "သဵင်ႈငိုၼ်း": 6285,
      "ၽၵ်းၵႃ": 6286,
      "မၢင်ဝၢၼ်ႈ": 6287,
      "ၵူၼ်းမိူင်းတႆးႁဝ်း": 6288,
      "သွင်ၾၢႆႇလႆႈပဵၼ်ပၢင်တိုၵ်းၵၼ်": 6289,
      "ယူတ်းယႃတူဝ်တီႈႁူင်းယႃ": 6290,
      "ၼႂ်းမိူင်းႁူမ်ႈတုမ်ပတ်းပိုၼ်ႉ": 6291,
      "ၵေႃႉပဵၼ်ပေႃႈ": 6292,
      "ႁၼ်ထိုင်ၸိူင်ႉၼၼ်": 6293,
      "သိုဝ်ႈယူဝ်း": 6294,
      "ၽူႈၼမ်းၼႂ်းၵူႈလွင်ႈလွင်ႈ": 6295,
      "ပဵၼ်တီႈမၢႆတွင်း": 6296,
      "လွင်ႈတၢင်းမၼ်း": 6297,
      "ထွမ်ႇငိၼ်း": 6298,
      "ၸၢႆးသႅင်ယ": 6299,
      "လၢမ်းၽႄႈႁၢဝ်ႈႁႅင်း": 6300,
      "လူတ်းယွမ်းလူင်း": 6301,
      "ဢိၼ်ႊၻီႊယိူဝ်ႊ": 6302,
      "ၸၢင်ႉၽိူၵ်ႇ": 6303,
      "ၵရမ်ႊ": 6304,
      "သၢၼ်ၶတ်းတေႃႇသိုၵ်းမၢၼ်ႈ": 6305,
      "သၢၼ်မိုဝ်းၵၼ်": 6306,
      "port": 6307,
      "ႅတ်ႊတိၵ်ႊ": 6308,
      "ၵူပ်ႉၵူႈ": 6309,
      "68": 6310,
      "97": 6311,
      "MA": 6312,
      "ပၺ်ႇၺႃႇ": 6313,
      "သႄႉ": 6314,
      "ျႃႇ": 6315,
      "ၼၼ်ႇတ": 6316,
      "ၽုမ်း": 6317,
      "ႁပ့်": 6318,
      "”။": 6319,
      "တီႈတႃႈ": 6320,
      "တီႈဢေႇသုတ်း": 6321,
      "မိူင်းယွင်း": 6322,
      "လႆႈၶၢႆႉ": 6323,
      "လႆႈလူႉၵွႆ": 6324,
      "ပဵၼ်ၼၢင်းယိင်း": 6325,
      "မႃးပၼ်": 6326,
      "မႃးတႃႇသေႇ": 6327,
      "မီးသင်ၶၸဝ်ႈ": 6328,
      "သေၵႂႃႇ": 6329,
      "ယဝ်ႉၵမ်းၼိုင်ႈ": 6330,
      "လွင်ႈၵူၼ်းမၢတ်ႇၸဵပ်း": 6331,
      "ၸုမ်းလူင်ပွင်ၸိုင်ႈ": 6332,
      "တႃႇမူၼ်ႉမႄး": 6333,
      "ဢဝ်ဢွၵ်ႇ": 6334,
      "သွႆႈ": 6335,
      "ပေႃးၸိူင်ႉၼၼ်": 6336,
      "ၵွမ်ႉ": 6337,
      "လိၵ်ႈၵိၼ်ၵႅၼ်ႇ": 6338,
      "ၵူၺ်းၼႆ": 6339,
      "သဵတ်ႈ": 6340,
      "တူဝ်မၼ်းၸၢႆး": 6341,
      "ယူႇတီႈတပ်ႉသိုၵ်းလူင်ပွင်ၸိုင်ႈမၢၼ်ႈ": 6342,
      "ႁိူၼ်းၶိုၼ်း": 6343,
      "ပူၺ်ႈ": 6344,
      "တိုၵ်းယိုဝ်း": 6345,
      "သိုၵ်းမၢၼ်ႈၼႆႉ": 6346,
      "ပႆႇပိုတ်ႇ": 6347,
      "ႁိုဝ်ၼႆ": 6348,
      "ႁႃလၢႆး": 6349,
      "မူင်းၼၼ်ႉၵေႃႈ": 6350,
      "ၸူဝ်ႇ": 6351,
      "ၸိူင်ႉၼင်ႇႁိုဝ်": 6352,
      "ၶိုၼ်ႈထႅင်ႈ": 6353,
      "2112": 6354,
      "ၵိၼ်ၶၢတ်ႇ": 6355,
      "သၽႃးမိူင်းႁူမ်ႈတုမ်": 6356,
      "ယဵၼ်သီႇ": 6357,
      "ပႅၼ်ႈ": 6358,
      "ယူၼ်း": 6359,
      "လူၺ်ႈတၢင်းပဵၼ်": 6360,
      "လုင်းသၢင်ႇ": 6361,
      "ယွမ်းလူင်း": 6362,
      "မၢတ်ႇၸဵပ်းလိူဝ်ႁႅင်း": 6363,
      "ယင်းဢမ်ႇ": 6364,
      "ၵၢတ်ႇတဝ်ႇ": 6365,
      "တီႈဝဵင်းမူႇၸေႊ": 6366,
      "ႁဵတ်းႁႂ်ႈၵူၼ်း": 6367,
      "သၢၼ်ၶတ်းယႃႈမဝ်းၵမ်": 6368,
      "ပိၵ်ႉဝႆႉ": 6369,
      "ႁူပ်ႉထူပ်းဢုပ်ႇဢူဝ်း": 6370,
      "ၵွၼ်ႇၼႃႈ": 6371,
      "ဢွၵ်ႇမႃးဝႃႈ": 6372,
      "ၼႂ်းဝဵင်းၵျွၵ်ႉမႄး": 6373,
      "မၼ်းၸဝ်ႈၼႆႉ": 6374,
      "ႁၵ်ႉၵၼ်": 6375,
      "ဢမ်ႇပဵၼ်ၵၢၼ်": 6376,
      "ၵေႃႉပဵၼ်မႄႈ": 6377,
      "ပူတ်းယႃႉပႅတ်ႈ": 6378,
      "ၾႅတ်ႊတရႄႊ": 6379,
      "လိၼ်းထုတ်ႉ": 6380,
      "တိုၵ်းသူၼ်းထိုင်": 6381,
      "ၵႃးတၢင်ႇဝူဝ်း": 6382,
      "ပႅင်းၸင်း": 6383,
      "သင်ႇၶႃႇၸဝ်ႈ": 6384,
      "ile": 6385,
      "ၸၢႆးလၢဝ်သႅင်": 6386,
      "Uni": 6387,
      "ၶုၵ်းထူပ်း": 6388,
      "ၶွတ်ႇယွတ်ႈပၢႆၵႂၢမ်း": 6389,
      "ပွတ်းဢွၼ်ႇတွၼ်ႈၼိုင်ႈ": 6390,
      "DVB": 6391,
      "FA": 6392,
      "Media": 6393,
      "el": 6394,
      "ir": 6395,
      "ww": 6396,
      "ငၢၼ်ႇ": 6397,
      "ပႄး": 6398,
      "ၵူၼ်းလႃႈသဵဝ်ႈ": 6399,
      "ၵူၼ်းၵဵင်းတုင်": 6400,
      "တေတူၵ်း": 6401,
      "လႆႈၶႃႈ": 6402,
      "မႃးၸိုင်": 6403,
      "ဢၼ်မႂ်ႇ": 6404,
      "မီးၽႅၼ်ၵၢၼ်": 6405,
      "မီးၽူႈယႂ်ႇၵူၼ်းလူင်": 6406,
      "တၢင်းလီ": 6407,
      "တႆးႁဝ်းၶႃႈ": 6408,
      "ၵႂ်ႈ": 6409,
      "ဝဵင်းသႅၼ်ဝီ": 6410,
      "ဝဵင်းႁႅင်": 6411,
      "ဝႆႉၶႃႈ": 6412,
      "ႁဵတ်းလႆႈ": 6413,
      "လိသ": 6414,
      "ႁွင်ႊ": 6415,
      "မၼ်းပႆႇ": 6416,
      "ၵူၼ်းမိူင်းၼၼ်ႉ": 6417,
      "မၢၼ်ႈဝဵင်း": 6418,
      "ပၼ်ၵၼ်": 6419,
      "ၶဝ်ၶိုၼ်း": 6420,
      "ၶဝ်ႈႁႃ": 6421,
      "ၶဝ်ႈတီႉ": 6422,
      "ၸႄႈဝဵင်းလၢင်းၶိူဝ်း": 6423,
      "ၾၢႆႇၸၢဝ်းၶိူဝ်း": 6424,
      "ၸၢႆးသူၺ်ႇ": 6425,
      "ထႅၼ်ႈ": 6426,
      "ၵွၼ်ႈ": 6427,
      "ၶိူဝ်": 6428,
      "တူဝ်ၵူၼ်းႁၢႆႉ": 6429,
      "လႅၼ်း": 6430,
      "သုၶမ်း": 6431,
      "ယူႇတီႈႁွင်ႈၵၢၼ်": 6432,
      "ၼၢင်းၼူၼ်း": 6433,
      "တိၵ်ႉ": 6434,
      "ဢိူင်ႇပၢင်လူင်": 6435,
      "ႁၼ်မႅၼ်ႈ": 6436,
      "ပုံ": 6437,
      "ယိုဝ်းၼၼ်ႉ": 6438,
      "ၶိုၼ်ႈၵႂႃႇ": 6439,
      "လွႆလမ်": 6440,
      "မႄႈသွတ်ႇ": 6441,
      "တေလႆႈႁပ်ႉ": 6442,
      "ၸၼ်ႉၸိူဝ်ႉၸၢတ်ႈ": 6443,
      "ပိုတ်ႇလၢတ်ႈဝႃႈ": 6444,
      "ၸွႆႈထႅမ်ၵၼ်": 6445,
      "ၼွင်ၽႃ": 6446,
      "ဝႆႉတီႈဝတ်ႉ": 6447,
      "ရူတ်ႉၾႆး": 6448,
      "ဢူးထုၼ်း": 6449,
      "ယင်းလႆႈ": 6450,
      "ၸုမ်ႇ": 6451,
      "ၸုလႃး": 6452,
      "သဵင်ႈသဵင်ႈ": 6453,
      "ၽၵ်းမီႇ": 6454,
      "ၸူးထိုင်": 6455,
      "သၢၼ်ၶတ်းသိုၵ်းမၢၼ်ႈ": 6456,
      "ၽိတ်းၵၼ်": 6457,
      "တွပ်ႇလၢတ်ႈဝႃႈ": 6458,
      "ၸိူင်ႉႁိုဝ်ၵေႃႈ": 6459,
      "တတ်းသိၼ်": 6460,
      "ယိူင်းမၢႆ": 6461,
      "ဢိင်ၼိူဝ်ငဝ်းလၢႆး": 6462,
      "တႅပ်းမႆႉ": 6463,
      "ယူႇသဝ်းၵိၼ်သၢင်ႈ": 6464,
      "ထၢင်ႇဝႃႈ": 6465,
      "ပရႃႇ": 6466,
      "ပၢင်ၵုမ်လူင်လွင်ႈငမ်းယဵၼ်": 6467,
      "ယွင်ႈၵုင်ႇ": 6468,
      "ard": 6469,
      "ၸွမ်ၸိုင်ႈမိူင်းႁူမ်ႈတုမ်": 6470,
      "ပူႇမွၼ်ႇ": 6471,
      "တီႈၼိုင်ႈလႄႈ": 6472,
      "ၺႃႇၼ": 6473,
      "ၼပ်ႉႁူဝ်သိပ်း": 6474,
      "မီႊတိူဝ်ႊ": 6475,
      "ဝတ်ႉဝိႁၢရ်လူင်": 6476,
      "ယႂႃႇတွၼ်ႈၼိူဝ်": 6477,
      "ႁဝ်းၸဝ်ႈၶဝ်": 6478,
      "ဝႅပ်ႊၾွမ်ႊ": 6479,
      "ၵလျႃႇ": 6480,
      "လုတ်ႈႁၢမ်း": 6481,
      "လဝၵ": 6482,
      "ဢဵၼ်းဢၢၼ်း": 6483,
      "China": 6484,
      "82": 6485,
      "96": 6486,
      "national": 6487,
      "ငႃ": 6488,
      "ည်း": 6489,
      "တြ": 6490,
      "တိုင်ႈ": 6491,
      "လၼ်ႇ": 6492,
      "လၢၼ်း": 6493,
      "ၼၢၼ်": 6494,
      "ႁၢင်း": 6495,
      "ႁူပ့်": 6496,
      "ပဵၼ်တႃႇ": 6497,
      "ၼႂ်းတပ်ႉ": 6498,
      "ၼႂ်းၶၢဝ်း": 6499,
      "ဢၼ်ၸတ်း": 6500,
      "ဢၼ်ၸၢင်ႈ": 6501,
      "ဢၼ်ႁွတ်ႈၽႅဝ်": 6502,
      "မီးပႃး": 6503,
      "မီးၵၢင်ၸႂ်": 6504,
      "မီးလုၵ်ႈႁဵၼ်း": 6505,
      "ဢမ်ႇလိုဝ်ႈ": 6506,
      "ဢမ်ႇမိူၼ်ၵၼ်": 6507,
      "ဢမ်ႇႁၢၼ်ႉၸႂ်": 6508,
      "ၸိူင့်": 6509,
      "လႄႈၵူၼ်းမိူင်း": 6510,
      "ယူႇတႂ်ႈ": 6511,
      "ဢွၵ်း": 6512,
      "ၵႂႃႇသူင်ႇ": 6513,
      "ၵႂႃႇပႅတ်ႈ": 6514,
      "ၵႂႃႇတိၵ်းတိၵ်း": 6515,
      "ၵၢၼ်မၢၵ်ႈမီး": 6516,
      "လွင်ႈပၢႆးယူႇလီ": 6517,
      "ႁဵတ်းယူႇ": 6518,
      "ၸုမ်းပၢႆးယူႇလီ": 6519,
      "ၸဝ်ႈလႆႈ": 6520,
      "မၢၼ်ႈသူႈ": 6521,
      "ၾၢႆႇပႃႇမႆႉ": 6522,
      "ၸၢႆးတႆး": 6523,
      "ၸၢႆးတဵင်း": 6524,
      "ႁႂ်ႈၸွႆႈ": 6525,
      "ပေႃးတေမီး": 6526,
      "ၵွႆႈ": 6527,
      "ၵျိ": 6528,
      "ၸိူဝ်းၼႆႉလႄႈ": 6529,
      "တူဝ်ၶိင်း": 6530,
      "လၢႆပွၵ်ႈ": 6531,
      "သုၵ်ႈ": 6532,
      "ႁူင်းသဝ်း": 6533,
      "လိူၼ်ဢေႃႊၵတ်ႊသ်": 6534,
      "ပႃးၵွင်ႈ": 6535,
      "ၼၢင်းၶဵဝ်": 6536,
      "ၺႃးၸၢၵ်ႇမၢၵ်ႇ": 6537,
      "ၵူၼ်းဝၢၼ်ႈတႃႈလူင်": 6538,
      "မၢၵ်ႇၶဝ်ႈ": 6539,
      "တိူဝ်ႇ": 6540,
      "မိူင်းတႆးပွတ်းၸၢၼ်း": 6541,
      "မူင်းၵၢင်ၼႂ်": 6542,
      "မိူၼ်မိူဝ်ႈၵူႈပွၵ်ႈ": 6543,
      "သိုပ်ႇပၢၼ်": 6544,
      "ၶိုၼ်ႈလူင်း": 6545,
      "ၶိုၼ်ႈၵျွင်း": 6546,
      "သွင်တီႈ": 6547,
      "ႁူမ်ႈၵၼ်ၵႂႃႇ": 6548,
      "လွႆသၢမ်သိပ်း": 6549,
      "မိူဝ်ႈၼႆႉဝၼ်းတီႈ": 6550,
      "မႂ်ႇမွၵ်ႇၸၢမ်": 6551,
      "တေလႆႈႁဵတ်း": 6552,
      "မိူင်းႁူမ်ႈတုမ်ၾႅတ်ႊၻရႄႊ": 6553,
      "ၶူဝ်းၼွၼ်း": 6554,
      "ႁိမ်းၾင်ႇ": 6555,
      "သူၼ်မၢၵ်ႇ": 6556,
      "ၼွင်ပိင်": 6557,
      "ၵဵဝ်ႇၵပ်းၵၢၼ်": 6558,
      "လၢႆလၢႆလွင်ႈ": 6559,
      "ၽၵ်းယိူဝ်ႈ": 6560,
      "လၵ်းပၢႆ": 6561,
      "တိုၼ်းဝႃႈ": 6562,
      "ပၼ်ႇပုတ်ႈ": 6563,
      "ပၢၵ်ႇပၢႆ": 6564,
      "ၸွမ်းၼင်ႇပၵ်းပိူင်": 6565,
      "ဝၢင်းၶိူင်ႈ": 6566,
      "လုမ်ႈၾႃႉၼႆႉ": 6567,
      "ယိုၼ်ႈထိုင်": 6568,
      "ၵႆႉမီးလွင်ႈ": 6569,
      "လွင်းသွမ်း": 6570,
      "ၽွတ်ႈႁႅၼ်း": 6571,
      "ထဝ်ႈယိင်း": 6572,
      "ယူတ်းယႃတူဝ်ဝႆႉတီႈ": 6573,
      "လႆႈႁပ်ႉၸုမ်ႈၶူး": 6574,
      "ၶီႇၵႃး": 6575,
      "ၵေႃႉပဵၼ်ၽူဝ်": 6576,
      "သမ်းၶဵမ်": 6577,
      "ဝဵင်းမိူင်းပၼ်ႇ": 6578,
      "ၽြႃးပဵၼ်ၸဝ်ႈ": 6579,
      "မိုတ်ႈၵိုဝ်းမၢႆ": 6580,
      "ပိၼ်ႈတူၵ်း": 6581,
      "ၼႂ်းဝၢင်းႁိူၼ်း": 6582,
      "ဝႃႈၼၼ်သေတႃႉၵေႃႈ": 6583,
      "ဢုပ်ႇဢူဝ်းငူပ်ႉငီႉၵၼ်": 6584,
      "ဝီႊသႃႊ": 6585,
      "ငွႆး": 6586,
      "ကြီး": 6587,
      "900": 6588,
      "AL": 6589,
      "uc": 6590,
      "ငၢၼ်": 6591,
      "ပၢတ်ႇ": 6592,
      "ဝဵ": 6593,
      "ဝိၼ်": 6594,
      "သား": 6595,
      "ေႈ": 6596,
      "ဲ့": 6597,
      "ၼီႇ": 6598,
      "ၽဝ": 6599,
      "ၽႃႉ": 6600,
      "ၵူၺ်ႈ": 6601,
      "ၵူၼ်းပွၵ်ႉ": 6602,
      "မႃးလႆႈ": 6603,
      "မႃးၶၢႆ": 6604,
      "ၼႂ်းၸိူဝ်ႉၸၢတ်ႈ": 6605,
      "ဢၼ်ၸႂ်ႉ": 6606,
      "ဢၼ်ဢွင်ႇပေႉ": 6607,
      "မီးဝႆႉၼၼ်ႉ": 6608,
      "တၢင်းၶၢႆ": 6609,
      "တၢင်းလႂ်": 6610,
      "ဢမ်ႇၶဝ်ႈ": 6611,
      "ဢမ်ႇတဵမ်ထူၼ်ႈ": 6612,
      "ၸိူဝ့်": 6613,
      "သိုၵ်းယိုတ်းမိူင်း": 6614,
      "ၶႃႈတႄႉ": 6615,
      "ယူႇၸမ်": 6616,
      "ၵေႃႈသမ်ႉ": 6617,
      "ဢွႆႈ": 6618,
      "ၵႂႃႇႁူပ်ႉ": 6619,
      "ၵၢၼ်လုၵ်ႉၽိုၼ်ႉ": 6620,
      "လိူတ်ႇ": 6621,
      "ပၢင်လိူၵ်ႈ": 6622,
      "ပၢင်ၶႅင်ႇ": 6623,
      "ပၢင်ၾိုၵ်းၽွၼ်ႉ": 6624,
      "လွင်ႈၼၢင်းယိင်းတႆး": 6625,
      "ႁဝ်းလႄႈ": 6626,
      "ႁဝ်းၵူၺ်း": 6627,
      "မၼ်းၸၢင်ႈ": 6628,
      "မၼ်းလူဝ်ႇ": 6629,
      "ပီပၢႆယဝ်ႉ": 6630,
      "ၵူၼ်းမိူင်းသၢတ်ႇ": 6631,
      "ၼိုင်ႈၵေႃႈ": 6632,
      "တႃႇႁဵတ်း": 6633,
      "ၸႄႈဝဵင်းၼွင်ၶဵဝ်": 6634,
      "ဢဝ်တီႈ": 6635,
      "လူင်ပွင်ၸိုင်ႈမိူင်းၶႄႇ": 6636,
      "ယူႇတီႈငဝ်ႈငုၼ်း": 6637,
      "ၼမ်သေ": 6638,
      "ၼမ်ၶိုၼ်ႈမႃး": 6639,
      "ႁူင်းႁေႃ": 6640,
      "ႁူင်းတွတ်ႈၶႅပ်း": 6641,
      "ယႃတူဝ်": 6642,
      "ၸတ်းပွင်": 6643,
      "ၸတ်းပၢင်လိူၵ်ႈတင်ႈ": 6644,
      "တွၼ်ႈသူး": 6645,
      "ၼၢင်းၼွၼ်း": 6646,
      "ၼၢင်းႁွမ်": 6647,
      "ၺႃးၵူၼ်းႁၢႆႉ": 6648,
      "ၵူၼ်းဝၢၼ်ႈၼမ်ႉ": 6649,
      "ၵူႈႁွင်ႈၵၢၼ်": 6650,
      "ၼုတ်း": 6651,
      "ပႆႇပွႆႇတူဝ်": 6652,
      "ပိုၼ်ၽၢဝ်ႇသဵၼ်ႈၸိုဝ်ႈ": 6653,
      "လိူၵ်ႈဢဝ်": 6654,
      "မူႇပိူင်": 6655,
      "တိုၵ်ႉၶဵင်ႈၶႅင်": 6656,
      "မိူဝ်ႈၼႆႉတႄႉ": 6657,
      "မႂ်ႇၼႆႉ": 6658,
      "သႂ်ႇၽႃႈတူမ်းသူပ်း": 6659,
      "ၶူဝ်းၶဵဝ်": 6660,
      "ယွၼ်းငိုၼ်း": 6661,
      "ၸၢတ်ႈပၢၼ်": 6662,
      "ၸႄႈမိူင်းလႄႈ": 6663,
      "ၼႂ်းမိူင်းတႆးပွတ်းႁွင်ႇ": 6664,
      "တီႈဝဵင်းၵဵင်းမႆႇ": 6665,
      "ဢၼ်လႆႈလူႉတၢႆ": 6666,
      "ပဵင်းပေႃး": 6667,
      "ၶျႃး": 6668,
      "တေဢမ်ႇပဵၼ်": 6669,
      "ပၢင်ႇလႅင်းသႂ်": 6670,
      "ႁၢမ်ႈၵူၼ်းမိူင်း": 6671,
      "ၾူၼ်ႊ": 6672,
      "ၸႄႈဝဵင်းမိူင်းယႆ": 6673,
      "ၵွၼ်ႇပႆႇ": 6674,
      "ပူၵ်းတင်ႈ": 6675,
      "ၵၼ်သေၵမ်း": 6676,
      "ပတ်းပိုၼ်ႉၸိုင်ႈမိူင်း": 6677,
      "ၵွင်ၶမ်း": 6678,
      "ၾူၼ်လူင်": 6679,
      "မိုၼ်ႇပျႃး": 6680,
      "ဢမ်ႇပဵၼ်သင်": 6681,
      "တႅပ်းတတ်းဝႃႈ": 6682,
      "တေဢဝ်လိူင်ႈ": 6683,
      "ၼႂ်းၸႄႈဝဵင်းမိူင်းသၢတ်ႇ": 6684,
      "ၼႂ်းၸႄႈဝဵင်းၵျွၵ်ႉမႄးၼႆႉ": 6685,
      "လႆႈဢွၼ်ၵၼ်ပၢႆႈၽေးသိုၵ်း": 6686,
      "ၼႂ်းပၢင်ၼႆႉ": 6687,
      "တမ်းဝၢင်းဝႆႉ": 6688,
      "ၵရု": 6689,
      "ၵႃးတၢင်ႇၵုၼ်ႇ": 6690,
      "ဢမ်ႇတၼ်းလႆႈသင်": 6691,
      "ဢွၵ်ႊထူဝ်ႊပိူဝ်ႊ": 6692,
      "ဢုပ်ႉပိူင်ႇၽွင်းငမ်း": 6693,
      "ပလိၵ်ႈၾၢႆႇၽဵဝ်ႈမူၺ်ႉယႃႈမဝ်းၵမ်": 6694,
      "vid": 6695,
      "ၵူၼ်းၸွမ်းၵႃး": 6696,
      "RFA": 6697,
      "com": 6698,
      "ue": 6699,
      "တုမ်း": 6700,
      "ပထ": 6701,
      "မႆ": 6702,
      "သပေႇ": 6703,
      "ဢမု": 6704,
      "ႊရ": 6705,
      "တီႈလဵဝ်": 6706,
      "မိူင်းမူႉ": 6707,
      "လူဝ်ႉ": 6708,
      "ၼႂ်းလူင်": 6709,
      "ၼႂ်းလိူၼ်ၵျုၼ်ႊ": 6710,
      "ၵေႃႉၵူၺ်း": 6711,
      "ၵႂႃႇၶၢႆ": 6712,
      "ၵၢၼ်ၸိူဝ်ႉၸၢတ်ႈ": 6713,
      "ၽူႈတၢင်": 6714,
      "ၽူႈသူၼ်ၸႂ်": 6715,
      "လိူင်း": 6716,
      "ဝၢၼ်ႈလူင်": 6717,
      "ၶူမ်": 6718,
      "ၸဝ်ႈႁဝ်း": 6719,
      "တင်းဝၢၼ်ႈ": 6720,
      "ပီၼႃႈ": 6721,
      "ၵူၼ်းမိူင်းထႆး": 6722,
      "ၵူၼ်းမိူင်းၼႄၵၢင်ၸႂ်": 6723,
      "ၶဝ်တိုၼ်း": 6724,
      "ၾၢႆႇမၢႆမီႈ": 6725,
      "ဢဝ်လွင်ႈ": 6726,
      "လွၵ်ႈ": 6727,
      "တူဝ်ထူပ်း": 6728,
      "ၼႃႈတႃ": 6729,
      "ထူး": 6730,
      "ၶိူဝ်းၵူၼ်း": 6731,
      "သီႇလႅၼ်": 6732,
      "လိၼ်ၵူၼ်ႇ": 6733,
      "ဢုင်း": 6734,
      "ၶိုၼ်ႈလေႃႇ": 6735,
      "ၶေႃႈလႆႈၸႂ်": 6736,
      "သူင်ႇၶၢႆ": 6737,
      "ၶႂ်ႈတုၵ်းယွၼ်း": 6738,
      "မိူင်းႁူမ်ႈတုမ်ၼႆႉ": 6739,
      "ၵိုတ်းယိုဝ်း": 6740,
      "ၸၼ်ႉမိူင်းႁူမ်ႈတုမ်": 6741,
      "ၸင်ႇဢွၼ်ၵၼ်": 6742,
      "ၶူဝ်းသူၼ်": 6743,
      "ႁႅတ်ႉ": 6744,
      "ႁိမ်းၶၢင်ႈတၢင်း": 6745,
      "သုၼ်ႇလဵဝ်": 6746,
      "လႅၼ်ႊ": 6747,
      "လႅၼ်ၶႅၼ်ႈ": 6748,
      "တိူဝ်ႉၺႃးမၢၵ်ႇၵွင်ႈ": 6749,
      "လုင်းသႅင်": 6750,
      "မၢတ်ႇၸဵပ်းၸွမ်း": 6751,
      "ငဝ်းႁၢင်ႈ": 6752,
      "တီႈဝဵင်းလိူဝ်ႇ": 6753,
      "ႁူဝ်ၵူၼ်းမွၵ်ႈ": 6754,
      "ဢိင်ၶေႃႈမုလ်း": 6755,
      "ၸႄႈဝဵင်းမိူင်းသူႈ": 6756,
      "ၵမ်ႈၼမ်တႄႉ": 6757,
      "ပေႉပုၼ်ႈ": 6758,
      "ၼႂ်းဝဵင်းတႃႈၶီႈလဵၵ်း": 6759,
      "လူႇၶၢမ်ႇ": 6760,
      "ၶဝ်ႈမႃးၼႂ်း": 6761,
      "ၶွမ်ႊပၼီႊၶဝ်": 6762,
      "ၸၼ်ႉၸွမ်ပုတ်ႉထ": 6763,
      "ၾႆးမႆႈႁိူၼ်းၵူၼ်းဝၢၼ်ႈ": 6764,
      "ဢဝ်ၶိုၼ်းၸိုင်ႈတႆး": 6765,
      "ပိုၼ်းတႆး": 6766,
      "ၵွင်ႊ": 6767,
      "ၽိုၼ်ၼိုင်ႈ": 6768,
      "လႃႇၶၢမ်ႇ": 6769,
      "ၵတ်ႉသ်": 6770,
      "ၵပ်းသိုပ်ႇတိတ်းတေႃႇ": 6771,
      "ႁၢၼ်ႉၶၢႆၶဝ်ႈၽၵ်း": 6772,
      "တၢင်းၾင်ႇမိူင်းထႆး": 6773,
      "ၸၢႆးဢွင်ႇထုၼ်း": 6774,
      "ဢၼ်ပၵ်းဝႆႉတီႈ": 6775,
      "ters": 6776,
      "ၵၢပ်ႈပၢၼ်": 6777,
      "ၸေႃးတိ": 6778,
      "လိုဝ်းလင်": 6779,
      "EAOs": 6780,
      "လူင်းသူၼ်းတုမ်ႁႃသဵင်": 6781,
      "ၼမ်ႉလုပ်ႇၼွင်းထူမ်ႈ": 6782,
      "မိၵ်ႈမၢႆ": 6783,
      "International": 6784,
      "ၻီႊမူဝ်ႊၶရႅတ်ႊတိၵ်ႊ": 6785,
      "CNF": 6786,
      "ၻီႊမူဝ်ႊၶရေႊၸီႊ": 6787,
      "ALP": 6788,
      "TA": 6789,
      "ative": 6790,
      "og": 6791,
      "um": 6792,
      "ညီ": 6793,
      "တပ်း": 6794,
      "ဝီး": 6795,
      "ဝၢၼ်ႇ": 6796,
      "သႂ": 6797,
      "ၽၢႆႇ": 6798,
      "တီႈတႄႉ": 6799,
      "ၵူၼ်းဢွၵ်ႇ": 6800,
      "ၵူၼ်းသူႇသမ်းၵိၼ်": 6801,
      "လူၺ်း": 6802,
      "တေၶဝ်ႈႁူမ်ႈ": 6803,
      "လႆႈလႄႈ": 6804,
      "လႆႈၸွႆႈ": 6805,
      "ပဵၼ်ၵူၼ်းၼုမ်ႇ": 6806,
      "ပဵၼ်ၸိူင်ႉႁိုဝ်": 6807,
      "မႃးၶုတ်း": 6808,
      "တူဝ်ႊ": 6809,
      "တၢင်းၼႂ်း": 6810,
      "တၢင်းၵႂႃႇ": 6811,
      "တၢင်းလႅၼ်လိၼ်": 6812,
      "ၵၼ်ၵူၺ်း": 6813,
      "ၵၼ်ၶႃႈယဝ်ႉ": 6814,
      "သေဢမ်ႇဝႃႈ": 6815,
      "ဝၼ်းသေ": 6816,
      "ၵေႃႈဝႃႈ": 6817,
      "ၸွၼ်ႊ": 6818,
      "ဝႆႉမဝ်မၢင်": 6819,
      "ဝၢၼ်ႈၵူၼ်း": 6820,
      "ၸုမ်းၸၢဝ်း": 6821,
      "လဵၼ်း": 6822,
      "တင်းမိူင်း": 6823,
      "ပီမိူင်း": 6824,
      "မၢၼ်ႈလႄႈ": 6825,
      "ၶၢၼ်ႉ": 6826,
      "ပၼ်လႆႈ": 6827,
      "ၾၢႆႇၵူတ်ႇထတ်းၵူၼ်းၶဝ်ႈမိူင်း": 6828,
      "လီမႆႈၸႂ်": 6829,
      "တႅၼ်ႈ": 6830,
      "လၢႆမူႇ": 6831,
      "လူင်ပွင်ၸိုင်ႈၶႄႇ": 6832,
      "ထႅင်ႈၼၼ်ႉ": 6833,
      "တၢႆၼၼ်ႉ": 6834,
      "တၢႆၵေႃႉၼိုင်ႈ": 6835,
      "လူင်းၵွၼ်း": 6836,
      "ၵဵမ်း": 6837,
      "မၢၵ်ႇႁဵပ်း": 6838,
      "ၼုမ်ႇတႆး": 6839,
      "ၸတ်းႁဵတ်းပၢင်ၵုမ်လူင်": 6840,
      "ပီႈၼွင့်": 6841,
      "သူင်ႇႁႅင်းသိုၵ်း": 6842,
      "မႄႈလုၵ်ႈဢွၼ်ႇ": 6843,
      "ၼႂ်းၸႄႈဝဵင်းတၢင်ႉယၢၼ်း": 6844,
      "ၸင်ႇတေလႆႈ": 6845,
      "သႅၼ်မဵတ်ႉ": 6846,
      "မေႃၵႂၢမ်း": 6847,
      "ပွၵ်ႉယွမ်ႇ": 6848,
      "ၸႄႈတွၼ်ႈတႃႈၶီႈလဵၵ်း": 6849,
      "လွင်ႈၼႆႉတႄႉ": 6850,
      "ဢူးၵျေႃႇ": 6851,
      "ဢူးၺီႇ": 6852,
      "ဢူးတိၼ်ႇ": 6853,
      "ပူၼ်ႉမႃးမိူဝ်ႈဝၼ်းတီႈ": 6854,
      "ၼႂ်းမိူင်းတႆးပတ်းပိုၼ်ႉ": 6855,
      "ၾိင်ႈမိူင်း": 6856,
      "ထွင်ႇ": 6857,
      "လုၵ်ႈဢွၼ်ႇႁဵၼ်း": 6858,
      "မႅၵ်း": 6859,
      "လၵ်းသုတ်ႇ": 6860,
      "လုၵ်ႈႁဵၼ်းသင်ၶတႆး": 6861,
      "ထုင်ႉမိူင်းယေႃ": 6862,
      "ႁုပ်ႇ": 6863,
      "မီးလွင်ႈလူႉသုမ်း": 6864,
      "ၼၢင်းယိင်းလႄႈ": 6865,
      "မျႅ": 6866,
      "မိူင်းမၢၼ်ႈပတ်းပိုၼ်ႉ": 6867,
      "ၵဵဝ်ႇၵပ်းလွင်ႈၼႆႉသေ": 6868,
      "ဢၼ်ၼႆႉၵေႃႈ": 6869,
      "လၢၼ်ႉမဵတ်ႉ": 6870,
      "ၽႅၼ်ၶေႃး": 6871,
      "ၶွပ်ႈၸႂ်": 6872,
      "ယၢမ်းၵၢင်ၶမ်ႈမွၵ်ႈ": 6873,
      "ၶီႇမႃးၸွမ်း": 6874,
      "ၶၢမ်ႈလႅၼ်လိၼ်": 6875,
      "ပွၵ်ႈၶိုၼ်းဝၢၼ်ႈ": 6876,
      "တၢင်းၾၢႆႇၸၢၼ်း": 6877,
      "လႆႈသူင်ႇယူတ်းယႃ": 6878,
      "ပၼ်ႁႅင်းၸႂ်": 6879,
      "ၼပ်ႉႁူဝ်မိုၼ်ႇ": 6880,
      "oun": 6881,
      "ပွင်ႇဝႃႈတႄႉ": 6882,
      "လႆႈမၢတ်ႇၸဵပ်းႁၢဝ်ႈႁႅင်း": 6883,
      "ၺီႇလႃႇၶၢမ်ႇ": 6884,
      "တိုၵ်းတေႃးၵၼ်": 6885,
      "လုၵ်ႈၼွင်ႉပွင်ႈပၢႆ": 6886,
      "လႆႈလူႉသဵင်ႈၵႂႃႇ": 6887,
      "သင်ႇၶၸဝ်ႈ": 6888,
      "ပၢၵ်ႈပႅတ်ႈ": 6889,
      "တော်": 6890,
      "ဢမ်းၼၢတ်ႈ": 6891,
      "ၵူႈမိုဝ်ႉၵူႈဝၼ်း": 6892,
      "CM": 6893,
      "VID": 6894,
      "ber": 6895,
      "iz": 6896,
      "ရု": 6897,
      "ရၢ": 6898,
      "လပ်ႉ": 6899,
      "ၵတိ": 6900,
      "ၼီး": 6901,
      "ၽၢႆ": 6902,
      "တီႈၼမ်ႉ": 6903,
      "ၵူၼ်းၶဝ်ႈဢွၵ်ႇ": 6904,
      "ၵူၼ်းၼႂ်းပွၵ်ႉ": 6905,
      "လႆႈလူႉသုမ်း": 6906,
      "ပဵၼ်ယူႇ": 6907,
      "ပဵၼ်ၽွင်း": 6908,
      "ပွမ်း": 6909,
      "မႃးႁူမ်ႈၵၼ်": 6910,
      "ၼၼ်ႉၵမ်းလဵဝ်": 6911,
      "ၼႂ်းၽိုၼ်လိၵ်ႈ": 6912,
      "တၢင်းယၢဝ်း": 6913,
      "ၶႃႈၶဝ်": 6914,
      "ဝၼ်းလိူၼ်": 6915,
      "ဝၼ်းမိူင်းႁူမ်ႈတုမ်": 6916,
      "ၵေႃႈမႃး": 6917,
      "209": 6918,
      "ၽူႈႁတ်းႁၢၼ်": 6919,
      "ဝႆႉၸိူင်ႉၼႆ": 6920,
      "ၸုမ်းဢၼ်": 6921,
      "မိူဝ်ႈႁၢင်လိူၼ်": 6922,
      "တင်းၾၢႆႇ": 6923,
      "မၢၼ်ႈၼႆႉ": 6924,
      "တႃႇၵိၼ်": 6925,
      "ၸၢႆးၺုၼ်ႉ": 6926,
      "ဢဝ်ၸဵမ်ၸိူဝ်းၼႆႉ": 6927,
      "ႁႂ်ႈႁႅင်းၵၢၼ်": 6928,
      "ဢွၵ်ႇဝႃႇ": 6929,
      "ႁဝ်းၶႃႈဢေႃႈ": 6930,
      "ၶိုၼ်းၼၼ်ႉ": 6931,
      "SSJ": 6932,
      "ၵုလိသ": 6933,
      "တပ်ႉၶမယ": 6934,
      "ထႅင်ႈၼင်ႇၼႆ": 6935,
      "ထႅင်ႈၾၢႆႇၼိုင်ႈ": 6936,
      "ဢူၵ်ႉ": 6937,
      "ၵူၼ်းဝၢၼ်ႈႁွင်ႇ": 6938,
      "ၵူႈႁူး": 6939,
      "ၽွင်းဢႃယု": 6940,
      "ၶၢဝ်ႇထႆး": 6941,
      "ၶေႃႈၸီႉသင်ႇ": 6942,
      "101": 6943,
      "ၵူၼ်းၼုမ်ႇလႄႈ": 6944,
      "တႄႇမႃး": 6945,
      "သၽႃဝ": 6946,
      "ၵမ်ၵၢၼ်လိူၵ်ႈတင်ႈ": 6947,
      "တူၺ်းလွမ်": 6948,
      "ပီႈၼွင်ႉၸိူဝ်ႉၶိူဝ်း": 6949,
      "ၶူးပူင်သွၼ်": 6950,
      "ၶီႈလဵၵ်း": 6951,
      "သဵင်မၢၵ်ႇ": 6952,
      "တေႃႇထိုင်မိူဝ်ႈလဵဝ်": 6953,
      "ၼွင်သွမ်း": 6954,
      "ၼွၵ်ႈဝၢၼ်ႈ": 6955,
      "ၶိူင်ႈမိုဝ်း": 6956,
      "ၸိုင်ႈတႆးပွတ်းႁွင်ႇၼႆႉ": 6957,
      "တူင်ႇလၢဝ်း": 6958,
      "တီႈဝဵင်းၵဵင်းတုင်": 6959,
      "တီႈဝဵင်းပၢင်လူင်": 6960,
      "ၵႂႃႇမႃးလႆႈ": 6961,
      "ၼူႉ": 6962,
      "သၢင်ႇၵၢၼ်း": 6963,
      "သၢၼ်ၶတ်းလွင်ႈ": 6964,
      "ၽွမ်ႉသဵင်": 6965,
      "ၸုမ်းၶၢဝ်ႇထုင်ႉႁူၺ်ႈ": 6966,
      "ၼႂ်းဝဵင်းမူႇၸေႊ": 6967,
      "ၶႆႈဝတ်း": 6968,
      "မျၢတ်ႉ": 6969,
      "တီႈလိၼ်ၼႆႉ": 6970,
      "လုင်းၸၢႆးပႃႉၺၢၼ်ႇ": 6971,
      "လွင်ႈငမ်းယဵၼ်ၼႆႉ": 6972,
      "ၽၵ်းတူလႅၼ်လိၼ်": 6973,
      "သႃႇသၼႃႇ": 6974,
      "ၽႅဝ်မႃး": 6975,
      "ပဵၼ်ဢၼ်ယၢပ်ႇၽိုတ်ႇ": 6976,
      "လႅပ်ႈတေပဵၼ်": 6977,
      "ပ်ႊၾ": 6978,
      "ၵေႃႉပဵၼ်မေးၼၢင်း": 6979,
      "ၸႅၵ်ႇမႅင်ႇ": 6980,
      "ငူး": 6981,
      "သႅၼ်းၽူႈၼမ်း": 6982,
      "မူၼ်ႉမႄးပၵ်းပိူင်လၵ်းမိူင်း": 6983,
      "KIO": 6984,
      "လေႃးၵ": 6985,
      "ၼေႇဝိၼ်း": 6986,
      "ၸဝ်ႈၵွၼ်းၸိူင်း": 6987,
      "ၾုၼ်ႇ": 6988,
      "ၸၢႆးဢူးၶမ်း": 6989,
      "ၸဝ်ႈၶုၼ်ထုၼ်းဢူး": 6990,
      "မၢၵ်ႇမႅင်းၾင်လိၼ်": 6991,
      "ရႃႇသီႇ": 6992,
      "world": 6993,
      "မိူၼ်တင်းဝႃႈ": 6994,
      "ပွင်ႇလႅင်းထိုင်": 6995,
      "ၸဵင်ႇၸၢၼ်းဝၼ်းဢွၵ်ႇ": 6996,
      "လူ့တၢႆ": 6997,
      "ၶျွင်း": 6998,
      "ႁိပ်ႈၼႅတ်ႈ": 6999,
      "COVID": 7000,
      "PNO": 7001,
      "ႁွင်ႊၵွင်ႊ": 7002,
      "ABS": 7003,
      "KNLA": 7004,
      "Ma": 7005,
      "Pass": 7006,
      "iang": 7007,
      "ll": 7008,
      "mit": 7009,
      "ment": 7010,
      "မဵၼ်": 7011,
      "ရီ": 7012,
      "ဢၢႆႇ": 7013,
      "တေၸတ်းႁဵတ်းပၢင်": 7014,
      "တေတူၵ်းမႅၼ်ႈ": 7015,
      "မ်ႇသ": 7016,
      "ပဵၼ်ၵၼ်": 7017,
      "ပဵၼ်သင်": 7018,
      "မႃးတေႃႇထိုင်ယၢမ်းလဵဝ်": 7019,
      "ဢၼ်ဢမ်ႇမီး": 7020,
      "မီးသိုၵ်း": 7021,
      "တၢင်းမူႇၸေႊ": 7022,
      "တၢင်းၵႂၢင်ႈ": 7023,
      "ဢမ်ႇပိုတ်ႇ": 7024,
      "ဢမ်ႇယၢမ်ႈ": 7025,
      "တႆးပွတ်းႁွင်ႇ": 7026,
      "ၵႂႃႈ": 7027,
      "ယူႇဢေႃႈ": 7028,
      "ၸွႆႉ": 7029,
      "လွင်ႈၶဝ်ႈၼမ်ႉတၢင်းၵိၼ်": 7030,
      "တင်းလူင်ပွင်ၸိုင်ႈ": 7031,
      "တင်းသွင်ၵေႃႉ": 7032,
      "ၵူၼ်းမိူင်းလၢႆးၶႃႈ": 7033,
      "ၼမ်ႉၼႆႉ": 7034,
      "တႃႇၵေႃႉၼိုင်ႈ": 7035,
      "တႃႇၸွႆႈထႅမ်": 7036,
      "ၾၢႆႇသၢႆႉ": 7037,
      "ၸၢႆးမၢဝ်း": 7038,
      "ၸၢႆးမွၼ်း": 7039,
      "ႁၢၼ်း": 7040,
      "မၢၼ်း": 7041,
      "ၸွမ်းၵၢတ်ႇ": 7042,
      "ၵျႃႊ": 7043,
      "တီႇၽဵဝ်ႈ": 7044,
      "ငိုၼ်းၶဝ်ႈ": 7045,
      "ယွၼ်ႉၵူဝ်": 7046,
      "မၢၵ်ႇၶိူဝ်": 7047,
      "ၵဵင်းလၢဝ်": 7048,
      "ယိၼ်ႇ": 7049,
      "ႁႃတၢင်း": 7050,
      "ၵေႃႉၼိုင်ႈလၢတ်ႈတီႈၽူႈတွႆႇႁွၵ်ႈဝႃႈ": 7051,
      "ၶေႃႈၼႆႉ": 7052,
      "ဝတ်ႉၵုင်း": 7053,
      "ႁူမ်ႈတုမ်ၸိူဝ်ႉၸၢတ်ႈ": 7054,
      "ၸတ်းႁဵတ်းပၢင်လိူၵ်ႈတင်ႈ": 7055,
      "ၼိူဝ်မႄႈၼမ်ႉတူႈ": 7056,
      "တၢင်ႇမႃး": 7057,
      "ပျေႉ": 7058,
      "ၵၢင်ၸႂ်ၵူၼ်းမိူင်း": 7059,
      "ယဵၼ်လူင်း": 7060,
      "ၸဵမ်မိူဝ်ႈဝၼ်းတီႈ": 7061,
      "ၸၢဝ်းၶိူဝ်းၼႂ်းမိူင်းတႆး": 7062,
      "ယွၼ်းၼွမ်း": 7063,
      "သၢႆၾႆး": 7064,
      "ဢမ်ႇလႆႈႁပ်ႉ": 7065,
      "ပိုတ်ႇဝႆႉ": 7066,
      "ဢႃယုမွၵ်ႈ": 7067,
      "ပိတ": 7068,
      "တိတ်းၸပ်းၵၼ်": 7069,
      "လုင်းႁဵင်": 7070,
      "ဝႂ်ထႆး": 7071,
      "ပၢင်လိူၵ်ႈတင်ႈၼႆႉ": 7072,
      "ၽႄႈၸပ်း": 7073,
      "လမ်းတီႉ": 7074,
      "လုၵ်ႈႁဵၼ်းတႆး": 7075,
      "ပဵၼ်ပၢင်တိုၵ်းၵၼ်မႃး": 7076,
      "ၶႂၼ်": 7077,
      "တၼ်းလႆႈ": 7078,
      "ၸိူင်ႉႁိုဝ်ၼႆ": 7079,
      "တီႈဝတ်ႉၵူႇတဝ်ႈ": 7080,
      "ၶွမ်ႊပၼီႊႁူင်ပင်း": 7081,
      "ဢၼ်တေမႃး": 7082,
      "ႁိုင်ယဝ်ႉ": 7083,
      "261": 7084,
      "ဢၢႆႈၵျေႃႇ": 7085,
      "ၵေႃႉပဵၼ်မေး": 7086,
      "ၵႄႈလိတ်ႈပၼ်": 7087,
      "ၼႂ်းဝၼ်းလဵဝ်ၵၼ်": 7088,
      "လူႇတၢၼ်းယၢတ်ႇၼမ်ႉ": 7089,
      "USA": 7090,
      "ဢမေႊရီႊ": 7091,
      "ၶဵင်ႇတႃႉ": 7092,
      "ၵႅတ်ႇၵင်ႈတၢင်းပဵၼ်ၶူဝ်ႊဝိတ်ႉ": 7093,
      "ငၢမ်ႇ": 7094,
      "Net": 7095,
      "တီႈၸမ်တီႈၵႆ": 7096,
      "ၽႃႈတူမ်းပၢၵ်ႇ": 7097,
      "ဢၢႆၵႂၼ်း": 7098,
      "ယွၼ်းသူးပၼ်": 7099,
      "ထွႆထွၼ်": 7100,
      "ႁဵတ်းၼၼ်သေ": 7101,
      "ပွႆႇမၢၵ်ႇသႂ်ႇ": 7102,
      "ယႂႃႇငၢၼ်ႇ": 7103,
      "ၸူမ်ၼမ်ႉ": 7104,
      "သၢဝ်တႆး": 7105,
      "ႁဵတ်းၵိၼ်ၵၢၼ်": 7106,
      "ငဝ်ႈငုၼ်းတီႇမူဝ်ႇၶရေႇၸီႇၸိူဝ်ႉၶိူဝ်းတႆး": 7107,
      "ပိဝ်ႇႁႃႇ": 7108,
      "ၽႃႈႁူမ်ႇၶူဝ်းၼွၼ်း": 7109,
      "ၶူႈၼင်": 7110,
      "မႅၵ်ႇၵွင်ႈ": 7111,
      "ၵရုၼႃႇ": 7112,
      "SSJAC": 7113,
      "ABSDF": 7114,
      "DK": 7115,
      "cy": 7116,
      "ကွ": 7117,
      "တၢႆး": 7118,
      "ထေႃႈ": 7119,
      "ယလ": 7120,
      "ရှ": 7121,
      "ဢေႃ": 7122,
      "ဢင်းၵ": 7123,
      "ၢင့်": 7124,
      "ၸႃး": 7125,
      "ၸဵင်း": 7126,
      "ၸိုၼ်း": 7127,
      "ၼႃႉ": 7128,
      "ႁၢင်ႉ": 7129,
      "ၵူမ်ႇ": 7130,
      "မိူင်းပိူၼ်ႈ": 7131,
      "မိူင်းဢမေႊရိၵၼ်ႊ": 7132,
      "တေၵူတ်ႇထတ်း": 7133,
      "လႆႈၸႂ်ႉ": 7134,
      "ၼႂ်းပႃႇတီႇ": 7135,
      "တူၼ်း": 7136,
      "ဢၼ်သိုၵ်း": 7137,
      "ဢၼ်လဵဝ်": 7138,
      "ဢၼ်တူၵ်း": 7139,
      "ဢၼ်ၵၢႆႇၸူး": 7140,
      "မီးၵႂႃႇယဝ်ႉ": 7141,
      "တၢင်းၽႄ": 7142,
      "ယူႇပွၵ်ႉ": 7143,
      "ဝၼ်းထူၼ်ႈ": 7144,
      "ၵႂႃႇၼႂ်း": 7145,
      "လွင်ႈဢမ်ႇ": 7146,
      "လွင်ႈၸွမ်း": 7147,
      "လွင်ႈတၢင်းပဵၼ်": 7148,
      "ႁဝ်းသမ်ႉ": 7149,
      "ႁဝ်းလူဝ်ႇလႆႈ": 7150,
      "ဝႆႉၸႂ်": 7151,
      "ၸႄႈၵႅင်း": 7152,
      "ႁဵတ်းႁႆႈ": 7153,
      "ၶူၺ်": 7154,
      "ၸိူဝ်းလႆႈ": 7155,
      "မၼ်းၼႆႉ": 7156,
      "မၼ်းတုမ်ႉတိူဝ်ႉ": 7157,
      "ၵူၼ်းမိူင်းၼၢႆး": 7158,
      "လုၵ့်": 7159,
      "ၶဝ်ၵူၺ်း": 7160,
      "ၼိုင်ႈတီႈၼင်ႈ": 7161,
      "တႃႇႁူမ်ႈၵၼ်": 7162,
      "ၾၢႆႇယူႇလီ": 7163,
      "ၵၢင်တၢင်း": 7164,
      "1988": 7165,
      "တေႃႇပေႃး": 7166,
      "ၵုတ်ႇ": 7167,
      "သုင်း": 7168,
      "ပႃႇတီႇလႂ်": 7169,
      "လူင်းႁႃသဵင်": 7170,
      "ၶၢဝ်းၾူၼ်": 7171,
      "ၼၢင်းမေး": 7172,
      "ၵူႈၵူၼ်း": 7173,
      "မၢၵ်ႇမိူဝ်": 7174,
      "ႁူႉလွင်ႈ": 7175,
      "ဢိူင်ႇၼမ်ႉ": 7176,
      "ႁႃငိုၼ်းၵွင်ၵၢင်": 7177,
      "သိုပ်ႇပဵၼ်": 7178,
      "သွင်ဝၼ်းၼႆႉ": 7179,
      "ၶေႃႈၼိုင်ႈ": 7180,
      "တႄႇၼႃႈႁိူၼ်း": 7181,
      "တၢင်ႇဝၢၼ်ႈ": 7182,
      "မႂ်ႇမႂ်ႇ": 7183,
      "ယဵၼ်ၵႂႃႇ": 7184,
      "ၵိုတ်းသိုၵ်း": 7185,
      "ၾႆးပႃႇ": 7186,
      "ယႂ်ႇဝဵင်းလူင်": 7187,
      "ယူင်ႇ": 7188,
      "လွင်ႈၼႆႉၵေႃႈ": 7189,
      "သိတ်း": 7190,
      "ၸဝ်ႈၼႃႈတီႈၶႄႇ": 7191,
      "တီႉၺွပ်းၵူၼ်း": 7192,
      "မိူင်းၶႄႇၼၼ်ႉ": 7193,
      "ၵုမ်းၵၵ်းတူဝ်": 7194,
      "မၼ်းၸၢႆးၵႂႃႇ": 7195,
      "ယိူဝ်ႇ": 7196,
      "ဢၼ်မီးယူႇ": 7197,
      "ၼူမ်း": 7198,
      "မီးၵူၼ်းၸပ်းတၢင်းပဵၼ်": 7199,
      "ၶျူ": 7200,
      "တႃငၢၼ်း": 7201,
      "ယဵဝ်ႈ": 7202,
      "ၼႂ်းဝဵင်းၵဵင်းမႆႇ": 7203,
      "160": 7204,
      "တီႈမိူင်းငေႃႉ": 7205,
      "ဢမ်ႇႁူႉၶႃႈ": 7206,
      "ဢမ်ႇႁူႉၸၵ်း": 7207,
      "ၵွပ်ႈပိူဝ်ႈၼႆ": 7208,
      "တီႈဝၢၼ်ႈမႂ်ႇမွၵ်ႇၸၢမ်": 7209,
      "ၶိုင်သၢင်ႈ": 7210,
      "ႁင်းၽႂ်": 7211,
      "လူမ်းၼၢဝ်": 7212,
      "ပူၵ်းပွင်သုၼ်ႇလႆႈၵူၼ်း": 7213,
      "ၶွတ်ႇၽွတ်ႈဝႆႉ": 7214,
      "ယင်းပႆႇလႆႈ": 7215,
      "ၶိုၵ်ႉယႂ်ႇလူင်": 7216,
      "ထတ်းသၢင်တူၺ်း": 7217,
      "မၢႆတွင်းဝၼ်း": 7218,
      "ယၢၼ်ၵႆဝဵင်း": 7219,
      "ၶူၼ်ႉၶႆႈ": 7220,
      "ၶိၼ်ႇမွင်ႇ": 7221,
      "မႁႃၸုလႃး": 7222,
      "ၶေႉၶႅင်ႇ": 7223,
      "ႁၢင်ႇၵႆ": 7224,
      "ယူႇတီႈၽူႈမီးပုၼ်ႈၽွၼ်းၶဝ်": 7225,
      "ဢွင်ႇပူၼ်ႉၸၼ်ႉ": 7226,
      "သႅပ်ႊထႅမ်ႊပိူဝ်ႊ": 7227,
      "ပၵ်းတႃပႂ်ႉတူၺ်း": 7228,
      "ၾဵတ်ႉ": 7229,
      "Post": 7230,
      "လဝ်ႇမူၼ်ႈ": 7231,
      "DKBA": 7232,
      "3000": 7233,
      "84": 7234,
      "BBC": 7235,
      "DJ": 7236,
      "National": 7237,
      "PI": 7238,
      "WAN": 7239,
      "for": 7240,
      "စု": 7241,
      "စည်း": 7242,
      "ပၼ်း": 7243,
      "ယဝ့်": 7244,
      "ဢမ်": 7245,
      "ၵူၼ်": 7246,
      "တီႈၵိူတ်ႇ": 7247,
      "တီႈၵိူဝ်းၵုမ်": 7248,
      "ၼႆႉၶႃႈဢေႃႈ": 7249,
      "တေး": 7250,
      "တေပႃး": 7251,
      "တေႁူပ်ႉၵၼ်": 7252,
      "လႆႈဢိုတ်း": 7253,
      "ပဵၼ်လၢႆ": 7254,
      "ပဵၼ်တွၼ်ႈ": 7255,
      "မႃးမီး": 7256,
      "မႃးဢႅဝ်ႇ": 7257,
      "ၼႂ်းႁၢၼ်ႉ": 7258,
      "ဢၼ်ၵႂႃႇႁဵတ်းၵၢၼ်": 7259,
      "လႄႈတင်း": 7260,
      "ၶႃႈၼႃႇ": 7261,
      "ၵေႃႈပဵၼ်လႆႈ": 7262,
      "ဝႆႉၸွမ်း": 7263,
      "ႁဵတ်းၼႆႉ": 7264,
      "ႁဵတ်းယဝ်ႉ": 7265,
      "မိူဝ်ႈႁၢင်": 7266,
      "ႁွင်": 7267,
      "လၢတ်ႈလွင်ႈ": 7268,
      "လၢတ်ႈသင်": 7269,
      "တင်းဝႃႈ": 7270,
      "မူၼ်ႇ": 7271,
      "ပီတႆး": 7272,
      "ၵူၼ်းမိူင်းတူၼ်ႈတီး": 7273,
      "ၵူၼ်းမိူင်းမႆႈၸႂ်": 7274,
      "ႁူမ်ႈတွင်ႉ": 7275,
      "ၼမ်ႉဢုၼ်ႇ": 7276,
      "ၾၢႆႇမိူင်း": 7277,
      "ၾၢႆႇတပ်ႉမတေႃႇ": 7278,
      "ဢဝ်ၵုင်ႇမုၼ်": 7279,
      "ၶွၼ်း": 7280,
      "ႁႂ်ႈၸဵဝ်း": 7281,
      "လီယူႇ": 7282,
      "ၸွမ်းပၵ်းပိူင်": 7283,
      "လိၵ်ႈဢိင်းၵလဵတ်ႈ": 7284,
      "လွတ်ႇ": 7285,
      "တူဝ်ဝႆႉ": 7286,
      "သမ်ႉပေႃး": 7287,
      "ယူႇတီႈတပ်ႉသိုၵ်း": 7288,
      "ယူႇတီႈသင်ၶၸဝ်ႈ": 7289,
      "ပူဝ်ႊ": 7290,
      "လူင်းတႂ်ႈ": 7291,
      "ၶၢဝ်းယၢမ်းၵၢင်ၼႂ်": 7292,
      "ၺႃးသိုၵ်းလူင်ပွင်ၸိုင်ႈမၢၼ်ႈ": 7293,
      "ၵမ်းလိုၼ်းသုတ်း": 7294,
      "ၵူၼ်းဝၢၼ်ႈၵႂႃႇ": 7295,
      "ယွၼ်ႉၶူဝ်ႊဝိတ်ႉ": 7296,
      "ယွၼ်ႉၾူၼ်တူၵ်း": 7297,
      "မၢၵ်ႇၼၼ်ႉ": 7298,
      "တိူၼ်း": 7299,
      "ဢိူင်ႇပၢင်": 7300,
      "ဢိူင်ႇလွႆ": 7301,
      "မိူၼ်မိူဝ်ႈ": 7302,
      "ၶိုၼ်ႈႁူင်းႁဵၼ်း": 7303,
      "တူၵ်းသုမ်း": 7304,
      "ၶေႃႈတီႈ": 7305,
      "ၼိူဝ်မႄႈၼမ်ႉ": 7306,
      "တၢင်ႇဝႆႉ": 7307,
      "ၶူဝ်းတိုၼ်း": 7308,
      "ထုၵ်ႇၶွင်ႇသီႇသိုၵ်းမၢၼ်ႈ": 7309,
      "ၵၢၵ်ႇ": 7310,
      "ယွၼ်းၶႂၢင်ႉ": 7311,
      "ႁႅင်းၵၢၼ်မိူင်းမၢၼ်ႈ": 7312,
      "လုၵ်ႉမိူင်းထႆး": 7313,
      "သုၼ်ႇတွတ်ႈၶႅပ်းၵၢင်ၸႂ်": 7314,
      "ၼႃႈတီႈပုၼ်ႈၽွၼ်း": 7315,
      "ၶဝ်ႈႁူမ်ႈပၢင်ၵုမ်": 7316,
      "လုင်းလႃႉ": 7317,
      "ယိပ်းဝႂ်": 7318,
      "ပွႆႇႁူင်းၾႆးမိၼ်": 7319,
      "ႁူင်းႁဵၼ်းထမ်ႇမ": 7320,
      "တီႈဝဵင်းၵျွၵ်ႉမႄး": 7321,
      "ၶွမ်ႊမိ": 7322,
      "ၼပ်ႉထိုဝ်": 7323,
      "တုမ်ႉတွပ်ႇ": 7324,
      "တူဝ်ႈလူၵ်ႈ": 7325,
      "ပၢၼ်သိုပ်ႇပၢၼ်": 7326,
      "တီႈလိၼ်ၼၼ်ႉ": 7327,
      "ၸိုင်ႈတႆးပွတ်းၸၢၼ်းၼၼ်ႉ": 7328,
      "ပူၵ်းပၢႆႉ": 7329,
      "ႁိုင်ၼၢၼ်း": 7330,
      "တီႈဝၢၼ်ႈၼွင်": 7331,
      "ႁေႃႈဝႆး": 7332,
      "လၵ်ႉလွမ်": 7333,
      "ၽႃသႃး": 7334,
      "ၼႃယၵ": 7335,
      "လႃႇၼႆ": 7336,
      "သီၽုမ်း": 7337,
      "ၽဝ်ယႃႈမဝ်းၵမ်": 7338,
      "ထိၼ်ႇ": 7339,
      "ၾႆးၾႃႉသျွတ်ႉ": 7340,
      "ပႆႇၸၢင်ႈပွၵ်ႈ": 7341,
      "ဢိူင်ႇမိူင်းၽူင်း": 7342,
      "လူႉၵွႆၼမ်": 7343,
      "လိူင်ႇၽႄႈ": 7344,
      "ၸဝ်ႈသိုၵ်းဢုမ်ႈၶိူဝ်း": 7345,
      "ႁုပ်ႈယိုတ်း": 7346,
      "ပၢင်ၵုမ်သၽႃးမိူင်းတႆး": 7347,
      "ၵႂၢင်ႈၶႂၢင်": 7348,
      "ထဵင်မေႃး": 7349,
      "လိုပ်ႈႁေႃႈ": 7350,
      "မူင်ႈမႅင်း": 7351,
      "ဢွၼ်ၵၼ်ပၢႆႈဢွၵ်ႇမႃး": 7352,
      "ၵွပ်ႈသင်လႄႈ": 7353,
      "ႁူမ်ၸူမ်းႁပ်ႉတွၼ်ႈပီမႂ်ႇတႆး": 7354,
      "တႆးႁွတ်ႈၵဵင်းမႆႇ": 7355,
      "UPDJ": 7356,
      "ၽိတ်ႈမွၵ်ႇ": 7357,
      "မိူင်းမွၼ်းမႂ်ႇ": 7358,
      "Covid": 7359,
      "ၵွမ်ႉၵႃႈ": 7360,
      "လႅၼ်းယႃႈ": 7361,
      "Network": 7362,
      "UPDJC": 7363,
      "Ap": 7364,
      "De": 7365,
      "NA": 7366,
      "ial": 7367,
      "se": 7368,
      "ငၢၵ်ႈ": 7369,
      "တိုင်": 7370,
      "ထႃႇ": 7371,
      "ပိၼ်း": 7372,
      "ရၢႆး": 7373,
      "ရီႇ": 7374,
      "ဢၢမ်း": 7375,
      "ၸႄႊ": 7376,
      "ၼၢႆ": 7377,
      "ၵူၼ်ႈ": 7378,
      "တီႈၵူတ်ႉၶၢႆ": 7379,
      "တီႈၵွၵ်းႁူဝ်": 7380,
      "မိူင်းပွၼ်": 7381,
      "ၵူၼ်းၸၢဝ်းၶိူဝ်း": 7382,
      "တေၶဝ်ႈၶႅင်ႇ": 7383,
      "လႆႈသေ": 7384,
      "လႆႈႁူမ်ႈၵၼ်": 7385,
      "ပဵၼ်ဝၢၼ်ႈ": 7386,
      "ပဵၼ်မူႇ": 7387,
      "တူင့်": 7388,
      "ဢၼ်ပၢႆႈၽေးသိုၵ်း": 7389,
      "ဢၼ်ၵိုတ်းဝႆႉ": 7390,
      "မီးၵႃႈႁိုဝ်": 7391,
      "ဢမ်ႇဢွၵ်ႇ": 7392,
      "ၵၼ်ၵူႈၵေႃႉ": 7393,
      "ဝဵင်းမႂ်ႇ": 7394,
      "ဝဵင်းၼမ်ႉၸၢင်": 7395,
      "ၵႂႃႇၶႃႈ": 7396,
      "ၵႂႃႇၶဝ်ႈ": 7397,
      "ဝႆႉပဵၼ်": 7398,
      "ၼ်ႇမႃႇ": 7399,
      "မၼ်းလႄႈ": 7400,
      "မၢၼ်ႈမေႃႇ": 7401,
      "ႁူမ်ႈတင်းမူတ်း": 7402,
      "လုၺ်း": 7403,
      "ၶဝ်တိုၵ်ႉ": 7404,
      "ၼမ်ႉလွႆ": 7405,
      "ၼမ်ႉမိုဝ်းၽႂ်": 7406,
      "ၾၢႆႇမၢၼ်ႈ": 7407,
      "ၾၢႆႇတႂ်ႈ": 7408,
      "ႁူဝ်ၶမ်း": 7409,
      "ႁူဝ်ႁဵင်": 7410,
      "ၵျၢင်ႉ": 7411,
      "ၶိုၼ်းသေ": 7412,
      "ၶိုၼ်းလႄႈ": 7413,
      "လၢႆတၢင်း": 7414,
      "တပ်ႉၶဝ်": 7415,
      "ႁိူၼ်းၼၼ်ႉ": 7416,
      "ၼမ့်": 7417,
      "ၼမ်မႃးထႅင်ႈ": 7418,
      "ပွၵ်ႈထူၼ်ႈ": 7419,
      "တၢႆၼမ်": 7420,
      "ၼႄဝႃႈ": 7421,
      "ၸတ်းႁႃ": 7422,
      "ၸတ်းသၢင်ႈႁၢင်ႈပွင်": 7423,
      "ၺႃးၸုမ်း": 7424,
      "ၺႃးတီႉၺွပ်း": 7425,
      "ေႊသီႊ": 7426,
      "2011": 7427,
      "တိူဝ်ႈ": 7428,
      "ပႆႇတဵမ်": 7429,
      "ပုပ်ႉပႃႇရူင်ႇ": 7430,
      "တူၵ်းႁႅင်း": 7431,
      "သွင်ၸိုင်ႈမိူင်း": 7432,
      "ၸၢဝ်းပဢူဝ်း": 7433,
      "သူင်ႇမႃး": 7434,
      "ထုၵ်ႇယိုဝ်းတၢႆ": 7435,
      "ႁွင်ႈယႃ": 7436,
      "ဢႃႊသီႊ": 7437,
      "လူႉတၢႆယဝ်ႉ": 7438,
      "တိတ်းၸပ်းတၢင်းပဵၼ်ၶူဝ်ႊဝိတ်ႉ": 7439,
      "ဢူးၸေႃႇ": 7440,
      "ဢုပ်ႇဢူဝ်းလႅၵ်ႈလၢႆႈ": 7441,
      "ယႃႈမဝ်းၵမ်လႄႈ": 7442,
      "ပိူၼ်ႈမႃး": 7443,
      "လၢတ်ႈၼႄၽူႈတွႆႇႁွၵ်ႈဝႃႈ": 7444,
      "တိုၼ်းတေလႆႈ": 7445,
      "ထုင်ႉၼၼ်ႉ": 7446,
      "မႆႉပူၵ်ႇ": 7447,
      "မိပ်ႇ": 7448,
      "ၼၢႆးယႃႈ": 7449,
      "ထိုင်တီႈပေႃးလႆႈ": 7450,
      "ပူၵ်းပၵ်း": 7451,
      "ၼိဝ်ႊ": 7452,
      "ၵႅမ်ၽူႈ": 7453,
      "ၵႅမ်ၸွမ်ၸိုင်ႈ": 7454,
      "ငဝ်ႈငုၼ်းဝၢၼ်ႈႁႆး": 7455,
      "တၢမ်ႇၶွၵ်ႈ": 7456,
      "ၵိတ်ႇ": 7457,
      "ၸိသင်ႇ": 7458,
      "ၵၢင်ႉၵႄႇ": 7459,
      "ရီႊယိူဝ်ႊ": 7460,
      "ဝူင်ႈၼႆႉ": 7461,
      "ၾၢင်ႉၵိၼ်": 7462,
      "လႆႈႁပ်ႉႁူႉ": 7463,
      "ႁၼ်ထိုင်တႄႉ": 7464,
      "ၼႂ်းမိူင်းထႆးၼႆႉ": 7465,
      "ၸိူဝ်ႉၶိူဝ်းပီႈၼွင်ႉ": 7466,
      "ၵပ်းသိုပ်ႇတွင်ႈထၢမ်": 7467,
      "ၼႆႉၵူၺ်းၼင်ႇၵဝ်ႇ": 7468,
      "ဝဵင်းမိူင်းၵိုင်": 7469,
      "ၸီႉသင်ႇႁႂ်ႈ": 7470,
      "ၽိူဝ်ႇဝႃႈ": 7471,
      "ၸုမ်းၸွႆႈထႅမ်တူင်ႇဝူင်းၵူၼ်း": 7472,
      "ငူပ်ႉငီႉၵၼ်": 7473,
      "လိူၼ်မေႊၼႆႉ": 7474,
      "ၸမ်ၸႂ်ၵၼ်": 7475,
      "လတ်းၽၢၼ်ႇ": 7476,
      "ဢႃးလႃး": 7477,
      "တီႈလွႆတွၼ်း": 7478,
      "ပိုၼ်ၽၢဝ်ႇဢွၵ်ႇဝႆႉၼင်ႇၼႆ": 7479,
      "သိၼ်ၵႃႉ": 7480,
      "မင်းၵွၼ်း": 7481,
      "ၾိင်ႈႁိတ်ႈႁွႆးတႆး": 7482,
      "ၽေႃႇၼမ်ႉၼႄတူဝ်": 7483,
      "သုမ်ႇငမ်း": 7484,
      "Ref": 7485,
      "ဝႆးရတ်ႊသ်": 7486,
      "ထုင်ႉလွႆႁူဝ်သိူဝ်": 7487,
      "မၢၵ်ႇၶဝ်ႈတဝ်ႈၼမ်ႉ": 7488,
      "သႂၢင်း": 7489,
      "Bur": 7490,
      "Pe": 7491,
      "Su": 7492,
      "by": 7493,
      "eb": 7494,
      "st": 7495,
      "ခံ": 7496,
      "ပၵ": 7497,
      "လၼ်ႈ": 7498,
      "သမႃး": 7499,
      "ၾေႉ": 7500,
      "ႁိၼ်ႊ": 7501,
      "–“": 7502,
      "ၵူၵ်ႉ": 7503,
      "တီႈလႅၼ်လိၼ်": 7504,
      "တီႈပွင်ႇ": 7505,
      "မိူင်းႁိမ်းႁွမ်း": 7506,
      "ၵူၼ်းၸိူဝ်းဢၼ်": 7507,
      "တေၸွႆႈ": 7508,
      "တေႁူပ်ႉ": 7509,
      "တေၵေႃႇသၢင်ႈ": 7510,
      "လႆႈသႂ်ႇ": 7511,
      "ပဵၼ်ၸၢႆး": 7512,
      "မႃးပဵၼ်": 7513,
      "ၼႂ်းၸႄႈမိူင်းၶၢင်": 7514,
      "မီးတၢင်းပဵၼ်": 7515,
      "မီးပုၼ်ႈၽွၼ်း": 7516,
      "တၢင်းပွတ်းႁွင်ႇ": 7517,
      "ဢမ်ႇထုၵ်ႇ": 7518,
      "ဝၼ်းၵူၺ်း": 7519,
      "ၵေႃႈပဵၼ်": 7520,
      "ဝဵင်းၵေးသီး": 7521,
      "ဝဵင်းၵူတ်ႉၶၢႆ": 7522,
      "ၵႂႃႇၼႆ": 7523,
      "ၵႂႃႇလႄႈ": 7524,
      "ၵႂႃႇႁပ်ႉ": 7525,
      "ၵႂႃႇၸွႆႈထႅမ်": 7526,
      "ၽူၺ်း": 7527,
      "ၽူႈၵဵဝ်ႇၶွင်ႈ": 7528,
      "လွင်ႈယၢပ်ႇ": 7529,
      "လွင်ႈလွတ်ႈလႅဝ်း": 7530,
      "လွင်ႈယုမ်ႇယမ်": 7531,
      "ဝၢၼ်ႈပႃႇ": 7532,
      "ဝၢၼ်ႈႁူၺ်ႈ": 7533,
      "မိူဝ်ႈသိုၼ်း": 7534,
      "ၸိူဝ်းၵႂႃႇႁဵတ်းၵၢၼ်": 7535,
      "မၼ်းယူႇတီႈ": 7536,
      "တႄႉပဵၼ်": 7537,
      "ႁႂ်ႈၵူၼ်း": 7538,
      "ဢွၵ်ႇပၼ်": 7539,
      "ပေႃးပဵၼ်လႆႈ": 7540,
      "လီလႆႈ": 7541,
      "ၵျႃႉ": 7542,
      "ၵျၢတ်ႉ": 7543,
      "လၢႆးၸိုဝ်ႈ": 7544,
      "ၶိုၼ်းယူႇ": 7545,
      "တေႃႇၵူၼ်း": 7546,
      "ယူႇတီႈၶႃႈႁဝ်း": 7547,
      "ယူႇတီႈၸုမ်းၶၢဝ်ႇၽူႈတွႆႇႁွၵ်ႈ": 7548,
      "ထႅင်ႈဝႃႈ": 7549,
      "ပႃႇတီႇမိူင်းမွၼ်းမႂ်ႇ": 7550,
      "လူင်းပၢင်သွၼ်": 7551,
      "ပႃးၼႂ်း": 7552,
      "ယွၼ်ႉၽေး": 7553,
      "လိၼ်သူၼ်ႁႆႈၼႃး": 7554,
      "ပႆႇလူင်းလၢႆးမိုဝ်း": 7555,
      "ဢိူင်ႇၼႃးမၢၵ်ႇၶေႃ": 7556,
      "မူင်းႁူဝ်ၶမ်ႈ": 7557,
      "ဢုပ်ႇၸွမ်း": 7558,
      "လိူၵ်ႈပဵၼ်": 7559,
      "သူင်ႇမဵတ်ႉတႃႇ": 7560,
      "ဢမ်ႇမီးၵၢၼ်": 7561,
      "ၼိူဝ်ဢွၼ်ႊလၢႆႊ": 7562,
      "ၸၼ်ႉၸႄႈမိူင်း": 7563,
      "မိုဝ်းထိုဝ်": 7564,
      "ပိုတ်ႇပၢႆႉ": 7565,
      "ၶွမ်ႊၽိ": 7566,
      "တူင်ႉတိုၼ်ႇ": 7567,
      "ၽွၼ်းၸႃႉ": 7568,
      "ၼွၵ်ႈလႅၵ်ႈ": 7569,
      "သဝ်းၶေႃ": 7570,
      "တႅၵ်ႇယၢႆႈ": 7571,
      "ယိပ်းပၢႆႉ": 7572,
      "ဢုပ်ႇဢူဝ်းၵၼ်သေ": 7573,
      "ဝႂ်ႁဵတ်းၵၢၼ်": 7574,
      "ပၢႆးယူႇလီလႄႈ": 7575,
      "ၵမ်ႉၵႅမ်": 7576,
      "ဢၼ်မီးႁိမ်း": 7577,
      "ထွၵ်ႇ": 7578,
      "ယူတ်းယႃပၼ်": 7579,
      "ၼမ်ႉၶမ်းၼႆႉ": 7580,
      "ႁဵတ်းႁႂ်ႈၵူၼ်းဝၢၼ်ႈ": 7581,
      "ၽူႈၵွၼ်းသိုၵ်း": 7582,
      "ၶျၢၼ်း": 7583,
      "ၶျႆႊ": 7584,
      "ၸွမ်းၼင်ႇပိူင်": 7585,
      "တွပ်ႇဝႃႈ": 7586,
      "ပီၼႆႉၵေႃႈ": 7587,
      "ထိုင်တီႈပေႃး": 7588,
      "တီႉလႆႈပႃး": 7589,
      "ၵႅမ်ၸွမ်ႁၢၼ်": 7590,
      "မၼ်းၼၢင်းၼႆႉ": 7591,
      "ဢႅပ်ႇ": 7592,
      "ပေႃႈမႄႈလုၵ်ႈဢွၼ်ႇ": 7593,
      "သ်ပုၵ်ႉ": 7594,
      "ၵွင်ၸႆး": 7595,
      "ၵေႃႉၼၼ်ႉတႄႉ": 7596,
      "လႆႈငိၼ်းသဵင်ၵွင်ႈ": 7597,
      "သီလႅင်": 7598,
      "သီၶဵဝ်": 7599,
      "ဢမ်ႇပေႃးမီး": 7600,
      "ၼႂ်းဝၼ်းလဵဝ်": 7601,
      "ၸွင်ႇမၼ်း": 7602,
      "မၼ်းဢမ်ႇလီ": 7603,
      "ၼႂ်းၸႄႈဝဵင်းမိူင်းတူၼ်": 7604,
      "ၼႂ်းလိူၼ်မေႊ": 7605,
      "ၼႃႈၵၢၼ်တႃငၢၼ်း": 7606,
      "လိူၼ်ၵျုႊလၢႆႊ": 7607,
      "ၵိင်ႇၸႄႈဝဵင်းမိူင်း": 7608,
      "ပွႆႇပၼ်တူဝ်": 7609,
      "ထၢင်ႇထိူမ်ဝႃႈ": 7610,
      "ၶပ်းၶိုင်ပၼ်": 7611,
      "တၢင်ႇတီႈသီႇလႅၼ်": 7612,
      "လူင်ႉလႅင်း": 7613,
      "တုင်းၸိူဝ်ႉၸၢတ်ႈ": 7614,
      "ၵၢပ်ႈသွမ်း": 7615,
      "ပီႇတုၸိတ်ႉ": 7616,
      "Neg": 7617,
      "ICJ": 7618,
      "မၢပ်ႇမႂ်": 7619,
      "ယူႇတီႈႁွင်ႈၵၢၼ်ပၢႆးယူႇလီလႄႈ": 7620,
      "တၢင်းပွတ်းတွၼ်ႈၼၼ်ႉ": 7621,
      "ဝုၼ်ႇ": 7622,
      "ပူႊၶျႃႊ": 7623,
      "ပိူင်ယႂ်ႇသုတ်း": 7624,
      "ချုပ်": 7625,
      "ယဵပ်ႇၺႃးမၢၵ်ႇမႅင်းၾင်လိၼ်": 7626,
      "ဝၢင်ႈၼႆႉ": 7627,
      "မႂ်ႇသုင်ၶႃႈႁိုၼ်း": 7628,
      "ၶွမ်ႊမိဝ်ႊ": 7629,
      "ၾေႉသ်ပုၵ်ႉ": 7630,
      "IT": 7631,
      "KN": 7632,
      "ning": 7633,
      "ran": 7634,
      "sh": 7635,
      "ပဒေ": 7636,
      "မင်": 7637,
      "ယႆး": 7638,
      "ဝၢၼ်း": 7639,
      "ူဝ်ႇ": 7640,
      "ၶီး": 7641,
      "ႁေ": 7642,
      "ႁႃး": 7643,
      "တီႈႁၢၼ်ႉ": 7644,
      "တီႈလၢႆးၶႃႈ": 7645,
      "တီႈပၢင်သဝ်း": 7646,
      "တီႈထမ်ႈမိူင်းၵႅတ်ႇ": 7647,
      "မိူင်းမ": 7648,
      "မိူင်းမိတ်ႈ": 7649,
      "ဝႃႈၼၼ်ႉ": 7650,
      "ၵူၼ်းဢၼ်မႃး": 7651,
      "ၼႆႉယူႇ": 7652,
      "လူဢၢၼ်ႇ": 7653,
      "တေဢွၼ်": 7654,
      "တေၶိုၼ်ႈ": 7655,
      "မႃးၵဵပ်း": 7656,
      "ဢၼ်ပၼ်": 7657,
      "ဢၼ်သႂ်ႇ": 7658,
      "ဢၼ်ပွႆႇ": 7659,
      "တၢင်းယၢမ်ႈ": 7660,
      "ၵၼ်တႄႉ": 7661,
      "သိုၵ်းလူင်ပွင်": 7662,
      "လႄႈၾိင်ႈငႄႈတႆး": 7663,
      "ဢွမ်": 7664,
      "ၵႂႃႇႁူင်းယႃ": 7665,
      "လူင်ဝႆႉ": 7666,
      "လွင်ႈလႆႈ": 7667,
      "လွင်ႈလီ": 7668,
      "လွင်ႈၸိူဝ်းၼႆႉ": 7669,
      "ဝႆႉၼႆႉ": 7670,
      "ဝၢၼ်ႈလႄႈ": 7671,
      "ဝၢၼ်ႈၽႂ်": 7672,
      "ဝၢၼ်ႈၵုၼ်": 7673,
      "ၶူၵ်ႉ": 7674,
      "ၸဝ်ႈသိူဝ်": 7675,
      "ၸိူဝ်းထုၵ်ႇ": 7676,
      "ႁွပ်ႇ": 7677,
      "မၼ်းဝႆႉ": 7678,
      "မၼ်းလမ်ႇလွင်ႈ": 7679,
      "ၵူၼ်းမိူင်းၽျၢၵ်ႈ": 7680,
      "ပၼ်ႁဝ်း": 7681,
      "ၶဝ်ႈထမ်ႈ": 7682,
      "ၶဝ်ႈဝၢတ်ႈ": 7683,
      "ၾၢႆႇၵဵဝ်ႇၶွင်ႈ": 7684,
      "ဢဝ်ႁဵတ်း": 7685,
      "ႁႂ်ႈဢဝ်": 7686,
      "ႁႂ်ႈၶိုၼ်း": 7687,
      "ဢွၵ်ႇၶွၵ်ႈ": 7688,
      "ႁႅင်းၾႆးၾႃႉ": 7689,
      "မၢဝ်ႇ": 7690,
      "ႁဝ်းၶႃႈဢမ်ႇ": 7691,
      "ၵူၺ်းၶႃႈဢေႃႈ": 7692,
      "တူဝ်လိၵ်ႈ": 7693,
      "သၢဝ်း": 7694,
      "ႁူင်းတွတ်ႈၶႅပ်းၵၢင်ၸႂ်": 7695,
      "ဢူၼ်ႈ": 7696,
      "တၢႆၼႆႉ": 7697,
      "ၸတ်းပၢင်ပွႆး": 7698,
      "မၢၵ်ႇၵႃႇ": 7699,
      "ႁဵၼ်းဢဝ်": 7700,
      "ၽၢမ်း": 7701,
      "ၵႃးသိုၵ်းမၢၼ်ႈ": 7702,
      "လိူဝ်ၵူႈပီ": 7703,
      "ပုမ်ႇ": 7704,
      "ယႃႈၶႃႈ": 7705,
      "လွႆႁူၼ်း": 7706,
      "108": 7707,
      "ၼွင်ႉၼူၼ်း": 7708,
      "ဢွၼ်ၵၼ်ပွၵ်ႈ": 7709,
      "ၵူၼ်းၼုမ်ႇႁဝ်းၶႃႈ": 7710,
      "ၵႅဝ်ႉ": 7711,
      "ႁပ်ႉပၢၵ်ႇ": 7712,
      "သူင်ႇပွၵ်ႈမႃး": 7713,
      "ၶႂ်ႈတိုၵ်းသူၼ်း": 7714,
      "တၢင်ႇၸၢဝ်းၶိူဝ်း": 7715,
      "ၼႂ်းၸႄႈဝဵင်းသႅၼ်ဝီ": 7716,
      "ၵိုတ်းပႅတ်ႈ": 7717,
      "သႂ်ႇဝႆႉ": 7718,
      "တူၼ်ႈၸႂ်": 7719,
      "ပႅတ်ႉ": 7720,
      "လၢမ်ႈ": 7721,
      "သူၼ်မွၵ်ႇ": 7722,
      "ၼွင်လႅင်": 7723,
      "ၼွၵ်ႈမၢႆမီႈ": 7724,
      "ၸိူဝ်ႉမႅင်းၶူဝ်ႊရူဝ်ႊၼႃႊ": 7725,
      "ၽိဝ်": 7726,
      "ငဝ်းတူင်ႉ": 7727,
      "ယိူၼ်ႉ": 7728,
      "ၶွင်ႇသီႇသိုၵ်း": 7729,
      "သဵၼ်ႈတၢင်းၼႆႉ": 7730,
      "လိၵ်ႈလၢႆးပၢႆ": 7731,
      "ၵေႃႈမီးယူႇ": 7732,
      "ၽူႈၼမ်းၼႃႈ": 7733,
      "ၽႃႇတမ်": 7734,
      "တိူင်းတႃႈၵုင်ႈ": 7735,
      "ၵူၼ်းတိတ်းၸပ်းၶူဝ်ႊဝိတ်ႉ": 7736,
      "ၾႆးမႆႈပႃႇ": 7737,
      "ၵုင်းၺွင်ႇ": 7738,
      "ဢွင်ႈတီႈဢၼ်": 7739,
      "ၶိုင်ဢၢင်ႈ": 7740,
      "ၽဝ်ပႅတ်ႈ": 7741,
      "ၶွတ်ႇၽွတ်ႈမႃး": 7742,
      "ၼမ်ႉလႆ": 7743,
      "ၸွင်ႇတေ": 7744,
      "ၵႃ့": 7745,
      "တီႈၼႂ်းဝၢင်း": 7746,
      "ၵႃႈၶၼ်ငိုၼ်း": 7747,
      "ႁူမ်ႈမိုဝ်းၵၼ်တင်း": 7748,
      "1998": 7749,
      "ၾူၼ်တူၵ်းႁႅင်း": 7750,
      "the": 7751,
      "ၸွမ်ၽွင်းလူင်မိူင်းတႆး": 7752,
      "တီႇမူဝ်ႇၶရႅတ်ႉ": 7753,
      "ၸၢႆးၵျေႃႇတဵင်း": 7754,
      "ႁၢင်ႇၵၼ်": 7755,
      "ငႃးသိုၵ်း": 7756,
      "ပဵၼ်ၽေးဢုပၢတ်ႈ": 7757,
      "သၢမ်ၸဵင်ႇၶမ်း": 7758,
      "ight": 7759,
      "ၼႄႉၼွၼ်း": 7760,
      "ၽူင်ႉသႂ်ႇ": 7761,
      "ၵမ်ႊပူႊၶျႃႊ": 7762,
      "ႁႆႇၵွင်": 7763,
      "ၶူဝ်းၼုင်ႈတၢင်း": 7764,
      "ၼႅင်ႈသၢၼ်": 7765,
      "oice": 7766,
      "achile": 7767,
      "ၻေႃႊလိူဝ်ႊ": 7768,
      "မျႅၼ်ႇမႃႇ": 7769,
      "ယလၶ": 7770,
      "Negative": 7771,
      "achileik": 7772,
      "81": 7773,
      "86": 7774,
      "87": 7775,
      "Se": 7776,
      "South": 7777,
      "SWAN": 7778,
      "Voice": 7779,
      "တၢၼ်ႊ": 7780,
      "ဖွ": 7781,
      "သိူဝ်ႊ": 7782,
      "ၼေႃ": 7783,
      "ၿူ": 7784,
      "မိူင်းၶိူဝ်း": 7785,
      "မိူင်းမႂ်ႇ": 7786,
      "ႁူဝ်ႈ": 7787,
      "တေဢုပ်ႇၵၼ်": 7788,
      "လႆႈတွင်ႈထၢမ်": 7789,
      "ပဵၼ်ၸၢဝ်း": 7790,
      "ပွၼ်ႈ": 7791,
      "မႃးၸိူဝ်းၼၼ်ႉ": 7792,
      "ၼႂ်းဝႃႇ": 7793,
      "ဢၼ်ၺႃးယိုဝ်း": 7794,
      "ဢၼ်လႅၼ်ႈ": 7795,
      "တၢင်းသွင်ၾၢႆႇ": 7796,
      "ဢမ်ႇပေႉ": 7797,
      "သေတီႈ": 7798,
      "တႆးလႅင်": 7799,
      "ယူႇယၢမ်းလဵဝ်": 7800,
      "ၵေႃႉသိုၵ်း": 7801,
      "ၵႂႃႇသူၼ်": 7802,
      "ယဝ်ႉၸိုင်": 7803,
      "ပၢင်မၢၵ်ႇ": 7804,
      "ပၢင်ၵၢတ်ႇ": 7805,
      "လွင်ႈၵႂႃႇမႃး": 7806,
      "ၸုမ်းလဵဝ်": 7807,
      "ၸဝ်ႈႁေႃၶမ်း": 7808,
      "ၸဝ်ႈသိလ်ထမ်း": 7809,
      "ၸိူဝ်းၼႆ": 7810,
      "ႁွႆ": 7811,
      "လၢတ်ႈဝႆႉဝႃႈ": 7812,
      "မၼ်းတေလႆႈ": 7813,
      "ၵူၼ်းမိူင်းတူၵ်းၸႂ်": 7814,
      "ၼိုင်ႈႁိူၼ်း": 7815,
      "ၶဝ်ႈလိူၵ်ႈတင်ႈ": 7816,
      "တႃႇႁူဝ်ၵူၼ်း": 7817,
      "ၸႄႈဝဵင်းမႄႈသၢႆ": 7818,
      "ၾၢႆႇမေႃယႃ": 7819,
      "ၸၢႆးယိင်း": 7820,
      "ၸၢႆးပႃႉ": 7821,
      "ဢဝ်တူဝ်တၢႆ": 7822,
      "ထိုင်ဝၼ်းတီႈ": 7823,
      "ပေႃးတင်းဝႃႈ": 7824,
      "လီလႄႈ": 7825,
      "ပွတ်းၵၢင်": 7826,
      "ၶိုၼ်းမိူၼ်ၵဝ်ႇ": 7827,
      "လူင်ပွင်ၸိုင်ႈမိူင်း": 7828,
      "ယူႇတီႈၵူၼ်းဝၢၼ်ႈ": 7829,
      "ထူမ်": 7830,
      "လိူၼ်ၻီႊသႅမ်ႊၿိူဝ်ႊ": 7831,
      "တွၼ်ႈပၼ်": 7832,
      "ၼၢင်းမေႃယႃ": 7833,
      "ၼၢင်းထူၺ်း": 7834,
      "သႅဝ်": 7835,
      "မိူင်းတႆးႁဝ်း": 7836,
      "ဢိူင်ႇသီၽုမ်း": 7837,
      "ၶၢဝ်ႇပွမ်": 7838,
      "ႁႃငိုၼ်း": 7839,
      "ၸိူင်ႉၼင်ႇၼၼ်": 7840,
      "ၶိုၼ်ႈသုင်": 7841,
      "ၸပ်းၶူဝ်ႊဝိတ်ႉ": 7842,
      "သွင်လိူၼ်": 7843,
      "ပိူင်ၵူၼ်း": 7844,
      "ၸၢင်ႈၺႃး": 7845,
      "ဢွၼ်ၵၼ်တူၵ်းၸႂ်": 7846,
      "ၵူတ်ႇထတ်းတၢင်းပဵၼ်ၶူဝ်ႊဝိတ်ႉ": 7847,
      "ၼႂ်းၸႄႈဝဵင်းၼမ်ႉသၼ်ႇ": 7848,
      "တေလႆႈယူႇ": 7849,
      "ၸွမ်ပိဝ်": 7850,
      "ၸင်ႇၵွႆႈ": 7851,
      "ပေႃႉႁႅမ်": 7852,
      "ၾႃႉၽႃႇ": 7853,
      "လုမ်းတၢင်": 7854,
      "တူင်ႉတၵ်ႉ": 7855,
      "ၸႄႈတွၼ်ႈၵဵင်းတုင်": 7856,
      "ယွမ်းၼွမ်း": 7857,
      "ၽိူၼ်": 7858,
      "ႁွင်ႈၵၢၼ်လူင်": 7859,
      "လၢႆလၢႆမိူင်း": 7860,
      "လၢႆလၢႆၾၢႆႇ": 7861,
      "ယၢမ်းၵၢင်ၼႂ်မွၵ်ႈ": 7862,
      "လၵ်းသဝ်": 7863,
      "ႁဵတ်းႁႂ်ႈတုမ်ႉတိူဝ်ႉ": 7864,
      "ၵဵပ်းႁွမ်": 7865,
      "မီးၵူၼ်းမႃး": 7866,
      "ၶျေႃး": 7867,
      "ၸႄႈဝဵင်းမိူင်းပဵင်း": 7868,
      "လွတ်ႈလွတ်ႈလႅဝ်း": 7869,
      "ရိၵ်ႊတိူဝ်ႊ": 7870,
      "ပွၵ်ႈၵမ်းသွင်": 7871,
      "ဝၢၼ်ႈမိူင်းႁဝ်း": 7872,
      "တီႈမိူင်းပၼ်ႇ": 7873,
      "ဢၼ်တေၸတ်း": 7874,
      "တိူင်းပႃႇၵိူဝ်": 7875,
      "ၵုင်းသေႃႉ": 7876,
      "ႁတ်းငၢၼ်": 7877,
      "ၽိုၼ်ႁၢႆးငၢၼ်း": 7878,
      "ၶွၼ်ႈၵၼ်": 7879,
      "ၾၢင်ႉယူႇ": 7880,
      "ပႆၶိုၼ်ႈလွႆ": 7881,
      "ၵွင်းမူးၶမ်း": 7882,
      "လဵပ်ႈႁဵၼ်းလွင်ႈ": 7883,
      "ဢိူင်ႇမိူင်းၵႅတ်ႇ": 7884,
      "မိၼ်းထုၼ်း": 7885,
      "တူင်ႈပဵင်း": 7886,
      "ၶပ်းၶီႇ": 7887,
      "တႅမ်ႈလိၵ်ႈထိုင်": 7888,
      "1990": 7889,
      "ၽွၼ်းလီတႃႇ": 7890,
      "ပဵၼ်လုၵ်ႈယိင်း": 7891,
      "our": 7892,
      "ၸေႃႇဢူး": 7893,
      "တီႈမူႇၸေႊၼႆႉ": 7894,
      "ဢွၼ်ႁူဝ်ၼမ်းၼႃႈသေ": 7895,
      "လႅင်ႇၶၢဝ်ႇ": 7896,
      "ရွာ": 7897,
      "တိူင်ႇၵၢဝ်ႇ": 7898,
      "လင်ၶႃးႁိူၼ်း": 7899,
      "ဝႅပ်ႊသၢႆႊ": 7900,
      "ၼွၵ်ႈသေၼၼ်ႉ": 7901,
      "ၵၢၼ်သွၼ်ႁဵၼ်း": 7902,
      "ဢီႊရၢၼ်ႊ": 7903,
      "ငွႆးယိုဝ်း": 7904,
      "မၢၵ်ႇၶိူဝ်သူမ်ႈ": 7905,
      "ပိတၵၢတ်ႈ": 7906,
      "67": 7907,
      "ak": 7908,
      "ly": 7909,
      "ote": 7910,
      "တယ": 7911,
      "မႃႊ": 7912,
      "ရာ": 7913,
      "ရယွင်း": 7914,
      "လင်ႇ": 7915,
      "ံး": 7916,
      "ၵီႇ": 7917,
      "ၶႄး": 7918,
      "ၽၢင်း": 7919,
      "ၼႆသေတႃႉၵေႃႈ": 7920,
      "ၵူး": 7921,
      "ဝႃႈၸိူင်ႉၼၼ်": 7922,
      "ၵူၼ်းၶိူဝ်း": 7923,
      "ၵူၼ်းၶၢႆၶူဝ်း": 7924,
      "တေယၢပ်ႇ": 7925,
      "တေတိူဝ်း": 7926,
      "လႆႈၸတ်းႁဵတ်း": 7927,
      "လႆႈၶတ်းၸႂ်": 7928,
      "လႆႈႁၢမ်": 7929,
      "ပဵၼ်ႁႅင်း": 7930,
      "ပဵၼ်သိုၵ်းမၢၼ်ႈ": 7931,
      "မႃးဢႅဝ်ႇယဵမ်ႈ": 7932,
      "ၼၼ်ႉမီး": 7933,
      "မီးၼႂ်း": 7934,
      "မီးဝႆႉဝႃႈ": 7935,
      "ၵၼ်တၢႆ": 7936,
      "သိုၵ်းၵူၼ်းမိူင်း": 7937,
      "ၶႃႈၼႆႉ": 7938,
      "ၶႃႈႁႃႉ": 7939,
      "ဝၼ်းပၢႆ": 7940,
      "ၵေႃႉၵဝ်ႇ": 7941,
      "ၵၢၼ်ႁူမ်ႇလူမ်ႈ": 7942,
      "ၵၢၼ်ၵိုတ်းယိုတ်း": 7943,
      "ၽူၼ်း": 7944,
      "ၽူႈၸွႆႈ": 7945,
      "လွင်ႈၵူၼ်း": 7946,
      "လွင်ႈယႂ်ႇ": 7947,
      "ပ်ႉၾ": 7948,
      "ပေါ": 7949,
      "ဝၢၼ်ႈလႂ်": 7950,
      "ဝၢၼ်ႈႁၢတ်ႇ": 7951,
      "ၸုမ်းသေ": 7952,
      "ၸုမ်းပျီႇတုၸိတ်ႉ": 7953,
      "ၶူင်ႈ": 7954,
      "ၸဝ်ႈၸၢင်း": 7955,
      "လၢတ်ႈသိုဝ်ႈ": 7956,
      "မၼ်းဢမ်ႇလႆႈ": 7957,
      "ယၢဝ်": 7958,
      "ႁူမ်ႈႁႅင်း": 7959,
      "ၶဝ်ပေႃး": 7960,
      "ၼမ်ႉၵေႃႈ": 7961,
      "ၼမ်ႉၼွင်": 7962,
      "ၼမ်ႉၽၵ်းၵႃ": 7963,
      "တႃႇပၢင်လိူၵ်ႈတင်ႈ": 7964,
      "တႃႇႁႄႉၵင်ႈတၢင်းပဵၼ်ၶူဝ်ႊဝိတ်ႉ": 7965,
      "ဢဝ်ဢဵၼ်ႁႅင်း": 7966,
      "ၶွမ်ႈ": 7967,
      "ႁႂ်ႈႁဵတ်း": 7968,
      "ၵၢင်မိူင်း": 7969,
      "ၵၢင်ၸူဝ်ႈ": 7970,
      "တုမ်ႇ": 7971,
      "ပေႃးပဵၼ်မႃး": 7972,
      "ပွင်ၸိုင်ႈမၢၼ်ႈ": 7973,
      "လီသေ": 7974,
      "ၸွမ်းသဵၼ်ႈတႃႈသၢႆတၢင်း": 7975,
      "ၶၢဝ်းၶူဝ်ႊဝိတ်ႉ": 7976,
      "သိုၵ်းမၢၼ်ႈယိုတ်းမိူင်း": 7977,
      "ၼၢင်းသီ": 7978,
      "ၵူႈဝၢၼ်ႈ": 7979,
      "ၵူႈပိူင်": 7980,
      "တိတ": 7981,
      "ၶူဝ်ႊရီႊယိူဝ်ႊ": 7982,
      "မၢၵ်ႇဢၼ်": 7983,
      "ႁူႉႁၼ်": 7984,
      "ပႆႇႁိုင်": 7985,
      "ၽေးၵိုင်ႉၵၢင်ႉ": 7986,
      "ၸွႆႈပၼ်": 7987,
      "တႃႈသၢင်း": 7988,
      "မွၵ်ႈၵႃႈႁိုဝ်": 7989,
      "2115": 7990,
      "ၵိၼ်ၼမ်ႉ": 7991,
      "ၸပ်းၽႄႈ": 7992,
      "ပိူင်ၵဝ်ႇ": 7993,
      "ႁူမ်ႈၵၼ်တင်း": 7994,
      "ၸၢင်ႈပဵၼ်လႆႈ": 7995,
      "ၵႅဝ်": 7996,
      "သၢင်ႈလွင်ႈငမ်းယဵၼ်": 7997,
      "သူင်ႇၶဝ်ႈ": 7998,
      "တၢင်ႇၶိုၼ်ႈ": 7999,
      "တိုၵ်ႉၶတ်းၸႂ်": 8000,
      "ၼႂ်းၸႄႈဝဵင်းၼွင်ၶဵဝ်": 8001,
      "သႂ်ႇႁႅင်း": 8002,
      "ထူပ်းၺႃး": 8003,
      "ႁႅင်းၵၢၼ်ၸိူဝ်း": 8004,
      "ပိုတ်ႇပၢင်ပွႆး": 8005,
      "ႁၢဝ်ႈႁၢဝ်ႈႁႅင်း": 8006,
      "တေႃႇထိုင်မိူဝ်ႈၼႆႉ": 8007,
      "သိၵ်ႈ": 8008,
      "ဝႆႉတီႈၼႆႈ": 8009,
      "တေမီးမႃး": 8010,
      "တီႉၺွပ်းၵုမ်းၶင်": 8011,
      "ပွႆႇသႂ်ႇ": 8012,
      "ႁူင်းႁဵၼ်းထမ်မ": 8013,
      "လႅၼ်လိၼ်ၶႄႇ": 8014,
      "ဢၼ်မီးဝႆႉ": 8015,
      "တီႈဝဵင်းတႃႈၵုင်ႈ": 8016,
      "ၸူးတီႈ": 8017,
      "ပၢင်လူင်ၼႆႉ": 8018,
      "မႆႈၸႂ်ၵူဝ်": 8019,
      "မိၼ်ႇတ": 8020,
      "တႄႉတႄႉၶႃႈဢေႃႈ": 8021,
      "ၵွင်းလၢင်း": 8022,
      "ၵွင်းၶႃး": 8023,
      "တီႈဝတ်ႉပႃႇပဝ်ႈ": 8024,
      "ပၢၼ်ႊ": 8025,
      "တၢၼ်ႉ": 8026,
      "တီႈလိၼ်ၵူၼ်းမိူင်း": 8027,
      "ၶဝ်ႈမႃးတၢင်း": 8028,
      "ၵိုတ်းတိုၵ်းထႅင်ႈ": 8029,
      "ၵိုတ်းတိုၵ်းၾၢႆႇလဵဝ်": 8030,
      "ၶုၼ်မိူင်း": 8031,
      "ၶႅၼ်းၸိုၼ်ႈ": 8032,
      "မိူင်းမၢၼ်ႈၼႆႉ": 8033,
      "တီႈဝၢၼ်ႈၼႃး": 8034,
      "ပႃႈၼမ်": 8035,
      "တေႁဵတ်းပၼ်": 8036,
      "ord": 8037,
      "ၶၢႆႉပၢႆႈ": 8038,
      "ၵတ်းၵတ်းယဵၼ်": 8039,
      "ၽဝ်ၶၢပ်ႈတူဝ်": 8040,
      "ၶွတ်ႇၽွတ်ႈၸုမ်း": 8041,
      "ႁၢပ်ႇၵို": 8042,
      "ဢွင်ႇသၢၼ်းၸုၵျီႇ": 8043,
      "ႁၢၼ်ႉၶၢႆၶမ်း": 8044,
      "ထမ်ႈလူင်": 8045,
      "ရူဝ်ႊႁိၼ်ႊ": 8046,
      "ၸႃႇၵ": 8047,
      "သေၵမ်းၶႃႈ": 8048,
      "မုင်ႈမွင်းဝႃႈ": 8049,
      "ႁေႃးတြႃး": 8050,
      "news": 8051,
      "ဝၼ်းဢွၵ်ႇၵၢင်": 8052,
      "တေႃႇဢွင်ႇသၢၼ်းၸူႉၵျီႇ": 8053,
      "ၵဝ်ႉငဝ်ႈပူၵ်းပွင်သုၼ်ႇလႆႈၵူၼ်း": 8054,
      "တီႈလွႆၵေႃႇ": 8055,
      "ထႅင်ႈၵေႃႉၼိုင်ႈသမ်ႉ": 8056,
      "လီႊယိူဝ်ႊ": 8057,
      "တပ်ႉၸုမ်းလူင်": 8058,
      "ပၢႆႈလွတ်ႈဝႆႉ": 8059,
      "ကျေး": 8060,
      "ကျော": 8061,
      "ယူင်ႉၶၢပ်ႈ": 8062,
      "ဢူးတဵင်းၸဵင်ႇ": 8063,
      "မှု": 8064,
      "ၸဝ်ႈမုၼ်ယႂ်ႇၶုၼ်ႁေႃၶမ်းထႆး": 8065,
      "ဢိၼ်ႊတီႊယႃႊ": 8066,
      "World": 8067,
      "ၸုမ်းၵပ်းသၢၼ်လွင်ႈၼၢင်းယိင်းတႆး": 8068,
      "မႅတ်ႇပႅင်း": 8069,
      "ၽၵ်းယိူဝ်ႈၼၢင်းၶဵဝ်": 8070,
      "ၸေႃးတိၵ": 8071,
      "လၢႆမူႇလၢႆၸုမ်း": 8072,
      "worldome": 8073,
      "Passport": 8074,
      "ၸၢႆးမွၼ်းလိူၼ်": 8075,
      "တူင့်ၼိုင်": 8076,
      "ဢႃႊသီႊယၼ်ႊ": 8077,
      "သမႃးၶူမ်း": 8078,
      "330": 8079,
      "93": 8080,
      "Ed": 8081,
      "ac": 8082,
      "tu": 8083,
      "ud": 8084,
      "ကု": 8085,
      "ငုမ်း": 8086,
      "ပတိ": 8087,
      "လ်ႊ": 8088,
      "ဝတ့်": 8089,
      "အသ": 8090,
      "ဢယု": 8091,
      "ၸၼ်း": 8092,
      "ႁီႉ": 8093,
      "တီႈမၢၼ်ႈ": 8094,
      "တီႈၼႂ်းမိူင်း": 8095,
      "တီႈပုမ်": 8096,
      "မိူင်းၵၢဝ်": 8097,
      "ၵူၼ်းတေႃႉယႃႈ": 8098,
      "မႃးတႄႉတႄႉ": 8099,
      "ၼႂ်းပိုၼ်း": 8100,
      "ၼႂ်းႁၢင်": 8101,
      "ၼႂ်းၸိုင်ႈတႆးပွတ်းဢွၵ်ႇၶူင်း": 8102,
      "ဢၼ်မၼ်း": 8103,
      "ဢၼ်ႁၼ်": 8104,
      "ဢၼ်လႆ": 8105,
      "ဢမ်ႇထိုင်": 8106,
      "ဢမ်ႇမေႃ": 8107,
      "ဢမ်ႇၵွမ်ႉၵႃႈ": 8108,
      "ၶႃႈယူဝ်ႉ": 8109,
      "ၵေႃႉၶႃႈ": 8110,
      "ၵႂႃႇမူတ်း": 8111,
      "ၵၢၼ်ႊ": 8112,
      "လူင်ၵႂႃႇ": 8113,
      "ၽူႈႁတ်းငၢၼ်": 8114,
      "လွင်ႈသင်": 8115,
      "ၸုမ်းသိုဝ်ႇၶၢဝ်ႇ": 8116,
      "လၢတ်ႈလႆႈ": 8117,
      "မူၵ်ႇ": 8118,
      "ၵူၼ်းမိူင်းတႃႈၶီႈလဵၵ်း": 8119,
      "တႄႉဢမ်ႇမီး": 8120,
      "ၶဝ်လၢတ်ႈ": 8121,
      "ၶဝ်ၸင်ႇ": 8122,
      "ၼိုင်ႈယဝ်ႉ": 8123,
      "တႃႇငိုၼ်း": 8124,
      "ၸၢႆးလိူၼ်": 8125,
      "ၸၢႆးၸွမ်": 8126,
      "ဢဝ်မိူဝ်း": 8127,
      "ႁႂ်ႈၵူၼ်းဝၢၼ်ႈ": 8128,
      "ဢွၵ်ႇၽိုၼ်တၢမ်းငဝ်းလၢႆး": 8129,
      "ပွတ်းၼႂ်": 8130,
      "ႁိူၼ်းၽႂ်မၼ်း": 8131,
      "ၵႃႈၾႆး": 8132,
      "ပၢႆႈၶဝ်ႈ": 8133,
      "ၶၢဝ်းၼႆႉ": 8134,
      "ပႃးၵူၼ်း": 8135,
      "ၵဵၵ်ႉ": 8136,
      "ၼၢင်းသူၺ်ႇ": 8137,
      "ယွၼ်ႉသိုၵ်းမၢၼ်ႈ": 8138,
      "ၽၢၵ်ႈ": 8139,
      "ႁိုဝ်ၵေႃႈ": 8140,
      "ၽေးယႃႈမဝ်းၵမ်": 8141,
      "ဢိူင်ႇႁၢမ်းငၢႆး": 8142,
      "မိူၼ်ဝႃႈ": 8143,
      "မႄးလီ": 8144,
      "ၵိၼ်ၸၢင်ႈ": 8145,
      "တူၵ်းငၢၼ်း": 8146,
      "ဝတ်ႉဝၢၼ်ႈ": 8147,
      "ပလိၵ်ႈၶႄႇ": 8148,
      "တႄႇပဵၼ်": 8149,
      "ႁပ်ႉတၼ်းႁဵင်း": 8150,
      "ၵပ်းၵၢႆႇ": 8151,
      "ပူၼ်ႉလွတ်ႈ": 8152,
      "ၸင်ႇႁႃ": 8153,
      "ၶွင်ၵူၼ်းမိူင်း": 8154,
      "ဢမ်ႇလႆႈငိၼ်း": 8155,
      "လုၵ်ႉမိူင်း": 8156,
      "လၢတ်ႉ": 8157,
      "ၵေႃၵပ်းသၢၼ်": 8158,
      "ၶဝ်ႈႁူမ်ႈပၼ်ႁႅင်း": 8159,
      "ဢူးလႃႉ": 8160,
      "တေမီးထႅင်ႈ": 8161,
      "ပၢင်လိူၵ်ႈတင်ႈပီ": 8162,
      "တႃႇတေၵႂႃႇ": 8163,
      "ၾိင်ႈတိုၼ်းပဵၼ်": 8164,
      "1500": 8165,
      "လုၵ်ႈဢွၼ်ႇဢႃယု": 8166,
      "လုၵ်ႈႁဵၼ်းလႄႈ": 8167,
      "ငဝ်းလၢႆးၵၢၼ်မိူင်း": 8168,
      "ငဝ်းလၢႆးၶိုၵ်ႉၶၵ်ႉ": 8169,
      "မီးၵူၼ်းတၢႆ": 8170,
      "ပဵင်းပၢၵ်ႇ": 8171,
      "ၵိူင်း": 8172,
      "ဢွၼ်ႁူဝ်ၸတ်းႁဵတ်း": 8173,
      "ၸိူင်ႉၼႆသေ": 8174,
      "ၸိူင်ႉၼႆၶႃႈ": 8175,
      "မႆႉသၵ်း": 8176,
      "သျႅ": 8177,
      "ၸိူင်ႉႁိုဝ်ၵေႃႈယဝ်ႉ": 8178,
      "ၼႂ်းဝဵင်းၼမ်ႉလၼ်ႈ": 8179,
      "180": 8180,
      "တီႈမိူင်းၵွၵ်ႇ": 8181,
      "ဢၼ်တေၶဝ်ႈၶႅင်ႇ": 8182,
      "ၼေႃႇၽူႈတႅၼ်းသၽႃးၸႄႈမိူင်း": 8183,
      "တိူင်းတႃႈလိူဝ်ႇ": 8184,
      "ယႃႉလႅဝ်": 8185,
      "ၵေႃႇသၢင်ႈလွင်ႈငမ်းယဵၼ်": 8186,
      "လၵ်ႉပၢႆႈ": 8187,
      "ဝႆႉယူႇၶႃႈ": 8188,
      "ႁၢင်ႈႁႅၼ်းတူဝ်ႈတၼ်း": 8189,
      "ႁႄႉၵင်ႈၶူဝ်ႊဝိတ်ႉ": 8190,
      "ယိူင်းဢၢၼ်းတႄႉ": 8191,
      "ယၢမ်းဝၢႆးဝၼ်းမွၵ်ႈ": 8192,
      "ပႃႈၼိူဝ်": 8193,
      "ဢမ်ႇပၼ်ၶဝ်ႈ": 8194,
      "ၽိုၼ်မိူၼ်": 8195,
      "လႆႈငိၼ်းသဵင်": 8196,
      "သီလမ်": 8197,
      "ၶွတ်ႇၽွတ်ႈၶွမ်ႊမတီႊ": 8198,
      "ၼႂ်းမိူင်းႁူမ်ႈတုမ်မၢၼ်ႈ": 8199,
      "ၶိဝ်း": 8200,
      "တွတ်ႈၶႅပ်းၵၢင်ၸႂ်လူင်ႈၼႃႈ": 8201,
      "တဵင်းၸဵင်ႇ": 8202,
      "လိူတ်ႈဢွၵ်ႇ": 8203,
      "မဵတ်ႉတႃႇတြႃး": 8204,
      "တိူၵ်ႈၵမ်မထၢၼ်း": 8205,
      "မၢၵ်ႇလူင်တူၵ်း": 8206,
      "လူႉသဵင်ႈသုတ်းမုၼ်": 8207,
      "ပိၼ်ႇပႆႇ": 8208,
      "ပဝ်ႇဝႆႉ": 8209,
      "မိူဝ်ႈၵူႈပွၵ်ႈတႄႉ": 8210,
      "ပဵမ်ႇ": 8211,
      "ၵျီးၼႃး": 8212,
      "လုၵ်ႈလၢင်းၼၢင်းမေး": 8213,
      "ပၢၼ်ႇပွင်": 8214,
      "ၺႃးတီႉမိူဝ်ႈ": 8215,
      "ၼႂ်းၼႃႈလိၼ်ၽွင်းငမ်းတူဝ်ၵဝ်ႇ": 8216,
      "ထိုမ်ႈ": 8217,
      "ပၼ်ၾၢင်ႉထိုင်": 8218,
      "ဢဵတ်း": 8219,
      "Chiang": 8220,
      "ပၼ်တၢင်းၶႆႈၸႂ်": 8221,
      "ၶွမ်ႊမသျိၼ်ႊပၢင်လိူၵ်ႈတင်ႈမိူင်းႁူမ်ႈတုမ်": 8222,
      "တူၵ်းလူင်းလႆႈၸႂ်ၵၼ်": 8223,
      "ဢွင်ႇမင်ႇၵလႃႇ": 8224,
      "ပူတ်းပွႆႇၸိူဝ်ႉၸၢတ်ႈရၶႅင်ႇ": 8225,
      "itic": 8226,
      "လိူၼ်သီႇမူၼ်း": 8227,
      "ၵမ်းလိုၼ်းမႃး": 8228,
      "Morning": 8229,
      "ပူႇမွၼ်ႇၼၢႆးယႃႈ": 8230,
      "ဢွၵ်းဢေႃ": 8231,
      "လိူတ်ႇမႆႈ": 8232,
      "ငဝ်းႁၢင်ႈသဵင်": 8233,
      "ၸွၼ်ႊၸူဝ်ႇ": 8234,
      "ၶူဝ်းၼုင်ႈတၢင်းဝႆ": 8235,
      "ၵတ်းၵတ်းယဵၼ်ယဵၼ်": 8236,
      "83": 8237,
      "Or": 8238,
      "RC": 8239,
      "Sai": 8240,
      "id": 8241,
      "ung": 8242,
      "ward": 8243,
      "ၶီ": 8244,
      "ၶၻီး": 8245,
      "တီႈမၼ်း": 8246,
      "တေထိုင်ၼႆႉ": 8247,
      "ပဵၼ်တူဝ်": 8248,
      "ပဵၼ်တပ်ႉ": 8249,
      "ပဵၼ်ပႃႇတီႇ": 8250,
      "ပဵၼ်ဢီႈသင်": 8251,
      "မႃးပႂ်ႉ": 8252,
      "ၼႂ်းဝတ်ႉ": 8253,
      "ၼႂ်းၵၢင်ဝဵင်း": 8254,
      "ဢၼ်ၼႆႉသေ": 8255,
[...]
