{
  "version": "1.0",
  "truncation": null,
  "padding": null,
  "added_tokens": [
    {
      "id": 0,
      "content": "<pad>",
      "single_word": false,
      "lstrip": false,
      "rstrip": false,
      "normalized": false,
      "special": true
    },
    {
      "id": 1,
      "content": "<unk>",
      "single_word": false,
      "lstrip": false,
      "rstrip": false,
      "normalized": false,
      "special": true
    },
    {
      "id": 2,
      "content": "<s>",
      "single_word": false,
      "lstrip": false,
      "rstrip": false,
      "normalized": false,
      "special": true
    },
    {
      "id": 3,
      "content": "</s>",
      "single_word": false,
      "lstrip": false,
      "rstrip": false,
      "normalized": false,
      "special": true
    }
  ],
  "normalizer": null,
  "pre_tokenizer": {
    "type": "Sequence",
    "pretokenizers": [
      {
        "type": "Whitespace"
      },
      {
        "type": "Split",
        "pattern": {
          "Regex": "(?<=[က-႟꤀-꤯])(?=[A-Za-z0-9])|(?<=[A-Za-z0-9])(?=[က-႟꤀-꤯])"
        },
        "behavior": "Isolated",
        "invert": false
      }
    ]
  },
  "post_processor": null,
  "decoder": null,
  "model": {
    "type": "BPE",
    "dropout": null,
    "unk_token": "<unk>",
    "continuing_subword_prefix": null,
    "end_of_word_suffix": null,
    "fuse_unk": false,
    "byte_fallback": false,
    "ignore_merges": false,
    "vocab": {
      "<pad>": 0,
      "<unk>": 1,
      "<s>": 2,
      "</s>": 3,
      "!": 4,
      "(": 5,
      ")": 6,
      ",": 7,
      "-": 8,
      ":": 9,
      "?": 10,
      "I": 11,
      "U": 12,
      "W": 13,
      "b": 14,
      "d": 15,
      "e": 16,
      "f": 17,
      "h": 18,
      "i": 19,
      "n": 20,
      "r": 21,
      "s": 22,
      "t": 23,
      "‘": 24,
      "’": 25,
      "“": 26,
      "”": 27,
      "꤀": 28,
      "꤁": 29,
      "꤂": 30,
      "꤄": 31,
      "꤈": 32,
      "ꤊ": 33,
      "ꤋ": 34,
      "ꤌ": 35,
      "ꤍ": 36,
      "ꤎ": 37,
      "ꤏ": 38,
      "ꤐ": 39,
      "ꤑ": 40,
      "ꤒ": 41,
      "ꤓ": 42,
      "ꤔ": 43,
      "ꤕ": 44,
      "ꤖ": 45,
      "ꤗ": 46,
      "ꤘ": 47,
      "ꤙ": 48,
      "ꤚ": 49,
      "ꤛ": 50,
      "ꤜ": 51,
      "ꤝ": 52,
      "ꤞ": 53,
      "ꤟ": 54,
      "ꤠ": 55,
      "ꤡ": 56,
      "ꤢ": 57,
      "ꤣ": 58,
      "ꤤ": 59,
      "ꤥ": 60,
      "ꤦ": 61,
      "ꤧ": 62,
      "ꤨ": 63,
      "ꤩ": 64,
      "ꤪ": 65,
      "꤫": 66,
      "꤬": 67,
      "꤭": 68,
      "꤮": 69,
      "꤯": 70,
      "ꤢꤩ": 71,
      "ꤣꤧ": 72,
      "ꤢꤩ꤬": 73,
      "ꤢꤧ": 74,
      "ꤢ꤬": 75,
      "ꤣꤧ꤬": 76,
      "ꤢꤨ": 77,
      "ꤥ꤬": 78,
      "ꤢꤧ꤭": 79,
      "ꤢꤧ꤬": 80,
      "ꤢꤪ": 81,
      "ꤢ꤭": 82,
      "ꤢꤦ": 83,
      "ꤞꤤ": 84,
      "ꤔꤣꤧ꤬": 85,
      "ꤣꤧ꤭": 86,
      "ꤢꤨ꤭": 87,
      "ꤒꤣꤧ꤬": 88,
      "ꤢꤩ꤭": 89,
      "ꤘꤣ": 90,
      "ꤚꤣꤧ꤬": 91,
      "ꤢꤦ꤬": 92,
      "ꤔꤢꤧ": 93,
      "ꤒꤢꤩ꤬": 94,
      "ꤖꤚ": 95,
      "ꤥ꤭": 96,
      "ꤞꤤ꤭": 97,
      "ꤣ꤬": 98,
      "ꤟꤢꤩ꤬": 99,
      "ꤖꤚꤢꤩ꤬": 100,
      "ꤒꤣꤧ꤬ꤟꤢꤩ꤬": 101,
      "ꤤ꤬": 102,
      "ꤒꤣ꤬": 103,
      "ꤟꤢꤩ": 104,
      "꤫ꤢꤦ꤬": 105,
      "꤫ꤢꤩ꤬": 106,
      "ꤗꤢꤩ꤬": 107,
      "ꤢꤨ꤬": 108,
      "ꤛꤢꤩ꤬": 109,
      "ꤟꤣꤧ": 110,
      "ꤠꤢꤧ꤭": 111,
      "ꤜꤢꤪ": 112,
      "ꤗꤢ꤬": 113,
      "ꤢ꤬ꤋ": 114,
      "ꤡꤢꤪ": 115,
      "ꤊꤣꤧ꤬": 116,
      "ꤟꤢꤨ": 117,
      "ꤊ꤫ꤢꤦ꤬": 118,
      "ꤝꤢ": 119,
      "꤫ꤢꤧ꤬": 120,
      "ꤒꤥ꤬": 121,
      "ꤙꤢꤩ꤬": 122,
      "ꤛꤢꤩ꤬ꤞꤤ꤭": 123,
      "ꤤ꤭": 124,
      "ꤛꤢꤧ꤭": 125,
      "ꤊꤣꤧ꤬ꤛꤢꤧ꤭": 126,
      "꤫ꤥ꤬": 127,
      "ꤜꤢꤨ꤭": 128,
      "ꤒꤣ꤬ꤖꤚꤢꤩ꤬": 129,
      "ꤢꤪ꤬": 130,
      "ꤖꤢꤨ": 131,
      "ꤚꤢꤧ꤬": 132,
      "ꤗꤣꤧ꤬": 133,
      "ꤡꤢꤪꤗꤣꤧ꤬": 134,
      "ꤡꤢꤪꤗꤣꤧ꤬ꤚꤢꤧ꤬": 135,
      "ꤕꤢꤩ꤬": 136,
      "ꤊꤢꤧ꤭": 137,
      "ꤛꤢ꤭": 138,
      "ꤟꤢꤧ꤭": 139,
      "ꤔꤢꤧ꤬": 140,
      "ꤕꤢ꤭": 141,
      "ꤜꤢꤪ꤭": 142,
      "ꤓꤢꤧ꤬": 143,
      "ꤜꤢ꤭": 144,
      "ꤛꤢꤨ": 145,
      "ꤑꤢꤩ꤭": 146,
      "ꤡꤝꤢ": 147,
      "ꤝꤢ꤭": 148,
      "ꤊꤜ": 149,
      "ꤋꤢꤨ꤭": 150,
      "ꤊꤣꤧ꤭": 151,
      "ꤡꤣꤧ": 152,
      "꤫ꤢ꤬": 153,
      "ꤕ꤫ꤢꤩ꤬": 154,
      "ꤓꤥ꤭": 155,
      "ꤙꤣꤧ": 156,
      "ꤘꤢꤦ꤬": 157,
      "ꤚꤣꤧ": 158,
      "ꤋꤚ": 159,
      "ꤖꤢꤧ": 160,
      "ꤕꤜ": 161,
      "ꤊꤢꤨ꤭": 162,
      "ꤘꤣꤧ": 163,
      "ꤒꤢꤩ꤭": 164,
      "꤫ꤤ꤬": 165,
      "ꤢꤪ꤭": 166,
      "ꤞꤢꤧ": 167,
      "ꤏꤛꤢꤨ": 168,
      "ꤛꤢꤩ꤬ꤏꤛꤢꤨ": 169,
      "ꤛ꤫ꤢꤦ꤬": 170,
      "ꤔ꤫ꤤ꤬": 171,
      "ꤟꤢꤨꤔꤣꤧ꤬": 172,
      "ꤗꤢꤧ": 173,
      "ꤋꤢꤧ꤭": 174,
      "ꤢ꤬ꤋꤛꤢ꤭": 175,
      "ꤣꤧ꤭ꤔꤣꤧ꤬": 176,
      "ꤜꤢ꤭ꤋꤢꤧ꤭": 177,
      "ꤢꤦ꤭": 178,
      "ꤗ꤫ꤢ꤬": 179,
      "ꤢ꤬ꤚ": 180,
      "ꤝꤢ꤬": 181,
      "ꤞꤣꤧ꤭": 182,
      "ꤊꤢꤩ꤬": 183,
      "ꤜꤥ꤭": 184,
      "ꤡꤢꤩ꤬": 185,
      "ꤕꤜꤢꤪ": 186,
      "ꤒꤢ꤭": 187,
      "ꤙꤢꤧ꤬": 188,
      "꤫ꤢꤪ꤬": 189,
      "ꤢ꤬ꤋꤢꤩ꤭": 190,
      "ꤙꤢꤧ꤬ꤡꤢꤩ꤬": 191,
      "ꤘꤢꤨ꤬": 192,
      "ꤒꤣꤧ꤬ꤟꤢꤩ꤬ꤔꤣꤧ꤬": 193,
      "ꤋꤢꤨ꤬": 194,
      "ꤝꤤ꤭": 195,
      "ꤟꤢꤩꤚꤣꤧ꤬": 196,
      "ꤔꤤ": 197,
      "ꤒꤢꤩ꤬ꤞ": 198,
      "꤫ꤣꤧ꤬": 199,
      "ꤚꤣꤧꤘꤢꤦ꤬": 200,
      "ꤢ꤬ꤋꤝꤢ꤬": 201,
      "ꤢ꤬ꤋꤝꤢ꤬ꤢ꤬ꤋꤛꤢ꤭": 202,
      "ꤔ꤫ꤢꤩ꤬": 203,
      "ꤕꤜꤢꤪ꤬": 204,
      "ꤔꤣꤧ꤬ꤒꤣꤧ꤬ꤟꤢꤩ꤬": 205,
      "ꤢ꤬ꤖꤢꤨ": 206,
      "ꤟꤢꤩꤏ": 207,
      "ꤒꤥ꤭": 208,
      "ꤓꤝꤢ꤭": 209,
      "ꤞꤤꤑꤢꤩ꤭": 210,
      "ꤒꤣꤧ꤬ꤚ": 211,
      "ꤢ꤬ꤜ": 212,
      "꤯”": 213,
      "ꤞꤤꤕꤜꤢꤪ꤬": 214,
      "ꤥ꤬ꤔ": 215,
      "ꤠꤤ꤭": 216,
      "ꤘꤢꤧ꤬": 217,
      "ꤕꤢ꤬": 218,
      "ꤗꤢ꤬ꤔꤢꤧ": 219,
      "ꤔꤣꤧ꤬ꤗꤢ꤬": 220,
      "ꤜꤢꤧ꤬": 221,
      "ꤝꤤ": 222,
      "ꤗꤢꤩ꤬ꤒꤢꤩ꤭": 223,
      "ꤗꤢ꤬ꤔꤢꤧꤚꤣꤧ꤬": 224,
      "ꤍ꤫ꤥ꤬": 225,
      "ꤛꤢ": 226,
      "ꤢ꤬ꤋꤢꤩ꤭ꤔꤣꤧ꤬": 227,
      "ꤔꤢꤪ꤭": 228,
      "ꤊꤢꤨ": 229,
      "ꤜꤣꤧ꤬": 230,
      "ꤋꤛꤢ꤭": 231,
      "ꤡ꤫ꤢꤧ꤬": 232,
      "ꤋꤚꤤ": 233,
      "ꤓꤢꤩ꤬": 234,
      "ꤖꤢꤩ꤭": 235,
      "ꤔꤣꤧ꤭": 236,
      "ꤒ꤫ꤢꤧ꤬": 237,
      "ꤗꤢꤧꤓ": 238,
      "ꤗꤢꤧꤓ꤫ꤣꤧ꤬": 239,
      "ꤊꤢ꤬": 240,
      "ꤜꤣ": 241,
      "ꤛ꤫ꤢꤦ꤬ꤢꤩ꤬": 242,
      "ꤗꤥ꤬": 243,
      "ꤡꤣ꤬": 244,
      "ꤒ꤫ꤥ꤬": 245,
      "ꤣꤧ꤭ꤒꤣꤧ꤬ꤟꤢꤩ꤬": 246,
      "ꤊꤢꤨ꤬": 247,
      "ꤜ꤫ꤢꤩ꤬": 248,
      "ꤊ꤫ꤢꤩ꤬": 249,
      "ꤞꤣꤧ꤭ꤖꤚꤢꤩ꤬": 250,
      "ꤟꤥ꤭": 251,
      "ꤗꤢꤩ꤬ꤒꤢꤩ꤭ꤟꤢꤩꤚꤣꤧ꤬": 252,
      "ꤞꤝꤢ": 253,
      "ꤓꤣꤧ꤭": 254,
      "ꤔ꤫ꤢꤧ꤬": 255,
      "ꤒꤣꤧ꤬ꤔ": 256,
      "ꤊꤜꤢꤪ": 257,
      "ꤣꤧ꤭ꤒꤣ꤬ꤖꤚꤢꤩ꤬": 258,
      "ꤕ꤫ꤥ꤬": 259,
      "ꤢ꤬ꤑꤢꤩ꤭": 260,
      "ꤢ꤬ꤊꤢꤨ꤭": 261,
      "ꤓꤥ꤭ꤚꤣꤧ꤬": 262,
      "꤮꤯": 263,
      "ꤡ꤫ꤢꤩ꤬": 264,
      "ꤚꤤ꤬": 265,
      "ꤒꤣ꤬ꤖ": 266,
      "ꤞꤤꤛ꤫ꤢꤦ꤬": 267,
      "ꤞꤢꤧꤟꤢꤨ": 268,
      "ꤒꤣ꤬ꤡꤣ꤬": 269,
      "ꤗ꤫ꤢ꤬ꤒꤥ꤬": 270,
      "ꤛ꤫ꤢꤧ꤬": 271,
      "ꤛꤢꤨꤘ": 272,
      "ꤥ꤬ꤔꤢꤧ꤭": 273,
      "ꤕꤝꤢ꤭": 274,
      "ꤟꤢꤩꤏꤥ꤬": 275,
      "ꤞꤢꤩ꤬": 276,
      "ꤙꤢꤩ꤬ꤙꤢꤩ꤬": 277,
      "ꤕꤜꤤ꤭": 278,
      "ꤋꤢꤩ꤭": 279,
      "ꤛꤢ꤬": 280,
      "ꤓꤥ꤭ꤟꤣꤧ": 281,
      "ꤗꤢꤪ": 282,
      "ꤔꤥ꤭": 283,
      "ꤟꤢꤩꤙꤢꤩ꤬": 284,
      "ꤏꤢ": 285,
      "ꤗ꤫ꤢꤪ꤬": 286,
      "ꤡꤢ꤭": 287,
      "ꤛꤥ꤬": 288,
      "ꤖꤢꤨꤡ꤫ꤢꤩ꤬": 289,
      "ꤊꤢꤨ꤬ꤊꤜꤢꤪ": 290,
      "ꤒꤢꤩ꤬ꤗꤢꤩ꤬": 291,
      "ꤢ꤬ꤔ꤫ꤢꤩ꤬": 292,
      "ꤋꤥ꤭": 293,
      "ꤛꤢꤨꤘꤢ꤬ꤖꤢꤨ": 294,
      "ꤖꤛꤢ": 295,
      "ꤙꤢꤩ꤭": 296,
      "ꤋꤢꤧ": 297,
      "ꤖꤚꤢꤩ꤬ꤋꤢꤨ꤭": 298,
      "ꤘꤢꤦ": 299,
      "ꤒꤣꤧ꤬ꤚꤣꤧ꤭": 300,
      "ꤊꤢ꤬ꤋꤛꤢ꤭": 301,
      "ꤙꤣꤧꤔꤣꤧ꤬": 302,
      "ꤙꤢꤩ": 303,
      "ꤟꤢꤨꤔꤣꤧ꤬ꤚꤣꤧ꤬": 304,
      "ꤗ꤫ꤢꤧ꤬": 305,
      "ꤗ꤫ꤥ꤬": 306,
      "ꤒꤢꤩ꤬ꤞꤢꤦ": 307,
      "ꤚꤢꤧ": 308,
      "ꤗꤢꤪ꤬": 309,
      "ꤟꤤ꤬": 310,
      "ꤏꤢꤪ꤭": 311,
      "ꤓꤝꤢ꤭ꤓꤢꤧ꤬": 312,
      "ꤒꤣꤧ꤬ꤔꤢꤩ꤬": 313,
      "ꤏꤢꤩ꤭": 314,
      "ꤜꤤ꤬": 315,
      "꤫ꤣ꤬": 316,
      "ꤗꤢꤩ꤭": 317,
      "ꤗꤝꤤ꤭": 318,
      "ꤟꤢꤩ꤬ꤋꤢꤨ꤬": 319,
      "ꤊꤝꤤ꤭": 320,
      "ꤒꤣꤧ꤬ꤘꤢꤦ": 321,
      "ꤛ꤫ꤢꤧ꤬ꤛꤥ꤬": 322,
      "ꤒꤣꤧ꤬ꤘꤢꤦꤚꤣꤧ꤬": 323,
      "ꤒ꤫ꤢꤧ꤬ꤗꤢꤩ꤬": 324,
      "ꤔ꤫ꤤ꤬ꤙꤢꤩ꤬": 325,
      "ꤗꤢꤨ꤬": 326,
      "ꤊꤜꤢꤩ꤭": 327,
      "ꤘꤥ꤬ꤔꤢꤧ꤭": 328,
      "ꤜꤥ꤬": 329,
      "ꤡꤢꤪꤙꤢꤩ꤭": 330,
      "ꤒꤥ꤭ꤙꤢꤩ꤬": 331,
      "ꤗꤢꤨ": 332,
      "ꤕꤣꤧ": 333,
      "ꤒ꤫ꤣ꤬": 334,
      "ꤏꤢꤦ꤬": 335,
      "ꤤ꤬ꤞꤝꤢ": 336,
      "ꤢ꤬ꤚꤤ꤬": 337,
      "ꤖꤚꤥ꤬": 338,
      "ꤞꤢꤪ꤬": 339,
      "ꤋꤛꤢ꤭ꤞꤢꤧ": 340,
      "ꤘꤢ꤭": 341,
      "ꤔꤢꤧ꤬ꤡꤣꤧ": 342,
      "ꤏꤝꤢ꤬": 343,
      "ꤒꤣ꤬ꤖꤥ": 344,
      "ꤕꤣꤧꤞꤢꤩ꤬": 345,
      "ꤜꤢꤨ꤬": 346,
      "ꤢ꤬ꤍ꤫ꤥ꤬": 347,
      "ꤟꤢꤩꤏꤢꤦ꤬": 348,
      "ꤋꤚꤝꤢ꤭": 349,
      "ꤒꤢꤧ꤭": 350,
      "ꤗꤢꤨꤗ꤫ꤢꤧ꤬": 351,
      "ꤢ꤬ꤚꤢꤨ": 352,
      "ꤜꤢ꤬": 353,
      "ꤖꤚꤢꤩ꤬ꤗꤢꤪ꤬": 354,
      "ꤗꤢꤪꤋꤢꤨ꤬": 355,
      "ꤖꤢ": 356,
      "ꤜꤢꤨ": 357,
      "ꤊꤢꤨꤔ꤫ꤢꤧ꤬": 358,
      "ꤗꤤ꤬": 359,
      "ꤋꤥ꤭ꤖꤢꤨꤡ꤫ꤢꤩ꤬": 360,
      "꤫ꤢꤨ꤬": 361,
      "ꤢ꤬ꤑꤢꤩ꤭ꤔꤣꤧ꤬": 362,
      "ꤢ꤬ꤊꤢꤧ꤭": 363,
      "꤮,": 364,
      "ꤜꤢꤨ꤭ꤒꤢꤧ꤭": 365,
      "ꤋꤝꤤ": 366,
      "ꤡꤝ": 367,
      "ꤞꤥ꤭": 368,
      "ꤔ꤫ꤤ꤬ꤟꤥ꤭": 369,
      "ꤏꤛ": 370,
      "ꤞꤢꤧꤔꤢꤧ": 371,
      "ꤓꤢꤪ꤬": 372,
      "ꤕꤣꤧ꤬": 373,
      "ꤊꤣꤧ꤬ꤓꤢꤪ꤬": 374,
      "ꤋꤚꤢꤦ꤭": 375,
      "ꤢ꤬ꤙ": 376,
      "ꤓꤥ꤭ꤒꤥ꤬": 377,
      "ꤞꤢꤩ": 378,
      "ꤜꤥ꤭ꤔ": 379,
      "ꤝꤢꤒꤢꤩ꤬ꤞ": 380,
      "ꤒꤢꤩ꤬ꤞꤝꤢꤒꤢꤩ꤬ꤞ": 381,
      "ꤒꤢꤩ꤬ꤞꤝꤢꤒꤢꤩ꤬ꤞꤢꤧ꤬": 382,
      "ꤥ꤬ꤞꤣꤧ꤭ꤖꤚꤢꤩ꤬": 383,
      "ꤕꤜꤢꤩ": 384,
      "ꤒꤢꤩ꤬ꤞꤤ": 385,
      "ꤞꤢꤩ꤭": 386,
      "ꤣꤧ꤭ꤒꤣꤧ꤬ꤟꤢꤩ꤬ꤔꤣꤧ꤬": 387,
      "ꤣꤧ꤭ꤒꤣ꤬": 388,
      "ꤗꤣꤧ꤭": 389,
      "ꤓꤢꤩ꤬ꤡꤝꤢ": 390,
      "ꤜꤢꤩ꤭": 391,
      "ꤘꤢꤧ": 392,
      "ꤘꤣꤧꤟ": 393,
      "ꤕꤢꤩ꤭": 394,
      "ꤚꤢꤩ꤭": 395,
      "ꤘꤣꤧꤟꤣꤧ꤭": 396,
      "ꤟꤤ": 397,
      "ꤓꤢꤨ꤬": 398,
      "ꤙꤢꤧ": 399,
      "ꤥ꤬ꤔꤢꤩ꤬": 400,
      "ꤒꤢꤦ": 401,
      "ꤜꤤ꤭": 402,
      "ꤒꤣ꤬ꤖꤚꤢꤩ꤬ꤖꤚꤢꤩ꤬": 403,
      "ꤢꤪꤜꤢꤨ": 404,
      "?”": 405,
      "ꤋꤥ": 406,
      "ꤛꤢꤩ꤬ꤏꤛꤢꤨꤋꤚꤤ": 407,
      "ꤏꤣꤧ": 408,
      "ꤚꤢ꤭": 409,
      "ꤟꤢ꤬": 410,
      "ꤟꤢꤨꤒꤢꤩ꤭": 411,
      "ꤢ꤬ꤚꤤ꤬ꤢ꤬ꤊꤢꤧ꤭": 412,
      "ꤖꤚꤢꤩ꤬ꤜꤢꤨ꤬": 413,
      "ꤊꤜꤢꤧ": 414,
      "ꤔꤢꤪ": 415,
      "ꤊꤣꤧ꤭ꤢꤨ꤭": 416,
      "ꤘꤣꤧꤡꤢ꤭": 417,
      "ꤜꤢꤪ꤭ꤕꤜꤤ꤭": 418,
      "ꤢ꤬ꤒꤢꤩ꤬": 419,
      "ꤛꤢꤪ꤬": 420,
      "ꤞꤢꤦ": 421,
      "ꤔ꤫ꤤ꤬ꤘꤢ꤭": 422,
      "ꤟꤢꤨꤣꤧ꤭": 423,
      "ꤚꤤ꤬ꤡ꤫ꤢꤧ꤬": 424,
      "ꤢ꤬ꤛ꤫ꤢꤧ꤬ꤛꤥ꤬": 425,
      "ꤣꤧ꤭ꤔꤣꤧ꤬ꤗꤢ꤬": 426,
      "ꤓꤢꤩ꤭": 427,
      "ꤙꤢ꤭": 428,
      "ꤜꤣꤧ꤬ꤕꤜꤢꤩ": 429,
      "ꤡꤝ꤫ꤢ꤬": 430,
      "ꤋꤢꤨ꤭ꤕ": 431,
      ",”": 432,
      "ꤔꤣꤧ꤬ꤒꤣ꤬ꤖꤚꤢꤩ꤬": 433,
      "ꤔꤤꤔꤢꤧ꤬": 434,
      "ꤋꤢꤨ꤭ꤕꤢꤪꤜꤢꤨ": 435,
      "ꤜꤢ꤭ꤟꤤ": 436,
      "ꤗꤢꤨꤗ꤫ꤢꤧ꤬ꤚꤤ꤬ꤡ꤫ꤢꤧ꤬": 437,
      "ꤘꤥ꤭": 438,
      "ꤢ꤬ꤚꤥ꤬": 439,
      "ꤒ꤫ꤣ꤬ꤊꤣꤧ꤭": 440,
      "ꤏꤥ꤭": 441,
      "ꤙꤢ꤬": 442,
      "ꤚꤢ꤬": 443,
      "ꤊꤜꤣꤧ꤭": 444,
      "ꤗꤢꤦ꤭": 445,
      "ꤗ꤫ꤢ꤬ꤟꤣꤧ": 446,
      "ꤜ꤫ꤥ꤬": 447,
      "ꤔꤣꤧ꤬ꤒꤣ꤬": 448,
      "ꤗ꤫ꤢ꤬ꤔꤤꤔꤢꤧ꤬": 449,
      "ꤘꤣꤧꤜꤥ꤭": 450,
      "ꤜꤥ꤭ꤔꤢꤩ": 451,
      "ꤡꤢꤦ꤬": 452,
      "ꤊ꤫ꤢꤦ꤬ꤚꤢꤩ꤭": 453,
      "ꤢ꤬ꤖꤢꤨꤖꤚꤢꤩ꤬ꤋꤢꤨ꤭": 454,
      "ꤒꤢꤩ꤬ꤖꤢꤨ": 455,
      "ꤟꤢꤩꤔꤣꤧ꤬": 456,
      "ꤓꤢꤨ꤭": 457,
      "ꤥ꤬ꤗ": 458,
      "ꤕꤜꤝꤢ꤭": 459,
      "ꤞꤢ": 460,
      "ꤠ꤫ꤢꤧ꤬": 461,
      "ꤖꤚꤢꤩ꤬ꤛ꤫ꤢꤦ꤬ꤢꤩ꤬": 462,
      "ꤊꤜ꤫ꤢꤪ꤬": 463,
      "ꤤ꤬ꤏꤢꤩ꤭": 464,
      "ꤒꤢ꤭ꤒꤢꤩ꤬": 465,
      "ꤎꤢ꤬": 466,
      "ꤏꤢꤩ꤬": 467,
      "ꤚꤤ": 468,
      "ꤢ꤬ꤜ꤫ꤢꤩ꤬": 469,
      "ꤢ꤬ꤞꤢꤧꤔꤢꤧ": 470,
      "ꤘꤥ꤬": 471,
      "ꤕ꤫ꤢꤦ꤬": 472,
      "ꤊꤜꤥ꤭": 473,
      "ꤕꤣꤧꤞꤢꤩ꤬ꤑꤢꤩ꤭": 474,
      "ꤘꤤ꤭": 475,
      "ꤒꤣꤧ꤬ꤡ": 476,
      "ꤒꤣꤧ꤬ꤘꤢꤦ꤬": 477,
      "ꤗꤢꤩ꤬ꤞꤣꤧ꤭": 478,
      "ꤊꤢꤨꤔ꤫ꤢꤧ꤬ꤣꤧ꤭": 479,
      "ꤜꤣꤧ꤬ꤕꤜꤢꤩꤊꤢ꤬": 480,
      "ꤔꤢꤧ꤭": 481,
      "ꤟꤢꤩꤏꤥ꤬ꤘꤥ꤬ꤔꤢꤧ꤭": 482,
      "ꤚ꤫ꤥ꤬": 483,
      "ꤖꤚꤢꤩ꤬ꤖꤚꤥ꤬": 484,
      "ꤟꤢꤩꤏꤥ꤬ꤜꤥ꤭": 485,
      "ꤢꤩꤖꤢꤨ": 486,
      "ꤒꤢ꤬ꤚꤢꤨ": 487,
      "ꤕꤢ꤭ꤔꤣꤧ꤬": 488,
      "ꤕꤢꤩ꤬ꤒꤢ꤬ꤚꤢꤨ": 489,
      "ꤒꤣ꤬ꤖꤥ꤬": 490,
      "ꤕꤢꤨ꤭": 491,
      "ꤜ꤫ꤢꤪ꤬": 492,
      "ꤗꤢꤧꤕꤢꤨ꤭": 493,
      "ꤕ꤫ꤥ꤬ꤠ꤫ꤢꤧ꤬": 494,
      "ꤛꤥ꤭": 495,
      "ꤗꤢ": 496,
      "ꤗꤢꤩ꤬ꤡꤝ꤫ꤢ꤬": 497,
      "ꤒꤣꤧ꤬ꤜ": 498,
      "ꤟꤢꤩꤔꤣꤧ꤬ꤗꤢ꤬": 499,
      "ꤊꤝꤤ꤭ꤡꤢꤪꤙꤢꤩ꤭": 500,
      "ꤎꤢꤧ": 501,
      "ꤒꤣꤧ꤬ꤖ": 502,
      "ꤓꤢꤨ꤬ꤞꤢꤩ": 503,
      "ꤜ꤫ꤢꤩ꤬ꤥ꤬": 504,
      "ꤢ꤬ꤊꤜꤢꤩ꤭": 505,
      "ꤞꤤꤛꤢꤪ꤬": 506,
      "ꤢ꤬ꤚꤢꤧ": 507,
      "ꤒꤢꤩ꤬ꤛ꤫ꤢꤦ꤬": 508,
      "ꤒꤣꤧ꤬ꤟꤢꤩ꤬ꤟꤢꤩ꤬": 509,
      "ꤞꤢꤧ꤬": 510,
      "ꤒꤣꤧ꤬ꤔꤢꤩꤖꤢꤨ": 511,
      "ꤗ꤫ꤢꤪ꤬ꤔꤣꤧ꤭": 512,
      "ꤙꤝꤤ": 513,
      "ꤚ꤫ꤣꤧ꤬": 514,
      "ꤒꤣꤧ꤬ꤕꤜ": 515,
      "ꤕ꤫ꤢꤪ꤬": 516,
      "ꤢꤨ꤭ꤕꤢꤩ꤭": 517,
      "ꤋꤢꤨ꤭ꤕꤢꤩ꤬ꤒꤢ꤬ꤚꤢꤨ": 518,
      "ꤣꤧ꤭ꤒꤣ꤬ꤖꤚꤢꤩ꤬ꤔꤣꤧ꤬": 519,
      "ꤖꤥ": 520,
      "ꤡꤢꤦ꤭": 521,
      "ꤗꤝꤤ꤭ꤜꤢ꤬": 522,
      "ꤒꤢꤩ꤬ꤞꤤꤋꤚꤢꤦ꤭": 523,
      "ꤢ꤬ꤞꤤꤕꤜꤢꤪ꤬": 524,
      "ꤡꤛ": 525,
      "ꤒꤣꤧ꤬ꤚꤤ꤬": 526,
      "ꤊꤜꤢꤧ꤭": 527,
      "ꤖꤚꤢꤩ꤬ꤜꤢꤨ꤭ꤒꤢꤧ꤭": 528,
      "ꤒꤢꤩ꤬ꤡꤢꤪ": 529,
      "ꤔꤢ꤬": 530,
      "ꤤ꤬ꤞꤢꤧ꤬": 531,
      "ꤤ꤬ꤞꤝꤢꤤ꤬ꤞꤢꤧ꤬": 532,
      "ꤏꤝꤢ꤬ꤏꤢꤪ꤭": 533,
      "ꤖꤚꤢꤩ꤬ꤜꤢꤨ꤬ꤊꤣꤧ꤬ꤛꤢꤧ꤭": 534,
      "ꤞꤢꤨ꤭": 535,
      "ꤒꤢꤩ꤬ꤊꤢꤧ꤭": 536,
      "ꤛꤥ꤭ꤟꤢ꤬": 537,
      "ꤕꤜꤥ꤭": 538,
      "ꤕꤣ": 539,
      "ꤚꤢ": 540,
      "ꤙꤤ": 541,
      "ꤓꤢꤧ꤬ꤜꤥ꤭": 542,
      "ꤋꤢꤨ꤭ꤛꤥ꤭ꤟꤢ꤬": 543,
      "ꤒꤢꤩ꤬ꤞꤤꤋꤚꤢꤦ꤭ꤗꤝꤤ꤭ꤜꤢ꤬": 544,
      "ꤖꤚꤢꤧ꤬": 545,
      "ꤟꤢꤧ꤭ꤒ꤫ꤥ꤬": 546,
      "ꤒꤣꤧ꤬ꤠ": 547,
      "ꤡꤢ": 548,
      "ꤢ꤬ꤖꤢꤩ꤭": 549,
      "ꤞꤤꤜꤢꤪ꤭": 550,
      "ꤒꤢꤩ꤬ꤚꤤ꤬": 551,
      "ꤒꤢꤩ꤬ꤚꤤ꤬ꤒꤢꤩ꤬ꤊꤢꤧ꤭": 552,
      "ꤞꤢꤚꤢ": 553,
      "ꤓꤢꤦ꤭": 554,
      "ꤒꤣ꤬ꤗꤢꤩ꤭": 555,
      "ꤊꤛꤢ꤭": 556,
      "ꤘꤣꤧꤒꤢ꤭": 557,
      "ꤥ꤬ꤗ꤫ꤢꤩ꤬": 558,
      "ꤞꤤꤔꤣꤧ꤭": 559,
      "ꤘꤤ": 560,
      "ꤘꤢꤪ꤭": 561,
      "ꤚꤥ꤬": 562,
      "ꤢꤪꤜꤢꤧ꤬": 563,
      "ꤊꤜꤢꤪ꤭": 564,
      "ꤢ꤬ꤗꤝꤤ꤭": 565,
      "ꤟꤢꤧ꤭ꤑꤢꤩ꤭": 566,
      "ꤊꤢꤨ꤬ꤊꤜꤢꤧ꤭": 567,
      "ꤊꤢꤨ꤬ꤊꤜꤢꤪꤊꤢꤨ꤬ꤊꤜꤢꤧ꤭": 568,
      "ꤘꤢꤨ꤬ꤜꤣ": 569,
      "ꤕꤛꤢ": 570,
      "ꤊꤢꤩ꤬ꤟꤢꤩꤚꤣꤧ꤬": 571,
      "ꤋꤤ": 572,
      "ꤘꤢ꤬": 573,
      "ꤖꤚ꤫ꤢꤩ꤬": 574,
      "ꤊꤜꤝꤤ꤭": 575,
      "ꤢ꤬ꤜꤢꤩ꤬": 576,
      "ꤊ꤫ꤢꤩ꤬ꤊꤢꤨ꤭": 577,
      "ꤢꤨ꤬ꤖꤚꤢꤩ꤬": 578,
      "ꤒꤣꤧ꤬ꤡꤢꤨ꤬ꤖꤚꤢꤩ꤬": 579,
      "ꤗꤥ꤭": 580,
      "ꤘꤢꤪ": 581,
      "ꤒꤣ꤬ꤖꤚꤢꤩ꤬ꤔꤣꤧ꤬": 582,
      "ꤙꤢꤩꤗꤢꤨ꤬": 583,
      "ꤒꤢꤩ꤬ꤜꤢꤨ꤭ꤒꤢꤧ꤭": 584,
      "ꤊꤥ": 585,
      "ꤏꤛꤢ꤬ꤜꤢꤩ꤬": 586,
      "꤯’": 587,
      "ꤒꤣꤧ꤬ꤖꤢ꤭": 588,
      "ꤖꤢꤦ꤬": 589,
      "ꤛꤢ꤬ꤚꤢꤨ": 590,
      "ꤥ꤬ꤊꤢꤧ꤭": 591,
      "ꤥ꤬ꤕ꤫ꤢꤪ꤬": 592,
      "ꤛꤢ꤬ꤚꤢꤨꤏꤛꤢ꤬ꤜꤢꤩ꤬": 593,
      "ꤖꤚꤢꤩ꤬ꤗꤢꤩ꤬": 594,
      "ꤔꤢꤪ꤭ꤟꤢꤧ꤭": 595,
      "ꤙꤢ": 596,
      "ꤊꤢꤧ": 597,
      "ꤊꤢꤨꤋꤢꤨ꤬": 598,
      "ꤑꤢ꤭": 599,
      "ꤒꤤ": 600,
      "ꤛ꤫ꤢꤧ꤬ꤛꤥ꤬ꤞꤣꤧ꤭ꤖꤚꤢꤩ꤬": 601,
      "ꤞꤤꤋꤚꤢꤦ꤭": 602,
      "ꤜꤢ꤭ꤒꤢꤩ꤬": 603,
      "ꤊꤜꤢꤪ꤬": 604,
      "ꤏꤢꤦ꤭": 605,
      "ꤞꤤꤤ꤬ꤏꤢꤩ꤭": 606,
      "ꤒꤣꤧ꤬ꤊ": 607,
      "ꤒꤣꤧ꤬ꤊꤜ": 608,
      "ꤠꤤ꤭ꤛꤢ꤬ꤚꤢꤨꤏꤛꤢ꤬ꤜꤢꤩ꤬": 609,
      "ꤒꤣꤧ꤬ꤋꤢꤩ꤭": 610,
      "ꤜꤤ꤬ꤓꤢꤩ꤭": 611,
      "ꤞꤢꤪ꤬ꤖꤢ": 612,
      "ꤞꤥ꤭ꤞꤝꤢ": 613,
      "ꤜꤤ꤬ꤓꤢꤩ꤭ꤞꤢꤪ꤬ꤖꤢ": 614,
      "ꤔꤝꤢ": 615,
      "ꤝꤤ꤬": 616,
      "ꤠꤢꤩ꤬": 617,
      "ꤊꤣꤧ꤭ꤘꤢꤦ꤬": 618,
      "ꤙꤢꤧꤞꤝꤢ": 619,
      "ꤒꤢꤧ꤬": 620,
      "ꤞꤢꤪ꤬ꤊꤜꤣꤧ꤭": 621,
      "ꤖꤢꤩ꤬": 622,
      "ꤜꤢꤪ꤭ꤟꤣꤧ": 623,
      "ꤏꤢꤪ": 624,
      "ꤒ꤫ꤢꤦ꤬": 625,
      "ꤜꤢ": 626,
      "ꤘꤣꤋꤛꤢ꤭": 627,
      "ꤕꤜꤢꤪꤗꤢꤨ꤬": 628,
      "ꤖꤚꤢꤩ꤬ꤛ꤫ꤢꤦ꤬ꤢꤩ꤬ꤒꤢꤩ꤬": 629,
      "ꤘꤤ꤭ꤒ꤫ꤢꤦ꤬": 630,
      "ꤗꤢꤩ꤬ꤜꤣꤧ꤬ꤕꤜꤢꤩꤊꤢ꤬": 631,
      "ꤢ꤬ꤊꤣꤧ꤬ꤛꤢꤧ꤭": 632,
      "ꤢ꤬ꤋꤝꤢ꤬ꤢ꤬ꤋꤛꤢ꤭ꤚꤣꤧ꤬": 633,
      "ꤔ꤫ꤢꤩ꤬ꤊꤜ꤫ꤢꤪ꤬": 634,
      "ꤕꤥ꤬": 635,
      "ꤚꤢꤦ꤭": 636,
      "ꤗꤥ꤬ꤚꤣꤧ": 637,
      "ꤋꤚꤢꤧ": 638,
      "ꤢ꤬ꤥ꤬": 639,
      "ꤒꤢꤩ꤬ꤗ꤫ꤢ꤬": 640,
      "ꤢ꤬ꤜꤥ꤬": 641,
      "ꤔ꤫ꤢꤧ꤬ꤢꤩ꤬": 642,
      "ꤒꤢꤩ꤬ꤖꤚꤥ꤬": 643,
      "ꤒꤣꤧ꤬ꤚꤢꤧ꤭": 644,
      "ꤒꤣꤧ꤬ꤚꤤ꤬ꤒꤣꤧ꤬ꤚꤢꤧ꤭": 645,
      "ꤏꤢꤪ꤭ꤚꤤ꤬": 646,
      "ꤞꤤꤗꤤ꤬": 647,
      "ꤗꤢꤩ꤬ꤒꤢꤩ꤬": 648,
      "ꤢ꤬ꤊꤢꤨ꤭ꤔꤣꤧ꤬": 649,
      "ꤜꤢꤩ꤬": 650,
      "ꤢꤩꤓꤥ꤭": 651,
      "ꤒꤣꤧ꤬ꤚꤣꤧ꤭ꤏꤝꤢ꤬ꤏꤢꤪ꤭": 652,
      "ꤜꤝꤤ꤭": 653,
      "ꤡꤢ꤬": 654,
      "ꤞꤤ꤭ꤔ꤫ꤢꤩ꤬": 655,
      "ꤖꤚꤢꤩ꤬ꤘꤥ꤬ꤔꤢꤧ꤭": 656,
      "ꤒꤣꤧ꤬ꤠꤢ꤬": 657,
      "ꤖꤥ꤭": 658,
      "ꤡꤢꤧ꤬": 659,
      "ꤒꤢꤩ꤬ꤖꤚꤢꤧ꤬": 660,
      "ꤒꤣꤧ꤬ꤜꤝꤢ": 661,
      "ꤔꤝꤢꤓꤢꤧ꤬": 662,
      "ꤢ꤬ꤜꤢ꤭": 663,
      "ꤒꤣ꤬ꤔꤣꤧ꤭": 664,
      "ꤛ꤫ꤢꤦ꤬ꤢꤩ꤬ꤔ꤫ꤢꤧ꤬ꤢꤩ꤬": 665,
      "ꤢ꤬ꤜꤢ꤭ꤢ꤬ꤍ꤫ꤥ꤬": 666,
      "ꤒꤢꤩ꤬ꤖꤚꤥ꤬ꤒꤢꤩ꤬ꤖꤚꤢꤧ꤬": 667,
      "ꤔꤥ꤬": 668,
      "ꤕ꤫ꤢꤩ꤬ꤊꤣꤧ꤭": 669,
      "ꤗꤢꤧꤏꤢꤦ꤭": 670,
      "ꤜꤣꤙꤢ꤭": 671,
      "ꤖꤚꤢꤩ꤬ꤘꤥ꤬ꤔꤢꤧ꤭ꤖꤢꤨ": 672,
      "ꤚꤢꤩ꤬": 673,
      "ꤜꤢꤩ": 674,
      "ꤋꤢꤨ꤭ꤗꤢꤪ": 675,
      "ꤋꤢꤨ꤭ꤗꤢꤪꤎꤢꤧ": 676,
      "ꤏꤥ꤬": 677,
      "ꤗꤤ꤭": 678,
      "ꤜꤢ꤭ꤟꤤꤒꤥ꤬": 679,
      "ꤙꤥ꤭": 680,
      "ꤒꤢꤩ꤬ꤔ꤫ꤢꤧ꤬": 681,
      "ꤢ꤬ꤜ꤫ꤢꤩ꤬ꤥ꤬": 682,
      "ꤒꤣꤧ꤬ꤖꤢ꤭ꤊꤢꤧ꤭": 683,
      "ꤖꤢꤩ": 684,
      "ꤒꤢꤩ꤬ꤞꤤꤛ꤫ꤢꤦ꤬": 685,
      "ꤒꤢꤩ꤬ꤡꤢ꤭": 686,
      "ꤜꤣꤧ꤬ꤟꤥ꤭": 687,
      "ꤒꤣꤧ꤬ꤕꤜꤢꤩ꤬": 688,
      "ꤒꤢꤩ꤬ꤛ꤫ꤢꤦ꤬ꤒꤢꤩ꤬ꤔ꤫ꤢꤧ꤬": 689,
      "ꤒꤢꤩ꤬ꤞꤣꤧ꤭": 690,
      "ꤢ꤬ꤜꤤ꤬": 691,
      "ꤢ꤬ꤙꤚꤢ꤬": 692,
      "ꤡꤢꤓꤢꤧ꤬": 693,
      "ꤢ꤬ꤙꤚꤢ꤬ꤟꤢ꤬": 694,
      "ꤡꤝꤢꤔꤥ꤭": 695,
      "ꤜꤣꤧ꤬ꤏꤢ": 696,
      "ꤢ꤬ꤍ꤫ꤥ꤬ꤜꤣꤧ꤬ꤏꤢ": 697,
      "ꤞꤝꤤ꤬": 698,
      "ꤢꤩꤜ": 699,
      "ꤢ꤬ꤞꤢꤩ꤭": 700,
      "ꤞꤤꤓꤢꤩ꤬": 701,
      "ꤒꤢꤩ꤬ꤡꤢꤦ꤬": 702,
      "ꤖꤢꤨꤖꤚꤢꤩ꤬ꤋꤢꤨ꤭": 703,
      "ꤓꤢꤨ꤬ꤞꤢꤩꤓꤢꤧ꤬": 704,
      "ꤒꤢꤩ꤬ꤡꤢ꤭ꤒꤢꤩ꤬ꤡꤢꤦ꤬": 705,
      "ꤤ꤭ꤒꤢꤩ꤭": 706,
      "ꤒꤢ꤭ꤊꤢꤧ꤭": 707,
      "ꤋꤢꤧꤙꤢꤩ꤬": 708,
      "ꤕꤜꤝꤢ꤭ꤊꤢꤧ꤭": 709,
      "ꤊꤥ꤬": 710,
      "ꤊꤢꤪ꤭": 711,
      "ꤢ꤬ꤟꤤ꤬": 712,
      "ꤒꤢꤩ꤬ꤟꤢꤩꤙꤢꤩ꤬": 713,
      "ꤒꤢꤩ꤬ꤏꤢꤩ꤭": 714,
      "ꤖꤢꤩ꤭ꤢ꤬ꤙꤚꤢ꤬ꤟꤢ꤬": 715,
      "ꤖꤢꤨꤡ꤫ꤢꤩ꤬ꤟꤢꤨ": 716,
      "ꤎꤢ꤬ꤚ": 717,
      "ꤞꤢꤨ": 718,
      "ꤜꤥ꤭ꤔꤢꤩꤗꤢꤨꤗ꤫ꤢꤧ꤬ꤚꤤ꤬ꤡ꤫ꤢꤧ꤬": 719,
      "ꤏꤝꤤ": 720,
      "ꤡꤢꤦ": 721,
      "ꤗ꤫ꤢ꤬ꤒꤥ꤬ꤚꤣꤧ꤬": 722,
      "ꤏꤛꤢꤧ": 723,
      "ꤋꤢꤪ": 724,
      "ꤙꤣꤧꤒꤢꤩ꤭": 725,
      "ꤖꤚꤢꤩ꤬ꤗꤢꤩ꤬ꤒꤢꤩ꤬ꤖꤢꤨ": 726,
      "ꤓꤢꤩ": 727,
      "ꤛꤢꤨ꤭": 728,
      "꤮꤯”": 729,
      "ꤢ꤬ꤡꤢꤪ": 730,
      "ꤒꤢꤩ꤬ꤒꤣꤧ꤬ꤔꤢꤩ꤬": 731,
      "ꤒꤣꤧ꤬ꤊꤜꤤ": 732,
      "ꤔꤢꤨ꤬": 733,
      "ꤗꤢꤩ꤬ꤞꤢꤦ": 734,
      "ꤟꤢꤩ꤬ꤋꤢꤨ꤬ꤖꤢꤨ": 735,
      "ꤕꤣꤧ꤬ꤒꤤ": 736,
      "ꤢ꤬ꤙꤝꤤ": 737,
      "ꤏꤢꤩ꤬ꤢꤩ꤬": 738,
      ",’": 739,
      "ꤒꤢꤦ꤭": 740,
      "ꤖꤢ꤬ꤚꤤ꤬": 741,
      "ꤓꤢꤩ꤬ꤊꤢꤧ꤭": 742,
      "ꤒꤣꤧ꤬ꤊꤤ꤬": 743,
      "ꤏꤛꤢꤧꤖꤢꤨ": 744,
      "ꤖꤢ꤬ꤚꤤ꤬ꤏꤛꤢꤧꤖꤢꤨ": 745,
      "ꤏꤢ꤭": 746,
      "ꤟꤥ꤭ꤊꤢꤨ꤭": 747,
      "ꤋꤚꤝꤢ꤭ꤗꤢꤩ꤬": 748,
      "ꤕꤝ": 749,
      "ꤟꤢꤧ꤬": 750,
      "ꤒꤢꤩ꤬ꤥ꤬": 751,
      "ꤊꤣꤧ꤬ꤘꤢ꤭": 752,
      "ꤋꤥ꤭ꤙꤢꤧꤞꤝꤢ": 753,
      "ꤞꤤꤋꤚꤢꤦ꤭ꤞꤤꤜꤢꤪ꤭": 754,
      "ꤢ꤬ꤒꤥ꤭": 755,
      "ꤋꤢꤨ꤭ꤡꤛ": 756,
      "ꤖꤚꤤ꤬": 757,
      "ꤛꤢꤨꤘꤢ꤬": 758,
      "ꤜꤥ꤭ꤔꤢ꤬": 759,
      "ꤜꤥ꤭ꤔꤢꤩꤜꤥ꤭ꤔꤢ꤬": 760,
      "ꤕꤝꤢꤩ꤬": 761,
      "ꤏꤢꤦ": 762,
      "ꤥ꤬ꤜꤥ꤭": 763,
      "ꤙꤣꤧꤣꤧ꤭": 764,
      "ꤢ꤬ꤜꤣꤧ꤬": 765,
      "ꤋꤛꤢ": 766,
      "ꤢ꤬ꤗ꤫ꤥ꤬": 767,
      "ꤒꤣ꤬ꤊꤛꤢ꤭": 768,
      "ꤘꤢꤧ꤬ꤛ꤫ꤢꤦ꤬": 769,
      "ꤓꤢꤩ꤬ꤡꤝꤢꤊꤢꤧ꤭": 770,
      "ꤜꤤ꤬ꤓꤢꤩ꤭ꤞꤢꤪ꤬ꤖꤢꤊꤢꤨ꤭": 771,
      "ꤒꤢꤩ꤬ꤗ꤫ꤢ꤬ꤒꤢꤩ꤬ꤡꤢꤪ": 772,
      "ꤑꤢ": 773,
      "ꤙꤢꤪ": 774,
      "ꤔꤣꤧ꤬ꤟꤣꤧ": 775,
      "ꤊꤝꤤ꤭ꤞꤤꤛꤢꤪ꤬": 776,
      "ꤗꤢꤨ꤭": 777,
      "ꤊꤜꤢꤧ꤬": 778,
      "ꤛꤢꤦ": 779,
      "ꤡꤢꤨ꤭": 780,
      "ꤢ꤬ꤕꤥ꤬": 781,
      "ꤒꤣ꤬ꤗꤢꤦ꤭": 782,
      "ꤞꤤꤑꤢꤩ꤭ꤕꤜꤥ꤭": 783,
      "ꤏꤣꤧꤋꤢꤩ꤭": 784,
      "ꤊꤜꤣꤧ꤭ꤟꤢꤨ": 785,
      "ꤋꤢꤪꤗꤢꤨ꤭": 786,
      "ꤓꤢꤦ꤬": 787,
      "ꤗꤢ꤬ꤚꤤ": 788,
      "ꤘꤢꤨ꤬ꤛ꤫ꤢꤧ꤬": 789,
      "ꤥ꤬ꤔꤢꤧ꤭ꤥ꤬": 790,
      "ꤒꤢꤩ꤬ꤜꤢꤨ꤭ꤒꤢꤧ꤭ꤟꤥ꤭": 791,
      "ꤒꤤ꤬": 792,
      "ꤢ꤬ꤒꤢꤩ꤬ꤗꤢꤩ꤬": 793,
      "ꤔꤣꤧ꤬ꤚꤣꤧ꤬": 794,
      "ꤖꤚꤢ꤬": 795,
      "ꤡꤢꤪ꤭": 796,
      "ꤋꤚꤢꤩ": 797,
      "ꤟꤤ꤬ꤓꤢꤦ꤬": 798,
      "ꤖꤢꤧ꤭": 799,
      "ꤔꤣꤧ꤬ꤖꤢꤧ": 800,
      "ꤋꤥ꤬": 801,
      "ꤤ꤬ꤎꤢ꤬ꤚ": 802,
      "ꤖꤚꤢꤩ꤬ꤛ꤫ꤢꤦ꤬ꤢꤩ꤬ꤒꤢꤩ꤬ꤖꤢꤨ": 803,
      "ꤋꤛꤢꤛꤢꤦ": 804,
      "ꤜꤢꤦ꤬": 805,
      "ꤟꤥ꤬": 806,
      "ꤟꤢ꤭": 807,
      "ꤡ꤫ꤢꤦ꤬": 808,
      "ꤥ꤬ꤒ꤫ꤣ꤬ꤊꤣꤧ꤭": 809,
      "ꤞꤤ꤭ꤊꤜꤢꤩ꤭": 810,
      "ꤋꤥꤒꤣꤧ꤬ꤊꤜꤤ": 811,
      "ꤖꤢꤧ꤬": 812,
      "ꤢ꤬ꤒꤣꤧ꤬ꤚꤣꤧ꤭": 813,
      "ꤒꤢꤩ꤬ꤡꤢꤪꤙꤢꤩ꤭": 814,
      "ꤠꤢꤧ꤭ꤖꤢꤩ꤭": 815,
      "ꤊꤣ": 816,
      "ꤢꤩꤜꤢ꤬": 817,
      "ꤢ꤬ꤓꤣꤧ꤭": 818,
      "ꤒꤣꤧ꤬ꤕꤢ꤬": 819,
      "ꤗꤢꤩ꤬ꤡꤢꤦ꤬": 820,
      "ꤟꤢꤧ꤭ꤜꤢꤧ꤬": 821,
      "ꤡꤝꤢꤒ꤫ꤥ꤬": 822,
      "ꤡꤢ꤭ꤗꤢꤩ꤬ꤡꤢꤦ꤬": 823,
      "ꤞꤤꤔ꤫ꤢꤩ꤬": 824,
      "ꤕꤢ꤬ꤒꤥ꤬": 825,
      "ꤢꤩꤓꤢꤧ꤬": 826,
      "ꤢ꤬ꤗ꤫ꤢꤪ꤬ꤔꤣꤧ꤭": 827,
      "ꤊꤢꤧ꤭ꤏꤢ": 828,
      "ꤖꤢꤧꤒꤢꤦ": 829,
      "ꤋꤢ": 830,
      "ꤢꤩꤜꤥ꤬": 831,
      "ꤟꤢꤨꤔꤣꤧ꤬ꤟꤣꤧ": 832,
      "ꤙꤣꤧꤔꤣꤧ꤬ꤢ꤬ꤋꤢꤩ꤭": 833,
      "ꤤ꤭ꤒꤢꤩ꤭ꤒꤢꤩ꤭": 834,
      "ꤊꤢꤦ꤭": 835,
      "ꤕꤤ": 836,
      "ꤡꤢꤨ": 837,
      "ꤢ꤬ꤔ꤫ꤤ꤬": 838,
      "ꤥ꤬ꤊꤥ": 839,
      "ꤒꤢꤩ꤬ꤜꤤ꤭": 840,
      "ꤟꤢꤩꤒꤣꤧ꤬ꤚꤣꤧ꤭": 841,
      "ꤟꤢꤩꤙꤝꤤ": 842,
      "ꤘꤢꤦ꤬ꤟꤣꤧ": 843,
      "ꤒꤣꤧ꤬ꤟꤢꤩ꤬ꤟꤢꤩ꤬ꤔꤣꤧ꤬": 844,
      "ꤟꤢꤩꤙꤝꤤꤟꤢꤩꤒꤣꤧ꤬ꤚꤣꤧ꤭": 845,
      "ꤓꤢꤪ": 846,
      "ꤋꤢꤨ꤭ꤎ": 847,
      "ꤢ꤬ꤚ꤫ꤣꤧ꤬": 848,
      "ꤋꤝꤤꤘꤢꤨ꤬": 849,
      "ꤏꤛꤤ": 850,
      "ꤘꤤꤊꤢꤩ꤬": 851,
      "ꤑꤢꤔꤢꤨ꤬": 852,
      "ꤟꤤ꤬ꤓꤢꤦ꤬ꤘꤤꤊꤢꤩ꤬": 853,
      "ꤏꤤ꤭": 854,
      "ꤠꤤ꤬": 855,
      "ꤢꤩꤗꤥ꤬": 856,
      "ꤢ꤬ꤊꤜꤝꤤ꤭": 857,
      "ꤒꤢꤩ꤬ꤏꤢꤪ꤭ꤚꤤ꤬": 858,
      "ꤥ꤬ꤜꤥ꤭ꤓꤢꤧ꤬": 859,
      "ꤏꤢꤨ꤬": 860,
      "ꤢꤧꤡꤢꤦ": 861,
      "ꤥ꤬ꤕꤜꤢꤪ": 862,
      "ꤤ꤬ꤏꤢꤪ": 863,
      "ꤘꤢꤧ꤬ꤔ꤫ꤢꤧ꤬": 864,
      "ꤜ꤫ꤢꤩ꤬ꤊꤜꤥ꤭": 865,
      "ꤋꤢꤧꤘꤥ꤬": 866,
      "ꤘꤢꤧ꤬ꤛ꤫ꤢꤦ꤬ꤘꤢꤧ꤬ꤔ꤫ꤢꤧ꤬": 867,
      "ꤡꤢꤨ꤭ꤢꤩ꤬": 868,
      "ꤛ꤫ꤢꤨ꤬": 869,
      "ꤢ꤬ꤗꤢꤩ꤭": 870,
      "ꤥ꤬ꤊꤣꤧ꤭": 871,
      "ꤥ꤬ꤗꤣꤧ꤭": 872,
      "ꤛꤢ꤭ꤊꤢꤨ꤭": 873,
      "ꤟꤢꤧ꤭ꤔꤥ꤭": 874,
      "ꤕꤜꤢꤨ꤬": 875,
      "ꤠꤤ꤭ꤊꤢꤧ꤭": 876,
      "ꤊꤢꤨꤛꤢ꤭ꤊꤢꤨ꤭": 877,
      "ꤟꤢꤩ꤬ꤋꤢꤨ꤬ꤣꤧ꤭": 878,
      "ꤔꤢꤩ": 879,
      "ꤡꤢꤪꤡꤢꤪ": 880,
      "ꤓꤢꤧ꤬ꤞꤢꤩ꤭": 881,
      "ꤕ꤫ꤢꤩ꤬ꤟꤣꤧ": 882,
      "ꤢ꤬ꤕꤥ꤬ꤊꤢꤨ꤭": 883,
      "ꤕ꤫ꤢꤧ꤬": 884,
      "ꤗꤢꤦ꤬": 885,
      "ꤡꤢꤩ꤭": 886,
      "ꤣꤧ꤭ꤒꤣ꤬ꤖꤥ": 887,
      "ꤒꤢꤩ꤬ꤥ꤬ꤞꤣꤧ꤭ꤖꤚꤢꤩ꤬": 888,
      "ꤔꤢꤪ꤭ꤡꤝꤢ": 889,
      "ꤋꤛꤢ꤭ꤜꤢꤨ꤭": 890,
      "ꤋꤚꤤꤖꤢꤨ": 891,
      "ꤗꤤ꤭ꤡꤣ꤬": 892,
      "ꤘꤢꤨ꤬ꤛ꤫ꤢꤧ꤬ꤓꤢꤧ꤬ꤞꤢꤩ꤭": 893,
      "ꤏꤛꤤꤗꤥ꤬": 894,
      "ꤜꤢ꤬ꤜꤤ꤬": 895,
      "ꤠꤢ": 896,
      "ꤢꤩꤟꤢꤧ꤭": 897,
      "ꤢ꤬ꤊꤢꤨꤋꤢꤨ꤬": 898,
      "ꤒꤣ꤬ꤙꤢꤩ꤬": 899,
      "ꤊꤢꤧꤜꤢ꤬ꤜꤤ꤬": 900,
      "ꤡꤢꤪꤖꤢꤧ꤬": 901,
      "ꤋꤢꤨ꤭ꤏꤛꤤꤗꤥ꤬": 902,
      "ꤢ꤬ꤑꤢꤩ꤭ꤔꤣꤧ꤬ꤚꤣꤧ꤬": 903,
      "ꤣꤧ꤭ꤒꤣ꤬ꤖꤥꤚꤣꤧ꤬": 904,
      "ꤊ꤫ꤢꤨ꤬": 905,
      "ꤔꤣꤧ꤭ꤔꤣꤧ꤬": 906,
      "ꤘꤢꤩ꤭": 907,
      "ꤚꤢꤪ꤬": 908,
      "ꤝ꤫ꤢ꤬": 909,
      "ꤒꤢꤩ꤬ꤒꤣꤧ꤬ꤚꤣꤧ꤭": 910,
      "ꤖꤚꤢꤧ꤭": 911,
      "ꤣꤧ꤭ꤔꤣꤧ꤬ꤒꤣꤧ꤬ꤟꤢꤩ꤬": 912,
      "ꤖꤚꤢꤩ꤬ꤛ꤫ꤢꤦ꤬ꤢꤩ꤬ꤒꤢꤩ꤬ꤕꤜꤢꤪꤗꤢꤨ꤬": 913,
      "ꤢ꤬ꤊꤜꤝꤤ꤭ꤢ꤬ꤜ": 914,
      "ꤒꤢꤩ꤬ꤚꤢꤧ": 915,
      "ꤗꤢꤩ꤬ꤡꤢ꤭ꤗꤢꤩ꤬ꤡꤢꤦ꤬": 916,
      "ꤒ꤫ꤥ꤬ꤘꤣ": 917,
      "ꤕꤜꤤ꤭ꤖꤥ": 918,
      "ꤊꤣꤧ꤬ꤓꤢꤪ꤬ꤥ꤬": 919,
      "ꤞꤢꤨ꤭ꤡꤝꤢ": 920,
      "ꤞꤢꤪ꤬ꤊꤜꤣꤧ꤭ꤘꤢꤨ꤬": 921,
      "ꤞꤥ꤬": 922,
      "ꤟꤢꤩꤗꤥ꤬": 923,
      "ꤟꤢꤩꤚꤢꤧ": 924,
      "ꤋꤢꤧꤟꤢꤩꤏꤥ꤬ꤜꤥ꤭": 925,
      "ꤗꤢꤪꤋꤢꤨ꤬ꤒꤣꤧ꤬ꤔꤢꤩꤖꤢꤨ": 926,
      "ꤢꤩꤜꤢ꤬ꤖꤢꤨ": 927,
      "ꤤ꤬ꤎꤢ꤬ꤚꤢꤩꤜꤢ꤬ꤖꤢꤨ": 928,
      "ꤟꤢꤩꤗꤥ꤬ꤟꤢꤩꤚꤢꤧ": 929,
      "ꤒꤢꤨ": 930,
      "ꤢ꤬ꤕꤣꤧꤞꤢꤩ꤬ꤑꤢꤩ꤭": 931,
      "ꤞꤤꤖꤚ": 932,
      "ꤕꤤꤜꤢ": 933,
      "ꤙꤢꤨ꤭": 934,
      "ꤢ꤬ꤞꤢꤚꤢ": 935,
      "ꤢ꤬ꤔ꤫ꤢꤩ꤬ꤊꤜ꤫ꤢꤪ꤬": 936,
      "ꤊꤢꤨꤔ꤫ꤢꤧ꤬ꤚꤣꤧ꤬": 937,
      "ꤙꤥ꤬": 938,
      "ꤤ꤬ꤒꤢꤩ꤭": 939,
      "ꤗꤢꤩ꤬ꤟꤢꤨꤔꤣꤧ꤬": 940,
      "ꤞꤢꤧꤡꤣꤧ": 941,
      "ꤞꤣꤧ꤭ꤊꤢꤧ꤭": 942,
      "ꤠꤤ꤭ꤊꤢꤨ꤭": 943,
      "ꤛ꤫ꤢꤧ꤬ꤥ꤬ꤗ꤫ꤢꤩ꤬": 944,
      "ꤢ꤬ꤜ꤫ꤢꤩ꤬ꤊꤜꤥ꤭": 945,
      "ꤒꤣꤧ꤬ꤜꤤ": 946,
      "ꤘꤢ꤬ꤠꤤ꤬": 947,
      "ꤢ꤬ꤙꤝꤤꤢ꤬ꤒꤣꤧ꤬ꤚꤣꤧ꤭": 948,
      "ꤋꤝꤢ": 949,
      "ꤎꤣ꤬": 950,
      "ꤏꤣꤧ꤭": 951,
      "ꤠ꤫ꤢꤩ꤬": 952,
      "ꤒꤢꤩ꤬ꤒꤢꤩ꤬": 953,
      "ꤒꤢꤩ꤬ꤣꤧ꤭ꤒꤣꤧ꤬ꤟꤢꤩ꤬": 954,
      "ꤗꤢꤩ꤬ꤟꤢꤨꤔꤣꤧ꤬ꤚꤣꤧ꤬": 955,
      "ꤡꤢꤪꤙꤢꤩ꤭ꤓꤢꤧ꤬": 956,
      "ꤋꤝꤤꤕꤤꤜꤢ": 957,
      "ꤎꤢ꤬ꤕ": 958,
      "ꤊꤢꤩ꤭": 959,
      "ꤊꤢꤪ꤬": 960,
      "ꤒꤣꤧ꤬ꤊꤢꤩ꤬": 961,
      "ꤞꤤꤕꤜꤢꤪ꤬ꤊꤢꤨ꤭": 962,
      "ꤘꤢꤧ꤬ꤓꤢꤧ꤬": 963,
      "ꤒꤢꤩ꤬ꤞꤢꤦꤒꤢꤩ꤬ꤥ꤬": 964,
      "ꤍꤢꤧ꤭": 965,
      "ꤙꤢꤨ꤬": 966,
      "ꤟꤢꤩꤗꤢ꤬": 967,
      "ꤠꤢꤧ꤭ꤣꤧ꤭": 968,
      "ꤢ꤬ꤊꤜꤝꤤ꤭ꤢ꤬ꤜꤢꤧ꤭": 969,
      "ꤓꤝꤢ": 970,
      "ꤙꤢꤧ꤭": 971,
      "ꤛꤤ": 972,
      "ꤒꤣꤧ꤬ꤗꤥ꤭": 973,
      "ꤟꤢꤩ꤬ꤚꤥ꤬": 974,
      "ꤒꤣ꤬ꤗꤢꤨ꤬": 975,
      "ꤒꤣ꤬ꤘꤥ꤭": 976,
      "ꤔꤢꤧ꤬ꤔ꤫ꤢꤩ꤬": 977,
      "ꤘꤣꤧꤜꤢꤧ꤬": 978,
      "ꤞꤤꤕꤜꤢꤪ꤬ꤘꤢꤨ꤬": 979,
      "ꤒꤢꤦꤖꤢꤧ": 980,
      "ꤏꤥ꤭ꤚꤢꤧ꤬": 981,
      "ꤥ꤬ꤗꤢꤦ": 982,
      "ꤎꤢ꤬ꤕꤛꤤ": 983,
      "ꤔꤢ": 984,
      "ꤢ꤬ꤊꤢꤨ": 985,
      "ꤒꤢꤩ꤬ꤖꤛꤢ": 986,
      "ꤒꤢꤩ꤬ꤤ꤬ꤞꤝꤢꤤ꤬ꤞꤢꤧ꤬": 987,
      "ꤒꤥ꤬ꤒꤥ꤬": 988,
      "ꤔꤢꤪ꤭ꤢꤩ꤬": 989,
      "ꤣꤧ꤭ꤒꤣ꤬ꤙꤢ꤬": 990,
      "ꤕꤛꤢꤊꤢꤧ꤭": 991,
      "ꤍꤢꤨ꤬": 992,
      "ꤕꤢꤪ꤬": 993,
      "ꤟꤣꤧ꤬": 994,
      "ꤖꤚꤢꤩ꤬ꤤ꤬ꤞꤝꤢ": 995,
      "ꤒꤣ꤬ꤠꤤ꤭": 996,
      "ꤡꤝꤢꤞꤢꤦ": 997,
      "ꤏꤥ꤭ꤖꤢ": 998,
      "ꤢ꤬ꤓꤣꤧ꤭ꤢ꤬": 999,
      "ꤕꤥ": 1000,
      "ꤥ꤬ꤊꤜꤢꤪ꤬": 1001,
      "ꤒꤢꤩ꤬ꤗꤢꤨꤗ꤫ꤢꤧ꤬ꤚꤤ꤬ꤡ꤫ꤢꤧ꤬": 1002,
      "ꤢ꤬ꤋꤚ": 1003,
      "ꤊꤣꤧ꤬ꤛꤢꤧ꤭ꤖꤢꤩ꤭": 1004,
      "ꤊꤣꤧ꤭ꤜꤢ꤭ꤒꤢꤩ꤬": 1005,
      "ꤞꤤꤕꤜꤢꤪ꤬ꤏꤝꤢ꤬": 1006,
      "ꤒꤣ꤬ꤡꤣ꤬ꤡꤢꤦ꤭": 1007,
      "ꤢ꤬ꤖꤢꤩ꤭ꤗꤢ꤬": 1008,
      "ꤒꤝ꤫ꤢ꤬": 1009,
      "ꤔꤢꤩ꤬": 1010,
      "ꤜꤥ": 1011,
      "ꤟꤢꤪ": 1012,
      "ꤢ꤬ꤊꤢꤨ꤬ꤊꤜꤢꤪ": 1013,
      "ꤟꤢꤩꤒ꤫ꤥ꤬": 1014,
      "ꤢ꤬ꤋꤢꤨ꤬": 1015,
      "ꤗ꤫ꤢ꤬ꤊꤢꤧ꤭": 1016,
      "ꤒꤣꤧ꤬ꤚꤢꤩ꤭": 1017,
      "ꤘꤢꤧ꤬ꤘꤢꤨ꤬": 1018,
      "ꤕ꤫ꤢꤦ꤬ꤗꤢ꤬": 1019,
      "ꤚ꤫ꤣꤧ꤬ꤜꤣ": 1020,
      "ꤢꤩꤗꤥ꤬ꤏꤢꤦ꤬": 1021,
      "ꤒꤢꤩ꤬ꤞꤢꤦꤒꤢꤩ꤬ꤥ꤬ꤚꤢ꤬": 1022,
      "ꤒꤢꤩ꤬ꤖꤛꤢꤒꤢꤩ꤬ꤗꤢꤩ꤬": 1023,
      "ꤋꤝ": 1024,
      "ꤖꤤ": 1025,
      "ꤗꤢꤧ꤬": 1026,
      "ꤢ꤬ꤕ꤫ꤥ꤬": 1027,
      "ꤞꤤ꤭ꤑꤢꤩ꤭": 1028,
      "ꤟꤢꤩꤥ꤬ꤔꤢꤩ꤬": 1029,
      "ꤜꤣꤧ꤬ꤒꤢ꤭": 1030,
      "ꤗ꤫ꤥ꤬ꤖꤚ꤫ꤢꤩ꤬": 1031,
      "ꤏꤢꤧ꤬": 1032,
      "ꤚꤢꤨ": 1033,
      "ꤢ꤬ꤗꤢꤨ꤬": 1034,
      "ꤥ꤬ꤒꤥ꤬": 1035,
      "ꤗꤢꤧꤗꤣꤧ꤭": 1036,
      "ꤒꤢꤩ꤬ꤗꤢꤩ꤬ꤜꤣꤧ꤬ꤕꤜꤢꤩꤊꤢ꤬": 1037,
      "ꤡꤝꤤ꤬": 1038,
      "ꤟꤢꤧ꤭ꤒ꤫ꤥ꤬ꤟꤣꤧ": 1039,
      "ꤟꤤ꤬ꤓꤢꤦ꤬ꤘꤤꤊꤢꤩ꤬ꤜꤥ꤬": 1040,
      "ꤞꤢꤧꤡꤣꤧꤔꤢꤧ": 1041,
      "ꤣ꤭": 1042,
      "ꤣꤧ꤭ꤗꤢ꤬": 1043,
      "ꤒꤣ꤬ꤙꤢ꤬": 1044,
      "ꤊꤜꤢꤩ": 1045,
      "ꤘꤢꤨ꤬ꤓꤢꤧ꤬": 1046,
      "ꤘꤢꤦꤒꤣꤧ꤬ꤜꤤ": 1047,
      "ꤢꤩꤓꤥ꤭ꤓꤢꤧ꤬": 1048,
      "ꤗꤢꤧꤡꤢꤧ꤬": 1049,
      "ꤒꤢ꤭ꤒꤢꤦ꤭": 1050,
      "ꤢ꤬ꤜꤢꤩ꤭": 1051,
      "ꤗꤢꤦ꤭ꤞꤣꤧ꤭": 1052,
      "ꤕꤜꤢꤪꤗꤢꤨ꤬ꤖꤢꤨ": 1053,
      "!”": 1054,
      "ꤖꤣꤧ꤭": 1055,
      "ꤒꤢꤩ꤬ꤘꤣꤧꤡꤢ꤭": 1056,
      "ꤟꤢꤧ꤭ꤘꤣꤧ": 1057,
      "ꤕꤜꤢ": 1058,
      "ꤣꤧ꤭ꤔꤣꤧ꤬ꤟꤣꤧ": 1059,
      "ꤘꤢꤧ꤬ꤡꤢꤪ": 1060,
      "ꤔꤢꤪ꤭ꤗꤢꤩ꤬": 1061,
      "ꤚꤢ꤭ꤡꤝꤢ": 1062,
      "ꤙꤥ": 1063,
      "ꤞꤢ꤬": 1064,
      "ꤢ꤬ꤒꤢꤩ꤬ꤞꤢꤦ": 1065,
      "ꤒꤢꤩ꤬ꤗ꤫ꤢꤧ꤬": 1066,
      "ꤒꤢꤩ꤬ꤗꤤ꤬": 1067,
      "ꤞꤤ꤭ꤒꤣꤧ꤬ꤟꤢꤩ꤬": 1068,
      "ꤠꤢꤧ꤭ꤔ꤫ꤢꤩ꤬": 1069,
      "ꤜꤢꤨ꤭ꤓꤢꤧ꤬": 1070,
      "ꤊꤢꤨ꤬ꤊꤜꤢꤪꤘꤢꤨ꤬ꤜꤣ": 1071,
      "ꤋꤚꤝꤢ꤭ꤊꤣꤧ꤭": 1072,
      "ꤥ꤬ꤗ꤫ꤢꤩ꤬ꤊꤢꤧ꤭": 1073,
      "ꤘꤢꤧ꤬ꤡꤢꤪꤘꤢꤧ꤬": 1074,
      "ꤒꤢꤩ꤬ꤗꤤ꤬ꤒꤢꤩ꤬ꤗ꤫ꤢꤧ꤬": 1075,
      "ꤔꤤ꤬": 1076,
      "ꤘꤢꤦ꤭": 1077,
      "ꤞꤢꤨ꤬": 1078,
      "ꤥꤗꤢꤩ꤬": 1079,
      "ꤢꤩꤔꤢꤧ꤬ꤡꤣꤧ": 1080,
      "ꤢꤩꤕꤜꤢꤩ": 1081,
      "ꤢ꤬ꤏꤣꤧ": 1082,
      "ꤒꤢꤩ꤬ꤗꤥ꤬": 1083,
      "ꤞꤢꤧꤊꤣꤧ꤭": 1084,
      "ꤗ꤫ꤢ꤬ꤘꤢꤦ꤬": 1085,
      "ꤕꤢ꤬ꤖꤢꤧ": 1086,
      "ꤞꤣꤧ꤭ꤖꤚꤢꤩ꤬ꤊꤣꤧ꤬ꤓꤢꤪ꤬": 1087,
      "ꤙꤣꤧꤔꤣꤧ꤬ꤋꤢꤩ꤭": 1088,
      "ꤋꤝꤤꤟꤢꤩ꤬ꤚꤥ꤬": 1089,
      "ꤢ꤬ꤙꤢ": 1090,
      "ꤘꤢꤧ꤬ꤡꤢꤪꤘꤢꤧ꤬ꤒꤢꤩ꤬": 1091,
      "ꤎꤤ꤬": 1092,
      "ꤟꤢꤧ꤭ꤔ꤫ꤤ꤬": 1093,
      "ꤞꤤꤕꤜꤢꤪ꤬ꤓꤢꤨ꤭": 1094,
      "ꤒꤢꤩ꤬ꤡꤢꤪꤒꤢꤩ꤬ꤒꤢꤩ꤬": 1095,
      "ꤒꤢꤩ꤬ꤞꤤꤛ꤫ꤢꤦ꤬ꤞꤤꤜꤢꤪ꤭": 1096,
      "ꤙꤛꤢ꤬": 1097,
      "ꤒꤢꤩ꤬ꤕꤝꤢ꤭": 1098,
      "ꤒꤣ꤬ꤔꤣꤧ꤭ꤔꤣꤧ꤬": 1099,
      "ꤟꤢꤩꤜꤥ꤭": 1100,
      "ꤕꤜꤢꤩ꤭": 1101,
      "ꤙꤢꤧꤜꤢꤧ꤬": 1102,
      "ꤗꤢꤩ꤬ꤞꤣꤧ꤭ꤊꤢꤧ꤭": 1103,
      "ꤚ꤫ꤥ꤬ꤜꤢꤨ꤭": 1104,
      "ꤠ꤫ꤢꤩ꤬ꤓꤢꤩ꤬ꤊꤢꤧ꤭": 1105,
      "ꤏꤥ꤭ꤖꤢꤏꤥ꤭ꤚꤢꤧ꤬": 1106,
      "ꤗꤢꤦ꤭ꤞꤣꤧ꤭ꤓꤢꤧ꤬": 1107,
      "ꤥ꤬ꤓꤢꤧ꤬": 1108,
      "ꤞꤤꤘꤥ꤭": 1109,
      "ꤞꤤꤒꤣꤧ꤬ꤚꤢꤩ꤭": 1110,
      "ꤟꤢꤩꤡꤢꤪꤡꤢꤪ": 1111,
      "ꤕꤢ꤭ꤗꤢ꤬": 1112,
      "ꤡꤣꤧꤟꤣꤧ": 1113,
      "ꤗꤢꤪꤜꤢꤩ꤭": 1114,
      "ꤖꤢꤨꤡ꤫ꤢꤩ꤬ꤜꤢꤧ꤬": 1115,
      "ꤋꤚꤝꤢ꤭ꤡꤝꤢ": 1116,
      "ꤊꤜꤢꤪ꤬ꤗꤢ꤬": 1117,
      "ꤍꤢꤨ꤬ꤘꤢꤨ꤬": 1118,
      "ꤊ꤫ꤥ꤬": 1119,
      "ꤔꤥ꤬ꤗꤢꤦ": 1120,
      "ꤜ꤫ꤢ꤬": 1121,
      "ꤒꤣꤧ꤬ꤠꤤ꤭": 1122,
      "ꤕꤢꤩ꤬ꤑꤢꤩ꤭": 1123,
      "ꤡꤝꤢꤥ꤬": 1124,
      "ꤓꤣꤧ꤭ꤘꤢꤨ꤬": 1125,
      "ꤒꤣ꤬ꤖꤥꤒꤥ꤬": 1126,
      "ꤢ꤬ꤊꤜꤢꤩ꤭ꤔꤣꤧ꤬": 1127,
      "ꤏꤢ꤭ꤛ꤫ꤢꤨ꤬": 1128,
      "ꤋꤢꤋꤥ꤬": 1129,
      "ꤋꤢꤧꤟꤢꤩꤏꤥ꤬ꤜꤥ꤭ꤒꤢꤩ꤬": 1130,
      "ꤕꤝꤤ": 1131,
      "ꤚꤥꤗꤢꤩ꤬": 1132,
      "ꤛꤢꤧ꤬": 1133,
      "ꤜꤢꤧ꤭": 1134,
      "ꤒꤣꤧ꤬ꤛ": 1135,
      "ꤒꤣ꤬ꤡꤣ꤬ꤡꤣ꤬": 1136,
      "ꤒꤢꤧ꤬ꤜꤢ꤭ꤟꤤ": 1137,
      "ꤞꤤꤔ꤫ꤢꤩ꤬ꤓꤢꤧ꤬": 1138,
      "ꤙꤢꤦ꤭": 1139,
      "ꤟꤌ": 1140,
      "ꤡ꤫ꤣꤧ꤬": 1141,
      "ꤒꤢꤩ꤬ꤘꤣ": 1142,
      "ꤖꤚꤣꤧ꤭": 1143,
      "ꤗꤢꤩ꤬ꤚꤢꤧ": 1144,
      "ꤊꤢꤨ꤬ꤊꤜꤢꤧ": 1145,
      "ꤗ꤫ꤢꤪ꤬ꤟꤢꤩ": 1146,
      "ꤕꤣꤧ꤬ꤢ": 1147,
      "ꤕꤣꤧ꤬ꤡ꤫ꤣꤧ꤬": 1148,
      "ꤏꤢꤪꤗꤢ꤬": 1149,
      "ꤥ꤬ꤊꤜꤢꤪ꤬ꤏꤢꤪꤗꤢ꤬": 1150,
      "ꤚ꤫ꤢꤩ꤬": 1151,
      "ꤢꤩꤖꤚꤢꤩ꤬": 1152,
      "ꤢ꤬ꤙꤢꤧ꤬ꤡꤢꤩ꤬": 1153,
      "ꤕꤜꤤ꤬": 1154,
      "ꤜꤣꤧ꤬ꤞꤢꤩ": 1155,
      "ꤓꤣꤧ꤭ꤜ꤫ꤢꤩ꤬": 1156,
      "ꤡꤝꤢꤒꤣꤧ꤬ꤜꤝꤢ": 1157,
      "ꤋꤢꤨ꤭ꤛꤢꤨꤘꤢ꤬": 1158,
      "ꤕꤜꤢꤦ": 1159,
      "ꤊꤢ꤬ꤋꤛꤢ꤭ꤏꤢꤦ꤬": 1160,
      "ꤔꤣꤧ꤬ꤒꤣ꤬ꤘꤥ꤭": 1161,
      "ꤞꤤꤗꤤ꤬ꤖꤢꤨ": 1162,
      "ꤓꤣꤧ꤭ꤜ꤫ꤢꤩ꤬ꤊ꤫ꤢꤩ꤬ꤊꤢꤨ꤭": 1163,
      "ꤒ꤫ꤢꤪ꤬": 1164,
      "ꤢ꤬ꤘꤢꤨ꤬": 1165,
      "ꤢ꤬ꤞꤝꤤ꤬": 1166,
      "ꤒꤢꤩ꤬ꤕ꤫ꤢꤧ꤬": 1167,
      "ꤒꤣ꤬ꤊ꤫ꤢꤩ꤬": 1168,
      "ꤗꤢꤩ꤬ꤙꤢꤩ꤬": 1169,
      "ꤋꤢꤨ꤭ꤙꤢ꤬": 1170,
      "ꤘꤣꤧꤟꤢꤧ꤭ꤘꤣꤧ": 1171,
      "ꤞꤤꤕꤜꤢꤪ꤬ꤥ꤬": 1172,
      "ꤓꤣꤧ꤭ꤊ꤫ꤢꤩ꤬": 1173,
      "ꤋꤢꤧꤞꤤꤕꤜꤢꤪ꤬ꤓꤢꤨ꤭": 1174,
      "ꤙꤢ꤭ꤓꤢꤧ꤬": 1175,
      "ꤒꤢꤩ꤬ꤕ꤫ꤢꤧ꤬ꤒꤢꤩ꤬ꤏꤢꤩ꤭": 1176,
      "ꤘꤣꤧꤟꤢꤧ꤭ꤘꤣꤧꤚꤢꤩ꤬": 1177,
      "ꤒꤢꤩ꤬ꤢꤪꤜꤢꤧ꤬": 1178,
      "ꤒꤢꤩ꤬ꤋꤥꤒꤣꤧ꤬ꤊꤜꤤ": 1179,
      "ꤖꤚꤥ": 1180,
      "ꤟꤢꤩꤓꤥ꤭": 1181,
      "ꤗꤢꤩ꤬ꤕ꤫ꤢꤩ꤬": 1182,
      "ꤋꤢꤨ꤭ꤢ꤬": 1183,
      "ꤋꤚꤢ꤭": 1184,
      "ꤗ꤫ꤢ꤬ꤟꤢꤩꤗꤢ꤬": 1185,
      "ꤒꤢ꤭ꤗ꤫ꤥ꤬": 1186,
      "ꤊ꤫ꤢꤩ꤬ꤜꤣꤧ꤬ꤞꤢꤩ": 1187,
      "ꤡ꤫ꤢꤩ꤬ꤡꤢꤦ꤭": 1188,
      "ꤕꤣꤧꤞꤢꤩ꤬ꤋꤤ": 1189,
      "ꤒꤢ꤭ꤗ꤫ꤥ꤬ꤒꤢ꤭ꤒꤢꤩ꤬": 1190,
      "ꤋꤢꤧ꤬": 1191,
      "ꤒꤢ꤬": 1192,
      "ꤔꤢꤪ꤬": 1193,
      "ꤜ꤫ꤢꤧ꤬": 1194,
      "ꤢꤩꤊꤢ꤬": 1195,
      "ꤣꤧ꤭ꤞꤤꤔꤣꤧ꤭": 1196,
      "ꤒꤢꤩ꤬ꤊꤜꤝꤤ꤭": 1197,
      "ꤟꤢꤩꤒꤢ꤭": 1198,
      "ꤗꤢꤩ꤬ꤜꤤ꤭": 1199,
      "ꤠꤢꤧ꤭ꤋꤛꤢ꤭": 1200,
      "ꤜꤢꤪ꤬": 1201,
      "ꤜꤢꤨ꤭ꤥ꤬": 1202,
      "ꤕꤢꤩ꤬ꤖꤢꤩ꤭": 1203,
      "ꤒꤢꤩ꤭ꤟꤢꤨ": 1204,
      "ꤓꤣꤧ꤭ꤢꤪ꤬": 1205,
      "ꤋꤢꤧꤞꤣꤧ꤭": 1206,
      "ꤟꤣꤧ꤬ꤡꤢ꤬": 1207,
      "ꤕꤣꤧ꤬ꤡ꤫ꤣꤧ꤬ꤕꤣꤧ꤬ꤢ": 1208,
      "ꤏꤛꤢ": 1209,
      "ꤘꤢꤧ꤭": 1210,
      "ꤚꤥ꤭": 1211,
      "ꤟꤥ": 1212,
      "ꤠꤤ": 1213,
      "ꤥꤎꤢꤧ": 1214,
      "ꤒꤣꤧ꤬ꤋꤢꤧ": 1215,
      "ꤒꤢꤩ꤬ꤜꤢꤪ꤭": 1216,
      "ꤖꤚꤢꤩ꤬ꤛꤥ꤬": 1217,
      "ꤊꤢꤨꤊꤜꤢꤩ꤭": 1218,
      "ꤛ꤫ꤢꤦ꤬ꤢꤩ꤬ꤚꤣꤧ": 1219,
      "ꤋꤢꤩ꤭ꤒꤢꤩ꤭": 1220,
      "ꤗꤢꤪ꤬ꤗꤢ꤬ꤚꤤ": 1221,
      "ꤒꤢꤦꤘꤢꤦ꤬": 1222,
      "ꤢ꤬ꤚꤢꤧꤜꤣ": 1223,
      "ꤒꤣꤧ꤬ꤕꤜꤣ꤬": 1224,
      "ꤡꤢꤓꤝꤢ": 1225,
      "ꤙꤢꤪꤋꤢꤩ꤭ꤒꤢꤩ꤭": 1226,
      "ꤖꤚꤢ꤬ꤓꤢꤧ꤬": 1227,
      "ꤜꤤ": 1228,
      "ꤥ꤬ꤖꤢꤨꤡ꤫ꤢꤩ꤬ꤜꤢꤧ꤬": 1229,
      "ꤞꤤꤕꤜꤢꤩ꤭": 1230,
      "ꤒꤣꤧ꤬ꤜꤢꤧ꤬": 1231,
      "ꤒꤢꤩ꤬ꤜꤣꤧ꤬": 1232,
      "ꤕꤣꤧꤞꤢꤩ꤬ꤕꤜꤢꤪ꤬": 1233,
      "ꤖꤢꤛꤢ꤬": 1234,
      "ꤞꤤꤛꤢꤪ꤬ꤚꤣꤧ": 1235,
      "ꤢ꤬ꤡꤢꤪꤢ꤬ꤒꤢꤩ꤬": 1236,
      "ꤋꤢꤨ꤭ꤡꤛꤢꤩ꤭": 1237,
      "ꤊꤢꤦ꤭ꤞꤢꤧ": 1238,
      "ꤍꤢꤨ꤬ꤘꤢꤨ꤬ꤖꤚꤤ꤬": 1239,
      "ꤒꤣꤧ꤬ꤜꤢꤧ꤬ꤋꤚꤢꤩ": 1240,
      "ꤘꤝꤢ": 1241,
      "ꤛꤢꤧ": 1242,
      "ꤢꤨ꤭ꤗ꤫ꤥ꤬ꤖꤚ꤫ꤢꤩ꤬": 1243,
      "ꤒꤣꤧ꤬ꤞꤤ": 1244,
      "ꤒꤢꤩ꤬ꤜꤢꤨ꤭": 1245,
      "ꤖꤚꤢꤩ꤭": 1246,
      "ꤖꤚꤢꤨ꤭ꤗ꤫ꤥ꤬ꤖꤚ꤫ꤢꤩ꤬": 1247,
      "ꤗꤢꤩ꤬ꤓꤥ꤭": 1248,
      "ꤠꤢꤧ꤭ꤑꤢꤩ꤭": 1249,
      "ꤊꤣꤧ꤬ꤛꤢꤧ꤭ꤡꤢꤪ": 1250,
      "ꤘꤢꤦ꤬ꤑꤢꤩ꤭": 1251,
      "ꤒꤣꤧ꤬ꤚꤤ": 1252,
      "ꤗꤢꤧꤓ꤫ꤣꤧ꤬ꤔꤢꤪ": 1253,
      "ꤗ꤫ꤢꤪ꤬ꤞꤢꤩ꤭": 1254,
      "ꤖꤛꤢꤏꤢꤦ꤬": 1255,
      "ꤗ꤫ꤥ꤬ꤖꤚꤢꤨ꤭ꤗ꤫ꤥ꤬ꤖꤚ꤫ꤢꤩ꤬": 1256,
      "ꤟꤢꤨꤒꤢꤩ꤭ꤔꤣꤧ꤬": 1257,
      "ꤖꤚꤢꤩ꤬ꤜꤢꤨ꤭ꤒꤢꤧ꤭ꤒꤢꤩ꤬": 1258,
      "ꤋꤚꤝꤢ꤭ꤗꤢꤩ꤬ꤊꤣꤧ꤭": 1259,
      "ꤋꤝꤢ꤬ꤋꤛꤢ꤭": 1260,
      "ꤍꤢꤦ꤬": 1261,
      "ꤛꤢꤩ꤭": 1262,
      "ꤢꤩꤜꤤ꤬": 1263,
      "ꤢ꤬ꤞꤢꤩ꤬": 1264,
      "ꤢ꤬ꤊꤜꤢꤧ": 1265,
      "ꤢ꤬ꤘꤢꤨ꤬ꤜꤣ": 1266,
      "ꤞꤤꤖꤚ꤫ꤢꤩ꤬": 1267,
      "ꤤ꤬ꤖꤚꤤ꤬": 1268,
      "ꤗꤢꤩ꤬ꤡ꤫ꤢꤧ꤬": 1269,
      "ꤠꤢꤧ꤭ꤟꤢꤩꤒ꤫ꤥ꤬": 1270,
      "ꤜꤤ꤬ꤕ": 1271,
      "ꤢ꤬ꤊꤢꤧ꤭ꤏꤢ": 1272,
      "ꤘꤢꤧꤍꤢꤦ꤬": 1273,
      "ꤓꤢꤨ꤬ꤜꤢꤧ꤬": 1274,
      "ꤋꤥꤊꤢꤧ꤭": 1275,
      "ꤓꤢꤩꤏꤢꤦ꤬": 1276,
      "ꤙꤢꤨ꤬ꤡꤢꤪꤙꤢꤩ꤭": 1277,
      "ꤖꤤꤜꤤ꤬ꤕ": 1278,
      "ꤓꤣꤧ꤭ꤘꤢꤨ꤬ꤒꤣꤧ꤬ꤠꤢ꤬": 1279,
      "ꤍꤢꤨ꤬ꤘꤢꤨ꤬ꤖꤚꤤ꤬ꤘꤢꤨ꤬": 1280,
      "ꤊꤢꤪ": 1281,
      "ꤢ꤬ꤗ꤫ꤢ꤬": 1282,
      "ꤒꤣꤧ꤬ꤡꤣꤧ": 1283,
      "ꤒꤢꤩ꤬ꤗꤢ": 1284,
      "ꤒꤢꤩ꤬ꤙꤝꤤ": 1285,
      "ꤗꤢ꤬ꤎꤣ꤬": 1286,
      "ꤊꤢꤧ꤭ꤘꤢꤩ꤭": 1287,
      "ꤋꤚ꤫ꤢꤧ꤬": 1288,
      "ꤘꤢꤧ꤬ꤊꤢꤧ꤭": 1289,
      "ꤒꤣ꤬ꤖꤢꤩ꤬": 1290,
      "ꤘꤢꤪꤒꤢ꤭": 1291,
      "ꤞꤤꤖꤚꤝꤢ꤭": 1292,
      "ꤢ꤬ꤓꤣꤧ꤭ꤢ꤬ꤊ꤫ꤢꤩ꤬": 1293,
      "ꤔꤥ": 1294,
      "ꤟ꤫ꤢꤨ꤬": 1295,
      "ꤡ꤫ꤢ꤬": 1296,
      "ꤢ꤬ꤛꤢꤧ꤭": 1297,
      "ꤢ꤬ꤠꤢꤩ꤬": 1298,
      "ꤥ꤬ꤋꤚꤢꤧ": 1299,
      "ꤞꤤꤜꤢꤩ꤬": 1300,
      "ꤔꤣꤧ꤬ꤋꤢꤩ꤭": 1301,
      "ꤒꤢꤩ꤬ꤒꤢꤩ꤭": 1302,
      "ꤤ꤬ꤊꤢꤩ꤭": 1303,
      "ꤗꤢꤩ꤬ꤞꤣꤧ꤭ꤖꤚꤢꤩ꤬": 1304,
      "ꤡꤝꤢꤊꤢꤧ꤭": 1305,
      "ꤘꤣꤧꤞꤤꤑꤢꤩ꤭": 1306,
      "ꤜꤥ꤭ꤊꤢꤨ꤭": 1307,
      "ꤢ꤬ꤋꤢꤩ꤭ꤕꤢ꤭ꤔꤣꤧ꤬": 1308,
      "ꤓꤝꤢ꤭ꤟꤣꤧ": 1309,
      "ꤒꤣꤧ꤬ꤚꤢꤨ": 1310,
      "ꤊ꤫ꤢꤩ꤬ꤖꤢꤨ": 1311,
      "ꤓꤣꤧ꤭ꤛꤢꤧ꤭": 1312,
      "ꤋꤥꤘꤢꤦ꤬": 1313,
      "ꤢꤩꤜꤢ꤬ꤢꤩꤕꤜꤢꤩ": 1314,
      "ꤣ꤭ꤜꤢꤧ꤬": 1315,
      "ꤊꤢꤨ꤬ꤊꤜꤢꤧꤓꤢꤩ꤭": 1316,
      "ꤒꤢꤩ꤬ꤗꤢꤒꤢꤩ꤬ꤒꤢꤩ꤭": 1317,
      "ꤒꤢꤩ꤬ꤙꤝꤤꤒꤢꤩ꤬ꤒꤣꤧ꤬ꤚꤣꤧ꤭": 1318,
      "ꤊꤚꤤ": 1319,
      "ꤋꤢꤦ": 1320,
      "ꤔꤢ꤬ꤙꤢ": 1321,
      "ꤥ꤬ꤕꤢ꤬": 1322,
      "ꤗꤢꤩ꤬ꤗꤥ꤬": 1323,
      "ꤊꤣꤧ꤬ꤛꤢꤧ꤭ꤒꤢꤩ꤬": 1324,
      "ꤊꤜꤢꤦ": 1325,
      "ꤢ꤬ꤚꤢ": 1326,
      "ꤢ꤬ꤖꤢꤨꤢ꤬ꤜꤣꤧ꤬": 1327,
      "ꤒ꤫ꤥ꤬ꤊꤣꤧ꤭": 1328,
      "ꤗ꤫ꤢꤪ꤬ꤋꤤ": 1329,
      "ꤓꤝꤢ꤭ꤓꤢꤧ꤬ꤟꤣꤧ": 1330,
      "ꤏꤢꤩ꤬ꤥ꤭": 1331,
      "ꤤ꤬ꤏꤢꤪꤓꤢꤧ꤬": 1332,
      "ꤒꤣꤧ꤬ꤛ꤫ꤢꤩ꤬": 1333,
      "ꤋꤢꤨ꤭ꤙꤢ꤬ꤔꤢ꤬ꤙꤢ": 1334,
      "ꤊꤣꤧ꤬ꤛꤢꤧ꤭ꤡꤢꤪꤊꤣꤧ꤬ꤛꤢꤧ꤭ꤒꤢꤩ꤬": 1335,
      "ꤘꤢ": 1336,
      "ꤥ꤬ꤚ": 1337,
      "ꤢꤨ꤭ꤚꤥ꤬": 1338,
      "ꤠꤢꤧ꤭ꤍ꤫ꤥ꤬": 1339,
      "ꤍ꤫ꤥ꤬ꤋꤢꤋꤥ꤬": 1340,
      "ꤋꤢꤧꤞꤤꤘꤥ꤭": 1341,
      "ꤟꤤ꤬ꤘꤢꤪ": 1342,
      "ꤒꤣꤧ꤬ꤡ꤫ꤢꤨ꤬": 1343,
      "ꤒꤢꤧ꤬ꤜꤢ꤭ꤟꤤꤒꤥ꤬": 1344,
      "ꤏꤢꤩ꤬ꤢꤩ꤬ꤏꤢꤩ꤬ꤥ꤭": 1345,
      "ꤋꤢꤨ꤭ꤡꤛꤢꤩ꤭ꤗꤢ꤬ꤎꤣ꤬": 1346,
      "ꤊꤢꤩ": 1347,
      "ꤎꤢꤨ꤬": 1348,
      "ꤢ꤬ꤊꤜꤢꤪ꤭": 1349,
      "ꤒꤢꤩ꤬ꤣꤧ꤭": 1350,
      "ꤒꤢꤩ꤬ꤘꤢꤨ꤬ꤛ꤫ꤢꤧ꤬ꤓꤢꤧ꤬ꤞꤢꤩ꤭": 1351,
      "ꤗꤢꤩ꤬ꤔꤣꤧ꤬": 1352,
      "ꤗꤢꤩ꤬ꤒꤥ꤭": 1353,
      "ꤗꤢꤩ꤬ꤕꤛꤢꤊꤢꤧ꤭": 1354,
      "ꤕꤢꤩ꤬ꤔ꤫ꤢꤩ꤬": 1355,
      "ꤞꤢꤧꤟꤣꤧ": 1356,
      "ꤜꤣꤧ꤬ꤟꤢꤧ꤬": 1357,
      "ꤚꤢ꤭ꤗꤢ": 1358,
      "ꤢ꤬ꤗ꤫ꤢꤪ꤬ꤔꤣꤧ꤭ꤘꤥ꤬": 1359,
      "ꤙꤢꤦ꤬": 1360,
      "ꤜꤝꤢ": 1361,
      "ꤜ꤫ꤢꤨ꤬": 1362,
      "ꤝ꤫ꤤ꤬": 1363,
      "ꤞꤢꤪ": 1364,
      "ꤤꤜꤢ꤬": 1365,
      "ꤢ꤬ꤔꤣꤧ꤬": 1366,
      "ꤢ꤬ꤙꤢꤩ꤬": 1367,
      "ꤒꤢꤩ꤬ꤒꤣꤧ꤬ꤋꤢꤩ꤭": 1368,
      "ꤒꤢꤩ꤬ꤣ꤭ꤜꤢꤧ꤬": 1369,
      "ꤒꤣ꤬ꤒ꤫ꤥ꤬": 1370,
      "ꤗꤢꤩ꤬ꤓꤥ꤭ꤟꤣꤧ": 1371,
      "ꤢ꤬ꤋꤥ꤭": 1372,
      "ꤊꤜꤣꤧ꤭ꤒꤣ꤬": 1373,
      "ꤊꤣꤧ꤭ꤕ꤫ꤥ꤬": 1374,
      "ꤋꤚꤥ꤭": 1375,
      "ꤕꤜꤣꤧ꤬": 1376,
      "ꤘꤢꤧ꤬ꤜꤢꤧ꤬": 1377,
      "ꤊꤢ꤬ꤊꤢꤧ꤭": 1378,
      "ꤜꤣꤥ꤬": 1379,
      "ꤜ꤫ꤢꤩ꤬ꤢꤩ꤬": 1380,
      "ꤗ꤫ꤢꤪ꤬ꤜꤤ꤭": 1381,
      "ꤒꤣꤧ꤬ꤚꤣꤧ꤭ꤓꤢꤨ꤭": 1382,
      "ꤔꤣꤧ꤬ꤒꤣ꤬ꤗꤢꤩ꤭": 1383,
      "ꤤ꤬ꤏꤢꤩ꤭ꤒꤢ꤭ꤊꤢꤧ꤭": 1384,
      "ꤕꤣꤒꤣꤧ꤬ꤚꤤ꤬": 1385,
      "ꤙꤢꤗꤥ꤭": 1386,
      "ꤡꤢꤧ꤬ꤒꤥ꤭ꤙꤢꤩ꤬": 1387,
      "ꤜꤣꤧ꤬ꤟꤥ꤭ꤜꤣꤧ꤬ꤟꤢꤧ꤬": 1388,
      "ꤞꤢꤨꤕꤜꤤ꤭": 1389,
      "ꤋꤢꤨ꤭ꤎꤢꤪꤜꤢꤨ": 1390,
      "ꤑꤢꤔꤢꤨ꤬ꤋꤢꤩ꤭": 1391,
      "ꤏꤢꤨ꤬ꤔꤥ꤭": 1392,
      "ꤒꤣꤧ꤬ꤡꤣꤧꤒꤣꤧ꤬ꤡ꤫ꤢꤨ꤬": 1393,
      "ꤞꤢꤪ꤭": 1394,
      "ꤢꤩ꤬ꤟꤥ꤬": 1395,
      "ꤗꤢꤩ꤬ꤒꤣꤧ꤬ꤋꤢꤩ꤭": 1396,
      "ꤊꤢꤧ꤭ꤍ꤫ꤥ꤬": 1397,
      "ꤡ꤫ꤢꤧ꤬ꤒꤥ꤬": 1398,
      "ꤊꤢ꤬ꤏꤥ꤭": 1399,
      "ꤜꤢꤨ꤬ꤜꤢꤩ": 1400,
      "ꤕꤣꤧ꤬ꤒ": 1401,
      "ꤊꤜꤢꤧꤜꤥ꤬": 1402,
      "ꤘꤤꤘꤢꤧ꤭": 1403,
      "ꤢ꤬ꤗ꤫ꤥ꤬ꤢ꤬ꤖꤢꤩ꤭": 1404,
      "ꤢ꤬ꤗꤢꤨ꤬ꤢ꤬ꤚꤢ": 1405,
      "ꤢ꤬ꤏꤣꤧꤢ꤬ꤋꤢꤩ꤭": 1406,
      "ꤖꤤꤜꤤ꤬ꤕꤢꤨ꤬": 1407,
      "ꤋꤛꤢ꤬": 1408,
      "ꤚꤢꤧ꤭": 1409,
      "ꤛꤣ꤬": 1410,
      "ꤜꤢꤦ꤭": 1411,
      "ꤥ꤬ꤘꤣ": 1412,
      "ꤤ꤬ꤚꤥ꤭": 1413,
      "ꤢꤨ꤬ꤡꤢꤩ꤭": 1414,
      "ꤗꤢ꤬ꤗꤢꤩ꤬ꤒꤢꤩ꤭": 1415,
      "ꤞꤤꤑꤢꤩ꤭ꤟꤣꤧ": 1416,
      "ꤒꤢꤩ꤬ꤖꤢꤨꤒꤢꤩ꤬ꤜꤣꤧ꤬": 1417,
      "ꤚ꤫ꤥ꤬ꤊꤣꤧ꤭": 1418,
      "ꤏꤢꤦꤜꤢꤦ꤭": 1419,
      "ꤒꤢꤩ꤬ꤜꤤ꤭ꤒꤢꤩ꤬ꤒꤣꤧ꤬ꤋꤢꤩ꤭": 1420,
      "ꤋꤝꤢꤊꤢꤩ꤬": 1421,
      "ꤗꤤ": 1422,
      "ꤘꤢꤪ꤬": 1423,
      "ꤒꤢꤩ꤬ꤡꤝꤢꤒꤣꤧ꤬ꤜꤝꤢ": 1424,
      "ꤓꤢꤧ꤬ꤚꤣꤧ": 1425,
      "ꤋꤢꤨ꤭ꤖꤤꤜꤤ꤬ꤕꤢꤨ꤬": 1426,
      "ꤔ꤫ꤤ꤬ꤟꤥ꤭ꤔꤢꤪ": 1427,
      "ꤊꤣꤧ꤬ꤓꤢꤪ꤬ꤊꤢ꤬ꤋꤛꤢ꤭": 1428,
      "ꤏꤣꤧꤞꤤꤔꤣꤧ꤭": 1429,
      "ꤒꤢꤩ꤬ꤗ꤫ꤢ꤬ꤊꤢꤧ꤭ꤍ꤫ꤥ꤬": 1430,
      "ꤓꤣꤧ꤭ꤢꤪ꤬ꤘꤢꤨ꤬": 1431,
      "ꤢꤨ꤬ꤡꤢꤩ꤭ꤒꤣꤧ꤬ꤛ꤫ꤢꤩ꤬": 1432,
      "ꤊꤛꤢ": 1433,
      "ꤒꤣꤧ": 1434,
      "ꤗꤢ꤭": 1435,
      "ꤢꤩ꤬ꤥ꤭": 1436,
      "ꤢ꤬ꤖꤚꤢꤩ꤬ꤗꤢꤩ꤬ꤒꤢꤩ꤬ꤖꤢꤨ": 1437,
      "ꤥ꤬ꤖꤢꤦ꤬": 1438,
      "ꤒꤢꤩ꤬ꤗꤢꤧꤏꤢꤦ꤭": 1439,
      "ꤒꤢꤩ꤬ꤏꤝꤤ": 1440,
      "ꤖꤚꤢꤪ꤬": 1441,
      "ꤋꤢꤨ꤭ꤘꤢ꤬ꤠꤤ꤬": 1442,
      "ꤛ꤫ꤢꤦ꤬ꤔ꤫ꤢꤧ꤬": 1443,
      "ꤗꤢꤧꤙꤢꤦ꤭": 1444,
      "ꤢ꤬ꤖꤢꤨꤒꤢ꤭": 1445,
      "ꤖꤛꤢꤟꤢꤧ꤭ꤔ꤫ꤤ꤬": 1446,
      "ꤗ꤫ꤢꤪ꤬ꤔꤣꤧ꤭ꤗ꤫ꤢꤪ꤬ꤞꤢꤩ꤭": 1447,
      "ꤙꤤꤊꤢꤧ꤭": 1448,
      "꤯’”": 1449,
      "ꤚꤢꤪ꤬ꤚꤣꤧ": 1450,
      "ꤘꤢꤧ꤬ꤘꤢꤨ꤬ꤛ꤫ꤢꤦ꤬ꤔ꤫ꤢꤧ꤬": 1451,
      "ꤏꤢꤧ꤬ꤜꤢꤧ꤬": 1452,
      "ꤘꤢꤧꤍꤢꤦ꤬ꤜꤢꤧ꤬": 1453,
      "ꤟꤤ꤬ꤘꤢꤪꤊꤢꤨ꤭": 1454,
      "ꤒꤣꤧꤗ꤫ꤢꤪ꤬": 1455,
      "ꤢ꤬ꤔꤢ꤬": 1456,
      "ꤥ꤬ꤢꤩ": 1457,
      "ꤒꤢꤩ꤬ꤞꤣꤧ꤭ꤖꤚꤢꤩ꤬": 1458,
      "ꤒꤢꤩ꤬ꤋꤤ": 1459,
      "ꤤ꤬ꤡꤛ": 1460,
      "ꤒꤣ꤬ꤙꤥ꤭": 1461,
      "ꤢꤨ꤬ꤜꤢꤩ": 1462,
      "ꤖꤢꤨꤊ꤫ꤢꤩ꤬ꤖꤢꤨ": 1463,
      "ꤕꤢꤩ꤬ꤔ꤫ꤢꤩ꤬ꤊꤜ꤫ꤢꤪ꤬": 1464,
      "ꤡꤝꤢꤗꤢꤩ꤬": 1465,
      "ꤋꤚꤢꤦ꤬": 1466,
      "ꤒꤢ꤭ꤏꤢꤦ꤬": 1467,
      "ꤢ꤬ꤜꤢꤨ꤬ꤜꤢꤩ": 1468,
      "ꤜꤣꤧ꤬ꤋꤢꤦ": 1469,
      "ꤓꤣꤧ꤭ꤖꤢꤨꤊ꤫ꤢꤩ꤬ꤖꤢꤨ": 1470,
      "ꤊꤢꤨ꤬ꤊꤜꤢꤪꤘꤢꤨ꤬": 1471,
      "ꤣꤧ꤭ꤒꤣ꤬ꤔꤣꤧ꤭": 1472,
      "ꤣꤧ꤭ꤒꤣ꤬ꤗꤢꤩ꤭": 1473,
      "ꤋꤥꤋꤛꤢ꤬": 1474,
      "ꤜ꤫ꤥ꤬ꤘꤢꤨ꤬ꤜꤣ": 1475,
      "ꤔꤣꤧ꤬ꤒꤣ꤬ꤔꤣꤧ꤭": 1476,
      "ꤢꤨ꤭ꤕꤢꤩ꤭ꤕꤢꤩ꤭": 1477,
      "ꤔꤢ꤬ꤎ": 1478,
      "ꤊꤥꤚꤣꤧ": 1479,
      "ꤡꤢꤪ꤭ꤊꤜꤢꤪ꤬ꤗꤢ꤬": 1480,
      "ꤒꤢꤩ꤬ꤡꤢꤪꤙꤢꤩ꤭ꤟꤥ꤭ꤊꤢꤨ꤭": 1481,
      "ꤢ꤬ꤚ꤫ꤣꤧ꤬ꤋꤢꤩ꤭": 1482,
      "ꤊꤢꤧꤜꤢ꤬ꤜꤤ꤬ꤊ꤫ꤢꤩ꤬": 1483,
      "ꤋꤚꤝꤢ꤭ꤡꤝꤢꤊꤣꤧ꤭": 1484,
      "ꤤ꤬ꤡꤛꤤ": 1485,
      "ꤎꤢꤩ꤬": 1486,
      "ꤏꤤ": 1487,
      "ꤘꤝꤤ": 1488,
      "ꤜꤢꤦ": 1489,
      "ꤞꤢꤦ꤬": 1490,
      "ꤢꤩꤜꤣ": 1491,
      "ꤢ꤬ꤡ꤫ꤢꤦ꤬": 1492,
      "ꤣꤧ꤭ꤒꤣ꤬ꤡꤣ꤬": 1493,
      "ꤒꤢꤩ꤬ꤡ꤫ꤢꤧ꤬": 1494,
      "ꤟꤢꤩꤖꤚꤥ꤬": 1495,
      "ꤟꤢꤨꤣꤧ꤭ꤔꤣꤧ꤬": 1496,
      "ꤜꤢꤨ꤭ꤋꤛꤢ꤭": 1497,
      "ꤖꤢꤨꤖꤚꤢꤩ꤬ꤗꤢꤪ꤬": 1498,
      "ꤗꤢꤧꤘꤢꤨ꤬": 1499,
      "ꤢ꤬ꤜꤢ꤬": 1500,
      "ꤖꤛꤢꤓꤢꤧ꤬ꤜꤥ꤭": 1501,
      "ꤜꤤ꤬ꤣꤧ꤭": 1502,
      "ꤔ꤫ꤤ꤬ꤙꤢꤩ꤬ꤟꤣꤧ": 1503,
      "ꤖꤚꤢꤩ꤬ꤗꤢꤪ꤬ꤖꤚꤢꤩ꤬ꤋꤢꤨ꤭": 1504,
      "ꤢ꤬ꤚꤥ꤬ꤒꤣ꤬ꤖꤚꤢꤩ꤬": 1505,
      "ꤒꤣꤧ꤬ꤠꤢꤪ꤬": 1506,
      "ꤜꤢꤩ꤬ꤊꤥ꤬": 1507,
      "ꤒꤢꤩ꤬ꤡꤢꤪꤙꤢꤩ꤭ꤟꤥ꤭": 1508,
      "ꤢ꤬ꤚ꤫ꤣꤧ꤬ꤜꤣ": 1509,
      "ꤙꤥ꤬ꤢꤩ꤬": 1510,
      "ꤟꤌꤣ": 1511,
      "ꤗꤢꤩ꤬ꤜꤤ꤭ꤗꤢꤩ꤬ꤒꤣꤧ꤬ꤋꤢꤩ꤭": 1512,
      "ꤓꤣꤧ꤭ꤢꤪ꤬ꤘꤢꤨ꤬ꤒꤣꤧ꤬ꤠꤢꤪ꤬": 1513,
      "ꤔꤢ꤬ꤎꤢ꤬ꤚꤢꤧ": 1514,
      "ꤢꤩꤡꤝꤢ": 1515,
      "ꤢ꤬ꤗꤢꤩ꤬": 1516,
      "ꤒꤣꤧ꤬ꤗꤢ": 1517,
      "ꤒꤢꤩ꤬ꤘꤢꤦ꤭": 1518,
      "ꤒꤢꤩ꤬ꤖꤚꤢꤩ꤭": 1519,
      "ꤒꤣ꤬ꤕꤜꤢꤨ꤬": 1520,
      "ꤗꤢꤩ꤬ꤓꤝꤢ꤭ꤓꤢꤧ꤬": 1521,
      "ꤊꤣꤧ꤬ꤛꤢꤧ꤭ꤞꤣꤧ꤭": 1522,
      "ꤖꤢꤨꤥ꤬": 1523,
      "ꤘꤣꤧꤢꤩ꤬": 1524,
      "ꤢ꤬ꤚꤢꤩ꤬": 1525,
      "ꤟꤤ꤬ꤖꤢꤨ": 1526,
      "ꤖꤚꤢꤩ꤬ꤗꤢꤪ꤬ꤥ꤬ꤋꤚꤢꤧ": 1527,
      "ꤞꤥ꤭ꤔꤣꤧ꤭": 1528,
      "ꤚꤢ꤭ꤥ꤬": 1529,
      "ꤏꤥ꤭ꤏꤢꤦ": 1530,
      "ꤜ꤫ꤢꤪ꤬ꤒꤣꤧ꤬ꤗꤢ": 1531,
      "ꤑꤢ꤭ꤒꤢꤧ꤬": 1532,
      "ꤘꤣꤋꤛꤢ꤭ꤔꤣꤧ꤬": 1533,
      "ꤢꤩꤜꤢ꤬ꤜꤣꤧ꤬": 1534,
      "ꤞꤤꤔ꤫ꤢꤩ꤬ꤓꤢꤧ꤬ꤙꤢꤩ꤬": 1535,
      "ꤒꤢꤩ꤬ꤡꤝꤢꤒꤣꤧ꤬ꤜꤝꤢꤕꤝꤢꤩ꤬": 1536,
      "ꤒꤢꤩ꤬ꤖꤚꤢꤩ꤭ꤒꤢꤩ꤬ꤘꤢꤦ꤭": 1537,
      "ꤑꤢ꤭ꤒꤢꤧ꤬ꤒꤥ꤬": 1538,
      "ꤢꤩꤜꤢ꤬ꤜꤣꤧ꤬ꤟꤥ꤭": 1539,
      "ꤊꤢꤧ꤬": 1540,
      "ꤓꤥ꤬": 1541,
      "ꤕ꤫ꤢ꤬": 1542,
      "ꤖꤢꤦ꤭": 1543,
      "ꤢ꤬ꤖꤚꤢꤩ꤬": 1544,
      "ꤢ꤬ꤕꤣꤧꤞꤢꤩ꤬": 1545,
      "ꤥ꤬ꤒ꤫ꤣ꤬": 1546,
      "ꤥ꤬ꤚ꤫ꤥ꤬": 1547,
      "ꤥ꤬ꤜꤣꤥ꤬": 1548,
      "ꤗꤢ꤬ꤢꤨ꤭ꤕꤢꤩ꤭": 1549,
      "ꤊꤣꤧ꤬ꤓꤢꤧ꤬": 1550,
      "ꤊꤣꤧ꤬ꤜꤢꤧ꤬": 1551,
      "ꤜꤢꤪ꤭ꤞꤢꤩ": 1552,
      "ꤜꤢꤪ꤭ꤞꤢꤨ꤬": 1553,
      "ꤋꤢꤨ꤭ꤗꤢ꤬": 1554,
      "ꤕꤜꤤ": 1555,
      "ꤓꤝꤢ꤭ꤒꤣꤧ꤬ꤚꤣꤧ꤭": 1556,
      "ꤓꤝꤢ꤭ꤙꤝꤤ": 1557,
      "ꤛꤢ꤬ꤊ꤫ꤢꤩ꤬": 1558,
      "ꤛꤢ꤬ꤊꤥ꤬": 1559,
      "ꤒ꤫ꤢꤧ꤬ꤗꤢꤩ꤬ꤔꤣꤧ꤬": 1560,
      "ꤕꤣꤧ꤬ꤜꤢ꤭": 1561,
      "ꤞꤢꤨ꤭ꤟꤢꤧ꤭": 1562,
      "ꤔꤢꤪ꤭ꤟꤢꤧ꤭ꤜꤢꤧ꤬": 1563,
      "ꤋꤚꤢꤩꤋꤚ꤫ꤢꤧ꤬": 1564,
      "ꤖꤢꤧ꤭ꤖꤢꤨ": 1565,
      "ꤞꤤꤖꤚꤢ": 1566,
      "ꤘꤢꤦꤒꤣꤧ꤬ꤜꤤꤖꤢ": 1567,
      "ꤖꤣꤧ꤭ꤖꤥ꤭": 1568,
      "ꤢꤩꤜꤤ꤬ꤛꤢ꤬": 1569,
      "ꤜꤢꤪ꤭ꤞꤢꤨ꤬ꤜꤢꤪ꤭ꤞꤢꤩ": 1570,
      "?’": 1571,
      "ꤊꤣꤧ": 1572,
      "ꤒ꤫ꤢ꤬": 1573,
      "ꤢ꤬ꤊꤢꤩ꤬": 1574,
      "ꤢ꤬ꤖꤥ": 1575,
      "ꤥ꤬ꤜꤢꤩ꤭": 1576,
      "ꤒꤣ꤬ꤓꤢꤦ꤭": 1577,
      "ꤒꤣ꤬ꤘꤢꤪ꤭": 1578,
      "ꤗꤢ꤬ꤞꤢꤩ꤬": 1579,
      "ꤋꤢꤨ꤭ꤒꤤ꤬": 1580,
      "ꤓꤥ꤭ꤜꤢꤪ꤭ꤟꤣꤧ": 1581,
      "ꤞꤤꤑꤢꤩ꤭ꤟꤢꤧ꤭": 1582,
      "ꤠꤤ꤭ꤢ꤬": 1583,
      "ꤜ꤫ꤢꤩ꤬ꤞꤢꤦ꤬": 1584,
      "ꤒꤢꤩ꤬ꤗꤢꤩ꤬ꤡꤝ꤫ꤢ꤬": 1585,
      "ꤏꤢꤪ꤭ꤓꤢꤧ꤬": 1586,
      "ꤣꤧ꤭ꤒꤣ꤬ꤘꤥ꤭": 1587,
      "ꤢ꤬ꤒꤢꤩ꤬ꤗꤥ꤬": 1588,
      "ꤕ꤫ꤢꤪ꤬ꤞꤤ": 1589,
      "ꤒꤢꤩ꤬ꤡꤢꤪꤙꤢꤨ꤬ꤡꤢꤪꤙꤢꤩ꤭": 1590,
      "ꤥ꤬ꤕ꤫ꤢꤪ꤬ꤗꤢꤧꤏꤢꤦ꤭": 1591,
      "ꤞꤢꤪ꤬ꤊꤜꤣꤧ꤭ꤊꤢꤨ꤭": 1592,
      "ꤋꤢꤨ꤭ꤡꤛꤥꤎꤢꤧ": 1593,
      "ꤒꤣꤧ꤬ꤗꤥ꤭ꤗꤥ꤭": 1594,
      "ꤒꤣꤧ꤬ꤕꤜꤣ꤬ꤟꤢꤨ": 1595,
      "ꤡꤢꤧ꤬ꤒꤥ꤭ꤙꤢꤩ꤬ꤒꤢꤩ꤬": 1596,
      "ꤗꤢ꤬ꤗꤢꤩ꤬ꤒꤢꤩ꤭ꤚꤣꤧ꤬": 1597,
      "ꤒꤣ꤬ꤕꤜꤢꤨ꤬ꤒꤣ꤬ꤖꤢꤩ꤬": 1598,
      "ꤟꤤ꤬ꤖꤢꤨꤖꤢꤧ꤭ꤖꤢꤨ": 1599,
      "ꤋꤢꤨ꤭ꤒꤤ꤬ꤗꤢ꤬ꤞꤢꤩ꤬": 1600,
      "ꤊꤝꤢ꤬": 1601,
      "ꤘꤥ": 1602,
      "ꤔꤣꤧ꤬ꤒꤣ꤬ꤖꤥ꤬": 1603,
      "ꤒꤢꤩ꤬ꤖꤢꤩ": 1604,
      "ꤒꤢꤩ꤬ꤟꤢꤩꤗꤥ꤬ꤟꤢꤩꤚꤢꤧ": 1605,
      "ꤞꤤ꤭ꤖꤢꤩ꤭": 1606,
      "ꤖꤚꤢꤩ꤬ꤥ꤬ꤚ": 1607,
      "ꤟꤢꤧ꤭ꤒꤥ꤭": 1608,
      "ꤔ꤫ꤤ꤬ꤋꤝꤢꤊꤢꤩ꤬": 1609,
      "ꤒꤢ꤭ꤒꤥ꤭": 1610,
      "ꤢ꤬ꤔ꤫ꤢꤩ꤬ꤙꤢꤧ꤬ꤡꤢꤩ꤬": 1611,
      "ꤖꤛꤢꤡꤝꤢ": 1612,
      "ꤖꤛꤢꤔ꤫ꤤ꤬": 1613,
      "ꤗ꤫ꤥ꤬ꤖꤢꤩ꤭": 1614,
      "ꤖꤚꤥ꤬ꤖꤚꤢꤧ꤬": 1615,
      "ꤒꤢꤩ꤬ꤞꤤꤛꤢꤪ꤬": 1616,
      "ꤒꤢꤩ꤬ꤞꤤꤒꤢꤩ꤬ꤖꤢꤩ": 1617,
      "ꤣꤧ꤭ꤒꤣ꤬ꤓꤢꤦ꤭": 1618,
      "ꤏꤣꤧꤔꤣꤧ꤭": 1619,
      "ꤊꤜꤢꤧꤛꤢꤨ꤭": 1620,
      "ꤢ꤬ꤒꤢꤩ꤬ꤛ꤫ꤢꤦ꤬": 1621,
      "ꤘꤣꤧꤒꤢ꤭ꤊꤢꤧ꤭": 1622,
      "ꤜꤝꤤ꤭ꤞꤝꤢ": 1623,
      "ꤛꤢꤨ꤭ꤊꤜꤢꤧꤛꤢꤨ꤭": 1624,
      "ꤋꤢꤨ꤭ꤎꤤꤜꤢ꤬": 1625,
      "ꤒꤢꤩ꤬ꤒꤣꤧ꤬ꤚꤣꤧ꤭ꤘꤢꤨ꤬": 1626,
      "ꤗꤢꤧꤡꤢꤧ꤬ꤚꤣꤧ": 1627,
      "ꤒꤣꤧ꤬ꤠꤤ꤭ꤒꤣꤧ꤬ꤠꤢ꤬": 1628,
      "ꤒ꤫ꤢꤪ꤬ꤓꤢꤩ": 1629,
      "ꤖꤚꤢꤩ꤬ꤥ꤬ꤚꤢ꤬ꤖꤢꤨ": 1630,
      "ꤛꤢꤨ꤭ꤊꤜꤢꤧꤛꤢꤨ꤭ꤊꤜꤥ꤭": 1631,
      "ꤏꤛꤢ꤬": 1632,
      "ꤔ꤫ꤥ꤬": 1633,
      "ꤕꤚ": 1634,
      "ꤢꤩꤏꤢꤦ꤬": 1635,
      "ꤢꤩ꤬ꤏꤢꤩ꤬": 1636,
      "ꤢ꤬ꤡ": 1637,
      "ꤥ꤬ꤒꤣ꤬ꤖꤚꤢꤩ꤬": 1638,
      "ꤞꤤꤥ꤭": 1639,
      "ꤒꤣꤧ꤬ꤜꤢꤨ꤭": 1640,
      "ꤤ꤬ꤛꤢꤨ꤭": 1641,
      "ꤠꤢꤧ꤭ꤖꤢꤨ": 1642,
      "ꤊꤣꤧ꤬ꤜꤢꤪ": 1643,
      "ꤜꤢꤨ꤭ꤍ꤫ꤥ꤬": 1644,
      "ꤡꤝꤢꤜꤢꤩ꤭": 1645,
      "ꤘꤣꤧꤚꤢꤪ꤬": 1646,
      "ꤍ꤫ꤥ꤬ꤋꤥꤋꤛꤢ꤬": 1647,
      "ꤊ꤫ꤢꤩ꤬ꤏꤢꤩ꤭": 1648,
      "ꤓꤣꤧ꤭ꤊꤢꤧ꤬": 1649,
      "ꤓꤢꤨ꤬ꤞꤢꤩꤚꤣꤧ": 1650,
      "ꤒꤣꤧ꤬ꤜꤝꤢꤏꤢꤦꤜꤢꤦ꤭": 1651,
      "ꤊꤣꤧ꤬ꤘꤢ꤭ꤊꤢꤨ꤭": 1652,
      "ꤋꤝꤢꤞꤤꤑꤢꤩ꤭": 1653,
      "ꤡ꤫ꤢ꤬ꤖꤚꤣꤧ꤭": 1654,
      "ꤜ꤫ꤢꤪ꤬ꤒꤣꤧ꤬ꤗꤢꤋꤢꤨ꤬": 1655,
      "ꤕ꤫ꤢꤪ꤬ꤞꤤꤒꤣ꤬ꤙꤢꤩ꤬": 1656,
      "ꤊ꤫ꤢꤩ꤬ꤏꤢꤩ꤭ꤓꤣꤧ꤭ꤊꤢꤧ꤬": 1657,
      "ꤎꤤ": 1658,
      "ꤏꤤ꤬": 1659,
      "ꤕ꤫ꤢꤨ꤬": 1660,
      "ꤠꤢ꤬": 1661,
      "ꤡꤝꤢ꤬": 1662,
      "꤯)": 1663,
      "ꤒꤢꤩ꤬ꤋꤢꤩ꤭": 1664,
      "ꤒꤢꤩ꤬ꤏꤣꤧ": 1665,
      "ꤗꤢꤩ꤬ꤋꤚꤢꤧ": 1666,
      "ꤢ꤬ꤋꤝꤤ": 1667,
      "ꤟꤢꤧ꤭ꤡ꤫ꤢꤩ꤬": 1668,
      "ꤋꤢꤨ꤭ꤎꤢ꤬": 1669,
      "ꤊꤣꤧ꤭ꤔꤢꤧ": 1670,
      "ꤜꤥ꤭ꤋꤢꤨ꤬": 1671,
      "ꤚꤣꤧꤘꤢꤦ꤬ꤜꤢꤨ꤭": 1672,
      "ꤘꤢꤧ꤬ꤥ꤬": 1673,
      "ꤔꤢꤪ꤭ꤓꤝꤢ꤭ꤓꤢꤧ꤬": 1674,
      "ꤊꤢꤨꤊ꤫ꤥ꤬": 1675,
      "ꤜ꤫ꤢꤩ꤬ꤥ꤭": 1676,
      "ꤒꤣꤧ꤬ꤔꤢꤧ꤭": 1677,
      "ꤚꤤ꤬ꤡ꤫ꤢꤩ꤬": 1678,
      "ꤕꤣꤧꤚꤥ꤬": 1679,
      "ꤞꤢꤪ꤬ꤗ꤫ꤢꤪ꤬": 1680,
      "ꤕꤣꤧ꤬ꤏꤤ꤭": 1681,
      "ꤒꤢꤩ꤬ꤞꤤꤋꤝꤢꤞꤤꤑꤢꤩ꤭": 1682,
      "ꤏꤥ꤭ꤒꤣꤧ꤬ꤕꤢ꤬": 1683,
      "ꤢ꤬ꤖꤢꤨꤖꤚꤢꤩ꤬ꤋꤢꤨ꤭ꤣꤧ꤭": 1684,
      "ꤕꤜꤝꤢ꤭ꤓꤢꤩ꤬": 1685,
      "ꤞꤥ꤭ꤞꤝꤢꤒꤣ꤬ꤖꤚꤢꤩ꤬": 1686,
      "ꤚꤢꤦ꤭ꤛꤢ꤬": 1687,
      "ꤡꤢ꤬ꤡꤝꤢ꤬": 1688,
      "ꤔꤥ꤬ꤕꤢ꤭": 1689,
      "ꤞꤢꤨꤞꤢ": 1690,
      "ꤗꤤ꤭ꤡꤣ꤬ꤖꤢꤨ": 1691,
      "ꤟꤢꤪꤊꤢꤨ꤭": 1692,
      "ꤗꤢꤧ꤬ꤎꤤ꤬": 1693,
      "ꤏꤥ꤭ꤖꤢꤏꤥ꤭ꤚꤢꤧ꤬ꤖꤢꤨ": 1694,
      "ꤓꤝꤢ꤭ꤙꤝꤤꤓꤝꤢ꤭ꤒꤣꤧ꤬ꤚꤣꤧ꤭": 1695,
      "ꤘꤥꤔꤤ꤬": 1696,
      "ꤒꤢꤩ꤬ꤏꤣꤧꤒꤢꤩ꤬ꤋꤢꤩ꤭": 1697,
      "ꤟꤢꤧ꤭ꤡ꤫ꤢꤩ꤬ꤚꤤ꤬ꤡ꤫ꤢꤩ꤬": 1698,
      "ꤗꤢꤧ꤬ꤎꤤ꤬ꤘꤥꤔꤤ꤬": 1699,
      "ꤋꤢꤦ꤭": 1700,
      "ꤓꤢꤧ": 1701,
      "ꤝꤢꤩ": 1702,
      "ꤢ꤬ꤔꤥ꤬": 1703,
      "ꤢꤪꤜ꤫ꤥ꤬": 1704,
      "ꤒꤢꤩ꤬ꤜꤢꤪ꤬": 1705,
      "ꤒꤣ꤬ꤕꤝꤤ": 1706,
      "ꤠꤢꤧ꤭ꤥ꤬": 1707,
      "ꤗꤢ꤬ꤤ꤭ꤒꤢꤩ꤭": 1708,
      "ꤢ꤬ꤋꤝꤢ": 1709,
      "ꤊꤣꤧ꤬ꤔꤥ꤭": 1710,
      "ꤊꤣꤧ꤬ꤖꤢꤦ꤭": 1711,
      "ꤒꤥ꤬ꤗꤢ꤬ꤔꤢꤧ": 1712,
      "ꤕꤜꤢꤨ": 1713,
      "ꤠꤤ꤭ꤊꤢ꤬": 1714,
      "ꤊꤢꤨꤠ": 1715,
      "ꤜꤥ꤬ꤟꤣꤧ": 1716,
      "ꤗꤤ꤬ꤊꤢꤪ꤭": 1717,
      "ꤒꤢꤦꤗꤢ꤬": 1718,
      "ꤎꤢ꤬ꤒꤢꤨ": 1719,
      "ꤓꤢꤦ꤭ꤋꤢꤩ꤭": 1720,
      "ꤢ꤬ꤘꤢꤨ꤬ꤢ꤬ꤛꤢꤧ꤭": 1721,
      "ꤊꤣꤧ꤬ꤜꤢꤪꤊꤣꤧ꤬ꤖꤢꤦ꤭": 1722,
      "ꤓꤝꤤ": 1723,
      "ꤖꤥ꤬": 1724,
      "ꤘꤢꤩ꤬": 1725,
      "ꤡꤤ꤬": 1726,
      "ꤡ꤫ꤣ꤬": 1727,
      "ꤞꤤꤟꤢ꤭": 1728,
      "ꤒꤢꤩ꤬ꤤ꤬ꤞꤝꤢ": 1729,
      "ꤞꤤ꤭ꤊꤢꤨ꤭": 1730,
      "ꤟꤢꤩꤊꤥꤚꤣꤧ": 1731,
      "ꤗꤢꤩ꤬ꤒꤢꤩ꤬ꤞꤢꤦ": 1732,
      "ꤠꤢꤧ꤭ꤊꤢꤧ꤭": 1733,
      "ꤠꤢꤧ꤭ꤚꤤ꤬": 1734,
      "ꤢꤪ꤬ꤞꤢꤩ": 1735,
      "ꤟꤢꤧ꤭ꤟꤣꤧ": 1736,
      "ꤊꤜꤝꤢ꤬": 1737,
      "ꤋꤢꤨ꤭ꤢꤩ": 1738,
      "ꤓꤥ꤭ꤘꤢꤦ꤬ꤟꤣꤧ": 1739,
      "ꤞꤢꤧꤊꤣꤧ꤭ꤘꤢꤦ꤬": 1740,
      "ꤢ꤬ꤚꤤ": 1741,
      "ꤊꤢꤩ꤬ꤟꤢꤩ": 1742,
      "ꤞꤤꤑꤢꤩ꤭ꤔꤢꤪ": 1743,
      "ꤒꤣꤧ꤬ꤚꤢꤪ꤬ꤞꤢꤩ": 1744,
      "ꤒꤢꤩ꤬ꤗꤢꤩ꤬ꤓꤝꤢ꤭ꤓꤢꤧ꤬": 1745,
      "ꤒꤢꤩ꤬ꤗꤢꤩ꤬ꤔ꤫ꤤ꤬ꤋꤝꤢꤊꤢꤩ꤬": 1746,
      "ꤙꤢꤩ꤭ꤜ꤫ꤢꤪ꤬": 1747,
      "ꤜꤢꤨ꤭ꤒꤢꤧ꤭ꤓꤢꤧ꤬": 1748,
      "ꤗ꤫ꤢꤪ꤬ꤔꤣꤧ꤭ꤘꤥ꤬": 1749,
      "ꤊꤢꤪ꤭ꤊꤢꤪ꤭": 1750,
      "ꤏꤢꤦꤢꤦ꤭": 1751,
      "ꤕꤢ꤬ꤒꤥ꤬ꤟꤣꤧ": 1752,
      "ꤒꤣꤧ꤬ꤗꤥ꤭ꤒꤣꤧ꤬ꤊꤢꤩ꤬": 1753,
      "ꤘꤣꤧꤜꤢꤧ꤬ꤊꤢꤧ꤭": 1754,
      "ꤜ꤫ꤢꤩ꤬ꤢꤩ꤬ꤜ꤫ꤢꤩ꤬ꤥ꤭": 1755,
      "ꤒꤢꤩ꤬ꤋꤤꤒꤢꤩ꤬ꤜꤢꤪ꤬": 1756,
      "ꤜꤣꤧ꤭": 1757,
      "ꤟꤢ": 1758,
      "ꤠꤣ": 1759,
      "ꤢ꤬ꤏꤢꤪ꤭": 1760,
      "ꤥ꤬ꤊꤢꤨ": 1761,
      "ꤥ꤬ꤊꤣꤧ꤭ꤘꤢꤦ꤬": 1762,
      "ꤒꤣꤧ꤬ꤙꤢꤩ": 1763,
      "ꤒꤢꤩ꤬ꤊꤝꤤ꤭ꤡꤢꤪꤙꤢꤩ꤭": 1764,
      "ꤞꤤ꤭ꤥ꤬": 1765,
      "ꤖꤚꤢꤩ꤬ꤡꤢꤩ꤬": 1766,
      "ꤖꤚꤢꤩ꤬ꤥ꤬ꤕ꤫ꤢꤪ꤬": 1767,
      "ꤒꤣ꤬ꤗ꤫ꤥ꤬": 1768,
      "ꤗꤢꤩ꤬ꤜꤣ": 1769,
      "ꤗꤢꤩ꤬ꤕꤛꤢ": 1770,
      "ꤊꤣꤧ꤬ꤛꤥ꤭": 1771,
      "ꤊꤣꤧ꤬ꤔꤥ": 1772,
      "ꤒꤥ꤬ꤙꤢꤩ꤬": 1773,
      "ꤙꤢꤩ꤬ꤛꤢꤪ꤬": 1774,
      "ꤜꤢꤨ꤭ꤞꤤꤕꤜꤢꤪ꤬": 1775,
      "ꤜꤢꤨ꤭ꤗꤝꤤ꤭": 1776,
      "ꤒꤣ꤬ꤖꤚꤢꤩ꤬ꤟꤣꤧ": 1777,
      "ꤋꤢꤨ꤭ꤜꤢ꤬": 1778,
      "ꤘꤣꤧꤥ꤭": 1779,
      "ꤔꤢꤪ꤭ꤏꤝꤢ꤬": 1780,
      "ꤗꤢꤧꤓ꤫ꤣꤧ꤬ꤙꤢꤩ꤬": 1781,
      "ꤛꤢ꤬ꤏꤛꤢ": 1782,
      "ꤔꤥ꤭ꤔ꤫ꤤ꤬": 1783,
      "ꤘꤢꤧꤔ꤫ꤤ꤬": 1784,
      "ꤒꤢꤦꤚꤣꤧ꤬": 1785,
      "ꤚꤢ꤭ꤒꤢꤩ꤭": 1786,
      "ꤒꤣꤧ꤬ꤟꤢꤩ꤬ꤟꤢꤩ꤬ꤚꤣꤧ꤬": 1787,
      "ꤘꤢꤪ꤭ꤊꤢꤨ꤭": 1788,
      "ꤞꤥ꤭ꤞꤝꤢꤒꤣ꤬ꤗꤢꤩ꤭": 1789,
      "ꤞꤝꤤ꤬ꤓꤣꤧ꤭": 1790,
      "ꤞꤢꤨꤕꤜꤣꤧ꤬": 1791,
      "ꤚꤢ꤭ꤗꤢꤚꤢ꤭ꤒꤢꤩ꤭": 1792,
      "ꤒꤢꤩ꤬ꤏꤝꤤꤒꤢꤩ꤬ꤏꤢꤩ꤭": 1793,
      "ꤠꤤ꤭ꤢ꤬ꤒꤤ꤬": 1794,
      "ꤏꤤ꤬ꤜꤥ": 1795,
      "ꤢ꤬ꤋꤝꤢꤢ꤬ꤊꤢꤩ꤬": 1796,
      "ꤠꤢꤧ꤭ꤚꤤ꤬ꤠꤢꤧ꤭ꤊꤢꤧ꤭": 1797,
      "ꤒꤣꤧ꤬ꤙꤢꤩꤞꤤꤖꤚꤢ": 1798,
      "ꤛꤢ꤬ꤏꤛꤢꤛꤢ꤬": 1799,
      "ꤋꤝꤢ꤬": 1800,
      "ꤘꤝꤢ꤭": 1801,
      "ꤙꤢꤪ꤭": 1802,
      "ꤚꤝꤢ": 1803,
      "ꤛꤢꤨ꤬": 1804,
      "ꤢꤩꤖꤢꤩ": 1805,
      "ꤢ꤬ꤕꤜꤢꤪ": 1806,
      "ꤢ꤬ꤏꤝꤢ꤬": 1807,
      "ꤒꤣꤧ꤬ꤍ": 1808,
      "ꤒꤢꤩ꤬ꤒꤣ꤬ꤡꤣ꤬ꤡꤢꤦ꤭": 1809,
      "ꤖꤚꤢꤩ꤬ꤊꤢꤩ꤭": 1810,
      "ꤡꤢꤪꤙꤢꤨ꤬": 1811,
      "ꤊꤣꤧ꤬ꤘꤝꤤ": 1812,
      "ꤟꤢꤨꤣꤧ꤭ꤔꤣꤧ꤬ꤗꤢ꤬": 1813,
      "ꤕꤢꤩ꤬ꤚꤢ꤬": 1814,
      "ꤓꤢꤧ꤬ꤙꤢ꤭ꤓꤢꤧ꤬": 1815,
      "ꤒꤢ꤭ꤙꤢꤩ꤬": 1816,
      "ꤒꤢ꤭ꤟꤢꤧ꤭ꤑꤢꤩ꤭": 1817,
      "ꤠꤤ꤭ꤔꤢ꤬ꤎꤢ꤬ꤚꤢꤧ": 1818,
      "ꤍ꤫ꤥ꤬ꤖꤚꤢ꤬ꤓꤢꤧ꤬": 1819,
      "ꤊꤢꤨꤜꤢꤩ꤬ꤊꤥ꤬": 1820,
      "ꤗꤢꤧꤓ꤫ꤣꤧ꤬ꤟꤣꤧ": 1821,
      "ꤊꤢ꤬ꤒ꤫ꤥ꤬": 1822,
      "ꤟꤥ꤭ꤗꤢꤦ꤬": 1823,
      "ꤕ꤫ꤥ꤬ꤖꤚꤢꤩ꤬ꤋꤢꤨ꤭": 1824,
      "ꤏꤢꤜ꤫ꤢꤩ꤬": 1825,
      "ꤗ꤫ꤥ꤬ꤗꤢ꤬ꤚꤤ": 1826,
      "ꤒꤣ꤬ꤖꤚꤢꤩ꤬ꤖꤚꤢꤩ꤬ꤔꤣꤧ꤬": 1827,
      "ꤎꤢ꤬ꤘ": 1828,
      "ꤒꤣꤧ꤬ꤘꤢꤦ꤬ꤕꤢ꤬": 1829,
      "ꤒꤣꤧ꤬ꤊꤜꤤ꤬": 1830,
      "ꤜꤢꤩ꤬ꤠꤤ": 1831,
      "ꤞꤤꤓꤢꤩ꤬ꤞꤤꤟꤢ꤭": 1832,
      "ꤡꤢꤩ꤭ꤗꤢꤧ": 1833,
      "ꤢ꤬ꤓꤣꤧ꤭ꤢ꤬ꤊ꤫ꤢꤩ꤬ꤊꤢꤨ꤭": 1834,
      "ꤏꤛꤢ꤬ꤗꤢ꤬ꤚꤤ": 1835,
      "ꤗꤢꤩ꤬ꤜꤣꤗꤢꤩ꤬": 1836,
      "ꤠꤤ꤭ꤢ꤬ꤒꤤ꤬ꤢꤪ꤬": 1837,
      "ꤢꤩꤖꤢꤩꤎꤢꤨ꤬": 1838,
      "ꤢ꤬ꤕꤜꤢꤪꤢ꤬ꤗꤢꤨ꤬": 1839,
      "ꤢ꤬ꤏꤝꤢ꤬ꤢ꤬ꤏꤢꤪ꤭": 1840,
      "ꤡꤢꤪꤙꤢꤨ꤬ꤡꤢꤪꤙꤢꤩ꤭ꤓꤢꤧ꤬": 1841,
      "ꤎꤢ꤬ꤚꤢꤨ": 1842,
      "ꤓꤢꤦ": 1843,
      "ꤢ꤬ꤡꤢ꤬": 1844,
      "ꤢꤪꤜꤤ": 1845,
      "ꤒꤣꤧ꤬ꤗꤝꤤ꤭": 1846,
      "ꤢꤦ꤬ꤢ꤬ꤋꤚ": 1847,
      "ꤒꤢꤩ꤬ꤞꤤꤕꤜꤢꤪ꤬": 1848,
      "ꤒꤢꤩ꤬ꤓꤝꤢ꤭ꤓꤢꤧ꤬": 1849,
      "ꤒꤢꤩ꤬ꤢꤩꤜꤢ꤬ꤢꤩꤕꤜꤢꤩ": 1850,
      "ꤒꤢꤩ꤬ꤒꤣꤧ꤬ꤡꤣꤧꤒꤣꤧ꤬ꤡ꤫ꤢꤨ꤬": 1851,
      "ꤖꤚꤢꤩ꤬ꤡꤢꤧ꤬ꤒꤥ꤭ꤙꤢꤩ꤬ꤒꤢꤩ꤬": 1852,
      "ꤤ꤬ꤏꤢꤪ꤭": 1853,
      "ꤟꤢꤩꤊꤢꤧ꤭": 1854,
      "ꤗꤢꤩ꤬ꤜꤢꤨ꤭": 1855,
      "ꤗꤢꤩ꤬ꤏꤢꤩ꤭": 1856,
      "ꤓꤢꤧ꤬ꤟꤣꤧ": 1857,
      "ꤡꤝꤢꤖꤛꤢ": 1858,
      "ꤊꤣꤧ꤭ꤜꤢꤪ꤭": 1859,
      "ꤓꤥ꤭ꤕꤢ꤭": 1860,
      "ꤋꤚꤢꤪ꤭": 1861,
      "ꤘꤣꤧꤚꤢꤩ꤭": 1862,
      "ꤟꤢꤨꤔꤣꤧ꤬ꤗꤢ꤬": 1863,
      "ꤋꤢꤧ꤭ꤢꤩ꤬": 1864,
      "ꤔ꤫ꤢꤩ꤬ꤙꤢꤧ꤬ꤡꤢꤩ꤬": 1865,
      "ꤘꤢꤧ꤬ꤓꤢꤧ꤬ꤜꤥ꤭": 1866,
      "ꤖꤢꤩ꤭ꤡꤛ": 1867,
      "ꤗꤢꤧꤓ꤫ꤣꤧ꤬ꤜꤝꤢ": 1868,
      "ꤜꤣꤓꤢꤧ꤬ꤙꤢ꤭ꤓꤢꤧ꤬": 1869,
      "ꤊꤢꤨ꤬ꤜꤢ꤭": 1870,
      "ꤖꤛꤢꤟꤢꤧ꤭": 1871,
      "ꤖꤛꤢꤡꤝ꤫ꤢ꤬": 1872,
      "ꤜꤤ꤬ꤣꤧ꤭ꤒꤣ꤬ꤙꤢ꤬": 1873,
      "ꤣꤧ꤭ꤒꤣ꤬ꤗꤢꤦ꤭": 1874,
      "ꤕꤣꤚꤣꤧ": 1875,
      "ꤢ꤬ꤟꤤ꤬ꤊꤢꤨ꤭": 1876,
      "ꤒꤤ꤬ꤠꤢꤩ꤬": 1877,
      "ꤞꤥ꤬ꤓꤣꤧ꤭": 1878,
      "ꤢ꤬ꤋꤚꤢꤦ꤬ꤢ꤬ꤋꤚ": 1879,
      "ꤙꤥꤊꤢꤨ꤬ꤜꤢ꤭": 1880,
      "ꤜ꤫ꤢ꤬ꤒꤣꤧ꤬ꤊꤜꤤ꤬": 1881,
      "ꤋꤢꤨ꤭ꤎꤢ꤬ꤒꤤ꤬ꤠꤢꤩ꤬": 1882,
      "ꤠꤣꤒꤢ꤭": 1883,
      "ꤋꤢꤨ꤭ꤜꤢ꤬ꤎꤢ꤬ꤚꤢꤨ": 1884,
      "ꤒꤣꤧ꤬ꤍꤢ꤭": 1885,
      "ꤢ꤬ꤋꤚꤢꤦ꤬ꤢ꤬ꤋꤚ꤫ꤢꤪ꤬": 1886,
      "ꤊꤢ": 1887,
      "ꤊꤤ꤬": 1888,
      "ꤋꤢꤪ꤭": 1889,
      "ꤒꤢꤩ": 1890,
      "ꤙꤤ꤬": 1891,
      "ꤞꤢ꤬ꤞꤢꤩ꤭": 1892,
      "ꤢ꤫ꤢ꤬": 1893,
      "ꤢꤎꤢꤧ": 1894,
      "ꤢ꤬ꤊꤢ꤬": 1895,
      "ꤢ꤬ꤒꤣꤧ꤬ꤘꤢꤦ꤬": 1896,
      "ꤥ꤬ꤟꤣꤧ": 1897,
      "ꤞꤤꤞꤥ꤭": 1898,
      "ꤔꤣꤧ꤬ꤙꤢꤩ꤬ꤙꤢꤩ꤬": 1899,
      "ꤒꤣꤧ꤬ꤕꤜꤢꤪ꤬": 1900,
      "ꤒꤢꤩ꤬ꤗꤢꤨꤗ꤫ꤢꤧ꤬": 1901,
      "ꤒꤣ꤬ꤕꤜꤢꤪ꤬": 1902,
      "ꤟꤢꤩꤜꤢꤧ꤬": 1903,
      "ꤗꤢꤩ꤬ꤊꤣꤧ꤭": 1904,
      "ꤗꤢꤩ꤬ꤏꤤ": 1905,
      "ꤠꤢꤧ꤭ꤊꤢꤨ꤭": 1906,
      "ꤖꤢꤧꤔꤣꤧ꤬": 1907,
      "ꤕꤜꤢꤧ꤬": 1908,
      "ꤞꤢꤧꤜꤢꤨ꤭": 1909,
      "ꤗ꤫ꤢ꤬ꤟꤢꤧ꤭": 1910,
      "ꤜꤣꤧ꤬ꤘꤢꤧ": 1911,
      "ꤜꤣꤧ꤬ꤛꤢꤪ꤬": 1912,
      "ꤒꤣꤧ꤬ꤚꤣꤧ꤭ꤘꤢꤨ꤬": 1913,
      "ꤙꤢꤩꤚꤢꤩ꤭": 1914,
      "ꤘꤢ꤬ꤊ꤫ꤢꤩ꤬": 1915,
      "ꤘꤢꤪꤥ": 1916,
      "ꤏꤥ꤬ꤋꤢꤨ꤬": 1917,
      "ꤕꤣꤧ꤬ꤒꤤꤜꤣ": 1918,
      "ꤏꤤ꤭ꤙꤢ꤬": 1919,
      "ꤗꤢꤦ꤭ꤞꤣꤧ꤭ꤓꤢꤧ꤬ꤊꤢꤧ꤭": 1920,
      "ꤊꤢꤦ꤭ꤞꤢꤧꤓꤢꤧ꤬": 1921,
      "ꤊꤜꤣꤧ꤭ꤒꤣ꤬ꤚꤤ": 1922,
      "ꤊꤢ꤬ꤏꤥ꤭ꤘꤢꤧ꤬": 1923,
      "ꤕꤣꤧ꤬ꤒꤢ": 1924,
      "ꤥ꤬ꤜꤣꤥ꤬ꤊꤜꤢꤪ꤭": 1925,
      "ꤘꤣꤧꤚꤢꤪ꤬ꤘꤣꤧꤚꤢꤩ꤭": 1926,
      "ꤒꤣꤧ꤬ꤕꤜꤢꤪ꤬ꤜꤣꤧ꤬ꤛꤢꤪ꤬": 1927,
      "ꤗꤢꤩ꤬ꤏꤤꤛꤢ꤬": 1928,
      "ꤏꤢꤧ": 1929,
      "ꤓꤝꤤ꤬": 1930,
      "ꤜꤢꤧ": 1931,
      "ꤜꤢ꤬ꤋ": 1932,
      "ꤡ꤫ꤢꤨ꤬": 1933,
      "ꤢꤩ꤬ꤟꤤ": 1934,
      "ꤢꤧꤒꤢꤩ꤬": 1935,
      "ꤢꤧꤡꤢꤪ": 1936,
      "ꤥ꤬ꤖꤢꤧ": 1937,
      "ꤞꤤꤒꤣꤧ꤬": 1938,
      "ꤒꤢꤩ꤬ꤒꤣ꤬ꤡꤣ꤬": 1939,
      "ꤒꤢꤩ꤬ꤒꤣꤧ꤬ꤚꤣꤧ꤭ꤏꤝꤢ꤬ꤏꤢꤪ꤭": 1940,
      "ꤖꤚꤢꤩ꤬ꤊꤝꤤ꤭": 1941,
      "ꤗꤢꤩ꤬ꤘꤤꤘꤢꤧ꤭": 1942,
      "ꤖꤢꤨꤞꤢꤩ꤬": 1943,
      "ꤡꤝꤢꤒꤥ꤭": 1944,
      "ꤕꤜ꤫ꤢꤧ꤬": 1945,
      "ꤒꤢꤩ꤭ꤔꤣꤧ꤬": 1946,
      "ꤗ꤫ꤢ꤬ꤘꤣ": 1947,
      "ꤓꤝꤢ꤭ꤘꤢꤨ꤬": 1948,
      "ꤞꤤꤕꤜꤢꤪ꤬ꤗꤥ꤬": 1949,
      "ꤞꤤꤕꤜꤢꤪ꤬ꤞꤣꤧ꤭ꤖꤚꤢꤩ꤬": 1950,
      "ꤖꤢꤩ꤭ꤛꤢ꤬ꤊꤥ꤬": 1951,
      "ꤒ꤫ꤥ꤬ꤊꤢꤨꤔ꤫ꤢꤧ꤬": 1952,
      "ꤜ꤫ꤢꤩ꤬ꤋꤢꤧ꤬": 1953,
      "ꤖꤛꤢꤘꤝꤢ": 1954,
      "ꤜꤢꤨ꤬ꤖꤚꤥ": 1955,
      "ꤖꤚꤢꤩ꤬ꤗꤢꤪ꤬ꤖꤢꤨꤡ꤫ꤢꤩ꤬ꤟꤢꤨ": 1956,
      "ꤋꤝꤤꤘꤢ꤬ꤠꤤ꤬": 1957,
      "ꤘꤣꤧꤜꤥ꤭ꤓꤢꤧ꤬": 1958,
      "ꤕ꤫ꤢꤦ꤬ꤔ꤫ꤤ꤬": 1959,
      "ꤘꤤ꤭ꤚ꤫ꤢꤩ꤬": 1960,
      "ꤞꤥ꤭ꤞꤝꤢꤒꤣ꤬": 1961,
      "ꤋꤥ꤭ꤙꤢꤧꤞꤝꤢꤗꤥ꤬": 1962,
      "ꤤ꤬ꤒꤢꤩ꤭ꤔꤣꤧ꤬": 1963,
      "ꤢꤩ꤬ꤟꤥ꤬ꤢꤩ꤬ꤟꤤ": 1964,
      "ꤛꤢꤨ꤬ꤘꤢ꤬ꤊ꤫ꤢꤩ꤬": 1965,
      "ꤘꤢꤪꤥꤘꤢꤪ": 1966,
      "ꤢꤧꤡꤢꤪꤢꤧꤒꤢꤩ꤬": 1967,
      "ꤏꤢꤩ": 1968,
      "ꤔꤢꤨ": 1969,
      "ꤕꤤ꤭": 1970,
      "ꤚꤢꤪ": 1971,
      "ꤢꤩꤔ꤫ꤤ꤬": 1972,
      "ꤢ꤬ꤊꤜꤥ꤭": 1973,
      "ꤢ꤬ꤒꤝ꤫ꤢ꤬": 1974,
      "ꤥ꤬ꤕꤜꤢꤨ꤬": 1975,
      "ꤒꤢꤩ꤬ꤒꤝ꤫ꤢ꤬": 1976,
      "ꤖꤚꤢꤦ": 1977,
      "ꤗꤢꤩ꤬ꤒꤢ꤭ꤒꤢꤦ꤭": 1978,
      "ꤢ꤬ꤋꤢꤩ꤬": 1979,
      "ꤙꤢꤩ꤬ꤞꤢ꤬": 1980,
      "ꤊꤣꤧ꤬ꤛꤢꤧ꤭ꤗꤢꤨꤗ꤫ꤢꤧ꤬": 1981,
      "ꤜꤢꤨ꤭ꤒꤢꤩ꤬ꤞꤢꤦ": 1982,
      "ꤒꤣ꤬ꤖꤚꤢꤩ꤬ꤡꤢꤦ꤭": 1983,
      "ꤟꤢꤧ꤭ꤙꤢꤩ꤬": 1984,
      "ꤜꤢꤪ꤭ꤜ꤫ꤢ꤬ꤒꤣꤧ꤬ꤊꤜꤤ꤬": 1985,
      "ꤡꤝꤢꤓꤢꤧ꤬": 1986,
      "ꤡꤝꤢꤗꤢꤧꤓ꤫ꤣꤧ꤬": 1987,
      "ꤋꤢꤨ꤭ꤒꤤ": 1988,
      "ꤕ꤫ꤢꤩ꤬ꤜꤢꤪ꤭": 1989,
      "ꤕꤜꤢꤧ": 1990,
      "ꤔ꤫ꤤ꤬ꤙꤝꤤ": 1991,
      "ꤢ꤬ꤚꤣ꤬": 1992,
      "ꤟꤢꤩꤏꤥ꤭": 1993,
      "ꤒꤥ꤭ꤗꤢ": 1994,
      "ꤥ꤬ꤔꤢ": 1995,
      "ꤠꤤ꤭ꤊꤢꤧ": 1996,
      "ꤖꤢꤩ꤭ꤢ꤬": 1997,
      "ꤊꤢ꤬ꤘ": 1998,
      "ꤟꤢꤩꤙꤢꤩ꤬ꤓꤢꤨ꤬ꤞꤢꤩ": 1999,
      "ꤞꤥ꤭ꤖꤥ": 2000,
      "ꤙꤢꤧꤒꤢ꤭": 2001,
      "ꤟꤢꤨꤒꤢꤩ꤭ꤒꤢꤩ꤭": 2002,
      "ꤢ꤬ꤚꤥ꤬ꤒꤣꤧ꤬ꤟꤢꤩ꤬": 2003,
      "ꤏꤥ꤭ꤘꤥ꤭": 2004,
      "ꤔꤣꤧ꤬ꤒꤣ꤬ꤙꤢ꤬": 2005,
      "ꤚ꤫ꤥ꤬ꤜꤢꤪ꤭": 2006,
      "ꤒꤣ꤬ꤖꤥ꤬ꤔꤣꤧ꤬": 2007,
      "ꤗꤢꤧꤕꤢꤨ꤭ꤞꤤꤑꤢꤩ꤭": 2008,
      "ꤊꤜꤢꤧ꤭ꤗꤢꤩ꤭": 2009,
      "ꤞꤢꤚꤢꤘꤢꤨ꤬": 2010,
      "ꤖꤚꤢꤩ꤬ꤗꤢꤩ꤬ꤜꤣꤧ꤬ꤕꤜꤢꤩꤊꤢ꤬": 2011,
      "ꤗꤢꤩ꤬ꤒꤢꤩ꤬ꤚꤢꤧ": 2012,
      "ꤛ꤫ꤢꤦ꤬ꤢꤩ꤬ꤔ꤫ꤢꤧ꤬ꤢꤩ꤬ꤒꤢꤩ꤬": 2013,
      "ꤎꤢ꤬ꤚꤤ": 2014,
      "ꤡꤝꤢꤥ꤬ꤜꤢꤩ꤭": 2015,
      "ꤢ꤬ꤊꤜꤢꤧꤢ꤬ꤊꤜꤥ꤭": 2016,
      "ꤖꤚꤢꤪ꤬ꤊꤢꤧ꤭": 2017,
      "ꤤ꤬ꤛꤢꤨ꤭ꤜꤥ꤭": 2018,
      "ꤢꤪꤜꤤꤠꤢ꤬": 2019,
      "ꤘꤢꤪꤥꤘꤢꤪꤙꤤ": 2020,
      "ꤠꤤ꤭ꤊꤢꤧꤎꤢ꤬ꤚꤤ": 2021,
      "ꤕꤢꤩ": 2022,
      "ꤗꤟꤌꤣ": 2023,
      "ꤘꤤ꤬": 2024,
      "ꤚ꤫ꤢꤨ꤬": 2025,
      "ꤛꤢꤦ꤬": 2026,
      "ꤞꤣ꤬": 2027,
      "ꤞꤝꤢꤩ": 2028,
      "ꤟꤢꤧ": 2029,
      "ꤡꤛꤢꤪ꤬": 2030,
      "ꤢꤩ꤬ꤒ꤫ꤣ꤬": 2031,
      "ꤢꤧꤘꤥ꤬": 2032,
      "ꤢ꤬ꤑꤢ꤭": 2033,
      "ꤢ꤬ꤊꤜꤣꤧ꤭ꤟꤢꤨ": 2034,
      "ꤢ꤬ꤏꤛꤢ": 2035,
      "ꤒꤢꤩ꤬ꤘꤢꤧ꤬": 2036,
      "ꤒꤢꤩ꤬ꤘꤥ꤬ꤔꤢꤧ꤭": 2037,
      "ꤖꤚꤢꤩ꤬ꤞꤤ": 2038,
      "ꤟꤢꤩꤓꤥ꤭ꤟꤣꤧ": 2039,
      "ꤗꤢꤩ꤬ꤗꤢꤧ": 2040,
      "ꤢꤨ꤬ꤜꤥ꤬": 2041,
      "ꤢ꤬ꤋꤢꤧꤘꤥ꤬": 2042,
      "ꤛꤢꤩ꤬ꤞꤤ꤭ꤑꤢꤩ꤭": 2043,
      "ꤊꤣꤧ꤬ꤛꤢꤧ꤭ꤚꤤ꤬ꤡ꤫ꤢꤧ꤬": 2044,
      "ꤊꤣꤧ꤬ꤛꤢꤧ꤭ꤏꤝꤤ": 2045,
      "ꤜꤢꤨ꤭ꤑꤢꤩ꤭": 2046,
      "ꤜꤢꤨ꤭ꤊꤢꤨ꤭": 2047,
      "ꤔꤢꤧ꤬ꤥ꤬": 2048,
      "ꤕꤢ꤭ꤒꤢꤦ꤭": 2049,
      "ꤊꤣꤧ꤭ꤟꤣꤧ": 2050,
      "ꤚꤣꤧꤊꤣꤧ꤭": 2051,
      "ꤔ꤫ꤤ꤬ꤒꤣꤧ꤬ꤚꤣꤧ꤭": 2052,
      "ꤗ꤫ꤢ꤬ꤖꤢꤧ": 2053,
      "ꤒꤣꤧ꤬ꤟꤢꤩ꤬ꤔꤣꤧ꤬ꤗꤢ꤬": 2054,
      "ꤠꤤ꤭ꤢꤩꤖꤢꤩꤎꤢꤨ꤬": 2055,
      "ꤘꤢꤧ꤬ꤓꤢꤨ꤭": 2056,
      "ꤔꤣꤧ꤭ꤔꤣꤧ꤭": 2057,
      "ꤜ꤫ꤢꤩ꤬ꤘꤢꤧ꤬": 2058,
      "ꤏꤢꤏꤢꤦ꤬": 2059,
      "ꤟꤤ꤬ꤊꤢꤨ꤭": 2060,
      "ꤟꤢꤩ꤬ꤋꤢꤨ꤬ꤏꤤ꤭ꤙꤢ꤬": 2061,
      "ꤞꤢꤪ꤬ꤏꤢꤧ": 2062,
      "ꤡꤝ꤫ꤢꤩ꤬": 2063,
      "ꤜꤤ꤭ꤒꤣꤧ꤬ꤋꤢꤩ꤭": 2064,
      "ꤔꤣꤧ꤬ꤒꤣ꤬ꤙꤥ꤭": 2065,
      "ꤕ꤫ꤢꤦ꤬ꤖꤢꤩ꤬": 2066,
      "ꤜ꤫ꤢꤩ꤬ꤥ꤬ꤊꤥ": 2067,
      "ꤒꤣꤧ꤬ꤊꤢꤪ꤭": 2068,
      "ꤠꤢꤩ꤬ꤎꤢ꤬ꤒꤢꤨ": 2069,
      "ꤢꤩꤓꤥ꤭ꤢꤩꤗꤥ꤬": 2070,
      "ꤒꤢꤩ꤬ꤒꤣꤧ꤬ꤔꤢꤩ꤬ꤥ꤬ꤔꤢꤩ꤬": 2071,
      "ꤏꤢ꤭ꤖꤚ꤫ꤢꤩ꤬": 2072,
      "ꤟꤢꤩꤙꤝꤤꤟꤢꤩꤒꤣꤧ꤬ꤚꤣꤧ꤭ꤓꤢꤧ꤬": 2073,
      "ꤜ꤫ꤢꤩ꤬ꤊꤜꤥ꤭ꤜ꤫ꤢꤩ꤬ꤋꤢꤧ꤬": 2074,
      "ꤒꤣꤧ꤬ꤊꤢꤩ꤬ꤙꤤ": 2075,
      "ꤎꤢ꤬ꤕꤛꤤꤓꤣꤧ꤭": 2076,
      "ꤋꤝꤢꤩ": 2077,
      "ꤒꤢꤩ꤬ꤜꤢꤨ꤭ꤚ꤫ꤢꤩ꤬": 2078,
      "ꤒꤢ꤭ꤒꤥ꤭ꤒꤢ꤭ꤙꤢꤩ꤬": 2079,
      "ꤊꤣꤧ꤬ꤘꤝꤤꤗ꤫ꤢꤪ꤬": 2080,
      "ꤞꤤꤒꤣꤧ꤬ꤋꤥ꤭": 2081,
      "ꤖꤚꤢꤩ꤬ꤊꤝꤤ꤭ꤢ꤬ꤗꤢꤨ꤬ꤢ꤬ꤚꤢ": 2082,
      "ꤒꤢꤩ꤬ꤒꤝ꤫ꤢ꤬ꤒꤢꤩ꤬ꤚꤢꤧ": 2083,
      "ꤊꤤ": 2084,
      "ꤒ꤫ꤢꤨ꤬": 2085,
      "ꤓꤢꤧ꤭": 2086,
      "ꤕꤢꤪ": 2087,
      "ꤛ꤫ꤤ꤬": 2088,
      "꤮!": 2089,
      "ꤢꤩꤓꤢꤩ꤬": 2090,
      "ꤢꤩ꤬ꤒꤢꤩ꤬": 2091,
      "ꤢꤩ꤬ꤗꤢꤦ꤬": 2092,
      "ꤢ꤬ꤛꤢ꤬": 2093,
      "ꤢ꤬ꤖꤢꤧ꤭": 2094,
      "ꤥ꤬ꤗꤥ꤬": 2095,
      "ꤞꤤꤢꤩ꤬": 2096,
      "ꤔꤢꤧꤒꤥ꤬": 2097,
      "ꤒꤢꤩ꤬ꤕꤣꤧ꤬ꤜꤢ꤭": 2098,
      "ꤞꤤ꤭ꤔꤣꤧ꤬": 2099,
      "ꤖꤚꤢꤩ꤬ꤋꤢꤧ꤭ꤢꤩ꤬": 2100,
      "ꤤ꤬ꤒꤢ꤭": 2101,
      "ꤠꤢꤧ꤭ꤟꤢꤩ": 2102,
      "ꤕꤢꤩ꤬ꤖꤥ꤭": 2103,
      "ꤜꤢꤪ꤭ꤘꤢꤦ꤬": 2104,
      "ꤕ꤫ꤢꤩ꤬ꤘꤢꤦ꤬": 2105,
      "ꤋꤚꤢꤩ꤭": 2106,
      "ꤋꤚ꤫ꤢꤪ꤬": 2107,
      "ꤘꤣꤧꤊꤢꤧ꤭": 2108,
      "ꤘꤣꤧꤓꤝꤢ꤭ꤓꤢꤧ꤬": 2109,
      "ꤣꤧ꤭ꤔꤣꤧ꤬ꤚꤣꤧ꤬": 2110,
      "ꤜꤥ꤭ꤊ꤫ꤢꤩ꤬": 2111,
      "ꤞꤤꤑꤢꤩ꤭ꤒꤥ꤬": 2112,
      "ꤢ꤬ꤜꤤ꤭": 2113,
      "ꤞꤤꤕꤜꤢꤪ꤬ꤕꤛꤢ": 2114,
      "ꤞꤤꤕꤜꤢꤪ꤬ꤞꤥ꤬ꤓꤣꤧ꤭": 2115,
      "ꤜꤣꤧ꤬ꤡ꤫ꤢꤨ꤬": 2116,
      "ꤓꤣꤧ꤭ꤔꤥ꤬ꤗꤢꤦ": 2117,
      "ꤋꤢꤩ꤭ꤔꤣꤧ꤬": 2118,
      "ꤗ꤫ꤢꤪ꤬ꤞꤤ꤭ꤊꤜꤢꤩ꤭": 2119,
      "ꤡꤢ꤭ꤋꤢꤧ": 2120,
      "ꤋꤢꤧꤡꤢ꤭ꤋꤢꤧ": 2121,
      "ꤒꤣꤧ꤬ꤚꤣꤧ꤭ꤖꤚꤥ꤬ꤖꤚꤢꤧ꤬": 2122,
      "ꤞꤢꤪ꤬ꤞꤢꤩ꤬": 2123,
      "ꤋꤚꤝꤢ꤭ꤜꤢꤦ꤬": 2124,
      "ꤢ꤬ꤙꤢꤨ꤬ꤜꤥ꤬": 2125,
      "ꤘꤢꤧꤏꤥ꤬": 2126,
      "ꤘꤥ꤬ꤢꤩ꤬": 2127,
      "ꤗꤢꤩ꤬ꤡꤝ꤫ꤢ꤬ꤖꤛꤢꤡꤝ꤫ꤢ꤬": 2128,
      "ꤘꤢ꤬ꤗꤢ꤬": 2129,
      "ꤜꤝꤤ꤭ꤏꤣꤧ꤭": 2130,
      "ꤒꤣꤧ꤬ꤊꤤ꤬ꤟꤢꤨ": 2131,
      "ꤢꤩꤓꤢꤧ꤬ꤕ꤫ꤥ꤬": 2132,
      "ꤋꤢꤧꤘꤥ꤬ꤘꤢ": 2133,
      "ꤥ꤬ꤗꤣꤧ꤭ꤒꤣꤧ꤬ꤕꤢ꤬": 2134,
      "ꤒꤣ꤬ꤊ꤫ꤢꤩ꤬ꤜꤢꤩ꤭": 2135,
      "ꤗꤢꤩ꤬ꤕ꤫ꤢꤩ꤬ꤊꤢꤧ꤭": 2136,
      "ꤞꤤꤕꤜꤢꤩ꤭ꤞꤤꤛꤢꤪ꤬": 2137,
      "ꤥ꤬ꤚ꤫ꤥ꤬ꤥ꤬ꤢꤩ": 2138,
      "ꤜ꤫ꤢꤩ꤬ꤞꤢꤦ꤬ꤘꤢꤨ꤬": 2139,
      "ꤗ꤫ꤥ꤬ꤖꤢꤩ꤭ꤖꤣꤧ꤭ꤖꤥ꤭": 2140,
      "ꤟꤢꤟꤥ": 2141,
      "ꤋꤢꤨ꤭ꤒꤤꤒꤢꤨ": 2142,
      "ꤢꤩ꤬ꤗꤢꤦ꤬ꤥ꤭": 2143,
      "ꤋꤢꤧꤡꤢ꤭ꤋꤢꤧꤡꤢꤦ꤬": 2144,
      "ꤊꤢ꤬ꤋ": 2145,
      "ꤋꤣꤧ꤭": 2146,
      "ꤓꤢ꤬ꤊꤢ꤬": 2147,
      "ꤕꤢꤦ꤬": 2148,
      "ꤗꤝꤢ꤭": 2149,
      "ꤙꤢꤪ꤬": 2150,
      "ꤡꤤ": 2151,
      "ꤥꤕꤢ꤬": 2152,
      "ꤢ꤬ꤞꤢꤦ": 2153,
      "ꤢ꤬ꤊꤚꤤ": 2154,
      "ꤥ꤬ꤔꤣꤧ꤬": 2155,
      "ꤥ꤬ꤓꤝꤢ꤭ꤓꤢꤧ꤬": 2156,
      "ꤥ꤬ꤕ꤫ꤢ꤬": 2157,
      "ꤞꤤꤋꤝꤢꤩ": 2158,
      "ꤒꤢꤩ꤬ꤟꤢꤩꤏꤥ꤬ꤘꤥ꤬ꤔꤢꤧ꤭": 2159,
      "ꤒꤢꤩ꤬ꤕꤛꤢ": 2160,
      "ꤒꤢꤩ꤬ꤞꤤꤕꤜꤢꤪ꤬ꤘꤢꤨ꤬": 2161,
      "ꤒꤢꤩ꤬ꤔꤥ꤬ꤗꤢꤦ": 2162,
      "ꤒꤢꤩ꤬ꤜ꤫ꤢꤨ꤬": 2163,
      "ꤖꤚꤢꤧ": 2164,
      "ꤤ꤬ꤕꤜꤤ": 2165,
      "ꤒꤣ꤬ꤛꤢꤩ꤬": 2166,
      "ꤒꤣ꤬ꤋꤥ": 2167,
      "ꤟꤢꤩꤟꤢꤨꤔꤣꤧ꤬": 2168,
      "ꤗꤢꤩ꤬ꤟꤣꤧ": 2169,
      "ꤗꤢꤩ꤬ꤙꤢꤩ": 2170,
      "ꤗꤢꤩ꤬ꤜ꤫ꤢꤨ꤬": 2171,
      "ꤟꤣꤧꤟꤣꤧ": 2172,
      "ꤡꤢꤪꤒꤢꤩ꤬": 2173,
      "ꤊꤣꤧ꤬ꤜꤢꤨ": 2174,
      "ꤒꤥ꤬ꤔꤣꤧ꤬": 2175,
      "ꤊꤢꤧ꤭ꤟꤣꤧ": 2176,
      "ꤊꤢꤧ꤭ꤊꤢꤨ꤭": 2177,
      "ꤟꤢꤧ꤭ꤓꤢꤩ꤬": 2178,
      "ꤔꤢꤧ꤬ꤑꤢꤩ꤭": 2179,
      "ꤔꤢꤧ꤬ꤍ꤫ꤥ꤬": 2180,
      "ꤋꤚ꤫ꤤ꤬": 2181,
      "ꤊꤢꤨ꤭ꤔꤣꤧ꤬": 2182,
      "ꤘꤣꤧꤕ꤫ꤢꤩ꤬": 2183,
      "ꤟꤢꤨꤔꤣꤧ꤬ꤓꤥ꤭ꤚꤣꤧ꤬": 2184,
      "ꤞꤣꤧ꤭ꤡ꤫ꤢꤧ꤬": 2185,
      "ꤊꤢꤩ꤬ꤗ꤫ꤢ꤬ꤒꤥ꤬ꤚꤣꤧ꤬": 2186,
      "ꤠꤤ꤭ꤒꤢ꤭ꤊꤢꤧ꤭": 2187,
      "ꤠꤤ꤭ꤘꤢ꤬ꤗꤢ꤬": 2188,
      "ꤔꤢꤪ꤭ꤞꤤꤑꤢꤩ꤭": 2189,
      "ꤔꤣꤧ꤭ꤙꤢꤩ꤬": 2190,
      "ꤗꤢꤧꤓ꤫ꤣꤧ꤬ꤡ꤫ꤢꤧ꤬": 2191,
      "ꤊꤢ꤬ꤊꤣꤧ꤭": 2192,
      "ꤒ꤫ꤥ꤬ꤟꤣꤧ": 2193,
      "ꤜ꤫ꤢꤩ꤬ꤗꤣꤧ꤭": 2194,
      "ꤋꤢꤧꤜꤥ꤭": 2195,
      "ꤊꤢ꤬ꤋꤛꤢ꤭ꤒꤥ꤭": 2196,
      "ꤒꤣꤧ꤬ꤔꤢꤩ꤬ꤓꤢꤧ꤬": 2197,
      "ꤜꤢꤨ꤬ꤖꤚꤢꤧ꤭": 2198,
      "ꤋꤥꤜꤢꤨ꤭": 2199,
      "ꤤ꤬ꤎꤢ꤬ꤚꤢꤩꤜꤢ꤬": 2200,
      "ꤜꤢꤦ꤬ꤋꤚꤝꤢ꤭": 2201,
      "ꤕ꤫ꤢꤧ꤬ꤗꤢꤩ꤬ꤏꤢꤩ꤭": 2202,
      "ꤎꤢ꤬ꤕꤛꤤꤖꤢꤩ꤬": 2203,
      "ꤘꤢꤧ꤬ꤘꤢꤨ꤬ꤘꤢꤧ꤬ꤓꤢꤨ꤭": 2204,
      "ꤞꤤꤜꤢꤩ꤬ꤓꤢꤧ꤬ꤚꤣꤧ": 2205,
      "ꤊꤜꤣꤧ꤭ꤒꤣ꤬ꤛꤢꤩ꤬": 2206,
      "ꤋꤚꤢꤦ꤬ꤋꤚ꤫ꤢꤪ꤬": 2207,
      "ꤤ꤬ꤡꤛꤤꤊ꤫ꤢꤩ꤬": 2208,
      "ꤠꤤ꤭ꤊꤢ꤬ꤕꤢꤩ꤬ꤚꤢ꤬": 2209,
      "ꤗꤢꤩ꤬ꤕꤛꤢꤗꤢꤩ꤬ꤜ꤫ꤢꤨ꤬": 2210,
      "ꤖꤢꤩ꤭ꤡꤛꤥꤎꤢꤧ": 2211,
      "ꤙꤤ꤬ꤊꤛꤢ꤭": 2212,
      "ꤜꤢ꤬ꤋꤤ": 2213,
      "ꤜꤢꤨ꤬ꤖꤚꤥꤜꤢꤨ꤬ꤖꤚꤢꤧ꤭": 2214,
      "ꤢꤩ꤬ꤒ꤫ꤣ꤬ꤥ꤭": 2215,
      "ꤢ꤬ꤊꤚꤤꤕꤢ꤬": 2216,
      "ꤒꤢꤩ꤬ꤕꤛꤢꤒꤢꤩ꤬ꤜ꤫ꤢꤨ꤬": 2217,
      "ꤠꤤ꤭ꤘꤢ꤬ꤗꤢ꤬ꤎꤢꤩ꤬": 2218,
      "ꤠꤤ꤭ꤊꤢ꤬ꤕꤢꤩ꤬ꤚꤢ꤬ꤔꤢꤪ꤬": 2219,
      "ꤍꤢ꤬": 2220,
      "ꤕꤛꤢ꤭": 2221,
      "ꤖꤢꤩꤖꤢꤨ": 2222,
      "ꤚꤢꤩ": 2223,
      "ꤛ꤫ꤢꤪ꤬": 2224,
      "ꤛꤢꤩꤕꤜꤢꤩ": 2225,
      "ꤞꤝꤤ": 2226,
      "ꤢꤩꤕꤜꤢꤪ": 2227,
      "ꤢꤩ꤬ꤊꤢꤪ": 2228,
      "ꤢ꤬ꤏꤢꤩ꤭": 2229,
      "ꤢ꤬ꤏꤝꤤ": 2230,
      "ꤥ꤬ꤞꤥ꤬": 2231,
      "ꤞꤤꤜꤝꤤ꤭": 2232,
      "ꤞꤤꤍꤢ꤬": 2233,
      "ꤔꤣꤧ꤬ꤒꤣꤧ꤬ꤟꤢꤩ꤬ꤔꤣꤧ꤬": 2234,
      "ꤢꤨ꤭ꤒꤢꤩ꤬": 2235,
      "ꤒꤢꤩ꤬ꤒꤢꤧ꤭": 2236,
      "ꤒꤢꤩ꤬ꤗꤥ꤬ꤚꤣꤧ": 2237,
      "ꤒꤢꤩ꤬ꤕꤜꤢ": 2238,
      "ꤖꤚꤢꤩ꤬ꤋꤢꤧꤟꤢꤩꤏꤥ꤬ꤜꤥ꤭ꤒꤢꤩ꤬": 2239,
      "ꤤ꤬ꤜ꤫ꤥ꤬": 2240,
      "ꤒꤣ꤬ꤊꤜꤢꤪ": 2241,
      "ꤒꤣ꤬ꤞꤢꤩ꤭": 2242,
      "ꤗꤢꤩ꤬ꤜꤥ꤭": 2243,
      "ꤗꤢꤩ꤬ꤜꤣꤙꤢ꤭": 2244,
      "ꤗꤢꤩ꤬ꤕꤝꤢꤩ꤬": 2245,
      "ꤗꤢꤩ꤬ꤕ꤫ꤢꤧ꤬ꤗꤢꤩ꤬ꤏꤢꤩ꤭": 2246,
      "ꤠꤢꤧ꤭ꤗꤝꤤ꤭": 2247,
      "ꤠꤢꤧ꤭ꤖꤢꤨꤖꤚꤢꤩ꤬ꤋꤢꤨ꤭": 2248,
      "ꤠꤢꤧ꤭ꤋꤝꤢ꤬": 2249,
      "ꤤ꤭ꤕꤣꤧ꤬ꤒꤢ": 2250,
      "ꤊꤣꤧ꤬ꤛꤢꤧ꤭ꤏꤢꤩ꤭": 2251,
      "ꤕꤢꤩ꤬ꤊꤢꤨ꤭": 2252,
      "ꤕꤢꤩ꤬ꤖꤣꤧ꤭": 2253,
      "ꤊꤢꤧ꤭ꤚꤢꤧ꤬": 2254,
      "ꤟꤢꤧ꤭ꤗꤢꤩ꤬": 2255,
      "ꤡꤝꤢꤚꤣꤧ": 2256,
      "ꤋꤢꤨ꤭ꤢꤧ꤬": 2257,
      "ꤊꤣꤧ꤭ꤕꤢ꤬": 2258,
      "ꤕ꤫ꤢꤩ꤬ꤚꤣꤧ": 2259,
      "ꤕꤜꤢꤦ꤭": 2260,
      "ꤟꤢꤨꤔꤣꤧ꤬ꤒꤥ꤬": 2261,
      "ꤟꤢꤨꤔꤣꤧ꤬ꤖꤢꤧ": 2262,
      "ꤒꤥ꤭ꤘꤢꤩ꤭": 2263,
      "ꤠꤤ꤭ꤔꤣꤧ꤬": 2264,
      "ꤔꤢꤪ꤭ꤟꤢꤩꤙꤢꤩ꤬": 2265,
      "ꤔꤢꤪ꤭ꤕꤣ": 2266,
      "ꤓꤢꤩ꤬ꤊꤜꤢꤧ꤬": 2267,
      "ꤕꤝꤢ꤭ꤒꤣ꤬ꤡꤣ꤬": 2268,
      "ꤛꤢ꤬ꤏꤢꤦ꤬": 2269,
      "ꤒꤣꤧ꤬ꤔꤢꤩ꤬ꤕꤜꤥ꤭": 2270,
      "ꤜꤢ꤬ꤗꤥ꤬": 2271,
      "ꤞꤥ꤭ꤜꤢꤩ꤭": 2272,
      "ꤣꤧ꤭ꤒꤣ꤬ꤙꤥ꤭": 2273,
      "ꤊꤜꤣꤧ꤭ꤊꤢꤨ꤬ꤊꤜꤢꤪ": 2274,
      "ꤜ꤫ꤥ꤬ꤘꤢꤨ꤬": 2275,
      "ꤒꤣꤧ꤬ꤖꤢ꤭ꤛꤢ꤬": 2276,
      "ꤊꤢꤧꤎꤢ꤬": 2277,
      "ꤋꤢꤨ꤭ꤡꤛꤥ꤬ꤔꤢ": 2278,
      "ꤥ꤬ꤊꤥꤊꤢꤧ꤭": 2279,
      "ꤒꤢꤩ꤬ꤜꤢꤨ꤭ꤒꤢꤩ꤬ꤒꤢꤧ꤭": 2280,
      "ꤋꤝꤢ꤬ꤋꤛꤢ꤭ꤚꤣꤧ꤬": 2281,
      "ꤊꤢ꤬ꤏꤥ꤭ꤗꤢꤩ꤭": 2282,
      "ꤕꤣꤧ꤬ꤒꤤ꤭ꤕꤣꤧ꤬ꤒꤢ": 2283,
      "ꤖꤢꤨꤖꤚꤢꤩ꤬ꤗꤢꤪ꤬ꤖꤢꤨꤖꤚꤢꤩ꤬ꤋꤢꤨ꤭": 2284,
      "ꤓꤥ꤭ꤕꤢ꤭ꤚꤣꤧ꤬": 2285,
      "ꤔ꤫ꤤ꤬ꤙꤝꤤꤔ꤫ꤤ꤬ꤒꤣꤧ꤬ꤚꤣꤧ꤭": 2286,
      "ꤖꤢꤩ꤭ꤢ꤬ꤘꤢ꤬": 2287,
      "ꤖꤚꤢꤩ꤬ꤞꤤꤖꤢꤩꤖꤢꤨ": 2288,
      "ꤕ꤫ꤢꤦ꤬ꤖꤢꤩ꤬ꤛꤢꤩꤕꤜꤢꤩ": 2289,
      "ꤊꤢ꤬ꤋꤛꤢ꤬ꤏꤢꤦ꤬": 2290,
      "ꤠꤢꤧ꤭ꤋꤝꤢ꤬ꤠꤢꤧ꤭ꤋꤛꤢ꤭": 2291,
      "ꤕꤢꤩ꤬ꤖꤣꤧ꤭ꤕꤢꤩ꤬ꤖꤥ꤭": 2292,
      "ꤋꤢ꤬ꤚꤣ꤬": 2293,
      "ꤓꤢ": 2294,
      "ꤙꤢ꤬ꤙꤢꤨ꤬ꤜꤥ꤬": 2295,
      "ꤚꤢ꤬ꤚꤢꤩ꤬": 2296,
      "ꤡꤢꤨ꤬": 2297,
      "ꤢ꤬ꤗ꤫ꤢꤧ꤬": 2298,
      "ꤥ꤬ꤒ꤫ꤢꤧ꤬": 2299,
      "ꤥ꤬ꤊꤢꤧ": 2300,
      "ꤥ꤬ꤑꤢ꤭": 2301,
      "ꤒꤣꤧ꤬ꤒ꤫ꤢꤪ꤬": 2302,
      "ꤥ꤭ꤙꤢ꤭": 2303,
      "ꤒꤣꤧ꤬ꤟꤢꤩ꤬ꤟꤣꤧ": 2304,
      "ꤟꤢꤩꤥ꤬": 2305,
      "ꤊꤣꤧ꤬ꤚꤢꤩ": 2306,
      "ꤡꤝꤢꤗꤢꤧ": 2307,
      "ꤊꤜꤝꤢ": 2308,
      "ꤊꤜꤢ꤬ꤙꤢꤩ꤬": 2309,
      "ꤋꤢꤨ꤭ꤔꤢ꤬": 2310,
      "ꤋꤢꤨ꤭ꤜꤢꤩ꤬ꤠꤤ": 2311,
      "ꤋꤚꤢꤩ꤬": 2312,
      "ꤟꤢꤨꤔꤣꤧ꤬ꤔꤣꤧ꤬": 2313,
      "ꤜꤥ꤭ꤕꤣꤧ꤬ꤏꤤ꤭": 2314,
      "ꤒꤢ꤭ꤕꤢꤩ꤭": 2315,
      "ꤒꤢ꤭ꤕꤢꤪ꤬": 2316,
      "ꤠꤤ꤭ꤣꤧ꤭": 2317,
      "ꤠꤤ꤭ꤘꤢꤨ꤬": 2318,
      "ꤘꤢꤧ꤬ꤕꤜꤢꤪ": 2319,
      "ꤘꤢꤧ꤬ꤒꤢꤩ꤬ꤞꤢꤦ": 2320,
      "ꤔꤢꤪ꤭ꤓꤝꤢ꤭": 2321,
      "ꤔꤣꤧ꤭ꤡꤣ꤬": 2322,
      "ꤓꤣꤧ꤭ꤊꤜꤥ꤭": 2323,
      "ꤟꤢꤩꤙꤢꤩ꤬ꤘꤥ꤬ꤔꤢꤧ꤭": 2324,
      "ꤊꤢꤨ꤬ꤊꤜꤢꤪꤖꤚꤣꤧ꤭": 2325,
      "ꤒꤢꤩ꤬ꤗꤢꤩ꤬ꤢ꤬ꤔ꤫ꤢꤩ꤬": 2326,
      "ꤒꤢꤩ꤬ꤞꤢꤦꤒꤢꤩ꤬ꤕꤜꤢ": 2327,
      "ꤚꤢꤧꤊꤢ꤬": 2328,
      "ꤢ꤬ꤊꤢꤧ꤭ꤊꤢꤨ꤭": 2329,
      "ꤒꤢꤩ꤬ꤞꤤꤖꤢꤩ": 2330,
      "ꤙꤢꤧꤕꤜꤤ꤭": 2331,
      "ꤔꤣꤧ꤬ꤒꤣ꤬ꤊꤛꤢ꤭": 2332,
      "ꤠ꤫ꤢꤧ꤬ꤖꤚ꤫ꤢꤩ꤬": 2333,
      "ꤗꤢꤗꤢꤩ꤬ꤒꤢꤩ꤭": 2334,
      "ꤒꤣꤧ꤬ꤕꤜꤢꤧ": 2335,
      "ꤥ꤬ꤕ꤫ꤢꤪ꤬ꤗꤢ꤬": 2336,
      "ꤑꤢ꤭ꤋꤚꤥ꤭": 2337,
      "ꤖꤢꤩꤓꤢꤧ꤬": 2338,
      "ꤒꤣꤧ꤬ꤕꤜꤢꤩ꤬ꤊꤢꤧ꤭": 2339,
      "ꤢ꤬ꤒꤥ꤭ꤢ꤬ꤙꤢꤩ꤬": 2340,
      "ꤊꤢꤧ꤭ꤏꤢꤊꤢꤧ꤭ꤚꤢꤧ꤬": 2341,
      "ꤜꤣꤧ꤬ꤒꤢ꤭ꤒꤥ꤭": 2342,
      "ꤕꤝꤤꤒꤣ꤬ꤕꤝꤤ": 2343,
      "ꤒꤣꤧ꤬ꤕꤜꤣ꤬ꤒꤣꤧ꤬ꤕꤜꤢꤧ": 2344,
      "ꤖꤛꤢꤡꤝꤢꤔ꤫ꤤ꤬": 2345,
      "ꤊꤣꤧ꤭ꤔꤢꤧꤊ꤫ꤢꤩ꤬": 2346,
      "ꤋꤢꤦ꤭ꤟꤢ꤭": 2347,
      "ꤊꤢꤩ꤬ꤟꤢꤩꤟꤢꤨꤔꤣꤧ꤬ꤚꤣꤧ꤬": 2348,
      "ꤒꤣ꤬ꤗ꤫ꤥ꤬ꤒꤣ꤬ꤊꤜꤢꤪ": 2349,
      "ꤞꤝꤤ꤬ꤓꤣꤧ꤭ꤖꤢꤛꤢ꤬": 2350,
      "ꤞꤢꤨꤕꤜꤣꤧ꤬ꤒ꤫ꤢꤪ꤬ꤓꤢꤩ": 2351,
      "ꤋꤚꤢꤪ꤭ꤊꤢꤨ꤭": 2352,
      "ꤊꤜꤢꤧ꤭ꤗꤢꤩ꤭ꤊꤢꤨ꤭": 2353,
      "ꤞꤣ꤬ꤋꤢ꤬ꤚꤣ꤬": 2354,
      "ꤡꤛꤢꤪ꤬ꤘꤢ꤬": 2355,
      "ꤞꤤꤢꤩ꤬ꤞꤤꤥ꤭": 2356,
      "ꤢꤩ꤬ꤗꤢꤦ꤬ꤥ꤭ꤖꤚꤢꤧ": 2357,
      "ꤡꤤꤊꤛꤢ꤭": 2358,
      "ꤢꤩ꤬ꤊꤢꤪꤥ꤭ꤙꤢ꤭": 2359,
      "ꤒꤢ꤭ꤕꤢꤪ꤬ꤒꤢ꤭ꤕꤢꤩ꤭": 2360,
      "ꤞꤣ꤬ꤋꤢ꤬ꤚꤣ꤬ꤛꤢ꤬": 2361,
      "ꤋꤢꤩ": 2362,
      "ꤋꤢꤪ꤬": 2363,
      "ꤏꤛꤢꤩ꤬": 2364,
      "ꤔꤤ꤭": 2365,
      "ꤙꤤ꤭": 2366,
      "ꤙꤚꤢꤨ": 2367,
      "ꤚꤥ꤬ꤗꤢꤦ": 2368,
      "ꤜꤟ": 2369,
      "ꤜ꤫ꤤ꤬": 2370,
      "ꤞꤢꤧ꤭": 2371,
      "꤮”": 2372,
      "ꤢ꤬ꤕ꤫ꤥ꤬ꤠ꤫ꤢꤧ꤬": 2373,
      "ꤢ꤬ꤓꤢꤦ꤭": 2374,
      "ꤢ꤬ꤏꤢꤩ꤬ꤢꤩ꤬": 2375,
      "ꤢ꤬ꤏꤣꤧꤋꤢꤩ꤭": 2376,
      "ꤢꤨꤊꤢꤧ": 2377,
      "ꤥ꤬ꤊꤣꤧ꤭ꤢꤨ꤭": 2378,
      "ꤥ꤬ꤒꤣꤧ꤬ꤚꤤ꤬ꤒꤣꤧ꤬ꤚꤢꤧ꤭": 2379,
      "ꤞꤤꤊꤣꤧ꤬ꤜꤢꤪꤊꤣꤧ꤬ꤖꤢꤦ꤭": 2380,
      "ꤢꤨ꤭ꤗꤢꤩ꤭": 2381,
      "ꤒꤣꤧ꤬ꤞꤥ꤭": 2382,
      "ꤒꤣꤧ꤬ꤜꤢꤩ꤭": 2383,
      "ꤒꤣꤧ꤬ꤖꤚꤥ": 2384,
      "ꤒꤣꤧ꤬ꤘꤝꤢ꤭": 2385,
      "ꤒꤣꤧ꤬ꤗꤝꤢ꤭": 2386,
      "ꤒꤢꤩ꤬ꤣꤧ꤭ꤔꤣꤧ꤬": 2387,
      "ꤟꤢꤩ꤬ꤗꤢꤦ꤬": 2388,
      "ꤤ꤬ꤢꤨ꤬": 2389,
      "ꤤ꤬ꤔꤢꤨ": 2390,
      "ꤤ꤬ꤓꤢ꤬ꤊꤢ꤬": 2391,
      "ꤒꤣ꤬ꤊꤢꤨ꤭": 2392,
      "ꤒꤣ꤬ꤞꤢꤪ": 2393,
      "ꤟꤢꤩꤊꤢ꤬ꤋꤛꤢ꤬ꤏꤢꤦ꤬": 2394,
      "ꤗꤢꤩ꤬ꤡꤢꤪ": 2395,
      "ꤗꤢꤩ꤬ꤟꤢꤨꤒꤢꤩ꤭": 2396,
      "ꤗꤢꤩ꤬ꤔꤢꤪ": 2397,
      "ꤗꤢꤩ꤬ꤜꤣꤧ꤬ꤕꤜꤢꤩ": 2398,
      "ꤜꤢꤪꤕꤜꤢꤨ": 2399,
      "ꤗꤢ꤬ꤞꤢ": 2400,
      "ꤡꤢꤪꤙꤢꤨ꤬ꤡꤢꤪꤙꤢꤩ꤭": 2401,
      "ꤙꤢꤩ꤬ꤟꤣꤧ": 2402,
      "ꤛꤢꤩ꤬ꤞꤤ꤭ꤔꤣꤧ꤬": 2403,
      "ꤛꤢꤩ꤬ꤞꤤ꤭ꤊꤜꤢꤩ꤭": 2404,
      "ꤕꤢꤩ꤬ꤊꤜꤢꤩ꤭": 2405,
      "ꤟꤢꤧ꤭ꤢꤩ꤬": 2406,
      "ꤟꤢꤧ꤭ꤊꤣꤧ꤭": 2407,
      "ꤟꤢꤧ꤭ꤗꤣꤧ꤭": 2408,
      "ꤟꤢꤧ꤭ꤕ꤫ꤢꤦ꤬": 2409,
      "ꤟꤢꤧ꤭ꤖꤢꤦ꤬": 2410,
      "ꤔꤢꤧ꤬ꤒꤢꤩ꤬": 2411,
      "ꤔꤢꤧ꤬ꤗꤝꤤ꤭": 2412,
      "ꤜꤢ꤭ꤟꤣꤧ": 2413,
      "ꤋꤢꤨ꤭ꤊꤢ꤬": 2414,
      "ꤋꤢꤨ꤭ꤗꤢ": 2415,
      "ꤕ꤫ꤢꤩ꤬ꤗꤢꤧ": 2416,
      "ꤓꤥ꤭ꤔꤣꤧ꤬": 2417,
      "ꤔ꤫ꤤ꤬ꤊꤣꤧ꤭": 2418,
      "ꤢ꤬ꤚꤢ꤬": 2419,
      "ꤢ꤬ꤚꤝ꤫ꤤ꤬": 2420,
      "ꤞꤣꤧ꤭ꤟꤣꤧ": 2421,
      "ꤞꤣꤧ꤭ꤓꤥ꤭ꤟꤣꤧ": 2422,
      "ꤞꤣꤧ꤭ꤡꤤꤊꤛꤢ꤭": 2423,
      "ꤊꤢꤩ꤬ꤥ꤬": 2424,
      "꤫ꤢꤪ꤬ꤢ꤬ꤛꤢꤧ꤭": 2425,
      "ꤔꤣꤧ꤬ꤒꤣꤧ꤬ꤟꤢꤩ꤬ꤗꤢ꤬": 2426,
      "ꤢ꤬ꤜꤣ": 2427,
      "ꤞꤤꤕꤜꤢꤪ꤬ꤒꤥ꤭": 2428,
      "ꤠꤤ꤭ꤢꤨ꤭": 2429,
      "ꤓꤢꤩ꤬ꤊꤢ꤬ꤊꤢꤧ꤭": 2430,
      "ꤗꤢꤧꤓ꤫ꤣꤧ꤬ꤏꤢꤦ꤬": 2431,
      "ꤗꤥ꤬ꤗꤥ꤬": 2432,
      "ꤓꤣꤧ꤭ꤟꤢꤟꤥ": 2433,
      "꤮꤯’": 2434,
      "ꤞꤢꤩ꤬ꤓꤢꤧ꤬": 2435,
      "ꤖꤛꤢꤓꤢꤧ꤬": 2436,
      "ꤙꤢꤩꤑꤢꤩ꤭": 2437,
      "ꤙꤢꤩꤡ꤫ꤢꤧ꤬": 2438,
      "ꤗꤢꤪ꤬ꤗꤢ꤬ꤞꤢ": 2439,
      "ꤟꤤ꤬ꤙꤢꤧ꤬ꤡꤢꤩ꤬": 2440,
      "ꤒꤣꤧ꤬ꤔꤢꤩ꤬ꤞꤢꤦ": 2441,
      "ꤜꤤ꤬ꤒꤣꤧ꤬ꤜꤢꤨ꤭": 2442,
      "ꤔ꤫ꤤ꤬ꤙꤢꤩ꤬ꤊꤣꤧ꤭": 2443,
      "ꤒꤣ꤬ꤖꤥꤢ꤬ꤋꤢꤩ꤭": 2444,
      "ꤞꤥ꤭ꤕꤝꤤꤒꤣ꤬ꤕꤝꤤ": 2445,
      "ꤢ꤬ꤙꤤ": 2446,
      "ꤟꤤꤙꤚꤢꤨ": 2447,
      "ꤓꤢꤨ꤬ꤜꤢꤪ꤭": 2448,
      "ꤊꤜꤢꤧꤘꤢꤩ꤭": 2449,
      "ꤜ꤫ꤢꤪ꤬ꤘꤢꤨ꤬": 2450,
      "ꤕꤣꤒꤢꤩ꤬": 2451,
      "ꤊꤜꤝꤤ꤭ꤜꤢꤧ꤭": 2452,
      "ꤘꤢꤪꤔꤥ꤭": 2453,
      "ꤞꤥ꤭ꤞꤝꤢꤒꤣ꤬ꤔꤣꤧ꤭": 2454,
      "ꤖꤢꤩ꤬ꤊꤢꤧ꤭": 2455,
      "ꤜꤝꤤ꤭ꤘꤥ꤭": 2456,
      "ꤒꤣ꤬ꤔꤣꤧ꤭ꤋꤢꤩ꤭": 2457,
      "ꤢ꤬ꤙꤝꤤꤘꤢꤨ꤬": 2458,
      "ꤢ꤬ꤙꤝꤤꤒꤣꤧ꤬ꤚꤣꤧ꤭": 2459,
      "ꤜꤢꤦ꤬ꤋꤚꤝꤢ꤭ꤗꤢꤩ꤬": 2460,
      "ꤡꤢꤪꤡꤢꤪꤒꤢꤩ꤬ꤒꤢꤩ꤬": 2461,
      "ꤗꤤ꤭ꤡꤣ꤬ꤚꤥ꤬": 2462,
      "ꤙꤥ꤬ꤥ꤭": 2463,
      "ꤟꤣꤧ꤬ꤡ": 2464,
      "ꤕ꤫ꤢꤦ꤬ꤗꤢ꤬ꤚꤣꤧ": 2465,
      "ꤊꤜꤢꤩꤊꤢꤨ꤭": 2466,
      "ꤢ꤬ꤡ꤫ꤢꤪ꤬ꤢ꤬ꤛꤢꤧ꤭": 2467,
      "ꤗꤢꤧ꤬ꤎꤤ꤬ꤘꤥꤔꤤ꤬ꤛꤢ꤬ꤊ꤫ꤢꤩ꤬": 2468,
      "ꤠꤤ꤭ꤔꤢ꤬ꤎꤢ꤬ꤚꤢꤧꤖꤢꤨ": 2469,
      "ꤎꤢ꤬ꤘꤢꤨꤊꤢꤧ": 2470,
      "ꤒꤣꤧ꤬ꤚꤣꤧ꤭ꤘꤢꤨ꤬ꤒꤣꤧ꤬ꤚꤣꤧ꤭ꤓꤢꤨ꤭": 2471,
      "ꤛꤢꤦ꤬ꤔꤥ꤭": 2472,
      "ꤒꤣꤧ꤬ꤗꤝꤢ꤭ꤒꤣꤧ꤬ꤜꤢꤩ꤭": 2473,
      "ꤊꤜꤢꤧꤘꤢꤩ꤭ꤊꤢꤨ꤭": 2474,
      "ꤎꤢ꤬ꤘꤢꤨꤊꤢꤧꤖꤢꤨ": 2475,
      "ꤊ꤫ꤢ꤬": 2476,
      "ꤊ꤫ꤤ꤬": 2477,
      "ꤓꤛꤢꤩ꤭": 2478,
      "ꤔꤟꤤ": 2479,
      "ꤕꤢꤧ꤭": 2480,
      "ꤗ꤫ꤢꤩ꤬": 2481,
      "ꤠꤢꤦ": 2482,
      "ꤢꤩꤓꤢꤪ": 2483,
      "ꤢꤩ꤬ꤔꤢꤪ": 2484,
      "ꤢ꤬ꤒꤣꤧ꤬ꤋꤢꤩ꤭": 2485,
      "ꤢ꤬ꤖꤥ꤭": 2486,
      "ꤥ꤬ꤒꤥ꤭": 2487,
      "ꤢꤪꤜ꤫ꤢꤧ꤬": 2488,
      "ꤞꤤꤙꤤ꤭": 2489,
      "ꤢꤨ꤭ꤖꤢꤨ": 2490,
      "ꤒꤢꤩ꤬ꤋꤢꤧꤟꤢꤩꤏꤥ꤬ꤜꤥ꤭ꤒꤢꤩ꤬": 2491,
      "ꤖꤚꤢ꤬ꤚ": 2492,
      "ꤒꤣ꤬ꤊꤥ꤬": 2493,
      "ꤗꤢꤩ꤬ꤕꤜꤢ": 2494,
      "ꤗꤢꤩ꤬ꤜꤣꤧ꤭": 2495,
      "ꤠꤢꤧ꤭ꤜꤢ꤭": 2496,
      "ꤗꤢ꤬ꤜꤢ꤬ꤋꤤ": 2497,
      "ꤙꤢꤩ꤬ꤜꤢ": 2498,
      "ꤜꤢꤨ꤭ꤜꤥ꤬": 2499,
      "ꤊꤢꤧ꤭ꤏꤢꤪ꤭": 2500,
      "ꤡꤝꤢꤗꤣꤧ꤭": 2501,
      "ꤋꤢꤨ꤭ꤙ": 2502,
      "꤫ꤢ꤬ꤊꤢꤨꤠ": 2503,
      "ꤕ꤫ꤢꤩ꤬ꤓꤥ꤭ꤟꤣꤧ": 2504,
      "ꤞꤢꤧꤓꤢꤧ꤬": 2505,
      "ꤟꤢꤨꤔꤣꤧ꤬ꤒꤣꤧ꤬ꤟꤢꤩ꤬": 2506,
      "ꤗꤢꤧꤖꤢꤩ꤬": 2507,
      "ꤗꤢꤧꤕꤣꤧ꤬ꤒꤤ": 2508,
      "ꤞꤤꤑꤢꤩ꤭ꤓꤝꤢ": 2509,
      "ꤠꤤ꤭ꤒꤢ꤭": 2510,
      "ꤠꤤ꤭ꤊꤜꤢꤪ꤭": 2511,
      "ꤘꤢꤧ꤬ꤒꤢ꤭": 2512,
      "ꤊꤢꤨꤜꤥ꤬": 2513,
      "ꤊꤢꤨꤜ꤫ꤤ꤬": 2514,
      "ꤔꤣꤧ꤭ꤚꤤ": 2515,
      "ꤊꤢ꤬ꤔ꤫ꤤ꤬": 2516,
      "ꤛ꤫ꤢꤦ꤬ꤢꤩ꤬ꤊꤣꤧ꤭": 2517,
      "ꤗꤥ꤬ꤜꤢꤧ꤬": 2518,
      "ꤊ꤫ꤢꤩ꤬ꤊꤜꤢꤪ꤭": 2519,
      "ꤒꤣꤧ꤬ꤔꤢꤩꤓꤢꤪ": 2520,
      "ꤞꤢꤩ꤬ꤘꤢꤧ": 2521,
      "ꤟꤢꤩꤙꤢꤩ꤬ꤡ꤫ꤢꤧ꤬": 2522,
      "ꤏꤢꤒꤢꤩ꤬": 2523,
      "ꤒꤢꤩ꤬ꤗꤢꤩ꤬ꤜꤢꤨ꤭": 2524,
      "ꤒꤢꤩ꤬ꤗꤢꤩ꤬ꤚꤢꤧ": 2525,
      "ꤏꤢꤪ꤭ꤙꤢꤨ꤭": 2526,
      "ꤒꤣꤧ꤬ꤔꤢꤩ꤬ꤗꤢꤧ": 2527,
      "ꤒꤣꤧ꤬ꤔꤢꤩ꤬ꤘꤢꤨ꤬": 2528,
      "ꤊꤢꤨꤔ꤫ꤢꤧ꤬ꤋꤢꤩ꤭": 2529,
      "ꤗꤤ꤬ꤊꤢꤧ꤭": 2530,
      "ꤋꤝꤤꤡꤢꤪꤖꤢꤧ꤬": 2531,
      "ꤓꤢꤨ꤬ꤟꤢꤨ": 2532,
      "ꤓꤢꤨ꤬ꤚꤢꤧ꤭": 2533,
      "ꤚꤢ꤭ꤊꤢꤧ꤭": 2534,
      "ꤚꤢ꤭ꤥ꤬ꤔꤢꤩ꤬": 2535,
      "ꤟꤢꤨꤒꤢꤩ꤭ꤟꤢꤩꤚꤣꤧ꤬": 2536,
      "ꤢ꤬ꤒꤢꤩ꤬ꤞꤣꤧ꤭": 2537,
      "ꤢ꤬ꤒꤢꤩ꤬ꤜꤤ꤭": 2538,
      "ꤎꤢ꤬ꤒ": 2539,
      "ꤔꤢꤧ꤭ꤟꤣꤧ": 2540,
      "ꤒꤣꤧ꤬ꤖꤢꤪ꤭": 2541,
      "ꤘꤢꤪ꤭ꤙꤢꤩ꤬ꤞꤢ꤬": 2542,
      "ꤥ꤬ꤕ꤫ꤢꤪ꤬ꤗꤢꤧ": 2543,
      "ꤑꤢ꤭ꤜꤥ꤬ꤟꤣꤧ": 2544,
      "ꤙꤢꤧꤞꤝꤢꤋꤢꤩ": 2545,
      "ꤊꤥ꤬ꤡꤢꤨ": 2546,
      "ꤗꤢꤩ꤬ꤞꤢꤦꤗꤢꤩ꤬ꤕꤜꤢ": 2547,
      "ꤞꤤ꤭ꤊꤜꤢꤩ꤭ꤔꤣꤧ꤬": 2548,
      "ꤢ꤬ꤒꤣꤧ꤬ꤚꤣꤧ꤭ꤓꤢꤨ꤭": 2549,
      "ꤡꤢꤨꤊꤥ꤬ꤡꤢꤨ": 2550,
      "ꤎꤢ꤬ꤕꤛꤤꤓꤣꤧ꤭ꤛꤢꤧ꤭": 2551,
      "ꤔꤢꤩ꤬ꤙꤢꤩ꤬": 2552,
      "ꤗꤢꤧ꤬ꤢꤪꤜ꤫ꤢꤧ꤬": 2553,
      "ꤏꤢꤧ꤬ꤋꤚꤝꤢ꤭": 2554,
      "ꤔꤥꤢ꤬": 2555,
      "ꤙꤥ꤬ꤢꤩ꤬ꤙꤥ꤬ꤥ꤭": 2556,
      "ꤕꤚꤟꤢꤧ꤬": 2557,
      "ꤊꤢꤨꤠ꤫ꤢ꤬ꤊꤢꤨꤠ": 2558,
      "ꤥ꤬ꤊꤢꤨꤥ꤬ꤊꤢꤧ": 2559,
      "ꤊꤣꤧ꤬ꤛꤢꤧ꤭ꤏꤝꤤꤊꤣꤧ꤬ꤛꤢꤧ꤭ꤏꤢꤩ꤭": 2560,
      "ꤕꤢ꤭ꤒꤢꤦ꤭ꤊꤢꤧ꤭": 2561,
      "ꤢ꤬ꤜꤤ꤭ꤢ꤬ꤒꤣꤧ꤬ꤋꤢꤩ꤭": 2562,
      "ꤜꤣꤧ꤬ꤡ꤫ꤢꤨ꤬ꤊꤢꤧ꤭": 2563,
      "ꤛ꤫ꤢꤪ꤬ꤞꤤꤙꤤ꤭": 2564,
      "ꤒꤣꤧ꤬ꤕꤜꤣ꤬ꤒꤣꤧ꤬ꤕꤜꤢꤧꤟꤢꤨ": 2565,
      "ꤠꤢꤧ꤭ꤜꤢ꤭ꤠꤢꤧ꤭ꤍ꤫ꤥ꤬": 2566,
      "ꤗꤢ꤬ꤜꤢ꤬ꤋꤤꤞꤢꤩ꤬ꤘꤢꤧ": 2567,
      "ꤒꤣꤧ꤬ꤔꤢꤩꤓꤢꤪꤘꤤ꤭": 2568,
      "ꤘꤢꤪ꤭ꤙꤢꤩ꤬ꤞꤢ꤬ꤔꤤ": 2569,
      "ꤙꤢꤧꤞꤝꤢꤋꤢꤩꤋꤥ꤭": 2570,
      "ꤡꤢꤨꤊꤥ꤬ꤡꤢꤨꤚꤢꤧ꤬": 2571,
      "ꤊꤢꤨꤠ꤫ꤢ꤬ꤊꤢꤨꤠꤢꤩ꤭": 2572,
      "ꤍꤟꤥ": 2573,
      "ꤎꤢ꤬ꤙ": 2574,
      "ꤏꤢ꤬": 2575,
      "ꤕꤟꤢꤧ꤬": 2576,
      "ꤘꤚꤢꤨ": 2577,
      "ꤛꤢ꤬ꤚꤤ꤬": 2578,
      "ꤡ꤫ꤢꤪ꤬": 2579,
      "ꤢꤧꤚꤢꤩ꤬": 2580,
      "ꤢ꤬ꤏꤢ꤭ꤛ꤫ꤢꤨ꤬": 2581,
      "ꤥ꤬ꤚꤣꤧ": 2582,
      "ꤒꤢꤩ꤬ꤋꤢꤨ꤬": 2583,
      "ꤒꤢꤩ꤬ꤔꤣꤧ꤬ꤒꤣꤧ꤬ꤟꤢꤩ꤬": 2584,
      "ꤖꤚꤢꤩ": 2585,
      "ꤞꤤ꤭ꤣꤧ꤭": 2586,
      "ꤤ꤬ꤜꤢꤪ꤭": 2587,
      "ꤒꤣ꤬ꤚꤤ": 2588,
      "ꤒꤣ꤬ꤗꤢ꤭": 2589,
      "ꤗꤢꤩ꤬ꤗꤢ꤬": 2590,
      "ꤗꤢꤩ꤬ꤕꤜꤤ꤭ꤖꤥ": 2591,
      "ꤡꤢꤪꤡꤢꤦ": 2592,
      "ꤊ꤫ꤢꤦ꤬ꤟꤢꤩ꤬": 2593,
      "ꤊ꤫ꤢꤦ꤬ꤍ꤫ꤥ꤬": 2594,
      "ꤙꤢꤩ꤬ꤊꤢꤧ꤭": 2595,
      "ꤙꤢꤩ꤬ꤊ꤫ꤢꤨ꤬": 2596,
      "ꤒꤣ꤬ꤖꤚꤢꤩ꤬ꤒꤥ꤬": 2597,
      "ꤟꤢꤧ꤭ꤚꤢꤩ꤬": 2598,
      "ꤔꤢꤧ꤬ꤖꤢꤩ꤭": 2599,
      "ꤓꤢꤧ꤬ꤗꤢꤪ": 2600,
      "ꤡꤝꤢꤔ꤫ꤤ꤬": 2601,
      "ꤡꤝꤢꤋꤥꤊꤢꤧ꤭": 2602,
      "ꤊꤜꤥ꤬": 2603,
      "ꤋꤢꤨ꤭ꤞ": 2604,
      "ꤊꤣꤧ꤭ꤔꤢꤧ꤭": 2605,
      "ꤖꤢꤧꤖꤢꤧ": 2606,
      "ꤘꤣꤧꤟꤣꤧ": 2607,
      "ꤘꤣꤧꤏꤝꤢ꤬": 2608,
      "ꤢ꤬ꤚꤢꤦ꤭": 2609,
      "ꤒꤢ꤭ꤖꤚꤢꤪ꤬ꤊꤢꤧ꤭": 2610,
      "ꤒꤥ꤭ꤒꤥ꤬": 2611,
      "ꤞꤤꤑꤢꤩ꤭ꤘꤢꤦ꤬": 2612,
      "ꤢ꤬ꤜꤢ": 2613,
      "ꤞꤤꤕꤜꤢꤪ꤬ꤊ꤫ꤢꤨ꤬": 2614,
      "ꤠꤤ꤭ꤡꤛ": 2615,
      "ꤘꤢꤧ꤬ꤥ꤬ꤊꤢꤧ꤭": 2616,
      "ꤔꤢꤪ꤭ꤟꤢꤩ": 2617,
      "ꤓꤢꤩ꤬ꤙꤢꤩ": 2618,
      "ꤖꤢꤩ꤭ꤞꤣ꤬ꤋꤢ꤬ꤚꤣ꤬ꤛꤢ꤬": 2619,
      "ꤔꤣꤧ꤭ꤖꤥ": 2620,
      "ꤊꤢꤨ꤬ꤋꤣꤧ꤭": 2621,
      "ꤜ꤫ꤢꤩ꤬ꤥ꤬ꤔꤢꤧ꤭": 2622,
      "ꤓꤣꤧ꤭ꤊꤢꤨ꤭": 2623,
      "ꤓꤣꤧ꤭ꤚꤥ꤬": 2624,
      "ꤏꤢꤕꤣꤧꤚꤥ꤬": 2625,
      "ꤒꤢꤩ꤬ꤗꤢꤩ꤬ꤣꤧ꤭": 2626,
      "ꤒꤢꤩ꤬ꤗꤢꤩ꤬ꤡꤢ꤭ꤗꤢꤩ꤬ꤡꤢꤦ꤬": 2627,
      "ꤚꤢꤧꤚꤢꤧ": 2628,
      "ꤟꤤ꤬ꤗꤢꤧꤖꤢꤩ꤬": 2629,
      "ꤏꤝꤢ꤬ꤏꤝꤢ꤬": 2630,
      "ꤖꤢꤜꤥ꤬": 2631,
      "꤫ꤢꤨ꤬ꤖꤚꤢ꤬": 2632,
      "ꤒꤢꤩ꤬ꤞꤤꤊꤣꤧ꤬ꤜꤢꤪꤊꤣꤧ꤬ꤖꤢꤦ꤭": 2633,
      "ꤘꤢꤧꤔꤢꤪ": 2634,
      "ꤕꤢꤩ꤭ꤊꤢꤧ꤭": 2635,
      "ꤜꤤ꤭ꤖꤥ": 2636,
      "ꤖꤚꤢꤩ꤬ꤜꤢꤨ꤬ꤟꤢꤩ꤬ꤋꤢꤨ꤬ꤖꤢꤨ": 2637,
      "ꤔꤣꤧ꤬ꤒꤣ꤬ꤠꤤ꤭": 2638,
      "ꤓꤢꤨ꤭ꤓꤢꤧ꤬": 2639,
      "ꤕꤜꤝꤢ꤭ꤓꤢꤩ꤬ꤊꤢꤧ꤭": 2640,
      "ꤤ꤬ꤏꤢꤩ꤭ꤊꤢꤧ꤭": 2641,
      "ꤒꤣꤧ꤬ꤖꤥ꤬": 2642,
      "ꤡꤛꤣ": 2643,
      "ꤤ꤬ꤞꤝꤢꤤ꤬ꤞꤢꤧ꤬ꤒꤢ꤭": 2644,
      "ꤞꤢꤨ꤭ꤜꤢꤧ꤬": 2645,
      "ꤕꤜꤥ꤭ꤖꤢꤩ": 2646,
      "ꤟꤢꤧ꤭ꤒ꤫ꤥ꤬ꤊꤣꤧ꤭": 2647,
      "ꤒꤣ꤬ꤗꤢꤩ꤭ꤡꤢꤦ꤭": 2648,
      "ꤢꤪꤜꤢꤧ꤬ꤊꤢꤧ꤭": 2649,
      "ꤒꤣꤧ꤬ꤊꤛꤢ꤬": 2650,
      "ꤒꤢꤩ꤬ꤟꤢꤩꤙꤢꤩ꤬ꤟꤢꤩꤏꤥ꤭": 2651,
      "ꤢ꤬ꤡꤢꤪꤖꤢꤧ꤬": 2652,
      "ꤡ꤫ꤢꤦ꤬ꤖꤚꤢꤩ꤬ꤗꤢꤪ꤬": 2653,
      "ꤢꤧꤡꤢꤦꤢꤧꤚꤢꤩ꤬": 2654,
      "ꤛ꤫ꤢꤨ꤬ꤒꤢ꤭": 2655,
      "ꤊꤢꤧꤜꤢ꤬ꤜꤤ꤬ꤖꤢꤨ": 2656,
      "ꤚꤢ꤭ꤡꤝꤢꤕ꤫ꤢꤩ꤬": 2657,
      "ꤞꤤꤘꤥ꤭ꤞꤤꤍꤢ꤬": 2658,
      "ꤕꤜꤢꤦꤊꤢꤧ꤭": 2659,
      "ꤔꤢꤪ꤬ꤜꤢꤧ꤬": 2660,
      "ꤊꤢꤨꤊꤜꤢꤩ꤭ꤙꤢꤧ꤬ꤡꤢꤩ꤬": 2661,
      "ꤕꤣꤧꤞꤢꤩ꤬ꤕꤜꤢꤪ꤬ꤊꤢꤨ꤭": 2662,
      "ꤢ꤬ꤗ꤫ꤢ꤬ꤗ꤫ꤢ꤬": 2663,
      "ꤞꤢꤪꤞꤢꤦ": 2664,
      "ꤗ꤫ꤢꤪ꤬ꤜꤤ꤭ꤙꤢꤨ꤭": 2665,
      "ꤒꤣꤧ꤬ꤔꤢꤧ꤭ꤒꤣꤧ꤬ꤊꤛꤢ꤬": 2666,
      "ꤗꤢꤧ꤬ꤎꤤ꤬ꤘꤥꤔꤤ꤬ꤛꤢ꤬": 2667,
      "ꤖꤚꤢꤩ꤬ꤊꤢꤩ꤭ꤞꤤꤗꤤ꤬": 2668,
      "ꤏꤛꤢ꤬ꤗꤢ꤬ꤚꤤꤖꤢꤨ": 2669,
      "ꤗꤢꤩ꤬ꤜꤣꤗꤢꤩ꤬ꤙꤢ꤭ꤓꤢꤧ꤬": 2670,
      "ꤖꤚꤢꤩ꤬ꤋꤢꤧ꤭ꤢꤩ꤬ꤊꤢꤨꤊꤜꤢꤩ꤭": 2671,
      "ꤋꤢꤨ꤭ꤢꤧ꤬ꤘꤚꤢꤨ": 2672,
      "ꤒꤣꤧ꤬ꤖꤚꤥꤗꤢꤨꤗ꤫ꤢꤧ꤬": 2673,
      "ꤢꤨ꤭ꤖꤢꤨꤢꤨ꤭ꤗꤢꤩ꤭": 2674,
      "ꤖꤚꤢ꤬ꤚ꤫ꤢꤨ꤬ꤖꤚꤢ꤬": 2675,
      "ꤊ꤫ꤢꤦ꤬ꤍ꤫ꤥ꤬ꤊ꤫ꤢꤦ꤬ꤟꤢꤩ꤬": 2676,
      "ꤙꤢꤩ꤬ꤊ꤫ꤢꤨ꤬ꤙꤢꤩ꤬ꤊꤢꤧ꤭": 2677,
      "ꤠꤤ꤭ꤡꤛꤥꤕꤢ꤬": 2678,
      "ꤟꤤ꤬ꤗꤢꤧꤖꤢꤩ꤬ꤗ꤫ꤥ꤬": 2679,
      "ꤎꤢ꤬ꤜꤢ꤬": 2680,
      "ꤏꤢꤪ꤬": 2681,
      "ꤗꤥ": 2682,
      "ꤗꤢꤩ": 2683,
      "ꤚꤛꤢ꤬": 2684,
      "ꤛꤢꤩ": 2685,
      "ꤜꤝꤤ": 2686,
      "ꤠꤢꤪ꤬": 2687,
      "ꤥꤗꤢ": 2688,
      "ꤢꤩ꤬ꤕ꤫ꤢꤩ꤬": 2689,
      "ꤢꤩ꤬ꤔ꤫ꤤ꤬": 2690,
      "ꤢ꤬ꤒ": 2691,
      "ꤢ꤬ꤕꤜ": 2692,
      "ꤢ꤬ꤗ꤫ꤢꤪ꤬": 2693,
      "ꤢ꤬ꤖꤚꤥ꤬": 2694,
      "ꤢ꤬ꤓꤢꤨ꤭": 2695,
      "ꤢ꤬ꤖꤚꤢꤧ꤬": 2696,
      "ꤢ꤬ꤞꤤꤗꤤ꤬": 2697,
      "ꤢ꤬ꤍꤢꤨ꤬ꤘꤢꤨ꤬ꤖꤚꤤ꤬ꤘꤢꤨ꤬": 2698,
      "ꤢ꤬ꤊꤝꤢ꤬": 2699,
      "ꤢ꤬ꤓꤢꤦ꤭ꤋꤢꤩ꤭": 2700,
      "ꤥ꤬ꤔꤢꤧ": 2701,
      "ꤥ꤬ꤙꤢ꤭": 2702,
      "ꤥ꤬ꤢꤩꤓꤢꤧ꤬": 2703,
      "ꤥ꤬ꤞꤢ꤬ꤞꤢꤩ꤭": 2704,
      "ꤞꤤꤜꤥ꤭": 2705,
      "ꤞꤤꤔꤣꤧ꤭ꤔꤣꤧ꤬": 2706,
      "ꤞꤤꤗꤢꤧ꤬": 2707,
      "ꤔꤣꤧ꤬ꤒꤥ꤬": 2708,
      "ꤣꤧ꤭ꤒꤣ꤬ꤖꤥ꤬": 2709,
      "ꤒꤣꤧ꤬ꤖꤚ": 2710,
      "ꤒꤣꤧ꤬ꤊꤜꤢꤩ꤭": 2711,
      "ꤒꤢꤩ꤬ꤞꤤꤑꤢꤩ꤭": 2712,
      "ꤒꤢꤩ꤬ꤒꤣꤧ꤬ꤊꤜꤤ": 2713,
      "ꤒꤢꤩ꤬ꤘꤢꤦꤒꤣꤧ꤬ꤜꤤꤖꤢ": 2714,
      "ꤒꤢꤩ꤬ꤒꤣꤧ꤬ꤚꤢꤪ꤬ꤞꤢꤩ": 2715,
      "ꤞꤤ꤭ꤖꤢꤨ": 2716,
      "ꤞꤤ꤭ꤊꤢꤧ꤭": 2717,
      "ꤞꤤ꤭ꤜꤥ꤬": 2718,
      "ꤖꤚꤢꤩ꤬ꤢꤩ꤬ꤟꤥ꤬": 2719,
      "ꤤ꤬ꤎꤢ꤬": 2720,
      "ꤒꤣ꤬ꤜ꤫ꤢꤩ꤬": 2721,
      "ꤟꤢꤩꤣꤧ꤭": 2722,
      "ꤗꤢꤩ꤬ꤜꤢꤪ꤭": 2723,
      "ꤗꤢꤩ꤬ꤒꤣꤧ꤬ꤚꤣꤧ꤭": 2724,
      "ꤗꤢꤩ꤬ꤟꤢꤨꤣꤧ꤭": 2725,
      "ꤗꤢꤩ꤬ꤙꤝꤤ": 2726,
      "ꤗꤢꤩ꤬ꤞꤤꤕꤜꤢꤩ꤭": 2727,
      "ꤗꤢꤩ꤬ꤞꤢꤨꤞꤢ": 2728,
      "ꤠꤢꤧ꤭ꤊꤣꤧ꤬ꤛꤢꤧ꤭": 2729,
      "ꤗꤢ꤬ꤊꤢ꤬ꤘ": 2730,
      "ꤜꤢꤨ꤭ꤚꤤ꤬": 2731,
      "ꤒꤣ꤬ꤖꤚꤢꤩ꤬ꤖꤢꤧ": 2732,
      "ꤟꤢꤧ꤭ꤥ꤬": 2733,
      "ꤟꤢꤧ꤭ꤖꤛꤢ": 2734,
      "ꤔꤢꤧ꤬ꤔꤣꤧ꤬": 2735,
      "ꤔꤢꤧ꤬ꤊꤢꤧ꤭": 2736,
      "ꤡꤝꤢꤊꤝꤤ꤭": 2737,
      "ꤡꤝꤢꤗꤢꤧꤕꤢꤨ꤭": 2738,
      "ꤡꤝꤢꤟꤢꤩꤒ꤫ꤥ꤬": 2739,
      "ꤋꤢꤨ꤭ꤡ": 2740,
      "ꤋꤢꤨ꤭ꤢꤎꤢꤧ": 2741,
      "ꤓꤥ꤭ꤜꤢꤪ꤭": 2742,
      "ꤚꤣꤧꤕ꤫ꤢꤩ꤬": 2743,
      "ꤕꤜ꤫ꤥ꤬": 2744,
      "ꤘꤣꤧꤋꤚꤢ꤭": 2745,
      "ꤢ꤬ꤚꤢ꤬ꤙꤢ": 2746,
      "ꤜꤥ꤭ꤓꤢꤧ꤬": 2747,
      "ꤒꤢꤩ꤬ꤞꤢꤩ꤬ꤒꤢꤩ꤬": 2748,
      "ꤒꤣꤧ꤬ꤚꤢꤧ": 2749,
      "ꤠꤤ꤭ꤚꤥꤗꤢꤩ꤬": 2750,
      "ꤠꤤ꤭ꤎꤤ": 2751,
      "ꤠꤤ꤭ꤓꤢ": 2752,
      "ꤘꤢꤧ꤬ꤔꤥ꤭": 2753,
      "ꤘꤢꤧ꤬ꤥ꤬ꤕꤜꤢꤪ": 2754,
      "ꤔꤢꤪ꤭ꤥ꤬": 2755,
      "ꤔꤢꤪ꤭ꤓꤢꤩ꤬ꤡꤝꤢ": 2756,
      "ꤓꤢꤩ꤬ꤜꤥ꤭": 2757,
      "ꤓꤢꤩ꤬ꤊꤢ꤬": 2758,
      "ꤓꤢꤩ꤬ꤒꤣꤧ꤬ꤕꤢ꤬": 2759,
      "ꤖꤢꤩ꤭ꤊꤢꤪ": 2760,
      "ꤜꤣꤕꤢ꤬": 2761,
      "ꤒ꤫ꤥ꤬ꤙꤢꤩ꤬": 2762,
      "ꤜ꤫ꤢꤩ꤬ꤞꤢꤧ": 2763,
      "ꤊ꤫ꤢꤩ꤬ꤚ꤫ꤥ꤬": 2764,
      "ꤓꤣꤧ꤭ꤥ꤭": 2765,
      "ꤒꤣ꤬ꤡꤣ꤬ꤒꤢꤩ꤭": 2766,
      "ꤗ꤫ꤢ꤬ꤒꤥ꤬ꤒꤥ꤬": 2767,
      "ꤕꤝꤢ꤭ꤔꤣꤧ꤭ꤔꤣꤧ꤭": 2768,
      "ꤗꤢꤪꤚꤢ꤬": 2769,
      "ꤟꤢꤩꤙꤢꤩ꤬ꤡꤢꤪ": 2770,
      "ꤟꤢꤩꤙꤢꤩ꤬ꤓꤢꤩ꤬": 2771,
      "ꤗ꤫ꤥ꤬ꤢꤧ": 2772,
      "ꤟꤤ꤬ꤣꤧ꤭": 2773,
      "ꤟꤢꤩ꤬ꤋꤢꤨ꤬ꤔꤢꤩ": 2774,
      "ꤊꤝꤤ꤭ꤓꤢꤧ꤬": 2775,
      "ꤒ꤫ꤣ꤬ꤜꤢꤨ꤭": 2776,
      "ꤞꤢꤪ꤬ꤖꤢꤧ꤭": 2777,
      "ꤏꤝꤢ꤬ꤓꤢꤧ꤬": 2778,
      "ꤗꤤ꤬ꤊꤢꤨ꤭": 2779,
      "꤮,”": 2780,
      "ꤊꤣꤧ꤬ꤓꤢꤪ꤬ꤗꤣꤧ꤭": 2781,
      "ꤢ꤬ꤙꤢ꤭": 2782,
      "ꤘꤢꤧꤓꤢꤧ꤬": 2783,
      "ꤙꤢꤧꤙꤢꤦ꤭": 2784,
      "ꤏꤣꤧꤒꤣ꤬ꤕꤝꤤ": 2785,
      "ꤙꤢ꤭ꤟꤣꤧ": 2786,
      "ꤟꤢꤩꤔꤣꤧ꤬ꤚꤣꤧ꤬": 2787,
      "ꤕꤜꤝꤢ꤭ꤊꤢ꤬": 2788,
      "ꤚꤤꤛꤥ꤬": 2789,
      "ꤕ꤫ꤥ꤬ꤠ꤫ꤢꤧ꤬ꤞꤤ꤭": 2790,
      "ꤒꤣꤧ꤬ꤕꤜ꤫ꤥ꤬": 2791,
      "ꤘꤤꤡꤢꤩ꤭": 2792,
      "ꤘꤢꤪꤥ꤬": 2793,
      "ꤙꤢꤒꤢꤩ꤭": 2794,
      "ꤜꤣꤙꤢ꤭ꤓꤢꤧ꤬": 2795,
      "ꤗꤢꤩ꤬ꤞꤢꤦꤒꤢꤩ꤬": 2796,
      "ꤕꤣꤧ꤬ꤒꤤꤟꤢꤨ": 2797,
      ",’”": 2798,
      "ꤏꤢ꤭ꤖꤢꤩ꤭": 2799,
      "ꤊꤣꤧ꤬ꤘꤢ꤭ꤘꤢꤨ꤬": 2800,
      "ꤋꤢꤞꤤꤓꤢꤩ꤬": 2801,
      "ꤏꤢꤨ꤬ꤥ꤬": 2802,
      "ꤋꤢꤧꤘꤥ꤬ꤏꤢ": 2803,
      "ꤢ꤬ꤊꤢꤨꤊꤜꤢꤩ꤭": 2804,
      "ꤕꤢꤪ꤬ꤒꤢꤧ꤬": 2805,
      "ꤔꤢꤩ꤬ꤜꤤ": 2806,
      "ꤢ꤬ꤋꤢꤨ꤬ꤔꤣꤧ꤬": 2807,
      "ꤕꤝꤤꤏꤣꤧꤒꤣ꤬ꤕꤝꤤ": 2808,
      "ꤋꤢꤧꤞꤤꤕꤜꤢꤪ꤬ꤓꤢꤨ꤭ꤙꤢꤩ": 2809,
      "ꤋꤢꤨ꤭ꤢ꤬ꤕꤢꤪ": 2810,
      "ꤋꤢꤧ꤬ꤖꤢ": 2811,
      "ꤞꤤꤖꤚ꤫ꤢꤩ꤬ꤞꤤꤗꤢꤧ꤬": 2812,
      "ꤞꤢꤨꤕꤜꤤ꤭ꤊꤢꤧ꤭": 2813,
      "ꤏꤥ꤭ꤏꤢꤦꤖꤢꤧ": 2814,
      "ꤢ꤬ꤖꤥꤢ꤬ꤏꤣꤧ": 2815,
      "ꤘꤢꤪ꤭ꤊꤢꤨ꤭ꤗ꤫ꤥ꤬": 2816,
      "ꤗꤢꤩ꤬ꤜꤣꤗꤢꤩ꤬ꤙꤢ꤭": 2817,
      "ꤊꤢꤚꤤꤛꤥ꤬": 2818,
      "ꤒ꤫ꤢꤨ꤬ꤓꤢꤧ꤬": 2819,
      "ꤊꤣꤧ꤬ꤜꤢꤨꤋꤢꤩ꤭": 2820,
      "ꤊꤣꤧ꤬ꤚꤢꤩꤊꤢꤨ꤭": 2821,
      "ꤤ꤬ꤢꤨ꤬ꤓꤢꤧ꤬": 2822,
      "ꤢ꤬ꤜꤣꤢ꤬ꤙꤢ꤭": 2823,
      "ꤊꤢꤧ꤭ꤏꤢꤪ꤭ꤊꤢꤧ꤭ꤏꤢ": 2824,
      "ꤋꤢꤨ꤭ꤙꤢ꤬ꤚꤢ꤬ꤙꤢ": 2825,
      "ꤟꤢꤧ꤭ꤚꤢꤩ꤬ꤏꤝꤢ꤬ꤏꤢꤪ꤭": 2826,
      "ꤋꤢꤨ꤭ꤞꤥꤗꤢ": 2827,
      "ꤘꤣꤧꤏꤝꤢ꤬ꤘꤣꤧ": 2828,
      "ꤖꤚꤢ꤬ꤚ꤫ꤢꤨ꤬ꤖꤚꤢ꤬ꤒꤢꤩ": 2829,
      "ꤏꤢꤪ꤬ꤜꤢ꤬ꤗꤥ꤬": 2830,
      "ꤢ꤬ꤖꤚꤥ꤬ꤢ꤬ꤖꤚꤢꤧ꤬": 2831,
      "ꤤ꤬ꤎꤢ꤬ꤊꤢꤚꤤꤛꤥ꤬": 2832,
      "ꤗꤢꤩ꤬ꤙꤝꤤꤗꤢꤩ꤬ꤒꤣꤧ꤬ꤚꤣꤧ꤭": 2833,
      "ꤗꤢ꤬ꤊꤢ꤬ꤘꤢ꤬ꤜꤢ": 2834,
      "ꤒꤢꤩ꤬ꤞꤢꤩ꤬ꤒꤢꤩ꤬ꤖꤥ꤭": 2835,
      "ꤠꤤ꤭ꤓꤢꤛꤣ꤬": 2836,
      "ꤖꤢꤩ꤭ꤊꤢꤪꤔꤢꤩ꤬ꤜꤤ": 2837,
      "ꤗꤢꤪꤚꤢ꤬ꤕꤢꤪ꤬ꤒꤢꤧ꤬": 2838,
      "ꤟꤢꤩ꤬ꤋꤢꤨ꤬ꤔꤢꤩꤋꤢꤨ꤬": 2839,
      "ꤋꤢꤨ꤭ꤢ꤬ꤕꤢꤪꤜꤥ꤬": 2840,
      "ꤊꤥ꤭": 2841,
      "ꤊꤝꤢ": 2842,
      "ꤊꤢ꤬ꤚꤤ꤬": 2843,
      "ꤌꤣ꤬": 2844,
      "ꤍꤢꤪ꤬": 2845,
      "ꤏꤢꤧ꤭": 2846,
      "ꤏꤢ꤬ꤜ": 2847,
      "ꤓꤥ꤬ꤕꤜꤢꤪ": 2848,
      "ꤗꤛꤢ": 2849,
      "ꤘꤢꤩ": 2850,
      "ꤘꤛꤢ": 2851,
      "ꤚ꤫ꤢꤪ꤬": 2852,
      "ꤜꤝ꤫ꤤ꤬": 2853,
      "꤮?": 2854,
      "ꤢꤩꤡꤣ꤬": 2855,
      "ꤢ꤬ꤔ": 2856,
      "ꤢ꤬ꤕ": 2857,
      "ꤢ꤬ꤜꤥ꤭": 2858,
      "ꤢ꤬ꤡꤢ꤭": 2859,
      "ꤢ꤬ꤖꤚꤢꤩ꤬ꤖꤚꤥ꤬": 2860,
      "ꤢ꤬ꤘꤢꤪ꤭": 2861,
      "ꤢ꤬ꤛꤢꤨ꤭": 2862,
      "ꤢ꤬ꤔꤢꤪ꤬": 2863,
      "ꤥ꤬ꤊꤢꤪ꤭": 2864,
      "ꤞꤤ꤬": 2865,
      "ꤒꤢꤩ꤬ꤛ꤫ꤢꤦ꤬ꤢꤩ꤬": 2866,
      "ꤒꤢꤩ꤬ꤘꤢꤧ꤬ꤛ꤫ꤢꤦ꤬ꤘꤢꤧ꤬ꤔ꤫ꤢꤧ꤬": 2867,
      "ꤒꤢꤩ꤬ꤊꤛꤢ": 2868,
      "ꤞꤤ꤭ꤍ꤫ꤥ꤬": 2869,
      "ꤞꤤ꤭ꤚꤤ꤬": 2870,
      "ꤤ꤬ꤕꤜꤢꤦ꤭": 2871,
      "ꤒꤣ꤬ꤗ꤫ꤢꤪ꤬": 2872,
      "ꤟꤢꤩꤔꤣꤧ꤭": 2873,
      "ꤗꤢꤩ꤬ꤟꤢꤨ": 2874,
      "ꤗꤢꤩ꤬ꤡꤢ꤭": 2875,
      "ꤗꤢꤩ꤬ꤙꤤ": 2876,
      "ꤠꤢꤧ꤭ꤜꤣꤧ꤬": 2877,
      "ꤙꤢꤩ꤬ꤘꤢꤧ": 2878,
      "ꤊꤣꤧ꤬ꤛꤢꤧ꤭ꤘꤢꤨ꤬": 2879,
      "ꤜꤢꤨ꤭ꤒꤢꤩ꤬": 2880,
      "ꤜꤢꤨ꤭ꤊꤢꤧ꤭": 2881,
      "ꤜꤢꤨ꤭ꤜ꤫ꤢꤩ꤬": 2882,
      "ꤟꤢꤧ꤭ꤥ꤬ꤕꤜꤢꤪ": 2883,
      "ꤔꤢꤧ꤬ꤚꤤ꤬": 2884,
      "ꤔꤢꤧ꤬ꤗ꤫ꤥ꤬": 2885,
      "ꤡꤝꤢꤚꤝꤢ": 2886,
      "ꤋꤢꤨ꤭ꤢꤪ": 2887,
      "ꤕ꤫ꤢꤩ꤬ꤊꤢꤧ꤭": 2888,
      "ꤕ꤫ꤢꤩ꤬ꤢꤩ꤬ꤕ꤫ꤢꤩ꤬": 2889,
      "ꤓꤥ꤭ꤕ꤫ꤢꤩ꤬ꤟꤣꤧ": 2890,
      "ꤕꤜꤥ": 2891,
      "ꤊꤢꤩ꤬ꤟꤢꤩꤔꤣꤧ꤬": 2892,
      "ꤚꤣꤧꤘꤢꤦ꤬ꤊꤣꤧ꤭": 2893,
      "ꤞꤤꤑꤢꤩ꤭ꤡ꤫ꤢꤧ꤬": 2894,
      "ꤢ꤬ꤜꤢꤧ": 2895,
      "ꤞꤤꤕꤜꤢꤪ꤬ꤊꤢꤧ꤭": 2896,
      "ꤠꤤ꤭ꤜꤢꤨ": 2897,
      "ꤘꤢꤧ꤬ꤏꤢꤪ꤭": 2898,
      "ꤍ꤫ꤥ꤬ꤗ꤫ꤢ꤬ꤊꤢꤧ꤭": 2899,
      "ꤋꤛꤢ꤭ꤜꤣ": 2900,
      "ꤔꤣꤧ꤭ꤋꤥ": 2901,
      "ꤊꤢ꤬ꤗꤢꤧꤓ꤫ꤣꤧ꤬": 2902,
      "ꤊꤢ꤬ꤟꤢꤩꤏꤥ꤬": 2903,
      "ꤊꤢ꤬ꤊꤣꤧ꤬ꤔꤥ꤭": 2904,
      "ꤜ꤫ꤢꤩ꤬ꤊꤢꤦ꤭": 2905,
      "ꤓꤣꤧ꤭ꤕꤣ": 2906,
      "ꤢ꤬ꤑꤢꤩ꤭ꤖꤢꤧ": 2907,
      "ꤞꤤꤛ꤫ꤢꤦ꤬ꤞꤤꤜꤢꤪ꤭": 2908,
      "ꤙꤢꤩ꤬ꤙꤢꤩ꤬ꤔꤣꤧ꤬": 2909,
      "ꤛꤢ꤬ꤖꤢ": 2910,
      "ꤔꤥ꤭ꤊꤢꤧ꤭": 2911,
      "ꤟꤢꤩꤙꤢꤩ꤬ꤒꤢꤩ꤬": 2912,
      "ꤏꤢꤔꤢꤩ": 2913,
      "ꤗ꤫ꤢꤪ꤬ꤓꤥ꤬": 2914,
      "ꤋꤥ꤭ꤋꤢꤨ꤬": 2915,
      "ꤖꤛꤢꤘꤢꤨ꤬": 2916,
      "ꤗ꤫ꤥ꤬ꤘꤢꤪ꤭": 2917,
      "ꤚꤢꤧꤊꤢ꤬ꤋꤛꤢ꤭": 2918,
      "ꤟꤤ꤬ꤔꤣꤧ꤬": 2919,
      "ꤟꤤ꤬ꤒꤣ꤬ꤗꤢꤩ꤭": 2920,
      "ꤘꤥ꤬ꤔꤢꤧ꤭ꤟꤢꤩꤏꤥ꤬": 2921,
      "ꤒ꤫ꤣ꤬ꤔꤢꤧ": 2922,
      "ꤜꤢꤨ꤬ꤗꤥ꤭": 2923,
      "ꤗꤤ꤬ꤞꤢꤩ꤬": 2924,
      "ꤕꤣꤧ꤬ꤛ": 2925,
      "ꤕꤣꤧ꤬ꤥ꤭": 2926,
      "ꤞꤢꤩꤙꤢꤩ꤬ꤘꤢꤧ": 2927,
      "ꤒꤢꤩ꤬ꤞꤤꤕꤜꤢꤩ꤭": 2928,
      "ꤣꤧ꤭ꤒꤣ꤬ꤙꤢꤩ꤬": 2929,
      "ꤘꤢꤧꤊꤝꤢ": 2930,
      "ꤓꤢꤨ꤬ꤜꤝ꤫ꤤ꤬": 2931,
      "ꤔꤢꤪꤊꤣꤧ꤭": 2932,
      "ꤒꤣꤧ꤬ꤖꤢꤩ꤬": 2933,
      "ꤢ꤬ꤚꤢꤧꤒꤥ꤬": 2934,
      "ꤢꤨ꤭ꤕꤢꤩ꤭ꤔꤣꤧ꤬": 2935,
      "ꤕꤣꤓꤣꤧ꤭ꤕꤣ": 2936,
      "ꤡꤢꤡꤤ꤬": 2937,
      "ꤖꤢꤦ꤬ꤟꤣꤧ": 2938,
      "ꤥ꤬ꤊꤢꤧ꤭ꤜꤣ": 2939,
      "ꤘꤣꤋꤛꤢ꤭ꤜꤣ": 2940,
      "ꤔ꤫ꤢꤩ꤬ꤊꤜ꤫ꤢꤪ꤬ꤖꤢꤛꤢ꤬": 2941,
      "ꤒꤣꤧ꤬ꤜꤝꤢꤊꤢꤧ꤭": 2942,
      "ꤓꤢꤩꤜꤥ꤬": 2943,
      "ꤡꤢꤪ꤭ꤊꤜꤢꤪ꤬": 2944,
      "ꤢ꤬ꤗ꤫ꤢꤪ꤬ꤔꤣꤧ꤭ꤗ꤫ꤢꤪ꤬ꤞꤢꤩ꤭": 2945,
      "ꤡꤢꤨꤢ": 2946,
      "ꤏꤢꤨ꤬ꤓꤢꤨ꤭": 2947,
      "ꤤ꤬ꤏꤢꤪꤤ꤬ꤕꤜꤢꤦ꤭": 2948,
      "ꤏꤥ꤭ꤚꤢꤧ꤬ꤏꤥ꤭ꤖꤢ": 2949,
      "ꤎꤢ꤬ꤕꤛꤤꤞꤢꤩ꤬": 2950,
      "ꤢ꤬ꤊꤢꤨꤜꤥ꤬": 2951,
      "ꤗ꤫ꤢ꤬ꤊꤢꤧ꤭ꤍ꤫ꤥ꤬": 2952,
      "ꤟꤌꤣ꤭": 2953,
      "ꤗ꤫ꤢꤪ꤬ꤟꤢꤩꤜꤢꤧ꤬": 2954,
      "ꤜꤤꤎꤢ꤬ꤙ": 2955,
      "ꤗ꤫ꤢꤪ꤬ꤋꤤꤋꤤ": 2956,
      "ꤗꤢ꤭ꤓꤢꤩꤜꤥ꤬": 2957,
      "ꤊꤢꤨ꤬ꤊꤜꤢꤪꤘꤢꤨ꤬ꤊꤣꤧ": 2958,
      "ꤤ꤬ꤡꤛꤤꤊ꤫ꤢꤩ꤬ꤊꤢꤨ꤭": 2959,
      "ꤒꤢꤩ꤬ꤞꤤꤛꤢꤪ꤬ꤊꤜꤢ꤬ꤙꤢꤩ꤬": 2960,
      "ꤢ꤬ꤡꤢꤨ꤬": 2961,
      "ꤠꤢꤧ꤭ꤖꤢꤨꤠꤢꤧ꤭ꤜꤣꤧ꤬": 2962,
      "ꤊꤢꤨꤊ꤫ꤥ꤬ꤓꤢꤩ꤭": 2963,
      "ꤟꤥ꤭ꤗꤢꤦ꤬ꤒꤣꤧ꤬ꤖꤥ꤬": 2964,
      "ꤗ꤫ꤢꤪ꤬ꤞꤤ꤭ꤊꤜꤢꤩ꤭ꤊꤜꤢꤩ꤭": 2965,
      "ꤢꤩ꤬ꤒ꤫ꤣ꤬ꤥ꤭ꤒ꤫ꤣ꤬": 2966,
      "ꤊꤢ꤬ꤏꤥ꤭ꤗꤢꤩ꤭ꤖꤚꤢꤩ꤬ꤋꤢꤨ꤭": 2967,
      "ꤜꤥ꤭ꤕꤣꤧ꤬ꤏꤤ꤭ꤡꤝꤢ": 2968,
      "ꤞꤢꤧ꤭ꤚꤢꤧ꤭": 2969,
      "ꤜꤢꤨ꤭ꤚꤤ꤬ꤜꤢꤨ꤭ꤊꤢꤧ꤭": 2970,
      "ꤠꤤ꤭ꤎꤤꤘꤥ꤬": 2971,
      "ꤗ꤫ꤥ꤬ꤢꤧꤜꤤꤎꤢ꤬ꤙ": 2972,
      "ꤘꤣꤧꤏꤝꤢ꤬ꤘꤣꤧꤏꤢꤪ꤭ꤓꤢꤧ꤬": 2973,
      "ꤊꤢ꤬ꤚꤤ꤬ꤞꤢꤨ꤬": 2974,
      "ꤏꤢ꤬ꤜꤢꤧ꤬": 2975,
      "ꤔꤢꤧ꤬ꤚꤤ꤬ꤔꤢꤧ꤬ꤊꤢꤧ꤭": 2976,
      "ꤕ꤫ꤢꤩ꤬ꤢꤩ꤬ꤕ꤫ꤢꤩ꤬ꤥ꤭": 2977,
      "ꤜ꤫ꤢꤩ꤬ꤊꤢꤦ꤭ꤜ꤫ꤢꤩ꤬ꤞꤢꤧ": 2978,
      "ꤏꤢꤔꤢꤩꤜꤥ꤭": 2979,
      "ꤕꤣꤓꤣꤧ꤭ꤕꤣꤊ꤫ꤢꤩ꤬": 2980,
      "ꤊꤢꤨ꤬ꤊꤜꤢꤪꤘꤢꤨ꤬ꤊꤣꤧꤏꤢꤨ꤬ꤓꤢꤨ꤭": 2981,
      "ꤗ꤫ꤥ꤬ꤢꤧꤜꤤꤎꤢ꤬ꤙꤢꤧ": 2982,
      "ꤊꤜꤢꤨ꤭": 2983,
      "ꤊꤚꤢꤩ꤬": 2984,
      "ꤍ꤫ꤢꤧ꤬": 2985,
      "ꤍꤢ꤬ꤚ": 2986,
      "ꤎꤤꤜꤢ꤬": 2987,
      "ꤒꤢꤪ꤭": 2988,
      "ꤓꤣ꤬": 2989,
      "ꤔꤢ꤬ꤚꤤ": 2990,
      "ꤕꤤ꤬": 2991,
      "ꤖꤢ꤬": 2992,
      "ꤖꤝꤤ꤭": 2993,
      "ꤚ꤫ꤢ꤬": 2994,
      "ꤛꤢꤪ": 2995,
      "ꤟꤢꤩ꤭": 2996,
      "ꤠꤢ꤭": 2997,
      "ꤠꤢꤩꤜꤤ꤬": 2998,
      "ꤥꤓꤢꤧ꤬": 2999,
      "ꤢꤩꤔꤥ꤭": 3000,
      "ꤢꤩ꤬ꤊꤢꤧ꤭": 3001,
      "ꤢ꤬ꤔꤣꤧ꤭": 3002,
      "ꤢ꤬ꤗ꤫ꤢ꤬ꤒꤥ꤬": 3003,
      "ꤢ꤬ꤛ꤫ꤢꤧ꤬": 3004,
      "ꤢ꤬ꤊꤜꤢꤧ꤭ꤗꤢꤩ꤭ꤊꤢꤨ꤭": 3005,
      "ꤥ꤬ꤥ": 3006,
      "ꤥ꤬ꤥ꤬": 3007,
      "ꤥ꤬ꤘꤢꤦ꤬": 3008,
      "ꤥ꤬ꤚꤢꤧ": 3009,
      "ꤥ꤬ꤠꤢ": 3010,
      "ꤥ꤬ꤡ꤫ꤢꤩ꤬ꤡꤢꤦ꤭": 3011,
      "ꤞꤤꤜꤢꤧ꤬": 3012,
      "ꤞꤤꤔꤢꤩ꤬": 3013,
      "ꤢꤨ꤭ꤕꤝꤢ꤭": 3014,
      "ꤒꤣꤧ꤬ꤜꤤ꤭": 3015,
      "ꤒꤢꤩ꤬ꤒꤣꤧ꤬ꤟꤢꤩ꤬": 3016,
      "ꤞꤤ꤭ꤋꤛꤢ꤭": 3017,
      "ꤞꤤ꤭ꤗꤢꤩ꤭": 3018,
      "ꤞꤤ꤭ꤖꤥ꤭": 3019,
      "ꤞꤤ꤭ꤖꤣꤧ꤭": 3020,
      "ꤖꤚꤢꤩ꤬ꤗꤢꤩ꤬ꤡꤝ꤫ꤢ꤬": 3021,
      "ꤒꤣꤧ꤬ꤟꤢꤩ꤬ꤗꤢ꤬": 3022,
      "ꤤ꤬ꤛꤢ꤬": 3023,
      "ꤒꤣ꤬ꤕꤢꤦ꤬": 3024,
      "ꤟꤢꤩꤞꤢꤦ": 3025,
      "ꤗꤢꤩ꤬ꤊ꤫ꤢꤦ꤬": 3026,
      "ꤗꤢꤩ꤬ꤋꤢ": 3027,
      "ꤜꤢꤪꤞꤢꤪ꤭": 3028,
      "ꤢ꤬ꤋꤤ꤭": 3029,
      "ꤡꤢꤪꤗꤢ꤬": 3030,
      "ꤊꤣꤧ꤬ꤜꤥ꤭ꤋꤢꤨ꤬": 3031,
      "ꤊ꤫ꤢꤦ꤬ꤙꤢꤩ꤬": 3032,
      "ꤒꤥ꤬ꤟꤣꤧ": 3033,
      "ꤙꤢꤩ꤬ꤔꤢꤪ": 3034,
      "ꤙꤢꤩ꤬ꤚꤤ": 3035,
      "ꤕꤢꤩ꤬ꤍ꤫ꤥ꤬": 3036,
      "ꤟꤢꤧ꤭ꤕꤢ꤭": 3037,
      "ꤟꤢꤧ꤭ꤥ꤬ꤜꤥ꤭ꤓꤢꤧ꤬": 3038,
      "ꤔꤢꤧ꤬ꤊꤢꤨ꤭": 3039,
      "ꤕꤢ꤭ꤕꤢ꤭": 3040,
      "ꤡꤝꤢꤊꤣꤧ꤭": 3041,
      "ꤡꤝꤢꤙꤢꤩ": 3042,
      "ꤋꤢꤨ꤭ꤛꤢ꤬ꤊꤥ꤬": 3043,
      "ꤡꤣꤧꤒꤥ꤬": 3044,
      "ꤕ꤫ꤢꤩ꤬ꤕꤢ꤬": 3045,
      "ꤘꤣꤧꤙꤢꤩ": 3046,
      "ꤞꤢꤧꤖꤢꤧ": 3047,
      "ꤜꤥ꤭ꤓꤣꤧ꤭": 3048,
      "ꤒꤢ꤭ꤒꤢ꤭": 3049,
      "ꤒꤣꤧ꤬ꤟꤢꤩ꤬ꤔꤣꤧ꤬ꤚꤣꤧ꤬": 3050,
      "ꤒꤥ꤭ꤖꤢꤧ": 3051,
      "ꤓꤝꤢ꤭ꤜꤢꤪ꤭": 3052,
      "ꤠꤤ꤭ꤥ꤬ꤊꤢꤪ꤭": 3053,
      "ꤠꤤ꤭ꤊꤢ꤬ꤚꤤ꤬ꤞꤢꤨ꤬": 3054,
      "ꤔꤢꤪ꤭ꤗꤢꤩ꤬ꤞꤣꤧ꤭": 3055,
      "ꤖꤢꤩ꤭ꤊꤢ꤬": 3056,
      "ꤖꤢꤩ꤭ꤢ꤬ꤊꤢꤨ": 3057,
      "ꤖꤢꤩ꤭ꤢꤎꤢꤧ": 3058,
      "ꤔꤣꤧ꤭ꤊꤛꤢ꤭": 3059,
      "ꤒ꤫ꤥ꤬ꤕꤢ꤬": 3060,
      "ꤜ꤫ꤢꤩ꤬ꤟꤢꤧ꤭": 3061,
      "ꤥ꤬ꤔꤢꤧ꤭ꤒꤢ꤭": 3062,
      "ꤞꤢꤩ꤬ꤎꤢ꤬ꤜꤢ꤬": 3063,
      "ꤟꤢꤩꤙꤢꤩ꤬ꤓꤢꤧ꤬ꤜꤥ꤭": 3064,
      "ꤖꤢꤨꤡ꤫ꤢꤩ꤬ꤟꤢꤨꤣꤧ꤭": 3065,
      "ꤖꤛꤢꤢꤩ꤬": 3066,
      "ꤖꤚꤢꤩ꤬ꤋꤢꤨ꤭ꤖꤢꤨꤡ꤫ꤢꤩ꤬ꤟꤢꤨ": 3067,
      "ꤖꤚꤢꤩ꤬ꤋꤢꤨ꤭ꤖꤢꤨꤞꤢꤩ꤬": 3068,
      "ꤗ꤫ꤥ꤬ꤟꤢꤪꤊꤢꤨ꤭": 3069,
      "ꤒꤣꤧ꤬ꤔꤢꤩ꤬ꤥ꤬ꤔꤢꤩ꤬": 3070,
      "ꤜꤤ꤬ꤕꤜꤢꤪ꤬": 3071,
      "ꤗꤢꤩ꤭ꤜꤢꤪ꤭": 3072,
      "ꤕꤣꤧꤞꤢꤩ꤬ꤓꤣꤧ꤭": 3073,
      "ꤗꤤ꤬ꤢꤦ꤭": 3074,
      "ꤞꤥ꤭ꤗꤢꤦ꤭": 3075,
      "ꤞꤥ꤭ꤏꤣꤧ꤭": 3076,
      "ꤓꤢꤨ꤬ꤕꤜꤢ": 3077,
      "ꤔ꤫ꤤ꤬ꤘꤢ꤭ꤊꤣꤧ꤭": 3078,
      "ꤓꤢꤩ꤭ꤙꤢ꤬": 3079,
      "ꤜꤣꤧ꤬ꤕꤜꤢꤩꤙꤢꤩ": 3080,
      "ꤜ꤫ꤥ꤬ꤙꤢꤩ꤬": 3081,
      "ꤕꤜꤝꤢ꤭ꤟꤢꤧ꤭": 3082,
      "ꤕꤜꤝꤢ꤭ꤊꤢ꤬ꤊꤢꤧ꤭": 3083,
      "ꤖꤚꤢꤩ꤬ꤛ꤫ꤢꤦ꤬ꤢꤩ꤬ꤔ꤫ꤢꤧ꤬ꤢꤩ꤬": 3084,
      "ꤎꤢ꤬ꤘꤥ꤬": 3085,
      "ꤘꤥ꤬ꤥ꤭": 3086,
      "ꤘꤤ꤭ꤙꤢꤩ꤭": 3087,
      "ꤒꤣꤧ꤬ꤡꤢ": 3088,
      "ꤒꤣ꤬ꤖꤥ꤬ꤒꤢꤩ꤭": 3089,
      "ꤗꤢꤧꤕꤢꤨ꤭ꤗꤢꤩ꤬ꤞꤣꤧ꤭": 3090,
      "ꤊꤝꤤ꤭ꤡꤢꤪꤙꤢꤩ꤭ꤓꤢꤧ꤬": 3091,
      "ꤟꤢꤧ꤭ꤑꤢꤩ꤭ꤕ꤫ꤥ꤬": 3092,
      "ꤙꤢꤩꤗꤢꤨ꤬ꤘꤢꤨ꤬": 3093,
      "ꤊꤥꤜꤢꤦ꤬": 3094,
      "ꤊꤢꤨꤋꤢꤨ꤬ꤞꤣꤧ꤭": 3095,
      "ꤔꤝꤢꤖꤛꤢ": 3096,
      "ꤚꤢꤦ꤭ꤓꤢꤩ꤭": 3097,
      "ꤔꤝꤢꤓꤢꤧ꤬ꤟꤣꤧ": 3098,
      "ꤒꤢꤩ꤬ꤏꤢꤩ꤭ꤗꤢꤨꤗ꤫ꤢꤧ꤬": 3099,
      "ꤊꤜꤢꤧ꤬ꤟꤢꤧ꤭": 3100,
      "ꤏꤤ꤭ꤗꤢꤩ꤭ꤜꤢꤪ꤭": 3101,
      "ꤏꤣꤧ꤭ꤞꤥ꤭ꤞꤝꤢ": 3102,
      "ꤍꤢꤧ꤭ꤊꤜ꤫ꤢꤪ꤬": 3103,
      "ꤢ꤬ꤊꤢꤨꤜꤢꤩ꤬ꤊꤥ꤬": 3104,
      "ꤥ꤬ꤊꤜꤢꤪ꤬ꤗꤢ꤬": 3105,
      "ꤟꤢꤪꤓꤢꤪ": 3106,
      "ꤘꤢꤨ꤬ꤓꤢꤧ꤬ꤓꤢꤨ꤭ꤓꤢꤧ꤬": 3107,
      "ꤒꤢꤩ꤬ꤕꤝꤢ꤭ꤒꤣ꤬ꤡꤣ꤬": 3108,
      "ꤜ꤫ꤢ꤬ꤜꤤ꤭": 3109,
      "ꤟꤌꤣ꤬": 3110,
      "ꤞꤤꤕꤜꤢꤩ꤭ꤔꤢꤩ꤬ꤙꤢꤩ꤬": 3111,
      "ꤗꤢꤩ꤬ꤓꤥ꤭ꤊꤢꤧ꤭": 3112,
      "ꤓꤢꤩꤏꤢꤦ꤬ꤊꤢꤧ꤭": 3113,
      "ꤊꤚꤤꤗꤤ꤭ꤡꤣ꤬ꤖꤢꤨ": 3114,
      "ꤎꤢꤨ꤬ꤚꤤ": 3115,
      "ꤥ꤬ꤜꤣꤥ꤬ꤙꤢ꤭": 3116,
      "ꤋꤢꤨ꤭ꤗꤢ꤬ꤊꤢꤨ": 3117,
      "ꤕꤚꤟꤢꤧ": 3118,
      "ꤓꤝꤤꤒꤢ꤭": 3119,
      "ꤘꤢꤩ꤬ꤔꤢ꤬ꤚꤤ": 3120,
      "ꤊꤜꤝꤢ꤬ꤜꤣꤧ꤬ꤟꤥ꤭": 3121,
      "ꤙꤢꤩ꤭ꤜ꤫ꤢꤪ꤬ꤘꤢꤨ꤬": 3122,
      "ꤏꤢꤦꤢꤦ꤭ꤊꤢꤧ꤭": 3123,
      "ꤢ꤬ꤡꤢ꤬ꤊꤜꤢꤪ꤭": 3124,
      "ꤓꤝꤢ꤭ꤘꤢꤨ꤬ꤓꤝꤢ꤭": 3125,
      "ꤒꤣꤧ꤬ꤊꤢꤪ꤭ꤒꤣꤧ꤬ꤊꤢꤩ꤬": 3126,
      "ꤢ꤬ꤓꤢꤦ꤭ꤓꤢꤦ꤭": 3127,
      "ꤟꤤꤙꤚꤢꤨꤍ꤫ꤥ꤬": 3128,
      "ꤔꤣꤧ꤭ꤖꤥꤒꤣ꤬ꤖꤥ": 3129,
      "ꤓꤣꤧ꤭ꤚꤥ꤬ꤊ꤫ꤢꤩ꤬ꤊꤜꤢꤪ꤭": 3130,
      "ꤓꤣꤧ꤭ꤥ꤭ꤖꤢ": 3131,
      "ꤞꤤ꤭ꤚꤤ꤬ꤞꤤ꤭ꤊꤢꤧ꤭": 3132,
      "ꤢ꤬ꤜꤢꤧꤎꤢ꤬ꤘ": 3133,
      "ꤢ꤬ꤡꤢꤨ꤬ꤡꤢꤨ꤬": 3134,
      "ꤊꤚꤢꤩ꤬ꤒꤢꤩ꤬": 3135,
      "ꤍꤢ꤬ꤚꤢ꤬ꤊꤢꤨ꤭": 3136,
      "ꤞꤤꤔꤢꤩ꤬ꤞꤥ꤬": 3137,
      "ꤞꤤ꤭ꤖꤣꤧ꤭ꤞꤤ꤭ꤖꤥ꤭": 3138,
      "ꤜꤥ꤭ꤓꤣꤧ꤭ꤜꤥ꤭ꤊ꤫ꤢꤩ꤬": 3139,
      "ꤖꤢꤩ꤭ꤊꤢ꤬ꤛꤢ꤬ꤖꤢ": 3140,
      "ꤖꤢꤩ꤭ꤢ꤬ꤊꤢꤨꤜꤢ": 3141,
      "ꤞꤢꤩ꤬ꤎꤢ꤬ꤜꤢ꤬ꤔꤤ": 3142,
      "“‘": 3143,
      "ꤊꤟꤢꤩ": 3144,
      "ꤎꤢꤨ": 3145,
      "ꤒꤟꤢꤧ꤬": 3146,
      "ꤓꤛꤢ꤬": 3147,
      "ꤕꤚꤢꤨ": 3148,
      "ꤙꤢꤨ": 3149,
      "ꤚꤢ꤬ꤖꤢꤨ": 3150,
      "ꤚꤝ꤫ꤤ꤬": 3151,
      "ꤝꤥ꤭": 3152,
      "ꤞ꤫ꤤ꤬": 3153,
      "ꤟꤢꤦ꤬": 3154,
      "ꤟꤛꤢ꤬": 3155,
      "ꤡꤢꤧ": 3156,
      "ꤡ꤫ꤥ꤬": 3157,
      "ꤢꤞ꤫ꤤ꤬": 3158,
      "ꤢꤩ꤬ꤚ꤫ꤥ꤬": 3159,
      "ꤢ꤬ꤟꤢꤧ꤭": 3160,
      "ꤢ꤬ꤟꤢꤪ": 3161,
      "ꤢ꤬ꤘꤢ": 3162,
      "ꤥ꤬ꤗꤢ꤬": 3163,
      "ꤥ꤬ꤜꤢꤨ꤭": 3164,
      "ꤥ꤬ꤛꤢ꤬": 3165,
      "ꤥ꤬ꤙꤣꤧꤔꤣꤧ꤬": 3166,
      "ꤥ꤬ꤡꤢꤦ꤭": 3167,
      "ꤥ꤬ꤙꤤ": 3168,
      "ꤥ꤬ꤙꤣꤧꤒꤢꤩ꤭": 3169,
      "ꤞꤤꤛ꤫ꤢꤪ꤬ꤞꤤꤙꤤ꤭": 3170,
      "ꤢꤨ꤭ꤊꤢꤧ꤭": 3171,
      "ꤢꤨ꤭ꤒꤢꤩ꤬ꤞꤢꤦ": 3172,
      "ꤒꤢꤩ꤬ꤔꤣꤧ꤬": 3173,
      "ꤒꤢꤩ꤬ꤙꤢꤩ꤬": 3174,
      "ꤒꤢꤩ꤬ꤟꤢꤧ꤭": 3175,
      "ꤒꤢꤩ꤬ꤘꤢꤨ꤬": 3176,
      "ꤒꤢꤩ꤬ꤓꤢꤨ꤭": 3177,
      "ꤒꤢꤩ꤬ꤚꤢꤩ꤬": 3178,
      "ꤒꤢꤩ꤬ꤤ꤭ꤒꤢꤩ꤭ꤒꤢꤩ꤭": 3179,
      "ꤒꤢꤩ꤬ꤒꤣ꤬ꤡꤣ꤬ꤡꤣ꤬": 3180,
      "ꤒꤢꤩ꤬ꤋꤢꤧꤞꤤꤕꤜꤢꤪ꤬ꤓꤢꤨ꤭": 3181,
      "ꤒꤢꤩ꤬ꤠꤤ": 3182,
      "ꤒꤢꤩ꤬ꤛꤢꤧ": 3183,
      "ꤒꤢꤩ꤬ꤜꤣꤧ꤬ꤟꤥ꤭ꤜꤣꤧ꤬ꤟꤢꤧ꤬": 3184,
      "ꤒꤢꤩ꤬ꤟꤢꤧ꤭ꤡ꤫ꤢꤩ꤬ꤚꤤ꤬ꤡ꤫ꤢꤩ꤬": 3185,
      "ꤒꤢꤩ꤬ꤗꤢꤧꤓ꤫ꤣꤧ꤬ꤜꤝꤢ": 3186,
      "ꤒꤢꤩ꤬ꤜꤝꤤ": 3187,
      "ꤞꤤ꤭ꤙꤢꤧ꤬ꤡꤢꤩ꤬": 3188,
      "ꤞꤤ꤭ꤋꤢꤨ꤬": 3189,
      "ꤟꤢꤩ꤬ꤊꤢꤨ꤭": 3190,
      "ꤖꤚꤢꤩ꤬ꤢꤩ꤬ꤟꤥ꤬ꤢꤩ꤬ꤟꤤ": 3191,
      "ꤖꤚꤢꤩ꤬ꤕ꤫ꤢꤦ꤬ꤖꤢꤩ꤬ꤛꤢꤩꤕꤜꤢꤩ": 3192,
      "ꤟꤢꤩꤕ꤫ꤥ꤬": 3193,
      "ꤟꤢꤩꤔꤤꤔꤢꤧ꤬": 3194,
      "ꤟꤢꤩꤙꤛꤢ꤬": 3195,
      "ꤗꤢꤩ꤬ꤔ꤫ꤤ꤬": 3196,
      "ꤗꤢꤩ꤬ꤕꤢ꤬": 3197,
      "ꤠꤢꤧ꤭ꤔꤣꤧ꤬": 3198,
      "ꤠꤢꤧ꤭ꤗ꤫ꤥ꤬": 3199,
      "ꤠꤢꤧ꤭ꤞꤝꤤ꤬": 3200,
      "ꤗꤢ꤬ꤒꤢꤩ꤭": 3201,
      "ꤛꤢꤩ꤬ꤞꤤ꤭ꤍ꤫ꤥ꤬": 3202,
      "ꤕꤢꤩ꤬ꤒꤢꤩ꤬": 3203,
      "ꤟꤢꤧ꤭ꤊꤣꤧ꤬ꤓꤢꤪ꤬ꤥ꤬": 3204,
      "ꤜꤢꤪ꤭ꤊꤢꤧ꤭": 3205,
      "ꤜꤢꤪ꤭ꤜꤢꤪ꤭": 3206,
      "ꤓꤢꤧ꤬ꤘꤢꤧ": 3207,
      "ꤓꤢꤧ꤬ꤖꤥ꤬": 3208,
      "ꤡꤝꤢꤟꤢꤩ": 3209,
      "ꤋꤢꤨ꤭ꤛꤥ꤬": 3210,
      "ꤋꤢꤨ꤭ꤔꤤ꤬": 3211,
      "ꤊꤣꤧ꤭ꤜꤢ꤭ꤟꤤ": 3212,
      "ꤙꤣꤧꤔꤣꤧ꤬ꤒꤣꤧ꤬ꤟꤢꤩ꤬": 3213,
      "ꤋꤚꤢꤦ": 3214,
      "ꤕꤜ꤫ꤢꤩ꤬": 3215,
      "ꤘꤣꤧꤞꤢꤧ": 3216,
      "ꤘꤣꤧꤊꤢꤦ꤭": 3217,
      "ꤞꤢꤧꤞꤢꤧ": 3218,
      "ꤞꤢꤧꤟꤢꤨꤔꤣꤧ꤬ꤟꤣꤧ": 3219,
      "ꤒꤢ꤭ꤊꤣꤧ꤬ꤜꤢꤧ꤬": 3220,
      "ꤙꤢꤧ꤬ꤞꤢꤧ꤬": 3221,
      "ꤚꤣꤧꤘꤢꤦ꤬ꤟꤣꤧ": 3222,
      "ꤒꤥ꤭ꤒꤢꤦ": 3223,
      "ꤞꤤꤑꤢꤩ꤭ꤘꤢꤦ꤬ꤟꤣꤧ": 3224,
      "ꤒꤣꤧ꤬ꤚꤢꤦ꤬": 3225,
      "ꤢ꤬ꤜꤝꤤ꤭": 3226,
      "ꤠꤤ꤭ꤎꤢ꤬ꤘꤥ꤬": 3227,
      "ꤠꤤ꤭ꤙꤢꤧ꤬ꤞꤢꤧ꤬": 3228,
      "ꤘꤢꤧ꤬ꤟꤣꤧ": 3229,
      "ꤘꤢꤧ꤬ꤊꤢꤩ꤬": 3230,
      "ꤘꤢꤧ꤬ꤏꤝꤢ꤬": 3231,
      "ꤘꤢꤧ꤬ꤞꤢꤩ": 3232,
      "ꤜꤢꤧ꤬ꤟꤢꤧ꤬": 3233,
      "ꤔꤢꤪ꤭ꤘꤣꤧꤡꤢ꤭": 3234,
      "ꤊꤢꤨꤕꤚꤢꤨ": 3235,
      "ꤡ꤫ꤢꤧ꤬ꤕꤢ꤬": 3236,
      "ꤓꤢꤩ꤬ꤋꤢꤨ꤬": 3237,
      "ꤖꤢꤩ꤭ꤘꤢ꤬ꤠꤤ꤬": 3238,
      "ꤖꤢꤩ꤭ꤔꤥꤢ꤬": 3239,
      "ꤖꤢꤩ꤭ꤞꤢꤩꤙꤢꤩ꤬ꤘꤢꤧ": 3240,
      "ꤔꤣꤧ꤭ꤖꤚꤢꤩ꤬": 3241,
      "ꤔꤣꤧ꤭ꤗꤢꤨ꤬": 3242,
      "ꤔꤣꤧ꤭ꤏꤣꤧ꤭": 3243,
      "ꤜꤣꤢꤨ꤭": 3244,
      "ꤜꤣꤕ꤫ꤥ꤬": 3245,
      "ꤊ꤫ꤢꤩ꤬ꤡꤢꤦ꤬": 3246,
      "ꤓꤣꤧ꤭ꤓꤢꤦ꤭": 3247,
      "ꤓꤣꤧ꤭ꤓꤢꤩ꤬ꤋꤢꤨ꤬": 3248,
      "ꤟꤢꤩꤏꤥ꤬ꤥ꤬ꤔꤢꤩ꤬": 3249,
      "ꤞꤢꤩ꤬ꤓꤢꤩ꤬": 3250,
      "ꤕꤜꤤ꤭ꤊꤢꤧ꤭": 3251,
      "ꤗ꤫ꤢꤪ꤬ꤔꤢꤩ꤬": 3252,
      "ꤡꤢ꤭ꤜꤣ": 3253,
      "ꤖꤛꤢꤖꤢꤩ꤬ꤊꤢꤧ꤭": 3254,
      "ꤗ꤫ꤥ꤬ꤖꤚꤤ꤬": 3255,
      "ꤞꤢꤪ꤬ꤊ꤫ꤤ꤬": 3256,
      "ꤋꤚꤝꤢ꤭ꤊꤢ꤬ꤊꤣꤧ꤭": 3257,
      "ꤗꤢꤪꤋꤢꤨ꤬ꤔꤣꤧ꤬": 3258,
      "ꤕꤣꤧ꤬ꤏꤢꤩ꤭": 3259,
      "ꤕꤣꤧ꤬ꤔ꤫ꤥ꤬": 3260,
      "ꤊꤣꤧ꤬ꤓꤢꤪ꤬ꤥ꤬ꤔꤢꤧ꤭": 3261,
      "ꤢ꤬ꤙꤢꤨ꤭": 3262,
      "ꤣꤧ꤭ꤒꤣ꤬ꤒ꤫ꤥ꤬": 3263,
      "ꤣꤧ꤭ꤒꤣ꤬ꤞꤢꤩ꤭": 3264,
      "ꤓꤢꤩ꤬ꤡꤝꤢꤗꤢꤧ": 3265,
      "ꤙꤢꤧꤜꤢ꤬": 3266,
      "ꤜꤤ꤭ꤓꤢꤧ꤬": 3267,
      "ꤢ꤬ꤒꤢꤩ꤬ꤒꤣꤧ꤬ꤔꤢꤩ꤬": 3268,
      "ꤢ꤬ꤒꤢꤩ꤬ꤟꤢꤩꤗꤥ꤬ꤟꤢꤩꤚꤢꤧ": 3269,
      "ꤔꤣꤧ꤬ꤒꤣ꤬ꤗꤢꤨ꤬": 3270,
      "ꤘꤥ꤬ꤢꤩ꤬ꤏꤢꤩ꤬": 3271,
      "ꤒꤣꤧ꤬ꤘꤢꤦ꤬ꤜꤣ": 3272,
      "ꤒꤣꤧ꤬ꤖꤢꤨ꤭ꤊꤢꤧ꤭": 3273,
      "ꤖꤚꤢꤩ꤬ꤜꤢꤨ꤭ꤒꤢꤧ꤭ꤒꤢꤩ꤬ꤖꤢꤨ": 3274,
      "ꤔꤢ꤬ꤔꤤ": 3275,
      "ꤒꤣꤧ꤬ꤠꤢ꤬ꤊꤢꤨ꤭": 3276,
      "ꤒꤣ꤬ꤗꤢꤩ꤭ꤚꤣꤧ꤬": 3277,
      "ꤟꤢꤧ꤭ꤑꤢꤩ꤭ꤜꤢ꤭": 3278,
      "ꤙꤢꤣꤧ꤭": 3279,
      "ꤙꤢꤧꤞꤝꤢꤙꤢꤧꤜꤢ꤬": 3280,
      "ꤕꤥ꤬ꤢꤩ꤬": 3281,
      "ꤢ꤬ꤜꤥ꤬ꤔꤣꤧ꤬": 3282,
      "ꤒꤢꤩ꤬ꤖꤚꤥ꤬ꤖꤚꤢꤧ꤬": 3283,
      "ꤏꤢꤪ꤭ꤚꤤ꤬ꤏꤢꤪ꤭ꤙꤢꤨ꤭": 3284,
      "ꤖꤥ꤭ꤓꤢꤧ꤬": 3285,
      "ꤏꤥ꤬ꤖꤢꤨ": 3286,
      "ꤏꤥ꤬ꤜꤥ꤬": 3287,
      "ꤓꤢꤩꤙꤤꤊꤢꤧ꤭": 3288,
      "ꤊꤣꤧ꤬ꤘꤢ꤭ꤓꤢꤦ꤭": 3289,
      "ꤊꤜꤢꤧ꤬ꤡꤝꤢ": 3290,
      "ꤋꤥ꤬ꤓꤢꤧ꤬": 3291,
      "ꤜꤢꤦ꤬ꤗꤢꤩ꤬ꤗꤥ꤬": 3292,
      "ꤛ꤫ꤢꤨ꤬ꤢꤩ꤬": 3293,
      "ꤔꤢꤩꤘꤢꤪ꤭": 3294,
      "ꤔꤢꤩꤜꤢ": 3295,
      "ꤢꤩꤟꤢꤧ꤭ꤔ꤫ꤤ꤬": 3296,
      "ꤖꤚꤢꤧ꤭ꤖꤚꤢꤧ꤭": 3297,
      "ꤠꤤ꤭ꤊꤢꤨ꤭ꤔꤣꤧ꤬": 3298,
      "ꤍꤢꤧ꤭ꤡꤝ꤫ꤢꤩ꤬": 3299,
      "ꤟꤢꤩ꤬ꤚꤥ꤬ꤘꤤ": 3300,
      "ꤢ꤬ꤊꤢꤨꤗꤤ꤬": 3301,
      "ꤢ꤬ꤕ꤫ꤥ꤬ꤢ꤬ꤗ꤫ꤢꤧ꤬": 3302,
      "ꤜꤣꤧ꤬ꤒꤢ꤭ꤖꤚꤢꤪ꤬": 3303,
      "ꤕꤜꤢꤜꤤ꤭": 3304,
      "ꤞꤢꤨ꤬ꤘꤢꤧ꤬ꤞꤢꤩ": 3305,
      "ꤙꤛꤢ꤬ꤖꤢꤧ": 3306,
      "ꤟꤢꤩꤜꤥ꤭ꤕꤜꤥ꤭": 3307,
      "ꤙꤢꤧꤜꤢꤧ꤬ꤜꤢꤨ": 3308,
      "ꤓꤣꤧ꤭ꤘꤢꤨ꤬ꤒꤣꤧ꤬ꤠꤢ꤬ꤊꤢꤨ꤭": 3309,
      "ꤜꤢꤧ꤭ꤗ꤫ꤥ꤬": 3310,
      "ꤊꤢꤨ꤬ꤊꤜꤢꤧꤓꤢꤧ꤬ꤜꤥ꤭": 3311,
      "ꤋꤢꤨ꤭ꤢ꤬ꤔꤢ꤬ꤔꤤ": 3312,
      "ꤜ꤫ꤢꤧ꤬ꤋꤢꤨ꤬": 3313,
      "ꤒꤢꤩ꤬ꤊꤜꤝꤤ꤭ꤒꤢꤩ꤬ꤜꤝꤤ": 3314,
      "ꤢ꤬ꤞꤢꤩ꤬ꤓꤢꤩ꤬": 3315,
      "ꤡ꤫ꤢ꤬ꤚ꤫ꤢꤪ꤬": 3316,
      "ꤞꤤꤜꤢꤩ꤬ꤚꤣꤧ": 3317,
      "ꤊꤢꤩꤙꤥ": 3318,
      "ꤋꤚꤥ꤭ꤊꤜꤢꤩ꤭": 3319,
      "ꤕꤣꤒꤣꤧ꤬ꤚꤤ꤬ꤚꤣꤧ": 3320,
      "ꤙꤢꤗꤥ꤭ꤓꤢꤧ꤬": 3321,
      "ꤗꤢꤧꤙꤢꤦ꤭ꤊꤣꤧ꤭": 3322,
      "ꤢ꤬ꤔꤢ꤬ꤒꤣ꤬ꤚꤤ": 3323,
      "ꤋꤚꤢꤦ꤬ꤔꤢꤧ꤬": 3324,
      "ꤜꤣꤧ꤬ꤋꤢꤦꤒꤢ꤭": 3325,
      "ꤎꤢꤩ꤬ꤓꤣ꤬": 3326,
      "ꤓꤣꤧ꤭ꤢꤪ꤬ꤘꤢꤨ꤬ꤒꤣꤧ꤬ꤠꤢꤪ꤬ꤓꤢꤦ꤭": 3327,
      "ꤊꤣꤧꤔ꤫ꤥ꤬": 3328,
      "ꤡ꤫ꤢ꤬ꤖꤚꤣꤧ꤭ꤡ꤫ꤢ꤬ꤚ꤫ꤢꤪ꤬": 3329,
      "ꤕꤣꤧꤚꤥ꤬ꤕꤢ꤭": 3330,
      "ꤓꤝꤤ꤬ꤗꤤ꤬": 3331,
      "ꤊꤢ꤬ꤘꤢꤩ": 3332,
      "ꤢꤪꤜꤤꤠꤢ꤬ꤏꤥ꤬ꤋꤢꤨ꤬": 3333,
      "ꤢ꤬ꤏꤛꤢꤊ꤫ꤢꤩ꤬": 3334,
      "ꤢ꤬ꤏꤛꤢꤊ꤫ꤢꤩ꤬ꤊꤢꤨ꤭": 3335,
      "ꤞꤢꤪ꤬ꤏꤢꤧꤗ꤫ꤢꤪ꤬": 3336,
      "ꤞꤢꤪ꤬ꤏꤢꤧꤞꤢꤪ꤬ꤊ꤫ꤤ꤬": 3337,
      "ꤥ꤬ꤗꤥ꤬ꤥ꤬ꤚꤢꤧ": 3338,
      "ꤜꤥ꤭ꤊ꤫ꤢꤩ꤬ꤔꤢꤩꤘꤢꤪ꤭": 3339,
      "ꤢ꤬ꤏꤝꤤꤢ꤬ꤏꤢꤩ꤭": 3340,
      "ꤤ꤬ꤜ꤫ꤥ꤬ꤒꤢ꤭": 3341,
      "ꤢ꤬ꤙꤝꤤꤘꤢꤨ꤬ꤢ꤬ꤒꤣꤧ꤬ꤚꤣꤧ꤭ꤓꤢꤨ꤭": 3342,
      "ꤗ꤫ꤢꤩ꤬ꤊꤢꤧ꤭": 3343,
      "ꤊ꤫ꤢꤩ꤬ꤚ꤫ꤥ꤬ꤋꤢꤩ꤭": 3344,
      "ꤗꤢꤪꤚꤢ꤬ꤕꤢꤪ꤬ꤒꤢꤧ꤬ꤊꤢꤨ꤭": 3345,
      "ꤕꤣꤧ꤬ꤥ꤭ꤕꤣꤧ꤬ꤏꤢꤩ꤭": 3346,
      "ꤡꤢꤨꤢꤗꤥ꤭": 3347,
      "ꤡꤢꤪꤗꤢ꤬ꤚꤛꤢ꤬": 3348,
      "ꤊꤚꤢꤩ꤬ꤒꤢꤩ꤬ꤊꤜꤢꤦ": 3349,
      "ꤢ꤬ꤟꤢꤧ꤭ꤢ꤬ꤚꤢꤩ꤬": 3350,
      "ꤒꤢꤩ꤬ꤙꤢꤩ꤬ꤙꤢꤧ": 3351,
      "ꤒꤢꤩ꤬ꤟꤢꤧ꤭ꤒꤢꤩ꤬ꤚꤢꤩ꤬": 3352,
      "ꤒꤢꤩ꤬ꤠꤤꤒꤢꤩ꤬ꤛꤢꤧ": 3353,
      "ꤘꤣꤧꤊꤢꤦ꤭ꤘꤣꤧꤞꤢꤧ": 3354,
      "ꤠꤤ꤭ꤙꤢꤧ꤬ꤞꤢꤧ꤬ꤜꤢꤧ꤬ꤟꤢꤧ꤬": 3355,
      "ꤊꤢꤨꤕꤚꤢꤨꤊꤜꤢꤦ": 3356,
      "ꤗ꤫ꤥ꤬ꤖꤚꤤ꤬ꤎꤤꤜꤢ꤬": 3357,
      "!’": 3358,
      "ꤊꤝꤢ꤭": 3359,
      "ꤊꤢ꤬ꤜꤢ꤬": 3360,
      "ꤎꤢꤩ": 3361,
      "ꤒꤢ꤬ꤜꤤ꤬": 3362,
      "ꤓ꤫ꤣꤧ꤬": 3363,
      "ꤔꤌꤣ꤬": 3364,
      "ꤕꤟ": 3365,
      "ꤚ꤫ꤢꤧ꤬": 3366,
      "ꤚ꤫ꤤ꤬": 3367,
      "ꤛꤥ": 3368,
      "ꤟꤛꤢ꤭": 3369,
      "ꤠꤥ꤬": 3370,
      "ꤡꤟ": 3371,
      "ꤥꤘꤢꤧ꤬": 3372,
      "꤮!”": 3373,
      "ꤢꤩꤕ꤫ꤥ꤬": 3374,
      "ꤢꤩ꤬ꤊꤢꤨ꤭": 3375,
      "ꤢꤩ꤬ꤏꤢꤩ꤬ꤢꤩ꤬": 3376,
      "ꤢ꤬ꤒꤣꤧ꤬": 3377,
      "ꤢ꤬ꤠꤤ꤭": 3378,
      "ꤢ꤬ꤡ꤫ꤢꤧ꤬": 3379,
      "ꤢ꤬ꤊ꤫ꤢꤨ꤬": 3380,
      "ꤢ꤬ꤊꤢꤪ꤬": 3381,
      "ꤢ꤬ꤍꤢꤨ꤬": 3382,
      "ꤢ꤬ꤟꤣꤧ꤬ꤡꤢ꤬": 3383,
      "ꤢ꤬ꤞꤢꤪ꤭": 3384,
      "ꤥ꤬ꤒꤢꤩ꤬": 3385,
      "ꤥ꤬ꤙꤣꤧ": 3386,
      "ꤥ꤬ꤖꤢꤩ꤬": 3387,
      "ꤞꤤꤔꤥ꤭": 3388,
      "ꤔꤣꤧ꤬ꤗ꤫ꤢ꤬ꤒꤥ꤬": 3389,
      "ꤣꤧ꤭ꤢ꤬ꤋꤢꤩ꤭ꤔꤣꤧ꤬": 3390,
      "ꤣꤧ꤭ꤒꤣꤧ꤬ꤠꤤ꤭": 3391,
      "ꤣꤧ꤭ꤞꤤꤔꤣꤧ꤭ꤔꤣꤧ꤬": 3392,
      "ꤒꤣꤧ꤬ꤒꤢꤩ꤬": 3393,
      "ꤒꤣꤧ꤬ꤕꤤ": 3394,
      "ꤒꤣꤧ꤬ꤕꤛꤢ꤭": 3395,
      "ꤒꤢꤩ꤬ꤏꤢꤪ꤭": 3396,
      "ꤒꤢꤩ꤬ꤘꤢꤧ": 3397,
      "ꤒꤢꤩ꤬ꤕꤣ": 3398,
      "ꤒꤢꤩ꤬ꤍꤢꤨ꤬ꤘꤢꤨ꤬ꤖꤚꤤ꤬ꤘꤢꤨ꤬": 3399,
      "ꤒꤢꤩ꤬ꤋꤢꤧꤞꤤꤘꤥ꤭": 3400,
      "ꤒꤢꤩ꤬ꤏꤢꤒꤢꤩ꤬": 3401,
      "ꤥ꤭ꤔꤢꤪ": 3402,
      "ꤖꤚꤢꤩ꤬ꤕꤣꤒꤢꤩ꤬": 3403,
      "ꤤ꤬ꤙꤢ꤬": 3404,
      "ꤤ꤬ꤓꤢꤧ": 3405,
      "ꤤ꤬ꤏꤢ꤬": 3406,
      "ꤒꤣ꤬ꤔꤢ꤬": 3407,
      "ꤟꤢꤩꤊꤣꤧ꤭": 3408,
      "ꤟꤢꤩꤡꤣꤧ": 3409,
      "ꤟꤢꤩꤡ꤫ꤢꤧ꤬": 3410,
      "ꤗꤢꤩ꤬ꤢꤩ꤬": 3411,
      "ꤗꤢꤩ꤬ꤒꤢꤧ꤭": 3412,
      "ꤗꤢꤩ꤬ꤒ꤫ꤣ꤬ꤊꤣꤧ꤭": 3413,
      "ꤗꤢꤩ꤬ꤥ꤬ꤗ꤫ꤢꤩ꤬": 3414,
      "ꤗꤢꤩ꤬ꤞꤤꤋꤚꤢꤦ꤭": 3415,
      "ꤗꤢꤩ꤬ꤊꤜꤢꤪ꤬": 3416,
      "ꤗꤢꤩ꤬ꤞꤤꤒꤣꤧ꤬ꤚꤢꤩ꤭": 3417,
      "ꤗꤢꤩ꤬ꤒꤣꤧ꤬ꤗꤥ꤭ꤒꤣꤧ꤬ꤊꤢꤩ꤬": 3418,
      "ꤗꤢꤩ꤬ꤒꤣꤧ꤬ꤕꤜꤢꤪ꤬ꤜꤣꤧ꤬ꤛꤢꤪ꤬": 3419,
      "ꤗꤢꤩ꤬ꤗꤢꤗꤢꤩ꤬ꤒꤢꤩ꤭": 3420,
      "ꤗꤢꤩ꤬ꤕꤣꤧ꤬ꤔ꤫ꤥ꤬": 3421,
      "ꤠꤢꤧ꤭ꤛꤢ꤬": 3422,
      "ꤗꤢ꤬ꤗꤢꤩ꤬ꤒꤢꤩ꤭ꤟꤢꤩꤚꤣꤧ꤬": 3423,
      "ꤊꤣꤧ꤬ꤘꤣ": 3424,
      "ꤊꤣꤧ꤬ꤢꤪ꤭": 3425,
      "ꤊꤣꤧ꤬ꤞꤝꤤ": 3426,
      "ꤙꤢꤩ꤬ꤗꤢꤩ꤬": 3427,
      "ꤙꤢꤩ꤬ꤏꤢꤩ꤭": 3428,
      "ꤙꤢꤩ꤬ꤞꤤ꤬": 3429,
      "ꤜꤢꤨ꤭ꤕꤣꤧꤞꤢꤩ꤬ꤑꤢꤩ꤭": 3430,
      "ꤟꤢꤧ꤭ꤢꤩ": 3431,
      "ꤟꤢꤧ꤭ꤥ꤭": 3432,
      "ꤟꤢꤧ꤭ꤚ꤫ꤥ꤬": 3433,
      "ꤔꤢꤧ꤬ꤊꤜꤝꤤ꤭": 3434,
      "ꤜꤢꤪ꤭ꤘꤢꤦ꤬ꤟꤣꤧ": 3435,
      "ꤜꤢ꤭ꤕ꤫ꤥ꤬": 3436,
      "ꤡꤝꤢꤟꤢꤧ꤭": 3437,
      "ꤡꤝꤢꤓꤝꤢ꤭": 3438,
      "ꤋꤢꤨ꤭ꤛꤢ꤬": 3439,
      "ꤋꤢꤨ꤭ꤏꤛꤢꤩ꤬": 3440,
      "ꤡꤣꤧꤔꤣꤧ꤬": 3441,
      "ꤡꤣꤧꤔꤢꤧ꤭": 3442,
      "꤫ꤢ꤬ꤙꤢꤪ": 3443,
      "ꤕ꤫ꤢꤩ꤬ꤒꤥ꤬": 3444,
      "ꤓꤥ꤭ꤘꤢꤦ꤬": 3445,
      "ꤓꤥ꤭ꤕꤜꤢꤦ": 3446,
      "ꤘꤣꤧꤘꤢꤦ꤬": 3447,
      "ꤘꤣꤧꤥ꤬ꤓꤢꤧ꤬": 3448,
      "ꤔ꤫ꤤ꤬ꤟꤢꤧ꤭ꤔ꤫ꤤ꤬": 3449,
      "ꤗꤢꤧꤗꤢꤧ": 3450,
      "ꤢ꤬ꤚꤢ꤬ꤒꤢꤩ꤬": 3451,
      "ꤞꤣꤧ꤭ꤜꤢꤪ꤭": 3452,
      "ꤞꤣꤧ꤭ꤓꤥ꤭": 3453,
      "ꤕꤜꤢꤪꤜꤢꤪ꤭": 3454,
      "ꤒꤢ꤭ꤟꤣꤧ": 3455,
      "ꤔꤤꤊꤢꤩ꤬": 3456,
      "ꤢ꤬ꤖꤢꤨꤖꤚꤢꤩ꤬ꤗꤢꤪ꤬": 3457,
      "ꤓꤝꤢ꤭ꤘꤢꤨ꤬ꤜꤣ": 3458,
      "ꤒꤣꤧ꤬ꤚꤢꤪ꤭": 3459,
      "ꤢ꤬ꤜ꤫ꤢꤧ꤬": 3460,
      "ꤞꤤꤕꤜꤢꤪ꤬ꤗꤤ꤭": 3461,
      "ꤥ꤬ꤔꤢꤪ": 3462,
      "ꤠꤤ꤭ꤛꤢ꤬ꤚꤤ꤬": 3463,
      "ꤜꤢꤧ꤬ꤙꤢꤩ꤬": 3464,
      "ꤜꤢꤧ꤬ꤚꤣꤧ": 3465,
      "ꤍ꤫ꤥ꤬ꤖꤚꤢ꤬": 3466,
      "ꤔꤢꤪ꤭ꤥ꤬ꤞꤣꤧ꤭ꤖꤚꤢꤩ꤬": 3467,
      "ꤔꤢꤪ꤭ꤋꤢꤧꤙꤢꤩ꤬": 3468,
      "ꤔꤢꤪ꤭ꤛꤢꤧ": 3469,
      "ꤊꤢꤨꤢꤨ꤬": 3470,
      "ꤜꤣꤧ꤬ꤜꤢꤪ꤭": 3471,
      "ꤊꤢ꤬ꤔꤥ꤭": 3472,
      "ꤊꤢ꤬ꤗꤣꤧ꤭": 3473,
      "ꤛ꤫ꤢꤦ꤬ꤢꤩ꤬ꤟꤣꤧ": 3474,
      "ꤛ꤫ꤢꤦ꤬ꤢꤩ꤬ꤒꤥ꤬": 3475,
      "ꤗꤥ꤬ꤜꤣ": 3476,
      "ꤒ꤫ꤥ꤬ꤟꤢꤧ꤭": 3477,
      "ꤜ꤫ꤢꤩ꤬ꤙꤢꤧ꤬": 3478,
      "ꤜ꤫ꤢꤩ꤬ꤟꤢꤩꤥ꤬": 3479,
      "ꤓꤣꤧ꤭ꤋꤢꤨ꤬": 3480,
      "ꤢ꤬ꤑꤢꤩ꤭ꤟꤣꤧ": 3481,
      "ꤢ꤬ꤊꤢꤨ꤭ꤟꤣꤧ": 3482,
      "ꤗ꤫ꤢ꤬ꤒꤥ꤬ꤗꤢ꤬": 3483,
      "ꤔꤥ꤭ꤊꤢꤨ꤭": 3484,
      "ꤟꤢꤩꤙꤢꤩ꤬ꤒꤢ꤭": 3485,
      "ꤟꤢꤩꤙꤢꤩ꤬ꤞꤢꤦ": 3486,
      "ꤒꤢꤩ꤬ꤗꤢꤩ꤬ꤞꤢꤦ": 3487,
      "ꤢ꤬ꤔ꤫ꤢꤩ꤬ꤒꤥ꤬": 3488,
      "ꤋꤢꤧꤙꤢꤩ": 3489,
      "ꤗ꤫ꤥ꤬ꤟꤢꤩ꤬ꤚꤥ꤬ꤘꤤ": 3490,
      "ꤟꤤ꤬ꤊꤢꤨꤊ꤫ꤥ꤬": 3491,
      "ꤒꤣꤧ꤬ꤔꤢꤩ꤬ꤕꤣꤧ꤬ꤒꤤ": 3492,
      "ꤒꤣꤧ꤬ꤔꤢꤩ꤬ꤗꤢꤧꤗꤣꤧ꤭": 3493,
      "ꤜꤤ꤬ꤎꤤ꤬": 3494,
      "ꤜꤤ꤬ꤏꤤ": 3495,
      "ꤤ꤬ꤞꤝꤢꤊꤢꤧ꤭": 3496,
      "ꤕꤣꤧꤞꤢꤩ꤬ꤜꤤ꤭": 3497,
      "ꤢ꤬ꤍ꤫ꤥ꤬ꤖꤚꤢ꤬ꤓꤢꤧ꤬": 3498,
      "ꤗꤤ꤬ꤖꤢꤩ꤬": 3499,
      "ꤋꤝꤤꤏꤢꤪ꤬ꤜꤢ꤬ꤗꤥ꤬": 3500,
      "ꤞꤥ꤭ꤖꤚꤢꤩ꤬": 3501,
      "ꤞꤥ꤭ꤊꤢꤨ꤭": 3502,
      "ꤔ꤫ꤤ꤬ꤟꤥ꤭ꤙꤢꤩ꤬": 3503,
      "ꤊꤣꤧ꤬ꤓꤢꤪ꤬ꤊꤢ꤬": 3504,
      "ꤒꤢꤩ꤬ꤞꤤꤒꤣꤧ꤬ꤚꤢꤩ꤭": 3505,
      "ꤥ꤬ꤔꤢꤩ꤬ꤊꤢꤧ꤭": 3506,
      "ꤢ꤬ꤒꤢꤩ꤬ꤏꤢꤩ꤭": 3507,
      "ꤙꤢ꤭ꤒꤣꤧ꤬ꤕꤤ": 3508,
      "ꤙꤢ꤬ꤘꤢꤨ꤬": 3509,
      "ꤔꤣꤧ꤬ꤒꤣ꤬ꤙꤢꤩ꤬": 3510,
      "ꤒꤢ꤭ꤒꤢꤩ꤬ꤟꤣꤧ": 3511,
      "ꤕꤣꤧꤞꤢꤩ꤬ꤑꤢꤩ꤭ꤔꤣꤧ꤬": 3512,
      "ꤒꤣꤧ꤬ꤡꤢꤩ꤭": 3513,
      "ꤒꤣꤧ꤬ꤘꤢꤦ꤬ꤊꤢꤧ꤭": 3514,
      "ꤜ꤫ꤢꤪ꤬ꤞꤢꤩ": 3515,
      "ꤗꤢꤩ꤬ꤡꤝ꤫ꤢ꤬ꤙꤢꤩ": 3516,
      "ꤊꤜꤢꤪ꤭ꤒꤢ꤭": 3517,
      "ꤊꤜꤢꤪ꤭ꤜꤢꤧ꤬": 3518,
      "ꤋꤤꤒꤣꤧ꤬ꤚꤢꤦ꤬": 3519,
      "ꤊ꤫ꤢꤩ꤬ꤊꤢꤨ꤭ꤔꤣꤧ꤬": 3520,
      "ꤒꤣꤧ꤬ꤊꤝꤢ꤬": 3521,
      "ꤊꤣꤧ꤭ꤘꤢꤦ꤬ꤟꤣꤧ": 3522,
      "ꤘꤣꤋꤛꤢ꤭ꤒꤣꤧ꤬ꤘꤢꤦ꤬": 3523,
      "ꤕꤥ꤬ꤥ꤭": 3524,
      "ꤜꤝꤤ꤭ꤚꤤ": 3525,
      "ꤡꤢ꤬ꤊꤜꤢꤪ꤭": 3526,
      "ꤒꤣꤧ꤬ꤕꤜꤢꤩ꤬ꤕꤜꤢꤪ꤬": 3527,
      "ꤒꤢꤩ꤬ꤟꤢꤩꤙꤢꤩ꤬ꤣꤧ꤭": 3528,
      "ꤛꤢꤨ꤭ꤑꤢ": 3529,
      "ꤒꤢꤩ꤬ꤥ꤬ꤜꤣꤥ꤬": 3530,
      "ꤛꤢꤨꤘꤢ꤬ꤊ꤫ꤢꤩ꤬ꤊꤢꤨ꤭": 3531,
      "ꤓꤢꤪꤕꤢꤩ꤭ꤊꤢꤧ꤭": 3532,
      "ꤢ꤬ꤚ꤫ꤣꤧ꤬ꤢ꤬ꤔꤥ꤬": 3533,
      "ꤏꤤ꤭ꤜꤢꤧ": 3534,
      "ꤥ꤬ꤕꤜꤢꤪꤥ꤬ꤕꤜꤢꤨ꤬": 3535,
      "ꤤ꤬ꤏꤢꤪꤥ꤬": 3536,
      "ꤥ꤬ꤗꤣꤧ꤭ꤒ꤫ꤣ꤬": 3537,
      "ꤢ꤬ꤊꤜꤝꤤ꤭ꤢ꤬ꤜꤝꤤ": 3538,
      "ꤞꤢꤧꤡꤣꤧꤟꤣꤧ": 3539,
      "ꤒꤣ꤬ꤗꤢꤨ꤬ꤡꤢꤦ꤭": 3540,
      "ꤎꤢ꤬ꤕꤛꤤꤗ꤫ꤢꤪ꤬": 3541,
      "ꤢ꤬ꤊꤢꤨꤢꤨ꤬": 3542,
      "ꤎꤤ꤬ꤜꤤ꤬ꤎꤤ꤬": 3543,
      "ꤊ꤫ꤥ꤬ꤓꤢꤧ꤬": 3544,
      "ꤒꤣꤧ꤬ꤛ꤫ꤢ꤬ꤙꤢꤪ": 3545,
      "ꤒꤢꤩ꤬ꤢꤪꤜꤢꤧ꤬ꤔꤢꤪ꤬ꤜꤢꤧ꤬": 3546,
      "ꤊ꤫ꤢꤩ꤬ꤜꤣꤧ꤬ꤞꤢꤩꤘꤢꤨ꤬": 3547,
      "ꤢ꤬ꤞꤢꤩ꤬ꤢ꤬ꤖꤥ꤭": 3548,
      "ꤓꤣꤧ꤭ꤘꤢꤨ꤬ꤒꤣꤧ꤬ꤠꤢ꤬ꤓꤢꤦ꤭": 3549,
      "ꤞꤤꤜꤢꤩ꤬ꤓꤢꤧ꤬": 3550,
      "ꤞꤢꤧꤟꤣꤧꤔꤢꤧ": 3551,
      "ꤢ꤬ꤋꤥ꤭ꤖꤢꤨꤡ꤫ꤢꤩ꤬": 3552,
      "ꤗꤤꤥ꤬": 3553,
      "ꤗꤤꤜꤢꤩ꤬": 3554,
      "ꤓꤣꤧ꤭ꤢꤪ꤬ꤘꤢꤨ꤬ꤒꤣꤧ꤬ꤠꤢꤪ꤬ꤊꤢꤨ꤭": 3555,
      "ꤘꤣꤧꤢꤩ꤬ꤘꤣꤧꤥ꤭": 3556,
      "ꤣꤧ꤭ꤒꤣ꤬ꤘꤥ꤭ꤔꤣꤧ꤬": 3557,
      "ꤒꤢꤩ꤬ꤒꤣꤧ꤬ꤚꤣꤧ꤭ꤘꤢꤨ꤬ꤓꤢꤨ꤭": 3558,
      "ꤒꤣꤧ꤬ꤜꤢꤨ꤭ꤔ꤫ꤤ꤬": 3559,
      "ꤏꤥ꤭ꤒꤣꤧ꤬ꤕꤢ꤬ꤊꤢꤧ꤭": 3560,
      "ꤓꤝꤤꤓꤢꤩ꤬": 3561,
      "ꤙꤢꤩ꤬ꤛꤢꤪ꤬ꤙꤢꤩ꤬ꤞꤤ꤬": 3562,
      "ꤤ꤬ꤏꤢꤪ꤭ꤤ꤬ꤙꤢ꤬": 3563,
      "ꤖꤛꤢꤘꤝꤢꤕꤜꤢꤪ": 3564,
      "ꤢ꤬ꤒꤝ꤫ꤢ꤬ꤢ꤬ꤚꤢꤧ": 3565,
      "ꤥ꤬ꤕꤜꤢꤨ꤬ꤥ꤬ꤖꤢꤩ꤬": 3566,
      "ꤢ꤬ꤋꤢꤩ꤬ꤛꤢ꤬": 3567,
      "ꤕꤜꤢꤧꤜꤤ꤬ꤏꤤ": 3568,
      "ꤗꤟꤌꤣꤕꤚꤟꤢꤧ": 3569,
      "ꤞꤤꤒꤣꤧ꤬ꤋꤥ꤭ꤊꤢꤧ꤭": 3570,
      "ꤘꤥ꤬ꤢꤩ꤬ꤘꤥ꤬ꤥ꤭": 3571,
      "ꤒꤢꤩ꤬ꤔꤥ꤬ꤗꤢꤦꤔꤥ꤬": 3572,
      "ꤤ꤬ꤕꤜꤤꤚ꤫ꤤ꤬": 3573,
      "ꤜꤢꤨ꤬ꤖꤚꤥꤜꤢꤨ꤬ꤖꤚꤢꤧ꤭ꤊꤢꤧ꤭": 3574,
      "ꤗꤢꤩ꤬ꤕꤝꤢꤩ꤬ꤗꤢꤩ꤬ꤜꤢꤨ꤭": 3575,
      "ꤥ꤬ꤕ꤫ꤢꤪ꤬ꤗꤢ꤬ꤚꤣꤧ": 3576,
      "ꤗꤤ꤭ꤡꤣ꤬ꤚꤥ꤬ꤖꤢꤨ": 3577,
      "ꤓꤢꤧ꤬ꤗꤢꤪꤓꤢꤧ꤬ꤖꤥ꤬": 3578,
      "ꤒꤣꤧ꤬ꤕꤜ꤫ꤥ꤬ꤒꤣꤧ꤬ꤕꤛꤢ꤭": 3579,
      "ꤢ꤬ꤔꤢ꤬ꤜꤝꤤ꤭": 3580,
      "ꤕꤣꤧ꤬ꤛ꤫ꤢꤩ꤬": 3581,
      "ꤒꤣꤧ꤬ꤖꤢꤩ꤬ꤜꤢꤪꤞꤢꤪ꤭": 3582,
      "ꤎꤢꤨ꤬ꤚꤤꤊ꤫ꤢꤩ꤬": 3583,
      "ꤓꤝꤢ꤭ꤘꤢꤨ꤬ꤓꤝꤢ꤭ꤓꤢꤨ꤭": 3584,
      "ꤒꤢꤩ꤬ꤘꤢꤨ꤬ꤒꤢꤩ꤬ꤓꤢꤨ꤭": 3585,
      "ꤋꤢꤨ꤭ꤔꤤ꤬ꤊꤢ꤬ꤘꤢꤩ": 3586,
      "ꤘꤢꤧ꤬ꤏꤝꤢ꤬ꤘꤢꤧ꤬ꤏꤢꤪ꤭": 3587,
      "ꤕꤥ꤬ꤢꤩ꤬ꤕꤥ꤬ꤥ꤭": 3588,
      "ꤊꤢ꤬ꤜꤢ꤬ꤒꤤ": 3589,
      "ꤢ꤬ꤊꤢꤪ꤬ꤢ꤬ꤙꤢꤩ꤬": 3590,
      "ꤒꤢꤩ꤬ꤏꤢꤒꤢꤩ꤬ꤕꤢ꤭": 3591,
      "ꤤ꤬ꤓꤢꤧꤙꤥ꤭": 3592,
      "ꤗꤢꤩ꤬ꤊꤜꤢꤪ꤬ꤗꤢꤩ꤬ꤗꤢ꤬": 3593,
      "ꤔꤢꤧ꤬ꤊꤜꤝꤤ꤭ꤔꤢꤧ꤬": 3594,
      "ꤔ꤫ꤤ꤬ꤟꤢꤧ꤭ꤔ꤫ꤤ꤬ꤚꤢꤩ꤬": 3595,
      "ꤠꤤ꤭ꤛꤢ꤬ꤚꤤ꤬ꤋꤢꤪ": 3596,
      "ꤋꤢꤨ꤭ꤔꤤ꤬ꤊꤢ꤬ꤘꤢꤩꤗꤢꤨ꤬": 3597,
      "ꤊꤚ": 3598,
      "ꤊꤤ꤭": 3599,
      "ꤋꤢꤩ꤬": 3600,
      "ꤋꤢꤦ꤬": 3601,
      "ꤌꤣ꤭": 3602,
      "ꤒꤢ": 3603,
      "ꤒꤢ꤬ꤜ": 3604,
      "ꤓꤢꤨ": 3605,
      "ꤔ꤫ꤢ꤬": 3606,
      "ꤕꤢꤧ꤬": 3607,
      "ꤕꤟꤢꤩ": 3608,
      "ꤖꤢ꤬ꤚꤥ꤬": 3609,
      "ꤗꤢꤧ꤭": 3610,
      "ꤚꤝꤢꤩ": 3611,
      "ꤞꤢꤦ꤭": 3612,
      "ꤟꤤ꤭": 3613,
      "ꤡꤢꤧ꤭": 3614,
      "ꤤꤚꤢꤨ": 3615,
      "ꤥꤙꤤ": 3616,
      "ꤢ꤬ꤓ": 3617,
      "ꤢ꤬ꤟꤣꤧ": 3618,
      "ꤢ꤬ꤒꤢꤩ꤭": 3619,
      "ꤢ꤬ꤖꤢ": 3620,
      "ꤢ꤬ꤏꤢꤩ꤬": 3621,
      "ꤢ꤬ꤗꤤ꤭": 3622,
      "ꤢ꤬ꤔꤢꤩ": 3623,
      "ꤢ꤬ꤊꤢꤨ꤬ꤋꤣꤧ꤭": 3624,
      "ꤥ꤬ꤔ꤫ꤤ꤬": 3625,
      "ꤥ꤬ꤏꤝꤢ꤬": 3626,
      "ꤥ꤬ꤋꤚꤢꤩ꤭": 3627,
      "ꤢꤪꤒꤣꤧ꤬": 3628,
      "ꤢꤦꤢꤧ": 3629,
      "ꤞꤤꤏꤝꤤ": 3630,
      "ꤞꤤꤋꤢꤞꤤꤓꤢꤩ꤬": 3631,
      "ꤔꤣꤧ꤬ꤕꤢ꤭": 3632,
      "ꤣꤧ꤭ꤟꤣꤧ": 3633,
      "ꤢꤨ꤭ꤑꤢꤩ꤭": 3634,
      "ꤢꤨ꤭ꤋꤢꤨ꤬": 3635,
      "ꤢꤨ꤭ꤔ꤫ꤢꤩ꤬": 3636,
      "ꤢꤨ꤭ꤕꤣꤧꤞꤢꤩ꤬": 3637,
      "ꤒꤣꤧ꤬ꤢꤩ꤬": 3638,
      "ꤒꤣꤧ꤬ꤜꤣꤧ꤬": 3639,
      "ꤒꤣꤧ꤬ꤋꤚꤥ꤭": 3640,
      "ꤒꤣꤧ꤬ꤋꤚꤢꤦ": 3641,
      "ꤘꤣꤔꤣꤧ꤬": 3642,
      "ꤚꤣꤧ꤬ꤗꤢ꤬": 3643,
      "ꤒꤢꤩ꤬ꤗꤢꤧꤓ꤫ꤣꤧ꤬": 3644,
      "ꤒꤢꤩ꤬ꤜꤣꤧ꤬ꤕꤜꤢꤩꤊꤢ꤬": 3645,
      "ꤒꤢꤩ꤬ꤖꤥ꤭": 3646,
      "ꤒꤢꤩ꤬ꤊ꤫ꤢꤨ꤬": 3647,
      "ꤒꤢꤩ꤬ꤙꤢꤧ꤭": 3648,
      "ꤒꤢꤩ꤬ꤞꤤꤕꤜꤢꤪ꤬ꤏꤝꤢ꤬": 3649,
      "ꤒꤢꤩ꤬ꤕꤣꤧ꤬ꤡ꤫ꤣꤧ꤬ꤕꤣꤧ꤬ꤢ": 3650,
      "ꤒꤢꤩ꤬ꤟꤢꤩꤖꤚꤥ꤬": 3651,
      "ꤒꤢꤩ꤬ꤋꤚꤢꤩꤋꤚ꤫ꤢꤧ꤬": 3652,
      "ꤒꤢꤩ꤬ꤚꤢ꤭ꤗꤢꤚꤢ꤭ꤒꤢꤩ꤭": 3653,
      "ꤒꤢꤩ꤬ꤊꤣꤧ꤬ꤓꤢꤪ꤬ꤥ꤬ꤔꤢꤧ꤭": 3654,
      "ꤞꤤ꤭ꤟꤤ꤬": 3655,
      "ꤟꤢꤩ꤬ꤜꤢꤩ꤭": 3656,
      "ꤖꤚꤢꤩ꤬ꤞꤢꤨ꤭": 3657,
      "ꤖꤚꤢꤩ꤬ꤞꤤꤓꤢꤩ꤬": 3658,
      "ꤤ꤬ꤞꤢꤩ꤬": 3659,
      "ꤤ꤬ꤏꤝꤤ": 3660,
      "ꤟꤢꤩꤔꤢꤪ": 3661,
      "ꤟꤢꤩꤋꤚꤢꤧ": 3662,
      "ꤟꤢꤩꤔꤢꤨ꤬": 3663,
      "ꤗꤢꤩ꤬ꤓꤢꤧ꤬": 3664,
      "ꤗꤢꤩ꤬ꤜꤢꤩ꤭": 3665,
      "ꤗꤢꤩ꤬ꤙꤤꤊꤢꤧ꤭": 3666,
      "ꤟꤣꤧꤔꤣꤧ꤭": 3667,
      "ꤠꤢꤧ꤭ꤜꤥ꤬": 3668,
      "ꤢ꤬ꤋꤥ": 3669,
      "ꤊꤣꤧ꤬ꤢꤨ꤭": 3670,
      "ꤙꤢꤩ꤬ꤟꤢꤧ꤭": 3671,
      "ꤊꤣꤧ꤬ꤛꤢꤧ꤭ꤗꤝꤤ꤭": 3672,
      "ꤜꤢꤨ꤭ꤔꤣꤧ꤬": 3673,
      "ꤜꤢꤨ꤭ꤊꤢꤨꤋꤢꤨ꤬": 3674,
      "ꤒꤣ꤬ꤖꤚꤢꤩ꤬ꤜꤢꤪ꤭": 3675,
      "ꤖꤢꤨꤠ꤫ꤢꤧ꤬ꤖꤚ꤫ꤢꤩ꤬": 3676,
      "ꤖꤢꤨꤏꤥ꤬ꤖꤢꤨ": 3677,
      "ꤗꤣꤧ꤬ꤓ꤫ꤣꤧ꤬": 3678,
      "ꤕꤢꤩ꤬ꤣꤧ꤭": 3679,
      "ꤕꤢꤩ꤬ꤊꤢꤧ꤭": 3680,
      "ꤕꤢꤩ꤬ꤚꤤ꤬": 3681,
      "ꤟꤢꤧ꤭ꤔꤣꤧ꤬": 3682,
      "ꤟꤢꤧ꤭ꤗꤢꤧ": 3683,
      "ꤟꤢꤧ꤭ꤊꤝꤤ꤭": 3684,
      "ꤟꤢꤧ꤭ꤡꤢꤪꤙꤢꤩ꤭": 3685,
      "ꤟꤢꤧ꤭ꤏꤢꤧ꤬": 3686,
      "ꤟꤢꤧ꤭ꤏꤢꤨ꤬ꤔꤥ꤭": 3687,
      "ꤟꤢꤧ꤭ꤘꤝꤤ": 3688,
      "ꤔꤢꤧ꤬ꤜꤥ꤬": 3689,
      "ꤔꤢꤧ꤬ꤕꤣꤧꤞꤢꤩ꤬": 3690,
      "ꤔꤢꤧ꤬ꤠꤢꤩ꤬": 3691,
      "ꤜꤢꤪ꤭ꤔꤣꤧ꤬": 3692,
      "ꤓꤢꤧ꤬ꤊꤢꤧ꤭": 3693,
      "ꤡꤝꤢꤟꤣꤧ": 3694,
      "ꤡꤝꤢꤡ꤫ꤢꤧ꤬": 3695,
      "ꤡꤝꤢꤠꤢꤪ꤬": 3696,
      "ꤋꤢꤨ꤭ꤟꤢꤩ꤬": 3697,
      "ꤡꤣꤧꤙꤢꤩ꤬ꤙꤢꤩ꤬": 3698,
      "ꤕ꤫ꤢꤩ꤬ꤕ꤫ꤥ꤬": 3699,
      "ꤓꤥ꤭ꤓꤥ꤭": 3700,
      "ꤋꤚꤝꤤ": 3701,
      "ꤘꤣꤧꤞꤤꤑꤢꤩ꤭ꤕꤜꤥ꤭": 3702,
      "ꤒꤢꤩ꤭ꤗꤢꤧ": 3703,
      "ꤗ꤫ꤢ꤬ꤕꤢ꤬ꤒꤥ꤬": 3704,
      "ꤗ꤫ꤢ꤬ꤘꤢꤦ꤬ꤟꤣꤧ": 3705,
      "ꤢ꤬ꤚꤢꤩ": 3706,
      "ꤒꤢ꤭ꤡꤢꤦ": 3707,
      "ꤢ꤬ꤋꤢꤩ꤭ꤔꤣꤧ꤬ꤗꤢ꤬": 3708,
      "ꤘꤢꤨ꤬ꤟꤢꤧ꤭": 3709,
      "ꤢ꤬ꤖꤢꤨꤢ꤬ꤗꤢꤩ꤭": 3710,
      "ꤞꤤꤑꤢꤩ꤭ꤑꤢꤩ꤭": 3711,
      "ꤞꤤꤑꤢꤩ꤭ꤊꤣꤧ꤭": 3712,
      "ꤒꤣꤧ꤬ꤚꤥ꤬": 3713,
      "ꤠꤤ꤭ꤣꤧ꤭ꤔꤣꤧ꤬": 3714,
      "ꤠꤤ꤭ꤞꤢꤩ꤬ꤎꤢ꤬ꤜꤢ꤬ꤔꤤ": 3715,
      "ꤠꤤ꤭ꤒꤣꤧ꤬ꤚꤢꤪ꤭": 3716,
      "ꤔꤢꤪ꤭ꤗꤢꤧ": 3717,
      "ꤔꤢꤪ꤭ꤡꤝꤢꤔꤥ꤭": 3718,
      "ꤊꤢꤨꤔꤢꤪ꤭": 3719,
      "ꤊꤢꤨꤚꤢꤩ꤬": 3720,
      "ꤜꤣꤧ꤬ꤜꤢꤧ꤭": 3721,
      "ꤋꤚꤤꤔꤣꤧ꤬": 3722,
      "ꤖꤢꤩ꤭ꤛꤢ꤬": 3723,
      "ꤔꤣꤧ꤭ꤘꤥ꤭": 3724,
      "ꤊꤢ꤬ꤥ꤬": 3725,
      "ꤊꤢ꤬ꤛꤢ꤭": 3726,
      "ꤊꤢ꤬ꤊꤣꤧ꤬ꤓꤢꤧ꤬": 3727,
      "ꤜ꤫ꤢꤩ꤬ꤗꤢꤩ꤬": 3728,
      "ꤜ꤫ꤢꤩ꤬ꤡꤝꤢ": 3729,
      "ꤊ꤫ꤢꤩ꤬ꤘꤢꤦ꤭": 3730,
      "ꤢ꤬ꤑꤢꤩ꤭ꤑꤢꤩ꤭": 3731,
      "ꤢ꤬ꤊꤢꤨ꤭ꤣꤧ꤭": 3732,
      "ꤢ꤬ꤊꤢꤨ꤭ꤜꤣ": 3733,
      "ꤕꤝꤢ꤭ꤖꤚꤢꤩ꤬": 3734,
      "ꤕꤝꤢ꤭ꤔꤢ꤬": 3735,
      "ꤕꤝꤢ꤭ꤒꤣ꤬ꤙꤢ꤬": 3736,
      "ꤞꤢꤩ꤬ꤙꤢꤨ": 3737,
      "ꤋꤢꤩ꤭ꤒꤣꤧ꤬ꤕꤜꤢꤩ꤬": 3738,
      "ꤛꤢ꤬ꤞꤢꤨ": 3739,
      "ꤟꤢꤩꤙꤢꤩ꤬ꤗꤥ꤬": 3740,
      "ꤟꤢꤩꤙꤢꤩ꤬ꤜꤣꤧ꤬ꤕꤜꤢꤩ": 3741,
      "ꤟꤢꤩꤙꤢꤩ꤬ꤟꤢꤩꤏꤥ꤭": 3742,
      "ꤏꤢꤒꤢ꤭": 3743,
      "ꤏꤢꤒꤣꤧ꤬ꤋꤢꤩ꤭": 3744,
      "ꤊꤢꤨ꤬ꤊꤜꤢꤪꤜꤥ꤬": 3745,
      "ꤒꤢꤩ꤬ꤗꤢꤩ꤬ꤗꤥ꤬": 3746,
      "ꤒꤢꤩ꤬ꤗꤢꤩ꤬ꤗꤢꤗꤢꤩ꤬ꤒꤢꤩ꤭": 3747,
      "ꤙꤢꤩꤜꤢ꤬": 3748,
      "ꤚꤢꤧꤔꤢꤧ꤬ꤡꤣꤧ": 3749,
      "ꤜꤤ꤬ꤞꤣꤧ꤭ꤖꤚꤢꤩ꤬": 3750,
      "ꤜꤤ꤬ꤛꤢ꤬": 3751,
      "ꤜꤤ꤬ꤗꤢꤧ꤭": 3752,
      "ꤟꤢꤩ꤬ꤋꤢꤨ꤬ꤣꤧ꤭ꤔꤣꤧ꤬": 3753,
      "ꤒ꤫ꤢꤧ꤬ꤗꤢꤩ꤬ꤗꤢꤩ꤬": 3754,
      "ꤔ꤫ꤤ꤬ꤙꤢꤩ꤬ꤡ꤫ꤢꤧ꤬": 3755,
      "ꤘꤥ꤬ꤔꤢꤧ꤭ꤕꤜꤥ꤭": 3756,
      "ꤤ꤬ꤞꤝꤢꤚꤢꤧꤊꤢ꤬": 3757,
      "ꤞꤢꤪ꤬ꤒꤢꤪ꤭": 3758,
      "ꤏꤝꤢ꤬ꤔꤢꤧ꤬ꤡꤣꤧ": 3759,
      "ꤜꤢꤨ꤬ꤋꤥ": 3760,
      "ꤊꤢꤨꤔ꤫ꤢꤧ꤬ꤣꤧ꤭ꤔꤣꤧ꤬": 3761,
      "ꤋꤝꤤꤖꤢ꤬ꤚꤥ꤬": 3762,
      "ꤞꤥ꤭ꤡꤣ꤬": 3763,
      "ꤞꤥ꤭ꤞꤢꤩ꤭": 3764,
      "ꤕꤣꤧ꤬ꤓꤢꤦ꤭": 3765,
      "ꤣꤧ꤭ꤒꤣ꤬ꤗꤢꤨ꤬": 3766,
      "ꤓꤢꤩ꤬ꤡꤝꤢꤒꤣꤧ꤬ꤖꤢ꤭ꤊꤢꤧ꤭": 3767,
      "ꤜꤢꤩ꤭ꤙꤢꤧ": 3768,
      "ꤥ꤬ꤔꤢꤩ꤬ꤟꤣꤧ": 3769,
      "ꤒꤢꤦꤔꤣꤧ꤬": 3770,
      "ꤏꤣꤧꤜꤝꤤ꤭": 3771,
      "ꤘꤣꤧꤡꤢ꤭ꤟꤣꤧ": 3772,
      "ꤜꤣꤧ꤬ꤕꤜꤢꤩꤊꤢꤧ꤭": 3773,
      "ꤙꤢ꤬ꤢꤩ꤬": 3774,
      "ꤔꤣꤧ꤬ꤒꤣ꤬ꤗꤢꤦ꤭": 3775,
      "ꤘꤣꤧꤜꤥ꤭ꤟꤣꤧ": 3776,
      "ꤔꤢꤧ꤭ꤖꤢꤧ": 3777,
      "ꤜ꤫ꤢꤩ꤬ꤥ꤬ꤜ꤫ꤢꤩ꤬ꤙꤢꤧ꤬": 3778,
      "ꤖꤥꤖꤥ": 3779,
      "ꤒꤢꤩ꤬ꤞꤤꤋꤚꤢꤦ꤭ꤞꤤꤜꤢꤪ꤭": 3780,
      "ꤞꤢꤨ꤭ꤔꤥ꤭": 3781,
      "ꤞꤢꤨ꤭ꤊꤢ꤬ꤋꤛꤢ꤭": 3782,
      "ꤓꤢꤧ꤬ꤜꤥ꤭ꤋꤢꤨ꤬": 3783,
      "ꤓꤢꤧ꤬ꤜꤥ꤭ꤜꤣ": 3784,
      "ꤒꤣꤧ꤬ꤠꤢꤪꤒꤣꤧ꤬": 3785,
      "ꤒꤣ꤬ꤗꤢꤩ꤭ꤔꤣꤧ꤬": 3786,
      "ꤊꤜꤢꤪ꤭ꤊꤢꤧ꤭": 3787,
      "ꤋꤤꤊꤢꤧ꤭": 3788,
      "ꤏꤢꤦ꤭ꤟꤢꤩ꤭": 3789,
      "ꤒꤣꤧ꤬ꤊꤜꤢꤧ꤬": 3790,
      "ꤠꤢꤩ꤬ꤖꤥ꤭": 3791,
      "ꤔ꤫ꤢꤩ꤬ꤊꤜ꤫ꤢꤪ꤬ꤣꤧ꤭": 3792,
      "ꤢ꤬ꤥ꤬ꤒꤥ꤬": 3793,
      "ꤡꤢꤧ꤬ꤚꤣꤧ": 3794,
      "ꤡꤢꤧ꤬ꤒꤢ꤭": 3795,
      "ꤒꤣꤧ꤬ꤜꤝꤢꤒꤣꤧ꤬ꤕꤜꤢꤩ꤬": 3796,
      "ꤒꤣ꤬ꤔꤣꤧ꤭ꤔꤣꤧ꤭": 3797,
      "ꤕ꤫ꤢꤩ꤬ꤊꤣꤧ꤭ꤚꤣꤧ": 3798,
      "ꤙꤥ꤭ꤘꤢꤨ꤬": 3799,
      "ꤞꤝꤤ꤬ꤒꤢ꤭": 3800,
      "ꤓꤢꤨ꤬ꤞꤢꤩꤓꤢꤧ꤬ꤚꤣꤧ": 3801,
      "ꤒꤢꤩ꤬ꤟꤢꤩꤙꤢꤩ꤬ꤞꤢꤦ": 3802,
      "ꤒꤢꤩ꤬ꤒꤣꤧ꤬ꤔꤢꤩ꤬ꤡ꤫ꤢꤧ꤬": 3803,
      "ꤊꤜꤢꤧ꤬ꤊꤢ꤬": 3804,
      "ꤞꤤꤑꤢꤩ꤭ꤕꤜꤥ꤭ꤙꤢꤩ": 3805,
      "ꤏꤣꤧꤋꤢꤩ꤭ꤒꤥ꤭": 3806,
      "ꤡꤢꤪ꤭ꤗꤢ꤬": 3807,
      "ꤥ꤬ꤊꤥꤊꤣꤧ꤭": 3808,
      "ꤒꤢꤩ꤬ꤜꤤ꤭ꤒꤣꤧ꤬ꤋꤢꤩ꤭": 3809,
      "ꤏꤤ꤭ꤜꤤ꤭": 3810,
      "ꤥ꤬ꤗꤣꤧ꤭ꤥ꤬": 3811,
      "ꤞꤢꤪ꤬ꤊꤜꤣꤧ꤭ꤘꤢꤨ꤬ꤊꤢꤨ꤭": 3812,
      "ꤞꤥ꤬ꤞꤥ꤬": 3813,
      "ꤠꤤ꤭ꤊꤢꤨ꤭ꤖꤢꤨ": 3814,
      "ꤛ꤫ꤢꤧ꤬ꤥ꤬ꤗ꤫ꤢꤩ꤬ꤊꤢꤧ꤭": 3815,
      "ꤠ꤫ꤢꤩ꤬ꤓꤢꤩ꤬": 3816,
      "ꤍꤢꤧ꤭ꤔꤣꤧ꤭": 3817,
      "ꤍꤢꤧ꤭ꤚꤤ": 3818,
      "ꤍꤢꤧ꤭ꤏꤣꤧ꤭": 3819,
      "ꤒꤣ꤬ꤠꤤ꤭ꤜꤢꤪ꤭": 3820,
      "ꤡꤝꤢꤞꤢꤦꤟꤣꤧ": 3821,
      "ꤢ꤬ꤋꤚꤝꤤ": 3822,
      "ꤟꤢꤪꤏꤢꤩ꤭": 3823,
      "ꤜꤣꤧ꤬ꤒꤢ꤭ꤖꤚꤢꤪ꤬ꤊꤢꤧ꤭": 3824,
      "ꤒꤢ꤭ꤒꤢꤦ꤭ꤙꤤ": 3825,
      "ꤞꤢ꤬ꤔꤢꤩꤜꤢ": 3826,
      "ꤠ꤫ꤢꤩ꤬ꤓꤢꤩ꤬ꤊꤢꤧ꤭ꤙꤢꤩ": 3827,
      "ꤢ꤬ꤘꤢꤨ꤬ꤢ꤬ꤓꤢꤨ꤭": 3828,
      "ꤋꤢꤨ꤭ꤢ꤬ꤙꤢꤩ꤬ꤜꤢ": 3829,
      "ꤒꤢ꤬ꤟꤢꤩ꤬": 3830,
      "ꤊꤢꤨꤊꤜꤢꤩ꤭ꤋꤢꤨ꤬": 3831,
      "ꤒꤢꤩ꤬ꤜꤣꤧ꤬ꤋꤢꤦ": 3832,
      "ꤖꤤꤜꤤ꤬ꤕꤤ꤬": 3833,
      "ꤢ꤬ꤗ꤫ꤢ꤬ꤢ꤬ꤡꤢꤪ": 3834,
      "ꤢ꤬ꤗ꤫ꤢ꤬ꤠꤢ": 3835,
      "ꤊꤚꤤꤖꤢꤨ": 3836,
      "ꤗꤢꤩ꤬ꤒꤥ꤭ꤗꤢꤩ꤬ꤙꤢꤩ꤬": 3837,
      "ꤕꤣꤒꤣꤧ꤬ꤚꤤ꤬ꤒꤢꤩ꤬": 3838,
      "ꤤ꤬ꤡꤛꤤꤖꤢꤨ": 3839,
      "ꤊꤣꤧꤔꤤ꤭": 3840,
      "ꤒ꤫ꤢ꤬ꤒꤢ꤭ꤊꤢꤧ꤭": 3841,
      "ꤏꤣꤧꤔꤣꤧ꤭ꤗ꤫ꤥ꤬": 3842,
      "ꤏꤣꤧꤔꤣꤧ꤭ꤗꤢꤩ꤭": 3843,
      "ꤕ꤫ꤢꤨ꤬ꤖꤢꤩ꤭": 3844,
      "ꤢ꤬ꤋꤝꤤꤘꤢꤨ꤬": 3845,
      "ꤘꤢꤪ꤭ꤊꤢꤨ꤭ꤖꤢꤨ": 3846,
      "ꤖꤚꤢꤩ꤬ꤊꤢꤩ꤭ꤞꤤꤗꤤ꤬ꤖꤢꤨ": 3847,
      "ꤜꤢꤩ꤬ꤠꤤꤖꤢꤨ": 3848,
      "ꤓꤢꤦꤞꤢꤨ꤭": 3849,
      "ꤗꤢꤩ꤬ꤜꤢꤨ꤭ꤗꤢꤩ꤬ꤒꤢꤧ꤭": 3850,
      "ꤋꤢꤪ꤭ꤕ꤫ꤢꤩ꤬": 3851,
      "ꤒꤣꤧ꤬ꤚꤣꤧ꤭ꤘꤢꤨ꤬ꤓꤢꤨ꤭": 3852,
      "ꤜꤢꤧꤒꤢ꤭": 3853,
      "ꤙꤢꤩ꤬ꤞꤢ꤬ꤎꤢꤧ": 3854,
      "ꤞꤥ꤭ꤖꤥꤒꤣ꤬ꤖꤥ": 3855,
      "ꤒꤣꤧ꤬ꤊꤢꤪ꤭ꤒꤣꤧ꤬ꤊꤢꤩ꤬ꤙꤤ": 3856,
      "ꤋꤚꤝꤢ꤭ꤜꤢꤦ꤬ꤗꤢꤩ꤬": 3857,
      "ꤋꤚ꤫ꤤ꤬ꤔꤣꤧ꤬": 3858,
      "ꤢꤩ꤬ꤒ꤫ꤣ꤬ꤥ꤭ꤒ꤫ꤣ꤬ꤊꤣꤧ꤭": 3859,
      "ꤋꤢꤨ꤭ꤔꤢ꤬ꤞꤢ꤬ꤔꤢꤩꤜꤢ": 3860,
      "ꤋꤚꤢꤩ꤬ꤗꤢꤩ꤬ꤞꤣꤧ꤭": 3861,
      "ꤔꤣꤧ꤭ꤡꤣ꤬ꤜꤢꤪ꤭": 3862,
      "ꤋꤚꤢꤪ꤭ꤊꤢꤨ꤭ꤛꤢꤧ꤭": 3863,
      "ꤗꤢꤩ꤬ꤡꤢꤪꤗꤢꤩ꤬ꤒꤢꤩ꤬": 3864,
      "ꤋꤢꤨ꤭ꤗꤢꤞꤢꤧ": 3865,
      "ꤙꤢꤩ꤬ꤜꤢꤞꤢꤩ꤬ꤙꤢꤨ": 3866,
      "ꤎꤢ꤬ꤒꤢ꤬ꤚꤢ꤬": 3867,
      "ꤒꤢꤩ꤬ꤋꤢꤨ꤬ꤞꤢꤚꤢꤘꤢꤨ꤬": 3868,
      "ꤢ꤬ꤕꤜꤢꤩ꤬ꤊꤢꤨ꤭": 3869,
      "ꤒꤣꤧ꤬ꤚꤢꤧꤗꤢ꤬": 3870,
      "ꤏꤝꤢ꤬ꤓꤢꤧ꤬ꤏꤢꤪ꤭ꤓꤢꤧ꤬": 3871,
      "ꤠꤤ꤭ꤜꤢꤨꤎꤢ꤬ꤒꤢ꤬ꤚꤢ꤬": 3872,
      "ꤗꤢꤩ꤬ꤊ꤫ꤢꤦ꤬ꤗꤢꤩ꤬ꤋꤢ": 3873,
      "ꤖꤚꤢꤩ꤬ꤛ꤫ꤢꤦ꤬ꤢꤩ꤬ꤔ꤫ꤢꤧ꤬ꤢꤩ꤬ꤖꤢꤨ": 3874,
      "ꤢꤩ꤬ꤚ꤫ꤥ꤬ꤥ꤭": 3875,
      "ꤢ꤬ꤚꤢ꤬ꤒꤢꤩ꤬ꤗꤤ꤬": 3876,
      "ꤎꤤ꤬ꤜꤤ꤬ꤎꤤ꤬ꤛꤢ꤬ꤊ꤫ꤢꤩ꤬": 3877,
      "ꤒꤢꤩ꤬ꤔꤥ꤬ꤗꤢꤦꤔꤥ꤬ꤏꤢꤦ꤭": 3878,
      "ꤔꤢꤧ꤬ꤊꤜꤝꤤ꤭ꤔꤢꤧ꤬ꤜꤢꤧ꤭": 3879,
      "ꤗꤣꤧ꤬ꤓ꤫ꤣꤧ꤬ꤛꤥ꤬": 3880,
      "ꤕꤢꤩ꤬ꤚꤤ꤬ꤕꤢꤩ꤬ꤊꤢꤧ꤭": 3881,
      "ꤟꤢꤧ꤭ꤘꤝꤤꤟꤢꤧ꤭ꤏꤢꤧ꤬": 3882,
      "ꤠꤤ꤭ꤒꤣꤧ꤬ꤚꤢꤪ꤭ꤢ": 3883,
      "ꤊꤢꤨꤚꤢꤩ꤬ꤔꤢꤩ꤬": 3884,
      "ꤖꤢꤩ꤭ꤛꤢ꤬ꤤꤚꤢꤨ": 3885,
      "ꤊ꤫ꤢꤩ꤬ꤘꤢꤦ꤭ꤊꤢꤨ꤭": 3886,
      "ꤕꤝꤢ꤭ꤔꤢ꤬ꤔꤢ꤬": 3887,
      "ꤛꤢ꤬ꤞꤢꤨꤙꤢꤧ꤭": 3888,
      "ꤒꤣꤧ꤬ꤠꤢꤪꤒꤣꤧ꤬ꤞꤢꤦ꤭": 3889,
      "ꤒꤢꤩ꤬ꤜꤣꤧ꤬ꤋꤢꤦꤜꤣꤧ꤬ꤜꤢꤪ꤭": 3890,
      "ꤊꤣꤧꤔꤤ꤭ꤊꤣꤧꤔ꤫ꤥ꤬": 3891,
      "ꤙꤢꤩ꤬ꤜꤢꤞꤢꤩ꤬ꤙꤢꤨꤜꤢ": 3892,
      "ꤊꤝ꤫ꤤ꤬": 3893,
      "ꤋꤢ꤭": 3894,
      "ꤋꤤ꤭": 3895,
      "ꤒꤢ꤬ꤙ": 3896,
      "ꤕꤢꤪ꤭": 3897,
      "ꤘꤣꤧ꤬": 3898,
      "ꤙꤟꤌꤣ": 3899,
      "ꤚꤣ꤬": 3900,
      "ꤚꤟꤛꤢ꤬": 3901,
      "ꤛꤤ꤬": 3902,
      "ꤛ꤫ꤥ꤬": 3903,
      "ꤛꤢ꤬ꤋꤢꤩ꤬": 3904,
      "ꤝꤟꤥ": 3905,
      "ꤞꤢ꤬ꤋꤢꤩ꤭": 3906,
      "ꤟꤢꤨ꤬": 3907,
      "ꤠꤢꤧ": 3908,
      "ꤠꤢꤩ꤭": 3909,
      "ꤠꤟꤤ꤭": 3910,
      "ꤡꤥ꤭": 3911,
      "ꤤꤊꤢ꤬": 3912,
      "ꤢꤩꤟꤣꤧ": 3913,
      "ꤢꤩꤋꤚꤝꤢ꤭": 3914,
      "ꤢꤩꤙꤥ꤭": 3915,
      "ꤢꤩꤏꤛꤢꤧ": 3916,
      "ꤢꤩ꤬ꤚꤢꤧ꤬": 3917,
      "ꤢꤩ꤬ꤚꤣꤧꤘꤢꤦ꤬": 3918,
      "ꤢ꤬ꤡꤢꤪꤗꤣꤧ꤬ꤚꤢꤧ꤬": 3919,
      "ꤢ꤬ꤊꤜ": 3920,
      "ꤢ꤬ꤕꤜꤤ꤭": 3921,
      "ꤢ꤬ꤗꤢꤪꤋꤢꤨ꤬": 3922,
      "ꤢ꤬ꤗꤢ": 3923,
      "ꤢ꤬ꤗꤝꤤ꤭ꤜꤢ꤬": 3924,
      "ꤢ꤬ꤏꤥ꤬": 3925,
      "ꤢ꤬ꤏꤢꤨ꤬": 3926,
      "ꤢ꤬ꤕ꤫ꤢꤧ꤬": 3927,
      "ꤢ꤬ꤕꤜꤤ꤬": 3928,
      "ꤢ꤬ꤙꤢꤩꤑꤢꤩ꤭": 3929,
      "ꤥ꤬ꤟꤢꤧ꤭": 3930,
      "ꤥ꤬ꤚꤣꤧꤘꤢꤦ꤬": 3931,
      "ꤥ꤬ꤕꤝꤢ꤭": 3932,
      "ꤥ꤬ꤟꤢꤧ꤭ꤑꤢꤩ꤭": 3933,
      "ꤥ꤬ꤒꤣꤧ꤬ꤠꤢ꤬": 3934,
      "ꤥ꤬ꤢꤩꤜꤥ꤬": 3935,
      "ꤥ꤬ꤋꤚꤥ꤭": 3936,
      "ꤥ꤬ꤒꤣꤧ꤬ꤖꤢ꤭ꤛꤢ꤬": 3937,
      "ꤥ꤬ꤋꤢꤪ꤬": 3938,
      "ꤞꤤꤥ꤬": 3939,
      "ꤢꤨ꤭ꤛ꤫ꤢꤧ꤬ꤛꤥ꤬": 3940,
      "ꤘꤣꤔꤢꤨ꤬": 3941,
      "ꤚꤣꤧ꤬ꤔꤢꤩ": 3942,
      "ꤔꤢꤧꤚꤣꤧ꤬": 3943,
      "ꤒꤢꤩ꤬ꤡꤢꤩ꤬": 3944,
      "ꤒꤢꤩ꤬ꤒꤣꤧ꤬ꤟꤢꤩ꤬ꤔꤣꤧ꤬": 3945,
      "ꤒꤢꤩ꤬ꤊꤜꤢꤩ꤭": 3946,
      "ꤒꤢꤩ꤬ꤓꤢꤨ꤬ꤞꤢꤩꤓꤢꤧ꤬": 3947,
      "ꤒꤢꤩ꤬ꤕꤜꤝꤢ꤭ꤊꤢꤧ꤭": 3948,
      "ꤒꤢꤩ꤬ꤟꤢꤩꤥ꤬ꤔꤢꤩ꤬": 3949,
      "ꤒꤢꤩ꤬ꤏꤢꤧ꤬ꤜꤢꤧ꤬": 3950,
      "ꤒꤢꤩ꤬ꤒꤣꤧ꤬ꤍꤢ꤭": 3951,
      "ꤒꤢꤩ꤬ꤢꤩ꤬ꤒꤢꤩ꤬": 3952,
      "ꤒꤢꤩ꤬ꤕꤣꤧ꤬ꤒꤤ꤭ꤕꤣꤧ꤬ꤒꤢ": 3953,
      "ꤖꤚꤢ": 3954,
      "ꤖꤚꤢꤨ": 3955,
      "ꤞꤤ꤭ꤠꤢꤩ꤬": 3956,
      "ꤞꤤ꤭ꤋꤝꤢ꤬": 3957,
      "ꤖꤚꤢꤩ꤬ꤤ꤬ꤏꤢꤪ": 3958,
      "ꤖꤚꤢꤩ꤬ꤗꤢꤧꤡꤢꤧ꤬": 3959,
      "ꤖꤚꤢꤩ꤬ꤊꤤ꤬": 3960,
      "ꤖꤚꤢꤩ꤬ꤟꤢꤧ꤭ꤢꤩ꤬": 3961,
      "ꤖꤚꤢꤩ꤬ꤊꤢꤩꤙꤥ": 3962,
      "ꤤ꤬ꤠꤤ꤭": 3963,
      "ꤤ꤬ꤕꤢꤪ꤬": 3964,
      "ꤤ꤬ꤞꤝꤤ": 3965,
      "ꤒꤣ꤬ꤚꤥ꤭": 3966,
      "ꤟꤢꤩꤟꤣꤧ": 3967,
      "ꤟꤢꤩꤚꤣꤧ": 3968,
      "ꤟꤢꤩꤓꤢꤩ꤬": 3969,
      "ꤟꤢꤩꤕꤜꤥ꤭": 3970,
      "ꤟꤢꤩꤜꤢ꤭ꤒꤢꤩ꤬": 3971,
      "ꤟꤢꤩꤙꤢꤪ꤭": 3972,
      "ꤗꤢꤩ꤬ꤘꤢꤦ꤭": 3973,
      "ꤗꤢꤩ꤬ꤖꤚꤢꤩ꤭": 3974,
      "ꤠꤢꤧ꤭ꤓꤣꤧ꤭": 3975,
      "ꤠꤢꤧ꤭ꤕ꤫ꤥ꤬": 3976,
      "ꤠꤢꤧ꤭ꤋꤥ꤭": 3977,
      "ꤠꤢꤧ꤭ꤟꤤ꤬": 3978,
      "ꤠꤢꤧ꤭ꤕꤣꤧꤞꤢꤩ꤬": 3979,
      "ꤜꤢꤪꤘꤤ꤬": 3980,
      "ꤗꤢ꤬ꤔꤢ": 3981,
      "ꤢ꤬ꤋꤢ꤬": 3982,
      "ꤡꤢꤪꤚꤣꤧ꤬ꤔꤢꤩ": 3983,
      "ꤊꤣꤧ꤬ꤜ": 3984,
      "ꤙꤢꤩ꤬ꤡꤝꤢ": 3985,
      "ꤛꤢꤩ꤬ꤞꤤ꤭ꤜ꤫ꤢꤩ꤬": 3986,
      "ꤊꤣꤧ꤬ꤛꤢꤧ꤭ꤚꤢꤧ": 3987,
      "ꤜꤢꤨ꤭ꤟꤤ꤬": 3988,
      "ꤖꤢꤨꤖꤛꤢ": 3989,
      "ꤕꤢꤩ꤬ꤥ꤬": 3990,
      "ꤛꤢ꤭ꤜꤢꤩ꤭": 3991,
      "ꤟꤢꤧ꤭ꤟꤢꤩ": 3992,
      "ꤟꤢꤧ꤭ꤘꤢꤧ꤬": 3993,
      "ꤟꤢꤧ꤭ꤓꤢꤪ": 3994,
      "ꤔꤢꤧ꤬ꤒꤣ꤬ꤖꤚꤢꤩ꤬": 3995,
      "ꤔꤢꤧ꤬ꤓꤣꤧ꤭": 3996,
      "ꤜꤢꤪ꤭ꤢꤨ꤭": 3997,
      "ꤜꤢꤪ꤭ꤕ꤫ꤢꤩ꤬": 3998,
      "ꤑꤢꤩ꤭ꤜꤣ": 3999,
      "ꤡꤝꤢꤘꤣꤧ": 4000,
      "ꤡꤝꤢꤊꤢ꤬": 4001,
      "ꤡꤝꤢꤟꤢꤩꤏꤥ꤬": 4002,
      "ꤡꤝꤢꤋꤥ": 4003,
      "ꤡꤝꤢꤙꤢꤧ꤭": 4004,
      "ꤡꤝꤢꤜꤢꤪꤕꤜꤢꤨ": 4005,
      "ꤊꤜꤢꤦ꤬": 4006,
      "ꤋꤢꤨ꤭ꤢꤧ": 4007,
      "ꤋꤢꤨ꤭ꤔꤢꤩ꤬": 4008,
      "ꤋꤢꤨ꤭ꤖꤤ": 4009,
      "ꤋꤢꤨ꤭ꤘꤢꤩ꤬": 4010,
      "ꤋꤢꤨ꤭ꤢ꤬ꤚꤤ": 4011,
      "ꤋꤢꤨ꤭ꤢ꤬ꤜꤢꤧꤎꤢ꤬ꤘ": 4012,
      "ꤊꤣꤧ꤭ꤚꤣꤧ": 4013,
      "ꤊꤣꤧ꤭ꤗꤣꤧ꤭": 4014,
      "ꤚꤣꤧꤋꤛꤢ꤭": 4015,
      "ꤖꤢꤧꤓꤢꤧ꤬": 4016,
      "ꤘꤣꤧꤊꤣꤧ꤭": 4017,
      "ꤘꤣꤧꤙꤢꤪ꤬": 4018,
      "ꤔ꤫ꤤ꤬ꤋꤚꤢ꤭": 4019,
      "ꤗꤢꤧꤡꤝꤢ": 4020,
      "ꤋꤢꤧ꤭ꤙꤢꤩ": 4021,
      "ꤣꤧ꤭ꤔꤣꤧ꤬ꤖꤢꤧ": 4022,
      "ꤣꤧ꤭ꤔꤣꤧ꤬ꤒꤣ꤬ꤗꤢꤩ꤭": 4023,
      "ꤗ꤫ꤢ꤬ꤡꤝꤢꤚꤣꤧ": 4024,
      "ꤢ꤬ꤚꤝꤢ꤭": 4025,
      "ꤞꤣꤧ꤭ꤍ꤫ꤥ꤬": 4026,
      "ꤞꤣꤧ꤭ꤊꤣꤧ꤬ꤓꤢꤪ꤬ꤊꤢ꤬ꤋꤛꤢ꤭": 4027,
      "ꤢ꤬ꤋꤢꤩ꤭ꤕꤢ꤬": 4028,
      "ꤘꤢꤨ꤬ꤊꤢꤨ꤭": 4029,
      "ꤒꤢꤩ꤬ꤞꤥ꤬ꤒꤢꤩ꤬": 4030,
      "ꤓꤝꤢ꤭ꤜꤢꤨ": 4031,
      "ꤞꤤꤑꤢꤩ꤭ꤥ꤬ꤔꤢꤩ꤬": 4032,
      "ꤒꤣꤧ꤬ꤚ꤫ꤢꤨ꤬": 4033,
      "ꤢ꤬ꤜ꤫ꤢꤨ꤬": 4034,
      "ꤢ꤬ꤜꤝ꤫ꤢ꤬": 4035,
      "ꤠꤤ꤭ꤒꤢ꤬": 4036,
      "ꤠꤤ꤭ꤔꤥ꤭ꤊꤢꤧ꤭": 4037,
      "ꤠꤤ꤭ꤙꤢꤩ꤬ꤚꤤ": 4038,
      "ꤠꤤ꤭ꤙꤢꤩ꤬ꤞꤢ꤬ꤎꤢꤧ": 4039,
      "ꤠꤤ꤭ꤊꤢꤨꤚꤢꤩ꤬ꤔꤢꤩ꤬": 4040,
      "ꤠꤤ꤭ꤤꤊꤢ꤬": 4041,
      "ꤘꤢꤧ꤬ꤘꤝꤢ": 4042,
      "ꤘꤢꤧ꤬ꤞꤢꤨ꤬ꤘꤢꤧ꤬ꤞꤢꤩ": 4043,
      "ꤗꤢꤩ꤬ꤒꤢꤩ꤭ꤟꤢꤩꤔꤣꤧ꤬ꤚꤣꤧ꤬": 4044,
      "ꤍ꤫ꤥ꤬ꤣꤧ꤭": 4045,
      "ꤍ꤫ꤥ꤬ꤞꤣꤧ꤭ꤍ꤫ꤥ꤬": 4046,
      "ꤔꤢꤪ꤭ꤒꤢ꤭": 4047,
      "ꤜꤣꤧ꤬ꤛꤢ꤭": 4048,
      "ꤜꤣꤧ꤬ꤊ꤫ꤢꤩ꤬": 4049,
      "ꤡ꤫ꤢꤧ꤬ꤒꤢꤩ꤬ꤜꤢꤪ꤭": 4050,
      "ꤓꤢꤩ꤬ꤔ꤫ꤤ꤬": 4051,
      "ꤔꤣꤧ꤭ꤛꤢꤩ꤬": 4052,
      "ꤗꤥ꤬ꤟꤢꤧ꤭": 4053,
      "ꤜ꤫ꤢꤩ꤬ꤗꤢꤧꤙꤢꤦ꤭": 4054,
      "ꤊ꤫ꤢꤩ꤬ꤞꤤꤓꤢꤩ꤬": 4055,
      "ꤒꤣꤧ꤬ꤔ꤫ꤢ꤬": 4056,
      "ꤕ꤫ꤥ꤬ꤘꤢꤦ꤬": 4057,
      "ꤕ꤫ꤥ꤬ꤋꤛꤢ꤭ꤞꤢꤧ": 4058,
      "ꤕꤝꤢ꤭ꤞꤢꤩ꤭": 4059,
      "ꤟꤢꤩꤏꤥ꤬ꤕ꤫ꤢꤩ꤬": 4060,
      "ꤟꤢꤩꤏꤥ꤬ꤞꤤꤑꤢꤩ꤭": 4061,
      "ꤟꤢꤩꤏꤥ꤬ꤕꤜꤥ꤭": 4062,
      "ꤗꤢꤪꤋꤚꤢꤪ꤭": 4063,
      "ꤗ꤫ꤢꤪ꤬ꤒꤢ꤭": 4064,
      "ꤗ꤫ꤢꤪ꤬ꤊꤝ꤫ꤤ꤬": 4065,
      "ꤒꤢꤩ꤬ꤗꤢꤩ꤬ꤒꤣꤧ꤬ꤕꤢ꤬": 4066,
      "ꤖꤚꤢꤩ꤬ꤋꤢꤨ꤭ꤘꤢꤨ꤬": 4067,
      "ꤙꤣꤧꤔꤣꤧ꤬ꤒꤣ꤬ꤔꤣꤧ꤭": 4068,
      "ꤙꤢꤩꤊꤣꤧ꤭": 4069,
      "ꤗ꤫ꤥ꤬ꤎꤢꤧ": 4070,
      "ꤚꤢꤧꤚꤣꤧ": 4071,
      "ꤚꤢꤧꤜꤣ": 4072,
      "ꤓꤝꤢ꤭ꤓꤢꤧ꤬ꤊꤣꤧ꤭": 4073,
      "ꤜꤤ꤬ꤊꤣꤧ꤬ꤞꤝꤤ": 4074,
      "ꤊꤝꤤ꤭ꤒꤢꤩ꤬": 4075,
      "ꤊꤝꤤ꤭ꤢꤩ꤬ꤏꤢꤩ꤬": 4076,
      "ꤜꤥ꤬ꤔꤣꤧ꤬": 4077,
      "ꤗꤢꤨꤚꤢ꤬": 4078,
      "ꤒ꤫ꤣ꤬ꤜꤢꤪ꤭": 4079,
      "ꤏꤢꤦ꤬ꤊꤢꤧ꤭": 4080,
      "ꤤ꤬ꤞꤝꤢꤒꤢ꤭": 4081,
      "ꤞꤢꤪ꤬ꤊꤜ꤫ꤢꤪ꤬": 4082,
      "ꤋꤛꤢ꤭ꤞꤢꤧꤜꤢꤨ꤭": 4083,
      "ꤋꤛꤢ꤭ꤞꤢꤧꤘꤢꤦ꤬": 4084,
      "ꤏꤝꤢ꤬ꤜꤣ": 4085,
      "ꤒꤣ꤬ꤖꤥꤋꤢꤩ꤭ꤔꤣꤧ꤬": 4086,
      "ꤋꤚꤝꤢ꤭ꤟꤢꤧ꤭ꤊꤣꤧ꤭": 4087,
      "ꤖꤚꤢꤩ꤬ꤗꤢꤪ꤬ꤟꤢꤨ": 4088,
      "ꤖꤢꤞꤢꤩ꤬": 4089,
      "ꤞꤥ꤭ꤔꤢ꤬": 4090,
      "ꤔ꤫ꤤ꤬ꤟꤥ꤭ꤟꤣꤧ": 4091,
      "ꤏꤛꤢꤩ꤭": 4092,
      "ꤕꤣꤧ꤬ꤜ꤫ꤥ꤬": 4093,
      "ꤞꤢꤩꤗ꤫ꤥ꤬": 4094,
      "ꤜꤢꤩ꤭ꤖꤚ꤫ꤢꤩ꤬": 4095,
      "ꤘꤢꤧꤡ꤫ꤢꤩ꤬": 4096,
      "ꤘꤣꤧꤟꤣꤧ꤭ꤡꤢꤩ꤭ꤗꤢꤧ": 4097,
      "ꤙꤢꤧꤓꤢꤧ꤬": 4098,
      "ꤙꤢꤧꤘꤤ꤭": 4099,
      "ꤒꤢꤦꤣꤧ꤭ꤔꤣꤧ꤬": 4100,
      "ꤜꤤ꤭ꤊꤢ꤬ꤋꤛꤢ꤭": 4101,
      "ꤏꤣꤧꤒꤣ꤬ꤖꤚꤢꤩ꤬": 4102,
      "ꤔꤢꤪꤜꤢ꤭ꤟꤤ": 4103,
      "ꤜꤢꤪ꤭ꤕꤜꤤ꤭ꤡꤣꤧ": 4104,
      "ꤢ꤬ꤒꤢꤩ꤬ꤢꤩ꤬ꤥ꤭": 4105,
      "ꤒ꤫ꤣ꤬ꤊꤣꤧ꤭ꤕꤢ꤬": 4106,
      "ꤏꤥ꤭ꤖꤢꤨ": 4107,
      "ꤜ꤫ꤥ꤬ꤕꤢ꤬": 4108,
      "ꤔꤣꤧ꤬ꤒꤣ꤬ꤔꤣꤧ꤭ꤔꤣꤧ꤬": 4109,
      "ꤔꤣꤧ꤬ꤒꤣ꤬ꤕꤢꤦ꤬": 4110,
      "ꤕꤜꤝꤢ꤭ꤡꤝꤢ": 4111,
      "ꤤ꤬ꤏꤢꤩ꤭ꤢꤩ꤬": 4112,
      "ꤒꤢ꤭ꤒꤢꤩ꤬ꤚꤢꤧ": 4113,
      "ꤗꤢꤩ꤬ꤞꤣꤧ꤭ꤔ꤫ꤤ꤬": 4114,
      "ꤜ꤫ꤢꤪ꤬ꤊꤜꤢꤩ꤭": 4115,
      "ꤗꤢꤧꤕꤢꤨ꤭ꤢꤩ꤬": 4116,
      "ꤗꤢꤩ꤬ꤡꤝ꤫ꤢ꤬ꤊꤣꤧ꤭": 4117,
      "ꤜ꤫ꤢꤩ꤬ꤥ꤬ꤗꤣꤧ꤭": 4118,
      "ꤔꤢ꤬ꤡ꤫ꤢꤩ꤬": 4119,
      "ꤘꤣꤧꤒꤢ꤭ꤟꤣꤧ": 4120,
      "ꤘꤣꤧꤒꤢ꤭ꤋꤚꤢ꤭": 4121,
      "ꤘꤤꤘꤢꤪ꤭": 4122,
      "ꤘꤢꤪ꤭ꤖꤢꤨꤏꤥ꤬ꤖꤢꤨ": 4123,
      "ꤖꤚ꤫ꤢꤩ꤬ꤖꤚꤢꤩ꤬ꤗꤢꤪ꤬": 4124,
      "ꤘꤢꤪꤒꤢ꤭ꤊꤢꤧ꤭": 4125,
      "ꤖꤢꤦ꤬ꤟꤢꤧ꤭": 4126,
      "ꤖꤢꤦ꤬ꤓꤢꤧ꤬ꤟꤣꤧ": 4127,
      "ꤥ꤬ꤊꤢꤧ꤭ꤕꤢ꤬": 4128,
      "ꤖꤚꤢꤩ꤬ꤗꤢꤩ꤬ꤒꤢꤩ꤬": 4129,
      "ꤒꤣꤧ꤬ꤊꤤ꤭": 4130,
      "ꤠꤤ꤭ꤛꤢ꤬ꤚꤢꤨꤏꤛꤢ꤬ꤜꤢꤩ꤬ꤖꤢꤨ": 4131,
      "ꤔꤝꤢꤓꤢꤩ꤬": 4132,
      "ꤜꤝꤤ꤭ꤔ꤫ꤢ꤬": 4133,
      "ꤖꤥ꤭ꤘꤢ꤬ꤠꤤ꤬": 4134,
      "ꤏꤥ꤬ꤚ꤫ꤢ꤬": 4135,
      "ꤕꤜꤝꤢ꤭ꤊꤢꤧ꤭ꤟꤣꤧ": 4136,
      "ꤒꤢꤩ꤬ꤏꤢꤩ꤭ꤞꤝꤤ꤬ꤒꤢ꤭": 4137,
      "ꤟꤥ꤭ꤊꤢꤨ꤭ꤔꤣꤧ꤬": 4138,
      "ꤙꤢꤪꤟꤢꤧ꤭": 4139,
      "ꤙꤢꤪꤓꤢꤧ꤬": 4140,
      "ꤙꤢꤪꤓꤢꤩ꤬": 4141,
      "ꤞꤤꤑꤢꤩ꤭ꤕꤜꤥ꤭ꤟꤢꤧ꤭": 4142,
      "ꤏꤣꤧꤋꤢꤩ꤭ꤙꤢꤩ꤬": 4143,
      "ꤡꤢꤪ꤭ꤓꤢꤧ꤬": 4144,
      "ꤢ꤬ꤓꤣꤧ꤭ꤊ꤫ꤢꤩ꤬": 4145,
      "ꤋꤢꤨ꤭ꤎꤤ꤬": 4146,
      "ꤢ꤬ꤊꤜꤝꤤ꤭ꤜꤢꤧ꤭": 4147,
      "ꤋꤢꤧꤘꤥ꤬ꤜꤥ꤬": 4148,
      "ꤥ꤬ꤊꤣꤧ꤭ꤕꤢ꤬": 4149,
      "ꤞꤢꤨ꤭ꤡꤝꤢꤊꤢꤧ꤭": 4150,
      "ꤟꤢꤩꤗꤥ꤬ꤟꤢꤩꤚꤢꤧꤊꤢꤧ꤭": 4151,
      "ꤢ꤬ꤕꤣꤧꤞꤢꤩ꤬ꤑꤢꤩ꤭ꤔꤣꤧ꤬": 4152,
      "ꤙꤥ꤬ꤙꤤ": 4153,
      "ꤒꤢꤩ꤬ꤞꤢꤦꤒꤢꤩ꤬ꤥ꤬ꤚꤢ꤬ꤖꤢꤨ": 4154,
      "ꤒꤣꤧ꤬ꤗꤥ꤭ꤒꤣꤧ꤬ꤗꤥ꤭": 4155,
      "ꤊꤣꤧ꤭ꤜꤢ꤭ꤒꤢꤩ꤬ꤜꤢꤩ꤭": 4156,
      "ꤒꤝ꤫ꤢ꤬ꤚꤢꤧ": 4157,
      "ꤢ꤬ꤕ꤫ꤥ꤬ꤖꤚꤢꤩ꤬ꤗꤢꤪ꤬": 4158,
      "ꤟꤢꤩꤥ꤬ꤔꤢꤩ꤬ꤊꤢꤧ꤭": 4159,
      "ꤜꤣꤧ꤬ꤒꤢ꤭ꤔꤥ꤭": 4160,
      "ꤡꤝꤤ꤬ꤔ꤫ꤤ꤬": 4161,
      "ꤡꤝꤤ꤬ꤓꤢꤩ꤬": 4162,
      "ꤢꤩꤓꤥ꤭ꤓꤢꤧ꤬ꤏꤝꤢ꤬": 4163,
      "ꤒꤢꤩ꤬ꤗꤥ꤬ꤒꤢꤩ꤬ꤊꤜꤢꤩ꤭": 4164,
      "ꤙꤣꤧꤔꤣꤧ꤬ꤋꤢꤩ꤭ꤕꤢ꤭": 4165,
      "ꤞꤤꤒꤣꤧ꤬ꤚꤢꤩ꤭ꤊꤢꤧ꤭": 4166,
      "ꤗ꤫ꤢꤪ꤬ꤟꤢꤩꤗ꤫ꤢꤪ꤬ꤜꤤ꤭": 4167,
      "ꤋꤚꤢ꤭ꤊꤢꤧ꤭": 4168,
      "ꤡ꤫ꤢꤩ꤬ꤡꤢꤦ꤭ꤗꤢ꤬": 4169,
      "ꤋꤢꤧ꤬ꤛꤢ꤭ꤜꤢꤩ꤭": 4170,
      "ꤢꤩꤊꤢ꤬ꤊꤢꤧ꤭": 4171,
      "ꤜꤢꤪ꤬ꤟꤢꤨ": 4172,
      "ꤖꤚꤢꤩ꤬ꤛꤥ꤬ꤖꤚꤢꤩ꤬ꤊꤤ꤬": 4173,
      "ꤋꤢꤨ꤭ꤡꤛꤢꤩ꤭ꤎꤣ꤬": 4174,
      "ꤘꤝꤢꤊꤢꤧ꤭": 4175,
      "ꤛꤢꤧꤟꤢꤧ꤭": 4176,
      "ꤒꤣꤧ꤬ꤞꤤꤖꤢꤨ": 4177,
      "ꤒꤣꤧ꤬ꤞꤤꤜ꤫ꤥ꤬": 4178,
      "ꤒꤣꤧ꤬ꤞꤤꤙꤥ꤭ꤘꤢꤨ꤬": 4179,
      "ꤤ꤬ꤖꤚꤤ꤬ꤤ꤬ꤏꤢꤩ꤭": 4180,
      "ꤊꤚꤤꤍ꤫ꤥ꤬": 4181,
      "ꤗ꤫ꤢꤪ꤬ꤋꤤꤕꤣꤧ꤬ꤜ꤫ꤥ꤬": 4182,
      "ꤢ꤬ꤊꤜꤢꤪ꤭ꤔꤣꤧ꤬": 4183,
      "ꤗ꤫ꤢꤪ꤬ꤜꤤ꤭ꤚꤥ꤬ꤗꤢꤦ": 4184,
      "ꤜꤢꤨ꤬ꤜꤢꤩꤊꤢꤨ꤬ꤊꤜꤢꤪ": 4185,
      "ꤏꤣꤧꤞꤤꤔꤣꤧ꤭ꤣꤧ꤭": 4186,
      "ꤗꤢꤩ꤬ꤜꤤ꤭ꤗꤢꤩ꤬ꤒꤣꤧ꤬ꤋꤢꤩ꤭ꤓꤢꤧ꤬": 4187,
      "ꤔꤢ꤬ꤎꤢ꤬ꤚꤢꤧꤖꤢꤨ": 4188,
      "ꤕ꤫ꤢ꤬ꤊꤣꤧ꤬ꤓꤢꤪ꤬": 4189,
      "ꤋꤢꤨ꤭ꤗꤢ꤬ꤔꤢ": 4190,
      "ꤏꤣꤧꤔꤣꤧ꤭ꤔꤢ꤬": 4191,
      "ꤞꤤꤥ꤭ꤓꤣꤧ꤭": 4192,
      "ꤎꤤꤔꤢ": 4193,
      "ꤕ꤫ꤢꤨ꤬ꤖꤢꤨ": 4194,
      "ꤠꤢꤧ꤭ꤥ꤬ꤣꤧ꤭": 4195,
      "ꤋꤢꤨ꤭ꤢꤩꤕꤢ꤬": 4196,
      "ꤒꤣꤧ꤬ꤗꤥ꤭ꤒꤣꤧ꤬ꤊꤢꤩ꤬ꤏꤢꤦ꤬": 4197,
      "ꤙꤢꤪ꤭ꤙꤛꤢ꤬": 4198,
      "ꤒꤢ꤭ꤟꤢꤧ꤭ꤑꤢꤩ꤭ꤔꤣꤧ꤬": 4199,
      "ꤏꤛꤢ꤬ꤗꤢ꤬ꤚꤤꤊ꤫ꤢꤩ꤬": 4200,
      "ꤣꤧ꤭ꤒꤣ꤬ꤗꤢꤦ꤭ꤔꤣꤧ꤬": 4201,
      "ꤢ꤫ꤢ꤬ꤒꤣꤧ꤬ꤡꤢ": 4202,
      "ꤜꤣꤧ꤬ꤘꤢꤧꤥ꤭": 4203,
      "ꤕꤣꤧ꤬ꤒꤤꤜꤣꤢꤨ꤭": 4204,
      "ꤞꤥ꤭ꤞꤝꤢꤒꤣ꤬ꤊꤜ꤫ꤢꤪ꤬": 4205,
      "ꤞꤥ꤭ꤞꤝꤢꤒꤣ꤬ꤏꤣꤧ꤭": 4206,
      "ꤕꤤ꤭ꤕ꤫ꤢꤩ꤬": 4207,
      "ꤡꤝꤢꤓꤢꤧ꤬ꤔꤥ꤭": 4208,
      "ꤕꤜꤢꤧꤒꤣꤧ꤬ꤋꤢꤩ꤭": 4209,
      "ꤚ꤫ꤢꤨ꤬ꤞꤤ": 4210,
      "ꤘꤢꤧꤏꤥ꤬ꤜꤥ꤭": 4211,
      "ꤒꤣꤧ꤬ꤖꤢ꤭ꤛꤢ꤬ꤊꤢꤧ꤭": 4212,
      "ꤋꤚꤢꤪ꤭ꤊꤢꤨ꤭ꤘꤢꤨ꤬": 4213,
      "ꤋꤢꤨ꤭ꤊꤢ꤬ꤛꤢꤨ": 4214,
      "ꤋꤢꤨ꤭ꤗꤢꤒꤢ꤬": 4215,
      "ꤢ꤬ꤚꤝ꤫ꤤ꤬ꤢ꤬ꤚꤝꤢ꤭": 4216,
      "ꤗꤥ꤬ꤗꤥ꤬ꤚꤢꤧꤚꤢꤧ": 4217,
      "ꤞꤢꤩ꤬ꤓꤢꤧ꤬ꤖꤥ꤭ꤓꤢꤧ꤬": 4218,
      "ꤟꤣꤧ꤬ꤡꤢ꤬ꤙꤢꤨ꤭": 4219,
      "ꤊ꤫ꤢ꤬ꤊꤜꤥ꤬": 4220,
      "ꤗꤤ꤬ꤊꤢꤧ꤭ꤒꤣꤧ꤬ꤞꤥ꤭": 4221,
      "ꤗꤥꤕꤢ꤬ꤖꤢꤧ": 4222,
      "ꤒꤣꤧ꤬ꤊꤜꤢꤩ꤭ꤜꤢꤩ꤭ꤙꤢꤧ": 4223,
      "ꤟꤢꤩꤙꤢꤩ꤬ꤡꤢꤪꤟꤢꤩꤙꤢꤩ꤬ꤒꤢꤩ꤬": 4224,
      "ꤢ꤬ꤘꤢꤪ꤭ꤢ꤬ꤏꤥ꤬": 4225,
      "ꤔꤣꤧ꤭ꤋꤥꤔꤣꤧ꤭ꤊꤛꤢ꤭": 4226,
      "ꤛꤢꤪꤊ꤫ꤢꤩ꤬": 4227,
      "ꤡꤢꤧꤡ꤫ꤥ꤬": 4228,
      "ꤗ꤫ꤢꤪ꤬ꤔꤢꤩ꤬ꤋꤢꤩ꤭": 4229,
      "ꤞꤢꤪ꤬ꤏꤢꤧꤞꤢꤪ꤬ꤊ꤫ꤤ꤬ꤊꤜꤢꤩ꤭": 4230,
      "ꤡꤢꤨꤢꤗꤥ꤭ꤓꤢꤧ꤬": 4231,
      "ꤥꤘꤢꤧ꤬ꤙꤤ": 4232,
      "ꤤ꤬ꤏꤢ꤬ꤒꤢ꤭": 4233,
      "ꤢ꤬ꤔꤢ꤬ꤜꤝꤤ꤭ꤏꤣꤧ꤭": 4234,
      "ꤊꤢ꤬ꤜꤢ꤬ꤒꤤꤊ꤫ꤢꤩ꤬": 4235,
      "ꤚꤝꤢꤩꤗ꤫ꤢꤪ꤬": 4236,
      "ꤒꤢꤩ꤬ꤙꤢꤧ꤭ꤙꤝꤤ": 4237,
      "ꤒꤢꤦꤔꤣꤧ꤬ꤓꤥ꤭ꤒꤥ꤬": 4238,
      "ꤢ꤬ꤗꤢꤢ꤬ꤒꤢꤩ꤭": 4239,
      "ꤥ꤬ꤋꤚꤥ꤭ꤥ꤬": 4240,
      "ꤘꤣꤔꤢꤨ꤬ꤘꤣ": 4241,
      "ꤒꤢꤩ꤬ꤢꤩ꤬ꤒꤢꤩ꤬ꤥ꤭": 4242,
      "ꤞꤤ꤭ꤋꤝꤢ꤬ꤞꤤ꤭ꤋꤛꤢ꤭": 4243,
      "ꤟꤢꤩꤙꤢꤪ꤭ꤟꤢꤩꤙꤛꤢ꤬": 4244,
      "ꤗꤢꤩ꤬ꤖꤚꤢꤩ꤭ꤗꤢꤩ꤬ꤘꤢꤦ꤭": 4245,
      "ꤠꤢꤧ꤭ꤕ꤫ꤥ꤬ꤠꤢꤧ꤭": 4246,
      "ꤜꤢꤪꤘꤤ꤬ꤊꤤ꤬": 4247,
      "ꤋꤢꤨ꤭ꤢ꤬ꤚꤤꤎꤢ꤬ꤒ": 4248,
      "ꤋꤢꤨ꤭ꤢ꤬ꤜꤢꤧꤎꤢ꤬ꤘꤚꤢꤨ": 4249,
      "ꤒꤢꤩ꤬ꤞꤥ꤬ꤒꤢꤩ꤬ꤋꤚꤢꤩ꤭": 4250,
      "ꤠꤤ꤭ꤒꤢ꤬ꤎꤢꤨ": 4251,
      "ꤠꤤ꤭ꤤꤊꤢ꤬ꤔꤤ꤬": 4252,
      "ꤍ꤫ꤥ꤬ꤞꤣꤧ꤭ꤍ꤫ꤥ꤬ꤥ꤬": 4253,
      "ꤗ꤫ꤢꤪ꤬ꤊꤝ꤫ꤤ꤬ꤜꤢꤧ꤬": 4254,
      "ꤗ꤫ꤥ꤬ꤎꤢꤧꤚꤢ꤬": 4255,
      "ꤘꤤꤘꤢꤪ꤭ꤘꤤꤘꤢꤧ꤭": 4256,
      ")꤯": 4257,
      "꤂꤀": 4258,
      "ꤊꤢ꤬ꤚꤢꤧ": 4259,
      "ꤊꤢꤩꤊꤢ꤬": 4260,
      "ꤋꤢ꤬": 4261,
      "ꤋꤛꤢꤩ꤭": 4262,
      "ꤎꤢ": 4263,
      "ꤏꤝ": 4264,
      "ꤒꤣ": 4265,
      "ꤒꤟꤢꤧ꤭": 4266,
      "ꤒꤟꤢ꤭": 4267,
      "ꤓꤤ꤬": 4268,
      "ꤔꤟꤌꤣ꤭": 4269,
      "ꤕꤢ꤬ꤜꤤ꤬": 4270,
      "ꤖꤢ꤬ꤖꤢꤨ": 4271,
      "ꤗꤟꤢꤩ꤬": 4272,
      "ꤘꤢꤨ": 4273,
      "ꤙꤛ": 4274,
      "ꤚꤢꤨ꤬": 4275,
      "ꤚꤢꤪ꤭": 4276,
      "ꤚꤢ꤬ꤙꤤ": 4277,
      "ꤛꤝꤢ꤭": 4278,
      "ꤛꤢꤪ꤭": 4279,
      "ꤝꤥ": 4280,
      "ꤝꤟꤥ꤭": 4281,
      "ꤠꤢꤪ꤭": 4282,
      "ꤡꤝꤤ": 4283,
      "ꤡꤟꤢꤧ": 4284,
      "ꤥꤊꤢꤧ꤭": 4285,
      "꤮?”": 4286,
      "ꤢꤩꤢꤩ꤬": 4287,
      "ꤢꤩꤗꤤ꤭": 4288,
      "ꤢꤩꤋꤚꤝꤢ꤭ꤡꤝꤢ": 4289,
      "ꤢꤩ꤬ꤘꤤ꤭": 4290,
      "ꤢꤩ꤬ꤒꤢꤦ꤭": 4291,
      "ꤢꤩ꤬ꤜꤣꤧ꤬ꤘꤢꤧꤥ꤭": 4292,
      "ꤢ꤬ꤢꤩ꤬": 4293,
      "ꤢ꤬ꤣꤧ꤭": 4294,
      "ꤢ꤬ꤡꤣ꤬": 4295,
      "ꤢ꤬ꤞꤢꤩ": 4296,
      "ꤢ꤬ꤘꤥ꤭": 4297,
      "ꤢ꤬ꤕꤛꤢ": 4298,
      "ꤢ꤬ꤖꤚꤢ꤬": 4299,
      "ꤢ꤬ꤞꤤꤗꤤ꤬ꤖꤢꤨ": 4300,
      "ꤢ꤬ꤖꤚꤢꤩ꤬ꤛꤥ꤬": 4301,
      "ꤢ꤬ꤜꤥ꤭ꤊꤢꤨ꤭": 4302,
      "ꤢ꤬ꤓꤥ꤬": 4303,
      "ꤢ꤬ꤔ꤫ꤥ꤬": 4304,
      "ꤢ꤬ꤟꤢꤪꤊꤢꤨ꤭": 4305,
      "ꤢ꤬ꤟꤥ꤭ꤗꤢꤦ꤬": 4306,
      "ꤥ꤬ꤜꤢꤪ꤭": 4307,
      "ꤥ꤬ꤚꤢꤩ꤭": 4308,
      "ꤥ꤬ꤜꤣꤙꤢ꤭": 4309,
      "ꤥ꤬ꤚꤢꤪ꤬": 4310,
      "ꤥ꤬ꤖꤚꤢꤧ꤭": 4311,
      "ꤥ꤬ꤠꤤ꤭ꤥ꤬ꤊꤢꤪ꤭": 4312,
      "ꤢꤧ꤬ꤞꤤ꤭": 4313,
      "ꤞꤤꤍꤢꤧ꤭": 4314,
      "ꤔꤣꤧ꤬ꤒꤣ꤬ꤡꤣ꤬": 4315,
      "ꤣꤧ꤭ꤊꤣꤧ꤭": 4316,
      "ꤢꤨ꤭ꤖꤢꤩ꤭": 4317,
      "ꤢꤨ꤭ꤗ꤫ꤥ꤬": 4318,
      "ꤢꤨ꤭ꤗꤝꤤ꤭": 4319,
      "ꤒꤣꤧ꤬ꤕ": 4320,
      "ꤒꤣꤧ꤬ꤖꤢꤧ": 4321,
      "ꤘꤣꤘꤢꤪ꤭": 4322,
      "ꤘꤣꤏꤥ꤬": 4323,
      "ꤔꤢꤧꤗ꤫ꤢꤧ꤬": 4324,
      "ꤔꤢꤧꤔꤢꤧꤚꤣꤧ꤬": 4325,
      "ꤒꤢꤩ꤬ꤍ꤫ꤥ꤬": 4326,
      "ꤒꤢꤩ꤬ꤏꤝꤢ꤬": 4327,
      "ꤒꤢꤩ꤬ꤣꤧ꤭ꤒꤣꤧ꤬ꤟꤢꤩ꤬ꤔꤣꤧ꤬": 4328,
      "ꤒꤢꤩ꤬ꤔ꤫ꤤ꤬ꤘꤢ꤭": 4329,
      "ꤒꤢꤩ꤬ꤜ꤫ꤥ꤬": 4330,
      "ꤒꤢꤩ꤬ꤒꤣꤧ꤬ꤚꤤ꤬": 4331,
      "ꤒꤢꤩ꤬ꤒꤣꤧ꤬ꤕꤢ꤬": 4332,
      "ꤒꤢꤩ꤬ꤊꤢꤦ꤭": 4333,
      "ꤒꤢꤩ꤬ꤟꤢꤩꤙꤝꤤꤟꤢꤩꤒꤣꤧ꤬ꤚꤣꤧ꤭": 4334,
      "ꤒꤢꤩ꤬ꤡꤝꤢꤞꤢꤦ": 4335,
      "ꤒꤢꤩ꤬ꤘꤣꤧꤋꤚꤢ꤭": 4336,
      "ꤖꤚꤝ꤫ꤢ꤬": 4337,
      "ꤥ꤭ꤒꤢꤦ꤭": 4338,
      "ꤞꤤ꤭ꤜꤣꤧ꤬": 4339,
      "ꤞꤤ꤭ꤗ꤫ꤥ꤬": 4340,
      "ꤞꤤ꤭ꤊꤛꤢ": 4341,
      "ꤞꤤ꤭ꤞꤢꤨꤞꤢ": 4342,
      "ꤟꤢꤩ꤬ꤛꤢ꤬ꤚꤤ꤬": 4343,
      "ꤖꤚꤢꤩ꤬ꤘꤢꤧ": 4344,
      "ꤖꤚꤢꤩ꤬ꤏꤣꤧ": 4345,
      "ꤖꤚꤢꤩ꤬ꤊꤜꤝꤢ꤬": 4346,
      "ꤖꤚꤢꤩ꤬ꤕꤣꤧ꤬ꤒꤤꤜꤣ": 4347,
      "ꤖꤚꤢꤩ꤬ꤊꤢ꤬ꤏꤥ꤭ꤘꤢꤧ꤬": 4348,
      "ꤖꤚꤢꤩ꤬ꤕꤣꤒꤣꤧ꤬ꤚꤤ꤬ꤒꤢꤩ꤬": 4349,
      "ꤤ꤬ꤗꤢꤦ꤭": 4350,
      "ꤤ꤬ꤖꤥ꤭": 4351,
      "ꤤ꤬ꤒꤢ꤬ꤜꤤ꤬": 4352,
      "ꤒꤣ꤬ꤙꤢꤩ꤭": 4353,
      "ꤒꤣ꤬ꤞꤢꤪ꤬": 4354,
      "ꤒꤣ꤬ꤊꤜ꤫ꤢꤪ꤬": 4355,
      "ꤒꤣ꤬ꤗꤤ꤭": 4356,
      "ꤒꤣ꤬ꤡꤝ꤫ꤢꤩ꤬": 4357,
      "ꤟꤢꤩꤘꤢꤦ꤬": 4358,
      "ꤟꤢꤩꤋꤥ꤬": 4359,
      "ꤗꤢꤩ꤬ꤔꤢꤧ": 4360,
      "ꤗꤢꤩ꤬ꤒꤥ꤬": 4361,
      "ꤗꤢꤩ꤬ꤘꤢꤦ꤬": 4362,
      "ꤗꤢꤩ꤬ꤖꤢꤧ": 4363,
      "ꤗꤢꤩ꤬ꤓꤝꤢ꤭": 4364,
      "ꤗꤢꤩ꤬ꤗꤢ": 4365,
      "ꤗꤢꤩ꤬ꤒꤣꤧ꤬ꤕꤢ꤬": 4366,
      "ꤗꤢꤩ꤬ꤕꤜꤢꤦ": 4367,
      "ꤗꤢꤩ꤬ꤚ꤫ꤥ꤬ꤊꤣꤧ꤭": 4368,
      "ꤗꤢꤩ꤬ꤒꤢ꤭ꤖꤚꤢꤪ꤬ꤊꤢꤧ꤭": 4369,
      "ꤟꤣꤧꤔꤣꤧ꤬": 4370,
      "ꤟꤣꤧꤕꤢ꤭": 4371,
      "ꤠꤢꤧ꤭ꤣꤧ꤭ꤔꤣꤧ꤬": 4372,
      "ꤠꤢꤧ꤭ꤙꤢꤧ꤬ꤡꤢꤩ꤬": 4373,
      "ꤜꤢꤪꤒꤢ": 4374,
      "ꤊꤣꤧ꤬ꤓꤥ꤭": 4375,
      "ꤊ꤫ꤢꤦ꤬ꤕꤢꤪ꤬": 4376,
      "ꤛꤢꤩ꤬ꤞꤤ꤭ꤋꤛꤢ꤭": 4377,
      "ꤒꤣ꤬ꤖꤚꤢꤩ꤬ꤗꤢ꤬": 4378,
      "ꤒꤣ꤬ꤖꤚꤢꤩ꤬ꤒꤢꤩ꤭": 4379,
      "ꤖꤢꤨꤗꤢꤪ꤬": 4380,
      "ꤕꤢꤩ꤬ꤗ꤫ꤥ꤬": 4381,
      "ꤕꤢꤩ꤬ꤊꤜꤢꤧ": 4382,
      "ꤊꤢꤧ꤭ꤙꤥ꤭": 4383,
      "ꤟꤢꤧ꤭ꤓꤢꤧ꤬": 4384,
      "ꤟꤢꤧ꤭ꤗꤢꤧꤓ꤫ꤣꤧ꤬": 4385,
      "ꤟꤢꤧ꤭ꤊꤣꤧ꤬ꤓꤢꤪ꤬": 4386,
      "ꤟꤢꤧ꤭ꤜꤢꤩ": 4387,
      "ꤟꤢꤧ꤭ꤕꤜꤢꤨ꤬": 4388,
      "ꤟꤢꤧ꤭ꤏꤝ": 4389,
      "ꤔꤢꤧ꤬ꤊ꤫ꤢꤩ꤬": 4390,
      "ꤔꤢꤧ꤬ꤟꤤ꤬": 4391,
      "ꤔꤢꤧ꤬ꤊꤜꤢꤧ": 4392,
      "ꤕꤢ꤭ꤔꤣꤧ꤬ꤗꤢ꤬": 4393,
      "ꤓꤢꤧ꤬ꤒ꤫ꤥ꤬": 4394,
      "ꤓꤢꤧ꤬ꤔꤥ꤭": 4395,
      "ꤜꤢ꤭ꤘꤢꤦ꤬": 4396,
      "ꤡꤝꤢꤡꤢꤩ꤬": 4397,
      "ꤡꤝꤢꤘꤢꤧ꤬": 4398,
      "ꤡꤝꤢꤕꤜꤢ": 4399,
      "ꤡꤝꤢꤤ꤬ꤖꤚꤤ꤬": 4400,
      "ꤡꤝꤢꤡ꤫ꤢꤧ꤬ꤒꤥ꤬": 4401,
      "ꤋꤢꤨ꤭ꤢꤨ": 4402,
      "ꤋꤢꤨ꤭ꤞꤢꤧ": 4403,
      "ꤋꤢꤨ꤭ꤞꤢꤩ꤬": 4404,
      "ꤋꤢꤨ꤭ꤜꤢꤨ": 4405,
      "ꤋꤢꤨ꤭ꤒꤢꤨ": 4406,
      "ꤋꤢꤨ꤭ꤢꤩꤜꤤ꤬ꤛꤢ꤬": 4407,
      "ꤡꤣꤧꤘꤢꤦ꤬": 4408,
      "ꤕ꤫ꤢꤩ꤬ꤓꤥ꤭": 4409,
      "ꤓꤥ꤭ꤜꤢꤨ꤬": 4410,
      "ꤚꤣꤧꤊꤣꤧ꤭ꤘꤢꤦ꤬": 4411,
      "ꤘꤣꤧꤢꤨ꤭": 4412,
      "ꤘꤣꤧꤓꤥ꤭ꤟꤣꤧ": 4413,
      "ꤒꤢꤩ꤭ꤜꤢꤧ꤬": 4414,
      "ꤞꤢꤧꤜꤢꤪ꤭": 4415,
      "ꤞꤢꤧꤔ꤫ꤤ꤬": 4416,
      "ꤞꤢꤧꤟꤢꤨꤔꤣꤧ꤬": 4417,
      "ꤔ꤫ꤤ꤬ꤕ꤫ꤢꤩ꤬": 4418,
      "ꤗꤢꤧꤒꤢ꤭": 4419,
      "ꤗꤢꤧꤊꤢ꤬ꤋꤛꤢ꤭": 4420,
      "ꤗꤢꤧꤚꤢꤩ꤭": 4421,
      "ꤗꤢꤧꤜꤝꤢ": 4422,
      "ꤗꤢꤧꤡꤥ꤭": 4423,
      "ꤢꤦ꤭ꤊꤢꤧ꤭": 4424,
      "ꤗ꤫ꤢ꤬ꤕꤢ꤬ꤒꤥ꤬ꤟꤣꤧ": 4425,
      "ꤢ꤬ꤚꤢꤪ꤭": 4426,
      "ꤞꤣꤧ꤭ꤡ꤫ꤢꤧ꤬ꤒꤥ꤬": 4427,
      "ꤊꤢꤩ꤬ꤟꤢꤩꤔꤣꤧ꤬ꤗꤢ꤬": 4428,
      "ꤜꤥ꤭ꤕ꤫ꤢꤩ꤬": 4429,
      "ꤜꤥ꤭ꤚꤢꤧ": 4430,
      "ꤡꤢꤩ꤬ꤊꤢ꤬": 4431,
      "ꤒꤢ꤭ꤜꤢꤪ꤭": 4432,
      "ꤒꤢ꤭ꤞꤥ꤭": 4433,
      "ꤒꤢ꤭ꤕꤜꤢꤨ": 4434,
      "ꤢ꤬ꤋꤢꤩ꤭ꤣꤧ꤭": 4435,
      "ꤢ꤬ꤋꤢꤩ꤭ꤣꤧ꤭ꤔꤣꤧ꤬": 4436,
      "ꤘꤢꤨ꤬ꤖꤚ꤫ꤢꤩ꤬": 4437,
      "ꤔꤣꤧ꤬ꤒꤣꤧ꤬ꤟꤢꤩ꤬ꤟꤣꤧ": 4438,
      "ꤢ꤬ꤖꤢꤨꤥ꤬": 4439,
      "ꤒꤥ꤭ꤟꤣꤧ": 4440,
      "ꤒꤥ꤭ꤋꤢꤩ꤭": 4441,
      "ꤒꤥ꤭ꤏꤣꤧ": 4442,
      "ꤓꤝꤢ꤭ꤊꤣꤧ꤭": 4443,
      "ꤓꤝꤢ꤭ꤘꤢꤦ꤬": 4444,
      "ꤞꤤꤑꤢꤩ꤭ꤒꤢꤩ꤬": 4445,
      "꤯”)": 4446,
      "ꤠꤤ꤭ꤖꤢꤨ": 4447,
      "ꤠꤤ꤭ꤒꤣ꤬ꤠꤤ꤭": 4448,
      "ꤠꤤ꤭ꤢ꤬ꤞꤢꤩ꤬": 4449,
      "ꤠꤤ꤭ꤘꤢꤩ꤬": 4450,
      "ꤠꤤ꤭ꤙꤢ꤬ꤙꤢꤨ꤬ꤜꤥ꤬": 4451,
      "ꤠꤤ꤭ꤖꤤꤜꤤ꤬ꤕꤤ꤬": 4452,
      "ꤘꤢꤧ꤬ꤊꤣꤧ꤭": 4453,
      "ꤘꤢꤧ꤬ꤡ꤫ꤢꤧ꤬": 4454,
      "ꤘꤢꤧ꤬ꤜꤥ꤭ꤓꤢꤧ꤬": 4455,
      "ꤕꤢ꤬ꤔꤢꤧ꤭": 4456,
      "ꤗꤢꤩ꤬ꤒꤢꤩ꤭ꤚꤣꤧ꤬": 4457,
      "ꤍ꤫ꤥ꤬ꤟꤢꤩ꤬": 4458,
      "ꤔꤢꤪ꤭ꤊꤢ꤬": 4459,
      "ꤔꤢꤪ꤭ꤏꤢꤪ꤭": 4460,
      "ꤔꤢꤪ꤭ꤞꤢꤨ꤭ꤡꤝꤢ": 4461,
      "ꤔꤢꤪ꤭ꤓꤢꤨ꤬ꤞꤢꤩꤚꤣꤧ": 4462,
      "ꤔꤢꤪ꤭ꤕꤣꤚꤣꤧ": 4463,
      "ꤜꤣꤧ꤬ꤕꤢꤪ꤬": 4464,
      "ꤜꤣꤧ꤬ꤠꤢꤪ꤭": 4465,
      "ꤋꤛꤢ꤭ꤟꤣꤧ": 4466,
      "ꤖꤢꤩ꤭ꤢ꤬ꤜꤢ꤬": 4467,
      "ꤗꤢꤧꤓ꤫ꤣ꤬": 4468,
      "ꤗꤢꤧꤓꤣꤧ꤭ꤊꤣꤧ꤭": 4469,
      "ꤊꤢ꤬ꤜꤢꤪ꤭": 4470,
      "ꤛ꤫ꤢꤦ꤬ꤢꤩ꤬ꤜꤢꤧ꤬": 4471,
      "ꤗꤥ꤬ꤔꤢꤧ꤬ꤡꤣꤧ": 4472,
      "ꤒ꤫ꤥ꤬ꤒꤥ꤬": 4473,
      "ꤒ꤫ꤥ꤬ꤒꤣ꤬ꤒ꤫ꤥ꤬": 4474,
      "ꤜ꤫ꤢꤩ꤬ꤡꤢꤧ꤬ꤒꤥ꤭ꤙꤢꤩ꤬ꤒꤢꤩ꤬": 4475,
      "ꤜ꤫ꤢꤩ꤬ꤏꤢꤦꤢꤦ꤭": 4476,
      "ꤜ꤫ꤢꤩ꤬ꤛ꤫ꤤ꤬": 4477,
      "ꤜ꤫ꤢꤩ꤬ꤒꤣꤧ꤬ꤖꤢꤪ꤭": 4478,
      "ꤜ꤫ꤢꤩ꤬ꤞꤤꤛ꤫ꤢꤪ꤬ꤞꤤꤙꤤ꤭": 4479,
      "ꤊ꤫ꤢꤩ꤬ꤊ꤫ꤢꤨ꤬": 4480,
      "ꤊ꤫ꤢꤩ꤬ꤒꤣ꤬ꤊ꤫ꤢꤩ꤬": 4481,
      "ꤓꤣꤧ꤭ꤘꤢꤨ꤬ꤓꤢꤧ꤬": 4482,
      "ꤓꤣꤧ꤭ꤞꤤꤖꤚ꤫ꤢꤩ꤬": 4483,
      "ꤒꤣꤧ꤬ꤔꤥ": 4484,
      "ꤕ꤫ꤥ꤬ꤗ꤫ꤢꤧ꤬": 4485,
      "ꤕ꤫ꤥ꤬ꤔꤢꤧꤗ꤫ꤢꤧ꤬": 4486,
      "ꤡ꤫ꤢꤩ꤬ꤟꤢꤩꤙꤢꤩ꤬ꤗꤥ꤬": 4487,
      "ꤒꤣ꤬ꤖꤢꤧ꤭": 4488,
      "ꤕꤝꤢ꤭ꤒꤣ꤬ꤗꤢꤨ꤬": 4489,
      "ꤕꤝꤢ꤭ꤒꤣ꤬ꤊ꤫ꤢꤩ꤬": 4490,
      "ꤕꤝꤢ꤭ꤒꤣ꤬ꤗ꤫ꤥ꤬": 4491,
      "ꤟꤢꤩꤏꤥ꤬ꤡꤢꤪꤡꤢꤪ": 4492,
      "ꤋꤢꤩ꤭ꤠꤢꤪ꤬": 4493,
      "ꤓꤥ꤭ꤟꤣꤧꤔꤣꤧ꤬": 4494,
      "ꤟꤢꤩꤙꤢꤩ꤬ꤓꤥ꤭": 4495,
      "ꤟꤢꤩꤙꤢꤩ꤬ꤕꤜꤥ꤭": 4496,
      "ꤟꤢꤩꤙꤢꤩ꤬ꤡ꤫ꤢꤩ꤬ꤟꤢꤩꤙꤢꤩ꤬ꤗꤥ꤬": 4497,
      "ꤏꤢꤕ꤫ꤢꤩ꤬": 4498,
      "ꤛꤥ꤬ꤥ꤬": 4499,
      "ꤊꤢꤨ꤬ꤊꤜꤢꤪꤛ꤫ꤢꤧ꤬ꤛꤥ꤬": 4500,
      "ꤢ꤬ꤔ꤫ꤢꤩ꤬ꤔꤣꤧ꤬": 4501,
      "ꤢ꤬ꤔ꤫ꤢꤩ꤬ꤜꤥ꤬": 4502,
      "ꤖꤛꤢꤊꤢꤧ꤭": 4503,
      "ꤖꤛꤢꤚꤣꤧ": 4504,
      "ꤖꤛꤢꤓꤢꤩ꤬": 4505,
      "ꤖꤛꤢꤊꤢ꤬ꤋꤛꤢ꤭": 4506,
      "ꤖꤛꤢꤖꤢꤩ꤬": 4507,
      "ꤖꤛꤢꤓꤢꤩ꤬ꤊꤢꤧ꤭": 4508,
      "ꤖꤛꤢꤖꤢꤨꤖꤛꤢ": 4509,
      "ꤙꤢꤩ꤭ꤊꤢꤨ꤭": 4510,
      "ꤙꤢꤩ꤭ꤖꤢꤩ": 4511,
      "ꤋꤢꤧꤕ꤫ꤢꤩ꤬": 4512,
      "ꤋꤢꤧꤙꤤ": 4513,
      "ꤊꤢ꤬ꤋꤛꤢ꤭ꤡ꤫ꤢꤧ꤬": 4514,
      "ꤙꤣꤧꤔꤣꤧ꤬ꤒꤣ꤬ꤖꤥ꤬": 4515,
      "ꤙꤢꤩꤊꤢꤧ꤭": 4516,
      "ꤒꤢꤩ꤬ꤞꤢꤦꤔꤣꤧ꤬": 4517,
      "ꤚꤢꤧꤒꤥ꤬": 4518,
      "ꤟꤤ꤬ꤔꤢꤧ": 4519,
      "ꤓꤝꤢ꤭ꤓꤢꤧ꤬ꤘꤢꤦ꤬": 4520,
      "ꤒꤣꤧ꤬ꤔꤢꤩ꤬ꤜꤢꤧ꤬": 4521,
      "ꤒꤣꤧ꤬ꤔꤢꤩ꤬ꤒ꤫ꤥ꤬": 4522,
      "ꤜꤤ꤬ꤋꤢꤧꤟꤢꤩꤏꤥ꤬ꤜꤥ꤭ꤒꤢꤩ꤬": 4523,
      "ꤊꤝꤤ꤭ꤢꤩ꤬": 4524,
      "ꤜꤥ꤬ꤊꤣꤧ꤬ꤘꤢ꤭": 4525,
      "ꤒ꤫ꤣ꤬ꤟꤣꤧ": 4526,
      "ꤞꤢꤪ꤬ꤚꤝ꤫ꤤ꤬": 4527,
      "ꤋꤛꤢ꤭ꤞꤢꤧꤟꤣꤧ": 4528,
      "ꤒꤣ꤬ꤖꤥꤖꤢꤧ": 4529,
      "ꤒꤣ꤬ꤖꤥꤋꤢꤩ꤭": 4530,
      "ꤒꤣ꤬ꤖꤥꤖꤥ": 4531,
      "ꤜꤢꤨ꤬ꤓꤥ꤭ꤜꤢꤨ꤬": 4532,
      "ꤋꤚꤝꤢ꤭ꤖꤢꤩ꤬": 4533,
      "ꤋꤚꤝꤢ꤭ꤕꤜꤢꤨ꤬": 4534,
      "ꤋꤚꤝꤢ꤭ꤗꤢꤧꤙꤢꤦ꤭": 4535,
      "ꤒꤢꤧ꤭ꤓꤢꤧ꤬": 4536,
      "ꤜꤢ꤬ꤊꤢꤪ꤬": 4537,
      "ꤗꤤ꤬ꤊꤜꤢꤩ꤭": 4538,
      "ꤢ꤬ꤊꤢꤧ꤭ꤙꤥ꤭": 4539,
      "ꤡꤝꤢꤩ꤭": 4540,
      "ꤞꤥ꤭ꤗꤢꤩ꤭": 4541,
      "ꤞꤥ꤭ꤘꤥ꤭": 4542,
      "ꤞꤥ꤭ꤜꤝꤤ꤭": 4543,
      "ꤞꤥ꤭ꤒꤢ꤭ꤊꤢꤧ꤭": 4544,
      "ꤔ꤫ꤤ꤬ꤟꤥ꤭ꤊꤣꤧ꤭": 4545,
      "ꤋꤚꤢꤦ꤭ꤗꤢꤩ꤬": 4546,
      "ꤥ꤬ꤞꤣꤧ꤭ꤖꤚꤢꤩ꤬ꤙꤢꤩ": 4547,
      "ꤒꤢꤩ꤬ꤞꤤꤤ꤬ꤏꤢꤩ꤭": 4548,
      "ꤒꤢꤩ꤬ꤞꤤꤛ꤫ꤢꤪ꤬ꤞꤤꤙꤤ꤭": 4549,
      "ꤣꤧ꤭ꤒꤣ꤬ꤊꤛꤢ꤭": 4550,
      "ꤘꤢꤧꤗꤢꤧ": 4551,
      "ꤘꤢꤧꤗꤣꤧ꤬ꤓ꤫ꤣꤧ꤬ꤛꤥ꤬": 4552,
      "ꤘꤣꤧꤟꤣꤧ꤭ꤜꤢꤧ꤬": 4553,
      "ꤘꤣꤧꤟꤣꤧ꤭ꤏꤢꤦ꤬": 4554,
      "ꤚꤢ꤭ꤥ꤬ꤊꤢꤧ꤭": 4555,
      "ꤢ꤬ꤚꤤ꤬ꤢ꤬ꤊꤢꤧ꤭ꤣꤧ꤭": 4556,
      "ꤊꤜꤢꤧꤓꤢꤦ꤭": 4557,
      "ꤘꤣꤧꤡꤢ꤭ꤊꤢꤧ꤭": 4558,
      "ꤘꤣꤧꤡꤢ꤭ꤡꤢ꤭": 4559,
      "ꤒ꤫ꤣ꤬ꤊꤣꤧ꤭ꤘꤢꤦ꤬": 4560,
      "ꤜ꤫ꤥ꤬ꤘꤣꤧ": 4561,
      "ꤔꤣꤧ꤬ꤒꤣ꤬ꤊꤢꤨ꤭": 4562,
      "ꤔꤣꤧ꤬ꤒꤣ꤬ꤞꤢꤩ꤭": 4563,
      "ꤡꤢꤦ꤬ꤒꤢ꤭": 4564,
      "ꤓꤢꤨ꤭ꤜꤣ": 4565,
      "ꤕꤜꤝꤢ꤭ꤗꤢꤩ꤬": 4566,
      "ꤚꤤꤛꤢ꤬": 4567,
      "ꤚ꤫ꤥ꤬ꤢꤩ": 4568,
      "ꤒꤣ꤬ꤖꤥ꤬ꤗꤢ꤬": 4569,
      "ꤜ꤫ꤢꤪ꤬ꤊꤢꤨ꤭": 4570,
      "ꤜ꤫ꤢꤪ꤬ꤖꤚꤥ꤬": 4571,
      "ꤜ꤫ꤢꤪ꤬ꤞꤢꤨ": 4572,
      "ꤜ꤫ꤢꤪ꤬ꤙꤢꤨ꤭": 4573,
      "ꤒꤣꤧ꤬ꤜꤥ": 4574,
      "ꤜ꤫ꤢꤩ꤬ꤥ꤬ꤚꤣꤧ": 4575,
      "ꤜ꤫ꤢꤩ꤬ꤥ꤬ꤠꤢ": 4576,
      "ꤢ꤬ꤊꤜꤢꤩ꤭ꤔꤣꤧ꤬ꤗꤢ꤬": 4577,
      "ꤚ꤫ꤣꤧ꤬ꤟꤣꤧ": 4578,
      "ꤖꤥꤏꤣꤧ": 4579,
      "ꤢ꤬ꤞꤤꤕꤜꤢꤪ꤬ꤊꤢꤨ꤭": 4580,
      "ꤒꤣꤧ꤬ꤠꤢ꤬ꤙꤤ": 4581,
      "ꤘꤣꤧꤒꤢ꤭ꤜꤢꤪ꤭": 4582,
      "ꤞꤤꤔꤣꤧ꤭ꤜꤢꤪ꤭": 4583,
      "ꤘꤢꤨ꤬ꤜꤣꤢꤨ꤭": 4584,
      "ꤋꤤꤛꤣ꤬": 4585,
      "ꤖꤢꤦ꤬ꤞꤣꤧ꤭": 4586,
      "ꤖꤢꤦ꤬ꤟꤢꤧ꤭ꤟꤣꤧ": 4587,
      "ꤥ꤬ꤊꤢꤧ꤭ꤣꤧ꤭": 4588,
      "ꤥ꤬ꤊꤢꤧ꤭ꤔ꤫ꤤ꤬": 4589,
      "ꤊꤢꤨꤋꤢꤨ꤬ꤜꤥ꤬": 4590,
      "ꤑꤢ꤭ꤟꤣꤧ": 4591,
      "ꤞꤥ꤭ꤞꤝꤢꤒꤣ꤬ꤗꤢꤨ꤬": 4592,
      "ꤕꤥ꤬ꤟꤣꤧ": 4593,
      "ꤒꤣꤧ꤬ꤠꤢ꤬ꤜꤢꤪ꤭": 4594,
      "ꤒꤣꤧ꤬ꤜꤝꤢꤙꤢꤩ": 4595,
      "ꤕ꤫ꤢꤩ꤬ꤊꤣꤧ꤭ꤕ꤫ꤥ꤬": 4596,
      "ꤏꤥ꤬ꤊꤜꤢꤩ꤭": 4597,
      "ꤜꤣꤧ꤬ꤟꤥ꤭ꤢꤩ꤬": 4598,
      "ꤒꤣꤧ꤬ꤕꤜꤢꤩ꤬ꤜꤢ꤭ꤒꤢꤩ꤬": 4599,
      "ꤢ꤬ꤞꤢꤩ꤭ꤣꤧ꤭": 4600,
      "ꤖꤢꤨꤖꤚꤢꤩ꤬ꤋꤢꤨ꤭ꤣꤧ꤭": 4601,
      "ꤕꤜꤝꤢ꤭ꤊꤢꤧ꤭ꤙꤢꤩ": 4602,
      "ꤢ꤬ꤟꤤ꤬ꤢ꤬ꤖꤢꤧ꤭": 4603,
      "ꤗꤢꤩ꤬ꤞꤢꤦꤟꤣꤧ": 4604,
      "ꤕꤣꤧ꤬ꤒꤤꤒꤣꤧ꤬ꤘꤢꤦ꤬": 4605,
      "ꤒꤢꤩ꤬ꤥ꤬ꤠꤤ꤭ꤥ꤬ꤊꤢꤪ꤭": 4606,
      "ꤕꤝꤢꤩ꤬ꤊꤢꤨ꤭": 4607,
      "ꤕꤝꤢꤩ꤬ꤘꤢꤨ꤬": 4608,
      "ꤢ꤬ꤜꤣꤧ꤬ꤢ꤬ꤜꤝ꤫ꤢ꤬": 4609,
      "ꤒꤣ꤬ꤊꤛꤢ꤭ꤔꤣꤧ꤬": 4610,
      "ꤊꤜꤢꤧ꤬ꤖꤚꤢꤧ꤭": 4611,
      "ꤡꤢꤪ꤭ꤡꤝꤢ": 4612,
      "ꤟꤤ꤬ꤓꤢꤦ꤬ꤊꤢꤧ꤭ꤘꤢꤩ꤭": 4613,
      "ꤡꤝꤢꤒ꤫ꤥ꤬ꤟꤣꤧ": 4614,
      "ꤊꤢꤦ꤭ꤓꤢꤧ꤬": 4615,
      "ꤡꤢꤨꤘꤢꤦ꤬": 4616,
      "ꤓꤢꤪꤔ꤫ꤤ꤬": 4617,
      "ꤓꤢꤪꤛꤢꤩ꤭": 4618,
      "ꤏꤛꤤꤛꤢ꤬": 4619,
      "ꤒꤢꤩ꤬ꤏꤢꤪ꤭ꤚꤤ꤬ꤏꤢꤪ꤭ꤙꤢꤨ꤭": 4620,
      "ꤥ꤬ꤕꤜꤢꤪꤜꤢꤪ꤭": 4621,
      "ꤜ꤫ꤢꤩ꤬ꤊꤜꤥ꤭ꤜꤣꤧ꤬": 4622,
      "ꤥ꤬ꤗꤣꤧ꤭ꤔ꤫ꤤ꤬": 4623,
      "ꤕꤜꤢꤨ꤬ꤖꤢꤩ꤬": 4624,
      "ꤗꤢꤦ꤬ꤊꤢꤧ꤭": 4625,
      "ꤔꤢꤪ꤭ꤡꤝꤢꤢꤩ": 4626,
      "ꤊꤢꤧꤜꤢ꤬ꤜꤤ꤬ꤊ꤫ꤢꤩ꤬ꤊꤢꤨ꤭": 4627,
      "ꤒꤢꤩ꤬ꤒꤣꤧ꤬ꤚꤣꤧ꤭ꤖꤚꤥ꤬ꤖꤚꤢꤧ꤬": 4628,
      "ꤞꤢꤨ꤭ꤡꤝꤢꤚꤣꤧ": 4629,
      "ꤞꤢꤪ꤬ꤊꤜꤣꤧ꤭ꤘꤢꤨ꤬ꤣꤧ꤭": 4630,
      "ꤞꤥ꤬ꤋꤚꤢꤩ꤭": 4631,
      "ꤙꤢꤨ꤭ꤘꤢꤨ꤬": 4632,
      "ꤏꤣꤧ꤭ꤜꤝꤤ꤭ꤞꤝꤢ": 4633,
      "ꤊꤢꤪ꤬ꤜꤢ꤬ꤊꤢꤪ꤬": 4634,
      "ꤍꤢꤧ꤭ꤖꤚꤢꤩ꤬": 4635,
      "ꤒꤣ꤬ꤗꤢꤨ꤬ꤘꤢꤨ꤬": 4636,
      "ꤢ꤬ꤊꤢꤨꤔꤢꤪ꤭": 4637,
      "ꤣꤧ꤭ꤒꤣ꤬ꤙꤢ꤬ꤔꤣꤧ꤬": 4638,
      "ꤡꤝꤢꤞꤢꤦꤡꤝꤢꤕꤜꤢ": 4639,
      "ꤢ꤬ꤋꤚꤝꤢ꤭": 4640,
      "ꤢꤩꤗꤥ꤬ꤏꤢꤦ꤬ꤚꤢꤧ": 4641,
      "ꤞꤤ꤭ꤑꤢꤩ꤭ꤔꤣꤧ꤬": 4642,
      "ꤡꤝꤤ꤬ꤓꤢꤧ꤬": 4643,
      "ꤡꤝꤤ꤬ꤡꤝꤢ": 4644,
      "ꤡꤝꤤ꤬ꤒꤣꤧ꤬ꤚ꤫ꤢꤨ꤬": 4645,
      "ꤒꤣ꤬ꤙꤢ꤬ꤔꤣꤧ꤬": 4646,
      "ꤒꤣ꤬ꤙꤢ꤬ꤜꤢꤪ꤭": 4647,
      "ꤢ꤬ꤜꤢꤩ꤭ꤔꤣꤧ꤬": 4648,
      "ꤎꤤ꤬ꤘꤤ": 4649,
      "ꤚ꤫ꤢꤩ꤬ꤋꤢꤨ꤬": 4650,
      "ꤞꤤꤕꤜꤢꤪ꤬ꤥ꤬ꤚꤣꤧ": 4651,
      "ꤟꤢꤩꤓꤥ꤭ꤟꤢꤩꤜꤢꤧ꤬": 4652,
      "ꤗꤢꤩ꤬ꤕ꤫ꤢꤩ꤬ꤒꤢꤩ꤬": 4653,
      "ꤟꤢꤩꤒꤢ꤭ꤒꤢ꤭": 4654,
      "ꤊꤢꤦ꤭ꤞꤢꤧꤔ꤫ꤤ꤬": 4655,
      "ꤛꤢꤧꤟꤢꤧ꤭ꤔ꤫ꤤ꤬": 4656,
      "ꤗꤢꤩ꤬ꤓꤥ꤭ꤜꤢꤪ꤭ꤟꤣꤧ": 4657,
      "ꤊꤢꤪꤊꤜꤢꤪ꤭ꤊꤢꤧ꤭": 4658,
      "ꤤ꤬ꤊꤢꤩ꤭ꤞꤢꤩ꤭": 4659,
      "ꤤ꤬ꤊꤢꤩ꤭ꤙꤢ꤬ꤘꤢꤨ꤬": 4660,
      "ꤓꤣꤧ꤭ꤛꤢꤧ꤭ꤞꤢꤩ꤭": 4661,
      "ꤥ꤬ꤚ꤫ꤢꤧ꤬": 4662,
      "ꤥ꤬ꤚꤟꤥ": 4663,
      "ꤚꤢ꤭ꤗꤢꤊꤢꤧ꤭": 4664,
      "ꤊꤣꤧ꤭ꤕ꤫ꤥ꤬ꤘꤢꤦ꤬": 4665,
      "ꤔꤣꤧ꤬ꤒꤣ꤬ꤗꤢꤩ꤭ꤔꤣꤧ꤬": 4666,
      "ꤗꤢ꤭ꤘꤥ꤬": 4667,
      "ꤗꤢꤧꤘꤢꤨ꤬ꤗꤢꤧꤕꤣꤧ꤬ꤒꤤ": 4668,
      "ꤥ꤬ꤒ꤫ꤣ꤬ꤥ꤬ꤕꤜꤢꤪ": 4669,
      "ꤥ꤬ꤚ꤫ꤥ꤬ꤓꤢꤧ꤬": 4670,
      "ꤞꤤꤖꤚꤢꤜꤣꤧ꤬ꤘꤢꤧ": 4671,
      "ꤒ꤫ꤢ꤬ꤞꤣꤧ꤭": 4672,
      "ꤒꤢꤩ꤬ꤞꤤꤛꤢꤪ꤬ꤚꤣꤧ": 4673,
      "ꤕꤣꤧ꤬ꤏꤤ꤭ꤡꤝꤢ": 4674,
      "ꤡꤢ꤬ꤡꤝꤢ꤬ꤓꤢꤨ꤭": 4675,
      "ꤢ꤬ꤔꤥ꤬ꤒꤣ꤬ꤚꤥ꤭": 4676,
      "ꤓꤝꤤꤜꤢꤧ꤬": 4677,
      "ꤋꤢꤨ꤭ꤢꤩꤎ": 4678,
      "ꤋꤢꤨ꤭ꤢꤩꤔꤢꤪ꤬": 4679,
      "ꤖꤚꤢꤩ꤬ꤥ꤬ꤕ꤫ꤢꤪ꤬ꤢ꤬ꤕꤥ꤬": 4680,
      "ꤔꤢꤪ꤭ꤏꤝꤢ꤬ꤔꤢꤪ꤭ꤏꤢꤪ꤭": 4681,
      "ꤏꤤ꤬ꤜꤥꤊꤢꤧ꤭": 4682,
      "ꤊꤣꤧ꤬ꤘꤝꤤꤞꤢꤩ꤬": 4683,
      "ꤊꤢꤨꤜꤢꤩ꤬ꤊꤥ꤬ꤘꤥ꤭": 4684,
      "ꤢ꤬ꤕꤜꤢꤪꤢ꤬ꤗꤢꤨ꤬ꤊꤢꤨ꤭": 4685,
      "ꤓꤢꤦꤗꤢꤧ": 4686,
      "ꤒꤢꤩ꤬ꤓꤝꤢ꤭ꤓꤢꤧ꤬ꤢ꤬ꤔ꤫ꤢꤩ꤬": 4687,
      "ꤗ꤫ꤢ꤬ꤟꤢꤧ꤭ꤢꤩ꤬": 4688,
      "ꤜꤣꤧ꤬ꤘꤢꤧꤢꤩ꤬ꤜꤣꤧ꤬ꤘꤢꤧꤥ꤭": 4689,
      "ꤏꤢꤩꤖꤢꤩ꤬": 4690,
      "ꤕꤤ꤭ꤜꤥ": 4691,
      "ꤒꤥ꤭ꤗꤢꤚꤣꤧ": 4692,
      "ꤊꤤꤊꤢꤨ": 4693,
      "ꤓꤢꤧ꤭ꤚꤢꤧ": 4694,
      "ꤜ꤫ꤢꤩ꤬ꤗꤣꤧ꤭ꤊꤢꤨ꤭": 4695,
      "ꤎꤢ꤬ꤕꤛꤤꤖꤢꤩ꤬ꤙꤢꤧ꤬ꤡꤢꤩ꤬": 4696,
      "ꤥ꤬ꤞꤥ꤬ꤥ꤬ꤋꤚꤢꤩ꤭": 4697,
      "ꤥ꤬ꤞꤥ꤬ꤒꤣꤧ꤬ꤋꤚꤢꤦ": 4698,
      "ꤙꤢ꤬ꤙꤢꤨ꤬ꤜꤥ꤬ꤊ꤫ꤢꤩ꤬": 4699,
      "ꤊꤜꤝꤢꤗꤢꤩ꤬": 4700,
      "ꤙꤢꤧꤕꤜꤤ꤭ꤓꤢꤨ꤭": 4701,
      "ꤜꤟꤢꤪ꤭": 4702,
      "ꤤ꤬ꤔꤢꤨꤓꤣꤧ꤭": 4703,
      "ꤠꤤ꤭ꤢꤨ꤭ꤘꤢꤨ꤬": 4704,
      "ꤓꤢꤨ꤬ꤜꤢꤪ꤭ꤙꤤ": 4705,
      "ꤟꤣꤧ꤬ꤡꤢ꤬ꤜꤣꤧ꤬": 4706,
      "ꤠꤢꤦꤠ꤫ꤢꤧ꤬": 4707,
      "ꤊꤢꤨꤜ꤫ꤤ꤬ꤜꤢꤩ꤭": 4708,
      "ꤊꤢꤨꤜ꤫ꤤ꤬ꤊꤣꤧ꤬ꤢꤪ꤭": 4709,
      "ꤗꤢꤧ꤬ꤢꤪꤜ꤫ꤢꤧ꤬ꤖꤢꤨ": 4710,
      "ꤡ꤫ꤢꤪ꤬ꤒꤢ꤭ꤒꤢꤦ꤭ꤙꤤ": 4711,
      "ꤊꤜꤥ꤬ꤜ꤫ꤢꤩ꤬ꤗꤣꤧ꤭": 4712,
      "ꤒꤣꤧ꤬ꤖꤚꤢꤨ": 4713,
      "ꤞꤤ꤭ꤖꤢꤨꤞꤤ꤭ꤜꤣꤧ꤬": 4714,
      "ꤘꤢꤩꤜꤢꤧ꤬": 4715,
      "ꤢ꤬ꤕꤝꤤ꤬": 4716,
      "ꤢ꤬ꤛꤢꤨ꤭ꤜꤣ": 4717,
      "ꤒꤢꤩ꤬ꤊꤛꤢꤒꤢꤩ꤬ꤒꤣꤧ꤬ꤍꤢ꤭": 4718,
      "ꤔꤢꤧ꤬ꤗ꤫ꤥ꤬ꤔꤢꤧ꤬ꤖꤢꤩ꤭": 4719,
      "ꤗ꤫ꤥ꤬ꤘꤢꤪ꤭ꤓꤢꤧ꤬": 4720,
      "ꤗꤤ꤬ꤞꤢꤩ꤬ꤗ꤫ꤢꤪ꤬": 4721,
      "ꤏꤥ꤭ꤚꤢꤧ꤬ꤏꤥ꤭ꤖꤢꤖꤢꤨ": 4722,
      "ꤞꤢꤧ꤭ꤚꤢꤧ꤭ꤏꤢ꤭ꤖꤚ꤫ꤢꤩ꤬": 4723,
      "ꤕꤤ꤬ꤎꤤ꤬ꤘꤤ": 4724,
      "ꤥ꤬ꤥꤥ꤬ꤙꤤ": 4725,
      "ꤒꤣꤧ꤬ꤜꤤ꤭ꤙꤢꤧ꤭": 4726,
      "ꤓꤣꤧ꤭ꤚꤥ꤬ꤊ꤫ꤢꤩ꤬ꤊꤜꤢꤪ꤭ꤖꤢꤨ": 4727,
      "ꤓꤣꤧ꤭ꤥ꤭ꤖꤢꤜꤣꤧ꤬": 4728,
      "ꤖꤚꤢꤩ꤬ꤕ꤫ꤢꤦ꤬ꤖꤢꤩ꤬ꤛꤢꤩꤕꤜꤢꤩꤢꤩ꤬": 4729,
      "ꤋꤢꤨ꤭ꤛꤥ꤬ꤎꤢꤩ": 4730,
      "ꤕꤜ꤫ꤢꤩ꤬ꤕꤜꤤ꤭ꤊꤢꤧ꤭": 4731,
      "ꤚ꤫ꤢꤧ꤬ꤓꤢꤧ꤬": 4732,
      "ꤒꤢꤩ꤬ꤕꤣꤢ꤬ꤜꤢꤩ꤭": 4733,
      "ꤟꤢꤧ꤭ꤚ꤫ꤥ꤬ꤟꤢꤧ꤭ꤢꤩ": 4734,
      "ꤜ꤫ꤢꤪ꤬ꤞꤢꤩꤜ꤫ꤢꤪ꤬ꤖꤚꤥ꤬": 4735,
      "ꤒꤢꤩ꤬ꤥ꤬ꤜꤣꤥ꤬ꤊꤜꤢꤪ꤭": 4736,
      "ꤢ꤬ꤗꤤ꤭ꤗꤤ꤭": 4737,
      "ꤥ꤬ꤏꤝꤢ꤬ꤥ꤬ꤖꤚꤢꤧ꤭": 4738,
      "ꤒꤣꤧ꤬ꤢꤩ꤬ꤘꤢꤨ꤬": 4739,
      "ꤒꤢꤩ꤬ꤊ꤫ꤢꤨ꤬ꤒꤢꤩ꤬ꤊꤢꤧ꤭": 4740,
      "ꤔꤢꤪ꤭ꤗꤢꤧꤔꤢꤪ꤭": 4741,
      "ꤞꤢꤪ꤬ꤒꤢꤪ꤭ꤗ꤫ꤢꤪ꤬": 4742,
      "ꤢꤩ꤬ꤚ꤫ꤥ꤬ꤥ꤭ꤚ꤫ꤥ꤬ꤜꤢꤨ꤭": 4743,
      "ꤛ꤫ꤥ꤬ꤓꤢꤨ꤬": 4744,
      "ꤢ꤬ꤕ꤫ꤢꤧ꤬ꤢ꤬ꤏꤢꤩ꤭": 4745,
      "ꤖꤚꤢꤩ꤬ꤟꤢꤧ꤭ꤢꤩ꤬ꤊꤢꤨꤊꤜꤢꤩ꤭": 4746,
      "ꤊꤣꤧ꤬ꤜ꤫ꤣꤧ꤬": 4747,
      "ꤔꤢꤧ꤬ꤓꤣꤧ꤭ꤔꤢꤧ꤬ꤊ꤫ꤢꤩ꤬": 4748,
      "ꤡꤝꤢꤊꤢ꤬ꤡꤝꤢꤟꤢꤧ꤭": 4749,
      "ꤋꤢꤨ꤭ꤖꤤꤜꤢ꤬ꤗꤥ꤬": 4750,
      "ꤘꤣꤔꤢꤨ꤬ꤘꤣꤞꤢ꤬ꤋꤢꤩ꤭": 4751,
      "ꤠꤢꤧ꤭ꤕ꤫ꤥ꤬ꤠꤢꤧ꤭ꤗ꤫ꤢꤧ꤬": 4752,
      "ꤋꤢꤨ꤭ꤢ꤬ꤚꤤꤎꤢ꤬ꤒꤢ꤬ꤊꤢꤨ": 4753,
      "ꤡꤝꤤꤥ꤭": 4754,
      "ꤢꤩꤗꤤ꤭ꤢꤩꤡꤣ꤬": 4755,
      "ꤢꤩ꤬ꤒꤢꤦ꤭ꤥ꤭ꤒꤢꤦ꤭": 4756,
      "ꤢ꤬ꤡꤣ꤬ꤡꤣ꤬": 4757,
      "ꤢ꤬ꤕꤛꤢꤢ꤬ꤜ꤫ꤢꤨ꤬": 4758,
      "ꤢ꤬ꤔ꤫ꤥ꤬ꤢ꤬ꤏꤢꤨ꤬": 4759,
      "ꤥ꤬ꤚꤢꤪ꤬ꤥ꤬ꤚꤢꤩ꤭": 4760,
      "ꤢꤨ꤭ꤗ꤫ꤥ꤬ꤢꤨ꤭ꤖꤢꤩ꤭": 4761,
      "ꤘꤣꤘꤢꤪ꤭ꤘꤣꤏꤥ꤬": 4762,
      "ꤒꤢꤩ꤬ꤏꤝꤢ꤬ꤒꤢꤩ꤬ꤏꤢꤪ꤭": 4763,
      "ꤞꤤ꤭ꤊꤛꤢꤞꤤ꤭": 4764,
      "ꤟꤢꤧ꤭ꤏꤝꤢ꤬ꤚꤢꤩ꤬": 4765,
      "ꤋꤢꤨ꤭ꤞꤢꤧꤋꤤꤛꤣ꤬": 4766,
      "ꤋꤢꤨ꤭ꤒꤢꤨꤊꤤꤊꤢꤨ": 4767,
      "ꤒꤥ꤭ꤏꤣꤧꤒꤥ꤭ꤋꤢꤩ꤭": 4768,
      "ꤠꤤ꤭ꤘꤢꤩ꤬ꤙꤢꤩ꤬": 4769,
      "ꤖꤢꤩ꤭ꤢ꤬ꤜꤢ꤬ꤖꤢꤧ": 4770,
      "ꤋꤢꤩ꤭ꤠꤢꤪ꤬ꤊꤢꤧ꤭": 4771,
      "ꤜꤢꤨ꤬ꤓꤥ꤭ꤜꤢꤨ꤬ꤜꤢꤧ꤬": 4772,
      "ꤋꤚꤝꤢ꤭ꤕꤜꤢꤨ꤬ꤋꤚꤝꤢ꤭ꤖꤢꤩ꤬": 4773,
      "ꤊꤢꤪ꤬ꤜꤢ꤬ꤊꤢꤪ꤬ꤞꤢ": 4774,
      "te": 4775,
      "꤁꤄": 4776,
      "ꤋꤣꤧ꤬": 4777,
      "ꤋꤢꤨ": 4778,
      "ꤋꤢ꤬ꤔꤢ꤬": 4779,
      "ꤏꤛꤢ꤭": 4780,
      "ꤏꤛꤥ꤬": 4781,
      "ꤐꤟ": 4782,
      "ꤒꤢꤪ꤬": 4783,
      "ꤒꤢ꤬ꤚ": 4784,
      "ꤒꤢ꤬ꤊꤜꤢꤩ꤭": 4785,
      "ꤒꤝꤟꤥ": 4786,
      "ꤓꤢ꤬": 4787,
      "ꤓꤢꤪ꤭": 4788,
      "ꤓꤢ꤬ꤓꤣꤧ꤭": 4789,
      "ꤔꤟꤢꤧ꤬": 4790,
      "ꤕꤜꤢ꤭": 4791,
      "ꤖꤢ꤭": 4792,
      "ꤖꤛꤢꤩ": 4793,
      "ꤘꤛꤢꤩ": 4794,
      "ꤙꤚꤤ꤬": 4795,
      "ꤞꤝꤢ꤬": 4796,
      "ꤞꤛꤢ": 4797,
      "ꤞꤢ꤬ꤚꤥ꤬": 4798,
      "ꤞꤛꤥ": 4799,
      "ꤞꤌꤣ꤭": 4800,
      "ꤠꤢꤩꤖꤢꤨ": 4801,
      "ꤡꤛꤥ꤬": 4802,
      "꤮’": 4803,
      "ꤢꤩꤊꤣꤧ꤭": 4804,
      "ꤢꤩꤜꤢꤩ": 4805,
      "ꤢꤩ꤬ꤗꤢ꤬": 4806,
      "ꤢꤩ꤬ꤊ꤫ꤢꤦ꤬": 4807,
      "ꤢ꤬ꤤ꤬": 4808,
      "ꤢ꤬ꤓꤥ꤭": 4809,
      "ꤢ꤬ꤒꤢ꤭": 4810,
      "ꤢ꤬ꤟꤥ꤭": 4811,
      "ꤢ꤬ꤞꤝꤢ": 4812,
      "ꤢ꤬ꤗꤢꤨꤗ꤫ꤢꤧ꤬": 4813,
      "ꤢ꤬ꤒꤢꤩ꤬ꤞꤝꤢꤒꤢꤩ꤬ꤞꤢꤧ꤬": 4814,
      "ꤢ꤬ꤏꤥ꤭": 4815,
      "ꤢ꤬ꤗꤢꤦ꤭": 4816,
      "ꤢ꤬ꤡꤢꤦ꤬": 4817,
      "ꤢ꤬ꤒꤢ꤭ꤒꤢꤩ꤬": 4818,
      "ꤢ꤬ꤖꤢꤦ꤬": 4819,
      "ꤢ꤬ꤊꤣꤧ꤬ꤘꤢ꤭": 4820,
      "ꤢ꤬ꤗꤤ꤭ꤡꤣ꤬": 4821,
      "ꤢ꤬ꤔꤢꤩ꤬": 4822,
      "ꤢ꤬ꤕꤜꤢꤦ": 4823,
      "ꤢ꤬ꤙꤢꤩ꤭ꤜ꤫ꤢꤪ꤬": 4824,
      "ꤢ꤬ꤏꤢꤨ꤬ꤥ꤬": 4825,
      "ꤢ꤬ꤘꤢꤪ꤭ꤊꤢꤨ꤭ꤖꤢꤨ": 4826,
      "ꤥ꤬ꤞꤢꤩ꤭": 4827,
      "ꤥ꤬ꤒꤢꤦ": 4828,
      "ꤥ꤬ꤚꤢ꤬": 4829,
      "ꤥ꤬ꤒꤣꤧ꤬ꤖꤢ꤭ꤊꤢꤧ꤭": 4830,
      "ꤥ꤬ꤕꤣꤧ꤬ꤒꤤ": 4831,
      "ꤥ꤬ꤖꤢꤧꤒꤢꤦ": 4832,
      "ꤥ꤬ꤕꤢ꤬ꤖꤢꤧ": 4833,
      "ꤥ꤬ꤖꤚꤢꤩ꤭": 4834,
      "ꤥ꤬ꤊꤚ": 4835,
      "ꤥ꤬ꤊ꤫ꤢ꤬ꤊꤜꤥ꤬": 4836,
      "ꤥ꤬ꤛꤝꤢ꤭": 4837,
      "ꤞꤤꤟꤢꤩ": 4838,
      "ꤞꤤꤛꤣ꤬": 4839,
      "ꤔꤣꤧ꤬ꤔꤣꤧ꤬": 4840,
      "ꤔꤣꤧ꤬ꤒ꤫ꤢꤧ꤬ꤗꤢꤩ꤬": 4841,
      "ꤔꤣꤧ꤬ꤒꤣ꤬ꤖꤢꤩ꤬": 4842,
      "ꤣꤧ꤭ꤢ꤬ꤊꤢꤨ꤭ꤔꤣꤧ꤬": 4843,
      "ꤣꤧ꤭ꤜꤢꤩ": 4844,
      "ꤢꤨ꤭ꤊꤜꤢꤩ꤭": 4845,
      "ꤢꤨ꤭ꤜꤥ꤬": 4846,
      "ꤢꤨ꤭ꤊꤢꤨ꤬ꤋꤣꤧ꤭": 4847,
      "ꤒꤣꤧ꤬ꤔꤢꤧ": 4848,
      "ꤒꤣꤧ꤬ꤚꤢꤧ꤬": 4849,
      "ꤒꤣꤧ꤬ꤕ꤫ꤥ꤬": 4850,
      "ꤒꤣꤧ꤬ꤕ꤫ꤢꤪ꤬": 4851,
      "ꤒꤣꤧ꤬ꤖꤚꤢꤧ꤬": 4852,
      "ꤒꤣꤧ꤬ꤋꤝꤢ": 4853,
      "ꤒꤣꤧ꤬ꤏꤤ": 4854,
      "ꤒꤣꤧ꤬ꤋꤣꤧ꤬": 4855,
      "ꤚꤣꤧ꤬ꤘꤢꤦ꤭": 4856,
      "ꤒꤢꤩ꤬ꤟꤢꤩ": 4857,
      "ꤒꤢꤩ꤬ꤡꤝꤢ": 4858,
      "ꤒꤢꤩ꤬ꤞꤢꤧ": 4859,
      "ꤒꤢꤩ꤬ꤏꤢ": 4860,
      "ꤒꤢꤩ꤬ꤟꤢꤨꤣꤧ꤭": 4861,
      "ꤒꤢꤩ꤬ꤣꤧ꤭ꤔꤣꤧ꤬ꤗꤢ꤬": 4862,
      "ꤒꤢꤩ꤬ꤜꤢ꤭ꤒꤢꤩ꤬": 4863,
      "ꤒꤢꤩ꤬ꤒꤣꤧ꤬ꤚꤤ꤬ꤒꤣꤧ꤬ꤚꤢꤧ꤭": 4864,
      "ꤒꤢꤩ꤬ꤏꤥ꤭ꤖꤢꤏꤥ꤭ꤚꤢꤧ꤬": 4865,
      "ꤒꤢꤩ꤬ꤤ꤬ꤚꤥ꤭": 4866,
      "ꤒꤢꤩ꤬ꤘꤢꤧ꤬ꤘꤢꤨ꤬ꤛ꤫ꤢꤦ꤬ꤔ꤫ꤢꤧ꤬": 4867,
      "ꤒꤢꤩ꤬ꤗꤢꤧꤘꤢꤨ꤬": 4868,
      "ꤒꤢꤩ꤬ꤢꤩ꤬ꤗꤢꤦ꤬ꤥ꤭ꤖꤚꤢꤧ": 4869,
      "ꤒꤢꤩ꤬ꤊ꤫ꤤ꤬": 4870,
      "ꤒꤢꤩ꤬ꤙꤢꤧꤞꤝꤢꤋꤢꤩꤋꤥ꤭": 4871,
      "ꤒꤢꤩ꤬ꤊꤢꤨꤠ꤫ꤢ꤬ꤊꤢꤨꤠꤢꤩ꤭": 4872,
      "ꤒꤢꤩ꤬ꤡ꤫ꤢꤪ꤬": 4873,
      "ꤒꤢꤩ꤬ꤕꤣꤧ꤬ꤒꤤꤟꤢꤨ": 4874,
      "ꤞꤤ꤭ꤞꤤ꤭": 4875,
      "ꤞꤤ꤭ꤕ꤫ꤥ꤬": 4876,
      "ꤞꤤ꤭ꤡ꤫ꤢꤦ꤬": 4877,
      "ꤣ꤬ꤚꤢ꤬": 4878,
      "ꤖꤚꤢꤩ꤬ꤡ꤫ꤢꤧ꤬": 4879,
      "ꤖꤚꤢꤩ꤬ꤚꤢ꤭": 4880,
      "ꤖꤚꤢꤩ꤬ꤘꤣꤧꤡꤢ꤭": 4881,
      "ꤖꤚꤢꤩ꤬ꤗꤢꤩ꤬ꤞꤣꤧ꤭": 4882,
      "ꤖꤚꤢꤩ꤬ꤕꤣ": 4883,
      "ꤒꤣꤧ꤬ꤟꤢꤩ꤬ꤖꤢꤧ": 4884,
      "ꤤ꤬ꤓꤢꤩ꤬": 4885,
      "ꤒꤣ꤬ꤕꤝꤢꤩ꤬": 4886,
      "ꤒꤣ꤬ꤏꤣꤧ꤭": 4887,
      "ꤒꤣ꤬ꤊꤝꤢ꤬": 4888,
      "ꤟꤢꤩꤡꤢꤪ": 4889,
      "ꤟꤢꤩꤡꤝꤢ": 4890,
      "ꤟꤢꤩꤔ꤫ꤤ꤬": 4891,
      "ꤟꤢꤩꤣꤧ꤭ꤔꤣꤧ꤬": 4892,
      "ꤟꤢꤩꤜꤤ꤭": 4893,
      "ꤟꤢꤩꤒꤢ꤭ꤊꤢꤧ꤭": 4894,
      "ꤗꤢꤩ꤬ꤚꤣꤧ": 4895,
      "ꤗꤢꤩ꤬ꤞꤢꤧ": 4896,
      "ꤗꤢꤩ꤬ꤒ꤫ꤥ꤬": 4897,
      "ꤗꤢꤩ꤬ꤏꤝꤢ꤬": 4898,
      "ꤗꤢꤩ꤬ꤕꤢꤩ꤭": 4899,
      "ꤗꤢꤩ꤬ꤋꤤ": 4900,
      "ꤗꤢꤩ꤬ꤚ꤫ꤥ꤬ꤜꤢꤨ꤭": 4901,
      "ꤗꤢꤩ꤬ꤜ꤫ꤢ꤬": 4902,
      "ꤗꤢꤩ꤬ꤖꤚꤥ": 4903,
      "ꤗꤢꤩ꤬ꤏꤢꤪ꤭ꤓꤢꤧ꤬": 4904,
      "ꤗꤢꤩ꤬ꤖꤥ꤬": 4905,
      "ꤗꤢꤩ꤬ꤒꤣꤧ꤬ꤗꤝꤤ꤭": 4906,
      "ꤗꤢꤩ꤬ꤞꤝꤢꤩ": 4907,
      "ꤗꤢꤩ꤬ꤗ꤫ꤢꤩ꤬": 4908,
      "ꤗꤢꤩ꤬ꤖꤝꤤ꤭": 4909,
      "ꤛꤢꤩ꤬ꤞꤥ꤭ꤞꤝꤢ": 4910,
      "ꤟꤣꤧꤚꤣꤧ꤬": 4911,
      "ꤠꤢꤧ꤭ꤚꤣꤧ꤬": 4912,
      "ꤠꤢꤧ꤭ꤟꤢꤧ꤭": 4913,
      "ꤠꤢꤧ꤭ꤚꤢꤦ꤭": 4914,
      "ꤠꤢꤧ꤭ꤚꤢꤩ꤬": 4915,
      "ꤜꤢꤪꤗꤢꤧ": 4916,
      "ꤢ꤬ꤋꤤ": 4917,
      "ꤢ꤬ꤋꤢꤧ꤬": 4918,
      "ꤡꤢꤪꤙꤢꤧ꤭": 4919,
      "ꤊꤣꤧ꤬ꤒꤢꤨ": 4920,
      "ꤊꤣꤧ꤬ꤒꤢꤩ": 4921,
      "ꤟꤢꤨꤊꤥ꤬": 4922,
      "ꤊ꤫ꤢꤦ꤬ꤕꤢ꤭": 4923,
      "ꤊ꤫ꤢꤦ꤬ꤏꤢ": 4924,
      "ꤊ꤫ꤢꤦ꤬ꤏꤝꤢ꤬": 4925,
      "ꤊ꤫ꤢꤦ꤬ꤗꤢꤦ꤭": 4926,
      "ꤊ꤫ꤢꤦ꤬ꤢꤩ꤬ꤊ꤫ꤢꤦ꤬": 4927,
      "ꤙꤢꤩ꤬ꤞꤣꤧ꤭": 4928,
      "ꤙꤢꤩ꤬ꤜꤢ꤬": 4929,
      "ꤙꤢꤩ꤬ꤕ꤫ꤢꤧ꤬": 4930,
      "ꤛꤢꤩ꤬ꤞꤤ꤭ꤊꤢꤨ꤭": 4931,
      "ꤛꤢꤩ꤬ꤞꤤ꤭ꤋꤢꤨ꤬": 4932,
      "ꤛꤢꤩ꤬ꤞꤤ꤭ꤗꤝꤤ꤭": 4933,
      "ꤊꤣꤧ꤬ꤛꤢꤧ꤭ꤗꤢꤨꤗ꤫ꤢꤧ꤬ꤚꤤ꤬ꤡ꤫ꤢꤧ꤬": 4934,
      "ꤊꤣꤧ꤬ꤛꤢꤧ꤭ꤘꤢꤨ꤬ꤛ꤫ꤢꤧ꤬": 4935,
      "ꤜꤢꤨ꤭ꤜꤢꤨ꤭": 4936,
      "ꤜꤢꤨ꤭ꤋꤢꤨ꤬": 4937,
      "ꤜꤢꤨ꤭ꤔ꤫ꤢꤩ꤬": 4938,
      "ꤜꤢꤨ꤭ꤒꤣꤧ꤬ꤍꤢ꤭": 4939,
      "ꤕꤢꤩ꤬ꤊ꤫ꤢꤩ꤬": 4940,
      "ꤕꤢꤩ꤬ꤜꤥ꤬": 4941,
      "ꤟꤢꤧ꤭ꤟꤢꤩꤏꤥ꤬": 4942,
      "ꤟꤢꤧ꤭ꤏꤢ": 4943,
      "ꤟꤢꤧ꤭ꤘꤢꤧ": 4944,
      "ꤟꤢꤧ꤭ꤘꤣꤧꤟꤣꤧ꤭": 4945,
      "ꤟꤢꤧ꤭ꤗꤢꤧꤗꤣꤧ꤭": 4946,
      "ꤟꤢꤧ꤭ꤘꤢꤪ꤬": 4947,
      "ꤔꤢꤧ꤬ꤣꤧ꤭": 4948,
      "ꤔꤢꤧ꤬ꤡꤢꤩ꤭": 4949,
      "ꤕꤢ꤭ꤟꤢꤧ꤭": 4950,
      "ꤕꤢ꤭ꤔꤤ": 4951,
      "ꤕꤢ꤭ꤕꤢꤩ꤭": 4952,
      "ꤕꤢ꤭ꤟꤢꤩꤔꤢꤨ꤬": 4953,
      "ꤜꤢꤪ꤭ꤕꤢ꤭": 4954,
      "ꤜꤢꤪ꤭ꤕꤢ꤬": 4955,
      "ꤜꤢꤪ꤭ꤋꤛꤢ꤭": 4956,
      "ꤜꤢꤪ꤭ꤖꤢꤩ꤬": 4957,
      "ꤓꤢꤧ꤬ꤒ꤫ꤣ꤬": 4958,
      "ꤡꤝꤢꤜꤢꤪ꤭": 4959,
      "ꤡꤝꤢꤔꤢꤪ꤭": 4960,
      "ꤡꤝꤢꤒ꤫ꤣ꤬": 4961,
      "ꤡꤝꤢꤊꤜꤢꤧ": 4962,
      "ꤡꤝꤢꤕ꤫ꤢꤦ꤬": 4963,
      "ꤡꤝꤢꤊꤝꤤ꤭ꤡꤢꤪꤙꤢꤩ꤭": 4964,
      "ꤡꤝꤢꤟꤢꤧ꤭ꤑꤢꤩ꤭": 4965,
      "ꤡꤝꤢꤗꤢꤩ꤬ꤞꤣꤧ꤭ꤊꤢꤧ꤭": 4966,
      "ꤡꤝꤢꤏꤢꤔꤢꤩꤜꤥ꤭": 4967,
      "ꤊꤜꤤ": 4968,
      "ꤊꤜꤥ": 4969,
      "ꤊꤜꤛꤢꤩ꤭": 4970,
      "ꤋꤢꤨ꤭ꤙꤢꤧ꤬": 4971,
      "ꤋꤢꤨ꤭ꤘꤤ": 4972,
      "ꤋꤢꤨ꤭ꤚꤢꤩ꤬": 4973,
      "ꤋꤢꤨ꤭ꤙꤢꤪ": 4974,
      "ꤋꤢꤨ꤭ꤢꤩꤜꤤ꤬": 4975,
      "ꤋꤢꤨ꤭ꤕꤢꤩ꤬ꤚꤢ꤬": 4976,
      "ꤋꤢꤨ꤭ꤒꤢꤩ": 4977,
      "ꤋꤢꤨ꤭ꤡꤛꤢꤪ꤬": 4978,
      "ꤋꤢꤨ꤭ꤢ꤬ꤙꤤ": 4979,
      "ꤋꤢꤨ꤭ꤏꤢꤪ꤬ꤜꤢ꤬ꤗꤥ꤬": 4980,
      "ꤋꤢꤨ꤭ꤙꤢꤩꤜꤢ꤬": 4981,
      "ꤡꤣꤧꤚꤣꤧ꤬": 4982,
      "ꤡꤣꤧꤡꤣꤧ": 4983,
      "ꤕ꤫ꤢꤩ꤬ꤖꤢꤧ": 4984,
      "ꤕ꤫ꤢꤩ꤬ꤊꤣꤧ꤭ꤢꤨ꤭": 4985,
      "ꤓꤥ꤭ꤊꤢꤧ꤭": 4986,
      "ꤓꤥ꤭ꤥ꤬ꤓꤢꤧ꤬": 4987,
      "ꤘꤢꤦ꤬ꤘꤢꤦ꤬": 4988,
      "ꤘꤢꤦ꤬ꤖꤢꤧ": 4989,
      "ꤋꤚꤝꤥ꤭": 4990,
      "ꤕꤜꤢꤧ꤭": 4991,
      "ꤘꤣꤧꤓꤢꤧ꤬": 4992,
      "ꤘꤣꤧꤡꤝꤢ": 4993,
      "ꤘꤣꤧꤊꤢ꤬ꤋꤛꤢ꤭": 4994,
      "ꤘꤣꤧꤜꤣꤧ꤭": 4995,
      "ꤒꤢꤩ꤭ꤟꤢꤨꤣꤧ꤭": 4996,
      "ꤒꤢꤩ꤭ꤚꤣꤧ꤬ꤘꤢꤦ꤭": 4997,
      "ꤞꤢꤧꤕꤜꤢꤪ꤬": 4998,
      "ꤔ꤫ꤤ꤬ꤔ꤫ꤤ꤬": 4999,
      "ꤔ꤫ꤤ꤬ꤔꤢꤪ": 5000,
      "ꤔ꤫ꤤ꤬ꤕꤢ꤬ꤒꤥ꤬": 5001,
      "ꤗꤢꤧꤘꤢꤦ꤬": 5002,
      "ꤗꤢꤧꤚꤣꤧ": 5003,
      "ꤗꤢꤧꤏꤢꤦ꤬": 5004,
      "ꤗꤢꤧꤡꤝꤢꤒꤥ꤭": 5005,
      "ꤗꤢꤧꤒ꤫ꤢꤨ꤬": 5006,
      "ꤢ꤬ꤋꤛꤢ꤭ꤔꤣꤧ꤬": 5007,
      "ꤞꤣꤧ꤭ꤋꤚꤢ꤭ꤊꤢꤧ꤭": 5008,
      "ꤊꤢꤩ꤬ꤟꤢꤩꤗꤢ꤬": 5009,
      "ꤜꤥ꤭ꤣꤧ꤭": 5010,
      "ꤜꤥ꤭ꤒꤣꤧ꤬ꤖꤚꤢꤧ꤬": 5011,
      "ꤒꤢꤩ꤬ꤞꤢꤨ": 5012,
      "ꤚꤣꤧꤘꤢꤦ꤬ꤔꤣꤧ꤬": 5013,
      "ꤚꤣꤧꤘꤢꤦ꤬ꤑꤢꤩ꤭": 5014,
      "ꤚꤣꤧꤘꤢꤦ꤬ꤡꤣꤧ": 5015,
      "ꤚꤣꤧꤘꤢꤦ꤬ꤜꤣ": 5016,
      "ꤔ꤫ꤢꤩ꤬ꤊ꤫ꤢꤨ꤬": 5017,
      "ꤔꤣꤧ꤬ꤒꤣꤧ꤬ꤟꤢꤩ꤬ꤚꤣꤧ꤬": 5018,
      "ꤟꤢꤩꤏꤢꤪ꤭": 5019,
      "ꤓꤝꤢ꤭ꤞꤢꤩ꤭": 5020,
      "ꤒꤣꤧ꤬ꤚꤢꤨ꤬": 5021,
      "ꤢ꤬ꤜꤤ": 5022,
      "ꤢ꤬ꤜ꤫ꤥ꤬": 5023,
      "꤯”’": 5024,
      "ꤞꤤꤕꤜꤢꤪ꤬ꤣꤧ꤭": 5025,
      "ꤞꤤꤕꤜꤢꤪ꤬ꤡꤢꤪ": 5026,
      "ꤞꤤꤕꤜꤢꤪ꤬ꤏꤢꤪ꤭": 5027,
      "ꤞꤤꤕꤜꤢꤪ꤬ꤏꤢꤩ꤭": 5028,
      "ꤞꤤꤕꤜꤢꤪ꤬ꤚꤢ꤬ꤚꤢꤩ꤬": 5029,
      "ꤥ꤬ꤔꤥ꤭": 5030,
      "ꤠꤤ꤭ꤊ꤫ꤢꤩ꤬": 5031,
      "ꤠꤤ꤭ꤓꤢꤨ꤭": 5032,
      "ꤠꤤ꤭ꤔꤤ꤬": 5033,
      "ꤠꤤ꤭ꤗꤤ": 5034,
      "ꤠꤤ꤭ꤢ꤬ꤚꤤ": 5035,
      "ꤠꤤ꤭ꤢ꤬ꤜꤢꤧꤎꤢ꤬ꤘ": 5036,
      "ꤠꤤ꤭ꤞꤤꤥ꤬": 5037,
      "ꤘꤢꤧ꤬ꤒꤢ꤭ꤊꤢꤧ꤭": 5038,
      "ꤗꤢꤩ꤬ꤒꤢꤩ꤭ꤟꤢꤩꤔꤣꤧ꤬ꤗꤢ꤬": 5039,
      "ꤍ꤫ꤥ꤬ꤒꤣꤧ꤬ꤟꤢꤩ꤬": 5040,
      "ꤔꤢꤪ꤭ꤘꤢꤨ꤬": 5041,
      "ꤔꤢꤪ꤭ꤗꤢꤧꤓ꤫ꤣꤧ꤬": 5042,
      "ꤔꤢꤪ꤭ꤕ꤫ꤢꤦ꤬": 5043,
      "ꤔꤢꤪ꤭ꤗꤢꤩ꤬ꤡꤝ꤫ꤢ꤬": 5044,
      "ꤔꤢꤪ꤭ꤥ꤬ꤊꤢꤧ꤭": 5045,
      "ꤔꤢꤪ꤭ꤗꤢꤩ꤬ꤞꤢꤦ": 5046,
      "ꤔꤢꤪ꤭ꤓꤢꤩ꤬ꤡꤝꤢꤊꤢꤧ꤭": 5047,
      "ꤔꤢꤪ꤭ꤥ꤬ꤔꤢꤧ꤭ꤥ꤬": 5048,
      "ꤔꤢꤪ꤭ꤢꤩꤜꤢ꤬ꤢꤩꤕꤜꤢꤩ": 5049,
      "ꤊꤢꤨꤊ꤫ꤢ꤬": 5050,
      "ꤜꤣꤧ꤬ꤛꤢꤩ꤭": 5051,
      "ꤋꤛꤢ꤭ꤕ꤫ꤥ꤬": 5052,
      "ꤋꤛꤢ꤭ꤒꤣꤧ꤬ꤘꤢꤦ꤬": 5053,
      "ꤡ꤫ꤢꤧ꤬ꤓꤢꤧ꤬": 5054,
      "ꤡ꤫ꤢꤧ꤬ꤊꤣꤧ꤭": 5055,
      "ꤓꤢꤩ꤬ꤤ꤬ꤓꤢꤩ꤬": 5056,
      "ꤖꤢꤩ꤭ꤞꤤ꤭": 5057,
      "ꤖꤢꤩ꤭ꤛꤥ꤭ꤟꤢ꤬": 5058,
      "ꤖꤢꤩ꤭ꤎꤤ꤬": 5059,
      "ꤖꤢꤩ꤭ꤜꤢꤪꤒꤢ": 5060,
      "ꤔꤣꤧ꤭ꤔꤢ꤬": 5061,
      "ꤔꤣꤧ꤭ꤖꤥ꤬": 5062,
      "ꤔꤣꤧ꤭ꤕꤝꤢ꤭ꤞꤢꤩ꤭": 5063,
      "ꤊꤢ꤬ꤒꤥ꤭": 5064,
      "ꤊꤢ꤬ꤗꤥ꤬ꤗꤥ꤬": 5065,
      "ꤜꤣꤜꤣꤙꤢ꤭": 5066,
      "ꤗꤥ꤬ꤚꤢꤧ": 5067,
      "ꤒ꤫ꤥ꤬ꤜꤢꤪ꤭": 5068,
      "ꤜ꤫ꤢꤩ꤬ꤟꤢꤩ": 5069,
      "ꤜ꤫ꤢꤩ꤬ꤜꤥ": 5070,
      "ꤜ꤫ꤢꤩ꤬ꤛ꤫ꤢꤦ꤬ꤢꤩ꤬ꤚꤣꤧ": 5071,
      "ꤜ꤫ꤢꤩ꤬ꤖꤛꤢꤓꤢꤧ꤬ꤜꤥ꤭": 5072,
      "ꤜ꤫ꤢꤩ꤬ꤘꤢꤪꤥ꤬": 5073,
      "ꤜ꤫ꤢꤩ꤬ꤞꤤꤜꤢꤩ꤬ꤚꤣꤧ": 5074,
      "ꤊ꤫ꤢꤩ꤬ꤛꤢꤨꤘꤢ꤬": 5075,
      "ꤊ꤫ꤢꤩ꤬ꤊꤢꤦ꤭": 5076,
      "ꤊ꤫ꤢꤩ꤬ꤠꤤ꤭ꤊ꤫ꤢꤩ꤬": 5077,
      "ꤞꤣꤧ꤭ꤖꤚꤢꤩ꤬ꤖꤚꤢꤩ꤬": 5078,
      "ꤟꤥ꤭ꤊꤜꤢꤪ꤭": 5079,
      "ꤓꤣꤧ꤭ꤣꤧ꤭": 5080,
      "ꤓꤣꤧ꤭ꤊꤜꤢꤦ꤬": 5081,
      "ꤓꤣꤧ꤭ꤒꤣꤧ꤬ꤚꤢꤧ꤬": 5082,
      "ꤣꤧ꤭ꤒꤣ꤬ꤖꤚꤢꤩ꤬ꤖꤚꤢꤩ꤬": 5083,
      "ꤕ꤫ꤥ꤬ꤖꤚꤢꤩ꤬ꤗꤢꤪ꤬": 5084,
      "ꤞꤤꤛ꤫ꤢꤦ꤬ꤗꤢꤩ꤬": 5085,
      "ꤞꤤꤛ꤫ꤢꤦ꤬ꤡꤝꤢ": 5086,
      "ꤒꤣ꤬ꤡꤣ꤬ꤗꤢ꤬": 5087,
      "ꤒꤣ꤬ꤡꤣ꤬ꤒꤥ꤬": 5088,
      "ꤒꤣ꤬ꤡꤣ꤬ꤖꤢꤧ": 5089,
      "ꤕꤝꤢ꤭ꤡꤣ꤬": 5090,
      "ꤕꤝꤢ꤭ꤗꤤ꤭": 5091,
      "ꤕꤝꤢ꤭ꤒꤣ꤬ꤠꤤ꤭": 5092,
      "ꤕꤝꤢ꤭ꤔꤣꤧ꤭ꤕꤝꤢ꤭ꤞꤢꤩ꤭": 5093,
      "ꤋꤢꤩ꤭ꤛ꤫ꤤ꤬": 5094,
      "ꤗꤢꤪꤘꤢ": 5095,
      "ꤔꤥ꤭ꤢꤩ꤬": 5096,
      "ꤔꤥ꤭ꤥ꤬": 5097,
      "ꤔꤥ꤭ꤊꤣꤧ꤭": 5098,
      "ꤔꤥ꤭ꤒ꤫ꤣ꤬": 5099,
      "ꤔꤥ꤭ꤔꤢꤪ": 5100,
      "ꤟꤢꤩꤙꤢꤩ꤬ꤖꤢꤧ": 5101,
      "ꤟꤢꤩꤙꤢꤩ꤬ꤔ꤫ꤤ꤬": 5102,
      "ꤏꤢꤕꤢ꤭": 5103,
      "ꤗ꤫ꤢꤪ꤬ꤍꤢꤧ꤭ꤔꤣꤧ꤭": 5104,
      "ꤡꤢ꤭ꤏꤢꤧ꤭": 5105,
      "ꤖꤢꤨꤡ꤫ꤢꤩ꤬ꤋꤢꤩ꤭": 5106,
      "ꤊꤢꤨ꤬ꤊꤜꤢꤪꤋꤚꤝꤤ": 5107,
      "ꤒꤢꤩ꤬ꤗꤢꤩ꤬ꤕ꤫ꤢꤩ꤬": 5108,
      "ꤒꤢꤩ꤬ꤗꤢꤩ꤬ꤕꤜꤤ꤭ꤖꤥ": 5109,
      "ꤋꤥ꤭ꤗꤢꤩ꤭": 5110,
      "ꤖꤛꤢꤊꤢ꤬": 5111,
      "ꤊꤢ꤬ꤋꤛꤢ꤭ꤟꤢꤧ꤭ꤑꤢꤩ꤭": 5112,
      "ꤙꤢꤩꤟꤣꤧ": 5113,
      "ꤙꤢꤩꤋꤢꤨ꤬": 5114,
      "ꤒꤢꤩ꤬ꤞꤢꤦꤥ꤬": 5115,
      "ꤏꤢꤪ꤭ꤊꤣꤧ꤬ꤘꤣ": 5116,
      "ꤓꤝꤢ꤭ꤓꤢꤧ꤬ꤜꤢꤨ": 5117,
      "ꤒꤣꤧ꤬ꤔꤢꤩ꤬ꤊ꤫ꤢꤨ꤬": 5118,
      "ꤜꤤ꤬ꤘꤢꤨ꤬": 5119,
      "ꤜꤤ꤬ꤓꤢꤨ꤬ꤞꤢꤩꤓꤢꤧ꤬": 5120,
      "ꤜꤤ꤬ꤡꤢ꤭ꤏꤢꤧ꤭": 5121,
      "ꤊꤝꤤ꤭ꤕ꤫ꤢꤩ꤬": 5122,
      "ꤊꤝꤤ꤭ꤔꤢꤪ": 5123,
      "ꤊꤝꤤ꤭ꤡꤢꤪꤙꤢꤧ꤭": 5124,
      "ꤔ꤫ꤤ꤬ꤙꤢꤩ꤬ꤘꤢꤦ꤬": 5125,
      "ꤗꤢꤨ꤬ꤢꤩꤜꤢ꤬": 5126,
      "ꤘꤥ꤬ꤔꤢꤧ꤭ꤜꤥ꤭": 5127,
      "ꤜꤥ꤬ꤊꤣꤧ꤭": 5128,
      "ꤜꤥ꤬ꤊꤣꤧ꤬ꤚꤢꤩꤊꤢꤨ꤭": 5129,
      "ꤕꤣꤧꤔꤢꤨ꤬": 5130,
      "ꤤ꤬ꤞꤝꤢꤜꤢꤧ꤬": 5131,
      "ꤞꤢꤪ꤬ꤞꤣꤧ꤭ꤖꤚꤢꤩ꤬": 5132,
      "ꤞꤢꤪ꤬ꤜꤢꤪꤗꤢꤧ": 5133,
      "ꤋꤛꤢ꤭ꤞꤢꤧꤕ꤫ꤥ꤬": 5134,
      "ꤒꤣ꤬ꤖꤥꤔꤣꤧ꤬": 5135,
      "ꤕꤣꤧꤞꤢꤩ꤬ꤔꤣꤧ꤬": 5136,
      "ꤜꤢꤨ꤬ꤎꤤ": 5137,
      "ꤢ꤬ꤍ꤫ꤥ꤬ꤣꤧ꤭": 5138,
      "ꤋꤚꤝꤢ꤭ꤋꤚꤝꤥ꤭": 5139,
      "ꤜꤢ꤬ꤒꤤ꤬": 5140,
      "ꤗꤢꤪꤋꤢꤨ꤬ꤖꤢꤨ": 5141,
      "ꤖꤢꤙꤢꤦ꤭": 5142,
      "ꤗꤤ꤬ꤓꤣꤧ꤭": 5143,
      "ꤗꤤ꤬ꤋꤥ꤬": 5144,
      "ꤋꤝꤤꤣꤧ꤭": 5145,
      "ꤋꤝꤤꤟꤥ꤭": 5146,
      "ꤋꤝꤤꤊꤢꤧꤎꤢ꤬": 5147,
      "ꤔ꤫ꤤ꤬ꤟꤥ꤭ꤓꤥ꤭": 5148,
      "ꤒꤢꤩ꤬ꤞꤤꤘꤥ꤭": 5149,
      "ꤣꤧ꤭ꤒꤣꤧ꤬ꤟꤢꤩ꤬ꤔꤣꤧ꤬ꤚꤣꤧ꤬": 5150,
      "ꤣꤧ꤭ꤒꤣ꤬ꤊꤢꤨ꤭": 5151,
      "ꤣꤧ꤭ꤒꤣ꤬ꤘꤢꤪ꤭": 5152,
      "ꤗꤣꤧ꤭ꤗ꤫ꤢꤧ꤬": 5153,
      "ꤓꤢꤩ꤬ꤡꤝꤢꤊꤜꤢꤧ": 5154,
      "ꤜꤢꤩ꤭ꤞꤥ꤭ꤞꤝꤢ": 5155,
      "ꤘꤢꤧꤙꤢꤩ꤬": 5156,
      "ꤘꤢꤧꤡꤝꤢ": 5157,
      "ꤘꤢꤧꤕ꤫ꤢꤩ꤬": 5158,
      "ꤘꤢꤧꤜꤥ꤭": 5159,
      "ꤘꤣꤧꤟꤣꤧ꤭ꤊꤣꤧ꤭": 5160,
      "ꤘꤣꤧꤟꤣꤧ꤭ꤙꤢꤦ꤬": 5161,
      "ꤓꤢꤨ꤬ꤖꤚꤢꤩ": 5162,
      "ꤙꤢꤧꤞꤢ꤬": 5163,
      "ꤋꤥꤜꤢꤪ꤭": 5164,
      "ꤋꤥꤜꤢ꤭ꤒꤢꤩ꤬": 5165,
      "ꤚꤢ꤭ꤜꤥ꤭": 5166,
      "ꤘꤣꤧꤡꤢ꤭ꤒꤢꤩ꤬": 5167,
      "ꤘꤣꤧꤡꤢ꤭ꤡꤢꤦ꤬": 5168,
      "ꤢ꤬ꤒꤢꤩ꤬ꤤ꤬ꤞꤝꤢꤤ꤬ꤞꤢꤧ꤬": 5169,
      "ꤢ꤬ꤒꤢꤩ꤬ꤏꤝꤤ": 5170,
      "ꤏꤥ꤭ꤗꤢꤩ꤭": 5171,
      "ꤏꤥ꤭ꤚꤟꤛꤢ꤬": 5172,
      "ꤙꤢ꤬ꤙꤢꤩ꤬ꤜꤢ꤬": 5173,
      "ꤜ꤫ꤥ꤬ꤚꤢꤦ꤭": 5174,
      "ꤔꤣꤧ꤬ꤒꤣ꤬ꤒ꤫ꤥ꤬": 5175,
      "ꤘꤣꤧꤜꤥ꤭ꤕꤜꤥ꤭": 5176,
      "ꤕꤜꤝꤢ꤭ꤋꤢꤧ꤭ꤢꤩ꤬": 5177,
      "ꤒꤢ꤭ꤒꤢꤩ꤬ꤊꤢꤧ꤭": 5178,
      "ꤎꤢ꤬ꤖꤤ": 5179,
      "ꤎꤢ꤬ꤒꤢ꤬": 5180,
      "ꤎꤢ꤬ꤕꤢꤩ꤬ꤊ꤫ꤢꤩ꤬": 5181,
      "ꤘꤤ꤭ꤖꤢꤩ": 5182,
      "ꤒꤣꤧ꤬ꤘꤢꤦ꤬ꤕꤢ꤭": 5183,
      "ꤒꤣꤧ꤬ꤘꤢꤦ꤬ꤜꤢ꤭": 5184,
      "ꤔꤢꤧ꤭ꤒꤥ꤬": 5185,
      "ꤔꤢꤧ꤭ꤕꤢ꤭": 5186,
      "ꤟꤢꤩꤏꤥ꤬ꤘꤥ꤬ꤔꤢꤧ꤭ꤚꤣꤧ": 5187,
      "ꤚ꤫ꤥ꤬ꤒ꤫ꤣ꤬ꤊꤣꤧ꤭": 5188,
      "ꤟꤢꤩꤏꤥ꤬ꤜꤥ꤭ꤓꤢꤧ꤬": 5189,
      "ꤟꤢꤩꤏꤥ꤬ꤜꤥ꤭ꤚꤣꤧ": 5190,
      "ꤟꤢꤩꤏꤥ꤬ꤜꤥ꤭ꤕꤜꤥ꤭": 5191,
      "ꤕꤢ꤭ꤔꤣꤧ꤬ꤚꤣꤧ꤬": 5192,
      "ꤜ꤫ꤢꤪ꤬ꤞꤥ꤭ꤜꤢꤩ꤭": 5193,
      "ꤗꤢꤧꤕꤢꤨ꤭ꤞꤢꤦ": 5194,
      "ꤗꤢꤞꤢꤧ": 5195,
      "ꤗꤢꤙꤥ꤭": 5196,
      "ꤗꤢꤩ꤬ꤡꤝ꤫ꤢ꤬ꤚꤣꤧ": 5197,
      "ꤊꤝꤤ꤭ꤡꤢꤪꤙꤢꤩ꤭ꤓꤢꤨ꤭": 5198,
      "ꤜ꤫ꤢꤩ꤬ꤥ꤬ꤊꤢꤨ": 5199,
      "ꤜ꤫ꤢꤩ꤬ꤥ꤬ꤓꤢꤧ꤬ꤜꤥ꤭": 5200,
      "ꤞꤤꤛꤢꤪ꤬ꤊꤜꤢ꤬ꤙꤢꤩ꤬": 5201,
      "ꤒꤣꤧ꤬ꤕꤜꤥ": 5202,
      "ꤒꤣꤧ꤬ꤕꤜꤢꤦ": 5203,
      "ꤡꤛꤣ꤬ꤚꤢ꤬": 5204,
      "ꤔꤢ꤬ꤘꤢ꤬": 5205,
      "ꤔꤢ꤬ꤠꤢꤩꤖꤢꤨ": 5206,
      "ꤙꤤꤔ꤫ꤤ꤬": 5207,
      "ꤟꤢꤧ꤭ꤒ꤫ꤥ꤬ꤖꤚꤢꤦ": 5208,
      "ꤞꤢꤚꤢꤚꤢꤧ": 5209,
      "ꤒꤣ꤬ꤗꤢꤩ꤭ꤊꤢꤨ꤭": 5210,
      "ꤞꤤꤔꤣꤧ꤭ꤣꤧ꤭": 5211,
      "ꤘꤢꤪ꤭ꤒꤣ꤬ꤘꤢꤪ꤭": 5212,
      "ꤢꤪꤜꤢꤧ꤬ꤔꤢꤪ꤬ꤜꤢꤧ꤬": 5213,
      "ꤒꤢꤩ꤬ꤜꤢꤨ꤭ꤒꤢꤧ꤭ꤓꤢꤧ꤬": 5214,
      "ꤥ꤬ꤕ꤫ꤢꤪ꤬ꤏꤢꤦ꤬": 5215,
      "ꤙꤢꤓꤢꤩ꤬": 5216,
      "ꤙꤢꤥ꤬ꤊꤥ": 5217,
      "ꤙꤢꤋꤚ꤫ꤤ꤬": 5218,
      "ꤊꤢꤧꤚꤢ꤬": 5219,
      "ꤊꤢꤨꤋꤢꤨ꤬ꤔꤣꤧ꤬": 5220,
      "ꤑꤢ꤭ꤊꤢꤨ": 5221,
      "ꤒꤤꤠꤢ꤬": 5222,
      "ꤒꤤꤙꤢꤩ꤬ꤚꤤ": 5223,
      "ꤏꤢꤦ꤭ꤞꤣꤧ꤭": 5224,
      "ꤒꤣꤧ꤬ꤋꤢꤩ꤭ꤕꤜꤢꤧꤜꤤ꤬ꤏꤤ": 5225,
      "ꤞꤥ꤭ꤞꤝꤢꤒꤣ꤬ꤡꤣ꤬": 5226,
      "ꤞꤥ꤭ꤞꤝꤢꤒꤣ꤬ꤘꤥ꤭": 5227,
      "ꤠꤢꤩ꤬ꤙꤥ꤭": 5228,
      "ꤞꤢꤪ꤬ꤊꤜꤣꤧ꤭ꤖꤢꤨ": 5229,
      "ꤘꤣꤋꤛꤢ꤭ꤚꤣꤧ꤬": 5230,
      "ꤘꤣꤋꤛꤢ꤭ꤒꤣ꤬ꤔꤣꤧ꤭": 5231,
      "ꤚꤢꤦ꤭ꤣꤧ꤭": 5232,
      "ꤒꤣꤧ꤬ꤚꤤ꤬ꤒꤣꤧ꤬ꤚꤢꤧ꤭ꤚꤣꤧ": 5233,
      "ꤏꤢꤪ꤭ꤚꤤ꤬ꤘꤢꤦ꤬": 5234,
      "ꤗꤢꤩ꤬ꤒꤢꤩ꤬ꤣꤧ꤭": 5235,
      "ꤡꤢ꤬ꤗꤢꤩ꤬": 5236,
      "ꤡꤢ꤬ꤒ꤫ꤢꤪ꤬ꤓꤢꤩ": 5237,
      "ꤒꤣꤧ꤬ꤠꤢ꤬ꤖꤢꤩ꤬": 5238,
      "ꤒꤣꤧ꤬ꤠꤢ꤬ꤕꤜꤢꤨ꤬": 5239,
      "ꤔꤥ꤬ꤞꤢꤪ꤭": 5240,
      "ꤜꤢꤩꤒꤢꤨ": 5241,
      "ꤏꤥ꤬ꤣꤧ꤭ꤒꤣ꤬ꤗꤢꤩ꤭": 5242,
      "ꤏꤥ꤬ꤎꤤꤔꤢ": 5243,
      "ꤜꤣꤧ꤬ꤟꤥ꤭ꤜꤢꤧ꤬": 5244,
      "ꤒꤣꤧ꤬ꤕꤜꤢꤩ꤬ꤞꤢꤩ꤭": 5245,
      "ꤢ꤬ꤜꤤ꤬ꤕꤜꤢꤪ꤬": 5246,
      "ꤢ꤬ꤜꤤ꤬ꤤ꤬ꤚꤥ꤭": 5247,
      "ꤋꤢꤧꤙꤢꤩ꤬ꤔꤢꤪ": 5248,
      "ꤕꤜꤝꤢ꤭ꤊꤢꤧ꤭ꤊꤣꤧ꤭": 5249,
      "ꤊꤥ꤬ꤒꤣ꤬ꤊꤥ꤬": 5250,
      "ꤕꤣꤧ꤬ꤒꤤꤖꤢꤧ": 5251,
      "ꤒꤢꤦ꤭ꤊꤢꤧ꤭": 5252,
      "ꤏꤢ꤭ꤗꤢꤧ꤬": 5253,
      "ꤏꤢ꤭ꤟꤢꤨꤊꤥ꤬": 5254,
      "ꤒꤢꤩ꤬ꤥ꤬ꤗꤣꤧ꤭ꤗ꤫ꤢꤧ꤬": 5255,
      "ꤊꤣꤧ꤬ꤘꤢ꤭ꤖꤢꤨ": 5256,
      "ꤋꤢꤨ꤭ꤡꤛꤢꤪ꤭": 5257,
      "ꤋꤢꤨ꤭ꤡꤛꤢꤩꤏꤛꤢꤧ": 5258,
      "ꤜꤥ꤭ꤔꤢꤩꤜꤥ꤭ꤔꤢ꤬ꤣꤧ꤭": 5259,
      "ꤥ꤬ꤜꤥ꤭ꤖꤚꤢꤦ": 5260,
      "ꤢ꤬ꤗ꤫ꤥ꤬ꤖꤢꤩ꤭": 5261,
      "ꤘꤢꤧ꤬ꤛ꤫ꤢꤦ꤬ꤔ꤫ꤢꤧ꤬": 5262,
      "ꤙꤢꤪꤙꤢꤩ": 5263,
      "ꤊꤜꤢꤧ꤬ꤓꤢꤩ꤬": 5264,
      "ꤊꤜꤢꤧ꤬ꤖꤚꤥ": 5265,
      "ꤊꤜꤢꤧ꤬ꤘꤤꤡꤢꤩ꤭": 5266,
      "ꤢ꤬ꤕꤥ꤬ꤊꤜꤢꤪ꤭": 5267,
      "ꤞꤤꤑꤢꤩ꤭ꤕꤜꤥ꤭ꤚꤢꤧ": 5268,
      "ꤋꤢꤪꤗꤢꤨ꤭ꤔꤣꤧ꤬": 5269,
      "ꤋꤢꤪꤗꤢꤨ꤭ꤗꤢ꤬ꤔꤢ": 5270,
      "ꤟꤥ꤬ꤗꤢꤩ꤬ꤞꤝꤢꤩ": 5271,
      "ꤥ꤬ꤒ꤫ꤣ꤬ꤊꤣꤧ꤭ꤘꤢꤦ꤬": 5272,
      "ꤥ꤬ꤒ꤫ꤣ꤬ꤊꤣꤧ꤭ꤕꤢ꤬": 5273,
      "ꤓꤢꤪꤡꤝꤢ": 5274,
      "ꤓꤢꤪꤓꤢꤩ꤬": 5275,
      "ꤓꤢꤪꤟꤢꤧ꤭ꤓꤢꤪ": 5276,
      "ꤋꤢꤨ꤭ꤎꤢ꤬ꤜꤢ꤬": 5277,
      "ꤠꤤ꤬ꤜꤣꤧ꤬ꤠꤢꤪ꤭": 5278,
      "ꤛ꤫ꤢꤨ꤬ꤥ꤭": 5279,
      "ꤥ꤬ꤗꤣꤧ꤭ꤢꤩ꤭": 5280,
      "ꤊ꤫ꤢꤨ꤬ꤊꤢꤧ꤭": 5281,
      "ꤞꤢꤨ꤭ꤡꤝꤢꤟꤣꤧ": 5282,
      "ꤠꤤ꤭ꤊꤢꤨ꤭ꤣꤧ꤭": 5283,
      "ꤞꤤꤕꤜꤢꤪ꤬ꤊꤢꤨ꤭ꤔꤣꤧ꤬": 5284,
      "ꤍꤢꤧ꤭ꤜꤢꤩ꤭": 5285,
      "ꤒꤣ꤬ꤗꤢꤨ꤬ꤗꤢꤨ꤬": 5286,
      "ꤔꤢꤎꤣ꤬": 5287,
      "ꤕꤢꤪ꤬ꤟꤢꤩ꤬": 5288,
      "ꤥ꤬ꤊꤜꤢꤪ꤬ꤥ꤬ꤗꤢ꤬": 5289,
      "ꤢ꤬ꤋꤚ꤫ꤢꤩ꤬": 5290,
      "ꤢ꤬ꤋꤚꤝꤢ": 5291,
      "ꤊꤣꤧ꤭ꤜꤢ꤭ꤒꤢꤩ꤬ꤚꤣꤧ꤬": 5292,
      "ꤜꤥꤊꤢꤧ꤭": 5293,
      "ꤚꤢꤨꤎꤣ꤬": 5294,
      "ꤚꤢꤨꤙꤢ꤬ꤙꤢꤩ꤬ꤜꤢ꤬": 5295,
      "ꤗꤢꤧꤗꤣꤧ꤭ꤜꤢꤩ": 5296,
      "ꤡꤝꤤ꤬ꤊꤢ꤬": 5297,
      "ꤡꤝꤤ꤬ꤊꤣꤧ꤬ꤓꤢꤪ꤬": 5298,
      "ꤡꤝꤤ꤬ꤓꤢꤨ꤭": 5299,
      "ꤋꤚꤝꤢ꤭ꤊꤣꤧ꤭ꤟꤣꤧ": 5300,
      "ꤢ꤬ꤏꤣꤧꤊꤣꤧ꤬ꤜ꤫ꤣꤧ꤬": 5301,
      "ꤒꤢꤩ꤬ꤗꤥ꤬ꤔꤣꤧ꤬": 5302,
      "ꤞꤢꤧꤊꤣꤧ꤭ꤟꤢꤨ": 5303,
      "ꤞꤢꤧꤊꤣꤧ꤭ꤜꤢꤪ꤭": 5304,
      "ꤎꤤ꤬ꤛꤢ꤬": 5305,
      "ꤟꤢꤩꤜꤥ꤭ꤓꤢꤧ꤬": 5306,
      "ꤙꤢꤧꤜꤢꤧ꤬ꤒꤢꤩ꤭ꤜꤢꤧ꤬": 5307,
      "ꤥ꤬ꤓꤢꤧ꤬ꤓꤥ꤭ꤥ꤬ꤓꤢꤧ꤬": 5308,
      "ꤚꤥꤗꤢꤩ꤬ꤖꤢꤨ": 5309,
      "ꤒꤣꤧ꤬ꤛꤝꤤ": 5310,
      "ꤡꤝꤢꤒꤣꤧ꤬ꤜꤝꤢꤋꤢꤩ꤭ꤒꤣꤧ꤬ꤕꤜꤢꤩ꤬": 5311,
      "ꤕꤜꤢꤦꤜꤢ꤭": 5312,
      "ꤢ꤬ꤞꤝꤤ꤬ꤓꤣꤧ꤭": 5313,
      "ꤗꤢꤩ꤬ꤙꤢꤩ꤬ꤏꤢꤩ꤭": 5314,
      "ꤋꤢꤨ꤭ꤙꤢ꤬ꤞꤢꤪ꤬ꤜꤢꤪꤗꤢꤧ": 5315,
      "ꤋꤢꤨ꤭ꤢ꤬ꤗꤤ": 5316,
      "ꤕꤣꤧꤞꤢꤩ꤬ꤋꤤꤔꤢꤪ": 5317,
      "ꤒꤢ꤬ꤖꤢ꤭": 5318,
      "ꤢꤩꤊꤢ꤬ꤔ꤫ꤤ꤬": 5319,
      "ꤗꤢꤩ꤬ꤜꤤ꤭ꤊꤢ꤬": 5320,
      "ꤘꤢꤧ꤭ꤗꤢꤩ꤬": 5321,
      "ꤕꤣꤧꤞꤢꤩ꤬ꤕꤜꤢꤪ꤬ꤜꤥ꤬": 5322,
      "ꤛꤢꤧꤓꤢꤧ꤬": 5323,
      "ꤢ꤬ꤘꤢꤨ꤬ꤜꤣꤢꤨ꤭": 5324,
      "ꤤ꤬ꤖꤚꤤ꤬ꤊꤢ꤬": 5325,
      "ꤓꤢꤩꤏꤢꤦ꤬ꤙꤤꤊꤢꤧ꤭": 5326,
      "ꤞꤤꤖꤚꤝꤢ꤭ꤏꤢꤦ꤬": 5327,
      "ꤥ꤬ꤋꤚꤢꤧꤊꤢꤧ꤭": 5328,
      "ꤤ꤬ꤊꤢꤩ꤭ꤘꤢꤨ꤬": 5329,
      "ꤓꤣꤧ꤭ꤛꤢꤧ꤭ꤏꤢ꤬": 5330,
      "ꤊꤜꤢꤦꤋꤢꤨ꤬": 5331,
      "ꤗ꤫ꤢꤪ꤬ꤋꤤꤢꤪ": 5332,
      "ꤗ꤫ꤢꤪ꤬ꤋꤤꤋꤢꤩ꤭": 5333,
      "ꤜꤝꤢꤊꤢꤧ꤭": 5334,
      "ꤢ꤬ꤋꤥ꤭ꤢ꤬ꤞꤝꤢ": 5335,
      "ꤜ꤫ꤢꤩ꤬ꤢꤩ꤬ꤘꤤ꤭ꤚ꤫ꤢꤩ꤬": 5336,
      "ꤗꤤꤛꤣ꤬": 5337,
      "ꤒꤢꤩ꤬ꤗ꤫ꤢ꤬ꤊꤢꤧ꤭ꤍ꤫ꤥ꤬ꤣꤧ꤭": 5338,
      "ꤥ꤬ꤖꤢꤦ꤬ꤥ꤬ꤠꤢ": 5339,
      "ꤘꤢꤧ꤬ꤘꤢꤨ꤬ꤛ꤫ꤢꤦ꤬ꤔ꤫ꤢꤧ꤬ꤚꤣꤧ": 5340,
      "ꤒꤢꤩ꤬ꤋꤤꤊꤜꤢꤩ꤭": 5341,
      "ꤜꤣꤧ꤬ꤋꤢꤦꤊꤢꤧ꤭": 5342,
      "ꤢ꤬ꤚ꤫ꤣꤧ꤬ꤋꤢꤩ꤭ꤔꤣꤧ꤬": 5343,
      "ꤢꤩꤜꤣꤕ꤫ꤥ꤬": 5344,
      "ꤣꤧ꤭ꤒꤣ꤬ꤡꤣ꤬ꤔꤣꤧ꤬": 5345,
      "ꤖꤢꤨꤥ꤬ꤚꤣꤧ": 5346,
      "ꤞꤥ꤭ꤔꤣꤧ꤭ꤒꤣ꤬ꤔꤣꤧ꤭": 5347,
      "ꤞꤥ꤭ꤔꤣꤧ꤭ꤞꤥ꤭ꤞꤢꤩ꤭": 5348,
      "ꤑꤢ꤭ꤒꤢꤧ꤬ꤒꤥ꤬ꤔꤣꤧ꤬": 5349,
      "ꤊꤣꤧ꤬ꤓꤢꤧ꤬ꤊꤢꤧ꤭": 5350,
      "ꤋꤢꤨ꤭ꤗꤢ꤬ꤞꤢ꤬": 5351,
      "ꤋꤢꤨ꤭ꤗꤢ꤬ꤜꤢ꤬ꤋꤤ": 5352,
      "ꤕꤣꤧ꤬ꤜꤢ꤭ꤖꤢꤨ": 5353,
      "ꤜꤝꤤ꤭ꤞꤝꤢꤒꤣ꤬ꤗꤢꤦ꤭": 5354,
      "ꤜꤝꤤ꤭ꤞꤝꤢꤒꤣ꤬ꤏꤣꤧ꤭": 5355,
      "ꤏꤛꤢ꤬ꤗꤢꤨ꤬ꤢꤩꤜꤢ꤬": 5356,
      "ꤜꤢꤨ꤭ꤍ꤫ꤥ꤬ꤍ꤫ꤥ꤬": 5357,
      "ꤎꤤꤜꤥ꤬": 5358,
      "ꤋꤢꤨ꤭ꤎꤢ꤬ꤒꤤꤠꤢ꤬": 5359,
      "ꤞꤢꤪ꤬ꤗ꤫ꤢꤪ꤬ꤠꤢꤩ꤬ꤙꤥ꤭": 5360,
      "ꤡꤢ꤬ꤡꤝꤢ꤬ꤙꤢꤨ꤭": 5361,
      "ꤢ꤬ꤔꤥ꤬ꤜꤣ": 5362,
      "ꤗꤢ꤬ꤤ꤭ꤒꤢꤩ꤭ꤔꤣꤧ꤬": 5363,
      "ꤠꤤ꤭ꤊꤢ꤬ꤔꤢ": 5364,
      "ꤠꤤ꤭ꤊꤢ꤬ꤗꤥ": 5365,
      "ꤗꤤ꤬ꤊꤢꤪ꤭ꤓꤢꤩ꤭": 5366,
      "ꤗꤤ꤬ꤊꤢꤪ꤭ꤚ꤫ꤢꤩ꤬ꤋꤢꤨ꤬": 5367,
      "ꤊꤜꤝꤢ꤬ꤢ꤬ꤔ꤫ꤢꤩ꤬": 5368,
      "ꤊꤢꤩ꤬ꤟꤢꤩꤟꤢꤨꤔꤣꤧ꤬": 5369,
      "ꤒꤥ꤬ꤙꤢꤩ꤬ꤓꤥ꤭": 5370,
      "ꤤ꤬ꤏꤢꤪ꤭ꤟꤢ꤭": 5371,
      "ꤞꤢ꤬ꤞꤢꤩ꤭ꤏꤢꤦ꤬": 5372,
      "ꤢ꤫ꤢ꤬ꤚꤢꤧ꤭": 5373,
      "ꤊꤢ꤬ꤏꤥ꤭ꤘꤢꤧ꤬ꤏꤥ꤭ꤗꤢꤩ꤭": 5374,
      "ꤓꤝꤤ꤬ꤒꤣꤧ꤬ꤟꤢꤩ꤬": 5375,
      "ꤜꤢꤧꤜꤢꤧ꤬": 5376,
      "ꤘꤤ꤭ꤚ꤫ꤢꤩ꤬ꤓꤢꤧ꤬ꤜꤥ꤭": 5377,
      "ꤞꤥ꤭ꤞꤝꤢꤒꤣ꤬ꤊꤥ꤬": 5378,
      "ꤖꤢꤩ꤭ꤢ꤬ꤔꤢ": 5379,
      "ꤒꤢꤩ꤬ꤘꤢꤧ꤬ꤥꤘꤢꤧ꤬ꤙꤤ": 5380,
      "ꤜ꤫ꤢꤩ꤬ꤘꤢꤧ꤬ꤥ꤬ꤕꤜꤢꤪ": 5381,
      "ꤟꤢꤩ꤬ꤋꤢꤨ꤬ꤏꤤ꤭ꤙꤢ꤬ꤜꤢꤪ꤭": 5382,
      "ꤜꤤ꤭ꤒꤣꤧ꤬ꤋꤢꤩ꤭ꤓꤢꤧ꤬": 5383,
      "ꤏꤢ꤭ꤖꤚ꤫ꤢꤩ꤬ꤔꤢꤧ꤬ꤡꤢꤩ꤭": 5384,
      "ꤏꤢ꤭ꤖꤚ꤫ꤢꤩ꤬ꤏꤢ꤭ꤗꤢꤧ꤬": 5385,
      "ꤒꤣꤧ꤬ꤊꤢꤩ꤬ꤙꤤꤚꤣꤧ": 5386,
      "ꤒꤢꤩ꤬ꤜꤢꤨ꤭ꤚ꤫ꤢꤩ꤬ꤓꤢꤩ꤭": 5387,
      "ꤕꤢꤪꤒꤤ꤬": 5388,
      "ꤛ꤫ꤤ꤬ꤒꤣꤧ꤬ꤖꤚ": 5389,
      "ꤒꤣꤧ꤬ꤊꤤ꤬ꤟꤢꤨꤖꤢꤧ": 5390,
      "ꤥ꤬ꤕ꤫ꤢ꤬ꤒ꤫ꤣ꤬": 5391,
      "ꤥ꤬ꤕ꤫ꤢ꤬ꤒ꤫ꤣ꤬ꤊꤣꤧ꤭": 5392,
      "ꤥ꤬ꤕ꤫ꤢ꤬ꤓꤢꤧ꤬ꤒ꤫ꤣ꤬": 5393,
      "ꤒꤣꤧ꤬ꤔꤢꤩ꤬ꤓꤢꤧ꤬ꤙꤢꤩ꤬": 5394,
      "ꤎꤢ꤬ꤕꤛꤤꤖꤢꤩ꤬ꤋꤢꤨ꤬": 5395,
      "ꤗꤢꤩ꤬ꤜꤣꤙꤢ꤭ꤓꤢꤧ꤬": 5396,
      "ꤕ꤫ꤢꤦ꤬ꤖꤢꤩ꤬ꤛꤢꤩꤕꤜꤢꤩꤖꤢꤩ꤬": 5397,
      "ꤋꤢꤨ꤭ꤔꤢ꤬ꤏꤛꤥ꤬": 5398,
      "ꤠꤤ꤭ꤘꤢꤨ꤬ꤠꤤ꤭ꤓꤢꤨ꤭": 5399,
      "ꤖꤢꤩꤓꤢꤧ꤬ꤘꤢꤨ꤬ꤓꤢꤧ꤬": 5400,
      "ꤜꤟꤛꤢ꤭": 5401,
      "ꤤ꤬ꤔꤢꤨꤕꤢ꤬": 5402,
      "ꤟꤢꤧ꤭ꤢꤩ꤬ꤟꤢꤧ꤭ꤥ꤭": 5403,
      "ꤟꤢꤧ꤭ꤖꤢꤦ꤬ꤟꤣꤧ": 5404,
      "꤮꤯’”": 5405,
      "ꤒꤣꤧ꤬ꤔꤢꤩ꤬ꤞꤢꤦꤙꤢꤪ꤭": 5406,
      "ꤊꤢꤨꤜ꤫ꤤ꤬ꤊꤢꤨ꤭": 5407,
      "ꤏꤢꤧ꤬ꤋꤚꤝꤢ꤭ꤚꤣꤧ": 5408,
      "ꤢ꤬ꤒꤣ": 5409,
      "ꤗꤢꤩ꤬ꤜꤢꤪ꤭ꤊꤢꤧ꤭ꤘꤢꤩ꤭": 5410,
      "ꤡꤝꤢꤊꤝꤤ꤭ꤗꤢꤧ": 5411,
      "ꤋꤢꤨ꤭ꤡꤛꤥ꤬": 5412,
      "ꤠꤤ꤭ꤓꤢꤛꤣ꤬ꤖꤢꤨ": 5413,
      "ꤘꤢꤩꤒꤢ꤭": 5414,
      "ꤢ꤬ꤡꤢ꤭ꤢ꤬ꤡꤢꤦ꤬": 5415,
      "ꤋꤢꤨ꤭ꤢꤪꤙꤢꤧ": 5416,
      "ꤕꤜꤥꤊꤢꤧ꤭": 5417,
      "ꤕꤜꤥꤒꤢ꤭ꤊꤢꤧ꤭": 5418,
      "ꤠꤤ꤭ꤜꤢꤨꤘꤢ꤬": 5419,
      "ꤊꤢ꤬ꤊꤣꤧ꤬ꤔꤥ꤭ꤙꤢꤩ": 5420,
      "ꤖꤛꤢꤘꤢꤨ꤬ꤖꤛꤢꤓꤢꤧ꤬ꤜꤥ꤭": 5421,
      "ꤜꤢꤨ꤬ꤗꤥ꤭ꤓꤢꤧ꤬": 5422,
      "ꤒꤢꤩ꤬ꤞꤤꤕꤜꤢꤩ꤭ꤞꤤꤛꤢꤪ꤬": 5423,
      "ꤒꤢꤩ꤬ꤞꤤꤕꤜꤢꤩ꤭ꤔꤢꤩ꤬ꤙꤢꤩ꤬": 5424,
      "ꤠꤤ꤭ꤎꤤꤘꤥ꤬ꤖꤢꤨ": 5425,
      "ꤢ꤬ꤔꤣꤧ꤭ꤜꤝꤤ꤭ꤏꤣꤧ꤭": 5426,
      "ꤥ꤬ꤠꤢꤥ꤬ꤥ": 5427,
      "ꤜ꤫ꤢꤩ꤬ꤟꤢꤧ꤭ꤊꤜꤢꤧ": 5428,
      "ꤘꤤ꤭ꤙꤢꤩ꤭ꤒꤣꤧ꤬ꤢꤩ꤬ꤘꤢꤨ꤬": 5429,
      "ꤢ꤬ꤟꤢꤪꤢ꤬ꤞꤢꤩ": 5430,
      "ꤖꤚꤢꤩ꤬ꤕ꤫ꤢꤦ꤬ꤖꤢꤩ꤬ꤛꤢꤩꤕꤜꤢꤩꤖꤢꤩ꤬": 5431,
      "ꤋꤢꤨ꤭ꤛꤥ꤬ꤏꤛꤢꤨ": 5432,
      "ꤜꤣꤢꤨ꤭ꤋꤥ꤭": 5433,
      "ꤛ꤫ꤢꤨ꤬ꤢꤩ꤬ꤛ꤫ꤢꤨ꤬ꤥ꤭": 5434,
      "ꤠꤥ꤬ꤔꤤꤊꤢꤩ꤬": 5435,
      "ꤢ꤬ꤒꤣꤧ꤬ꤜꤢ꤭": 5436,
      "ꤢ꤬ꤞꤢꤪ꤭ꤢ꤬": 5437,
      "ꤋꤢꤨ꤭ꤏꤛꤢꤩ꤬ꤜꤢ꤬ꤒꤤ꤬": 5438,
      "ꤡꤢ꤬ꤊꤜꤢꤪ꤭ꤘꤢꤨ꤬": 5439,
      "ꤓꤢꤪꤕꤢꤩ꤭ꤊꤢꤧ꤭ꤡ꤫ꤢꤧ꤬": 5440,
      "ꤒꤢ꤬ꤜꤝꤥ": 5441,
      "ꤢ꤬ꤓꤝꤟꤥ꤭": 5442,
      "ꤒꤢꤩ꤬ꤖꤥ꤭ꤒꤢꤩ꤬ꤊ꤫ꤤ꤬": 5443,
      "ꤋꤢꤨ꤭ꤟꤢꤩ꤬ꤞꤢ꤬ꤚꤥ꤬": 5444,
      "ꤏꤢꤒꤢ꤭ꤛꤢꤧ꤭": 5445,
      "ꤢ꤬ꤋꤚꤝꤤꤢ꤬ꤋꤚꤝꤢ": 5446,
      "ꤓꤢꤦꤞꤢꤨ꤭ꤊꤢꤧ꤭": 5447,
      "ꤠꤢꤧꤓꤣꤧ꤭": 5448,
      "ꤢ꤬ꤕꤜꤤ꤭ꤢ꤬ꤖꤥ": 5449,
      "ꤠꤢꤧ꤭ꤓꤣꤧ꤭ꤠꤢꤧ꤭": 5450,
      "ꤠꤤ꤭ꤙꤢꤩ꤬ꤞꤢ꤬ꤎꤢꤧꤘꤢ꤬": 5451,
      "ꤠꤤ꤭ꤊꤢꤨꤚꤢꤩ꤬ꤔꤢꤩ꤬ꤖꤢꤨ": 5452,
      "ꤏꤥ꤬ꤚ꤫ꤢ꤬ꤜꤥ꤬": 5453,
      "ꤋꤢꤨ꤭ꤎꤤ꤬ꤗꤤꤥ꤬": 5454,
      "ꤋꤢꤨ꤭ꤗꤢꤒꤢ꤬ꤞꤤꤛꤣ꤬": 5455,
      "ꤛꤢꤪꤊ꤫ꤢꤩ꤬ꤊꤢꤧ꤭": 5456,
      "ꤥ꤬ꤋꤚꤥ꤭ꤥ꤬ꤊꤜꤢꤩ꤭": 5457,
      "꤂꤀꤁꤄": 5458,
      "ꤊꤢ꤬ꤚꤢꤧꤚꤢꤧ": 5459,
      "ꤋꤛꤢꤩ꤭ꤞꤛꤢ": 5460,
      "ꤒꤟꤢꤧ꤭ꤘꤢꤨ꤬": 5461,
      "ꤢ꤬ꤢꤩ꤬ꤢ꤬": 5462,
      "ꤒꤢꤩ꤬ꤊꤢꤦ꤭ꤒꤢꤩ꤬ꤞꤢꤧ": 5463,
      "ꤞꤤ꤭ꤗ꤫ꤥ꤬ꤞꤤ꤭ꤖꤢꤩ꤭": 5464,
      "ꤕꤢꤩ꤬ꤗ꤫ꤥ꤬ꤕꤢꤩ꤬ꤖꤢꤩ꤭": 5465,
      "ꤋꤢꤨ꤭ꤞꤢꤩ꤬ꤚꤢꤨꤙꤢ꤬ꤙꤢꤩ꤬ꤜꤢ꤬": 5466,
      "ꤟꤤ꤬ꤔꤢꤧꤖꤚꤢꤩ": 5467,
      "ꤜ꤫ꤢꤪ꤬ꤞꤢꤨꤙꤢꤨ꤭": 5468,
      "ꤊꤢꤦ꤭ꤓꤢꤧ꤬ꤞꤢꤧꤓꤢꤧ꤬": 5469,
      "ꤗ꤫ꤢ꤬ꤟꤢꤧ꤭ꤢꤩ꤬ꤟꤢꤧ꤭ꤥ꤭": 5470,
      "ꤞꤤ꤭ꤊꤛꤢꤞꤤ꤭ꤒꤣꤧ꤬ꤍꤢ꤭": 5471,
      "ꤟꤢꤧ꤭ꤏꤝꤢ꤬ꤚꤢꤩ꤬ꤏꤢꤪ꤭": 5472,
      "ꤞꤝꤢ꤬ꤒꤤ": 5473,
      "ꤢ꤬ꤓꤥ꤭ꤢ꤬ꤕꤜꤢꤦ": 5474,
      "ꤢ꤬ꤒꤢ꤭ꤢ꤬ꤒꤢꤩ꤬": 5475,
      "ꤢ꤬ꤏꤥ꤭ꤚꤢꤧ": 5476,
      "ꤥ꤬ꤊꤚꤛꤢ": 5477,
      "ꤒꤣꤧ꤬ꤕ꤫ꤥ꤬ꤗ꤫ꤢꤪ꤬": 5478,
      "ꤒꤣꤧ꤬ꤋꤣꤧ꤬ꤒꤣꤧ꤬ꤋꤢꤩ꤭": 5479,
      "ꤒꤢꤩ꤬ꤜꤢ꤭ꤒꤢꤩ꤬ꤍ꤫ꤥ꤬": 5480,
      "ꤞꤤ꤭ꤕ꤫ꤥ꤬ꤞꤤ꤭": 5481,
      "ꤠꤢꤧ꤭ꤟꤢꤧ꤭ꤠꤢꤧ꤭ꤚꤢꤩ꤬": 5482,
      "ꤊ꤫ꤢꤦ꤬ꤏꤢꤊ꤫ꤢꤦ꤬ꤕꤢ꤭": 5483,
      "ꤊ꤫ꤢꤦ꤬ꤏꤝꤢ꤬ꤊ꤫ꤢꤦ꤬": 5484,
      "ꤊ꤫ꤢꤦ꤬ꤗꤢꤦ꤭ꤊ꤫ꤢꤦ꤬ꤕꤢꤪ꤬": 5485,
      "ꤙꤢꤩ꤬ꤕ꤫ꤢꤧ꤬ꤙꤢꤩ꤬ꤏꤢꤩ꤭": 5486,
      "ꤜꤢꤨ꤭ꤒꤣꤧ꤬ꤍꤢ꤭ꤜꤢꤨ꤭": 5487,
      "ꤋꤢꤨ꤭ꤙꤢꤧ꤬ꤡꤢ꤬ꤗꤢꤩ꤬": 5488,
      "ꤋꤢꤨ꤭ꤙꤢꤪꤞꤢ": 5489,
      "ꤋꤢꤨ꤭ꤕꤢꤩ꤬ꤚꤢ꤬ꤞꤢ꤬": 5490,
      "ꤋꤢꤨ꤭ꤒꤢꤩꤚꤢ꤬": 5491,
      "ꤠꤤ꤭ꤗꤤꤜꤢꤩꤒꤢꤨ": 5492,
      "ꤠꤤ꤭ꤢ꤬ꤚꤤꤗꤢꤞꤢꤧ": 5493,
      "ꤠꤤ꤭ꤢ꤬ꤜꤢꤧꤎꤢ꤬ꤘꤚꤤꤛꤢ꤬": 5494,
      "ꤓꤢꤩ꤬ꤤ꤬ꤓꤢꤩ꤬ꤋꤚꤢꤩ": 5495,
      "ꤖꤢꤩ꤭ꤎꤤ꤬ꤗꤤꤥ꤬": 5496,
      "ꤜꤣꤜꤣꤙꤢ꤭ꤙꤢ꤭": 5497,
      "ꤊ꤫ꤢꤩ꤬ꤠꤤ꤭ꤊ꤫ꤢꤩ꤬ꤊꤢꤪ꤭": 5498,
      "ꤕꤝꤢ꤭ꤗꤤ꤭ꤕꤝꤢ꤭ꤡꤣ꤬": 5499,
      "ꤒꤢꤩ꤬ꤞꤤꤘꤥ꤭ꤞꤤꤍꤢ꤬": 5500,
      "ꤓꤢꤨ꤬ꤖꤚꤢꤩꤟꤢꤨ": 5501,
      "ꤎꤢ꤬ꤖꤤꤚꤢ": 5502,
      "ꤞꤤꤛꤢꤪ꤬ꤊꤜꤢ꤬ꤙꤢꤩ꤬ꤚꤣꤧ": 5503,
      "ꤡꤛꤣ꤬ꤚꤢ꤬ꤗꤤꤛꤣ꤬": 5504,
      "ꤙꤢꤋꤚ꤫ꤤ꤬ꤒꤢꤩ꤭": 5505,
      "ꤒꤣꤧ꤬ꤠꤢ꤬ꤕꤜꤢꤨ꤬ꤒꤣꤧ꤬ꤠꤢ꤬ꤖꤢꤩ꤬": 5506,
      "ꤓꤢꤪꤟꤢꤧ꤭ꤓꤢꤪꤚꤢꤩ꤬": 5507,
      "ꤋꤢꤨ꤭ꤎꤢ꤬ꤜꤢ꤬ꤗꤥ꤬": 5508,
      "ꤥ꤬ꤓꤢꤧ꤬ꤓꤥ꤭ꤥ꤬ꤓꤢꤧ꤬ꤜꤢꤧ꤬": 5509,
      "ꤋꤢꤨ꤭ꤢ꤬ꤗꤤꤔꤢ꤬ꤘꤢ꤬": 5510,
      "ꤋꤢꤨ꤭ꤎꤢ꤬ꤒꤤꤠꤢ꤬ꤔꤢꤎꤣ꤬": 5511,
      "ꤛ꤫ꤤ꤬ꤒꤣꤧ꤬ꤖꤚꤢꤪ": 5512,
      "ꤋꤢꤨ꤭ꤏꤛꤢꤩ꤬ꤜꤢ꤬ꤒꤤ꤬ꤜꤢ": 5513,
      "),": 5514,
      "ꤊꤟ": 5515,
      "ꤊꤢ꤭": 5516,
      "ꤊꤢꤩꤜꤢ꤬": 5517,
      "ꤊꤟꤌꤣ꤭": 5518,
      "ꤏꤝꤢ꤭": 5519,
      "ꤐꤢꤪ": 5520,
      "ꤐꤟꤌꤣ꤬": 5521,
      "ꤒꤢꤨ꤬": 5522,
      "ꤒ꤫ꤣꤧ꤬": 5523,
      "ꤓꤥ": 5524,
      "ꤓꤛꤢꤩ꤬": 5525,
      "ꤓꤝꤢ꤬": 5526,
      "ꤓꤢꤩꤜ": 5527,
      "ꤕꤢꤨ": 5528,
      "ꤕꤚꤢꤧ": 5529,
      "ꤖꤢ꤬ꤊꤢꤩ꤬": 5530,
      "ꤗꤢꤪ꤭": 5531,
      "ꤗꤟꤥ꤬": 5532,
      "ꤗꤟꤢꤪ": 5533,
      "ꤗꤥꤕꤢ꤬": 5534,
      "ꤘꤢꤩꤓꤢꤧ꤬": 5535,
      "ꤙꤢ꤬ꤜꤤ꤬": 5536,
      "ꤚꤢ꤬ꤋ": 5537,
      "ꤚꤢ꤬ꤚꤢꤪ꤭": 5538,
      "ꤛꤝꤢ꤬": 5539,
      "ꤛꤢ꤬ꤖꤢꤨ": 5540,
      "ꤛꤢ꤬ꤚꤢꤧ": 5541,
      "ꤛꤢ꤬ꤜꤣ": 5542,
      "ꤞꤣ": 5543,
      "ꤞꤥ꤬ꤊꤢꤧ꤭": 5544,
      "ꤞꤢ꤬ꤋꤢ꤬": 5545,
      "ꤟꤝꤢ": 5546,
      "ꤟꤢꤪ꤬": 5547,
      "ꤟꤥ꤬ꤊꤢꤧ꤭": 5548,
      "ꤠꤢꤧ꤬": 5549,
      "ꤡꤢ꤬ꤊꤢꤧ꤭": 5550,
      "ꤢꤝꤤ꤭": 5551,
      "ꤤꤓꤢ꤬ꤊꤢ꤬": 5552,
      "ꤢꤩ꤬ꤊꤣꤧ꤭": 5553,
      "ꤢꤩ꤬ꤋꤚꤢꤦ꤭": 5554,
      "ꤢꤩ꤬ꤗꤣꤧ꤭": 5555,
      "ꤢꤩ꤬ꤋꤢꤪꤗꤢꤨ꤭": 5556,
      "ꤢꤩ꤬ꤒꤢꤩ꤭ꤟꤢꤨ": 5557,
      "ꤢꤩ꤬ꤟꤌꤣ꤬": 5558,
      "ꤢ꤬ꤞꤤ꤭": 5559,
      "ꤢ꤬ꤟꤢꤩ꤬": 5560,
      "ꤢ꤬ꤗꤢ꤬": 5561,
      "ꤢ꤬ꤜꤢꤪ꤭": 5562,
      "ꤢ꤬ꤗꤢꤧ": 5563,
      "ꤢ꤬ꤓꤝꤢ꤭": 5564,
      "ꤢ꤬ꤘꤢꤧ꤬": 5565,
      "ꤢ꤬ꤙꤢꤩ꤭": 5566,
      "ꤢ꤬ꤏꤢꤦ꤬": 5567,
      "ꤢ꤬ꤓꤢꤩ꤭": 5568,
      "ꤢ꤬ꤗꤢꤨꤗ꤫ꤢꤧ꤬ꤚꤤ꤬ꤡ꤫ꤢꤧ꤬": 5569,
      "ꤢ꤬ꤏꤢꤦ꤭": 5570,
      "ꤢ꤬ꤞꤢꤪ꤬ꤊꤜꤣꤧ꤭": 5571,
      "ꤢ꤬ꤡꤢꤧ꤬": 5572,
      "ꤢ꤬ꤔꤝꤢꤓꤢꤧ꤬": 5573,
      "ꤢ꤬ꤟꤥ꤭ꤊꤢꤨ꤭": 5574,
      "ꤢ꤬ꤕꤝꤢꤩ꤬": 5575,
      "ꤢ꤬ꤠꤤ꤬": 5576,
      "ꤢ꤬ꤗꤢꤪꤋꤢꤨ꤬ꤒꤣꤧ꤬ꤔꤢꤩꤖꤢꤨ": 5577,
      "ꤢ꤬ꤠꤤ꤭ꤊꤢꤨ꤭": 5578,
      "ꤢ꤬ꤍꤢꤨ꤬ꤘꤢꤨ꤬": 5579,
      "ꤢ꤬ꤒꤣꤧ꤬ꤠꤤ꤭": 5580,
      "ꤢ꤬ꤡꤢ꤬ꤡꤝꤢ꤬": 5581,
      "ꤢ꤬ꤕꤜꤢꤧ꤬": 5582,
      "ꤢ꤬ꤔꤟꤤ": 5583,
      "ꤢ꤬ꤔꤥꤢ꤬": 5584,
      "ꤢ꤬ꤍ꤫ꤢꤧ꤬": 5585,
      "ꤢ꤬ꤒꤣꤧ꤬ꤡꤢꤩ꤭": 5586,
      "ꤢ꤬ꤡꤝꤢꤩ꤭": 5587,
      "ꤥ꤬ꤣꤧ꤭": 5588,
      "ꤥ꤬ꤕꤢ꤭": 5589,
      "ꤥ꤬ꤕ꤫ꤢꤩ꤬": 5590,
      "ꤥ꤬ꤠꤤ꤭": 5591,
      "ꤥ꤬ꤡ꤫ꤢꤧ꤬": 5592,
      "ꤥ꤬ꤜꤣ": 5593,
      "ꤥ꤬ꤕ꤫ꤥ꤬": 5594,
      "ꤥ꤬ꤜꤢꤪ꤭ꤕꤜꤤ꤭": 5595,
      "ꤥ꤬ꤒꤣꤧ꤬ꤘꤢꤦ꤬": 5596,
      "ꤥ꤬ꤞꤢꤧ꤬": 5597,
      "ꤥ꤬ꤓꤢꤧ꤬ꤜꤥ꤭": 5598,
      "ꤥ꤬ꤘꤢꤦ꤭": 5599,
      "ꤥ꤬ꤕꤣꤧ꤬ꤜꤢ꤭": 5600,
      "ꤥ꤬ꤘꤝꤢ꤭": 5601,
      "ꤥ꤬ꤊꤥ꤭": 5602,
      "ꤢꤪꤚ꤫ꤥ꤬": 5603,
      "ꤢꤪꤘꤤ": 5604,
      "ꤢꤪꤖꤤ": 5605,
      "ꤞꤤꤓꤢꤧ꤬": 5606,
      "ꤔꤣꤧ꤬ꤕꤢ꤬": 5607,
      "ꤔꤣꤧ꤬ꤞꤤꤔꤣꤧ꤭": 5608,
      "ꤣꤧ꤭ꤒꤣꤧ꤬": 5609,
      "ꤣꤧ꤭ꤚꤣꤧ꤬": 5610,
      "ꤣꤧ꤭ꤜꤢꤩ꤭": 5611,
      "ꤣꤧ꤭ꤒꤣ꤬ꤖꤢꤩ꤬": 5612,
      "ꤣꤧ꤭ꤒꤣ꤬ꤖꤥ꤬ꤔꤣꤧ꤬": 5613,
      "ꤣꤧ꤭ꤔꤣꤧ꤭ꤡꤣ꤬": 5614,
      "ꤣꤧ꤭ꤔꤣꤧ꤭ꤗꤢꤨ꤬": 5615,
      "ꤢꤨ꤭ꤔꤣꤧ꤬": 5616,
      "ꤢꤨ꤭ꤞꤤꤕꤜꤢꤪ꤬": 5617,
      "ꤢꤨ꤭ꤋꤥ꤭": 5618,
      "ꤢꤨ꤭ꤗꤢꤦ꤭": 5619,
      "ꤢꤨ꤭ꤕꤢꤪ꤬": 5620,
      "ꤒꤣꤧ꤬ꤢꤧ꤭": 5621,
      "ꤒꤣꤧ꤬ꤜꤢ꤭": 5622,
      "ꤒꤣꤧ꤬ꤗ꤫ꤢ꤬": 5623,
      "ꤒꤣꤧ꤬ꤍ꤫ꤥ꤬": 5624,
      "ꤒꤣꤧ꤬ꤊꤢ꤬": 5625,
      "ꤒꤣꤧ꤬ꤕ꤫ꤢꤦ꤬": 5626,
      "ꤒꤣꤧ꤬ꤊꤜꤥ꤭": 5627,
      "ꤒꤣꤧ꤬ꤓꤝꤢ": 5628,
      "ꤒꤣꤧ꤬ꤙꤢꤧ꤭": 5629,
      "ꤒꤣꤧ꤬ꤙꤛꤢ꤬": 5630,
      "ꤒꤣꤧ꤬ꤘꤢꤧ꤭": 5631,
      "ꤒꤣꤧ꤬ꤋꤚ꤫ꤢꤧ꤬": 5632,
      "ꤒꤣꤧ꤬ꤋꤚꤢꤦ꤬": 5633,
      "ꤒꤣꤧ꤬ꤙꤛ": 5634,
      "ꤒꤣꤧ꤬ꤢꤝꤤ꤭": 5635,
      "ꤘꤣꤣꤧ꤭": 5636,
      "ꤒꤢꤩ꤬ꤟꤢꤩ꤬": 5637,
      "ꤒꤢꤩ꤬ꤟꤣꤧ": 5638,
      "ꤒꤢꤩ꤬ꤚꤢꤧ꤬": 5639,
      "ꤒꤢꤩ꤬ꤗꤢꤧ": 5640,
      "ꤒꤢꤩ꤬ꤓꤢꤨ꤬ꤞꤢꤩ": 5641,
      "ꤒꤢꤩ꤬ꤜ꤫ꤢꤩ꤬ꤥ꤬": 5642,
      "ꤒꤢꤩ꤬ꤜꤣꤧ꤬ꤟꤥ꤭": 5643,
      "ꤒꤢꤩ꤬ꤊꤜꤢꤧ꤬": 5644,
      "ꤒꤢꤩ꤬ꤙꤢꤧꤜꤢꤧ꤬": 5645,
      "ꤒꤢꤩ꤬ꤛꤢꤧ꤬": 5646,
      "ꤒꤢꤩ꤬ꤘꤣꤧꤟꤢꤧ꤭ꤘꤣꤧꤚꤢꤩ꤬": 5647,
      "ꤒꤢꤩ꤬ꤖꤚꤢ꤬ꤓꤢꤧ꤬": 5648,
      "ꤒꤢꤩ꤬ꤕꤣꤒꤣꤧ꤬ꤚꤤ꤬": 5649,
      "ꤒꤢꤩ꤬ꤢ꤬ꤘꤢꤨ꤬ꤢ꤬ꤛꤢꤧ꤭": 5650,
      "ꤒꤢꤩ꤬ꤒꤣꤧ꤬ꤕꤜꤢꤪ꤬ꤜꤣꤧ꤬ꤛꤢꤪ꤬": 5651,
      "ꤒꤢꤩ꤬ꤋꤢꤧꤡꤢ꤭ꤋꤢꤧꤡꤢꤦ꤬": 5652,
      "ꤒꤢꤩ꤬ꤢ꤬ꤡ꤫ꤢꤪ꤬ꤢ꤬ꤛꤢꤧ꤭": 5653,
      "ꤒꤢꤩ꤬ꤖꤚꤢ꤬ꤚ꤫ꤢꤨ꤬ꤖꤚꤢ꤬ꤒꤢꤩ": 5654,
      "ꤒꤢꤩ꤬ꤙꤢꤧꤞꤝꤢꤙꤢꤧꤜꤢ꤬": 5655,
      "ꤒꤢꤩ꤬ꤋꤢꤧ꤭ꤙꤢꤩ": 5656,
      "ꤖꤚꤢꤪꤘꤤ": 5657,
      "ꤥ꤭ꤔ꤫ꤤ꤬": 5658,
      "ꤥ꤭ꤓꤣꤧ꤭": 5659,
      "ꤥ꤭ꤏꤢꤦ꤬": 5660,
      "ꤥ꤭ꤗꤢꤦ꤬": 5661,
      "ꤞꤤ꤭ꤗꤝꤤ꤭": 5662,
      "ꤞꤤ꤭ꤕꤣꤧꤞꤢꤩ꤬": 5663,
      "ꤞꤤ꤭ꤖꤢ": 5664,
      "ꤞꤤ꤭ꤊꤢꤨꤜꤢꤩ꤬ꤊꤥ꤬": 5665,
      "ꤟꤢꤩ꤬ꤞꤥ꤭": 5666,
      "ꤖꤚꤢꤩ꤬ꤥ": 5667,
      "ꤖꤚꤢꤩ꤬ꤒꤢꤩ꤬": 5668,
      "ꤖꤚꤢꤩ꤬ꤡꤢꤪ": 5669,
      "ꤖꤚꤢꤩ꤬ꤟꤢꤩꤏꤥ꤬": 5670,
      "ꤖꤚꤢꤩ꤬ꤏꤢꤩ꤭": 5671,
      "ꤖꤚꤢꤩ꤬ꤏꤝꤤ": 5672,
      "ꤖꤚꤢꤩ꤬ꤤ꤬ꤏꤢꤩ꤭ꤒꤢ꤭ꤊꤢꤧ꤭": 5673,
      "ꤖꤚꤢꤩ꤬ꤗꤢꤧꤡꤢꤧ꤬ꤚꤣꤧ": 5674,
      "ꤖꤚꤢꤩ꤬ꤙꤢꤧꤘꤤ꤭": 5675,
      "ꤖꤚꤢꤩ꤬ꤥ꤬ꤚꤢ꤬": 5676,
      "ꤒꤣꤧ꤬ꤟꤢꤩ꤬ꤡꤣꤧ": 5677,
      "ꤤ꤬ꤏ": 5678,
      "ꤤ꤬ꤢꤩ": 5679,
      "ꤤ꤬ꤋꤢꤨ꤬": 5680,
      "ꤤ꤬ꤜꤢꤨ꤬": 5681,
      "ꤤ꤬ꤞꤢ": 5682,
      "ꤤ꤬ꤏꤥ꤬": 5683,
      "ꤤ꤬ꤋꤚꤢꤩ": 5684,
      "ꤤ꤬ꤊꤤ꤭": 5685,
      "ꤤ꤬ꤕꤢꤧ꤬": 5686,
      "ꤒꤣ꤬ꤞꤤ꤭": 5687,
      "ꤒꤣ꤬ꤢꤪ꤬": 5688,
      "ꤒꤣ꤬ꤋꤢꤨ꤬": 5689,
      "ꤒꤣ꤬ꤙꤢꤦ꤬": 5690,
      "ꤒꤣ꤬ꤕꤚꤟꤢꤧ꤬": 5691,
      "ꤒꤣ꤬ꤗꤢꤩ": 5692,
      "ꤒꤣ꤬ꤊꤜꤢꤨ꤭": 5693,
      "ꤟꤢꤩꤙꤢꤧ꤬": 5694,
      "ꤟꤢꤩꤗꤢꤨꤗ꤫ꤢꤧ꤬": 5695,
      "ꤟꤢꤩꤊꤜꤢꤧ": 5696,
      "ꤟꤢꤩꤟꤢꤨꤣꤧ꤭": 5697,
      "ꤟꤢꤩꤣꤧ꤭ꤒꤣ꤬ꤖꤚꤢꤩ꤬ꤔꤣꤧ꤬": 5698,
      "ꤟꤢꤩꤊꤜꤢꤪ꤭": 5699,
      "ꤟꤢꤩꤕꤛꤢ": 5700,
      "ꤟꤢꤩꤥ꤬ꤊꤢꤧ꤭": 5701,
      "ꤟꤢꤩꤒꤣꤧ꤬ꤊꤢꤩ꤬": 5702,
      "ꤟꤢꤩꤒꤢ꤭ꤒꤢꤦ꤭": 5703,
      "ꤟꤢꤩꤒꤣꤧ꤬ꤗꤥ꤭ꤒꤣꤧ꤬ꤊꤢꤩ꤬": 5704,
      "ꤗꤢꤩ꤬ꤊꤢꤧ꤭": 5705,
      "ꤗꤢꤩ꤬ꤔꤢꤧ꤬": 5706,
      "ꤗꤢꤩ꤬ꤒꤢ꤭": 5707,
      "ꤗꤢꤩ꤬ꤜꤤ꤬": 5708,
      "ꤗꤢꤩ꤬ꤗꤢꤨꤗ꤫ꤢꤧ꤬": 5709,
      "ꤗꤢꤩ꤬ꤞꤢꤩ꤭": 5710,
      "ꤗꤢꤩ꤬ꤗꤣꤧ꤭": 5711,
      "ꤗꤢꤩ꤬ꤚꤢꤩ꤭": 5712,
      "ꤗꤢꤩ꤬ꤔꤢꤧ꤭": 5713,
      "ꤗꤢꤩ꤬ꤚ꤫ꤥ꤬": 5714,
      "ꤗꤢꤩ꤬ꤡꤢꤦ꤭": 5715,
      "ꤗꤢꤩ꤬ꤗꤥ꤬ꤚꤣꤧ": 5716,
      "ꤗꤢꤩ꤬ꤒꤣꤧ꤬ꤕꤜꤢꤩ꤬": 5717,
      "ꤗꤢꤩ꤬ꤏꤝꤤ": 5718,
      "ꤗꤢꤩ꤬ꤖꤢꤧꤒꤢꤦ": 5719,
      "ꤗꤢꤩ꤬ꤊ꤫ꤢꤨ꤬": 5720,
      "ꤗꤢꤩ꤬ꤘꤢꤨ꤬ꤓꤢꤧ꤬": 5721,
      "ꤗꤢꤩ꤬ꤜꤢꤨ꤭ꤓꤢꤧ꤬": 5722,
      "ꤗꤢꤩ꤬ꤥꤗꤢꤩ꤬": 5723,
      "ꤗꤢꤩ꤬ꤙꤛꤢ꤬": 5724,
      "ꤗꤢꤩ꤬ꤥ꤬ꤓꤢꤧ꤬": 5725,
      "ꤗꤢꤩ꤬ꤜꤣꤧ꤬ꤋꤢꤦ": 5726,
      "ꤗꤢꤩ꤬ꤙꤢꤪ꤭": 5727,
      "ꤗꤢꤩ꤬ꤕꤤ꤭": 5728,
      "ꤗꤢꤩ꤬ꤕꤢꤩ": 5729,
      "ꤗꤢꤩ꤬ꤛꤢꤪ": 5730,
      "ꤗꤢꤩ꤬ꤛꤢꤪ꤭": 5731,
      "ꤗꤢꤩ꤬ꤥ꤭ꤏꤢꤦ꤬": 5732,
      "ꤠꤢꤧ꤭ꤒꤢꤩ꤬": 5733,
      "ꤠꤢꤧ꤭ꤠꤢꤧ꤭": 5734,
      "ꤠꤢꤧ꤭ꤋꤢꤨ꤬": 5735,
      "ꤠꤢꤧ꤭ꤜ꤫ꤢꤩ꤬": 5736,
      "ꤠꤢꤧ꤭ꤖꤢ": 5737,
      "ꤠꤢꤧ꤭ꤊꤜꤢꤧ": 5738,
      "ꤠꤢꤧ꤭ꤡ꤫ꤢꤦ꤬": 5739,
      "ꤠꤢꤧ꤭ꤜꤢꤨ꤬ꤜꤢꤩ": 5740,
      "ꤗꤢ꤬ꤗ꤫ꤢ꤬": 5741,
      "ꤢ꤬ꤋꤢꤧ꤭": 5742,
      "ꤢ꤬ꤋꤛꤢ": 5743,
      "ꤊꤣꤧ꤬ꤚ꤫ꤥ꤬": 5744,
      "ꤊꤣꤧ꤬ꤛꤤ꤬": 5745,
      "ꤟꤢꤨꤣꤧ꤭ꤒꤣꤧ꤬ꤟꤢꤩ꤬": 5746,
      "ꤊ꤫ꤢꤦ꤬ꤒꤢꤩ꤬": 5747,
      "ꤊ꤫ꤢꤦ꤬ꤏꤢꤩ꤭": 5748,
      "ꤒꤥ꤬ꤟꤢꤧ꤭": 5749,
      "ꤙꤢꤩ꤬ꤥ꤭": 5750,
      "ꤙꤢꤩ꤬ꤗꤢꤦ꤭": 5751,
      "ꤙꤢꤩ꤬ꤔꤤꤊꤢꤩ꤬": 5752,
      "ꤛꤢꤩ꤬ꤞꤤ꤭ꤥ꤬": 5753,
      "ꤛꤢꤩ꤬ꤞꤤ꤭ꤜꤥ꤬": 5754,
      "ꤤ꤭ꤒꤣꤧ꤬ꤡꤢ": 5755,
      "ꤊꤣꤧ꤬ꤛꤢꤧ꤭ꤟꤢ꤭": 5756,
      "ꤊꤣꤧ꤬ꤛꤢꤧ꤭ꤕꤜꤤ꤬": 5757,
      "ꤊꤣꤧ꤬ꤛꤢꤧ꤭ꤟꤢꤩ꤭": 5758,
      "ꤜꤢꤨ꤭ꤕꤣꤧꤞꤢꤩ꤬": 5759,
      "ꤜꤢꤨ꤭ꤊꤢꤧ꤭ꤏꤢ": 5760,
      "ꤒꤣ꤬ꤖꤚꤢꤩ꤬ꤚꤣꤧ꤬": 5761,
      "ꤒꤣ꤬ꤖꤚꤢꤩ꤬ꤡꤣꤧ": 5762,
      "ꤒꤣ꤬ꤖꤚꤢꤩ꤬ꤔꤣꤧ꤬ꤗꤢ꤬": 5763,
      "ꤖꤢꤨꤜꤣꤧ꤬": 5764,
      "ꤖꤢꤨꤗꤢꤩ꤭": 5765,
      "ꤚꤢꤧ꤬ꤒꤢꤩ꤬": 5766,
      "ꤕꤢꤩ꤬ꤟꤤ꤬": 5767,
      "ꤕꤢꤩ꤬ꤕꤣꤧꤞꤢꤩ꤬": 5768,
      "ꤊꤢꤧ꤭ꤓꤢꤧ꤬": 5769,
      "ꤟꤢꤧ꤭ꤚꤣꤧ": 5770,
      "ꤟꤢꤧ꤭ꤒꤢ꤭": 5771,
      "ꤟꤢꤧ꤭ꤋꤛꤢ꤭": 5772,
      "ꤟꤢꤧ꤭ꤜ꤫ꤢꤩ꤬": 5773,
      "ꤟꤢꤧ꤭ꤙꤢꤩ": 5774,
      "ꤟꤢꤧ꤭ꤋꤛꤢ꤭ꤞꤢꤧ": 5775,
      "ꤟꤢꤧ꤭ꤏꤝꤢ꤬": 5776,
      "ꤟꤢꤧ꤭ꤗꤢꤧꤕꤢꤨ꤭": 5777,
      "ꤟꤢꤧ꤭ꤖꤢꤩ꤬": 5778,
      "ꤟꤢꤧ꤭ꤘꤢꤧꤍꤢꤦ꤬ꤜꤢꤧ꤬": 5779,
      "ꤟꤢꤧ꤭ꤓꤥ꤬": 5780,
      "ꤟꤢꤧ꤭ꤒꤥ꤬ꤙꤢꤩ꤬": 5781,
      "ꤔꤢꤧ꤬ꤔꤢꤧ꤬": 5782,
      "ꤔꤢꤧ꤬ꤜꤢ꤭": 5783,
      "ꤔꤢꤧ꤬ꤋꤢꤨ꤬": 5784,
      "ꤔꤢꤧ꤬ꤞꤝꤢ": 5785,
      "ꤔꤢꤧ꤬ꤕ꤫ꤥ꤬": 5786,
      "ꤔꤢꤧ꤬ꤋꤥ꤭": 5787,
      "ꤔꤢꤧ꤬ꤖꤢꤨꤖꤚꤢꤩ꤬ꤋꤢꤨ꤭": 5788,
      "ꤔꤢꤧ꤬ꤏꤢꤨ꤬": 5789,
      "ꤔꤢꤧ꤬ꤕꤣꤧꤞꤢꤩ꤬ꤕꤜꤢꤪ꤬": 5790,
      "ꤔꤢꤧ꤬ꤜꤢꤨ꤬ꤜꤢꤩ": 5791,
      "ꤔꤢꤧ꤬ꤖꤢꤨꤖꤚꤢꤩ꤬ꤗꤢꤪ꤬": 5792,
      "ꤔꤢꤧ꤬ꤙꤢꤩꤑꤢꤩ꤭": 5793,
      "ꤕꤢ꤭ꤚꤣꤧ꤬": 5794,
      "ꤜꤢꤪ꤭ꤟꤢꤩ꤬": 5795,
      "ꤜꤢꤪ꤭ꤊꤣꤧ꤭": 5796,
      "ꤜꤢꤪ꤭ꤋꤢꤩ꤭": 5797,
      "ꤜꤢꤪ꤭ꤙꤢꤩ": 5798,
      "ꤜꤢꤪ꤭ꤋꤛꤢ꤭ꤞꤢꤧ": 5799,
      "ꤜꤢꤪ꤭ꤏꤣꤧ": 5800,
      "ꤜꤢꤪ꤭ꤋꤚꤢꤧ": 5801,
      "ꤜꤢꤪ꤭ꤊꤢꤧ꤭ꤘꤢꤩ꤭": 5802,
      "ꤓꤢꤧ꤬ꤓꤝꤢ꤭": 5803,
      "ꤓꤢꤧ꤬ꤋꤛꤢ꤭": 5804,
      "ꤓꤢꤧ꤬ꤥ꤬ꤔꤢꤧ꤭": 5805,
      "ꤓꤢꤧ꤬ꤘꤢꤧꤔ꤫ꤤ꤬": 5806,
      "ꤓꤢꤧ꤬ꤏꤢꤒꤢꤩ꤬": 5807,
      "ꤜꤢ꤭ꤙꤢꤨ꤭ꤘꤢꤨ꤬": 5808,
      "ꤛꤢꤨꤜꤤ꤬ꤛꤢ꤬": 5809,
      "ꤑꤢꤩ꤭ꤔꤣꤧ꤬": 5810,
      "ꤡꤝꤢꤞꤣꤧ꤭": 5811,
      "ꤡꤝꤢꤥ꤬ꤔꤢꤧ꤭": 5812,
      "ꤡꤝꤢꤟꤢꤩꤙꤢꤩ꤬": 5813,
      "ꤡꤝꤢꤒꤣꤧ꤬ꤔꤢꤩ꤬": 5814,
      "ꤡꤝꤢꤤ꤬ꤞꤝꤢ": 5815,
      "ꤡꤝꤢꤔ꤫ꤤ꤬ꤟꤥ꤭": 5816,
      "ꤡꤝꤢꤕꤢꤩ꤭": 5817,
      "ꤡꤝꤢꤘꤣꤧꤟꤣꤧ꤭": 5818,
      "ꤡꤝꤢꤙꤣꤧꤒꤢꤩ꤭": 5819,
      "ꤡꤝꤢꤥ꤬ꤊꤥ": 5820,
      "ꤡꤝꤢꤖꤚꤢꤧ꤭": 5821,
      "ꤡꤝꤢꤜ꤫ꤢꤧ꤬": 5822,
      "ꤡꤝꤢꤏꤢꤨ꤬ꤔꤥ꤭": 5823,
      "ꤡꤝꤢꤚ꤫ꤥ꤬ꤊꤣꤧ꤭": 5824,
      "ꤡꤝꤢꤘꤢꤧ꤬ꤥ꤬": 5825,
      "ꤡꤝꤢꤕꤣꤧ꤬ꤏꤤ꤭": 5826,
      "ꤡꤝꤢꤏꤤ꤬ꤜꤥ": 5827,
      "ꤡꤝꤢꤕꤢꤩ꤭ꤊꤢꤧ꤭": 5828,
      "ꤊꤜꤛꤢ": 5829,
      "ꤋꤢꤨ꤭ꤢꤨ꤬": 5830,
      "ꤋꤢꤨ꤭ꤊꤢꤩ꤬": 5831,
      "ꤋꤢꤨ꤭ꤢ꤬ꤙꤚꤢ꤬ꤟꤢ꤬": 5832,
      "ꤋꤢꤨ꤭ꤚꤢꤨ": 5833,
      "ꤋꤢꤨ꤭ꤢ꤬ꤋꤢ꤬": 5834,
      "ꤋꤢꤨ꤭ꤒꤢ꤬ꤚ": 5835,
      "ꤋꤢꤨ꤭ꤜꤢꤨ꤬ꤎꤤ": 5836,
      "ꤡꤣꤧꤔꤢꤧ": 5837,
      "ꤡꤣꤧꤒꤢꤩ꤭": 5838,
      "ꤕ꤫ꤢꤩ꤬ꤜꤢ꤭ꤟꤤ": 5839,
      "ꤕ꤫ꤢꤩ꤬ꤊꤣꤧ꤭ꤘꤢꤦ꤬": 5840,
      "ꤕ꤫ꤢꤩ꤬ꤜꤢꤪ꤭ꤟꤣꤧ": 5841,
      "ꤓꤥ꤭ꤙꤢꤩ": 5842,
      "ꤓꤥ꤭ꤞꤢꤩ꤭": 5843,
      "ꤓꤥ꤭ꤕꤢ꤭ꤔꤣꤧ꤬": 5844,
      "ꤘꤢꤦ꤬ꤔꤤ": 5845,
      "ꤚꤣꤧꤜꤢꤨ꤭": 5846,
      "ꤚꤣꤧꤜꤢꤪ꤭": 5847,
      "ꤚꤣꤧꤡ꤫ꤢꤧ꤬": 5848,
      "ꤖꤢꤧꤣꤧ꤭": 5849,
      "ꤕꤜꤢꤩ꤬": 5850,
      "ꤊꤢꤨ꤭ꤔꤥ꤭": 5851,
      "ꤘꤣꤧꤜꤢꤪ꤭": 5852,
      "ꤘꤣꤧꤚꤣꤧ": 5853,
      "ꤘꤣꤧꤥ꤬ꤔꤢꤧ꤭": 5854,
      "ꤘꤣꤧꤗꤣꤧ꤭": 5855,
      "ꤘꤣꤧꤔꤥ꤬": 5856,
      "ꤘꤣꤧꤥ꤬ꤓꤝꤢ꤭ꤓꤢꤧ꤬": 5857,
      "꤫ꤤ꤬ꤊꤢꤨ꤭ꤔꤣꤧ꤬": 5858,
      "ꤢꤪ꤭ꤕꤣꤧ꤬ꤛ꤫ꤢꤩ꤬": 5859,
      "ꤞꤢꤧꤟꤢꤧ꤭": 5860,
      "ꤞꤢꤧꤕꤢ꤬": 5861,
      "ꤞꤢꤧꤜꤢꤪ꤬": 5862,
      "ꤛ꤫ꤢꤦ꤬ꤊꤢ꤬": 5863,
      "ꤔ꤫ꤤ꤬ꤜꤢꤪ꤭": 5864,
      "ꤔ꤫ꤤ꤬ꤡ꤫ꤢꤧ꤬": 5865,
      "ꤔ꤫ꤤ꤬ꤡꤢꤦ꤭": 5866,
      "ꤔ꤫ꤤ꤬ꤊꤜꤢꤨ꤭": 5867,
      "ꤗꤢꤧꤓꤢꤧ꤬": 5868,
      "ꤗꤢꤧꤡ꤫ꤢꤧ꤬": 5869,
      "ꤗꤢꤧꤠ꤫ꤢꤧ꤬": 5870,
      "ꤗꤢꤧꤒꤥ꤭ꤗꤢ": 5871,
      "ꤗꤢꤧꤒꤥ꤭ꤘꤢꤩ꤭": 5872,
      "ꤗꤢꤧꤒꤢ꤭ꤒꤢ꤭": 5873,
      "ꤗꤢꤧꤙꤛꤢ꤬ꤖꤢꤧ": 5874,
      "ꤋꤢꤧ꤭ꤑꤢ꤭": 5875,
      "ꤣꤧ꤭ꤔꤣꤧ꤬ꤒꤣ꤬ꤖꤥ꤬": 5876,
      "ꤗ꤫ꤢ꤬ꤊꤣꤧ꤭": 5877,
      "ꤗ꤫ꤢ꤬ꤜꤢ꤭ꤟꤤꤒꤥ꤬": 5878,
      "ꤢ꤬ꤚꤢꤧ꤭": 5879,
      "ꤞꤣꤧ꤭ꤕꤢ꤬": 5880,
      "ꤞꤣꤧ꤭ꤔ꤫ꤤ꤬ꤘꤢ꤭": 5881,
      "ꤞꤣꤧ꤭ꤒꤣꤧ꤬ꤜꤤ": 5882,
      "ꤊꤢꤩ꤬ꤙꤛꤢ꤬": 5883,
      "ꤊꤢꤩ꤬ꤙꤢꤪ꤭": 5884,
      "ꤜꤥ꤭ꤡꤝꤢꤒ꤫ꤥ꤬": 5885,
      "ꤜꤥ꤭ꤜꤤ꤭ꤖꤥ": 5886,
      "ꤡꤢꤩ꤬ꤔꤢꤪ": 5887,
      "ꤒꤢ꤭ꤒ꤫ꤣ꤬ꤊꤣꤧ꤭": 5888,
      "ꤒꤢ꤭ꤔꤥ꤬": 5889,
      "ꤒꤢ꤭ꤊ꤫ꤥ꤬": 5890,
      "ꤒꤢ꤭ꤙꤤꤊꤢꤧ꤭": 5891,
      "ꤒꤢ꤭ꤠꤢꤩ꤭": 5892,
      "ꤘꤢꤨ꤬ꤗꤝꤤ꤭": 5893,
      "ꤘꤢꤨ꤬ꤓꤢꤨ꤭ꤜꤣ": 5894,
      "ꤔꤤꤎꤢ꤬": 5895,
      "ꤔꤤꤔꤢ꤬": 5896,
      "ꤔꤤꤡꤢꤨ": 5897,
      "ꤒꤢꤩ꤬ꤞꤝꤤ꤬": 5898,
      "ꤚꤣꤧꤘꤢꤦ꤬ꤜꤢꤪ꤭": 5899,
      "ꤚꤣꤧꤘꤢꤦ꤬ꤔ꤫ꤢꤩ꤬": 5900,
      "ꤢ꤬ꤖꤢꤨꤕꤣꤧ꤬ꤒꤤ": 5901,
      "ꤒꤥ꤭ꤘꤢꤦ꤬": 5902,
      "ꤓꤝꤢ꤭ꤔ꤫ꤤ꤬": 5903,
      "ꤓꤝꤢ꤭ꤕꤢ꤬": 5904,
      "ꤓꤝꤢ꤭ꤊꤢ꤬": 5905,
      "ꤓꤝꤢ꤭ꤔꤢꤪ": 5906,
      "ꤓꤝꤢ꤭ꤜꤢꤪ꤭ꤟꤣꤧ": 5907,
      "ꤞꤤꤑꤢꤩ꤭ꤜꤢꤪ꤭": 5908,
      "ꤞꤤꤑꤢꤩ꤭ꤜꤢꤧ꤬": 5909,
      "ꤞꤤꤑꤢꤩ꤭ꤒꤢ꤭ꤒꤢꤩ꤬": 5910,
      "ꤞꤤꤑꤢꤩ꤭ꤔꤥ꤬": 5911,
      "ꤒꤣꤧ꤬ꤚꤢ꤭": 5912,
      "ꤢ꤬ꤜꤢꤩ": 5913,
      "ꤞꤤꤕꤜꤢꤪ꤬ꤔꤣꤧ꤬": 5914,
      "ꤞꤤꤕꤜꤢꤪ꤬ꤒꤢꤩ꤬": 5915,
      "ꤠꤤ꤭ꤢ": 5916,
      "ꤠꤤ꤭ꤞꤢꤩ꤭": 5917,
      "ꤠꤤ꤭ꤕꤢꤩ꤬ꤚꤢ꤬": 5918,
      "ꤠꤤ꤭ꤜꤢꤪꤘꤤ꤬ꤊꤤ꤬": 5919,
      "ꤘꤢꤧ꤬ꤏꤣꤧ": 5920,
      "ꤘꤢꤧ꤬ꤖꤥ": 5921,
      "ꤘꤢꤧ꤬ꤒꤣꤧ꤬ꤖꤢ꤭ꤊꤢꤧ꤭": 5922,
      "ꤘꤢꤧ꤬ꤥ꤬ꤊꤥꤊꤢꤧ꤭": 5923,
      "ꤘꤢꤧ꤬ꤥ꤬ꤋꤚꤢꤧꤊꤢꤧ꤭": 5924,
      "ꤘꤢꤧ꤬ꤜꤝꤢꤊꤢꤧ꤭": 5925,
      "ꤕꤢ꤬ꤔꤣꤧ꤬": 5926,
      "ꤕꤢ꤬ꤕꤢ꤬": 5927,
      "ꤕꤢ꤬ꤊꤢꤨ": 5928,
      "ꤜꤢꤧ꤬ꤊ꤫ꤢꤩ꤬": 5929,
      "ꤍ꤫ꤥ꤬ꤚꤢꤧ꤬": 5930,
      "ꤛꤢꤖꤢꤨ": 5931,
      "ꤛꤢꤕꤤꤜꤢ": 5932,
      "ꤔꤢꤪ꤭ꤓꤢꤩ꤬": 5933,
      "ꤔꤢꤪ꤭ꤊꤢ꤬ꤋꤛꤢ꤭": 5934,
      "ꤔꤢꤪ꤭ꤚꤢ꤭": 5935,
      "ꤔꤢꤪ꤭ꤗꤢꤦ꤭": 5936,
      "ꤔꤢꤪ꤭ꤟꤢꤩꤏꤥ꤬ꤘꤥ꤬ꤔꤢꤧ꤭": 5937,
      "ꤔꤢꤪ꤭ꤒꤣꤧ꤬ꤚꤤ꤬ꤒꤣꤧ꤬ꤚꤢꤧ꤭": 5938,
      "ꤔꤢꤪ꤭ꤞꤤꤑꤢꤩ꤭ꤕꤜꤥ꤭": 5939,
      "ꤔꤢꤪ꤭ꤥ꤬ꤊꤥ": 5940,
      "ꤔꤢꤪ꤭ꤢꤩꤟꤢꤧ꤭": 5941,
      "ꤔꤢꤪ꤭ꤊꤣꤧ꤬ꤓꤢꤪ꤬ꤥ꤬": 5942,
      "ꤔꤢꤪ꤭ꤘꤢꤦꤒꤣꤧ꤬ꤜꤤ": 5943,
      "ꤔꤢꤪ꤭ꤟꤢꤩꤜꤥ꤭": 5944,
      "ꤔꤢꤪ꤭ꤜꤢꤪ꤬": 5945,
      "ꤔꤢꤪ꤭ꤞꤢꤪ꤭": 5946,
      "ꤔꤢꤪ꤭ꤚꤢꤪ꤬ꤚꤣꤧ": 5947,
      "ꤔꤢꤪ꤭ꤞꤢꤨ꤭ꤟꤢꤧ꤭": 5948,
      "ꤔꤢꤪ꤭ꤕꤜꤝꤢ꤭ꤓꤢꤩ꤬": 5949,
      "ꤔꤢꤪ꤭ꤙꤢꤧꤒꤢ꤭": 5950,
      "ꤔꤢꤪ꤭ꤤ꤬ꤒꤢ꤭": 5951,
      "ꤔꤢꤪ꤭ꤞꤢꤨ꤭ꤊꤢ꤬ꤋꤛꤢ꤭": 5952,
      "ꤔꤢꤪ꤭ꤡꤢꤦ꤬ꤒꤢ꤭": 5953,
      "ꤊꤢꤨꤖꤢꤩ꤬": 5954,
      "ꤜꤣꤧ꤬ꤛ꤫ꤢꤦ꤬": 5955,
      "ꤜꤣꤧ꤬ꤘꤢ꤭": 5956,
      "ꤜꤣꤧ꤬ꤒꤢꤦ꤭": 5957,
      "ꤜꤣꤧ꤬ꤊ꤫ꤥ꤬": 5958,
      "ꤜꤣꤧ꤬ꤖꤚꤢꤪ꤬": 5959,
      "ꤜꤣꤧ꤬ꤠꤤ꤬ꤜꤣꤧ꤬ꤠꤢꤪ꤭": 5960,
      "ꤋꤛꤢ꤭ꤖꤢꤧ": 5961,
      "ꤋꤛꤢ꤭ꤒꤣꤧ꤬ꤘꤢꤦ꤬ꤜꤣ": 5962,
      "ꤡ꤫ꤢꤧ꤬ꤟꤤ꤬": 5963,
      "ꤡ꤫ꤢꤧ꤬ꤕꤢ꤬ꤒꤥ꤬": 5964,
      "ꤖꤢꤩ꤭ꤥ꤬": 5965,
      "ꤖꤢꤩ꤭ꤢ꤬ꤚꤥ꤬": 5966,
      "ꤖꤢꤩ꤭ꤢ꤬ꤔꤢ꤬": 5967,
      "ꤔꤣꤧ꤭ꤗꤢꤩ꤭": 5968,
      "ꤔꤣꤧ꤭ꤙꤢ꤬": 5969,
      "ꤔꤣꤧ꤭ꤗꤢꤦ꤭": 5970,
      "ꤔꤣꤧ꤭ꤞꤥ꤭ꤞꤝꤢ": 5971,
      "ꤔꤣꤧ꤭ꤗꤢꤩ": 5972,
      "ꤔꤣꤧ꤭ꤒ꤫ꤥ꤬ꤒꤣ꤬ꤒ꤫ꤥ꤬": 5973,
      "ꤗꤢꤧꤓ꤫ꤣꤧ꤬ꤜꤥ꤭": 5974,
      "ꤗꤢꤧꤓ꤫ꤣꤧ꤬ꤞꤤꤑꤢꤩ꤭": 5975,
      "ꤗꤢꤧꤓ꤫ꤣꤧ꤬ꤡꤝꤢꤏꤢꤔꤢꤩꤜꤥ꤭": 5976,
      "ꤊꤢ꤬ꤓꤢꤪ꤬": 5977,
      "ꤊꤢ꤬ꤗꤢꤩ꤬ꤓꤥ꤭": 5978,
      "ꤜꤣꤟꤣꤧ": 5979,
      "ꤜꤣꤡꤣꤧ": 5980,
      "ꤜꤣꤟꤢꤩꤊꤜꤢꤪ꤭": 5981,
      "ꤛ꤫ꤢꤦ꤬ꤢꤩ꤬ꤚꤣꤧꤘꤢꤦ꤬": 5982,
      "ꤛ꤫ꤢꤦ꤬ꤢꤩ꤬ꤞꤢꤦ": 5983,
      "ꤒ꤫ꤥ꤬ꤊꤢꤨꤔ꤫ꤢꤧ꤬ꤣꤧ꤭": 5984,
      "ꤜ꤫ꤢꤩ꤬ꤋꤢꤨ꤬": 5985,
      "ꤜ꤫ꤢꤩ꤬ꤠꤤ꤭": 5986,
      "ꤜ꤫ꤢꤩ꤬ꤊꤝꤤ꤭": 5987,
      "ꤜ꤫ꤢꤩ꤬ꤗꤢꤩ꤬ꤞꤣꤧ꤭": 5988,
      "ꤜ꤫ꤢꤩ꤬ꤘꤢꤩ꤭": 5989,
      "ꤜ꤫ꤢꤩ꤬ꤖꤚꤢꤧ꤭": 5990,
      "ꤜ꤫ꤢꤩ꤬ꤔꤢꤪ꤭ꤢꤩ꤬": 5991,
      "ꤜ꤫ꤢꤩ꤬ꤓꤢꤨ꤬ꤜꤢꤧ꤬": 5992,
      "ꤜ꤫ꤢꤩ꤬ꤘꤢꤪꤒꤢ꤭": 5993,
      "ꤜ꤫ꤢꤩ꤬ꤞꤤꤜꤢꤩ꤬": 5994,
      "ꤜ꤫ꤢꤩ꤬ꤔ꤫ꤤ꤬ꤙꤝꤤ": 5995,
      "ꤊ꤫ꤢꤩ꤬ꤛꤢ꤬": 5996,
      "ꤊ꤫ꤢꤩ꤬ꤢ꤬ꤚꤥ꤬": 5997,
      "ꤊ꤫ꤢꤩ꤬ꤚ꤫ꤢ꤬": 5998,
      "ꤊ꤫ꤢꤩ꤬ꤞꤤꤔꤥ꤭": 5999,
      "ꤓꤣꤧ꤭ꤜꤤ꤬ꤘꤢꤨ꤬": 6000,
      "ꤣꤧ꤭ꤒꤣ꤬ꤖꤚꤢꤩ꤬ꤗꤢ꤬": 6001,
      "ꤕ꤫ꤥ꤬ꤕ꤫ꤥ꤬": 6002,
      "ꤕ꤫ꤥ꤬ꤡꤝ꤫ꤢ꤬": 6003,
      "ꤢ꤬ꤊꤢꤨ꤭ꤣꤧ꤭ꤔꤣꤧ꤬": 6004,
      "ꤞꤤꤛ꤫ꤢꤦ꤬ꤔꤢꤪ꤭ꤗꤢꤩ꤬": 6005,
      "ꤥ꤬ꤔꤢꤧ꤭ꤖꤢꤦ꤬": 6006,
      "ꤕꤝꤢ꤭ꤒꤣ꤬ꤗꤢꤩ꤭": 6007,
      "ꤕꤝꤢ꤭ꤒꤣ꤬ꤘꤢꤪ꤭": 6008,
      "ꤕꤝꤢ꤭ꤒꤣꤧ꤬ꤍ꤫ꤥ꤬": 6009,
      "ꤟꤢꤩꤏꤥ꤬ꤊꤢꤧ꤭": 6010,
      "ꤕꤜꤤ꤭ꤔꤣꤧ꤬": 6011,
      "ꤓꤥ꤭ꤟꤣꤧꤟꤣꤧ": 6012,
      "ꤗꤢꤪꤍ꤫ꤥ꤬": 6013,
      "ꤔꤥ꤭ꤗꤢꤩ꤬": 6014,
      "ꤔꤥ꤭ꤔꤥ꤭": 6015,
      "ꤔꤥ꤭ꤙꤢꤩ": 6016,
      "ꤟꤢꤩꤙꤢꤩ꤬ꤊꤣꤧ꤭": 6017,
      "ꤟꤢꤩꤙꤢꤩ꤬ꤏꤢꤪ꤭": 6018,
      "ꤟꤢꤩꤙꤢꤩ꤬ꤏꤢꤦ꤬": 6019,
      "ꤟꤢꤩꤙꤢꤩ꤬ꤏꤝꤢ꤬": 6020,
      "ꤟꤢꤩꤙꤢꤩ꤬ꤔꤢꤪ": 6021,
      "ꤟꤢꤩꤙꤢꤩ꤬ꤟꤥ꤬": 6022,
      "ꤏꤢꤒꤣꤧ꤬ꤕ꤫ꤢꤪ꤬": 6023,
      "ꤡꤢ꤭ꤡꤢꤦ꤬": 6024,
      "ꤛꤥ꤬ꤕꤢ꤬ꤊꤢꤨ": 6025,
      "ꤊꤢꤨ꤬ꤊꤜꤢꤪꤥ꤬": 6026,
      "ꤊꤢꤨ꤬ꤊꤜꤢꤪꤣꤧ꤭": 6027,
      "ꤊꤢꤨ꤬ꤊꤜꤢꤪꤋꤢꤨ꤬": 6028,
      "ꤊꤢꤨ꤬ꤊꤜꤢꤪꤓꤢꤩ": 6029,
      "ꤒꤢꤩ꤬ꤗꤢꤩ꤬ꤗꤢꤧ": 6030,
      "ꤒꤢꤩ꤬ꤗꤢꤩ꤬ꤒꤣꤧ꤬ꤊꤜꤤ": 6031,
      "ꤖꤛꤢꤞꤢꤦ": 6032,
      "ꤖꤛꤢꤒꤣꤧ꤬ꤖꤢ꤭ꤊꤢꤧ꤭": 6033,
      "ꤖꤛꤢꤡꤝꤢꤊꤢꤧ꤭": 6034,
      "ꤖꤛꤢꤊꤢ꤬ꤔ꤫ꤤ꤬": 6035,
      "ꤙꤢꤩ꤭ꤢꤩ꤬": 6036,
      "ꤙꤢꤩ꤭ꤣꤧ꤭": 6037,
      "ꤋꤢꤧꤞꤣꤧ꤭ꤊꤢꤧ꤭": 6038,
      "ꤋꤢꤧꤚ꤫ꤥ꤬ꤊꤣꤧ꤭": 6039,
      "ꤗ꤫ꤢꤧ꤬ꤖꤚꤢꤩ꤬ꤗꤢꤪ꤬": 6040,
      "ꤗ꤫ꤥ꤬ꤟꤢ꤬": 6041,
      "ꤗ꤫ꤥ꤬ꤎꤢ꤬ꤖꤤꤚꤢ": 6042,
      "ꤚꤢꤧꤋꤢꤨ꤬": 6043,
      "ꤚꤢꤧꤙꤢ꤭": 6044,
      "ꤗꤢꤪ꤬ꤜꤢꤩ": 6045,
      "ꤗꤢꤪ꤬ꤘꤢꤪ꤬": 6046,
      "ꤗꤢꤪ꤬ꤒꤢ꤬ꤙ": 6047,
      "ꤗꤢꤪ꤬ꤚꤢꤪ꤭": 6048,
      "ꤗꤢꤪ꤬ꤙꤢꤩ꤬ꤔꤤꤊꤢꤩ꤬": 6049,
      "ꤟꤤ꤬ꤜꤢꤩ꤭": 6050,
      "ꤟꤤ꤬ꤖꤢꤧ꤭": 6051,
      "ꤟꤤ꤬ꤒ꤫ꤣꤧ꤬": 6052,
      "ꤏꤢꤪ꤭ꤜꤣ": 6053,
      "ꤏꤢꤪ꤭ꤔꤢꤧ꤬ꤡꤣꤧ": 6054,
      "ꤓꤝꤢ꤭ꤓꤢꤧ꤬ꤡ꤫ꤢꤧ꤬": 6055,
      "ꤒꤣꤧ꤬ꤔꤢꤩ꤬ꤚꤣꤧ": 6056,
      "ꤒꤣꤧ꤬ꤔꤢꤩ꤬ꤔ꤫ꤤ꤬": 6057,
      "ꤒꤣꤧ꤬ꤔꤢꤩ꤬ꤒ꤫ꤢꤧ꤬": 6058,
      "ꤒꤣꤧ꤬ꤔꤢꤩ꤬ꤖꤢꤩ": 6059,
      "ꤜꤤ꤬ꤊꤢꤨ꤭": 6060,
      "ꤜꤤ꤬ꤣꤧ꤭ꤔꤣꤧ꤬": 6061,
      "ꤜꤤ꤬ꤛꤥ꤬": 6062,
      "ꤜꤤ꤬ꤥ꤬ꤊꤢꤧ꤭": 6063,
      "ꤜꤤ꤬ꤙꤥ꤭": 6064,
      "ꤜꤤ꤬ꤞꤥ꤭ꤜꤢꤩ꤭": 6065,
      "ꤗꤝꤤ꤭ꤞꤢꤩ꤭": 6066,
      "ꤟꤢꤩ꤬ꤋꤢꤨ꤬ꤒꤥ꤬": 6067,
      "ꤟꤢꤩ꤬ꤋꤢꤨ꤬ꤞꤢꤩ꤭": 6068,
      "ꤊꤝꤤ꤭ꤥ꤭": 6069,
      "ꤊꤝꤤ꤭ꤊꤣꤧ꤭": 6070,
      "ꤜꤥ꤬ꤡꤝꤢ": 6071,
      "ꤜꤥ꤬ꤊꤣꤧ꤬ꤘꤢ꤭ꤓꤢꤦ꤭": 6072,
      "ꤒ꤫ꤣ꤬ꤒꤢꤩ꤬": 6073,
      "ꤒ꤫ꤣ꤬ꤊꤢꤧ꤭": 6074,
      "ꤒ꤫ꤣ꤬ꤔꤢꤪ": 6075,
      "ꤒ꤫ꤣ꤬ꤕ꤫ꤢꤩ꤬ꤊꤣꤧ꤭": 6076,
      "ꤏꤢꤦ꤬ꤕ꤫ꤢꤩ꤬": 6077,
      "ꤏꤢꤦ꤬ꤋꤛꤢ꤭": 6078,
      "ꤏꤢꤦ꤬ꤙꤢꤩ": 6079,
      "ꤏꤢꤦ꤬ꤚꤢꤧ": 6080,
      "ꤤ꤬ꤞꤝꤢꤟꤣꤧ": 6081,
      "ꤤ꤬ꤞꤝꤢꤙꤢꤩ꤬": 6082,
      "ꤤ꤬ꤞꤝꤢꤕ꤫ꤢꤩ꤬": 6083,
      "ꤢ꤬ꤚꤤ꤬ꤛꤥ꤬ꤕꤢ꤬ꤊꤢꤨ": 6084,
      "ꤞꤢꤪ꤬ꤞꤝꤤ": 6085,
      "ꤞꤢꤪ꤬ꤊꤜꤛꤢꤩ꤭": 6086,
      "ꤞꤢꤪ꤬ꤤ꤬ꤕꤢꤧ꤬": 6087,
      "ꤋꤛꤢ꤭ꤞꤢꤧꤗꤣꤧ꤭": 6088,
      "ꤒꤣ꤬ꤖꤥꤒꤣ꤬": 6089,
      "ꤒꤣ꤬ꤖꤥꤢ꤬ꤋꤢꤩ꤭ꤔꤣꤧ꤬": 6090,
      "ꤜꤢꤨ꤬ꤡꤝꤢ": 6091,
      "ꤢ꤬ꤍ꤫ꤥ꤬ꤔꤣꤧ꤬": 6092,
      "ꤢ꤬ꤍ꤫ꤥ꤬ꤢ꤬ꤟꤢꤩ꤬": 6093,
      "ꤋꤚꤝꤢ꤭ꤔꤥ꤭": 6094,
      "ꤖꤚꤢꤩ꤬ꤗꤢꤪ꤬ꤣꤧ꤭": 6095,
      "ꤖꤚꤢꤩ꤬ꤗꤢꤪ꤬ꤖꤢꤨꤞꤢꤩ꤬": 6096,
      "ꤗꤢꤪꤋꤢꤨ꤬ꤣꤧ꤭": 6097,
      "ꤗꤢꤪꤋꤢꤨ꤬ꤟꤢꤩ꤬ꤋꤢꤨ꤬": 6098,
      "ꤊꤢꤨꤔ꤫ꤢꤧ꤬ꤣꤧ꤭ꤒꤣ꤬ꤓꤢꤦ꤭": 6099,
      "ꤗꤤ꤬ꤊꤜꤝꤢ": 6100,
      "ꤗꤤ꤬ꤏꤥ꤬ꤊꤜꤢꤩ꤭": 6101,
      "ꤗꤤ꤬ꤊꤢꤩꤜꤢ꤬": 6102,
      "ꤋꤥ꤭ꤖꤢꤨꤡ꤫ꤢꤩ꤬ꤔꤣꤧ꤬": 6103,
      "꤮,’": 6104,
      "ꤋꤝꤤꤗ꤫ꤥ꤬": 6105,
      "ꤞꤥ꤭ꤘꤢꤨ꤬": 6106,
      "ꤞꤥ꤭ꤙꤢꤧ": 6107,
      "ꤔ꤫ꤤ꤬ꤟꤥ꤭ꤕꤜꤥ꤭": 6108,
      "ꤊꤣꤧ꤬ꤓꤢꤪ꤬ꤒꤣꤧ꤬ꤔꤢꤧ꤭": 6109,
      "ꤋꤚꤢꤦ꤭ꤢꤩ꤬ꤋꤚꤢꤦ꤭": 6110,
      "ꤢ꤬ꤙꤢ꤬": 6111,
      "ꤢ꤬ꤙꤢ꤬ꤏꤣꤧ": 6112,
      "ꤥ꤬ꤞꤣꤧ꤭ꤖꤚꤢꤩ꤬ꤕꤢ꤬": 6113,
      "ꤒꤢꤩ꤬ꤞꤤꤋꤢꤞꤤꤓꤢꤩ꤬": 6114,
      "ꤣꤧ꤭ꤒꤣ꤬ꤊꤥ꤬": 6115,
      "ꤣꤧ꤭ꤒꤣ꤬ꤗꤢ꤭": 6116,
      "ꤣꤧ꤭ꤒꤣ꤬ꤕꤢꤧ꤭": 6117,
      "ꤓꤢꤩ꤬ꤡꤝꤢꤟꤣꤧ": 6118,
      "ꤜꤢꤩ꤭ꤡꤝꤢ": 6119,
      "ꤘꤢꤧꤗꤢ": 6120,
      "ꤘꤢꤧꤒꤣꤧ꤬ꤊꤜ": 6121,
      "ꤕꤢꤩ꤭ꤔꤣꤧ꤬": 6122,
      "ꤘꤣꤧꤟꤣꤧ꤭ꤋꤥ꤬": 6123,
      "ꤜꤤ꤭ꤙꤢꤨ꤭": 6124,
      "ꤋꤥꤡ꤫ꤢꤧ꤬": 6125,
      "ꤚꤢ꤭ꤓꤢꤧ꤬": 6126,
      "ꤚꤢ꤭ꤒꤢ꤭": 6127,
      "ꤚꤢ꤭ꤔꤥ꤭": 6128,
      "ꤟꤢꤨꤒꤢꤩ꤭ꤟꤢꤨꤒꤢꤩ꤭": 6129,
      "ꤊꤜꤢꤧꤊꤢꤨ꤭": 6130,
      "ꤊꤜꤢꤧꤘꤢꤨ꤬ꤊꤢꤨ꤭": 6131,
      "ꤘꤣꤧꤡꤢ꤭ꤚꤣꤧ": 6132,
      "ꤜꤢꤪ꤭ꤕꤜꤤ꤭ꤟꤣꤧ": 6133,
      "ꤢ꤬ꤒꤢꤩ꤬ꤟꤣꤧ": 6134,
      "ꤢ꤬ꤒꤢꤩ꤬ꤟꤢꤧ꤭": 6135,
      "ꤢ꤬ꤒꤢꤩ꤬ꤘꤢꤧ꤬": 6136,
      "ꤢ꤬ꤒꤢꤩ꤬ꤘꤢꤧ": 6137,
      "ꤞꤢꤦꤟꤣꤧ": 6138,
      "ꤔ꤫ꤤ꤬ꤘꤢ꤭ꤞꤣꤧ꤭ꤔ꤫ꤤ꤬ꤘꤢ꤭": 6139,
      "ꤓꤢꤩ꤭ꤣꤧ꤭": 6140,
      "ꤙꤢ꤭ꤜꤢꤪ꤭": 6141,
      "ꤜꤣꤧ꤬ꤕꤜꤢꤩꤓꤢꤩ꤬ꤊꤢꤧ꤭": 6142,
      "ꤡꤝ꤫ꤢ꤬ꤊꤣꤧ꤭": 6143,
      "ꤋꤢꤨ꤭ꤕꤢꤨ": 6144,
      "ꤔꤤꤔꤢꤧ꤬ꤗꤢ꤬": 6145,
      "ꤋꤢꤨ꤭ꤕꤢꤪꤜꤢꤨꤣꤧ꤭": 6146,
      "ꤜꤢ꤭ꤟꤤꤢꤨ꤭": 6147,
      "ꤚꤢ꤬ꤎꤢ꤬ꤒꤢꤨ": 6148,
      "ꤊꤜꤣꤧ꤭ꤥ꤬ꤕ꤫ꤢꤪ꤬": 6149,
      "ꤗꤢꤦ꤭ꤏꤢꤦ꤬": 6150,
      "ꤜ꤫ꤥ꤬ꤢꤩ꤬": 6151,
      "ꤔꤣꤧ꤬ꤒꤣ꤬ꤊꤥ꤬": 6152,
      "ꤔꤣꤧ꤬ꤒꤣ꤬ꤊꤜꤢꤦ": 6153,
      "ꤘꤣꤧꤜꤥ꤭ꤊꤢꤧ꤭": 6154,
      "ꤘꤣꤧꤜꤥ꤭ꤗꤢꤧ": 6155,
      "ꤊ꤫ꤢꤦ꤬ꤚꤢꤩ꤭ꤕꤛꤢ": 6156,
      "ꤓꤢꤨ꤭ꤘꤢꤦ꤬": 6157,
      "ꤕꤜꤝꤢ꤭ꤓꤢꤩ꤬ꤡꤝꤢꤊꤢꤧ꤭": 6158,
      "ꤊꤜ꤫ꤢꤪ꤬ꤒꤢꤩ꤭": 6159,
      "ꤤ꤬ꤏꤢꤩ꤭ꤔ꤫ꤤ꤬": 6160,
      "ꤎꤢ꤬ꤊ꤫ꤢꤩ꤬": 6161,
      "ꤎꤢ꤬ꤘꤤ": 6162,
      "ꤏꤢꤩ꤬ꤒ꤫ꤢꤪ꤬": 6163,
      "ꤢ꤬ꤜ꤫ꤢꤩ꤬ꤟꤢꤩ": 6164,
      "ꤢ꤬ꤜ꤫ꤢꤩ꤬ꤗꤣꤧ꤭": 6165,
      "ꤢ꤬ꤜ꤫ꤢꤩ꤬ꤞꤢꤦ꤬": 6166,
      "ꤕ꤫ꤢꤦ꤬ꤢꤩ꤬": 6167,
      "ꤕ꤫ꤢꤦ꤬ꤡꤝꤢ": 6168,
      "ꤕ꤫ꤢꤦ꤬ꤊꤜꤢꤪ꤬": 6169,
      "ꤕ꤫ꤢꤦ꤬ꤡꤝꤢꤊꤢꤧ꤭": 6170,
      "ꤘꤤ꤭ꤋꤛꤢ꤭": 6171,
      "ꤘꤤ꤭ꤗ꤫ꤢꤪ꤬ꤟꤢꤩ": 6172,
      "ꤘꤤ꤭ꤕꤢꤪ꤬ꤟꤢꤩ꤬": 6173,
      "ꤘꤤ꤭ꤓꤥ": 6174,
      "ꤒꤣꤧ꤬ꤡꤥ꤬": 6175,
      "ꤒꤣꤧ꤬ꤡꤤ꤭ꤒꤣꤧ꤬ꤡꤢ": 6176,
      "ꤒꤣꤧ꤬ꤘꤢꤦ꤬ꤔꤣꤧ꤬": 6177,
      "ꤒꤣꤧ꤬ꤘꤢꤦ꤬ꤕ꤫ꤥ꤬": 6178,
      "ꤗꤢꤩ꤬ꤞꤣꤧ꤭ꤗꤢꤩ꤬ꤗ꤫ꤢꤩ꤬": 6179,
      "ꤔꤢꤧ꤭ꤘꤢꤦ꤬": 6180,
      "ꤟꤢꤩꤏꤥ꤬ꤘꤥ꤬ꤔꤢꤧ꤭ꤜꤥ꤭": 6181,
      "ꤟꤢꤩꤏꤥ꤬ꤘꤥ꤬ꤔꤢꤧ꤭ꤕꤜꤥ꤭": 6182,
      "ꤚ꤫ꤥ꤬ꤢꤩꤜꤥ꤬": 6183,
      "ꤚ꤫ꤥ꤬ꤋꤛꤢ꤭ꤜꤢꤨ꤭": 6184,
      "ꤟꤢꤩꤏꤥ꤬ꤜꤥ꤭ꤔ꤫ꤤ꤬": 6185,
      "ꤒꤣ꤬ꤖꤥ꤬ꤒꤥ꤬": 6186,
      "ꤒꤣ꤬ꤖꤥ꤬ꤖꤥ꤬": 6187,
      "ꤜ꤫ꤢꤪ꤬ꤔꤣꤧ꤬": 6188,
      "ꤜ꤫ꤢꤪ꤬ꤣꤧ꤭": 6189,
      "ꤜ꤫ꤢꤪ꤬ꤣꤧ꤭ꤒꤣꤧ꤬ꤟꤢꤩ꤬": 6190,
      "ꤗꤢꤧꤕꤢꤨ꤭ꤗꤢꤧꤠ꤫ꤢꤧ꤬": 6191,
      "ꤕ꤫ꤥ꤬ꤠ꤫ꤢꤧ꤬ꤗ꤫ꤥ꤬ꤖꤢꤩ꤭": 6192,
      "ꤗꤢꤩ꤬ꤡꤝ꤫ꤢ꤬ꤟꤣꤧ": 6193,
      "ꤗꤢꤩ꤬ꤡꤝ꤫ꤢ꤬ꤊꤢꤩ꤬": 6194,
      "ꤗꤢꤩ꤬ꤡꤝ꤫ꤢ꤬ꤜꤣꤧ꤭": 6195,
      "ꤒꤣꤧ꤬ꤜꤝꤢ꤭": 6196,
      "ꤎꤢꤧꤔꤢ꤬": 6197,
      "ꤜ꤫ꤢꤩ꤬ꤥ꤬ꤣꤧ꤭": 6198,
      "ꤢ꤬ꤊꤜꤢꤩ꤭ꤟꤣꤧ": 6199,
      "ꤒꤢꤩ꤬ꤛ꤫ꤢꤦ꤬ꤏꤢꤪ꤭": 6200,
      "ꤒꤢꤩ꤬ꤛ꤫ꤢꤦ꤬ꤕꤣꤧ꤬ꤒꤤ": 6201,
      "ꤗ꤫ꤢꤪ꤬ꤔꤣꤧ꤭ꤘꤢꤨ꤬": 6202,
      "ꤚ꤫ꤣꤧ꤬ꤊꤢꤧ꤭": 6203,
      "ꤚ꤫ꤣꤧ꤬ꤜꤢꤪ꤭": 6204,
      "ꤗꤝꤤ꤭ꤜꤢ꤬ꤘꤢꤨ꤬": 6205,
      "ꤡꤛꤥ꤬ꤔꤢ": 6206,
      "ꤒꤣꤧ꤬ꤚꤤ꤬ꤓꤢꤧ꤬ꤚꤣꤧ": 6207,
      "ꤒꤣꤧ꤬ꤚꤤ꤬ꤞꤝꤢꤩ": 6208,
      "ꤤ꤬ꤞꤝꤢꤤ꤬ꤞꤢꤧ꤬ꤚꤣꤧ": 6209,
      "ꤞꤢꤨ꤭ꤕ꤫ꤢꤩ꤬": 6210,
      "ꤞꤢꤨ꤭ꤊꤢ꤬": 6211,
      "ꤞꤢꤨ꤭ꤡꤝꤢꤒ꤫ꤥ꤬": 6212,
      "ꤕꤣꤟꤣꤧ": 6213,
      "ꤕꤣꤡ꤫ꤢꤧ꤬": 6214,
      "ꤙꤤꤒꤣꤧ꤬ꤕꤢ꤬": 6215,
      "ꤓꤢꤧ꤬ꤜꤥ꤭ꤓꤢꤧ꤬ꤗꤢꤪ": 6216,
      "ꤟꤢꤧ꤭ꤒ꤫ꤥ꤬ꤖꤢꤦ꤬": 6217,
      "ꤒꤣ꤬ꤗꤢꤩ꤭ꤜꤢꤪ꤭": 6218,
      "ꤒꤣ꤬ꤗꤢꤩ꤭ꤗꤢꤩ꤭": 6219,
      "ꤥ꤬ꤗ꤫ꤢꤩ꤬ꤟꤣꤧ": 6220,
      "ꤘꤢꤪ꤭ꤥ꤬": 6221,
      "ꤘꤢꤪ꤭ꤊꤜꤢꤪ꤭": 6222,
      "ꤘꤢꤪ꤭ꤙꤢꤧꤞꤢ꤬": 6223,
      "ꤚꤥ꤬ꤖꤢꤨ": 6224,
      "ꤊꤜꤢꤪ꤭ꤕꤜꤢꤪ": 6225,
      "ꤕꤛꤢꤡ꤫ꤢꤧ꤬": 6226,
      "ꤕꤛꤢꤡ꤫ꤢꤧ꤬ꤒꤥ꤬": 6227,
      "ꤖꤚ꤫ꤢꤩ꤬ꤓꤢꤧ꤬": 6228,
      "ꤒꤢꤩ꤬ꤜꤢꤨ꤭ꤒꤢꤧ꤭ꤚ꤫ꤢꤩ꤬": 6229,
      "ꤊꤥꤜꤢ": 6230,
      "ꤖꤢꤦ꤬ꤓꤢꤧ꤬": 6231,
      "ꤖꤢꤦ꤬ꤒꤣꤧ꤬ꤒ꤫ꤢꤪ꤬": 6232,
      "ꤖꤚꤢꤩ꤬ꤗꤢꤩ꤬ꤚ꤫ꤥ꤬ꤜꤢꤨ꤭": 6233,
      "ꤙꤢꤥ꤬": 6234,
      "ꤙꤢꤊꤜ꤫ꤢꤪ꤬ꤒꤢꤩ꤭": 6235,
      "ꤊꤢꤧꤔꤢ꤬ꤎꤢ꤬ꤚꤢꤧ": 6236,
      "ꤑꤢ꤭ꤕ꤫ꤢꤩ꤬ꤊꤣꤧ꤭": 6237,
      "ꤑꤢ꤭ꤟꤢ꤭": 6238,
      "ꤑꤢ꤭ꤟꤢꤧ꤭ꤟꤣꤧ": 6239,
      "ꤒꤣꤧ꤬ꤊꤜꤣ": 6240,
      "ꤒꤣꤧ꤬ꤊꤜꤝꤤ": 6241,
      "ꤒꤣꤧ꤬ꤊꤜꤥꤙꤤ": 6242,
      "ꤞꤥ꤭ꤞꤝꤢꤒꤣ꤬ꤖꤥ": 6243,
      "ꤞꤥ꤭ꤞꤝꤢꤒꤣ꤬ꤙꤢꤩ꤬": 6244,
      "ꤕꤥ꤬ꤊꤢꤨ꤭ꤔꤣꤧ꤬": 6245,
      "ꤚꤢꤦ꤭ꤕꤛꤢ꤭": 6246,
      "ꤚꤢꤦ꤭ꤒꤣ": 6247,
      "ꤗꤥ꤬ꤚꤣꤧꤊꤣꤧ꤭": 6248,
      "ꤢ꤬ꤥ꤬ꤔꤣꤧ꤬": 6249,
      "ꤏꤢꤪ꤭ꤚꤤ꤬ꤚꤣꤧ": 6250,
      "ꤢꤩꤓꤥ꤭ꤡꤝꤢ": 6251,
      "ꤜꤝꤤ꤭ꤛꤢꤩ꤬": 6252,
      "ꤜꤝꤤ꤭ꤗꤢꤩ꤭": 6253,
      "ꤜꤝꤤ꤭ꤞꤢꤪ": 6254,
      "ꤞꤤ꤭ꤔ꤫ꤢꤩ꤬ꤔꤣꤧ꤬": 6255,
      "ꤖꤥ꤭ꤊꤢꤨ꤭": 6256,
      "ꤗꤢꤧꤏꤢꤦ꤭ꤚꤣꤧ": 6257,
      "ꤜꤣꤙꤢ꤭ꤟꤣꤧ": 6258,
      "ꤜꤣꤙꤢ꤭ꤟꤢꤧ꤭": 6259,
      "ꤏꤥ꤬ꤘꤢꤨ꤬": 6260,
      "ꤏꤥ꤬ꤓꤢꤧ꤬ꤜꤥ꤭": 6261,
      "ꤗꤤ꤭ꤟꤣꤧ": 6262,
      "ꤒꤣꤧ꤬ꤖꤢ꤭ꤊꤢꤧ꤭ꤟꤣꤧ": 6263,
      "ꤖꤢꤩꤊꤢꤧ꤭": 6264,
      "ꤢ꤬ꤜꤤ꤬ꤊꤢꤨ꤭": 6265,
      "ꤡꤝꤢꤔꤥ꤭ꤡꤝꤢꤙꤢꤩ": 6266,
      "ꤡꤝꤢꤔꤥ꤭ꤖꤛꤢꤢꤩ꤬": 6267,
      "ꤢ꤬ꤞꤢꤩ꤭ꤊꤢꤨ꤭": 6268,
      "ꤢ꤬ꤞꤢꤩ꤭ꤜꤝꤤ꤭ꤏꤣꤧ꤭": 6269,
      "ꤓꤢꤨ꤬ꤞꤢꤩꤓꤢꤧ꤬ꤘꤢꤦ꤬": 6270,
      "ꤒꤢꤩ꤬ꤟꤢꤩꤙꤢꤩ꤬ꤡ꤫ꤢꤧ꤬": 6271,
      "ꤒꤢꤩ꤬ꤟꤢꤩꤙꤢꤩ꤬ꤘꤥ꤬ꤔꤢꤧ꤭": 6272,
      "ꤒꤢꤩ꤬ꤏꤢꤩ꤭ꤣꤧ꤭": 6273,
      "ꤒꤢꤩ꤬ꤏꤢꤩ꤭ꤟꤣꤧ": 6274,
      "ꤞꤢꤨꤒꤢꤨ": 6275,
      "ꤋꤢꤪꤎꤢ꤬": 6276,
      "ꤙꤣꤧꤒꤢꤩ꤭ꤟꤢꤧ꤭": 6277,
      "ꤙꤣꤧꤒꤢꤩ꤭ꤒꤢꤩ꤭": 6278,
      "ꤓꤢꤩꤊꤢꤧ꤭": 6279,
      "ꤓꤢꤩꤙꤤ": 6280,
      "ꤒꤢꤩ꤬ꤒꤣꤧ꤬ꤔꤢꤩ꤬ꤞꤢꤦ": 6281,
      "ꤕꤣꤧ꤬ꤒꤤꤕꤢ꤬": 6282,
      "ꤢ꤬ꤙꤝꤤꤥ꤬": 6283,
      "ꤒꤢꤩ꤬ꤥ꤬ꤖꤢꤨꤡ꤫ꤢꤩ꤬ꤜꤢꤧ꤬": 6284,
      "ꤊꤣꤧ꤬ꤘꤢ꤭ꤔꤣꤧ꤬": 6285,
      "ꤋꤢꤨ꤭ꤡꤛꤥ": 6286,
      "ꤛꤢꤨꤘꤢ꤬ꤊ꤫ꤢꤩ꤬": 6287,
      "ꤕꤝꤢꤩ꤬ꤊꤢꤨ꤬ꤊꤜꤢꤪꤘꤢꤨ꤬": 6288,
      "ꤕꤝꤢꤩ꤬ꤊꤢ꤬ꤏꤥ꤭ꤘꤢꤧ꤬": 6289,
      "ꤕꤝꤢꤩ꤬ꤢꤩ꤬ꤋꤢꤪꤗꤢꤨ꤭": 6290,
      "ꤏꤢꤦꤊꤢꤧ꤭": 6291,
      "ꤢ꤬ꤗ꤫ꤥ꤬ꤚꤢ꤭": 6292,
      "ꤊꤜꤢꤧ꤬ꤡꤝꤢꤖꤛꤢ": 6293,
      "ꤒꤣ꤬ꤗꤢꤦ꤭ꤗꤢꤦ꤭": 6294,
      "ꤖꤚꤢ꤬ꤏꤝꤢ꤬": 6295,
      "ꤡꤢꤪ꤭ꤟꤢꤧ꤭": 6296,
      "ꤡꤢꤪ꤭ꤊꤢ꤬": 6297,
      "ꤖꤢꤧ꤭ꤜ": 6298,
      "ꤖꤢꤧ꤭ꤏꤣꤧ": 6299,
      "ꤟꤥ꤬ꤏꤛꤤꤛꤢ꤬": 6300,
      "ꤟꤥ꤬ꤎꤢꤧꤔꤢ꤬": 6301,
      "ꤟꤢ꤭ꤟꤢ꤭": 6302,
      "ꤞꤤ꤭ꤊꤜꤢꤩ꤭ꤣꤧ꤭": 6303,
      "ꤢ꤬ꤓꤣꤧ꤭ꤊꤜꤥ꤭": 6304,
      "ꤢꤩꤓꤢꤧ꤬ꤜꤣ": 6305,
      "ꤊꤢꤧ꤭ꤏꤢꤔꤣꤧ꤬": 6306,
      "ꤢꤩꤜꤥ꤬ꤊꤣꤧ꤭": 6307,
      "ꤢꤩꤜꤥ꤬ꤕꤢ꤬": 6308,
      "ꤓꤢꤪꤛꤢ꤭": 6309,
      "ꤋꤝꤤꤘꤢꤨ꤬ꤔꤣꤧ꤬": 6310,
      "ꤥ꤬ꤕꤜꤢꤪꤥ꤬ꤡꤢꤦ꤭": 6311,
      "ꤤ꤬ꤏꤢꤪꤕ꤫ꤢꤩ꤬": 6312,
      "ꤋꤢꤧꤘꤥ꤬ꤔꤣꤧ꤬": 6313,
      "ꤋꤢꤧꤘꤥ꤬ꤊꤢꤧ꤭ꤏꤢ": 6314,
      "ꤡꤢꤨ꤭ꤢꤩ꤬ꤙꤢꤩ": 6315,
      "ꤥ꤬ꤗꤣꤧ꤭ꤒꤢ꤭": 6316,
      "ꤥ꤬ꤗꤣꤧ꤭ꤒ꤫ꤢꤧ꤬": 6317,
      "ꤥ꤬ꤗꤣꤧ꤭ꤗ꤫ꤢꤧ꤬": 6318,
      "ꤟꤢꤧ꤭ꤔꤥ꤭ꤟꤥ꤬": 6319,
      "ꤔꤢꤩꤛꤢ꤬": 6320,
      "ꤔꤢꤩꤊꤥ": 6321,
      "ꤔꤢꤪ꤭ꤡꤝꤢꤘꤣꤧꤟꤣꤧ꤭": 6322,
      "ꤔꤢꤪ꤭ꤡꤝꤢꤕ꤫ꤢꤦ꤬": 6323,
      "ꤢꤩꤟꤢꤧ꤭ꤕꤜꤢꤪ": 6324,
      "ꤒꤣ꤬ꤙꤢꤩ꤬ꤔꤣꤧ꤬": 6325,
      "ꤖꤚꤢꤧ꤭ꤗꤣꤧ꤭": 6326,
      "ꤞꤥ꤬ꤞꤝꤢ": 6327,
      "ꤒꤢꤨꤋꤢꤨ": 6328,
      "ꤙꤥ꤬ꤓꤢꤧ꤬": 6329,
      "ꤙꤥ꤬ꤘꤢꤨ꤬": 6330,
      "ꤙꤥ꤬ꤙꤢꤦ꤬": 6331,
      "ꤞꤣꤧ꤭ꤊꤢꤧ꤭ꤟꤣꤧ": 6332,
      "ꤛ꤫ꤢꤧ꤬ꤥ꤬ꤗ꤫ꤢꤩ꤬ꤡ꤫ꤢꤧ꤬": 6333,
      "ꤛ꤫ꤢꤧ꤬ꤥ꤬ꤗ꤫ꤢꤩ꤬ꤊꤢ꤬": 6334,
      "ꤛ꤫ꤢꤧ꤬ꤥ꤬ꤗ꤫ꤢꤩ꤬ꤙꤢꤩ": 6335,
      "ꤠ꤫ꤢꤩ꤬ꤓꤢꤩ꤬ꤡꤝꤢꤊꤢꤧ꤭": 6336,
      "ꤠ꤫ꤢꤩ꤬ꤓꤢꤩ꤬ꤙꤢꤩ": 6337,
      "ꤍꤢꤧ꤭ꤗꤢꤦ꤭": 6338,
      "ꤙꤢꤧ꤭ꤜꤢꤩ꤬": 6339,
      "ꤙꤢꤧ꤭ꤜꤢꤧ꤬ꤚꤣꤧ": 6340,
      "ꤘꤣꤧꤜꤢꤧ꤬ꤘꤢꤦ꤬": 6341,
      "ꤍꤢꤨ꤬ꤏꤢꤪ꤭": 6342,
      "ꤕꤢꤪ꤬ꤒꤢꤨ": 6343,
      "ꤔꤢꤩ꤬ꤎꤢꤩ": 6344,
      "ꤜꤥꤒꤢ꤭": 6345,
      "ꤢ꤬ꤕ꤫ꤥ꤬ꤒꤣꤧ꤬ꤟꤢꤩ꤬": 6346,
      "ꤢ꤬ꤕ꤫ꤥ꤬ꤋꤢꤨ꤭ꤛꤥ꤭ꤟꤢ꤬": 6347,
      "ꤏꤢꤧ꤬ꤒꤥ꤬": 6348,
      "ꤏꤢꤧ꤬ꤒꤢ꤭": 6349,
      "ꤡꤝꤤ꤬ꤟꤢꤧ꤭": 6350,
      "ꤡꤝꤤ꤬ꤊꤢ꤬ꤔ꤫ꤤ꤬": 6351,
      "ꤊꤜꤢꤩꤡ꤫ꤢꤩ꤬ꤡꤢꤦ꤭ꤗꤢ꤬": 6352,
      "ꤘꤢꤨ꤬ꤓꤢꤧ꤬ꤖꤚ꤫ꤢꤩ꤬ꤓꤢꤧ꤬": 6353,
      "ꤢꤩꤓꤥ꤭ꤓꤢꤧ꤬ꤏꤢꤦ꤬": 6354,
      "ꤒꤢ꤭ꤒꤢꤦ꤭ꤊꤢꤧ꤭": 6355,
      "ꤔꤤ꤬ꤛꤢ꤬": 6356,
      "ꤢ꤬ꤏꤣꤧꤢ꤬ꤋꤢꤩ꤭ꤔꤣꤧ꤬": 6357,
      "ꤞꤢꤧꤊꤣꤧ꤭ꤟꤣꤧ": 6358,
      "ꤙꤛꤢ꤬ꤡꤢꤧ꤬": 6359,
      "ꤊꤜꤢꤪ꤬ꤗꤢ꤬ꤚꤢꤧ": 6360,
      "ꤊ꤫ꤥ꤬ꤔ꤫ꤤ꤬": 6361,
      "ꤜ꤫ꤢ꤬ꤒꤣꤧ꤬ꤔꤢꤧ": 6362,
      "ꤜ꤫ꤢ꤬ꤗꤤ꤬ꤏꤥ꤬ꤊꤜꤢꤩ꤭": 6363,
      "ꤡꤝꤢꤥ꤬ꤊꤢꤨ": 6364,
      "ꤚꤥꤗꤢꤩ꤬ꤋꤝꤤ": 6365,
      "ꤗ꤫ꤢꤪ꤬ꤟꤢꤩꤗ꤫ꤢꤪ꤬ꤒꤢ꤭": 6366,
      "ꤕꤜꤤ꤬ꤣꤧ꤭": 6367,
      "ꤡꤝꤢꤒꤣꤧ꤬ꤜꤝꤢꤊꤢꤧ꤭": 6368,
      "ꤓꤣꤧ꤭ꤊ꤫ꤢꤩ꤬ꤖꤢꤨ": 6369,
      "ꤓꤣꤧ꤭ꤊ꤫ꤢꤩ꤬ꤚꤥ꤬ꤖꤢꤨ": 6370,
      "ꤙꤢ꤭ꤓꤢꤧ꤬ꤟꤣꤧ": 6371,
      "ꤘꤣꤧꤟꤢꤧ꤭ꤘꤣꤧꤚꤢꤩ꤬ꤚꤣꤧ": 6372,
      "ꤟꤢꤩꤒꤢ꤭ꤍ꤫ꤥ꤬": 6373,
      "ꤒꤢꤦꤘꤢꤦ꤬ꤖꤢꤧ": 6374,
      "ꤊꤢꤦ꤭ꤞꤢꤧꤓꤢꤧ꤬ꤚꤣꤧ": 6375,
      "ꤛꤢꤧꤡꤝꤢ": 6376,
      "ꤖꤚꤢꤩ꤭ꤘꤢꤦ꤭": 6377,
      "ꤒꤣꤧ꤬ꤚꤤꤒꤣꤧ꤬ꤠꤢ꤬": 6378,
      "ꤒꤣꤧ꤬ꤚꤤꤊꤢꤪꤊꤜꤢꤪ꤭ꤊꤢꤧ꤭": 6379,
      "ꤤ꤬ꤖꤚꤤ꤬ꤊꤣꤧ꤭": 6380,
      "ꤗꤢꤩ꤬ꤡ꤫ꤢꤧ꤬ꤒꤢꤩ꤬": 6381,
      "ꤗꤢꤩ꤬ꤡ꤫ꤢꤧ꤬ꤒꤥ꤬": 6382,
      "ꤢ꤬ꤊꤢꤧ꤭ꤏꤢꤔꤣꤧ꤬": 6383,
      "ꤢ꤬ꤊꤢꤧ꤭ꤏꤢꤋꤢꤩ꤭": 6384,
      "ꤘꤢꤧꤍꤢꤦ꤬ꤡꤢꤪꤙꤢꤩ꤭": 6385,
      "ꤊꤢꤪꤊꤢꤨ꤭": 6386,
      "ꤊꤢꤪꤜꤢ": 6387,
      "ꤋꤚ꤫ꤢꤧ꤬ꤏꤢꤦ꤬": 6388,
      "ꤡ꤫ꤢ꤬ꤒꤢ꤭": 6389,
      "ꤓꤣꤧ꤭ꤛꤢꤧ꤭ꤡꤢꤧ꤭": 6390,
      "ꤗꤢꤩ꤬ꤗꤥ꤬ꤓꤢꤧ꤬": 6391,
      "ꤗꤢꤩ꤬ꤗꤥ꤬ꤜꤢꤧ꤬": 6392,
      "ꤗꤢꤩ꤬ꤗꤥ꤬ꤗꤢꤩ꤬ꤖꤝꤤ꤭": 6393,
      "ꤤ꤬ꤏꤢꤪꤓꤢꤧ꤬ꤚꤣꤧ": 6394,
      "ꤒꤣꤧ꤬ꤛ꤫ꤢꤩ꤬ꤓꤢꤩ꤬": 6395,
      "ꤟꤤ꤬ꤘꤢꤪꤊꤢꤪꤊꤢꤨ꤭": 6396,
      "ꤊꤢꤩꤟꤣꤧ": 6397,
      "ꤊꤢꤩꤊꤢꤧ꤭": 6398,
      "ꤊꤢꤩꤔ꤫ꤤ꤬ꤔꤢꤪ": 6399,
      "ꤚꤢ꤭ꤗꤢꤥ꤬": 6400,
      "ꤞꤢꤪꤒꤣꤧ꤬ꤔ꤫ꤢ꤬": 6401,
      "ꤤ꤬ꤏꤢꤩ꤭ꤒꤢ꤭ꤊꤢꤧ꤭ꤚꤣꤧ": 6402,
      "ꤚꤢꤧ꤭ꤒꤢ꤭": 6403,
      "ꤛꤣ꤬ꤜꤢ": 6404,
      "ꤤ꤬ꤚꤥ꤭ꤓꤢꤧ꤬": 6405,
      "ꤘꤢꤪ꤬ꤖꤚꤢ꤬": 6406,
      "ꤢ꤬ꤔꤢ꤬ꤡ꤫ꤢꤩ꤬": 6407,
      "ꤢ꤬ꤔꤢ꤬ꤢ꤬ꤜꤢꤩ꤭": 6408,
      "ꤡꤝꤢꤗꤢꤩ꤬ꤒ꤫ꤥ꤬": 6409,
      "ꤡꤝꤢꤗꤢꤩ꤬ꤕꤜꤤ꤭ꤖꤥ": 6410,
      "ꤋꤚꤢꤦ꤬ꤒꤥ꤭": 6411,
      "ꤣꤧ꤭ꤒꤣ꤬ꤔꤣꤧ꤭ꤚꤣꤧ꤬": 6412,
      "ꤣꤧ꤭ꤒꤣ꤬ꤗꤢꤩ꤭ꤔꤣꤧ꤬": 6413,
      "ꤋꤥꤋꤛꤢ꤬ꤘꤢꤦ꤬": 6414,
      "ꤜ꤫ꤥ꤬ꤘꤢꤨ꤬ꤜꤣꤢꤨ꤭": 6415,
      "ꤙꤥ꤬ꤢꤩ꤬ꤜꤢꤧ꤬": 6416,
      "ꤢꤩꤡꤝꤢꤔ꤫ꤤ꤬": 6417,
      "ꤚꤢ꤭ꤥ꤬ꤚꤣꤧ": 6418,
      "ꤕ꤫ꤢ꤬ꤒ꤫ꤣ꤬": 6419,
      "ꤢ꤬ꤖꤚꤢꤩ꤬ꤏꤣꤧ": 6420,
      "ꤥ꤬ꤒ꤫ꤣ꤬ꤜꤥ꤬": 6421,
      "ꤥ꤬ꤚ꤫ꤥ꤬ꤥ꤬ꤢꤩꤓꤢꤧ꤬": 6422,
      "ꤊꤣꤧ꤬ꤓꤢꤧ꤬ꤊꤣꤧ꤬ꤜꤢꤧ꤬": 6423,
      "?’”": 6424,
      "ꤞꤤꤑꤢꤩ꤭ꤟꤢꤧ꤭ꤟꤣꤧ": 6425,
      "ꤥ꤬ꤕ꤫ꤢꤪ꤬ꤗꤢꤧꤏꤢꤦ꤭ꤕꤢ꤬": 6426,
      "ꤖꤚꤥ꤬ꤖꤚꤢꤧ꤬ꤏꤝꤢ꤬ꤏꤢꤪ꤭": 6427,
      "ꤏꤣꤧꤔꤣꤧ꤭ꤗꤢꤦ꤭": 6428,
      "ꤢ꤬ꤒꤢꤩ꤬ꤛ꤫ꤢꤦ꤬ꤒꤢꤩ꤬ꤔ꤫ꤢꤧ꤬": 6429,
      "ꤒ꤫ꤢꤪ꤬ꤓꤢꤩꤕꤜꤣꤧ꤬": 6430,
      "ꤤ꤬ꤛꤢꤨ꤭ꤙꤢꤩ": 6431,
      "ꤠꤢꤧ꤭ꤖꤢꤨꤋꤢꤨ꤭": 6432,
      "ꤊꤣꤧ꤬ꤘꤢ꤭ꤊꤢꤨ꤭ꤓꤢꤦ꤭": 6433,
      "ꤕ꤫ꤢꤨ꤬ꤊꤜꤥ": 6434,
      "ꤠꤢ꤬ꤞꤢ": 6435,
      "ꤚꤢꤦ꤭ꤛꤢ꤬ꤣꤧ꤭": 6436,
      "ꤋꤢꤦ꤭ꤋꤢꤦ꤭ꤟꤢ꤭": 6437,
      "ꤢꤪꤜ꤫ꤥ꤬ꤊꤜꤢꤩ꤭": 6438,
      "ꤓꤝꤤꤟꤢꤧ꤭": 6439,
      "ꤡꤤ꤬ꤞꤣꤧ꤭": 6440,
      "ꤋꤢꤨ꤭ꤢꤩꤚꤢ꤬ꤎꤢ꤬ꤒꤢꤨ": 6441,
      "ꤊꤢꤩ꤬ꤟꤢꤩꤔꤤꤔꤢꤧ꤬ꤗꤢ꤬": 6442,
      "ꤙꤢꤩ꤭ꤜ꤫ꤢꤪ꤬ꤊꤢꤨ꤭": 6443,
      "ꤜꤢꤨ꤭ꤒꤢꤧ꤭ꤓꤢꤧ꤬ꤒꤢꤩ꤬": 6444,
      "ꤊꤣꤧ꤬ꤛꤥ꤭ꤊꤜꤤ": 6445,
      "ꤍ꤫ꤥ꤬ꤖꤚꤢ꤬ꤓꤢꤧ꤬ꤏꤝꤢ꤬": 6446,
      "ꤓꤢꤦꤕꤜꤤ꤭": 6447,
      "ꤓꤢꤦꤡꤢꤩ꤭ꤗꤢꤧ": 6448,
      "ꤢꤪꤜꤤꤠ": 6449,
      "ꤤ꤬ꤏꤢꤪ꤭ꤊꤢꤧ꤭": 6450,
      "ꤡꤝꤢꤖꤛꤢꤒꤢ꤭": 6451,
      "ꤞꤥ꤬ꤓꤣꤧ꤭ꤓꤢꤨ꤭": 6452,
      "ꤙꤥꤊꤢꤨ꤬ꤜꤢ꤭ꤊꤜꤝꤤ꤭": 6453,
      "ꤊꤢꤜꤤ꤬ꤛꤥ꤬": 6454,
      "ꤢ꤬ꤊꤢ꤬ꤢ꤬ꤕꤜꤢꤧ꤬": 6455,
      "ꤟꤢꤩꤜꤢꤧ꤬ꤚꤣꤧ": 6456,
      "ꤜꤣꤧ꤬ꤘꤢꤧꤜꤣꤧ꤬ꤘꤢ꤭": 6457,
      "ꤒꤣꤧ꤬ꤕꤜꤢꤪ꤬ꤜꤣꤧ꤬ꤛꤢꤪ꤬ꤓꤢꤧ꤬": 6458,
      "ꤜꤢ꤬ꤋꤢꤧ꤭": 6459,
      "ꤖꤛꤢꤘꤝꤢꤋꤛꤢ꤭": 6460,
      "ꤜꤢꤨ꤬ꤖꤚꤥꤊꤢꤧ꤭": 6461,
      "ꤢ꤬ꤋꤢꤩ꤬ꤛꤢ꤬ꤊ꤫ꤢꤩ꤬": 6462,
      "ꤡꤝꤢꤥ꤬ꤜꤢꤩ꤭ꤥ꤬": 6463,
      "ꤤ꤬ꤛꤢꤨ꤭ꤜꤥ꤭ꤟꤣꤧ": 6464,
      "ꤤ꤬ꤛꤢꤨ꤭ꤜꤥ꤭ꤙꤢꤩ": 6465,
      "ꤢꤪꤜꤤꤠꤢ꤬ꤗ꤫ꤢꤪ꤬": 6466,
      "ꤢꤪꤜꤤꤠꤢ꤬ꤖꤢꤩ꤬": 6467,
      "ꤢꤪꤜꤤꤠꤢ꤬ꤏꤥ꤬": 6468,
      "ꤢꤪꤜꤤꤠꤢ꤬ꤖꤢꤧ꤭": 6469,
      "ꤗꤟꤌꤣꤖꤢꤧ꤭": 6470,
      "ꤘꤤ꤬ꤗꤢꤨ": 6471,
      "ꤘꤤ꤬ꤛꤣ꤬": 6472,
      "ꤛꤢꤦ꤬ꤓꤣꤧ꤭": 6473,
      "ꤢ꤬ꤑꤢ꤭ꤜꤥ꤬ꤟꤣꤧ": 6474,
      "ꤒꤢꤩ꤬ꤘꤢꤧ꤬ꤞꤤꤕꤜꤢꤪ꤬ꤞꤥ꤬ꤓꤣꤧ꤭": 6475,
      "ꤒꤢꤩ꤬ꤘꤢꤧ꤬ꤞꤢꤨ꤬ꤘꤢꤧ꤬ꤞꤢꤩ": 6476,
      "ꤜ꤫ꤢꤩ꤬ꤘꤢꤧ꤬ꤒꤢꤩ꤬ꤞꤢꤦ": 6477,
      "ꤎꤢ꤬ꤕꤛꤤꤓꤣꤧ꤭ꤣꤧ꤭": 6478,
      "ꤎꤢ꤬ꤕꤛꤤꤓꤣꤧ꤭ꤙꤢꤩ꤭": 6479,
      "ꤊꤤꤚꤢꤩ꤭": 6480,
      "ꤢꤩꤓꤢꤩ꤬ꤊꤢ꤬": 6481,
      "ꤢꤩꤓꤢꤩ꤬ꤊꤢ꤬ꤊꤢꤧ꤭": 6482,
      "ꤢ꤬ꤖꤢꤧ꤭ꤏꤣꤧ": 6483,
      "ꤞꤢꤪ꤬ꤞꤢꤩ꤬ꤠꤢꤩ꤬ꤖꤥ꤭": 6484,
      "ꤢꤩ꤬ꤗꤢꤦ꤬ꤥ꤭ꤗꤢꤦ꤬": 6485,
      "ꤤ꤬ꤕꤜꤤꤓꤢꤩ꤭": 6486,
      "ꤡꤢꤪꤒꤢꤩ꤬ꤒꤥ꤬": 6487,
      "ꤊꤣꤧ꤬ꤜꤢꤨꤜꤣ": 6488,
      "ꤞꤣꤧ꤭ꤡ꤫ꤢꤧ꤬ꤣꤧ꤭": 6489,
      "ꤜ꤫ꤢꤩ꤬ꤗꤣꤧ꤭ꤋꤢꤨ꤬": 6490,
      "ꤕꤛꤢ꤭ꤕꤤ꤬": 6491,
      "ꤒꤣ꤬ꤞꤢꤩ꤭ꤔꤣꤧ꤬": 6492,
      "ꤒꤥ꤭ꤘꤢꤩ꤭ꤡꤝꤢ": 6493,
      "ꤓꤣꤧ꤭ꤊꤜꤥ꤭ꤊꤢꤨ꤭": 6494,
      "ꤋꤢꤪ꤬ꤘꤢꤦ꤬": 6495,
      "ꤜꤟꤢꤨ꤬": 6496,
      "ꤜꤟꤛꤢ꤬": 6497,
      "ꤢ꤬ꤏꤣꤧꤋꤢꤩ꤭ꤔꤣꤧ꤬": 6498,
      "ꤒꤣꤧ꤬ꤞꤥ꤭ꤓꤢꤧ꤬": 6499,
      "ꤗꤢꤩ꤬ꤡꤢꤪꤗꤢꤩ꤬ꤕꤢꤩ꤭": 6500,
      "ꤗꤢꤩ꤬ꤜꤣꤧ꤬ꤕꤜꤢꤩꤡ꤫ꤢꤧ꤬": 6501,
      "ꤋꤢꤨ꤭ꤊꤢ꤬ꤛꤤ꤬": 6502,
      "ꤋꤢꤨ꤭ꤊꤢ꤬ꤗꤢꤩ꤬ꤜꤤ꤬": 6503,
      "ꤢ꤬ꤚꤝ꤫ꤤ꤬ꤢ꤬ꤓ": 6504,
      "ꤒꤣꤧ꤬ꤔꤢꤩ꤬ꤞꤢꤦꤙꤛꤢ꤬": 6505,
      "ꤜꤤ꤬ꤒꤣꤧ꤬ꤜꤢꤨ꤭ꤣꤧ꤭": 6506,
      "ꤜꤤ꤬ꤒꤣꤧ꤬ꤜꤢꤨ꤭ꤟꤢꤨ": 6507,
      "ꤟꤤꤙꤚꤢꤨꤖꤢꤨ": 6508,
      "ꤘꤢꤪꤔꤥ꤭ꤊꤢꤧ꤭": 6509,
      "ꤓꤛꤢꤩ꤭ꤘꤢꤨ꤬": 6510,
      "ꤢꤩ꤬ꤔꤢꤪꤥ꤭ꤔꤢꤪ": 6511,
      "ꤗꤢꤩ꤬ꤜꤣꤧ꤭ꤏꤢꤦ꤬": 6512,
      "ꤊ꤫ꤢꤩ꤬ꤊꤜꤢꤪ꤭ꤖꤢꤨ": 6513,
      "ꤗꤤ꤬ꤊꤢꤧ꤭ꤓꤢꤧ꤬": 6514,
      "ꤓꤢꤨ꤬ꤚꤢꤧ꤭ꤓꤢꤧ꤬": 6515,
      "ꤓꤢꤨ꤬ꤚꤢꤧ꤭ꤊꤣꤧ꤬ꤓꤢꤪ꤬": 6516,
      "ꤥ꤬ꤕ꤫ꤢꤪ꤬ꤗꤢꤧꤚꤣꤧ": 6517,
      "ꤙꤥ꤬ꤢꤩ꤬ꤙꤥ꤬ꤥ꤭ꤚꤣꤧ": 6518,
      "ꤕꤚꤟꤢꤧ꤬ꤜꤟꤢꤨ꤬": 6519,
      "ꤤ꤬ꤜꤢꤪ꤭ꤤ꤬ꤜꤢꤨ꤬": 6520,
      "ꤡꤝꤢꤋꤥꤊꤢꤧ꤭ꤜꤢꤪ꤭": 6521,
      "ꤢ꤬ꤚꤢꤦ꤭ꤢ꤬ꤓꤢꤩ꤭": 6522,
      "ꤤ꤬ꤏꤢꤩ꤭ꤊꤢꤧ꤭ꤜꤢꤪ꤭": 6523,
      "ꤗ꤫ꤢꤪ꤬ꤜꤤ꤭ꤙꤢꤨ꤭ꤟꤣꤧ": 6524,
      "ꤢ꤬ꤒꤟꤢ꤭": 6525,
      "ꤋꤢꤨ꤭ꤡꤛꤢꤨꤜꤤ꤬ꤛꤢ꤬": 6526,
      "ꤔꤢꤪ꤭ꤥ꤬ꤞꤥ꤬ꤊꤢꤧ꤭": 6527,
      "ꤙꤢꤧꤙꤢꤦ꤭ꤗꤢꤧ": 6528,
      "ꤢ꤬ꤊꤢꤨꤊꤜꤢꤩ꤭ꤋꤢꤨ꤬": 6529,
      "ꤋꤢꤧ꤬ꤖꤢꤕꤜꤣꤧ꤬": 6530,
      "ꤟꤢꤧ꤭ꤚꤢꤩ꤬ꤏꤝꤢ꤬ꤏꤢꤪ꤭ꤜꤣ": 6531,
      "ꤗꤛꤢꤓꤛꤢꤩ꤬": 6532,
      "ꤢ꤬ꤔ꤫ꤢ꤬": 6533,
      "ꤒꤢꤩ꤬ꤊꤛꤢꤜꤢꤨ꤭ꤒꤣꤧ꤬ꤍꤢ꤭ꤜꤢꤨ꤭": 6534,
      "ꤒꤣ꤬ꤗ꤫ꤢꤪ꤬ꤔꤣꤧ꤬": 6535,
      "ꤟꤢꤧ꤭ꤥ꤬ꤕꤜꤢꤪꤥ꤬ꤕꤜꤢꤨ꤬": 6536,
      "ꤋꤢꤨ꤭ꤢꤪꤔꤤꤎꤢ꤬": 6537,
      "ꤋꤢꤨ꤭ꤢꤪꤔꤢꤩ꤬ꤎꤢꤩ": 6538,
      "ꤕꤣꤧ꤬ꤛꤢꤪ꤭ꤕꤣꤧ꤬ꤛ꤫ꤢꤩ꤬": 6539,
      "ꤥ꤬ꤡ꤫ꤢꤩ꤬ꤡꤢꤦ꤭ꤒ꤫ꤣ꤬": 6540,
      "ꤢ꤬ꤘꤢꤜꤢꤩ꤭": 6541,
      "ꤟꤢꤩꤙꤛꤢ꤬ꤔꤣꤧ꤭": 6542,
      "ꤕꤢꤩ꤬ꤒꤢꤩ꤬ꤋꤢꤪꤎꤢ꤬": 6543,
      "ꤘꤢꤧ꤬ꤊꤢꤩ꤬ꤢꤩ꤬": 6544,
      "ꤔꤣꤧ꤭ꤗꤢꤨ꤬ꤜꤢꤪ꤭": 6545,
      "ꤖꤛꤢꤖꤢꤩ꤬ꤊꤢꤧ꤭ꤖꤢꤩ꤬": 6546,
      "ꤒꤢꤩ꤬ꤖꤚꤥ꤬ꤖꤚꤢꤧ꤬ꤏꤝꤢ꤬ꤏꤢꤪ꤭": 6547,
      "ꤡꤢꤪꤗꤢ꤬ꤚꤛꤢ꤬ꤘꤢꤨ꤬": 6548,
      "ꤊꤚꤢꤩ꤬ꤒꤢꤩ꤬ꤊꤜꤢꤦꤖꤢꤨ": 6549,
      "ꤊꤢꤨꤕꤚꤢꤨꤊꤜꤢꤦꤋꤢꤨ꤬": 6550,
      "ꤕꤟꤢꤪ꤬": 6551,
      "ꤟꤛꤢ꤭ꤕꤟꤢꤩ": 6552,
      "ꤡꤟꤢꤦ": 6553,
      "ꤡꤟꤛꤢ": 6554,
      "ꤢ꤬ꤊ꤫ꤢꤨ꤬ꤢ꤬ꤊꤢꤧ꤭": 6555,
      "ꤢ꤬ꤊ꤫ꤢꤨ꤬ꤜꤝꤢ": 6556,
      "ꤢ꤬ꤞꤢꤪ꤭ꤓꤤ꤬": 6557,
      "ꤒꤣꤧ꤬ꤒꤢꤩ꤬ꤚꤢꤩ꤭": 6558,
      "ꤒꤢꤩ꤬ꤏꤢꤪ꤭ꤟꤢ꤭": 6559,
      "ꤒꤢꤩ꤬ꤘꤢꤧꤗꤢ": 6560,
      "ꤗꤢꤩ꤬ꤢꤩ꤬ꤗꤢꤩ꤬ꤥ꤭ꤏꤢꤦ꤬": 6561,
      "ꤗꤢꤩ꤬ꤗꤢꤗꤢꤩ꤬ꤒꤢꤩ꤭ꤊꤢꤧ꤭": 6562,
      "ꤢ꤬ꤖꤢꤨꤖꤚꤢꤩ꤬ꤗꤢꤪ꤬ꤖꤢꤨꤖꤚꤢꤩ꤬ꤋꤢꤨ꤭": 6563,
      "ꤞꤥ꤭ꤖꤚꤢꤩ꤬ꤒꤣ꤬ꤖꤚꤢꤩ꤬": 6564,
      "ꤒꤣꤧ꤬ꤊꤝꤢ꤬ꤚꤣꤧ꤬": 6565,
      "ꤘꤣꤋꤛꤢ꤭ꤒꤣꤧ꤬ꤘꤢꤦ꤬ꤔꤣꤧ꤬": 6566,
      "ꤒꤢꤩ꤬ꤥ꤬ꤜꤣꤥ꤬ꤙꤢ꤭": 6567,
      "ꤋꤢꤦ꤬ꤊꤢꤨ꤭ꤔꤥ꤭": 6568,
      "ꤢ꤬ꤖꤢꤢ꤬ꤛꤢ꤬": 6569,
      "ꤞꤤꤏꤝꤤꤔ꤫ꤢꤩ꤬ꤊ꤫ꤢꤨ꤬": 6570,
      "ꤒꤣꤧ꤬ꤋꤚꤥ꤭ꤒꤣꤧ꤬ꤋꤚ꤫ꤢꤧ꤬": 6571,
      "ꤊꤣꤧ꤬ꤢꤨ꤭ꤓꤢꤩ꤬ꤊꤢꤧ꤭": 6572,
      "ꤢ꤬ꤚꤢꤩꤙꤤ": 6573,
      "ꤒꤢ꤭ꤡꤢꤦꤞꤣꤧ꤭": 6574,
      "ꤜ꤫ꤢꤩ꤬ꤗꤢꤩ꤬ꤥ꤬ꤊꤥ": 6575,
      "ꤜꤢꤨ꤬ꤋꤥꤋꤛꤢ꤭ꤜꤢꤨ꤭": 6576,
      "ꤏꤣꤧꤜꤝꤤ꤭ꤓꤢꤦ꤭": 6577,
      "ꤢꤩꤋꤚꤝꤢ꤭ꤔ꤫ꤤ꤬": 6578,
      "ꤢ꤬ꤊꤜꤤ꤭": 6579,
      "ꤢ꤬ꤗꤝꤤ꤭ꤜꤢ꤬ꤘꤢꤨ꤬": 6580,
      "ꤢ꤬ꤕꤜꤤ꤬ꤓꤣꤧ꤭": 6581,
      "ꤥ꤬ꤕꤝꤢ꤭ꤥ꤬ꤘꤝꤢ꤭": 6582,
      "ꤥ꤬ꤋꤢꤪ꤬ꤘꤢꤦ꤬": 6583,
      "ꤖꤚꤢꤨꤊꤤ": 6584,
      "ꤤ꤬ꤠꤤ꤭ꤓꤢꤩ꤬": 6585,
      "ꤋꤢꤨ꤭ꤢꤧꤔꤢꤩꤛꤢ꤬": 6586,
      "ꤋꤢꤨ꤭ꤘꤢꤩ꤬ꤗꤢꤩ꤬": 6587,
      "ꤋꤢꤨ꤭ꤘꤢꤩ꤬ꤗꤢ": 6588,
      "ꤗꤢꤪꤋꤚꤢꤪ꤭ꤗꤢꤪꤍ꤫ꤥ꤬": 6589,
      "ꤙꤢꤧꤘꤤ꤭ꤕꤢꤪ꤭": 6590,
      "ꤤ꤬ꤖꤚꤤ꤬ꤤ꤬ꤏꤢꤩ꤭ꤒꤢꤩ꤬": 6591,
      "ꤋꤢꤨ꤭ꤗꤢ꤬ꤔꤢꤏꤛꤢꤩ꤬": 6592,
      "ꤋꤢꤨ꤭ꤢꤩꤕꤢ꤬ꤖꤚꤢ": 6593,
      "ꤋꤢꤨ꤭ꤢꤩꤕꤢ꤬ꤖꤚꤢꤪꤘꤤ": 6594,
      "ꤖꤢ꤬ꤖꤢꤨꤜꤤ꤬": 6595,
      "ꤢꤩꤋꤚꤝꤢ꤭ꤡꤝꤢꤔ꤫ꤤ꤬": 6596,
      "ꤢ꤬ꤟꤢꤪꤊꤢꤨ꤭ꤏꤢꤩ꤬": 6597,
      "ꤒꤣꤧ꤬ꤕꤢ꤬ꤋꤛꤢ": 6598,
      "ꤒꤣꤧ꤬ꤖꤢꤧꤕꤛꤢ": 6599,
      "ꤒꤢꤩ꤬ꤍ꤫ꤥ꤬ꤒꤢꤩ꤬ꤟꤢꤩ꤬": 6600,
      "ꤒꤢꤩ꤬ꤒꤣꤧ꤬ꤚꤤ꤬ꤟꤥ꤬": 6601,
      "ꤟꤢꤩ꤬ꤛꤢ꤬ꤚꤤ꤬ꤛꤢ꤬ꤚꤢꤧ": 6602,
      "ꤤ꤬ꤒꤢ꤬ꤜꤤ꤬ꤊ꤫ꤢꤩ꤬": 6603,
      "ꤗꤢꤩ꤬ꤕꤜꤢꤦꤗꤢꤩ꤬ꤓꤥ꤭": 6604,
      "ꤊꤢꤧ꤭ꤙꤥ꤭ꤜꤥ꤬ꤔꤣꤧ꤬": 6605,
      "ꤟꤢꤧ꤭ꤕꤜꤢꤨ꤬ꤟꤢꤧ꤭ꤖꤢꤩ꤬": 6606,
      "ꤡꤝꤢꤡꤢꤩ꤬ꤔꤥ꤭": 6607,
      "ꤋꤢꤨ꤭ꤢꤨꤒꤢꤨꤋꤢꤨ": 6608,
      "ꤋꤢꤨ꤭ꤜꤢꤨꤊꤢ꤬": 6609,
      "ꤒꤢ꤭ꤞꤥ꤭ꤊꤢꤧ꤭": 6610,
      "ꤒꤢ꤭ꤕꤜꤢꤨꤒꤥ꤬": 6611,
      "ꤞꤤꤑꤢꤩ꤭ꤒꤢꤩ꤬ꤕꤜꤤ꤭": 6612,
      "ꤋꤛꤢ꤭ꤟꤣꤧꤜꤢꤨ꤭": 6613,
      "ꤜ꤫ꤢꤩ꤬ꤏꤢꤦꤢꤦ꤭ꤓꤢꤧ꤬": 6614,
      "ꤊ꤫ꤢꤩ꤬ꤊ꤫ꤢꤨ꤬ꤋꤢꤩ꤭": 6615,
      "ꤖꤛꤢꤖꤢꤨꤖꤛꤢꤗꤢꤩ꤭": 6616,
      "ꤜ꤫ꤢꤩ꤬ꤥ꤬ꤠꤢꤥ꤬": 6617,
      "ꤓꤢꤪꤔ꤫ꤤ꤬ꤡꤝꤤ꤬ꤔ꤫ꤤ꤬": 6618,
      "ꤥ꤬ꤚ꤫ꤢꤧ꤬ꤊꤢꤧ꤭": 6619,
      "ꤋꤢꤨ꤭ꤢꤩꤎꤢꤪ": 6620,
      "ꤠꤢꤦꤠ꤫ꤢꤧ꤬ꤜꤥ꤭": 6621,
      "ꤕꤤ꤬ꤎꤤ꤬ꤘꤤꤛꤢ꤬ꤊ꤫ꤢꤩ꤬": 6622,
      "ꤓꤣꤧ꤭ꤥ꤭ꤖꤢꤜꤣꤧ꤬ꤊꤢꤨ꤭": 6623,
      "ꤔꤢꤪ꤭ꤗꤢꤧꤔꤢꤪ꤭ꤡꤢꤧ꤬": 6624,
      "ꤥ꤬ꤖꤚꤢꤩ꤭ꤥ꤬ꤘꤢꤦ꤭": 6625,
      "ꤒꤢꤩ꤬ꤡ꤫ꤢꤪ꤬ꤛꤢꤧ꤭": 6626,
      "ꤖꤚꤢꤩ꤬ꤡ꤫ꤢꤧ꤬ꤖꤢꤨ": 6627,
      "ꤗꤢꤩ꤬ꤖꤚꤥꤊꤢꤧ꤭": 6628,
      "ꤊ꤫ꤢꤦ꤬ꤢꤩ꤬ꤊ꤫ꤢꤦ꤬ꤥ꤭": 6629,
      "ꤋꤢꤨ꤭ꤘꤤꤘꤤ꤬ꤗꤢꤨ": 6630,
      "ꤗꤢꤧꤚꤣꤧꤡꤢꤧ꤬ꤚꤣꤧ": 6631,
      "ꤒꤢꤩ꤬ꤞꤢꤨꤞꤤ꤭ꤞꤢꤨꤞꤢ": 6632,
      "ꤠꤤ꤭ꤔꤤ꤬ꤔꤢ꤬ꤠꤢꤩꤖꤢꤨ": 6633,
      "ꤊꤢꤧꤚꤢ꤬ꤎꤢ꤬ꤊ꤫ꤢꤩ꤬": 6634,
      "ꤔꤥ꤬ꤞꤢꤪ꤭ꤔꤥ꤬": 6635,
      "ꤙꤢꤪꤙꤢꤩꤓꤢꤩ꤬": 6636,
      "ꤊꤜꤢꤧ꤬ꤖꤚꤥꤊꤜꤢꤧ꤬ꤖꤚꤢꤧ꤭": 6637,
      "ꤥ꤬ꤗꤣꤧ꤭ꤢꤩ꤭ꤥ꤬": 6638,
      "ꤡꤝꤤ꤬ꤓꤢꤨ꤭ꤟꤢꤧ꤭": 6639,
      "ꤗ꤫ꤢꤪ꤬ꤋꤤꤢꤪꤕꤢ꤬": 6640,
      "ꤠꤤ꤭ꤊꤢ꤬ꤗꤥꤚꤢ꤬": 6641,
      "ꤕꤢꤪꤒꤤ꤬ꤛꤢꤕꤤꤜꤢ": 6642,
      "ꤒꤣꤧ꤬ꤔꤢꤩ꤬ꤞꤢꤦꤙꤢꤪ꤭ꤒꤣꤧ꤬ꤔꤢꤩ꤬ꤞꤢꤦꤙꤛꤢ꤬": 6643,
      "ꤠꤥ꤬ꤔꤤꤊꤢꤩ꤬ꤊ꤫ꤢꤩ꤬": 6644,
      "ꤢ꤬ꤞꤢꤪ꤭ꤢ꤬ꤜꤢꤪ꤬": 6645,
      "ꤠꤢꤧ꤭ꤓꤣꤧ꤭ꤠꤢꤧ꤭ꤊ꤫ꤢꤩ꤬": 6646,
      "ꤢ꤬ꤢꤩ꤬ꤢ꤬ꤥ꤭": 6647,
      "ꤞꤝꤢ꤬ꤒꤤꤚꤢ꤬": 6648,
      "ꤓꤢꤩꤜ꤫ꤤ꤬ꤊꤢꤨ꤭ꤔꤣꤧ꤬": 6649,
      "ꤚꤢ꤬ꤋꤢ": 6650,
      "ꤚꤢ꤬ꤚꤢꤪ꤭ꤚꤢ꤬ꤚꤢꤩ꤬": 6651,
      "ꤢ꤬ꤗꤢꤧꤢ꤬ꤡꤢꤧ꤬": 6652,
      "ꤢ꤬ꤔꤥꤢ꤬ꤊꤢ꤭": 6653,
      "ꤥ꤬ꤞꤢꤧ꤬ꤖꤢꤨ": 6654,
      "ꤢꤪꤖꤤꤗꤢꤨ": 6655,
      "ꤢꤨ꤭ꤗꤢꤦ꤭ꤢꤨ꤭ꤕꤢꤪ꤬": 6656,
      "ꤒꤣꤧ꤬ꤓꤝꤢꤗꤢ꤬": 6657,
      "ꤒꤣꤧ꤬ꤋꤚꤢꤦ꤬ꤞꤢꤩ꤬": 6658,
      "ꤒꤣꤧ꤬ꤙꤛꤢ꤬ꤋꤢꤨ꤬": 6659,
      "ꤒꤢꤩ꤬ꤗꤢꤧꤒꤢꤩ꤬": 6660,
      "ꤟꤢꤩ꤬ꤞꤥ꤭ꤋꤢꤨ꤬": 6661,
      "ꤖꤚꤢꤩ꤬ꤡꤢꤪꤖꤚꤢꤩ꤬ꤒꤢꤩ꤬": 6662,
      "ꤖꤚꤢꤩ꤬ꤥ꤬ꤚꤢ꤬ꤥ꤬ꤞꤢꤧ꤬ꤖꤢꤨ": 6663,
      "ꤤ꤬ꤋꤚꤢꤩꤏꤢꤩ": 6664,
      "ꤗꤢꤩ꤬ꤊ꤫ꤢꤨ꤬ꤗꤢꤩ꤬ꤊꤢꤧ꤭": 6665,
      "ꤗꤢꤩ꤬ꤙꤢꤪ꤭ꤗꤢꤩ꤬ꤙꤛꤢ꤬": 6666,
      "ꤗꤢꤩ꤬ꤛꤢꤪꤗꤢꤩ꤬ꤜꤢꤩ꤭": 6667,
      "ꤊꤣꤧ꤬ꤛꤤ꤬ꤊꤣꤧ꤬ꤛꤥ꤭": 6668,
      "ꤟꤢꤧ꤭ꤓꤥ꤬ꤢꤩ꤬ꤊꤢꤧ꤭": 6669,
      "ꤔꤢꤧ꤬ꤜꤢ꤭ꤔꤢꤧ꤬ꤍ꤫ꤥ꤬": 6670,
      "ꤔꤢꤧ꤬ꤋꤥ꤭ꤔꤢꤧ꤬ꤞꤝꤢ": 6671,
      "ꤜꤢꤪ꤭ꤏꤣꤧꤜꤢꤪ꤭ꤋꤢꤩ꤭": 6672,
      "ꤋꤢꤨ꤭ꤊꤢꤩ꤬ꤖꤢ": 6673,
      "ꤋꤢꤨ꤭ꤒꤢ꤬ꤚꤢꤪꤖꤤꤗꤢꤨ": 6674,
      "ꤊꤢꤩ꤬ꤙꤢꤪ꤭ꤊꤢꤩ꤬ꤙꤛꤢ꤬": 6675,
      "ꤒꤢ꤭ꤊ꤫ꤥ꤬ꤒꤢ꤭ꤠꤢꤩ꤭": 6676,
      "ꤘꤢꤨ꤬ꤗꤝꤤ꤭ꤓꤢꤨ꤭": 6677,
      "ꤔꤤꤔꤢ꤬ꤠꤢꤩ꤬": 6678,
      "ꤔꤤꤡꤢꤨꤕꤢꤩ": 6679,
      "ꤠꤤ꤭ꤕꤢꤩ꤬ꤚꤢ꤬ꤊꤢ꤬": 6680,
      "ꤘꤢꤧ꤬ꤖꤥꤘꤢꤧ꤬ꤏꤣꤧ": 6681,
      "ꤔꤢꤪ꤭ꤜꤢꤪ꤬ꤊꤢꤧ꤭": 6682,
      "ꤔꤢꤪ꤭ꤞꤢꤪ꤭ꤔꤢꤪ꤭ꤜꤢꤪ꤬ꤊꤢꤧ꤭": 6683,
      "ꤖꤢꤩ꤭ꤢ꤬ꤔꤢ꤬ꤔꤤ": 6684,
      "ꤗ꤫ꤥ꤬ꤟꤢ꤬ꤊꤢ꤬": 6685,
      "ꤗꤢꤪ꤬ꤜꤢꤩꤘꤤ꤬ꤛꤣ꤬": 6686,
      "ꤗꤢꤪ꤬ꤘꤢꤪ꤬ꤊꤢ": 6687,
      "ꤗꤢꤪ꤬ꤒꤢ꤬ꤙꤤ꤬ꤞꤢ": 6688,
      "ꤗꤢꤪ꤬ꤚꤢꤪ꤭ꤘꤢꤩ꤬": 6689,
      "ꤟꤤ꤬ꤒ꤫ꤣꤧ꤬ꤊꤜꤢꤪ꤭": 6690,
      "ꤋꤚꤢꤦ꤭ꤢꤩ꤬ꤋꤚꤢꤦ꤭ꤚꤢꤧ꤬": 6691,
      "ꤘꤢꤧꤒꤣꤧ꤬ꤊꤜꤝꤢ꤬": 6692,
      "ꤜꤤ꤭ꤙꤢꤨ꤭ꤟꤣꤧ": 6693,
      "ꤔ꤫ꤤ꤬ꤘꤢ꤭ꤞꤣꤧ꤭ꤔ꤫ꤤ꤬ꤘꤢ꤭ꤥ꤬": 6694,
      "ꤏꤢꤩ꤬ꤒ꤫ꤢꤪ꤬ꤚꤥ꤬": 6695,
      "ꤕ꤫ꤢꤦ꤬ꤊꤜꤢꤪ꤬ꤕ꤫ꤢꤦ꤬ꤗꤢ꤬": 6696,
      "ꤘꤤ꤭ꤓꤥꤔꤢꤩꤊꤥ": 6697,
      "ꤘꤢꤪ꤭ꤙꤢꤧꤞꤢ꤬ꤖꤢ꤬ꤊꤢꤩ꤬": 6698,
      "ꤖꤚꤢꤩ꤬ꤗꤢꤩ꤬ꤚ꤫ꤥ꤬ꤜꤢꤨ꤭ꤒꤢꤩ꤬": 6699,
      "ꤑꤢ꤭ꤕ꤫ꤢꤩ꤬ꤊꤣꤧ꤭ꤕꤢ꤬": 6700,
      "ꤕ꤫ꤢꤨ꤬ꤊꤜꤥꤊꤢꤨ꤭": 6701,
      "ꤋꤢꤦ꤭ꤋꤢꤦ꤭ꤟꤢ꤭ꤟꤢ꤭": 6702,
      "ꤋꤢꤨ꤭ꤊꤢ꤬ꤗꤢꤩ꤬ꤜꤤ꤬ꤛꤣ꤬ꤜꤢ": 6703,
      "ꤢ꤬ꤚꤝ꤫ꤤ꤬ꤢ꤬ꤓꤝꤢ꤬": 6704,
      "ꤋꤢꤨ꤭ꤡꤛꤢꤨꤜꤤ꤬ꤛꤢ꤬ꤎꤣ꤬": 6705,
      "ꤋꤢꤨ꤭ꤢꤪꤔꤤꤎꤢ꤬ꤖꤚꤢꤨ": 6706,
      "ꤋꤢꤨ꤭ꤢꤪꤔꤢꤩ꤬ꤎꤢꤩꤗꤢꤨ": 6707,
      "ꤋꤢꤨ꤭ꤢꤩꤕꤢ꤬ꤖꤚꤢꤪꤘꤤꤒꤢꤨ": 6708,
      "ꤒꤣꤧ꤬ꤕꤢ꤬ꤋꤛꤢꤛꤢꤦ": 6709,
      "ꤟꤢꤩ꤬ꤛꤢ꤬ꤚꤤ꤬ꤛꤢ꤬ꤚꤢꤧꤋꤢꤨ꤬": 6710,
      "(“": 6711,
      "In": 6712,
      "We": 6713,
      "bs": 6714,
      "et": 6715,
      "ite": 6716,
      "net": 6717,
      "rnet": 6718,
      "’”": 6719,
      "ꤊꤢꤦ꤬": 6720,
      "ꤊ꤫ꤢꤪ꤬": 6721,
      "ꤊꤟꤌꤣ": 6722,
      "ꤊꤟꤛꤢ꤭": 6723,
      "ꤊꤢ꤬ꤚꤢꤩ": 6724,
      "ꤋꤢ꤬ꤕ": 6725,
      "ꤍꤟꤌꤣ": 6726,
      "ꤎꤥ": 6727,
      "ꤎꤥ꤬": 6728,
      "ꤎꤢ꤬ꤜꤥ꤬": 6729,
      "ꤎꤢ꤬ꤙꤢ": 6730,
      "ꤏꤢꤨ꤭": 6731,
      "ꤏꤢ꤬ꤜꤢ꤬": 6732,
      "ꤐꤝꤤ꤬": 6733,
      "ꤐꤟꤥ꤬": 6734,
      "ꤐꤟꤢ": 6735,
      "ꤑꤟꤢ": 6736,
      "ꤒ꤫ꤢꤩ꤬": 6737,
      "ꤒꤢ꤬ꤋ": 6738,
      "ꤒꤢ꤬ꤚꤢ": 6739,
      "ꤓꤤ": 6740,
      "ꤓꤢ꤬ꤚꤢꤨ": 6741,
      "ꤔꤣ꤬": 6742,
      "ꤔꤢ꤬ꤋ": 6743,
      "ꤔꤢꤦ꤭": 6744,
      "ꤕꤟꤢꤨ": 6745,
      "ꤕꤢ꤬ꤚꤢ꤬": 6746,
      "ꤖꤤ꤬": 6747,
      "ꤖꤤ꤭": 6748,
      "ꤖꤢꤪꤜꤢꤨ": 6749,
      "ꤖꤥ꤬ꤊꤢꤧ꤭": 6750,
      "ꤗ꤫ꤤ꤬": 6751,
      "ꤗꤣꤧ꤭ꤔꤣꤧ꤬": 6752,
      "ꤗꤥ꤬ꤔ": 6753,
      "ꤗꤟꤢꤨ꤬": 6754,
      "ꤘꤢꤨ꤭": 6755,
      "ꤘꤛꤢꤩ꤬": 6756,
      "ꤘꤢ꤬ꤖꤢꤨ": 6757,
      "ꤘꤛꤢ꤬": 6758,
      "ꤘꤚꤥ꤬": 6759,
      "ꤘꤢꤩꤜꤢ꤬": 6760,
      "ꤘꤢ꤬ꤜꤢ꤬": 6761,
      "ꤘꤌꤣ꤭": 6762,
      "ꤙꤣ꤬": 6763,
      "ꤙꤛꤢ꤭": 6764,
      "ꤙꤛꤢ": 6765,
      "ꤙꤢ꤬ꤜꤥ꤬": 6766,
      "ꤚꤥ": 6767,
      "ꤚꤛꤢ": 6768,
      "ꤚꤛꤥ": 6769,
      "ꤛꤢ꤬ꤜꤥ꤬": 6770,
      "ꤛꤢꤩꤜ": 6771,
      "ꤛꤢꤩꤜꤢ꤬": 6772,
      "ꤜꤟꤢꤨ": 6773,
      "ꤜꤟꤢꤪ": 6774,
      "ꤝꤢꤧ": 6775,
      "ꤝꤢ꤬ꤋꤛꤢ꤭": 6776,
      "ꤞꤣꤧ꤬": 6777,
      "ꤞꤣꤧ꤭ꤔꤣꤧ꤬": 6778,
      "ꤞꤢ꤬ꤜꤤ꤬": 6779,
      "ꤞꤢ꤬ꤙꤢꤨ꤬ꤜꤥ꤬": 6780,
      "ꤞꤌꤣ꤬": 6781,
      "ꤟꤢꤪ꤭": 6782,
      "ꤟꤢ꤬ꤜ": 6783,
      "ꤟꤢ꤬ꤚꤢ꤬": 6784,
      "ꤠꤥ": 6785,
      "ꤠꤢꤨ": 6786,
      "ꤠꤟꤢ꤬": 6787,
      "ꤠꤢ꤬ꤚꤢꤩ": 6788,
      "ꤡꤥ꤬": 6789,
      "ꤡꤟꤢꤨ": 6790,
      "ꤡꤤ꤭": 6791,
      "ꤢꤞꤢ": 6792,
      "ꤤꤟꤢꤨ": 6793,
      "ꤤꤔꤢ꤬": 6794,
      "ꤥꤙꤤꤊꤢꤧ꤭": 6795,
      "ꤥꤥ꤬ꤙꤤ": 6796,
      "ꤢꤩꤢꤩ": 6797,
      "ꤢꤩꤒꤢ꤭": 6798,
      "ꤢꤩꤊꤢꤨ": 6799,
      "ꤢꤩꤒ꤫ꤥ꤬": 6800,
      "ꤢꤩꤖꤥ": 6801,
      "ꤢꤩꤓꤢꤩ꤬ꤊꤢꤧ꤭": 6802,
      "ꤢꤩꤒꤣꤧ꤬ꤊꤤ꤬": 6803,
      "ꤢꤩꤓꤢꤩ꤬ꤡꤝꤢꤊꤢꤧ꤭": 6804,
      "ꤢꤩꤠꤢ": 6805,
      "ꤢꤩꤞꤢ꤬": 6806,
      "ꤢꤩꤖꤥ꤬": 6807,
      "ꤢꤩꤗꤢꤩ": 6808,
      "ꤢꤩꤒꤣꤧ꤬ꤕꤜꤢꤩ꤬ꤞꤢꤩ꤭": 6809,
      "ꤢꤩ꤬ꤞꤤ꤭": 6810,
      "ꤢꤩ꤬ꤖꤢꤧ": 6811,
      "ꤢꤩ꤬ꤗꤢꤧ": 6812,
      "ꤢꤩ꤬ꤒ꤫ꤣ꤬ꤊꤣꤧ꤭": 6813,
      "ꤢꤩ꤬ꤒꤣꤧ꤬ꤜꤝꤢ": 6814,
      "ꤢꤩ꤬ꤔꤥ꤬": 6815,
      "ꤢꤩ꤬ꤜꤢꤩ": 6816,
      "ꤢꤩ꤬ꤒꤣꤧ꤬ꤋꤚꤥ꤭": 6817,
      "ꤢꤩ꤬ꤢꤨ꤭ꤛ꤫ꤢꤧ꤬ꤛꤥ꤬": 6818,
      "ꤢꤩ꤬ꤙꤢꤩ꤬ꤥ꤭": 6819,
      "ꤢꤧꤗꤢ꤬": 6820,
      "ꤢꤧꤋꤥ꤬": 6821,
      "ꤢꤧꤋꤢ": 6822,
      "ꤢꤧꤒꤣꤧ꤬ꤛꤝꤤ": 6823,
      "ꤢ꤬ꤟꤢꤩ": 6824,
      "ꤢ꤬ꤕꤢ꤭": 6825,
      "ꤢ꤬ꤛꤢ": 6826,
      "ꤢ꤬ꤓꤢꤩ꤬": 6827,
      "ꤢ꤬ꤗꤥ꤬": 6828,
      "ꤢ꤬ꤊ꤫ꤢꤩ꤬": 6829,
      "ꤢ꤬ꤡ꤫ꤢꤩ꤬": 6830,
      "ꤢ꤬ꤏꤢ": 6831,
      "ꤢ꤬ꤠ꤫ꤢꤧ꤬": 6832,
      "ꤢ꤬ꤊꤜꤢꤪ꤬": 6833,
      "ꤢ꤬ꤊꤥ꤬": 6834,
      "ꤢ꤬ꤖꤚꤤ꤬": 6835,
      "ꤢ꤬ꤟꤢ꤭": 6836,
      "ꤢ꤬ꤊꤢꤦ꤭": 6837,
      "ꤢ꤬ꤊꤢꤨꤛꤢ꤭ꤊꤢꤨ꤭": 6838,
      "ꤢ꤬ꤕꤢꤪ꤬": 6839,
      "ꤢ꤬ꤊꤜꤢꤩ": 6840,
      "ꤢ꤬ꤖꤣꤧ꤭": 6841,
      "ꤢ꤬ꤒꤢ꤬": 6842,
      "ꤢ꤬ꤞꤤꤖꤚ꤫ꤢꤩ꤬": 6843,
      "ꤢ꤬ꤏꤢꤩ꤬ꤢꤩ꤬ꤏꤢꤩ꤬ꤥ꤭": 6844,
      "ꤢ꤬ꤊꤛꤢ": 6845,
      "ꤢ꤬ꤖꤣꤧ꤭ꤖꤥ꤭": 6846,
      "ꤢ꤬ꤏꤤ꤬": 6847,
      "ꤢ꤬ꤜꤥ꤭ꤋꤢꤨ꤬": 6848,
      "ꤢ꤬ꤗꤤ꤬ꤊꤢꤪ꤭": 6849,
      "ꤢ꤬ꤞꤤ꤭ꤊꤢꤨ꤭": 6850,
      "ꤢ꤬ꤊꤢ": 6851,
      "ꤢ꤬ꤙꤢꤩꤚꤢꤩ꤭": 6852,
      "ꤢ꤬ꤡꤝ꤫ꤢꤩ꤬": 6853,
      "ꤢ꤬ꤗꤝꤢ꤭": 6854,
      "ꤢ꤬ꤠ꤫ꤢꤧ꤬ꤖꤚ꤫ꤢꤩ꤬": 6855,
      "ꤢ꤬ꤊꤜꤥ꤬": 6856,
      "ꤢ꤬ꤡꤛꤣ": 6857,
      "ꤢ꤬ꤖꤝꤤ꤭": 6858,
      "ꤢ꤬ꤓꤢꤩ꤭ꤙꤢ꤬": 6859,
      "ꤢ꤬ꤙꤢꤩ꤭ꤜ꤫ꤢꤪ꤬ꤘꤢꤨ꤬": 6860,
      "ꤢ꤬ꤟꤢꤩ꤬ꤊꤢꤨ꤭": 6861,
      "ꤢ꤬ꤟꤝꤢ": 6862,
      "ꤥ꤬ꤡꤢꤪ": 6863,
      "ꤥ꤬ꤟꤢꤨꤔꤣꤧ꤬": 6864,
      "ꤥ꤬ꤗꤢꤧ": 6865,
      "ꤥ꤬ꤖꤢꤨꤡ꤫ꤢꤩ꤬": 6866,
      "ꤥ꤬ꤋꤛꤢ꤭ꤞꤢꤧ": 6867,
      "ꤥ꤬ꤘꤢ꤭": 6868,
      "ꤥ꤬ꤕꤢꤩ꤭": 6869,
      "ꤥ꤬ꤙꤣꤧꤣꤧ꤭": 6870,
      "ꤥ꤬ꤢ꤬ꤕꤥ꤬": 6871,
      "ꤥ꤬ꤢꤩꤟꤢꤧ꤭": 6872,
      "ꤥ꤬ꤘꤝꤢ": 6873,
      "ꤥ꤬ꤘꤢꤦ꤬ꤑꤢꤩ꤭": 6874,
      "ꤥ꤬ꤒꤣꤧ꤬ꤠꤤ꤭ꤒꤣꤧ꤬ꤠꤢ꤬": 6875,
      "ꤥ꤬ꤋꤥꤜꤢꤨ꤭": 6876,
      "ꤥ꤬ꤘꤌꤣ꤭": 6877,
      "ꤢꤧ꤬ꤔꤥ": 6878,
      "ꤢꤪꤊꤢ꤬": 6879,
      "ꤞꤤꤒꤣ꤬": 6880,
      "ꤞꤤꤓꤥ꤭": 6881,
      "ꤞꤤꤛꤢ꤬": 6882,
      "ꤞꤤꤜꤤ꤬": 6883,
      "ꤞꤤꤥ꤬ꤗꤣꤧ꤭": 6884,
      "ꤞꤤꤊꤣꤧ꤬ꤜꤢꤪ": 6885,
      "ꤔꤣꤧ꤬ꤒ꤫ꤢꤧ꤬": 6886,
      "ꤔꤣꤧ꤬ꤒꤣ꤬ꤖ": 6887,
      "ꤣꤧ꤭ꤕꤢ꤭ꤔꤣꤧ꤬": 6888,
      "ꤣꤧ꤭ꤢ꤬ꤑꤢꤩ꤭ꤔꤣꤧ꤬ꤚꤣꤧ꤬": 6889,
      "ꤣꤧ꤭ꤞꤤꤞꤥ꤭": 6890,
      "ꤣꤧ꤭ꤒꤥ꤬ꤔꤣꤧ꤬": 6891,
      "ꤣꤧ꤭ꤔꤣꤧ꤭ꤙꤢꤩ꤬": 6892,
      "ꤣꤧ꤭ꤞꤤꤜꤝꤤ꤭": 6893,
      "ꤣꤧ꤭ꤜꤝꤤ꤭ꤘꤥ꤭": 6894,
      "ꤣꤧ꤭ꤞꤤꤍꤢꤧ꤭": 6895,
      "ꤣꤧ꤭ꤞꤥ꤭ꤘꤥ꤭": 6896,
      "ꤢꤨ꤭ꤍ꤫ꤥ꤬": 6897,
      "ꤢꤨ꤭ꤊ꤫ꤢꤩ꤬": 6898,
      "ꤢꤨ꤭ꤓꤣꤧ꤭": 6899,
      "ꤢꤨ꤭ꤒꤣꤧ꤬ꤚꤣꤧ꤭": 6900,
      "ꤢꤨ꤭ꤟꤤ꤬": 6901,
      "ꤢꤨ꤭ꤙꤝꤤ": 6902,
      "ꤢꤨ꤭ꤠꤢꤩ꤬": 6903,
      "ꤢꤨ꤭ꤚꤢꤦ꤭": 6904,
      "ꤢꤨ꤭ꤘꤛꤢ": 6905,
      "ꤒꤣꤧ꤬ꤥ꤭": 6906,
      "ꤒꤣꤧ꤬ꤔꤢꤪ꤭": 6907,
      "ꤒꤣꤧ꤬ꤊꤜꤢꤪ": 6908,
      "ꤒꤣꤧ꤬ꤋꤥ꤭": 6909,
      "ꤒꤣꤧ꤬ꤕꤣꤧ꤬": 6910,
      "ꤒꤣꤧ꤬ꤟꤥ": 6911,
      "ꤒꤣꤧ꤬ꤋꤢꤪ꤭": 6912,
      "ꤒꤣꤧ꤬ꤊꤜꤢꤧ꤭ꤗꤢꤩ꤭": 6913,
      "ꤒꤣꤧ꤬ꤗꤢꤩ꤬ꤔꤢꤪ": 6914,
      "ꤢꤩ꤭ꤗꤢ꤬ꤎꤣ꤬": 6915,
      "ꤢꤦ꤬ꤘꤢꤦ꤭": 6916,
      "ꤢꤦ꤬ꤙꤤꤊꤢꤧ꤭": 6917,
      "ꤔꤢꤧꤞꤤ꤭": 6918,
      "ꤔꤢꤧꤔꤥ꤭": 6919,
      "ꤔꤢꤧꤠꤢꤩ꤬": 6920,
      "ꤔꤢꤧꤟꤤ꤬ꤔꤢꤧꤖꤚꤢꤩ": 6921,
      "ꤒꤢꤩ꤬ꤘꤣꤧ": 6922,
      "ꤒꤢꤩ꤬ꤟꤢꤨꤔꤣꤧ꤬": 6923,
      "ꤒꤢꤩ꤬ꤊꤢ꤬": 6924,
      "ꤒꤢꤩ꤬ꤟꤢꤩꤏꤢꤦ꤬": 6925,
      "ꤒꤢꤩ꤬ꤘꤥ꤬": 6926,
      "ꤒꤢꤩ꤬ꤟꤢꤩꤏꤥ꤬ꤜꤥ꤭": 6927,
      "ꤒꤢꤩ꤬ꤗꤢꤧꤕꤢꤨ꤭": 6928,
      "ꤒꤢꤩ꤬ꤛ꤫ꤢꤦ꤬ꤢꤩ꤬ꤔ꤫ꤢꤧ꤬ꤢꤩ꤬": 6929,
      "ꤒꤢꤩ꤬ꤊꤝꤤ꤭ꤞꤤꤛꤢꤪ꤬": 6930,
      "ꤒꤢꤩ꤬ꤞꤤꤑꤢꤩ꤭ꤕꤜꤥ꤭": 6931,
      "ꤒꤢꤩ꤬ꤏꤣꤧꤋꤢꤩ꤭": 6932,
      "ꤒꤢꤩ꤬ꤜꤢꤦ꤬": 6933,
      "ꤒꤢꤩ꤬ꤣꤧ꤭ꤔꤣꤧ꤬ꤒꤣꤧ꤬ꤟꤢꤩ꤬": 6934,
      "ꤒꤢꤩ꤬ꤣꤧ꤭ꤗꤢ꤬": 6935,
      "ꤒꤢꤩ꤬ꤜꤢꤨ꤭ꤓꤢꤧ꤬": 6936,
      "ꤒꤢꤩ꤬ꤛ꤫ꤢꤦ꤬ꤢꤩ꤬ꤚꤣꤧ": 6937,
      "ꤒꤢꤩ꤬ꤢ꤬ꤊꤢꤧ꤭ꤏꤢ": 6938,
      "ꤒꤢꤩ꤬ꤘꤣꤧꤞꤤꤑꤢꤩ꤭": 6939,
      "ꤒꤢꤩ꤬ꤤ꤬ꤏꤢꤪꤓꤢꤧ꤬": 6940,
      "ꤒꤢꤩ꤬ꤚꤢ꤭ꤗꤢ": 6941,
      "ꤒꤢꤩ꤬ꤡꤢꤧ꤬ꤒꤥ꤭ꤙꤢꤩ꤬ꤒꤢꤩ꤬": 6942,
      "ꤒꤢꤩ꤬ꤟꤢꤩꤊꤢꤧ꤭": 6943,
      "ꤒꤢꤩ꤬ꤢꤧꤡꤢꤪꤢꤧꤒꤢꤩ꤬": 6944,
      "ꤒꤢꤩ꤬ꤓꤢꤧ꤭": 6945,
      "ꤒꤢꤩ꤬ꤜꤢꤨ꤬ꤖꤚꤥꤜꤢꤨ꤬ꤖꤚꤢꤧ꤭": 6946,
      "ꤒꤢꤩ꤬ꤡꤢꤨ꤬": 6947,
      "ꤒꤢꤩ꤬ꤚꤢ꤭ꤊꤢꤧ꤭": 6948,
      "ꤒꤢꤩ꤬ꤚꤢ꤭ꤥ꤬ꤔꤢꤩ꤬": 6949,
      "ꤒꤢꤩ꤬ꤘꤤꤡꤢꤩ꤭": 6950,
      "ꤒꤢꤩ꤬ꤘꤢꤨ꤬ꤓꤢꤧ꤬ꤓꤢꤨ꤭ꤓꤢꤧ꤬": 6951,
      "ꤒꤢꤩ꤬ꤙꤢꤩ꤬ꤛꤢꤪ꤬ꤙꤢꤩ꤬ꤞꤤ꤬": 6952,
      "ꤒꤢꤩ꤬ꤋꤢꤪ꤭ꤕ꤫ꤢꤩ꤬": 6953,
      "ꤒꤢꤩ꤬ꤋꤥ꤭ꤗꤢꤩ꤭": 6954,
      "ꤒꤢꤩ꤬ꤤ꤬ꤏꤢꤪ꤭ꤟꤢ꤭": 6955,
      "ꤒꤢꤩ꤬ꤊ꤫ꤢꤦ꤬ꤒꤢꤩ꤬": 6956,
      "ꤖꤚꤥꤗꤢꤩ꤬": 6957,
      "ꤥ꤭ꤓꤢꤧ꤬": 6958,
      "ꤥ꤭ꤕꤢ꤬": 6959,
      "ꤥ꤭ꤔꤥ꤭": 6960,
      "ꤥ꤭ꤒꤣꤧ꤬ꤜꤝꤢ": 6961,
      "ꤞꤤ꤭ꤚꤣꤧ꤬": 6962,
      "ꤞꤤ꤭ꤟꤢꤩ꤬": 6963,
      "ꤞꤤ꤭ꤟꤢꤧ꤭": 6964,
      "ꤞꤤ꤭ꤞꤤꤕꤜꤢꤪ꤬": 6965,
      "ꤞꤤ꤭ꤜ꤫ꤢꤩ꤬": 6966,
      "ꤞꤤ꤭ꤋꤝꤤ": 6967,
      "ꤞꤤ꤭ꤞꤢꤚꤢ": 6968,
      "ꤞꤤ꤭ꤊꤜꤝꤤ꤭": 6969,
      "ꤞꤤ꤭ꤚꤢꤦ꤭": 6970,
      "ꤞꤤ꤭ꤚꤢꤩ꤬": 6971,
      "ꤞꤤ꤭ꤋꤢꤪꤗꤢꤨ꤭": 6972,
      "ꤞꤤ꤭ꤊ꤫ꤢꤨ꤬": 6973,
      "ꤞꤤ꤭ꤒꤣꤧ꤬ꤠꤤ꤭": 6974,
      "ꤞꤤ꤭ꤜꤢꤧ꤭": 6975,
      "ꤞꤤ꤭ꤚꤢꤦ꤭ꤛꤢ꤬": 6976,
      "ꤞꤤ꤭ꤢꤩ꤬ꤞꤤ꤭": 6977,
      "ꤞꤤ꤭ꤔꤢꤧꤞꤤ꤭": 6978,
      "ꤣ꤬ꤖꤢ": 6979,
      "ꤖꤚꤢꤩ꤬ꤟꤢꤩꤙꤢꤩ꤬": 6980,
      "ꤖꤚꤢꤩ꤬ꤟꤢꤩꤏꤥ꤬ꤘꤥ꤬ꤔꤢꤧ꤭": 6981,
      "ꤖꤚꤢꤩ꤬ꤥ꤬ꤔꤢꤧ꤭ꤥ꤬": 6982,
      "ꤖꤚꤢꤩ꤬ꤠ꤫ꤢꤩ꤬": 6983,
      "ꤖꤚꤢꤩ꤬ꤤ꤬ꤏꤢꤪꤓꤢꤧ꤬": 6984,
      "ꤖꤚꤢꤩ꤬ꤊꤢꤩ": 6985,
      "ꤖꤚꤢꤩ꤬ꤡꤢꤧ꤬ꤒꤥ꤭ꤙꤢꤩ꤬": 6986,
      "ꤖꤚꤢꤩ꤬ꤗꤢꤧꤕꤢꤨ꤭ꤞꤤꤑꤢꤩ꤭": 6987,
      "ꤖꤚꤢꤩ꤬ꤊꤢ꤬ꤏꤥ꤭ꤗꤢꤩ꤭": 6988,
      "ꤖꤚꤢꤩ꤬ꤞꤣꤧ꤭ꤡꤤꤊꤛꤢ꤭": 6989,
      "ꤖꤚꤢꤩ꤬ꤤ꤬ꤜ꤫ꤥ꤬ꤒꤢ꤭": 6990,
      "ꤖꤚꤢꤩ꤬ꤍꤢꤧ꤭ꤏꤣꤧ꤭": 6991,
      "ꤖꤚꤢꤩ꤬ꤓꤢꤦꤗꤢꤧ": 6992,
      "ꤖꤚꤢꤩ꤬ꤋꤚꤝꤢ꤭ꤋꤚꤝꤥ꤭": 6993,
      "ꤖꤚꤢꤩ꤬ꤕꤣꤧ꤬ꤜꤢ꤭ꤖꤢꤨ": 6994,
      "ꤖꤚꤢꤩ꤬ꤛꤢꤦ꤬ꤓꤣꤧ꤭": 6995,
      "ꤒꤣꤧ꤬ꤟꤢꤩ꤬ꤚꤣꤧ꤬": 6996,
      "ꤒꤣꤧ꤬ꤟꤢꤩ꤬ꤒꤢꤩ꤭": 6997,
      "ꤒꤣꤧ꤬ꤟꤢꤩ꤬ꤡꤣꤧꤔꤣꤧ꤬": 6998,
      "ꤤ꤬ꤏꤢ": 6999,
      "ꤤ꤬ꤟꤤ": 7000,
      "ꤤ꤬ꤡꤢꤪ꤭": 7001,
      "ꤤ꤬ꤛꤢꤧ": 7002,
      "ꤤ꤬ꤞꤤ꤬": 7003,
      "ꤤ꤬ꤡ꤫ꤥ꤬": 7004,
      "ꤤ꤬ꤞꤛꤥ": 7005,
      "ꤤ꤬ꤞꤣꤧ꤬": 7006,
      "ꤒꤣ꤬ꤔ": 7007,
      "ꤒꤣ꤬ꤙꤢꤧ꤬": 7008,
      "ꤒꤣ꤬ꤕ꤫ꤥ꤬": 7009,
      "ꤒꤣ꤬ꤙꤢꤩ꤬ꤙꤢꤩ꤬": 7010,
      "ꤒꤣ꤬ꤛꤢ꤬": 7011,
      "ꤒꤣ꤬ꤟꤤ꤬": 7012,
      "ꤒꤣ꤬ꤊꤜꤥ꤭": 7013,
      "ꤒꤣ꤬ꤞꤝꤤ꤬": 7014,
      "ꤒꤣ꤬ꤊꤜꤢꤩ": 7015,
      "ꤒꤣ꤬ꤕꤢꤧ꤭": 7016,
      "ꤒꤣ꤬ꤟꤢꤦ꤬": 7017,
      "ꤒꤣ꤬ꤗꤤꤜꤢꤩ꤬": 7018,
      "ꤟꤢꤩꤒꤥ꤬": 7019,
      "ꤟꤢꤩꤓꤢꤧ꤬": 7020,
      "ꤟꤢꤩꤗꤢꤧ": 7021,
      "ꤟꤢꤩꤓꤥ꤭ꤚꤣꤧ꤬": 7022,
      "ꤟꤢꤩꤕꤝꤢ꤭": 7023,
      "ꤟꤢꤩꤊꤢ꤬ꤋꤛꤢ꤭": 7024,
      "ꤟꤢꤩꤟꤢꤨꤔꤣꤧ꤬ꤚꤣꤧ꤬": 7025,
      "ꤟꤢꤩꤜꤤ꤬": 7026,
      "ꤟꤢꤩꤋꤥ": 7027,
      "ꤟꤢꤩꤗꤢꤨꤗ꤫ꤢꤧ꤬ꤚꤤ꤬ꤡ꤫ꤢꤧ꤬": 7028,
      "ꤟꤢꤩꤔꤢꤧ꤭": 7029,
      "ꤟꤢꤩꤟꤢꤧ꤭ꤑꤢꤩ꤭": 7030,
      "ꤟꤢꤩꤊꤜꤢꤪ꤬": 7031,
      "ꤟꤢꤩꤊꤜꤢꤪ꤬ꤗꤢ꤬": 7032,
      "ꤟꤢꤩꤜ꤫ꤢ꤬": 7033,
      "ꤟꤢꤩꤋꤢꤋꤥ꤬": 7034,
      "ꤟꤢꤩꤙꤢꤦ꤬": 7035,
      "ꤟꤢꤩꤥ꤬ꤔꤣꤧ꤬": 7036,
      "ꤟꤢꤩꤡꤝꤢꤚꤣꤧ": 7037,
      "ꤟꤢꤩꤕ꤫ꤢꤩ꤬ꤗꤢꤧ": 7038,
      "ꤟꤢꤩꤔꤢꤪꤊꤣꤧ꤭": 7039,
      "ꤟꤢꤩꤜꤣꤟꤢꤩꤊꤜꤢꤪ꤭": 7040,
      "ꤗꤢꤩ꤬ꤢꤧ꤬": 7041,
      "ꤗꤢꤩ꤬ꤣꤧ꤭": 7042,
      "ꤗꤢꤩ꤬ꤖꤢꤨ": 7043,
      "ꤗꤢꤩ꤬ꤋꤢꤧ꤭": 7044,
      "ꤗꤢꤩ꤬ꤕꤜꤢꤪ": 7045,
      "ꤗꤢꤩ꤬ꤛꤢ": 7046,
      "ꤗꤢꤩ꤬ꤏꤢꤪ꤭": 7047,
      "ꤗꤢꤩ꤬ꤗꤝꤤ꤭": 7048,
      "ꤗꤢꤩ꤬ꤊꤜꤢꤩ꤭": 7049,
      "ꤗꤢꤩ꤬ꤒ꤫ꤣ꤬": 7050,
      "ꤗꤢꤩ꤬ꤔꤢꤧ꤬ꤡꤣꤧ": 7051,
      "ꤗꤢꤩ꤬ꤡꤝ": 7052,
      "ꤗꤢꤩ꤬ꤊꤣꤧ꤬ꤓꤢꤪ꤬": 7053,
      "ꤗꤢꤩ꤬ꤚ꤫ꤣꤧ꤬": 7054,
      "ꤗꤢꤩ꤬ꤕꤜꤥ꤭": 7055,
      "ꤗꤢꤩ꤬ꤡꤢ": 7056,
      "ꤗꤢꤩ꤬ꤗꤥ꤭": 7057,
      "ꤗꤢꤩ꤬ꤞꤢꤨ": 7058,
      "ꤗꤢꤩ꤬ꤙꤢꤨ꤭": 7059,
      "ꤗꤢꤩ꤬ꤒꤣꤧ꤬ꤊꤢꤩ꤬": 7060,
      "ꤗꤢꤩ꤬ꤞꤤꤕꤜꤢꤪ꤬ꤘꤢꤨ꤬": 7061,
      "ꤗꤢꤩ꤬ꤒꤝ꤫ꤢ꤬": 7062,
      "ꤗꤢꤩ꤬ꤒꤣꤧ꤬ꤚꤢꤩ꤭": 7063,
      "ꤗꤢꤩ꤬ꤚ꤫ꤣꤧ꤬ꤜꤣ": 7064,
      "ꤗꤢꤩ꤬ꤛꤢꤧ꤬": 7065,
      "ꤗꤢꤩ꤬ꤖꤚꤣꤧ꤭": 7066,
      "ꤗꤢꤩ꤬ꤙꤢꤦ꤬": 7067,
      "ꤗꤢꤩ꤬ꤋꤚꤥ꤭": 7068,
      "ꤗꤢꤩ꤬ꤢꤩꤜꤣ": 7069,
      "ꤗꤢꤩ꤬ꤓꤥ꤬": 7070,
      "ꤗꤢꤩ꤬ꤊꤣꤧ꤬ꤛꤥ꤭": 7071,
      "ꤗꤢꤩ꤬ꤋꤢꤪ꤭": 7072,
      "ꤗꤢꤩ꤬ꤓꤢꤧ꤭": 7073,
      "ꤗꤢꤩ꤬ꤥ꤬ꤓꤝꤢ꤭ꤓꤢꤧ꤬": 7074,
      "ꤗꤢꤩ꤬ꤋꤥꤜꤢꤨ꤭": 7075,
      "ꤗꤢꤩ꤬ꤡꤢꤨ꤬": 7076,
      "ꤗꤢꤩ꤬ꤓꤢꤩ꤬ꤜꤥ꤭": 7077,
      "ꤗꤢꤩ꤬ꤏꤥ꤭ꤏꤢꤦꤖꤢꤧ": 7078,
      "ꤗꤢꤩ꤬ꤘꤢꤨ꤬ꤓꤢꤧ꤬ꤓꤢꤨ꤭ꤓꤢꤧ꤬": 7079,
      "ꤗꤢꤩ꤬ꤒꤣꤧ꤬ꤖꤢꤨ꤭ꤊꤢꤧ꤭": 7080,
      "ꤗꤢꤩ꤬ꤖꤚꤢꤧ꤭ꤖꤚꤢꤧ꤭": 7081,
      "ꤗꤢꤩ꤬ꤏꤢꤦ꤭ꤟꤢꤩ꤭": 7082,
      "ꤗꤢꤩ꤬ꤜꤣꤧ꤬ꤊ꤫ꤢꤩ꤬": 7083,
      "ꤗꤢꤩ꤬ꤓꤢꤩ꤬ꤔ꤫ꤤ꤬": 7084,
      "ꤗꤢꤩ꤬ꤟꤥ꤬ꤗꤢꤩ꤬ꤞꤝꤢꤩ": 7085,
      "ꤗꤢꤩ꤬ꤥ꤬ꤕ꤫ꤢꤩ꤬": 7086,
      "ꤗꤢꤩ꤬ꤊꤣꤧ꤬ꤛꤤ꤬ꤊꤣꤧ꤬ꤛꤥ꤭": 7087,
      "ꤗꤢꤩ꤬ꤔꤢꤦ꤭": 7088,
      "ꤗꤢꤩ꤬ꤖꤚꤥꤗꤢꤩ꤬": 7089,
      "ꤢꤨ꤬ꤓꤣꤧ꤭": 7090,
      "ꤛꤢꤩ꤬ꤋꤢꤪ": 7091,
      "ꤟꤣꤧꤟꤢꤧ꤭": 7092,
      "ꤠꤢꤧ꤭ꤟꤣꤧ": 7093,
      "ꤠꤢꤧ꤭ꤞꤤꤕꤜꤢꤪ꤬": 7094,
      "ꤠꤢꤧ꤭ꤏꤢꤩ꤭": 7095,
      "ꤠꤢꤧ꤭ꤗꤢꤩ꤭": 7096,
      "ꤠꤢꤧ꤭ꤜꤢꤩ꤭": 7097,
      "ꤠꤢꤧ꤭ꤓꤢꤩ꤭": 7098,
      "ꤠꤢꤧ꤭ꤗꤢꤦ꤭": 7099,
      "ꤠꤢꤧ꤭ꤠꤢꤩ꤬": 7100,
      "ꤠꤢꤧ꤭ꤡꤢ꤬": 7101,
      "ꤠꤢꤧ꤭ꤏꤝꤤ": 7102,
      "ꤠꤢꤧ꤭ꤏꤢꤨ꤬": 7103,
      "ꤠꤢꤧ꤭ꤗꤤ꤭ꤡꤣ꤬": 7104,
      "ꤠꤢꤧ꤭ꤕꤢꤪ꤬": 7105,
      "ꤠꤢꤧ꤭ꤔ꤫ꤥ꤬": 7106,
      "ꤠꤢꤧ꤭ꤟꤢꤪꤊꤢꤨ꤭": 7107,
      "ꤜꤢꤪꤜꤤ꤭ꤖꤥ": 7108,
      "ꤗꤢ꤬ꤟꤣꤧ": 7109,
      "ꤗꤢ꤬ꤊꤢꤨ": 7110,
      "ꤗꤢ꤬ꤗ꤫ꤢ꤬ꤟꤣꤧ": 7111,
      "ꤗꤢ꤬ꤔꤢ꤬": 7112,
      "ꤗꤢ꤬ꤘꤢ꤬": 7113,
      "ꤢ꤬ꤋꤣꤧ꤭": 7114,
      "ꤢ꤬ꤋꤤ꤬": 7115,
      "ꤢ꤬ꤋꤚꤢ꤭": 7116,
      "ꤢ꤬ꤋꤝꤢ꤬ꤋꤛꤢ꤭": 7117,
      "ꤡꤢꤪꤔꤢꤧ": 7118,
      "ꤊꤣꤧ꤬ꤢꤧ": 7119,
      "ꤊꤣꤧ꤬ꤜꤢꤪ꤭": 7120,
      "ꤊꤣꤧ꤬ꤜꤥ꤭": 7121,
      "ꤊꤣꤧ꤬ꤞꤢꤩ": 7122,
      "ꤊꤣꤧ꤬ꤛꤢꤪ꤬": 7123,
      "ꤊꤣꤧ꤬ꤒꤢꤧ꤬": 7124,
      "ꤊꤣꤧ꤬ꤔꤢꤨ": 7125,
      "ꤊꤣꤧ꤬ꤛ꤫ꤢꤪ꤬": 7126,
      "ꤊꤣꤧ꤬ꤒꤢꤪ꤬": 7127,
      "ꤊꤣꤧ꤬ꤔꤢꤪ꤭ꤘꤢꤨ꤬": 7128,
      "ꤟꤢꤨꤗꤢꤩ꤬ꤔꤢꤧ": 7129,
      "ꤊ꤫ꤢꤦ꤬ꤗꤢ꤬": 7130,
      "ꤊ꤫ꤢꤦ꤬ꤒꤥ꤭": 7131,
      "ꤊ꤫ꤢꤦ꤬ꤡꤢ꤭": 7132,
      "ꤊ꤫ꤢꤦ꤬ꤡꤢꤦ꤬": 7133,
      "ꤊ꤫ꤢꤦ꤬ꤕ꤫ꤢꤦ꤬": 7134,
      "ꤊ꤫ꤢꤦ꤬ꤊꤜꤢꤪ꤬": 7135,
      "ꤊ꤫ꤢꤦ꤬ꤡꤢꤪ꤭": 7136,
      "ꤊ꤫ꤢꤦ꤬ꤕ꤫ꤢꤧ꤬": 7137,
      "ꤊ꤫ꤢꤦ꤬ꤗꤢꤩ꤬ꤋꤢ": 7138,
      "ꤒꤥ꤬ꤗꤢ꤬": 7139,
      "ꤒꤥ꤬ꤋꤢꤩ꤭": 7140,
      "ꤒꤥ꤬ꤚꤢꤩ꤭": 7141,
      "ꤒꤥ꤬ꤚꤣꤧ꤬ꤗꤢ꤬": 7142,
      "ꤙꤢꤩ꤬ꤟꤢꤩ": 7143,
      "ꤙꤢꤩ꤬ꤔ꤫ꤤ꤬": 7144,
      "ꤙꤢꤩ꤬ꤋꤚꤝꤢ꤭": 7145,
      "ꤙꤢꤩ꤬ꤗꤢꤩ꤬ꤞꤣꤧ꤭": 7146,
      "ꤙꤢꤩ꤬ꤒꤢꤧ꤬": 7147,
      "ꤙꤢꤩ꤬ꤋꤢꤧꤞꤤꤕꤜꤢꤪ꤬ꤓꤢꤨ꤭": 7148,
      "ꤙꤢꤩ꤬ꤠꤤ": 7149,
      "ꤙꤢꤩ꤬ꤖꤛꤢꤘꤝꤢ": 7150,
      "ꤛꤢꤩ꤬ꤞꤤ꤭ꤣꤧ꤭": 7151,
      "ꤛꤢꤩ꤬ꤞꤤ꤭ꤒꤢꤩ꤬": 7152,
      "ꤛꤢꤩ꤬ꤞꤤ꤭ꤞꤤ꤭": 7153,
      "ꤛꤢꤧ꤭ꤛꤢꤧ꤭": 7154,
      "ꤊꤣꤧ꤬ꤛꤢꤧ꤭ꤔꤣꤧ꤬": 7155,
      "ꤊꤣꤧ꤬ꤛꤢꤧ꤭ꤣꤧ꤭": 7156,
      "ꤊꤣꤧ꤬ꤛꤢꤧ꤭ꤏꤢꤪ꤭": 7157,
      "ꤊꤣꤧ꤬ꤛꤢꤧ꤭ꤏꤝꤢ꤬": 7158,
      "ꤊꤣꤧ꤬ꤛꤢꤧ꤭ꤕꤥ꤬": 7159,
      "ꤊꤣꤧ꤬ꤛꤢꤧ꤭ꤜꤣꤧ꤬ꤟꤥ꤭": 7160,
      "ꤊꤣꤧ꤬ꤛꤢꤧ꤭ꤘꤢ": 7161,
      "ꤊꤣꤧ꤬ꤛꤢꤧ꤭ꤕꤢꤩ": 7162,
      "꤫ꤥ꤬ꤟꤢ꤭": 7163,
      "ꤜꤢꤨ꤭ꤖꤢꤨ": 7164,
      "ꤜꤢꤨ꤭ꤓꤣꤧ꤭": 7165,
      "ꤜꤢꤨ꤭ꤊꤢꤨ꤬ꤊꤜꤢꤪ": 7166,
      "ꤜꤢꤨ꤭ꤛ꤫ꤢꤧ꤬ꤛꤥ꤬": 7167,
      "ꤜꤢꤨ꤭ꤖꤢ": 7168,
      "ꤜꤢꤨ꤭ꤒꤢ꤭ꤒꤢꤩ꤬": 7169,
      "ꤜꤢꤨ꤭ꤊ꤫ꤢꤩ꤬ꤊꤢꤨ꤭": 7170,
      "ꤜꤢꤨ꤭ꤏꤢꤨ꤬": 7171,
      "ꤜꤢꤨ꤭ꤜꤢꤨ꤬ꤜꤢꤩ": 7172,
      "ꤜꤢꤨ꤭ꤟꤤ꤬ꤊꤢꤨ꤭": 7173,
      "ꤢꤪ꤬ꤔꤣꤧ꤬": 7174,
      "ꤖꤢꤨꤋꤢꤨ꤭": 7175,
      "ꤖꤢꤨꤘꤤ": 7176,
      "ꤖꤢꤨꤠꤢꤩ꤬": 7177,
      "ꤖꤢꤨꤔꤌꤣ꤬": 7178,
      "ꤚꤢꤧ꤬ꤕ꤫ꤢꤩ꤬": 7179,
      "ꤗꤣꤧ꤬ꤟꤢꤧ꤭": 7180,
      "ꤡꤢꤪꤗꤣꤧ꤬ꤚꤢꤧ꤬ꤘꤢꤨ꤬": 7181,
      "ꤕꤢꤩ꤬ꤔꤣꤧ꤬": 7182,
      "ꤕꤢꤩ꤬ꤖꤢꤨ": 7183,
      "ꤕꤢꤩ꤬ꤋꤢꤨ꤬": 7184,
      "ꤕꤢꤩ꤬ꤊꤢ꤬": 7185,
      "ꤕꤢꤩ꤬ꤋꤝꤤ": 7186,
      "ꤕꤢꤩ꤬ꤊꤜꤝꤤ꤭": 7187,
      "ꤕꤢꤩ꤬ꤖꤢꤧ꤭": 7188,
      "ꤕꤢꤩ꤬ꤜ꤫ꤢꤩ꤬ꤊꤜꤥ꤭": 7189,
      "ꤕꤢꤩ꤬ꤜꤢꤧ꤭": 7190,
      "ꤕꤢꤩ꤬ꤙꤢꤩꤑꤢꤩ꤭": 7191,
      "ꤊꤢꤧ꤭ꤗꤣꤧ꤭": 7192,
      "ꤊꤢꤧ꤭ꤏꤢꤩ꤬": 7193,
      "ꤊꤢꤧ꤭ꤓꤢꤦ꤭": 7194,
      "ꤊꤢꤧ꤭ꤜꤢꤪ꤭ꤟꤣꤧ": 7195,
      "ꤛꤢ꤭ꤚꤣ꤬": 7196,
      "ꤟꤢꤧ꤭ꤣꤧ꤭": 7197,
      "ꤟꤢꤧ꤭ꤊꤢꤩ꤬": 7198,
      "ꤟꤢꤧ꤭ꤓꤝꤢ꤭": 7199,
      "ꤟꤢꤧ꤭ꤏꤢꤪ꤭": 7200,
      "ꤟꤢꤧ꤭ꤒ꤫ꤣ꤬": 7201,
      "ꤟꤢꤧ꤭ꤏꤢꤦ꤬": 7202,
      "ꤟꤢꤧ꤭ꤔꤢꤪ": 7203,
      "ꤟꤢꤧ꤭ꤞꤢꤨ꤭": 7204,
      "ꤟꤢꤧ꤭ꤥ꤬ꤕ꤫ꤢꤪ꤬": 7205,
      "ꤟꤢꤧ꤭ꤔꤥ꤬": 7206,
      "ꤟꤢꤧ꤭ꤟꤥ꤬": 7207,
      "ꤟꤢꤧ꤭ꤢꤩꤜꤥ꤬": 7208,
      "ꤟꤢꤧ꤭ꤖꤚꤢꤧ꤭": 7209,
      "ꤟꤢꤧ꤭ꤘꤢꤧ꤬ꤓꤢꤧ꤬": 7210,
      "ꤟꤢꤧ꤭ꤗꤢꤧꤡꤢꤧ꤬": 7211,
      "ꤟꤢꤧ꤭ꤋꤢꤧꤞꤣꤧ꤭": 7212,
      "ꤟꤢꤧ꤭ꤘꤣꤧꤒꤢ꤭ꤊꤢꤧ꤭": 7213,
      "ꤟꤢꤧ꤭ꤠꤣꤒꤢ꤭": 7214,
      "ꤟꤢꤧ꤭ꤏꤝꤢ꤬ꤏꤝꤢ꤬": 7215,
      "ꤟꤢꤧ꤭ꤤ꤬ꤏꤢꤪꤥ꤬": 7216,
      "ꤟꤢꤧ꤭ꤒ꤫ꤣ꤬ꤟꤣꤧ": 7217,
      "ꤟꤢꤧ꤭ꤤꤓꤢ꤬ꤊꤢ꤬": 7218,
      "ꤟꤢꤧ꤭ꤕꤣꤟꤣꤧ": 7219,
      "ꤔꤢꤧ꤬ꤟꤣꤧ": 7220,
      "ꤔꤢꤧ꤬ꤖꤢꤨ": 7221,
      "ꤔꤢꤧ꤬ꤙꤢꤧ꤬ꤡꤢꤩ꤬": 7222,
      "ꤔꤢꤧ꤬ꤋꤛꤢ꤭": 7223,
      "ꤔꤢꤧ꤬ꤏꤢꤩ꤭": 7224,
      "ꤔꤢꤧ꤬ꤕꤣꤧꤞꤢꤩ꤬ꤑꤢꤩ꤭": 7225,
      "ꤔꤢꤧ꤬ꤟꤤ꤬ꤊꤢꤨ꤭": 7226,
      "ꤔꤢꤧ꤬ꤏꤢꤨ꤬ꤥ꤬": 7227,
      "ꤔꤢꤧ꤬ꤋꤛꤢ꤭ꤟꤣꤧ": 7228,
      "ꤕꤢ꤭ꤟꤣꤧ": 7229,
      "ꤕꤢ꤭ꤊꤢꤧ꤭": 7230,
      "ꤕꤢ꤭ꤖꤢꤧ": 7231,
      "ꤜꤢꤪ꤭ꤓꤥ꤭ꤟꤣꤧ": 7232,
      "ꤜꤢꤪ꤭ꤒꤣꤧ꤬ꤕꤜꤢꤩ꤬": 7233,
      "ꤓꤢꤧ꤬ꤣꤧ꤭": 7234,
      "ꤓꤢꤧ꤬ꤔ꤫ꤤ꤬": 7235,
      "ꤓꤢꤧ꤬ꤏꤝꤢ꤬": 7236,
      "ꤓꤢꤧ꤬ꤜꤢꤪ꤭ꤕꤜꤤ꤭": 7237,
      "ꤓꤢꤧ꤬ꤥ꤬ꤔꤢꤧ꤭ꤥ꤬": 7238,
      "ꤓꤢꤧ꤬ꤖꤚꤢꤦ": 7239,
      "ꤜꤢ꤭ꤍ꤫ꤥ꤬": 7240,
      "ꤑꤢꤩ꤭ꤟꤣꤧ": 7241,
      "ꤡꤝꤢꤢꤩ": 7242,
      "ꤡꤝꤢꤓꤥ꤭": 7243,
      "ꤡꤝꤢꤛꤢ꤬": 7244,
      "ꤡꤝꤢꤔ꤫ꤤ꤬ꤙꤢꤩ꤬": 7245,
      "ꤡꤝꤢꤘꤥ꤬ꤔꤢꤧ꤭": 7246,
      "ꤡꤝꤢꤋꤚꤝꤢ꤭": 7247,
      "ꤡꤝꤢꤒ꤫ꤣ꤬ꤊꤣꤧ꤭": 7248,
      "ꤡꤝꤢꤟꤢꤩꤏꤥ꤬ꤘꤥ꤬ꤔꤢꤧ꤭": 7249,
      "ꤡꤝꤢꤟꤢꤩꤏꤥ꤬ꤜꤥ꤭": 7250,
      "ꤡꤝꤢꤞꤢꤨ꤭": 7251,
      "ꤡꤝꤢꤒꤣꤧ꤬ꤖꤢ꤭": 7252,
      "ꤡꤝꤢꤖꤢꤦ꤬": 7253,
      "ꤡꤝꤢꤥ꤬ꤕ꤫ꤢꤪ꤬": 7254,
      "ꤡꤝꤢꤜꤢ꤭ꤒꤢꤩ꤬": 7255,
      "ꤡꤝꤢꤗꤢꤩ꤬ꤞꤢꤦ": 7256,
      "ꤡꤝꤢꤜꤢꤦ꤬": 7257,
      "ꤡꤝꤢꤢꤩꤟꤢꤧ꤭": 7258,
      "ꤡꤝꤢꤊꤣꤧ꤬ꤓꤢꤪ꤬ꤥ꤬": 7259,
      "ꤡꤝꤢꤕꤢꤪ꤬": 7260,
      "ꤡꤝꤢꤚ꤫ꤥ꤬ꤜꤢꤨ꤭": 7261,
      "ꤡꤝꤢꤕꤢ꤭ꤒꤢꤦ꤭": 7262,
      "ꤡꤝꤢꤢꤩꤕꤜꤢꤪ": 7263,
      "ꤡꤝꤢꤕ꤫ꤢꤦ꤬ꤖꤢꤩ꤬ꤛꤢꤩꤕꤜꤢꤩ": 7264,
      "ꤡꤝꤢꤙꤢ꤬ꤢꤩ꤬": 7265,
      "ꤡꤝꤢꤏꤢꤕ꤫ꤢꤩ꤬": 7266,
      "ꤡꤝꤢꤢꤩ꤬ꤒꤢꤦ꤭ꤥ꤭ꤒꤢꤦ꤭": 7267,
      "ꤝꤢ꤭ꤔꤢ꤬": 7268,
      "ꤊꤜꤢꤩ꤬": 7269,
      "ꤊꤜꤥ꤬ꤊꤢꤧ꤭": 7270,
      "ꤋꤢꤨ꤭ꤕꤢ꤬": 7271,
      "ꤋꤢꤨ꤭ꤋꤚꤤ": 7272,
      "ꤋꤢꤨ꤭ꤏꤛ": 7273,
      "ꤋꤢꤨ꤭ꤟꤢ꤬": 7274,
      "ꤋꤢꤨ꤭ꤚꤢ꤬": 7275,
      "ꤋꤢꤨ꤭ꤞꤢ": 7276,
      "ꤋꤢꤨ꤭ꤊꤜꤢꤪ꤭": 7277,
      "ꤋꤢꤨ꤭ꤊꤥ": 7278,
      "ꤋꤢꤨ꤭ꤖꤢꤩ꤬": 7279,
      "ꤋꤢꤨ꤭ꤢꤩꤜ": 7280,
      "ꤋꤢꤨ꤭ꤊꤥ꤬": 7281,
      "ꤋꤢꤨ꤭ꤢꤩꤜꤢ꤬": 7282,
      "ꤋꤢꤨ꤭ꤗꤢꤧ꤬": 7283,
      "ꤋꤢꤨ꤭ꤞꤢ꤬": 7284,
      "ꤋꤢꤨ꤭ꤊꤢꤩ": 7285,
      "ꤋꤢꤨ꤭ꤢ꤬ꤚꤣ꤬": 7286,
      "ꤋꤢꤨ꤭ꤞꤣ꤬ꤋꤢ꤬ꤚꤣ꤬ꤛꤢ꤬": 7287,
      "ꤋꤢꤨ꤭ꤢ꤬ꤚꤢ꤬": 7288,
      "ꤋꤢꤨ꤭ꤔꤥꤢ꤬": 7289,
      "ꤋꤢꤨ꤭ꤗꤢꤩ": 7290,
      "ꤋꤢꤨ꤭ꤚꤢꤨ꤬": 7291,
      "ꤋꤢꤨ꤭ꤏꤛꤢ꤬ꤗꤢꤨ꤬ꤢꤩꤜꤢ꤬": 7292,
      "ꤋꤢꤨ꤭ꤔꤢ꤬ꤋ": 7293,
      "ꤋꤢꤨ꤭ꤟꤢꤩꤜꤤ꤬": 7294,
      "ꤋꤢꤨ꤭ꤛꤢꤩ꤬ꤋꤢꤪ": 7295,
      "ꤋꤢꤨ꤭ꤢ꤬ꤋꤤ꤬": 7296,
      "ꤋꤢꤨ꤭ꤟꤢꤨꤗꤢꤩ꤬ꤔꤢꤧ": 7297,
      "ꤋꤢꤨ꤭ꤊꤜꤢꤩ꤬": 7298,
      "ꤊꤣꤧ꤭ꤜꤢꤨ꤭": 7299,
      "ꤊꤣꤧ꤭ꤜꤢ꤭": 7300,
      "ꤊꤣꤧ꤭ꤊꤣꤧ꤭": 7301,
      "ꤊꤣꤧ꤭ꤜꤢꤩ꤭": 7302,
      "ꤊꤣꤧ꤭ꤔꤥ꤬": 7303,
      "ꤡꤣꤧꤢꤨ꤭": 7304,
      "ꤡꤣꤧꤘꤣ": 7305,
      "ꤡꤣꤧꤕꤢ꤭": 7306,
      "ꤡꤣꤧꤊꤢꤪ꤭": 7307,
      "ꤕ꤫ꤢꤩ꤬ꤜꤢ꤭": 7308,
      "ꤕ꤫ꤢꤩ꤬ꤒꤢꤦ": 7309,
      "ꤕ꤫ꤢꤩ꤬ꤔꤢꤪ": 7310,
      "ꤕ꤫ꤢꤩ꤬ꤔꤢꤧ꤭": 7311,
      "ꤕ꤫ꤢꤩ꤬ꤜꤢ꤭ꤒꤢꤩ꤬": 7312,
      "ꤕ꤫ꤢꤩ꤬ꤕꤢ꤬ꤒꤥ꤬": 7313,
      "ꤓꤥ꤭ꤔꤢꤧ": 7314,
      "ꤓꤥ꤭ꤟꤢꤨꤔꤣꤧ꤬ꤚꤣꤧ꤬": 7315,
      "ꤓꤥ꤭ꤜꤢꤪ꤭ꤕꤜꤤ꤭": 7316,
      "ꤓꤥ꤭ꤜꤢ꤭ꤟꤤꤒꤥ꤬": 7317,
      "ꤓꤥ꤭ꤒꤣꤧ꤬ꤚꤤ": 7318,
      "ꤙꤣꤧꤜꤢꤨ꤭": 7319,
      "ꤙꤣꤧꤕꤝꤢꤩ꤬": 7320,
      "ꤚꤣꤧꤟꤣꤧ": 7321,
      "ꤚꤣꤧꤒꤢꤦꤘꤢꤦ꤬": 7322,
      "ꤚꤣꤧꤜꤢꤪ꤭ꤘꤢꤦ꤬": 7323,
      "ꤋꤚꤤ꤬": 7324,
      "ꤋꤚ꤫ꤢ꤬": 7325,
      "ꤋꤚ꤫ꤥ꤬ꤟꤢ꤭": 7326,
      "ꤖꤢꤧꤙꤣꤧ": 7327,
      "ꤖꤢꤧꤊꤢꤪ꤭": 7328,
      "ꤖꤢꤧꤠꤢ": 7329,
      "ꤖꤢꤧꤕꤜꤢꤦ꤭": 7330,
      "ꤕꤜꤢꤦ꤬ꤙꤤꤊꤢꤧ꤭": 7331,
      "ꤊꤢꤨ꤭ꤣꤧ꤭": 7332,
      "ꤘꤣꤧꤥ꤬": 7333,
      "ꤘꤣꤧꤜꤣ": 7334,
      "ꤘꤣꤧꤘꤢꤧ": 7335,
      "ꤘꤣꤧꤜ꤫ꤥ꤬": 7336,
      "ꤘꤣꤧꤗꤢ": 7337,
      "ꤘꤣꤧꤖꤢꤩ꤬": 7338,
      "ꤘꤣꤧꤕ꤫ꤢꤩ꤬ꤊꤣꤧ꤭": 7339,
      "ꤘꤣꤧꤥ꤬ꤔꤢꤧ꤭ꤥ꤬": 7340,
      "ꤘꤣꤧꤕꤜꤢꤨ꤬": 7341,
      "ꤘꤣꤧꤗꤢꤧꤓ꤫ꤣꤧ꤬ꤜꤝꤢ": 7342,
      "ꤘꤣꤧꤤ꤬ꤔꤢꤨ": 7343,
      "ꤘꤣꤧꤗ꤫ꤥ꤬ꤘꤢꤪ꤭ꤓꤢꤧ꤬": 7344,
      "ꤞꤢꤧꤢꤩ꤬": 7345,
      "ꤞꤢꤧꤑꤢꤩ꤭": 7346,
      "ꤞꤢꤧꤘꤢꤦ꤬": 7347,
      "ꤞꤢꤧꤙꤤ": 7348,
      "ꤞꤢꤧꤐꤟ": 7349,
      "ꤔ꤫ꤤ꤬ꤢꤩ": 7350,
      "ꤔ꤫ꤤ꤬ꤕꤢ꤬": 7351,
      "ꤔ꤫ꤤ꤬ꤒ꤫ꤢꤧ꤬": 7352,
      "ꤔ꤫ꤤ꤬ꤞꤝꤢ": 7353,
      "ꤔ꤫ꤤ꤬ꤓꤥ꤭ꤟꤣꤧ": 7354,
      "ꤔ꤫ꤤ꤬ꤋꤥ꤭": 7355,
      "ꤔ꤫ꤤ꤬ꤙꤢ꤭": 7356,
      "ꤟꤢꤨꤔꤣꤧ꤬ꤟꤢꤩꤚꤣꤧ꤬": 7357,
      "ꤟꤢꤨꤔꤣꤧ꤬ꤔꤣꤧ꤬ꤟꤣꤧ": 7358,
      "ꤗꤢꤧꤊꤣꤧ꤭": 7359,
      "ꤗꤢꤧꤒꤢ꤭ꤒꤢꤩ꤬": 7360,
      "ꤗꤢꤧꤜꤢ꤭ꤒꤢꤩ꤬": 7361,
      "ꤗꤢꤧꤚ꤫ꤣꤧ꤬ꤜꤣ": 7362,
      "ꤗꤢꤧꤙꤢꤦ꤬": 7363,
      "ꤗꤢꤧꤥ꤬ꤒ꤫ꤢꤧ꤬": 7364,
      "ꤗꤢꤧꤓꤢꤩ꤬ꤙꤢꤩ": 7365,
      "ꤗꤢꤧꤊꤣꤧ꤬ꤜꤢꤪ꤭": 7366,
      "ꤢ꤬ꤋꤛꤢ꤭ꤟꤣꤧ": 7367,
      "ꤣꤧ꤭ꤔꤣꤧ꤬ꤔꤣꤧ꤬": 7368,
      "ꤣꤧ꤭ꤔꤣꤧ꤬ꤒꤣ꤬ꤡꤣ꤬": 7369,
      "ꤣꤧ꤭ꤔꤣꤧ꤬ꤒꤣ꤬ꤗꤢꤨ꤬": 7370,
      "ꤢꤦ꤭ꤕꤛꤢ": 7371,
      "ꤢꤦ꤭ꤊ꤫ꤢꤨ꤬": 7372,
      "ꤢꤦ꤭ꤞꤣꤧ꤭ꤊꤢꤧ꤭": 7373,
      "ꤗ꤫ꤢ꤬ꤔꤢꤧ꤭": 7374,
      "ꤗ꤫ꤢ꤬ꤕꤢ꤬ꤖꤢꤧ": 7375,
      "ꤗ꤫ꤢ꤬ꤔꤢꤧ꤭ꤟꤣꤧ": 7376,
      "ꤢ꤬ꤚꤢꤩ꤭": 7377,
      "ꤞꤣꤧ꤭ꤒꤥ꤬": 7378,
      "ꤞꤣꤧ꤭ꤕ꤫ꤢꤩ꤬": 7379,
      "ꤞꤣꤧ꤭ꤒ꤫ꤥ꤬": 7380,
      "ꤞꤣꤧ꤭ꤊꤣꤧ꤬ꤓꤢꤪ꤬": 7381,
      "ꤞꤣꤧ꤭ꤜꤢ꤭ꤟꤤꤒꤥ꤬": 7382,
      "ꤞꤣꤧ꤭ꤡꤣꤧꤟꤣꤧ": 7383,
      "ꤞꤣꤧ꤭ꤘꤝꤢ꤭": 7384,
      "ꤞꤣꤧ꤭ꤓꤥ꤭ꤕꤢ꤭": 7385,
      "ꤞꤣꤧ꤭ꤓꤥ꤭ꤔꤣꤧ꤬": 7386,
      "ꤞꤣꤧ꤭ꤡꤣꤧꤔꤣꤧ꤬": 7387,
      "ꤊꤢꤩ꤬ꤕꤢ꤭": 7388,
      "ꤊꤢꤩ꤬ꤏꤢ": 7389,
      "ꤊꤢꤩ꤬ꤏꤢꤪ": 7390,
      "ꤊꤢꤩ꤬ꤞꤢ꤬": 7391,
      "ꤊꤢꤩ꤬ꤜꤣꤧ꤬ꤟꤥ꤭ꤜꤣꤧ꤬ꤟꤢꤧ꤬": 7392,
      "ꤊꤢꤩ꤬ꤊꤛꤢ": 7393,
      "ꤊꤢꤩ꤬ꤒꤣꤧ꤬ꤍꤢ꤭": 7394,
      "ꤊꤢꤩ꤬ꤗ꤫ꤢ꤬ꤒꤥ꤬ꤗꤢ꤬": 7395,
      "ꤊꤢꤩ꤬ꤊꤢ꤬ꤚꤢꤩ": 7396,
      "ꤜꤥ꤭ꤜꤢꤪ꤭": 7397,
      "ꤜꤥ꤭ꤜꤤ꤭": 7398,
      "ꤡꤢꤩ꤬ꤎꤢ꤬": 7399,
      "ꤕꤜꤢꤪꤚꤣꤧ": 7400,
      "ꤕꤜꤢꤪꤙꤢꤩꤗꤢꤨ꤬": 7401,
      "ꤕꤜꤢꤪꤗꤟꤢꤨ꤬": 7402,
      "ꤒꤢ꤭ꤥ꤬": 7403,
      "ꤒꤢ꤭ꤛꤢꤧ꤭": 7404,
      "ꤒꤢ꤭ꤕ꤫ꤢꤩ꤬": 7405,
      "ꤒꤢ꤭ꤕꤜꤢꤪ": 7406,
      "ꤒꤢ꤭ꤜꤢꤧ꤬": 7407,
      "ꤒꤢ꤭ꤒꤢ꤭ꤒꤢꤩ꤬": 7408,
      "ꤒꤢ꤭ꤋꤚꤢ꤭": 7409,
      "ꤒꤢ꤭ꤖꤥ꤬": 7410,
      "ꤒꤢ꤭ꤞꤤꤑꤢꤩ꤭ꤒꤢꤩ꤬": 7411,
      "ꤒꤢ꤭ꤖꤥ꤬ꤊꤢꤧ꤭": 7412,
      "ꤙꤢꤧ꤬ꤙꤢꤧ꤬": 7413,
      "ꤢ꤬ꤋꤢꤩ꤭ꤕꤢ꤭": 7414,
      "ꤘꤢꤨ꤬ꤟꤤ꤬": 7415,
      "ꤘꤢꤨ꤬ꤒꤢ꤭ꤞꤤꤑꤢꤩ꤭ꤒꤢꤩ꤬": 7416,
      "ꤔꤤꤛꤢ꤬": 7417,
      "ꤒꤢꤩ꤬ꤞꤢꤪ꤭": 7418,
      "ꤚꤣꤧꤘꤢꤦ꤬ꤕꤢ꤬": 7419,
      "ꤚꤣꤧꤘꤢꤦ꤬ꤗꤣꤧ꤭": 7420,
      "ꤔ꤫ꤢꤩ꤬ꤒꤣ꤬ꤖꤚꤢꤩ꤬": 7421,
      "ꤔ꤫ꤢꤩ꤬ꤓꤢꤧ꤬": 7422,
      "ꤔ꤫ꤢꤩ꤬ꤏꤢꤩ꤭": 7423,
      "ꤕꤜꤢꤪ꤬ꤘꤢꤨ꤬": 7424,
      "ꤔꤣꤧ꤬ꤒꤣꤧ꤬ꤟꤢꤩ꤬ꤡꤣꤧ": 7425,
      "ꤔꤣꤧ꤬ꤒꤣꤧ꤬ꤟꤢꤩ꤬ꤜꤢꤩ": 7426,
      "ꤢ꤬ꤖꤢꤨꤖꤢꤨ": 7427,
      "ꤢ꤬ꤖꤢꤨꤥ꤬ꤚꤣꤧ": 7428,
      "ꤒꤥ꤭ꤔꤢꤧ": 7429,
      "ꤒꤥ꤭ꤗꤢꤩ꤬": 7430,
      "ꤒꤥ꤭ꤜꤢꤪ꤭": 7431,
      "ꤒꤥ꤭ꤊꤣꤧ꤭": 7432,
      "ꤒꤥ꤭ꤙꤣꤧ": 7433,
      "ꤒꤥ꤭ꤘꤣꤧ": 7434,
      "ꤒꤥ꤭ꤜꤣ": 7435,
      "ꤒꤥ꤭ꤜꤢꤩ꤭": 7436,
      "ꤒꤥ꤭ꤙꤣꤧꤒꤢꤩ꤭": 7437,
      "ꤓꤝꤢ꤭ꤊꤢꤧ꤭": 7438,
      "ꤓꤝꤢ꤭ꤕ꤫ꤢꤩ꤬": 7439,
      "ꤓꤝꤢ꤭ꤖꤢꤧ": 7440,
      "ꤓꤝꤢ꤭ꤡ꤫ꤢꤦ꤬": 7441,
      "ꤞꤤꤑꤢꤩ꤭ꤜꤥ꤭": 7442,
      "ꤞꤤꤑꤢꤩ꤭ꤜꤢ꤭ꤟꤤ": 7443,
      "ꤞꤤꤑꤢꤩ꤭ꤙꤛꤢ꤬": 7444,
      "ꤒꤣꤧ꤬ꤚꤢꤩꤙꤥ꤭": 7445,
      "ꤞꤤꤕꤜꤢꤪ꤬ꤟꤢ꤭": 7446,
      "ꤞꤤꤕꤜꤢꤪ꤬ꤕꤛꤢꤊꤢꤧ꤭": 7447,
      "ꤞꤤꤕꤜꤢꤪ꤬ꤡ꤫ꤢꤩ꤬ꤡꤢꤦ꤭": 7448,
      "ꤞꤤꤕꤜꤢꤪ꤬ꤋꤢꤦ꤭": 7449,
      "ꤞꤤꤕꤜꤢꤪ꤬ꤋꤢꤦ꤭ꤟꤢ꤭": 7450,
      "ꤞꤤꤕꤜꤢꤪ꤬ꤒꤣꤧ꤬ꤊꤢ꤬": 7451,
      "ꤥ꤬ꤔꤛꤢ꤭": 7452,
      "ꤠꤤ꤭ꤕꤢ꤬": 7453,
      "ꤠꤤ꤭ꤏꤣꤧ": 7454,
      "ꤠꤤ꤭ꤋꤢꤪ": 7455,
      "ꤠꤤ꤭ꤓꤢꤩ꤬ꤊꤢꤧ꤭": 7456,
      "ꤠꤤ꤭ꤏꤛꤢ": 7457,
      "ꤠꤤ꤭ꤊꤣꤧ꤬ꤚꤢꤩꤊꤢꤨ꤭": 7458,
      "ꤠꤤ꤭ꤖꤢ꤬": 7459,
      "ꤠꤤ꤭ꤠꤥ꤬": 7460,
      "ꤠꤤ꤭ꤟꤢ꤬ꤚꤢ꤬": 7461,
      "ꤠꤤ꤭ꤊꤢꤩ꤬ꤊꤢ꤬ꤚꤢꤩ": 7462,
      "ꤘꤢꤧ꤬ꤥ": 7463,
      "ꤘꤢꤧ꤬ꤞꤢꤧ": 7464,
      "ꤘꤢꤧ꤬ꤔ꤫ꤤ꤬": 7465,
      "ꤘꤢꤧ꤬ꤟꤢ꤭": 7466,
      "ꤘꤢꤧ꤬ꤋꤢꤦ꤭": 7467,
      "ꤘꤢꤧ꤬ꤥꤘꤢꤧ꤬": 7468,
      "ꤘꤢꤧ꤬ꤥꤘꤢꤧ꤬ꤙꤤ": 7469,
      "ꤘꤢꤧ꤬ꤥ꤬ꤚ꤫ꤢꤧ꤬ꤊꤢꤧ꤭": 7470,
      "ꤕꤢ꤬ꤜꤢꤨ꤭": 7471,
      "ꤕꤢ꤬ꤘꤢ꤬": 7472,
      "ꤕꤢ꤬ꤡꤟ": 7473,
      "ꤕꤢ꤬ꤡꤟꤢꤧ": 7474,
      "ꤜꤢꤧ꤬ꤓꤥ꤬": 7475,
      "ꤗꤢꤩ꤬ꤒꤢꤩ꤭ꤟꤢꤩꤔꤣꤧ꤬": 7476,
      "ꤍ꤫ꤥ꤬ꤔꤣꤧ꤬": 7477,
      "ꤍ꤫ꤥ꤬ꤘꤥ꤬ꤔꤢꤧ꤭": 7478,
      "ꤍ꤫ꤥ꤬ꤕꤜ꤫ꤢꤧ꤬": 7479,
      "ꤛꤢꤊ꤫ꤢꤩ꤬": 7480,
      "ꤔꤢꤪ꤭ꤥ꤭": 7481,
      "ꤔꤢꤪ꤭ꤘꤣꤧ": 7482,
      "ꤔꤢꤪ꤭ꤘꤢꤧ꤬": 7483,
      "ꤔꤢꤪ꤭ꤥ꤬ꤔꤢꤧ꤭": 7484,
      "ꤔꤢꤪ꤭ꤖꤛꤢ": 7485,
      "ꤔꤢꤪ꤭ꤒꤣꤧ꤬ꤔꤢꤩ꤬": 7486,
      "ꤔꤢꤪ꤭ꤊꤝꤤ꤭": 7487,
      "ꤔꤢꤪ꤭ꤤ꤬ꤞꤝꤢ": 7488,
      "ꤔꤢꤪ꤭ꤊꤣꤧ꤬ꤓꤢꤪ꤬": 7489,
      "ꤔꤢꤪ꤭ꤘꤣꤧꤟꤣꤧ꤭": 7490,
      "ꤔꤢꤪ꤭ꤘꤣꤧꤜꤥ꤭": 7491,
      "ꤔꤢꤪ꤭ꤊꤝꤤ꤭ꤡꤢꤪꤙꤢꤩ꤭": 7492,
      "ꤔꤢꤪ꤭ꤥ꤬ꤕ꤫ꤢꤪ꤬": 7493,
      "ꤔꤢꤪ꤭ꤗꤢꤩ꤬ꤜꤣꤧ꤬ꤕꤜꤢꤩꤊꤢ꤬": 7494,
      "ꤔꤢꤪ꤭ꤓꤢꤨ꤬ꤞꤢꤩꤓꤢꤧ꤬": 7495,
      "ꤔꤢꤪ꤭ꤏꤝꤤ": 7496,
      "ꤔꤢꤪ꤭ꤓꤢꤩ꤬ꤊꤢꤧ꤭": 7497,
      "ꤔꤢꤪ꤭ꤊ꤫ꤢꤨ꤬": 7498,
      "ꤔꤢꤪ꤭ꤛ꤫ꤢꤧ꤬ꤥ꤬ꤗ꤫ꤢꤩ꤬": 7499,
      "ꤔꤢꤪ꤭ꤡꤢꤪꤙꤢꤩ꤭ꤓꤢꤧ꤬": 7500,
      "ꤔꤢꤪ꤭ꤘꤢꤧ꤬ꤓꤢꤧ꤬": 7501,
      "ꤔꤢꤪ꤭ꤜꤥ": 7502,
      "ꤔꤢꤪ꤭ꤘꤢꤨ꤬ꤓꤢꤧ꤬": 7503,
      "ꤔꤢꤪ꤭ꤙꤢꤧꤜꤢꤧ꤬": 7504,
      "ꤔꤢꤪ꤭ꤥ꤬ꤓꤢꤧ꤬": 7505,
      "ꤔꤢꤪ꤭ꤠꤤ": 7506,
      "ꤔꤢꤪ꤭ꤓꤝꤢ꤭ꤓꤢꤧ꤬ꤟꤣꤧ": 7507,
      "ꤔꤢꤪ꤭ꤟꤢꤩꤖꤚꤥ꤬": 7508,
      "ꤔꤢꤪ꤭ꤢꤩꤜꤢ꤬ꤜꤣꤧ꤬ꤟꤥ꤭": 7509,
      "ꤔꤢꤪ꤭ꤒꤥ꤬ꤙꤢꤩ꤬": 7510,
      "ꤔꤢꤪ꤭ꤕꤜ꤫ꤢꤧ꤬": 7511,
      "ꤔꤢꤪ꤭ꤒꤣꤧ꤬ꤊꤢꤩ꤬ꤙꤤ": 7512,
      "ꤔꤢꤪ꤭ꤛ꤫ꤤ꤬": 7513,
      "ꤔꤢꤪ꤭ꤥ꤬ꤓꤝꤢ꤭ꤓꤢꤧ꤬": 7514,
      "ꤔꤢꤪ꤭ꤥ꤬ꤞꤥ꤬": 7515,
      "ꤔꤢꤪ꤭ꤖꤛꤢꤡꤝꤢꤔ꤫ꤤ꤬": 7516,
      "ꤔꤢꤪ꤭ꤜꤢꤦ꤬ꤋꤚꤝꤢ꤭ꤗꤢꤩ꤬": 7517,
      "ꤔꤢꤪ꤭ꤕꤢ꤭ꤒꤢꤦ꤭ꤊꤢꤧ꤭": 7518,
      "ꤔꤢꤪ꤭ꤢꤩꤔꤥ꤭": 7519,
      "ꤔꤢꤪ꤭ꤥ꤬ꤔꤢꤧ꤭ꤒꤢ꤭": 7520,
      "ꤔꤢꤪ꤭ꤓꤢꤧ꤬ꤘꤢꤧ": 7521,
      "ꤔꤢꤪ꤭ꤞꤥ꤬ꤞꤥ꤬": 7522,
      "ꤔꤢꤪ꤭ꤘꤢꤪꤒꤢ꤭ꤊꤢꤧ꤭": 7523,
      "ꤔꤢꤪ꤭ꤡꤝꤤꤥ꤭": 7524,
      "ꤔꤢꤪ꤭ꤖꤢꤩꤓꤢꤧ꤬ꤘꤢꤨ꤬ꤓꤢꤧ꤬": 7525,
      "ꤊꤢꤨꤜꤢ꤭": 7526,
      "ꤊꤢꤨꤏꤢꤦ꤬": 7527,
      "ꤊꤢꤨꤗ꤫ꤤ꤬": 7528,
      "ꤜꤣꤧ꤬ꤊꤜꤢꤪ꤭": 7529,
      "ꤜꤣꤧ꤬ꤒꤢꤧ꤬": 7530,
      "ꤜꤣꤧ꤬ꤒꤢ꤭ꤊꤢꤧ꤭": 7531,
      "ꤜꤣꤧ꤬ꤡꤢꤦ": 7532,
      "ꤡ꤫ꤢꤧ꤬ꤒꤢꤩ꤬": 7533,
      "ꤡ꤫ꤢꤧ꤬ꤟꤣꤧ": 7534,
      "ꤡ꤫ꤢꤧ꤬ꤡ꤫ꤢꤧ꤬": 7535,
      "ꤡ꤫ꤢꤧ꤬ꤜꤣ": 7536,
      "ꤡ꤫ꤢꤧ꤬ꤜꤤ꤬": 7537,
      "ꤡ꤫ꤢꤧ꤬ꤘꤢꤧ": 7538,
      "ꤋꤚꤤꤎꤢ꤬": 7539,
      "ꤓꤢꤩ꤬ꤟꤣꤧ": 7540,
      "ꤓꤢꤩ꤬ꤒꤥ꤭": 7541,
      "ꤓꤢꤩ꤬ꤡ꤫ꤢꤧ꤬": 7542,
      "ꤓꤢꤩ꤬ꤓꤢꤩ꤬": 7543,
      "ꤓꤢꤩ꤬ꤙꤤ": 7544,
      "ꤓꤢꤩ꤬ꤞꤤꤓꤢꤩ꤬": 7545,
      "ꤓꤢꤩ꤬ꤞꤤꤟꤢ꤭": 7546,
      "ꤖꤢꤩ꤭ꤣꤧ꤭": 7547,
      "ꤖꤢꤩ꤭ꤊꤢꤨ꤭": 7548,
      "ꤖꤢꤩ꤭ꤍ꤫ꤥ꤬": 7549,
      "ꤖꤢꤩ꤭ꤏꤛꤤꤗꤥ꤬": 7550,
      "ꤖꤢꤩ꤭ꤖꤤꤜꤤ꤬ꤕꤢꤨ꤬": 7551,
      "ꤔꤣꤧ꤭ꤜꤢꤩ꤭": 7552,
      "ꤔꤣꤧ꤭ꤙꤥ꤭": 7553,
      "ꤔꤣꤧ꤭ꤞꤢꤪ": 7554,
      "ꤔꤣꤧ꤭ꤜꤝꤤ꤭ꤞꤝꤢ": 7555,
      "ꤔꤣꤧ꤭ꤕꤢꤦ꤬": 7556,
      "ꤔꤣꤧ꤭ꤗꤤꤜꤢꤩ꤬": 7557,
      "ꤗꤢꤧꤓ꤫ꤣꤧ꤬ꤟꤢꤧ꤭": 7558,
      "ꤗꤢꤧꤓ꤫ꤣꤧ꤬ꤓꤥ꤭": 7559,
      "ꤗꤢꤧꤓ꤫ꤣꤧ꤬ꤕꤢ꤬": 7560,
      "ꤗꤢꤧꤓ꤫ꤣꤧ꤬ꤕ꤫ꤥ꤬": 7561,
      "ꤗꤢꤧꤓ꤫ꤣꤧ꤬ꤙꤢꤩ": 7562,
      "ꤗꤢꤧꤓ꤫ꤣꤧ꤬ꤜꤢ꤭ꤒꤢꤩ꤬": 7563,
      "ꤗꤢꤧꤓ꤫ꤣꤧ꤬ꤔꤥ꤬": 7564,
      "ꤗꤢꤧꤓ꤫ꤣꤧ꤬ꤡ꤫ꤢꤧ꤬ꤒꤥ꤬": 7565,
      "ꤗꤢꤧꤓ꤫ꤣꤧ꤬ꤜꤥ꤭ꤚꤢꤧ": 7566,
      "ꤊꤢ꤬ꤥ꤭": 7567,
      "ꤊꤢ꤬ꤟꤢꤩ": 7568,
      "ꤊꤢ꤬ꤟꤣꤧ": 7569,
      "ꤊꤢ꤬ꤕꤜꤢꤪ": 7570,
      "ꤊꤢ꤬ꤟꤢꤩꤏꤥ꤬ꤜꤥ꤭": 7571,
      "ꤊꤢ꤬ꤥ꤬ꤕꤜꤢꤪ": 7572,
      "ꤊꤢ꤬ꤥ꤬ꤊꤣꤧ꤭": 7573,
      "ꤊꤢ꤬ꤙꤢꤨ꤬": 7574,
      "ꤊꤢ꤬ꤙꤚꤤ꤬": 7575,
      "ꤊꤢ꤬ꤕꤢ꤬ꤘꤢ꤬": 7576,
      "ꤜꤣꤔꤢꤧ": 7577,
      "ꤜꤣꤖꤛꤢꤡꤝꤢ": 7578,
      "ꤛ꤫ꤢꤦ꤬ꤢꤩ꤬ꤒꤢꤩ꤬": 7579,
      "ꤛ꤫ꤢꤦ꤬ꤢꤩ꤬ꤟꤢꤧ꤭": 7580,
      "ꤗꤥ꤬ꤒꤣꤧ꤬ꤘꤢꤦ꤬": 7581,
      "ꤗꤥ꤬ꤎꤣ꤬": 7582,
      "ꤒ꤫ꤥ꤬ꤙꤢꤩ": 7583,
      "ꤒ꤫ꤥ꤬ꤊꤣꤧ꤭ꤢꤨ꤭": 7584,
      "ꤒ꤫ꤥ꤬ꤕ꤫ꤢꤩ꤬ꤊꤣꤧ꤭": 7585,
      "ꤒ꤫ꤥ꤬ꤊꤢꤨꤔ꤫ꤢꤧ꤬ꤚꤣꤧ꤬": 7586,
      "ꤒ꤫ꤥ꤬ꤓꤢꤧ꤬ꤟꤣꤧ": 7587,
      "ꤣꤧ꤭ꤒꤣꤧ꤬ꤟꤢꤩ꤬ꤟꤢꤩ꤬": 7588,
      "ꤣꤧ꤭ꤒꤣꤧ꤬ꤟꤢꤩ꤬ꤗꤢ꤬": 7589,
      "ꤜ꤫ꤢꤩ꤬ꤊꤢꤧ꤭": 7590,
      "ꤜ꤫ꤢꤩ꤬ꤒꤢꤩ꤭": 7591,
      "ꤜ꤫ꤢꤩ꤬ꤡꤢꤩ꤬": 7592,
      "ꤜ꤫ꤢꤩ꤬ꤊꤢ꤬": 7593,
      "ꤜ꤫ꤢꤩ꤬ꤛ꤫ꤢꤦ꤬ꤢꤩ꤬": 7594,
      "ꤜ꤫ꤢꤩ꤬ꤔꤥ꤭": 7595,
      "ꤜ꤫ꤢꤩ꤬ꤤ꤬ꤞꤝꤢ": 7596,
      "ꤜ꤫ꤢꤩ꤬ꤘꤣꤧꤡꤢ꤭": 7597,
      "ꤜ꤫ꤢꤩ꤬ꤕꤜꤝꤢ꤭": 7598,
      "ꤜ꤫ꤢꤩ꤬ꤓꤢꤨ꤬ꤞꤢꤩ": 7599,
      "ꤜ꤫ꤢꤩ꤬ꤘꤢꤪ": 7600,
      "ꤜ꤫ꤢꤩ꤬ꤞꤤꤒꤣꤧ꤬ꤚꤢꤩ꤭": 7601,
      "ꤜ꤫ꤢꤩ꤬ꤞꤢꤨꤕꤜꤤ꤭": 7602,
      "ꤜ꤫ꤢꤩ꤬ꤞꤤꤓꤢꤩ꤬ꤞꤤꤟꤢ꤭": 7603,
      "ꤜ꤫ꤢꤩ꤬ꤊꤢꤩꤙꤥ": 7604,
      "ꤜ꤫ꤢꤩ꤬ꤛ꤫ꤢꤦ꤬ꤢꤩ꤬ꤜꤢꤧ꤬": 7605,
      "ꤜ꤫ꤢꤩ꤬ꤒꤣꤧ꤬ꤘꤢꤧ꤭": 7606,
      "ꤜ꤫ꤢꤩ꤬ꤗꤣꤧ꤭ꤔꤣꤧ꤬": 7607,
      "ꤜ꤫ꤢꤩ꤬ꤊꤢꤩ꤬ꤜꤣꤧ꤬ꤟꤥ꤭ꤜꤣꤧ꤬ꤟꤢꤧ꤬": 7608,
      "ꤊ꤫ꤢꤩ꤬ꤔꤣꤧ꤬": 7609,
      "ꤊ꤫ꤢꤩ꤬ꤙꤣꤧꤔꤣꤧ꤬": 7610,
      "ꤊ꤫ꤢꤩ꤬ꤗ꤫ꤥ꤬": 7611,
      "ꤊ꤫ꤢꤩ꤬ꤡꤢꤦ꤭": 7612,
      "ꤊ꤫ꤢꤩ꤬ꤊꤛꤢ": 7613,
      "ꤊ꤫ꤢꤩ꤬ꤘꤝꤢ꤭": 7614,
      "ꤊ꤫ꤢꤩ꤬ꤕꤝꤢ꤭ꤒꤣ꤬ꤊ꤫ꤢꤩ꤬": 7615,
      "ꤞꤣꤧ꤭ꤖꤚꤢꤩ꤬ꤊꤢ꤬": 7616,
      "ꤓꤣꤧ꤭ꤥ꤬": 7617,
      "ꤓꤣꤧ꤭ꤣꤧ꤭ꤔꤣꤧ꤬": 7618,
      "ꤓꤣꤧ꤭ꤜ꤫ꤢꤪ꤬": 7619,
      "ꤓꤣꤧ꤭ꤒꤣꤧ꤬ꤡ꤫ꤢꤨ꤬": 7620,
      "ꤓꤣꤧ꤭ꤊꤣꤧ": 7621,
      "ꤓꤣꤧ꤭ꤜꤢꤧ꤭ꤗ꤫ꤥ꤬": 7622,
      "ꤓꤣꤧ꤭ꤋꤢꤩ꤬": 7623,
      "ꤒꤣꤧ꤬ꤔꤥ꤭": 7624,
      "ꤣꤧ꤭ꤒꤣ꤬ꤖꤚꤢꤩ꤬ꤣꤧ꤭": 7625,
      "ꤣꤧ꤭ꤒꤣ꤬ꤖꤚꤢꤩ꤬ꤜꤢꤩ": 7626,
      "ꤢ꤬ꤑꤢꤩ꤭ꤗꤢ꤬": 7627,
      "ꤢ꤬ꤑꤢꤩ꤭ꤙꤢꤩ꤬ꤙꤢꤩ꤬": 7628,
      "ꤢ꤬ꤊꤢꤨ꤭ꤡꤣꤧ": 7629,
      "ꤒꤣ꤬ꤖꤟꤌꤣ": 7630,
      "ꤞꤤꤛ꤫ꤢꤦ꤬ꤊꤝꤤ꤭": 7631,
      "ꤞꤤꤛ꤫ꤢꤦ꤬ꤕ꤫ꤢꤦ꤬": 7632,
      "ꤒꤣ꤬ꤡꤣ꤬ꤟꤣꤧ": 7633,
      "ꤛ꤫ꤢꤧ꤬ꤊꤤ꤬": 7634,
      "ꤥ꤬ꤔꤢꤧ꤭ꤥ꤬ꤊꤢꤧ꤭": 7635,
      "ꤕꤝꤢ꤭ꤒꤣ꤬ꤖꤚꤢꤩ꤬": 7636,
      "ꤕꤝꤢ꤭ꤖꤥꤖꤥ": 7637,
      "ꤕꤝꤢ꤭ꤒꤣ꤬ꤗꤤ꤭": 7638,
      "ꤟꤢꤩꤏꤥ꤬ꤡꤢꤪ": 7639,
      "ꤟꤢꤩꤏꤥ꤬ꤚꤣꤧ": 7640,
      "ꤟꤢꤩꤏꤥ꤬ꤓꤢꤩ꤬": 7641,
      "ꤟꤢꤩꤏꤥ꤬ꤜꤥ꤭ꤔ": 7642,
      "ꤟꤢꤩꤏꤥ꤬ꤞꤤꤑꤢꤩ꤭ꤕꤜꤥ꤭": 7643,
      "ꤞꤢꤩ꤬ꤚꤢꤧ": 7644,
      "ꤋꤢꤩ꤭ꤒꤢ꤭": 7645,
      "ꤛꤢ꤬ꤡꤢꤩ꤭": 7646,
      "ꤛꤢ꤬ꤔꤢ": 7647,
      "ꤛꤢ꤬ꤊꤤ꤬": 7648,
      "ꤓꤥ꤭ꤟꤣꤧꤔꤣꤧ꤬ꤟꤣꤧ": 7649,
      "ꤔꤥ꤭ꤥ꤭": 7650,
      "ꤔꤥ꤭ꤟꤣꤧ": 7651,
      "ꤔꤥ꤭ꤜꤢꤪ꤭": 7652,
      "ꤔꤥ꤭ꤗꤢꤧ": 7653,
      "ꤔꤥ꤭ꤒꤥ꤭": 7654,
      "ꤔꤥ꤭ꤘꤢꤧ꤬": 7655,
      "ꤔꤥ꤭ꤓꤢꤨ꤬": 7656,
      "ꤔꤥ꤭ꤒ꤫ꤣ꤬ꤊꤣꤧ꤭": 7657,
      "ꤔꤥ꤭ꤗꤢꤧꤕꤢꤨ꤭": 7658,
      "ꤔꤥ꤭ꤖꤛꤢꤔ꤫ꤤ꤬": 7659,
      "ꤟꤢꤩꤙꤢꤩ꤬ꤊꤢꤧ꤭": 7660,
      "ꤟꤢꤩꤙꤢꤩ꤬ꤕꤢ꤬": 7661,
      "ꤟꤢꤩꤙꤢꤩ꤬ꤍ꤫ꤥ꤬": 7662,
      "ꤟꤢꤩꤙꤢꤩ꤬ꤚꤢꤧ": 7663,
      "ꤟꤢꤩꤙꤢꤩ꤬ꤕꤢ꤬ꤖꤢꤧ": 7664,
      "ꤟꤢꤩꤙꤢꤩ꤬ꤞꤝꤢꤩ": 7665,
      "ꤟꤢꤩꤙꤢꤩ꤬ꤋꤢꤦ꤭ꤟꤢ꤭": 7666,
      "ꤏꤢꤙꤢꤩ꤬": 7667,
      "ꤏꤢꤓꤥ꤭ꤟꤣꤧ": 7668,
      "ꤏꤢꤕ꤫ꤢꤩ꤬ꤊꤢꤧ꤭": 7669,
      "ꤗ꤫ꤢꤪ꤬ꤒꤢ꤭ꤟꤣꤧ": 7670,
      "ꤗ꤫ꤢꤪ꤬ꤕꤜꤢꤧ꤭": 7671,
      "ꤗ꤫ꤢꤪ꤬ꤊꤣꤧ꤬ꤒꤢꤪ꤬": 7672,
      "ꤡꤢ꤭ꤒꤣꤧ꤬ꤜꤝꤢꤏꤢꤦꤜꤢꤦ꤭": 7673,
      "ꤛꤥ꤬ꤓꤢꤩ꤬": 7674,
      "ꤒꤢꤩ꤬ꤗꤢꤩ꤬ꤞꤣꤧ꤭": 7675,
      "ꤒꤢꤩ꤬ꤗꤢꤩ꤬ꤒꤥ꤭": 7676,
      "ꤒꤢꤩ꤬ꤗꤢꤩ꤬ꤜꤤ꤭": 7677,
      "ꤒꤢꤩ꤬ꤗꤢꤩ꤬ꤕꤝꤢꤩ꤬": 7678,
      "ꤒꤢꤩ꤬ꤗꤢꤩ꤬ꤟꤥ꤬ꤗꤢꤩ꤬ꤞꤝꤢꤩ": 7679,
      "ꤢ꤬ꤔ꤫ꤢꤩ꤬ꤣꤧ꤭": 7680,
      "ꤢ꤬ꤔ꤫ꤢꤩ꤬ꤟꤣꤧ": 7681,
      "ꤋꤥ꤭ꤗꤥ꤬": 7682,
      "ꤋꤥ꤭ꤞꤤꤖꤚ꤫ꤢꤩ꤬": 7683,
      "ꤖꤛꤢꤔꤥ꤭": 7684,
      "ꤖꤛꤢꤗꤢꤩ꤭": 7685,
      "ꤖꤛꤢꤟꤢꤧ꤭ꤔꤥ꤭": 7686,
      "ꤖꤛꤢꤔꤥ꤭ꤔ꤫ꤤ꤬": 7687,
      "ꤖꤛꤢꤓꤢꤩ꤬ꤜꤥ꤭": 7688,
      "ꤖꤛꤢꤓꤥ꤭ꤓꤥ꤭": 7689,
      "ꤙꤢꤩ꤭ꤒꤢ꤭": 7690,
      "ꤙꤢꤩ꤭ꤖꤛꤢ": 7691,
      "ꤋꤢꤧꤕꤜꤢꤦ꤬ꤙꤤꤊꤢꤧ꤭": 7692,
      "ꤖꤚꤢꤩ꤬ꤋꤢꤨ꤭ꤋꤢꤨ꤭": 7693,
      "ꤊꤢ꤬ꤋꤛꤢ꤭ꤊꤣꤧ꤭": 7694,
      "ꤙꤣꤧꤔꤣꤧ꤬ꤔꤣꤧ꤬": 7695,
      "ꤙꤣꤧꤔꤣꤧ꤬ꤚꤣꤧ꤬": 7696,
      "ꤙꤣꤧꤔꤣꤧ꤬ꤢ꤬ꤋꤢꤩ꤭ꤔꤣꤧ꤬": 7697,
      "ꤙꤣꤧꤔꤣꤧ꤬ꤒꤣ꤬ꤔꤣꤧ꤭ꤔꤣꤧ꤬": 7698,
      "ꤙꤢꤩꤒꤥ꤬": 7699,
      "ꤙꤢꤩꤕꤢ꤬": 7700,
      "ꤙꤢꤩꤔꤢꤧ꤭": 7701,
      "ꤙꤢꤩꤕꤜꤢꤪꤙꤢꤩꤗꤢꤨ꤬": 7702,
      "ꤗ꤫ꤥ꤬ꤡꤛꤥ꤬": 7703,
      "ꤗ꤫ꤥ꤬ꤚꤢ꤬ꤋꤢ": 7704,
      "ꤗ꤫ꤥ꤬ꤢꤩꤠꤢ": 7705,
      "ꤚꤢꤧꤟꤢꤧ꤭": 7706,
      "ꤚꤢꤧꤜꤢꤪ꤭": 7707,
      "ꤚꤢꤧꤊꤣꤧ꤭": 7708,
      "ꤚꤢꤧꤋꤛꤢ꤭": 7709,
      "ꤗꤢꤪ꤬ꤎꤢꤨ꤬": 7710,
      "ꤗꤢꤪ꤬ꤏꤛꤢꤩ꤬": 7711,
      "ꤗꤢꤪ꤬ꤎꤢ꤬ꤜꤥ꤬": 7712,
      "ꤗꤢꤪ꤬ꤓꤢ꤬ꤚꤢꤨ": 7713,
      "ꤟꤤ꤬ꤋꤢꤨ꤬": 7714,
      "ꤟꤤ꤬ꤓꤢꤧ꤬ꤜꤥ꤭": 7715,
      "ꤟꤤ꤬ꤜꤢ": 7716,
      "ꤟꤤ꤬ꤊꤢꤧ꤭ꤏꤢ": 7717,
      "ꤟꤤ꤬ꤘꤢꤨ꤬ꤟꤤ꤬": 7718,
      "ꤓꤝꤢ꤭ꤓꤢꤧ꤬ꤔꤢꤪ": 7719,
      "ꤓꤝꤢ꤭ꤓꤢꤧ꤬ꤔꤢꤧ꤭": 7720,
      "ꤒꤣꤧ꤬ꤔꤢꤩ꤬ꤊꤢꤧ꤭": 7721,
      "ꤒꤣꤧ꤬ꤔꤢꤩ꤬ꤖꤢꤧ": 7722,
      "ꤒꤣꤧ꤬ꤔꤢꤩ꤬ꤗꤥ꤬": 7723,
      "ꤒꤣꤧ꤬ꤔꤢꤩ꤬ꤘꤢꤨ꤬ꤜꤣ": 7724,
      "ꤜꤤ꤬ꤒꤣꤧ꤬ꤟꤢꤩ꤬": 7725,
      "ꤜꤤ꤬ꤕꤣꤧ꤬": 7726,
      "ꤜꤤ꤬ꤚꤢ꤭ꤗꤢ": 7727,
      "ꤜꤤ꤬ꤤ꤬ꤚꤥ꤭": 7728,
      "ꤜꤤ꤬ꤚꤢ꤭ꤗꤢꤚꤢ꤭ꤒꤢꤩ꤭": 7729,
      "ꤜꤤ꤬ꤊꤢꤨ꤭ꤔꤣꤧ꤬": 7730,
      "ꤜꤤ꤬ꤘꤢꤧ꤬ꤒꤢꤩ꤬ꤞꤢꤦ": 7731,
      "ꤜꤤ꤬ꤜꤢꤪꤞꤢꤪ꤭": 7732,
      "ꤗꤢꤩ꤭ꤞꤤ꤭": 7733,
      "ꤗꤢꤩ꤭ꤔꤢꤧꤠꤢꤩ꤬": 7734,
      "ꤟꤢꤩ꤬ꤋꤢꤨ꤬ꤜꤣꤧ꤬": 7735,
      "ꤟꤢꤩ꤬ꤋꤢꤨ꤬ꤓꤝꤢ꤭ꤜꤢꤨ": 7736,
      "ꤊꤝꤤ꤭ꤔꤣꤧ꤬": 7737,
      "ꤊꤝꤤ꤭ꤏꤝꤢ꤬": 7738,
      "ꤛ꤫ꤢꤧ꤬ꤛꤥ꤬ꤛ꤫ꤢꤧ꤬ꤊꤤ꤬": 7739,
      "ꤔ꤫ꤤ꤬ꤙꤢꤩ꤬ꤔꤢꤪ": 7740,
      "ꤘꤥ꤬ꤔꤢꤧ꤭ꤕ꤫ꤢꤩ꤬": 7741,
      "ꤘꤥ꤬ꤔꤢꤧ꤭ꤋꤚꤢꤩꤋꤚ꤫ꤢꤧ꤬": 7742,
      "ꤜꤥ꤬ꤡꤝꤢꤊꤢꤧ꤭": 7743,
      "ꤜꤥ꤬ꤊꤣꤧ꤬ꤘꤢ꤭ꤘꤢꤨ꤬": 7744,
      "ꤒ꤫ꤣ꤬ꤘꤢꤦ꤬": 7745,
      "ꤒ꤫ꤣ꤬ꤡ꤫ꤢꤧ꤬": 7746,
      "ꤒ꤫ꤣ꤬ꤋꤛꤢ꤭ꤜꤢꤨ꤭": 7747,
      "ꤒ꤫ꤣ꤬ꤚ꤫ꤥ꤬ꤊꤣꤧ꤭": 7748,
      "ꤏꤢꤦ꤬ꤊꤣꤧ꤭": 7749,
      "ꤏꤢꤦ꤬ꤓꤥ꤭": 7750,
      "ꤏꤢꤦ꤬ꤘꤢꤦ꤬": 7751,
      "ꤏꤢꤦ꤬ꤜꤢ꤭ꤒꤢꤩ꤬": 7752,
      "ꤤ꤬ꤞꤝꤢꤒꤥ꤭": 7753,
      "ꤤ꤬ꤞꤝꤢꤞꤤꤑꤢꤩ꤭": 7754,
      "ꤤ꤬ꤞꤝꤢꤡ꤫ꤢꤧ꤬": 7755,
      "ꤤ꤬ꤞꤝꤢꤔꤢꤪ": 7756,
      "ꤤ꤬ꤞꤝꤢꤜꤣꤧ꤬ꤟꤥ꤭": 7757,
      "ꤖꤚꤥ꤬ꤒꤢꤩ꤬ꤖꤚꤢꤧ꤬": 7758,
      "ꤞꤢꤪ꤬ꤚꤢꤧ": 7759,
      "ꤞꤢꤪ꤬ꤗꤢꤩ꤭": 7760,
      "ꤞꤢꤪ꤬ꤊꤢꤧ꤭ꤏꤢ": 7761,
      "ꤞꤢꤪ꤬ꤖꤤ": 7762,
      "ꤞꤢꤪ꤬ꤙꤛꤢ꤬": 7763,
      "ꤘꤢ꤭ꤟꤢꤩꤟꤣꤧ": 7764,
      "ꤏꤝꤢ꤬ꤟꤢꤧ꤭": 7765,
      "ꤒꤣ꤬ꤖꤥꤟꤢꤧ꤭": 7766,
      "ꤒꤣ꤬ꤖꤥꤞꤣꤧ꤭": 7767,
      "ꤕꤣꤧꤞꤢꤩ꤬ꤥ꤬": 7768,
      "ꤕꤣꤧꤞꤢꤩ꤬ꤜꤢꤩ꤭": 7769,
      "ꤕꤣꤧꤞꤢꤩ꤬ꤕꤛꤢ": 7770,
      "ꤜꤢꤨ꤬ꤋꤥꤊꤢꤧ꤭": 7771,
      "ꤢ꤬ꤍ꤫ꤥ꤬ꤗ꤫ꤢ꤬ꤊꤢꤧ꤭": 7772,
      "ꤟꤢꤩꤏꤢꤦ꤬ꤋꤛꤢ꤭": 7773,
      "ꤟꤢꤩꤏꤢꤦ꤬ꤕꤜꤥ꤭": 7774,
      "ꤋꤚꤝꤢ꤭ꤟꤢꤩ": 7775,
      "ꤋꤚꤝꤢ꤭ꤊꤢ꤬": 7776,
      "ꤋꤚꤝꤢ꤭ꤞꤢꤦ": 7777,
      "ꤋꤚꤝꤢ꤭ꤙꤢꤧꤞꤝꤢ": 7778,
      "ꤋꤚꤝꤢ꤭ꤟꤢꤩꤊꤣꤧ꤭": 7779,
      "ꤗꤢꤨꤗ꤫ꤢꤧ꤬ꤜꤣ": 7780,
      "ꤜꤢ꤬ꤞꤢꤧ": 7781,
      "ꤜꤢ꤬ꤗꤢ": 7782,
      "ꤜꤢ꤬ꤘꤢꤩꤜꤢ꤬": 7783,
      "ꤖꤚꤢꤩ꤬ꤗꤢꤪ꤬ꤗꤢꤪ꤬": 7784,
      "ꤖꤚꤢꤩ꤬ꤗꤢꤪ꤬ꤖꤢꤨꤡ꤫ꤢꤩ꤬ꤟꤢꤨꤣꤧ꤭": 7785,
      "ꤖꤚꤢꤩ꤬ꤗꤢꤪ꤬ꤞꤢꤪ꤬ꤗꤢꤩ꤭": 7786,
      "ꤗꤢꤪꤋꤢꤨ꤬ꤞꤢꤩ꤭": 7787,
      "ꤗꤢꤪꤋꤢꤨ꤬ꤓꤝꤢ꤭ꤞꤢꤩ꤭": 7788,
      "ꤖꤢꤒꤥ꤬": 7789,
      "ꤜꤢꤨꤎꤣ꤬": 7790,
      "ꤜꤢꤨꤊꤢꤪ꤬": 7791,
      "ꤗꤤ꤬ꤔꤣꤧ꤬": 7792,
      "ꤗꤤ꤬ꤣꤧ꤭": 7793,
      "ꤗꤤ꤬ꤋꤥ꤬ꤓꤢꤧ꤬": 7794,
      "ꤋꤝꤤꤒꤣꤧ꤬ꤟꤢꤩ꤬": 7795,
      "ꤋꤝꤤꤟꤤ꤬": 7796,
      "ꤋꤝꤤꤕꤢꤪꤒꤤ꤬ꤛꤢꤕꤤꤜꤢ": 7797,
      "ꤞꤥ꤭ꤙꤢꤩ꤬": 7798,
      "ꤞꤥ꤭ꤚꤤ": 7799,
      "ꤞꤥ꤭ꤡꤝ꤫ꤢꤩ꤬": 7800,
      "ꤞꤥ꤭ꤒ꤫ꤥ꤬ꤒꤣ꤬ꤒ꤫ꤥ꤬": 7801,
      "ꤞꤥ꤭ꤜꤤ꤬ꤞꤥ꤭ꤜꤢꤩ꤭": 7802,
      "ꤔ꤫ꤤ꤬ꤟꤥ꤭ꤞꤤꤑꤢꤩ꤭": 7803,
      "ꤔ꤫ꤤ꤬ꤟꤥ꤭ꤜꤢ꤭ꤟꤤ": 7804,
      "ꤏꤛꤢ꤬ꤚꤣ꤬": 7805,
      "ꤏꤛꤣ꤬ꤖꤢ": 7806,
      "ꤕꤣꤧ꤬ꤥ": 7807,
      "ꤊꤣꤧ꤬ꤓꤢꤪ꤬ꤜꤢꤪ꤭": 7808,
      "ꤊꤣꤧ꤬ꤓꤢꤪ꤬ꤡꤝꤢ": 7809,
      "ꤊꤣꤧ꤬ꤓꤢꤪ꤬ꤤ꤬ꤏꤝꤤ": 7810,
      "ꤋꤚꤢꤦ꤭ꤜꤢ꤭": 7811,
      "ꤢ꤬ꤙꤥ": 7812,
      "ꤒꤢꤩ꤬ꤞꤤꤋꤢ": 7813,
      "ꤒꤢꤩ꤬ꤞꤤꤋꤝꤢꤩ": 7814,
      "ꤒꤢꤩ꤬ꤞꤤꤔ꤫ꤢꤩ꤬ꤓꤢꤧ꤬": 7815,
      "ꤒꤢꤩ꤬ꤞꤤꤓꤢꤩ꤬ꤞꤤꤟꤢ꤭": 7816,
      "ꤞꤢꤩ꤭ꤚꤢꤩ꤬": 7817,
      "ꤞꤢꤩ꤭ꤖꤢꤩꤊꤢꤧ꤭": 7818,
      "ꤣꤧ꤭ꤒꤣ꤬ꤊ꤫ꤢꤩ꤬": 7819,
      "ꤣꤧ꤭ꤒꤣ꤬ꤗꤤ꤭": 7820,
      "ꤣꤧ꤭ꤒꤣ꤬ꤊꤢꤨ꤭ꤔꤣꤧ꤬": 7821,
      "ꤓꤢꤩ꤬ꤡꤝꤢꤙꤢꤩ": 7822,
      "ꤓꤢꤩ꤬ꤡꤝꤢꤜꤢꤩ꤭": 7823,
      "ꤓꤢꤩ꤬ꤡꤝꤢꤓꤢꤧ꤬ꤊꤢꤧ꤭": 7824,
      "ꤓꤢꤩ꤬ꤡꤝꤢꤒꤢ꤬ꤖꤢ꤭": 7825,
      "ꤜꤢꤩ꤭ꤊꤢꤨ꤭": 7826,
      "ꤜꤢꤩ꤭ꤊꤢꤩ꤬": 7827,
      "ꤜꤢꤩ꤭ꤜꤢꤧ꤬": 7828,
      "ꤜꤢꤩ꤭ꤜꤢꤩ꤭": 7829,
      "ꤜꤢꤩ꤭ꤋꤝꤢ": 7830,
      "ꤜꤢꤩ꤭ꤗꤢꤧ꤬": 7831,
      "ꤘꤢꤧꤔꤢꤧ꤬": 7832,
      "ꤘꤢꤧꤊꤣꤧ꤭": 7833,
      "ꤘꤢꤧꤚꤣꤧ": 7834,
      "ꤘꤢꤧꤟꤢꤧ꤭ꤔ꤫ꤤ꤬": 7835,
      "ꤘꤢꤧꤋꤢꤋꤥ꤬": 7836,
      "ꤘꤢꤧꤜꤢꤧ꤭": 7837,
      "ꤘꤢꤧꤡꤝꤢꤔ꤫ꤤ꤬": 7838,
      "ꤘꤢꤧꤏꤥ꤭ꤏꤢꤦꤖꤢꤧ": 7839,
      "ꤘꤣꤧꤟꤣꤧ꤭ꤔ꤫ꤤ꤬": 7840,
      "ꤘꤣꤧꤟꤣꤧ꤭ꤒ꤫ꤥ꤬": 7841,
      "ꤘꤣꤧꤟꤣꤧ꤭ꤕ꤫ꤥ꤬": 7842,
      "ꤘꤣꤧꤟꤣꤧ꤭ꤜꤢ꤭ꤒꤢꤩ꤬": 7843,
      "ꤘꤣꤧꤟꤣꤧ꤭ꤟꤥ꤬": 7844,
      "ꤟꤤꤎꤥ": 7845,
      "ꤓꤢꤨ꤬ꤊꤢꤧ꤬": 7846,
      "ꤙꤢꤧꤥ꤬": 7847,
      "ꤙꤢꤧꤗꤢ꤬": 7848,
      "ꤜꤤ꤭ꤟꤢꤧ꤭": 7849,
      "ꤜꤤ꤭ꤊꤢ꤬": 7850,
      "ꤜꤤ꤭ꤒꤣꤧ꤬ꤘꤢꤦ꤬": 7851,
      "ꤜꤤ꤭ꤏꤢꤩ": 7852,
      "ꤋꤥꤜꤣ": 7853,
      "ꤏꤣꤧꤍꤢꤧ꤭": 7854,
      "ꤚꤢ꤭ꤊꤣꤧ꤭": 7855,
      "ꤚꤢ꤭ꤚꤣꤧ": 7856,
      "ꤚꤢ꤭ꤥ꤬ꤒ꤫ꤣ꤬ꤊꤣꤧ꤭": 7857,
      "ꤟꤢꤨꤒꤢꤩ꤭ꤚꤣꤧ꤬": 7858,
      "ꤊꤜꤢꤧꤘꤢꤨ꤬": 7859,
      "ꤊꤜꤢꤧꤒꤥ꤭": 7860,
      "ꤊꤜꤢꤧꤒ꤫ꤢꤩ꤬": 7861,
      "ꤔꤢꤪꤔꤢꤧ": 7862,
      "ꤘꤣꤧꤡꤢ꤭ꤡꤢꤪ": 7863,
      "ꤘꤣꤧꤡꤢ꤭ꤙꤢꤩ꤬": 7864,
      "ꤘꤣꤧꤡꤢ꤭ꤖꤢꤧ": 7865,
      "ꤘꤣꤧꤡꤢ꤭ꤒꤥ꤭": 7866,
      "ꤢ꤬ꤒꤢꤩ꤬ꤢꤩ": 7867,
      "ꤢ꤬ꤒꤢꤩ꤬ꤜꤢꤨ꤭": 7868,
      "ꤢ꤬ꤒꤢꤩ꤬ꤚꤣꤧ": 7869,
      "ꤢ꤬ꤒꤢꤩ꤬ꤔꤢꤪ꤭": 7870,
      "ꤢ꤬ꤒꤢꤩ꤬ꤞꤤꤛ꤫ꤢꤦ꤬": 7871,
      "ꤢ꤬ꤒꤢꤩ꤬ꤟꤢꤩꤙꤢꤩ꤬": 7872,
      "ꤢ꤬ꤒꤢꤩ꤬ꤚꤢꤧ": 7873,
      "ꤢ꤬ꤒꤢꤩ꤬ꤚꤢ꤭": 7874,
      "ꤢ꤬ꤒꤢꤩ꤬ꤗꤢꤨꤗ꤫ꤢꤧ꤬ꤚꤤ꤬ꤡ꤫ꤢꤧ꤬": 7875,
      "ꤢ꤬ꤒꤢꤩ꤬ꤜ꤫ꤥ꤬": 7876,
      "ꤢ꤬ꤒꤢꤩ꤬ꤢꤪꤜꤢꤧ꤬": 7877,
      "ꤢ꤬ꤒꤢꤩ꤬ꤒꤣꤧ꤬ꤚꤣꤧ꤭ꤏꤝꤢ꤬ꤏꤢꤪ꤭": 7878,
      "ꤢ꤬ꤒꤢꤩ꤬ꤚꤢꤧ꤭": 7879,
      "ꤢ꤬ꤒꤢꤩ꤬ꤟꤢꤩꤙꤢꤩ꤬ꤟꤢꤩꤏꤥ꤭": 7880,
      "ꤢ꤬ꤒꤢꤩ꤬ꤖꤚꤥ꤬ꤒꤢꤩ꤬ꤖꤚꤢꤧ꤬": 7881,
      "ꤔ꤫ꤤ꤬ꤘꤢ꤭ꤟꤣꤧ": 7882,
      "ꤔ꤫ꤤ꤬ꤘꤢ꤭ꤘꤢꤦ꤬": 7883,
      "ꤔ꤫ꤤ꤬ꤘꤢ꤭ꤖꤢꤧ": 7884,
      "ꤔ꤫ꤤ꤬ꤘꤢ꤭ꤕꤢ꤬": 7885,
      "ꤔ꤫ꤤ꤬ꤘꤢ꤭ꤡꤢꤨ꤭ꤢꤩ꤬": 7886,
      "ꤟꤢꤨꤣꤧ꤭ꤟꤣꤧ": 7887,
      "ꤟꤢꤨꤣꤧ꤭ꤟꤢꤨꤔꤣꤧ꤬": 7888,
      "ꤢ꤬ꤛ꤫ꤢꤧ꤬ꤛꤥ꤬ꤞꤣꤧ꤭ꤖꤚꤢꤩ꤬": 7889,
      "ꤓꤢꤩ꤭ꤒꤣꤧ꤬ꤢꤩ꤬": 7890,
      "ꤙꤢ꤭ꤕꤢ꤬": 7891,
      "ꤜꤣꤧ꤬ꤕꤜꤢꤩꤚꤣꤧ": 7892,
      "ꤜꤣꤧ꤬ꤕꤜꤢꤩꤡ꤫ꤢꤧ꤬": 7893,
      "ꤡꤝ꤫ꤢ꤬ꤚꤣꤧꤘꤢꤦ꤬": 7894,
      "ꤗꤢꤨꤗ꤫ꤢꤧ꤬ꤚꤤ꤬ꤡ꤫ꤢꤧ꤬ꤜꤣ": 7895,
      "ꤢ꤬ꤚꤥ꤬ꤔꤣꤧ꤬": 7896,
      "ꤒ꤫ꤣ꤬ꤊꤣꤧ꤭ꤔꤢꤧ": 7897,
      "ꤒ꤫ꤣ꤬ꤊꤣꤧ꤭ꤒꤢꤩ꤬": 7898,
      "ꤒ꤫ꤣ꤬ꤊꤣꤧ꤭ꤟꤣꤧ": 7899,
      "ꤚꤢ꤬ꤞꤢꤩ꤬": 7900,
      "ꤚꤢ꤬ꤒꤣꤧ꤬ꤠꤢ꤬ꤙꤤ": 7901,
      "ꤚꤢ꤬ꤞꤣꤧ꤭ꤘꤝꤢ꤭": 7902,
      "ꤊꤜꤣꤧ꤭ꤊꤜꤥ꤭": 7903,
      "ꤗꤢꤦ꤭ꤕꤢꤪ꤬": 7904,
      "ꤜ꤫ꤥ꤬ꤥ꤭": 7905,
      "ꤜ꤫ꤥ꤬ꤗꤢꤩ꤬": 7906,
      "ꤜ꤫ꤥ꤬ꤔꤢꤪ": 7907,
      "ꤜ꤫ꤥ꤬ꤓꤢꤩ꤭": 7908,
      "ꤜ꤫ꤥ꤬ꤗꤢꤩ꤬ꤕꤢ꤬": 7909,
      "ꤜ꤫ꤥ꤬ꤟꤢꤩꤊꤣꤧ꤭": 7910,
      "ꤔꤣꤧ꤬ꤒꤣ꤬ꤋꤢꤨ꤬": 7911,
      "ꤔꤣꤧ꤬ꤒꤣ꤬ꤋꤥ": 7912,
      "ꤔꤣꤧ꤬ꤒꤣ꤬ꤘꤢꤪ꤭": 7913,
      "ꤔꤣꤧ꤬ꤒꤣ꤬ꤚꤥ꤭": 7914,
      "ꤔꤣꤧ꤬ꤒꤣ꤬ꤊꤜꤢꤨ꤭": 7915,
      "ꤗ꤫ꤢ꤬ꤔꤤꤔꤢꤧ꤬ꤟꤣꤧ": 7916,
      "ꤘꤣꤧꤜꤥ꤭ꤚꤣꤧ": 7917,
      "ꤘꤣꤧꤜꤥ꤭ꤓꤢꤧ꤬ꤟꤣꤧ": 7918,
      "ꤘꤣꤧꤜꤥ꤭ꤊꤢꤧ꤭ꤟꤣꤧ": 7919,
      "ꤜꤥ꤭ꤔꤢꤩꤒꤣꤧ꤬ꤟꤢꤩ꤬": 7920,
      "ꤊ꤫ꤢꤦ꤬ꤚꤢꤩ꤭ꤜ꤫ꤢꤨ꤬": 7921,
      "ꤥ꤬ꤗꤥ꤭ꤓꤢꤧ꤬": 7922,
      "ꤤ꤬ꤏꤢꤩ꤭ꤒꤢ꤭": 7923,
      "ꤒꤢ꤭ꤒꤢꤩ꤬ꤔꤥ꤬": 7924,
      "ꤎꤢ꤬ꤗꤢ꤬": 7925,
      "ꤎꤢ꤬ꤗꤢꤨꤚꤢ꤬": 7926,
      "ꤏꤢꤩ꤬ꤣꤧ꤭": 7927,
      "ꤢ꤬ꤜ꤫ꤢꤩ꤬ꤒꤢꤩ꤭": 7928,
      "ꤢ꤬ꤜ꤫ꤢꤩ꤬ꤜ꤫ꤢꤩ꤬": 7929,
      "ꤢ꤬ꤜ꤫ꤢꤩ꤬ꤗꤢꤧꤙꤢꤦ꤭": 7930,
      "ꤕ꤫ꤢꤦ꤬ꤗꤢꤩ꤬ꤞꤣꤧ꤭": 7931,
      "ꤕ꤫ꤢꤦ꤬ꤊꤜꤢꤪ꤬ꤗꤢ꤬": 7932,
      "ꤕ꤫ꤢꤦ꤬ꤘꤢꤪꤒꤢ꤭": 7933,
      "ꤕ꤫ꤢꤦ꤬ꤢꤩ꤬ꤊꤢꤧ꤭": 7934,
      "ꤕ꤫ꤢꤦ꤬ꤥ꤬ꤗꤢ꤬": 7935,
      "ꤕ꤫ꤢꤦ꤬ꤋꤚ꤫ꤢ꤬": 7936,
      "ꤘꤤ꤭ꤘꤥ꤭": 7937,
      "ꤘꤤ꤭ꤕꤢꤪ꤭": 7938,
      "ꤒꤣꤧ꤬ꤘꤢꤦ꤬ꤟꤣꤧ": 7939,
      "ꤒꤣꤧ꤬ꤘꤢꤦ꤬ꤘꤢꤦ꤬": 7940,
      "ꤗꤢꤩ꤬ꤞꤣꤧ꤭ꤓꤥ꤭ꤟꤣꤧ": 7941,
      "ꤗꤢꤩ꤬ꤞꤣꤧ꤭ꤔꤢꤪ": 7942,
      "ꤔꤢꤧ꤭ꤘꤢꤦ꤬ꤟꤣꤧ": 7943,
      "ꤚ꤫ꤥ꤬ꤟꤣꤧ": 7944,
      "ꤖꤚꤢꤩ꤬ꤖꤚꤥ꤬ꤔꤣꤧ꤬": 7945,
      "ꤟꤢꤩꤏꤥ꤬ꤜꤥ꤭ꤊꤢꤧ꤭": 7946,
      "ꤜ꤫ꤢꤪ꤬ꤋꤢꤨ꤬": 7947,
      "ꤜ꤫ꤢꤪ꤬ꤞꤣꤧ꤭ꤖꤚꤢꤩ꤬": 7948,
      "ꤜ꤫ꤢꤪ꤬ꤙꤢ꤬": 7949,
      "ꤜ꤫ꤢꤪ꤬ꤙꤢꤧ꤭": 7950,
      "ꤜ꤫ꤢꤪ꤬ꤒꤣꤧ꤬ꤖꤢꤩ꤬": 7951,
      "ꤜ꤫ꤢꤪ꤬ꤙꤢ꤬ꤜꤥ꤬": 7952,
      "ꤗꤢꤧꤕꤢꤨ꤭ꤗꤢꤩ꤬": 7953,
      "ꤗꤢꤧꤕꤢꤨ꤭ꤚꤢꤧ꤬": 7954,
      "ꤗꤢꤧꤕꤢꤨ꤭ꤘꤢꤧ꤬": 7955,
      "ꤗꤢꤧꤕꤢꤨ꤭ꤔꤥ꤭": 7956,
      "ꤛꤥ꤭ꤞꤢ꤬": 7957,
      "ꤗꤢꤩ꤬ꤡꤝ꤫ꤢ꤬ꤔꤢꤪ": 7958,
      "ꤒꤣꤧ꤬ꤜꤝꤢ꤬": 7959,
      "ꤊꤝꤤ꤭ꤡꤢꤪꤙꤢꤩ꤭ꤚꤣꤧ": 7960,
      "ꤜ꤫ꤢꤩ꤬ꤥ꤬ꤔꤣꤧ꤬": 7961,
      "ꤜ꤫ꤢꤩ꤬ꤥ꤬ꤕ꤫ꤢꤪ꤬": 7962,
      "ꤜ꤫ꤢꤩ꤬ꤥ꤬ꤋꤚꤢ꤭": 7963,
      "ꤜ꤫ꤢꤩ꤬ꤥ꤬ꤜ꤫ꤢꤧ꤬": 7964,
      "ꤜ꤫ꤢꤩ꤬ꤥ꤬ꤞꤥ꤬ꤋꤚꤢꤩ꤭": 7965,
      "ꤞꤤꤛꤢꤪ꤬ꤡ꤫ꤢꤧ꤬": 7966,
      "ꤒꤢꤩ꤬ꤛ꤫ꤢꤦ꤬ꤣꤧ꤭": 7967,
      "ꤚ꤫ꤣꤧ꤬ꤓꤥ꤭ꤟꤣꤧ": 7968,
      "ꤚ꤫ꤣꤧ꤬ꤘꤢꤦ꤬ꤟꤣꤧ": 7969,
      "ꤚ꤫ꤣꤧ꤬ꤜ꤫ꤢꤩ꤬ꤊꤢꤧ꤭": 7970,
      "ꤡꤢꤦ꤭ꤖꤢꤧ": 7971,
      "ꤔꤢ꤬ꤑꤢ꤭": 7972,
      "ꤔꤢ꤬ꤟꤢꤩꤔꤢꤨ꤬": 7973,
      "ꤔꤢ꤬ꤘꤢꤨ": 7974,
      "ꤔꤢ꤬ꤞꤢ꤬ꤜꤤ꤬": 7975,
      "ꤤ꤬ꤞꤝꤢꤤ꤬ꤞꤢꤧ꤬ꤟꤣꤧ": 7976,
      "ꤤ꤬ꤞꤝꤢꤤ꤬ꤞꤢꤧ꤬ꤊꤢꤧ꤭": 7977,
      "ꤤ꤬ꤞꤝꤢꤤ꤬ꤞꤢꤧ꤬ꤡ꤫ꤢꤧ꤬": 7978,
      "ꤞꤢꤨ꤭ꤓꤢꤧ꤬": 7979,
      "ꤞꤢꤨ꤭ꤚꤣꤧ": 7980,
      "ꤞꤢꤨ꤭ꤓꤢꤩ꤬": 7981,
      "ꤞꤢꤨ꤭ꤞꤢꤦ": 7982,
      "ꤒꤢꤩ꤬ꤊꤢꤧ꤭ꤏꤢ": 7983,
      "ꤕꤣꤜꤢꤪ꤭": 7984,
      "ꤕꤣꤓꤣꤧ꤭ꤊ꤫ꤢꤩ꤬": 7985,
      "ꤙꤤꤚꤣꤧ": 7986,
      "ꤙꤤꤡ꤫ꤢꤧ꤬": 7987,
      "ꤙꤤꤞꤢꤧꤙꤤ": 7988,
      "ꤓꤢꤧ꤬ꤜꤥ꤭ꤜꤣꤢꤨ꤭": 7989,
      "ꤟꤢꤧ꤭ꤒ꤫ꤥ꤬ꤕꤢ꤭": 7990,
      "ꤢ꤬ꤖꤢꤩ꤭ꤥ꤬": 7991,
      "ꤘꤣꤧꤒꤢ꤭ꤊꤣꤧ꤭": 7992,
      "ꤘꤣꤧꤒꤢ꤭ꤕ꤫ꤢꤩ꤬": 7993,
      "ꤘꤣꤧꤒꤢ꤭ꤘꤢꤦ꤬": 7994,
      "ꤥ꤬ꤗ꤫ꤢꤩ꤬ꤖꤚꤢꤦ": 7995,
      "ꤞꤤꤔꤣꤧ꤭ꤖꤢꤧ": 7996,
      "ꤘꤤꤜꤥ": 7997,
      "ꤘꤤꤎꤢꤨ꤬": 7998,
      "ꤘꤢꤪ꤭ꤏꤥ꤬": 7999,
      "ꤘꤢꤪ꤭ꤡꤟꤢꤧ": 8000,
      "ꤢꤪꤜꤢꤧ꤬ꤏꤢꤦ꤬": 8001,
      "ꤢ꤬ꤗꤝꤤ꤭ꤊꤢꤨ꤭": 8002,
      "ꤢ꤬ꤗꤝꤤ꤭ꤋꤛꤢ꤭": 8003,
      "ꤢ꤬ꤗꤝꤤ꤭ꤕꤢꤩ꤭": 8004,
      "ꤢ꤬ꤗꤝꤤ꤭ꤘꤢꤨ꤬ꤗꤝꤤ꤭ꤓꤢꤨ꤭": 8005,
      "ꤟꤢꤧ꤭ꤑꤢꤩ꤭ꤑꤢꤩ꤭": 8006,
      "ꤘꤢꤨ꤬ꤜꤣꤔꤢꤧ꤭": 8007,
      "ꤕꤛꤢꤔꤥ꤭": 8008,
      "ꤘꤢ꤬ꤗꤤ꤬": 8009,
      "ꤊꤜꤝꤤ꤭ꤘꤢꤧꤜꤢꤧ꤭": 8010,
      "ꤢ꤬ꤜꤢꤩ꤬ꤜꤢ": 8011,
      "ꤙꤢꤩꤗꤢꤨ꤬ꤣꤧ꤭": 8012,
      "ꤒꤢꤩ꤬ꤜꤢꤨ꤭ꤒꤢꤧ꤭ꤟꤥ꤭ꤊꤢꤨ꤭": 8013,
      "ꤊꤥꤊꤣꤧ꤭": 8014,
      "ꤒꤣꤧ꤬ꤖꤢ꤭ꤖꤢꤩ꤬ꤊꤢꤧ꤭": 8015,
      "ꤒꤣꤧ꤬ꤖꤢ꤭ꤒꤣꤧ꤬ꤔ꤫ꤢ꤬": 8016,
      "ꤖꤢꤦ꤬ꤙꤢ꤭": 8017,
      "ꤖꤢꤦ꤬ꤙꤢꤩ꤬ꤟꤣꤧ": 8018,
      "ꤥ꤬ꤕ꤫ꤢꤪ꤬ꤚꤣꤧ": 8019,
      "ꤥ꤬ꤕ꤫ꤢꤪ꤬ꤒꤣꤧ꤬ꤘꤢꤦ꤬": 8020,
      "ꤛꤢ꤬ꤚꤢꤨꤏꤛꤢ꤬ꤜꤢꤩ꤬ꤖꤢꤨ": 8021,
      "ꤖꤚꤢꤩ꤬ꤗꤢꤩ꤬ꤞꤢꤦ": 8022,
      "ꤖꤚꤢꤩ꤬ꤗꤢꤩ꤬ꤢꤩ꤬ꤒꤢꤩ꤭ꤟꤢꤨ": 8023,
      "ꤖꤚꤢꤩ꤬ꤗꤢꤩ꤬ꤒ꤫ꤣ꤬ꤒꤢꤩ꤬": 8024,
      "ꤖꤚꤢꤩ꤬ꤗꤢꤩ꤬ꤊ꤫ꤢꤦ꤬ꤗꤢꤩ꤬ꤋꤢ": 8025,
      "ꤔꤢꤪ꤭ꤟꤢꤧ꤭ꤕ꤫ꤥ꤬": 8026,
      "ꤙꤢꤔꤣꤧ꤬": 8027,
      "ꤙꤢꤔꤣꤧ꤬ꤗꤢ꤬": 8028,
      "ꤊꤢꤧꤊꤝꤢ꤬": 8029,
      "ꤊꤢꤨꤋꤢꤨ꤬ꤒꤢꤦ꤭": 8030,
      "ꤊꤢꤨꤋꤢꤨ꤬ꤊꤣꤧ꤬ꤘꤢ꤭": 8031,
      "ꤑꤢ꤭ꤜꤥ꤬": 8032,
[...]
