{
  "version": "1.0",
  "truncation": null,
  "padding": null,
  "added_tokens": [
    {
      "id": 0,
      "content": "<pad>",
      "single_word": false,
      "lstrip": false,
      "rstrip": false,
      "normalized": false,
      "special": true
    },
    {
      "id": 1,
      "content": "<unk>",
      "single_word": false,
      "lstrip": false,
      "rstrip": false,
      "normalized": false,
      "special": true
    },
    {
      "id": 2,
      "content": "<s>",
      "single_word": false,
      "lstrip": false,
      "rstrip": false,
      "normalized": false,
      "special": true
    },
    {
      "id": 3,
      "content": "</s>",
      "single_word": false,
      "lstrip": false,
      "rstrip": false,
      "normalized": false,
      "special": true
    }
  ],
  "normalizer": null,
  "pre_tokenizer": {
    "type": "Sequence",
    "pretokenizers": [
      {
        "type": "Whitespace"
      },
      {
        "type": "Split",
        "pattern": {
          "Regex": "(?<=[ऀ-ॿ஀-௿฀-๿຀-໿က-႟ក-៿一-鿿꤀-꤯])(?=[A-Za-z0-9])|(?<=[A-Za-z0-9])(?=[ऀ-ॿ஀-௿฀-๿຀-໿က-႟ក-៿一-鿿꤀-꤯])"
        },
        "behavior": "Isolated",
        "invert": false
      }
    ]
  },
  "post_processor": null,
  "decoder": null,
  "model": {
    "type": "BPE",
    "dropout": null,
    "unk_token": "<unk>",
    "continuing_subword_prefix": null,
    "end_of_word_suffix": null,
    "fuse_unk": false,
    "byte_fallback": false,
    "ignore_merges": false,
    "vocab": {
      "<pad>": 0,
      "<unk>": 1,
      "<s>": 2,
      "</s>": 3,
      "(": 4,
      ")": 5,
      "ก": 6,
      "ข": 7,
      "ค": 8,
      "ฆ": 9,
      "ง": 10,
      "จ": 11,
      "ฉ": 12,
      "ช": 13,
      "ซ": 14,
      "ญ": 15,
      "ฎ": 16,
      "ฏ": 17,
      "ฐ": 18,
      "ฑ": 19,
      "ฒ": 20,
      "ณ": 21,
      "ด": 22,
      "ต": 23,
      "ถ": 24,
      "ท": 25,
      "ธ": 26,
      "น": 27,
      "บ": 28,
      "ป": 29,
      "ผ": 30,
      "ฝ": 31,
      "พ": 32,
      "ฟ": 33,
      "ภ": 34,
      "ม": 35,
      "ย": 36,
      "ร": 37,
      "ฤ": 38,
      "ล": 39,
      "ว": 40,
      "ศ": 41,
      "ษ": 42,
      "ส": 43,
      "ห": 44,
      "ฬ": 45,
      "อ": 46,
      "ฮ": 47,
      "ะ": 48,
      "ั": 49,
      "า": 50,
      "ำ": 51,
      "ิ": 52,
      "ี": 53,
      "ึ": 54,
      "ื": 55,
      "ุ": 56,
      "ู": 57,
      "เ": 58,
      "แ": 59,
      "โ": 60,
      "ใ": 61,
      "ไ": 62,
      "ๆ": 63,
      "็": 64,
      "่": 65,
      "้": 66,
      "๊": 67,
      "๋": 68,
      "์": 69,
      "​": 70,
      "‘": 71,
      "’": 72,
      "“": 73,
      "”": 74,
      "﻿": 75,
      "้า": 76,
      "อง": 77,
      "้อ": 78,
      "ี้": 79,
      "ระ": 80,
      "หม": 81,
      "พระ": 82,
      "่า": 83,
      "ู่": 84,
      "ตี้": 85,
      "๋น": 86,
      "ื้อ": 87,
      "เป": 88,
      "เจ": 89,
      "ับ": 90,
      "หมู่": 91,
      "คน": 92,
      "ก็": 93,
      "ว่า": 94,
      "้น": 95,
      "เจ้า": 96,
      "ีย": 97,
      "ู้": 98,
      "ของ": 99,
      "เป๋น": 100,
      "เข": 101,
      "หื้อ": 102,
      "ัง": 103,
      "้าน": 104,
      "กับ": 105,
      "จะ": 106,
      "าย": 107,
      "เย": 108,
      "เฮ": 109,
      "ค์": 110,
      "ต้าน": 111,
      "บ่": 112,
      "ด้": 113,
      "ั้น": 114,
      "่อ": 115,
      "ได้": 116,
      "จา": 117,
      "้ว": 118,
      "มา": 119,
      "เฮา": 120,
      "าม": 121,
      "แล": 122,
      "องค์": 123,
      "่ง": 124,
      "เขา": 125,
      "แล้ว": 126,
      "อย": 127,
      "มี": 128,
      "ไป": 129,
      "หล": 130,
      "แต": 131,
      "ือ": 132,
      "ใน": 133,
      "พระองค์": 134,
      "ัน": 135,
      "ต๋": 136,
      "พระเจ้า": 137,
      "นั้น": 138,
      "คว": 139,
      "ใจ": 140,
      "าน": 141,
      "เม": 142,
      "ียะ": 143,
      "เยียะ": 144,
      "อก": 145,
      "ข้า": 146,
      "ก๋": 147,
      "แต่": 148,
      "ัก": 149,
      "อยู่": 150,
      "ตั": 151,
      "ริ": 152,
      "กั": 153,
      "้อน": 154,
      "ความ": 155,
      "เก": 156,
      "นี้": 157,
      "้อง": 158,
      "เมื": 159,
      "ผู้": 160,
      "ซู": 161,
      "เยซู": 162,
      "กั๋น": 163,
      "จาก": 164,
      "พระเยซู": 165,
      "ย้อน": 166,
      "พเจ้า": 167,
      "ข้าพเจ้า": 168,
      "ดี": 169,
      "าง": 170,
      "หลาย": 171,
      "อู้": 172,
      "ตัง": 173,
      "หน": 174,
      "เต": 175,
      "สิ": 176,
      "เล": 177,
      "ึง": 178,
      "ใจ๋": 179,
      "๋ว": 180,
      "่าง": 181,
      "ตังหลาย": 182,
      "ิด": 183,
      "วย": 184,
      "ก๋าน": 185,
      "อา": 186,
      "ูก": 187,
      "ฮับ": 188,
      "่น": 189,
      "ิง": 190,
      "อน": 191,
      "ตั๋ว": 192,
      "ริส": 193,
      "เมื่อ": 194,
      "ิน": 195,
      "่อง": 196,
      "วิ": 197,
      "เจื้อ": 198,
      "หา": 199,
      "เส": 200,
      "เปื้อ": 201,
      "ือน": 202,
      "ยัง": 203,
      "ตึง": 204,
      "ว้": 205,
      "บอก": 206,
      "จาอ": 207,
      "หัน": 208,
      "ตวย": 209,
      "ฮู้": 210,
      "ไว้": 211,
      "รร": 212,
      "อย่าง": 213,
      "ขึ": 214,
      "ขึ้น": 215,
      "ต๋าม": 216,
      "กำ": 217,
      "เหม": 218,
      "นา": 219,
      "โล": 220,
      "เข้า": 221,
      "กา": 222,
      "เหมือน": 223,
      "กู้": 224,
      "นึ": 225,
      "เถ": 226,
      "ถ้า": 227,
      "ญญ": 228,
      "ต้อง": 229,
      "ปา": 230,
      "นึ่ง": 231,
      "ัต": 232,
      "โต": 233,
      "เร": 234,
      "เถิง": 235,
      "สิ่ง": 236,
      "อะ": 237,
      "ื่อง": 238,
      "ธิ": 239,
      "เอา": 240,
      "ียว": 241,
      "แหม": 242,
      "บา": 243,
      "ย์": 244,
      "คริส": 245,
      "คริสต": 246,
      "อบ": 247,
      "แม": 248,
      "้ง": 249,
      "ใด": 250,
      "ใผ": 251,
      "เรื่อง": 252,
      "่ว": 253,
      "เด": 254,
      "สา": 255,
      "๊ก": 256,
      "ต๋าย": 257,
      "จาอั้น": 258,
      "่อน": 259,
      "ออก": 260,
      "เห": 261,
      "ใจ๊": 262,
      "ก่": 263,
      "วัน": 264,
      "ั่ง": 265,
      "เมือง": 266,
      "คริสต์": 267,
      "ต่อ": 268,
      "จาว": 269,
      "โด": 270,
      "ลา": 271,
      "ลูก": 272,
      "ป้อ": 273,
      "ถูก": 274,
      "กิ": 275,
      "ขอ": 276,
      "อด": 277,
      "ญญา": 278,
      "ี่": 279,
      "บาป": 280,
      "จ๋": 281,
      "ลง": 282,
      "หน้า": 283,
      "ตาง": 284,
      "ทธิ": 285,
      "คร": 286,
      "จี": 287,
      "สว": 288,
      "ซา": 289,
      "ยอ": 290,
      "วิต": 291,
      "จีวิต": 292,
      "ฮัก": 293,
      "ยิ": 294,
      "กิ๋น": 295,
      "บ่า": 296,
      "เน": 297,
      "นัก": 298,
      "บั": 299,
      "เหล": 300,
      "แม่": 301,
      "สุ": 302,
      "ำล": 303,
      "๊ด": 304,
      "สาว": 305,
      "เสีย": 306,
      "โดย": 307,
      "ทธิ์": 308,
      "หยัง": 309,
      "ติ": 310,
      "ฟัง": 311,
      "เดียว": 312,
      "เลย": 313,
      "รรค์": 314,
      "สวรรค์": 315,
      "แผ": 316,
      "โต้": 317,
      "โลก": 318,
      "้าง": 319,
      "สอง": 320,
      "เกิด": 321,
      "โต้ษ": 322,
      "ผ่อ": 323,
      "หมด": 324,
      "ต๋อน": 325,
      "คือ": 326,
      "สาวก": 327,
      "ัส": 328,
      "้อย": 329,
      "น้อง": 330,
      "พระวิ": 331,
      "าร": 332,
      "เผ": 333,
      "ยว": 334,
      "ำลัง": 335,
      "เต๊": 336,
      "ื่น": 337,
      "ยิน": 338,
      "้ำ": 339,
      "อะหยัง": 340,
      "ัว": 341,
      "าก": 342,
      "จึง": 343,
      "ตุ": 344,
      "โม": 345,
      "จ๋น": 346,
      "เต๊อะ": 347,
      "เสียง": 348,
      "บน": 349,
      "สอน": 350,
      "พระบ": 351,
      "โร": 352,
      "ห์": 353,
      "เอ": 354,
      "้วย": 355,
      "ิต": 356,
      "ญญาณ": 357,
      "สั่ง": 358,
      "ฮ้อง": 359,
      "ตั้ง": 360,
      "ียน": 361,
      "เหลือ": 362,
      "ก่อน": 363,
      "กาว่า": 364,
      "เว": 365,
      "หญ": 366,
      "ึ๊ด": 367,
      "กึ๊ด": 368,
      "เหีย": 369,
      "ยิว": 370,
      "บ้าน": 371,
      "ร์": 372,
      "ดิน": 373,
      "ำนา": 374,
      "รา": 375,
      "สำ": 376,
      "ืน": 377,
      "พระคริสต์": 378,
      "แต๊": 379,
      "อำนา": 380,
      "ัม": 381,
      "อำนาจ": 382,
      "ต่าง": 383,
      "ปิ": 384,
      "ปี้": 385,
      "จัก": 386,
      "เน่อ": 387,
      "ตอบ": 388,
      "่วน": 389,
      "ค่": 390,
      "ธรร": 391,
      "จ้วย": 392,
      "จาใด": 393,
      "ใจ้": 394,
      "ใหญ": 395,
      "ยอม": 396,
      "ใหญ่": 397,
      "ก่ำลัง": 398,
      "จาย": 399,
      "ปี้น้อง": 400,
      "ทู": 401,
      "เก่า": 402,
      "ัติ": 403,
      "พระค": 404,
      "อื่น": 405,
      "เปา": 406,
      "เตียว": 407,
      "ทูต": 408,
      "ป้อจาย": 409,
      "ห้า": 410,
      "เขียน": 411,
      "ปิ๊ก": 412,
      "๊น": 413,
      "ต๋า": 414,
      "หาร": 415,
      "ละ": 416,
      "ถาม": 417,
      "เปาโล": 418,
      "ส่วน": 419,
      "ประ": 420,
      "เกย": 421,
      "ยก": 422,
      "แก": 423,
      "แก่": 424,
      "จาอี้": 425,
      "ุม": 426,
      "หั้น": 427,
      "แคว": 428,
      "อัน": 429,
      "หาย": 430,
      "้าย": 431,
      "เซ": 432,
      "เต้า": 433,
      "ใส": 434,
      "ตร": 435,
      "บริส": 436,
      "ป๋": 437,
      "ุทธิ์": 438,
      "ฮับใจ๊": 439,
      "บริสุทธิ์": 440,
      "เวลา": 441,
      "บท": 442,
      "๊า": 443,
      "สม": 444,
      "นาด": 445,
      "ญญัติ": 446,
      "บัญญัติ": 447,
      "กษ": 448,
      "น้ำ": 449,
      "ขนาด": 450,
      "ธรรม": 451,
      "พระวิญญาณ": 452,
      "นาง": 453,
      "รู": 454,
      "หลัง": 455,
      "ตุ๊ก": 456,
      "ดา": 457,
      "โตร": 458,
      "ใค่": 459,
      "หมาย": 460,
      "ริย์": 461,
      "ก้า": 462,
      "ปาก": 463,
      "่าว": 464,
      "แตน": 465,
      "เตื้อ": 466,
      "ิดา": 467,
      "พระบิดา": 468,
      "ใส่": 469,
      "กร": 470,
      "ิส": 471,
      "เปโตร": 472,
      "ฐาน": 473,
      "ได้ฮับ": 474,
      "ัตริย์": 475,
      "กษัตริย์": 476,
      "จ๋ำ": 477,
      "ห้าม": 478,
      "ษา": 479,
      "ุตร": 480,
      "ได้ยิน": 481,
      "ริง": 482,
      "ผู้เจื้อ": 483,
      "จริง": 484,
      "ื่อ": 485,
      "หัว": 486,
      "แผ่น": 487,
      "ัด": 488,
      "ตัด": 489,
      "ขี้": 490,
      "จื้อ": 491,
      "มาร": 492,
      "หละ": 493,
      "แคว้น": 494,
      "แผ่นดิน": 495,
      "นาย": 496,
      "งาน": 497,
      "พระผู้": 498,
      "เป๋นเจ้า": 499,
      "สุด": 500,
      "พระผู้เป๋นเจ้า": 501,
      "ญิง": 502,
      "ปะ": 503,
      "แม่ญิง": 504,
      "้าด": 505,
      "จ้าด": 506,
      "ปุ": 507,
      "ผิด": 508,
      "เก๊า": 509,
      "สิน": 510,
      "ยอห์": 511,
      "ยอห์น": 512,
      "บาง": 513,
      "ยง": 514,
      "เดี": 515,
      "่ยว": 516,
      "ทูตสวรรค์": 517,
      "เดี่ยว": 518,
      "อิส": 519,
      "ปั": 520,
      "จ๋าร": 521,
      "จ๋ารย์": 522,
      "ตัดสิน": 523,
      "ฆ่า": 524,
      "วาง": 525,
      "อธิ": 526,
      "ุณ": 527,
      "ป๊น": 528,
      "เกีย": 529,
      "สั": 530,
      "็ด": 531,
      "สะ": 532,
      "ถือ": 533,
      "ภา": 534,
      "มัน": 535,
      "ลิ": 536,
      "อั้น": 537,
      "ุง": 538,
      "ข่าว": 539,
      "่วม": 540,
      "ยืน": 541,
      "เล็": 542,
      "เอล": 543,
      "แจ": 544,
      "โย": 545,
      "อั": 546,
      "รับ": 547,
      "เลือ": 548,
      "ฮ่วม": 549,
      "ก๋าง": 550,
      "สาม": 551,
      "่าน": 552,
      "ตก": 553,
      "เต้าอั้น": 554,
      "ลอด": 555,
      "ษฐาน": 556,
      "กั๋ว": 557,
      "อธิษฐาน": 558,
      "ิ่ง": 559,
      "สิบ": 560,
      "กรุง": 561,
      "ปอ": 562,
      "ส่ง": 563,
      "หิต": 564,
      "ถูกต้อง": 565,
      "บ่าเดี่ยว": 566,
      "โรหิต": 567,
      "ปุโรหิต": 568,
      "นุ": 569,
      "นั่ง": 570,
      "มือ": 571,
      "ียบ": 572,
      "ฮู้จัก": 573,
      "รอด": 574,
      "ยิ่ง": 575,
      "พ่อง": 576,
      "อ่อน": 577,
      "เฮือ": 578,
      "วาย": 579,
      "ี้ยง": 580,
      "ุก": 581,
      "ปี": 582,
      "เท": 583,
      "เยรู": 584,
      "ซาเล็": 585,
      "เยรูซาเล็": 586,
      "เยรูซาเล็ม": 587,
      "่ม": 588,
      "ข่าวดี": 589,
      "วัง": 590,
      "อุ": 591,
      "ฮ้าย": 592,
      "ี่ยว": 593,
      "จิต": 594,
      "ตลอด": 595,
      "หรับ": 596,
      "ืด": 597,
      "สุข": 598,
      "สำหรับ": 599,
      "ซี": 600,
      "สัต": 601,
      "เซา": 602,
      "ไม": 603,
      "เซิ่ง": 604,
      "ไม้": 605,
      "นี่": 606,
      "สัก": 607,
      "พระคุณ": 608,
      "ขว": 609,
      "ถ้อย": 610,
      "แผว": 611,
      "จักร": 612,
      "พย": 613,
      "ิก": 614,
      "แม้": 615,
      "ข้อ": 616,
      "เผียบ": 617,
      "ปก": 618,
      "ภี": 619,
      "ควร": 620,
      "ัมภี": 621,
      "พระคัมภี": 622,
      "พระคัมภีร์": 623,
      "ก้": 624,
      "ยาก": 625,
      "วน": 626,
      "ผี": 627,
      "แห": 628,
      "จง": 629,
      "ดู": 630,
      "ต๊": 631,
      "หน้อย": 632,
      "ษย์": 633,
      "นิ": 634,
      "ฮักษา": 635,
      "ติด": 636,
      "ยุ": 637,
      "พระวิหาร": 638,
      "ใหม": 639,
      "เกี่ยว": 640,
      "ยิ่งใหญ่": 641,
      "ถ้อยกำ": 642,
      "ใหม่": 643,
      "วด": 644,
      "แจ้ง": 645,
      "ผ้า": 646,
      "ุ่น": 647,
      "ตี": 648,
      "ผ่าน": 649,
      "เต๋": 650,
      "แน": 651,
      "แกะ": 652,
      "ฟา": 653,
      "ั่น": 654,
      "เสส": 655,
      "ตึงหมด": 656,
      "สัญญา": 657,
      "ผด": 658,
      "ข้าว": 659,
      "บ่าว": 660,
      "เข้าใจ๋": 661,
      "เหย": 662,
      "โมเสส": 663,
      "ิ้น": 664,
      "เต๋ม": 665,
      "มนุ": 666,
      "่าย": 667,
      "เปิด": 668,
      "มนุษย์": 669,
      "ัย": 670,
      "ไฟ": 671,
      "อาจ๋ารย์": 672,
      "เบ": 673,
      "เก็": 674,
      "เมีย": 675,
      "ต้องก๋าน": 676,
      "โผด": 677,
      "่วย": 678,
      "ฤทธิ์": 679,
      "ัญ": 680,
      "ใก้": 681,
      "แต่ง": 682,
      "พยาน": 683,
      "ปู่": 684,
      "ลุก": 685,
      "เสื้อ": 686,
      "พระบุตร": 687,
      "ปู่จา": 688,
      "ธี": 689,
      "ิบ": 690,
      "นอก": 691,
      "เก็บ": 692,
      "ซื่อ": 693,
      "ยู": 694,
      "แป๋": 695,
      "ลอ": 696,
      "ลี": 697,
      "แด": 698,
      "คริสตจักร": 699,
      "ลงโต้ษ": 700,
      "ยอมฮับ": 701,
      "พิ": 702,
      "แส": 703,
      "ครอง": 704,
      "ด้วย": 705,
      "ทน": 706,
      "ฟ้า": 707,
      "ณ์": 708,
      "สตาง": 709,
      "เคร": 710,
      "ยินดี": 711,
      "สตางค์": 712,
      "ตะ": 713,
      "ศา": 714,
      "ตั้งแต่": 715,
      "คัญ": 716,
      "นำ": 717,
      "มัส": 718,
      "สำคัญ": 719,
      "ต่างจ้าด": 720,
      "ปกครอง": 721,
      "สัน": 722,
      "ริญ": 723,
      "หละอ่อน": 724,
      "จุ": 725,
      "ศพ": 726,
      "รติ": 727,
      "อับ": 728,
      "ไหน": 729,
      "้อม": 730,
      "เซาะ": 731,
      "ยา": 732,
      "ทหาร": 733,
      "เปื้อน": 734,
      "เกียรติ": 735,
      "ทะ": 736,
      "บุตร": 737,
      "พัน": 738,
      "่อย": 739,
      "เลี้ยง": 740,
      "ทิ": 741,
      "มั่น": 742,
      "ไห": 743,
      "็ก": 744,
      "ทร": 745,
      "ฮัม": 746,
      "ราฮัม": 747,
      "อับราฮัม": 748,
      "นับ": 749,
      "ยับ": 750,
      "หนัง": 751,
      "คืน": 752,
      "เจ็ด": 753,
      "ก๋ำ": 754,
      "อัคร": 755,
      "ว์": 756,
      "วิญญาณ": 757,
      "แป๋ง": 758,
      "น์": 759,
      "พติ": 760,
      "ศมา": 761,
      "สี่": 762,
      "บัพติ": 763,
      "วางใจ๋": 764,
      "บัพติศมา": 765,
      "คอก": 766,
      "ริสี": 767,
      "ดาว": 768,
      "ฟาริสี": 769,
      "เครื่อง": 770,
      "ก่อ": 771,
      "ฮิ": 772,
      "ื้น": 773,
      "้ม": 774,
      "ราเอล": 775,
      "อิสราเอล": 776,
      "ทะเล": 777,
      "มอบ": 778,
      "ู๋": 779,
      "เล่า": 780,
      "ดัง": 781,
      "หวัง": 782,
      "ถวาย": 783,
      "ตี๋น": 784,
      "หว่า": 785,
      "และ": 786,
      "เหตุ": 787,
      "สวน": 788,
      "เลือก": 789,
      "นวน": 790,
      "จื้น": 791,
      "องุ่น": 792,
      "่วง": 793,
      "จ๋ำนวน": 794,
      "เฟ": 795,
      "สมควร": 796,
      "บุตรมนุษย์": 797,
      "จั": 798,
      "ฉิบ": 799,
      "หิน": 800,
      "เจื้อฟัง": 801,
      "โมง": 802,
      "โมน": 803,
      "เลือด": 804,
      "อัครทูต": 805,
      "ฉิบหาย": 806,
      "เฮือน": 807,
      "เกียม": 808,
      "เทศ": 809,
      "ปอน": 810,
      "โดน": 811,
      "หลังจาก": 812,
      "โยช": 813,
      "ต๊อง": 814,
      "สรร": 815,
      "าะ": 816,
      "แบ": 817,
      "เสริญ": 818,
      "สัตว์": 819,
      "สรรเสริญ": 820,
      "สร": 821,
      "สู": 822,
      "เพ": 823,
      "แห่ง": 824,
      "เค": 825,
      "แข": 826,
      "เตียวตาง": 827,
      "ผล": 828,
      "วอน": 829,
      "เศ": 830,
      "ประโยช": 831,
      "ขว้าง": 832,
      "ประโยชน์": 833,
      "นมัส": 834,
      "วง": 835,
      "แป": 836,
      "แฮ": 837,
      "ีย์": 838,
      "ปั๋": 839,
      "สร้าง": 840,
      "นมัสก๋าน": 841,
      "จม": 842,
      "พร": 843,
      "สาย": 844,
      "ก๋ำลัง": 845,
      "กำสอน": 846,
      "สมบ": 847,
      "ซีโมน": 848,
      "ขา": 849,
      "คา": 850,
      "ฮู": 851,
      "จื้นจม": 852,
      "ลับ": 853,
      "ก๋าย": 854,
      "ี่ย": 855,
      "ขี้ข้า": 856,
      "มารีย์": 857,
      "ขอบ": 858,
      "ปัง": 859,
      "อยาก": 860,
      "เผย": 861,
      "มปัง": 862,
      "ย้าง": 863,
      "เขน": 864,
      "ก๋ง": 865,
      "หนมปัง": 866,
      "เข้าหนมปัง": 867,
      "ลาต": 868,
      "แดน": 869,
      "ผัว": 870,
      "ล่": 871,
      "ใคว": 872,
      "ปีลาต": 873,
      "ใคว่": 874,
      "คุม": 875,
      "ไล่": 876,
      "ำลาย": 877,
      "พันธ": 878,
      "แฮง": 879,
      "งืด": 880,
      "๊ย": 881,
      "จิตใจ๋": 882,
      "พร้อม": 883,
      "ของกิ๋น": 884,
      "เฮโร": 885,
      "สิทธิ": 886,
      "กาลิ": 887,
      "อุ๊ย": 888,
      "พิธี": 889,
      "กาลิลี": 890,
      "จด": 891,
      "เจื": 892,
      "ตู๋": 893,
      "ฝัง": 894,
      "มืด": 895,
      "แอ": 896,
      "๊อ": 897,
      "ปะตู๋": 898,
      "ปี๋": 899,
      "ปั๋ญญา": 900,
      "บาย": 901,
      "รัน": 902,
      "ร้อย": 903,
      "โก": 904,
      "่ำ": 905,
      "หม่อน": 906,
      "อดทน": 907,
      "ฮูป": 908,
      "ี่ยน": 909,
      "ดร์": 910,
      "ฟี": 911,
      "สี": 912,
      "อัส": 913,
      "เมต": 914,
      "สิทธิ์": 915,
      "สามาร": 916,
      "สัตย์": 917,
      "นิรัน": 918,
      "เกี่ยวกับ": 919,
      "สันติ": 920,
      "เจื๊อ": 921,
      "สามารถ": 922,
      "นิรันดร์": 923,
      "อม": 924,
      "สันติสุข": 925,
      "บอด": 926,
      "ก๋าร": 927,
      "ค่ำ": 928,
      "หัวหน้า": 929,
      "ก๋ารณ์": 930,
      "ขาย": 931,
      "นอน": 932,
      "ียง": 933,
      "ภาษา": 934,
      "เปิดเผย": 935,
      "เฮโรด": 936,
      "ดอย": 937,
      "ลำ": 938,
      "เม็ด": 939,
      "ศาลา": 940,
      "เมตต๋า": 941,
      "(​": 942,
      "ดง": 943,
      "อร์": 944,
      "ิ็ก": 945,
      "ื๋": 946,
      "มาน": 947,
      "หนัก": 948,
      "แม่น": 949,
      "สาบ": 950,
      "เหล้า": 951,
      "ยูดา": 952,
      "ดาวิด": 953,
      "ขะ": 954,
      "ทำลาย": 955,
      "ลอง": 956,
      "หัก": 957,
      "บ่าก": 958,
      "บ่าหิน": 959,
      "ประเทศ": 960,
      "ธรรมศาลา": 961,
      "แสดง": 962,
      "คง": 963,
      "ที": 964,
      "ล้าง": 965,
      "อาย": 966,
      "อวด": 967,
      "โข": 968,
      "ต่อหน้า": 969,
      "ยกโต้ษ": 970,
      "ปั๋น": 971,
      "บ่าเดี่ยวนี้": 972,
      "เสื้อผ้า": 973,
      "กอย": 974,
      "ต้อน": 975,
      "สือ": 976,
      "อ้อน": 977,
      "หนังสือ": 978,
      "โขด": 979,
      "อ้อนวอน": 980,
      "จุม": 981,
      "นุม": 982,
      "มหา": 983,
      "ลม": 984,
      "ลล": 985,
      "​)": 986,
      "เปิ้น": 987,
      "่อม": 988,
      "มาจ๋ารย์": 989,
      "แตก": 990,
      "ธรรมาจ๋ารย์": 991,
      "เหน": 992,
      "เก๋ง": 993,
      "๊ะ": 994,
      "เซฟ": 995,
      "โยเซฟ": 996,
      "จุมนุม": 997,
      "ญา": 998,
      "ฝาก": 999,
      "รนา": 1000,
      "เดีย": 1001,
      "เอิ้น": 1002,
      "อุโมง": 1003,
      "หว่าง": 1004,
      "เหตุก๋ารณ์": 1005,
      "อุโมงค์": 1006,
      "ต์": 1007,
      "โค": 1008,
      "ียา": 1009,
      "ต๋ำ": 1010,
      "เมิน": 1011,
      "เตื๋": 1012,
      "บาโต": 1013,
      "ารพ": 1014,
      "แควน": 1015,
      "สะบาโต": 1016,
      "ติดต๋าม": 1017,
      "เคารพ": 1018,
      "เตื๋อน": 1019,
      "ก์": 1020,
      "คำ": 1021,
      "ต้": 1022,
      "ส่อง": 1023,
      "ใต้": 1024,
      "ังก์": 1025,
      "เถิงแม้": 1026,
      "เนีย": 1027,
      "บัส": 1028,
      "บัลล": 1029,
      "ซื่อสัตย์": 1030,
      "จดหมาย": 1031,
      "ต้อนฮับ": 1032,
      "เหนือ": 1033,
      "บัลลังก์": 1034,
      "กว่า": 1035,
      "ฝ่าย": 1036,
      "อ้าง": 1037,
      "เสี้ยง": 1038,
      "หมายสำคัญ": 1039,
      "หละวัง": 1040,
      "ปอใจ๋": 1041,
      "แน่": 1042,
      "ต๊องฟ้า": 1043,
      "ปัน": 1044,
      "สน": 1045,
      "กลับ": 1046,
      "บัง": 1047,
      "เขิง": 1048,
      "เผิก": 1049,
      "ต๊าย": 1050,
      "ทรมาน": 1051,
      "นับถือ": 1052,
      "ึด": 1053,
      "เง": 1054,
      "เจิ": 1055,
      "สมัย": 1056,
      "แบบ": 1057,
      "สูง": 1058,
      "ยูดาส": 1059,
      "ดิ": 1060,
      "เฝ": 1061,
      "็ง": 1062,
      "แข็ง": 1063,
      "กลับใจ๋": 1064,
      "มัด": 1065,
      "ศัต": 1066,
      "ุ่ม": 1067,
      "เอง": 1068,
      "โอ": 1069,
      "โอก": 1070,
      "รู๋": 1071,
      "ศัตรู๋": 1072,
      "งาม": 1073,
      "ึก": 1074,
      "็บ": 1075,
      "เปิง": 1076,
      "หลง": 1077,
      "หนัต": 1078,
      "เลิ็ก": 1079,
      "กำสั่ง": 1080,
      "สุหนัต": 1081,
      "ประมา": 1082,
      "น่า": 1083,
      "นาม": 1084,
      "ล้ำ": 1085,
      "สู้": 1086,
      "เป่ง": 1087,
      "เติง": 1088,
      "กำเผียบ": 1089,
      "ปื": 1090,
      "รัส": 1091,
      "ลัก": 1092,
      "หย": 1093,
      "แยก": 1094,
      "หนี": 1095,
      "เลิก": 1096,
      "ลูกบ่าว": 1097,
      "หน้าตี้": 1098,
      "แก้": 1099,
      "ตุ๊กยาก": 1100,
      "ขวา": 1101,
      "ไห้": 1102,
      "ปื๊น": 1103,
      "ผู": 1104,
      "เจ้านาย": 1105,
      "ครอบ": 1106,
      "โรค": 1107,
      "สุดต๊าย": 1108,
      "จั๊ก": 1109,
      "จื้นจมยินดี": 1110,
      "เจิญ": 1111,
      "เป่งแจ้ง": 1112,
      "ผู้น": 1113,
      "ศจ๋": 1114,
      "สง": 1115,
      "สนา": 1116,
      "ัพ": 1117,
      "ก๋า": 1118,
      "รรย์": 1119,
      "ดินแดน": 1120,
      "ป๋า": 1121,
      "ลิป": 1122,
      "เซาโล": 1123,
      "ฟีลิป": 1124,
      "ศจ๋รรย์": 1125,
      "ตัน": 1126,
      "ศัก": 1127,
      "แบ่": 1128,
      "เจ็บ": 1129,
      "เจ้าของ": 1130,
      "หลาน": 1131,
      "ต๋าน": 1132,
      "เร็": 1133,
      "ต่อไป": 1134,
      "จ้วยเหลือ": 1135,
      "จ๋ำเป๋น": 1136,
      "อิสระ": 1137,
      "แต่งงาน": 1138,
      "ก๋ำลังใจ๋": 1139,
      "แบ่ง": 1140,
      "ปัส": 1141,
      "ข้าเจ้า": 1142,
      "เถียง": 1143,
      "ตั้งเก๊า": 1144,
      "อัศจ๋รรย์": 1145,
      "ยากอบ": 1146,
      "ยูเดีย": 1147,
      "สมบัติ": 1148,
      "ผู้นำ": 1149,
      "ฒ่า": 1150,
      "ยัน": 1151,
      "อิน": 1152,
      "เฒ่า": 1153,
      "เผา": 1154,
      "แก่น": 1155,
      "ภาพ": 1156,
      "ซีซา": 1157,
      "เบธ": 1158,
      "ก้อน": 1159,
      "ย่อง": 1160,
      "วก": 1161,
      "วั": 1162,
      "ศิ": 1163,
      "หน่วย": 1164,
      "ยกย่อง": 1165,
      "หละหว่าง": 1166,
      "แสง": 1167,
      "ตะก่อน": 1168,
      "ขัง": 1169,
      "สบาย": 1170,
      "ีก": 1171,
      "ุร": 1172,
      "เช": 1173,
      "เปี่ยน": 1174,
      "บารนา": 1175,
      "ตี๋": 1176,
      "ยาห์": 1177,
      "มั่นใจ๋": 1178,
      "พันธสัญญา": 1179,
      "บารนาบัส": 1180,
      "ต๋น": 1181,
      "ล่วง": 1182,
      "หยุ": 1183,
      "ฮ้อน": 1184,
      "อาด": 1185,
      "ครัว": 1186,
      "ผ่อกอย": 1187,
      "ากฏ": 1188,
      "เวณ": 1189,
      "ป๋ากฏ": 1190,
      "แน่น": 1191,
      "ฮิม": 1192,
      "บ่ากอง": 1193,
      "ดิ์": 1194,
      "ศักดิ์": 1195,
      "คับ": 1196,
      "ดาร": 1197,
      "ยำ": 1198,
      "ล่าย": 1199,
      "สอบ": 1200,
      "ูร": 1201,
      "หลับ": 1202,
      "เนื้อ": 1203,
      "ติธรรม": 1204,
      "จิตวิญญาณ": 1205,
      "ยุติธรรม": 1206,
      "หักหลัง": 1207,
      "บังคับ": 1208,
      "เฝ้า": 1209,
      "กฎ": 1210,
      "กระ": 1211,
      "จัง": 1212,
      "ซ่วย": 1213,
      "ณหา": 1214,
      "ฝั่ง": 1215,
      "ยึด": 1216,
      "ลู": 1217,
      "เวย": 1218,
      "๋ณหา": 1219,
      "ตั๋ณหา": 1220,
      "กั๋นดาร": 1221,
      "เรีย": 1222,
      "ครับ": 1223,
      "กึ๊ดเติง": 1224,
      "ยืนยัน": 1225,
      "มั่นคง": 1226,
      "เศร": 1227,
      "ูรณ์": 1228,
      "ต้า": 1229,
      "นก": 1230,
      "ปล": 1231,
      "ป่วย": 1232,
      "ราง": 1233,
      "ล่น": 1234,
      "ไก๋": 1235,
      "เกาะ": 1236,
      "ตั้งใจ๋": 1237,
      "ป๋าย": 1238,
      "เงิน": 1239,
      "ชัย": 1240,
      "ถ้วย": 1241,
      "ฮับเจื้อ": 1242,
      "ซาต๋าน": 1243,
      "ียาห์": 1244,
      "ปัสกา": 1245,
      "ขัด": 1246,
      "ตวาย": 1247,
      "ทิน": 1248,
      "ทัส": 1249,
      "มล": 1250,
      "ฮี": 1251,
      "ิ่น": 1252,
      "เจ้าเมือง": 1253,
      "ตั๊ก": 1254,
      "ย้อนจาอั้น": 1255,
      "ป้ออุ๊ย": 1256,
      "แอ่ว": 1257,
      "ครอบครัว": 1258,
      "วัล": 1259,
      "รางวัล": 1260,
      "มลทิน": 1261,
      "จัด": 1262,
      "ซื้อ": 1263,
      "รั": 1264,
      "รวย": 1265,
      "ล่า": 1266,
      "หู": 1267,
      "ห้อง": 1268,
      "หอม": 1269,
      "แผน": 1270,
      "นุ่ง": 1271,
      "จุล่าย": 1272,
      "เพศ": 1273,
      "ประมาณ": 1274,
      "อินดู": 1275,
      "ศักดิ์สิทธิ์": 1276,
      "ยำเก๋ง": 1277,
      "ซอบ": 1278,
      "ซ้ำ": 1279,
      "ต้น": 1280,
      "ทุร": 1281,
      "ิป": 1282,
      "โจ": 1283,
      "ตั๊ด": 1284,
      "หนด": 1285,
      "อาหาร": 1286,
      "เจื้อก": 1287,
      "แม่หม่อน": 1288,
      "ดาบ": 1289,
      "ปั๊ด": 1290,
      "แต่งตั้ง": 1291,
      "แดง": 1292,
      "ก๋ำหนด": 1293,
      "สมบูรณ์": 1294,
      "สาบาน": 1295,
      "ทุรกั๋นดาร": 1296,
      "กุ": 1297,
      "ง่าว": 1298,
      "จู": 1299,
      "อ่าน": 1300,
      "ตั๋วเก่า": 1301,
      "ภาษ": 1302,
      "ทรัพ": 1303,
      "ลูน": 1304,
      "ทรัพย์": 1305,
      "ฟ้อง": 1306,
      "มิ": 1307,
      "ศมี": 1308,
      "หนี้": 1309,
      "อีย": 1310,
      "ิม": 1311,
      "ไซ": 1312,
      "เข้ม": 1313,
      "หลวก": 1314,
      "ติก": 1315,
      "ขาด": 1316,
      "เจื๊อสาย": 1317,
      "รัศมี": 1318,
      "ิปต์": 1319,
      "อียิปต์": 1320,
      "จ้าง": 1321,
      "ดาย": 1322,
      "ดาน": 1323,
      "ธา": 1324,
      "มอก": 1325,
      "าส": 1326,
      "เปิ": 1327,
      "เฮียน": 1328,
      "เมน": 1329,
      "กำกึ๊ด": 1330,
      "ราบ": 1331,
      "หมายเถิง": 1332,
      "กรีก": 1333,
      "หว่าน": 1334,
      "ภาษี": 1335,
      "วุ่น": 1336,
      "โส": 1337,
      "็น": 1338,
      "หลัก": 1339,
      "นาซา": 1340,
      "เหล็ก": 1341,
      "เร็ธ": 1342,
      "เข้มแข็ง": 1343,
      "นาซาเร็ธ": 1344,
      "ถ่อม": 1345,
      "ป่อย": 1346,
      "ม้า": 1347,
      "รีย": 1348,
      "ไข": 1349,
      "หม้าย": 1350,
      "พระสัญญา": 1351,
      "นึก": 1352,
      "โมธี": 1353,
      "สำนึก": 1354,
      "เอลียาห์": 1355,
      "สันดาน": 1356,
      "ทิโมธี": 1357,
      "สนใจ๋": 1358,
      "แน่นอน": 1359,
      "คุณ": 1360,
      "มก๋าง": 1361,
      "ยาม": 1362,
      "สัม": 1363,
      "ใบ": 1364,
      "เจ๊า": 1365,
      "แต้น": 1366,
      "ผู้ปกครอง": 1367,
      "บาก": 1368,
      "เผื่อ": 1369,
      "โกม": 1370,
      "ลำบาก": 1371,
      "ต้ามก๋าง": 1372,
      "โจ้ง": 1373,
      "ขัน": 1374,
      "ง่อย": 1375,
      "ฏิ": 1376,
      "บุ": 1377,
      "มั": 1378,
      "อิ": 1379,
      "ก๋อง": 1380,
      "อาเมน": 1381,
      "เมื่อคืน": 1382,
      "เผ่า": 1383,
      "นายร้อย": 1384,
      "เก๊าไม้": 1385,
      "ยุค": 1386,
      "ตะวัน": 1387,
      "ไหว้": 1388,
      "โคบ": 1389,
      "โอกาส": 1390,
      "ฉบ": 1391,
      "ทด": 1392,
      "รว": 1393,
      "หก": 1394,
      "ไถ": 1395,
      "หลวง": 1396,
      "ควบ": 1397,
      "านา": 1398,
      "ความหมาย": 1399,
      "หญ้า": 1400,
      "ยาโคบ": 1401,
      "ขาว": 1402,
      "พันธ์": 1403,
      "ซีซาร์": 1404,
      "สัมพันธ์": 1405,
      "ฉบับ": 1406,
      "กราบ": 1407,
      "คล": 1408,
      "ซิ": 1409,
      "ต่ำ": 1410,
      "บริ": 1411,
      "หลึ": 1412,
      "หนุ่ม": 1413,
      "เตสนา": 1414,
      "ต่อต้าน": 1415,
      "เสียใจ๋": 1416,
      "สะอาด": 1417,
      "ทะเลสาบ": 1418,
      "คี": 1419,
      "ซัส": 1420,
      "พื": 1421,
      "ลาม": 1422,
      "ส์": 1423,
      "เมา": 1424,
      "มาซิ": 1425,
      "โลภ": 1426,
      "โดเนีย": 1427,
      "น้องบ่าว": 1428,
      "น้ำมัน": 1429,
      "แม้แต่": 1430,
      "แบก": 1431,
      "คาริ": 1432,
      "สูงสุด": 1433,
      "พืช": 1434,
      "มาซิโดเนีย": 1435,
      "ฆี่ยน": 1436,
      "ณา": 1437,
      "ถง": 1438,
      "ม่วน": 1439,
      "สติ": 1440,
      "สละ": 1441,
      "หุ": 1442,
      "ืม": 1443,
      "เธ": 1444,
      "เฆี่ยน": 1445,
      "กัส": 1446,
      "เดือน": 1447,
      "ก่ำ": 1448,
      "ลาซา": 1449,
      "กิ่ง": 1450,
      "เซีย": 1451,
      "ขอบพระคุณ": 1452,
      "แม่น้ำ": 1453,
      "ล้ำเลิ็ก": 1454,
      "ปล่อย": 1455,
      "ไถ่": 1456,
      "ลาซารัส": 1457,
      "กุม": 1458,
      "ชิก": 1459,
      "ดัก": 1460,
      "ทาน": 1461,
      "ฟั่ง": 1462,
      "รี": 1463,
      "สมา": 1464,
      "สภา": 1465,
      "สึก": 1466,
      "ห่วง": 1467,
      "เริญ": 1468,
      "แวด": 1469,
      "โบ": 1470,
      "มาเรีย": 1471,
      "เกิ": 1472,
      "สิลา": 1473,
      "ฮู้สึก": 1474,
      "เหรีย": 1475,
      "ประทาน": 1476,
      "อันทิ": 1477,
      "จ๋ำเริญ": 1478,
      "นายพัน": 1479,
      "สะมาเรีย": 1480,
      "ตกลง": 1481,
      "ไหว": 1482,
      "เก๋งกั๋ว": 1483,
      "ขัดข": 1484,
      "ควบคุม": 1485,
      "สมาชิก": 1486,
      "สิลาส": 1487,
      "เหรียญ": 1488,
      "กล": 1489,
      "ขอย": 1490,
      "ขี่": 1491,
      "จวน": 1492,
      "ซ่อน": 1493,
      "ปวด": 1494,
      "ผญา": 1495,
      "ลวง": 1496,
      "สเท": 1497,
      "อ้าย": 1498,
      "ูมิ": 1499,
      "ไหล": 1500,
      "เมฆ": 1501,
      "ข้าม": 1502,
      "อาณา": 1503,
      "ต่อสู้": 1504,
      "โรมัน": 1505,
      "ประเวณ": 1506,
      "หัวที": 1507,
      "อ่อนแอ": 1508,
      "เต๋มตี้": 1509,
      "จั๊น": 1510,
      "แตกแยก": 1511,
      "เศร้า": 1512,
      "วุ่นวาย": 1513,
      "อันทิโอก": 1514,
      "อาณาจักร": 1515,
      "ประเวณี": 1516,
      "ก๊ด": 1517,
      "คอ": 1518,
      "คาย": 1519,
      "ปาย": 1520,
      "ปั้น": 1521,
      "ปิด": 1522,
      "ภูมิ": 1523,
      "ร่ำ": 1524,
      "็จ": 1525,
      "่ย": 1526,
      "๊ำ": 1527,
      "หมู": 1528,
      "หมื่น": 1529,
      "เป่า": 1530,
      "ือร": 1531,
      "ดีใจ๋": 1532,
      "เดื่อ": 1533,
      "บ่าเดื่อ": 1534,
      "นักโต้ษ": 1535,
      "ื่อม": 1536,
      "สั่น": 1537,
      "ปกติ": 1538,
      "ก้ม": 1539,
      "แห้ง": 1540,
      "แปง": 1541,
      "บ่ากอก": 1542,
      "เปิงใจ๋": 1543,
      "หยุบ": 1544,
      "ร่ำรวย": 1545,
      "งัว": 1546,
      "จิ": 1547,
      "ดื": 1548,
      "ถอก": 1549,
      "ป่า": 1550,
      "ปัก": 1551,
      "ล้น": 1552,
      "ลัน": 1553,
      "วี": 1554,
      "โน": 1555,
      "หม้อ": 1556,
      "หมู่บ้าน": 1557,
      "เจ้าข้า": 1558,
      "้วน": 1559,
      "หลุ": 1560,
      "ครบ": 1561,
      "เอเฟ": 1562,
      "เว้น": 1563,
      "อิสอั": 1564,
      "อธิบาย": 1565,
      "เอลี": 1566,
      "ตะลัน": 1567,
      "เพลง": 1568,
      "แปด": 1569,
      "สายต๋า": 1570,
      "ลองใจ๋": 1571,
      "รวม": 1572,
      "ภูมิใจ๋": 1573,
      "ดื่ม": 1574,
      "เอเฟซัส": 1575,
      "อิสอัค": 1576,
      "ตะลันต์": 1577,
      "กี่": 1578,
      "ดล": 1579,
      "ดอก": 1580,
      "ถา": 1581,
      "ถาน": 1582,
      "ถัด": 1583,
      "ท์": 1584,
      "ปู": 1585,
      "ผม": 1586,
      "พัก": 1587,
      "มร": 1588,
      "ลืม": 1589,
      "วา": 1590,
      "วุ": 1591,
      "สถาน": 1592,
      "ห่าง": 1593,
      "ฮบ": 1594,
      "ฮอย": 1595,
      "เนา": 1596,
      "เข่า": 1597,
      "ือบ": 1598,
      "เกือบ": 1599,
      "หนา": 1600,
      "อาวุ": 1601,
      "อิสยาห์": 1602,
      "ศาสนา": 1603,
      "เฟน": 1604,
      "คลื่น": 1605,
      "สเทเฟน": 1606,
      "ดลใจ๋": 1607,
      "เนาะ": 1608,
      "ขบ": 1609,
      "คุก": 1610,
      "ดับ": 1611,
      "ตื่น": 1612,
      "ป้อง": 1613,
      "ยื่น": 1614,
      "ย่ำ": 1615,
      "เตี้": 1616,
      "หนาม": 1617,
      "เต็น": 1618,
      "เลวี": 1619,
      "เส้น": 1620,
      "โต๊ะ": 1621,
      "เหง": 1622,
      "จ๋ม": 1623,
      "ต๋าบอด": 1624,
      "กษา": 1625,
      "่าวหา": 1626,
      "ฐานะ": 1627,
      "ปุด": 1628,
      "แจก": 1629,
      "ยุ่ง": 1630,
      "ศาล": 1631,
      "ขอบคุณ": 1632,
      "ขะใจ๋": 1633,
      "หยุด": 1634,
      "ตวายตั๊ก": 1635,
      "ฮีต": 1636,
      "เปิ้ง": 1637,
      "บุบ": 1638,
      "กล่าวหา": 1639,
      "คายา": 1640,
      "เตี้ยง": 1641,
      "เต็นท์": 1642,
      "งู": 1643,
      "งกุ": 1644,
      "จู๋": 1645,
      "จ๊ำ": 1646,
      "ดก": 1647,
      "ดุ": 1648,
      "ด่า": 1649,
      "น่อย": 1650,
      "บิ": 1651,
      "ป๊ะ": 1652,
      "ฝน": 1653,
      "พาก": 1654,
      "มัง": 1655,
      "มงกุ": 1656,
      "ลอย": 1657,
      "ศก": 1658,
      "ศี": 1659,
      "สภาพ": 1660,
      "สทัส": 1661,
      "สล่า": 1662,
      "ั่ว": 1663,
      "โห": 1664,
      "โศก": 1665,
      "หมิ่น": 1666,
      "ตี้นอน": 1667,
      "บ่อ": 1668,
      "ตัส": 1669,
      "เสร": 1670,
      "เอาใจ๋": 1671,
      "เอเช": 1672,
      "อันตร": 1673,
      "เล็ก": 1674,
      "เทพเจ้า": 1675,
      "พิพาก": 1676,
      "จู๊": 1677,
      "บริเวณ": 1678,
      "หลึ่ง": 1679,
      "มรดก": 1680,
      "จู๋ง": 1681,
      "มงกุฎ": 1682,
      "ศีล": 1683,
      "เอเชีย": 1684,
      "อันตราย": 1685,
      "พิพากษา": 1686,
      "งอก": 1687,
      "ตัก": 1688,
      "ปฏิ": 1689,
      "ผืน": 1690,
      "มน": 1691,
      "รอ": 1692,
      "ลคี": 1693,
      "วิง": 1694,
      "โคร": 1695,
      "ไหม": 1696,
      "้ย": 1697,
      "๊บ": 1698,
      "ี้ยว": 1699,
      "หมา": 1700,
      "แลง": 1701,
      "เมลคี": 1702,
      "ริน": 1703,
      "เกิ่ง": 1704,
      "เลส": 1705,
      "โต้ง": 1706,
      "ลาก": 1707,
      "ป้อแม่": 1708,
      "วางแผน": 1709,
      "ลิ้น": 1710,
      "นอกจาก": 1711,
      "โก้น": 1712,
      "สงบ": 1713,
      "ล่าม": 1714,
      "อิ่ม": 1715,
      "ทดสอบ": 1716,
      "หุย": 1717,
      "วิงวอน": 1718,
      "ข่วง": 1719,
      "ชุม": 1720,
      "น้อม": 1721,
      "ม้วน": 1722,
      "รียา": 1723,
      "สล": 1724,
      "อัม": 1725,
      "อุม": 1726,
      "อปอ": 1727,
      "อรนา": 1728,
      "แหล": 1729,
      "ไฮ": 1730,
      "เปอรนา": 1731,
      "เจ้าบ่าว": 1732,
      "หนตาง": 1733,
      "เจื้อถือ": 1734,
      "หันแก่": 1735,
      "ลูกหลาน": 1736,
      "กิเลส": 1737,
      "เน่า": 1738,
      "ประชุม": 1739,
      "เต้าใด": 1740,
      "ป๋อม": 1741,
      "ยาว": 1742,
      "ทิตัส": 1743,
      "คาเปอรนา": 1744,
      "อายุ": 1745,
      "ตันที": 1746,
      "ซีซารียา": 1747,
      "ศิลา": 1748,
      "บ่ากอกเทศ": 1749,
      "มังกร": 1750,
      "เสร็จ": 1751,
      "อปอล": 1752,
      "คาเปอรนาอุม": 1753,
      "กว": 1754,
      "ขุม": 1755,
      "คดี": 1756,
      "จน์": 1757,
      "ตบ": 1758,
      "ผะ": 1759,
      "พิส": 1760,
      "มิต": 1761,
      "ราย": 1762,
      "สื": 1763,
      "อานา": 1764,
      "ูจน์": 1765,
      "แร": 1766,
      "โธ": 1767,
      "โก๋ง": 1768,
      "ไอ": 1769,
      "เปื่อ": 1770,
      "เขต": 1771,
      "านี": 1772,
      "ผู้จ้วย": 1773,
      "เต๊า": 1774,
      "โรม": 1775,
      "ประจ๋ำ": 1776,
      "ตุ๊กใจ๋": 1777,
      "มารธา": 1778,
      "ภาระ": 1779,
      "ลิอัส": 1780,
      "เต๋มใจ๋": 1781,
      "คืนดี": 1782,
      "เฟสทัส": 1783,
      "ญาติ": 1784,
      "สอบสวน": 1785,
      "เนื้อหนัง": 1786,
      "ไหม้": 1787,
      "อปอลโล": 1788,
      "พิสูจน์": 1789,
      "อานาเนีย": 1790,
      "เปื่อย": 1791,
      "ง่าย": 1792,
      "ดาม": 1793,
      "ดรู": 1794,
      "ดวง": 1795,
      "ตู้": 1796,
      "ต้อย": 1797,
      "บรู": 1798,
      "บิ่น": 1799,
      "ปปา": 1800,
      "มื้อ": 1801,
      "ล่อ": 1802,
      "ลุ่ม": 1803,
      "ศัย": 1804,
      "สู่": 1805,
      "หว": 1806,
      "แค": 1807,
      "โจ๋": 1808,
      "เป้า": 1809,
      "หนิ": 1810,
      "อาจ": 1811,
      "อากา": 1812,
      "อาศัย": 1813,
      "กำเดียว": 1814,
      "โลม": 1815,
      "เดิม": 1816,
      "ลูกจ้าง": 1817,
      "ัสกัส": 1818,
      "สำเร็": 1819,
      "ปั่น": 1820,
      "นิมิต": 1821,
      "เศคาริ": 1822,
      "ต๋ำหนิ": 1823,
      "ประมาท": 1824,
      "อาดัม": 1825,
      "ฮีบรู": 1826,
      "ตั๊กตวาย": 1827,
      "แผนก๋าน": 1828,
      "ต่ำต้อย": 1829,
      "ลามก": 1830,
      "ปู๊น": 1831,
      "สืบ": 1832,
      "ดามัสกัส": 1833,
      "โจ๋ร": 1834,
      "สำเร็จ": 1835,
      "เศคาริยาห์": 1836,
      "ก๊า": 1837,
      "งว": 1838,
      "จ่ม": 1839,
      "จอร์": 1840,
      "ดอน": 1841,
      "ทั่ว": 1842,
      "ปูก": 1843,
      "ฟัน": 1844,
      "ยู้": 1845,
      "รอบ": 1846,
      "อู": 1847,
      "ฮาก": 1848,
      "โฮ": 1849,
      "ไก่": 1850,
      "เขี้ยว": 1851,
      "ข้าง": 1852,
      "ริม": 1853,
      "เก้า": 1854,
      "เล่น": 1855,
      "อาร": 1856,
      "เมื่อลูน": 1857,
      "เดค": 1858,
      "สาป": 1859,
      "เนลิอัส": 1860,
      "าร์": 1861,
      "ตุ๊บ": 1862,
      "ราณ": 1863,
      "ปิ๊ด": 1864,
      "อันดรู": 1865,
      "เซเดค": 1866,
      "เก๊าหัวที": 1867,
      "สัย": 1868,
      "สะป๊ะ": 1869,
      "ตกใจ๋": 1870,
      "พยา": 1871,
      "เศษ": 1872,
      "ขะแล": 1873,
      "ขะแจ": 1874,
      "สนั่น": 1875,
      "จั๊กจวน": 1876,
      "สงสัย": 1877,
      "เบธานี": 1878,
      "กุ๋น": 1879,
      "จูบ": 1880,
      "มัท": 1881,
      "โบราณ": 1882,
      "เกิ๋น": 1883,
      "ขัดขวาง": 1884,
      "หลุ้ม": 1885,
      "โศกเศร้า": 1886,
      "โครเนลิอัส": 1887,
      "เมลคีเซเดค": 1888,
      "ผะกุ๋น": 1889,
      "ล่อลวง": 1890,
      "จอร์แดน": 1891,
      "อันดรูว์": 1892,
      "กอง": 1893,
      "ก่า": 1894,
      "กริ": 1895,
      "คม": 1896,
      "จ๊า": 1897,
      "ฉลอง": 1898,
      "ฐี": 1899,
      "ทัพ": 1900,
      "ฝุ่น": 1901,
      "พูก": 1902,
      "ภัย": 1903,
      "มัก": 1904,
      "ลก": 1905,
      "ลู่": 1906,
      "ลิน": 1907,
      "วะ": 1908,
      "ษฐี": 1909,
      "ส้าย": 1910,
      "หอง": 1911,
      "หับ": 1912,
      "ฮก": 1913,
      "ัฟ": 1914,
      "โอน": 1915,
      "็กษา": 1916,
      "องหอง": 1917,
      "เจ้น": 1918,
      "เจื่อ": 1919,
      "ว่าง": 1920,
      "ายาม": 1921,
      "แล่": 1922,
      "ควัน": 1923,
      "อากริ": 1924,
      "เมื่อวัน": 1925,
      "กาด": 1926,
      "จ๋องหอง": 1927,
      "หน้าฮก": 1928,
      "ครู": 1929,
      "คราม": 1930,
      "จี๊": 1931,
      "ซาว": 1932,
      "หมายความ": 1933,
      "ขี้ฝุ่น": 1934,
      "สะดู": 1935,
      "อ่อนน้อม": 1936,
      "ตลอดไป": 1937,
      "พยายาม": 1938,
      "ข้อความ": 1939,
      "เครื่องหอม": 1940,
      "แขก": 1941,
      "แปลก": 1942,
      "ย้างพัก": 1943,
      "สงคราม": 1944,
      "แก่นต๋า": 1945,
      "ศิษย์": 1946,
      "เศรษฐี": 1947,
      "เปิ็กษา": 1948,
      "หม้อหน้าฮก": 1949,
      "อาวุโส": 1950,
      "ไอ่": 1951,
      "อากาศ": 1952,
      "พยาธิ": 1953,
      "อากริปปา": 1954,
      "สะดูสี": 1955,
      "กั้น": 1956,
      "ขโม": 1957,
      "จบ": 1958,
      "จ่าย": 1959,
      "จ่อม": 1960,
      "ซ้าย": 1961,
      "ตาน": 1962,
      "บู": 1963,
      "ป้าย": 1964,
      "พรร": 1965,
      "ฟู": 1966,
      "ลือ": 1967,
      "วัด": 1968,
      "หาม": 1969,
      "ฮ่อม": 1970,
      "แย": 1971,
      "ี้ย": 1972,
      "้วโมง": 1973,
      "เกิบ": 1974,
      "ย้อนจาอี้": 1975,
      "เลีย": 1976,
      "เสื่อม": 1977,
      "เสริม": 1978,
      "เหมาะ": 1979,
      "นาบ": 1980,
      "สาระ": 1981,
      "ป้อบ้าน": 1982,
      "ซาโลม": 1983,
      "หมดใส": 1984,
      "ราห์": 1985,
      "สำแดง": 1986,
      "ยกเลิก": 1987,
      "ดาลา": 1988,
      "สัญ": 1989,
      "สะโล": 1990,
      "ขวัญ": 1991,
      "แหง": 1992,
      "ฟาส": 1993,
      "มอบหมาย": 1994,
      "จั้วโมง": 1995,
      "สัตย์ซื่อ": 1996,
      "เจ็บปวด": 1997,
      "ไซดอน": 1998,
      "ขันที": 1999,
      "ก่ำแปง": 2000,
      "หนาว": 2001,
      "สลุง": 2002,
      "กว้าง": 2003,
      "โธมัส": 2004,
      "แค้น": 2005,
      "เป้าหมาย": 2006,
      "งว้าย": 2007,
      "มักดาลา": 2008,
      "ลินิน": 2009,
      "ขโมย": 2010,
      "ซาโลมอน": 2011,
      "กส์": 2012,
      "ค้าน": 2013,
      "งำ": 2014,
      "ฉพ": 2015,
      "ชา": 2016,
      "ตือร": 2017,
      "ทา": 2018,
      "ทระ": 2019,
      "น้": 2020,
      "บ้า": 2021,
      "มะ": 2022,
      "ยาย": 2023,
      "ิศ": 2024,
      "เฉพ": 2025,
      "ไทระ": 2026,
      "หมอ": 2027,
      "เจ้าหน้าตี้": 2028,
      "เมือ": 2029,
      "เมตร": 2030,
      "เล่ม": 2031,
      "เลิศ": 2032,
      "อาบ": 2033,
      "ินา": 2034,
      "หาริย์": 2035,
      "กาถา": 2036,
      "ปาฏิ": 2037,
      "บารับ": 2038,
      "เหี่ยว": 2039,
      "ลูกสาว": 2040,
      "ี่ยง": 2041,
      "หน้าผ": 2042,
      "ซาเบธ": 2043,
      "สุ่ย": 2044,
      "เวท": 2045,
      "ราช": 2046,
      "กรุณ": 2047,
      "ขี้ตู้": 2048,
      "อิสคาริ": 2049,
      "ตัดสินใจ๋": 2050,
      "ลิกส์": 2051,
      "อัล": 2052,
      "ซีเรีย": 2053,
      "ข้อหา": 2054,
      "เบอร์": 2055,
      "เฟลิกส์": 2056,
      "แป้ง": 2057,
      "ยูดาห์": 2058,
      "แน่ใจ๋": 2059,
      "โอท": 2060,
      "หย่อน": 2061,
      "กระตือร": 2062,
      "ยึดมั่น": 2063,
      "ก่ำไฮ": 2064,
      "ือร้น": 2065,
      "จิ๊น": 2066,
      "เอลีซาเบธ": 2067,
      "เหง้า": 2068,
      "รายงาน": 2069,
      "แรก": 2070,
      "บูล": 2071,
      "แหงน": 2072,
      "น้ำลาย": 2073,
      "เฉพาะ": 2074,
      "ปาฏิหาริย์": 2075,
      "บารับบัส": 2076,
      "กรุณา": 2077,
      "ขี้ตู้ด": 2078,
      "อิสคาริโอท": 2079,
      "กระตือรือร้น": 2080,
      "กก": 2081,
      "ขน": 2082,
      "ขับ": 2083,
      "คบ": 2084,
      "คั่ง": 2085,
      "ญหา": 2086,
      "ด้าน": 2087,
      "ตึก": 2088,
      "มั่ง": 2089,
      "มัว": 2090,
      "ยัฟ": 2091,
      "สนิ": 2092,
      "หยิ่ง": 2093,
      "อี้": 2094,
      "ุด": 2095,
      "แถ": 2096,
      "ระเบ": 2097,
      "ระโก": 2098,
      "หมั้น": 2099,
      "หมั่น": 2100,
      "ตี้ดิน": 2101,
      "ียด": 2102,
      "เยาะ": 2103,
      "เย้ย": 2104,
      "มาระโก": 2105,
      "หลอก": 2106,
      "ือด": 2107,
      "ริอัน": 2108,
      "เติบ": 2109,
      "เตื่อม": 2110,
      "สิ้น": 2111,
      "อาห์": 2112,
      "อาคายา": 2113,
      "นาริอัน": 2114,
      "โลน": 2115,
      "บาบิ": 2116,
      "เดช": 2117,
      "เดอร์": 2118,
      "เดือด": 2119,
      "เดนาริอัน": 2120,
      "ลูกศิษย์": 2121,
      "ครี": 2122,
      "เหลียว": 2123,
      "สุบ": 2124,
      "สุภาพ": 2125,
      "แผล": 2126,
      "น้องสาว": 2127,
      "โรน": 2128,
      "ราว": 2129,
      "ต๋าผ่อ": 2130,
      "ละอาย": 2131,
      "แก้ว": 2132,
      "ขี้โลภ": 2133,
      "นิก๋า": 2134,
      "แต่งตั๋ว": 2135,
      "ลีบ": 2136,
      "พิเศษ": 2137,
      "เคร่ง": 2138,
      "เครื่องปู่จา": 2139,
      "ปั๋ญหา": 2140,
      "ลมหลวง": 2141,
      "แข็งแฮง": 2142,
      "เชล": 2143,
      "ตี๋สอน": 2144,
      "ล่วงหน้า": 2145,
      "นกก๋า": 2146,
      "ถ่อมใจ๋": 2147,
      "โกมไฟ": 2148,
      "เธสะโล": 2149,
      "ปักต๋าผ่อ": 2150,
      "โนอาห์": 2151,
      "ตักเตื๋อน": 2152,
      "มั่งคั่ง": 2153,
      "ยัฟฟา": 2154,
      "สนิท": 2155,
      "เยาะเย้ย": 2156,
      "บาบิโลน": 2157,
      "เธสะโลนิก๋า": 2158,
      "ก๊": 2159,
      "กาง": 2160,
      "คัส": 2161,
      "จู่": 2162,
      "ซาน": 2163,
      "ตร์": 2164,
      "ทำ": 2165,
      "ธ์": 2166,
      "นม": 2167,
      "ป๊": 2168,
      "ปลอด": 2169,
      "ฝู": 2170,
      "ย้าย": 2171,
      "รอง": 2172,
      "ลั": 2173,
      "ลวด": 2174,
      "ล้อม": 2175,
      "สด": 2176,
      "สั้น": 2177,
      "หยิ": 2178,
      "อเล็ก": 2179,
      "ฮุ": 2180,
      "ฮอม": 2181,
      "ีด": 2182,
      "ุญา": 2183,
      "แซ": 2184,
      "แว": 2185,
      "แก๋": 2186,
      "แหน": 2187,
      "ใป๊": 2188,
      "หมัก": 2189,
      "เฮม": 2190,
      "แล่น": 2191,
      "หล้ม": 2192,
      "เมโอน": 2193,
      "ข้าวน": 2194,
      "ก๋วน": 2195,
      "สิเมโอน": 2196,
      "เลเฮม": 2197,
      "อนุญา": 2198,
      "ตั๋วอย่าง": 2199,
      "เมื่อใด": 2200,
      "เมื่อแลง": 2201,
      "นาห์": 2202,
      "แมง": 2203,
      "เด็ด": 2204,
      "เหิบ": 2205,
      "วันออก": 2206,
      "กิ้ง": 2207,
      "จ๋า": 2208,
      "บ่าย": 2209,
      "เสียหาย": 2210,
      "รากา": 2211,
      "น้ำนึ่ง": 2212,
      "ธรรมเนีย": 2213,
      "หลังคา": 2214,
      "ขี้จ": 2215,
      "โยน": 2216,
      "โยนาห์": 2217,
      "แม้ว่า": 2218,
      "ดูถูก": 2219,
      "นิโค": 2220,
      "ติดสนิท": 2221,
      "เบดี": 2222,
      "ลีเซีย": 2223,
      "เลี้ยงดู": 2224,
      "เล่าลือ": 2225,
      "เศเบดี": 2226,
      "แอว": 2227,
      "ญาณ": 2228,
      "โคริน": 2229,
      "เฝิ็ก": 2230,
      "เบธเลเฮม": 2231,
      "ไข้": 2232,
      "สถานตี้": 2233,
      "คายาฟาส": 2234,
      "ปฏิญาณ": 2235,
      "มนตร์": 2236,
      "ทั่วไป": 2237,
      "แย้ง": 2238,
      "เวทมนตร์": 2239,
      "หลอกลวง": 2240,
      "ครีต": 2241,
      "เชลย": 2242,
      "นกก๋าแก๋": 2243,
      "ปลอดภัย": 2244,
      "ฝูง": 2245,
      "ลัทธิ": 2246,
      "หยิบ": 2247,
      "อเล็กซาน": 2248,
      "ข้าวนก": 2249,
      "อนุญาต": 2250,
      "ธรรมเนียม": 2251,
      "โครินธ์": 2252,
      "ก้อย": 2253,
      "ข้อง": 2254,
      "งโต": 2255,
      "ชอบ": 2256,
      "ซะ": 2257,
      "ซ้า": 2258,
      "ซุก": 2259,
      "ญคุณ": 2260,
      "ณะ": 2261,
      "ดำ": 2262,
      "ดิ้น": 2263,
      "ดริน": 2264,
      "ตอง": 2265,
      "ตึด": 2266,
      "ถ่ม": 2267,
      "ท่า": 2268,
      "นเฮ": 2269,
      "นส์": 2270,
      "ฝ่า": 2271,
      "ฝัน": 2272,
      "ภาย": 2273,
      "ล๋ว": 2274,
      "ลลา": 2275,
      "วอด": 2276,
      "สว่าง": 2277,
      "อ้อ": 2278,
      "อิก": 2279,
      "ฮ่าง": 2280,
      "ฮ้าง": 2281,
      "ะนำ": 2282,
      "แจ๋": 2283,
      "โฟ": 2284,
      "โคน": 2285,
      "เปล๋ว": 2286,
      "เจ๊ด": 2287,
      "เจ้าสาว": 2288,
      "มาส": 2289,
      "ตังหน้า": 2290,
      "ตังนอก": 2291,
      "สิงโต": 2292,
      "ใจ๋เดียว": 2293,
      "ฮับผิด": 2294,
      "วิธี": 2295,
      "เสี่ยง": 2296,
      "เรียบ": 2297,
      "บาร": 2298,
      "โดม": 2299,
      "ป้อม": 2300,
      "เนียะ": 2301,
      "สาวใจ๊": 2302,
      "ติ๊ด": 2303,
      "ราจ๋ารย์": 2304,
      "ส่วนฮ่วม": 2305,
      "ใค่หัว": 2306,
      "ใส่ฮ้าย": 2307,
      "ขี้ค้าน": 2308,
      "จื้อเสียง": 2309,
      "แจ่ง": 2310,
      "ปอดี": 2311,
      "เทีย": 2312,
      "จักรพรร": 2313,
      "แนะนำ": 2314,
      "เก็บเกี่ยว": 2315,
      "เซาะหา": 2316,
      "ทิศ": 2317,
      "ทราย": 2318,
      "เครื่องหมาย": 2319,
      "ฝังศพ": 2320,
      "เงา": 2321,
      "ลักษ": 2322,
      "หย้อง": 2323,
      "ฮ้อนใจ๋": 2324,
      "โสโดม": 2325,
      "หลักฐาน": 2326,
      "ใบ้": 2327,
      "บุญคุณ": 2328,
      "ปายหน้า": 2329,
      "ป้องกั๋น": 2330,
      "โหราจ๋ารย์": 2331,
      "สงบสุข": 2332,
      "สัญจ้าด": 2333,
      "แซนเฮ": 2334,
      "ขี้จ๊ะ": 2335,
      "เปล๋วไฟ": 2336,
      "ฮับผิดชอบ": 2337,
      "จักรพรรดิ": 2338,
      "แซนเฮดริน": 2339,
      "กบ": 2340,
      "ขม": 2341,
      "ขำ": 2342,
      "คิ": 2343,
      "จก": 2344,
      "ซัด": 2345,
      "ตรา": 2346,
      "ถัน": 2347,
      "ถอด": 2348,
      "ท่วม": 2349,
      "นี": 2350,
      "บี": 2351,
      "บาน": 2352,
      "ปรัส": 2353,
      "ผูก": 2354,
      "ฝืน": 2355,
      "มอ": 2356,
      "ม่วง": 2357,
      "ยัด": 2358,
      "ยรัส": 2359,
      "รถ": 2360,
      "ลุ": 2361,
      "ลัด": 2362,
      "หาง": 2363,
      "หิง": 2364,
      "อดี": 2365,
      "อิด": 2366,
      "อวน": 2367,
      "ฮอด": 2368,
      "ิ้ง": 2369,
      "ิลลา": 2370,
      "ือง": 2371,
      "ุน": 2372,
      "เบา": 2373,
      "ไน": 2374,
      "ไยรัส": 2375,
      "หมอง": 2376,
      "พระกำ": 2377,
      "พระนาง": 2378,
      "เปียง": 2379,
      "เจีย": 2380,
      "เจ้าแม่": 2381,
      "หลิก": 2382,
      "แต๋น": 2383,
      "ันนา": 2384,
      "ต๋าง": 2385,
      "ควิลลา": 2386,
      "ก๋วย": 2387,
      "เก่ง": 2388,
      "เกรา": 2389,
      "เต้น": 2390,
      "อาควิลลา": 2391,
      "วิหาร": 2392,
      "เสธ": 2393,
      "ตึงเสี้ยง": 2394,
      "กำพยาน": 2395,
      "กำมะ": 2396,
      "นาธ": 2397,
      "โลเมตร": 2398,
      "กาลา": 2399,
      "แมบ": 2400,
      "กิโลเมตร": 2401,
      "เอ็ด": 2402,
      "ตอบแตน": 2403,
      "เปาะ": 2404,
      "น้ำบ่อ": 2405,
      "หลังต๋ำ": 2406,
      "ขี้เป": 2407,
      "ผิดหัว": 2408,
      "สะดุ": 2409,
      "รับรอง": 2410,
      "ปีก": 2411,
      "่มุก": 2412,
      "อุ้ม": 2413,
      "ปกป้อง": 2414,
      "ผีบ้า": 2415,
      "นิ้ว": 2416,
      "เบียน": 2417,
      "แต่งหย้อง": 2418,
      "จุด": 2419,
      "จุ่ม": 2420,
      "ทะเบียน": 2421,
      "เหตุผล": 2422,
      "แป๊ะ": 2423,
      "ฮูปฮ่าง": 2424,
      "ขะหลิก": 2425,
      "ปั๋นปอน": 2426,
      "ต๋ำแหน": 2427,
      "หลงผิด": 2428,
      "สู้ฮบ": 2429,
      "หย่า": 2430,
      "จั๊กแต๋น": 2431,
      "เจ็บป่วย": 2432,
      "ุรี": 2433,
      "กฎหมาย": 2434,
      "ไซปรัส": 2435,
      "หลักกำสอน": 2436,
      "ไข่มุก": 2437,
      "ก๋องทัพ": 2438,
      "หลึ้ง": 2439,
      "ม่วนใจ๋": 2440,
      "อาวุธ": 2441,
      "ปฏิเสธ": 2442,
      "บิ่นหลังต๋ำ": 2443,
      "นาบโต้ษ": 2444,
      "หน้าผาก": 2445,
      "ทำนาย": 2446,
      "แว่": 2447,
      "หล้มจ๋ม": 2448,
      "ฝ่าฝืน": 2449,
      "อิกขะหลิก": 2450,
      "อดีต": 2451,
      "กำมะถัน": 2452,
      "กาลาเทีย": 2453,
      "ต๋ำแหน่ง": 2454,
      "ก้น": 2455,
      "กาย": 2456,
      "กวด": 2457,
      "ข่ม": 2458,
      "คานา": 2459,
      "คคี": 2460,
      "งวง": 2461,
      "จอก": 2462,
      "ชำนา": 2463,
      "ซ้อน": 2464,
      "ดูก": 2465,
      "ตึ": 2466,
      "ถัง": 2467,
      "ถี่": 2468,
      "ทาร": 2469,
      "บบ": 2470,
      "บิน": 2471,
      "บรวม": 2472,
      "ป๋ว": 2473,
      "ปริส": 2474,
      "ผา": 2475,
      "พลอย": 2476,
      "มว": 2477,
      "มินา": 2478,
      "รม": 2479,
      "ลิส": 2480,
      "ศึ": 2481,
      "ฮำ": 2482,
      "ัคคี": 2483,
      "าดี": 2484,
      "ี๊": 2485,
      "ื้อง": 2486,
      "เอก": 2487,
      "แฝ": 2488,
      "๊าม": 2489,
      "๋ย": 2490,
      "ระบบ": 2491,
      "ื้อม": 2492,
      "เจ๊าม": 2493,
      "เย็น": 2494,
      "มาบ": 2495,
      "แลก": 2496,
      "หลอง": 2497,
      "หลึก": 2498,
      "านัส": 2499,
      "เกื๋": 2500,
      "เกี๊": 2501,
      "ตังเก๊า": 2502,
      "ตังป๋าย": 2503,
      "เล้า": 2504,
      "เลาดี": 2505,
      "ก๋านงาน": 2506,
      "เสี่ยว": 2507,
      "ต๋ามใจ๋": 2508,
      "อบรม": 2509,
      "เรื่องราว": 2510,
      "เดมัส": 2511,
      "วันตก": 2512,
      "ทธิว": 2513,
      "เหลื้อม": 2514,
      "ยวะ": 2515,
      "โม่": 2516,
      "เอเธ": 2517,
      "ปี้ใป๊": 2518,
      "ุมเอก": 2519,
      "เซบูล": 2520,
      "น้ำต๋า": 2521,
      "ขี้แต่ง": 2522,
      "เอลเซบูล": 2523,
      "สามัคคี": 2524,
      "อุบาย": 2525,
      "ซีลีเซีย": 2526,
      "ปกปัก": 2527,
      "แจ้งด่า": 2528,
      "เบื้อง": 2529,
      "เบเอลเซบูล": 2530,
      "ธีอัส": 2531,
      "สูน": 2532,
      "เพช": 2533,
      "เคียว": 2534,
      "แข่ง": 2535,
      "แข้ง": 2536,
      "เฮโรเดีย": 2537,
      "ลองดี": 2538,
      "เงียบ": 2539,
      "แก้แค้น": 2540,
      "ฟีลิปปี": 2541,
      "เบธไซ": 2542,
      "ศิลาม": 2543,
      "ศิโยน": 2544,
      "ปล้น": 2545,
      "ไซรี": 2546,
      "เฮียนฮู้": 2547,
      "มัทธิว": 2548,
      "รวบรวม": 2549,
      "ขัดขืน": 2550,
      "ปิดบัง": 2551,
      "คุกเข่า": 2552,
      "โห่": 2553,
      "แหล่": 2554,
      "หวาน": 2555,
      "เหมาะสม": 2556,
      "แถ้ง": 2557,
      "เติบโต": 2558,
      "ก๊าน": 2559,
      "ฮุ่ง": 2560,
      "นิโคเดมัส": 2561,
      "ตองแดง": 2562,
      "เรียบร้อย": 2563,
      "กบฏ": 2564,
      "ชำนาญ": 2565,
      "ป๋วย": 2566,
      "ปริสคา": 2567,
      "มวล": 2568,
      "ลิสตรา": 2569,
      "ศึกษา": 2570,
      "เจ๊ามืด": 2571,
      "เกื๋อ": 2572,
      "เกี๊ยว": 2573,
      "เลาดีเซีย": 2574,
      "เอเธนส์": 2575,
      "เฮโรเดียส": 2576,
      "เบธไซดา": 2577,
      "ศิลามุมเอก": 2578,
      "ไซรีน": 2579,
      "กลิ": 2580,
      "กีด": 2581,
      "ขู่": 2582,
      "ขุด": 2583,
      "คิม": 2584,
      "งัน": 2585,
      "จอด": 2586,
      "ฉีก": 2587,
      "ซันนา": 2588,
      "ฎี": 2589,
      "ฑ์": 2590,
      "ณฑ์": 2591,
      "ดฟ้า": 2592,
      "ตืน": 2593,
      "ถี": 2594,
      "ถอง": 2595,
      "ถ้ำ": 2596,
      "ทึก": 2597,
      "นิส": 2598,
      "บัน": 2599,
      "บึง": 2600,
      "บก๋วน": 2601,
      "ป่อง": 2602,
      "ปู๋": 2603,
      "ฟ้อน": 2604,
      "ฟาก": 2605,
      "มุ": 2606,
      "ม่อน": 2607,
      "ยศ": 2608,
      "ยอบ": 2609,
      "ร้อง": 2610,
      "รบก๋วน": 2611,
      "ลด": 2612,
      "ศรี": 2613,
      "สับ": 2614,
      "สซี": 2615,
      "สดุ": 2616,
      "หด": 2617,
      "อึ": 2618,
      "ฮั": 2619,
      "ฮา": 2620,
      "ฮอง": 2621,
      "ื่อน": 2622,
      "ูม": 2623,
      "เก๋": 2624,
      "โป": 2625,
      "๋อ": 2626,
      "หมัน": 2627,
      "พระสิ": 2628,
      "เปอร์": 2629,
      "เจาะ": 2630,
      "เจสซี": 2631,
      "ว่าย": 2632,
      "ียูม": 2633,
      "ของขวัญ": 2634,
      "เยรี": 2635,
      "มานา": 2636,
      "หลก": 2637,
      "หลบ": 2638,
      "กั้ง": 2639,
      "ตังมวล": 2640,
      "หนวก": 2641,
      "อาริส": 2642,
      "อาแบ": 2643,
      "วิถี": 2644,
      "เสมอ": 2645,
      "กำเขียน": 2646,
      "บาท": 2647,
      "อบใจ๋": 2648,
      "จาวนา": 2649,
      "จาวบ้าน": 2650,
      "จ๋าง": 2651,
      "ซาราห์": 2652,
      "เหลือง": 2653,
      "โรห์": 2654,
      "เอโน": 2655,
      "เอียด": 2656,
      "บ้านเมือง": 2657,
      "ละเอียด": 2658,
      "ยกเว้น": 2659,
      "ดาดฟ้า": 2660,
      "โตรอัส": 2661,
      "ก้าจ้าง": 2662,
      "จริงใจ๋": 2663,
      "ขี้ลัก": 2664,
      "ปุ้ง": 2665,
      "สะสม": 2666,
      "อ่อนใจ๋": 2667,
      "เทอร์": 2668,
      "เท็จ": 2669,
      "ซีนาย": 2670,
      "ไม้เต๊า": 2671,
      "ผ้ากั้ง": 2672,
      "เต๋ง": 2673,
      "ฟาโรห์": 2674,
      "เต๋มล้น": 2675,
      "แดด": 2676,
      "ฟ้าฮ้อง": 2677,
      "ตะวา": 2678,
      "เคีย": 2679,
      "ขายตั๋ว": 2680,
      "ลำดับ": 2681,
      "ขะแจ๋": 2682,
      "เจิม": 2683,
      "หย้อ": 2684,
      "ครอบครอง": 2685,
      "ครอบงำ": 2686,
      "ต๋าน้ำ": 2687,
      "แบ่งปั๋น": 2688,
      "สบายใจ๋": 2689,
      "ศักดิ์ศรี": 2690,
      "กฎเก๋": 2691,
      "กระสอบ": 2692,
      "กระดูก": 2693,
      "ยึดถือ": 2694,
      "ปลอบใจ๋": 2695,
      "ขัดแย้ง": 2696,
      "อิโคน": 2697,
      "ทดลอง": 2698,
      "านาเอล": 2699,
      "เกิ็ด": 2700,
      "ดุ้น": 2701,
      "แหลว": 2702,
      "ไฮ่": 2703,
      "เขตแดน": 2704,
      "อูฐ": 2705,
      "โฮซันนา": 2706,
      "อารเท": 2707,
      "มัทธ": 2708,
      "เด็ดขาด": 2709,
      "อเล็กซานเดอร์": 2710,
      "ผูกพัน": 2711,
      "นาธานาเอล": 2712,
      "ขี้เปอะ": 2713,
      "แฝด": 2714,
      "หลึกหลึ่ง": 2715,
      "สามัคคีธรรม": 2716,
      "เพชร": 2717,
      "กลิ่น": 2718,
      "ฎีกา": 2719,
      "บันทึก": 2720,
      "สับสน": 2721,
      "สดุดี": 2722,
      "ฮั้ว": 2723,
      "พระสิริ": 2724,
      "เยรีโค": 2725,
      "อาแบล": 2726,
      "กฎเก๋ณฑ์": 2727,
      "อิโคนียูม": 2728,
      "กะ": 2729,
      "ขยาย": 2730,
      "ค้อน": 2731,
      "คุ่ม": 2732,
      "จับ": 2733,
      "จิม": 2734,
      "ชัด": 2735,
      "ด้า": 2736,
      "ตส": 2737,
      "ตวง": 2738,
      "ตาร์": 2739,
      "ถน": 2740,
      "ถ้วน": 2741,
      "ทาร์": 2742,
      "บูรณ์": 2743,
      "บ๋อ": 2744,
      "ป้า": 2745,
      "ปัม": 2746,
      "ปัด": 2747,
      "พ่": 2748,
      "ฟอก": 2749,
      "ภัก": 2750,
      "มืน": 2751,
      "มิส": 2752,
      "ย้ำ": 2753,
      "ยืม": 2754,
      "ราม": 2755,
      "ลลิ": 2756,
      "ว่ง": 2757,
      "วิน": 2758,
      "สบ": 2759,
      "สระ": 2760,
      "สัง": 2761,
      "สอด": 2762,
      "ส้ม": 2763,
      "หี": 2764,
      "อ้า": 2765,
      "อิต": 2766,
      "อัด": 2767,
      "ฮัง": 2768,
      "ฮัด": 2769,
      "าต": 2770,
      "ูบ": 2771,
      "ูเอล": 2772,
      "เริ": 2773,
      "เอน": 2774,
      "เคือ": 2775,
      "เบน": 2776,
      "เพิ": 2777,
      "แพ่": 2778,
      "โสน": 2779,
      "ใย": 2780,
      "​”": 2781,
      "“​": 2782,
      "”​": 2783,
      "หมอบ": 2784,
      "พระธรรม": 2785,
      "่าห์": 2786,
      "คนาย": 2787,
      "เขียว": 2788,
      "บ่ดาย": 2789,
      "หล้า": 2790,
      "หลีก": 2791,
      "หลวะ": 2792,
      "แตง": 2793,
      "ต๋อง": 2794,
      "ควัด": 2795,
      "เมส": 2796,
      "ริอัส": 2797,
      "กัลลิ": 2798,
      "ผู้ใหญ่": 2799,
      "เตียน": 2800,
      "สิโล": 2801,
      "สิยาห์": 2802,
      "เลข": 2803,
      "เลื้อ": 2804,
      "เล่ย": 2805,
      "อาโรน": 2806,
      "เสา": 2807,
      "ยังแควน": 2808,
      "อย่างใด": 2809,
      "นาส": 2810,
      "โลท": 2811,
      "แหมะ": 2812,
      "บาด": 2813,
      "บาลา": 2814,
      "คริสเตียน": 2815,
      "เดรีย": 2816,
      "สาร": 2817,
      "สาลี": 2818,
      "โดด": 2819,
      "อดใจ๋": 2820,
      "อดอยาก": 2821,
      "ครัด": 2822,
      "ซาบ": 2823,
      "ซาร์": 2824,
      "กิ๋นเลี้ยง": 2825,
      "เนส": 2826,
      "เนอัส": 2827,
      "นักแก": 2828,
      "บัญ": 2829,
      "สุก": 2830,
      "สุม": 2831,
      "แผ่": 2832,
      "ตุ้น": 2833,
      "ตุ้ม": 2834,
      "ตุ้ย": 2835,
      "โรอา": 2836,
      "เอปา": 2837,
      "เอียง": 2838,
      "เอซาว": 2839,
      "ฮ้องเอิ้น": 2840,
      "เหลือล้น": 2841,
      "ราค": 2842,
      "ต่างด้า": 2843,
      "ปิ๋ว": 2844,
      "หารือ": 2845,
      "ละขว้าง": 2846,
      "ยกยอ": 2847,
      "แกว่ง": 2848,
      "หายใจ๋": 2849,
      "ตรี": 2850,
      "สมอ": 2851,
      "น้ำใจ๋": 2852,
      "หัวเฮือ": 2853,
      "ขี้โก๋ง": 2854,
      "หละดู": 2855,
      "สัล": 2856,
      "สะปาย": 2857,
      "ฮ่วมใจ๋": 2858,
      "อุตส": 2859,
      "ข้อล้ำเลิ็ก": 2860,
      "จงฮัก": 2861,
      "นิยาย": 2862,
      "ยุบ": 2863,
      "แจ้งเจ๊า": 2864,
      "แนม": 2865,
      "เบล": 2866,
      "เบโรอา": 2867,
      "เก็ม": 2868,
      "พิณ": 2869,
      "ทนตุ๊ก": 2870,
      "มัสตาร์": 2871,
      "ยาโสน": 2872,
      "ทิอัส": 2873,
      "ก๋ำจัด": 2874,
      "เฟอัส": 2875,
      "เพ้": 2876,
      "เคล": 2877,
      "แปลง": 2878,
      "แฮ้ว": 2879,
      "พรม": 2880,
      "ี่ยม": 2881,
      "ขี้ข้าง": 2882,
      "ฟีเลีย": 2883,
      "ค่ำเข": 2884,
      "ลำเอียง": 2885,
      "ทีคิ": 2886,
      "ศักเคีย": 2887,
      "แสงแจ้ง": 2888,
      "เปี่ยนใจ๋": 2889,
      "เปี่ยนแปลง": 2890,
      "ฮ้อนอก": 2891,
      "แน่นหนา": 2892,
      "กระโ": 2893,
      "กระตุ้น": 2894,
      "เงินคำ": 2895,
      "โจ๊ะ": 2896,
      "มอกใด": 2897,
      "โสส": 2898,
      "มัคนาย": 2899,
      "ทดลองใจ๋": 2900,
      "บริบูรณ์": 2901,
      "หุ้ม": 2902,
      "เธีย": 2903,
      "ห่วงใย": 2904,
      "โบอา": 2905,
      "เกิ้ง": 2906,
      "สั่นไหว": 2907,
      "หลุด": 2908,
      "ดอกไม้": 2909,
      "เส้นตาง": 2910,
      "เตี้ยงแต๊": 2911,
      "รอถ้า": 2912,
      "หมาป่า": 2913,
      "ราชก๋าน": 2914,
      "อัลเฟอัส": 2915,
      "เดอร์บี": 2916,
      "เดือดฮ้อน": 2917,
      "เคร่งครัด": 2918,
      "แมงป่อง": 2919,
      "ซะป๊ะ": 2920,
      "ลักษณะ": 2921,
      "เกราะ": 2922,
      "สะดุด": 2923,
      "กายอัส": 2924,
      "ทารคัส": 2925,
      "ผาบ": 2926,
      "หลองข้าว": 2927,
      "อาริสทารคัส": 2928,
      "อารเทมิส": 2929,
      "เพชรพลอย": 2930,
      "ทาร์ซัส": 2931,
      "ปัมฟีเลีย": 2932,
      "ภักดี": 2933,
      "สอดแนม": 2934,
      "หีบ": 2935,
      "อิตา": 2936,
      "เริ่ม": 2937,
      "เพิ่ม": 2938,
      "กัลลิโอ": 2939,
      "สิโลอัม": 2940,
      "ต่างด้าว": 2941,
      "อุตส่าห์": 2942,
      "มัสตาร์ด": 2943,
      "ทีคิกัส": 2944,
      "ศักเคียส": 2945,
      "มัคนายก": 2946,
      "กอด": 2947,
      "ก๊ำ": 2948,
      "ขาง": 2949,
      "คลา": 2950,
      "คัว": 2951,
      "คัด": 2952,
      "ฆาต": 2953,
      "จล": 2954,
      "จ่อ": 2955,
      "จลา": 2956,
      "ชน": 2957,
      "ชี": 2958,
      "ซว": 2959,
      "ญหาย": 2960,
      "ดยอบ": 2961,
      "ตา": 2962,
      "ต้อ": 2963,
      "ถอย": 2964,
      "ถาง": 2965,
      "ท้อน": 2966,
      "นะ": 2967,
      "นั่น": 2968,
      "บำ": 2969,
      "บบา": 2970,
      "บึด": 2971,
      "บุรี": 2972,
      "บซาบ": 2973,
      "ป่าง": 2974,
      "ผิ": 2975,
      "ผัก": 2976,
      "พะ": 2977,
      "ฟอง": 2978,
      "ฟรี": 2979,
      "มดยอบ": 2980,
      "ยม": 2981,
      "ยะ": 2982,
      "ย่อม": 2983,
      "รัม": 2984,
      "รุง": 2985,
      "ลบ": 2986,
      "ลว": 2987,
      "ลาย": 2988,
      "ลิด": 2989,
      "ลัส": 2990,
      "ลิต": 2991,
      "สนุ": 2992,
      "สนับ": 2993,
      "สโรน": 2994,
      "หะ": 2995,
      "หยา": 2996,
      "อ้อม": 2997,
      "อวั": 2998,
      "ั้ง": 2999,
      "ี๋ย": 3000,
      "ุบบา": 3001,
      "ูวา": 3002,
      "เต๋า": 3003,
      "แหละ": 3004,
      "แยง": 3005,
      "โยอ": 3006,
      "โชน": 3007,
      "ไคน": 3008,
      "๊ง": 3009,
      "ระไน": 3010,
      "หมิ้ง": 3011,
      "ตี้สุด": 3012,
      "เปเร": 3013,
      "เจิง": 3014,
      "คนงาน": 3015,
      "เจ้าภาพ": 3016,
      "ของใจ๊": 3017,
      "เขี่ย": 3018,
      "เฮ่อ": 3019,
      "เฮอร์": 3020,
      "เฮสโรน": 3021,
      "จาค": 3022,
      "จาน": 3023,
      "มาเธีย": 3024,
      "มีนาด": 3025,
      "หล่อ": 3026,
      "หล้ง": 3027,
      "อกหัน": 3028,
      "อกดีใจ๋": 3029,
      "ข้าราชก๋าน": 3030,
      "ตั่ง": 3031,
      "ริมาเธีย": 3032,
      "ซูบซาบ": 3033,
      "ดีอกดีใจ๋": 3034,
      "หนิม": 3035,
      "เต็ก": 3036,
      "สิอัส": 3037,
      "สิลว": 3038,
      "เลอา": 3039,
      "เลาะ": 3040,
      "เลทัส": 3041,
      "ใจ๋กว้าง": 3042,
      "อาเร": 3043,
      "อาริมาเธีย": 3044,
      "เมื่อเจ๊า": 3045,
      "ินี": 3046,
      "หันอกหัน": 3047,
      "กำปอน": 3048,
      "กำเตื๋อน": 3049,
      "กำกึ๊ดเติง": 3050,
      "นาโชน": 3051,
      "โลมิ": 3052,
      "ธิยา": 3053,
      "เดเมต": 3054,
      "สาเหตุ": 3055,
      "เห็บ": 3056,
      "เหี้ย": 3057,
      "วันนี้": 3058,
      "ลาห์": 3059,
      "ลูกเฮือ": 3060,
      "ป้อก๊า": 3061,
      "ซาก": 3062,
      "บ่าเห็บ": 3063,
      "เนสิ": 3064,
      "เนิน": 3065,
      "แม่มาน": 3066,
      "โต้เถียง": 3067,
      "โต้แย้ง": 3068,
      "เผิ้ง": 3069,
      "โมราห์": 3070,
      "เออ": 3071,
      "เวร": 3072,
      "สำมะ": 3073,
      "ปิ้ง": 3074,
      "ยอมฟัง": 3075,
      "ประสบ": 3076,
      "ยกาน": 3077,
      "อันนาส": 3078,
      "เต้าอี้": 3079,
      "สมมุ": 3080,
      "น้ำเผิ้ง": 3081,
      "โตรฟี": 3082,
      "ใส่ความ": 3083,
      "นายทหาร": 3084,
      "งานเลี้ยง": 3085,
      "จ้าดนิ": 3086,
      "จ้าดไก๋": 3087,
      "ปุ๊": 3088,
      "สินก๊า": 3089,
      "สะท้อน": 3090,
      "เล็ง": 3091,
      "เอลียา": 3092,
      "สิบลด": 3093,
      "วายวอด": 3094,
      "อุ่น": 3095,
      "ขวด": 3096,
      "ข้ออ้าง": 3097,
      "แห่": 3098,
      "นิเซีย": 3099,
      "ฟาด": 3100,
      "เหยียด": 3101,
      "เปิดใจ๋": 3102,
      "เบด": 3103,
      "พิก๋าน": 3104,
      "แสน": 3105,
      "แส้": 3106,
      "เกียรติยศ": 3107,
      "ทิรา": 3108,
      "ทิเอล": 3109,
      "ทิเบ": 3110,
      "จื้นใจ๋": 3111,
      "จั้ง": 3112,
      "โยชูวา": 3113,
      "สูมา": 3114,
      "สูญหาย": 3115,
      "สายฮ้าง": 3116,
      "คาด": 3117,
      "โก๋น": 3118,
      "โกโมราห์": 3119,
      "ฟีนิเซีย": 3120,
      "เจื๊อฟู": 3121,
      "โอเนสิ": 3122,
      "โอเบด": 3123,
      "เลิ็กลับ": 3124,
      "หยด": 3125,
      "หยาม": 3126,
      "ตันใด": 3127,
      "เชอัล": 3128,
      "กระถาง": 3129,
      "เศรุบบา": 3130,
      "ต้าเฮือ": 3131,
      "นกจอก": 3132,
      "จัดก๋าน": 3133,
      "ซ้ำแล้ว": 3134,
      "ซ้ำแหม": 3135,
      "ธาธีอัส": 3136,
      "ถ่อมตั๋ว": 3137,
      "ยามิน": 3138,
      "คลอน": 3139,
      "บริจาค": 3140,
      "พืชผล": 3141,
      "โบก": 3142,
      "ขัดข้อง": 3143,
      "เศร้าโศก": 3144,
      "เอลีมาส": 3145,
      "ถาด": 3146,
      "ถาบ": 3147,
      "สถานก๋ารณ์": 3148,
      "ป้องาน": 3149,
      "เตี้ยงคืน": 3150,
      "อัมมีนาด": 3151,
      "แหล่ง": 3152,
      "กิเลสตั๋ณหา": 3153,
      "โธโลมิ": 3154,
      "โฮง": 3155,
      "เล่นจู๊": 3156,
      "มัทธาธีอัส": 3157,
      "กองถ้า": 3158,
      "กั้นอยาก": 3159,
      "พรรค": 3160,
      "เสริมสร้าง": 3161,
      "สัญลักษ": 3162,
      "หน้าผา": 3163,
      "ราชินี": 3164,
      "ระเบียบ": 3165,
      "ระเบียง": 3166,
      "เติบใหญ่": 3167,
      "อเล็กซานเดรีย": 3168,
      "วอดวาย": 3169,
      "บารโธโลมิ": 3170,
      "จกเบอร์": 3171,
      "เจียระไน": 3172,
      "ข่มเหง": 3173,
      "ตึ๊ก": 3174,
      "เอโนค": 3175,
      "มัทธัต": 3176,
      "ถนน": 3177,
      "วินัย": 3178,
      "เบนยามิน": 3179,
      "เลื้อยกาน": 3180,
      "บาลาอัม": 3181,
      "สารภาพ": 3182,
      "บัญชา": 3183,
      "สัลโมน": 3184,
      "กระโหล้ง": 3185,
      "โบอาส": 3186,
      "อิตาลี": 3187,
      "ฆาตกร": 3188,
      "จลาจล": 3189,
      "ซวาม": 3190,
      "ต้อด": 3191,
      "บำรุง": 3192,
      "ป่างข้าง": 3193,
      "พะยำ": 3194,
      "ฟรีเจีย": 3195,
      "ลิดดา": 3196,
      "ลิตร": 3197,
      "สนุน": 3198,
      "หยาบ": 3199,
      "อวัยวะ": 3200,
      "เต๋าไฟ": 3201,
      "ไคนาน": 3202,
      "เปเรศ": 3203,
      "สิลวานัส": 3204,
      "หันอกหันใจ๋": 3205,
      "ธิยาทิรา": 3206,
      "เดเมตริอัส": 3207,
      "สำมะโน": 3208,
      "ประสบก๋ารณ์": 3209,
      "สมมุติ": 3210,
      "โตรฟีมัส": 3211,
      "จ้าดนิยม": 3212,
      "เอลียาคิม": 3213,
      "เชอัลทิเอล": 3214,
      "เศรุบบาเบล": 3215,
      "อัมมีนาดับ": 3216,
      "สัญลักษณ์": 3217,
      "บารโธโลมิว": 3218,
      "กาม": 3219,
      "กัน": 3220,
      "กละ": 3221,
      "ขี": 3222,
      "ขื่น": 3223,
      "ขวาง": 3224,
      "ขีด": 3225,
      "คู": 3226,
      "คู่": 3227,
      "ค่อ": 3228,
      "คิง": 3229,
      "คอบ": 3230,
      "ค้าง": 3231,
      "คาร": 3232,
      "คาร์": 3233,
      "คทา": 3234,
      "งอม": 3235,
      "จฉ": 3236,
      "จ้อ": 3237,
      "จืด": 3238,
      "จิก": 3239,
      "ซาม": 3240,
      "ซัก": 3241,
      "ซ่าน": 3242,
      "ณี": 3243,
      "ดิส": 3244,
      "ด่าน": 3245,
      "ดทราย": 3246,
      "ตอ": 3247,
      "ตื": 3248,
      "ต้อม": 3249,
      "ตื้น": 3250,
      "ตูบ": 3251,
      "ถอน": 3252,
      "ทศ": 3253,
      "ทอง": 3254,
      "ท้อ": 3255,
      "ธุ": 3256,
      "ธาร": 3257,
      "นอ": 3258,
      "นอง": 3259,
      "น่อ": 3260,
      "นัด": 3261,
      "นวด": 3262,
      "นัฟ": 3263,
      "บิด": 3264,
      "ปือ": 3265,
      "ปี่": 3266,
      "ปึ๊ด": 3267,
      "ปรับ": 3268,
      "ปฟี": 3269,
      "ผ่อน": 3270,
      "ผาก": 3271,
      "ผุก": 3272,
      "พินา": 3273,
      "ฟั": 3274,
      "ฟิ": 3275,
      "ฟาย": 3276,
      "ฟื้น": 3277,
      "ฟุ่ม": 3278,
      "ฟรัส": 3279,
      "ฟานัส": 3280,
      "มีย์": 3281,
      "รุ": 3282,
      "รุน": 3283,
      "ล้ม": 3284,
      "ว้ว": 3285,
      "สก": 3286,
      "ส้": 3287,
      "สเป": 3288,
      "ส่อ": 3289,
      "สาง": 3290,
      "สต์": 3291,
      "ห่อ": 3292,
      "หอน": 3293,
      "หัส": 3294,
      "ห้วย": 3295,
      "หยวะ": 3296,
      "อำ": 3297,
      "ฮาง": 3298,
      "ฮ่อน": 3299,
      "ิ้ม": 3300,
      "ิอัส": 3301,
      "ึ้ง": 3302,
      "ือย": 3303,
      "ุป": 3304,
      "แอก": 3305,
      "โอย": 3306,
      "โอด": 3307,
      "ใค่อ": 3308,
      "ไว้ว": 3309,
      "ไส้": 3310,
      "็ม": 3311,
      "็อก": 3312,
      "่ห์": 3313,
      "้ด": 3314,
      "๊ม": 3315,
      "๋ม": 3316,
      "”)": 3317,
      "้อวด": 3318,
      "พระราชินี": 3319,
      "่าม": 3320,
      "เป้ด": 3321,
      "เจน": 3322,
      "เจี้ย": 3323,
      "เป๋นใหญ่": 3324,
      "เข็ม": 3325,
      "เยเร": 3326,
      "เยเซ": 3327,
      "มาตร": 3328,
      "มาลิ": 3329,
      "แล้ง": 3330,
      "หลาม": 3331,
      "แตะ": 3332,
      "เกต": 3333,
      "างใจ๋": 3334,
      "ตังใต้": 3335,
      "หนะ": 3336,
      "เตียง": 3337,
      "เลย์": 3338,
      "เลาส": 3339,
      "เลี่ยง": 3340,
      "เล่ห์": 3341,
      "ใจ๋จด": 3342,
      "อาระเบ": 3343,
      "อาชี": 3344,
      "เมื่อค่ำ": 3345,
      "หาดทราย": 3346,
      "เสค": 3347,
      "เสือ": 3348,
      "เสห์": 3349,
      "เสนอ": 3350,
      "กำตอบ": 3351,
      "เหมี้ยง": 3352,
      "นาร": 3353,
      "โละ": 3354,
      "โล่ง": 3355,
      "โลสี": 3356,
      "เข้าของ": 3357,
      "การ์": 3358,
      "กามาลิ": 3359,
      "เถือ": 3360,
      "เถี่ยน": 3361,
      "ปากัส": 3362,
      "สิ่งของ": 3363,
      "บาล": 3364,
      "บาร์": 3365,
      "่วสุม": 3366,
      "เดิ็ก": 3367,
      "เดมาส": 3368,
      "สาธาร": 3369,
      "วันพูก": 3370,
      "โดร": 3371,
      "กิจ": 3372,
      "ขอตาน": 3373,
      "หน้าอก": 3374,
      "ครั้ง": 3375,
      "สวก": 3376,
      "ซาอู": 3377,
      "เน้น": 3378,
      "เนื่อง": 3379,
      "เหลี่ยม": 3380,
      "ติ่น": 3381,
      "ัสเสห์": 3382,
      "ตุ๊ม": 3383,
      "เอ็ก": 3384,
      "เอรัส": 3385,
      "เวห์": 3386,
      "ราหับ": 3387,
      "ตอบโต้": 3388,
      "ทูลล": 3389,
      "ละคร": 3390,
      "ละเลย": 3391,
      "ประกั๋น": 3392,
      "ประเพ": 3393,
      "แก๋น": 3394,
      "แก๊น": 3395,
      "แก้ม": 3396,
      "น้ำหม้อ": 3397,
      "ธรรมดา": 3398,
      "ธรรมชา": 3399,
      "ขี้หน้า": 3400,
      "ขี้เต้า": 3401,
      "ขี้เหมี้ยง": 3402,
      "แผ่นดินไหว": 3403,
      "ปะเหลือ": 3404,
      "ปะล้ำ": 3405,
      "จ้าดนัก": 3406,
      "ปุ๋ย": 3407,
      "ผิดหวัง": 3408,
      "ผิดเถียง": 3409,
      "สัปฟี": 3410,
      "สะลวด": 3411,
      "สะสาง": 3412,
      "ภาวะ": 3413,
      "โยเสส": 3414,
      "ปอปั้น": 3415,
      "เทคอ": 3416,
      "ฮ้ายแฮง": 3417,
      "ไม้แส้": 3418,
      "จักรวา": 3419,
      "ข้อต่อ": 3420,
      "ยากจ๋น": 3421,
      "แหวน": 3422,
      "แหวก": 3423,
      "ยุสทัส": 3424,
      "วดิอัส": 3425,
      "ั่นไหว": 3426,
      "เต๋มอก": 3427,
      "เก็ด": 3428,
      "ยูเลีย": 3429,
      "ศาจ": 3430,
      "อับบา": 3431,
      "ทหารม้า": 3432,
      "ทรี": 3433,
      "ทราม": 3434,
      "ก๋ำปือ": 3435,
      "เครื่องมือ": 3436,
      "เฟีย": 3437,
      "เฟือย": 3438,
      "ปอนทัส": 3439,
      "ปอนทิอัส": 3440,
      "สรุป": 3441,
      "เพิง": 3442,
      "เพ็น": 3443,
      "เคฟาส": 3444,
      "แขน": 3445,
      "วอนตุ๊ก": 3446,
      "เศบูล": 3447,
      "สายเจี้ย": 3448,
      "คาอิน": 3449,
      "ขอบเขต": 3450,
      "ไล่เหิบ": 3451,
      "พันธกิจ": 3452,
      "เจื้อง": 3453,
      "ปี๋ศาจ": 3454,
      "โกธา": 3455,
      "ฮูปปั้น": 3456,
      "อัสโสส": 3457,
      "ขะแตก": 3458,
      "กอยถ้า": 3459,
      "ลมหายใจ๋": 3460,
      "แตกตื่น": 3461,
      "โคโลสี": 3462,
      "เฝื่อน": 3463,
      "มัดจ๋ำ": 3464,
      "โอ่ง": 3465,
      "โอปากัส": 3466,
      "ล้ำไป": 3467,
      "หยั่ง": 3468,
      "แก้ไข": 3469,
      "ไห้หอน": 3470,
      "ผู้น้อย": 3471,
      "ก๋าจ๊ำ": 3472,
      "ต๋านเต๊า": 3473,
      "อินทรี": 3474,
      "เบธฟาย": 3475,
      "หลับนอน": 3476,
      "ลูก๋า": 3477,
      "เรียส": 3478,
      "ต้าว": 3479,
      "ขัดใจ๋": 3480,
      "ตั๊ดหน้า": 3481,
      "มิเลทัส": 3482,
      "มอกอี้": 3483,
      "ใบหย่า": 3484,
      "มั่วสุม": 3485,
      "ก๋องไฟ": 3486,
      "กลโกธา": 3487,
      "สเทฟานัส": 3488,
      "แห้งแล้ง": 3489,
      "จิ๊ง": 3490,
      "พักผ่อน": 3491,
      "วาระ": 3492,
      "เหงย": 3493,
      "จ๊ำก๋า": 3494,
      "มนัสเสห์": 3495,
      "โครา": 3496,
      "หมาไน": 3497,
      "สลาย": 3498,
      "กวม": 3499,
      "แรง": 3500,
      "ไอเนอัส": 3501,
      "หวั่นไหว": 3502,
      "มัทธีอัส": 3503,
      "จี๊แจ๋": 3504,
      "ทาลี": 3505,
      "อาบียาห์": 3506,
      "เหี่ยวแห้ง": 3507,
      "เบอร์นิส": 3508,
      "มัวเมา": 3509,
      "แถว": 3510,
      "นิโคเลาส": 3511,
      "ภายใน": 3512,
      "โคนิ": 3513,
      "ขมขื่น": 3514,
      "นีนะ": 3515,
      "เกราซา": 3516,
      "สะดุ้ง": 3517,
      "คานาอัน": 3518,
      "งวงข้าว": 3519,
      "ถองแกะ": 3520,
      "ถองแก๋น": 3521,
      "นิสัย": 3522,
      "ฮาการ์": 3523,
      "โป่ง": 3524,
      "เปอร์กา": 3525,
      "วิถีตาง": 3526,
      "เทอร์ทูลล": 3527,
      "ชัดเจน": 3528,
      "สังเกต": 3529,
      "เมสสิยาห์": 3530,
      "ซาร์ดิส": 3531,
      "เอปาฟรัส": 3532,
      "ราคะ": 3533,
      "โจ๊ะโละ": 3534,
      "คลาวดิอัส": 3535,
      "ผิ้ว": 3536,
      "ฟองน้ำ": 3537,
      "ลายมือ": 3538,
      "หล่อเลี้ยง": 3539,
      "หนิมผิ้ว": 3540,
      "อาเรโอปากัส": 3541,
      "ทิเบเรียส": 3542,
      "ซามูเอล": 3543,
      "ทศบุรี": 3544,
      "นัฟทาลี": 3545,
      "พินาศ": 3546,
      "ฟัท": 3547,
      "ฟื้นฟู": 3548,
      "ฟุ่มเฟือย": 3549,
      "รุนแรง": 3550,
      "สเปน": 3551,
      "แอกขะแตก": 3552,
      "โอดโอย": 3553,
      "ใค่อยาก": 3554,
      "ไว้วางใจ๋": 3555,
      "เยเรมีย์": 3556,
      "มาตรฐาน": 3557,
      "อาระเบีย": 3558,
      "อาชีพ": 3559,
      "กามาลิเอล": 3560,
      "บาร์เลย์": 3561,
      "สาธารณะ": 3562,
      "ซาอูล": 3563,
      "เอรัสทัส": 3564,
      "ประเพณี": 3565,
      "ธรรมชาติ": 3566,
      "สัปฟีรา": 3567,
      "เทคอสต์": 3568,
      "จักรวาล": 3569,
      "เพ็นเทคอสต์": 3570,
      "เศบูลุน": 3571,
      "เบธฟายี": 3572,
      "จี๊แจ๋ง": 3573,
      "นิโคเลาส์": 3574,
      "นีนะเวห์": 3575,
      "เทอร์ทูลลัส": 3576,
      "กต": 3577,
      "กน": 3578,
      "กี": 3579,
      "ก่อง": 3580,
      "กวั": 3581,
      "กวา": 3582,
      "ขลุ": 3583,
      "คต": 3584,
      "คั": 3585,
      "คุ": 3586,
      "ค่า": 3587,
      "คัน": 3588,
      "ค่าย": 3589,
      "คียาห์": 3590,
      "คิป": 3591,
      "งอ": 3592,
      "งา": 3593,
      "งาย": 3594,
      "งอน": 3595,
      "งัด": 3596,
      "งแร": 3597,
      "งฟู": 3598,
      "จ๊": 3599,
      "จี้": 3600,
      "ฉวย": 3601,
      "ซุ": 3602,
      "ซ์": 3603,
      "ซับ": 3604,
      "ซิน": 3605,
      "ซี่": 3606,
      "ซอร์": 3607,
      "ซ่อม": 3608,
      "ซียาห์": 3609,
      "ซว่าง": 3610,
      "ญ์": 3611,
      "ฒนา": 3612,
      "ดน": 3613,
      "ดัม": 3614,
      "ด่วน": 3615,
      "ดโดน": 3616,
      "ดปล่อย": 3617,
      "ต๊ก": 3618,
      "ต่อน": 3619,
      "ถ่าย": 3620,
      "ถ่อย": 3621,
      "ถิ่น": 3622,
      "ทเส": 3623,
      "ทิส": 3624,
      "ทนาย": 3625,
      "ทุ่ม": 3626,
      "ธน": 3627,
      "ธู": 3628,
      "ธาม": 3629,
      "ธนา": 3630,
      "ธัด": 3631,
      "ธานี": 3632,
      "นย์": 3633,
      "นเน": 3634,
      "นัส": 3635,
      "นิก": 3636,
      "บก": 3637,
      "บว": 3638,
      "บ้ว": 3639,
      "บัก": 3640,
      "บลิอัส": 3641,
      "ปร": 3642,
      "ปอง": 3643,
      "ป๋น": 3644,
      "ปออก": 3645,
      "ปวง": 3646,
      "ปตัน": 3647,
      "ปราช": 3648,
      "ผก": 3649,
      "ผับ": 3650,
      "ผสม": 3651,
      "ผงฟู": 3652,
      "ฝ่": 3653,
      "ฝัก": 3654,
      "ฝ้าย": 3655,
      "ฝัด": 3656,
      "พั": 3657,
      "พัง": 3658,
      "พ่น": 3659,
      "ฟาน": 3660,
      "ฟัส": 3661,
      "มห": 3662,
      "มิน": 3663,
      "ย่": 3664,
      "ยาน": 3665,
      "ยัม": 3666,
      "ยั่ว": 3667,
      "ยบาน": 3668,
      "ราก": 3669,
      "รดิ": 3670,
      "รส์": 3671,
      "ล์": 3672,
      "ลู้": 3673,
      "ลัง": 3674,
      "ล้าน": 3675,
      "ลัย": 3676,
      "ลึก": 3677,
      "ลเฟีย": 3678,
      "วี้": 3679,
      "วหน้า": 3680,
      "วินา": 3681,
      "ศู": 3682,
      "สเม": 3683,
      "สลี": 3684,
      "สเพ": 3685,
      "สว่าย": 3686,
      "สซียาห์": 3687,
      "ห้าน": 3688,
      "หอก": 3689,
      "ห้อย": 3690,
      "ห่ม": 3691,
      "หิม": 3692,
      "หวี": 3693,
      "ฬา": 3694,
      "ออ": 3695,
      "อี": 3696,
      "อ่าว": 3697,
      "อิม": 3698,
      "ฮะ": 3699,
      "ฮาร": 3700,
      "ฮ่ม": 3701,
      "ฮ่ำ": 3702,
      "ฮั่ว": 3703,
      "ฮ่าม": 3704,
      "ัคร": 3705,
      "ัศจ๋รรย์": 3706,
      "าคต": 3707,
      "ึม": 3708,
      "ื้ม": 3709,
      "ุ์": 3710,
      "เคน": 3711,
      "แอบ": 3712,
      "แขว": 3713,
      "โซ": 3714,
      "โท": 3715,
      "โว": 3716,
      "โจ๋ม": 3717,
      "ใฝ่": 3718,
      "๋งว": 3719,
      "ระลึก": 3720,
      "หมอก": 3721,
      "หมวด": 3722,
      "หมวก": 3723,
      "ื้อเฟ": 3724,
      "เปีย": 3725,
      "เปเล": 3726,
      "เปี๋ย": 3727,
      "เจยบาน": 3728,
      "เจ้าหนี้": 3729,
      "ียุด": 3730,
      "เยโฮ": 3731,
      "เยโคนิ": 3732,
      "เยนเน": 3733,
      "เฮเซ": 3734,
      "เฮลี": 3735,
      "บ่ม": 3736,
      "มาอา": 3737,
      "มาหะ": 3738,
      "มาดัม": 3739,
      "่งเร": 3740,
      "มีคา": 3741,
      "หลัน": 3742,
      "หล่น": 3743,
      "หลั่ง": 3744,
      "หล่วย": 3745,
      "หลอม": 3746,
      "หลิ่น": 3747,
      "หลื้ม": 3748,
      "ือก": 3749,
      "ต๋อม": 3750,
      "านัน": 3751,
      "านอน": 3752,
      "เมค": 3753,
      "เมกา": 3754,
      "เมอัส": 3755,
      "เมอิน": 3756,
      "เมโส": 3757,
      "เมเนอัส": 3758,
      "เมเลอา": 3759,
      "เมธู": 3760,
      "ก๋อน": 3761,
      "กัด": 3762,
      "กั๊น": 3763,
      "กัปตัน": 3764,
      "กั๋งว": 3765,
      "เกล": 3766,
      "เกิ็ก": 3767,
      "เกทเส": 3768,
      "ดีด": 3769,
      "ดีเลิศ": 3770,
      "อู้จ๋า": 3771,
      "ตังหลัง": 3772,
      "เต้ง": 3773,
      "เตเมีย": 3774,
      "เตี๋ย": 3775,
      "สิเดีย": 3776,
      "เลม": 3777,
      "เลียน": 3778,
      "เลเอล": 3779,
      "เลื่อน": 3780,
      "ใจ๋จริง": 3781,
      "ใจ๋จ่อ": 3782,
      "อาสา": 3783,
      "อาโม": 3784,
      "อาโมน": 3785,
      "อาเช": 3786,
      "อาคม": 3787,
      "อาคิม": 3788,
      "อาหัส": 3789,
      "อาซอร์": 3790,
      "อาลัย": 3791,
      "ฮับฮู้": 3792,
      "ฮับจ้าง": 3793,
      "อนาคต": 3794,
      "ตั๋วเอง": 3795,
      "เมื่อย": 3796,
      "หาก": 3797,
      "หากิ๋น": 3798,
      "เสท": 3799,
      "เสอร์": 3800,
      "เส้ย": 3801,
      "เสลาห์": 3802,
      "เสเมอิน": 3803,
      "ฮู้คิง": 3804,
      "กำถาม": 3805,
      "กำยาน": 3806,
      "เหม็น": 3807,
      "นาฮู": 3808,
      "นาโฮ": 3809,
      "โลอี": 3810,
      "กาเบ": 3811,
      "เถิ้ม": 3812,
      "ปาร": 3813,
      "ปาโฟ": 3814,
      "ปาเทอร์": 3815,
      "ปาล์": 3816,
      "เรด": 3817,
      "เรท": 3818,
      "เรซา": 3819,
      "เรียน": 3820,
      "เรเบ": 3821,
      "เรโห": 3822,
      "เรอู": 3823,
      "อะลุ": 3824,
      "อะหล่วย": 3825,
      "ธิโอ": 3826,
      "เอาแน่": 3827,
      "บาส": 3828,
      "คริสปัส": 3829,
      "อบอุ่น": 3830,
      "่วแน่": 3831,
      "เดอัส": 3832,
      "เดลเฟีย": 3833,
      "ออกัส": 3834,
      "ออกแบบ": 3835,
      "ต่อเมื่อ": 3836,
      "ต่อต๋า": 3837,
      "โดก": 3838,
      "โด่ง": 3839,
      "โดเซีย": 3840,
      "ลามา": 3841,
      "ลาเมค": 3842,
      "ลาเลเอล": 3843,
      "ลาเดลเฟีย": 3844,
      "ลูกใป๊": 3845,
      "กิโลก": 3846,
      "หน้าต่าง": 3847,
      "สวะ": 3848,
      "สวัส": 3849,
      "ซาเลม": 3850,
      "ซาเรท": 3851,
      "บ่าหลิ่น": 3852,
      "เนรี": 3853,
      "เนอาบ": 3854,
      "นักกาย": 3855,
      "สุภาษ": 3856,
      "เสียบ": 3857,
      "เสียดาย": 3858,
      "ติ้ว": 3859,
      "ติ๊บ": 3860,
      "ติเตี๋ย": 3861,
      "โต้ตอบ": 3862,
      "เผี้ยว": 3863,
      "เต๊ะ": 3864,
      "ตุ่ม": 3865,
      "ตุ๋ม": 3866,
      "โมโห": 3867,
      "โรงแร": 3868,
      "เอฟ": 3869,
      "เอร์": 3870,
      "เอวา": 3871,
      "เอเบอร์": 3872,
      "เอเลอา": 3873,
      "เอสลี": 3874,
      "เอื้อเฟ": 3875,
      "เอานอน": 3876,
      "เอโลอี": 3877,
      "เอธิโอ": 3878,
      "หญิง": 3879,
      "กึ๊ดฮ้าย": 3880,
      "บ้านนอก": 3881,
      "สำรอง": 3882,
      "ปิสิเดีย": 3883,
      "จายคา": 3884,
      "ห้าว": 3885,
      "ต๋าฝั่ง": 3886,
      "สมอง": 3887,
      "สมัคร": 3888,
      "น้ำใส": 3889,
      "น้ำองุ่น": 3890,
      "น้ำท่วม": 3891,
      "รูฟัส": 3892,
      "ดาล": 3893,
      "ดาส": 3894,
      "ดามา": 3895,
      "ใค่หลับ": 3896,
      "ก้าวหน้า": 3897,
      "กร้อ": 3898,
      "จ๋ำใจ๋": 3899,
      "จ๋ำกัด": 3900,
      "ห้ามใจ๋": 3901,
      "หัวใจ๋": 3902,
      "ขี้กั๋ว": 3903,
      "ขี้แข": 3904,
      "นายกุม": 3905,
      "ปุ๊ก": 3906,
      "ผิดใจ๋": 3907,
      "สินบน": 3908,
      "ปัท": 3909,
      "สะอ": 3910,
      "สะต๊ก": 3911,
      "สะบัก": 3912,
      "ลิม": 3913,
      "ลิคา": 3914,
      "ลิเดีย": 3915,
      "เอลมาดัม": 3916,
      "แจสเพ": 3917,
      "โยดา": 3918,
      "โยนาม": 3919,
      "โยริม": 3920,
      "โยสิยาห์": 3921,
      "โยรัม": 3922,
      "โยเสค": 3923,
      "โยธาม": 3924,
      "อัป": 3925,
      "ตกแต่ง": 3926,
      "อ่อนโยน": 3927,
      "เทราห์": 3928,
      "อุสซียาห์": 3929,
      "สุขภาพ": 3930,
      "สักขี": 3931,
      "ขวบ": 3932,
      "ข้อเขียน": 3933,
      "แหยะ": 3934,
      "แหย่": 3935,
      "ดูด": 3936,
      "นิก๋าย": 3937,
      "ยุทิ": 3938,
      "เกี่ยวข้อง": 3939,
      "ผ้าต": 3940,
      "แนว": 3941,
      "แน่วแน่": 3942,
      "ฟาซัด": 3943,
      "ข้าวงาย": 3944,
      "เบือน": 3945,
      "เบรส์": 3946,
      "ธีเนีย": 3947,
      "ยูเฟ": 3948,
      "ยูนี": 3949,
      "เครีย": 3950,
      "เครูบ": 3951,
      "ตะคืน": 3952,
      "ตะราง": 3953,
      "ตะธา": 3954,
      "ตะหลุ้ม": 3955,
      "ตะกร้อ": 3956,
      "ศาโดก": 3957,
      "สันดอน": 3958,
      "จุ้ม": 3959,
      "รติส": 3960,
      "ยาเรด": 3961,
      "ทิเมอัส": 3962,
      "เครื่องเทศ": 3963,
      "เล่าขวัญ": 3964,
      "จื้นเจยบาน": 3965,
      "เฟือ": 3966,
      "เคม": 3967,
      "เคาะ": 3968,
      "แฮ้ง": 3969,
      "สายเลือด": 3970,
      "คาว": 3971,
      "คาห์": 3972,
      "เผยแพ่": 3973,
      "พันธุ์": 3974,
      "มืดมน": 3975,
      "ปะตู๋งาม": 3976,
      "โกก": 3977,
      "ฟีลัส": 3978,
      "ฟีนิก": 3979,
      "เจื๊อจ้าด": 3980,
      "อร์นา": 3981,
      "หนักใจ๋": 3982,
      "หนักแน่น": 3983,
      "ลองเจิง": 3984,
      "แตกต่าง": 3985,
      "เหนี่ยว": 3986,
      "โคสัม": 3987,
      "ต๋ำฮา": 3988,
      "คำราม": 3989,
      "แข็งขัน": 3990,
      "โอเนีย": 3991,
      "โอปัส": 3992,
      "โอ้อวด": 3993,
      "โอเมกา": 3994,
      "โอฟีลัส": 3995,
      "ล้ำก้า": 3996,
      "ลักมอบ": 3997,
      "หยัด": 3998,
      "หยืด": 3999,
      "ไห้หุย": 4000,
      "ปื๊นเมือง": 4001,
      "จั๊กดิ้น": 4002,
      "จั๊กงอ": 4003,
      "สงัด": 4004,
      "เจ็บใจ๋": 4005,
      "ยันนาย": 4006,
      "ยันเนส": 4007,
      "แสงแดด": 4008,
      "เชม": 4009,
      "เชลาห์": 4010,
      "เชเคม": 4011,
      "ล่วงหลับ": 4012,
      "ลูสิอัส": 4013,
      "ปลดปล่อย": 4014,
      "ฮีเมเนอัส": 4015,
      "หูม": 4016,
      "หอมด่วน": 4017,
      "ซ้ำเตื้อ": 4018,
      "กุด": 4019,
      "มิเซีย": 4020,
      "เมนนา": 4021,
      "วุ่นวะ": 4022,
      "โสด": 4023,
      "เหล็กกน": 4024,
      "ถ่อมต๋น": 4025,
      "รียล": 4026,
      "ไข่": 4027,
      "คุณค่า": 4028,
      "อิจฉ": 4029,
      "ก๋องก๋าง": 4030,
      "เผ่าพันธุ์": 4031,
      "คลัง": 4032,
      "เธเนส": 4033,
      "เธโอฟีลัส": 4034,
      "โบอัม": 4035,
      "ครบถ้วน": 4036,
      "เอลีอู": 4037,
      "เอลีเยเซ": 4038,
      "ปู๊": 4039,
      "ปูบลิอัส": 4040,
      "มรกต": 4041,
      "ขบวน": 4042,
      "เส้นชัย": 4043,
      "เปิ้งปา": 4044,
      "บิธา": 4045,
      "บิธีเนีย": 4046,
      "บ่อเกิด": 4047,
      "เสรุก": 4048,
      "มนี": 4049,
      "อัมพ": 4050,
      "ขุมฝังศพ": 4051,
      "รายได้": 4052,
      "ดวงเดือน": 4053,
      "ปปาโดเซีย": 4054,
      "หว้อ": 4055,
      "หวาก": 4056,
      "แค้ม": 4057,
      "อากาบัส": 4058,
      "อารนี": 4059,
      "อารคิป": 4060,
      "อารฟาซัด": 4061,
      "มัทตะธา": 4062,
      "แปลกใจ๋": 4063,
      "แปลกหน้า": 4064,
      "แย่": 4065,
      "เลียขา": 4066,
      "เลียแข้ง": 4067,
      "สะโลเม": 4068,
      "ชาฟัท": 4069,
      "ทาลิ": 4070,
      "ทาบิธา": 4071,
      "อาบี": 4072,
      "อาบียุด": 4073,
      "เวทนา": 4074,
      "อัลฟา": 4075,
      "หย่อนใจ๋": 4076,
      "บูลัส": 4077,
      "สิ้นสุด": 4078,
      "ก๊อง": 4079,
      "ทำนอง": 4080,
      "สดใส": 4081,
      "ฮุ้ง": 4082,
      "แว่น": 4083,
      "ก๋วนใจ๋": 4084,
      "ลีเซียส": 4085,
      "ซะเป้ด": 4086,
      "โฟ๊ะ": 4087,
      "โฟรัส": 4088,
      "โฟรดิ": 4089,
      "บารเยซู": 4090,
      "บารซับ": 4091,
      "ขำตี้": 4092,
      "ซัดต๋า": 4093,
      "ผูกมัด": 4094,
      "รถม้า": 4095,
      "นาธัน": 4096,
      "ขี้เปี้ย": 4097,
      "เล้าโลม": 4098,
      "เบื้องต้น": 4099,
      "มุย": 4100,
      "โปเตเมีย": 4101,
      "เปอร์กาม": 4102,
      "เอโนช": 4103,
      "เกิ็ดเกิ้ง": 4104,
      "มัทธาน": 4105,
      "อัดดี": 4106,
      "อัดมิน": 4107,
      "บาดเจ็บ": 4108,
      "สุมหัว": 4109,
      "แผ่ซ่าน": 4110,
      "เอปาโฟรดิ": 4111,
      "เคลโอปัส": 4112,
      "โจ๊ะโฟ๊ะ": 4113,
      "โสสเธเนส": 4114,
      "ก๊ำจู": 4115,
      "โยอันนา": 4116,
      "โยอานัน": 4117,
      "เฮอร์เมส": 4118,
      "เหี้ยม": 4119,
      "ปุ๊ปอง": 4120,
      "โอเนสิมัส": 4121,
      "โอเนสิโฟรัส": 4122,
      "โฮงละคร": 4123,
      "บัญชาก๋าน": 4124,
      "หยาบคาย": 4125,
      "ตื๊อ": 4126,
      "ธุดาส": 4127,
      "ฟิลาเดลเฟีย": 4128,
      "รุ่งเร": 4129,
      "สกปร": 4130,
      "อำลา": 4131,
      "แตะแหยะ": 4132,
      "เล่ห์เหลี่ยม": 4133,
      "นารดา": 4134,
      "โดรคัส": 4135,
      "ยูเลียส": 4136,
      "โคราซิน": 4137,
      "กีฬา": 4138,
      "กวาด": 4139,
      "ขลุ่ย": 4140,
      "คัปปาโดเซีย": 4141,
      "คันใด": 4142,
      "ซุส": 4143,
      "ซี่คันใด": 4144,
      "ดนตรี": 4145,
      "ถ่อยจ๊า": 4146,
      "ธนู": 4147,
      "ธนาคาร": 4148,
      "ธัดเดอัส": 4149,
      "นย์บัญชาก๋าน": 4150,
      "บวม": 4151,
      "บ้วง": 4152,
      "ปราชญ์": 4153,
      "ผับใคว่": 4154,
      "พัฒนา": 4155,
      "มหัศจ๋รรย์": 4156,
      "ยัมเบรส์": 4157,
      "รากฐาน": 4158,
      "ลังเล": 4159,
      "วินาที": 4160,
      "ศูนย์บัญชาก๋าน": 4161,
      "สเมอร์นา": 4162,
      "หิมะ": 4163,
      "ฮาราน": 4164,
      "เคนเครีย": 4165,
      "แขวน": 4166,
      "โจ๋มตี๋": 4167,
      "เปเลก": 4168,
      "เยโฮชาฟัท": 4169,
      "เยโคนิยาห์": 4170,
      "เยนเนซาเรท": 4171,
      "เฮเซคียาห์": 4172,
      "มาอาท": 4173,
      "มาหะลาเลเอล": 4174,
      "มีคาเอล": 4175,
      "เมโสโปเตเมีย": 4176,
      "เมธูเสลาห์": 4177,
      "กั๋งวล": 4178,
      "เกิ็กเดิ็ก": 4179,
      "เกทเสมนี": 4180,
      "อาโมส": 4181,
      "อาเชอร์": 4182,
      "นาฮูม": 4183,
      "นาโฮร์": 4184,
      "กาเบรียล": 4185,
      "ปาโฟส": 4186,
      "ปาล์ม": 4187,
      "เรเบคาห์": 4188,
      "เรโหโบอัม": 4189,
      "อะลุ้ม": 4190,
      "ออกัสตัส": 4191,
      "กิโลกรัม": 4192,
      "สวัสดี": 4193,
      "เนอาบุรี": 4194,
      "สุภาษิต": 4195,
      "ติเตี๋ยน": 4196,
      "โรงแรม": 4197,
      "เอเลอาซาร์": 4198,
      "เอื้อเฟื้อ": 4199,
      "เอธิโอเปีย": 4200,
      "ขี้แขะ": 4201,
      "นายกุมคอก": 4202,
      "ลิคาโอเนีย": 4203,
      "แจสเพอร์": 4204,
      "สักขีพยาน": 4205,
      "ยุทิกัส": 4206,
      "ยูเฟรติส": 4207,
      "ฟีนิกส์": 4208,
      "จั๊กดิ้นจั๊กงอ": 4209,
      "อิจฉา": 4210,
      "เอลีอูด": 4211,
      "เอลีเยเซอร์": 4212,
      "อารคิปปัส": 4213,
      "บารซับบาส": 4214,
      "เปอร์กามัม": 4215,
      "เอปาโฟรดิทัส": 4216,
      "รุ่งเรือง": 4217,
      "สกปรก": 4218
    },
    "merges": [
      [
        "้",
        "า"
      ],
      [
        "อ",
        "ง"
      ],
      [
        "้",
        "อ"
      ],
      [
        "ี",
        "้"
      ],
      [
        "ร",
        "ะ"
      ],
      [
        "ห",
        "ม"
      ],
      [
        "พ",
        "ระ"
      ],
      [
        "่",
        "า"
      ],
      [
        "ู",
        "่"
      ],
      [
        "ต",
        "ี้"
      ],
      [
        "๋",
        "น"
      ],
      [
        "ื",
        "้อ"
      ],
      [
        "เ",
        "ป"
      ],
      [
        "เ",
        "จ"
      ],
      [
        "ั",
        "บ"
      ],
      [
        "หม",
        "ู่"
      ],
      [
        "ค",
        "น"
      ],
      [
        "ก",
        "็"
      ],
      [
        "ว",
        "่า"
      ],
      [
        "้",
        "น"
      ],
      [
        "เจ",
        "้า"
      ],
      [
        "ี",
        "ย"
      ],
      [
        "ู",
        "้"
      ],
      [
        "ข",
        "อง"
      ],
      [
        "เป",
        "๋น"
      ],
      [
        "เ",
        "ข"
      ],
      [
        "ห",
        "ื้อ"
      ],
      [
        "ั",
        "ง"
      ],
      [
        "้า",
        "น"
      ],
      [
        "ก",
        "ับ"
      ],
      [
        "จ",
        "ะ"
      ],
      [
        "า",
        "ย"
      ],
      [
        "เ",
        "ย"
      ],
      [
        "เ",
        "ฮ"
      ],
      [
        "ค",
        "์"
      ],
      [
        "ต",
        "้าน"
      ],
      [
        "บ",
        "่"
      ],
      [
        "ด",
        "้"
      ],
      [
        "ั",
        "้น"
      ],
      [
        "่",
        "อ"
      ],
      [
        "ไ",
        "ด้"
      ],
      [
        "จ",
        "า"
      ],
      [
        "้",
        "ว"
      ],
      [
        "ม",
        "า"
      ],
      [
        "เฮ",
        "า"
      ],
      [
        "า",
        "ม"
      ],
      [
        "แ",
        "ล"
      ],
      [
        "อง",
        "ค์"
      ],
      [
        "่",
        "ง"
      ],
      [
        "เข",
        "า"
      ],
      [
        "แล",
        "้ว"
      ],
      [
        "อ",
        "ย"
      ],
      [
        "ม",
        "ี"
      ],
      [
        "ไ",
        "ป"
      ],
      [
        "ห",
        "ล"
      ],
      [
        "แ",
        "ต"
      ],
      [
        "ื",
        "อ"
      ],
      [
        "ใ",
        "น"
      ],
      [
        "พระ",
        "องค์"
      ],
      [
        "ั",
        "น"
      ],
      [
        "ต",
        "๋"
      ],
      [
        "พระ",
        "เจ้า"
      ],
      [
        "น",
        "ั้น"
      ],
      [
        "ค",
        "ว"
      ],
      [
        "ใ",
        "จ"
      ],
      [
        "า",
        "น"
      ],
      [
        "เ",
        "ม"
      ],
      [
        "ีย",
        "ะ"
      ],
      [
        "เย",
        "ียะ"
      ],
      [
        "อ",
        "ก"
      ],
      [
        "ข",
        "้า"
      ],
      [
        "ก",
        "๋"
      ],
      [
        "แต",
        "่"
      ],
      [
        "ั",
        "ก"
      ],
      [
        "อย",
        "ู่"
      ],
      [
        "ต",
        "ั"
      ],
      [
        "ร",
        "ิ"
      ],
      [
        "ก",
        "ั"
      ],
      [
        "้อ",
        "น"
      ],
      [
        "คว",
        "าม"
      ],
      [
        "เ",
        "ก"
      ],
      [
        "น",
        "ี้"
      ],
      [
        "้",
        "อง"
      ],
      [
        "เม",
        "ื"
      ],
      [
        "ผ",
        "ู้"
      ],
      [
        "ซ",
        "ู"
      ],
      [
        "เย",
        "ซู"
      ],
      [
        "กั",
        "๋น"
      ],
      [
        "จา",
        "ก"
      ],
      [
        "พระ",
        "เยซู"
      ],
      [
        "ย",
        "้อน"
      ],
      [
        "พ",
        "เจ้า"
      ],
      [
        "ข้า",
        "พเจ้า"
      ],
      [
        "ด",
        "ี"
      ],
      [
        "า",
        "ง"
      ],
      [
        "หล",
        "าย"
      ],
      [
        "อ",
        "ู้"
      ],
      [
        "ต",
        "ัง"
      ],
      [
        "ห",
        "น"
      ],
      [
        "เ",
        "ต"
      ],
      [
        "ส",
        "ิ"
      ],
      [
        "เ",
        "ล"
      ],
      [
        "ึ",
        "ง"
      ],
      [
        "ใจ",
        "๋"
      ],
      [
        "๋",
        "ว"
      ],
      [
        "่า",
        "ง"
      ],
      [
        "ตัง",
        "หลาย"
      ],
      [
        "ิ",
        "ด"
      ],
      [
        "ว",
        "ย"
      ],
      [
        "ก๋",
        "าน"
      ],
      [
        "อ",
        "า"
      ],
      [
        "ู",
        "ก"
      ],
      [
        "ฮ",
        "ับ"
      ],
      [
        "่",
        "น"
      ],
      [
        "ิ",
        "ง"
      ],
      [
        "อ",
        "น"
      ],
      [
        "ตั",
        "๋ว"
      ],
      [
        "ริ",
        "ส"
      ],
      [
        "เมื",
        "่อ"
      ],
      [
        "ิ",
        "น"
      ],
      [
        "่",
        "อง"
      ],
      [
        "ว",
        "ิ"
      ],
      [
        "เจ",
        "ื้อ"
      ],
      [
        "ห",
        "า"
      ],
      [
        "เ",
        "ส"
      ],
      [
        "เป",
        "ื้อ"
      ],
      [
        "ือ",
        "น"
      ],
      [
        "ย",
        "ัง"
      ],
      [
        "ต",
        "ึง"
      ],
      [
        "ว",
        "้"
      ],
      [
        "บ",
        "อก"
      ],
      [
        "จา",
        "อ"
      ],
      [
        "ห",
        "ัน"
      ],
      [
        "ต",
        "วย"
      ],
      [
        "ฮ",
        "ู้"
      ],
      [
        "ไ",
        "ว้"
      ],
      [
        "ร",
        "ร"
      ],
      [
        "อย",
        "่าง"
      ],
      [
        "ข",
        "ึ"
      ],
      [
        "ขึ",
        "้น"
      ],
      [
        "ต๋",
        "าม"
      ],
      [
        "ก",
        "ำ"
      ],
      [
        "เ",
        "หม"
      ],
      [
        "น",
        "า"
      ],
      [
        "โ",
        "ล"
      ],
      [
        "เข",
        "้า"
      ],
      [
        "ก",
        "า"
      ],
      [
        "เหม",
        "ือน"
      ],
      [
        "ก",
        "ู้"
      ],
      [
        "น",
        "ึ"
      ],
      [
        "เ",
        "ถ"
      ],
      [
        "ถ",
        "้า"
      ],
      [
        "ญ",
        "ญ"
      ],
      [
        "ต",
        "้อง"
      ],
      [
        "ป",
        "า"
      ],
      [
        "นึ",
        "่ง"
      ],
      [
        "ั",
        "ต"
      ],
      [
        "โ",
        "ต"
      ],
      [
        "เ",
        "ร"
      ],
      [
        "เถ",
        "ิง"
      ],
      [
        "สิ",
        "่ง"
      ],
      [
        "อ",
        "ะ"
      ],
      [
        "ื",
        "่อง"
      ],
      [
        "ธ",
        "ิ"
      ],
      [
        "เ",
        "อา"
      ],
      [
        "ีย",
        "ว"
      ],
      [
        "แ",
        "หม"
      ],
      [
        "บ",
        "า"
      ],
      [
        "ย",
        "์"
      ],
      [
        "ค",
        "ริส"
      ],
      [
        "คริส",
        "ต"
      ],
      [
        "อ",
        "บ"
      ],
      [
        "แ",
        "ม"
      ],
      [
        "้",
        "ง"
      ],
      [
        "ใ",
        "ด"
      ],
      [
        "ใ",
        "ผ"
      ],
      [
        "เร",
        "ื่อง"
      ],
      [
        "่",
        "ว"
      ],
      [
        "เ",
        "ด"
      ],
      [
        "ส",
        "า"
      ],
      [
        "๊",
        "ก"
      ],
      [
        "ต๋",
        "าย"
      ],
      [
        "จาอ",
        "ั้น"
      ],
      [
        "่อ",
        "น"
      ],
      [
        "อ",
        "อก"
      ],
      [
        "เ",
        "ห"
      ],
      [
        "ใจ",
        "๊"
      ],
      [
        "ก",
        "่"
      ],
      [
        "ว",
        "ัน"
      ],
      [
        "ั",
        "่ง"
      ],
      [
        "เมื",
        "อง"
      ],
      [
        "คริสต",
        "์"
      ],
      [
        "ต",
        "่อ"
      ],
      [
        "จา",
        "ว"
      ],
      [
        "โ",
        "ด"
      ],
      [
        "ล",
        "า"
      ],
      [
        "ล",
        "ูก"
      ],
      [
        "ป",
        "้อ"
      ],
      [
        "ถ",
        "ูก"
      ],
      [
        "ก",
        "ิ"
      ],
      [
        "ข",
        "อ"
      ],
      [
        "อ",
        "ด"
      ],
      [
        "ญญ",
        "า"
      ],
      [
        "ี",
        "่"
      ],
      [
        "บา",
        "ป"
      ],
      [
        "จ",
        "๋"
      ],
      [
        "ล",
        "ง"
      ],
      [
        "หน",
        "้า"
      ],
      [
        "ต",
        "าง"
      ],
      [
        "ท",
        "ธิ"
      ],
      [
        "ค",
        "ร"
      ],
      [
        "จ",
        "ี"
      ],
      [
        "ส",
        "ว"
      ],
      [
        "ซ",
        "า"
      ],
      [
        "ย",
        "อ"
      ],
      [
        "วิ",
        "ต"
      ],
      [
        "จี",
        "วิต"
      ],
      [
        "ฮ",
        "ัก"
      ],
      [
        "ย",
        "ิ"
      ],
      [
        "กิ",
        "๋น"
      ],
      [
        "บ",
        "่า"
      ],
      [
        "เ",
        "น"
      ],
      [
        "น",
        "ัก"
      ],
      [
        "บ",
        "ั"
      ],
      [
        "เ",
        "หล"
      ],
      [
        "แม",
        "่"
      ],
      [
        "ส",
        "ุ"
      ],
      [
        "ำ",
        "ล"
      ],
      [
        "๊",
        "ด"
      ],
      [
        "สา",
        "ว"
      ],
      [
        "เส",
        "ีย"
      ],
      [
        "โด",
        "ย"
      ],
      [
        "ทธิ",
        "์"
      ],
      [
        "ห",
        "ยัง"
      ],
      [
        "ต",
        "ิ"
      ],
      [
        "ฟ",
        "ัง"
      ],
      [
        "เด",
        "ียว"
      ],
      [
        "เล",
        "ย"
      ],
      [
        "รร",
        "ค์"
      ],
      [
        "สว",
        "รรค์"
      ],
      [
        "แ",
        "ผ"
      ],
      [
        "โต",
        "้"
      ],
      [
        "โล",
        "ก"
      ],
      [
        "้า",
        "ง"
      ],
      [
        "ส",
        "อง"
      ],
      [
        "เก",
        "ิด"
      ],
      [
        "โต้",
        "ษ"
      ],
      [
        "ผ",
        "่อ"
      ],
      [
        "หม",
        "ด"
      ],
      [
        "ต๋",
        "อน"
      ],
      [
        "ค",
        "ือ"
      ],
      [
        "สาว",
        "ก"
      ],
      [
        "ั",
        "ส"
      ],
      [
        "้อ",
        "ย"
      ],
      [
        "น",
        "้อง"
      ],
      [
        "พระ",
        "วิ"
      ],
      [
        "า",
        "ร"
      ],
      [
        "เ",
        "ผ"
      ],
      [
        "ย",
        "ว"
      ],
      [
        "ำล",
        "ัง"
      ],
      [
        "เต",
        "๊"
      ],
      [
        "ื",
        "่น"
      ],
      [
        "ย",
        "ิน"
      ],
      [
        "้",
        "ำ"
      ],
      [
        "อะ",
        "หยัง"
      ],
      [
        "ั",
        "ว"
      ],
      [
        "า",
        "ก"
      ],
      [
        "จ",
        "ึง"
      ],
      [
        "ต",
        "ุ"
      ],
      [
        "โ",
        "ม"
      ],
      [
        "จ",
        "๋น"
      ],
      [
        "เต๊",
        "อะ"
      ],
      [
        "เสีย",
        "ง"
      ],
      [
        "บ",
        "น"
      ],
      [
        "ส",
        "อน"
      ],
      [
        "พระ",
        "บ"
      ],
      [
        "โ",
        "ร"
      ],
      [
        "ห",
        "์"
      ],
      [
        "เ",
        "อ"
      ],
      [
        "้ว",
        "ย"
      ],
      [
        "ิ",
        "ต"
      ],
      [
        "ญญา",
        "ณ"
      ],
      [
        "ส",
        "ั่ง"
      ],
      [
        "ฮ",
        "้อง"
      ],
      [
        "ตั",
        "้ง"
      ],
      [
        "ีย",
        "น"
      ],
      [
        "เหล",
        "ือ"
      ],
      [
        "ก",
        "่อน"
      ],
      [
        "กา",
        "ว่า"
      ],
      [
        "เ",
        "ว"
      ],
      [
        "ห",
        "ญ"
      ],
      [
        "ึ",
        "๊ด"
      ],
      [
        "ก",
        "ึ๊ด"
      ],
      [
        "เห",
        "ีย"
      ],
      [
        "ยิ",
        "ว"
      ],
      [
        "บ",
        "้าน"
      ],
      [
        "ร",
        "์"
      ],
      [
        "ด",
        "ิน"
      ],
      [
        "ำ",
        "นา"
      ],
      [
        "ร",
        "า"
      ],
      [
        "ส",
        "ำ"
      ],
      [
        "ื",
        "น"
      ],
      [
        "พระ",
        "คริสต์"
      ],
      [
        "แต",
        "๊"
      ],
      [
        "อ",
        "ำนา"
      ],
      [
        "ั",
        "ม"
      ],
      [
        "อำนา",
        "จ"
      ],
      [
        "ต",
        "่าง"
      ],
      [
        "ป",
        "ิ"
      ],
      [
        "ป",
        "ี้"
      ],
      [
        "จ",
        "ัก"
      ],
      [
        "เน",
        "่อ"
      ],
      [
        "ต",
        "อบ"
      ],
      [
        "่ว",
        "น"
      ],
      [
        "ค",
        "่"
      ],
      [
        "ธ",
        "รร"
      ],
      [
        "จ",
        "้วย"
      ],
      [
        "จา",
        "ใด"
      ],
      [
        "ใจ",
        "้"
      ],
      [
        "ใ",
        "หญ"
      ],
      [
        "ยอ",
        "ม"
      ],
      [
        "ใหญ",
        "่"
      ],
      [
        "ก่",
        "ำลัง"
      ],
      [
        "จ",
        "าย"
      ],
      [
        "ปี้",
        "น้อง"
      ],
      [
        "ท",
        "ู"
      ],
      [
        "เก",
        "่า"
      ],
      [
        "ัต",
        "ิ"
      ],
      [
        "พระ",
        "ค"
      ],
      [
        "อ",
        "ื่น"
      ],
      [
        "เป",
        "า"
      ],
      [
        "เต",
        "ียว"
      ],
      [
        "ทู",
        "ต"
      ],
      [
        "ป้อ",
        "จาย"
      ],
      [
        "ห",
        "้า"
      ],
      [
        "เข",
        "ียน"
      ],
      [
        "ปิ",
        "๊ก"
      ],
      [
        "๊",
        "น"
      ],
      [
        "ต๋",
        "า"
      ],
      [
        "หา",
        "ร"
      ],
      [
        "ล",
        "ะ"
      ],
      [
        "ถ",
        "าม"
      ],
      [
        "เปา",
        "โล"
      ],
      [
        "ส",
        "่วน"
      ],
      [
        "ป",
        "ระ"
      ],
      [
        "เก",
        "ย"
      ],
      [
        "ย",
        "ก"
      ],
      [
        "แ",
        "ก"
      ],
      [
        "แ",
        "ก่"
      ],
      [
        "จาอ",
        "ี้"
      ],
      [
        "ุ",
        "ม"
      ],
      [
        "ห",
        "ั้น"
      ],
      [
        "แ",
        "คว"
      ],
      [
        "อ",
        "ัน"
      ],
      [
        "ห",
        "าย"
      ],
      [
        "้า",
        "ย"
      ],
      [
        "เ",
        "ซ"
      ],
      [
        "เต",
        "้า"
      ],
      [
        "ใ",
        "ส"
      ],
      [
        "ต",
        "ร"
      ],
      [
        "บ",
        "ริส"
      ],
      [
        "ป",
        "๋"
      ],
      [
        "ุ",
        "ทธิ์"
      ],
      [
        "ฮับ",
        "ใจ๊"
      ],
      [
        "บริส",
        "ุทธิ์"
      ],
      [
        "เว",
        "ลา"
      ],
      [
        "บ",
        "ท"
      ],
      [
        "๊",
        "า"
      ],
      [
        "ส",
        "ม"
      ],
      [
        "นา",
        "ด"
      ],
      [
        "ญญ",
        "ัติ"
      ],
      [
        "บั",
        "ญญัติ"
      ],
      [
        "ก",
        "ษ"
      ],
      [
        "น",
        "้ำ"
      ],
      [
        "ข",
        "นาด"
      ],
      [
        "ธรร",
        "ม"
      ],
      [
        "พระวิ",
        "ญญาณ"
      ],
      [
        "น",
        "าง"
      ],
      [
        "ร",
        "ู"
      ],
      [
        "หล",
        "ัง"
      ],
      [
        "ตุ",
        "๊ก"
      ],
      [
        "ด",
        "า"
      ],
      [
        "โต",
        "ร"
      ],
      [
        "ใ",
        "ค่"
      ],
      [
        "หม",
        "าย"
      ],
      [
        "ริ",
        "ย์"
      ],
      [
        "ก",
        "้า"
      ],
      [
        "ปา",
        "ก"
      ],
      [
        "่า",
        "ว"
      ],
      [
        "แต",
        "น"
      ],
      [
        "เต",
        "ื้อ"
      ],
      [
        "ิด",
        "า"
      ],
      [
        "พระบ",
        "ิดา"
      ],
      [
        "ใส",
        "่"
      ],
      [
        "ก",
        "ร"
      ],
      [
        "ิ",
        "ส"
      ],
      [
        "เป",
        "โตร"
      ],
      [
        "ฐ",
        "าน"
      ],
      [
        "ได้",
        "ฮับ"
      ],
      [
        "ัต",
        "ริย์"
      ],
      [
        "กษ",
        "ัตริย์"
      ],
      [
        "จ๋",
        "ำ"
      ],
      [
        "ห้า",
        "ม"
      ],
      [
        "ษ",
        "า"
      ],
      [
        "ุ",
        "ตร"
      ],
      [
        "ได้",
        "ยิน"
      ],
      [
        "ริ",
        "ง"
      ],
      [
        "ผู้",
        "เจื้อ"
      ],
      [
        "จ",
        "ริง"
      ],
      [
        "ื",
        "่อ"
      ],
      [
        "ห",
        "ัว"
      ],
      [
        "แผ",
        "่น"
      ],
      [
        "ั",
        "ด"
      ],
      [
        "ตั",
        "ด"
      ],
      [
        "ข",
        "ี้"
      ],
      [
        "จ",
        "ื้อ"
      ],
      [
        "มา",
        "ร"
      ],
      [
        "หล",
        "ะ"
      ],
      [
        "แคว",
        "้น"
      ],
      [
        "แผ่น",
        "ดิน"
      ],
      [
        "น",
        "าย"
      ],
      [
        "ง",
        "าน"
      ],
      [
        "พระ",
        "ผู้"
      ],
      [
        "เป๋น",
        "เจ้า"
      ],
      [
        "สุ",
        "ด"
      ],
      [
        "พระผู้",
        "เป๋นเจ้า"
      ],
      [
        "ญ",
        "ิง"
      ],
      [
        "ป",
        "ะ"
      ],
      [
        "แม่",
        "ญิง"
      ],
      [
        "้า",
        "ด"
      ],
      [
        "จ",
        "้าด"
      ],
      [
        "ป",
        "ุ"
      ],
      [
        "ผ",
        "ิด"
      ],
      [
        "เก",
        "๊า"
      ],
      [
        "สิ",
        "น"
      ],
      [
        "ยอ",
        "ห์"
      ],
      [
        "ยอห์",
        "น"
      ],
      [
        "บ",
        "าง"
      ],
      [
        "ย",
        "ง"
      ],
      [
        "เ",
        "ดี"
      ],
      [
        "่",
        "ยว"
      ],
      [
        "ทูต",
        "สวรรค์"
      ],
      [
        "เดี",
        "่ยว"
      ],
      [
        "อ",
        "ิส"
      ],
      [
        "ป",
        "ั"
      ],
      [
        "จ๋",
        "าร"
      ],
      [
        "จ๋าร",
        "ย์"
      ],
      [
        "ตัด",
        "สิน"
      ],
      [
        "ฆ",
        "่า"
      ],
      [
        "ว",
        "าง"
      ],
      [
        "อ",
        "ธิ"
      ],
      [
        "ุ",
        "ณ"
      ],
      [
        "ป",
        "๊น"
      ],
      [
        "เก",
        "ีย"
      ],
      [
        "ส",
        "ั"
      ],
      [
        "็",
        "ด"
      ],
      [
        "ส",
        "ะ"
      ],
      [
        "ถ",
        "ือ"
      ],
      [
        "ภ",
        "า"
      ],
      [
        "ม",
        "ัน"
      ],
      [
        "ล",
        "ิ"
      ],
      [
        "อ",
        "ั้น"
      ],
      [
        "ุ",
        "ง"
      ],
      [
        "ข",
        "่าว"
      ],
      [
        "่ว",
        "ม"
      ],
      [
        "ย",
        "ืน"
      ],
      [
        "เล",
        "็"
      ],
      [
        "เอ",
        "ล"
      ],
      [
        "แ",
        "จ"
      ],
      [
        "โ",
        "ย"
      ],
      [
        "อ",
        "ั"
      ],
      [
        "ร",
        "ับ"
      ],
      [
        "เล",
        "ือ"
      ],
      [
        "ฮ",
        "่วม"
      ],
      [
        "ก๋",
        "าง"
      ],
      [
        "ส",
        "าม"
      ],
      [
        "่า",
        "น"
      ],
      [
        "ต",
        "ก"
      ],
      [
        "เต้า",
        "อั้น"
      ],
      [
        "ล",
        "อด"
      ],
      [
        "ษ",
        "ฐาน"
      ],
      [
        "กั",
        "๋ว"
      ],
      [
        "อธิ",
        "ษฐาน"
      ],
      [
        "ิ",
        "่ง"
      ],
      [
        "สิ",
        "บ"
      ],
      [
        "กร",
        "ุง"
      ],
      [
        "ป",
        "อ"
      ],
      [
        "ส",
        "่ง"
      ],
      [
        "ห",
        "ิต"
      ],
      [
        "ถูก",
        "ต้อง"
      ],
      [
        "บ่า",
        "เดี่ยว"
      ],
      [
        "โร",
        "หิต"
      ],
      [
        "ปุ",
        "โรหิต"
      ],
      [
        "น",
        "ุ"
      ],
      [
        "น",
        "ั่ง"
      ],
      [
        "ม",
        "ือ"
      ],
      [
        "ีย",
        "บ"
      ],
      [
        "ฮู้",
        "จัก"
      ],
      [
        "ร",
        "อด"
      ],
      [
        "ยิ",
        "่ง"
      ],
      [
        "พ",
        "่อง"
      ],
      [
        "อ",
        "่อน"
      ],
      [
        "เฮ",
        "ือ"
      ],
      [
        "ว",
        "าย"
      ],
      [
        "ี้",
        "ยง"
      ],
      [
        "ุ",
        "ก"
      ],
      [
        "ป",
        "ี"
      ],
      [
        "เ",
        "ท"
      ],
      [
        "เย",
        "รู"
      ],
      [
        "ซา",
        "เล็"
      ],
      [
        "เยรู",
        "ซาเล็"
      ],
      [
        "เยรูซาเล็",
        "ม"
      ],
      [
        "่",
        "ม"
      ],
      [
        "ข่าว",
        "ดี"
      ],
      [
        "ว",
        "ัง"
      ],
      [
        "อ",
        "ุ"
      ],
      [
        "ฮ",
        "้าย"
      ],
      [
        "ี่",
        "ยว"
      ],
      [
        "จ",
        "ิต"
      ],
      [
        "ต",
        "ลอด"
      ],
      [
        "ห",
        "รับ"
      ],
      [
        "ื",
        "ด"
      ],
      [
        "สุ",
        "ข"
      ],
      [
        "สำ",
        "หรับ"
      ],
      [
        "ซ",
        "ี"
      ],
      [
        "ส",
        "ัต"
      ],
      [
        "เ",
        "ซา"
      ],
      [
        "ไ",
        "ม"
      ],
      [
        "เซ",
        "ิ่ง"
      ],
      [
        "ไม",
        "้"
      ],
      [
        "น",
        "ี่"
      ],
      [
        "ส",
        "ัก"
      ],
      [
        "พระค",
        "ุณ"
      ],
      [
        "ข",
        "ว"
      ],
      [
        "ถ",
        "้อย"
      ],
      [
        "แผ",
        "ว"
      ],
      [
        "จัก",
        "ร"
      ],
      [
        "พ",
        "ย"
      ],
      [
        "ิ",
        "ก"
      ],
      [
        "แม",
        "้"
      ],
      [
        "ข",
        "้อ"
      ],
      [
        "เผ",
        "ียบ"
      ],
      [
        "ป",
        "ก"
      ],
      [
        "ภ",
        "ี"
      ],
      [
        "คว",
        "ร"
      ],
      [
        "ัม",
        "ภี"
      ],
      [
        "พระค",
        "ัมภี"
      ],
      [
        "พระคัมภี",
        "ร์"
      ],
      [
        "ก",
        "้"
      ],
      [
        "ย",
        "าก"
      ],
      [
        "ว",
        "น"
      ],
      [
        "ผ",
        "ี"
      ],
      [
        "แ",
        "ห"
      ],
      [
        "จ",
        "ง"
      ],
      [
        "ด",
        "ู"
      ],
      [
        "ต",
        "๊"
      ],
      [
        "หน",
        "้อย"
      ],
      [
        "ษ",
        "ย์"
      ],
      [
        "น",
        "ิ"
      ],
      [
        "ฮัก",
        "ษา"
      ],
      [
        "ต",
        "ิด"
      ],
      [
        "ย",
        "ุ"
      ],
      [
        "พระวิ",
        "หาร"
      ],
      [
        "ใ",
        "หม"
      ],
      [
        "เก",
        "ี่ยว"
      ],
      [
        "ยิ่ง",
        "ใหญ่"
      ],
      [
        "ถ้อย",
        "กำ"
      ],
      [
        "ใหม",
        "่"
      ],
      [
        "ว",
        "ด"
      ],
      [
        "แจ",
        "้ง"
      ],
      [
        "ผ",
        "้า"
      ],
      [
        "ุ",
        "่น"
      ],
      [
        "ต",
        "ี"
      ],
      [
        "ผ",
        "่าน"
      ],
      [
        "เ",
        "ต๋"
      ],
      [
        "แ",
        "น"
      ],
      [
        "แก",
        "ะ"
      ],
      [
        "ฟ",
        "า"
      ],
      [
        "ั",
        "่น"
      ],
      [
        "เส",
        "ส"
      ],
      [
        "ตึง",
        "หมด"
      ],
      [
        "สั",
        "ญญา"
      ],
      [
        "ผ",
        "ด"
      ],
      [
        "ข้า",
        "ว"
      ],
      [
        "บ่า",
        "ว"
      ],
      [
        "เข้า",
        "ใจ๋"
      ],
      [
        "เห",
        "ย"
      ],
      [
        "โม",
        "เสส"
      ],
      [
        "ิ",
        "้น"
      ],
      [
        "เต๋",
        "ม"
      ],
      [
        "ม",
        "นุ"
      ],
      [
        "่า",
        "ย"
      ],
      [
        "เป",
        "ิด"
      ],
      [
        "มนุ",
        "ษย์"
      ],
      [
        "ั",
        "ย"
      ],
      [
        "ไ",
        "ฟ"
      ],
      [
        "อา",
        "จ๋ารย์"
      ],
      [
        "เ",
        "บ"
      ],
      [
        "เ",
        "ก็"
      ],
      [
        "เม",
        "ีย"
      ],
      [
        "ต้อง",
        "ก๋าน"
      ],
      [
        "โ",
        "ผด"
      ],
      [
        "่",
        "วย"
      ],
      [
        "ฤ",
        "ทธิ์"
      ],
      [
        "ั",
        "ญ"
      ],
      [
        "ใ",
        "ก้"
      ],
      [
        "แต",
        "่ง"
      ],
      [
        "พย",
        "าน"
      ],
      [
        "ป",
        "ู่"
      ],
      [
        "ล",
        "ุก"
      ],
      [
        "เส",
        "ื้อ"
      ],
      [
        "พระบ",
        "ุตร"
      ],
      [
        "ปู่",
        "จา"
      ],
      [
        "ธ",
        "ี"
      ],
      [
        "ิ",
        "บ"
      ],
      [
        "น",
        "อก"
      ],
      [
        "เก็",
        "บ"
      ],
      [
        "ซ",
        "ื่อ"
      ],
      [
        "ย",
        "ู"
      ],
      [
        "แ",
        "ป๋"
      ],
      [
        "ล",
        "อ"
      ],
      [
        "ล",
        "ี"
      ],
      [
        "แ",
        "ด"
      ],
      [
        "คริสต",
        "จักร"
      ],
      [
        "ลง",
        "โต้ษ"
      ],
      [
        "ยอม",
        "ฮับ"
      ],
      [
        "พ",
        "ิ"
      ],
      [
        "แ",
        "ส"
      ],
      [
        "คร",
        "อง"
      ],
      [
        "ด้",
        "วย"
      ],
      [
        "ท",
        "น"
      ],
      [
        "ฟ",
        "้า"
      ],
      [
        "ณ",
        "์"
      ],
      [
        "ส",
        "ตาง"
      ],
      [
        "เ",
        "คร"
      ],
      [
        "ยิน",
        "ดี"
      ],
      [
        "สตาง",
        "ค์"
      ],
      [
        "ต",
        "ะ"
      ],
      [
        "ศ",
        "า"
      ],
      [
        "ตั้ง",
        "แต่"
      ],
      [
        "ค",
        "ัญ"
      ],
      [
        "น",
        "ำ"
      ],
      [
        "ม",
        "ัส"
      ],
      [
        "สำ",
        "คัญ"
      ],
      [
        "ต่าง",
        "จ้าด"
      ],
      [
        "ปก",
        "ครอง"
      ],
      [
        "ส",
        "ัน"
      ],
      [
        "ริ",
        "ญ"
      ],
      [
        "หละ",
        "อ่อน"
      ],
      [
        "จ",
        "ุ"
      ],
      [
        "ศ",
        "พ"
      ],
      [
        "ร",
        "ติ"
      ],
      [
        "อ",
        "ับ"
      ],
      [
        "ไ",
        "หน"
      ],
      [
        "้อ",
        "ม"
      ],
      [
        "เซา",
        "ะ"
      ],
      [
        "ย",
        "า"
      ],
      [
        "ท",
        "หาร"
      ],
      [
        "เปื้อ",
        "น"
      ],
      [
        "เกีย",
        "รติ"
      ],
      [
        "ท",
        "ะ"
      ],
      [
        "บ",
        "ุตร"
      ],
      [
        "พ",
        "ัน"
      ],
      [
        "่อ",
        "ย"
      ],
      [
        "เล",
        "ี้ยง"
      ],
      [
        "ท",
        "ิ"
      ],
      [
        "ม",
        "ั่น"
      ],
      [
        "ไ",
        "ห"
      ],
      [
        "็",
        "ก"
      ],
      [
        "ท",
        "ร"
      ],
      [
        "ฮ",
        "ัม"
      ],
      [
        "รา",
        "ฮัม"
      ],
      [
        "อับ",
        "ราฮัม"
      ],
      [
        "น",
        "ับ"
      ],
      [
        "ย",
        "ับ"
      ],
      [
        "หน",
        "ัง"
      ],
      [
        "ค",
        "ืน"
      ],
      [
        "เจ",
        "็ด"
      ],
      [
        "ก๋",
        "ำ"
      ],
      [
        "อั",
        "คร"
      ],
      [
        "ว",
        "์"
      ],
      [
        "วิ",
        "ญญาณ"
      ],
      [
        "แป๋",
        "ง"
      ],
      [
        "น",
        "์"
      ],
      [
        "พ",
        "ติ"
      ],
      [
        "ศ",
        "มา"
      ],
      [
        "ส",
        "ี่"
      ],
      [
        "บั",
        "พติ"
      ],
      [
        "วาง",
        "ใจ๋"
      ],
      [
        "บัพติ",
        "ศมา"
      ],
      [
        "ค",
        "อก"
      ],
      [
        "ริส",
        "ี"
      ],
      [
        "ดา",
        "ว"
      ],
      [
        "ฟา",
        "ริสี"
      ],
      [
        "เคร",
        "ื่อง"
      ],
      [
        "ก",
        "่อ"
      ],
      [
        "ฮ",
        "ิ"
      ],
      [
        "ื",
        "้น"
      ],
      [
        "้",
        "ม"
      ],
      [
        "รา",
        "เอล"
      ],
      [
        "อิส",
        "ราเอล"
      ],
      [
        "ทะ",
        "เล"
      ],
      [
        "ม",
        "อบ"
      ],
      [
        "ู",
        "๋"
      ],
      [
        "เล",
        "่า"
      ],
      [
        "ด",
        "ัง"
      ],
      [
        "ห",
        "วัง"
      ],
      [
        "ถ",
        "วาย"
      ],
      [
        "ตี",
        "๋น"
      ],
      [
        "ห",
        "ว่า"
      ],
      [
        "แล",
        "ะ"
      ],
      [
        "เห",
        "ตุ"
      ],
      [
        "สว",
        "น"
      ],
      [
        "เลือ",
        "ก"
      ],
      [
        "น",
        "วน"
      ],
      [
        "จ",
        "ื้น"
      ],
      [
        "อง",
        "ุ่น"
      ],
      [
        "่ว",
        "ง"
      ],
      [
        "จ๋ำ",
        "นวน"
      ],
      [
        "เ",
        "ฟ"
      ],
      [
        "สม",
        "ควร"
      ],
      [
        "บุตร",
        "มนุษย์"
      ],
      [
        "จ",
        "ั"
      ],
      [
        "ฉ",
        "ิบ"
      ],
      [
        "ห",
        "ิน"
      ],
      [
        "เจื้อ",
        "ฟัง"
      ],
      [
        "โม",
        "ง"
      ],
      [
        "โม",
        "น"
      ],
      [
        "เลือ",
        "ด"
      ],
      [
        "อัคร",
        "ทูต"
      ],
      [
        "ฉิบ",
        "หาย"
      ],
      [
        "เฮ",
        "ือน"
      ],
      [
        "เกีย",
        "ม"
      ],
      [
        "เท",
        "ศ"
      ],
      [
        "ป",
        "อน"
      ],
      [
        "โด",
        "น"
      ],
      [
        "หลัง",
        "จาก"
      ],
      [
        "โย",
        "ช"
      ],
      [
        "ต๊",
        "อง"
      ],
      [
        "ส",
        "รร"
      ],
      [
        "า",
        "ะ"
      ],
      [
        "แ",
        "บ"
      ],
      [
        "เส",
        "ริญ"
      ],
      [
        "สัต",
        "ว์"
      ],
      [
        "สรร",
        "เสริญ"
      ],
      [
        "ส",
        "ร"
      ],
      [
        "ส",
        "ู"
      ],
      [
        "เ",
        "พ"
      ],
      [
        "แห",
        "่ง"
      ],
      [
        "เ",
        "ค"
      ],
      [
        "แ",
        "ข"
      ],
      [
        "เตียว",
        "ตาง"
      ],
      [
        "ผ",
        "ล"
      ],
      [
        "ว",
        "อน"
      ],
      [
        "เ",
        "ศ"
      ],
      [
        "ประ",
        "โยช"
      ],
      [
        "ขว",
        "้าง"
      ],
      [
        "ประโยช",
        "น์"
      ],
      [
        "น",
        "มัส"
      ],
      [
        "ว",
        "ง"
      ],
      [
        "แ",
        "ป"
      ],
      [
        "แ",
        "ฮ"
      ],
      [
        "ีย",
        "์"
      ],
      [
        "ปั",
        "๋"
      ],
      [
        "สร",
        "้าง"
      ],
      [
        "นมัส",
        "ก๋าน"
      ],
      [
        "จ",
        "ม"
      ],
      [
        "พ",
        "ร"
      ],
      [
        "ส",
        "าย"
      ],
      [
        "ก๋",
        "ำลัง"
      ],
      [
        "กำ",
        "สอน"
      ],
      [
        "สม",
        "บ"
      ],
      [
        "ซี",
        "โมน"
      ],
      [
        "ข",
        "า"
      ],
      [
        "ค",
        "า"
      ],
      [
        "ฮ",
        "ู"
      ],
      [
        "จื้น",
        "จม"
      ],
      [
        "ล",
        "ับ"
      ],
      [
        "ก๋",
        "าย"
      ],
      [
        "ี่",
        "ย"
      ],
      [
        "ขี้",
        "ข้า"
      ],
      [
        "มาร",
        "ีย์"
      ],
      [
        "ข",
        "อบ"
      ],
      [
        "ป",
        "ัง"
      ],
      [
        "อย",
        "าก"
      ],
      [
        "เผ",
        "ย"
      ],
      [
        "ม",
        "ปัง"
      ],
      [
        "ย",
        "้าง"
      ],
      [
        "เข",
        "น"
      ],
      [
        "ก๋",
        "ง"
      ],
      [
        "หน",
        "มปัง"
      ],
      [
        "เข้า",
        "หนมปัง"
      ],
      [
        "ลา",
        "ต"
      ],
      [
        "แด",
        "น"
      ],
      [
        "ผ",
        "ัว"
      ],
      [
        "ล",
        "่"
      ],
      [
        "ใ",
        "คว"
      ],
      [
        "ปี",
        "ลาต"
      ],
      [
        "ใคว",
        "่"
      ],
      [
        "ค",
        "ุม"
      ],
      [
        "ไ",
        "ล่"
      ],
      [
        "ำล",
        "าย"
      ],
      [
        "พัน",
        "ธ"
      ],
      [
        "แฮ",
        "ง"
      ],
      [
        "ง",
        "ืด"
      ],
      [
        "๊",
        "ย"
      ],
      [
        "จิต",
        "ใจ๋"
      ],
      [
        "พร",
        "้อม"
      ],
      [
        "ของ",
        "กิ๋น"
      ],
      [
        "เฮ",
        "โร"
      ],
      [
        "สิ",
        "ทธิ"
      ],
      [
        "กา",
        "ลิ"
      ],
      [
        "อุ",
        "๊ย"
      ],
      [
        "พิ",
        "ธี"
      ],
      [
        "กาลิ",
        "ลี"
      ],
      [
        "จ",
        "ด"
      ],
      [
        "เจ",
        "ื"
      ],
      [
        "ต",
        "ู๋"
      ],
      [
        "ฝ",
        "ัง"
      ],
      [
        "ม",
        "ืด"
      ],
      [
        "แ",
        "อ"
      ],
      [
        "๊",
        "อ"
      ],
      [
        "ปะ",
        "ตู๋"
      ],
      [
        "ปี",
        "๋"
      ],
      [
        "ปั๋",
        "ญญา"
      ],
      [
        "บ",
        "าย"
      ],
      [
        "ร",
        "ัน"
      ],
      [
        "ร",
        "้อย"
      ],
      [
        "โ",
        "ก"
      ],
      [
        "่",
        "ำ"
      ],
      [
        "หม",
        "่อน"
      ],
      [
        "อด",
        "ทน"
      ],
      [
        "ฮู",
        "ป"
      ],
      [
        "ี่ย",
        "น"
      ],
      [
        "ด",
        "ร์"
      ],
      [
        "ฟ",
        "ี"
      ],
      [
        "ส",
        "ี"
      ],
      [
        "อ",
        "ัส"
      ],
      [
        "เม",
        "ต"
      ],
      [
        "สิ",
        "ทธิ์"
      ],
      [
        "สา",
        "มาร"
      ],
      [
        "สัต",
        "ย์"
      ],
      [
        "นิ",
        "รัน"
      ],
      [
        "เกี่ยว",
        "กับ"
      ],
      [
        "สัน",
        "ติ"
      ],
      [
        "เจื",
        "๊อ"
      ],
      [
        "สามาร",
        "ถ"
      ],
      [
        "นิรัน",
        "ดร์"
      ],
      [
        "อ",
        "ม"
      ],
      [
        "สันติ",
        "สุข"
      ],
      [
        "บ",
        "อด"
      ],
      [
        "ก๋",
        "าร"
      ],
      [
        "ค่",
        "ำ"
      ],
      [
        "หัว",
        "หน้า"
      ],
      [
        "ก๋าร",
        "ณ์"
      ],
      [
        "ข",
        "าย"
      ],
      [
        "น",
        "อน"
      ],
      [
        "ีย",
        "ง"
      ],
      [
        "ภา",
        "ษา"
      ],
      [
        "เปิด",
        "เผย"
      ],
      [
        "เฮโร",
        "ด"
      ],
      [
        "ด",
        "อย"
      ],
      [
        "ล",
        "ำ"
      ],
      [
        "เม",
        "็ด"
      ],
      [
        "ศา",
        "ลา"
      ],
      [
        "เมต",
        "ต๋า"
      ],
      [
        "(",
        "​"
      ],
      [
        "ด",
        "ง"
      ],
      [
        "อ",
        "ร์"
      ],
      [
        "ิ",
        "็ก"
      ],
      [
        "ื",
        "๋"
      ],
      [
        "มา",
        "น"
      ],
      [
        "หน",
        "ัก"
      ],
      [
        "แม",
        "่น"
      ],
      [
        "สา",
        "บ"
      ],
      [
        "เหล",
        "้า"
      ],
      [
        "ยู",
        "ดา"
      ],
      [
        "ดาว",
        "ิด"
      ],
      [
        "ข",
        "ะ"
      ],
      [
        "ท",
        "ำลาย"
      ],
      [
        "ล",
        "อง"
      ],
      [
        "ห",
        "ัก"
      ],
      [
        "บ่า",
        "ก"
      ],
      [
        "บ่า",
        "หิน"
      ],
      [
        "ประ",
        "เทศ"
      ],
      [
        "ธรรม",
        "ศาลา"
      ],
      [
        "แส",
        "ดง"
      ],
      [
        "ค",
        "ง"
      ],
      [
        "ท",
        "ี"
      ],
      [
        "ล",
        "้าง"
      ],
      [
        "อ",
        "าย"
      ],
      [
        "อ",
        "วด"
      ],
      [
        "โ",
        "ข"
      ],
      [
        "ต่อ",
        "หน้า"
      ],
      [
        "ยก",
        "โต้ษ"
      ],
      [
        "ปั",
        "๋น"
      ],
      [
        "บ่าเดี่ยว",
        "นี้"
      ],
      [
        "เสื้อ",
        "ผ้า"
      ],
      [
        "ก",
        "อย"
      ],
      [
        "ต",
        "้อน"
      ],
      [
        "ส",
        "ือ"
      ],
      [
        "อ",
        "้อน"
      ],
      [
        "หนัง",
        "สือ"
      ],
      [
        "โข",
        "ด"
      ],
      [
        "อ้อน",
        "วอน"
      ],
      [
        "จ",
        "ุม"
      ],
      [
        "น",
        "ุม"
      ],
      [
        "ม",
        "หา"
      ],
      [
        "ล",
        "ม"
      ],
      [
        "ล",
        "ล"
      ],
      [
        "​",
        ")"
      ],
      [
        "เป",
        "ิ้น"
      ],
      [
        "่อ",
        "ม"
      ],
      [
        "มา",
        "จ๋ารย์"
      ],
      [
        "แต",
        "ก"
      ],
      [
        "ธรร",
        "มาจ๋ารย์"
      ],
      [
        "เ",
        "หน"
      ],
      [
        "เ",
        "ก๋ง"
      ],
      [
        "๊",
        "ะ"
      ],
      [
        "เซ",
        "ฟ"
      ],
      [
        "โย",
        "เซฟ"
      ],
      [
        "จุม",
        "นุม"
      ],
      [
        "ญ",
        "า"
      ],
      [
        "ฝ",
        "าก"
      ],
      [
        "ร",
        "นา"
      ],
      [
        "เด",
        "ีย"
      ],
      [
        "เอ",
        "ิ้น"
      ],
      [
        "อุ",
        "โมง"
      ],
      [
        "หว่า",
        "ง"
      ],
      [
        "เหตุ",
        "ก๋ารณ์"
      ],
      [
        "อุโมง",
        "ค์"
      ],
      [
        "ต",
        "์"
      ],
      [
        "โ",
        "ค"
      ],
      [
        "ีย",
        "า"
      ],
      [
        "ต๋",
        "ำ"
      ],
      [
        "เม",
        "ิน"
      ],
      [
        "เต",
        "ื๋"
      ],
      [
        "บา",
        "โต"
      ],
      [
        "าร",
        "พ"
      ],
      [
        "แคว",
        "น"
      ],
      [
        "สะ",
        "บาโต"
      ],
      [
        "ติด",
        "ต๋าม"
      ],
      [
        "เค",
        "ารพ"
      ],
      [
        "เตื๋",
        "อน"
      ],
      [
        "ก",
        "์"
      ],
      [
        "ค",
        "ำ"
      ],
      [
        "ต",
        "้"
      ],
      [
        "ส",
        "่อง"
      ],
      [
        "ใ",
        "ต้"
      ],
      [
        "ัง",
        "ก์"
      ],
      [
        "เถิง",
        "แม้"
      ],
      [
        "เน",
        "ีย"
      ],
      [
        "บั",
        "ส"
      ],
      [
        "บั",
        "ลล"
      ],
      [
        "ซื่อ",
        "สัตย์"
      ],
      [
        "จด",
        "หมาย"
      ],
      [
        "ต้อน",
        "ฮับ"
      ],
      [
        "เหน",
        "ือ"
      ],
      [
        "บัลล",
        "ังก์"
      ],
      [
        "ก",
        "ว่า"
      ],
      [
        "ฝ",
        "่าย"
      ],
      [
        "อ",
        "้าง"
      ],
      [
        "เส",
        "ี้ยง"
      ],
      [
        "หมาย",
        "สำคัญ"
      ],
      [
        "หละ",
        "วัง"
      ],
      [
        "ปอ",
        "ใจ๋"
      ],
      [
        "แน",
        "่"
      ],
      [
        "ต๊อง",
        "ฟ้า"
      ],
      [
        "ป",
        "ัน"
      ],
      [
        "ส",
        "น"
      ],
      [
        "ก",
        "ลับ"
      ],
      [
        "บ",
        "ัง"
      ],
      [
        "เข",
        "ิง"
      ],
      [
        "เผ",
        "ิก"
      ],
      [
        "ต๊",
        "าย"
      ],
      [
        "ทร",
        "มาน"
      ],
      [
        "นับ",
        "ถือ"
      ],
      [
        "ึ",
        "ด"
      ],
      [
        "เ",
        "ง"
      ],
      [
        "เจ",
        "ิ"
      ],
      [
        "สม",
        "ัย"
      ],
      [
        "แบ",
        "บ"
      ],
      [
        "สู",
        "ง"
      ],
      [
        "ยูดา",
        "ส"
      ],
      [
        "ด",
        "ิ"
      ],
      [
        "เ",
        "ฝ"
      ],
      [
        "็",
        "ง"
      ],
      [
        "แข",
        "็ง"
      ],
      [
        "กลับ",
        "ใจ๋"
      ],
      [
        "ม",
        "ัด"
      ],
      [
        "ศ",
        "ัต"
      ],
      [
        "ุ",
        "่ม"
      ],
      [
        "เ",
        "อง"
      ],
      [
        "โ",
        "อ"
      ],
      [
        "โ",
        "อก"
      ],
      [
        "รู",
        "๋"
      ],
      [
        "ศัต",
        "รู๋"
      ],
      [
        "ง",
        "าม"
      ],
      [
        "ึ",
        "ก"
      ],
      [
        "็",
        "บ"
      ],
      [
        "เป",
        "ิง"
      ],
      [
        "หล",
        "ง"
      ],
      [
        "หน",
        "ัต"
      ],
      [
        "เล",
        "ิ็ก"
      ],
      [
        "กำ",
        "สั่ง"
      ],
      [
        "สุ",
        "หนัต"
      ],
      [
        "ประ",
        "มา"
      ],
      [
        "น",
        "่า"
      ],
      [
        "น",
        "าม"
      ],
      [
        "ล",
        "้ำ"
      ],
      [
        "ส",
        "ู้"
      ],
      [
        "เป",
        "่ง"
      ],
      [
        "เต",
        "ิง"
      ],
      [
        "กำ",
        "เผียบ"
      ],
      [
        "ป",
        "ื"
      ],
      [
        "ร",
        "ัส"
      ],
      [
        "ล",
        "ัก"
      ],
      [
        "ห",
        "ย"
      ],
      [
        "แ",
        "ยก"
      ],
      [
        "หน",
        "ี"
      ],
      [
        "เล",
        "ิก"
      ],
      [
        "ลูก",
        "บ่าว"
      ],
      [
        "หน้า",
        "ตี้"
      ],
      [
        "แก",
        "้"
      ],
      [
        "ตุ๊ก",
        "ยาก"
      ],
      [
        "ขว",
        "า"
      ],
      [
        "ไห",
        "้"
      ],
      [
        "ปื",
        "๊น"
      ],
      [
        "ผ",
        "ู"
      ],
      [
        "เจ้า",
        "นาย"
      ],
      [
        "คร",
        "อบ"
      ],
      [
        "โร",
        "ค"
      ],
      [
        "สุด",
        "ต๊าย"
      ],
      [
        "จั",
        "๊ก"
      ],
      [
        "จื้นจม",
        "ยินดี"
      ],
      [
        "เจิ",
        "ญ"
      ],
      [
        "เป่ง",
        "แจ้ง"
      ],
      [
        "ผู",
        "้น"
      ],
      [
        "ศ",
        "จ๋"
      ],
      [
        "ส",
        "ง"
      ],
      [
        "ส",
        "นา"
      ],
      [
        "ั",
        "พ"
      ],
      [
        "ก๋",
        "า"
      ],
      [
        "รร",
        "ย์"
      ],
      [
        "ดิน",
        "แดน"
      ],
      [
        "ป๋",
        "า"
      ],
      [
        "ลิ",
        "ป"
      ],
      [
        "เซา",
        "โล"
      ],
      [
        "ฟี",
        "ลิป"
      ],
      [
        "ศจ๋",
        "รรย์"
      ],
      [
        "ต",
        "ัน"
      ],
      [
        "ศ",
        "ัก"
      ],
      [
        "แ",
        "บ่"
      ],
      [
        "เจ",
        "็บ"
      ],
      [
        "เจ้า",
        "ของ"
      ],
      [
        "หล",
        "าน"
      ],
      [
        "ต๋",
        "าน"
      ],
      [
        "เร",
        "็"
      ],
      [
        "ต่อ",
        "ไป"
      ],
      [
        "จ้วย",
        "เหลือ"
      ],
      [
        "จ๋ำ",
        "เป๋น"
      ],
      [
        "อิส",
        "ระ"
      ],
      [
        "แต่ง",
        "งาน"
      ],
      [
        "ก๋ำลัง",
        "ใจ๋"
      ],
      [
        "แบ่",
        "ง"
      ],
      [
        "ป",
        "ัส"
      ],
      [
        "ข้า",
        "เจ้า"
      ],
      [
        "เถ",
        "ียง"
      ],
      [
        "ตั้ง",
        "เก๊า"
      ],
      [
        "อั",
        "ศจ๋รรย์"
      ],
      [
        "ยาก",
        "อบ"
      ],
      [
        "ยู",
        "เดีย"
      ],
      [
        "สมบ",
        "ัติ"
      ],
      [
        "ผู้น",
        "ำ"
      ],
      [
        "ฒ",
        "่า"
      ],
      [
        "ย",
        "ัน"
      ],
      [
        "อ",
        "ิน"
      ],
      [
        "เ",
        "ฒ่า"
      ],
      [
        "เผ",
        "า"
      ],
      [
        "แก",
        "่น"
      ],
      [
        "ภา",
        "พ"
      ],
      [
        "ซี",
        "ซา"
      ],
      [
        "เบ",
        "ธ"
      ],
      [
        "ก",
        "้อน"
      ],
      [
        "ย",
        "่อง"
      ],
      [
        "ว",
        "ก"
      ],
      [
        "ว",
        "ั"
      ],
      [
        "ศ",
        "ิ"
      ],
      [
        "หน",
        "่วย"
      ],
      [
        "ยก",
        "ย่อง"
      ],
      [
        "หละ",
        "หว่าง"
      ],
      [
        "แส",
        "ง"
      ],
      [
        "ตะ",
        "ก่อน"
      ],
      [
        "ข",
        "ัง"
      ],
      [
        "ส",
        "บาย"
      ],
      [
        "ี",
        "ก"
      ],
      [
        "ุ",
        "ร"
      ],
      [
        "เ",
        "ช"
      ],
      [
        "เป",
        "ี่ยน"
      ],
      [
        "บา",
        "รนา"
      ],
      [
        "ตี",
        "๋"
      ],
      [
        "ยา",
        "ห์"
      ],
      [
        "มั่น",
        "ใจ๋"
      ],
      [
        "พันธ",
        "สัญญา"
      ],
      [
        "บารนา",
        "บัส"
      ],
      [
        "ต",
        "๋น"
      ],
      [
        "ล",
        "่วง"
      ],
      [
        "ห",
        "ยุ"
      ],
      [
        "ฮ",
        "้อน"
      ],
      [
        "อา",
        "ด"
      ],
      [
        "คร",
        "ัว"
      ],
      [
        "ผ่อ",
        "กอย"
      ],
      [
        "าก",
        "ฏ"
      ],
      [
        "เว",
        "ณ"
      ],
      [
        "ป๋",
        "ากฏ"
      ],
      [
        "แน",
        "่น"
      ],
      [
        "ฮิ",
        "ม"
      ],
      [
        "บ่าก",
        "อง"
      ],
      [
        "ดิ",
        "์"
      ],
      [
        "ศัก",
        "ดิ์"
      ],
      [
        "ค",
        "ับ"
      ],
      [
        "ด",
        "าร"
      ],
      [
        "ย",
        "ำ"
      ],
      [
        "ล",
        "่าย"
      ],
      [
        "ส",
        "อบ"
      ],
      [
        "ู",
        "ร"
      ],
      [
        "หล",
        "ับ"
      ],
      [
        "เน",
        "ื้อ"
      ],
      [
        "ติ",
        "ธรรม"
      ],
      [
        "จิต",
        "วิญญาณ"
      ],
      [
        "ยุ",
        "ติธรรม"
      ],
      [
        "หัก",
        "หลัง"
      ],
      [
        "บัง",
        "คับ"
      ],
      [
        "เฝ",
        "้า"
      ],
      [
        "ก",
        "ฎ"
      ],
      [
        "ก",
        "ระ"
      ],
      [
        "จ",
        "ัง"
      ],
      [
        "ซ",
        "่วย"
      ],
      [
        "ณ",
        "หา"
      ],
      [
        "ฝ",
        "ั่ง"
      ],
      [
        "ย",
        "ึด"
      ],
      [
        "ล",
        "ู"
      ],
      [
        "เ",
        "วย"
      ],
      [
        "๋",
        "ณหา"
      ],
      [
        "ตั",
        "๋ณหา"
      ],
      [
        "กั๋น",
        "ดาร"
      ],
      [
        "เร",
        "ีย"
      ],
      [
        "คร",
        "ับ"
      ],
      [
        "กึ๊ด",
        "เติง"
      ],
      [
        "ยืน",
        "ยัน"
      ],
      [
        "มั่น",
        "คง"
      ],
      [
        "เศ",
        "ร"
      ],
      [
        "ูร",
        "ณ์"
      ],
      [
        "ต",
        "้า"
      ],
      [
        "น",
        "ก"
      ],
      [
        "ป",
        "ล"
      ],
      [
        "ป",
        "่วย"
      ],
      [
        "ร",
        "าง"
      ],
      [
        "ล",
        "่น"
      ],
      [
        "ไ",
        "ก๋"
      ],
      [
        "เก",
        "าะ"
      ],
      [
        "ตั้ง",
        "ใจ๋"
      ],
      [
        "ป๋",
        "าย"
      ],
      [
        "เง",
        "ิน"
      ],
      [
        "ช",
        "ัย"
      ],
      [
        "ถ",
        "้วย"
      ],
      [
        "ฮับ",
        "เจื้อ"
      ],
      [
        "ซา",
        "ต๋าน"
      ],
      [
        "ียา",
        "ห์"
      ],
      [
        "ปัส",
        "กา"
      ],
      [
        "ข",
        "ัด"
      ],
      [
        "ต",
        "วาย"
      ],
      [
        "ท",
        "ิน"
      ],
      [
        "ท",
        "ัส"
      ],
      [
        "ม",
        "ล"
      ],
      [
        "ฮ",
        "ี"
      ],
      [
        "ิ",
        "่น"
      ],
      [
        "เจ้า",
        "เมือง"
      ],
      [
        "ตั",
        "๊ก"
      ],
      [
        "ย้อน",
        "จาอั้น"
      ],
      [
        "ป้อ",
        "อุ๊ย"
      ],
      [
        "แอ",
        "่ว"
      ],
      [
        "ครอบ",
        "ครัว"
      ],
      [
        "วั",
        "ล"
      ],
      [
        "ราง",
        "วัล"
      ],
      [
        "มล",
        "ทิน"
      ],
      [
        "จ",
        "ัด"
      ],
      [
        "ซ",
        "ื้อ"
      ],
      [
        "ร",
        "ั"
      ],
      [
        "ร",
        "วย"
      ],
      [
        "ล",
        "่า"
      ],
      [
        "ห",
        "ู"
      ],
      [
        "ห",
        "้อง"
      ],
      [
        "ห",
        "อม"
      ],
      [
        "แผ",
        "น"
      ],
      [
        "นุ",
        "่ง"
      ],
      [
        "จุ",
        "ล่าย"
      ],
      [
        "เพ",
        "ศ"
      ],
      [
        "ประมา",
        "ณ"
      ],
      [
        "อิน",
        "ดู"
      ],
      [
        "ศักดิ์",
        "สิทธิ์"
      ],
      [
        "ยำ",
        "เก๋ง"
      ],
      [
        "ซ",
        "อบ"
      ],
      [
        "ซ",
        "้ำ"
      ],
      [
        "ต",
        "้น"
      ],
      [
        "ท",
        "ุร"
      ],
      [
        "ิ",
        "ป"
      ],
      [
        "โ",
        "จ"
      ],
      [
        "ตั",
        "๊ด"
      ],
      [
        "หน",
        "ด"
      ],
      [
        "อา",
        "หาร"
      ],
      [
        "เจื้อ",
        "ก"
      ],
      [
        "แม่",
        "หม่อน"
      ],
      [
        "ดา",
        "บ"
      ],
      [
        "ปั",
        "๊ด"
      ],
      [
        "แต่ง",
        "ตั้ง"
      ],
      [
        "แด",
        "ง"
      ],
      [
        "ก๋ำ",
        "หนด"
      ],
      [
        "สมบ",
        "ูรณ์"
      ],
      [
        "สาบ",
        "าน"
      ],
      [
        "ทุร",
        "กั๋นดาร"
      ],
      [
        "ก",
        "ุ"
      ],
      [
        "ง",
        "่าว"
      ],
      [
        "จ",
        "ู"
      ],
      [
        "อ",
        "่าน"
      ],
      [
        "ตั๋ว",
        "เก่า"
      ],
      [
        "ภา",
        "ษ"
      ],
      [
        "ทร",
        "ัพ"
      ],
      [
        "ลู",
        "น"
      ],
      [
        "ทรัพ",
        "ย์"
      ],
      [
        "ฟ",
        "้อง"
      ],
      [
        "ม",
        "ิ"
      ],
      [
        "ศ",
        "มี"
      ],
      [
        "ห",
        "นี้"
      ],
      [
        "อ",
        "ีย"
      ],
      [
        "ิ",
        "ม"
      ],
      [
        "ไ",
        "ซ"
      ],
      [
        "เข",
        "้ม"
      ],
      [
        "หล",
        "วก"
      ],
      [
        "ติ",
        "ก"
      ],
      [
        "ขา",
        "ด"
      ],
      [
        "เจื๊อ",
        "สาย"
      ],
      [
        "รั",
        "ศมี"
      ],
      [
        "ิป",
        "ต์"
      ],
      [
        "อีย",
        "ิปต์"
      ],
      [
        "จ",
        "้าง"
      ],
      [
        "ด",
        "าย"
      ],
      [
        "ด",
        "าน"
      ],
      [
        "ธ",
        "า"
      ],
      [
        "ม",
        "อก"
      ],
      [
        "า",
        "ส"
      ],
      [
        "เป",
        "ิ"
      ],
      [
        "เฮ",
        "ียน"
      ],
      [
        "เม",
        "น"
      ],
      [
        "กำ",
        "กึ๊ด"
      ],
      [
        "รา",
        "บ"
      ],
      [
        "หมาย",
        "เถิง"
      ],
      [
        "กร",
        "ีก"
      ],
      [
        "หว่า",
        "น"
      ],
      [
        "ภาษ",
        "ี"
      ],
      [
        "ว",
        "ุ่น"
      ],
      [
        "โ",
        "ส"
      ],
      [
        "็",
        "น"
      ],
      [
        "หล",
        "ัก"
      ],
      [
        "นา",
        "ซา"
      ],
      [
        "เหล",
        "็ก"
      ],
      [
        "เร็",
        "ธ"
      ],
      [
        "เข้ม",
        "แข็ง"
      ],
      [
        "นาซา",
        "เร็ธ"
      ],
      [
        "ถ",
        "่อม"
      ],
      [
        "ป",
        "่อย"
      ],
      [
        "ม",
        "้า"
      ],
      [
        "ร",
        "ีย"
      ],
      [
        "ไ",
        "ข"
      ],
      [
        "หม",
        "้าย"
      ],
      [
        "พระ",
        "สัญญา"
      ],
      [
        "นึ",
        "ก"
      ],
      [
        "โม",
        "ธี"
      ],
      [
        "สำ",
        "นึก"
      ],
      [
        "เอล",
        "ียาห์"
      ],
      [
        "สัน",
        "ดาน"
      ],
      [
        "ทิ",
        "โมธี"
      ],
      [
        "สน",
        "ใจ๋"
      ],
      [
        "แน่น",
        "อน"
      ],
      [
        "ค",
        "ุณ"
      ],
      [
        "ม",
        "ก๋าง"
      ],
      [
        "ย",
        "าม"
      ],
      [
        "ส",
        "ัม"
      ],
      [
        "ใ",
        "บ"
      ],
      [
        "เจ",
        "๊า"
      ],
      [
        "แต",
        "้น"
      ],
      [
        "ผู้",
        "ปกครอง"
      ],
      [
        "บา",
        "ก"
      ],
      [
        "เผ",
        "ื่อ"
      ],
      [
        "โก",
        "ม"
      ],
      [
        "ลำ",
        "บาก"
      ],
      [
        "ต้า",
        "มก๋าง"
      ],
      [
        "โจ",
        "้ง"
      ],
      [
        "ข",
        "ัน"
      ],
      [
        "ง",
        "่อย"
      ],
      [
        "ฏ",
        "ิ"
      ],
      [
        "บ",
        "ุ"
      ],
      [
        "ม",
        "ั"
      ],
      [
        "อ",
        "ิ"
      ],
      [
        "ก๋",
        "อง"
      ],
      [
        "อา",
        "เมน"
      ],
      [
        "เมื่อ",
        "คืน"
      ],
      [
        "เผ",
        "่า"
      ],
      [
        "นาย",
        "ร้อย"
      ],
      [
        "เก๊า",
        "ไม้"
      ],
      [
        "ยุ",
        "ค"
      ],
      [
        "ตะ",
        "วัน"
      ],
      [
        "ไห",
        "ว้"
      ],
      [
        "โค",
        "บ"
      ],
      [
        "โอก",
        "าส"
      ],
      [
        "ฉ",
        "บ"
      ],
      [
        "ท",
        "ด"
      ],
      [
        "ร",
        "ว"
      ],
      [
        "ห",
        "ก"
      ],
      [
        "ไ",
        "ถ"
      ],
      [
        "หล",
        "วง"
      ],
      [
        "คว",
        "บ"
      ],
      [
        "าน",
        "า"
      ],
      [
        "ความ",
        "หมาย"
      ],
      [
        "หญ",
        "้า"
      ],
      [
        "ยา",
        "โคบ"
      ],
      [
        "ขา",
        "ว"
      ],
      [
        "พันธ",
        "์"
      ],
      [
        "ซีซา",
        "ร์"
      ],
      [
        "สัม",
        "พันธ์"
      ],
      [
        "ฉบ",
        "ับ"
      ],
      [
        "ก",
        "ราบ"
      ],
      [
        "ค",
        "ล"
      ],
      [
        "ซ",
        "ิ"
      ],
      [
        "ต",
        "่ำ"
      ],
      [
        "บ",
        "ริ"
      ],
      [
        "หล",
        "ึ"
      ],
      [
        "หน",
        "ุ่ม"
      ],
      [
        "เต",
        "สนา"
      ],
      [
        "ต่อ",
        "ต้าน"
      ],
      [
        "เสีย",
        "ใจ๋"
      ],
      [
        "สะ",
        "อาด"
      ],
      [
        "ทะเล",
        "สาบ"
      ],
      [
        "ค",
        "ี"
      ],
      [
        "ซ",
        "ัส"
      ],
      [
        "พ",
        "ื"
      ],
      [
        "ล",
        "าม"
      ],
      [
        "ส",
        "์"
      ],
      [
        "เ",
        "มา"
      ],
      [
        "มา",
        "ซิ"
      ],
      [
        "โล",
        "ภ"
      ],
      [
        "โด",
        "เนีย"
      ],
      [
        "น้อง",
        "บ่าว"
      ],
      [
        "น้ำ",
        "มัน"
      ],
      [
        "แม้",
        "แต่"
      ],
      [
        "แบ",
        "ก"
      ],
      [
        "คา",
        "ริ"
      ],
      [
        "สูง",
        "สุด"
      ],
      [
        "พื",
        "ช"
      ],
      [
        "มาซิ",
        "โดเนีย"
      ],
      [
        "ฆ",
        "ี่ยน"
      ],
      [
        "ณ",
        "า"
      ],
      [
        "ถ",
        "ง"
      ],
      [
        "ม",
        "่วน"
      ],
      [
        "ส",
        "ติ"
      ],
      [
        "ส",
        "ละ"
      ],
      [
        "ห",
        "ุ"
      ],
      [
        "ื",
        "ม"
      ],
      [
        "เ",
        "ธ"
      ],
      [
        "เ",
        "ฆี่ยน"
      ],
      [
        "กั",
        "ส"
      ],
      [
        "เด",
        "ือน"
      ],
      [
        "ก่",
        "ำ"
      ],
      [
        "ลา",
        "ซา"
      ],
      [
        "กิ",
        "่ง"
      ],
      [
        "เซ",
        "ีย"
      ],
      [
        "ขอบ",
        "พระคุณ"
      ],
      [
        "แม่น",
        "้ำ"
      ],
      [
        "ล้ำ",
        "เลิ็ก"
      ],
      [
        "ปล",
        "่อย"
      ],
      [
        "ไถ",
        "่"
      ],
      [
        "ลาซา",
        "รัส"
      ],
      [
        "ก",
        "ุม"
      ],
      [
        "ช",
        "ิก"
      ],
      [
        "ด",
        "ัก"
      ],
      [
        "ท",
        "าน"
      ],
      [
        "ฟ",
        "ั่ง"
      ],
      [
        "ร",
        "ี"
      ],
      [
        "ส",
        "มา"
      ],
      [
        "ส",
        "ภา"
      ],
      [
        "ส",
        "ึก"
      ],
      [
        "ห",
        "่วง"
      ],
      [
        "เ",
        "ริญ"
      ],
      [
        "แ",
        "วด"
      ],
      [
        "โ",
        "บ"
      ],
      [
        "มา",
        "เรีย"
      ],
      [
        "เก",
        "ิ"
      ],
      [
        "สิ",
        "ลา"
      ],
      [
        "ฮู้",
        "สึก"
      ],
      [
        "เห",
        "รีย"
      ],
      [
        "ประ",
        "ทาน"
      ],
      [
        "อัน",
        "ทิ"
      ],
      [
        "จ๋ำ",
        "เริญ"
      ],
      [
        "นาย",
        "พัน"
      ],
      [
        "สะ",
        "มาเรีย"
      ],
      [
        "ตก",
        "ลง"
      ],
      [
        "ไห",
        "ว"
      ],
      [
        "เก๋ง",
        "กั๋ว"
      ],
      [
        "ขัด",
        "ข"
      ],
      [
        "ควบ",
        "คุม"
      ],
      [
        "สมา",
        "ชิก"
      ],
      [
        "สิลา",
        "ส"
      ],
      [
        "เหรีย",
        "ญ"
      ],
      [
        "ก",
        "ล"
      ],
      [
        "ข",
        "อย"
      ],
      [
        "ข",
        "ี่"
      ],
      [
        "จ",
        "วน"
      ],
      [
        "ซ",
        "่อน"
      ],
      [
        "ป",
        "วด"
      ],
      [
        "ผ",
        "ญา"
      ],
      [
        "ล",
        "วง"
      ],
      [
        "ส",
        "เท"
      ],
      [
        "อ",
        "้าย"
      ],
      [
        "ู",
        "มิ"
      ],
      [
        "ไ",
        "หล"
      ],
      [
        "เม",
        "ฆ"
      ],
      [
        "ข้า",
        "ม"
      ],
      [
        "อา",
        "ณา"
      ],
      [
        "ต่อ",
        "สู้"
      ],
      [
        "โร",
        "มัน"
      ],
      [
        "ประ",
        "เวณ"
      ],
      [
        "หัว",
        "ที"
      ],
      [
        "อ่อน",
        "แอ"
      ],
      [
        "เต๋ม",
        "ตี้"
      ],
      [
        "จั",
        "๊น"
      ],
      [
        "แตก",
        "แยก"
      ],
      [
        "เศร",
        "้า"
      ],
      [
        "วุ่น",
        "วาย"
      ],
      [
        "อันทิ",
        "โอก"
      ],
      [
        "อาณา",
        "จักร"
      ],
      [
        "ประเวณ",
        "ี"
      ],
      [
        "ก",
        "๊ด"
      ],
      [
        "ค",
        "อ"
      ],
      [
        "ค",
        "าย"
      ],
      [
        "ป",
        "าย"
      ],
      [
        "ป",
        "ั้น"
      ],
      [
        "ป",
        "ิด"
      ],
      [
        "ภ",
        "ูมิ"
      ],
      [
        "ร",
        "่ำ"
      ],
      [
        "็",
        "จ"
      ],
      [
        "่",
        "ย"
      ],
      [
        "๊",
        "ำ"
      ],
      [
        "หม",
        "ู"
      ],
      [
        "หม",
        "ื่น"
      ],
      [
        "เป",
        "่า"
      ],
      [
        "ือ",
        "ร"
      ],
      [
        "ดี",
        "ใจ๋"
      ],
      [
        "เด",
        "ื่อ"
      ],
      [
        "บ่า",
        "เดื่อ"
      ],
      [
        "นัก",
        "โต้ษ"
      ],
      [
        "ื่อ",
        "ม"
      ],
      [
        "สั",
        "่น"
      ],
      [
        "ปก",
        "ติ"
      ],
      [
        "ก้",
        "ม"
      ],
      [
        "แห",
        "้ง"
      ],
      [
        "แป",
        "ง"
      ],
      [
        "บ่าก",
        "อก"
      ],
      [
        "เปิง",
        "ใจ๋"
      ],
      [
        "หยุ",
        "บ"
      ],
      [
        "ร่ำ",
        "รวย"
      ],
      [
        "ง",
        "ัว"
      ],
      [
        "จ",
        "ิ"
      ],
      [
        "ด",
        "ื"
      ],
      [
        "ถ",
        "อก"
      ],
      [
        "ป",
        "่า"
      ],
      [
        "ป",
        "ัก"
      ],
      [
        "ล",
        "้น"
      ],
      [
        "ล",
        "ัน"
      ],
      [
        "ว",
        "ี"
      ],
      [
        "โ",
        "น"
      ],
      [
        "หม",
        "้อ"
      ],
      [
        "หมู่",
        "บ้าน"
      ],
      [
        "เจ้า",
        "ข้า"
      ],
      [
        "้ว",
        "น"
      ],
      [
        "หล",
        "ุ"
      ],
      [
        "คร",
        "บ"
      ],
      [
        "เอ",
        "เฟ"
      ],
      [
        "เว",
        "้น"
      ],
      [
        "อิส",
        "อั"
      ],
      [
        "อธิ",
        "บาย"
      ],
      [
        "เอล",
        "ี"
      ],
      [
        "ตะ",
        "ลัน"
      ],
      [
        "เพ",
        "ลง"
      ],
      [
        "แป",
        "ด"
      ],
      [
        "สาย",
        "ต๋า"
      ],
      [
        "ลอง",
        "ใจ๋"
      ],
      [
        "รว",
        "ม"
      ],
      [
        "ภูมิ",
        "ใจ๋"
      ],
      [
        "ดื",
        "่ม"
      ],
      [
        "เอเฟ",
        "ซัส"
      ],
      [
        "อิสอั",
        "ค"
      ],
      [
        "ตะลัน",
        "ต์"
      ],
      [
        "ก",
        "ี่"
      ],
      [
        "ด",
        "ล"
      ],
      [
        "ด",
        "อก"
      ],
      [
        "ถ",
        "า"
      ],
      [
        "ถ",
        "าน"
      ],
      [
        "ถ",
        "ัด"
      ],
      [
        "ท",
        "์"
      ],
      [
        "ป",
        "ู"
      ],
      [
        "ผ",
        "ม"
      ],
      [
        "พ",
        "ัก"
      ],
      [
        "ม",
        "ร"
      ],
      [
        "ล",
        "ืม"
      ],
      [
        "ว",
        "า"
      ],
      [
        "ว",
        "ุ"
      ],
      [
        "ส",
        "ถาน"
      ],
      [
        "ห",
        "่าง"
      ],
      [
        "ฮ",
        "บ"
      ],
      [
        "ฮ",
        "อย"
      ],
      [
        "เ",
        "นา"
      ],
      [
        "เข",
        "่า"
      ],
      [
        "ือ",
        "บ"
      ],
      [
        "เก",
        "ือบ"
      ],
      [
        "หน",
        "า"
      ],
      [
        "อา",
        "วุ"
      ],
      [
        "อิส",
        "ยาห์"
      ],
      [
        "ศา",
        "สนา"
      ],
      [
        "เฟ",
        "น"
      ],
      [
        "คล",
        "ื่น"
      ],
      [
        "สเท",
        "เฟน"
      ],
      [
        "ดล",
        "ใจ๋"
      ],
      [
        "เนา",
        "ะ"
      ],
      [
        "ข",
        "บ"
      ],
      [
        "ค",
        "ุก"
      ],
      [
        "ด",
        "ับ"
      ],
      [
        "ต",
        "ื่น"
      ],
      [
        "ป",
        "้อง"
      ],
      [
        "ย",
        "ื่น"
      ],
      [
        "ย",
        "่ำ"
      ],
      [
        "เ",
        "ตี้"
      ],
      [
        "หน",
        "าม"
      ],
      [
        "เต",
        "็น"
      ],
      [
        "เล",
        "วี"
      ],
      [
        "เส",
        "้น"
      ],
      [
        "โต",
        "๊ะ"
      ],
      [
        "เห",
        "ง"
      ],
      [
        "จ๋",
        "ม"
      ],
      [
        "ต๋า",
        "บอด"
      ],
      [
        "กษ",
        "า"
      ],
      [
        "่าว",
        "หา"
      ],
      [
        "ฐาน",
        "ะ"
      ],
      [
        "ปุ",
        "ด"
      ],
      [
        "แจ",
        "ก"
      ],
      [
        "ยุ",
        "่ง"
      ],
      [
        "ศา",
        "ล"
      ],
      [
        "ขอบ",
        "คุณ"
      ],
      [
        "ขะ",
        "ใจ๋"
      ],
      [
        "หยุ",
        "ด"
      ],
      [
        "ตวาย",
        "ตั๊ก"
      ],
      [
        "ฮี",
        "ต"
      ],
      [
        "เปิ",
        "้ง"
      ],
      [
        "บุ",
        "บ"
      ],
      [
        "กล",
        "่าวหา"
      ],
      [
        "คาย",
        "า"
      ],
      [
        "เตี้",
        "ยง"
      ],
      [
        "เต็น",
        "ท์"
      ],
      [
        "ง",
        "ู"
      ],
      [
        "ง",
        "กุ"
      ],
      [
        "จ",
        "ู๋"
      ],
      [
        "จ",
        "๊ำ"
      ],
      [
        "ด",
        "ก"
      ],
      [
        "ด",
        "ุ"
      ],
      [
        "ด",
        "่า"
      ],
      [
        "น",
        "่อย"
      ],
      [
        "บ",
        "ิ"
      ],
      [
        "ป",
        "๊ะ"
      ],
      [
        "ฝ",
        "น"
      ],
      [
        "พ",
        "าก"
      ],
      [
        "ม",
        "ัง"
      ],
      [
        "ม",
        "งกุ"
      ],
      [
        "ล",
        "อย"
      ],
      [
        "ศ",
        "ก"
      ],
      [
        "ศ",
        "ี"
      ],
      [
        "ส",
        "ภาพ"
      ],
      [
        "ส",
        "ทัส"
      ],
      [
        "ส",
        "ล่า"
      ],
      [
        "ั",
        "่ว"
      ],
      [
        "โ",
        "ห"
      ],
      [
        "โ",
        "ศก"
      ],
      [
        "หม",
        "ิ่น"
      ],
      [
        "ตี้",
        "นอน"
      ],
      [
        "บ่",
        "อ"
      ],
      [
        "ตั",
        "ส"
      ],
      [
        "เส",
        "ร"
      ],
      [
        "เอา",
        "ใจ๋"
      ],
      [
        "เอ",
        "เช"
      ],
      [
        "อัน",
        "ตร"
      ],
      [
        "เล็",
        "ก"
      ],
      [
        "เท",
        "พเจ้า"
      ],
      [
        "พิ",
        "พาก"
      ],
      [
        "จู",
        "๊"
      ],
      [
        "บริ",
        "เวณ"
      ],
      [
        "หลึ",
        "่ง"
      ],
      [
        "มร",
        "ดก"
      ],
      [
        "จู๋",
        "ง"
      ],
      [
        "มงกุ",
        "ฎ"
      ],
      [
        "ศี",
        "ล"
      ],
      [
        "เอเช",
        "ีย"
      ],
      [
        "อันตร",
        "าย"
      ],
      [
        "พิพาก",
        "ษา"
      ],
      [
        "ง",
        "อก"
      ],
      [
        "ต",
        "ัก"
      ],
      [
        "ป",
        "ฏิ"
      ],
      [
        "ผ",
        "ืน"
      ],
      [
        "ม",
        "น"
      ],
      [
        "ร",
        "อ"
      ],
      [
        "ล",
        "คี"
      ],
      [
        "ว",
        "ิง"
      ],
      [
        "โ",
        "คร"
      ],
      [
        "ไ",
        "หม"
      ],
      [
        "้",
        "ย"
      ],
      [
        "๊",
        "บ"
      ],
      [
        "ี้",
        "ยว"
      ],
      [
        "หม",
        "า"
      ],
      [
        "แล",
        "ง"
      ],
      [
        "เม",
        "ลคี"
      ],
      [
        "ริ",
        "น"
      ],
      [
        "เก",
        "ิ่ง"
      ],
      [
        "เล",
        "ส"
      ],
      [
        "โต",
        "้ง"
      ],
      [
        "ลา",
        "ก"
      ],
      [
        "ป้อ",
        "แม่"
      ],
      [
        "วาง",
        "แผน"
      ],
      [
        "ลิ",
        "้น"
      ],
      [
        "นอก",
        "จาก"
      ],
      [
        "โก",
        "้น"
      ],
      [
        "สง",
        "บ"
      ],
      [
        "ล่า",
        "ม"
      ],
      [
        "อิ",
        "่ม"
      ],
      [
        "ทด",
        "สอบ"
      ],
      [
        "หุ",
        "ย"
      ],
      [
        "วิง",
        "วอน"
      ],
      [
        "ข",
        "่วง"
      ],
      [
        "ช",
        "ุม"
      ],
      [
        "น",
        "้อม"
      ],
      [
        "ม",
        "้วน"
      ],
      [
        "ร",
        "ียา"
      ],
      [
        "ส",
        "ล"
      ],
      [
        "อ",
        "ัม"
      ],
      [
        "อ",
        "ุม"
      ],
      [
        "อ",
        "ปอ"
      ],
      [
        "อ",
        "รนา"
      ],
      [
        "แ",
        "หล"
      ],
      [
        "ไ",
        "ฮ"
      ],
      [
        "เป",
        "อรนา"
      ],
      [
        "เจ้า",
        "บ่าว"
      ],
      [
        "หน",
        "ตาง"
      ],
      [
        "เจื้อ",
        "ถือ"
      ],
      [
        "หัน",
        "แก่"
      ],
      [
        "ลูก",
        "หลาน"
      ],
      [
        "กิ",
        "เลส"
      ],
      [
        "เน",
        "่า"
      ],
      [
        "ประ",
        "ชุม"
      ],
      [
        "เต้า",
        "ใด"
      ],
      [
        "ป๋",
        "อม"
      ],
      [
        "ยา",
        "ว"
      ],
      [
        "ทิ",
        "ตัส"
      ],
      [
        "คา",
        "เปอรนา"
      ],
      [
        "อาย",
        "ุ"
      ],
      [
        "ตัน",
        "ที"
      ],
      [
        "ซีซา",
        "รียา"
      ],
      [
        "ศิ",
        "ลา"
      ],
      [
        "บ่ากอก",
        "เทศ"
      ],
      [
        "มัง",
        "กร"
      ],
      [
        "เสร",
        "็จ"
      ],
      [
        "อปอ",
        "ล"
      ],
      [
        "คาเปอรนา",
        "อุม"
      ],
      [
        "ก",
        "ว"
      ],
      [
        "ข",
        "ุม"
      ],
      [
        "ค",
        "ดี"
      ],
      [
        "จ",
        "น์"
      ],
      [
        "ต",
        "บ"
      ],
      [
        "ผ",
        "ะ"
      ],
      [
        "พ",
        "ิส"
      ],
      [
        "ม",
        "ิต"
      ],
      [
        "ร",
        "าย"
      ],
      [
        "ส",
        "ื"
      ],
      [
        "อ",
        "านา"
      ],
      [
        "ู",
        "จน์"
      ],
      [
        "แ",
        "ร"
      ],
      [
        "โ",
        "ธ"
      ],
      [
        "โ",
        "ก๋ง"
      ],
      [
        "ไ",
        "อ"
      ],
      [
        "เป",
        "ื่อ"
      ],
      [
        "เข",
        "ต"
      ],
      [
        "าน",
        "ี"
      ],
      [
        "ผู้",
        "จ้วย"
      ],
      [
        "เต๊",
        "า"
      ],
      [
        "โร",
        "ม"
      ],
      [
        "ประ",
        "จ๋ำ"
      ],
      [
        "ตุ๊ก",
        "ใจ๋"
      ],
      [
        "มาร",
        "ธา"
      ],
      [
        "ภา",
        "ระ"
      ],
      [
        "ลิ",
        "อัส"
      ],
      [
        "เต๋ม",
        "ใจ๋"
      ],
      [
        "คืน",
        "ดี"
      ],
      [
        "เฟ",
        "สทัส"
      ],
      [
        "ญา",
        "ติ"
      ],
      [
        "สอบ",
        "สวน"
      ],
      [
        "เนื้อ",
        "หนัง"
      ],
      [
        "ไหม",
        "้"
      ],
      [
        "อปอล",
        "โล"
      ],
      [
        "พิส",
        "ูจน์"
      ],
      [
        "อานา",
        "เนีย"
      ],
      [
        "เปื่อ",
        "ย"
      ],
      [
        "ง",
        "่าย"
      ],
      [
        "ด",
        "าม"
      ],
      [
        "ด",
        "รู"
      ],
      [
        "ด",
        "วง"
      ],
      [
        "ต",
        "ู้"
      ],
      [
        "ต",
        "้อย"
      ],
      [
        "บ",
        "รู"
      ],
      [
        "บ",
        "ิ่น"
      ],
      [
        "ป",
        "ปา"
      ],
      [
        "ม",
        "ื้อ"
      ],
      [
        "ล",
        "่อ"
      ],
      [
        "ล",
        "ุ่ม"
      ],
      [
        "ศ",
        "ัย"
      ],
      [
        "ส",
        "ู่"
      ],
      [
        "ห",
        "ว"
      ],
      [
        "แ",
        "ค"
      ],
      [
        "โ",
        "จ๋"
      ],
      [
        "เป",
        "้า"
      ],
      [
        "หน",
        "ิ"
      ],
      [
        "อา",
        "จ"
      ],
      [
        "อา",
        "กา"
      ],
      [
        "อา",
        "ศัย"
      ],
      [
        "กำ",
        "เดียว"
      ],
      [
        "โล",
        "ม"
      ],
      [
        "เด",
        "ิม"
      ],
      [
        "ลูก",
        "จ้าง"
      ],
      [
        "ัส",
        "กัส"
      ],
      [
        "สำ",
        "เร็"
      ],
      [
        "ปั",
        "่น"
      ],
      [
        "นิ",
        "มิต"
      ],
      [
        "เศ",
        "คาริ"
      ],
      [
        "ต๋ำ",
        "หนิ"
      ],
      [
        "ประมา",
        "ท"
      ],
      [
        "อาด",
        "ัม"
      ],
      [
        "ฮี",
        "บรู"
      ],
      [
        "ตั๊ก",
        "ตวาย"
      ],
      [
        "แผน",
        "ก๋าน"
      ],
      [
        "ต่ำ",
        "ต้อย"
      ],
      [
        "ลาม",
        "ก"
      ],
      [
        "ปู",
        "๊น"
      ],
      [
        "สื",
        "บ"
      ],
      [
        "ดาม",
        "ัสกัส"
      ],
      [
        "โจ๋",
        "ร"
      ],
      [
        "สำเร็",
        "จ"
      ],
      [
        "เศคาริ",
        "ยาห์"
      ],
      [
        "ก",
        "๊า"
      ],
      [
        "ง",
        "ว"
      ],
      [
        "จ",
        "่ม"
      ],
      [
        "จ",
        "อร์"
      ],
      [
        "ด",
        "อน"
      ],
      [
        "ท",
        "ั่ว"
      ],
      [
        "ป",
        "ูก"
      ],
      [
        "ฟ",
        "ัน"
      ],
      [
        "ย",
        "ู้"
      ],
      [
        "ร",
        "อบ"
      ],
      [
        "อ",
        "ู"
      ],
      [
        "ฮ",
        "าก"
      ],
      [
        "โ",
        "ฮ"
      ],
      [
        "ไ",
        "ก่"
      ],
      [
        "เข",
        "ี้ยว"
      ],
      [
        "ข้า",
        "ง"
      ],
      [
        "ริ",
        "ม"
      ],
      [
        "เก",
        "้า"
      ],
      [
        "เล",
        "่น"
      ],
      [
        "อา",
        "ร"
      ],
      [
        "เมื่อ",
        "ลูน"
      ],
      [
        "เด",
        "ค"
      ],
      [
        "สา",
        "ป"
      ],
      [
        "เน",
        "ลิอัส"
      ],
      [
        "าร",
        "์"
      ],
      [
        "ตุ",
        "๊บ"
      ],
      [
        "รา",
        "ณ"
      ],
      [
        "ปิ",
        "๊ด"
      ],
      [
        "อัน",
        "ดรู"
      ],
      [
        "เซ",
        "เดค"
      ],
      [
        "เก๊า",
        "หัวที"
      ],
      [
        "สั",
        "ย"
      ],
      [
        "สะ",
        "ป๊ะ"
      ],
      [
        "ตก",
        "ใจ๋"
      ],
      [
        "พย",
        "า"
      ],
      [
        "เศ",
        "ษ"
      ],
      [
        "ขะ",
        "แล"
      ],
      [
        "ขะ",
        "แจ"
      ],
      [
        "สน",
        "ั่น"
      ],
      [
        "จั๊ก",
        "จวน"
      ],
      [
        "สง",
        "สัย"
      ],
      [
        "เบธ",
        "านี"
      ],
      [
        "กุ",
        "๋น"
      ],
      [
        "จู",
        "บ"
      ],
      [
        "มั",
        "ท"
      ],
      [
        "โบ",
        "ราณ"
      ],
      [
        "เกิ",
        "๋น"
      ],
      [
        "ขัดข",
        "วาง"
      ],
      [
        "หลุ",
        "้ม"
      ],
      [
        "โศก",
        "เศร้า"
      ],
      [
        "โคร",
        "เนลิอัส"
      ],
      [
        "เมลคี",
        "เซเดค"
      ],
      [
        "ผะ",
        "กุ๋น"
      ],
      [
        "ล่อ",
        "ลวง"
      ],
      [
        "จอร์",
        "แดน"
      ],
      [
        "อันดรู",
        "ว์"
      ],
      [
        "ก",
        "อง"
      ],
      [
        "ก",
        "่า"
      ],
      [
        "ก",
        "ริ"
      ],
      [
        "ค",
        "ม"
      ],
      [
        "จ",
        "๊า"
      ],
      [
        "ฉ",
        "ลอง"
      ],
      [
        "ฐ",
        "ี"
      ],
      [
        "ท",
        "ัพ"
      ],
      [
        "ฝ",
        "ุ่น"
      ],
      [
        "พ",
        "ูก"
      ],
      [
        "ภ",
        "ัย"
      ],
      [
        "ม",
        "ัก"
      ],
      [
        "ล",
        "ก"
      ],
      [
        "ล",
        "ู่"
      ],
      [
        "ล",
        "ิน"
      ],
      [
        "ว",
        "ะ"
      ],
      [
        "ษ",
        "ฐี"
      ],
      [
        "ส",
        "้าย"
      ],
      [
        "ห",
        "อง"
      ],
      [
        "ห",
        "ับ"
      ],
      [
        "ฮ",
        "ก"
      ],
      [
        "ั",
        "ฟ"
      ],
      [
        "โ",
        "อน"
      ],
      [
        "็",
        "กษา"
      ],
      [
        "อง",
        "หอง"
      ],
      [
        "เจ",
        "้น"
      ],
      [
        "เจ",
        "ื่อ"
      ],
      [
        "ว่า",
        "ง"
      ],
      [
        "าย",
        "าม"
      ],
      [
        "แล",
        "่"
      ],
      [
        "คว",
        "ัน"
      ],
      [
        "อา",
        "กริ"
      ],
      [
        "เมื่อ",
        "วัน"
      ],
      [
        "กา",
        "ด"
      ],
      [
        "จ๋",
        "องหอง"
      ],
      [
        "หน้า",
        "ฮก"
      ],
      [
        "คร",
        "ู"
      ],
      [
        "คร",
        "าม"
      ],
      [
        "จี",
        "๊"
      ],
      [
        "ซา",
        "ว"
      ],
      [
        "หมาย",
        "ความ"
      ],
      [
        "ขี้",
        "ฝุ่น"
      ],
      [
        "สะ",
        "ดู"
      ],
      [
        "อ่อน",
        "น้อม"
      ],
      [
        "ตลอด",
        "ไป"
      ],
      [
        "พย",
        "ายาม"
      ],
      [
        "ข้อ",
        "ความ"
      ],
      [
        "เครื่อง",
        "หอม"
      ],
      [
        "แข",
        "ก"
      ],
      [
        "แป",
        "ลก"
      ],
      [
        "ย้าง",
        "พัก"
      ],
      [
        "สง",
        "คราม"
      ],
      [
        "แก่น",
        "ต๋า"
      ],
      [
        "ศิ",
        "ษย์"
      ],
      [
        "เศร",
        "ษฐี"
      ],
      [
        "เปิ",
        "็กษา"
      ],
      [
        "หม้อ",
        "หน้าฮก"
      ],
      [
        "อาวุ",
        "โส"
      ],
      [
        "ไอ",
        "่"
      ],
      [
        "อากา",
        "ศ"
      ],
      [
        "พยา",
        "ธิ"
      ],
      [
        "อากริ",
        "ปปา"
      ],
      [
        "สะดู",
        "สี"
      ],
      [
        "ก",
        "ั้น"
      ],
      [
        "ข",
        "โม"
      ],
      [
        "จ",
        "บ"
      ],
      [
        "จ",
        "่าย"
      ],
      [
        "จ",
        "่อม"
      ],
      [
        "ซ",
        "้าย"
      ],
      [
        "ต",
        "าน"
      ],
      [
        "บ",
        "ู"
      ],
      [
        "ป",
        "้าย"
      ],
      [
        "พ",
        "รร"
      ],
      [
        "ฟ",
        "ู"
      ],
      [
        "ล",
        "ือ"
      ],
      [
        "ว",
        "ัด"
      ],
      [
        "ห",
        "าม"
      ],
      [
        "ฮ",
        "่อม"
      ],
      [
        "แ",
        "ย"
      ],
      [
        "ี้",
        "ย"
      ],
      [
        "้ว",
        "โมง"
      ],
      [
        "เก",
        "ิบ"
      ],
      [
        "ย้อน",
        "จาอี้"
      ],
      [
        "เล",
        "ีย"
      ],
      [
        "เส",
        "ื่อม"
      ],
      [
        "เส",
        "ริม"
      ],
      [
        "เหม",
        "าะ"
      ],
      [
        "นา",
        "บ"
      ],
      [
        "สา",
        "ระ"
      ],
      [
        "ป้อ",
        "บ้าน"
      ],
      [
        "ซา",
        "โลม"
      ],
      [
        "หมด",
        "ใส"
      ],
      [
        "รา",
        "ห์"
      ],
      [
        "สำ",
        "แดง"
      ],
      [
        "ยก",
        "เลิก"
      ],
      [
        "ดา",
        "ลา"
      ],
      [
        "สั",
        "ญ"
      ],
      [
        "สะ",
        "โล"
      ],
      [
        "ขว",
        "ัญ"
      ],
      [
        "แห",
        "ง"
      ],
      [
        "ฟา",
        "ส"
      ],
      [
        "มอบ",
        "หมาย"
      ],
      [
        "จั",
        "้วโมง"
      ],
      [
        "สัตย์",
        "ซื่อ"
      ],
      [
        "เจ็บ",
        "ปวด"
      ],
      [
        "ไซ",
        "ดอน"
      ],
      [
        "ขัน",
        "ที"
      ],
      [
        "ก่ำ",
        "แปง"
      ],
      [
        "หนา",
        "ว"
      ],
      [
        "สล",
        "ุง"
      ],
      [
        "กว",
        "้าง"
      ],
      [
        "โธ",
        "มัส"
      ],
      [
        "แค",
        "้น"
      ],
      [
        "เป้า",
        "หมาย"
      ],
      [
        "งว",
        "้าย"
      ],
      [
        "มัก",
        "ดาลา"
      ],
      [
        "ลิน",
        "ิน"
      ],
      [
        "ขโม",
        "ย"
      ],
      [
        "ซาโลม",
        "อน"
      ],
      [
        "ก",
        "ส์"
      ],
      [
        "ค",
        "้าน"
      ],
      [
        "ง",
        "ำ"
      ],
      [
        "ฉ",
        "พ"
      ],
      [
        "ช",
        "า"
      ],
      [
        "ต",
        "ือร"
      ],
      [
        "ท",
        "า"
      ],
      [
        "ท",
        "ระ"
      ],
      [
        "น",
        "้"
      ],
      [
        "บ",
        "้า"
      ],
      [
        "ม",
        "ะ"
      ],
      [
        "ย",
        "าย"
      ],
      [
        "ิ",
        "ศ"
      ],
      [
        "เ",
        "ฉพ"
      ],
      [
        "ไ",
        "ทระ"
      ],
      [
        "หม",
        "อ"
      ],
      [
        "เจ้า",
        "หน้าตี้"
      ],
      [
        "เม",
        "ือ"
      ],
      [
        "เม",
        "ตร"
      ],
      [
        "เล",
        "่ม"
      ],
      [
        "เล",
        "ิศ"
      ],
      [
        "อา",
        "บ"
      ],
      [
        "ิน",
        "า"
      ],
      [
        "หา",
        "ริย์"
      ],
      [
        "กา",
        "ถา"
      ],
      [
        "ปา",
        "ฏิ"
      ],
      [
        "บา",
        "รับ"
      ],
      [
        "เห",
        "ี่ยว"
      ],
      [
        "ลูก",
        "สาว"
      ],
      [
        "ี่",
        "ยง"
      ],
      [
        "หน้า",
        "ผ"
      ],
      [
        "ซา",
        "เบธ"
      ],
      [
        "สุ",
        "่ย"
      ],
      [
        "เว",
        "ท"
      ],
      [
        "รา",
        "ช"
      ],
      [
        "กร",
        "ุณ"
      ],
      [
        "ขี้",
        "ตู้"
      ],
      [
        "อิส",
        "คาริ"
      ],
      [
        "ตัดสิน",
        "ใจ๋"
      ],
      [
        "ลิ",
        "กส์"
      ],
      [
        "อั",
        "ล"
      ],
      [
        "ซี",
        "เรีย"
      ],
      [
        "ข้อ",
        "หา"
      ],
      [
        "เบ",
        "อร์"
      ],
      [
        "เฟ",
        "ลิกส์"
      ],
      [
        "แป",
        "้ง"
      ],
      [
        "ยูดา",
        "ห์"
      ],
      [
        "แน่",
        "ใจ๋"
      ],
      [
        "โอ",
        "ท"
      ],
      [
        "หย",
        "่อน"
      ],
      [
        "กระ",
        "ตือร"
      ],
      [
        "ยึด",
        "มั่น"
      ],
      [
        "ก่ำ",
        "ไฮ"
      ],
      [
        "ือร",
        "้น"
      ],
      [
        "จิ",
        "๊น"
      ],
      [
        "เอลี",
        "ซาเบธ"
      ],
      [
        "เหง",
        "้า"
      ],
      [
        "ราย",
        "งาน"
      ],
      [
        "แร",
        "ก"
      ],
      [
        "บู",
        "ล"
      ],
      [
        "แหง",
        "น"
      ],
      [
        "น้",
        "ำลาย"
      ],
      [
        "เฉพ",
        "าะ"
      ],
      [
        "ปาฏิ",
        "หาริย์"
      ],
      [
        "บารับ",
        "บัส"
      ],
      [
        "กรุณ",
        "า"
      ],
      [
        "ขี้ตู้",
        "ด"
      ],
      [
        "อิสคาริ",
        "โอท"
      ],
      [
        "กระตือร",
        "ือร้น"
      ],
      [
        "ก",
        "ก"
      ],
      [
        "ข",
        "น"
      ],
      [
        "ข",
        "ับ"
      ],
      [
        "ค",
        "บ"
      ],
      [
        "ค",
        "ั่ง"
      ],
      [
        "ญ",
        "หา"
      ],
      [
        "ด",
        "้าน"
      ],
      [
        "ต",
        "ึก"
      ],
      [
        "ม",
        "ั่ง"
      ],
      [
        "ม",
        "ัว"
      ],
      [
        "ย",
        "ัฟ"
      ],
      [
        "ส",
        "นิ"
      ],
      [
        "ห",
        "ยิ่ง"
      ],
      [
        "อ",
        "ี้"
      ],
      [
        "ุ",
        "ด"
      ],
      [
        "แ",
        "ถ"
      ],
      [
        "ระ",
        "เบ"
      ],
      [
        "ระ",
        "โก"
      ],
      [
        "หม",
        "ั้น"
      ],
      [
        "หม",
        "ั่น"
      ],
      [
        "ตี้",
        "ดิน"
      ],
      [
        "ีย",
        "ด"
      ],
      [
        "เย",
        "าะ"
      ],
      [
        "เย",
        "้ย"
      ],
      [
        "มา",
        "ระโก"
      ],
      [
        "หล",
        "อก"
      ],
      [
        "ือ",
        "ด"
      ],
      [
        "ริ",
        "อัน"
      ],
      [
        "เต",
        "ิบ"
      ],
      [
        "เต",
        "ื่อม"
      ],
      [
        "สิ",
        "้น"
      ],
      [
        "อา",
        "ห์"
      ],
      [
        "อา",
        "คายา"
      ],
      [
        "นา",
        "ริอัน"
      ],
      [
        "โล",
        "น"
      ],
      [
        "บา",
        "บิ"
      ],
      [
        "เด",
        "ช"
      ],
      [
        "เด",
        "อร์"
      ],
      [
        "เด",
        "ือด"
      ],
      [
        "เด",
        "นาริอัน"
      ],
      [
        "ลูก",
        "ศิษย์"
      ],
      [
        "คร",
        "ี"
      ],
      [
        "เหล",
        "ียว"
      ],
      [
        "สุ",
        "บ"
      ],
      [
        "สุ",
        "ภาพ"
      ],
      [
        "แผ",
        "ล"
      ],
      [
        "น้อง",
        "สาว"
      ],
      [
        "โร",
        "น"
      ],
      [
        "รา",
        "ว"
      ],
      [
        "ต๋า",
        "ผ่อ"
      ],
      [
        "ละ",
        "อาย"
      ],
      [
        "แก",
        "้ว"
      ],
      [
        "ขี้",
        "โลภ"
      ],
      [
        "นิ",
        "ก๋า"
      ],
      [
        "แต่ง",
        "ตั๋ว"
      ],
      [
        "ลี",
        "บ"
      ],
      [
        "พิ",
        "เศษ"
      ],
      [
        "เคร",
        "่ง"
      ],
      [
        "เครื่อง",
        "ปู่จา"
      ],
      [
        "ปั๋",
        "ญหา"
      ],
      [
        "ลม",
        "หลวง"
      ],
      [
        "แข็ง",
        "แฮง"
      ],
      [
        "เช",
        "ล"
      ],
      [
        "ตี๋",
        "สอน"
      ],
      [
        "ล่วง",
        "หน้า"
      ],
      [
        "นก",
        "ก๋า"
      ],
      [
        "ถ่อม",
        "ใจ๋"
      ],
      [
        "โกม",
        "ไฟ"
      ],
      [
        "เธ",
        "สะโล"
      ],
      [
        "ปัก",
        "ต๋าผ่อ"
      ],
      [
        "โน",
        "อาห์"
      ],
      [
        "ตัก",
        "เตื๋อน"
      ],
      [
        "มั่ง",
        "คั่ง"
      ],
      [
        "ยัฟ",
        "ฟา"
      ],
      [
        "สนิ",
        "ท"
      ],
      [
        "เยาะ",
        "เย้ย"
      ],
      [
        "บาบิ",
        "โลน"
      ],
      [
        "เธสะโล",
        "นิก๋า"
      ],
      [
        "ก",
        "๊"
      ],
      [
        "ก",
        "าง"
      ],
      [
        "ค",
        "ัส"
      ],
      [
        "จ",
        "ู่"
      ],
      [
        "ซ",
        "าน"
      ],
      [
        "ต",
        "ร์"
      ],
      [
        "ท",
        "ำ"
      ],
      [
        "ธ",
        "์"
      ],
      [
        "น",
        "ม"
      ],
      [
        "ป",
        "๊"
      ],
      [
        "ป",
        "ลอด"
      ],
      [
        "ฝ",
        "ู"
      ],
      [
        "ย",
        "้าย"
      ],
      [
        "ร",
        "อง"
      ],
      [
        "ล",
        "ั"
      ],
      [
        "ล",
        "วด"
      ],
      [
        "ล",
        "้อม"
      ],
      [
        "ส",
        "ด"
      ],
      [
        "ส",
        "ั้น"
      ],
      [
        "ห",
        "ยิ"
      ],
      [
        "อ",
        "เล็ก"
      ],
      [
        "ฮ",
        "ุ"
      ],
      [
        "ฮ",
        "อม"
      ],
      [
        "ี",
        "ด"
      ],
      [
        "ุ",
        "ญา"
      ],
      [
        "แ",
        "ซ"
      ],
      [
        "แ",
        "ว"
      ],
      [
        "แ",
        "ก๋"
      ],
      [
        "แ",
        "หน"
      ],
      [
        "ใ",
        "ป๊"
      ],
      [
        "หม",
        "ัก"
      ],
      [
        "เฮ",
        "ม"
      ],
      [
        "แล",
        "่น"
      ],
      [
        "หล",
        "้ม"
      ],
      [
        "เม",
        "โอน"
      ],
      [
        "ข้า",
        "วน"
      ],
      [
        "ก๋",
        "วน"
      ],
      [
        "สิ",
        "เมโอน"
      ],
      [
        "เล",
        "เฮม"
      ],
      [
        "อน",
        "ุญา"
      ],
      [
        "ตั๋ว",
        "อย่าง"
      ],
      [
        "เมื่อ",
        "ใด"
      ],
      [
        "เมื่อ",
        "แลง"
      ],
      [
        "นา",
        "ห์"
      ],
      [
        "แม",
        "ง"
      ],
      [
        "เด",
        "็ด"
      ],
      [
        "เห",
        "ิบ"
      ],
      [
        "วัน",
        "ออก"
      ],
      [
        "กิ",
        "้ง"
      ],
      [
        "จ๋",
        "า"
      ],
      [
        "บ่า",
        "ย"
      ],
      [
        "เสีย",
        "หาย"
      ],
      [
        "รา",
        "กา"
      ],
      [
        "น้ำ",
        "นึ่ง"
      ],
      [
        "ธรรม",
        "เนีย"
      ],
      [
        "หลัง",
        "คา"
      ],
      [
        "ขี้",
        "จ"
      ],
      [
        "โย",
        "น"
      ],
      [
        "โย",
        "นาห์"
      ],
      [
        "แม้",
        "ว่า"
      ],
      [
        "ดู",
        "ถูก"
      ],
      [
        "นิ",
        "โค"
      ],
      [
        "ติด",
        "สนิท"
      ],
      [
        "เบ",
        "ดี"
      ],
      [
        "ลี",
        "เซีย"
      ],
      [
        "เลี้ยง",
        "ดู"
      ],
      [
        "เล่า",
        "ลือ"
      ],
      [
        "เศ",
        "เบดี"
      ],
      [
        "แอ",
        "ว"
      ],
      [
        "ญา",
        "ณ"
      ],
      [
        "โค",
        "ริน"
      ],
      [
        "เฝ",
        "ิ็ก"
      ],
      [
        "เบธ",
        "เลเฮม"
      ],
      [
        "ไข",
        "้"
      ],
      [
        "สถาน",
        "ตี้"
      ],
      [
        "คายา",
        "ฟาส"
      ],
      [
        "ปฏิ",
        "ญาณ"
      ],
      [
        "มน",
        "ตร์"
      ],
      [
        "ทั่ว",
        "ไป"
      ],
      [
        "แย",
        "้ง"
      ],
      [
        "เวท",
        "มนตร์"
      ],
      [
        "หลอก",
        "ลวง"
      ],
      [
        "ครี",
        "ต"
      ],
      [
        "เชล",
        "ย"
      ],
      [
        "นกก๋า",
        "แก๋"
      ],
      [
        "ปลอด",
        "ภัย"
      ],
      [
        "ฝู",
        "ง"
      ],
      [
        "ลั",
        "ทธิ"
      ],
      [
        "หยิ",
        "บ"
      ],
      [
        "อเล็ก",
        "ซาน"
      ],
      [
        "ข้าวน",
        "ก"
      ],
      [
        "อนุญา",
        "ต"
      ],
      [
        "ธรรมเนีย",
        "ม"
      ],
      [
        "โคริน",
        "ธ์"
      ],
      [
        "ก",
        "้อย"
      ],
      [
        "ข",
        "้อง"
      ],
      [
        "ง",
        "โต"
      ],
      [
        "ช",
        "อบ"
      ],
      [
        "ซ",
        "ะ"
      ],
      [
        "ซ",
        "้า"
      ],
      [
        "ซ",
        "ุก"
      ],
      [
        "ญ",
        "คุณ"
      ],
      [
        "ณ",
        "ะ"
      ],
      [
        "ด",
        "ำ"
      ],
      [
        "ด",
        "ิ้น"
      ],
      [
        "ด",
        "ริน"
      ],
      [
        "ต",
        "อง"
      ],
      [
        "ต",
        "ึด"
      ],
      [
        "ถ",
        "่ม"
      ],
      [
        "ท",
        "่า"
      ],
      [
        "น",
        "เฮ"
      ],
      [
        "น",
        "ส์"
      ],
      [
        "ฝ",
        "่า"
      ],
      [
        "ฝ",
        "ัน"
      ],
      [
        "ภ",
        "าย"
      ],
      [
        "ล",
        "๋ว"
      ],
      [
        "ล",
        "ลา"
      ],
      [
        "ว",
        "อด"
      ],
      [
        "ส",
        "ว่าง"
      ],
      [
        "อ",
        "้อ"
      ],
      [
        "อ",
        "ิก"
      ],
      [
        "ฮ",
        "่าง"
      ],
      [
        "ฮ",
        "้าง"
      ],
      [
        "ะ",
        "นำ"
      ],
      [
        "แ",
        "จ๋"
      ],
      [
        "โ",
        "ฟ"
      ],
      [
        "โ",
        "คน"
      ],
      [
        "เป",
        "ล๋ว"
      ],
      [
        "เจ",
        "๊ด"
      ],
      [
        "เจ้า",
        "สาว"
      ],
      [
        "มา",
        "ส"
      ],
      [
        "ตัง",
        "หน้า"
      ],
      [
        "ตัง",
        "นอก"
      ],
      [
        "สิ",
        "งโต"
      ],
      [
        "ใจ๋",
        "เดียว"
      ],
      [
        "ฮับ",
        "ผิด"
      ],
      [
        "วิ",
        "ธี"
      ],
      [
        "เส",
        "ี่ยง"
      ],
      [
        "เร",
        "ียบ"
      ],
      [
        "บา",
        "ร"
      ],
      [
        "โด",
        "ม"
      ],
      [
        "ป้อ",
        "ม"
      ],
      [
        "เน",
        "ียะ"
      ],
      [
        "สาว",
        "ใจ๊"
      ],
      [
        "ติ",
        "๊ด"
      ],
      [
        "รา",
        "จ๋ารย์"
      ],
      [
        "ส่วน",
        "ฮ่วม"
      ],
      [
        "ใค่",
        "หัว"
      ],
      [
        "ใส่",
        "ฮ้าย"
      ],
      [
        "ขี้",
        "ค้าน"
      ],
      [
        "จื้อ",
        "เสียง"
      ],
      [
        "แจ",
        "่ง"
      ],
      [
        "ปอ",
        "ดี"
      ],
      [
        "เท",
        "ีย"
      ],
      [
        "จักร",
        "พรร"
      ],
      [
        "แน",
        "ะนำ"
      ],
      [
        "เก็บ",
        "เกี่ยว"
      ],
      [
        "เซาะ",
        "หา"
      ],
      [
        "ทิ",
        "ศ"
      ],
      [
        "ทร",
        "าย"
      ],
      [
        "เครื่อง",
        "หมาย"
      ],
      [
        "ฝัง",
        "ศพ"
      ],
      [
        "เง",
        "า"
      ],
      [
        "ลัก",
        "ษ"
      ],
      [
        "หย",
        "้อง"
      ],
      [
        "ฮ้อน",
        "ใจ๋"
      ],
      [
        "โส",
        "โดม"
      ],
      [
        "หลัก",
        "ฐาน"
      ],
      [
        "ใบ",
        "้"
      ],
      [
        "บุ",
        "ญคุณ"
      ],
      [
        "ปาย",
        "หน้า"
      ],
      [
        "ป้อง",
        "กั๋น"
      ],
      [
        "โห",
        "ราจ๋ารย์"
      ],
      [
        "สงบ",
        "สุข"
      ],
      [
        "สัญ",
        "จ้าด"
      ],
      [
        "แซ",
        "นเฮ"
      ],
      [
        "ขี้จ",
        "๊ะ"
      ],
      [
        "เปล๋ว",
        "ไฟ"
      ],
      [
        "ฮับผิด",
        "ชอบ"
      ],
      [
        "จักรพรร",
        "ดิ"
      ],
      [
        "แซนเฮ",
        "ดริน"
      ],
      [
        "ก",
        "บ"
      ],
      [
        "ข",
        "ม"
      ],
      [
        "ข",
        "ำ"
      ],
      [
        "ค",
        "ิ"
      ],
      [
        "จ",
        "ก"
      ],
      [
        "ซ",
        "ัด"
      ],
      [
        "ต",
        "รา"
      ],
      [
        "ถ",
        "ัน"
      ],
      [
        "ถ",
        "อด"
      ],
      [
        "ท",
        "่วม"
      ],
      [
        "น",
        "ี"
      ],
      [
        "บ",
        "ี"
      ],
      [
        "บ",
        "าน"
      ],
      [
        "ป",
        "รัส"
      ],
      [
        "ผ",
        "ูก"
      ],
      [
        "ฝ",
        "ืน"
      ],
      [
        "ม",
        "อ"
      ],
      [
        "ม",
        "่วง"
      ],
      [
        "ย",
        "ัด"
      ],
      [
        "ย",
        "รัส"
      ],
      [
        "ร",
        "ถ"
      ],
      [
        "ล",
        "ุ"
      ],
      [
        "ล",
        "ัด"
      ],
      [
        "ห",
        "าง"
      ],
      [
        "ห",
        "ิง"
      ],
      [
        "อ",
        "ดี"
      ],
      [
        "อ",
        "ิด"
      ],
      [
        "อ",
        "วน"
      ],
      [
        "ฮ",
        "อด"
      ],
      [
        "ิ",
        "้ง"
      ],
      [
        "ิ",
        "ลลา"
      ],
      [
        "ื",
        "อง"
      ],
      [
        "ุ",
        "น"
      ],
      [
        "เ",
        "บา"
      ],
      [
        "ไ",
        "น"
      ],
      [
        "ไ",
        "ยรัส"
      ],
      [
        "หม",
        "อง"
      ],
      [
        "พระ",
        "กำ"
      ],
      [
        "พระ",
        "นาง"
      ],
      [
        "เป",
        "ียง"
      ],
      [
        "เจ",
        "ีย"
      ],
      [
        "เจ้า",
        "แม่"
      ],
      [
        "หล",
        "ิก"
      ],
      [
        "แต",
        "๋น"
      ],
      [
        "ัน",
        "นา"
      ],
      [
        "ต๋",
        "าง"
      ],
      [
        "คว",
        "ิลลา"
      ],
      [
        "ก๋",
        "วย"
      ],
      [
        "เก",
        "่ง"
      ],
      [
        "เก",
        "รา"
      ],
      [
        "เต",
        "้น"
      ],
      [
        "อา",
        "ควิลลา"
      ],
      [
        "วิ",
        "หาร"
      ],
      [
        "เส",
        "ธ"
      ],
      [
        "ตึง",
        "เสี้ยง"
      ],
      [
        "กำ",
        "พยาน"
      ],
      [
        "กำ",
        "มะ"
      ],
      [
        "นา",
        "ธ"
      ],
      [
        "โล",
        "เมตร"
      ],
      [
        "กา",
        "ลา"
      ],
      [
        "แม",
        "บ"
      ],
      [
        "กิ",
        "โลเมตร"
      ],
      [
        "เอ",
        "็ด"
      ],
      [
        "ตอบ",
        "แตน"
      ],
      [
        "เปา",
        "ะ"
      ],
      [
        "น้ำ",
        "บ่อ"
      ],
      [
        "หลัง",
        "ต๋ำ"
      ],
      [
        "ขี้",
        "เป"
      ],
      [
        "ผิด",
        "หัว"
      ],
      [
        "สะ",
        "ดุ"
      ],
      [
        "รับ",
        "รอง"
      ],
      [
        "ปี",
        "ก"
      ],
      [
        "่ม",
        "ุก"
      ],
      [
        "อุ",
        "้ม"
      ],
      [
        "ปก",
        "ป้อง"
      ],
      [
        "ผี",
        "บ้า"
      ],
      [
        "นิ",
        "้ว"
      ],
      [
        "เบ",
        "ียน"
      ],
      [
        "แต่ง",
        "หย้อง"
      ],
      [
        "จุ",
        "ด"
      ],
      [
        "จุ",
        "่ม"
      ],
      [
        "ทะ",
        "เบียน"
      ],
      [
        "เหตุ",
        "ผล"
      ],
      [
        "แป",
        "๊ะ"
      ],
      [
        "ฮูป",
        "ฮ่าง"
      ],
      [
        "ขะ",
        "หลิก"
      ],
      [
        "ปั๋น",
        "ปอน"
      ],
      [
        "ต๋ำ",
        "แหน"
      ],
      [
        "หลง",
        "ผิด"
      ],
      [
        "สู้",
        "ฮบ"
      ],
      [
        "หย",
        "่า"
      ],
      [
        "จั๊ก",
        "แต๋น"
      ],
      [
        "เจ็บ",
        "ป่วย"
      ],
      [
        "ุร",
        "ี"
      ],
      [
        "กฎ",
        "หมาย"
      ],
      [
        "ไซ",
        "ปรัส"
      ],
      [
        "หลัก",
        "กำสอน"
      ],
      [
        "ไข",
        "่มุก"
      ],
      [
        "ก๋อง",
        "ทัพ"
      ],
      [
        "หลึ",
        "้ง"
      ],
      [
        "ม่วน",
        "ใจ๋"
      ],
      [
        "อาวุ",
        "ธ"
      ],
      [
        "ปฏิ",
        "เสธ"
      ],
      [
        "บิ่น",
        "หลังต๋ำ"
      ],
      [
        "นาบ",
        "โต้ษ"
      ],
      [
        "หน้าผ",
        "าก"
      ],
      [
        "ทำ",
        "นาย"
      ],
      [
        "แว",
        "่"
      ],
      [
        "หล้ม",
        "จ๋ม"
      ],
      [
        "ฝ่า",
        "ฝืน"
      ],
      [
        "อิก",
        "ขะหลิก"
      ],
      [
        "อดี",
        "ต"
      ],
      [
        "กำมะ",
        "ถัน"
      ],
      [
        "กาลา",
        "เทีย"
      ],
      [
        "ต๋ำแหน",
        "่ง"
      ],
      [
        "ก",
        "้น"
      ],
      [
        "ก",
        "าย"
      ],
      [
        "ก",
        "วด"
      ],
      [
        "ข",
        "่ม"
      ],
      [
        "ค",
        "านา"
      ],
      [
        "ค",
        "คี"
      ],
      [
        "ง",
        "วง"
      ],
      [
        "จ",
        "อก"
      ],
      [
        "ช",
        "ำนา"
      ],
      [
        "ซ",
        "้อน"
      ],
      [
        "ด",
        "ูก"
      ],
      [
        "ต",
        "ึ"
      ],
      [
        "ถ",
        "ัง"
      ],
      [
        "ถ",
        "ี่"
      ],
      [
        "ท",
        "าร"
      ],
      [
        "บ",
        "บ"
      ],
      [
        "บ",
        "ิน"
      ],
      [
        "บ",
        "รวม"
      ],
      [
        "ป",
        "๋ว"
      ],
      [
        "ป",
        "ริส"
      ],
      [
        "ผ",
        "า"
      ],
      [
        "พ",
        "ลอย"
      ],
      [
        "ม",
        "ว"
      ],
      [
        "ม",
        "ินา"
      ],
      [
        "ร",
        "ม"
      ],
      [
        "ล",
        "ิส"
      ],
      [
        "ศ",
        "ึ"
      ],
      [
        "ฮ",
        "ำ"
      ],
      [
        "ั",
        "คคี"
      ],
      [
        "า",
        "ดี"
      ],
      [
        "ี",
        "๊"
      ],
      [
        "ื",
        "้อง"
      ],
      [
        "เ",
        "อก"
      ],
      [
        "แ",
        "ฝ"
      ],
      [
        "๊",
        "าม"
      ],
      [
        "๋",
        "ย"
      ],
      [
        "ระ",
        "บบ"
      ],
      [
        "ื้อ",
        "ม"
      ],
      [
        "เจ",
        "๊าม"
      ],
      [
        "เย",
        "็น"
      ],
      [
        "มา",
        "บ"
      ],
      [
        "แล",
        "ก"
      ],
      [
        "หล",
        "อง"
      ],
      [
        "หล",
        "ึก"
      ],
      [
        "าน",
        "ัส"
      ],
      [
        "เก",
        "ื๋"
      ],
      [
        "เก",
        "ี๊"
      ],
      [
        "ตัง",
        "เก๊า"
      ],
      [
        "ตัง",
        "ป๋าย"
      ],
      [
        "เล",
        "้า"
      ],
      [
        "เล",
        "าดี"
      ],
      [
        "ก๋าน",
        "งาน"
      ],
      [
        "เส",
        "ี่ยว"
      ],
      [
        "ต๋าม",
        "ใจ๋"
      ],
      [
        "อบ",
        "รม"
      ],
      [
        "เรื่อง",
        "ราว"
      ],
      [
        "เด",
        "มัส"
      ],
      [
        "วัน",
        "ตก"
      ],
      [
        "ทธิ",
        "ว"
      ],
      [
        "เหล",
        "ื้อม"
      ],
      [
        "ยว",
        "ะ"
      ],
      [
        "โม",
        "่"
      ],
      [
        "เอ",
        "เธ"
      ],
      [
        "ปี้",
        "ใป๊"
      ],
      [
        "ุม",
        "เอก"
      ],
      [
        "เซ",
        "บูล"
      ],
      [
        "น้ำ",
        "ต๋า"
      ],
      [
        "ขี้",
        "แต่ง"
      ],
      [
        "เอล",
        "เซบูล"
      ],
      [
        "สาม",
        "ัคคี"
      ],
      [
        "อุ",
        "บาย"
      ],
      [
        "ซี",
        "ลีเซีย"
      ],
      [
        "ปก",
        "ปัก"
      ],
      [
        "แจ้ง",
        "ด่า"
      ],
      [
        "เบ",
        "ื้อง"
      ],
      [
        "เบ",
        "เอลเซบูล"
      ],
      [
        "ธี",
        "อัส"
      ],
      [
        "สู",
        "น"
      ],
      [
        "เพ",
        "ช"
      ],
      [
        "เค",
        "ียว"
      ],
      [
        "แข",
        "่ง"
      ],
      [
        "แข",
        "้ง"
      ],
      [
        "เฮโร",
        "เดีย"
      ],
      [
        "ลอง",
        "ดี"
      ],
      [
        "เง",
        "ียบ"
      ],
      [
        "แก้",
        "แค้น"
      ],
      [
        "ฟีลิป",
        "ปี"
      ],
      [
        "เบธ",
        "ไซ"
      ],
      [
        "ศิ",
        "ลาม"
      ],
      [
        "ศิ",
        "โยน"
      ],
      [
        "ปล",
        "้น"
      ],
      [
        "ไซ",
        "รี"
      ],
      [
        "เฮียน",
        "ฮู้"
      ],
      [
        "มั",
        "ทธิว"
      ],
      [
        "รว",
        "บรวม"
      ],
      [
        "ขัดข",
        "ืน"
      ],
      [
        "ปิด",
        "บัง"
      ],
      [
        "คุก",
        "เข่า"
      ],
      [
        "โห",
        "่"
      ],
      [
        "แหล",
        "่"
      ],
      [
        "หว",
        "าน"
      ],
      [
        "เหมาะ",
        "สม"
      ],
      [
        "แถ",
        "้ง"
      ],
      [
        "เติบ",
        "โต"
      ],
      [
        "ก๊",
        "าน"
      ],
      [
        "ฮุ",
        "่ง"
      ],
      [
        "นิโค",
        "เดมัส"
      ],
      [
        "ตอง",
        "แดง"
      ],
      [
        "เรียบ",
        "ร้อย"
      ],
      [
        "กบ",
        "ฏ"
      ],
      [
        "ชำนา",
        "ญ"
      ],
      [
        "ป๋ว",
        "ย"
      ],
      [
        "ปริส",
        "คา"
      ],
      [
        "มว",
        "ล"
      ],
      [
        "ลิส",
        "ตรา"
      ],
      [
        "ศึ",
        "กษา"
      ],
      [
        "เจ๊าม",
        "ืด"
      ],
      [
        "เกื๋",
        "อ"
      ],
      [
        "เกี๊",
        "ยว"
      ],
      [
        "เลาดี",
        "เซีย"
      ],
      [
        "เอเธ",
        "นส์"
      ],
      [
        "เฮโรเดีย",
        "ส"
      ],
      [
        "เบธไซ",
        "ดา"
      ],
      [
        "ศิลาม",
        "ุมเอก"
      ],
      [
        "ไซรี",
        "น"
      ],
      [
        "ก",
        "ลิ"
      ],
      [
        "ก",
        "ีด"
      ],
      [
        "ข",
        "ู่"
      ],
      [
        "ข",
        "ุด"
      ],
      [
        "ค",
        "ิม"
      ],
      [
        "ง",
        "ัน"
      ],
      [
        "จ",
        "อด"
      ],
      [
        "ฉ",
        "ีก"
      ],
      [
        "ซ",
        "ันนา"
      ],
      [
        "ฎ",
        "ี"
      ],
      [
        "ฑ",
        "์"
      ],
      [
        "ณ",
        "ฑ์"
      ],
      [
        "ด",
        "ฟ้า"
      ],
      [
        "ต",
        "ืน"
      ],
      [
        "ถ",
        "ี"
      ],
      [
        "ถ",
        "อง"
      ],
      [
        "ถ",
        "้ำ"
      ],
      [
        "ท",
        "ึก"
      ],
      [
        "น",
        "ิส"
      ],
      [
        "บ",
        "ัน"
      ],
      [
        "บ",
        "ึง"
      ],
      [
        "บ",
        "ก๋วน"
      ],
      [
        "ป",
        "่อง"
      ],
      [
        "ป",
        "ู๋"
      ],
      [
        "ฟ",
        "้อน"
      ],
      [
        "ฟ",
        "าก"
      ],
      [
        "ม",
        "ุ"
      ],
      [
        "ม",
        "่อน"
      ],
      [
        "ย",
        "ศ"
      ],
      [
        "ย",
        "อบ"
      ],
      [
        "ร",
        "้อง"
      ],
      [
        "ร",
        "บก๋วน"
      ],
      [
        "ล",
        "ด"
      ],
      [
        "ศ",
        "รี"
      ],
      [
        "ส",
        "ับ"
      ],
      [
        "ส",
        "ซี"
      ],
      [
        "ส",
        "ดุ"
      ],
      [
        "ห",
        "ด"
      ],
      [
        "อ",
        "ึ"
      ],
      [
        "ฮ",
        "ั"
      ],
      [
        "ฮ",
        "า"
      ],
      [
        "ฮ",
        "อง"
      ],
      [
        "ื",
        "่อน"
      ],
      [
        "ู",
        "ม"
      ],
      [
        "เ",
        "ก๋"
      ],
      [
        "โ",
        "ป"
      ],
      [
        "๋",
        "อ"
      ],
      [
        "หม",
        "ัน"
      ],
      [
        "พระ",
        "สิ"
      ],
      [
        "เป",
        "อร์"
      ],
      [
        "เจ",
        "าะ"
      ],
      [
        "เจ",
        "สซี"
      ],
      [
        "ว่า",
        "ย"
      ],
      [
        "ีย",
        "ูม"
      ],
      [
        "ของ",
        "ขวัญ"
      ],
      [
        "เย",
        "รี"
      ],
      [
        "มา",
        "นา"
      ],
      [
        "หล",
        "ก"
      ],
      [
        "หล",
        "บ"
      ],
      [
        "กั",
        "้ง"
      ],
      [
        "ตัง",
        "มวล"
      ],
      [
        "หน",
        "วก"
      ],
      [
        "อา",
        "ริส"
      ],
      [
        "อา",
        "แบ"
      ],
      [
        "วิ",
        "ถี"
[...]
