{
  "version": "1.0",
  "truncation": null,
  "padding": null,
  "added_tokens": [
    {
      "id": 0,
      "content": "<pad>",
      "single_word": false,
      "lstrip": false,
      "rstrip": false,
      "normalized": false,
      "special": true
    },
    {
      "id": 1,
      "content": "<unk>",
      "single_word": false,
      "lstrip": false,
      "rstrip": false,
      "normalized": false,
      "special": true
    },
    {
      "id": 2,
      "content": "<s>",
      "single_word": false,
      "lstrip": false,
      "rstrip": false,
      "normalized": false,
      "special": true
    },
    {
      "id": 3,
      "content": "</s>",
      "single_word": false,
      "lstrip": false,
      "rstrip": false,
      "normalized": false,
      "special": true
    }
  ],
  "normalizer": null,
  "pre_tokenizer": {
    "type": "Sequence",
    "pretokenizers": [
      {
        "type": "Whitespace"
      },
      {
        "type": "Split",
        "pattern": {
          "Regex": "(?<=[ऀ-ॿ஀-௿฀-๿຀-໿က-႟ក-៿一-鿿꤀-꤯])(?=[A-Za-z0-9])|(?<=[A-Za-z0-9])(?=[ऀ-ॿ஀-௿฀-๿຀-໿က-႟ក-៿一-鿿꤀-꤯])"
        },
        "behavior": "Isolated",
        "invert": false
      }
    ]
  },
  "post_processor": null,
  "decoder": null,
  "model": {
    "type": "BPE",
    "dropout": null,
    "unk_token": "<unk>",
    "continuing_subword_prefix": null,
    "end_of_word_suffix": null,
    "fuse_unk": false,
    "byte_fallback": false,
    "ignore_merges": false,
    "vocab": {
      "<pad>": 0,
      "<unk>": 1,
      "<s>": 2,
      "</s>": 3,
      "!": 4,
      "(": 5,
      ")": 6,
      ",": 7,
      "-": 8,
      ".": 9,
      "/": 10,
      "0": 11,
      "1": 12,
      "2": 13,
      "3": 14,
      "4": 15,
      "5": 16,
      "6": 17,
      "7": 18,
      "8": 19,
      "9": 20,
      ":": 21,
      ";": 22,
      "?": 23,
      "அ": 24,
      "ஆ": 25,
      "இ": 26,
      "ஈ": 27,
      "உ": 28,
      "ஊ": 29,
      "எ": 30,
      "ஏ": 31,
      "ஐ": 32,
      "ஒ": 33,
      "ஓ": 34,
      "க": 35,
      "ங": 36,
      "ச": 37,
      "ஜ": 38,
      "ஞ": 39,
      "ட": 40,
      "ண": 41,
      "த": 42,
      "ந": 43,
      "ன": 44,
      "ப": 45,
      "ம": 46,
      "ய": 47,
      "ர": 48,
      "ற": 49,
      "ல": 50,
      "ள": 51,
      "ழ": 52,
      "வ": 53,
      "ஷ": 54,
      "ஸ": 55,
      "ஹ": 56,
      "ா": 57,
      "ி": 58,
      "ீ": 59,
      "ு": 60,
      "ூ": 61,
      "ெ": 62,
      "ே": 63,
      "ை": 64,
      "ொ": 65,
      "ோ": 66,
      "ௌ": 67,
      "்": 68,
      "‌": 69,
      "‘": 70,
      "’": 71,
      "“": 72,
      "”": 73,
      "்க": 74,
      "்த": 75,
      "ன்": 76,
      "ம்": 77,
      "க்க": 78,
      "ும்": 79,
      "்கள": 80,
      "த்த": 81,
      "ப்": 82,
      "ல்": 83,
      "ைய": 84,
      "ரு": 85,
      "ிய": 86,
      "ப்ப": 87,
      "்ட": 88,
      "ர்கள": 89,
      "ந்த": 90,
      "ிற": 91,
      "அவ": 92,
      "ாக": 93,
      "து": 94,
      "ட்ட": 95,
      "ின்": 96,
      "க்கு": 97,
      "ங்கள": 98,
      "ுட": 99,
      "என்": 100,
      "ர்": 101,
      "வா": 102,
      "ுடைய": 103,
      "ள்": 104,
      "ல்ல": 105,
      "ர்கள்": 106,
      "வி": 107,
      "டு": 108,
      "ண்ட": 109,
      "ில": 110,
      "ைக": 111,
      "ான்": 112,
      "தி": 113,
      "று": 114,
      "ான": 115,
      "செ": 116,
      "வே": 117,
      "ுக்கு": 118,
      "ிரு": 119,
      "ில்": 120,
      "ையும்": 121,
      "போ": 122,
      "இரு": 123,
      "ார": 124,
      "கோ": 125,
      "ச்": 126,
      "செய": 127,
      "த்து": 128,
      "ந்து": 129,
      "தே": 130,
      "ாவ": 131,
      "ின": 132,
      "ங்கள்": 133,
      "மு": 134,
      "நீ": 135,
      "டி": 136,
      "ிர": 137,
      "க்கிற": 138,
      "னுடைய": 139,
      "ள்ள": 140,
      "ழு": 141,
      "கிற": 142,
      "ால்": 143,
      "னை": 144,
      "ற்": 145,
      "த்": 146,
      "ங்க": 147,
      "யெ": 148,
      "ார்": 149,
      "கொ": 150,
      "ைகள": 151,
      "யெகோ": 152,
      "க்கும்": 153,
      "ரி": 154,
      "யெகோவா": 155,
      "ால": 156,
      "பு": 157,
      "ார்கள்": 158,
      "சு": 159,
      "ாய": 160,
      "்கு": 161,
      "சொ": 162,
      "ாகிய": 163,
      "ாம": 164,
      "ட்டு": 165,
      "கள": 166,
      "வன": 167,
      "மே": 168,
      "பெ": 169,
      "வர": 170,
      "அத": 171,
      "க்": 172,
      "ிலே": 173,
      "ரா": 174,
      "என்று": 175,
      "ண்டு": 176,
      "ைக்": 177,
      "நான்": 178,
      "அவர்கள": 179,
      "என்ற": 180,
      "உன்": 181,
      "ற்ற": 182,
      "மாக": 183,
      "அப்ப": 184,
      "்த்த": 185,
      "பி": 186,
      "ஒரு": 187,
      "நா": 188,
      "னி": 189,
      "த்தில்": 190,
      "ண்": 191,
      "க்கொ": 192,
      "செய்த": 193,
      "மக": 194,
      "ப்போ": 195,
      "சி": 196,
      "வன்": 197,
      "ல்லா": 198,
      "சே": 199,
      "மா": 200,
      "ேன்": 201,
      "வெ": 202,
      "த்தை": 203,
      "ொழு": 204,
      "கு": 205,
      "மக்க": 206,
      "ப்பட்ட": 207,
      "தன்": 208,
      "சொல்ல": 209,
      "கா": 210,
      "டிய": 211,
      "செய்": 212,
      "அவன்": 213,
      "படி": 214,
      "ொழுது": 215,
      "அவர்கள்": 216,
      "உங்கள": 217,
      "ஸ்": 218,
      "ம்ம": 219,
      "றி": 220,
      "ராஜ": 221,
      "வும்": 222,
      "ிற்கு": 223,
      "வர்கள": 224,
      "கே": 225,
      "திய": 226,
      "ைப்": 227,
      "மான": 228,
      "னக்கு": 229,
      "ன்ன": 230,
      "அப்பொழுது": 231,
      "இர": 232,
      "யெகோவாவ": 233,
      "க்கி": 234,
      "ிலும்": 235,
      "பா": 236,
      "சத்த": 237,
      "ய்": 238,
      "ன்ற": 239,
      "இருக்கிற": 240,
      "ரிய": 241,
      "லை": 242,
      "ிருக்கிற": 243,
      "மேல்": 244,
      "சா": 245,
      "ஸ்ர": 246,
      "பல": 247,
      "ல்லை": 248,
      "ரும்": 249,
      "பே": 250,
      "ிட": 251,
      "ப்படு": 252,
      "வேண்ட": 253,
      "இஸ்ர": 254,
      "இஸ்ரவே": 255,
      "ண்ண": 256,
      "அந்த": 257,
      "ருட": 258,
      "ர்த்த": 259,
      "இருந்த": 260,
      "மக்கள": 261,
      "மி": 262,
      "செய்ய": 263,
      "ப்பு": 264,
      "ன்று": 265,
      "வீ": 266,
      "பின்": 267,
      "பிர": 268,
      "வு": 269,
      "போது": 270,
      "ிருந்து": 271,
      "என்ன": 272,
      "த்தின்": 273,
      "யோ": 274,
      "வை": 275,
      "ாலும்": 276,
      "பார": 277,
      "ற்கு": 278,
      "தோ": 279,
      "ிருந்த": 280,
      "த்திற்கு": 281,
      "நீங்கள்": 282,
      "கூ": 283,
      "்க்க": 284,
      "ாமல்": 285,
      "ுகிற": 286,
      "ைச்": 287,
      "லும்": 288,
      "அவர்": 289,
      "லே": 290,
      "தா": 291,
      "கொடு": 292,
      "மோ": 293,
      "மனி": 294,
      "தீ": 295,
      "மைய": 296,
      "மகன": 297,
      "ழி": 298,
      "தேவன": 299,
      "ப்பட": 300,
      "ட்": 301,
      "ரோ": 302,
      "ம்முடைய": 303,
      "அவன": 304,
      "என்னுடைய": 305,
      "இந்த": 306,
      "ாரிய": 307,
      "நோ": 308,
      "கி": 309,
      "அதி": 310,
      "தெ": 311,
      "ைத்": 312,
      "சீ": 313,
      "்கிற": 314,
      "கட்ட": 315,
      "மும்": 316,
      "ோடு": 317,
      "தாவ": 318,
      "பொ": 319,
      "வந்த": 320,
      "வரு": 321,
      "கைய": 322,
      "அவனுடைய": 323,
      "மனித": 324,
      "ாக்க": 325,
      "மூ": 326,
      "நிய": 327,
      "வர்கள்": 328,
      "எனக்கு": 329,
      "சுத்த": 330,
      "ஸ்த": 331,
      "டை": 332,
      "ன்ப": 333,
      "உண்ட": 334,
      "ிலிருந்து": 335,
      "எல்ல": 336,
      "நோக்கி": 337,
      "ழிய": 338,
      "ளி": 339,
      "என்றான்": 340,
      "பட்ட": 341,
      "ராஜாவ": 342,
      "ப்பி": 343,
      "நே": 344,
      "ியா": 345,
      "வேண்டும்": 346,
      "த்திர": 347,
      "பூ": 348,
      "குட": 349,
      "ாம்": 350,
      "த்தின": 351,
      "ுக்கும்": 352,
      "படிய": 353,
      "தை": 354,
      "ைகள்": 355,
      "அறி": 356,
      "ுள்ள": 357,
      "தங்கள": 358,
      "தேவ": 359,
      "சொல்லுகிற": 360,
      "ற்க": 361,
      "்கள்": 362,
      "ருடைய": 363,
      "இட": 364,
      "இஸ்ரவேல": 365,
      "ச்ச": 366,
      "என்னை": 367,
      "எல்லா": 368,
      "பார்த்த": 369,
      "தக": 370,
      "தர": 371,
      "தும்": 372,
      "பரி": 373,
      "வர்": 374,
      "தேச": 375,
      "யூ": 376,
      "வந்து": 377,
      "வேன்": 378,
      "நட": 379,
      "அதின்": 380,
      "வரை": 381,
      "த்திலே": 382,
      "ஆச": 383,
      "யெகோவாவுடைய": 384,
      "விய": 385,
      "னு": 386,
      "யே": 387,
      "நி": 388,
      "எழு": 389,
      "தூ": 390,
      "அவனை": 391,
      "செய்து": 392,
      "சொன்ன": 393,
      "உங்களுக்கு": 394,
      "உம": 395,
      "ாலே": 396,
      "கொண்டு": 397,
      "அது": 398,
      "க்கொண்டு": 399,
      "போன": 400,
      "ைகளை": 401,
      "உய": 402,
      "புற": 403,
      "தல": 404,
      "ன்பாக": 405,
      "விட": 406,
      "விட்டு": 407,
      "பின்பு": 408,
      "ப்பட்டு": 409,
      "மை": 410,
      "நிற": 411,
      "வான": 412,
      "அதற்கு": 413,
      "உட": 414,
      "வரும்": 415,
      "ீர்": 416,
      "மீ": 417,
      "ல்லாம்": 418,
      "ாய்": 419,
      "நியாய": 420,
      "முன்பாக": 421,
      "ற்று": 422,
      "பரிசுத்த": 423,
      "வாச": 424,
      "ழை": 425,
      "தின": 426,
      "என்றார்": 427,
      "த்தி": 428,
      "ம்ப": 429,
      "க்கார": 430,
      "தன்னுடைய": 431,
      "ங்கே": 432,
      "உம்முடைய": 433,
      "கை": 434,
      "ழ்": 435,
      "அவர்களுக்கு": 436,
      "பய": 437,
      "னிட": 438,
      "ணி": 439,
      "ெல்லாம்": 440,
      "கல": 441,
      "உன்னுடைய": 442,
      "த்தையும்": 443,
      "க்கப்பட்ட": 444,
      "நீர்": 445,
      "ட்டி": 446,
      "சந்த": 447,
      "ரை": 448,
      "நாள": 449,
      "அனு": 450,
      "சகோ": 451,
      "மன": 452,
      "பார்த்து": 453,
      "போய்": 454,
      "எங்கள": 455,
      "டுத்து": 456,
      "மிய": 457,
      "ும்படி": 458,
      "இயே": 459,
      "இப்ப": 460,
      "தான": 461,
      "இயேசு": 462,
      "லி": 463,
      "சிய": 464,
      "அவர்களுடைய": 465,
      "மக்கள்": 466,
      "க்காக": 467,
      "வார்த்த": 468,
      "பட்டண": 469,
      "ின்மேல்": 470,
      "அவனுக்கு": 471,
      "தாக": 472,
      "ோட": 473,
      "ங்கி": 474,
      "ோம்": 475,
      "சன": 476,
      "தேசத்த": 477,
      "கள்": 478,
      "பாவ": 479,
      "அதை": 480,
      "உனக்கு": 481,
      "ரே": 482,
      "அவர்களை": 483,
      "கட்டள": 484,
      "ராஜா": 485,
      "ஆல": 486,
      "ினால்": 487,
      "ாத": 488,
      "முட": 489,
      "தாவீ": 490,
      "ர்க்க": 491,
      "தற்கு": 492,
      "அவருடைய": 493,
      "ப்த": 494,
      "இஸ்ரவேல்": 495,
      "தரி": 496,
      "வார்கள்": 497,
      "ாள்": 498,
      "றை": 499,
      "திரும்": 500,
      "மர": 501,
      "அதிக": 502,
      "தய": 503,
      "பெய": 504,
      "எதி": 505,
      "மெ": 506,
      "திரு": 507,
      "முக": 508,
      "இதோ": 509,
      "தேவனாகிய": 510,
      "னே": 511,
      "க்கொண்ட": 512,
      "வைகள": 513,
      "சகோதர": 514,
      "ருக்கு": 515,
      "எல்லோ": 516,
      "நாட": 517,
      "ையை": 518,
      "க்கொள்ள": 519,
      "ல்லாத": 520,
      "இருப்ப": 521,
      "ஆசாரிய": 522,
      "போக": 523,
      "தமாக": 524,
      "அழி": 525,
      "அவைகள": 526,
      "தேவன்": 527,
      "உங்கள்": 528,
      "கட": 529,
      "ஆன": 530,
      "வில": 531,
      "ையி": 532,
      "கால": 533,
      "தற்க": 534,
      "அரு": 535,
      "ுங்கள்": 536,
      "தேவனுடைய": 537,
      "ந்": 538,
      "பிடி": 539,
      "செய்கிற": 540,
      "எரு": 541,
      "மார": 542,
      "தங்கள்": 543,
      "ந்துகொ": 544,
      "ிற்க": 545,
      "என்ப": 546,
      "டுகிற": 547,
      "த்தான்": 548,
      "ாமலும்": 549,
      "இருக்கும்": 550,
      "அனை": 551,
      "மோசே": 552,
      "உமது": 553,
      "இற": 554,
      "கீ": 555,
      "தலை": 556,
      "தகப்ப": 557,
      "பூமிய": 558,
      "ப்போல": 559,
      "சிற": 560,
      "விரோ": 561,
      "சலே": 562,
      "எருசலே": 563,
      "உங்களுடைய": 564,
      "அவள": 565,
      "ுக்குப்": 566,
      "த்திய": 567,
      "கண": 568,
      "ாவின்": 569,
      "போல": 570,
      "ங்களையும்": 571,
      "நான": 572,
      "ர்களும்": 573,
      "ன்றால்": 574,
      "வீட்ட": 575,
      "ிருக்கும்": 576,
      "மகி": 577,
      "பலி": 578,
      "கேட்ட": 579,
      "டியே": 580,
      "நில": 581,
      "ராக": 582,
      "ொரு": 583,
      "ஞ்": 584,
      "உள்ள": 585,
      "சொல்லி": 586,
      "யா": 587,
      "என்னும்": 588,
      "வான்": 589,
      "உன்னை": 590,
      "ஆண்ட": 591,
      "ாவது": 592,
      "ளிய": 593,
      "னும்": 594,
      "இருதய": 595,
      "அங்கே": 596,
      "னாகிய": 597,
      "ட்சி": 598,
      "களை": 599,
      "களையும்": 600,
      "ஆலய": 601,
      "ிருப்ப": 602,
      "ற்றி": 603,
      "ங்களை": 604,
      "றித்து": 605,
      "அக்க": 606,
      "வம்": 607,
      "சை": 608,
      "எகி": 609,
      "கர": 610,
      "ங்கு": 611,
      "எகிப்த": 612,
      "லு": 613,
      "வில்லை": 614,
      "மல": 615,
      "பிள்ள": 616,
      "பார்": 617,
      "எப்ப": 618,
      "ட்க": 619,
      "மேலும்": 620,
      "சார": 621,
      "வேலை": 622,
      "சில": 623,
      "பலிய": 624,
      "எடுத்து": 625,
      "மகனாகிய": 626,
      "தீர்க்க": 627,
      "ாள": 628,
      "ீர்கள்": 629,
      "விரோதமாக": 630,
      "த்தைக்": 631,
      "மறு": 632,
      "ங்களும்": 633,
      "முள்ள": 634,
      "கர்த்த": 635,
      "கூட": 636,
      "தங்களுடைய": 637,
      "வருட": 638,
      "ர்ந்த": 639,
      "ஆனாலும்": 640,
      "இருக்க": 641,
      "எருசலேம": 642,
      "வ்": 643,
      "ையாக": 644,
      "வெளி": 645,
      "ீர": 646,
      "மாட்ட": 647,
      "மாய": 648,
      "ோன்": 649,
      "ப்படும்": 650,
      "இருக்கிறது": 651,
      "இருந்தது": 652,
      "ஆக": 653,
      "னிடத்தில்": 654,
      "நின": 655,
      "ுக்குக்": 656,
      "நெ": 657,
      "இல்லை": 658,
      "விட்ட": 659,
      "தீர்க்கதரி": 660,
      "வழிய": 661,
      "டைய": 662,
      "ர்களின்": 663,
      "மகன்": 664,
      "க்கள": 665,
      "ிலுள்ள": 666,
      "வள": 667,
      "காரிய": 668,
      "நாங்கள்": 669,
      "இரண்டு": 670,
      "நடு": 671,
      "பீ": 672,
      "உம்ம": 673,
      "ுடன்": 674,
      "மற்ற": 675,
      "ுவ": 676,
      "வெள்ள": 677,
      "என": 678,
      "ாகவும்": 679,
      "சுவா": 680,
      "குடிய": 681,
      "அப்படியே": 682,
      "ல்லாமல்": 683,
      "ைகளின்": 684,
      "நினை": 685,
      "தல்": 686,
      "தண்ண": 687,
      "படியே": 688,
      "தொ": 689,
      "பெற்ற": 690,
      "செலு": 691,
      "ென்று": 692,
      "ோன": 693,
      "ையில்": 694,
      "ிடத்தில்": 695,
      "ிஸ்த": 696,
      "உயிர": 697,
      "ப்பா": 698,
      "வாய": 699,
      "எல்லோரும்": 700,
      "அற": 701,
      "ைகளையும்": 702,
      "க்கட": 703,
      "என்றும்": 704,
      "எண்ண": 705,
      "கிறிஸ்த": 706,
      "தில்லை": 707,
      "அடி": 708,
      "வனும்": 709,
      "ையின்": 710,
      "ல்கள": 711,
      "ும்ப": 712,
      "ிற்கும்": 713,
      "முன்ன": 714,
      "இஸ்ரவேலின்": 715,
      "ராஜாவாகிய": 716,
      "ுக்காக": 717,
      "சால": 718,
      "த்தம்": 719,
      "அவர": 720,
      "ியும்": 721,
      "ோடும்": 722,
      "அழை": 723,
      "சொல்லுகிறார்": 724,
      "வய": 725,
      "மகன்கள": 726,
      "ப்படுகிற": 727,
      "வருகிற": 728,
      "யு": 729,
      "சூ": 730,
      "தம": 731,
      "ப்பின": 732,
      "தாவீது": 733,
      "ிக்க": 734,
      "ிருக்கிறது": 735,
      "கொடுத்த": 736,
      "ிருக்க": 737,
      "வெளிய": 738,
      "த்திலும்": 739,
      "அவள்": 740,
      "க்குறித்து": 741,
      "நாட்கள": 742,
      "தன": 743,
      "ந்திர": 744,
      "ையெல்லாம்": 745,
      "ஞான": 746,
      "அல்ல": 747,
      "ும்போது": 748,
      "விழு": 749,
      "களும்": 750,
      "பெரிய": 751,
      "தாய": 752,
      "வார்": 753,
      "ஒருவன்": 754,
      "ட்டும்": 755,
      "இது": 756,
      "கண்ட": 757,
      "க்கூ": 758,
      "விரு": 759,
      "நூ": 760,
      "மொ": 761,
      "விடு": 762,
      "காண": 763,
      "த்திலிருந்து": 764,
      "யெகோவாவுக்கு": 765,
      "வாங்க": 766,
      "ள்ளே": 767,
      "வேண்டிய": 768,
      "ன்றும்": 769,
      "ப்பேன்": 770,
      "ப்போன": 771,
      "கம்": 772,
      "தினால்": 773,
      "மனை": 774,
      "பர": 775,
      "தெரி": 776,
      "ற்ப": 777,
      "கட்டளையி": 778,
      "என்றார்கள்": 779,
      "கெ": 780,
      "க்கிய": 781,
      "வனை": 782,
      "என்னவெ": 783,
      "கையால்": 784,
      "அநே": 785,
      "அந்": 786,
      "ர்வ": 787,
      "உன்ன": 788,
      "யாக்க": 789,
      "ாது": 790,
      "புறப்பட்டு": 791,
      "இப்படி": 792,
      "சம்": 793,
      "க்கொடு": 794,
      "வரைக்கும்": 795,
      "குமார": 796,
      "பிற": 797,
      "கோத்திர": 798,
      "ஜீ": 799,
      "கோப": 800,
      "நீதி": 801,
      "பில": 802,
      "லின்": 803,
      "ஆகையால்": 804,
      "ஒப்பு": 805,
      "சோ": 806,
      "பதி": 807,
      "லோ": 808,
      "த்தைப்": 809,
      "பெரு": 810,
      "த்தார்கள்": 811,
      "வனாக": 812,
      "சாப்பி": 813,
      "ர்களே": 814,
      "நின்": 815,
      "துபோல": 816,
      "திரும்பி": 817,
      "ஆவிய": 818,
      "அறிவி": 819,
      "ினார்கள்": 820,
      "நாள்": 821,
      "சந்ததிய": 822,
      "ணம்": 823,
      "யூதாவ": 824,
      "அர": 825,
      "ராட்": 826,
      "தற்காக": 827,
      "நம்முடைய": 828,
      "கொள்ள": 829,
      "நிறை": 830,
      "தால்": 831,
      "தம்முடைய": 832,
      "வைத்து": 833,
      "உமக்கு": 834,
      "பீட": 835,
      "திர": 836,
      "மனிதர்கள": 837,
      "பிதா": 838,
      "ளை": 839,
      "க்கே": 840,
      "களின்": 841,
      "லா": 842,
      "ுக்குச்": 843,
      "ஊழிய": 844,
      "சவு": 845,
      "மாகிய": 846,
      "ங்களில்": 847,
      "விசார": 848,
      "ிடம்": 849,
      "வழி": 850,
      "ினாலும்": 851,
      "என்னவென்றால்": 852,
      "ட்டிய": 853,
      "ங்கும்": 854,
      "யாக்கோ": 855,
      "ுக்குத்": 856,
      "இரத்த": 857,
      "வேலைக்கார": 858,
      "திரும்ப": 859,
      "பேச": 860,
      "கேட்க": 861,
      "யார்": 862,
      "மில்லை": 863,
      "நெரு": 864,
      "ர்ந்து": 865,
      "வேற": 866,
      "பார்க்க": 867,
      "வம்சத்த": 868,
      "மகள": 869,
      "ங்களின்": 870,
      "சொல்": 871,
      "உண": 872,
      "நாம": 873,
      "திராட்": 874,
      "ல்லைய": 875,
      "மிக": 876,
      "ையிலே": 877,
      "உங்களை": 878,
      "த்தும்": 879,
      "ினான்": 880,
      "சமா": 881,
      "ஆரோ": 882,
      "விலே": 883,
      "ினாலே": 884,
      "ஆத்து": 885,
      "ப்பான": 886,
      "ாவற்ற": 887,
      "மையான": 888,
      "அநேக": 889,
      "ஆய": 890,
      "உண்": 891,
      "கொடுக்க": 892,
      "முடி": 893,
      "கண்கள": 894,
      "யூதா": 895,
      "மிரு": 896,
      "அவருக்கு": 897,
      "நகர": 898,
      "நீதிய": 899,
      "க்கூட": 900,
      "சமாதான": 901,
      "இனி": 902,
      "தின்": 903,
      "நன்": 904,
      "வில்": 905,
      "முழு": 906,
      "சேன": 907,
      "வர்களாக": 908,
      "த்திற்கும்": 909,
      "அருக": 910,
      "நு": 911,
      "ப்பிர": 912,
      "போகிற": 913,
      "அவைகள்": 914,
      "கழு": 915,
      "தையும்": 916,
      "த்தைச்": 917,
      "குடி": 918,
      "பலிபீட": 919,
      "மூன்று": 920,
      "இன்ன": 921,
      "வாய்": 922,
      "ண்டி": 923,
      "ரிக்க": 924,
      "யும்": 925,
      "அந்நிய": 926,
      "வர்களும்": 927,
      "ம்பு": 928,
      "முதல்": 929,
      "ைக்கும்": 930,
      "இருந்து": 931,
      "உண்டான": 932,
      "கிரு": 933,
      "நல்ல": 934,
      "ப்பின்": 935,
      "மனிதன்": 936,
      "சப": 937,
      "ிரம": 938,
      "சர": 939,
      "எல்லாவற்ற": 940,
      "கிறிஸ்து": 941,
      "சம": 942,
      "நாம்": 943,
      "த்தார்": 944,
      "ரித்து": 945,
      "கண்டு": 946,
      "கிட": 947,
      "வனா": 948,
      "செய்தான்": 949,
      "ஏழு": 950,
      "யெகோவாவே": 951,
      "உண்டாக": 952,
      "வைகள்": 953,
      "குற்ற": 954,
      "மையாக": 955,
      "நாட்கள்": 956,
      "எங்கள்": 957,
      "த்தா": 958,
      "ப்படுத்து": 959,
      "பிடித்து": 960,
      "ண்கள": 961,
      "தான்": 962,
      "வேல": 963,
      "தகன": 964,
      "வித": 965,
      "ப்பிட": 966,
      "ர்களை": 967,
      "வேண்டாம்": 968,
      "உடன்": 969,
      "மிருக": 970,
      "வ்வ": 971,
      "உத": 972,
      "ராஜாவின்": 973,
      "ர்த்து": 974,
      "அழைத்து": 975,
      "ந்திருக்கிற": 976,
      "க்கை": 977,
      "இல்லாத": 978,
      "ையான": 979,
      "அனுப்பின": 980,
      "கட்டளையிட்ட": 981,
      "ாமல": 982,
      "வல்ல": 983,
      "பிரபு": 984,
      "வாக": 985,
      "செய்வேன்": 986,
      "ராஜ்": 987,
      "டுகள": 988,
      "கிருப": 989,
      "அடை": 990,
      "விள": 991,
      "சிங்க": 992,
      "வதற்கு": 993,
      "ஸ்தல": 994,
      "ந்துகொள்ள": 995,
      "திராட்சை": 996,
      "தங்க": 997,
      "ையையும்": 998,
      "நாளிலே": 999,
      "ாதபடி": 1000,
      "வது": 1001,
      "முறை": 1002,
      "பேர்": 1003,
      "மார்க்க": 1004,
      "விசுவா": 1005,
      "தமது": 1006,
      "ாக்கள": 1007,
      "மிகவும்": 1008,
      "ரிட": 1009,
      "னான": 1010,
      "ஒவ்வ": 1011,
      "வோ": 1012,
      "வனுடைய": 1013,
      "க்கம்": 1014,
      "ருள": 1015,
      "லேவிய": 1016,
      "ச்செய்த": 1017,
      "உடன்படி": 1018,
      "ரின்": 1019,
      "மாண": 1020,
      "குடும்ப": 1021,
      "மீதிய": 1022,
      "பணி": 1023,
      "மகன்கள்": 1024,
      "கூடார": 1025,
      "உல": 1026,
      "த்தினால்": 1027,
      "பட்டய": 1028,
      "00": 1029,
      "எழ": 1030,
      "வெளியே": 1031,
      "தில": 1032,
      "வல": 1033,
      "வைத்த": 1034,
      "எல": 1035,
      "ைக்கு": 1036,
      "கொண்ட": 1037,
      "ரியா": 1038,
      "சாப்பிட": 1039,
      "ஒப்புக்கொடு": 1040,
      "அவரை": 1041,
      "ஆசீ": 1042,
      "ர்ப்ப": 1043,
      "வனாந்திர": 1044,
      "முழ": 1045,
      "யெகோவாவின்": 1046,
      "ிருந்தது": 1047,
      "அறிய": 1048,
      "அக": 1049,
      "ர்களையும்": 1050,
      "ோஷ": 1051,
      "அவைகளை": 1052,
      "சொந்த": 1053,
      "வர்களை": 1054,
      "யெகோவாவை": 1055,
      "மரண": 1056,
      "சரீர": 1057,
      "படை": 1058,
      "ப்போகிற": 1059,
      "ுமாக": 1060,
      "ப்போய்": 1061,
      "இவன்": 1062,
      "ஆபிர": 1063,
      "வின்": 1064,
      "ன்மார்க்க": 1065,
      "பெல": 1066,
      "பிரிய": 1067,
      "சந்தோஷ": 1068,
      "மக்களுக்கு": 1069,
      "மதி": 1070,
      "வந்தார்கள்": 1071,
      "மோசேய": 1072,
      "ந்தது": 1073,
      "த்தைத்": 1074,
      "முற": 1075,
      "கொலை": 1076,
      "இரட்சி": 1077,
      "செய்யும்": 1078,
      "கையில்": 1079,
      "னால்": 1080,
      "த்தோ": 1081,
      "பாபில": 1082,
      "ர்களாக": 1083,
      "விசாரி": 1084,
      "திற": 1085,
      "மாவ": 1086,
      "மறை": 1087,
      "சாட்சி": 1088,
      "உப": 1089,
      "தம்": 1090,
      "த்தின்மேல்": 1091,
      "மனிதர்கள்": 1092,
      "னின்": 1093,
      "னுக்கு": 1094,
      "ர்களுக்கு": 1095,
      "துன்மார்க்க": 1096,
      "யூதாவின்": 1097,
      "அட": 1098,
      "ப்பார": 1099,
      "தீர்க்கதரிசி": 1100,
      "மொழிய": 1101,
      "அந்தப்": 1102,
      "ஆண்டவர்": 1103,
      "ஓடி": 1104,
      "காவ": 1105,
      "ென்றால்": 1106,
      "ப்போக": 1107,
      "ந்துகொண்ட": 1108,
      "ஆட": 1109,
      "எந்த": 1110,
      "ைகளில்": 1111,
      "த்திற்குப்": 1112,
      "த்தக்க": 1113,
      "எதிரி": 1114,
      "க்கொள்": 1115,
      "முகாம": 1116,
      "விர": 1117,
      "அதைக்": 1118,
      "இருந்தான்": 1119,
      "தேசத்தில்": 1120,
      "அருகில்": 1121,
      "்களையும்": 1122,
      "யெகோவ": 1123,
      "க்கும்படி": 1124,
      "பெண்ண": 1125,
      "ப்பட்டது": 1126,
      "எழுந்து": 1127,
      "ஒவ்வொரு": 1128,
      "த்தால்": 1129,
      "அறு": 1130,
      "ொமோ": 1131,
      "ங்களிலும்": 1132,
      "மக்களை": 1133,
      "சீட": 1134,
      "சாலொமோ": 1135,
      "தனக்கு": 1136,
      "நம": 1137,
      "போனார்கள்": 1138,
      "அக்கிரம": 1139,
      "ஒன்ற": 1140,
      "ஜெ": 1141,
      "பக்க": 1142,
      "ரையும்": 1143,
      "வேத": 1144,
      "இருந்தார்கள்": 1145,
      "வீர்கள்": 1146,
      "ட்சிய": 1147,
      "முன்": 1148,
      "சும": 1149,
      "வீர": 1150,
      "ற்றிலும்": 1151,
      "உண்டாக்க": 1152,
      "யூத": 1153,
      "ர்த": 1154,
      "பெலி": 1155,
      "உட்க": 1156,
      "எதிராக": 1157,
      "பெலிஸ்த": 1158,
      "பிய": 1159,
      "ட்டார்கள்": 1160,
      "மக்களின்": 1161,
      "நாளில்": 1162,
      "நிலை": 1163,
      "இவைகள": 1164,
      "கிர": 1165,
      "உங்களுக்குச்": 1166,
      "சாய": 1167,
      "பட": 1168,
      "பேசு": 1169,
      "ஆண": 1170,
      "ருங்கள்": 1171,
      "ப்படுத்த": 1172,
      "நியாயப்பிர": 1173,
      "விருப்ப": 1174,
      "க்கிர": 1175,
      "முதல": 1176,
      "கொன்று": 1177,
      "நேர": 1178,
      "என்கிற": 1179,
      "இல்லாமல்": 1180,
      "சர்": 1181,
      "ிருந்தான்": 1182,
      "னையும்": 1183,
      "ைகளைக்": 1184,
      "வனுக்கு": 1185,
      "ரண": 1186,
      "ப்பார்": 1187,
      "துர": 1188,
      "இவர்கள்": 1189,
      "பக": 1190,
      "ிரம்": 1191,
      "ைகளும்": 1192,
      "தேவனை": 1193,
      "ம்பண்ண": 1194,
      "க்கா": 1195,
      "விரும்": 1196,
      "எங்களுடைய": 1197,
      "னிய": 1198,
      "வேண்டு": 1199,
      "கூட்ட": 1200,
      "அனுப்பி": 1201,
      "தைச்": 1202,
      "பெயர்": 1203,
      "னாக": 1204,
      "வசன": 1205,
      "அப்படி": 1206,
      "சேர்ந்த": 1207,
      "கீழ்": 1208,
      "யெகோவாகிய": 1209,
      "தைக்": 1210,
      "ம்பி": 1211,
      "அவர்களைப்": 1212,
      "மகா": 1213,
      "சொல்லுகிறேன்": 1214,
      "ஞ்ச": 1215,
      "த்தான": 1216,
      "ாவும்": 1217,
      "ினார்": 1218,
      "களில்": 1219,
      "தெரிய": 1220,
      "அனைவரும்": 1221,
      "ஆர": 1222,
      "சேனைகளின்": 1223,
      "அபி": 1224,
      "செய்தார்கள்": 1225,
      "கூப்பி": 1226,
      "அதிகார": 1227,
      "மனைவிய": 1228,
      "செயல்கள": 1229,
      "யோசே": 1230,
      "துரு": 1231,
      "அணி": 1232,
      "உரு": 1233,
      "கல்ல": 1234,
      "டும்": 1235,
      "பான": 1236,
      "ுடனே": 1237,
      "குந்த": 1238,
      "கேட்டு": 1239,
      "ஆறு": 1240,
      "மின்": 1241,
      "கேட": 1242,
      "இப்பொழுது": 1243,
      "பத்து": 1244,
      "டுக்க": 1245,
      "இன்னும்": 1246,
      "காண்": 1247,
      "ப்படுத்தி": 1248,
      "எகிப்து": 1249,
      "உண்டு": 1250,
      "வைகளை": 1251,
      "ாயீ": 1252,
      "படியால்": 1253,
      "வாசல": 1254,
      "ஏற": 1255,
      "ராகிய": 1256,
      "ப்போல்": 1257,
      "போகும்": 1258,
      "அவைகளின்": 1259,
      "ஒரே": 1260,
      "ஊழியக்கார": 1261,
      "எரி": 1262,
      "சேய": 1263,
      "தெய்": 1264,
      "ச்சிய": 1265,
      "உம்மை": 1266,
      "நம்ம": 1267,
      "தள்ள": 1268,
      "க்குப்": 1269,
      "டுத்த": 1270,
      "இரண்ட": 1271,
      "வரே": 1272,
      "உறு": 1273,
      "ர்களுடைய": 1274,
      "திக்க": 1275,
      "கேள்": 1276,
      "ஆசீர்வ": 1277,
      "அவனைப்": 1278,
      "அல": 1279,
      "ையா": 1280,
      "கட்டி": 1281,
      "வரச்": 1282,
      "சொன்னான்": 1283,
      "ையின்மேல்": 1284,
      "ராஜாக்கள": 1285,
      "வர்களுக்கு": 1286,
      "ப்படுத்தின": 1287,
      "அடிய": 1288,
      "வைக்க": 1289,
      "ிருந்தார்கள்": 1290,
      "தற்கும்": 1291,
      "நீதிமான": 1292,
      "முழுவ": 1293,
      "ஜெப": 1294,
      "வோம்": 1295,
      "ந்தார்கள்": 1296,
      "மாகக்": 1297,
      "பார்வ": 1298,
      "்த்து": 1299,
      "தகப்பன்": 1300,
      "த்தே": 1301,
      "பூமியின்": 1302,
      "பிதாக்கள": 1303,
      "வதில்லை": 1304,
      "ையே": 1305,
      "மையும்": 1306,
      "ருக்கும்": 1307,
      "க்குகிற": 1308,
      "என்னிடத்தில்": 1309,
      "உண்டா": 1310,
      "தண்ணீர்": 1311,
      "ர்களில்": 1312,
      "போதும்": 1313,
      "அவளுடைய": 1314,
      "மொழியாக": 1315,
      "அடைய": 1316,
      "த்தில": 1317,
      "ாகப்": 1318,
      "தேவனே": 1319,
      "த்தினாலே": 1320,
      "ஆவியான": 1321,
      "ாகக்": 1322,
      "நிறு": 1323,
      "அக்கின": 1324,
      "நியாயப்பிரமாண": 1325,
      "ைப்போல": 1326,
      "சத்திய": 1327,
      "பின்னும்": 1328,
      "சந்": 1329,
      "பழ": 1330,
      "த்துப்போ": 1331,
      "மறுமொழியாக": 1332,
      "தெய்வ": 1333,
      "சந்நி": 1334,
      "மாகப்": 1335,
      "பாழ": 1336,
      "தூர": 1337,
      "சகல": 1338,
      "வெறு": 1339,
      "வார்த்தை": 1340,
      "மகிழ்": 1341,
      "ஏன": 1342,
      "குதிய": 1343,
      "தீட்டு": 1344,
      "அதில்": 1345,
      "நின்ற": 1346,
      "தந்த": 1347,
      "பாக": 1348,
      "ன்னி": 1349,
      "சேக்க": 1350,
      "வர்களின்": 1351,
      "லோக": 1352,
      "ஆடு": 1353,
      "மண": 1354,
      "வெட்க": 1355,
      "பாவம்": 1356,
      "ஜீவன": 1357,
      "அள": 1358,
      "ஏன்": 1359,
      "நம்பி": 1360,
      "ாதிரு": 1361,
      "வேறு": 1362,
      "பாடு": 1363,
      "யோன": 1364,
      "தேசம்": 1365,
      "எழுந்த": 1366,
      "பார்வை": 1367,
      "நின்று": 1368,
      "பது": 1369,
      "பங்க": 1370,
      "சுவாச": 1371,
      "சுற்றிலும்": 1372,
      "அவனைக்": 1373,
      "கடந்து": 1374,
      "கார": 1375,
      "்கொ": 1376,
      "ட்டுக்கு": 1377,
      "ாமற்": 1378,
      "ட்டுக்கட": 1379,
      "போனான்": 1380,
      "ஆலோ": 1381,
      "மகிமை": 1382,
      "வருடங்கள்": 1383,
      "வலது": 1384,
      "பற": 1385,
      "விட்டுப்": 1386,
      "மகிமைய": 1387,
      "எப்படி": 1388,
      "எல்லாவற்றையும்": 1389,
      "உடன்படிக்க": 1390,
      "சர்வாங்க": 1391,
      "ெல்ல": 1392,
      "வம்ச": 1393,
      "முன்னே": 1394,
      "னிடம்": 1395,
      "உலக": 1396,
      "போர்": 1397,
      "ரிப்பு": 1398,
      "நான்கு": 1399,
      "ஓய்": 1400,
      "த்தது": 1401,
      "ையைக்": 1402,
      "ப்பார்கள்": 1403,
      "ட்டான்": 1404,
      "செய்யப்பட்ட": 1405,
      "படியும்": 1406,
      "தித்து": 1407,
      "பொய்": 1408,
      "சிறு": 1409,
      "உட்கார்": 1410,
      "ணை": 1411,
      "கிறிஸ்துவ": 1412,
      "இப்போ": 1413,
      "ாதே": 1414,
      "புத்த": 1415,
      "காணி": 1416,
      "யோசுவா": 1417,
      "நடந்து": 1418,
      "உண்டாய": 1419,
      "ியே": 1420,
      "ங்களுக்கு": 1421,
      "ட்டுகிற": 1422,
      "தியில்": 1423,
      "ோடே": 1424,
      "நமக்கு": 1425,
      "எஜ": 1426,
      "மரி": 1427,
      "ாமின்": 1428,
      "காப்பா": 1429,
      "ியாத": 1430,
      "மென்று": 1431,
      "வேறொரு": 1432,
      "கொன்றுபோ": 1433,
      "சொல்லிய": 1434,
      "கொடுத்து": 1435,
      "ஏழ": 1436,
      "ென்ற": 1437,
      "த்தோடு": 1438,
      "ிற்": 1439,
      "கேள": 1440,
      "விசுவாசி": 1441,
      "நிர": 1442,
      "த்திருக்கிற": 1443,
      "அருவரு": 1444,
      "ிருக்கும்போது": 1445,
      "கன": 1446,
      "யார": 1447,
      "்களை": 1448,
      "ையாவது": 1449,
      "பொன்ன": 1450,
      "ஆகவே": 1451,
      "தொட": 1452,
      "ித்து": 1453,
      "சுக": 1454,
      "செலுத்த": 1455,
      "கடு": 1456,
      "வியா": 1457,
      "வாக்கு": 1458,
      "ானால்": 1459,
      "மக்களும்": 1460,
      "ியை": 1461,
      "இருக்கிறார்": 1462,
      "இந்தக்": 1463,
      "சாக": 1464,
      "பள்ள": 1465,
      "ாவையும்": 1466,
      "பெண்கள": 1467,
      "அந்தக்": 1468,
      "இந்தப்": 1469,
      "சொல்லுகிறது": 1470,
      "தாவீதின்": 1471,
      "க்கொள்ளுகிற": 1472,
      "உணவு": 1473,
      "பேசுகிற": 1474,
      "புத்தக": 1475,
      "மேல": 1476,
      "சிந்த": 1477,
      "யோவா": 1478,
      "தேவனுக்கு": 1479,
      "மூப்ப": 1480,
      "பிள்ளைகள": 1481,
      "அரண்": 1482,
      "ராஜ்ய": 1483,
      "கடி": 1484,
      "பன்ன": 1485,
      "மோவா": 1486,
      "பிறந்த": 1487,
      "ஆத்துமா": 1488,
      "பேர": 1489,
      "யோர்த": 1490,
      "கிழ": 1491,
      "மூன்ற": 1492,
      "ஒன்றும்": 1493,
      "கான": 1494,
      "த்தன": 1495,
      "வேசி": 1496,
      "தலால்": 1497,
      "எங்களுக்கு": 1498,
      "நூறு": 1499,
      "க்கூடாது": 1500,
      "அம": 1501,
      "கவன": 1502,
      "வாழ": 1503,
      "விண்ண": 1504,
      "இஸ்ரவேலர்கள்": 1505,
      "உயிரோடு": 1506,
      "கேள்வி": 1507,
      "விண்ணப்ப": 1508,
      "ர்களுக்கும்": 1509,
      "ஒருவனும்": 1510,
      "கொடுக்கிற": 1511,
      "ந்துகொள்": 1512,
      "ெல்லோ": 1513,
      "ொழுதும்": 1514,
      "பயப்பட": 1515,
      "பரலோக": 1516,
      "துவ": 1517,
      "கையை": 1518,
      "நிற்க": 1519,
      "சனம்": 1520,
      "பன்னிர": 1521,
      "ஆதலால்": 1522,
      "ானது": 1523,
      "தன்னை": 1524,
      "பாவநி": 1525,
      "எப்பிர": 1526,
      "தண்ணீர": 1527,
      "ஒன்று": 1528,
      "களுக்கு": 1529,
      "அவர்களில்": 1530,
      "இருந்தால்": 1531,
      "ஆசரிப்பு": 1532,
      "இள": 1533,
      "சீரிய": 1534,
      "முடிய": 1535,
      "இருக்கவேண்டும்": 1536,
      "வயது": 1537,
      "இரா": 1538,
      "தைப்": 1539,
      "வழ": 1540,
      "செவி": 1541,
      "மானது": 1542,
      "தேசத்தின்": 1543,
      "அழு": 1544,
      "பதிய": 1545,
      "காத்": 1546,
      "மூட": 1547,
      "பிரபுக்கள": 1548,
      "ஆட்டுக்கு": 1549,
      "எங்கே": 1550,
      "பண்டி": 1551,
      "ெய": 1552,
      "ப்பான்": 1553,
      "விசுவாச": 1554,
      "என்னைக்": 1555,
      "ங்கோ": 1556,
      "வெட்டி": 1557,
      "இடத்தில்": 1558,
      "யுத்த": 1559,
      "ளு": 1560,
      "பெண்": 1561,
      "என்றாள்": 1562,
      "என்றென்ற": 1563,
      "மையுள்ள": 1564,
      "எனக்குக்": 1565,
      "எழுதிய": 1566,
      "கண்ண": 1567,
      "ரூ": 1568,
      "வாலி": 1569,
      "எனக்குத்": 1570,
      "அறிந்திருக்கிற": 1571,
      "வீட்டிற்கு": 1572,
      "சிலர்": 1573,
      "கடை": 1574,
      "தனை": 1575,
      "லாம்": 1576,
      "இருங்கள்": 1577,
      "கூடி": 1578,
      "வந்தான்": 1579,
      "கையிலே": 1580,
      "போனது": 1581,
      "தகப்பனாகிய": 1582,
      "ஆத்துமாவ": 1583,
      "எப்பிராயீ": 1584,
      "சனை": 1585,
      "ையோ": 1586,
      "மேன்": 1587,
      "பென்": 1588,
      "சிங்கா": 1589,
      "பிழை": 1590,
      "பேசி": 1591,
      "த்திற்குத்": 1592,
      "கீழ": 1593,
      "யுத்தம்": 1594,
      "குமாரன்": 1595,
      "அடையாள": 1596,
      "அன்ற": 1597,
      "இவர்கள": 1598,
      "ஏறி": 1599,
      "மான்": 1600,
      "்கா": 1601,
      "த்திரம்": 1602,
      "இருதயம்": 1603,
      "எழும்": 1604,
      "பால": 1605,
      "மடை": 1606,
      "யமீ": 1607,
      "ும": 1608,
      "க்கப்படு": 1609,
      "புகிற": 1610,
      "அதைச்": 1611,
      "த்தினாலும்": 1612,
      "என்னைப்": 1613,
      "க்கப்பட்டது": 1614,
      "அன்": 1615,
      "அம்ம": 1616,
      "வதற்காக": 1617,
      "ாக்": 1618,
      "செல்": 1619,
      "சேர்த்து": 1620,
      "செலுத்து": 1621,
      "பென்யமீ": 1622,
      "ஏற்ப": 1623,
      "தண்ட": 1624,
      "ந்தான்": 1625,
      "அவரிட": 1626,
      "அதைப்": 1627,
      "எனக்குச்": 1628,
      "மோசேயை": 1629,
      "றும்": 1630,
      "ப்பது": 1631,
      "வரையும்": 1632,
      "அதிலே": 1633,
      "சாட்சிய": 1634,
      "ஆவி": 1635,
      "கர்ப்ப": 1636,
      "மாகவும்": 1637,
      "ஆண்டவரே": 1638,
      "முன்னோ": 1639,
      "சவுல்": 1640,
      "பாபிலோன்": 1641,
      "பவு": 1642,
      "ப்படி": 1643,
      "கொண்டுவந்து": 1644,
      "வார்த்தைகள": 1645,
      "கர்த்தராகிய": 1646,
      "சூரிய": 1647,
      "ரெ": 1648,
      "த்திலுள்ள": 1649,
      "புக": 1650,
      "உயர": 1651,
      "விதமாக": 1652,
      "ச்சி": 1653,
      "பிரதான": 1654,
      "காய": 1655,
      "விழ": 1656,
      "ாவை": 1657,
      "முற்": 1658,
      "வந்தபோது": 1659,
      "என்றென்றைக்கும்": 1660,
      "அப்": 1661,
      "இங்கே": 1662,
      "ல்கிற": 1663,
      "த்தேன்": 1664,
      "போட்டு": 1665,
      "மிகுந்த": 1666,
      "மகனான": 1667,
      "பொரு": 1668,
      "எங்களை": 1669,
      "காவல": 1670,
      "தப்பு": 1671,
      "மேய்": 1672,
      "தேசத்திற்கு": 1673,
      "கைகள": 1674,
      "மாக்க": 1675,
      "ப்போலவும்": 1676,
      "மீதியான": 1677,
      "ென்றும்": 1678,
      "்கல": 1679,
      "மித்தம்": 1680,
      "பின்ப": 1681,
      "நியாயம்": 1682,
      "தேசத்திலே": 1683,
      "என்பவர்கள்": 1684,
      "திராட்சைர": 1685,
      "ஐந்து": 1686,
      "பகை": 1687,
      "மணம்": 1688,
      "ச்செய்து": 1689,
      "இருக்கிறார்கள்": 1690,
      "தென்று": 1691,
      "திருமணம்": 1692,
      "ஞ்சம்": 1693,
      "மாட்டேன்": 1694,
      "ஓய்வு": 1695,
      "ஏற்று": 1696,
      "க்குத்": 1697,
      "நாட்ட": 1698,
      "காணிக்க": 1699,
      "த்திற்க": 1700,
      "ஒருவன": 1701,
      "ப்புற": 1702,
      "ிருந்தும்": 1703,
      "நடக்க": 1704,
      "ோனின்": 1705,
      "சந்நிதியில்": 1706,
      "ஆகா": 1707,
      "கற்": 1708,
      "சொல்கிற": 1709,
      "குழ": 1710,
      "தாம்": 1711,
      "பொல்லா": 1712,
      "வந்தது": 1713,
      "தினாலே": 1714,
      "வேண்டியது": 1715,
      "ப்பின்பு": 1716,
      "இன்று": 1717,
      "பின": 1718,
      "ியாக": 1719,
      "நடுவே": 1720,
      "அவரைப்": 1721,
      "ஆயத்த": 1722,
      "நுழை": 1723,
      "தங்கிய": 1724,
      "இப்போதும்": 1725,
      "அச": 1726,
      "த்தார": 1727,
      "ப்பாக": 1728,
      "ங்களைக்": 1729,
      "பேதுரு": 1730,
      "காண்பி": 1731,
      "கடுங்கோ": 1732,
      "சிங்காசன": 1733,
      "ஆரா": 1734,
      "கப்ப": 1735,
      "நற்": 1736,
      "மால": 1737,
      "ுமான": 1738,
      "க்கும்போது": 1739,
      "வனோ": 1740,
      "குறி": 1741,
      "பிரச": 1742,
      "தேசத்திலிருந்து": 1743,
      "உண்மையாக": 1744,
      "கிடை": 1745,
      "ஏனென்றால்": 1746,
      "வட": 1747,
      "ப்பெ": 1748,
      "யாக்கோபு": 1749,
      "பண": 1750,
      "வண": 1751,
      "ுக்க": 1752,
      "ப்பை": 1753,
      "வாங்கி": 1754,
      "பதில": 1755,
      "துக்க": 1756,
      "வாருங்கள்": 1757,
      "புல": 1758,
      "பெற்று": 1759,
      "அவர்களைக்": 1760,
      "பிரி": 1761,
      "லேயா": 1762,
      "உனக்குக்": 1763,
      "தீர்க்கதரிசிய": 1764,
      "அசுத்த": 1765,
      "மற": 1766,
      "த்தோடும்": 1767,
      "சொல்லு": 1768,
      "பாத்திர": 1769,
      "மனா": 1770,
      "ஆசாரியன்": 1771,
      "அவளை": 1772,
      "விழுந்து": 1773,
      "ஊர": 1774,
      "த்தீர்": 1775,
      "க்குக்": 1776,
      "வாரண": 1777,
      "தேட": 1778,
      "புத்தி": 1779,
      "பிதாவ": 1780,
      "வெண": 1781,
      "திரள": 1782,
      "தகனபலிய": 1783,
      "வாலிப": 1784,
      "மந்த": 1785,
      "வள்": 1786,
      "ர்வா": 1787,
      "திட": 1788,
      "முத்திர": 1789,
      "வெட்ட": 1790,
      "மூல": 1791,
      "என்னைத்": 1792,
      "க்கடவன்": 1793,
      "வெண்கல": 1794,
      "சம்ப": 1795,
      "னா": 1796,
      "மண்ட": 1797,
      "ஷ்ட": 1798,
      "வீடு": 1799,
      "நடந்த": 1800,
      "எரே": 1801,
      "பங்கு": 1802,
      "மதில": 1803,
      "மன்னி": 1804,
      "காது": 1805,
      "அவர்கள்மேல்": 1806,
      "த்திற்குக்": 1807,
      "நடக்கிற": 1808,
      "அழைத்துக்கொண்டு": 1809,
      "உத்த": 1810,
      "ாதி": 1811,
      "யெகோவாவுக்குப்": 1812,
      "இருக்கிறேன்": 1813,
      "அதின்மேல்": 1814,
      "புறப்பட": 1815,
      "இதை": 1816,
      "ிகள": 1817,
      "ுமாகிய": 1818,
      "ையுள்ள": 1819,
      "ர்களாகிய": 1820,
      "வேல்": 1821,
      "உடனே": 1822,
      "முழுவதும்": 1823,
      "ெல்லோரும்": 1824,
      "ஜிய": 1825,
      "மலை": 1826,
      "ியின்": 1827,
      "வால": 1828,
      "அவர்களைத்": 1829,
      "காள": 1830,
      "அவனோடு": 1831,
      "அனுப்ப": 1832,
      "எடுத்துக்கொண்டு": 1833,
      "பெற்றான்": 1834,
      "ராஜ்ஜிய": 1835,
      "கடுங்கோப": 1836,
      "எலி": 1837,
      "துரோ": 1838,
      "புர": 1839,
      "செய்யவேண்டும்": 1840,
      "எல்லாம்": 1841,
      "எழுத": 1842,
      "அதிகமாக": 1843,
      "மனைவி": 1844,
      "்களும்": 1845,
      "சென்ற": 1846,
      "கொல்ல": 1847,
      "கொழு": 1848,
      "மையை": 1849,
      "வாழ்": 1850,
      "விதை": 1851,
      "தேவர": 1852,
      "சுற்றி": 1853,
      "சுதந்த": 1854,
      "பாது": 1855,
      "இருக்கிறான்": 1856,
      "அனைத்து": 1857,
      "தண்ணீ": 1858,
      "உதவி": 1859,
      "பதின": 1860,
      "ஷே": 1861,
      "ந்துகொண்டு": 1862,
      "புத்திய": 1863,
      "ப்பட்டார்கள்": 1864,
      "பூமி": 1865,
      "எல்லாப்": 1866,
      "தூப": 1867,
      "கேட்டான்": 1868,
      "ப்படுத்துகிற": 1869,
      "எழும்ப": 1870,
      "எஜமான": 1871,
      "இராண": 1872,
      "ஆட்டுக்கட": 1873,
      "னோ": 1874,
      "க்கள்": 1875,
      "ர்களோ": 1876,
      "ங்களைப்": 1877,
      "வாள": 1878,
      "போட": 1879,
      "மாடு": 1880,
      "மாக்கி": 1881,
      "பாத": 1882,
      "ச்சய": 1883,
      "நிச்சய": 1884,
      "நிறைந்த": 1885,
      "இடி": 1886,
      "இவ்": 1887,
      "வாசி": 1888,
      "னைப்": 1889,
      "பெத்": 1890,
      "குதி": 1891,
      "த்தின்படி": 1892,
      "சொன்னார்": 1893,
      "சந்ததி": 1894,
      "விலிருந்து": 1895,
      "இறங்க": 1896,
      "நன்மை": 1897,
      "கேட்கிற": 1898,
      "பாதுகா": 1899,
      "ஆயு": 1900,
      "எச்ச": 1901,
      "ேய": 1902,
      "ட்டெ": 1903,
      "குதிர": 1904,
      "தங்களுக்கு": 1905,
      "உயர்ந்த": 1906,
      "அன்பு": 1907,
      "இல்லைய": 1908,
      "கத": 1909,
      "கன்": 1910,
      "கற்ப": 1911,
      "ந்துபோ": 1912,
      "ஒருவரும்": 1913,
      "சேதன": 1914,
      "சாமு": 1915,
      "பொறு": 1916,
      "இடத்திலே": 1917,
      "உங்களுக்குக்": 1918,
      "அவர்களுக்குக்": 1919,
      "குடியிருக்கிற": 1920,
      "நினைத்து": 1921,
      "ஆலோசனை": 1922,
      "வையும்": 1923,
      "க்கவும்": 1924,
      "த்தசேதன": 1925,
      "சுட்டெ": 1926,
      "ிருந்தால்": 1927,
      "தாவது": 1928,
      "கடின": 1929,
      "சிறை": 1930,
      "விருத்தசேதன": 1931,
      "எவ்": 1932,
      "சபி": 1933,
      "மட்டும்": 1934,
      "ொட": 1935,
      "்கூ": 1936,
      "ப்பே": 1937,
      "ிலிருக்கிற": 1938,
      "ச்செய்வேன்": 1939,
      "சத்தமி": 1940,
      "கூட்டி": 1941,
      "பொருட": 1942,
      "ராஜாவாக": 1943,
      "தேசத்தை": 1944,
      "அவர்களுக்குச்": 1945,
      "தகனபலி": 1946,
      "சாலொமோன்": 1947,
      "உடை": 1948,
      "வரி": 1949,
      "க்கால": 1950,
      "டுங்கள்": 1951,
      "செய்க": 1952,
      "உங்களில்": 1953,
      "அவனைத்": 1954,
      "வாசல்": 1955,
      "அடக்கம்": 1956,
      "நல": 1957,
      "குறை": 1958,
      "எகிப்திய": 1959,
      "அபிஷே": 1960,
      "ஆசீர்வதி": 1961,
      "நற்செய்த": 1962,
      "இராணுவ": 1963,
      "க்கிறது": 1964,
      "தீர்": 1965,
      "தெளி": 1966,
      "கீலேயா": 1967,
      "யாக்கோப": 1968,
      "ஆபிரக": 1969,
      "துரத்தி": 1970,
      "கட்டு": 1971,
      "நதி": 1972,
      "க்காமல்": 1973,
      "க்காள": 1974,
      "குண": 1975,
      "வர்களையும்": 1976,
      "இரவு": 1977,
      "ஸ்தோ": 1978,
      "பெயர": 1979,
      "நானும்": 1980,
      "வழியாக": 1981,
      "சாப்பிட்டு": 1982,
      "கழுத": 1983,
      "ஐயோ": 1984,
      "தார": 1985,
      "ையைப்": 1986,
      "அப்படிய": 1987,
      "மாம்": 1988,
      "பாட": 1989,
      "விலகி": 1990,
      "உள்ளே": 1991,
      "எருசலேமின்": 1992,
      "ருளும்": 1993,
      "க்கவேண்டும்": 1994,
      "டுவேன்": 1995,
      "ாயிரம்": 1996,
      "செய்யும்படி": 1997,
      "வெள்ளா": 1998,
      "வெள்ளி": 1999,
      "நாட்களில்": 2000,
      "தேவரீர்": 2001,
      "அகல": 2002,
      "வாக்க": 2003,
      "முமாக": 2004,
      "க்கிறவன்": 2005,
      "க்கிறேன்": 2006,
      "பாதி": 2007,
      "தங்களை": 2008,
      "நிந்த": 2009,
      "காலம்": 2010,
      "கண்கள்": 2011,
      "சமாரிய": 2012,
      "க்கப்பட": 2013,
      "பொல்லாத": 2014,
      "திருப்த": 2015,
      "மூன்றாம்": 2016,
      "குழந்த": 2017,
      "ஈசா": 2018,
      "லாக": 2019,
      "வில்லைய": 2020,
      "ிருங்கள்": 2021,
      "அதைத்": 2022,
      "பொன்": 2023,
      "காரியம்": 2024,
      "உயிரோட": 2025,
      "சபைய": 2026,
      "விசுவாசத்த": 2027,
      "பழு": 2028,
      "அவன்மேல்": 2029,
      "யோச": 2030,
      "எல்லோரையும்": 2031,
      "ஆலயத்தின்": 2032,
      "இப்படிச்": 2033,
      "கண்களுக்கு": 2034,
      "எலும்": 2035,
      "்களின்": 2036,
      "ர்களோடு": 2037,
      "விப": 2038,
      "த்துவ": 2039,
      "மில்லாத": 2040,
      "உயர்த்த": 2041,
      "தெரிந்துகொள்ள": 2042,
      "கிருபை": 2043,
      "இளை": 2044,
      "சின்": 2045,
      "நீங்களும்": 2046,
      "பெட்டிய": 2047,
      "சித": 2048,
      "அதிபதி": 2049,
      "இடம்": 2050,
      "த்தக்கதாக": 2051,
      "இரண்டாம்": 2052,
      "துவங்கி": 2053,
      "பன்னிரண்டு": 2054,
      "ஏதோ": 2055,
      "ையிட": 2056,
      "இருள": 2057,
      "வராக": 2058,
      "அவர்களோடு": 2059,
      "காத்த": 2060,
      "நிற்கிற": 2061,
      "சிறிய": 2062,
      "நடுவில்": 2063,
      "எனவே": 2064,
      "எது": 2065,
      "ல்லிய": 2066,
      "றுகிற": 2067,
      "வேண்டி": 2068,
      "செய்யுங்கள்": 2069,
      "அதினால்": 2070,
      "இருப்பதாக": 2071,
      "கடல": 2072,
      "அருகே": 2073,
      "தீர்க்கதரிசனம்": 2074,
      "வாயாக": 2075,
      "பெருக": 2076,
      "க்கூடார": 2077,
      "ப்பாய": 2078,
      "ந்தின": 2079,
      "ங்களைச்": 2080,
      "வின": 2081,
      "த்துப்": 2082,
      "ங்கிய": 2083,
      "வீண": 2084,
      "நித்திய": 2085,
      "க்கொண்டார்கள்": 2086,
      "எப்பொழுதும்": 2087,
      "ஆணையி": 2088,
      "ஆசரிப்புக்கூடார": 2089,
      "புகழ்": 2090,
      "திரளான": 2091,
      "உற": 2092,
      "சத்தம்": 2093,
      "மித்த": 2094,
      "மனிதகுமார": 2095,
      "உண்டானது": 2096,
      "ஆரம்ப": 2097,
      "பார்வைக்கு": 2098,
      "யோர்தான": 2099,
      "உட்": 2100,
      "தப்பி": 2101,
      "நொ": 2102,
      "தேவால": 2103,
      "ப்போம்": 2104,
      "பாக்கிய": 2105,
      "அந்தத்": 2106,
      "மக்களையும்": 2107,
      "எனக்குப்": 2108,
      "மெல்லிய": 2109,
      "தேவாலய": 2110,
      "ண்ப": 2111,
      "வர்களே": 2112,
      "ஆசாரியனாகிய": 2113,
      "கிராம": 2114,
      "யோசேப்பு": 2115,
      "ரூப": 2116,
      "உண்மையாகவே": 2117,
      "சமுக": 2118,
      "ந்தர": 2119,
      "வித்த": 2120,
      "ினது": 2121,
      "மேக": 2122,
      "மேய": 2123,
      "உன்னிடத்தில்": 2124,
      "தாங்கள்": 2125,
      "குடிக்க": 2126,
      "பெயரி": 2127,
      "விட்டால்": 2128,
      "எண்ணெய": 2129,
      "நூல": 2130,
      "பதில்": 2131,
      "விரும்புகிற": 2132,
      "முற்பிதாக்கள": 2133,
      "கற்பி": 2134,
      "கற்பன": 2135,
      "அழ": 2136,
      "ரொ": 2137,
      "விற்கு": 2138,
      "துன்ப": 2139,
      "மாட்டான்": 2140,
      "சாப்பிடு": 2141,
      "அரண்மன": 2142,
      "பாவநிவாரண": 2143,
      "நம்ப": 2144,
      "ெடுத்து": 2145,
      "ங்கர": 2146,
      "மாத": 2147,
      "வர்களுக்கும்": 2148,
      "பொருள": 2149,
      "நேராக": 2150,
      "விட்டார்கள்": 2151,
      "நெருப்ப": 2152,
      "முகாமி": 2153,
      "தள்ளி": 2154,
      "மகிழ்ச்சிய": 2155,
      "இவனுடைய": 2156,
      "தாம": 2157,
      "ியையும்": 2158,
      "ைகிற": 2159,
      "தேடுகிற": 2160,
      "நீங்கள": 2161,
      "ங்கொ": 2162,
      "அவனவன்": 2163,
      "கொண்டுபோய்": 2164,
      "தரிசன": 2165,
      "இறந்து": 2166,
      "வளவு": 2167,
      "எல்லை": 2168,
      "கற": 2169,
      "பண்ண": 2170,
      "ட்டை": 2171,
      "விக்கிர": 2172,
      "செம்ம": 2173,
      "காம்": 2174,
      "உங்களிடம்": 2175,
      "த்திற்குள்": 2176,
      "ப்படவேண்டும்": 2177,
      "பூரண": 2178,
      "சொன்னார்கள்": 2179,
      "பயந்து": 2180,
      "இப்படிய": 2181,
      "இயேசுகிறிஸ்து": 2182,
      "உனக்குச்": 2183,
      "என்பதை": 2184,
      "இறந்த": 2185,
      "இறங்கி": 2186,
      "அக்கால": 2187,
      "பிள்ளைகள்": 2188,
      "பலியி": 2189,
      "ோனிய": 2190,
      "ையிலிருந்து": 2191,
      "ங்களுக்கும்": 2192,
      "ராஜாவான": 2193,
      "அழித்து": 2194,
      "நான்க": 2195,
      "ப்போனார்கள்": 2196,
      "கோபம்": 2197,
      "உண்டாகி": 2198,
      "அனுப்பினான்": 2199,
      "வேண்டுமென்று": 2200,
      "அன்றியும்": 2201,
      "ராம": 2202,
      "கொஞ்சம்": 2203,
      "ிடத்திற்கு": 2204,
      "மக்களாகிய": 2205,
      "பின்னே": 2206,
      "தாழ்": 2207,
      "கொடுத்தான்": 2208,
      "நேசி": 2209,
      "தூத": 2210,
      "கொண்டுவர": 2211,
      "வார்த்தைகளை": 2212,
      "முடியாத": 2213,
      "விரோதமாகப்": 2214,
      "வெளிநில": 2215,
      "உண்டாகும்": 2216,
      "பென்யமீன்": 2217,
      "கன்மல": 2218,
      "துதி": 2219,
      "என்மேல்": 2220,
      "விலும்": 2221,
      "வேக": 2222,
      "மாதம்": 2223,
      "ிருக்கிறேன்": 2224,
      "பாரா": 2225,
      "மூடி": 2226,
      "அறிந்துகொள்": 2227,
      "சகோதரர்கள்": 2228,
      "கர்த்தர்": 2229,
      "அவரவர்": 2230,
      "ஜீவனை": 2231,
      "பார்க்கிற": 2232,
      "எலியா": 2233,
      "நம்பிக்க": 2234,
      "கேளுங்கள்": 2235,
      "எச்சரிக்க": 2236,
      "பத்த": 2237,
      "ப்பதற்கு": 2238,
      "போதி": 2239,
      "ாவுக்கு": 2240,
      "த்தைவிட்டு": 2241,
      "வர்களாகவும்": 2242,
      "அறிந்த": 2243,
      "யூதர": 2244,
      "புறப்பட்ட": 2245,
      "உண்டாக்கின": 2246,
      "கிறிஸ்துவின்": 2247,
      "தப்புவி": 2248,
      "சரிய": 2249,
      "தொழுது": 2250,
      "ையிலும்": 2251,
      "சகோதரர்களே": 2252,
      "தெரிவி": 2253,
      "உடன்படிக்கை": 2254,
      "ப்போகும்": 2255,
      "விபசார": 2256,
      "எக்காள": 2257,
      "கரு": 2258,
      "்கீ": 2259,
      "த்தாக்க": 2260,
      "விடை": 2261,
      "களிலும்": 2262,
      "காட்டு": 2263,
      "தியாக": 2264,
      "உன்னைக்": 2265,
      "உண்டாக்கி": 2266,
      "கானான": 2267,
      "அவரிடத்தில்": 2268,
      "நொறு": 2269,
      "ஏற்ற": 2270,
      "தம்ம": 2271,
      "யாவ": 2272,
      "லீ": 2273,
      "நீங்க": 2274,
      "ஒருவர": 2275,
      "வர்களுடைய": 2276,
      "தீங்கு": 2277,
      "அறிந்து": 2278,
      "நியாயத்தீர்": 2279,
      "வீட்டிலே": 2280,
      "நடுவிலே": 2281,
      "பக்த": 2282,
      "பதிலாக": 2283,
      "விக்கிரக": 2284,
      "னைக்": 2285,
      "மழ": 2286,
      "போல்": 2287,
      "ினி": 2288,
      "க்கிறார்": 2289,
      "ாயா": 2290,
      "களைக்": 2291,
      "ப்பட்டவர்கள்": 2292,
      "ிருக்கிறார்": 2293,
      "என்னோடு": 2294,
      "கொடுப்பேன்": 2295,
      "சீயோ": 2296,
      "எல்லாக்": 2297,
      "வாசல்கள": 2298,
      "ப்போனான்": 2299,
      "பிரியமான": 2300,
      "விண்ணப்பம்": 2301,
      "ஆராதனை": 2302,
      "அபிஷேகம்": 2303,
      "நதிய": 2304,
      "லுக்கு": 2305,
      "ப்பொ": 2306,
      "கேட்": 2307,
      "இரக்க": 2308,
      "இருக்கும்போது": 2309,
      "எப்படிய": 2310,
      "ஆகார": 2311,
      "விட்டான்": 2312,
      "கண்டுபிடி": 2313,
      "ஏழாம்": 2314,
      "பள்ளத்தாக்க": 2315,
      "கீழே": 2316,
      "எழும்பி": 2317,
      "ஐம்ப": 2318,
      "சங்க": 2319,
      "தரிய": 2320,
      "ையைச்": 2321,
      "நீள": 2322,
      "ங்குகிற": 2323,
      "கொடிய": 2324,
      "களைச்": 2325,
      "செய்யாமல்": 2326,
      "தூதன்": 2327,
      "விடம்": 2328,
      "பயங்கர": 2329,
      "எல்லோருக்கும்": 2330,
      "வம்சத்தார்": 2331,
      "பணிவிடை": 2332,
      "த்தோட்ட": 2333,
      "வழை": 2334,
      "க்கல": 2335,
      "க்கப்படும்": 2336,
      "ானே": 2337,
      "சென்று": 2338,
      "ினுடைய": 2339,
      "வரவழை": 2340,
      "செய்தார்": 2341,
      "வீன": 2342,
      "ட்ச": 2343,
      "சீக்கிர": 2344,
      "நோக்கிக்": 2345,
      "ற்றுகிற": 2346,
      "தானிய": 2347,
      "அவனுக்குப்": 2348,
      "விலக்கி": 2349,
      "மறுபடியும்": 2350,
      "அல்லது": 2351,
      "கடைசி": 2352,
      "அப்ச": 2353,
      "எலும்பு": 2354,
      "அஸ்த": 2355,
      "ஆச்ச": 2356,
      "நீயும்": 2357,
      "உன்மேல்": 2358,
      "செய்தேன்": 2359,
      "பிரகா": 2360,
      "பிரவேசி": 2361,
      "மையையும்": 2362,
      "வருத்த": 2363,
      "அவர்களுக்குப்": 2364,
      "அவனுக்குக்": 2365,
      "தயவு": 2366,
      "எதிர": 2367,
      "இருக்கும்படி": 2368,
      "நானே": 2369,
      "மாலை": 2370,
      "ஆச்சரிய": 2371,
      "ப்பும்": 2372,
      "வாத": 2373,
      "ள்ளும்": 2374,
      "வனாகிய": 2375,
      "மாகத்": 2376,
      "பிசா": 2377,
      "வருக்கும்": 2378,
      "மனிதனை": 2379,
      "நேபு": 2380,
      "திராட்சைத்தோட்ட": 2381,
      "னுக்கும்": 2382,
      "ய்த": 2383,
      "யெரொ": 2384,
      "காத்து": 2385,
      "செய்வார்": 2386,
      "பரிசுத்தவான": 2387,
      "அனுப்பு": 2388,
      "அவைகளில்": 2389,
      "பலியாக": 2390,
      "மகன்களும்": 2391,
      "நிறைவே": 2392,
      "ச்செய்தார்": 2393,
      "மீதியாக": 2394,
      "ிற்று": 2395,
      "மேன்மை": 2396,
      "மேய்ப்ப": 2397,
      "பந்த": 2398,
      "படு": 2399,
      "யிருந்து": 2400,
      "ார்களே": 2401,
      "ித்த": 2402,
      "ாயிருப்ப": 2403,
      "மேற்க": 2404,
      "சேர்ந்து": 2405,
      "ஸ்நான": 2406,
      "பலத்த": 2407,
      "ப்படுவார்கள்": 2408,
      "இடத்திற்கு": 2409,
      "சிறைய": 2410,
      "வழியிலே": 2411,
      "எண்ணிக்க": 2412,
      "மகளாகிய": 2413,
      "அப்படிச்": 2414,
      "தமான": 2415,
      "ையு": 2416,
      "ைகளுக்கு": 2417,
      "சொல்லுங்கள்": 2418,
      "சீரியா": 2419,
      "வரும்போது": 2420,
      "ஆசாரியர்கள்": 2421,
      "எருசலேமில்": 2422,
      "ப்பார்க்க": 2423,
      "யோசபா": 2424,
      "நண்ப": 2425,
      "பிலே": 2426,
      "ிகள்": 2427,
      "ருகிற": 2428,
      "ப்பையும்": 2429,
      "வினுடைய": 2430,
      "போதக": 2431,
      "ினேன்": 2432,
      "முறு": 2433,
      "புளி": 2434,
      "களைப்": 2435,
      "களுக்கும்": 2436,
      "வனே": 2437,
      "இருப்பான்": 2438,
      "உன்னைப்": 2439,
      "வெளிச்ச": 2440,
      "அடித்து": 2441,
      "ுக்காகவும்": 2442,
      "மொழி": 2443,
      "இப்படிப்பட்ட": 2444,
      "நுழ": 2445,
      "சீடர்கள்": 2446,
      "ஆவியானவர": 2447,
      "புத்தகத்தில்": 2448,
      "ஏற்படு": 2449,
      "உத்தம": 2450,
      "கூட்டிக்கொண்டு": 2451,
      "யெரொபெய": 2452,
      "அசை": 2453,
      "உன": 2454,
      "ஒளி": 2455,
      "ப்பற்றி": 2456,
      "என்றேன்": 2457,
      "ய்ய": 2458,
      "இஸ்ரவேலை": 2459,
      "தாள": 2460,
      "வருக்கு": 2461,
      "பரிசேய": 2462,
      "என்பவன்": 2463,
      "பெற்றெ": 2464,
      "தெரிந்துகொண்ட": 2465,
      "000": 2466,
      "ஆண்": 2467,
      "க்கின்": 2468,
      "க்கிறார்கள்": 2469,
      "சேர்க்க": 2470,
      "சொன்னது": 2471,
      "உங்களுக்குப்": 2472,
      "கலிலே": 2473,
      "க்கொண்டான்": 2474,
      "வீட்டில்": 2475,
      "மகன்களில்": 2476,
      "விடுவி": 2477,
      "அநேகர்": 2478,
      "கேள்விப்பட்ட": 2479,
      "எழுதியிருக்கிற": 2480,
      "தப்ப": 2481,
      "ாக்கி": 2482,
      "ிர்": 2483,
      "ீம்": 2484,
      "துதிய": 2485,
      "ந்துபோகும்": 2486,
      "முற்ற": 2487,
      "களைத்": 2488,
      "ப்போட்ட": 2489,
      "வைத்தான்": 2490,
      "உடைய": 2491,
      "நியாயந்த": 2492,
      "ையின்படியே": 2493,
      "ஆபிரகாம்": 2494,
      "காப்பாற்ற": 2495,
      "ஆட்சி": 2496,
      "இவைகளை": 2497,
      "சியா": 2498,
      "னாலே": 2499,
      "லாம": 2500,
      "ும்பு": 2501,
      "ியாவின்": 2502,
      "க்குவேன்": 2503,
      "வார": 2504,
      "டித்து": 2505,
      "அப்போ": 2506,
      "அந்தச்": 2507,
      "பார்வோ": 2508,
      "அல்லவா": 2509,
      "நெருப்பு": 2510,
      "இல்லாதபடி": 2511,
      "தீர்மான": 2512,
      "இல": 2513,
      "கில": 2514,
      "சார்": 2515,
      "திலே": 2516,
      "மியா": 2517,
      "றைய": 2518,
      "லில்": 2519,
      "ப்பதற்காக": 2520,
      "ாகத்": 2521,
      "வினால்": 2522,
      "சுவர": 2523,
      "கொடுக்கும்": 2524,
      "முடியும்": 2525,
      "அதிகால": 2526,
      "சகோதரன்": 2527,
      "கேட்டார்கள்": 2528,
      "நிறைவேற": 2529,
      "யாக்கோபின்": 2530,
      "ாதபடிக்கு": 2531,
      "முன்பு": 2532,
      "சேக்கல்": 2533,
      "ஆட்டுக்குட்டி": 2534,
      "சத்தமிட்டு": 2535,
      "பஸ": 2536,
      "பரா": 2537,
      "இருபது": 2538,
      "ாரே": 2539,
      "ைகளிலும்": 2540,
      "என்றைக்கும்": 2541,
      "குறித்து": 2542,
      "படியினால்": 2543,
      "க்காகவும்": 2544,
      "முடியா": 2545,
      "தகப்பனுடைய": 2546,
      "ப்பார்த்து": 2547,
      "உறுதி": 2548,
      "நன்ற": 2549,
      "ிக": 2550,
      "ேல்": 2551,
      "்தான்": 2552,
      "்தொட": 2553,
      "க்கப்பட்டு": 2554,
      "ையினால்": 2555,
      "அவமான": 2556,
      "வினிடத்தில்": 2557,
      "முமான": 2558,
      "ரோடு": 2559,
      "தேசங்கள": 2560,
      "இருப்பார்கள்": 2561,
      "விலக": 2562,
      "வழியை": 2563,
      "நினைவு": 2564,
      "வம்சத்தின": 2565,
      "பாபிலோன": 2566,
      "உபத்திர": 2567,
      "பாகால": 2568,
      "ஆபிரகாம": 2569,
      "சிதற": 2570,
      "உரிய": 2571,
      "ணிய": 2572,
      "முந்தின": 2573,
      "மக்களே": 2574,
      "தாழ": 2575,
      "கல்த": 2576,
      "பிள்ளை": 2577,
      "ாமலிருக்க": 2578,
      "அக்கினி": 2579,
      "அக்கினிய": 2580,
      "ாமற்போன": 2581,
      "எப்பிராயீம்": 2582,
      "மனிதகுமாரனே": 2583,
      "இவைகள்": 2584,
      "தவிர": 2585,
      "பொழுது": 2586,
      "படுத்து": 2587,
      "மட": 2588,
      "மத்திய": 2589,
      "ல்கள்": 2590,
      "வற": 2591,
      "ாகச்": 2592,
      "ண்டும்": 2593,
      "ற்றிய": 2594,
      "அப்பம்": 2595,
      "கேரு": 2596,
      "வீர்": 2597,
      "தேவனால்": 2598,
      "பட்டணங்கள": 2599,
      "மெலே": 2600,
      "சகோதரர்கள": 2601,
      "ஆசாரியர்களும்": 2602,
      "இருதயத்தில்": 2603,
      "எகிப்தின்": 2604,
      "மகன்களையும்": 2605,
      "தாயின்": 2606,
      "புறப்பட்டுப்போய்": 2607,
      "கொள்ளை": 2608,
      "பொய்ய": 2609,
      "காத்நே": 2610,
      "சுதந்தர": 2611,
      "நேபுகாத்நே": 2612,
      "தந்திர": 2613,
      "லையும்": 2614,
      "ற்பு": 2615,
      "அவர்களைச்": 2616,
      "சொல்லும்": 2617,
      "மக்களில்": 2618,
      "மக்களுக்கும்": 2619,
      "மில்லாமல்": 2620,
      "அதிபதிய": 2621,
      "சுத்திக": 2622,
      "கலங்க": 2623,
      "ும்படிக்கு": 2624,
      "இப்படியே": 2625,
      "அழித்துப்போ": 2626,
      "அனைவரையும்": 2627,
      "தலைமுறை": 2628,
      "அவளுக்கு": 2629,
      "கீழ்ப்படி": 2630,
      "எழுதப்பட்ட": 2631,
      "இணை": 2632,
      "எசேக்க": 2633,
      "சரி": 2634,
      "ன்றி": 2635,
      "த்தனை": 2636,
      "ப்பாய்": 2637,
      "மாகச்": 2638,
      "மாற": 2639,
      "மாத்திரம்": 2640,
      "சத்தத்தைக்": 2641,
      "இருந்தும்": 2642,
      "ராஜாவிற்கு": 2643,
      "வரும்படி": 2644,
      "பிடித்த": 2645,
      "செலுத்தி": 2646,
      "கொலைசெய்ய": 2647,
      "உட்கார்ந்த": 2648,
      "வாக்குத்த": 2649,
      "பின்தொட": 2650,
      "ஆழ": 2651,
      "கில்": 2652,
      "பஞ்": 2653,
      "திர்": 2654,
      "பாதாள": 2655,
      "அதினுடைய": 2656,
      "விடாமல்": 2657,
      "கைக்கு": 2658,
      "சகோதரனாகிய": 2659,
      "இறக்க": 2660,
      "விசாரிக்க": 2661,
      "பலிபீடத்தின்மேல்": 2662,
      "அடைக்கல": 2663,
      "அலங்க": 2664,
      "த்திலிருக்கிற": 2665,
      "காரண": 2666,
      "கிழக்கு": 2667,
      "எசேக்கியா": 2668,
      "இஸ்": 2669,
      "தகுதிய": 2670,
      "கொஞ்ச": 2671,
      "காத": 2672,
      "செய்வ": 2673,
      "ராஜாக்க": 2674,
      "பிரதி": 2675,
      "தோட்ட": 2676,
      "தீமை": 2677,
      "சொன்னேன்": 2678,
      "நியாயாதி": 2679,
      "அவைகளுக்கு": 2680,
      "ொருவர்": 2681,
      "கொடுத்தார்கள்": 2682,
      "சொல்கிறார்": 2683,
      "ஐம்பது": 2684,
      "அப்போஸ்தல": 2685,
      "கல்தேய": 2686,
      "கேருபீ": 2687,
      "அற்பு": 2688,
      "எமோ": 2689,
      "எவனும்": 2690,
      "ஜன": 2691,
      "வதாக": 2692,
      "ெயா": 2693,
      "ையைத்": 2694,
      "செடி": 2695,
      "பெரி": 2696,
      "செய்தால்": 2697,
      "ல்லாதிரு": 2698,
      "இரத்தம்": 2699,
      "வீட்டு": 2700,
      "தீங்க": 2701,
      "ழித்து": 2702,
      "மனிதனுடைய": 2703,
      "தரையிலே": 2704,
      "உங்களுக்குத்": 2705,
      "ஆகாய": 2706,
      "வதுமில்லை": 2707,
      "சாமுவேல்": 2708,
      "எமோரிய": 2709,
      "கசிய": 2710,
      "மய": 2711,
      "ிபார": 2712,
      "ிலிருந்த": 2713,
      "மேட": 2714,
      "சிவ": 2715,
      "மாற்ற": 2716,
      "வெட்டு": 2717,
      "வீடுகள": 2718,
      "வைக்கப்பட்ட": 2719,
      "நியமி": 2720,
      "வானத்திலிருந்து": 2721,
      "வாசஸ்தல": 2722,
      "க்கொள்ளுங்கள்": 2723,
      "கால்கள": 2724,
      "பலியையும்": 2725,
      "மாயிருக்கிற": 2726,
      "காரியத்தை": 2727,
      "கண்டேன்": 2728,
      "முதலாம்": 2729,
      "நம்மை": 2730,
      "மனாசேய": 2731,
      "மண்டல": 2732,
      "அஸ்திபார": 2733,
      "அழிய": 2734,
      "கர்": 2735,
      "சர்வ": 2736,
      "ீர்களே": 2737,
      "த்தலை": 2738,
      "ப்பதில்லை": 2739,
      "நாற்ப": 2740,
      "உங்களோடு": 2741,
      "க்கிஷ": 2742,
      "தலையின்மேல்": 2743,
      "விட்டுத்": 2744,
      "ாய்ந்து": 2745,
      "முன்பாகவும்": 2746,
      "க்கொள்ளும்": 2747,
      "வருடம்": 2748,
      "எருசலேமுக்கு": 2749,
      "காண்கிற": 2750,
      "முடிவு": 2751,
      "யூதர்கள்": 2752,
      "கல்லற": 2753,
      "வம்சத்தினர்கள்": 2754,
      "ஆளு": 2755,
      "சான": 2756,
      "ண்கள்": 2757,
      "ம்செய்து": 2758,
      "க்கிரம": 2759,
      "துமான": 2760,
      "ச்செய்கிற": 2761,
      "முண்ட": 2762,
      "களி": 2763,
      "ராம்": 2764,
      "இரதங்கள": 2765,
      "தீய": 2766,
      "அவனும்": 2767,
      "பொக்கிஷ": 2768,
      "பயந்த": 2769,
      "னிடத்திற்கு": 2770,
      "எருசலேமிலே": 2771,
      "இதுவே": 2772,
      "அடியான": 2773,
      "ிற்ற": 2774,
      "உபத்திரவ": 2775,
      "அங்க": 2776,
      "அமை": 2777,
      "இன்ற": 2778,
      "இதைச்": 2779,
      "கல்": 2780,
      "சரிக்க": 2781,
      "பழி": 2782,
      "மார்": 2783,
      "வருடைய": 2784,
      "த்தாலும்": 2785,
      "இருப": 2786,
      "ச்சு": 2787,
      "முத": 2788,
      "புதிய": 2789,
      "ஒருவர்": 2790,
      "சேலா": 2791,
      "குள": 2792,
      "சொல்லவேண்டியது": 2793,
      "காட்ட": 2794,
      "இரகசிய": 2795,
      "பலன்": 2796,
      "ைச்ச": 2797,
      "கிள": 2798,
      "படியெல்லாம்": 2799,
      "உனக்குத்": 2800,
      "வைகளையும்": 2801,
      "எகிப்திலிருந்து": 2802,
      "ப்படும்போது": 2803,
      "அவரைத்": 2804,
      "பார்வோன்": 2805,
      "்கொண்டு": 2806,
      "மரித்தோ": 2807,
      "விருத்தசேதனம்": 2808,
      "எவ்வளவு": 2809,
      "சிறையிருப்ப": 2810,
      "இந்": 2811,
      "ஓர": 2812,
      "தண்டி": 2813,
      "பியா": 2814,
      "வுடனே": 2815,
      "செல்ல": 2816,
      "மக்களுடைய": 2817,
      "மூத்த": 2818,
      "ராஜாவை": 2819,
      "ற்கால": 2820,
      "இடது": 2821,
      "ச்சல": 2822,
      "முன்பாகத்": 2823,
      "தானியே": 2824,
      "பட்டணத்திற்கு": 2825,
      "கர்த்தருடைய": 2826,
      "அறியாத": 2827,
      "ஞானஸ்நான": 2828,
      "விழுந்த": 2829,
      "மிருகஜீவன": 2830,
      "நேபுகாத்நேச்ச": 2831,
      "ஆள": 2832,
      "இல்ல": 2833,
      "சண": 2834,
      "ாத்து": 2835,
      "க்காமலும்": 2836,
      "ையதின": 2837,
      "அவனிடத்தில்": 2838,
      "தில்லைய": 2839,
      "ைகளைத்": 2840,
      "செய்தி": 2841,
      "மகத்துவ": 2842,
      "வைத்தார்கள்": 2843,
      "தோன்ற": 2844,
      "மோன்": 2845,
      "கொண்டுபோக": 2846,
      "கொண்டுவந்தார்கள்": 2847,
      "அவனுக்குச்": 2848,
      "மென்": 2849,
      "முகத்தை": 2850,
      "காலத்தில்": 2851,
      "மாட்டார்கள்": 2852,
      "அவருக்குப்": 2853,
      "காண்ப": 2854,
      "பவுல்": 2855,
      "எரேமியா": 2856,
      "நியாயத்தீர்ப்பு": 2857,
      "அர்த்த": 2858,
      "நட்": 2859,
      "மைகள": 2860,
      "்க்கு": 2861,
      "ப்படிய": 2862,
      "விரி": 2863,
      "விசே": 2864,
      "விர்த்த": 2865,
      "திரி": 2866,
      "ாரும்": 2867,
      "ப்படாமல்": 2868,
      "தென்ன": 2869,
      "பூமியின்மேல்": 2870,
      "உன்னைத்": 2871,
      "சிலுவ": 2872,
      "ையின்படி": 2873,
      "விடுதல": 2874,
      "ஆயிரம்": 2875,
      "விளங்க": 2876,
      "வனாந்திரத்தில்": 2877,
      "நிலைத்த": 2878,
      "ராஜாக்களின்": 2879,
      "தண்டனை": 2880,
      "அக்காலத்திலே": 2881,
      "முடியாது": 2882,
      "தாழ்த்த": 2883,
      "விசேஷ": 2884,
      "இடு": 2885,
      "எவனோ": 2886,
      "கைகளில்": 2887,
      "சும்": 2888,
      "ுமே": 2889,
      "ுமுள்ள": 2890,
      "விடுகிற": 2891,
      "உங்களைப்": 2892,
      "ராஜாவும்": 2893,
      "த்தினான்": 2894,
      "மீண்டும்": 2895,
      "சகோதரிய": 2896,
      "வார்த்தைகளைக்": 2897,
      "இருப்பேன்": 2898,
      "போலவும்": 2899,
      "அல்லவோ": 2900,
      "அரசா": 2901,
      "சவுலின்": 2902,
      "அரண்மனை": 2903,
      "ஆட்டுக்குட்டிய": 2904,
      "ுமிருந்து": 2905,
      "யூதரல்லாத": 2906,
      "கானானிய": 2907,
      "பிசாசு": 2908,
      "பராக்கிரம": 2909,
      "ஆமென்": 2910,
      "கண்": 2911,
      "கைகளை": 2912,
      "அவரே": 2913,
      "வார்களாக": 2914,
      "தில்": 2915,
      "போய": 2916,
      "கிறது": 2917,
      "ைகளின்மேல்": 2918,
      "றித்தும்": 2919,
      "இந்தத்": 2920,
      "எழுது": 2921,
      "ரேய": 2922,
      "பூமியில்": 2923,
      "பூமியிலே": 2924,
      "ப்படுகிறது": 2925,
      "சாப்பிடுகிற": 2926,
      "கண்களை": 2927,
      "விசாரித்து": 2928,
      "நின்றார்கள்": 2929,
      "சூரியன்": 2930,
      "பிரசங்கி": 2931,
      "இளைப்பா": 2932,
      "ப்பாயாக": 2933,
      "அன்ப": 2934,
      "அசீரியா": 2935,
      "உத்திர": 2936,
      "பன": 2937,
      "படுக்க": 2938,
      "ொண்டு": 2939,
      "ாகும்": 2940,
      "ின்படி": 2941,
      "க்குச்": 2942,
      "உங்களுக்காக": 2943,
      "வர்களாகிய": 2944,
      "தியிலே": 2945,
      "பிரமாண": 2946,
      "கிண": 2947,
      "வந்தேன்": 2948,
      "சியாவின்": 2949,
      "திரும்பு": 2950,
      "அனைத்தையும்": 2951,
      "வருகிறது": 2952,
      "கொடுக்கவேண்டும்": 2953,
      "எலெயா": 2954,
      "வேதனை": 2955,
      "முழுவதையும்": 2956,
      "வெள்ளாட்டுக்கட": 2957,
      "ஈசாக்கு": 2958,
      "நட்சத்த": 2959,
      "எடு": 2960,
      "எபிர": 2961,
      "மல்ல": 2962,
      "ிலெல்லாம்": 2963,
      "றுதல": 2964,
      "ாயிருக்கிற": 2965,
      "சேர்": 2966,
      "மானால்": 2967,
      "சாப": 2968,
      "நிர்வா": 2969,
      "முன்பாகக்": 2970,
      "க்கொள்ளு": 2971,
      "உங்கள்மேல்": 2972,
      "அவரைக்": 2973,
      "நாள்வரைக்கும்": 2974,
      "கொள்ளையி": 2975,
      "பேசின": 2976,
      "நன்மைய": 2977,
      "வல்லமையுள்ள": 2978,
      "வனாந்திரத்திலே": 2979,
      "விசுவாசம்": 2980,
      "செல்வ": 2981,
      "துரோகம்": 2982,
      "எச்சரிக்கையாக": 2983,
      "அபிய": 2984,
      "ஒடு": 2985,
      "ஒழு": 2986,
      "ஒலி": 2987,
      "கால்": 2988,
      "சக": 2989,
      "பை": 2990,
      "றிய": 2991,
      "ட்டேன்": 2992,
      "திச": 2993,
      "கிறேன்": 2994,
      "கேதுரு": 2995,
      "தியான": 2996,
      "சத்தையும்": 2997,
      "செய்யவும்": 2998,
      "பிரயா": 2999,
      "வருவார்கள்": 3000,
      "என்னைச்": 3001,
      "வார்த்தையை": 3002,
      "ஆரோன்": 3003,
      "குற்றம்": 3004,
      "வல்லமைய": 3005,
      "நம்பிக்கை": 3006,
      "போர்வீர": 3007,
      "யோர்தான்": 3008,
      "கற்பித்த": 3009,
      "எஸ்": 3010,
      "வதை": 3011,
      "ாட": 3012,
      "்ப": 3013,
      "ர்களைப்": 3014,
      "ங்களைத்": 3015,
      "முப்பது": 3016,
      "ங்கால": 3017,
      "பெற": 3018,
      "சிம்": 3019,
      "குருட": 3020,
      "பலவீன": 3021,
      "மிகுதிய": 3022,
      "த்திற்குச்": 3023,
      "தைரிய": 3024,
      "தூண்கள": 3025,
      "விடும்": 3026,
      "பட்டணங்கள்": 3027,
      "ிருப்பார்கள்": 3028,
      "இரத்தப்ப": 3029,
      "ஆசீர்வா": 3030,
      "பக்கத்தில்": 3031,
      "பெலிஸ்தர்கள்": 3032,
      "ஆவியானவர்": 3033,
      "அருவருப்பு": 3034,
      "வேசித்தன": 3035,
      "சம்பவி": 3036,
      "குதிரை": 3037,
      "செம்மையான": 3038,
      "அகி": 3039,
      "இவன": 3040,
      "எங்கும்": 3041,
      "ஒட்ட": 3042,
      "நறு": 3043,
      "னோடு": 3044,
      "மண்ண": 3045,
      "க்கோ": 3046,
      "பெத்தே": 3047,
      "அதற்க": 3048,
      "ப்போடு": 3049,
      "வர்களில்": 3050,
      "த்தின்படியே": 3051,
      "தீட்ட": 3052,
      "மகனே": 3053,
      "இந்தச்": 3054,
      "மீட்டு": 3055,
      "அனைத்தும்": 3056,
      "கர்த்தருக்கு": 3057,
      "ப்போனது": 3058,
      "ஒப்புவி": 3059,
      "கேடக": 3060,
      "ஏறெடுத்து": 3061,
      "சமுகத்தில்": 3062,
      "ராஜாக்கள்": 3063,
      "எஸ்த": 3064,
      "னில்": 3065,
      "ோறும்": 3066,
      "்தன்": 3067,
      "ப்பீ": 3068,
      "ந்தி": 3069,
      "வாள்": 3070,
      "திசை": 3071,
      "வர்க்க": 3072,
      "ப்படாத": 3073,
      "தைல": 3074,
      "இஸ்ரவேலின்மேல்": 3075,
      "உயிர்": 3076,
      "முன்பாகப்": 3077,
      "அழிக்க": 3078,
      "மாயிருக்கும்": 3079,
      "தன்தன்": 3080,
      "நேரத்தில்": 3081,
      "வரச்செய்து": 3082,
      "ஆலோசன": 3083,
      "பள்ளத்தா": 3084,
      "பாதுகாப்பான": 3085,
      "முகாமிட்டார்கள்": 3086,
      "வெளிநிலங்களையும்": 3087,
      "்கீழ்": 3088,
      "ையதினம்": 3089,
      "அர்": 3090,
      "வாரி": 3091,
      "ாரின்": 3092,
      "தேடி": 3093,
      "சுர": 3094,
      "ஒருவனை": 3095,
      "சேர": 3096,
      "த்தைக்குறித்து": 3097,
      "இரவிலே": 3098,
      "ிடத்திலும்": 3099,
      "இஸ்ரவேலில்": 3100,
      "அவனைச்": 3101,
      "தினாலும்": 3102,
      "மனம்": 3103,
      "உனக்குப்": 3104,
      "வைகளும்": 3105,
      "இருதயத்தை": 3106,
      "கோத்திரத்தா": 3107,
      "ஊழியம்": 3108,
      "சொந்தமாக்கி": 3109,
      "அதிகாரி": 3110,
      "உடன்படிக்கையை": 3111,
      "வில்லையா": 3112,
      "ப்பொருட": 3113,
      "அம்பு": 3114,
      "கன்னி": 3115,
      "சய": 3116,
      "சமுத்திர": 3117,
      "தனி": 3118,
      "ீர்க்க": 3119,
      "ெங்கும்": 3120,
      "க்கென்று": 3121,
      "ர்களிலும்": 3122,
      "வாராக": 3123,
      "நீட்டி": 3124,
      "கொம்பு": 3125,
      "ராள": 3126,
      "ப்போட்டு": 3127,
      "காற்ற": 3128,
      "எல்லாவித": 3129,
      "வானாக": 3130,
      "அதற்குப்": 3131,
      "பரிசுத்தமான": 3132,
      "இயேசுவை": 3133,
      "பட்டணத்தின்": 3134,
      "அழிந்து": 3135,
      "செய்கிறவன்": 3136,
      "எருசலேம்": 3137,
      "பலிகளையும்": 3138,
      "கெர்": 3139,
      "சந்ததியான": 3140,
      "வேலைக்காரர்கள்": 3141,
      "மகள்கள": 3142,
      "சமாதானம்": 3143,
      "விளக்கு": 3144,
      "வேதபண்டி": 3145,
      "கீழ்ப்படிய": 3146,
      "அருவருப்பான": 3147,
      "பிரபுக்களும்": 3148,
      "எரேமிய": 3149,
      "மித்தமும்": 3150,
      "ஆற்ற": 3151,
      "கச": 3152,
      "சிர": 3153,
      "பவி": 3154,
      "வச": 3155,
      "த்தவிர": 3156,
      "செயல்": 3157,
      "த்துகிற": 3158,
      "க்கிறான்": 3159,
      "களால்": 3160,
      "சித்த": 3161,
      "சொல்லச்": 3162,
      "த்திற்குரிய": 3163,
      "அதிசய": 3164,
      "சீட்டு": 3165,
      "தேசத்து": 3166,
      "சொன்னபடியே": 3167,
      "உயிரு": 3168,
      "பெயரை": 3169,
      "அவைகளைக்": 3170,
      "கேட்டார்": 3171,
      "கேட்டபோது": 3172,
      "விரோதமாகக்": 3173,
      "உம்மிடத்தில்": 3174,
      "முடிந்த": 3175,
      "மக்களுக்குள்ளே": 3176,
      "முறிய": 3177,
      "விரும்ப": 3178,
      "பாவநிவிர்த்த": 3179,
      "வயதுள்ள": 3180,
      "மடைந்து": 3181,
      "சீக்கிரமாக": 3182,
      "நட்சத்திர": 3183,
      "அறை": 3184,
      "எறி": 3185,
      "தொழு": 3186,
      "நம்பு": 3187,
      "னியா": 3188,
      "மரிய": 3189,
      "மழை": 3190,
      "ியது": 3191,
      "ந்தார்": 3192,
      "வாக்கிய": 3193,
      "ானோ": 3194,
      "ாவதாக": 3195,
      "க்கிறவர்கள்": 3196,
      "ஒருபோதும்": 3197,
      "உங்களைக்": 3198,
      "யோவான்": 3199,
      "ப்படவில்லை": 3200,
      "நோய": 3201,
      "இஸ்ரவேலுக்கு": 3202,
      "நிழ": 3203,
      "எழுதி": 3204,
      "வானத்தின்": 3205,
      "பயண": 3206,
      "மாட்டார்": 3207,
      "எனக்கும்": 3208,
      "நினைத்த": 3209,
      "உயிரின": 3210,
      "சூழ்": 3211,
      "க்கூடிய": 3212,
      "உன்னதமான": 3213,
      "நாமம்": 3214,
      "ஆரோனின்": 3215,
      "நன்றி": 3216,
      "பலிபீடத்தின்": 3217,
      "வரச்செய்வேன்": 3218,
      "மோவாபின்": 3219,
      "மனாசே": 3220,
      "சுட்டெரி": 3221,
      "மாம்ச": 3222,
      "ஞானஸ்நானம்": 3223,
      "சாவ": 3224,
      "நாக": 3225,
      "பர்": 3226,
      "வைப்": 3227,
      "ெழு": 3228,
      "ிலுமிருந்து": 3229,
      "செழி": 3230,
      "போங்கள்": 3231,
      "முன": 3232,
      "பேருக்கு": 3233,
      "ப்படுவான்": 3234,
      "மனிதர்களும்": 3235,
      "மனிதனுக்கு": 3236,
      "பார்த்தேன்": 3237,
      "எதிரே": 3238,
      "விரோதமாகத்": 3239,
      "உம்மைத்": 3240,
      "அடிமை": 3241,
      "யெகோவாவுக்குச்": 3242,
      "அநேகம்": 3243,
      "கோத்திரத்தில்": 3244,
      "திராட்ச": 3245,
      "நல்லது": 3246,
      "பிரபுக்கள்": 3247,
      "அப்படிப்பட்ட": 3248,
      "நீதிமான்கள": 3249,
      "சர்வாங்கதகனபலிய": 3250,
      "நிரந்தர": 3251,
      "மண்டப": 3252,
      "ினிமித்தம்": 3253,
      "துதியுங்கள்": 3254,
      "நறுமண": 3255,
      "எட்ட": 3256,
      "ஏல": 3257,
      "சம்ம": 3258,
      "வுக்கு": 3259,
      "ீட": 3260,
      "ீன": 3261,
      "த்துடன்": 3262,
      "ப்பாள": 3263,
      "அவமதி": 3264,
      "விடிய": 3265,
      "செடிய": 3266,
      "பெண்கள்": 3267,
      "அவர்களும்": 3268,
      "ப்போட": 3269,
      "மாறு": 3270,
      "ிற்குப்": 3271,
      "கட்டினான்": 3272,
      "படியாக": 3273,
      "இடத்தை": 3274,
      "எழுதின": 3275,
      "கட்டளை": 3276,
      "தாவீதை": 3277,
      "திருப்பி": 3278,
      "போகும்போது": 3279,
      "கேட்டேன்": 3280,
      "ஆலயத்தைக்": 3281,
      "பிடித்துக்கொண்டு": 3282,
      "திறந்து": 3283,
      "கூப்பிடுகிற": 3284,
      "உருவ": 3285,
      "யோனத்தான": 3286,
      "வழக்கா": 3287,
      "த்திற்காக": 3288,
      "அசுத்தமான": 3289,
      "நியாயாதிபதி": 3290,
      "ஒட்டக": 3291,
      "அநியாய": 3292,
      "அத்தி": 3293,
      "அசீரிய": 3294,
      "ஆள்": 3295,
      "ஆசா": 3296,
      "இவனை": 3297,
      "ஐந்த": 3298,
      "காய்": 3299,
      "தள": 3300,
      "க்கவில்லை": 3301,
      "வால்": 3302,
      "முதற்க": 3303,
      "வனான": 3304,
      "வனையும்": 3305,
      "அவர்களிடத்தில்": 3306,
      "பிடு": 3307,
      "இரவும்": 3308,
      "இருந்தாலும்": 3309,
      "கிபிய": 3310,
      "தூக்கி": 3311,
      "வாசன": 3312,
      "ிருப்பான்": 3313,
      "கண்டபோது": 3314,
      "கெம்ப": 3315,
      "உன்னோடு": 3316,
      "பிலி": 3317,
      "க்கேட்டு": 3318,
      "சவுல": 3319,
      "ஆரோனும்": 3320,
      "முதலில்": 3321,
      "அணிந்த": 3322,
      "கிறிஸ்துவிற்கு": 3323,
      "எஜமான்": 3324,
      "யோவாப்": 3325,
      "அம்மோன்": 3326,
      "இவ்விதமாக": 3327,
      "கதவு": 3328,
      "சமாரியா": 3329,
      "திருப்திய": 3330,
      "அப்சலோ": 3331,
      "ஒலிவ": 3332,
      "தங்கு": 3333,
      "லெ": 3334,
      "ொன்ற": 3335,
      "ட்டது": 3336,
      "ங்களே": 3337,
      "என்னிடம்": 3338,
      "திருட": 3339,
      "செய்வதற்கு": 3340,
      "இருக்கிறோம்": 3341,
      "சீகே": 3342,
      "ளித்து": 3343,
      "இப்பொழுதும்": 3344,
      "வார்த்தையைக்": 3345,
      "ஆகிலும்": 3346,
      "வயதான": 3347,
      "உண்மைய": 3348,
      "நகரம்": 3349,
      "நீதியுள்ள": 3350,
      "ம்பண்ணி": 3351,
      "அபிமெலே": 3352,
      "பொன்னையும்": 3353,
      "வியாபார": 3354,
      "அழுது": 3355,
      "செல்வந்த": 3356,
      "பழுது": 3357,
      "கேருபீன": 3358,
      "எப்": 3359,
      "சக்க": 3360,
      "பங்கி": 3361,
      "ீர்கள": 3362,
      "ோர்": 3363,
      "க்கச்": 3364,
      "அவரோடு": 3365,
      "ங்களிலே": 3366,
      "ைகொ": 3367,
      "நீல": 3368,
      "டித்த": 3369,
      "பெறு": 3370,
      "பலனை": 3371,
      "ிருந்தார்": 3372,
      "கொடுங்கள்": 3373,
      "பரிசுத்தம்": 3374,
      "பயணம்": 3375,
      "ிருக்கும்படி": 3376,
      "குடியிருந்த": 3377,
      "வெளியிலே": 3378,
      "நூற்று": 3379,
      "சந்ததியில்": 3380,
      "ரிடத்தில்": 3381,
      "எரிகோ": 3382,
      "சத்தியம்": 3383,
      "தீட்டுப்பட்ட": 3384,
      "உட்கார்ந்து": 3385,
      "முடியாமல்": 3386,
      "லீபன": 3387,
      "கேட்ப": 3388,
      "பெற்றெடு": 3389,
      "வாக்குத்தத்த": 3390,
      "சிவப்பு": 3391,
      "மனாசேயின்": 3392,
      "பள்ளத்தாக்கு": 3393,
      "வேதபண்டித": 3394,
      "அன": 3395,
      "ஊற்ற": 3396,
      "ஊற்றி": 3397,
      "ஒப்பாக": 3398,
      "நாய": 3399,
      "னுக்குக்": 3400,
      "மது": 3401,
      "யாவையும்": 3402,
      "ார்கள": 3403,
      "ையாகிய": 3404,
      "ப்பூ": 3405,
      "வேதன": 3406,
      "முறி": 3407,
      "கொன்ற": 3408,
      "புய": 3409,
      "ாயே": 3410,
      "களாக": 3411,
      "சிதே": 3412,
      "சிமிய": 3413,
      "வெகு": 3414,
      "யெகோவாவாகிய": 3415,
      "என்னப்பட்ட": 3416,
      "கைக்கொள்ள": 3417,
      "நாளாக": 3418,
      "எதிர்த்து": 3419,
      "கடல்": 3420,
      "அங்கேயிருந்து": 3421,
      "முள்ளது": 3422,
      "வருடத்தில்": 3423,
      "இருக்கட்டும்": 3424,
      "ஆகிய": 3425,
      "வெள்ளியையும்": 3426,
      "உயிரை": 3427,
      "வயல்": 3428,
      "கொடுத்தார்": 3429,
      "அனுப்பினார்": 3430,
      "ஒப்புக்கொடுத்தார்": 3431,
      "நிறுத்தி": 3432,
      "ஆடுமாடு": 3433,
      "வியாதி": 3434,
      "அப்னே": 3435,
      "பின்பற்ற": 3436,
      "சபிக்கப்பட்ட": 3437,
      "உறவு": 3438,
      "நூலாலும்": 3439,
      "பரிசுத்தவான்கள": 3440,
      "பிலேய": 3441,
      "புளிப்பி": 3442,
      "நிர்வாண": 3443,
      "பாவநிவிர்த்தி": 3444,
      "தைத்": 3445,
      "லூ": 3446,
      "லிலே": 3447,
      "ிறு": 3448,
      "அவ்": 3449,
      "முற்றிலும்": 3450,
      "அவர்களுடன்": 3451,
      "மகள்": 3452,
      "வர்களுமாக": 3453,
      "வுள்ள": 3454,
      "தெற்க": 3455,
      "கையிலும்": 3456,
      "ராஜாவுக்கு": 3457,
      "தங்களையும்": 3458,
      "பட்டணம்": 3459,
      "அனைவருக்கும்": 3460,
      "தகப்பன": 3461,
      "தமஸ": 3462,
      "விழுந்தது": 3463,
      "சோர்ந்து": 3464,
      "நாமத்தை": 3465,
      "பெலிஸ்தர்களின்": 3466,
      "வாசலில்": 3467,
      "ஊரைச்": 3468,
      "ஆசரிப்புக்கூடாரத்தின்": 3469,
      "ராஜாவானான்": 3470,
      "நாற்பது": 3471,
      "அய": 3472,
      "ஒழி": 3473,
      "கைகள்": 3474,
      "பற்றி": 3475,
      "மரு": 3476,
      "க்காத": 3477,
      "ியிருக்கிற": 3478,
      "ர்களைக்": 3479,
      "முளை": 3480,
      "க்கிறதற்கு": 3481,
      "ைகளைச்": 3482,
      "வரைத்": 3483,
      "என்றால்": 3484,
      "செய்தது": 3485,
      "குழிய": 3486,
      "காட்டி": 3487,
      "வீதி": 3488,
      "கூர்": 3489,
      "அதினாலே": 3490,
      "இடற": 3491,
      "தேசத்தைச்": 3492,
      "சாலி": 3493,
      "க்குறித்துச்": 3494,
      "மொர்த": 3495,
      "நாள்வரை": 3496,
      "மனிதர்களுடைய": 3497,
      "நெருக்க": 3498,
      "வேறே": 3499,
      "நாமத்தினாலே": 3500,
      "நகரத்தில்": 3501,
      "உதடு": 3502,
      "கிரே": 3503,
      "்கொண்ட": 3504,
      "மரித்த": 3505,
      "அம்மோனிய": 3506,
      "்கூட": 3507,
      "ஸ்தோத்திர": 3508,
      "நான்காம்": 3509,
      "எப்படியென்றால்": 3510,
      "மேன்மைபாரா": 3511,
      "தமஸ்கு": 3512,
      "மொர்தெ": 3513,
      "அன்பாக": 3514,
      "ஆட்டு": 3515,
      "உதி": 3516,
      "உரை": 3517,
      "ஓட": 3518,
      "தர்": 3519,
      "ன்த": 3520,
      "லான": 3521,
      "வலை": 3522,
      "்க்": 3523,
      "ையினாலே": 3524,
      "வாளி": 3525,
      "விழி": 3526,
      "டுவார்கள்": 3527,
      "ானவர்": 3528,
      "நீக்கி": 3529,
      "ைகளைப்": 3530,
      "ாயி": 3531,
      "அதன்": 3532,
      "ஒருவரு": 3533,
      "சேரும்": 3534,
      "பாவி": 3535,
      "மக்களைப்": 3536,
      "தோல்": 3537,
      "அவனுடன்": 3538,
      "கொண்டுவந்த": 3539,
      "விடத்தில்": 3540,
      "மீட்க": 3541,
      "க்காரன்": 3542,
      "பாவங்கள": 3543,
      "அவைகளைப்": 3544,
      "இறைச்": 3545,
      "நடுவிலிருந்து": 3546,
      "ைப்போலவும்": 3547,
      "ஆத்துமாவை": 3548,
      "செலுத்துகிற": 3549,
      "கிடைத்த": 3550,
      "பிரகாசி": 3551,
      "கனி": 3552,
      "தல்ல": 3553,
      "மாய்": 3554,
      "மரித்து": 3555,
      "வதும்": 3556,
      "ாத்": 3557,
      "ப்பழ": 3558,
      "ாகிலும்": 3559,
      "துணி": 3560,
      "ட்டம்": 3561,
      "க்குறைய": 3562,
      "விஷ": 3563,
      "முற்று": 3564,
      "மேற்": 3565,
      "பெட்டி": 3566,
      "மாணம்": 3567,
      "உங்களைத்": 3568,
      "சாந்த": 3569,
      "மிதி": 3570,
      "தேவனும்": 3571,
      "தேவனுக்குப்": 3572,
      "கையின்": 3573,
      "அறிவேன்": 3574,
      "நிற்ப": 3575,
      "அவர்களுக்குத்": 3576,
      "அதிகாரிய": 3577,
      "நானோ": 3578,
      "உன்னைச்": 3579,
      "பலியிட": 3580,
      "எடுத்துக்கொள்ள": 3581,
      "மாயிருப்ப": 3582,
      "விட்டார்": 3583,
      "காரியங்களை": 3584,
      "உன்னுடன்": 3585,
      "மனிதர்களை": 3586,
      "திரும்பவும்": 3587,
      "ஆயத்தம்": 3588,
      "ஏழுநாட்கள்": 3589,
      "கட்டளையிட்டார்": 3590,
      "கட்டளையிட்டபடியே": 3591,
      "லேவியர்கள்": 3592,
      "திறந்த": 3593,
      "பகலும்": 3594,
      "அதிகாரம்": 3595,
      "மனைவியாகிய": 3596,
      "ஏறக்குறைய": 3597,
      "பேரில்": 3598,
      "வழக்க": 3599,
      "தண்டன": 3600,
      "முன்னோர்களின்": 3601,
      "சபையார்": 3602,
      "ஜீவனைக்கொண்டு": 3603,
      "முதற்": 3604,
      "நேபுகாத்நேச்சார்": 3605,
      "திராட்சைச்": 3606,
      "ஆடுகள": 3607,
      "ஆபத்து": 3608,
      "ஏரோ": 3609,
      "தரு": 3610,
      "தாய்": 3611,
      "மண்": 3612,
      "விற": 3613,
      "வதுபோல": 3614,
      "ம்வரை": 3615,
      "ருள்ள": 3616,
      "ட்டார்": 3617,
      "ிலாவது": 3618,
      "போவார்கள்": 3619,
      "டைந்து": 3620,
      "தேசங்களுக்கு": 3621,
      "நடக்கும்": 3622,
      "தூதன": 3623,
      "போனார்": 3624,
      "கலகம்": 3625,
      "இயேசுகிறிஸ்துவின்": 3626,
      "எதிரிய": 3627,
      "விலுள்ள": 3628,
      "அருள": 3629,
      "ஆலயத்தில்": 3630,
      "நாட்களுக்கு": 3631,
      "நாட்களிலே": 3632,
      "பெருமை": 3633,
      "பிரியமாக": 3634,
      "மோசேயின்": 3635,
      "எதிரிகள்": 3636,
      "யோசேப்பின்": 3637,
      "பார்வோன": 3638,
      "வடக்கே": 3639,
      "இஸ்ம": 3640,
      "அம்": 3641,
      "அடுத்த": 3642,
      "ஆண்கள": 3643,
      "ஆர்ப்ப": 3644,
      "உவ": 3645,
      "ஏது": 3646,
      "கழ": 3647,
      "கற்று": 3648,
      "திலும்": 3649,
      "நப்த": 3650,
      "பும்": 3651,
      "பட்டு": 3652,
      "ள்கிற": 3653,
      "வஞ்ச": 3654,
      "ில்லாத": 3655,
      "த்தூ": 3656,
      "ையாய": 3657,
      "க்குரிய": 3658,
      "வித்து": 3659,
      "போர": 3660,
      "பென": 3661,
      "பிசை": 3662,
      "சித்து": 3663,
      "பாருங்கள்": 3664,
      "மக்களெல்லோரும்": 3665,
      "செய்யவேண்டிய": 3666,
      "தீரு": 3667,
      "கையிலிருந்து": 3668,
      "அதற்குச்": 3669,
      "கைக்கொண்டு": 3670,
      "தாகவும்": 3671,
      "முகங்கு": 3672,
      "க்கொண்டிருக்கிற": 3673,
      "வருடத்திலே": 3674,
      "வழியில்": 3675,
      "எனக்காக": 3676,
      "குடியே": 3677,
      "கொடுத்தேன்": 3678,
      "சாப்பிட்ட": 3679,
      "ஆவியை": 3680,
      "மகள்களையும்": 3681,
      "எல்லாவற்றிலும்": 3682,
      "பட்டயத்தால்": 3683,
      "கூப்பிட்டு": 3684,
      "கிழக்கே": 3685,
      "அமர்ந்த": 3686,
      "நுழைந்து": 3687,
      "நிச்சயமாக": 3688,
      "இன": 3689,
      "ஊற்று": 3690,
      "தங்கும்": 3691,
      "பச்ச": 3692,
      "ப்பில்": 3693,
      "ப்பீர்கள்": 3694,
      "க்குர": 3695,
      "ங்களையெல்லாம்": 3696,
      "ாவைப்": 3697,
      "முக்கும்": 3698,
      "யெகூ": 3699,
      "களாகிய": 3700,
      "இரத": 3701,
      "சாதோ": 3702,
      "கூக்குர": 3703,
      "தாண்": 3704,
      "சீயோன": 3705,
      "மூடு": 3706,
      "உங்களுக்குள்ளே": 3707,
      "கட்டளைகளையும்": 3708,
      "தலைமுற": 3709,
      "பிள்ளைகளும்": 3710,
      "வம்சத்தார": 3711,
      "பட்டயம்": 3712,
      "எலிய": 3713,
      "நமது": 3714,
      "இவைகளே": 3715,
      "வசனம்": 3716,
      "ையாட": 3717,
      "வம்சங்களின்": 3718,
      "மோவாபிய": 3719,
      "கானான்": 3720,
      "வாழ்த்த": 3721,
      "பின்பற்றி": 3722,
      "திராட்சைரசம்": 3723,
      "நீங்களோ": 3724,
      "இப்படியிருக்க": 3725,
      "வரவழைத்து": 3726,
      "சுவரிய": 3727,
      "எப்ரோ": 3728,
      "இதற்கு": 3729,
      "ஏசாய": 3730,
      "ஏராள": 3731,
      "ஐசுவரிய": 3732,
      "கின்": 3733,
      "சாவின்": 3734,
      "தால": 3735,
      "க்கின": 3736,
      "ப்புக்கு": 3737,
      "ர்களான": 3738,
      "க்குறித்தும்": 3739,
      "விரை": 3740,
      "இருவரும்": 3741,
      "கோல": 3742,
      "கோது": 3743,
      "கோட்ட": 3744,
      "ிரும்": 3745,
      "சுதந்திர": 3746,
      "ாமே": 3747,
      "களே": 3748,
      "வனுமாக": 3749,
      "ப்பட்டான்": 3750,
      "இருந்தன": 3751,
      "இருந்தேன்": 3752,
      "பிரா": 3753,
      "தோறும்": 3754,
      "நோவா": 3755,
      "மனிதகுமாரன்": 3756,
      "இஸ்ரவேலிலே": 3757,
      "என்னைவிட்டு": 3758,
      "செய்துகொண்ட": 3759,
      "வான்கள்": 3760,
      "பயப்படுகிற": 3761,
      "இயேசுவின்": 3762,
      "மெங்கும்": 3763,
      "கடலின்": 3764,
      "மோசேக்குக்": 3765,
      "இருதயத்தோடும்": 3766,
      "ஆலயத்திலே": 3767,
      "வெள்ளிய": 3768,
      "ல்களை": 3769,
      "அழைக்கப்பட்ட": 3770,
      "மகன்களின்": 3771,
      "தமக்கு": 3772,
      "விடுதலை": 3773,
      "பிறகு": 3774,
      "காவல்": 3775,
      "முகாமிற்கு": 3776,
      "ஆறுதல்": 3777,
      "வாசலுக்கு": 3778,
      "வெறுத்து": 3779,
      "ஆடுகளை": 3780,
      "யோனத்தான்": 3781,
      "வியாதிய": 3782,
      "கவனித்து": 3783,
      "வயதுடைய": 3784,
      "பொல்லாப்பு": 3785,
      "அசட்டை": 3786,
      "சிங்காசனத்தின்மேல்": 3787,
      "வணங்க": 3788,
      "ுக்கெல்லாம்": 3789,
      "பிதாவாகிய": 3790,
      "மூலமாக": 3791,
      "ஆட்டுக்கடாக்கள": 3792,
      "ஆணையிட்டு": 3793,
      "தொழுதுகொள்ள": 3794,
      "சணல்": 3795,
      "சிலுவையில்": 3796,
      "விடியற்கால": 3797,
      "முதற்கொண்டு": 3798,
      "ஒளிய": 3799,
      "கட்டுகிற": 3800,
      "தகுந்த": 3801,
      "ம்த": 3802,
      "மிட": 3803,
      "்கால": 3804,
      "விலை": 3805,
      "முதிர்": 3806,
      "ங்கா": 3807,
      "ாயிருந்த": 3808,
      "ஒருவயதுடைய": 3809,
      "சொல்லைக்": 3810,
      "இருக்கிறீர்கள்": 3811,
      "பேரும்": 3812,
      "ப்படுத்தும்": 3813,
      "என்னுடன்": 3814,
      "வந்தார்": 3815,
      "சுத்தமான": 3816,
      "பார்த்தபோது": 3817,
      "நடந்தது": 3818,
      "க்காரர்கள்": 3819,
      "வார்த்தைகள்": 3820,
      "கட்டளையிட": 3821,
      "தரித்திர": 3822,
      "ருக்குப்": 3823,
      "மோசேயும்": 3824,
      "பூமியிலுள்ள": 3825,
      "மலையில்": 3826,
      "எண்ணி": 3827,
      "ுக்காகப்": 3828,
      "நாட்களெல்லாம்": 3829,
      "விடுவேன்": 3830,
      "வாங்குகிற": 3831,
      "பிலாத்து": 3832,
      "பிதாக்கள்": 3833,
      "வேலைக்காரன்": 3834,
      "பெலன்": 3835,
      "ஆடைகளை": 3836,
      "எதிரிகளின்": 3837,
      "ஒன்றாக": 3838,
      "கிரீட": 3839,
      "நேரம்": 3840,
      "உறுதிய": 3841,
      "காப்பாற்று": 3842,
      "நிற்கும்": 3843,
      "அவரிடம்": 3844,
      "ரெகொ": 3845,
      "பெயரிட்டான்": 3846,
      "நிறைவேற்ற": 3847,
      "அரி": 3848,
      "ஆற": 3849,
      "எவன்": 3850,
      "தற்ற": 3851,
      "தங்கி": 3852,
      "பசிய": 3853,
      "படைய": 3854,
      "ப்பக்க": 3855,
      "ந்தால்": 3856,
      "அவி": 3857,
      "அவனிடம்": 3858,
      "ுடனும்": 3859,
      "செரு": 3860,
      "போடு": 3861,
      "ாரோ": 3862,
      "ாவன": 3863,
      "யெகோவாவால்": 3864,
      "சுற்று": 3865,
      "மாகி": 3866,
      "குரு": 3867,
      "குத்து": 3868,
      "செய்வான்": 3869,
      "இரவில்": 3870,
      "இரும்பு": 3871,
      "யோய்த": 3872,
      "ிருந்தேன்": 3873,
      "ைச்சால": 3874,
      "கட்டின": 3875,
      "நேர்": 3876,
      "த்தினார்கள்": 3877,
      "இடத்திலிருந்து": 3878,
      "தலையை": 3879,
      "கலக": 3880,
      "இப்பொழு": 3881,
      "பாவங்களை": 3882,
      "போகும்படி": 3883,
      "தலைவனாக": 3884,
      "சிறைச்சால": 3885,
      "வளைய": 3886,
      "மற்றும்": 3887,
      "வெள்ளிக்க": 3888,
      "உயிர்த்த": 3889,
      "எண்ணெ": 3890,
      "என்னவென்று": 3891,
      "நீதிமான்": 3892,
      "சந்ததியா": 3893,
      "குடும்பத்தார": 3894,
      "முன்பே": 3895,
      "கல்லெ": 3896,
      "ஆசீர்வதித்து": 3897,
      "ஜெபம்": 3898,
      "ராஜ்யம்": 3899,
      "ஆத்துமாக்கள": 3900,
      "அமலே": 3901,
      "திராட்சைரச": 3902,
      "ஏற்றுக்கொள்ள": 3903,
      "யோர்தானுக்கு": 3904,
      "யோசபாத்": 3905,
      "பிரதிஷ்ட": 3906,
      "முகங்குப்புற": 3907,
      "இண": 3908,
      "எப்போ": 3909,
      "ஏபோ": 3910,
      "சண்ட": 3911,
      "சாய்": 3912,
      "சோன்": 3913,
      "மடைய": 3914,
      "மல்லாமல்": 3915,
      "வைக்": 3916,
      "வதற்க": 3917,
      "ஷி": 3918,
      "ீரே": 3919,
      "ுற": 3920,
      "ுண்ட": 3921,
      "ுக்கே": 3922,
      "ும்வரை": 3923,
      "ையும": 3924,
      "கோபுர": 3925,
      "ங்கூ": 3926,
      "ராக்கிய": 3927,
      "மகனை": 3928,
      "ப்பட்டிருக்கிற": 3929,
      "பேரை": 3930,
      "மிஸ்": 3931,
      "தைவிட": 3932,
      "இடங்களில்": 3933,
      "யூதே": 3934,
      "நடத்தி": 3935,
      "னுப்பின": 3936,
      "நாளை": 3937,
      "இயேசுவிற்கு": 3938,
      "அவனுக்குத்": 3939,
      "கரம்": 3940,
      "மலையின்மேல்": 3941,
      "முள்ளவன்": 3942,
      "வெளியின்": 3943,
      "வாங்கின": 3944,
      "கெட்டு": 3945,
      "சம்பாதி": 3946,
      "ஜீவ": 3947,
      "போகிறது": 3948,
      "குடித்து": 3949,
      "கிடைக்கும்": 3950,
      "குடும்பமும்": 3951,
      "அறுப்பு": 3952,
      "எதிராகப்": 3953,
      "தெரியாது": 3954,
      "பங்கா": 3955,
      "முத்திரை": 3956,
      "தண்ணீரை": 3957,
      "சிறைப்பட்டு": 3958,
      "கற்கள": 3959,
      "மதுபான": 3960,
      "அல்லாமல்": 3961,
      "ஆடைய": 3962,
      "உள்": 3963,
      "ஊர்": 3964,
      "ரக": 3965,
      "றின": 3966,
      "ாக்குகிற": 3967,
      "க்காரிய": 3968,
      "ப்பண்ண": 3969,
      "ின்மேலும்": 3970,
      "செல": 3971,
      "வேலின்": 3972,
      "ாவுக்கும்": 3973,
      "ிரத்து": 3974,
      "யெஸ்ர": 3975,
      "ைகளுக்கும்": 3976,
      "புழு": 3977,
      "சொத்து": 3978,
      "உங்களைச்": 3979,
      "சத்தத்தை": 3980,
      "செய்யாமலும்": 3981,
      "வைக்கும்": 3982,
      "வைராக்கிய": 3983,
      "சீதோ": 3984,
      "சொல்லுகிறார்கள்": 3985,
      "ஆசை": 3986,
      "வாசற்": 3987,
      "அதிகமான": 3988,
      "மாயிருக்கிறது": 3989,
      "தீர்க்கதரிசன": 3990,
      "திரும்பக்": 3991,
      "தனக்குக்": 3992,
      "ஒன்றையும்": 3993,
      "அளவு": 3994,
      "ாதிருங்கள்": 3995,
      "கர்ப்பவ": 3996,
      "குறித்த": 3997,
      "வரிச": 3998,
      "பழுதற்ற": 3999,
      "பெட்டியை": 4000,
      "எதிரான": 4001,
      "சுரமண்டல": 4002,
      "அலை": 4003,
      "அநு": 4004,
      "இன்ப": 4005,
      "ஓடுகிற": 4006,
      "கந்த": 4007,
      "கைகளின்": 4008,
      "ரிலிருந்து": 4009,
      "க்கப்படுகிற": 4010,
      "ாகார": 4011,
      "ச்செய்யும்": 4012,
      "ினீர்": 4013,
      "வனாகவும்": 4014,
      "மேலே": 4015,
      "அதிலுள்ள": 4016,
      "நாங்களும்": 4017,
      "மகனைப்": 4018,
      "சொல்லப்பட்ட": 4019,
      "உங்களுக்கும்": 4020,
      "யெகோவாவுக்குக்": 4021,
      "பிரே": 4022,
      "ரோம": 4023,
      "கையினால்": 4024,
      "மூடிய": 4025,
      "நடப்பி": 4026,
      "மீன": 4027,
      "பரிசுத்தமாக": 4028,
      "சகோதரி": 4029,
      "எங்களுக்குச்": 4030,
      "எங்களுக்குத்": 4031,
      "மெர": 4032,
      "முகத்திற்கு": 4033,
      "க்கொண்டிருக்கும்போது": 4034,
      "பூமியையும்": 4035,
      "செலுத்தும்": 4036,
      "சோதி": 4037,
      "சோதோ": 4038,
      "உண்மையுள்ள": 4039,
      "படைத்தலை": 4040,
      "ஜீவனுள்ள": 4041,
      "எழுந்திருந்து": 4042,
      "பயப்படாதே": 4043,
      "இவர்களே": 4044,
      "சாட்சியாக": 4045,
      "மீதியானிய": 4046,
      "ரூபன்": 4047,
      "சீயோன்": 4048,
      "ஆட்சிசெய்தான்": 4049,
      "உயிருள்ள": 4050,
      "பெற்றெடுத்தான்": 4051,
      "ரெகொபெய": 4052,
      "அளி": 4053,
      "இக்க": 4054,
      "கய": 4055,
      "பத்தில்": 4056,
      "மதிய": 4057,
      "யாத": 4058,
      "க்கியா": 4059,
      "ருகே": 4060,
      "ியிருந்த": 4061,
      "போட்ட": 4062,
      "நீட்ட": 4063,
      "ாயோ": 4064,
      "ாயிருக்கும்": 4065,
      "களையெல்லாம்": 4066,
      "வென்றால்": 4067,
      "மக்கார": 4068,
      "யெகோவாவைப்": 4069,
      "பாதங்கள": 4070,
      "பலன": 4071,
      "மக்களோடு": 4072,
      "யோயாக்க": 4073,
      "கூலி": 4074,
      "தேவனிடத்தில்": 4075,
      "உண்டாவதாக": 4076,
      "அதற்குக்": 4077,
      "வாசலின்": 4078,
      "கைக்குத்": 4079,
      "பட்டணத்து": 4080,
      "பட்டணத்தில்": 4081,
      "மரங்களையும்": 4082,
      "ஆனால்": 4083,
      "விலகு": 4084,
      "அவளைப்": 4085,
      "கணவன்": 4086,
      "ஆண்டவனே": 4087,
      "இருதயத்தின்": 4088,
      "வாய்க்க": 4089,
      "க்கடவது": 4090,
      "மனிதர்களுக்கு": 4091,
      "எங்கள்மேல்": 4092,
      "உதடுகள": 4093,
      "ப்படுத்தினார்கள்": 4094,
      "கடிந்துகொள்ள": 4095,
      "பரலோகத்தில்": 4096,
      "அறிந்திருக்கிறேன்": 4097,
      "கடுங்கோபம்": 4098,
      "நதிக்கு": 4099,
      "விசுவாசத்தினாலே": 4100,
      "எக்காளம்": 4101,
      "அதிகாலையில்": 4102,
      "அலங்கார": 4103,
      "உத்திரவு": 4104,
      "வெள்ளிக்கா": 4105,
      "ஆம்": 4106,
      "இழு": 4107,
      "இல்லா": 4108,
      "இச்ச": 4109,
      "உடு": 4110,
      "உற்": 4111,
      "கையும்": 4112,
      "மிர": 4113,
      "மவு": 4114,
      "விற்க": 4115,
      "வொரு": 4116,
      "ாவிட்டால்": 4117,
      "வாதி": 4118,
      "போவோம்": 4119,
      "ினிடத்தில்": 4120,
      "முப்ப": 4121,
      "நீரே": 4122,
      "ிரமக்கார": 4123,
      "ங்கின": 4124,
      "வனுக்கும்": 4125,
      "நாண": 4126,
      "செய்ததுபோல": 4127,
      "சித்திர": 4128,
      "வர்களைக்": 4129,
      "இரக்கம்": 4130,
      "ிடத்திற்கும்": 4131,
      "செய்யும்போது": 4132,
      "தேவனாக": 4133,
      "தெல்லாம்": 4134,
      "எழுபது": 4135,
      "தூபங்கா": 4136,
      "அதற்குப்பின்பு": 4137,
      "மனந்திர": 4138,
      "வார்த்தையின்படியே": 4139,
      "பாவின்": 4140,
      "மரம்": 4141,
      "எதிர்": 4142,
      "வைகளைச்": 4143,
      "ஆலயத்திற்கு": 4144,
      "அக்கிரமக்கார": 4145,
      "மலைகள்": 4146,
      "பிள்ளைகளையும்": 4147,
      "வளை": 4148,
      "அந்நாளிலே": 4149,
      "அகற்றி": 4150,
      "எந்தவொரு": 4151,
      "எதிரிகளுக்கு": 4152,
      "செயல்களை": 4153,
      "அணிந்து": 4154,
      "நிறுத்த": 4155,
      "பழைய": 4156,
      "காணிக்கை": 4157,
      "கொன்றுபோட": 4158,
      "தெரிந்துகொள்ளப்பட்ட": 4159,
      "எதுவரைக்கும்": 4160,
      "தம்மை": 4161,
      "எதிர்கொண்டு": 4162,
      "நுழைய": 4163,
      "எபிரெய": 4164,
      "இரத்தப்பழி": 4165,
      "புளிப்பில்லாத": 4166,
      "ஏசாயா": 4167,
      "மவுன": 4168,
      "கன்று": 4169,
      "மாம": 4170,
      "யாக": 4171,
      "்தே": 4172,
      "செபுல": 4173,
      "மாகும்": 4174,
      "னிந்து": 4175,
      "மாற்றி": 4176,
      "செய்வார்கள்": 4177,
      "படிக்கு": 4178,
      "வர்களான": 4179,
      "இரட்ச": 4180,
      "பாசான": 4181,
      "ிடமும்": 4182,
      "யோசன": 4183,
      "மகனும்": 4184,
      "ாம்பர": 4185,
      "த்தினி": 4186,
      "நாளைக்கு": 4187,
      "அனுபவி": 4188,
      "பட்டணங்களில்": 4189,
      "க்கொண்டேன்": 4190,
      "க்கொண்டிருந்தான்": 4191,
      "அவைகளுடைய": 4192,
      "அனைவர": 4193,
      "ஞ்சு": 4194,
      "வெளிப்பட": 4195,
      "தாவீதுக்கு": 4196,
      "விழுவார்கள்": 4197,
      "அரசாட்சி": 4198,
      "லாப": 4199,
      "இரத்தாம்பர": 4200,
      "ஆரோனையும்": 4201,
      "பணிப்பொருட": 4202,
      "உலகம்": 4203,
      "அக்கிரமத்தை": 4204,
      "என்கிறார்": 4205,
      "எரிச்ச": 4206,
      "ஆசீர்வதிக்க": 4207,
      "உண்டாக்குகிற": 4208,
      "தெய்வங்களை": 4209,
      "பார்வைக்குப்": 4210,
      "வலதுபுற": 4211,
      "சிறுமை": 4212,
      "பொன்னும்": 4213,
      "தொடர்ந்து": 4214,
      "மோவாப்": 4215,
      "இளநீல": 4216,
      "எகிப்தியர்கள்": 4217,
      "உயர்த்தி": 4218,
      "எண்ணெயிலே": 4219,
      "பள்ளத்தாக்கிலே": 4220,
      "நியாயந்தீர்க்க": 4221,
      "பார்வோனுடைய": 4222,
      "பஸ்க": 4223,
      "களிகூ": 4224,
      "ஊரைச்சேர்ந்த": 4225,
      "அன்று": 4226,
      "ஏத்திய": 4227,
      "கைகளையும்": 4228,
      "சட்ட": 4229,
      "சான்": 4230,
      "ையொருவர்": 4231,
      "ாகி": 4232,
      "துள": 4233,
      "துண்ட": 4234,
      "விரித்து": 4235,
      "ானாக": 4236,
      "ானவன்": 4237,
      "ின்கீழ்": 4238,
      "ற்றை": 4239,
      "அப்புற": 4240,
      "னிமித்தம்": 4241,
      "க்கொடுத்து": 4242,
      "செய்தியை": 4243,
      "ப்போட்டார்கள்": 4244,
      "சாதி": 4245,
      "மக்கள்கூ": 4246,
      "த்தின்மேலும்": 4247,
      "ப்படை": 4248,
      "கிழித்து": 4249,
      "சீமோன்": 4250,
      "கட்டும்": 4251,
      "கட்டால்": 4252,
      "பூசிய": 4253,
      "கைக்கும்": 4254,
      "நாளிலும்": 4255,
      "பட்டணங்களிலும்": 4256,
      "தாவீதும்": 4257,
      "ஆசாரியர்கள": 4258,
      "அவைகளைச்": 4259,
      "பிடிக்க": 4260,
      "வீட்டை": 4261,
      "இருக்காது": 4262,
      "வெளிச்": 4263,
      "நினைக்கிற": 4264,
      "நாட்களிலும்": 4265,
      "கெட்ட": 4266,
      "சொல்வ": 4267,
      "குற்றஞ்": 4268,
      "ப்படுத்துவேன்": 4269,
      "உதவிய": 4270,
      "நியாயப்பிரமாணம்": 4271,
      "வசனத்தை": 4272,
      "திக்கற்ற": 4273,
      "இளைய": 4274,
      "தூபவர்க்க": 4275,
      "ஒருவரையொருவர்": 4276,
      "நீளமும்": 4277,
      "ஆவியானவராலே": 4278,
      "கலிலேயா": 4279,
      "மரித்தோரிலிருந்து": 4280,
      "உயிர்த்தெழு": 4281,
      "யூதேயா": 4282,
      "யெஸ்ரயே": 4283,
      "உற்சாக": 4284,
      "அற்ப": 4285,
      "ஏசா": 4286,
      "சல்ல": 4287,
      "சமான": 4288,
      "வதற்கும்": 4289,
      "ந்தும்": 4290,
      "ிறபோது": 4291,
      "வாரும்": 4292,
      "ிலோ": 4293,
      "வேளை": 4294,
      "போரா": 4295,
      "இருக்கு": 4296,
      "ைகளையெல்லாம்": 4297,
      "புது": 4298,
      "களிலே": 4299,
      "அதனால்": 4300,
      "இரும்ப": 4301,
      "ிருக்கிறார்கள்": 4302,
      "பேத்": 4303,
      "பேரையும்": 4304,
      "மக்களைக்": 4305,
      "செய்யாதிரு": 4306,
      "தோன்று": 4307,
      "தாசன": 4308,
      "தென்றும்": 4309,
      "தரை": 4310,
      "தூண": 4311,
      "சந்திர": 4312,
      "ராஜாவே": 4313,
      "ராஜாவிடம்": 4314,
      "முகம்": 4315,
      "வைகளில்": 4316,
      "என்பது": 4317,
      "பூமியை": 4318,
      "அவளைத்": 4319,
      "த்தியோ": 4320,
      "எகிப்திலே": 4321,
      "மலையிலே": 4322,
      "ையாகக்": 4323,
      "எண்ணப்பட்ட": 4324,
      "எண்ணப்பட்டவர்கள்": 4325,
      "அடித்த": 4326,
      "மகன்களாகிய": 4327,
      "ஞானம்": 4328,
      "விருந்து": 4329,
      "ஜீவன்": 4330,
      "கண்களில்": 4331,
      "நீதியை": 4332,
      "கட்டளையிட்டான்": 4333,
      "ஓடிப்போ": 4334,
      "அக்கிரமம்": 4335,
      "வீரர்கள்": 4336,
      "தெரியும்": 4337,
      "ராஜாக்களும்": 4338,
      "பிதாக்களின்": 4339,
      "மூப்பர்களும்": 4340,
      "ஆசரிப்புக்": 4341,
      "பொருத்தன": 4342,
      "பிரிந்து": 4343,
      "எலிசா": 4344,
      "பதினான": 4345,
      "பொருட்கள": 4346,
      "ஆபிரகாமின்": 4347,
      "விபசாரம்": 4348,
      "பக்தி": 4349,
      "வெளிச்சம்": 4350,
      "ஆடை": 4351,
      "இவர்": 4352,
      "ஒடுக்க": 4353,
      "கரை": 4354,
      "கவலை": 4355,
      "சமீ": 4356,
      "முடைய": 4357,
      "மட்டு": 4358,
      "மந்திர": 4359,
      "லைப்": 4360,
      "ிக்கிற": 4361,
      "ெயே": 4362,
      "ேனோ": 4363,
      "ொன்று": 4364,
      "்தோறும்": 4365,
      "துமில்லை": 4366,
      "செத்த": 4367,
      "இருபத்து": 4368,
      "தேசி": 4369,
      "ாமா": 4370,
      "மேற்கு": 4371,
      "பிராகார": 4372,
      "வுமில்லை": 4373,
      "யோவான": 4374,
      "தெற்கு": 4375,
      "மனிதனும்": 4376,
      "இடத்திற்குப்": 4377,
      "எல்லாத்": 4378,
      "போனால்": 4379,
      "முன்பாகச்": 4380,
      "நாளும்": 4381,
      "ந்நூறு": 4382,
      "செய்கிறார்கள்": 4383,
      "உள்ளவர்களாக": 4384,
      "கர்த்தர": 4385,
      "ஆகும்": 4386,
      "விட்டது": 4387,
      "உம்மைப்": 4388,
      "குடியிருக்க": 4389,
      "வருகிறேன்": 4390,
      "நூல்": 4391,
      "கோபத்தின்": 4392,
      "உணர்": 4393,
      "கிருபையும்": 4394,
      "அறியாமல்": 4395,
      "மரணமடை": 4396,
      "த்திருக்கிறார்": 4397,
      "கேள்விப்பட்டு": 4398,
      "எழுதியிருக்கிறது": 4399,
      "நலமாக": 4400,
      "நற்செய்தி": 4401,
      "கீலேயாத்": 4402,
      "ங்கொண்ட": 4403,
      "பலியிட்டு": 4404,
      "அறிந்துகொள்வார்கள்": 4405,
      "சிதறடி": 4406,
      "எழுதப்பட்டிருக்கிறது": 4407,
      "பஞ்சத்த": 4408,
      "இன்றைக்கு": 4409,
      "அபிமெலேக்கு": 4410,
      "தாலந்து": 4411,
      "அடு": 4412,
      "ஏக": 4413,
      "ஏமாற்ற": 4414,
      "ஒப்பான": 4415,
      "சுட": 4416,
      "தையெல்லாம்": 4417,
      "நச": 4418,
      "நம்": 4419,
      "னாய்": 4420,
      "புட": 4421,
      "லோம்": 4422,
      "வைய": 4423,
      "விற்று": 4424,
      "ிட்டு": 4425,
      "ட்டியும்": 4426,
      "செத்து": 4427,
      "கோல்": 4428,
      "கோவில": 4429,
      "கொள்": 4430,
      "நாட்டு": 4431,
      "வெண்": 4432,
      "இரைச்ச": 4433,
      "ிடத்திலிருந்து": 4434,
      "பின்ன": 4435,
      "பின்னாக": 4436,
      "தோற்க": 4437,
      "சீகோ": 4438,
      "சுத்தமாக": 4439,
      "பூச": 4440,
      "த்தினுடைய": 4441,
      "இஸ்ரவேலுடைய": 4442,
      "தேசங்களின்": 4443,
      "அனுமதி": 4444,
      "தேசத்தையும்": 4445,
      "முட்": 4446,
      "தரிசனம்": 4447,
      "சகோதரர்களும்": 4448,
      "இருப்பார்": 4449,
      "விலிருக்கிற": 4450,
      "மகிமையும்": 4451,
      "ிருப்பதாக": 4452,
      "மலைகள": 4453,
      "வாயிலிருந்து": 4454,
      "மனிதர்களையும்": 4455,
      "லாக்கி": 4456,
      "பேசும்": 4457,
      "ாமலிருங்கள்": 4458,
      "அடைந்த": 4459,
      "மறைத்து": 4460,
      "விருப்பமாக": 4461,
      "முதலான": 4462,
      "என்கிறார்கள்": 4463,
      "ஆராய்ந்து": 4464,
      "மின்ன": 4465,
      "தண்ணீரில்": 4466,
      "வீட்டிற்குள்": 4467,
      "யுத்தம்செய்ய": 4468,
      "அன்றையதினம்": 4469,
      "புறப்படச்செய்த": 4470,
      "சுதந்தரித்து": 4471,
      "நற்செய்திய": 4472,
      "அப்சலோம்": 4473,
      "முறுமுறு": 4474,
      "உனக்கும்": 4475,
      "விசேஷித்த": 4476,
      "பங்கிட்டு": 4477,
      "எண்ணெய்": 4478,
      "இல்லாவிட்டால்": 4479,
      "அநியாயம்": 4480,
      "உரி": 4481,
      "எசே": 4482,
      "எடுக்க": 4483,
      "எத்தியோ": 4484,
      "கத்த": 4485,
      "தசம": 4486,
      "பால்": 4487,
      "பாய்": 4488,
      "றாம": 4489,
      "ஸ்க": 4490,
      "ீக": 4491,
      "ூர": 4492,
      "ம்பல": 4493,
      "ங்களெல்லாம்": 4494,
      "திரிய": 4495,
      "ிருப்பு": 4496,
      "பெர்": 4497,
      "சேத": 4498,
      "காற்று": 4499,
      "க்கிளி": 4500,
      "வைப்பேன்": 4501,
      "பொறாம": 4502,
      "உண்டோ": 4503,
      "அறிந்துகொள்ள": 4504,
      "பயிர": 4505,
      "எங்களுக்குக்": 4506,
      "பெயருள்ள": 4507,
      "ையைப்போல": 4508,
      "அவைகளைத்": 4509,
      "தலைவர்கள்": 4510,
      "யாருக்கு": 4511,
      "மறுதல": 4512,
      "ையாகவும்": 4513,
      "ையாகிலும்": 4514,
      "குடியிருப்ப": 4515,
      "ப்பாருங்கள்": 4516,
      "வயதாய": 4517,
      "ப்படுகிறேன்": 4518,
      "ஞானி": 4519,
      "சோதித்து": 4520,
      "அறிவித்து": 4521,
      "உமக்குப்": 4522,
      "உமக்குக்": 4523,
      "மனிதர்களில்": 4524,
      "இன்னதென்று": 4525,
      "ஜெய": 4526,
      "த்தானே": 4527,
      "பறவைகள": 4528,
      "இப்போது": 4529,
      "நிரப்ப": 4530,
      "செலுத்தவேண்டும்": 4531,
      "க்கொள்ளுகிறேன்": 4532,
      "மேலுள்ள": 4533,
      "யுத்தத்திற்குப்": 4534,
      "இவர்களுடைய": 4535,
      "பிரசங்க": 4536,
      "பொருட்களையும்": 4537,
      "ஆகாயத்துப்": 4538,
      "எலெயாசார": 4539,
      "நப்தலி": 4540,
      "வெளிச்சத்த": 4541,
      "எசேக்கிய": 4542,
      "எத்தியோப்ப": 4543,
      "அடியே": 4544,
      "ஆமா": 4545,
      "எக்": 4546,
      "எபூசிய": 4547,
      "ஏதாவது": 4548,
      "கள்ள": 4549,
      "நாவ": 4550,
      "பாய": 4551,
      "பரியா": 4552,
      "படுத்த": 4553,
      "மெல்லாம்": 4554,
      "லிலும்": 4555,
      "ுமோ": 4556,
      "ியோ": 4557,
      "ானாகிய": 4558,
      "செமாய": 4559,
      "முய": 4560,
      "களின்மேல்": 4561,
      "ப்பட்டிருக்கிறது": 4562,
      "மானவர்": 4563,
      "இருக்கிறீர்": 4564,
      "இருந்ததால்": 4565,
      "கொடுக்கப்பட்ட": 4566,
      "தீமைய": 4567,
      "அவனுக்காக": 4568,
      "கிதிய": 4569,
      "மனிதர்களின்": 4570,
      "த்திரி": 4571,
      "ற்கோ": 4572,
      "ஆசகே": 4573,
      "மீட்": 4574,
      "மனையா": 4575,
      "தேசத்தைக்": 4576,
      "க்கொண்டிருந்தார்கள்": 4577,
      "வைகளைப்": 4578,
      "ையிட்டு": 4579,
      "டுகிறேன்": 4580,
      "ிருப்பேன்": 4581,
      "எகிப்திற்கு": 4582,
      "பிள்ளைகளை": 4583,
      "மறுமனையா": 4584,
      "மற்றொரு": 4585,
      "குடியிருந்து": 4586,
      "குடியிருந்தார்கள்": 4587,
      "விருந்த": 4588,
      "தெரிந்த": 4589,
      "உன்னில்": 4590,
      "வழிகளில்": 4591,
      "ட்டியை": 4592,
      "அவருக்குக்": 4593,
      "ப்படுத்துங்கள்": 4594,
      "சிங்கம்": 4595,
      "சொந்தமாகக்": 4596,
      "துன்மார்க்கன்": 4597,
      "தீர்க்கதரிசிகள்": 4598,
      "தேவனைத்": 4599,
      "எகிப்துதேசத்திலிருந்து": 4600,
      "உண்டாயிருக்கிற": 4601,
      "யாராவது": 4602,
      "அமத்": 4603,
      "ஆயத்தமாக": 4604,
      "சொல்லுவேன்": 4605,
      "பெத்லெ": 4606,
      "ஸ்தோத்திரம்": 4607,
      "திருப்தியாக": 4608,
      "மகிழ்ச்சியாக": 4609,
      "யெரொபெயாமின்": 4610,
      "அசைவா": 4611,
      "சர்வவல்லமையுள்ள": 4612,
      "மரியாள": 4613,
      "பழுதுபார்த்து": 4614,
      "எப்போதும்": 4615,
      "கயிறு": 4616,
      "தசமபாக": 4617,
      "30": 4618,
      "ஒன்ப": 4619,
      "கவிழ": 4620,
      "சகி": 4621,
      "ஜன்ன": 4622,
      "தவ": 4623,
      "தக்க": 4624,
      "தண்டு": 4625,
      "தலும்": 4626,
      "தப்பின": 4627,
      "னோன்": 4628,
      "பையும்": 4629,
      "ரான": 4630,
      "லைக்": 4631,
      "த்தபோது": 4632,
      "வாதம்": 4633,
      "விதி": 4634,
      "ிலிருந்தும்": 4635,
      "திட்ட": 4636,
      "ுக்குள்": 4637,
      "ாவுக்குப்": 4638,
      "ினபோது": 4639,
      "ள்ளவன்": 4640,
      "கொளு": 4641,
      "மேட்டி": 4642,
      "பெயெ": 4643,
      "பெய்ய": 4644,
      "வரவேண்டும்": 4645,
      "அவர்களுக்காக": 4646,
      "சிநே": 4647,
      "மாக்குவேன்": 4648,
      "காஸ்": 4649,
      "டியும்": 4650,
      "இருந்தபடியால்": 4651,
      "வீற்ற": 4652,
      "மோத்": 4653,
      "சீலோ": 4654,
      "வருவேன்": 4655,
      "நேச": 4656,
      "படியினாலே": 4657,
      "தேவதூத": 4658,
      "தூது": 4659,
      "நிறைய": 4660,
      "வானவர்": 4661,
      "மீறுதல": 4662,
      "எங்களோடு": 4663,
      "மரக்க": 4664,
      "இருப்பீ": 4665,
      "போகச்": 4666,
      "அழிக்கும்": 4667,
      "கடற்க": 4668,
      "விலையு": 4669,
      "காலை": 4670,
      "காலத்திலே": 4671,
      "விரோதி": 4672,
      "கேட்டதற்கு": 4673,
      "மலையின்": 4674,
      "இருக்கவும்": 4675,
      "வெளிப்படுத்த": 4676,
      "இருக்கிறதுபோல": 4677,
      "பெற்றாள்": 4678,
      "க்கடவர்கள்": 4679,
      "தாயையும்": 4680,
      "கண்டார்கள்": 4681,
      "அறிவிக்க": 4682,
      "வம்சத்தா": 4683,
      "வல்லமையும்": 4684,
      "லேவியர்களும்": 4685,
      "அறியும்படி": 4686,
      "ப்பார்த்த": 4687,
      "நேரத்திலே": 4688,
      "ஊழியக்காரர்கள்": 4689,
      "ஊழியக்காரனாகிய": 4690,
      "வைக்கவேண்டும்": 4691,
      "பார்வோனின்": 4692,
      "பாகால்": 4693,
      "உலகத்தின்": 4694,
      "உண்டாயிருக்கும்": 4695,
      "சொல்லியிருந்த": 4696,
      "கேளும்": 4697,
      "தொடங்கி": 4698,
      "சீரியாவின்": 4699,
      "பண்டிகை": 4700,
      "பொல்லாப்பான": 4701,
      "பிதாவின்": 4702,
      "பாக்கியவான்": 4703,
      "பாக்கியவான்கள்": 4704,
      "கிராமங்களும்": 4705,
      "அழகு": 4706,
      "யாவரும்": 4707,
      "பக்திய": 4708,
      "மேற்கொ": 4709,
      "லாமா": 4710,
      "பின்தொடர்ந்து": 4711,
      "குதிரைவீர": 4712,
      "செயல்பாடு": 4713,
      "சிதேக்கியா": 4714,
      "இறைச்சிய": 4715,
      "கழற்றி": 4716,
      "ஏராளமான": 4717,
      "பெத்லெகே": 4718,
      "அஸ்": 4719,
      "அன்ன": 4720,
      "அணை": 4721,
      "எளிய": 4722,
      "எரித்து": 4723,
      "எத்தனை": 4724,
      "கழி": 4725,
      "தடை": 4726,
      "நமக்க": 4727,
      "பங்கும்": 4728,
      "பகுதிய": 4729,
      "மிருந்து": 4730,
      "யர்ந்த": 4731,
      "லிய": 4732,
      "லினால்": 4733,
      "வகை": 4734,
      "ட்டாள்": 4735,
      "ின்படியே": 4736,
      "வாளிய": 4737,
      "ானா": 4738,
      "செர": 4739,
      "போகல": 4740,
      "த்துக்": 4741,
      "தேசாதி": 4742,
      "முக்கிய": 4743,
      "வரையுள்ள": 4744,
      "அவர்களோ": 4745,
      "மாளி": 4746,
      "மாடுகள": 4747,
      "மாக்குகிற": 4748,
      "மக்கெ": 4749,
      "வர்களோ": 4750,
      "பேச்ச": 4751,
      "மக்களுக்குச்": 4752,
      "செய்யவில்லை": 4753,
      "யோசனை": 4754,
      "அவனையும்": 4755,
      "கட்டினார்கள்": 4756,
      "வந்தால்": 4757,
      "வருமாக": 4758,
      "ாக்கின": 4759,
      "பூசி": 4760,
      "தரைக்": 4761,
      "நடத்து": 4762,
      "நிர்": 4763,
      "மனதிலே": 4764,
      "பட்டணங்களையும்": 4765,
      "சகோதரர்களாகிய": 4766,
      "கீத": 4767,
      "கீரியா": 4768,
      "தகப்பனையும்": 4769,
      "ஆலயத்தை": 4770,
      "காரியத்தைச்": 4771,
      "க்கடவாய்": 4772,
      "நாட்களை": 4773,
      "கட்டளையிட்டு": 4774,
      "அறிவித்தார்கள்": 4775,
      "ட்டியையும்": 4776,
      "உண்மை": 4777,
      "சமாதானத்தோடு": 4778,
      "ையானது": 4779,
      "ஸ்தலத்தின்": 4780,
      "மரணத்திற்கு": 4781,
      "இரட்சிப்ப": 4782,
      "பெண்ணை": 4783,
      "வேதவாக்கிய": 4784,
      "யூதர்களுடைய": 4785,
      "தூரமாக": 4786,
      "உடன்படிக்கைப்": 4787,
      "போர்செய்ய": 4788,
      "உண்டாயிருக்கிறது": 4789,
      "ுக்கென்று": 4790,
      "புலம்பு": 4791,
      "திடம்": 4792,
      "பாவநிவாரணபலிய": 4793,
      "தாழ்ப்பாள": 4794,
      "ினிமித்தமும்": 4795,
      "ஏற்படுத்தின": 4796,
      "உனக்காக": 4797,
      "நினைவுகூ": 4798,
      "இருபத்தை": 4799,
      "இடதுபுற": 4800,
      "தொழுநோ": 4801,
      "பிசைந்த": 4802,
      "மூடுதிர": 4803,
      "வாசற்படிய": 4804,
      "கன்றுக்கு": 4805,
      "நசரேய": 4806,
      "விலையுயர்ந்த": 4807,
      "ஆத்": 4808,
      "ஆட்சிய": 4809,
      "இழ": 4810,
      "ஈசாய": 4811,
      "ஏற்றி": 4812,
      "கிய": 4813,
      "காலே": 4814,
      "சால்": 4815,
      "தத்த": 4816,
      "நப": 4817,
      "ோர": 4818,
      "ோமே": 4819,
      "க்குள்ள": 4820,
      "ங்களால்": 4821,
      "ர்ச்சிய": 4822,
      "ிலுமுள்ள": 4823,
      "போதே": 4824,
      "போடுகிற": 4825,
      "நீங்கி": 4826,
      "நீரூ": 4827,
      "ைகளுடைய": 4828,
      "களுடைய": 4829,
      "என்றுமுள்ளது": 4830,
      "மாறி": 4831,
      "தன்னிடத்தில்": 4832,
      "காக்கிற": 4833,
      "காத்திருக்கிற": 4834,
      "பேல்": 4835,
      "ருடன்": 4836,
      "இருந்தார்": 4837,
      "மில்ல": 4838,
      "ிருந்தாலும்": 4839,
      "கொடுக்கப்பட்டது": 4840,
      "ப்படவும்": 4841,
      "ரோன்": 4842,
      "கட்டப்பட்ட": 4843,
      "பரிபூரண": 4844,
      "தூதனை": 4845,
      "நிறையுள்ள": 4846,
      "நியாயத்தை": 4847,
      "வார்த்தைகளையும்": 4848,
      "பட்டணங்களும்": 4849,
      "ரேத்": 4850,
      "அழிந்துபோ": 4851,
      "செய்கிறது": 4852,
      "செய்கிறார்": 4853,
      "சிறந்த": 4854,
      "ஆலயம்": 4855,
      "வருடங்கள": 4856,
      "வெள்ளை": 4857,
      "நாட்களும்": 4858,
      "வேண்டியதாக": 4859,
      "கோத்திரத்திற்கு": 4860,
      "இரத்தத்தை": 4861,
      "பார்க்கும்போது": 4862,
      "ஆயீ": 4863,
      "நகரத்தின்": 4864,
      "சமாதானமும்": 4865,
      "கட்டளையிட்டபடி": 4866,
      "இரட்சிப்பு": 4867,
      "ஓடிப்போய்": 4868,
      "ஓடிப்போனார்கள்": 4869,
      "ஆடையை": 4870,
      "விரும்பி": 4871,
      "உறுப்பு": 4872,
      "உடன்படிக்கையின்": 4873,
      "உலகத்தில்": 4874,
      "பெண்களும்": 4875,
      "பெண்களையும்": 4876,
      "உயரமான": 4877,
      "வணங்கி": 4878,
      "அவனோடுகூட": 4879,
      "கொழுப்பையும்": 4880,
      "வாழ்ந்த": 4881,
      "ஆயுத": 4882,
      "இல்லையே": 4883,
      "சுட்டெரிக்க": 4884,
      "பாவநிவாரணபலியாக": 4885,
      "நீங்களே": 4886,
      "நன்றாக": 4887,
      "ஆளுகிற": 4888,
      "கிணற்ற": 4889,
      "முறியடி": 4890,
      "நம்புகிற": 4891,
      "நாளாகம": 4892,
      "தெற்கே": 4893,
      "காட்டிக்கொடு": 4894,
      "தருவேன்": 4895,
      "ஆர்ப்பரி": 4896,
      "தாசனாகிய": 4897,
      "இவள்": 4898,
      "எவன": 4899,
      "தவி": 4900,
      "மிலே": 4901,
      "ாக்கு": 4902,
      "ேனே": 4903,
      "த்தெ": 4904,
      "ருகில்": 4905,
      "ியுங்கள்": 4906,
      "ர்களுக்குக்": 4907,
      "துக்கம்": 4908,
      "வாற்கோ": 4909,
      "ைகூ": 4910,
      "ானாலும்": 4911,
      "போஜன": 4912,
      "முறித்து": 4913,
      "கொட": 4914,
      "கொடி": 4915,
      "ற்றும்": 4916,
      "ஒருவரே": 4917,
      "சேர்த்த": 4918,
      "செய்வதற்காக": 4919,
      "க்கிட": 4920,
      "இருக்கிறவன்": 4921,
      "பலசால": 4922,
      "வீண்": 4923,
      "பிரபல": 4924,
      "ிருந்தாள்": 4925,
      "அவர்மேல்": 4926,
      "ப்படாமலும்": 4927,
      "இந்தவிதமாக": 4928,
      "சீனாய்": 4929,
      "ப்பிடி": 4930,
      "பூரி": 4931,
      "நிவாரண": 4932,
      "புறப்படுகிற": 4933,
      "விடவேண்டும்": 4934,
      "அவர்களுக்குள்ளே": 4935,
      "னிடத்திலிருந்து": 4936,
      "தானே": 4937,
      "பட்டணங்களின்": 4938,
      "கட்டளைகளை": 4939,
      "மரத்தின்": 4940,
      "மெய்ய": 4941,
      "திருப்ப": 4942,
      "வைகளைக்": 4943,
      "இருப்பாய்": 4944,
      "இருப்பீர்கள்": 4945,
      "போகாமல்": 4946,
      "காலையில்": 4947,
      "ஆண்டவன்": 4948,
      "விரோதமாகச்": 4949,
      "விரோதமாகவும்": 4950,
      "எருசலேமிலுள்ள": 4951,
      "மாயிருந்தது": 4952,
      "வழியாகப்": 4953,
      "வெள்ளியும்": 4954,
      "தொழ": 4955,
      "கட்டளையிடு": 4956,
      "மகள்களும்": 4957,
      "நீதியும்": 4958,
      "குற்றநிவாரண": 4959,
      "அடைத்து": 4960,
      "சொந்தமான": 4961,
      "சந்தோஷமாக": 4962,
      "துன்மார்க்கர்கள்": 4963,
      "இவைகளைச்": 4964,
      "உருவாக்க": 4965,
      "ியேல்": 4966,
      "கனவு": 4967,
      "வீட்டிற்குப்": 4968,
      "எழும்புகிற": 4969,
      "வார்த்தைகளையெல்லாம்": 4970,
      "ஆகாப்": 4971,
      "தீர்க்கதரிசியாகிய": 4972,
      "புரண்டு": 4973,
      "சுட்டெரித்து": 4974,
      "அடக்கம்செய்தார்கள்": 4975,
      "பார்வைக்குச்": 4976,
      "உட்பட": 4977,
      "வித்தியா": 4978,
      "பந்திய": 4979,
      "பாகாலின்": 4980,
      "பஞ்சு": 4981,
      "ஐந்தாம்": 4982,
      "கிரேக்க": 4983,
      "வஞ்சக": 4984,
      "பிராணி": 4985,
      "பொல்லாப்பானதைச்": 4986,
      "வாற்கோது": 4987,
      "அண": 4988,
      "இடை": 4989,
      "இவர்களை": 4990,
      "உறை": 4991,
      "உச்சிய": 4992,
      "எட்டு": 4993,
      "கும்": 4994,
      "தரும்": 4995,
      "மனு": 4996,
      "ஷா": 4997,
      "்கார": 4998,
      "க்கையும்": 4999,
      "த்தபின்பு": 5000,
      "ையால்": 5001,
      "ையினாலும்": 5002,
      "ருக்காக": 5003,
      "ருக்கள": 5004,
      "ர்களைத்": 5005,
      "ர்களிடத்தில்": 5006,
      "ர்களானால்": 5007,
      "க்குலை": 5008,
      "வில்ல": 5009,
      "ாரென்று": 5010,
      "ாவைக்": 5011,
      "நீண்ட": 5012,
      "ங்கினார்கள்": 5013,
      "ைகளால்": 5014,
      "வராகிய": 5015,
      "வரச்செய்த": 5016,
      "பிள": 5017,
      "நாடுகள": 5018,
      "க்கொரு": 5019,
      "தன்னோடு": 5020,
      "சொல்லாமல்": 5021,
      "செய்வோம்": 5022,
      "இரும்": 5023,
      "சாத்தான": 5024,
      "பேற": 5025,
      "பேராக": 5026,
      "ிடத்திலே": 5027,
      "ப்படுவீர்கள்": 5028,
      "இஸ்ரவேலே": 5029,
      "தீவு": 5030,
      "வருவார்": 5031,
      "உண்டென்று": 5032,
      "இடங்கள": 5033,
      "தேசத்தைப்": 5034,
      "நடத்த": 5035,
      "பரிசுத்தக்குலை": 5036,
      "கைவிட": 5037,
      "மரங்களும்": 5038,
      "பூமியெங்கும்": 5039,
      "நிலத்தில்": 5040,
      "வளே": 5041,
      "தண்ணீர்கள்": 5042,
      "ிருக்கவேண்டும்": 5043,
      "ஞானமுள்ள": 5044,
      "கண்டி": 5045,
      "தெரிந்துகொண்டு": 5046,
      "ஆரோக்கிய": 5047,
      "விதமான": 5048,
      "வல்லமை": 5049,
      "முழக்க": 5050,
      "மதில்": 5051,
      "உபவாச": 5052,
      "பெண்ணின்": 5053,
      "சாலொமோனின்": 5054,
      "சுமந்து": 5055,
      "விருப்பத்தின்படி": 5056,
      "முதலாவது": 5057,
      "துரத்த": 5058,
      "பகல்": 5059,
      "உருவா": 5060,
      "வாசல்கள்": 5061,
      "உறுதியாக": 5062,
      "ஜெபம்பண்ண": 5063,
      "த்திலிருந்த": 5064,
      "பாழான": 5065,
      "பங்கை": 5066,
      "மகிமையையும்": 5067,
      "எழும்பு": 5068,
      "காவலாள": 5069,
      "திராட்சைரசத்த": 5070,
      "மறந்து": 5071,
      "ராஜாவாகிறபோது": 5072,
      "தகனபலிகளையும்": 5073,
      "எண்ணெயையும்": 5074,
      "்கீழ": 5075,
      "நதியின்": 5076,
      "ஆச்சரியப்பட்டு": 5077,
      "பெற்றெடுத்த": 5078,
      "பஸ்கா": 5079,
      "தலைமுறைதோறும்": 5080,
      "அங்கீக": 5081,
      "ீர்களா": 5082,
      "அதன்பின்பு": 5083,
      "தேசங்களுக்குள்ளே": 5084,
      "விரைவாக": 5085,
      "அமலேக்கிய": 5086,
      "செபுலோன்": 5087,
      "இராட்": 5088,
      "உர": 5089,
      "சல்": 5090,
      "சமை": 5091,
      "தவற": 5092,
      "பத்திர": 5093,
      "பகல": 5094,
      "மடிய": 5095,
      "மன்ற": 5096,
      "யாவும்": 5097,
      "ரில்": 5098,
      "ார்களோ": 5099,
      "ீமின்": 5100,
      "்தானே": 5101,
      "த்தொ": 5102,
      "ியான": 5103,
      "ப்பிற": 5104,
      "ப்பிலே": 5105,
      "ர்களுக்குச்": 5106,
      "ாகவே": 5107,
      "துதித்து": 5108,
      "க்குள்": 5109,
      "வாயோ": 5110,
      "க்கிறோம்": 5111,
      "மேஜ": 5112,
      "மேகம்": 5113,
      "வராமல்": 5114,
      "அவர்களிடம்": 5115,
      "நாடு": 5116,
      "வெறி": 5117,
      "குனிந்து": 5118,
      "சொல்லவேண்டும்": 5119,
      "வர்களைப்": 5120,
      "ிருக்கிறான்": 5121,
      "யோபு": 5122,
      "தோற்ற": 5123,
      "லேவி": 5124,
      "தாத்": 5125,
      "ராஜாவைப்": 5126,
      "இடத்தைவிட்டு": 5127,
      "தேசங்கள்": 5128,
      "தேசமெங்கும்": 5129,
      "மீறி": 5130,
      "நாளுக்கு": 5131,
      "எங்களைக்": 5132,
      "கட்டளைகளைக்": 5133,
      "வைகளையெல்லாம்": 5134,
      "போகவேண்டும்": 5135,
      "அவைகளால்": 5136,
      "டுகிறார்கள்": 5137,
      "இறந்தான்": 5138,
      "தலைவன்": 5139,
      "சிறுவ": 5140,
      "வீட்டின்": 5141,
      "ிருப்பார்": 5142,
      "மலைகளில்": 5143,
      "எப்பொழுது": 5144,
      "மறுமொழி": 5145,
      "ர்ந்தது": 5146,
      "இருக்கவில்லை": 5147,
      "எருசலேமிலும்": 5148,
      "மாட்டீர்கள்": 5149,
      "தொங்கு": 5150,
      "வாயைத்": 5151,
      "ிருக்கவும்": 5152,
      "க்குறித்துக்": 5153,
      "அல்லாமலும்": 5154,
      "குமாரனாகிய": 5155,
      "கோபத்தை": 5156,
      "பதினை": 5157,
      "திரும்பிப்போய்": 5158,
      "வழிகளை": 5159,
      "வேலையும்": 5160,
      "குடும்பத்தா": 5161,
      "ஒப்புக்கொடுப்பேன்": 5162,
      "முழமும்": 5163,
      "சரீரம்": 5164,
      "விசாரிப்பு": 5165,
      "ர்களுக்குள்ளே": 5166,
      "தீர்க்கதரிசிகளின்": 5167,
      "ஆட்களை": 5168,
      "எதிரிகள": 5169,
      "க்காதே": 5170,
      "இரண்டாவது": 5171,
      "ப்படுத்தினார்": 5172,
      "உண்டாக்கு": 5173,
      "நிறுத்து": 5174,
      "தெய்வங்கள": 5175,
      "மகிழ்ந்து": 5176,
      "வெட்கப்பட்டு": 5177,
      "மகிமையை": 5178,
      "உட்கார்ந்திருக்கிற": 5179,
      "காப்பாற்றி": 5180,
      "கொன்றுபோட்டான்": 5181,
      "சொல்லியனுப்பின": 5182,
      "சிந்தித்து": 5183,
      "யோவாஸ்": 5184,
      "வாழ்த்து": 5185,
      "பன்னிரண்ட": 5186,
      "அடையாளம்": 5187,
      "முற்பிதாக்கள்": 5188,
      "ுக்கோ": 5189,
      "புலம்ப": 5190,
      "புத்திமான": 5191,
      "காதுகள்": 5192,
      "துரோக": 5193,
      "நிறைந்திருக்கிறது": 5194,
      "இடித்து": 5195,
      "இறங்குகிற": 5196,
      "பாடக": 5197,
      "கடலிலே": 5198,
      "புகழ்ந்து": 5199,
      "புகழ்ச்சிய": 5200,
      "மாதத்தின்": 5201,
      "ஆகாரம்": 5202,
      "யெரொபெயாம்": 5203,
      "கில்கால": 5204,
      "கர்த்தருக்குள்": 5205,
      "எறிந்து": 5206,
      "பிடுங்கி": 5207,
      "கெம்பீர": 5208,
      "சக்கர": 5209,
      "அனனியா": 5210,
      "சிமியோன்": 5211,
      "ஒருவருக்கொரு": 5212,
      "பிரதிஷ்டை": 5213,
      "சமீப": 5214,
      "நாளாகமப்": 5215,
      "இராட்ச": 5216,
      "40": 5217,
      "ஆதர": 5218,
      "ஆதார": 5219,
      "இத்த": 5220,
      "இதன": 5221,
      "இதற்காக": 5222,
      "ஏசாவின்": 5223,
      "சோம்": 5224,
      "பஞ்சம்": 5225,
      "லாகிய": 5226,
      "லுக்கும்": 5227,
      "்களுக்கு": 5228,
      "ையுடைய": 5229,
      "ையாக்க": 5230,
      "ருக்க": 5231,
      "ப்பண்டி": 5232,
      "வாங்கு": 5233,
      "போவா": 5234,
      "செயல்கள்": 5235,
      "முதிய": 5236,
      "கிறார்கள்": 5237,
      "னைப்போல": 5238,
      "யெகோவாவிடத்தில்": 5239,
      "சுற்ற": 5240,
      "ாயாக": 5241,
      "ப்போடுவேன்": 5242,
      "த்தைப்போலவும்": 5243,
      "பாதக": 5244,
      "ரியாவின்": 5245,
      "ப்படுவதில்லை": 5246,
      "இருந்தாள்": 5247,
      "மக்களிடம்": 5248,
      "செய்யப்படும்": 5249,
      "பிரித்து": 5250,
      "கூடிய": 5251,
      "மோசம்": 5252,
      "தீமையை": 5253,
      "கிழி": 5254,
      "சீமேய": 5255,
      "ியாதிரு": 5256,
      "வியும்": 5257,
      "எழுப்பின": 5258,
      "தூக்க": 5259,
      "சொன்னால்": 5260,
      "கலச": 5261,
      "சந்தி": 5262,
      "நாள்தோறும்": 5263,
      "அனுசரிக்க": 5264,
      "போய்ச்": 5265,
      "தேசத்தின்மேல்": 5266,
      "தேசத்திற்கும்": 5267,
      "மரணம்": 5268,
      "திருப்பு": 5269,
      "வைகளாக": 5270,
      "கால்கள்": 5271,
      "தற்காகவும்": 5272,
      "என்பதையும்": 5273,
      "டுகிறவன்": 5274,
      "நிலத்தின்": 5275,
      "கர்த்தரிடத்தில்": 5276,
      "உம்மோடு": 5277,
      "குடியிருப்பு": 5278,
      "ைகளின்படி": 5279,
      "தொங்க": 5280,
      "வாயின்": 5281,
      "அடிமைகள": 5282,
      "முன்னும்": 5283,
      "வருகிறார்": 5284,
      "இதுவரைக்கும்": 5285,
      "கண்டான்": 5286,
      "காணவில்லை": 5287,
      "காணப்பட்டது": 5288,
      "திரும்பிப்": 5289,
      "உண்மையான": 5290,
      "நீதியின்": 5291,
      "விளைச்ச": 5292,
      "வைத்திருக்கிற": 5293,
      "உபவாசி": 5294,
      "ஆடைகளையும்": 5295,
      "பக்கத்திலும்": 5296,
      "உண்டாக்கினான்": 5297,
      "விருப்பமான": 5298,
      "கூட்டம்": 5299,
      "பார்வைய": 5300,
      "பொன்னினால்": 5301,
      "மூப்பர்கள்": 5302,
      "மூன்றில்": 5303,
      "அறிந்திருக்கிறோம்": 5304,
      "சாட்சியின்": 5305,
      "தேசத்திற்குப்": 5306,
      "ஆகாஸ்": 5307,
      "கிடைத்தது": 5308,
      "வடக்கு": 5309,
      "சொல்லுவார்கள்": 5310,
      "அழைத்துக்கொண்டுபோய்": 5311,
      "மலைத்தே": 5312,
      "வாளால்": 5313,
      "சிறைபிடித்து": 5314,
      "துரத்திவிட": 5315,
      "அப்படியானால்": 5316,
      "புறப்பட்டான்": 5317,
      "சரியான": 5318,
      "சங்கில": 5319,
      "நுழையும்": 5320,
      "ஒளித்து": 5321,
      "கேள்விப்பட்டபோது": 5322,
      "ஆளுகை": 5323,
      "பைத்திய": 5324,
      "ஆசீர்வாத": 5325,
      "ஏறெடுத்துப்": 5326,
      "கிறிஸ்துவிற்குள்": 5327,
      "சுற்றுப்புற": 5328,
      "ரெகொபெயாம்": 5329,
      "முயற்": 5330,
      "கீரியாத்": 5331,
      "ஒருவருக்கொருவர்": 5332,
      "ஆதரி": 5333,
      "எத": 5334,
      "ணமான": 5335,
      "மன்ன": 5336,
      "யர": 5337,
      "யாவின்": 5338,
      "ீரோ": 5339,
      "ீர்களோ": 5340,
      "ுமில்லை": 5341,
      "ைவிட": 5342,
      "ையோடு": 5343,
      "துக்கி": 5344,
      "துணை": 5345,
      "ங்களினாலும்": 5346,
      "வாத்திய": 5347,
      "விவேக": 5348,
      "வேட்ட": 5349,
      "வேர்": 5350,
      "போன்ற": 5351,
      "இருப்போம்": 5352,
      "கோலை": 5353,
      "ச்செய்வார்": 5354,
      "தேதியிலே": 5355,
      "முனை": 5356,
      "்குறித்து": 5357,
      "ட்டுகளையும்": 5358,
      "வராத": 5359,
      "ஒருவனுடைய": 5360,
      "ஒருவேளை": 5361,
      "க்கொள்கிற": 5362,
      "சேவி": 5363,
      "சேபா": 5364,
      "த்தைப்போல": 5365,
      "இரத்தின": 5366,
      "பாடி": 5367,
      "பலகைகள": 5368,
      "மில்லைய": 5369,
      "யோக": 5370,
      "யோவாக": 5371,
      "தோள": 5372,
      "கொடுக்கும்படி": 5373,
      "மனிதன": 5374,
      "சொன்னபடி": 5375,
      "கொண்டுவாருங்கள்": 5376,
      "விட்டுவிடு": 5377,
      "அதற்குத்": 5378,
      "நியாயங்களையும்": 5379,
      "அனுசரி": 5380,
      "பட்டணத்தை": 5381,
      "தாவீதிடம்": 5382,
      "அழிப்பேன்": 5383,
      "செய்கிறான்": 5384,
      "செய்கிறேன்": 5385,
      "பூமியும்": 5386,
      "கணக்க": 5387,
      "கணவன": 5388,
      "எருசலேமிலிருந்து": 5389,
      "வழியே": 5390,
      "வளாக": 5391,
      "ப்பாடு": 5392,
      "கெதல": 5393,
      "யூதாவுடைய": 5394,
      "நீதியைச்": 5395,
      "சபை": 5396,
      "லேவியின்": 5397,
      "பணிந்துகொள்ள": 5398,
      "சாப்பிடலாம்": 5399,
      "ஆபிராம": 5400,
      "கொலைசெய்த": 5401,
      "இரட்சிக்கப்படு": 5402,
      "விசாரித்தான்": 5403,
      "ந்துகொண்டார்கள்": 5404,
      "படகில்": 5405,
      "விருப்பம்": 5406,
      "வேண்டுதல்": 5407,
      "எரிகிற": 5408,
      "ஆவியானவருக்கு": 5409,
      "தன்னைத்": 5410,
      "திடன": 5411,
      "தீர்ப்பு": 5412,
      "அகலம்": 5413,
      "உயிரோடிருக்கும்": 5414,
      "ஏதோமிய": 5415,
      "நம்பிக்கையாக": 5416,
      "காட்டுமிருக": 5417,
      "ப்பார்க்கிலும்": 5418,
      "ஏற்படுத்தி": 5419,
      "இல்க்க": 5420,
      "சுத்திகரிக்க": 5421,
      "காரணமாக": 5422,
      "வெட்டுக்கிளி": 5423,
      "தானியேல்": 5424,
      "தில்லையென்று": 5425,
      "பிரயாச": 5426,
      "முடிந்தபின்பு": 5427,
      "லீபனோன": 5428,
      "கூர்மையான": 5429,
      "ஏரோது": 5430,
      "சிநேகி": 5431,
      "ஈட்டி": 5432,
      "காக": 5433,
      "கனிய": 5434,
      "ஞா": 5435,
      "மாவது": 5436,
      "ஷீ": 5437,
      "ிக்கப்பட்ட": 5438,
      "ூறு": 5439,
      "ேக": 5440,
      "ைப்போல்": 5441,
      "ையிலுள்ள": 5442,
      "ப்பீர்": 5443,
      "ப்பற்றிய": 5444,
      "ந்திய": 5445,
      "ர்செ": 5446,
      "ல்லவா": 5447,
      "போவான்": 5448,
      "போதித்து": 5449,
      "புதை": 5450,
      "மேடுகள": 5451,
      "அப்பத்தை": 5452,
      "சிக்": 5453,
      "மாதங்கள்": 5454,
      "த்தைப்போல்": 5455,
      "குலை": 5456,
      "தன்ன": 5457,
      "காத்தின்": 5458,
      "உங்களால்": 5459,
      "பாம்ப": 5460,
      "லைப்போல": 5461,
      "ிடத்திற்குப்": 5462,
      "மக்களைத்": 5463,
      "மக்களுக்குக்": 5464,
      "செய்யவேண்டாம்": 5465,
      "சீமோ": 5466,
      "வருவான்": 5467,
      "நியமித்த": 5468,
      "அறிக்கை": 5469,
      "னுக்காக": 5470,
      "எழுப்பு": 5471,
      "உங்களுக்குள்": 5472,
      "தலையும்": 5473,
      "போய்விட்டார்கள்": 5474,
      "முகத்தைப்": 5475,
      "வைகளின்": 5476,
      "இருப்பதற்காக": 5477,
      "டுகிறது": 5478,
      "தலைவர்களும்": 5479,
      "தகப்பனை": 5480,
      "அவளைக்": 5481,
      "வீட்டா": 5482,
      "உள்ளத்தில்": 5483,
      "இருதயத்திலே": 5484,
      "சிலைகளை": 5485,
      "முள்ளவர்கள்": 5486,
      "மாட்டோம்": 5487,
      "வாயை": 5488,
      "அறைய": 5489,
      "க்கடவீர்கள்": 5490,
      "ல்களையும்": 5491,
      "வயிற்ற": 5492,
      "விழுந்தார்கள்": 5493,
      "உன்னத": 5494,
      "திரும்பிவந்து": 5495,
      "உமக்குச்": 5496,
      "லாட": 5497,
      "சவுலும்": 5498,
      "இரத்தத்தில்": 5499,
      "உண்மையும்": 5500,
      "கொடுக்காமல்": 5501,
      "பலிபீடத்தைக்": 5502,
      "எல்லாவற்றிற்கும்": 5503,
      "குற்றமில்லாத": 5504,
      "இல்லாததினால்": 5505,
      "வைத்தேன்": 5506,
      "கொண்டாட": 5507,
      "பெலன": 5508,
      "ஆடைகளைக்": 5509,
      "கூப்பிடு": 5510,
      "செயல்களையும்": 5511,
      "நியாயப்பிரமாணத்தின்": 5512,
      "அளந்தார்": 5513,
      "பாடுங்கள்": 5514,
      "வேறொருவன்": 5515,
      "கொன்றுபோட்டார்கள்": 5516,
      "உணவுபலியையும்": 5517,
      "மேலாக": 5518,
      "பிழைப்பான்": 5519,
      "அடையாளமாக": 5520,
      "ஏற்படுத்து": 5521,
      "ரெபெ": 5522,
      "பகைக்கிற": 5523,
      "ஓய்வுநாளில்": 5524,
      "ஏற்றுக்கொள்ளுகிற": 5525,
      "காளைகளையும்": 5526,
      "கொழுத்த": 5527,
      "எழும்பும்": 5528,
      "வரிசை": 5529,
      "கீலேயாத்திலுள்ள": 5530,
      "ஏதோம்": 5531,
      "இறந்துபோனான்": 5532,
      "முடியாதபடி": 5533,
      "வெளிநிலங்களும்": 5534,
      "துதிப்பேன்": 5535,
      "சரியாக": 5536,
      "தானியம்": 5537,
      "மாலைவரைத்": 5538,
      "எண்ணிக்கை": 5539,
      "போதகரே": 5540,
      "நியாயந்தீர்": 5541,
      "ஆட்டுக்குட்டிகளையும்": 5542,
      "எமோரியர்களின்": 5543,
      "இடுப்பு": 5544,
      "அரசாள": 5545,
      "க்கொள்ளுவேன்": 5546,
      "அதற்காக": 5547,
      "எஸ்தர்": 5548,
      "பிலிப்பு": 5549,
      "ன்தகட்டால்": 5550,
      "விஷய": 5551,
      "விறகு": 5552,
      "கல்லெறி": 5553,
      "யாதொரு": 5554,
      "வயதாயிருந்து": 5555,
      "நாவு": 5556,
      "பெயெர்செ": 5557,
      "முயற்சி": 5558,
      "அமா": 5559,
      "அகாஸ்": 5560,
      "ஆதாய": 5561,
      "இல்லாதிரு": 5562,
      "எரிய": 5563,
      "எளி": 5564,
      "ஜோ": 5565,
      "தம்பு": 5566,
      "பணம்": 5567,
      "பஞ்ச": 5568,
      "யொ": 5569,
      "ரைப்": 5570,
      "வற்ற": 5571,
      "வலி": 5572,
      "ில்லாமல்": 5573,
      "ெடு": 5574,
      "ெண்டு": 5575,
      "ேற்ற": 5576,
      "ேலின்": 5577,
      "்கி": 5578,
      "க்கடி": 5579,
      "த்தோடே": 5580,
      "ப்பண": 5581,
      "ப்படியே": 5582,
      "துண்டு": 5583,
      "துயர": 5584,
      "விசால": 5585,
      "வேரு": 5586,
      "ச்சாட்சி": 5587,
      "த்துத்": 5588,
      "நீடிய": 5589,
      "நீயோ": 5590,
      "பெரும்": 5591,
      "மாகா": 5592,
      "செய்ததால்": 5593,
      "சேரா": 5594,
      "மாக்கு": 5595,
      "வென்று": 5596,
      "குத்த": 5597,
      "குவிய": 5598,
      "சொல்லும்படி": 5599,
      "செய்வது": 5600,
      "பாம்பு": 5601,
      "சாட்ட": 5602,
      "சாத்தான்": 5603,
      "ப்படுவதற்கு": 5604,
      "வீர்களாக": 5605,
      "யோவாச": 5606,
      "வைக்கிற": 5607,
      "பொன்தகட்டால்": 5608,
      "வருமான": 5609,
      "அறிக்க": 5610,
      "வானத்தையும்": 5611,
      "உடல்": 5612,
      "பரிசுத்தர்": 5613,
      "தினமும்": 5614,
      "க்காரர்களும்": 5615,
      "ராஜாவாக்க": 5616,
      "மரங்கள்": 5617,
      "மரங்களின்": 5618,
      "எல்லோருடைய": 5619,
      "க்கொள்ளவேண்டும்": 5620,
      "அழிவு": 5621,
      "என்பார்கள்": 5622,
      "என்பவர்களும்": 5623,
      "எருசலேமை": 5624,
      "வீட்டார": 5625,
      "வீட்டைக்": 5626,
      "கேட்டபொழுது": 5627,
      "பிள்ளையை": 5628,
      "மாட்டாய்": 5629,
      "அறியாதிரு": 5630,
      "முன்னமே": 5631,
      "வெளியில்": 5632,
      "யெகோவாவுக்குத்": 5633,
      "கோத்திரங்கள": 5634,
      "பெருங்கா": 5635,
      "நாள்முதல்": 5636,
      "நாமத்திற்கு": 5637,
      "அநேகரை": 5638,
      "சபைக்கு": 5639,
      "வேலையாட": 5640,
      "பணிந்துகொண்டு": 5641,
      "கூடாரத்தின்": 5642,
      "இரட்சிப்பின்": 5643,
      "ப்பாராக": 5644,
      "க்கொள்வார்கள்": 5645,
      "அறுபது": 5646,
      "ஆண்கள்": 5647,
      "வேண்டுமெ": 5648,
      "ையாக்கி": 5649,
      "ப்படுத்தினான்": 5650,
      "வைக்காமல்": 5651,
      "பாழாய்": 5652,
      "நின்றான்": 5653,
      "ஆடுகள்": 5654,
      "ஆடுகளையும்": 5655,
      "சுகமாக": 5656,
      "பயப்படாமல்": 5657,
      "யுத்தம்செய்து": 5658,
      "புகழ": 5659,
      "விழும்": 5660,
      "பொருத்தனை": 5661,
      "வெட்டப்பட்ட": 5662,
      "சென்றபின்பு": 5663,
      "வாழ்ந்து": 5664,
      "குதிரைகள்": 5665,
      "இல்லையோ": 5666,
      "எவ்வள": 5667,
      "சாப்பிட்டுக்": 5668,
      "வில்லையே": 5669,
      "கற்பனைகளையும்": 5670,
      "அறிந்துகொள்வீர்கள்": 5671,
      "பத்தாயிரம்": 5672,
      "நொறுக்கி": 5673,
      "நீங்கலாக்கி": 5674,
      "அக்கினியால்": 5675,
      "கொஞ்சக்கால": 5676,
      "இந்நாளில்": 5677,
      "இந்நாள்வரைக்கும்": 5678,
      "அரசாண்ட": 5679,
      "எஸ்போன": 5680,
      "எட்டாம்": 5681,
      "வாசனையான": 5682,
      "மொர்தெகாய": 5683,
      "மொர்தெகாய்": 5684,
      "திராட்சைச்செடிய": 5685,
      "ையும்குறித்து": 5686,
      "பழுதுபார்த்துக்": 5687,
      "மரக்கால்": 5688,
      "செயல்பாடுகளும்": 5689,
      "தத்தளி": 5690,
      "பெற்றெடுத்தாள்": 5691,
      "சிறுவய": 5692,
      "12": 5693,
      "அகீ": 5694,
      "இதைக்": 5695,
      "எரிக்க": 5696,
      "கதி": 5697,
      "சதி": 5698,
      "சுக்கு": 5699,
      "சின": 5700,
      "தட": 5701,
      "மணி": 5702,
      "வற்றி": 5703,
      "ிகளையும்": 5704,
      "ெனில்": 5705,
      "க்கண்ட": 5706,
      "த்தியா": 5707,
      "ின்ற": 5708,
      "ர்மேலும்": 5709,
      "ிலிருக்கும்": 5710,
      "செவிய": 5711,
      "வேள": 5712,
      "ிருக்கு": 5713,
      "போவேன்": 5714,
      "போட்டார்கள்": 5715,
      "இருள்": 5716,
      "முதன்": 5717,
      "முத்தம்": 5718,
      "யெப்த": 5719,
      "யெசுவா": 5720,
      "கொடும்": 5721,
      "ாலோ": 5722,
      "புத்திர": 5723,
      "ாயிருந்து": 5724,
      "ாயிரத்து": 5725,
      "பெறுகிற": 5726,
      "அதோ": 5727,
      "ஒருவரையும்": 5728,
      "நாத்தான்": 5729,
      "ப்போடும்": 5730,
      "மாக்கப்பட்ட": 5731,
      "மாதுள": 5732,
      "கேலி": 5733,
      "சத்தமும்": 5734,
      "சாம்ப": 5735,
      "ப்படுத்திய": 5736,
      "ப்படுவதாக": 5737,
      "மித்து": 5738,
      "வைத்": 5739,
      "வைத்தார்": 5740,
      "கொடுமைய": 5741,
      "தேவனாலே": 5742,
      "அவனோ": 5743,
      "கிபியா": 5744,
      "தெரியா": 5745,
      "சீத்தி": 5746,
      "பொற்க": 5747,
      "அறிவு": 5748,
      "கொண்டுபோனார்கள்": 5749,
      "வான்கள": 5750,
      "ோடிருந்த": 5751,
      "கட்டளையை": 5752,
      "தற்குக்": 5753,
      "அதிகமாகப்": 5754,
      "சகோதரனை": 5755,
      "ஆனந்த": 5756,
      "த்தியனான": 5757,
      "நான்தான்": 5758,
      "இருதயத்தைக்": 5759,
      "கர்த்த்த": 5760,
      "எருசலேமுக்குப்": 5761,
      "வாய்க்கு": 5762,
      "அழைத்த": 5763,
      "ப்படுகிறார்கள்": 5764,
      "தாயிரம்": 5765,
      "நூனின்": 5766,
      "காணாமல்": 5767,
      "வேண்டியதில்லை": 5768,
      "அறிவிக்கப்பட்ட": 5769,
      "உமக்குத்": 5770,
      "கேட்காமல்": 5771,
      "உங்களைக்குறித்து": 5772,
      "நீதியையும்": 5773,
      "போகிறேன்": 5774,
      "அனுப்பினார்கள்": 5775,
      "திராட்சைப்பழ": 5776,
      "சாப்பிடாமலும்": 5777,
      "மோசேயையும்": 5778,
      "வசனத்தைக்": 5779,
      "தகப்பன்மா": 5780,
      "பாழாக்க": 5781,
      "நின்றது": 5782,
      "பாடுகள்": 5783,
      "ாமற்போனது": 5784,
      "வலதுபக்கத்தில்": 5785,
      "மகிமையின்": 5786,
      "விசுவாசிக்கிற": 5787,
      "சாகிற": 5788,
      "தேவனுக்குமுன்பாக": 5789,
      "கடித": 5790,
      "வாழ்க்க": 5791,
      "பன்னிரெண்டு": 5792,
      "தண்ணீரைக்": 5793,
      "க்கப்படுவதில்லை": 5794,
      "பொருள்": 5795,
      "ஆகாபின்": 5796,
      "சென்றார்கள்": 5797,
      "இடித்துப்போ": 5798,
      "உடைத்துப்போ": 5799,
      "அபிஷேக": 5800,
      "பெயர்கொண்ட": 5801,
      "வீணாக": 5802,
      "இறந்தபின்பு": 5803,
      "ராமா": 5804,
      "பயங்கரமான": 5805,
      "நிறைவேற்று": 5806,
      "மேற்கே": 5807,
      "எண்ணிக்கைக்கு": 5808,
      "கீழ்ப்படிந்து": 5809,
      "அற்புதங்கள": 5810,
      "செல்லும்": 5811,
      "ஒழுங்கு": 5812,
      "பர்ன": 5813,
      "கெம்பீ": 5814,
      "அப்னேர்": 5815,
      "பிலேயாம்": 5816,
      "உதடுகள்": 5817,
      "நாட்களுக்குப்பின்பு": 5818,
      "வம்சத்தாரில்": 5819,
      "சந்ததியாருடைய": 5820,
      "த்தினிமித்தம்": 5821,
      "அனைவரோடும்": 5822,
      "சல்லூ": 5823,
      "நம்மேல்": 5824,
      "போகலாம்": 5825,
      "அகாஸ்வேரு": 5826,
      "சீத்திம்": 5827,
      "10": 5828,
      "ஆப": 5829,
      "ஆமான": 5830,
      "ஆகீ": 5831,
      "ஆபர": 5832,
      "ஆசேர்": 5833,
      "இவனுக்கு": 5834,
      "உழை": 5835,
      "ஊருக்கு": 5836,
      "ஏமா": 5837,
      "சாரிய": 5838,
      "தழ": 5839,
      "பக்கம்": 5840,
      "றா": 5841,
      "வலு": 5842,
      "வசூ": 5843,
      "ெட்ட": 5844,
      "க்கண்டு": 5845,
      "த்தாள்": 5846,
      "ருக்கே": 5847,
      "ப்பதாக": 5848,
      "ப்பொரு": 5849,
      "ந்தபின்பு": 5850,
      "துண": 5851,
      "ட்டால்": 5852,
      "விளை": 5853,
      "விவாக": 5854,
      "திகை": 5855,
      "போசே": 5856,
      "போதிக்க": 5857,
      "கோராக": 5858,
      "த்துக்காக": 5859,
      "க்கிறதுபோல": 5860,
      "களான": 5861,
      "களெல்லாம்": 5862,
      "வனின்": 5863,
      "அவர்களுக்கும்": 5864,
      "ஒருமுறை": 5865,
      "ஒருவனுக்கு": 5866,
      "செய்தாய்": 5867,
      "குறு": 5868,
      "குளி": 5869,
      "குட்டி": 5870,
      "வர்களுமாகிய": 5871,
      "தியும்": 5872,
      "இருக்கிறதினால்": 5873,
      "சாதார": 5874,
      "மக்களுக்குப்": 5875,
      "செய்யக்கூடாது": 5876,
      "செய்யவேண்டியது": 5877,
      "பிரயோ": 5878,
      "தோழ": 5879,
      "தாப்": 5880,
      "எல்லைகள": 5881,
      "அறிகிற": 5882,
      "இஸ்ரவேலைப்": 5883,
      "நிதான": 5884,
      "புறப்படும்போது": 5885,
      "மனதில்": 5886,
      "மனப்பூ": 5887,
      "தானும்": 5888,
      "வார்த்தைகளின்": 5889,
      "தேசத்திலும்": 5890,
      "தேசத்திலுள்ள": 5891,
      "ராஜாவினிடத்தில்": 5892,
      "இருப்பது": 5893,
      "செய்கிறவர்கள்": 5894,
      "பிள்ளைகளின்": 5895,
      "மறுநாளிலே": 5896,
      "காரியங்கள்": 5897,
      "உம்மைக்": 5898,
      "செலுத்தினான்": 5899,
      "ல்களும்": 5900,
      "வருகிறபோது": 5901,
      "வார்ப்பி": 5902,
      "கெடு": 5903,
      "கெடுத்து": 5904,
      "புறப்பட்டுப்": 5905,
      "க்கொடுத்த": 5906,
      "பெருகு": 5907,
      "அறிவித்தான்": 5908,
      "கொள்ளையிட": 5909,
      "நெருங்கி": 5910,
      "மகள்கள்": 5911,
      "முடிந்தது": 5912,
      "கண்களைத்": 5913,
      "சேனாதி": 5914,
      "அருகிலே": 5915,
      "கழுதை": 5916,
      "கிருபா": 5917,
      "கிறிஸ்துவை": 5918,
      "குற்றவாளி": 5919,
      "வேலையை": 5920,
      "ாமலிரும்": 5921,
      "படைக்கும்": 5922,
      "ஆபிராம்": 5923,
      "சந்தோஷப்பட்டு": 5924,
      "விசாரிக்கிற": 5925,
      "அடக்கி": 5926,
      "சாலொமோனுக்கு": 5927,
      "இவைகளெல்லாம்": 5928,
      "இவைகளையெல்லாம்": 5929,
      "தேவனைப்": 5930,
      "தெரியாமல்": 5931,
      "ஆறுதல": 5932,
      "கட்டிக்கொண்டு": 5933,
      "அடியாள": 5934,
      "செய்யப்பட்டான்": 5935,
      "சிந்தி": 5936,
      "ராஜ்யத்தில்": 5937,
      "கொடுக்கிறேன்": 5938,
      "சீரியர்கள்": 5939,
      "செவிகொடுங்கள்": 5940,
      "எப்பிராயீம": 5941,
      "எப்பிராயீமின்": 5942,
      "முன்னோர்கள்": 5943,
      "காவலில்": 5944,
      "பின்பற்றுகிற": 5945,
      "ஒருவனாகிய": 5946,
      "அசைய": 5947,
      "குறிக்கப்பட்ட": 5948,
      "பணத்தை": 5949,
      "துரோகி": 5950,
      "புத்தியீன": 5951,
      "தங்களுக்குள்ளே": 5952,
      "நற்செய்தியை": 5953,
      "சமாரியாவின்": 5954,
      "விரும்புகிறேன்": 5955,
      "இயேசுகிறிஸ்துவை": 5956,
      "ராமோ": 5957,
      "வேகமாக": 5958,
      "தொழுதுகொண்ட": 5959,
      "ஒருவரோட": 5960,
      "வாசல்களில்": 5961,
      "கொள்ளைநோய": 5962,
      "பிரதிநி": 5963,
      "இன்றையதினம்": 5964,
      "பராக்கிரமசால": 5965,
      "எழுதுகிற": 5966,
      "இடத்தைவிட்டுப்": 5967,
      "திருப்தியடை": 5968,
      "வேதபண்டிதர்களும்": 5969,
      "குழியில்": 5970,
      "தர்ஷீ": 5971,
      "போரடி": 5972,
      "வம்சங்களின்படி": 5973,
      "ங்கூட": 5974,
      "கர்ப்பவதியாக": 5975,
      "மதியீன": 5976,
      "இழுத்து": 5977,
      "லாபான்": 5978,
      "கவிழ்த்து": 5979,
      "உறைந்த": 5980,
      "இதனால்": 5981,
      "ஞாபக": 5982,
      "பிரயோஜன": 5983,
      "மனப்பூர்வ": 5984,
      "அத்த": 5985,
      "அக்": 5986,
      "அஸ்தோ": 5987,
      "ஆண்டு": 5988,
      "இசக்க": 5989,
      "உம்": 5990,
      "ஏதே": 5991,
      "ஒழிய": 5992,
      "காம": 5993,
      "கன்ன": 5994,
      "சஞ்ச": 5995,
      "திற்கு": 5996,
      "மள": 5997,
      "ரிலும்": 5998,
      "லின்மேல்": 5999,
      "வடி": 6000,
      "ாட்ட": 6001,
      "ில்லை": 6002,
      "ிகளும்": 6003,
      "ோவா": 6004,
      "த்தொட": 6005,
      "ப்பன": 6006,
      "வாளை": 6007,
      "த்துக்கொண்ட": 6008,
      "முர": 6009,
      "கொந்த": 6010,
      "ாயிருக்க": 6011,
      "வரின்": 6012,
      "அவர்களால்": 6013,
      "நாத்தான": 6014,
      "னிட்டு": 6015,
      "செய்திய": 6016,
      "செய்தோம்": 6017,
      "ப்போட்டான்": 6018,
      "குழி": 6019,
      "சொல்லை": 6020,
      "சொல்லும்போது": 6021,
      "வர்களைத்": 6022,
      "பாத்தின்": 6023,
      "ரியின்": 6024,
      "ப்படுவது": 6025,
      "அந்தந்த": 6026,
      "வீட": 6027,
      "பாரும்": 6028,
      "தீமோ": 6029,
      "ட்சம்": 6030,
      "கட்டாய": 6031,
      "பொற்": 6032,
      "கையைப்": 6033,
      "நேரி": 6034,
      "எழுப்பி": 6035,
      "கொண்டுவரும்படி": 6036,
      "புறப்படும்": 6037,
      "வானம்": 6038,
      "மீகா": 6039,
      "நியாயத்தையும்": 6040,
      "வாசனை": 6041,
      "பயம்": 6042,
      "ும்படிச்": 6043,
      "வார்த்தையின்படி": 6044,
      "கட்டளையாக": 6045,
      "க்கொண்டது": 6046,
      "சகோதரனுடைய": 6047,
      "ையைப்போல்": 6048,
      "ஆசாரியனுடைய": 6049,
      "ஆசாரியர்களையும்": 6050,
      "அவைகளின்மேல்": 6051,
      "காலங்களிலும்": 6052,
      "என்பதற்கு": 6053,
      "கண்கா": 6054,
      "ங்குவார்கள்": 6055,
      "மலைகளின்": 6056,
      "வேலைக்காரிய": 6057,
      "வெளிப்படும்": 6058,
      "ீரின்": 6059,
      "மாயிருந்த": 6060,
      "மாயக்கார": 6061,
      "வளர்ந்து": 6062,
      "காரியத்தில்": 6063,
      "ுவோம்": 6064,
      "தொனி": 6065,
      "வாயினால்": 6066,
      "ப்படுகிறான்": 6067,
      "வருகிறான்": 6068,
      "ிக்காமல்": 6069,
      "ஞானமும்": 6070,
      "ப்போனால்": 6071,
      "கோத்திரத்தின்": 6072,
      "திரும்பிப்போ": 6073,
      "லாபான": 6074,
      "பார்க்கும்படி": 6075,
      "ஆயிர": 6076,
      "கொடுக்கவில்லை": 6077,
      "கொடுக்கப்படும்": 6078,
      "அவருக்குச்": 6079,
      "நகரத்திற்கு": 6080,
      "பலிபீடத்தை": 6081,
      "சபையின்": 6082,
      "வாகப்": 6083,
      "தங்குகிற": 6084,
      "கூடாரம்": 6085,
      "பட்டயத்தினால்": 6086,
      "படைத்த": 6087,
      "படைப்பு": 6088,
      "மக்களுக்குள்": 6089,
      "முறையி": 6090,
      "பாபிலோனின்": 6091,
      "துன்மார்க்கர்களுடைய": 6092,
      "தனக்குச்": 6093,
      "அக்கிரமத்தைச்": 6094,
      "அடியேன்": 6095,
      "பாழாய": 6096,
      "தீட்டுப்படுத்த": 6097,
      "பாடுவேன்": 6098,
      "பிள்ளைகளே": 6099,
      "பேரீ": 6100,
      "கிழக்க": 6101,
      "வாழ்கிற": 6102,
      "பரலோகத்தின்": 6103,
      "இளம்": 6104,
      "கடைசிய": 6105,
      "மாக்கினார்": 6106,
      "புத்தியுள்ள": 6107,
      "மாடுகளையும்": 6108,
      "சந்ததிக்கும்": 6109,
      "யாக்கோபை": 6110,
      "அப்படியிருந்தும்": 6111,
      "அகலமும்": 6112,
      "உயிரோடிருக்கிற": 6113,
      "சிதறி": 6114,
      "ஏதோமின்": 6115,
      "ஆரம்பம்": 6116,
      "பொருளா": 6117,
      "எச்சரிக்கையாய": 6118,
      "அனுப்புவேன்": 6119,
      "பரிசேயர்கள்": 6120,
      "எழுதியிருக்கிறபடி": 6121,
      "வாக்குத்தத்தம்": 6122,
      "தண்டிப்பேன்": 6123,
      "போர்வீரர்கள்": 6124,
      "இரத்தப்பழிய": 6125,
      "கெர்ச்சி": 6126,
      "நினைத்தருளும்": 6127,
      "செழிப்பான": 6128,
      "வயதானபோது": 6129,
      "எரிகோவின்": 6130,
      "பிலேயாம": 6131,
      "அவ்விட": 6132,
      "தூதனானவர்": 6133,
      "தகுந்தபடி": 6134,
      "ஆறாம்": 6135,
      "பிரேத": 6136,
      "உடுத்தி": 6137,
      "அப்புறம்": 6138,
      "இருப்பீர்களாக": 6139,
      "மக்கெதோ": 6140,
      "உரத்த": 6141,
      "ஆபரண": 6142,
      "வசூலி": 6143,
      "விவாகர": 6144,
      "கிருபாசன": 6145,
      "ஒருவரோடொருவர்": 6146,
      "இசக்கார்": 6147,
      "சஞ்சல": 6148,
      "50": 6149,
      "அங்கி": 6150,
      "ஆற்று": 6151,
      "இடுக்க": 6152,
      "எஸ்ர": 6153,
      "ஏற்க": 6154,
      "ஓபேத்": 6155,
      "கல்லை": 6156,
      "சர்ப்ப": 6157,
      "தையே": 6158,
      "னென்று": 6159,
      "பசு": 6160,
      "முக்கு": 6161,
      "யின்": 6162,
      "ர்க": 6163,
      "ரைக்": 6164,
      "வகு": 6165,
      "ாளி": 6166,
      "ேலூ": 6167,
      "ொன்றும்": 6168,
      "க்கமாக": 6169,
      "த்தகுந்த": 6170,
      "ியிருக்கிறேன்": 6171,
      "ப்பினால்": 6172,
      "ர்களுக்குத்": 6173,
      "ந்தோறும்": 6174,
      "ங்களிலிருந்து": 6175,
      "ர்ச்சி": 6176,
      "வார்க்க": 6177,
      "றுதல்": 6178,
      "போகாத": 6179,
      "ந்துபோனது": 6180,
      "தேய": 6181,
      "தேறின": 6182,
      "ாவிற்கு": 6183,
      "நீரோ": 6184,
      "புரி": 6185,
      "வனிடத்தில்": 6186,
      "அப்பத்தையும்": 6187,
      "சொல்லப்படும்": 6188,
      "காட்சிய": 6189,
      "வர்களைச்": 6190,
      "வர்களிடத்தில்": 6191,
      "சத்தமாக": 6192,
      "இருக்கிறதே": 6193,
      "சாம்பல": 6194,
      "பேயோ": 6195,
      "பேர்களும்": 6196,
      "ிடத்திற்குத்": 6197,
      "ிடமிருந்து": 6198,
      "ப்படுங்கள்": 6199,
      "யோராம்": 6200,
      "யோசியாவின்": 6201,
      "தோப்பு": 6202,
      "கூப்பிட": 6203,
      "கொடுமை": 6204,
      "மகனையும்": 6205,
      "ப்படத்தக்க": 6206,
      "அவனே": 6207,
      "ாரியின்": 6208,
      "கிண்ண": 6209,
      "தென்த": 6210,
      "கட்டில": 6211,
      "வருமென்று": 6212,
      "மனிதனைக்": 6213,
      "நோக்கிப்": 6214,
      "ராஜாவையும்": 6215,
      "தைக்குறித்து": 6216,
      "சொல்லுகிறவன்": 6217,
      "ச்சியும்": 6218,
      "பார்த்தார்கள்": 6219,
      "தேசமும்": 6220,
      "நடத்தின": 6221,
      "போனேன்": 6222,
      "உயி": 6223,
      "வானத்திற்கு": 6224,
      "கலங்கி": 6225,
      "ரைக்கு": 6226,
      "ும்படிக்கும்": 6227,
      "தானால்": 6228,
      "லிப்": 6229,
      "சியின்": 6230,
      "பாவத்தை": 6231,
      "அதைக்கேட்டு": 6232,
      "மரங்களை": 6233,
      "மரத்தால்": 6234,
      "மெசு": 6235,
      "க்கொண்டிருந்த": 6236,
      "சகோதரர்களை": 6237,
      "பிடிக்கிற": 6238,
      "தகப்பனும்": 6239,
      "கரங்களை": 6240,
      "மலையிலிருந்து": 6241,
      "சிலரை": 6242,
      "விட்டேன்": 6243,
      "குடியிருக்கும்": 6244,
      "ோனியா": 6245,
      "ப்பார்களாக": 6246,
      "மகன்களுக்கும்": 6247,
      "வருகிறார்கள்": 6248,
      "சூட்ட": 6249,
      "தமாய்": 6250,
      "ஞானத்தையும்": 6251,
      "அல்லேலூ": 6252,
      "தாயும்": 6253,
      "இதுவும்": 6254,
      "பரீ": 6255,
      "வனைப்": 6256,
      "பெருகி": 6257,
      "பெருமூ": 6258,
      "சந்ததியின": 6259,
      "சந்ததியார்": 6260,
      "கொள்ளைய": 6261,
      "பிதாவே": 6262,
      "விசாரணை": 6263,
      "மகளே": 6264,
      "அநேகநாட்கள்": 6265,
      "போகிறார்கள்": 6266,
      "கிறிஸ்துவினுடைய": 6267,
      "பட்டயத்தை": 6268,
      "சாப்பிடாமல்": 6269,
      "சரீரத்தில்": 6270,
      "இரட்சித்து": 6271,
      "துன்மார்க்கனுடைய": 6272,
      "சுமக்கிற": 6273,
      "க்காதிரு": 6274,
      "எகிப்துதேசத்தில்": 6275,
      "வாசலிலே": 6276,
      "பிதாக்களுடைய": 6277,
      "நிறுத்தின": 6278,
      "வெறுமையாக": 6279,
      "ஓய்ந்த": 6280,
      "காப்பாற்றுகிற": 6281,
      "நிரப்பு": 6282,
      "நிரப்பின": 6283,
      "உணவுபலிய": 6284,
      "நூறுபேருக்கு": 6285,
      "கவனமாக": 6286,
      "விண்ணப்பத்தைக்": 6287,
      "செவிகொடுத்து": 6288,
      "விசுவாசமாக": 6289,
      "வார்த்தைகளைப்": 6290,
      "காவல்கா": 6291,
      "திராட்சைரசத்தையும்": 6292,
      "ஏற்றுக்கொண்டு": 6293,
      "ஒருவனையும்": 6294,
      "நடக்காமல்": 6295,
      "பெற்றுக்கொள்ள": 6296,
      "ஊரானாகிய": 6297,
      "அனுப்பப்பட்ட": 6298,
      "ராஜ்ஜியம்": 6299,
      "ப்படுத்துகிறான்": 6300,
      "எஜமானுடைய": 6301,
      "போடப்பட்ட": 6302,
      "இறங்கின": 6303,
      "ஆசீர்வதிக்கப்பட்ட": 6304,
      "தெளிந்த": 6305,
      "அப்படியல்ல": 6306,
      "வேண்டிக்கொள்ளுகிறேன்": 6307,
      "கடலில்": 6308,
      "முற்பிதாக்களின்": 6309,
      "அக்காலத்தில்": 6310,
      "கானான்தே": 6311,
      "அனுப்புகிற": 6312,
      "நியமிக்கப்பட்ட": 6313,
      "அடியானாகிய": 6314,
      "கல்மழ": 6315,
      "சிரை": 6316,
      "சபிக்கப்பட்டவன்": 6317,
      "தலைமுறையாக": 6318,
      "ஆட்டுக்கடாக்களையும்": 6319,
      "செருபா": 6320,
      "இப்பொழுதே": 6321,
      "இப்பொழுதோ": 6322,
      "மிஸ்பா": 6323,
      "இயேசுவிற்குள்": 6324,
      "மவுனமாக": 6325,
      "எத்தியோப்பிய": 6326,
      "பரியாச": 6327,
      "கிதியோன்": 6328,
      "இடைவிடாமல்": 6329,
      "சிறுவயது": 6330,
      "பிரதிநிதி": 6331,
      "அல்லேலூயா": 6332,
      "20": 6333,
      "அண்ண": 6334,
      "ஊரும்": 6335,
      "எடுத்த": 6336,
      "ஐந்நூறு": 6337,
      "ஒப்படை": 6338,
      "ஓரே": 6339,
      "கழ்": 6340,
      "ஜாதி": 6341,
      "புக்கு": 6342,
      "பசும்": 6343,
      "மகளும்": 6344,
      "ஷ்": 6345,
      "ோல்": 6346,
      "க்கமும்": 6347,
      "க்கவேண்டாம்": 6348,
      "ர்களோடும்": 6349,
      "ட்டின": 6350,
      "வாம": 6351,
      "ல்லவோ": 6352,
      "விவ": 6353,
      "விழித்து": 6354,
      "ைகே": 6355,
      "செப்ப": 6356,
      "வேலும்": 6357,
      "ையும்படி": 6358,
      "கோரே": 6359,
      "முண்டு": 6360,
      "முந்தி": 6361,
      "சுமக்க": 6362,
      "வனுக்குப்": 6363,
      "பெனா": 6364,
      "வரவில்லை": 6365,
      "வரலா": 6366,
      "அவர்களின்": 6367,
      "அவர்களையும்": 6368,
      "அவர்களெல்லோரும்": 6369,
      "மாதிரிய": 6370,
      "த்தைவிட": 6371,
      "குறைய": 6372,
      "அந்தப்படியே": 6373,
      "இருந்தபோது": 6374,
      "மக்களாக": 6375,
      "யோசி": 6376,
      "தீர்கள்": 6377,
      "தீமையான": 6378,
      "தீர்த்து": 6379,
      "பொழி": 6380,
      "வருவ": 6381,
      "வருவதற்கு": 6382,
      "கையையும்": 6383,
      "எனக்குள்": 6384,
      "பட்டது": 6385,
      "நேபாத்தின்": 6386,
      "பூர்வ": 6387,
      "இடங்கொ": 6388,
      "ச்சை": 6389,
      "உமக்கும்": 6390,
      "தலைய": 6391,
      "உடைகளைத்": 6392,
      "பயன்ப": 6393,
      "சந்தேக": 6394,
      "போய்விட்டான்": 6395,
      "எங்களைத்": 6396,
      "பாவங்கள்": 6397,
      "பெயர்கள்": 6398,
      "காலணி": 6399,
      "கால்களை": 6400,
      "விரோதமாய்": 6401,
      "வீட்டிலிருந்து": 6402,
      "வீட்டின்மேல்": 6403,
      "நிலம்": 6404,
      "களைப்போல": 6405,
      "அக்கர": 6406,
      "வேலைக்கு": 6407,
      "சிலைகளையும்": 6408,
      "டையையும்": 6409,
      "குடியிருந்தான்": 6410,
      "ஞானிகள": 6411,
      "நூலும்": 6412,
      "காணப்பட்ட": 6413,
      "காணப்பட": 6414,
      "உன்னையும்": 6415,
      "கோத்திரத்திலும்": 6416,
      "ஒப்புக்கொடுத்து": 6417,
      "ஊழியனாகிய": 6418,
      "சமாதானபலி": 6419,
      "கழுவ": 6420,
      "மூன்றுமுறை": 6421,
      "உண்டானால்": 6422,
      "உண்டாகிற": 6423,
      "அனுப்பினேன்": 6424,
      "ாமலிருப்ப": 6425,
      "ாமலிருந்தால்": 6426,
      "எல்க்க": 6427,
      "சாப்பிடும்": 6428,
      "மறைந்த": 6429,
      "மறைவிட": 6430,
      "உபதேசி": 6431,
      "க்கும்படிக்கு": 6432,
      "பெண்ணைத்": 6433,
      "ஒவ்வொருவனும்": 6434,
      "உட்கா": 6435,
      "ம்பண்ணின": 6436,
      "வேண்டுமோ": 6437,
      "ஆரவார": 6438,
      "அதிகாரிகள்": 6439,
      "அணிந்துகொள்ள": 6440,
      "எரிச்சல": 6441,
      "த்திலோ": 6442,
      "நியாயப்பிரமாணத்தை": 6443,
      "தூரத்திலே": 6444,
      "யோசுவாவை": 6445,
      "நமக்குக்": 6446,
      "சொல்லியிருக்கிற": 6447,
      "வாக்குவாதம்": 6448,
      "பிள்ளைகளாக": 6449,
      "கவனி": 6450,
      "கூடிவரச்செய்து": 6451,
      "அடையாளங்களையும்": 6452,
      "பாலாக்": 6453,
      "க்கப்படுவார்கள்": 6454,
      "சேர்த்துக்கொண்டு": 6455,
      "ஏற்படுத்த": 6456,
      "கர்ப்பத்தில்": 6457,
      "திருமணம்செய்து": 6458,
      "புலம்பி": 6459,
      "புறப்படச்செய்து": 6460,
      "சுற்றித்திரி": 6461,
      "பதினா": 6462,
      "எழும்பின": 6463,
      "இவ்வளவு": 6464,
      "இல்லையென்று": 6465,
      "ராஜாவாகி": 6466,
      "நலமான": 6467,
      "கழுதைகள்": 6468,
      "ாயிரம்பேர்": 6469,
      "உறவின": 6470,
      "உட்பட்ட": 6471,
      "உட்புற": 6472,
      "அழகான": 6473,
      "பண்ணுகிற": 6474,
      "போதிக்கிற": 6475,
      "நீளம்": 6476,
      "பிரகாச": 6477,
      "மடங்க": 6478,
      "தீங்கை": 6479,
      "வாசஸ்தலத்தின்": 6480,
      "முதற்ப": 6481,
      "ஒழுங்க": 6482,
      "மிகுதியான": 6483,
      "உயிர்ப்பி": 6484,
      "சொல்லச்சொன்னான்": 6485,
      "அயலான": 6486,
      "மேற்பட்ட": 6487,
      "பெட்டிக்கு": 6488,
      "திராட்சைச்செடி": 6489,
      "பெனாயா": 6490,
      "நிர்மூல": 6491,
      "வாழ்த்துதல்": 6492,
      "கர்ப்பவதியாகி": 6493,
      "அபியா": 6494,
      "ஆமோ": 6495,
      "ஆமான்": 6496,
      "இத்": 6497,
      "இகழ்": 6498,
      "உள": 6499,
      "உக்கிர": 6500,
      "எம்": 6501,
      "ஏவிய": 6502,
      "ஏலி": 6503,
      "ஏறுகிற": 6504,
      "கலை": 6505,
      "கவல": 6506,
      "கைகளும்": 6507,
      "சத்தில்": 6508,
      "ஜூ": 6509,
      "தடு": 6510,
      "தாலும்": 6511,
      "பறி": 6512,
      "பனிய": 6513,
      "லாய": 6514,
      "வகைய": 6515,
      "ாடி": 6516,
      "க்கைப்": 6517,
      "க்கணி": 6518,
      "்களில்": 6519,
      "த்தாள": 6520,
      "ருசி": 6521,
      "ியாகிய": 6522,
      "ர்களைச்": 6523,
      "வாஞ்ச": 6524,
      "விந்து": 6525,
      "விரிய": 6526,
      "வினிட": 6527,
      "டுவான்": 6528,
      "ண்டோ": 6529,
      "போருக்கு": 6530,
      "போவதில்லை": 6531,
      "ாராகிய": 6532,
      "முது": 6533,
      "முக்கா": 6534,
      "நீடித்த": 6535,
      "கொமோ": 6536,
      "ரிம்ம": 6537,
      "புகு": 6538,
      "சொப்பன": 6539,
      "களோடு": 6540,
      "வனுக்குக்": 6541,
      "ஒருவருக்கும்": 6542,
      "செய்தீர்": 6543,
      "ப்போடுகிற": 6544,
      "சொல்லியும்": 6545,
      "சொல்லவேண்டிய": 6546,
      "காத்திய": 6547,
      "உங்களுடன்": 6548,
      "உங்களிடத்தில்": 6549,
      "வர்களுக்குப்": 6550,
      "வர்களுக்குக்": 6551,
      "இரங்க": 6552,
      "இராய": 6553,
      "யெகோவாவோ": 6554,
      "பாற": 6555,
      "ப்படுவேன்": 6556,
      "ப்படுவார்": 6557,
      "ப்படுவாய்": 6558,
      "அந்தப்படி": 6559,
      "வுகிற": 6560,
      "என்னில்": 6561,
      "என்னையும்": 6562,
      "கூற": 6563,
      "கொடுப்பார்": 6564,
      "அதிர": 6565,
      "வந்தோம்": 6566,
      "வருமாகிய": 6567,
      "கையைக்": 6568,
      "மனிதனாகிய": 6569,
      "சுத்தப்பொ": 6570,
      "ராஜாவுடைய": 6571,
      "அறிவை": 6572,
      "அறிந்துகொண்ட": 6573,
      "அறிவீர்கள்": 6574,
      "தேவையான": 6575,
      "எல்லாச்": 6576,
      "தரையில்": 6577,
      "சொன்னாள்": 6578,
      "கொண்டுவா": 6579,
      "புறக்கணி": 6580,
      "விடப்பட்ட": 6581,
      "பரிசுத்தமானது": 6582,
      "க்காரனாக": 6583,
      "ட்டிக்கொண்டு": 6584,
      "மனம்த": 6585,
      "பட்டணத்திலே": 6586,
      "பாவும்": 6587,
      "என்பதே": 6588,
      "தகப்பனுக்கு": 6589,
      "பூமியிலிருந்து": 6590,
      "அவளுக்குக்": 6591,
      "நிலத்தை": 6592,
      "நிலையான": 6593,
      "ராகே": 6594,
      "ஞ்சி": 6595,
      "உள்ளங்க": 6596,
      "ஆண்டவனுடைய": 6597,
      "எருசலேமிற்கு": 6598,
      "ையாகப்": 6599,
      "வழியையும்": 6600,
      "வாயில": 6601,
      "வாயில்": 6602,
      "அடிமைய": 6603,
      "சூற": 6604,
      "சூனிய": 6605,
      "க்குறித்துப்": 6606,
      "காணும்": 6607,
      "கட்டளையிடுகிற": 6608,
      "உன்னுடனே": 6609,
      "குமாரனை": 6610,
      "பெருவெள்ள": 6611,
      "சந்ததியாரின்": 6612,
      "மனிதர்களால்": 6613,
      "இனிக்": 6614,
      "சேனைகளுடைய": 6615,
      "ப்பிரிய": 6616,
      "குடிமக்கள்": 6617,
      "கிடக்கிற": 6618,
      "ப்படுத்துவார்": 6619,
      "மிருகங்கள": 6620,
      "விளக்கி": 6621,
      "விளங்கும்": 6622,
      "முறைமைய": 6623,
      "ஒவ்வொன்ற": 6624,
      "பணிந்து": 6625,
      "கூடாரத்திலே": 6626,
      "கூடாரங்களில்": 6627,
      "சொந்தமாக": 6628,
      "சரீரத்தின்படி": 6629,
      "ப்போகிறது": 6630,
      "பெலசால": 6631,
      "சந்தோஷம்": 6632,
      "தீர்க்கதரிசிகள": 6633,
      "சீடர்களில்": 6634,
      "ஒன்றை": 6635,
      "உட்கார": 6636,
      "துரத்து": 6637,
      "அதிகாரிகள": 6638,
      "மனைவியை": 6639,
      "யோசேப்பை": 6640,
      "கல்லறை": 6641,
      "தெய்வங்களைப்": 6642,
      "எழுந்திருக்க": 6643,
      "பங்கையும்": 6644,
      "பறவைகள்": 6645,
      "மகிமையுள்ள": 6646,
      "உடன்படிக்கையையும்": 6647,
      "ோடேகூட": 6648,
      "சுகந்த": 6649,
      "வாழ்க": 6650,
      "பரலோகத்திலிருக்கிற": 6651,
      "பதியாகிய": 6652,
      "பிரபுக்களையும்": 6653,
      "கூடிவந்த": 6654,
      "செல்வம்": 6655,
      "செலுத்துங்கள்": 6656,
      "கப்பல்": 6657,
      "ப்பெண்ண": 6658,
      "தீர்க்கதரிசியின்": 6659,
      "வீடுகள்": 6660,
      "கடுங்கோபத்தை": 6661,
      "கடினமாக": 6662,
      "நலம்": 6663,
      "குறைவு": 6664,
      "குழந்தை": 6665,
      "லாகீ": 6666,
      "வினாலும்": 6667,
      "மேய்க்க": 6668,
      "பெயரிட்டாள்": 6669,
      "அரண்மனையில்": 6670,
      "தாமே": 6671,
      "இறந்தபின்": 6672,
      "பத்தாம்": 6673,
      "போதித்த": 6674,
      "ஆச்சரியப்பட்டார்கள்": 6675,
      "ய்த்": 6676,
      "ப்பார்க்கிற": 6677,
      "முற்றத்தில்": 6678,
      "காப்பாற்றும்": 6679,
      "லாமே": 6680,
      "இல்லாதபடிக்கு": 6681,
      "பாபிலோனுக்குக்": 6682,
      "ாமற்போனால்": 6683,
      "கொலைசெய்யப்படவேண்டும்": 6684,
      "பாதாளத்தில்": 6685,
      "அற்புதங்களையும்": 6686,
      "கர்வாலி": 6687,
      "அமைதல": 6688,
      "விடுதலையாக்க": 6689,
      "பராக்கிரமசாலி": 6690,
      "கிணறு": 6691,
      "ஒடுக்குகிற": 6692,
      "செம்மையானதைச்": 6693,
      "எரேமியாவுக்கு": 6694,
      "விழித்த": 6695,
      "முற்றுகைய": 6696,
      "ஏதுவாக": 6697,
      "வாழ்த்துங்கள்": 6698,
      "குருவி": 6699,
      "யோய்தாவின்": 6700,
      "சொத்துக்கள": 6701,
      "அலைந்து": 6702,
      "யோயாக்கீம்": 6703,
      "வெள்ளிக்காசு": 6704,
      "தூபவர்க்கம்": 6705,
      "ெயேல்": 6706,
      "அமத்சியா": 6707,
      "பக்தியுள்ள": 6708,
      "ஈசாயின்": 6709,
      "நீரூற்று": 6710,
      "பேறான": 6711,
      "தீமோத்தே": 6712,
      "எம்மாத்திரம்": 6713,
      "400": 6714,
      "இம்": 6715,
      "இழி": 6716,
      "ஈராம்": 6717,
      "எதினாலே": 6718,
      "னவே": 6719,
      "பரு": 6720,
      "பத்": 6721,
      "ம்கொ": 6722,
      "ரங்க": 6723,
      "லட்ச": 6724,
      "ளும்": 6725,
      "விற்ற": 6726,
      "ாஸ்": 6727,
      "ிவே": 6728,
      "ர்களால்": 6729,
      "ர்களுக்குப்": 6730,
      "ர்களாகவும்": 6731,
      "அவதூ": 6732,
      "துக்கப்பட்ட": 6733,
      "விளி": 6734,
      "ண்டது": 6735,
      "திம்": 6736,
      "செங்க": 6737,
      "போட்டான்": 6738,
      "ச்செய்": 6739,
      "தேன": 6740,
      "ங்கினான்": 6741,
      "புள்ள": 6742,
      "புகை": 6743,
      "சுரு": 6744,
      "ாயிருந்தது": 6745,
      "சொல்லாத": 6746,
      "களாலும்": 6747,
      "மேட்ட": 6748,
      "வராகவும்": 6749,
      "அதையும்": 6750,
      "அதனுடைய": 6751,
      "அதிலிருந்து": 6752,
      "அப்பங்களை": 6753,
      "ப்போன்ற": 6754,
      "ப்போவார்கள்": 6755,
      "சேரு": 6756,
      "சேருகிற": 6757,
      "காச": 6758,
      "காதே": 6759,
      "உங்களிடத்திற்கு": 6760,
      "இரங்கும்": 6761,
      "பாத்திரம்": 6762,
      "சத்தத்தையும்": 6763,
      "இருக்கிறதை": 6764,
      "லைத்": 6765,
      "சாத்": 6766,
      "சாப்பான": 6767,
      "செய்யாதபடி": 6768,
      "பின்னாலே": 6769,
      "என்னுடனே": 6770,
      "ிருந்தபடியால்": 6771,
      "தாக்கி": 6772,
      "தென்": 6773,
      "சீல": 6774,
      "வந்தாள்": 6775,
      "எல்லைய": 6776,
      "நேகோ": 6777,
      "நேசர்": 6778,
      "தங்களுக்குக்": 6779,
      "சொல்லுகிறீர்கள்": 6780,
      "தேசங்களை": 6781,
      "கொண்டுபோனான்": 6782,
      "புறப்பட்டார்கள்": 6783,
      "வரும்வரை": 6784,
      "பரிசுத்தக்": 6785,
      "பயன": 6786,
      "சந்தித்து": 6787,
      "எங்களுக்குப்": 6788,
      "தேசத்தா": 6789,
      "பாவையும்": 6790,
      "ாதார": 6791,
      "ாதவன்": 6792,
      "சகோதரர்களையும்": 6793,
      "போகவிட": 6794,
      "அழிந்துபோகும்": 6795,
      "கடன்": 6796,
      "மோசேக்கு": 6797,
      "இறக்கி": 6798,
      "விரோத": 6799,
      "மகிழு": 6800,
      "உள்ளவனாக": 6801,
      "கர்த்தரிட": 6802,
      "நினிவே": 6803,
      "வாயிலே": 6804,
      "அவரைச்": 6805,
      "கண்டால்": 6806,
      "பராம": 6807,
      "பரவிய": 6808,
      "புறப்பட்டுப்போனார்கள்": 6809,
      "பிறக்கும்": 6810,
      "துபோலவும்": 6811,
      "சவுலுக்கு": 6812,
      "இரத்தத்தைப்": 6813,
      "பேசாமல்": 6814,
      "பேசினான்": 6815,
      "நெருங்கிய": 6816,
      "நாமும்": 6817,
      "கொடுக்கவும்": 6818,
      "இனிமேல்": 6819,
      "ப்பிரமாண": 6820,
      "சபையிலே": 6821,
      "சபைகூ": 6822,
      "விதவ": 6823,
      "ருளினார்": 6824,
      "கூடாரத்தில்": 6825,
      "உலர்ந்து": 6826,
      "ைக்குறித்தும்": 6827,
      "உபதேசம்": 6828,
      "தீர்க்கதரிசிகளும்": 6829,
      "பக்கத்திலே": 6830,
      "நிலைத்திருக்கிற": 6831,
      "மனைவியாக": 6832,
      "அணிந்துகொண்டு": 6833,
      "சேயீர்": 6834,
      "ையாடி": 6835,
      "ராஜாக்களுக்கும்": 6836,
      "நீதிமான்கள்": 6837,
      "சத்தியத்தை": 6838,
      "சந்நிதான": 6839,
      "சகலவித": 6840,
      "ஏனோ": 6841,
      "மணவாள": 6842,
      "காரிரு": 6843,
      "எப்படித்": 6844,
      "உலகத்தை": 6845,
      "ியேலின்": 6846,
      "பேரைக்": 6847,
      "பிழைத்த": 6848,
      "பென்யமீன": 6849,
      "ப்பதுமில்லை": 6850,
      "தேசத்திற்குத்": 6851,
      "நாட்டிற்கு": 6852,
      "பினெ": 6853,
      "அசரியா": 6854,
      "வாங்கிக்கொண்டு": 6855,
      "பாத்திரத்தில்": 6856,
      "திடீர": 6857,
      "பெத்ஷி": 6858,
      "பொருட்களை": 6859,
      "தெளித்து": 6860,
      "எதுவோ": 6861,
      "வீணான": 6862,
      "ஆணையிட்ட": 6863,
      "மேய்த்து": 6864,
      "முற்பிதாக்களுக்கு": 6865,
      "கற்பனைகளைக்": 6866,
      "நேராகத்": 6867,
      "இப்படியாக": 6868,
      "ஏற்றபடி": 6869,
      "இரக்கமும்": 6870,
      "எலும்புகளை": 6871,
      "புளித்த": 6872,
      "ப்போட்டது": 6873,
      "நிறைவேறும்": 6874,
      "உரியது": 6875,
      "பொய்யான": 6876,
      "சுத்திகரி": 6877,
      "பெரிசிய": 6878,
      "மார்ப்ப": 6879,
      "அர்த்தம்": 6880,
      "கொள்ளையிட்ட": 6881,
      "சகரியா": 6882,
      "சர்வாங்கதகனபலியையும்": 6883,
      "பிடுங்க": 6884,
      "தங்குமிட": 6885,
      "ஒழிந்துபோ": 6886,
      "இடறல்": 6887,
      "மேன்மைபாராட்ட": 6888,
      "முற்றுகை": 6889,
      "பெருமைபாரா": 6890,
      "பார்வோனுக்கு": 6891,
      "சணல்நூல்": 6892,
      "செருயாவின்": 6893,
      "அநுபவி": 6894,
      "கந்தவர்க்க": 6895,
      "கடிந்துகொள்ளு": 6896,
      "பணிப்பொருட்களையும்": 6897,
      "மக்கள்கூட்ட": 6898,
      "பதினான்க": 6899,
      "நற்செய்தியைப்": 6900,
      "மறுதலி": 6901,
      "கீதவாத்திய": 6902,
      "நபர்களுக்கும்": 6903,
      "தொழில": 6904,
      "வசூலிப்ப": 6905,
      "விவாகரத்து": 6906,
      "ஏற்கனவே": 6907,
      "பெத்ஷிமே": 6908,
      "அட்ட": 6909,
      "இவள": 6910,
      "இவர்களுக்கு": 6911,
      "ஈட்டிய": 6912,
      "ஊதி": 6913,
      "ஓர்": 6914,
      "கம்ப": 6915,
      "காமின்": 6916,
      "சத்து": 6917,
      "சாம": 6918,
      "டாக": 6919,
      "ணமாக": 6920,
      "நர": 6921,
      "நல்": 6922,
      "நஷ்ட": 6923,
      "பறித்து": 6924,
      "மத": 6925,
      "ரீ": 6926,
      "ரப்": 6927,
      "ரவு": 6928,
      "ெட்டு": 6929,
      "்தொ": 6930,
      "க்கட்ட": 6931,
      "க்காவது": 6932,
      "்களைக்": 6933,
      "்களைப்": 6934,
      "ையுமாக": 6935,
      "ப்பதும்": 6936,
      "ந்தேன்": 6937,
      "ங்களோ": 6938,
      "ங்களாகிய": 6939,
      "வாடி": 6940,
      "வாதை": 6941,
      "டுவார்": 6942,
      "தினிமித்தம்": 6943,
      "ானவள்": 6944,
      "போம்": 6945,
      "ாவதற்கு": 6946,
      "ாவுக்குக்": 6947,
      "ின்கீழ": 6948,
      "கிறான்": 6949,
      "கொக்கி": 6950,
      "ரிப்": 6951,
      "புல்ல": 6952,
      "களினால்": 6953,
      "வனைக்": 6954,
      "என்றாலும்": 6955,
      "உன்னிடம்": 6956,
      "அப்பமும்": 6957,
      "க்கொளு": 6958,
      "செய்தாள்": 6959,
      "ப்போடுங்கள்": 6960,
      "சேவ": 6961,
      "மாவினால்": 6962,
      "வெய": 6963,
      "குய": 6964,
      "குளித்து": 6965,
      "ப்பட்டேன்": 6966,
      "சொல்லப்பட்டது": 6967,
      "மானவர்கள்": 6968,
      "பாடுகள": 6969,
      "பாதிக்க": 6970,
      "சாக்கு": 6971,
      "பலவந்த": 6972,
      "பலனையும்": 6973,
      "பேசா": 6974,
      "இருந்தவர்கள்": 6975,
      "மக்களுக்காக": 6976,
      "செய்யலாம்": 6977,
      "செய்யக்கடவன்": 6978,
      "செய்யப்படவேண்டும்": 6979,
      "பின்வரும்": 6980,
      "தோடு": 6981,
      "ுகிறவன்": 6982,
      "ப்படும்படி": 6983,
      "ரோத்": 6984,
      "ஸ்தா": 6985,
      "ஸ்து": 6986,
      "த்திரண்டு": 6987,
      "பூட்ட": 6988,
      "ற்கார": 6989,
      "நடந்தான்": 6990,
      "நில்ல": 6991,
      "சொன்னதை": 6992,
      "போனபின்பு": 6993,
      "வானங்கள்": 6994,
      "க்காரனும்": 6995,
      "இயேசுவ": 6996,
      "கட்டளையின்படியே": 6997,
      "தாவீதைப்": 6998,
      "மரத்தை": 6999,
      "அதிகமாகக்": 7000,
      "தயை": 7001,
      "ருக்குக்": 7002,
      "இருப்பதில்லை": 7003,
      "இருப்பதால்": 7004,
      "அழித்த": 7005,
      "ையில்லாமல்": 7006,
      "அருமையான": 7007,
      "செய்கிறதற்கு": 7008,
      "என்பவர்களின்": 7009,
      "என்பவர்களுடைய": 7010,
      "தலைவனாகிய": 7011,
      "தகப்பனான": 7012,
      "அவளிடத்தில்": 7013,
      "யாருடைய": 7014,
      "உன்னைவிட்டு": 7015,
      "இருதயங்களில்": 7016,
      "ஆலயத்தைப்": 7017,
      "ஆலயத்திற்குள்": 7018,
      "சாராள": 7019,
      "ாளே": 7020,
      "காரியத்தைக்": 7021,
      "பெற்றார்கள்": 7022,
      "செலுத்தின": 7023,
      "அவரால்": 7024,
      "ஞானத்தை": 7025,
      "விழுங்க": 7026,
      "விழுவான்": 7027,
      "தாயாகிய": 7028,
      "தெரிந்திருக்கிற": 7029,
      "கட்டளையிடுவேன்": 7030,
      "இப்படிப்": 7031,
      "அறிவித்த": 7032,
      "சந்ததியை": 7033,
      "யூதாவையும்": 7034,
      "பார்க்காமல்": 7035,
      "முடிவிலே": 7036,
      "முடித்தபின்பு": 7037,
      "மிருகம்": 7038,
      "அவருக்குள்": 7039,
      "வர்களாகி": 7040,
      "நுக": 7041,
      "நுனி": 7042,
      "கழுவி": 7043,
      "குடிக்கிற": 7044,
      "சமய": 7045,
      "ாமலிருக்கிற": 7046,
      "கிருபையை": 7047,
      "வைத்திருந்த": 7048,
      "முழங்க": 7049,
      "அகந்த": 7050,
      "அகங்க": 7051,
      "மரணமட": 7052,
      "முறையும்": 7053,
      "முறைகே": 7054,
      "மறைவான": 7055,
      "அறுத்து": 7056,
      "சீடர்களும்": 7057,
      "சுமத்த": 7058,
      "இவைகளின்": 7059,
      "சாயங்கால": 7060,
      "ஆணையிட": 7061,
      "ப்படுத்தும்படி": 7062,
      "இரண்டும்": 7063,
      "அலறு": 7064,
      "நீதிமானுடைய": 7065,
      "சந்நிதிய": 7066,
      "மகிழ்ச்சி": 7067,
      "ஆடுமாடுகள": 7068,
      "ஜீவனையும்": 7069,
      "சிறுமையான": 7070,
      "யாரை": 7071,
      "புத்தகத்தை": 7072,
      "மூப்பர்கள": 7073,
      "பிள்ளைகளுக்கும்": 7074,
      "மூன்றாவது": 7075,
      "பயப்படாமலும்": 7076,
      "முடியுமோ": 7077,
      "வழக்கு": 7078,
      "மூடன்": 7079,
      "கண்ணி": 7080,
      "கூடிவந்து": 7081,
      "ஆத்துமாவோடும்": 7082,
      "மோசேயைக்கொண்டு": 7083,
      "காயம்": 7084,
      "த்திற்காகவும்": 7085,
      "பிரசவ": 7086,
      "வாலிபன்": 7087,
      "சம்பவித்த": 7088,
      "மன்னித்து": 7089,
      "அனைத்துவித": 7090,
      "எச்சரி": 7091,
      "அன்புகூ": 7092,
      "கடினமான": 7093,
      "க்காலத்தில்": 7094,
      "சபையார்கள்": 7095,
      "இளைஞ": 7096,
      "இருளில்": 7097,
      "யோர்தானைக்": 7098,
      "தேவாலயத்தில்": 7099,
      "துன்பப்படுத்துகிற": 7100,
      "நம்பியிருக்கிற": 7101,
      "ங்கொண்டு": 7102,
      "பிரியமானவர்களே": 7103,
      "எலும்புகள்": 7104,
      "பிரவேசித்து": 7105,
      "பரிசுத்தவான்கள்": 7106,
      "படுத்தி": 7107,
      "பரிசேயர்களும்": 7108,
      "அலங்கரி": 7109,
      "ச்சலாக்க": 7110,
      "மிருகஜீவன்களையும்": 7111,
      "இல்லாமற்": 7112,
      "எலெயாசார்": 7113,
      "வேசித்தனம்": 7114,
      "அடிமைத்தன": 7115,
      "அத்திப்பழ": 7116,
      "சிதேக்கிய": 7117,
      "உறவுகொண்ட": 7118,
      "ஏதுவான": 7119,
      "குடியேற": 7120,
      "எப்ரோன": 7121,
      "கோதுமை": 7122,
      "குத்துவிள": 7123,
      "பாதங்களும்": 7124,
      "பஸ்காவை": 7125,
      "மக்கள்கூட்டம்": 7126,
      "கிழித்துக்கொண்டு": 7127,
      "கர்த்தரால்": 7128,
      "ஏகமாக": 7129,
      "தோற்கடி": 7130,
      "கடற்கரை": 7131,
      "அழகுள்ள": 7132,
      "நமக்காக": 7133,
      "எவனாவது": 7134,
      "மடியிலே": 7135,
      "முதன்மையான": 7136,
      "அறிவிக்கப்பட்டபோது": 7137,
      "பதினாறு": 7138,
      "அல்": 7139,
      "அகோ": 7140,
      "அரை": 7141,
      "இதின்": 7142,
      "ஊது": 7143,
      "ஐக்கிய": 7144,
      "ஒப்ப": 7145,
      "கறு": 7146,
      "காவின்": 7147,
      "காயீ": 7148,
      "சட": 7149,
      "நகோ": 7150,
      "நனை": 7151,
      "மைகள்": 7152,
      "லட்சம்": 7153,
      "வறு": 7154,
      "வசி": 7155,
      "ென": 7156,
      "ென்ன": 7157,
      "ர்களிடம்": 7158,
      "ந்தொ": 7159,
      "ந்தம்": 7160,
      "அவனிட": 7161,
      "அவனிடத்திற்கு": 7162,
      "ாகு": 7163,
      "ாகின்": 7164,
      "ங்களின்மேல்": 7165,
      "இருநூறு": 7166,
      "கோகாத்": 7167,
      "த்துச்": 7168,
      "முத்த": 7169,
      "முற்கால": 7170,
      "நீரும்": 7171,
      "க்கிறீர்": 7172,
      "னைத்": 7173,
      "புசி": 7174,
      "சுழ": 7175,
      "சொல்லா": 7176,
      "ட்டுவேன்": 7177,
      "களோடும்": 7178,
      "வனுமாகிய": 7179,
      "மேதிய": 7180,
      "ராணி": 7181,
      "ராணிய": 7182,
      "பிந்தின": 7183,
      "ஒருமன": 7184,
      "நாச": 7185,
      "நாபோ": 7186,
      "செய்தாலும்": 7187,
      "ப்போக்க": 7188,
      "சிவந்த": 7189,
      "சேதே": 7190,
      "மாசெய": 7191,
      "வர்களோடு": 7192,
      "வர்களுக்குத்": 7193,
      "பாள்": 7194,
      "பாத்": 7195,
      "சத்தத்திற்குச்": 7196,
      "இருக்கிறபடியால்": 7197,
      "ிருக்கிறோம்": 7198,
      "பலசாலி": 7199,
      "மக்களோ": 7200,
      "மிக்": 7201,
      "செய்யப்பட்டு": 7202,
      "ப்புள்ள": 7203,
      "பிரசித்த": 7204,
      "தாப": 7205,
      "தாரு": 7206,
      "மையைக்": 7207,
      "மகனுக்கு": 7208,
      "தேவனுக்கும்": 7209,
      "மனிதர்": 7210,
      "மூலை": 7211,
      "மூடும்": 7212,
      "ராஜாவுக்கும்": 7213,
      "ப்பிடித்து": 7214,
      "த்திரிய": 7215,
      "த்தின்கீழ்": 7216,
      "தங்களில்": 7217,
      "இடத்திற்குத்": 7218,
      "இஸ்ரவேலர்களை": 7219,
      "தேசங்களையும்": 7220,
      "தேசங்களில்": 7221,
      "யூபிலி": 7222,
      "நடத்துகிற": 7223,
      "ஆசியா": 7224,
      "யேச": 7225,
      "நிபந்த": 7226,
      "தூக்கம்": 7227,
      "அவனைவிட்டு": 7228,
      "சொன்னபோது": 7229,
      "புறத்தில்": 7230,
      "தலைக்": 7231,
      "வானத்தை": 7232,
      "உடன்ப": 7233,
      "ம்பழ": 7234,
      "அவர்களுக்குள்": 7235,
      "கலக்க": 7236,
      "க்கப்பட்டார்கள்": 7237,
      "ட்டிகளையும்": 7238,
      "மனச்": 7239,
      "பாவத்திற்கு": 7240,
      "எதிர்க்க": 7241,
      "மெல": 7242,
      "திருமண": 7243,
      "முகத்தைத்": 7244,
      "வைகளைத்": 7245,
      "சகோதரர்களுக்கு": 7246,
      "சகோதரர்களில்": 7247,
      "இருப்பதற்கு": 7248,
      "ஆனது": 7249,
      "ஆனதோ": 7250,
      "ையில்லை": 7251,
      "பிடித்தான்": 7252,
      "ிற்காக": 7253,
      "பூமியிலும்": 7254,
      "மகிழ": 7255,
      "கேட்டால்": 7256,
      "நிலைய": 7257,
      "ஞ்சிய": 7258,
      "சொல்லிக்கொண்டார்கள்": 7259,
      "யாளி": 7260,
      "இருதயமும்": 7261,
      "இருதயமுள்ள": 7262,
      "எகிப்திற்குப்": 7263,
      "கூடப்": 7264,
      "இருக்கவேண்டாம்": 7265,
      "மாட்டாது": 7266,
      "இருந்ததுபோல": 7267,
      "வளர்க்க": 7268,
      "நடுவாக": 7269,
      "அறியும்": 7270,
      "விடுங்கள்": 7271,
      "அந்நாளில்": 7272,
      "புறப்பட்டுப்போ": 7273,
      "சோதிக்க": 7274,
      "வழிகள்": 7275,
      "வேலைக்காரனை": 7276,
      "கேட்கும்படி": 7277,
      "ங்களின்படி": 7278,
      "நாமத்தைத்": 7279,
      "ஆரோனுடைய": 7280,
      "ஆரோனுக்கும்": 7281,
      "க்கூடாத": 7282,
      "ஏழுமுறை": 7283,
      "குற்றவாளிய": 7284,
      "ாதபடிக்கும்": 7285,
      "ச்செய்தேன்": 7286,
      "பட்டயத்தாலும்": 7287,
      "ஒப்புக்கொடுத்த": 7288,
      "வர்களைப்போல": 7289,
      "மரணமடைய": 7290,
      "சரீரத்தை": 7291,
      "இரட்சிக்க": 7292,
      "இரட்சிப்பை": 7293,
      "மொழியிலே": 7294,
      "ஓடிப்போகிற": 7295,
      "ப்போகும்போது": 7296,
      "முகாமில்": 7297,
      "சுமந்துகொண்டு": 7298,
      "அனுப்பிவிட்டான்": 7299,
      "செயல்களைச்": 7300,
      "யோசேப்ப": 7301,
      "கேட்டுக்கொண்ட": 7302,
      "அவைகளின்படி": 7303,
      "தூரத்தில்": 7304,
      "வெறுமைய": 7305,
      "ஏனெனில்": 7306,
      "கேளாமலும்": 7307,
      "செவிகொடுக்க": 7308,
      "அழுகிற": 7309,
      "யுத்தத்திற்கு": 7310,
      "சிங்காசனம்": 7311,
      "மேய்ச்ச": 7312,
      "ஏற்றுக்கொண்ட": 7313,
      "நாட்டிலுள்ள": 7314,
      "காணிக்கையாக": 7315,
      "ஆகாத": 7316,
      "த்தாரும்": 7317,
      "மாலையில்": 7318,
      "ப்பெற்ற": 7319,
      "பணிய": 7320,
      "தேடினார்கள்": 7321,
      "வெட்டின": 7322,
      "மனைவிகளும்": 7323,
      "தூபகலச": 7324,
      "மாடுகளும்": 7325,
      "ஆயுதம்": 7326,
      "பொறுமைய": 7327,
      "கழுதையின்மேல்": 7328,
      "தார்த்த": 7329,
      "பாதிக்": 7330,
      "யோசியா": 7331,
      "பெட்டியைச்": 7332,
      "நம்பியிருக்கிறேன்": 7333,
      "மாதத்தில்": 7334,
      "இறந்துபோன": 7335,
      "எல்லைவரை": 7336,
      "பள்ளத்தாக்கில்": 7337,
      "சங்கீ": 7338,
      "மேய்ப்பர்கள்": 7339,
      "யெரொபெயாம": 7340,
      "தீர்மானிக்க": 7341,
      "சார்ந்த": 7342,
      "இணைக்கப்பட்ட": 7343,
      "அஸ்திபாரம்": 7344,
      "கல்லறையில்": 7345,
      "தண்டனைக்குள்ள": 7346,
      "தாழ்த்தி": 7347,
      "ஆட்டுக்குட்டியான": 7348,
      "திரும்புங்கள்": 7349,
      "வெள்ளாட்டுக்கடாக்கள": 7350,
      "சகரிய": 7351,
      "கற்பித்தபடியே": 7352,
      "ஆசீர்வாதம்": 7353,
      "மீட்டுக்கொள்ள": 7354,
      "ப்பீர்களாக": 7355,
      "அர்னோன்": 7356,
      "கோத்திரத்தார்களும்": 7357,
      "அதிகாரிகளும்": 7358,
      "விளக்குத்த": 7359,
      "சர்வாங்கதகனபலியாக": 7360,
      "சம்மதிக்க": 7361,
      "நிர்வாணமாக்க": 7362,
      "வீதிகளில்": 7363,
      "உரைக்கிறார்": 7364,
      "சீயோனில்": 7365,
      "ப்பக்கத்தில்": 7366,
      "அவிழ": 7367,
      "கல்லெறிய": 7368,
      "நடத்திக்கொண்டு": 7369,
      "அறுப்புண்டு": 7370,
      "மெராரியின்": 7371,
      "மனந்திரும்பு": 7372,
      "தோன்றுகிற": 7373,
      "பதினான்கு": 7374,
      "தூதுவர்களை": 7375,
      "தேசாதிபதி": 7376,
      "தொழுநோய்": 7377,
      "இழந்து": 7378,
      "சால்வ": 7379,
      "மெய்யாகவே": 7380,
      "அடிமைகளாக": 7381,
      "யோகனான": 7382,
      "மாதுளம்பழ": 7383,
      "கொந்தளி": 7384,
      "மார்ப்பதக்க": 7385,
      "500": 7386,
      "அர்ப்ப": 7387,
      "அணிய": 7388,
      "ஆதாம்": 7389,
      "இச": 7390,
      "இறு": 7391,
      "இதிலே": 7392,
      "உப்பு": 7393,
      "உற்று": 7394,
      "எதை": 7395,
      "ஏற்": 7396,
      "ஐய": 7397,
      "ஐப்பிர": 7398,
      "ஓடும்": 7399,
      "கபட": 7400,
      "சரு": 7401,
      "சில்": 7402,
      "தைய": 7403,
      "நடை": 7404,
      "பனி": 7405,
      "பட்ச": 7406,
      "மக்": 7407,
      "மரியா": 7408,
      "ராமின்": 7409,
      "ொழிய": 7410,
      "ோத்திர": 7411,
      "்கோ": 7412,
      "்த்": 7413,
      "க்கப்போகிற": 7414,
      "த்தையாவது": 7415,
      "ியாவும்": 7416,
      "ப்பற்ற": 7417,
      "ர்களென்று": 7418,
      "அவரோ": 7419,
      "ங்களினால்": 7420,
      "என்னிட": 7421,
      "போர்த்து": 7422,
      "போடும்": 7423,
      "போதனை": 7424,
      "போய்த்": 7425,
      "இருபத்த": 7426,
      "ாராக": 7427,
      "கோட": 7428,
      "கோவேறு": 7429,
      "ச்செய்ய": 7430,
      "தேடுங்கள்": 7431,
      "ாவிற்கும்": 7432,
      "நீயே": 7433,
      "ள்ளான": 7434,
      "கிறவன்": 7435,
      "கொப்ப": 7436,
      "ைகளோடும்": 7437,
      "ாலியா": 7438,
      "புதி": 7439,
      "புகழு": 7440,
      "சுய": 7441,
      "ாயிருந்தான்": 7442,
      "வரட்டும்": 7443,
      "உன்னிட": 7444,
      "அப்பங்களையும்": 7445,
      "்த்தி": 7446,
      "நாட்டி": 7447,
      "செய்ததும்": 7448,
      "வன்மேல்": 7449,
      "ல்லாதோ": 7450,
      "மாத்திர": 7451,
      "வெட்டுகிற": 7452,
      "வர்களுடன்": 7453,
      "பாதிய": 7454,
      "இருக்கிறபடி": 7455,
      "ரியுங்கள்": 7456,
      "லைச்": 7457,
      "பலு": 7458,
      "பேச்சு": 7459,
      "ிடவேண்டும்": 7460,
      "அந்தகார": 7461,
      "மக்களைச்": 7462,
      "செய்யாத": 7463,
      "தாங்களே": 7464,
      "மோச": 7465,
      "மோதிர": 7466,
      "தேவனிடம்": 7467,
      "அவனுக்கும்": 7468,
      "சீப்": 7469,
      "பொய": 7470,
      "ாக்கப்பட்ட": 7471,
      "மூவாய": 7472,
      "சுத்தம்": 7473,
      "டைவான்": 7474,
      "ளித்த": 7475,
      "பூலோக": 7476,
      "தேவதாரு": 7477,
      "என்னைக்குறித்து": 7478,
      "தரவேண்டும்": 7479,
      "ஆசாவின்": 7480,
      "வியுங்கள்": 7481,
      "நிமித்தம்": 7482,
      "போனீர்கள்": 7483,
      "புறப்பட்டது": 7484,
      "உடைகளை": 7485,
      "உடையை": 7486,
      "மீன்": 7487,
      "நியாயங்களை": 7488,
      "மனது": 7489,
      "எங்களைப்": 7490,
      "பட்டணங்களை": 7491,
      "பட்டணத்திலிருந்து": 7492,
      "தாகும்": 7493,
      "ோடொன்று": 7494,
      "பாவஞ்": 7495,
      "தற்குப்": 7496,
      "முகத்தைக்": 7497,
      "க்கொண்டே": 7498,
      "வைகளே": 7499,
      "ஆசாரியனும்": 7500,
      "ஆசாரியர்களின்": 7501,
      "மோசேக்கும்": 7502,
      "தலைப்பாக": 7503,
      "சிறி": 7504,
      "வீட்டுக்கு": 7505,
      "மகிமையான": 7506,
      "ராகேல்": 7507,
      "இருதயத்தைத்": 7508,
      "ிருப்பாய்": 7509,
      "மல்க": 7510,
      "மலைய": 7511,
      "மலைகளின்மேல்": 7512,
      "சாராள்": 7513,
      "மறுநாள்": 7514,
      "நினைக்காமல்": 7515,
      "செலுத்தினார்கள்": 7516,
      "மகன்களான": 7517,
      "தனியே": 7518,
      "பெரியவனாக": 7519,
      "தெரிந்து": 7520,
      "தெரிந்துகொள்": 7521,
      "அநேகர": 7522,
      "கோத்திரத்திலே": 7523,
      "ஜீவனுக்கு": 7524,
      "ஆவியையும்": 7525,
      "வழிகள": 7526,
      "பேசும்போது": 7527,
      "நெருப்பை": 7528,
      "மகள்களை": 7529,
      "சொல்வார்களாக": 7530,
      "சொல்வதை": 7531,
      "ப்பானாக": 7532,
      "யூதாவிலுள்ள": 7533,
      "சமாதானபலிய": 7534,
      "இனிப்": 7535,
      "நன்மையாக": 7536,
      "சமமான": 7537,
      "வேலையாக": 7538,
      "ர்களைப்போல": 7539,
      "மிருகங்களையும்": 7540,
      "மிருகங்களுக்கும்": 7541,
      "ஒப்புக்கொடுத்தேன்": 7542,
      "பிரியம்": 7543,
      "கொலைபாதக": 7544,
      "த்தோப்பே": 7545,
      "மாவு": 7546,
      "மாவையும்": 7547,
      "மறைவாக": 7548,
      "ப்போகாமல்": 7549,
      "எந்தப்": 7550,
      "எதிரிகளை": 7551,
      "ஒவ்வொருவரும்": 7552,
      "சாலொமோனுடைய": 7553,
      "ஒன்றோடொன்று": 7554,
      "வேதத்தை": 7555,
      "வீரர்களும்": 7556,
      "உண்டாக்கினார்": 7557,
      "தெரியாத": 7558,
      "அணிந்துகொண்ட": 7559,
      "பானபலி": 7560,
      "ாயீம்": 7561,
      "நம்மில்": 7562,
      "நம்மைக்": 7563,
      "நம்மிடத்தில்": 7564,
      "ராஜாக்களையும்": 7565,
      "அடியா": 7566,
      "ஜெபம்பண்ணி": 7567,
      "உண்டாக்கும்": 7568,
      "த்திலாவது": 7569,
      "தெய்வங்கள்": 7570,
      "ஜீவனைக்": 7571,
      "கடந்துபோகிற": 7572,
      "காரணம்": 7573,
      "பறந்து": 7574,
      "எப்படிப்பட்ட": 7575,
      "நமக்குத்": 7576,
      "பேசுகிறேன்": 7577,
      "கொடுக்கிறார்": 7578,
      "தண்ணீரினால்": 7579,
      "ஒன்றுமில்லை": 7580,
      "இளவய": 7581,
      "பதியா": 7582,
      "மூடினான்": 7583,
      "பாலை": 7584,
      "கர்ப்பந்த": 7585,
      "த்திற்கென்று": 7586,
      "நடக்கவேண்டிய": 7587,
      "சிங்காசனத்தில்": 7588,
      "அசுத்தஆவி": 7589,
      "தேடின": 7590,
      "பிதாவை": 7591,
      "வெண்கலப்": 7592,
      "மன்னிக்கப்படும்": 7593,
      "உத்தமன": 7594,
      "உத்தரவு": 7595,
      "காளையையும்": 7596,
      "ஆட்டுக்கடா": 7597,
      "இடிமுழக்க": 7598,
      "ஆயுதங்கள": 7599,
      "குதிரைகளின்": 7600,
      "ஆலோசனைச்": 7601,
      "ஆலோசனைசெய்து": 7602,
      "செய்கைகளை": 7603,
      "நலமாயிருக்கும்": 7604,
      "யாக்கோபுக்கு": 7605,
      "மாம்சத்த": 7606,
      "வெள்ளாட்டு": 7607,
      "வெள்ளிப்பா": 7608,
      "வெள்ளிப்பண": 7609,
      "திருப்தியா": 7610,
      "உயிரோடிருந்து": 7611,
      "அதிபதிகள்": 7612,
      "இருளிலே": 7613,
      "தேவாலயத்திலே": 7614,
      "நெருப்பினால்": 7615,
      "முகாமிட்ட": 7616,
      "நீங்களெல்லோரும்": 7617,
      "இயேசுகிறிஸ்துவினுடைய": 7618,
      "நேசிக்கிற": 7619,
      "யூதரல்லாதோ": 7620,
      "தரியு": 7621,
      "காத்துக்கொள்": 7622,
      "அனுப்புகிறேன்": 7623,
      "சேர்க்கிற": 7624,
      "நியாயந்தீ": 7625,
      "சத்தமிட்டுக்": 7626,
      "பாபிலோனுக்கு": 7627,
      "ஆபிரகாமுக்கு": 7628,
      "அதிபதியாக": 7629,
      "கொலைசெய்யப்பட": 7630,
      "கல்தேயர்": 7631,
      "அழியும்": 7632,
      "பொக்கிஷங்களையும்": 7633,
      "பழிவாங்க": 7634,
      "குளிர": 7635,
      "ஓரத்தில்": 7636,
      "திரித்த": 7637,
      "இடுப்பில்": 7638,
      "பிசாசுகளைத்": 7639,
      "எஸ்றா": 7640,
      "சிம்சோன்": 7641,
      "அகித்தோப்பே": 7642,
      "சமுத்திரத்தின்": 7643,
      "முறியடித்து": 7644,
      "சூழ்ந்த": 7645,
      "மாம்சமான": 7646,
      "வழக்காட": 7647,
      "தளபதி": 7648,
      "லீபனோனின்": 7649,
      "பாவங்களுக்காகவும்": 7650,
      "விற்கிற": 7651,
      "உவமைகள": 7652,
      "கூக்குரலி": 7653,
      "யோய்தா": 7654,
      "திராட்சைரசமும்": 7655,
      "இணையான": 7656,
      "வைராக்கியம்": 7657,
      "சொல்வதைக்": 7658,
      "உதவியாக": 7659,
      "தூணாதார": 7660,
      "உரிமை": 7661,
      "செமாயா": 7662,
      "இருபத்தைந்து": 7663,
      "ஆத்சோ": 7664,
      "உருவாக்கின": 7665,
      "போவாஸ்": 7666,
      "ரெபெக்காள": 7667,
      "தெரியாதா": 7668,
      "விவரித்து": 7669,
      "முதற்பிற": 7670,
      "அட்டவண": 7671,
      "மனச்சாட்சிய": 7672,
      "100": 7673,
      "அத்": 7674,
      "அசூ": 7675,
      "ஆதி": 7676,
      "ஆதா": 7677,
      "இத்தனை": 7678,
      "உலா": 7679,
      "ஊன": 7680,
      "ஊசிய": 7681,
      "ஊராகிய": 7682,
      "எல்": 7683,
      "எர்": 7684,
      "ஓங்கி": 7685,
      "கச்ச": 7686,
      "சமு": 7687,
      "சாவை": 7688,
      "ஜா": 7689,
      "நார": 7690,
      "னுக்குத்": 7691,
      "பற்": 7692,
      "பகுதி": 7693,
      "பன்றி": 7694,
      "மாவின்": 7695,
      "மகளை": 7696,
      "ம்கொண்ட": 7697,
      "ரைச்": 7698,
      "ரபீ": 7699,
      "றியா": 7700,
      "லால்": 7701,
      "ஷாக்": 7702,
      "ாவே": 7703,
      "ாக்கும்": 7704,
      "ுமா": 7705,
      "ுவேன்": 7706,
      "க்கமாட்டேன்": 7707,
      "்களுக்கும்": 7708,
      "த்தையெல்லாம்": 7709,
      "த்துடனே": 7710,
      "த்தீர்க்க": 7711,
      "ருக்காகவும்": 7712,
      "ியர்களின்": 7713,
      "ியாகவும்": 7714,
      "ந்தபோது": 7715,
      "க்குறி": 7716,
      "ங்களுக்குப்": 7717,
      "ங்களோடும்": 7718,
      "ிருப்போம்": 7719,
      "போதோ": 7720,
      "ாரா": 7721,
      "ாரி": 7722,
      "கோலும்": 7723,
      "ாவின்மேல்": 7724,
      "முள": 7725,
      "முன்ப": 7726,
      "க்கிறதும்": 7727,
      "ள்ளாக": 7728,
      "ைகளிலே": 7729,
      "ைகளினாலும்": 7730,
      "புரிய": 7731,
      "புல்லை": 7732,
      "சுற்றிய": 7733,
      "சுக்கோ": 7734,
      "களினாலும்": 7735,
      "மேடு": 7736,
      "வரவும்": 7737,
      "வரச்செய்தார்": 7738,
      "ஒருநாள்": 7739,
      "செய்தீர்கள்": 7740,
      "மாட": 7741,
      "மாக்கும்": 7742,
      "வெற்றி": 7743,
      "ப்பட்டும்": 7744,
      "ப்பட்டார்": 7745,
      "தன்னிட": 7746,
      "சொல்லவில்லை": 7747,
      "செய்வீ": 7748,
      "செய்வாயாக": 7749,
      "இருக்கிறாய்": 7750,
      "பேய": 7751,
      "அந்தியோ": 7752,
      "மக்களின்மேல்": 7753,
      "மக்களிடத்தில்": 7754,
      "என்னால்": 7755,
      "என்னாலே": 7756,
      "தோய": 7757,
      "ிருந்தன": 7758,
      "ிருந்தோம்": 7759,
      "கூடு": 7760,
      "ுகிறான்": 7761,
      "ுகிறார்": 7762,
      "கொடுப்ப": 7763,
      "கொடுப்பான்": 7764,
      "தீக்கொளு": 7765,
      "ட்சை": 7766,
      "ரோடும்": 7767,
      "அவனோடிருந்த": 7768,
      "ப்பிள்ள": 7769,
      "தேவதூதன்": 7770,
      "சொல்லுகிறான்": 7771,
      "சொல்லுகிறதாவது": 7772,
      "இடறி": 7773,
      "பார்த்தான்": 7774,
      "செய்துகொள்ள": 7775,
      "வரும்வரைக்கும்": 7776,
      "நியாயமும்": 7777,
      "பரிசுத்தமாக்க": 7778,
      "வாசம்": 7779,
      "ம்பை": 7780,
      "இயேசுவைப்": 7781,
      "மக்கள்மேல்": 7782,
      "பட்டணத்திற்குள்": 7783,
      "தரிசி": 7784,
      "மரமும்": 7785,
      "அதிகம்": 7786,
      "வைகளோ": 7787,
      "சகோதரனான": 7788,
      "சகோதரனுக்கு": 7789,
      "ையைப்போலவும்": 7790,
      "ையில்லாத": 7791,
      "காலையிலே": 7792,
      "என்பான்": 7793,
      "இறந்தார்கள்": 7794,
      "எருசலேமே": 7795,
      "அவளோடு": 7796,
      "கேட்டும்": 7797,
      "கேட்டவுடனே": 7798,
      "யாபேச": 7799,
      "ஆண்டவனாகிய": 7800,
      "ஆண்டவருடைய": 7801,
      "ஆலயத்திற்கும்": 7802,
      "ஆலயத்திற்குப்": 7803,
      "ங்களைப்போல": 7804,
      "பார்ப்பதற்கு": 7805,
      "நெரி": 7806,
      "காரியங்களைச்": 7807,
      "மற்றப்": 7808,
      "மற்றவர்கள்": 7809,
      "ுவின்": 7810,
      "ைகளின்படியும்": 7811,
      "ோனையும்": 7812,
      "ப்பாட்ட": 7813,
      "அடிமையான": 7814,
      "ுக்காகக்": 7815,
      "பெரியோ": 7816,
      "இதுமுதல்": 7817,
      "கோபமடைந்து": 7818,
      "சோதன": 7819,
      "அறிவிக்கப்பட்டது": 7820,
      "சவுலை": 7821,
      "வேலைக்காரர்களை": 7822,
      "கேட்கச்": 7823,
      "உணர": 7824,
      "யூதாவிலே": 7825,
      "நன்மையும்": 7826,
      "அருகிலுள்ள": 7827,
      "அந்நியன்": 7828,
      "நல்லதல்ல": 7829,
      "வேலையைச்": 7830,
      "மிருகத்தின்": 7831,
      "மிருகங்களும்": 7832,
      "ாமலிருந்தது": 7833,
      "வல்லமையையும்": 7834,
      "கிருபையினாலே": 7835,
      "னானாலும்": 7836,
      "லேவியர்களின்": 7837,
      "குடும்பத்தார்": 7838,
      "சாப்பிடவேண்டும்": 7839,
      "சாப்பிடவேண்டாம்": 7840,
      "முழங்கால": 7841,
      "அகசியா": 7842,
      "படைக்கவேண்டும்": 7843,
      "சந்தோஷமும்": 7844,
      "கொலைசெய்யும்படி": 7845,
      "அடங்க": 7846,
      "அறுநூறு": 7847,
      "சாலொமோனை": 7848,
      "உண்டாக்கவேண்டும்": 7849,
      "இவைகளைக்": 7850,
      "இவைகளுக்குப்": 7851,
      "சாயி": 7852,
      "பேசுவேன்": 7853,
      "ம்பண்ணினார்கள்": 7854,
      "விரும்பு": 7855,
      "னியாவின்": 7856,
      "சேர்ந்தார்கள்": 7857,
      "கூப்பிட்ட": 7858,
      "அணிவித்து": 7859,
      "வர்களுக்குள்ளே": 7860,
      "நியாயப்பிரமாணத்தில்": 7861,
      "பாழும்": 7862,
      "பாழாக்கி": 7863,
      "தூரத்திலிருந்து": 7864,
      "பாவம்செய்ய": 7865,
      "சர்வாங்கதகனபலி": 7866,
      "சிறுநீ": 7867,
      "யோசுவாவும்": 7868,
      "கொன்றுபோட்டு": 7869,
      "யாரென்றால்": 7870,
      "கவனிக்க": 7871,
      "தண்ணீரையும்": 7872,
      "களுக்குள்ளே": 7873,
      "அழுத": 7874,
      "அழுதான்": 7875,
      "ஆத்துமாவைக்": 7876,
      "சேர்த்துக்கொள்ள": 7877,
      "நாட்டிலே": 7878,
      "காணிக்கையை": 7879,
      "தங்கியிருக்கிற": 7880,
      "காண்பித்து": 7881,
      "கிடைக்க": 7882,
      "துக்கங்கொண்ட": 7883,
      "மலைக்கு": 7884,
      "விதைக்கப்பட்ட": 7885,
      "உதவிசெய்ய": 7886,
      "பதினொரு": 7887,
      "ஆட்டுக்கடாவையும்": 7888,
      "இவ்விட": 7889,
      "வாசிக்க": 7890,
      "சந்ததிக்கு": 7891,
      "கேட்கிறேன்": 7892,
      "குதிரைகளையும்": 7893,
      "கதவைத்": 7894,
      "சாமுவேல": 7895,
      "பொறுமையாக": 7896,
      "ப்பேர்": 7897,
      "க்கிறதுமில்லை": 7898,
      "சாப்பிட்டுத்": 7899,
      "ஈசாக்கின்": 7900,
      "யோர்தானின்": 7901,
      "நெருப்பிலே": 7902,
      "கருத": 7903,
      "அபிஷேகம்செய்த": 7904,
      "எப்படியோ": 7905,
      "ங்குகிறது": 7906,
      "நுழைகிற": 7907,
      "வறண்ட": 7908,
      "கலங்காமலும்": 7909,
      "தகுதியுள்ள": 7910,
      "நியாயாதிபதிய": 7911,
      "சர்வவல்ல": 7912,
      "ச்செய்கிறார்": 7913,
      "தோன்றின": 7914,
      "அர்த்தத்தை": 7915,
      "போய்க்": 7916,
      "இளைப்பாற": 7917,
      "இளைப்பாறுதல": 7918,
      "கொள்ளையிட்டு": 7919,
      "கால்நட": 7920,
      "வதைவிட": 7921,
      "ஆலோசனையை": 7922,
      "வாரிசு": 7923,
      "அம்புகளை": 7924,
      "தனிமையாக": 7925,
      "எல்லாவிதமான": 7926,
      "கசப்பான": 7927,
      "வயதுள்ளவர்கள்": 7928,
      "நிரந்தரமான": 7929,
      "மாறுபாட": 7930,
      "வனானான்": 7931,
      "வியாபாரம்": 7932,
      "தீட்டுப்பட்டிருப்பான்": 7933,
      "இறைச்சி": 7934,
      "பச்சையான": 7935,
      "செலவழி": 7936,
      "புழுதிய": 7937,
      "வெளிப்படையாக": 7938,
      "நியாயந்தீர்க்கிற": 7939,
      "பூசணம்": 7940,
      "முட்செடி": 7941,
      "முட்செடிய": 7942,
      "மரியாளும்": 7943,
      "ஆட்சியில்": 7944,
      "வாற்கோதுமை": 7945,
      "பரிசுத்தக்குலைச்ச": 7946,
      "சீமேயி": 7947,
      "மில்லையென்று": 7948,
      "கெதலியா": 7949,
      "ப்பொருள": 7950,
      "எழுதுகிறதாவது": 7951,
      "புகுந்து": 7952,
      "சுத்தப்பொன்ன": 7953,
      "ஐப்பிராத்து": 7954,
      "பாலைவன": 7955,
      "200": 7956,
      "அற்று": 7957,
      "எதற்கு": 7958,
      "எந்": 7959,
      "எபேசு": 7960,
      "ஏலா": 7961,
      "ஒது": 7962,
      "ஒப்பி": 7963,
      "சையும்": 7964,
      "சிலே": 7965,
      "சத்தை": 7966,
      "தட்ட": 7967,
      "னம்": 7968,
      "னுக்குச்": 7969,
      "பகி": 7970,
      "பவர்கள்": 7971,
      "பாய்ந்து": 7972,
      "லாகவும்": 7973,
      "வகுத்து": 7974,
      "ஷாத்": 7975,
      "ுண்டு": 7976,
      "ெடுக்க": 7977,
      "க்கைக்": 7978,
      "அவசிய": 7979,
      "துறை": 7980,
      "துவைத்து": 7981,
      "என்னிடத்திற்கு": 7982,
      "வாது": 7983,
      "ல்லாமலும்": 7984,
      "செங்கோ": 7985,
      "போன்": 7986,
      "முமுள்ள": 7987,
      "முந்நூறு": 7988,
      "க்கிறதற்கும்": 7989,
      "ற்படி": 7990,
      "கொஞ்": 7991,
      "ைகளுக்குக்": 7992,
      "களிலிருந்து": 7993,
      "களஞ்சிய": 7994,
      "பெத்து": 7995,
      "வரக்கூடாது": 7996,
      "ராண": 7997,
      "ஒருவனாக": 7998,
      "மகனுடைய": 7999,
      "ப்போய": 8000,
      "ப்போள": 8001,
      "ப்போவான்": 8002,
      "குற": 8003,
      "வர்களோடும்": 8004,
      "மானபோது": 8005,
      "இரதங்கள்": 8006,
      "இரையாக": 8007,
      "ய்யும்": 8008,
      "இருக்கிறாள்": 8009,
      "இருக்கிறவர்களுக்கும்": 8010,
      "இருந்ததினால்": 8011,
      "மிட்டு": 8012,
      "செய்யக்": 8013,
      "ப்புகளிலும்": 8014,
      "வைச்": 8015,
      "கூல": 8016,
      "்க்கும்": 8017,
      "ுகிறார்கள்": 8018,
      "தாண": 8019,
      "தாடிய": 8020,
      "தாபின்": 8021,
      "மையுமான": 8022,
      "அவனவனுடைய": 8023,
      "சீன்": 8024,
      "தாவின்": 8025,
      "வந்திருந்த": 8026,
      "கையைத்": 8027,
      "மனிதனே": 8028,
      "படியினாலும்": 8029,
      "இடமும்": 8030,
      "இஸ்ரவேலர்களுக்கு": 8031,
      "தகர்த்து": 8032,
      "தேசங்களிலும்": 8033,
      "னுமாக": 8034,
      "நிமி": 8035,
      "தூங்கி": 8036,
      "கொண்டுவருகிற": 8037,
      "கொண்டுவந்தான்": 8038,
      "ப்பட்டுப்": 8039,
      "வானமும்": 8040,
      "உடலை": 8041,
      "மீகாவின்": 8042,
      "கைக்கொள்": 8043,
      "பயப்படு": 8044,
      "கலந்த": 8045,
      "மனதாய": 8046,
      "எங்களுக்கும்": 8047,
      "எங்களிடம்": 8048,
      "கட்டளையின்படி": 8049,
      "அதிகமாகவும்": 8050,
      "மென்றும்": 8051,
      "வைகளுமாக": 8052,
      "எல்லோர்மேலும்": 8053,
      "க்கொள்ளும்படி": 8054,
      "ஆசாரியனிடத்தில்": 8055,
      "போகவும்": 8056,
      "அழிக்கவும்": 8057,
      "விலா": 8058,
      "விலக்கு": 8059,
      "அருளி": 8060,
      "தகப்பனே": 8061,
      "சிறகு": 8062,
      "விரோதமான": 8063,
      "த்தியனாகிய": 8064,
      "பலிகளைச்": 8065,
      "உள்ளவன்": 8066,
      "ஆலயத்திற்குக்": 8067,
      "பலியை": 8068,
      "வெளிப்படுத்தி": 8069,
      "வெளிப்புற": 8070,
      "நெய்ய": 8071,
      "உம்மிடம்": 8072,
      "தொட்ட": 8073,
      "மகன்களை": 8074,
      "சூவா": 8075,
      "கொடுத்தது": 8076,
      "ஞானத்தைக்": 8077,
      "பெரியது": 8078,
      "தாயிருக்கும்": 8079,
      "தாயிருந்தது": 8080,
      "இதுதான்": 8081,
      "காணும்போது": 8082,
      "பிறப்பி": 8083,
      "கோத்திரத்தார்கள்": 8084,
      "கோத்திரத்தார்": 8085,
      "கோபமுண்ட": 8086,
      "சாப்பிட்டார்கள்": 8087,
      "சாப்பிடுங்கள்": 8088,
      "சந்ததியார": 8089,
      "க்கேட்டேன்": 8090,
      "இரத்தத்தையும்": 8091,
      "இரத்தத்தினாலே": 8092,
      "கேட்கவேண்டும்": 8093,
      "யூதாவிலும்": 8094,
      "நீதியாக": 8095,
      "சமாதானமாக": 8096,
      "இனித்": 8097,
      "அருகிலும்": 8098,
      "போகிறான்": 8099,
      "கழுகு": 8100,
      "பலிபீடத்திற்கு": 8101,
      "சமவெளி": 8102,
      "உண்டாகும்படி": 8103,
      "வேலைய": 8104,
      "மிருகங்கள்": 8105,
      "லேவியர்களை": 8106,
      "ச்செய்தீர்": 8107,
      "கூடாரத்திற்கு": 8108,
      "பட்டயத்திற்கு": 8109,
      "சாப்பிடவும்": 8110,
      "ஒப்புக்கொடுப்பார்": 8111,
      "முழம்": 8112,
      "முழமுமாக": 8113,
      "அகியா": 8114,
      "ப்போகிறேன்": 8115,
      "சாட்சிகள்": 8116,
      "தீர்க்கதரிசிகளை": 8117,
      "காவற்": 8118,
      "ப்போகச்": 8119,
      "ப்போகும்படி": 8120,
      "நமக்குப்": 8121,
      "ஒன்றாகக்": 8122,
      "யூதர்களுக்கு": 8123,
      "இவைகளில்": 8124,
      "அனுப்பிவிட": 8125,
      "கூப்பிட்டேன்": 8126,
      "மனைவியும்": 8127,
      "மனைவியின்": 8128,
      "ஊழியக்காரன்": 8129,
      "எரிக்கும்": 8130,
      "அலட்சிய": 8131,
      "ராஜாக்களுக்கு": 8132,
      "ப்படுத்தினேன்": 8133,
      "அடியான்": 8134,
      "நிறுத்தினான்": 8135,
      "சத்தியமும்": 8136,
      "தூரம்": 8137,
      "வெட்கி": 8138,
      "பாவம்செய்து": 8139,
      "பங்கைக்": 8140,
      "காரம்": 8141,
      "பொய்ச்சாட்சி": 8142,
      "கொன்றுபோட்ட": 8143,
      "கனமும்": 8144,
      "க்கொள்ளுகிறார்கள்": 8145,
      "உணவுபலியாக": 8146,
      "மேலிருந்து": 8147,
      "சிந்தின": 8148,
      "ெல்லோருக்கும்": 8149,
      "பயப்படவேண்டாம்": 8150,
      "தன்னைப்": 8151,
      "வயதுமுதல்": 8152,
      "கண்ணோ": 8153,
      "கடைபிடி": 8154,
      "மேன்மையான": 8155,
      "அம்மின": 8156,
      "முன்னோர்களுடைய": 8157,
      "சூரியனுக்குக்": 8158,
      "தப்புவியும்": 8159,
      "கைகளிலும்": 8160,
      "பகைத்து": 8161,
      "ஓய்வுநாள": 8162,
      "பொல்லாப்பை": 8163,
      "பெற்றுக்கொண்ட": 8164,
      "மறையும்": 8165,
      "தகனபலியையும்": 8166,
      "வாலிபர்கள்": 8167,
      "சம்பள": 8168,
      "அனுப்பும்": 8169,
      "கொழுப்பு": 8170,
      "புத்தியும்": 8171,
      "இல்லையா": 8172,
      "ஆசீர்வதிப்பார்": 8173,
      "இராணுவத்தில்": 8174,
      "அப்படியிருக்க": 8175,
      "நிந்தி": 8176,
      "குழந்தைகளையும்": 8177,
      "எல்லோரையும்விட": 8178,
      "வேண்டிக்கொண்டான்": 8179,
      "வினாலே": 8180,
      "நித்தியஜீவனை": 8181,
      "ஆரம்பத்திலே": 8182,
      "தேவாலயத்தின்": 8183,
      "மாதப்பிற": 8184,
      "நான்காயிரம்பேர்": 8185,
      "தாழ்ந்த": 8186,
      "கன்மலையும்": 8187,
      "தப்புவித்து": 8188,
      "விலக்கிக்": 8189,
      "திராட்சைத்தோட்டத்தை": 8190,
      "கலிலேயாவ": 8191,
      "விலகிய": 8192,
      "அக்கினியில்": 8193,
      "மத்தியான": 8194,
      "சுத்திகரித்து": 8195,
      "அடைக்கலப்பட்ட": 8196,
      "காரணமில்லாமல்": 8197,
      "பெரிதாக": 8198,
      "எமோரியர்கள்": 8199,
      "அஸ்திபாரங்கள்": 8200,
      "இரதங்களையும்": 8201,
      "மார்பு": 8202,
      "காண்பாய்": 8203,
      "ஒடுக்கப்பட்ட": 8204,
      "த்தைக்குறித்துப்": 8205,
      "கோத்திரத்தார்களுக்கு": 8206,
      "சீட்டுப்போட்டு": 8207,
      "மரியாள்": 8208,
      "சம்மதி": 8209,
      "அசீரியாவின்": 8210,
      "கேருபீன்கள்": 8211,
      "பயணம்செய்து": 8212,
      "பின்பற்றின": 8213,
      "அயல": 8214,
      "ஆட்டுமந்த": 8215,
      "உதிக்கும்": 8216,
      "தண்டனையை": 8217,
      "முதற்பேறான": 8218,
      "இஸ்மவேல்": 8219,
      "அம்னோன்": 8220,
      "பெனாய": 8221,
      "கின்ன": 8222,
      "வியாதியுள்ள": 8223,
      "ஆட்டுக்கடாக்களும்": 8224,
      "வதற்காகவும்": 8225,
      "மீதியானியர்களின்": 8226,
      "யோயாக்கீ": 8227,
      "அற்பமாக": 8228,
      "பஞ்சத்தாலும்": 8229,
      "அசைவாட்டும்": 8230,
      "இருபத்தைந்த": 8231,
      "கன்றுக்குட்டி": 8232,
      "நசரேயனாகிய": 8233,
      "வெள்ளைப்போள": 8234,
      "உச்சியில்": 8235,
      "பதினைந்த": 8236,
      "பன்னிரண்டாம்": 8237,
      "பெயெர்செபா": 8238,
      "யோவாசின்": 8239,
      "யெப்தா": 8240,
      "வலுசர்ப்ப": 8241,
      "செய்தியைக்": 8242,
      "பேரீச்ச": 8243,
      "பிரேதக்கு": 8244,
      "மக்கெதோனியா": 8245,
      "தென்தி": 8246,
      "பரீட்சை": 8247,
      "பெருமூச்சு": 8248,
      "செருபாபே": 8249,
      "மனம்திர": 8250,
      "மணவாளன்": 8251,
      "அகங்கார": 8252,
      "சடல": 8253,
      "ராணியாகிய": 8254,
      "பற்பல": 8255,
      "சிறுநீரக": 8256,
      "22": 8257,
      "45": 8258,
      "600": 8259,
      "அபின": 8260,
      "ஆத": 8261,
      "ஆட்ட": 8262,
      "உழு": 8263,
      "எத்": 8264,
      "ஏழை": 8265,
      "ஒட்டி": 8266,
      "கின": 8267,
      "கரி": 8268,
      "கியா": 8269,
      "கர்வ": 8270,
      "கைகளைக்": 8271,
      "சந்து": 8272,
      "தட்டு": 8273,
      "தலே": 8274,
      "தச்ச": 8275,
      "னுக்குப்": 8276,
      "பல்ல": 8277,
      "படுகிற": 8278,
      "பட்சி": 8279,
      "பற்றிய": 8280,
      "மில": 8281,
      "மைப்": 8282,
      "ம்கா": 8283,
      "ல்கா": 8284,
      "லஞ்சம்": 8285,
      "ளின்": 8286,
      "வாகிய": 8287,
      "வட்டி": 8288,
      "வஞ்": 8289,
      "ீழ": 8290,
      "ென்ப": 8291,
      "்தவிர": 8292,
      "க்கான": 8293,
      "க்கழி": 8294,
      "்களுடைய": 8295,
      "த்தையே": 8296,
      "த்தருளும்": 8297,
      "துரி": 8298,
      "துவாக": 8299,
      "ட்டினார்கள்": 8300,
      "வில்லாத": 8301,
      "விசாரிய": 8302,
      "டுவோம்": 8303,
      "செதுக்கப்பட்ட": 8304,
      "போதா": 8305,
      "செயல": 8306,
      "த்துக்கள": 8307,
      "ினாள்": 8308,
      "முட்டுகளையும்": 8309,
      "னைச்": 8310,
      "ாலாவது": 8311,
      "புல்": 8312,
      "சுமை": 8313,
      "ாயின்": 8314,
      "அதோனியா": 8315,
      "ராத": 8316,
      "என்றது": 8317,
      "ஒருவரை": 8318,
      "செய்ததை": 8319,
      "செய்தபின்பு": 8320,
      "வெப்ப": 8321,
      "தன்னைக்": 8322,
      "டியாக": 8323,
      "செய்வாய்": 8324,
      "கேடு": 8325,
      "கேகில": 8326,
      "இரை": 8327,
      "பாதங்கள்": 8328,
      "இருக்கிறதையும்": 8329,
      "பேத": 8330,
      "பேசிய": 8331,
      "மக்களிலும்": 8332,
      "மிதித்து": 8333,
      "மில்லாதிரு": 8334,
      "செய்யத்": 8335,
      "யோதாம்": 8336,
      "யோசித்து": 8337,
      "வைப்பார்கள்": 8338,
      "தோன்றி": 8339,
      "்க்கிட": 8340,
      "லேத்": 8341,
      "மகனாக": 8342,
      "மகனின்": 8343,
      "தேவனாலும்": 8344,
      "தேவனுக்குக்": 8345,
      "நோயாளி": 8346,
      "கிப்": 8347,
      "வருந்தி": 8348,
      "நியம": 8349,
      "படியான": 8350,
      "தங்களைக்": 8351,
      "தங்களைப்": 8352,
      "இடமாகிய": 8353,
      "இஸ்ரவேலர்களின்": 8354,
      "என்னைவிட": 8355,
      "தேசங்களும்": 8356,
      "தேசமாகிய": 8357,
      "நடந்துகொள்ள": 8358,
      "நடந்துகொண்ட": 8359,
      "அதின்படி": 8360,
      "னுமாகிய": 8361,
      "யேகோ": 8362,
      "எழுப்ப": 8363,
      "தூண்ட": 8364,
      "அதுவே": 8365,
      "போனாலும்": 8366,
      "அதற்குள்": 8367,
      "உடைகளையும்": 8368,
      "பயந்தார்கள்": 8369,
      "நாளெல்லாம்": 8370,
      "மனவேதன": 8371,
      "மனோவா": 8372,
      "இயேசுவினிடத்தில்": 8373,
      "அதைக்குறித்து": 8374,
      "அவர்களைவிட்டு": 8375,
      "ராஜாவினுடைய": 8376,
      "திரும்புகிற": 8377,
      "முகமாக": 8378,
      "க்கொண்டிருக்கிறது": 8379,
      "சகோதரனும்": 8380,
      "சகோதரர்களோடு": 8381,
      "இருப்பதினால்": 8382,
      "இருப்பானாக": 8383,
      "ஆசாரியனாக": 8384,
      "அவைகளுக்குப்": 8385,
      "தற்கான": 8386,
      "என்பதைக்": 8387,
      "இருக்கும்போதே": 8388,
      "தலைவர்களாக": 8389,
      "ராக்": 8390,
      "சொல்லிக்": 8391,
      "சிலநாட்கள்": 8392,
      "மறுஉத்திரவு": 8393,
      "கூடினார்கள்": 8394,
      "நெத்தான": 8395,
      "வளர்த்த": 8396,
      "இரண்டுபேர்": 8397,
      "மற்றக்": 8398,
      "வெள்ளியை": 8399,
      "நினைக்க": 8400,
      "பெற்றபின்": 8401,
      "ோனுக்கு": 8402,
      "அடிக்கிற": 8403,
      "அழைத்தான்": 8404,
      "வயலில்": 8405,
      "சூள": 8406,
      "கண்டோம்": 8407,
      "விடுவார்கள்": 8408,
      "யெகோவாவுக்குள்": 8409,
      "ப்போனாள்": 8410,
      "பரதேசி": 8411,
      "புறப்பட்டுப்போனான்": 8412,
      "பிறந்தார்கள்": 8413,
      "கோபமூ": 8414,
      "பில்க": 8415,
      "சோதனை": 8416,
      "வேலைக்காரர்களும்": 8417,
      "வேலைக்காரர்களில்": 8418,
      "கேட்கும்": 8419,
      "கேட்காமலும்": 8420,
      "கேட்கவில்லை": 8421,
      "கேட்கும்போது": 8422,
      "நெருக்கி": 8423,
      "வேறொன்ற": 8424,
      "மகளான": 8425,
      "சொல்வது": 8426,
      "கண்களும்": 8427,
      "யூதாவில்": 8428,
      "க்கூடா": 8429,
      "நன்மையை": 8430,
      "பலிபீடத்தையும்": 8431,
      "சமமாக": 8432,
      "நாட்கள்வரை": 8433,
      "பிடித்துக்": 8434,
      "கிருபையையும்": 8435,
      "அடைந்து": 8436,
      "அடைக்கப்பட்ட": 8437,
      "ஸ்தலத்தில்": 8438,
      "ரிடத்திலும்": 8439,
      "குடும்பங்கள": 8440,
      "குடும்பத்தின": 8441,
      "கூடாரத்தை": 8442,
      "எலியே": 8443,
      "கொண்டிருந்த": 8444,
      "சாப்பிடக்கூடாது": 8445,
      "முழமாக": 8446,
      "மரணத்திற்குரிய": 8447,
      "சரீரத்திற்கு": 8448,
      "முறையில்": 8449,
      "பெண்ணே": 8450,
      "சீடர்களை": 8451,
      "ட்சியும்": 8452,
      "சுமந்த": 8453,
      "வீரர்களையும்": 8454,
      "பெலிஸ்திய": 8455,
      "படகு": 8456,
      "துரத்தின": 8457,
      "கூட்டமாக": 8458,
      "அபிகாய": 8459,
      "அணிவகுத்து": 8460,
      "பானபாத்திர": 8461,
      "பானபலிகளையும்": 8462,
      "போகும்வரை": 8463,
      "அலைகிற": 8464,
      "நியாயப்பிரமாணத்தின்படி": 8465,
      "தெய்வங்களையும்": 8466,
      "வேறுசிலர்": 8467,
      "்கொடு": 8468,
      "ாமற்போனான்": 8469,
      "பறக்கடி": 8470,
      "எப்படிச்": 8471,
      "வம்சத்தில்": 8472,
      "உண்டாயிருந்த": 8473,
      "வேறொருவரும்": 8474,
      "நிரப்பி": 8475,
      "சிந்தன": 8476,
      "யோவாபின்": 8477,
      "பிள்ளைகளுக்கு": 8478,
      "ஆத்துமாவே": 8479,
      "பரலோகராஜ்யம்": 8480,
      "செவிகொடுக்கிற": 8481,
      "பிரபுக்களுக்கும்": 8482,
      "எங்கேயிருந்து": 8483,
      "அறிந்திருக்கிறீர்கள்": 8484,
      "கூடிவந்தார்கள்": 8485,
      "ஆத்துமாவுக்கு": 8486,
      "இவர்களில்": 8487,
      "பாலசிங்க": 8488,
      "மடைந்த": 8489,
      "க்கப்படுவான்": 8490,
      "முன்னோர்களுக்கு": 8491,
      "வார்த்தைகளைச்": 8492,
      "கைகளினால்": 8493,
      "ஓய்வுநாளிலே": 8494,
      "கப்பல்கள": 8495,
      "சொல்லுவான்": 8496,
      "தகனபலியாக": 8497,
      "புறப்படச்செய்தார்": 8498,
      "ராஜ்ஜியத்தின்": 8499,
      "எலிஷ": 8500,
      "சென்றது": 8501,
      "தூபம்": 8502,
      "விருத்தசேதனமில்லாத": 8503,
      "கீலேயாத்தின்": 8504,
      "குணமுள்ள": 8505,
      "குணமாக்க": 8506,
      "பெயரைத்": 8507,
      "வெள்ளித்த": 8508,
      "தெரிந்துகொள்ளும்": 8509,
      "ங்கியது": 8510,
      "கிராமங்களிலும்": 8511,
      "ரூபனிய": 8512,
      "குடிக்காமலும்": 8513,
      "நூலையும்": 8514,
      "சாப்பிடுவதற்கு": 8515,
      "நம்பின": 8516,
      "முகாமிட்டு": 8517,
      "தப்புவிக்க": 8518,
      "நொறுங்கு": 8519,
      "அபிஷேகம்செய்து": 8520,
      "கண்டுபிடிக்க": 8521,
      "பிரவேசிக்க": 8522,
      "மாலைநேர": 8523,
      "மேய்ப்பன்": 8524,
      "பந்தி": 8525,
      "அடித்துக்கொண்டு": 8526,
      "கலிலேய": 8527,
      "நெருப்புத்த": 8528,
      "தீர்மானி": 8529,
      "முடியும்வரை": 8530,
      "குறித்துக்": 8531,
      "விலகாமல்": 8532,
      "கீழ்ப்படிகிற": 8533,
      "ஆழமான": 8534,
      "தகுதியான": 8535,
      "பெரிதும்": 8536,
      "நியமித்து": 8537,
      "கால்களால்": 8538,
      "உங்களோடுகூட": 8539,
      "இரதங்களின்": 8540,
      "அமைதியாக": 8541,
      "கிளைகள்": 8542,
      "மரித்தோர்": 8543,
      "சிறையிருப்பின்": 8544,
      "சிறையிருப்பைத்": 8545,
      "சிறையிருப்பிலிருந்து": 8546,
      "தில்லையோ": 8547,
      "தோன்றிய": 8548,
      "காண்பதில்லை": 8549,
      "சகோதரியாகிய": 8550,
      "கானானியர்கள்": 8551,
      "க்கொள்ளுவான்": 8552,
      "தைரியமாக": 8553,
      "கேடகமும்": 8554,
      "கெர்சோன்": 8555,
      "மாறுபாடு": 8556,
      "யோனத்தானும்": 8557,
      "சமாரியாவிலே": 8558,
      "திருடன்": 8559,
      "பெறுவான்": 8560,
      "கேட்பேன்": 8561,
      "ஆடுமாடுகளையும்": 8562,
      "பரிசுத்தவான்களுடைய": 8563,
      "உதடுகளின்": 8564,
      "பச்சை": 8565,
      "முதிர்வயதான": 8566,
      "ஏபோத்தின்": 8567,
      "சீதோனிய": 8568,
      "வாய்க்கால": 8569,
      "பாசானின்": 8570,
      "எரிச்சல்": 8571,
      "சிறுமைப்பட்ட": 8572,
      "குற்றஞ்சாட்ட": 8573,
      "இருக்குமே": 8574,
      "பக்திவள": 8575,
      "கரைந்து": 8576,
      "யோவானும்": 8577,
      "வெண்மையான": 8578,
      "கத்தரி": 8579,
      "பெர்சியாவின்": 8580,
      "பறவைகளுக்கும்": 8581,
      "எலெயாசாரும்": 8582,
      "எசேக்கியாவின்": 8583,
      "தசமபாகம்": 8584,
      "ஒன்பதாம்": 8585,
      "தவறி": 8586,
      "கொளுத்தி": 8587,
      "மேட்டிமையான": 8588,
      "மேற்கொள்ள": 8589,
      "வேதவாக்கியம்": 8590,
      "வருடங்களாக": 8591,
      "கொடூர": 8592,
      "எதையாவது": 8593,
      "ஆவியானவருக்குரிய": 8594,
      "அறையப்பட்ட": 8595,
      "அகீக்க": 8596,
      "ின்றன": 8597,
      "சாம்பல்": 8598,
      "கர்த்த்தரை": 8599,
      "வாழ்க்கை": 8600,
      "வீடாகிய": 8601,
      "பெனாதாத்": 8602,
      "தீர்மானிக்கக்கடவன்": 8603,
      "சமுத்திரம்": 8604,
      "காவற்சேனாதி": 8605,
      "அநீதி": 8606,
      "ஆசே": 8607,
      "இசை": 8608,
      "இதைப்": 8609,
      "இதினிமித்தம்": 8610,
      "உச்ச": 8611,
      "ஊதின": 8612,
      "எப்பு": 8613,
      "எடை": 8614,
      "எடைய": 8615,
      "எய்த": 8616,
      "ஏர்": 8617,
      "கும்ப": 8618,
      "சலி": 8619,
      "ஜாக்க": 8620,
      "தந்து": 8621,
      "தகுதி": 8622,
      "தருகிற": 8623,
      "தகாத": 8624,
      "நகூ": 8625,
      "நரை": 8626,
      "பதின்": 8627,
      "ம்க": 8628,
      "மடி": 8629,
      "முக்குப்": 8630,
      "ரம்": 8631,
      "லியின்": 8632,
      "வண்ட": 8633,
      "வதில்லையென்று": 8634,
      "்தம்": 8635,
      "க்கல்ல": 8636,
      "க்கிலே": 8637,
      "த்தைய": 8638,
      "த்தாலே": 8639,
      "ையுங்கள்": 8640,
      "ருக்கென்று": 8641,
      "துடை": 8642,
      "என்பா": 8643,
      "ர்நகூ": 8644,
      "விடி": 8645,
      "வினிடம்": 8646,
      "திர்ந்த": 8647,
      "ானின்": 8648,
      "ானேன்": 8649,
      "வேவு": 8650,
      "வேசிய": 8651,
      "போக்கும்": 8652,
      "போகட்டும்": 8653,
      "த்துவேன்": 8654,
      "தேற்ற": 8655,
      "தேற்று": 8656,
      "தேடியும்": 8657,
      "ிரத": 8658,
      "யெக": 8659,
      "கொட்ட": 8660,
      "ைகளினால்": 8661,
      "ாயும்": 8662,
      "ாயிருக்கிறது": 8663,
      "சொல்லாதிரு": 8664,
      "ாமும்": 8665,
      "ாம்தே": 8666,
      "களினாலே": 8667,
      "களுமே": 8668,
      "வனெ": 8669,
      "வனென்று": 8670,
      "வனுக்குத்": 8671,
      "பெத்தான": 8672,
      "வரோ": 8673,
      "வரத்து": 8674,
      "வரப்போகிற": 8675,
      "பிட": 8676,
      "க்கொன்று": 8677,
      "செய்தபடியெல்லாம்": 8678,
      "மாற்று": 8679,
      "வெறிய": 8680,
      "குன்று": 8681,
      "குத்தி": 8682,
      "குஷ்ட": 8683,
      "குஞ்சு": 8684,
      "சொல்லவேண்டாம்": 8685,
[...]
