{
  "version": "1.0",
  "truncation": null,
  "padding": null,
  "added_tokens": [
    {
      "id": 0,
      "content": "<pad>",
      "single_word": false,
      "lstrip": false,
      "rstrip": false,
      "normalized": false,
      "special": true
    },
    {
      "id": 1,
      "content": "<unk>",
      "single_word": false,
      "lstrip": false,
      "rstrip": false,
      "normalized": false,
      "special": true
    },
    {
      "id": 2,
      "content": "<s>",
      "single_word": false,
      "lstrip": false,
      "rstrip": false,
      "normalized": false,
      "special": true
    },
    {
      "id": 3,
      "content": "</s>",
      "single_word": false,
      "lstrip": false,
      "rstrip": false,
      "normalized": false,
      "special": true
    }
  ],
  "normalizer": null,
  "pre_tokenizer": {
    "type": "Sequence",
    "pretokenizers": [
      {
        "type": "Whitespace"
      },
      {
        "type": "Split",
        "pattern": {
          "Regex": "(?<=[က-႟꤀-꤯])(?=[A-Za-z0-9])|(?<=[A-Za-z0-9])(?=[က-႟꤀-꤯])"
        },
        "behavior": "Isolated",
        "invert": false
      }
    ]
  },
  "post_processor": null,
  "decoder": null,
  "model": {
    "type": "BPE",
    "dropout": null,
    "unk_token": "<unk>",
    "continuing_subword_prefix": null,
    "end_of_word_suffix": null,
    "fuse_unk": false,
    "byte_fallback": false,
    "ignore_merges": false,
    "vocab": {
      "<pad>": 0,
      "<unk>": 1,
      "<s>": 2,
      "</s>": 3,
      "!": 4,
      "(": 5,
      ")": 6,
      ",": 7,
      "-": 8,
      ".": 9,
      "0": 10,
      "1": 11,
      "2": 12,
      "3": 13,
      "4": 14,
      "5": 15,
      "6": 16,
      "7": 17,
      "8": 18,
      "9": 19,
      ":": 20,
      ";": 21,
      "?": 22,
      "A": 23,
      "B": 24,
      "C": 25,
      "D": 26,
      "E": 27,
      "F": 28,
      "G": 29,
      "H": 30,
      "I": 31,
      "J": 32,
      "K": 33,
      "L": 34,
      "M": 35,
      "N": 36,
      "O": 37,
      "P": 38,
      "Q": 39,
      "R": 40,
      "S": 41,
      "T": 42,
      "U": 43,
      "V": 44,
      "W": 45,
      "X": 46,
      "Y": 47,
      "Z": 48,
      "[": 49,
      "]": 50,
      "a": 51,
      "b": 52,
      "c": 53,
      "d": 54,
      "e": 55,
      "f": 56,
      "g": 57,
      "h": 58,
      "i": 59,
      "j": 60,
      "k": 61,
      "l": 62,
      "m": 63,
      "n": 64,
      "o": 65,
      "p": 66,
      "q": 67,
      "r": 68,
      "s": 69,
      "t": 70,
      "u": 71,
      "v": 72,
      "w": 73,
      "x": 74,
      "y": 75,
      "z": 76,
      "­": 77,
      "ó": 78,
      "Ṭ": 79,
      "ṭ": 80,
      "‘": 81,
      "’": 82,
      "“": 83,
      "”": 84,
      "…": 85,
      "an": 86,
      "ah": 87,
      "in": 88,
      "aw": 89,
      "ih": 90,
      "th": 91,
      "ang": 92,
      "ak": 93,
      "un": 94,
      "si": 95,
      "cu": 96,
      "mi": 97,
      "ing": 98,
      "ti": 99,
      "le": 100,
      "am": 101,
      "awl": 102,
      "ha": 103,
      "ding": 104,
      "lo": 105,
      "tu": 106,
      "pa": 107,
      "pawl": 108,
      "ka": 109,
      "nak": 110,
      "ung": 111,
      "hm": 112,
      "ei": 113,
      "ng": 114,
      "uh": 115,
      "al": 116,
      "ai": 117,
      "thi": 118,
      "um": 119,
      "hn": 120,
      "eh": 121,
      "en": 122,
      "hr": 123,
      "awi": 124,
      "te": 125,
      "kha": 126,
      "uah": 127,
      "kh": 128,
      "na": 129,
      "nan": 130,
      "Cu": 131,
      "thl": 132,
      "ar": 133,
      "angah": 134,
      "awipa": 135,
      "ek": 136,
      "pi": 137,
      "hi": 138,
      "ru": 139,
      "Bawipa": 140,
      "at": 141,
      "hnen": 142,
      "tl": 143,
      "cun": 144,
      "sin": 145,
      "thu": 146,
      "el": 147,
      "Pa": 148,
      "sung": 149,
      "hl": 150,
      "hmuah": 151,
      "ṭh": 152,
      "thian": 153,
      "awn": 154,
      "ra": 155,
      "Pathian": 156,
      "sa": 157,
      "tuah": 158,
      "zi": 159,
      "ram": 160,
      "su": 161,
      "tiah": 162,
      "mah": 163,
      "zo": 164,
      "hnenah": 165,
      "ter": 166,
      "et": 167,
      "tik": 168,
      "kan": 169,
      "pah": 170,
      "thei": 171,
      ",”": 172,
      "il": 173,
      "im": 174,
      "khal": 175,
      "ph": 176,
      "bi": 177,
      "rang": 178,
      "seh": 179,
      "ruangah": 180,
      "tikah": 181,
      "hat": 182,
      "fa": 183,
      "khu": 184,
      "pek": 185,
      "uan": 186,
      "ri": 187,
      "ral": 188,
      "angpah": 189,
      "angpahrang": 190,
      "awng": 191,
      "ihsin": 192,
      "Je": 193,
      "sim": 194,
      "pei": 195,
      "la": 196,
      "lung": 197,
      "dingah": 198,
      "hman": 199,
      "akhat": 200,
      "bang": 201,
      "lam": 202,
      "par": 203,
      "Is": 204,
      "khaw": 205,
      "hmuahhmuah": 206,
      "khua": 207,
      "duh": 208,
      "on": 209,
      "uk": 210,
      "inn": 211,
      "au": 212,
      "rael": 213,
      "Israel": 214,
      "pakhat": 215,
      "ṭheh": 216,
      "khat": 217,
      "siangpahrang": 218,
      "inak": 219,
      "za": 220,
      "Ka": 221,
      "em": 222,
      "feh": 223,
      "lak": 224,
      "er": 225,
      "zet": 226,
      "ṭha": 227,
      "ci": 228,
      "An": 229,
      "nei": 230,
      "eih": 231,
      "so": 232,
      "aan": 233,
      "ku": 234,
      "Mi": 235,
      "eng": 236,
      "va": 237,
      "nih": 238,
      "thle": 239,
      "sal": 240,
      "thil": 241,
      "ki": 242,
      "vek": 243,
      "fapa": 244,
      "ahcun": 245,
      "ong": 246,
      "dang": 247,
      "Na": 248,
      "awh": 249,
      "ni": 250,
      "hai": 251,
      "suah": 252,
      "Cule": 253,
      "Si": 254,
      "ziang": 255,
      "rak": 256,
      "thawn": 257,
      "awk": 258,
      "nu": 259,
      "dah": 260,
      "tuk": 261,
      "lai": 262,
      "ring": 263,
      "sungah": 264,
      "awm": 265,
      "vi": 266,
      "Zi": 267,
      "ain": 268,
      "inung": 269,
      "sual": 270,
      "thin": 271,
      "sinain": 272,
      "Jes": 273,
      "pu": 274,
      "thiam": 275,
      "parah": 276,
      "ko": 277,
      "do": 278,
      "sak": 279,
      "phun": 280,
      "Jesuh": 281,
      "tla": 282,
      "tho": 283,
      "ṭuan": 284,
      "Hi": 285,
      "minung": 286,
      "awinak": 287,
      "li": 288,
      "os": 289,
      "nun": 290,
      "kap": 291,
      "hmu": 292,
      "siat": 293,
      "bangtuk": 294,
      "lawng": 295,
      "thlun": 296,
      "ve": 297,
      "hram": 298,
      "bik": 299,
      "hrangah": 300,
      "eimah": 301,
      "hu": 302,
      "theih": 303,
      "sehla": 304,
      "hmai": 305,
      "maw": 306,
      "cang": 307,
      "hmun": 308,
      "ro": 309,
      "amah": 310,
      "ta": 311,
      "rh": 312,
      "Cuih": 313,
      "lem": 314,
      "kum": 315,
      "lu": 316,
      "nga": 317,
      "co": 318,
      "Nan": 319,
      "hlah": 320,
      "suak": 321,
      "nung": 322,
      "Asinain": 323,
      "Ju": 324,
      "tam": 325,
      "Curuangah": 326,
      "tile": 327,
      "pe": 328,
      "san": 329,
      "ik": 330,
      "es": 331,
      "siseh": 332,
      "cuih": 333,
      "biak": 334,
      "uai": 335,
      "vekin": 336,
      "thluh": 337,
      "tum": 338,
      "tein": 339,
      "Judah": 340,
      "angahtile": 341,
      "sang": 342,
      "ṭong": 343,
      "hna": 344,
      "iak": 345,
      "sungih": 346,
      "hnenih": 347,
      "hmuh": 348,
      "thla": 349,
      "kim": 350,
      "thleng": 351,
      "nawn": 352,
      "van": 353,
      "ur": 354,
      "Da": 355,
      "thawinak": 356,
      "Jo": 357,
      "Cutikah": 358,
      "ralkap": 359,
      "ab": 360,
      "Cuti": 361,
      "pekmi": 362,
      "tiang": 363,
      "tawk": 364,
      "thlah": 365,
      "ul": 366,
      "Kan": 367,
      "vid": 368,
      "David": 369,
      "kam": 370,
      "rawl": 371,
      "tlun": 372,
      "sen": 373,
      "ummi": 374,
      "that": 375,
      "tlang": 376,
      "khalsehla": 377,
      "loin": 378,
      "hmin": 379,
      "tin": 380,
      "hrih": 381,
      "vo": 382,
      "ṭhen": 383,
      "hnuah": 384,
      "ithiam": 385,
      "ngai": 386,
      "to": 387,
      "lang": 388,
      "ho": 389,
      "sun": 390,
      "hrin": 391,
      "har": 392,
      "umnak": 393,
      "thang": 394,
      "awla": 395,
      "de": 396,
      "ahnak": 397,
      "hnak": 398,
      "dai": 399,
      "run": 400,
      "angmah": 401,
      "khawpi": 402,
      "Jeru": 403,
      "tuahmi": 404,
      "salem": 405,
      "Jerusalem": 406,
      "sawn": 407,
      "thiang": 408,
      "kut": 409,
      "uhla": 410,
      "mei": 411,
      "Sikhalsehla": 412,
      "thawng": 413,
      "thlen": 414,
      "hlim": 415,
      "cam": 416,
      "tampi": 417,
      "bangin": 418,
      "Maw": 419,
      "Mos": 420,
      "Moses": 421,
      "awt": 422,
      "Biak": 423,
      "ero": 424,
      "lei": 425,
      "as": 426,
      "keimah": 427,
      "leil": 428,
      "ngah": 429,
      "ṭhat": 430,
      "ret": 431,
      "ringring": 432,
      "sawm": 433,
      "Biakinn": 434,
      "zip": 435,
      "Izip": 436,
      "Izipt": 437,
      ",’": 438,
      "thinlung": 439,
      "leilung": 440,
      "puan": 441,
      "thum": 442,
      "ingai": 443,
      "ngaingai": 444,
      "hlo": 445,
      "tlak": 446,
      "Siangpahrang": 447,
      "bo": 448,
      "po": 449,
      "zianghman": 450,
      "miphun": 451,
      "zoh": 452,
      "hin": 453,
      "ruah": 454,
      "dingih": 455,
      "?”": 456,
      "upa": 457,
      "hlan": 458,
      "tah": 459,
      "Ziang": 460,
      "hng": 461,
      "neih": 462,
      "rah": 463,
      "puithiam": 464,
      "sar": 465,
      "kir": 466,
      "Amah": 467,
      "tak": 468,
      "tlan": 469,
      "pahnih": 470,
      "dam": 471,
      "sualnak": 472,
      "eb": 473,
      "bawi": 474,
      "angih": 475,
      "cia": 476,
      "iah": 477,
      "zin": 478,
      "Thi": 479,
      "zaang": 480,
      "lh": 481,
      "dingin": 482,
      "sia": 483,
      "daan": 484,
      "ihnak": 485,
      "zing": 486,
      "lomi": 487,
      "hruai": 488,
      "hnaṭuan": 489,
      "Ab": 490,
      "Th": 491,
      "rero": 492,
      "asi": 493,
      "uang": 494,
      "parih": 495,
      "pum": 496,
      "hrim": 497,
      "ṭih": 498,
      "rin": 499,
      "siatsuah": 500,
      "cung": 501,
      "ón": 502,
      "rat": 503,
      "lakah": 504,
      "thing": 505,
      "fet": 506,
      "tuu": 507,
      "dung": 508,
      "Keimah": 509,
      "hrem": 510,
      "nangmah": 511,
      "fi": 512,
      "sut": 513,
      "rofet": 514,
      "zu": 515,
      "deuh": 516,
      "tuar": 517,
      "hmaiah": 518,
      "eu": 519,
      "nunnak": 520,
      "neh": 521,
      "ziangahtile": 522,
      "atu": 523,
      "rel": 524,
      "naón": 525,
      "sarih": 526,
      "zohman": 527,
      "kil": 528,
      "hotu": 529,
      "Zo": 530,
      "ruat": 531,
      "Ba": 532,
      "mnak": 533,
      "Ziangahtile": 534,
      "man": 535,
      "duhd": 536,
      "thah": 537,
      "caw": 538,
      "Khrih": 539,
      "Ti": 540,
      "anmah": 541,
      "timi": 542,
      "ad": 543,
      "einak": 544,
      "Cun": 545,
      "senpi": 546,
      "dik": 547,
      "nupi": 548,
      "heng": 549,
      "Jos": 550,
      "Thl": 551,
      "dil": 552,
      "riah": 553,
      "zum": 554,
      "kham": 555,
      "nunau": 556,
      "caan": 557,
      "bit": 558,
      "ṭhi": 559,
      "dingmi": 560,
      "Am": 561,
      "zar": 562,
      "theinak": 563,
      "lon": 564,
      "hlawh": 565,
      "lamzin": 566,
      "zatein": 567,
      "fim": 568,
      "zan": 569,
      "zaangf": 570,
      "unau": 571,
      "ciam": 572,
      "asile": 573,
      "profet": 574,
      "ba": 575,
      "nau": 576,
      "zetin": 577,
      "mon": 578,
      "ca": 579,
      "kiang": 580,
      "hnik": 581,
      "khawm": 582,
      "vancung": 583,
      "be": 584,
      "than": 585,
      "ṭheng": 586,
      "is": 587,
      "arau": 588,
      "atnak": 589,
      "tong": 590,
      "Thu": 591,
      "siar": 592,
      "mit": 593,
      "leng": 594,
      "duhdawt": 595,
      "hua": 596,
      "ke": 597,
      "thlang": 598,
      "hmang": 599,
      "rawn": 600,
      "can": 601,
      "asinain": 602,
      "nanmah": 603,
      "thianghlim": 604,
      "zirh": 605,
      "tang": 606,
      "Eli": 607,
      "ciamco": 608,
      "hrek": 609,
      "lonak": 610,
      "biakṭheng": 611,
      "kai": 612,
      "thangṭhat": 613,
      "cak": 614,
      "tidai": 615,
      "sinfa": 616,
      "kumkhua": 617,
      "tle": 618,
      "ngan": 619,
      "Lei": 620,
      "Sh": 621,
      "faa": 622,
      "thilri": 623,
      "Le": 624,
      "hrangih": 625,
      "tesinfa": 626,
      "sabit": 627,
      "hril": 628,
      "thukam": 629,
      "thluntu": 630,
      "hnih": 631,
      "thotho": 632,
      "bawipa": 633,
      "ciar": 634,
      "tlunah": 635,
      "sui": 636,
      "Sau": 637,
      "Saul": 638,
      "or": 639,
      "laiah": 640,
      "nungbik": 641,
      "Kh": 642,
      "Cung": 643,
      "Cungnungbik": 644,
      "misenpi": 645,
      "fan": 646,
      "Be": 647,
      "Ni": 648,
      "cem": 649,
      "bawm": 650,
      "rual": 651,
      "ut": 652,
      "fai": 653,
      "hni": 654,
      "nam": 655,
      "simmi": 656,
      "tawkah": 657,
      "di": 658,
      "ako": 659,
      "dar": 660,
      "hnakin": 661,
      "me": 662,
      "mawh": 663,
      "keng": 664,
      "kho": 665,
      "thlam": 666,
      "tluk": 667,
      "hla": 668,
      "suahnak": 669,
      "sh": 670,
      "ala": 671,
      "khawzing": 672,
      "rem": 673,
      "khalah": 674,
      "ṭul": 675,
      "ṭheu": 676,
      "milai": 677,
      "hiti": 678,
      "Levi": 679,
      "Jeh": 680,
      "hum": 681,
      "uktu": 682,
      "vivo": 683,
      "ciami": 684,
      "tan": 685,
      "So": 686,
      "meisa": 687,
      "Babi": 688,
      "tahrat": 689,
      "thih": 690,
      "Babilon": 691,
      "luat": 692,
      "mang": 693,
      "Cuticun": 694,
      "tiih": 695,
      "zia": 696,
      "tikcu": 697,
      "ual": 698,
      "kung": 699,
      "kul": 700,
      "rori": 701,
      "langter": 702,
      "awknak": 703,
      "akob": 704,
      "Jakob": 705,
      "Thiang": 706,
      "Sam": 707,
      "siah": 708,
      "dan": 709,
      "far": 710,
      "hri": 711,
      "thupekmi": 712,
      "Thianghlim": 713,
      "ria": 714,
      "khi": 715,
      "tha": 716,
      "Ral": 717,
      "hnipuan": 718,
      "vun": 719,
      "lole": 720,
      "lungawi": 721,
      "lakih": 722,
      "fanu": 723,
      "ef": 724,
      "da": 725,
      "fang": 726,
      "hawl": 727,
      "fing": 728,
      "riat": 729,
      "ning": 730,
      "!”": 731,
      "dawi": 732,
      "lamah": 733,
      "Leilung": 734,
      "apa": 735,
      "faate": 736,
      "ez": 737,
      "re": 738,
      "Daan": 739,
      "Nangmah": 740,
      "pang": 741,
      "tel": 742,
      "Aar": 743,
      "phar": 744,
      "Aaron": 745,
      "zah": 746,
      "unak": 747,
      "lut": 748,
      "hmanah": 749,
      "nannih": 750,
      "sungin": 751,
      "saang": 752,
      "hnu": 753,
      "thok": 754,
      "Fil": 755,
      "Mil": 756,
      "zak": 757,
      "ruk": 758,
      "kei": 759,
      "ilva": 760,
      "tka": 761,
      "uham": 762,
      "ṭa": 763,
      "sau": 764,
      "hrimhrim": 765,
      "Khaw": 766,
      "Gi": 767,
      "han": 768,
      "Hm": 769,
      "lomon": 770,
      "Solomon": 771,
      "Atu": 772,
      "rai": 773,
      "tiva": 774,
      "mawi": 775,
      "mipa": 776,
      "huham": 777,
      "hung": 778,
      "hlei": 779,
      "thli": 780,
      "ṭilva": 781,
      "upat": 782,
      "rinsan": 783,
      "thlaw": 784,
      "phan": 785,
      "ngun": 786,
      "Josef": 787,
      "Tu": 788,
      "cuti": 789,
      "Puan": 790,
      "ton": 791,
      "theitu": 792,
      "hmaisa": 793,
      "midang": 794,
      "Ziangah": 795,
      "thinheng": 796,
      "bu": 797,
      "ramah": 798,
      "vancungmi": 799,
      "phah": 800,
      "Van": 801,
      "mal": 802,
      "kawh": 803,
      "Thlarau": 804,
      "bal": 805,
      "ari": 806,
      "Far": 807,
      "dungthluntu": 808,
      "zaangfahnak": 809,
      "rei": 810,
      "let": 811,
      "duhdawtnak": 812,
      "satnak": 813,
      "milem": 814,
      "Tlang": 815,
      "tiangin": 816,
      "In": 817,
      "Filis": 818,
      "no": 819,
      "thisen": 820,
      "raham": 821,
      "Abraham": 822,
      "Filistin": 823,
      "Pu": 824,
      "thlai": 825,
      "tuahtu": 826,
      "zetmi": 827,
      "innsang": 828,
      "zate": 829,
      "erh": 830,
      "Milai": 831,
      "Puanthlam": 832,
      "biaknak": 833,
      "thar": 834,
      "nasa": 835,
      "pakhatkhat": 836,
      "thlenter": 837,
      "rim": 838,
      "sawng": 839,
      "Cumi": 840,
      "Fapa": 841,
      "fawn": 842,
      "Ben": 843,
      "Ram": 844,
      "aa": 845,
      "thlak": 846,
      "fial": 847,
      "thuhla": 848,
      "nat": 849,
      "taan": 850,
      "khur": 851,
      "rung": 852,
      "khuh": 853,
      "taang": 854,
      "Puithiam": 855,
      "thm": 856,
      "Paul": 857,
      "sangka": 858,
      "thukamnak": 859,
      "fel": 860,
      "khaan": 861,
      "him": 862,
      "ramih": 863,
      "tertu": 864,
      "poh": 865,
      "vang": 866,
      "zat": 867,
      "hrang": 868,
      "hrekkhat": 869,
      "kotka": 870,
      "don": 871,
      "Cutiih": 872,
      "mithm": 873,
      "tiam": 874,
      "duhmi": 875,
      "cuang": 876,
      "tuih": 877,
      "hma": 878,
      "lungto": 879,
      "sunl": 880,
      "nang": 881,
      "hle": 882,
      "laksawng": 883,
      "thai": 884,
      "Anmah": 885,
      "Pi": 886,
      "fin": 887,
      "jah": 888,
      "net": 889,
      "cat": 890,
      "cule": 891,
      "ir": 892,
      "tai": 893,
      "Annih": 894,
      "dangdang": 895,
      "se": 896,
      "sungkhat": 897,
      "aiah": 898,
      "phu": 899,
      "Joshua": 900,
      "luh": 901,
      "hlon": 902,
      "ṭan": 903,
      "thihnak": 904,
      "bia": 905,
      "Thil": 906,
      "Mo": 907,
      "din": 908,
      "kaih": 909,
      "pupa": 910,
      "tangka": 911,
      "Aha": 912,
      "Ze": 913,
      "phang": 914,
      "Sa": 915,
      "kulh": 916,
      "taksa": 917,
      "kiangkap": 918,
      "sunlawinak": 919,
      "pumpi": 920,
      "farah": 921,
      "zumnak": 922,
      "thaw": 923,
      "hnuai": 924,
      "annih": 925,
      "ihnih": 926,
      "tlung": 927,
      "pasal": 928,
      "zaangfah": 929,
      "lotu": 930,
      "hlanah": 931,
      "vel": 932,
      "elrawn": 933,
      "ilh": 934,
      "fiang": 935,
      "Himi": 936,
      "As": 937,
      "ruak": 938,
      "puai": 939,
      "neihmi": 940,
      "sum": 941,
      "ṭhenkhat": 942,
      "ron": 943,
      "hran": 944,
      "tal": 945,
      "thau": 946,
      "ziangtin": 947,
      "tahratin": 948,
      "cahnak": 949,
      "hmuan": 950,
      "hiar": 951,
      "siatnak": 952,
      "Cutiin": 953,
      "ip": 954,
      "nuai": 955,
      "Jor": 956,
      "cawcang": 957,
      "vut": 958,
      "Jordan": 959,
      "dal": 960,
      "thlacam": 961,
      "sinak": 962,
      "vung": 963,
      "leh": 964,
      "Kei": 965,
      "suam": 966,
      "uknak": 967,
      "dom": 968,
      "Piter": 969,
      "ua": 970,
      "zam": 971,
      "phuang": 972,
      "lan": 973,
      "hruk": 974,
      "ruahnak": 975,
      "nem": 976,
      "Johan": 977,
      "ui": 978,
      "zawn": 979,
      "thup": 980,
      "thuṭhen": 981,
      "duhnak": 982,
      "ṭongkam": 983,
      "harsatnak": 984,
      "thlarau": 985,
      "raldo": 986,
      "lungawinak": 987,
      "Jeho": 988,
      "saal": 989,
      "cab": 990,
      "fung": 991,
      "zai": 992,
      "ramsa": 993,
      "khung": 994,
      "kiltu": 995,
      "fimnak": 996,
      "hmui": 997,
      "ma": 998,
      "sha": 999,
      "ekiah": 1000,
      "fehpi": 1001,
      "petu": 1002,
      "rualpi": 1003,
      "finriat": 1004,
      "it": 1005,
      "kip": 1006,
      "Beth": 1007,
      "mak": 1008,
      "phum": 1009,
      "rian": 1010,
      "cutawkah": 1011,
      "Cutawkah": 1012,
      "zuar": 1013,
      "bur": 1014,
      "cing": 1015,
      "dong": 1016,
      "sam": 1017,
      "neitu": 1018,
      "Kanaan": 1019,
      "ihi": 1020,
      "tiin": 1021,
      "teng": 1022,
      "ṭap": 1023,
      "thlawsuah": 1024,
      "khawsung": 1025,
      "thinhengnak": 1026,
      "Moab": 1027,
      "Lung": 1028,
      "ṭhing": 1029,
      "ath": 1030,
      "cah": 1031,
      "pathum": 1032,
      "khalle": 1033,
      "hun": 1034,
      "thawh": 1035,
      "amin": 1036,
      "hmunah": 1037,
      "hmuhsuam": 1038,
      "Man": 1039,
      "ṭhang": 1040,
      "nisuahnak": 1041,
      "hleihnih": 1042,
      "lek": 1043,
      "Kum": 1044,
      "ruang": 1045,
      "ziangso": 1046,
      "Ef": 1047,
      "he": 1048,
      "loih": 1049,
      "zoso": 1050,
      "lawnglawng": 1051,
      "laak": 1052,
      "tefa": 1053,
      "Cubangtuk": 1054,
      "peh": 1055,
      "khatah": 1056,
      "thiangfai": 1057,
      "ngaih": 1058,
      "uel": 1059,
      "vete": 1060,
      "nungmi": 1061,
      "Me": 1062,
      "jamin": 1063,
      "pali": 1064,
      "thukham": 1065,
      "ralnam": 1066,
      "cuticun": 1067,
      "Faro": 1068,
      "Ca": 1069,
      "peng": 1070,
      "mipi": 1071,
      "uhak": 1072,
      "sinsin": 1073,
      "kuth": 1074,
      "nungza": 1075,
      "lala": 1076,
      "men": 1077,
      "kar": 1078,
      "Nannih": 1079,
      "kuthnuai": 1080,
      "Kuang": 1081,
      "ril": 1082,
      "uam": 1083,
      "ṭang": 1084,
      "cutawk": 1085,
      "ruh": 1086,
      "pho": 1087,
      "kiangah": 1088,
      "hngilh": 1089,
      "Benjamin": 1090,
      "tlam": 1091,
      "Thuk": 1092,
      "tham": 1093,
      "pasarih": 1094,
      "malte": 1095,
      "Thukam": 1096,
      "kannih": 1097,
      "lif": 1098,
      "esh": 1099,
      "ṭhatnak": 1100,
      "hremnak": 1101,
      "dawl": 1102,
      "thir": 1103,
      "khawi": 1104,
      "ziangah": 1105,
      "dodal": 1106,
      "mangbang": 1107,
      "Ko": 1108,
      "cih": 1109,
      "Tiva": 1110,
      "nelrawn": 1111,
      "mankhung": 1112,
      "Assi": 1113,
      "awr": 1114,
      "kau": 1115,
      "hra": 1116,
      "biakinn": 1117,
      "bok": 1118,
      "She": 1119,
      "ol": 1120,
      "had": 1121,
      "Thuthang": 1122,
      "sah": 1123,
      "cumi": 1124,
      "ngam": 1125,
      "Assiria": 1126,
      "tlansan": 1127,
      "siahhlawh": 1128,
      "ziangtinso": 1129,
      "sawmthum": 1130,
      "kilkhawi": 1131,
      "bum": 1132,
      "uak": 1133,
      "fingfing": 1134,
      "Har": 1135,
      "zung": 1136,
      "thiamnak": 1137,
      "lian": 1138,
      "Edom": 1139,
      "ṭongmi": 1140,
      "tlaknak": 1141,
      "tlangpar": 1142,
      "boam": 1143,
      "hnget": 1144,
      "thlanglam": 1145,
      "Nanmah": 1146,
      "vak": 1147,
      "khan": 1148,
      "voi": 1149,
      "asseh": 1150,
      "Manasseh": 1151,
      "rami": 1152,
      "saklam": 1153,
      "Ha": 1154,
      "ben": 1155,
      "thun": 1156,
      "pal": 1157,
      "ali": 1158,
      "hlam": 1159,
      "ṭhatein": 1160,
      "kuat": 1161,
      "Joab": 1162,
      "tuucang": 1163,
      "hei": 1164,
      "ziah": 1165,
      "nuam": 1166,
      "sawmli": 1167,
      "hnaṭuantu": 1168,
      "sabitti": 1169,
      "hrilmi": 1170,
      "zuk": 1171,
      "tleu": 1172,
      "zamrang": 1173,
      "Nang": 1174,
      "tican": 1175,
      "thlaan": 1176,
      "thupek": 1177,
      "rangleng": 1178,
      "tinte": 1179,
      "tokham": 1180,
      "Samuel": 1181,
      "thuphan": 1182,
      "Miphun": 1183,
      "Siria": 1184,
      "Minung": 1185,
      "per": 1186,
      "phuan": 1187,
      "vekih": 1188,
      "tleunak": 1189,
      "Hez": 1190,
      "Sim": 1191,
      "hnong": 1192,
      "ṭhuam": 1193,
      "tuahnak": 1194,
      "zik": 1195,
      "phur": 1196,
      "sawmnga": 1197,
      "bomnak": 1198,
      "zawng": 1199,
      "ciing": 1200,
      "hngak": 1201,
      "bath": 1202,
      "rimhmui": 1203,
      "Asi": 1204,
      "Abi": 1205,
      "Heb": 1206,
      "isa": 1207,
      "hriak": 1208,
      "nik": 1209,
      "hriam": 1210,
      "Tuih": 1211,
      "Uk": 1212,
      "buk": 1213,
      "tun": 1214,
      "thawm": 1215,
      "mithi": 1216,
      "tithei": 1217,
      "kanmah": 1218,
      "thawngin": 1219,
      "Zohman": 1220,
      "Elisha": 1221,
      "tar": 1222,
      "len": 1223,
      "hruang": 1224,
      "hlang": 1225,
      "puar": 1226,
      "thingkung": 1227,
      "remnak": 1228,
      "Ash": 1229,
      "Ra": 1230,
      "bah": 1231,
      "saak": 1232,
      "lamih": 1233,
      "fehnak": 1234,
      "rhhlawh": 1235,
      "kimter": 1236,
      "damnak": 1237,
      "Dan": 1238,
      "Isaak": 1239,
      "Neb": 1240,
      "serh": 1241,
      "ṭum": 1242,
      "kheng": 1243,
      "ramṭhing": 1244,
      "tumpi": 1245,
      "borhhlawh": 1246,
      "osa": 1247,
      "hluan": 1248,
      "khuami": 1249,
      "Zokhal": 1250,
      "nauhak": 1251,
      "ramdang": 1252,
      "thim": 1253,
      "lawngah": 1254,
      "Zen": 1255,
      "Cutawk": 1256,
      "pit": 1257,
      "hairawn": 1258,
      "phunphun": 1259,
      "Baal": 1260,
      "mangbangza": 1261,
      "Zan": 1262,
      "ce": 1263,
      "val": 1264,
      "Jona": 1265,
      "zumtu": 1266,
      "Puai": 1267,
      "khuai": 1268,
      "akhatte": 1269,
      "ṭihzah": 1270,
      "tail": 1271,
      "Zentail": 1272,
      "Ar": 1273,
      "luah": 1274,
      "sikhalsehla": 1275,
      "uhsi": 1276,
      "ramsung": 1277,
      "zon": 1278,
      "phaw": 1279,
      "ash": 1280,
      "Samari": 1281,
      "upatnak": 1282,
      "Samaria": 1283,
      "Bar": 1284,
      "Ham": 1285,
      "lawi": 1286,
      "om": 1287,
      "olif": 1288,
      "zakip": 1289,
      "thlacamnak": 1290,
      "Za": 1291,
      "tim": 1292,
      "zetzet": 1293,
      "ser": 1294,
      "ṭhek": 1295,
      "ramri": 1296,
      "zetih": 1297,
      "darh": 1298,
      "raim": 1299,
      "Vancung": 1300,
      "Ahab": 1301,
      "umter": 1302,
      "saknak": 1303,
      "tlunih": 1304,
      "mithmuh": 1305,
      "khatlam": 1306,
      "sur": 1307,
      "vate": 1308,
      "kipah": 1309,
      "Zion": 1310,
      "hring": 1311,
      "elh": 1312,
      "zomi": 1313,
      "Efraim": 1314,
      "Uknak": 1315,
      "cawi": 1316,
      "oth": 1317,
      "Elijah": 1318,
      "daihnak": 1319,
      "Khu": 1320,
      "taw": 1321,
      "vuak": 1322,
      "tluan": 1323,
      "hmuhmi": 1324,
      "vor": 1325,
      "Ziangkim": 1326,
      "luatter": 1327,
      "netnak": 1328,
      "ok": 1329,
      "nehnak": 1330,
      "Hezekiah": 1331,
      "Ziangkimtithei": 1332,
      "khual": 1333,
      "kua": 1334,
      "sannak": 1335,
      "eba": 1336,
      "beel": 1337,
      "tuihsun": 1338,
      "Ahi": 1339,
      "Sab": 1340,
      "kiangih": 1341,
      "theihnak": 1342,
      "Ziangtin": 1343,
      "damter": 1344,
      "sat": 1345,
      "lungkim": 1346,
      "retnak": 1347,
      "rinnak": 1348,
      "mithmai": 1349,
      "hlir": 1350,
      "Jonathan": 1351,
      "vorhlam": 1352,
      "Lam": 1353,
      "Rawl": 1354,
      "tifinriat": 1355,
      "lead": 1356,
      "lom": 1357,
      "ralbawi": 1358,
      "ralhruang": 1359,
      "suakmi": 1360,
      "kulhnak": 1361,
      "Khawpi": 1362,
      "cabu": 1363,
      "lawm": 1364,
      "saw": 1365,
      "amnak": 1366,
      "paisa": 1367,
      "kaa": 1368,
      "pom": 1369,
      "thazaang": 1370,
      "Gilead": 1371,
      "Nebu": 1372,
      "cupa": 1373,
      "Culai": 1374,
      "thluk": 1375,
      "kimvel": 1376,
      "rintlak": 1377,
      "Ama": 1378,
      "Ammon": 1379,
      "kawhhran": 1380,
      "Sabbath": 1381,
      "hitawk": 1382,
      "ṭuanvo": 1383,
      "taktak": 1384,
      "Shi": 1385,
      "az": 1386,
      "fam": 1387,
      "ne": 1388,
      "phiar": 1389,
      "misual": 1390,
      "tanglam": 1391,
      "mual": 1392,
      "lee": 1393,
      "Tuu": 1394,
      "ihlo": 1395,
      "khar": 1396,
      "khui": 1397,
      "Mes": 1398,
      "ken": 1399,
      "angki": 1400,
      "curuangah": 1401,
      "suahter": 1402,
      "thlahmi": 1403,
      "awtawr": 1404,
      "awtawrawt": 1405,
      "Jero": 1406,
      "Midang": 1407,
      "hrampi": 1408,
      "dikmi": 1409,
      "canter": 1410,
      "Inn": 1411,
      "Profet": 1412,
      "daw": 1413,
      "deng": 1414,
      "anih": 1415,
      "ahhin": 1416,
      "faale": 1417,
      "bawmtu": 1418,
      "Hmun": 1419,
      "natnak": 1420,
      "thlo": 1421,
      "covo": 1422,
      "nganmi": 1423,
      "raldonak": 1424,
      "cin": 1425,
      "pha": 1426,
      "salom": 1427,
      "zir": 1428,
      "rial": 1429,
      "Absalom": 1430,
      "caar": 1431,
      ".)": 1432,
      "Ki": 1433,
      "Reu": 1434,
      "mipawl": 1435,
      "thuam": 1436,
      "riahnak": 1437,
      "ṭhazet": 1438,
      "hoi": 1439,
      "dungtun": 1440,
      "mawhnak": 1441,
      "Lo": 1442,
      "acuih": 1443,
      "cubangtuk": 1444,
      "tling": 1445,
      "riak": 1446,
      "ziangtluk": 1447,
      "hnaṭuannak": 1448,
      "ṭhit": 1449,
      "phurh": 1450,
      "famkim": 1451,
      "bai": 1452,
      "up": 1453,
      "zem": 1454,
      "sakmi": 1455,
      "luang": 1456,
      "riantu": 1457,
      "azar": 1458,
      "cawm": 1459,
      "zuah": 1460,
      "tis": 1461,
      "ungai": 1462,
      "ennak": 1463,
      "thuk": 1464,
      "tumtah": 1465,
      "Esau": 1466,
      "Ng": 1467,
      "zakhat": 1468,
      "ṭah": 1469,
      "tirh": 1470,
      "thudik": 1471,
      "ṭhawn": 1472,
      "ziangtik": 1473,
      "ṭuantu": 1474,
      "hruaitu": 1475,
      "rep": 1476,
      "El": 1477,
      "nez": 1478,
      "suang": 1479,
      "ṭhiam": 1480,
      "Han": 1481,
      "chad": 1482,
      "kang": 1483,
      "min": 1484,
      "oi": 1485,
      "ptis": 1486,
      "tinak": 1487,
      "sinan": 1488,
      "hmul": 1489,
      "ngaithiam": 1490,
      "Thla": 1491,
      "Nebuchad": 1492,
      "Jeroboam": 1493,
      "nezzar": 1494,
      "Nebuchadnezzar": 1495,
      "Bo": 1496,
      "Nunau": 1497,
      "Uz": 1498,
      "tawi": 1499,
      "palai": 1500,
      "ralring": 1501,
      "neimi": 1502,
      "nitlaknak": 1503,
      "hmailam": 1504,
      "zirhmi": 1505,
      "kholh": 1506,
      "ṭaang": 1507,
      "Gibe": 1508,
      "Ma": 1509,
      "baan": 1510,
      "thumnak": 1511,
      "hnam": 1512,
      "sunglawi": 1513,
      "zim": 1514,
      "suahpi": 1515,
      "Shem": 1516,
      "Farasi": 1517,
      "fala": 1518,
      "thlua": 1519,
      "pok": 1520,
      "ṭhimnak": 1521,
      "meen": 1522,
      "Sha": 1523,
      "phi": 1524,
      "tawtawrawt": 1525,
      "ihm": 1526,
      "hmei": 1527,
      "ruangih": 1528,
      "khuazakip": 1529,
      "kiosa": 1530,
      "hramlak": 1531,
      "hloral": 1532,
      "zanlam": 1533,
      "panga": 1534,
      "lennak": 1535,
      "ptisma": 1536,
      "Gad": 1537,
      "Sat": 1538,
      "veng": 1539,
      "sualthlah": 1540,
      "zohhnik": 1541,
      "ningzak": 1542,
      "reipi": 1543,
      "tengteng": 1544,
      "eek": 1545,
      "ling": 1546,
      "mam": 1547,
      "erah": 1548,
      "ruahsannak": 1549,
      "ṭhekdarh": 1550,
      "Satan": 1551,
      "nai": 1552,
      "thuh": 1553,
      "siang": 1554,
      "tuam": 1555,
      "eitu": 1556,
      "duhtu": 1557,
      "tlangval": 1558,
      "langnak": 1559,
      "runsuak": 1560,
      "deuhdeuh": 1561,
      "riahsia": 1562,
      "puarthau": 1563,
      "Nun": 1564,
      "Sual": 1565,
      "Voi": 1566,
      "cawl": 1567,
      "cawh": 1568,
      "fek": 1569,
      "siti": 1570,
      "mifim": 1571,
      "theimi": 1572,
      "duhdaw": 1573,
      "Tipi": 1574,
      "seem": 1575,
      "thuṭhennak": 1576,
      "ran": 1577,
      "zahnak": 1578,
      "miah": 1579,
      "kapah": 1580,
      "siatral": 1581,
      "Reuben": 1582,
      "ap": 1583,
      "ep": 1584,
      "alh": 1585,
      "rul": 1586,
      "thuai": 1587,
      "zokhal": 1588,
      "siatcam": 1589,
      "siatsuahnak": 1590,
      "hlawhhlang": 1591,
      "Ele": 1592,
      "luk": 1593,
      "khai": 1594,
      "hlawm": 1595,
      "thlahtu": 1596,
      "Zianghman": 1597,
      "ṭulmi": 1598,
      "Jehu": 1599,
      "Asa": 1600,
      "puh": 1601,
      "lengah": 1602,
      "long": 1603,
      "khum": 1604,
      "rub": 1605,
      "hlat": 1606,
      "khuavang": 1607,
      "Anih": 1608,
      "hnakih": 1609,
      "raithawinak": 1610,
      "pohpoh": 1611,
      "ngaihnik": 1612,
      "Gali": 1613,
      "fih": 1614,
      "fat": 1615,
      "pan": 1616,
      "cuai": 1617,
      "miṭha": 1618,
      "hnin": 1619,
      "Cupa": 1620,
      "arsi": 1621,
      "baptisma": 1622,
      "neta": 1623,
      "Galilee": 1624,
      "mero": 1625,
      "nah": 1626,
      "orh": 1627,
      "tat": 1628,
      "ṭi": 1629,
      "teih": 1630,
      "khawl": 1631,
      "ralrinnak": 1632,
      "cik": 1633,
      "ngahmi": 1634,
      "porh": 1635,
      "thangṭhatnak": 1636,
      "Mei": 1637,
      "dur": 1638,
      "iel": 1639,
      "khah": 1640,
      "thusimmi": 1641,
      "suan": 1642,
      "fate": 1643,
      "kuai": 1644,
      "theihmi": 1645,
      "thlenpi": 1646,
      "zuam": 1647,
      "Zoh": 1648,
      "thaisun": 1649,
      "tual": 1650,
      "relh": 1651,
      "thlawsuahnak": 1652,
      "Sal": 1653,
      "cawk": 1654,
      "eth": 1655,
      "kuan": 1656,
      "luan": 1657,
      "mai": 1658,
      "tir": 1659,
      "pahra": 1660,
      "ukmi": 1661,
      "thilsual": 1662,
      "tuarnak": 1663,
      "uat": 1664,
      "awmi": 1665,
      "pheng": 1666,
      "khawte": 1667,
      "sangvut": 1668,
      "zual": 1669,
      "riahhmun": 1670,
      "Amor": 1671,
      "Jehos": 1672,
      "Milaipa": 1673,
      "thuṭhentu": 1674,
      "Sang": 1675,
      "ed": 1676,
      "fangah": 1677,
      "rawi": 1678,
      "son": 1679,
      "vai": 1680,
      "eihnak": 1681,
      "thlek": 1682,
      "Job": 1683,
      "ulh": 1684,
      "taanta": 1685,
      "luhnak": 1686,
      "cabuai": 1687,
      "ramdangmi": 1688,
      "Mah": 1689,
      "kun": 1690,
      "ṭem": 1691,
      "sir": 1692,
      "tipi": 1693,
      "tikhur": 1694,
      "hnang": 1695,
      "thutak": 1696,
      "Hitiih": 1697,
      "Lamzin": 1698,
      "Pe": 1699,
      "Pakhat": 1700,
      "oah": 1701,
      "phairawn": 1702,
      "khen": 1703,
      "pian": 1704,
      "nuhmei": 1705,
      "comi": 1706,
      "hinah": 1707,
      "Thungai": 1708,
      "ṭihnungza": 1709,
      "hniksak": 1710,
      "Hebron": 1711,
      "Sar": 1712,
      "Zeb": 1713,
      "lhnak": 1714,
      "tihi": 1715,
      "culh": 1716,
      "hafat": 1717,
      "tluang": 1718,
      "riam": 1719,
      "ada": 1720,
      "Raldo": 1721,
      "Eleazar": 1722,
      "Khua": 1723,
      "forh": 1724,
      "keh": 1725,
      "hmur": 1726,
      "Tifinriat": 1727,
      "nauta": 1728,
      "Sabit": 1729,
      "Simon": 1730,
      "?’": 1731,
      "Bala": 1732,
      "Pil": 1733,
      "bei": 1734,
      "hel": 1735,
      "reh": 1736,
      "dingnak": 1737,
      "eipi": 1738,
      "pitu": 1739,
      "rit": 1740,
      "lamtah": 1741,
      "cibai": 1742,
      "thlaici": 1743,
      "Zed": 1744,
      "pehzo": 1745,
      "lawmmam": 1746,
      "dawihlo": 1747,
      "Jehoshafat": 1748,
      "Balaam": 1749,
      "Re": 1750,
      "Reh": 1751,
      "elek": 1752,
      "fual": 1753,
      "hang": 1754,
      "ṭai": 1755,
      "ther": 1756,
      "thuan": 1757,
      "fehter": 1758,
      "lawngin": 1759,
      "tamzet": 1760,
      "hngal": 1761,
      "zahnih": 1762,
      "note": 1763,
      "thaizing": 1764,
      "tirhthlah": 1765,
      "Lan": 1766,
      "Rin": 1767,
      "Sun": 1768,
      "sisehla": 1769,
      "tlai": 1770,
      "tlawng": 1771,
      "bikah": 1772,
      "bikmi": 1773,
      "ngaidam": 1774,
      "dunglam": 1775,
      "caanah": 1776,
      "tlen": 1777,
      "dip": 1778,
      "Lantak": 1779,
      "Fi": 1780,
      "Hram": 1781,
      "Mor": 1782,
      "ban": 1783,
      "himi": 1784,
      "imelek": 1785,
      "neilo": 1786,
      "ziangvek": 1787,
      "hminsin": 1788,
      "thawngkhat": 1789,
      "hnge": 1790,
      "lenglam": 1791,
      "hleice": 1792,
      "thlairawl": 1793,
      "fiangtein": 1794,
      "sahrang": 1795,
      "mualpho": 1796,
      "Zedekiah": 1797,
      "Hero": 1798,
      "var": 1799,
      "pial": 1800,
      "phut": 1801,
      "kuang": 1802,
      "puluk": 1803,
      "puanzar": 1804,
      "Thing": 1805,
      "pumpuluk": 1806,
      "duhdawtmi": 1807,
      "Samson": 1808,
      "Pilat": 1809,
      "Per": 1810,
      "aih": 1811,
      "rawng": 1812,
      "cutiih": 1813,
      "lopi": 1814,
      "Cui": 1815,
      "himnak": 1816,
      "dok": 1817,
      "saktu": 1818,
      "Kannih": 1819,
      "daih": 1820,
      "taannak": 1821,
      "Bethel": 1822,
      "Zaang": 1823,
      "Thin": 1824,
      "ṭawm": 1825,
      "kas": 1826,
      "hmakhatte": 1827,
      "thianfai": 1828,
      "lungmankhung": 1829,
      "hmanmi": 1830,
      "tummi": 1831,
      "phannak": 1832,
      "burpi": 1833,
      "Voikhat": 1834,
      "eem": 1835,
      "ham": 1836,
      "lawh": 1837,
      "suh": 1838,
      "miding": 1839,
      "thusim": 1840,
      "Jeri": 1841,
      "veve": 1842,
      "hmaiih": 1843,
      "Josiah": 1844,
      "hlanih": 1845,
      "farnu": 1846,
      "Hmai": 1847,
      "doni": 1848,
      "Kumkhua": 1849,
      "Caw": 1850,
      "Ge": 1851,
      "Hor": 1852,
      "Rom": 1853,
      "milian": 1854,
      "hrol": 1855,
      "ekah": 1856,
      "Jez": 1857,
      "onkiang": 1858,
      "thlei": 1859,
      "cangmi": 1860,
      "hmunmi": 1861,
      "dekai": 1862,
      "eban": 1863,
      "zanthing": 1864,
      "naute": 1865,
      "keel": 1866,
      "hriamnam": 1867,
      "Messiah": 1868,
      "pehzom": 1869,
      "Fim": 1870,
      "Mari": 1871,
      "Ne": 1872,
      "tahnak": 1873,
      "tian": 1874,
      "Cuvek": 1875,
      "ternak": 1876,
      "khawruah": 1877,
      "Misenpi": 1878,
      "ṭuannak": 1879,
      "riahsiatnak": 1880,
      "dian": 1881,
      "reel": 1882,
      "Jehoiak": 1883,
      "maksak": 1884,
      "Tuihsun": 1885,
      "Reho": 1886,
      "Mordekai": 1887,
      "Cab": 1888,
      "Es": 1889,
      "pawng": 1890,
      "inu": 1891,
      "thahnak": 1892,
      "kaang": 1893,
      "hris": 1894,
      "napi": 1895,
      "hli": 1896,
      "peknak": 1897,
      "khawsia": 1898,
      "khawmnak": 1899,
      "lakmi": 1900,
      "Mithi": 1901,
      "laifang": 1902,
      "harnak": 1903,
      "deon": 1904,
      "leiram": 1905,
      "Ziangtik": 1906,
      "Abimelek": 1907,
      "ciarah": 1908,
      "Gideon": 1909,
      "Zaangf": 1910,
      "Jerikho": 1911,
      ".”": 1912,
      "Khris": 1913,
      "ṭawn": 1914,
      "ahnem": 1915,
      "khem": 1916,
      "tlu": 1917,
      "ṭhahnem": 1918,
      "baang": 1919,
      "thokin": 1920,
      "taangmi": 1921,
      "Kotka": 1922,
      "Harsatnak": 1923,
      "timtuah": 1924,
      "Zohhnik": 1925,
      "hminsinnak": 1926,
      "Cuh": 1927,
      "Va": 1928,
      "lah": 1929,
      "awlawng": 1930,
      "Midian": 1931,
      "kom": 1932,
      "rundamnak": 1933,
      "retmi": 1934,
      "hngawng": 1935,
      "Tidai": 1936,
      "humhim": 1937,
      "kaihmi": 1938,
      "thawhter": 1939,
      "Shekhem": 1940,
      "Daniel": 1941,
      "Khristian": 1942,
      "Li": 1943,
      "Sin": 1944,
      "tili": 1945,
      "naih": 1946,
      "thupi": 1947,
      "suk": 1948,
      "dor": 1949,
      "lukhuh": 1950,
      "sangphut": 1951,
      "thattu": 1952,
      "Daanthiam": 1953,
      "Esther": 1954,
      "Bawi": 1955,
      "Sak": 1956,
      "conkiang": 1957,
      "den": 1958,
      "uf": 1959,
      "sidar": 1960,
      "tes": 1961,
      "thutiam": 1962,
      "tuahmawh": 1963,
      "phawlawng": 1964,
      "thlaih": 1965,
      "Abram": 1966,
      "cemter": 1967,
      "Ralkap": 1968,
      "Khui": 1969,
      "Dam": 1970,
      "Leban": 1971,
      "ine": 1972,
      "khariah": 1973,
      "ili": 1974,
      "khuk": 1975,
      "thilnu": 1976,
      "thawinakah": 1977,
      "puanthlam": 1978,
      "thinglamtah": 1979,
      "relnak": 1980,
      "Zoso": 1981,
      "langternak": 1982,
      "Zekhariah": 1983,
      "thluasuah": 1984,
      "ihmui": 1985,
      "fihnungza": 1986,
      "Herod": 1987,
      "Ai": 1988,
      "Nu": 1989,
      "cil": 1990,
      "thal": 1991,
      "theh": 1992,
      "hnah": 1993,
      "ras": 1994,
      "khuar": 1995,
      "nuncan": 1996,
      "tumtu": 1997,
      "kianghrol": 1998,
      "mawhthluk": 1999,
      "karlak": 2000,
      "ṭial": 2001,
      "Ho": 2002,
      "Hna": 2003,
      "Sui": 2004,
      "Tho": 2005,
      "kawk": 2006,
      "tizu": 2007,
      "khun": 2008,
      "khiah": 2009,
      "Isaiah": 2010,
      "khawvel": 2011,
      "dotu": 2012,
      "liam": 2013,
      "hminthang": 2014,
      "sawmruk": 2015,
      "kilveng": 2016,
      "zirhnak": 2017,
      "daar": 2018,
      "rimthaw": 2019,
      "fialmi": 2020,
      "herub": 2021,
      "thuneihnak": 2022,
      "Lebanon": 2023,
      "Run": 2024,
      "bawh": 2025,
      "pak": 2026,
      "sai": 2027,
      "ingṭang": 2028,
      "kala": 2029,
      "Bawipai": 2030,
      "saan": 2031,
      "simtu": 2032,
      "sokhaw": 2033,
      "kuam": 2034,
      "laifangah": 2035,
      "puang": 2036,
      "kor": 2037,
      "kokhawm": 2038,
      "hur": 2039,
      "huatu": 2040,
      "leivut": 2041,
      "cutawkih": 2042,
      "Fimnak": 2043,
      "kalauk": 2044,
      "Lab": 2045,
      "non": 2046,
      "cuvek": 2047,
      "khuat": 2048,
      "ralṭha": 2049,
      "kual": 2050,
      "kapih": 2051,
      "thahmi": 2052,
      "cakzet": 2053,
      "Cabu": 2054,
      "Laban": 2055,
      "Mat": 2056,
      "Zing": 2057,
      "pen": 2058,
      "thnem": 2059,
      "thimnak": 2060,
      "hnawi": 2061,
      "khap": 2062,
      "khiak": 2063,
      "thling": 2064,
      "thianhlim": 2065,
      "lungpi": 2066,
      "Miding": 2067,
      "salpa": 2068,
      "laiih": 2069,
      "hmutu": 2070,
      "sangtu": 2071,
      "sarihnak": 2072,
      "kirter": 2073,
      "thukammi": 2074,
      "ngaihtuah": 2075,
      "serhtan": 2076,
      "Bas": 2077,
      "Nah": 2078,
      "her": 2079,
      "ner": 2080,
      "rek": 2081,
      "zihmui": 2082,
      "mifarah": 2083,
      "hlawn": 2084,
      "kuun": 2085,
      "Miṭha": 2086,
      "hnaṭuanmi": 2087,
      "dilmi": 2088,
      "cazin": 2089,
      "Hmakhatte": 2090,
      "cutiin": 2091,
      "thupte": 2092,
      "Fiang": 2093,
      "Bawipaió": 2094,
      "Mer": 2095,
      "To": 2096,
      "Tam": 2097,
      "hen": 2098,
      "mikhual": 2099,
      "tuh": 2100,
      "ail": 2101,
      "Joash": 2102,
      "tlannak": 2103,
      "zanah": 2104,
      "Thuṭhen": 2105,
      "hnihsan": 2106,
      "hlapi": 2107,
      "thlir": 2108,
      "Hag": 2109,
      "thawmvang": 2110,
      "lungkimnak": 2111,
      "tumtahmi": 2112,
      "Rehoboam": 2113,
      "Sinai": 2114,
      "Saklam": 2115,
      "ufra": 2116,
      "Nelrawn": 2117,
      "Noah": 2118,
      "bon": 2119,
      "ihkhun": 2120,
      "thawi": 2121,
      "sisi": 2122,
      "hau": 2123,
      "pat": 2124,
      "thimi": 2125,
      "ralphaw": 2126,
      "Jere": 2127,
      "Ishma": 2128,
      "ṭhathnem": 2129,
      "Mifim": 2130,
      "oshe": 2131,
      "Kanmah": 2132,
      "dea": 2133,
      "Abner": 2134,
      "nautat": 2135,
      "kiangkapih": 2136,
      "sumsaw": 2137,
      "Medi": 2138,
      "borhhlawhter": 2139,
      "tawdam": 2140,
      "ufrates": 2141,
      "Neh": 2142,
      "Ruah": 2143,
      "bas": 2144,
      "kah": 2145,
      "tawl": 2146,
      "yapa": 2147,
      "siam": 2148,
      "uahlan": 2149,
      "thuthang": 2150,
      "tlunlam": 2151,
      "askas": 2152,
      "pahnihnak": 2153,
      "nehtu": 2154,
      "tangphawlawng": 2155,
      "feltein": 2156,
      "karlakah": 2157,
      "khuaitizu": 2158,
      "Vancungmi": 2159,
      "Hanan": 2160,
      "siatralnak": 2161,
      "thuanthum": 2162,
      "Damaskas": 2163,
      "hlawnthil": 2164,
      "Fiangtein": 2165,
      "Jeremiah": 2166,
      "Ishmael": 2167,
      "Kar": 2168,
      "Phairawn": 2169,
      "Tik": 2170,
      "chel": 2171,
      "feipi": 2172,
      "llam": 2173,
      "nor": 2174,
      "mipum": 2175,
      "hlun": 2176,
      "khawthim": 2177,
      "zathum": 2178,
      "Siat": 2179,
      "hmuak": 2180,
      "ish": 2181,
      "cakuat": 2182,
      "khoh": 2183,
      "Sayapa": 2184,
      "Rachel": 2185,
      "khawruahhar": 2186,
      "Mal": 2187,
      "Sih": 2188,
      "hem": 2189,
      "zawh": 2190,
      "zali": 2191,
      "akhi": 2192,
      "leeng": 2193,
      "hnenum": 2194,
      "sunglam": 2195,
      "tuahsuak": 2196,
      "riang": 2197,
      "siatter": 2198,
      "hmunih": 2199,
      "thlengter": 2200,
      "hrinmi": 2201,
      "tuukhal": 2202,
      "zaruk": 2203,
      "hmangin": 2204,
      "Saang": 2205,
      "kenmi": 2206,
      "cikcin": 2207,
      "hnangam": 2208,
      "Dung": 2209,
      "baw": 2210,
      "iada": 2211,
      "lal": 2212,
      "nen": 2213,
      "nel": 2214,
      "shai": 2215,
      "uar": 2216,
      "ihrek": 2217,
      "mithiang": 2218,
      "hnon": 2219,
      "khih": 2220,
      "termi": 2221,
      "ṭhami": 2222,
      "thlet": 2223,
      "phunzai": 2224,
      "Judea": 2225,
      "tlunter": 2226,
      "mepian": 2227,
      "ezer": 2228,
      "pangpar": 2229,
      "burh": 2230,
      "ruangpi": 2231,
      "thupeknak": 2232,
      "Hebru": 2233,
      "Sualnak": 2234,
      "bawinu": 2235,
      "Ding": 2236,
      "Ez": 2237,
      "Eufrates": 2238,
      "Go": 2239,
      "aunak": 2240,
      "cek": 2241,
      "cerh": 2242,
      "das": 2243,
      "dup": 2244,
      "eon": 2245,
      "ṭingṭang": 2246,
      "inah": 2247,
      "karh": 2248,
      "kher": 2249,
      "khalin": 2250,
      "khawsungah": 2251,
      "thlehem": 2252,
      "Naf": 2253,
      "thinphang": 2254,
      "nunsung": 2255,
      "tiangso": 2256,
      "sawmsarih": 2257,
      "hlanlo": 2258,
      "kirsal": 2259,
      "siava": 2260,
      "Thihnak": 2261,
      "riahbuk": 2262,
      "ṭhim": 2263,
      "cazual": 2264,
      "Bethlehem": 2265,
      "Ahaziah": 2266,
      "voikhat": 2267,
      "Simeon": 2268,
      "phurtu": 2269,
      "seemsuah": 2270,
      "riangri": 2271,
      "Ara": 2272,
      "Bal": 2273,
      "Bik": 2274,
      "Hu": 2275,
      "Jei": 2276,
      "Mang": 2277,
      "Rang": 2278,
      "Tim": 2279,
      "bun": 2280,
      "hihi": 2281,
      "ṭeek": 2282,
      "titu": 2283,
      "paruk": 2284,
      "aipuang": 2285,
      "hling": 2286,
      "biatu": 2287,
      "awhnak": 2288,
      "Hit": 2289,
      "hramthok": 2290,
      "kimtein": 2291,
      "ṭhatlonak": 2292,
      "bom": 2293,
      "tlanhlo": 2294,
      "tuurual": 2295,
      "Amen": 2296,
      "zirhtu": 2297,
      "khop": 2298,
      "sheba": 2299,
      "ṭheumi": 2300,
      "ningla": 2301,
      "raitluan": 2302,
      "hmaisabik": 2303,
      "tali": 2304,
      "kilkhawitu": 2305,
      "Zadok": 2306,
      "Amalek": 2307,
      "ṭhiamṭhiam": 2308,
      "Gibeon": 2309,
      "Zebul": 2310,
      "thleidan": 2311,
      "Bashan": 2312,
      "buai": 2313,
      "sem": 2314,
      "tawh": 2315,
      "thawl": 2316,
      "lolak": 2317,
      "pathian": 2318,
      "ramṭhen": 2319,
      "hmunkhat": 2320,
      "sankhat": 2321,
      "deu": 2322,
      "dungthlun": 2323,
      "thannak": 2324,
      "pharh": 2325,
      "Gibeah": 2326,
      "ṭawnṭai": 2327,
      "Tikcu": 2328,
      "Naftali": 2329,
      "Ger": 2330,
      "Ja": 2331,
      "teh": 2332,
      "zang": 2333,
      "thuzirhmi": 2334,
      "biah": 2335,
      "uanthu": 2336,
      "lungpheng": 2337,
      "cithlahtu": 2338,
      "theihsak": 2339,
      "Judas": 2340,
      "sanmi": 2341,
      "toih": 2342,
      "totu": 2343,
      "asha": 2344,
      "ruahmi": 2345,
      "tahṭhimnak": 2346,
      "Thuanthu": 2347,
      "hlawhtling": 2348,
      "buar": 2349,
      "nomnak": 2350,
      "sumza": 2351,
      "thuneitu": 2352,
      "Haman": 2353,
      "Amaziah": 2354,
      "Raldonak": 2355,
      "Tamar": 2356,
      "Mar": 2357,
      "hleil": 2358,
      "uth": 2359,
      "veh": 2360,
      "tia": 2361,
      "hnawm": 2362,
      "simnak": 2363,
      "Mipa": 2364,
      "tas": 2365,
      "hmuhsaknak": 2366,
      "vorh": 2367,
      "tuartu": 2368,
      "Thli": 2369,
      "ziaza": 2370,
      "ningzahnak": 2371,
      "ṭantu": 2372,
      "hiarnak": 2373,
      "Cutawkih": 2374,
      "zonza": 2375,
      "Sarah": 2376,
      "ṭhathnemnak": 2377,
      "Adoni": 2378,
      "Gil": 2379,
      "Kha": 2380,
      "Sai": 2381,
      "Zam": 2382,
      "deh": 2383,
      "dangah": 2384,
      "gal": 2385,
      "rangah": 2386,
      "vah": 2387,
      "tiar": 2388,
      "leb": 2389,
      "paam": 2390,
      "hnar": 2391,
      "ṭhep": 2392,
      "theipi": 2393,
      "ralbawipa": 2394,
      "salnu": 2395,
      "Sidon": 2396,
      "phunpi": 2397,
      "siatsuahtu": 2398,
      "hengter": 2399,
      "bauh": 2400,
      "thianghlimmi": 2401,
      "Sodom": 2402,
      "Ahaz": 2403,
      "Boaz": 2404,
      "tawite": 2405,
      "Cuhrangah": 2406,
      "herubim": 2407,
      "tawlrel": 2408,
      "cekci": 2409,
      "Dai": 2410,
      "Feh": 2411,
      "puk": 2412,
      "naupa": 2413,
      "elah": 2414,
      "bangrep": 2415,
      "Kaleb": 2416,
      "Nathan": 2417,
      "Hitawk": 2418,
      "theihpitu": 2419,
      "cop": 2420,
      "colhnak": 2421,
      "vannak": 2422,
      "kammi": 2423,
      "daitein": 2424,
      "runtu": 2425,
      "rerotu": 2426,
      "fir": 2427,
      "tongkhawm": 2428,
      "thilrit": 2429,
      "tlukin": 2430,
      "phardawl": 2431,
      "khawsungmi": 2432,
      "dodaltu": 2433,
      "phuanmi": 2434,
      "zanga": 2435,
      "Gath": 2436,
      "Sen": 2437,
      "mo": 2438,
      "ṭo": 2439,
      "sil": 2440,
      "tisiat": 2441,
      "hath": 2442,
      "hrawng": 2443,
      "hnenin": 2444,
      "sinako": 2445,
      "simfiang": 2446,
      "laam": 2447,
      "lakin": 2448,
      "Miz": 2449,
      "Mika": 2450,
      "Mipi": 2451,
      "nitinte": 2452,
      "nupa": 2453,
      "siatbal": 2454,
      "bikih": 2455,
      "colh": 2456,
      "tuuhmul": 2457,
      "kawhmi": 2458,
      "nasazet": 2459,
      "Jehoiada": 2460,
      "Asher": 2461,
      "Zebulun": 2462,
      "Zamrang": 2463,
      "sinakok": 2464,
      "Ad": 2465,
      "Jab": 2466,
      "aat": 2467,
      "uum": 2468,
      "tisa": 2469,
      "lote": 2470,
      "thuthup": 2471,
      "ṭhum": 2472,
      "tuahsak": 2473,
      "zozo": 2474,
      "phen": 2475,
      "khawsungih": 2476,
      "coih": 2477,
      "hnaih": 2478,
      "vanih": 2479,
      "camsiat": 2480,
      "reromi": 2481,
      "beunak": 2482,
      "hrial": 2483,
      "Kohath": 2484,
      "Uzziah": 2485,
      "Persia": 2486,
      "osheth": 2487,
      "Az": 2488,
      "Pawl": 2489,
      "Reb": 2490,
      "cim": 2491,
      "dawt": 2492,
      "hawi": 2493,
      "rawh": 2494,
      "tih": 2495,
      "harh": 2496,
      "khuut": 2497,
      "khuathai": 2498,
      "innsung": 2499,
      "Mit": 2500,
      "Misual": 2501,
      "tamtuk": 2502,
      "sendup": 2503,
      "pol": 2504,
      "zohtu": 2505,
      "hruaisuak": 2506,
      "mitcaw": 2507,
      "mecang": 2508,
      "khirh": 2509,
      "nok": 2510,
      "Lot": 2511,
      "mino": 2512,
      "hleili": 2513,
      "ote": 2514,
      "tung": 2515,
      "vuai": 2516,
      "inmi": 2517,
      "haal": 2518,
      "hnihnak": 2519,
      "hro": 2520,
      "pil": 2521,
      "Jebu": 2522,
      "innhnen": 2523,
      "zapi": 2524,
      "thilṭha": 2525,
      "urnak": 2526,
      "camsiatnak": 2527,
      "relcat": 2528,
      "Lungawi": 2529,
      "Lungto": 2530,
      "ṭhangso": 2531,
      "zonzai": 2532,
      "tawp": 2533,
      "sawp": 2534,
      "kharbok": 2535,
      "luannak": 2536,
      "korfual": 2537,
      "Balak": 2538,
      "Rebekah": 2539,
      "Jebus": 2540,
      "Azar": 2541,
      "Ga": 2542,
      "Ning": 2543,
      "bosheth": 2544,
      "ean": 2545,
      "mawinak": 2546,
      "siter": 2547,
      "loh": 2548,
      "Cupawl": 2549,
      "lungpuk": 2550,
      "innah": 2551,
      "emnak": 2552,
      "Nauhak": 2553,
      "Jesse": 2554,
      "cangter": 2555,
      "cotu": 2556,
      "sawmriat": 2557,
      "polh": 2558,
      "hngan": 2559,
      "mitthli": 2560,
      "Nisuahnak": 2561,
      "humtu": 2562,
      "Benaiah": 2563,
      "kulhmi": 2564,
      "vutcam": 2565,
      "phoih": 2566,
      "vakvai": 2567,
      "surter": 2568,
      "Shimei": 2569,
      "hmurka": 2570,
      "Duh": 2571,
      "Hinah": 2572,
      "Olif": 2573,
      "Su": 2574,
      "auh": 2575,
      "der": 2576,
      "kawn": 2577,
      "sihi": 2578,
      "awter": 2579,
      "akah": 2580,
      "siim": 2581,
      "miburpi": 2582,
      "hrua": 2583,
      "nabas": 2584,
      "fatir": 2585,
      "Jef": 2586,
      "salnak": 2587,
      "sualpi": 2588,
      "theihter": 2589,
      "theihthiamnak": 2590,
      "tumtahnak": 2591,
      "leilungah": 2592,
      "Thuphan": 2593,
      "cakter": 2594,
      "Sheba": 2595,
      "Filip": 2596,
      "rinsantlak": 2597,
      "finkhawm": 2598,
      "seen": 2599,
      "hnuailam": 2600,
      "itthat": 2601,
      "ruangpum": 2602,
      "Barnabas": 2603,
      "neinung": 2604,
      "Kiosa": 2605,
      "ziangtlukin": 2606,
      "Shemaiah": 2607,
      "cawhfung": 2608,
      "Rintlak": 2609,
      "Jezreel": 2610,
      "Runtu": 2611,
      "thlingthla": 2612,
      "Mizpah": 2613,
      "Mikaiah": 2614,
      "De": 2615,
      "Mangki": 2616,
      "San": 2617,
      "Tang": 2618,
      "Tili": 2619,
      "ainak": 2620,
      "bar": 2621,
      "bad": 2622,
      "awhman": 2623,
      "tupi": 2624,
      "ngen": 2625,
      "tep": 2626,
      "thlum": 2627,
      "arnat": 2628,
      "tlawn": 2629,
      "ṭhan": 2630,
      "suup": 2631,
      "Issak": 2632,
      "duhduh": 2633,
      "fehtu": 2634,
      "salah": 2635,
      "ziangzat": 2636,
      "huat": 2637,
      "Joram": 2638,
      "tlangsaang": 2639,
      "ṭhenhra": 2640,
      "rundam": 2641,
      "Ziangtluk": 2642,
      "thingrah": 2643,
      "hremtu": 2644,
      "thlipi": 2645,
      "zamrangin": 2646,
      "Zanlam": 2647,
      "Tuufa": 2648,
      "khuitawk": 2649,
      "Kiria": 2650,
      "khahter": 2651,
      "Thuṭhennak": 2652,
      "Jeim": 2653,
      "Issakhar": 2654,
      "!’": 2655,
      "Ke": 2656,
      "Tl": 2657,
      "Zu": 2658,
      "bul": 2659,
      "dab": 2660,
      "hak": 2661,
      "mu": 2662,
      "sial": 2663,
      "siir": 2664,
      "cuah": 2665,
      "hneem": 2666,
      "hreng": 2667,
      "thulolak": 2668,
      "terran": 2669,
      "tikih": 2670,
      "lain": 2671,
      "khatnak": 2672,
      "Kad": 2673,
      "awhthuh": 2674,
      "hmunrawn": 2675,
      "luatnak": 2676,
      "ngaitu": 2677,
      "sunah": 2678,
      "runnak": 2679,
      "ringringtu": 2680,
      "zarh": 2681,
      "baal": 2682,
      "Leah": 2683,
      "Nikhat": 2684,
      "thawhnak": 2685,
      "Shiloh": 2686,
      "beis": 2687,
      "Dungthluntu": 2688,
      "Mangbang": 2689,
      "Gilgal": 2690,
      "terranean": 2691,
      "Do": 2692,
      "Hlan": 2693,
      "Ken": 2694,
      "Ruth": 2695,
      "fen": 2696,
      "ppa": 2697,
      "zeng": 2698,
      "pia": 2699,
      "hlawhman": 2700,
      "tuahter": 2701,
      "onah": 2702,
      "song": 2703,
      "kiah": 2704,
      "nitin": 2705,
      "tuksumza": 2706,
      "mawsi": 2707,
      "kutah": 2708,
      "balsiat": 2709,
      "rilrawng": 2710,
      "Hamath": 2711,
      "kehlam": 2712,
      "Zaangfahnak": 2713,
      "Mediterranean": 2714,
      "Sihon": 2715,
      "Phar": 2716,
      "Ramah": 2717,
      "nim": 2718,
      "rkuam": 2719,
      "ten": 2720,
      "Ṭih": 2721,
      "inga": 2722,
      "umtu": 2723,
      "raang": 2724,
      "innih": 2725,
      "lairelnak": 2726,
      "thiamtu": 2727,
      "tlaang": 2728,
      "vemi": 2729,
      "hminah": 2730,
      "horkuam": 2731,
      "meikhu": 2732,
      "thawnginn": 2733,
      "Biakṭheng": 2734,
      "Ziangvek": 2735,
      "rinlopi": 2736,
      "zuuk": 2737,
      "bed": 2738,
      "beet": 2739,
      "isel": 2740,
      "hnia": 2741,
      "rinsantu": 2742,
      "Benhad": 2743,
      "Ramdang": 2744,
      "taangsun": 2745,
      "felnak": 2746,
      "dinnak": 2747,
      "dinter": 2748,
      "maak": 2749,
      "zamrangte": 2750,
      "Abijah": 2751,
      "hluannga": 2752,
      "ṭihzahtu": 2753,
      "Thinlung": 2754,
      "Jehoiakim": 2755,
      "Azariah": 2756,
      "Benhadad": 2757,
      "Mihrek": 2758,
      "Net": 2759,
      "Thai": 2760,
      "bil": 2761,
      "hthlo": 2762,
      "omi": 2763,
      "leem": 2764,
      "nakah": 2765,
      "aim": 2766,
      "umpi": 2767,
      "thuro": 2768,
      "hmansehla": 2769,
      "duhzet": 2770,
      "Mikah": 2771,
      "ringzet": 2772,
      "tlasam": 2773,
      "Hiti": 2774,
      "huuk": 2775,
      "hmaika": 2776,
      "thlapi": 2777,
      "thlengmi": 2778,
      "tonak": 2779,
      "camcawhfung": 2780,
      "hlom": 2781,
      "kirpi": 2782,
      "ṭihphannak": 2783,
      "Thukham": 2784,
      "tangdor": 2785,
      "Beer": 2786,
      "Nitlaknak": 2787,
      "kengtu": 2788,
      "vunnel": 2789,
      "himte": 2790,
      "hleinga": 2791,
      "hmuhsuamnak": 2792,
      "tuucangte": 2793,
      "thlohthlo": 2794,
      "phaarnat": 2795,
      "rawimi": 2796,
      "Adonijah": 2797,
      "cuahco": 2798,
      "Ak": 2799,
      "Hesh": 2800,
      "Nau": 2801,
      "Tuah": 2802,
      "Uriah": 2803,
      "Zumnak": 2804,
      "esa": 2805,
      "pung": 2806,
      "zel": 2807,
      "ṭam": 2808,
      "ṭahnak": 2809,
      "ṭihnak": 2810,
      "ṭelh": 2811,
      "sii": 2812,
      "tit": 2813,
      "fainak": 2814,
      "khuiah": 2815,
      "onsil": 2816,
      "saltaannak": 2817,
      "put": 2818,
      "phunkhat": 2819,
      "rop": 2820,
      "hmuhnak": 2821,
      "sunloih": 2822,
      "kutzung": 2823,
      "ngahtu": 2824,
      "upabik": 2825,
      "tahmi": 2826,
      "kirmi": 2827,
      "zinglam": 2828,
      "Theih": 2829,
      "caang": 2830,
      "caam": 2831,
      "besia": 2832,
      "kedam": 2833,
      "shon": 2834,
      "dawisuak": 2835,
      "tonmi": 2836,
      "natsia": 2837,
      "Asilole": 2838,
      "Asherah": 2839,
      "Meisa": 2840,
      "Hramlak": 2841,
      "thianfaiter": 2842,
      "Jehoiakhin": 2843,
      "kilvengtu": 2844,
      "Merari": 2845,
      "Heshbon": 2846,
      "Hil": 2847,
      "Hla": 2848,
      "bet": 2849,
      "bumnak": 2850,
      "dawh": 2851,
      "eel": 2852,
      "ias": 2853,
      "shi": 2854,
      "innak": 2855,
      "has": 2856,
      "tur": 2857,
      "awiter": 2858,
      "say": 2859,
      "nihlawh": 2860,
      "thoter": 2861,
      "ṭuanter": 2862,
      "huai": 2863,
      "taar": 2864,
      "biakmi": 2865,
      "ṭongtu": 2866,
      "hminthannak": 2867,
      "voihnih": 2868,
      "ratpi": 2869,
      "Thlai": 2870,
      "Sham": 2871,
      "ciarih": 2872,
      "taikhap": 2873,
      "zuartu": 2874,
      "Korah": 2875,
      "cumicu": 2876,
      "cila": 2877,
      "Bel": 2878,
      "Jonah": 2879,
      "Ri": 2880,
      "Tai": 2881,
      "cherubim": 2882,
      "ian": 2883,
      "kel": 2884,
      "ihu": 2885,
      "alnak": 2886,
      "thio": 2887,
      "umtlang": 2888,
      "eko": 2889,
      "cunah": 2890,
      "thucah": 2891,
      "thuzirhnak": 2892,
      "hluah": 2893,
      "ilas": 2894,
      "khawdur": 2895,
      "pakhatte": 2896,
      "ciil": 2897,
      "vaang": 2898,
      "Naomi": 2899,
      "hmuihm": 2900,
      "luar": 2901,
      "coter": 2902,
      "leitlun": 2903,
      "ringringnak": 2904,
      "atuih": 2905,
      "Khuahlan": 2906,
      "humhimnak": 2907,
      "ninghang": 2908,
      "mawizet": 2909,
      "thlisia": 2910,
      "Tivapi": 2911,
      "tuamhlawm": 2912,
      "Nunnak": 2913,
      "Zaangfah": 2914,
      "Dingnak": 2915,
      "Ezra": 2916,
      "Kiriath": 2917,
      "lainatnak": 2918,
      "Hilkiah": 2919,
      "hmuihmel": 2920,
      "Fine": 2921,
      "Gom": 2922,
      "Had": 2923,
      "bab": 2924,
      "met": 2925,
      "sih": 2926,
      "vu": 2927,
      "“‘": 2928,
      "cuan": 2929,
      "khawng": 2930,
      "nazi": 2931,
      "hlit": 2932,
      "sainak": 2933,
      "imawh": 2934,
      "Ish": 2935,
      "aupi": 2936,
      "zaam": 2937,
      "soisel": 2938,
      "dangte": 2939,
      "ziangti": 2940,
      "sualral": 2941,
      "Hiram": 2942,
      "lawngih": 2943,
      "tami": 2944,
      "tlunta": 2945,
      "tok": 2946,
      "thawngtla": 2947,
      "neihnak": 2948,
      "pumkhawm": 2949,
      "cawhnawi": 2950,
      "ṭhia": 2951,
      "Amnon": 2952,
      "Ramsa": 2953,
      "ṭannak": 2954,
      "daliah": 2955,
      "Abishai": 2956,
      "mina": 2957,
      "Maakah": 2958,
      "Shal": 2959,
      "tlangvalpa": 2960,
      "tualrawn": 2961,
      "aihram": 2962,
      "Nupi": 2963,
      "hnawmpen": 2964,
      "Finehas": 2965,
      "Ag": 2966,
      "Abia": 2967,
      "Ethio": 2968,
      "Her": 2969,
      "Jah": 2970,
      "La": 2971,
      "Par": 2972,
      "Ser": 2973,
      "Silas": 2974,
      "Zerah": 2975,
      "cel": 2976,
      "ia": 2977,
      "mel": 2978,
      "ule": 2979,
      "vur": 2980,
      "siip": 2981,
      "miruak": 2982,
      "loram": 2983,
      "lotein": 2984,
      "patar": 2985,
      "eiah": 2986,
      "hnat": 2987,
      "thusuh": 2988,
      "ziel": 2989,
      "zoi": 2990,
      "theilo": 2991,
      "phumnak": 2992,
      "ralṭhatnak": 2993,
      "Milem": 2994,
      "dangih": 2995,
      "Nazar": 2996,
      "niam": 2997,
      "dolh": 2998,
      "thoth": 2999,
      "mawr": 3000,
      "thangsiat": 3001,
      "daiah": 3002,
      "both": 3003,
      "tuarmi": 3004,
      "zumtlak": 3005,
      "zanriah": 3006,
      "melek": 3007,
      "rukru": 3008,
      "buri": 3009,
      "Tlangpar": 3010,
      "hlonhlo": 3011,
      "thawhlawm": 3012,
      "zungthiam": 3013,
      "tumpipi": 3014,
      "cawimawi": 3015,
      "Bomnak": 3016,
      "duhdawtu": 3017,
      "rannung": 3018,
      "Asaf": 3019,
      "Gedaliah": 3020,
      "karhzai": 3021,
      "hnaihnok": 3022,
      "Ethiopia": 3023,
      "Nazareth": 3024,
      "En": 3025,
      "Elam": 3026,
      "Nim": 3027,
      "Nine": 3028,
      "Riah": 3029,
      "Sah": 3030,
      "ee": 3031,
      "fah": 3032,
      "lum": 3033,
      "sek": 3034,
      "zer": 3035,
      "zuang": 3036,
      "tivek": 3037,
      "dingthluk": 3038,
      "paih": 3039,
      "khin": 3040,
      "thlan": 3041,
      "thianfainak": 3042,
      "satu": 3043,
      "zotal": 3044,
      "tikulh": 3045,
      "phel": 3046,
      "hmanin": 3047,
      "khatih": 3048,
      "khatmi": 3049,
      "cio": 3050,
      "suahtu": 3051,
      "nusun": 3052,
      "liang": 3053,
      "santlai": 3054,
      "kutih": 3055,
      "thawnghnih": 3056,
      "leilungih": 3057,
      "poimawh": 3058,
      "Thawng": 3059,
      "Baasha": 3060,
      "Tirh": 3061,
      "Thudik": 3062,
      "Leitlun": 3063,
      "khawzingnu": 3064,
      "thihter": 3065,
      "telmi": 3066,
      "cingin": 3067,
      "hngetter": 3068,
      "Khuitawk": 3069,
      "Karmel": 3070,
      "Timote": 3071,
      "zonzaihnak": 3072,
      "Daite": 3073,
      "barli": 3074,
      "Kadesh": 3075,
      "hluahhlo": 3076,
      "Abiathar": 3077,
      "Nineveh": 3078,
      "),": 3079,
      "Ei": 3080,
      "Esh": 3081,
      "Jai": 3082,
      "Obed": 3083,
      "Rah": 3084,
      "nawhthuh": 3085,
      "tatnak": 3086,
      "tupa": 3087,
      "paa": 3088,
      "pathumnak": 3089,
      "altu": 3090,
      "arim": 3091,
      "ariah": 3092,
      "hibangtuk": 3093,
      "tlar": 3094,
      "hliah": 3095,
      "sab": 3096,
      "savun": 3097,
      "saunak": 3098,
      "sullam": 3099,
      "theithiam": 3100,
      "lungphun": 3101,
      "laknak": 3102,
      "ṭhabik": 3103,
      "kiak": 3104,
      "vekah": 3105,
      "awhtu": 3106,
      "sangsang": 3107,
      "vansaang": 3108,
      "Jotham": 3109,
      "toter": 3110,
      "hrinah": 3111,
      "sawmkua": 3112,
      "zingzoi": 3113,
      "adab": 3114,
      "Thlang": 3115,
      "lonmi": 3116,
      "lengke": 3117,
      "tlep": 3118,
      "Khonsil": 3119,
      "dir": 3120,
      "hlap": 3121,
      "Khawsung": 3122,
      "hleikhat": 3123,
      "ngunkhuai": 3124,
      "thlakau": 3125,
      "sera": 3126,
      "karlakih": 3127,
      "palcih": 3128,
      "Asilo": 3129,
      "Ngaih": 3130,
      "ṭaangṭawm": 3131,
      "Hmakhatteah": 3132,
      "hruaihlo": 3133,
      "Mangbangza": 3134,
      "Ngaihnik": 3135,
      "Caan": 3136,
      "Fa": 3137,
      "Fang": 3138,
      "Gri": 3139,
      "Kish": 3140,
      "Nail": 3141,
      "dum": 3142,
      "go": 3143,
      "neng": 3144,
      "cupawl": 3145,
      "lohli": 3146,
      "awizet": 3147,
      "khaaltu": 3148,
      "thutheitu": 3149,
      "hlum": 3150,
      "ziar": 3151,
      "ralah": 3152,
      "raltho": 3153,
      "eman": 3154,
      "ziangbangtuk": 3155,
      "Zik": 3156,
      "Hitiin": 3157,
      "rol": 3158,
      "kumah": 3159,
      "cohlang": 3160,
      "thawinakih": 3161,
      "meiling": 3162,
      "leiba": 3163,
      "ringringmi": 3164,
      "hloh": 3165,
      "neihsun": 3166,
      "ebel": 3167,
      "Thawinak": 3168,
      "ṭihzahnak": 3169,
      "siarlo": 3170,
      "kaitu": 3171,
      "Beel": 3172,
      "dirh": 3173,
      "Milian": 3174,
      "Khawdur": 3175,
      "Atuih": 3176,
      "hleiriat": 3177,
      "buainak": 3178,
      "tiamkam": 3179,
      "uico": 3180,
      "neem": 3181,
      "Ngun": 3182,
      "phiat": 3183,
      "hnangamnak": 3184,
      "Thingkung": 3185,
      "Cawcang": 3186,
      "Jezebel": 3187,
      "thianhlimnak": 3188,
      "Pawlih": 3189,
      "Grik": 3190,
      "Ber": 3191,
      "Khi": 3192,
      "Og": 3193,
      "Oho": 3194,
      "Rim": 3195,
      "Upa": 3196,
      "cal": 3197,
      "vui": 3198,
      "ihng": 3199,
      "ihum": 3200,
      "thawt": 3201,
      "lel": 3202,
      "aman": 3203,
      "hmak": 3204,
      "ngak": 3205,
      "hnim": 3206,
      "hnuk": 3207,
      "hrei": 3208,
      "Cutin": 3209,
      "thur": 3210,
      "thuuk": 3211,
      "sua": 3212,
      "lungruh": 3213,
      "khawh": 3214,
      "ṭhehmi": 3215,
      "Kain": 3216,
      "Anti": 3217,
      "Sisera": 3218,
      "rakir": 3219,
      "phundang": 3220,
      "Hiv": 3221,
      "liath": 3222,
      "taai": 3223,
      "tacik": 3224,
      "lubik": 3225,
      "tumzet": 3226,
      "vanah": 3227,
      "harsat": 3228,
      "poisa": 3229,
      "pumkhawmnak": 3230,
      "siarcih": 3231,
      "thothoin": 3232,
      "langtertu": 3233,
      "khit": 3234,
      "thlawsuak": 3235,
      "Ramoth": 3236,
      "Jehoram": 3237,
      "tlamtling": 3238,
      "Haza": 3239,
      "pertu": 3240,
      "Baruk": 3241,
      "Ahijah": 3242,
      "Meshu": 3243,
      "Thungaite": 3244,
      "saannak": 3245,
      "Goliath": 3246,
      "thleidannak": 3247,
      "Jefthah": 3248,
      "thlingthlatu": 3249,
      "Beersheba": 3250,
      "saya": 3251,
      "Ek": 3252,
      "Mero": 3253,
      "Rei": 3254,
      "Sho": 3255,
      "Tar": 3256,
      "cawn": 3257,
      "cawng": 3258,
      "zawi": 3259,
      "thinn": 3260,
      "siik": 3261,
      "cutikah": 3262,
      "leuh": 3263,
      "lok": 3264,
      "tuum": 3265,
      "hrum": 3266,
      "hren": 3267,
      "ṭhin": 3268,
      "sasua": 3269,
      "khuang": 3270,
      "zasarih": 3271,
      "Mifarah": 3272,
      "thiltuah": 3273,
      "Naaman": 3274,
      "nuih": 3275,
      "tukih": 3276,
      "kotu": 3277,
      "tlami": 3278,
      "hramlakah": 3279,
      "tilet": 3280,
      "meivannak": 3281,
      "neihter": 3282,
      "taktein": 3283,
      "cawleng": 3284,
      "adan": 3285,
      "vancungah": 3286,
      "hmangtu": 3287,
      "hridai": 3288,
      "thacak": 3289,
      "Khawzing": 3290,
      "rinsannak": 3291,
      "ṭanhmun": 3292,
      "Lungpi": 3293,
      "phorh": 3294,
      "Arnon": 3295,
      "sersiam": 3296,
      "reprep": 3297,
      "Refai": 3298,
      "Lib": 3299,
      "Hnaṭuan": 3300,
      "Hagar": 3301,
      "Hananiah": 3302,
      "cerhti": 3303,
      "copmi": 3304,
      "hmakhua": 3305,
      "Meshullam": 3306,
      "Di": 3307,
      "Lazar": 3308,
      "Masi": 3309,
      "Makhi": 3310,
      "No": 3311,
      "Rul": 3312,
      "Se": 3313,
      "Tha": 3314,
      "ipah": 3315,
      "kem": 3316,
      "Ṭhat": 3317,
      "sik": 3318,
      "hrok": 3319,
      "teón": 3320,
      "khong": 3321,
      "thlat": 3322,
      "sungte": 3323,
      "lungtho": 3324,
      "zaar": 3325,
      "ṭhal": 3326,
      "ciin": 3327,
      "salih": 3328,
      "suahsainak": 3329,
      "laimi": 3330,
      "hmual": 3331,
      "hup": 3332,
      "hmunkip": 3333,
      "suakter": 3334,
      "vand": 3335,
      "vanmi": 3336,
      "tawkin": 3337,
      "tinkim": 3338,
      "hrihmi": 3339,
      "thiangmi": 3340,
      "zohthiam": 3341,
      "Thir": 3342,
      "Abel": 3343,
      "ratnak": 3344,
      "deuhmi": 3345,
      "Zozo": 3346,
      "vancungih": 3347,
      "thantaar": 3348,
      "kengin": 3349,
      "zakipah": 3350,
      "tonkhawmnak": 3351,
      "phuangtu": 3352,
      "Sheol": 3353,
      "thukpi": 3354,
      "durdo": 3355,
      "Hmailam": 3356,
      "donia": 3357,
      "Hagg": 3358,
      "Ruahnak": 3359,
      "Seraiah": 3360,
      "Antiok": 3361,
      "Lazaras": 3362,
      "Masidonia": 3363,
      "Akh": 3364,
      "Adam": 3365,
      "Dari": 3366,
      "Fel": 3367,
      "Hel": 3368,
      "Hihi": 3369,
      "Hlawh": 3370,
      "Hnen": 3371,
      "Lu": 3372,
      "Lakhi": 3373,
      "Rab": 3374,
      "aatnak": 3375,
      "dawn": 3376,
      "fe": 3377,
      "gail": 3378,
      "hmit": 3379,
      "law": 3380,
      "mangah": 3381,
      "pawn": 3382,
      "Ṭha": 3383,
      "anu": 3384,
      "thungai": 3385,
      "mithiangfai": 3386,
      "til": 3387,
      "leinak": 3388,
      "uhlam": 3389,
      "hnawt": 3390,
      "khuahlan": 3391,
      "sungmi": 3392,
      "sungril": 3393,
      "rath": 3394,
      "saat": 3395,
      "kanah": 3396,
      "lungnem": 3397,
      "ṭhehtu": 3398,
      "salmi": 3399,
      "thiltuahmi": 3400,
      "nitlak": 3401,
      "sualmi": 3402,
      "koth": 3403,
      "donak": 3404,
      "nunkhua": 3405,
      "siatser": 3406,
      "cangan": 3407,
      "thlainak": 3408,
      "senmi": 3409,
      "Biakinnpi": 3410,
      "hlohr": 3411,
      "tlakmi": 3412,
      "Thisen": 3413,
      "zaangzel": 3414,
      "nautatnak": 3415,
      "ciarin": 3416,
      "Hmuh": 3417,
      "Tlangval": 3418,
      "tiammi": 3419,
      "cuanglo": 3420,
      "tuihsan": 3421,
      "Thilsual": 3422,
      "hranhram": 3423,
      "Lungawinak": 3424,
      "Efesa": 3425,
      "hngakhlap": 3426,
      "Abigail": 3427,
      "hluanhnih": 3428,
      "rialnak": 3429,
      "Elkanah": 3430,
      "vengtu": 3431,
      "siatcamnak": 3432,
      "hlatpi": 3433,
      "Hmaisa": 3434,
      "tilik": 3435,
      "Zinglam": 3436,
      "Duhdawt": 3437,
      "babel": 3438,
      "Shallum": 3439,
      "Sahrang": 3440,
      "Hazael": 3441,
      "Ekron": 3442,
      "tuumkung": 3443,
      "Makhir": 3444,
      "Darias": 3445,
      "Lakhish": 3446,
      "Aw": 3447,
      "Ana": 3448,
      "Ci": 3449,
      "Hremnak": 3450,
      "Im": 3451,
      "Lang": 3452,
      "Lai": 3453,
      "Mel": 3454,
      "buh": 3455,
      "ber": 3456,
      "fal": 3457,
      "helh": 3458,
      "ipi": 3459,
      "seu": 3460,
      "ahaz": 3461,
      "inso": 3462,
      "thuah": 3463,
      "leen": 3464,
      "lehnak": 3465,
      "lozet": 3466,
      "thiik": 3467,
      "Cuvete": 3468,
      "hitluk": 3469,
      "thuron": 3470,
      "ziam": 3471,
      "suar": 3472,
      "zor": 3473,
      "ilah": 3474,
      "fasuan": 3475,
      "pakhatnak": 3476,
      "fehsan": 3477,
      "vaar": 3478,
      "fapatir": 3479,
      "Nabal": 3480,
      "Nadab": 3481,
      "ziangtal": 3482,
      "tukah": 3483,
      "laipi": 3484,
      "sualtu": 3485,
      "thinsau": 3486,
      "ṭuanmi": 3487,
      "nunzia": 3488,
      "hramah": 3489,
      "cok": 3490,
      "cohlan": 3491,
      "kimnak": 3492,
      "Joel": 3493,
      "vok": 3494,
      "dep": 3495,
      "thawngah": 3496,
      "thawngthum": 3497,
      "aseiah": 3498,
      "zingpit": 3499,
      "fibosheth": 3500,
      "Bath": 3501,
      "riahsiat": 3502,
      "khawmmi": 3503,
      "mitkher": 3504,
      "cakhen": 3505,
      "ngannak": 3506,
      "Shelah": 3507,
      "orrah": 3508,
      "dia": 3509,
      "meet": 3510,
      "khir": 3511,
      "hleisang": 3512,
      "Zerub": 3513,
      "hrukter": 3514,
      "Jehoash": 3515,
      "Mefibosheth": 3516,
      "menmen": 3517,
      "Haran": 3518,
      "tleumi": 3519,
      "hluanli": 3520,
      "ṭaangthlaih": 3521,
      "Shafan": 3522,
      "cawhkuan": 3523,
      "tipithuanthum": 3524,
      "Peri": 3525,
      "mualphonak": 3526,
      "Perez": 3527,
      "Mattan": 3528,
      "semhlo": 3529,
      "Gershon": 3530,
      "Mitcaw": 3531,
      "Gaza": 3532,
      "Tangka": 3533,
      "beisei": 3534,
      "Neta": 3535,
      "Gomorrah": 3536,
      "sabbath": 3537,
      "siatserhnak": 3538,
      "Ahim": 3539,
      "Hada": 3540,
      "Mu": 3541,
      "Pah": 3542,
      "Pal": 3543,
      "Tab": 3544,
      "ddo": 3545,
      "linak": 3546,
      "mawng": 3547,
      "pawh": 3548,
      "vennak": 3549,
      "zawl": 3550,
      "Ṭong": 3551,
      "awtu": 3552,
      "ihthat": 3553,
      "micak": 3554,
      "pai": 3555,
      "pariat": 3556,
      "paamnak": 3557,
      "khep": 3558,
      "Culole": 3559,
      "pipu": 3560,
      "thurel": 3561,
      "raak": 3562,
      "ramhuai": 3563,
      "phulh": 3564,
      "pekte": 3565,
      "duhzawng": 3566,
      "laksak": 3567,
      "Miseen": 3568,
      "Sisar": 3569,
      "laithat": 3570,
      "puut": 3571,
      "kolh": 3572,
      "dod": 3573,
      "osh": 3574,
      "thlunnak": 3575,
      "hramlakih": 3576,
      "hmaiton": 3577,
      "cozah": 3578,
      "vanlai": 3579,
      "ṭhenthum": 3580,
      "harsa": 3581,
      "dezer": 3582,
      "daiter": 3583,
      "dungah": 3584,
      "tuarter": 3585,
      "Amon": 3586,
      "thaunak": 3587,
      "hawltu": 3588,
      "ningzah": 3589,
      "saangpi": 3590,
      "Hmuan": 3591,
      "tivapi": 3592,
      "hleiruk": 3593,
      "tonkhawm": 3594,
      "donhleisang": 3595,
      "phuak": 3596,
      "luhpi": 3597,
      "cinghnia": 3598,
      "hmuhsuamtu": 3599,
      "zukzo": 3600,
      "Ashdod": 3601,
      "Khuiah": 3602,
      "sattu": 3603,
      "Hannah": 3604,
      "Maaseiah": 3605,
      "Shemesh": 3606,
      "sualthlahnak": 3607,
      "ningzakza": 3608,
      "tipikap": 3609,
      "Sarai": 3610,
      "Sabitti": 3611,
      "thuanthu": 3612,
      "harhdam": 3613,
      "polhmi": 3614,
      "Hadad": 3615,
      "rolnak": 3616,
      "khongtu": 3617,
      "Melkhi": 3618,
      "helhkam": 3619,
      "Periz": 3620,
      "Hadadezer": 3621,
      "Miseenpi": 3622,
      "Sisaria": 3623,
      "Athal": 3624,
      "Del": 3625,
      "Eg": 3626,
      "Jas": 3627,
      "Mak": 3628,
      "Om": 3629,
      "Obad": 3630,
      "Suk": 3631,
      "Zim": 3632,
      "aang": 3633,
      "bak": 3634,
      "beng": 3635,
      "hah": 3636,
      "hih": 3637,
      "iat": 3638,
      "tleng": 3639,
      "us": 3640,
      "zur": 3641,
      "zzar": 3642,
      "mizapi": 3643,
      "tilo": 3644,
      "ama": 3645,
      "hazi": 3646,
      "palh": 3647,
      "patawp": 3648,
      "uhruang": 3649,
      "hnawh": 3650,
      "hreu": 3651,
      "telh": 3652,
      "kheh": 3653,
      "sungsuak": 3654,
      "zong": 3655,
      "phawi": 3656,
      "bilee": 3657,
      "riatnak": 3658,
      "Jearim": 3659,
      "khuazakipah": 3660,
      "sopo": 3661,
      "thilthuam": 3662,
      "virh": 3663,
      "thinp": 3664,
      "dot": 3665,
      "tlaih": 3666,
      "thofel": 3667,
      "nunter": 3668,
      "nundaan": 3669,
      "siatserh": 3670,
      "lawngte": 3671,
      "hramṭo": 3672,
      "Jubilee": 3673,
      "meipi": 3674,
      "thlennak": 3675,
      "poi": 3676,
      "Ziangruangah": 3677,
      "Zianghrangah": 3678,
      "Thang": 3679,
      "Theihnak": 3680,
      "asilole": 3681,
      "pumpak": 3682,
      "zohmanih": 3683,
      "nupisun": 3684,
      "zariat": 3685,
      "hlawhtl": 3686,
      "betu": 3687,
      "Nitinte": 3688,
      "cemral": 3689,
      "tlukih": 3690,
      "efer": 3691,
      "fangkheh": 3692,
      "aaz": 3693,
      "thlakza": 3694,
      "Thilnu": 3695,
      "Johanan": 3696,
      "Mesopo": 3697,
      "ruhkulh": 3698,
      "Hazor": 3699,
      "zukneng": 3700,
      "Hezron": 3701,
      "hringtu": 3702,
      "Ahimelek": 3703,
      "Ahithofel": 3704,
      "hoikir": 3705,
      "Ngai": 3706,
      "thuailam": 3707,
      "Gehazi": 3708,
      "Horon": 3709,
      "Nethan": 3710,
      "Cuhnak": 3711,
      "hnangamte": 3712,
      "Sairas": 3713,
      "Jabesh": 3714,
      "Susa": 3715,
      "Thaisun": 3716,
      "thucahmi": 3717,
      "tamia": 3718,
      "paate": 3719,
      "Thlanglam": 3720,
      "Oholi": 3721,
      "Bathsheba": 3722,
      "Zerubbabel": 3723,
      "Athaliah": 3724,
      "Obadiah": 3725,
      "Mesopotamia": 3726,
      "Bawm": 3727,
      "Cat": 3728,
      "Cerh": 3729,
      "Fala": 3730,
      "Hos": 3731,
      "Iz": 3732,
      "Itham": 3733,
      "Kor": 3734,
      "Kir": 3735,
      "Min": 3736,
      "Tah": 3737,
      "Tle": 3738,
      "Thar": 3739,
      "Zin": 3740,
      "Zab": 3741,
      "bek": 3742,
      "du": 3743,
      "ea": 3744,
      "ge": 3745,
      "mih": 3746,
      "mum": 3747,
      "mer": 3748,
      "pelh": 3749,
      "sawh": 3750,
      "zau": 3751,
      "zed": 3752,
      "zeel": 3753,
      "Ṭhu": 3754,
      "Ṭilva": 3755,
      "ahel": 3756,
      "inter": 3757,
      "awp": 3758,
      "tiangah": 3759,
      "lehr": 3760,
      "dingtein": 3761,
      "hrelh": 3762,
      "thluah": 3763,
      "thlau": 3764,
      "hivek": 3765,
      "hizat": 3766,
      "ruiah": 3767,
      "rathleng": 3768,
      "saphaw": 3769,
      "zil": 3770,
      "zial": 3771,
      "ramcaar": 3772,
      "suai": 3773,
      "fas": 3774,
      "rib": 3775,
      "raltu": 3776,
      "ralthuam": 3777,
      "Jeth": 3778,
      "latu": 3779,
      "cithlah": 3780,
      "Mikhal": 3781,
      "Naboth": 3782,
      "huatnak": 3783,
      "hlahmi": 3784,
      "Daihnak": 3785,
      "tawkfang": 3786,
      "ngaidamnak": 3787,
      "toh": 3788,
      "thawngli": 3789,
      "leimi": 3790,
      "leilungtlun": 3791,
      "tlakter": 3792,
      "Thimnak": 3793,
      "Thah": 3794,
      "ṭihnung": 3795,
      "relsia": 3796,
      "Cunah": 3797,
      "zanvar": 3798,
      "Thuṭhimnak": 3799,
      "lengih": 3800,
      "cakmi": 3801,
      "tlek": 3802,
      "hnihsuahsainak": 3803,
      "khomi": 3804,
      "luatmi": 3805,
      "Ralring": 3806,
      "saangtu": 3807,
      "Tupi": 3808,
      "thlakmi": 3809,
      "hmaihng": 3810,
      "taimak": 3811,
      "Zeruiah": 3812,
      "Asahel": 3813,
      "ziangtinkim": 3814,
      "zawnfung": 3815,
      "maihum": 3816,
      "hngetzet": 3817,
      "tarzet": 3818,
      "Tipithuanthum": 3819,
      "Media": 3820,
      "Siatsuahnak": 3821,
      "derdai": 3822,
      "Laak": 3823,
      "Tirhthlah": 3824,
      "Rahab": 3825,
      "Duhdawtnak": 3826,
      "Ahimaaz": 3827,
      "zongza": 3828,
      "Ithamar": 3829,
      "zedek": 3830,
      "Asia": 3831,
      "Bu": 3832,
      "Him": 3833,
      "Lak": 3834,
      "Mawh": 3835,
      "Mesh": 3836,
      "Pekah": 3837,
      "Ste": 3838,
      "Sawm": 3839,
      "Te": 3840,
      "Tlan": 3841,
      "dawr": 3842,
      "eunak": 3843,
      "fangih": 3844,
      "lawl": 3845,
      "mul": 3846,
      "pet": 3847,
      "ush": 3848,
      "vam": 3849,
      "zun": 3850,
      "ṭapa": 3851,
      "ṭeem": 3852,
      "ihli": 3853,
      "ihphah": 3854,
      "miel": 3855,
      "miluat": 3856,
      "awlok": 3857,
      "eimi": 3858,
      "thiar": 3859,
      "khaam": 3860,
      "khing": 3861,
      "khawn": 3862,
      "naum": 3863,
      "ṭheunak": 3864,
      "sathi": 3865,
      "riel": 3866,
      "lath": 3867,
      "lungvar": 3868,
      "hmanih": 3869,
      "hmuahhmuahih": 3870,
      "duhzat": 3871,
      "zainak": 3872,
      "Kaper": 3873,
      "Mik": 3874,
      "suahmi": 3875,
      "laifangih": 3876,
      "Jeshua": 3877,
      "thiamzet": 3878,
      "phunkim": 3879,
      "phunkip": 3880,
      "lawngfangkheh": 3881,
      "amahte": 3882,
      "thlapit": 3883,
      "Joppa": 3884,
      "sunih": 3885,
      "kutsung": 3886,
      "eroth": 3887,
      "zohṭhim": 3888,
      "Ziangtikah": 3889,
      "dunglamah": 3890,
      "relsiat": 3891,
      "relhnak": 3892,
      "kiangkapah": 3893,
      "mitkem": 3894,
      "tanta": 3895,
      "Khawsia": 3896,
      "Khawthim": 3897,
      "sangkate": 3898,
      "felzetin": 3899,
      "himdam": 3900,
      "phuba": 3901,
      "kipih": 3902,
      "kaumi": 3903,
      "hngetkhoh": 3904,
      "voithum": 3905,
      "palinak": 3906,
      "puarthaunak": 3907,
      "lawithing": 3908,
      "Amasa": 3909,
      "phiarnak": 3910,
      "Uzziel": 3911,
      "ṭaangben": 3912,
      "Mag": 3913,
      "phir": 3914,
      "tata": 3915,
      "Rinlopi": 3916,
      "bansan": 3917,
      "thleidang": 3918,
      "zonzaih": 3919,
      "ṭhepṭhep": 3920,
      "tihal": 3921,
      "korfualpi": 3922,
      "Ishbosheth": 3923,
      "Refaim": 3924,
      "Akhish": 3925,
      "Hlawhhlang": 3926,
      "Mattaniah": 3927,
      "Sukkoth": 3928,
      "tlengfai": 3929,
      "Tleunak": 3930,
      "Ṭhuam": 3931,
      "lawlaw": 3932,
      "Kapernaum": 3933,
      "Al": 3934,
      "Aram": 3935,
      "Aro": 3936,
      "He": 3937,
      "Hur": 3938,
      "Has": 3939,
      "Hasha": 3940,
      "Jar": 3941,
      "Sei": 3942,
      "Sennak": 3943,
      "Tuk": 3944,
      "bawng": 3945,
      "car": 3946,
      "cawt": 3947,
      "dim": 3948,
      "dem": 3949,
      "fu": 3950,
      "meng": 3951,
      "mihrek": 3952,
      "nawm": 3953,
      "pras": 3954,
      "rilh": 3955,
      "sel": 3956,
      "ani": 3957,
      "ihpi": 3958,
      "akim": 3959,
      "sit": 3960,
      "cuk": 3961,
      "miat": 3962,
      "mibum": 3963,
      "mizeng": 3964,
      "ingri": 3965,
      "tikha": 3966,
      "tikap": 3967,
      "leth": 3968,
      "hneek": 3969,
      "hrawl": 3970,
      "piang": 3971,
      "thuṭha": 3972,
      "sungṭuan": 3973,
      "raan": 3974,
      "mahih": 3975,
      "riai": 3976,
      "ralih": 3977,
      "simcia": 3978,
      "laih": 3979,
      "khawri": 3980,
      "khawvang": 3981,
      "khawrop": 3982,
      "khawsattu": 3983,
      "Miriam": 3984,
      "thilti": 3985,
      "Nazir": 3986,
      "nisuah": 3987,
      "ziangzongza": 3988,
      "tukvirh": 3989,
      "thinsaunak": 3990,
      "komnak": 3991,
      "phunzainak": 3992,
      "thosal": 3993,
      "tale": 3994,
      "tlangzim": 3995,
      "tom": 3996,
      "sawmmi": 3997,
      "hlomi": 3998,
      "zohzo": 3999,
      "tlanpi": 4000,
      "hnaṭuanpi": 4001,
      "zuat": 4002,
      "ruattu": 4003,
      "dilnak": 4004,
      "baak": 4005,
      "beth": 4006,
      "kaileng": 4007,
      "Sheb": 4008,
      "diphun": 4009,
      "kholhnak": 4010,
      "hlasak": 4011,
      "tahratih": 4012,
      "siahkhongtu": 4013,
      "phartlang": 4014,
      "saangbik": 4015,
      "ruknak": 4016,
      "hrukmi": 4017,
      "funghreu": 4018,
      "herib": 4019,
      "thamtu": 4020,
      "dawlmi": 4021,
      "vakmi": 4022,
      "hriamhma": 4023,
      "kimvelah": 4024,
      "suangin": 4025,
      "rulhreng": 4026,
      "Vate": 4027,
      "Hotu": 4028,
      "Nahor": 4029,
      "Malkhi": 4030,
      "ṭhanso": 4031,
      "Tlangah": 4032,
      "voihnihnak": 4033,
      "aihramnak": 4034,
      "Hermon": 4035,
      "Libnah": 4036,
      "Rabbah": 4037,
      "Anathoth": 4038,
      "Melkhizedek": 4039,
      "lehrul": 4040,
      "Jethro": 4041,
      "Sennakherib": 4042,
      "ingrisit": 4043,
      "Acozah": 4044,
      "Bi": 4045,
      "Dar": 4046,
      "Fes": 4047,
      "Faa": 4048,
      "Geba": 4049,
      "Hni": 4050,
      "Kawh": 4051,
      "Kut": 4052,
      "Ked": 4053,
      "Pat": 4054,
      "Xer": 4055,
      "lhnat": 4056,
      "nawhnak": 4057,
      "puah": 4058,
      "pinak": 4059,
      "rzah": 4060,
      "set": 4061,
      "xes": 4062,
      "ṭim": 4063,
      "unu": 4064,
      "tithawl": 4065,
      "hauhruang": 4066,
      "hmel": 4067,
      "ngahnak": 4068,
      "thlawh": 4069,
      "pitah": 4070,
      "hib": 4071,
      "hit": 4072,
      "thusia": 4073,
      "Pasal": 4074,
      "hlawknak": 4075,
      "saduh": 4076,
      "tuahmawhnak": 4077,
      "tikuang": 4078,
      "khatter": 4079,
      "zabad": 4080,
      "fehmi": 4081,
      "ṭhaṭha": 4082,
      "sop": 4083,
      "Ziba": 4084,
      "pulhnat": 4085,
      "venak": 4086,
      "Jok": 4087,
      "tiangih": 4088,
      "leikhawvel": 4089,
      "ruahsanmi": 4090,
      "hlanmi": 4091,
      "Ziangbangtuk": 4092,
      "zingpitah": 4093,
      "cawpi": 4094,
      "Titas": 4095,
      "Tirzah": 4096,
      "naule": 4097,
      "beek": 4098,
      "Eliza": 4099,
      "Elish": 4100,
      "Eliezer": 4101,
      "tlukah": 4102,
      "farthing": 4103,
      "ningsin": 4104,
      "Khawzakip": 4105,
      "felzet": 4106,
      "cuangin": 4107,
      "Thilri": 4108,
      "zawnruahnak": 4109,
      "shazzar": 4110,
      "ruangrai": 4111,
      "ngamtu": 4112,
      "thuphanper": 4113,
      "nauhakpa": 4114,
      "Barak": 4115,
      "phiartu": 4116,
      "Tuukhal": 4117,
      "kholhfai": 4118,
      "sunglawimi": 4119,
      "khaisaang": 4120,
      "khahmul": 4121,
      "ṭemnak": 4122,
      "beidong": 4123,
      "Hrampi": 4124,
      "Horkuam": 4125,
      "thutiamnak": 4126,
      "Tobiah": 4127,
      "hnonmi": 4128,
      "bunmi": 4129,
      "Martha": 4130,
      "Saipras": 4131,
      "bauhthlek": 4132,
      "hrawngah": 4133,
      "Ningzak": 4134,
      "tlawnnak": 4135,
      "nimthlakau": 4136,
      "titsa": 4137,
      "Jair": 4138,
      "Rimmon": 4139,
      "Langnak": 4140,
      "depde": 4141,
      "Omri": 4142,
      "thinpemnak": 4143,
      "hramṭohnak": 4144,
      "Festas": 4145,
      "Kawhhran": 4146,
      "Xerxes": 4147,
      "Anan": 4148,
      "Ari": 4149,
      "Cak": 4150,
      "Eden": 4151,
      "Gos": 4152,
      "Ges": 4153,
      "Heman": 4154,
      "Neko": 4155,
      "Pen": 4156,
      "Sum": 4157,
      "Sinak": 4158,
      "Sad": 4159,
      "Shim": 4160,
      "Tak": 4161,
      "Zak": 4162,
      "meh": 4163,
      "muah": 4164,
      "mur": 4165,
      "mas": 4166,
      "Ṭaang": 4167,
      "ṭek": 4168,
      "anak": 4169,
      "sis": 4170,
      "cutin": 4171,
      "culhnak": 4172,
      "mil": 4173,
      "mikip": 4174,
      "tisuar": 4175,
      "loni": 4176,
      "pacang": 4177,
      "kail": 4178,
      "ngel": 4179,
      "aioth": 4180,
      "hnem": 4181,
      "hruum": 4182,
      "khor": 4183,
      "naal": 4184,
      "Cuvekin": 4185,
      "ruun": 4186,
      "attu": 4187,
      "thuaiah": 4188,
      "thianter": 4189,
      "zohnak": 4190,
      "phuah": 4191,
      "ralrin": 4192,
      "ralvengtu": 4193,
      "lungdawl": 4194,
      "khawkhan": 4195,
      "khuaihli": 4196,
      "oni": 4197,
      "zaa": 4198,
      "zalel": 4199,
      "ṭhateih": 4200,
      "ciain": 4201,
      "cirh": 4202,
      "vaam": 4203,
      "thilnung": 4204,
      "Nasa": 4205,
      "ziangtikah": 4206,
      "dahmi": 4207,
      "laileng": 4208,
      "sualsir": 4209,
      "puum": 4210,
      "kop": 4211,
      "koin": 4212,
      "hmailamah": 4213,
      "nungter": 4214,
      "ṭongṭhimnak": 4215,
      "vansaannak": 4216,
      "urmi": 4217,
      "hminṭhatnak": 4218,
      "ṭhentu": 4219,
      "ṭhenṭhek": 4220,
      "hrinpi": 4221,
      "daitla": 4222,
      "sawnmi": 4223,
      "ashib": 4224,
      "Abin": 4225,
      "nehter": 4226,
      "Amram": 4227,
      "ciammam": 4228,
      "khawmtu": 4229,
      "thani": 4230,
      "siarmi": 4231,
      "cannak": 4232,
      "Eliab": 4233,
      "Eliakim": 4234,
      "Eliashib": 4235,
      "fano": 4236,
      "Bezalel": 4237,
      "rualremnak": 4238,
      "darhnak": 4239,
      "Ralnam": 4240,
      "dawithiam": 4241,
      "hleithum": 4242,
      "malsawm": 4243,
      "kawhnak": 4244,
      "sunlawi": 4245,
      "phui": 4246,
      "ṭanpi": 4247,
      "dinsal": 4248,
      "zaangfahtu": 4249,
      "fiangter": 4250,
      "sumsel": 4251,
      "Keilah": 4252,
      "thawhsalnak": 4253,
      "Manoah": 4254,
      "zungah": 4255,
      "vakap": 4256,
      "kimternak": 4257,
      "ramṭhingah": 4258,
      "Barzil": 4259,
      "sertu": 4260,
      "ṭhekdarhnak": 4261,
      "cinmawi": 4262,
      "luanter": 4263,
      "hngalnak": 4264,
      "pakua": 4265,
      "serhtannak": 4266,
      "deuthlam": 4267,
      "Hitawkih": 4268,
      "hrolh": 4269,
      "Tlun": 4270,
      "baalter": 4271,
      "beiseinak": 4272,
      "Naute": 4273,
      "ṭelhmi": 4274,
      "ngakṭah": 4275,
      "Eglon": 4276,
      "Zimri": 4277,
      "Stefen": 4278,
      "awloksong": 4279,
      "Aroer": 4280,
      "Seir": 4281,
      "Goshen": 4282,
      "Sinakok": 4283,
      "kailawn": 4284,
      "Barzillai": 4285,
      "Anak": 4286,
      "Bani": 4287,
      "Cing": 4288,
      "Cherubim": 4289,
      "Ehu": 4290,
      "Hak": 4291,
      "Hnang": 4292,
      "Ib": 4293,
      "Kai": 4294,
      "Kre": 4295,
      "Meh": 4296,
      "Mawhnak": 4297,
      "Ner": 4298,
      "Rem": 4299,
      "Sung": 4300,
      "Thlan": 4301,
      "Tawtawrawt": 4302,
      "Upat": 4303,
      "Zal": 4304,
      "Zar": 4305,
      "cei": 4306,
      "dak": 4307,
      "gon": 4308,
      "sho": 4309,
      "sawr": 4310,
      "tingrisit": 4311,
      "usi": 4312,
      "ven": 4313,
      "unah": 4314,
      "siing": 4315,
      "sizia": 4316,
      "mifel": 4317,
      "tiel": 4318,
      "tirawl": 4319,
      "loth": 4320,
      "tub": 4321,
      "pale": 4322,
      "pawlkom": 4323,
      "nget": 4324,
      "ngil": 4325,
      "hne": 4326,
      "khab": 4327,
      "khael": 4328,
      "ruath": 4329,
      "ela": 4330,
      "eltu": 4331,
      "sungta": 4332,
      "raal": 4333,
      "tuahcopmi": 4334,
      "ralvennak": 4335,
      "simhnik": 4336,
      "lag": 4337,
      "lungkua": 4338,
      "lamin": 4339,
      "innpi": 4340,
      "innkhaan": 4341,
      "cip": 4342,
      "ciah": 4343,
      "cithlahmi": 4344,
      "Mikhael": 4345,
      "engtai": 4346,
      "thlem": 4347,
      "kio": 4348,
      "kiil": 4349,
      "niel": 4350,
      "awkter": 4351,
      "nunnuam": 4352,
      "thlunmi": 4353,
      "hual": 4354,
      "theihthiam": 4355,
      "iksiik": 4356,
      "hmuhhngan": 4357,
      "tlangtluan": 4358,
      "hrinih": 4359,
      "deen": 4360,
      "camnak": 4361,
      "thinlungte": 4362,
      "neihzia": 4363,
      "takzak": 4364,
      "tlanter": 4365,
      "mansehla": 4366,
      "khammi": 4367,
      "Ammin": 4368,
      "Amariah": 4369,
      "zaradan": 4370,
      "fimkhur": 4371,
      "tongtu": 4372,
      "siarnak": 4373,
      "thianghlimter": 4374,
      "nganak": 4375,
      "Leiram": 4376,
      "Khe": 4377,
      "diriam": 4378,
      "mawhthl": 4379,
      "Ralbawipa": 4380,
      "Leilungpi": 4381,
      "saangmi": 4382,
      "butlak": 4383,
      "Ramsung": 4384,
      "natter": 4385,
      "donhar": 4386,
      "donharnak": 4387,
      "tiamkammi": 4388,
      "kaihrem": 4389,
      "cawcangte": 4390,
      "uainak": 4391,
      "Jehoahaz": 4392,
      "shad": 4393,
      "zuarmi": 4394,
      "zuarthlai": 4395,
      "dongtu": 4396,
      "olte": 4397,
      "palhnak": 4398,
      "Uktu": 4399,
      "lene": 4400,
      "Nebat": 4401,
      "ceer": 4402,
      "Jonadab": 4403,
      "Artakzak": 4404,
      "cawimawinak": 4405,
      "Nebuzaradan": 4406,
      "Elah": 4407,
      "Boz": 4408,
      "thluasuahnak": 4409,
      "phit": 4410,
      "suannak": 4411,
      "maió": 4412,
      "hell": 4413,
      "Rekhab": 4414,
      "Thinglamtah": 4415,
      "thusimnak": 4416,
      "Nebo": 4417,
      "thutiammi": 4418,
      "pakan": 4419,
      "Malte": 4420,
      "Huram": 4421,
      "Hushai": 4422,
      "Gersho": 4423,
      "pungzai": 4424,
      "seksek": 4425,
      "Ziklag": 4426,
      "mawngtu": 4427,
      "hlawhtlinnak": 4428,
      "Cuhnakin": 4429,
      "Bawmtu": 4430,
      "Izhar": 4431,
      "Sawmthum": 4432,
      "Hashabiah": 4433,
      "Geshur": 4434,
      "Cinghnia": 4435,
      "Ehud": 4436,
      "Krete": 4437,
      "ruathnik": 4438,
      "Amminadab": 4439,
      "Artakzaksis": 4440,
      "Akhan": 4441,
      "Akhai": 4442,
      "Eber": 4443,
      "Jaz": 4444,
      "Ril": 4445,
      "Shar": 4446,
      "Til": 4447,
      "That": 4448,
      "Um": 4449,
      "ag": 4450,
      "bung": 4451,
      "bahnak": 4452,
      "edi": 4453,
      "gah": 4454,
      "htum": 4455,
      "hennak": 4456,
      "olh": 4457,
      "phat": 4458,
      "phai": 4459,
      "rih": 4460,
      "ttai": 4461,
      "aniah": 4462,
      "anaim": 4463,
      "intu": 4464,
      "ihsi": 4465,
      "unneh": 4466,
      "silh": 4467,
      "titer": 4468,
      "ler": 4469,
      "lemiah": 4470,
      "dingtu": 4471,
      "los": 4472,
      "palang": 4473,
      "paseu": 4474,
      "pawlkomnak": 4475,
      "kalh": 4476,
      "kaihnak": 4477,
      "alang": 4478,
      "aitu": 4479,
      "umpa": 4480,
      "umta": 4481,
      "enai": 4482,
      "tete": 4483,
      "khang": 4484,
      "khuah": 4485,
      "khumter": 4486,
      "Cucu": 4487,
      "thurelnak": 4488,
      "sungtel": 4489,
      "ramṭha": 4490,
      "phak": 4491,
      "pher": 4492,
      "phawt": 4493,
      "fatiah": 4494,
      "ralṭhazet": 4495,
      "Jedaiah": 4496,
      "laang": 4497,
      "bangih": 4498,
      "hmuahhmuahah": 4499,
      "ṭhehnak": 4500,
      "kutin": 4501,
      "suahtertu": 4502,
      "sualpuh": 4503,
      "liai": 4504,
      "hramhram": 4505,
      "taza": 4506,
      "lupawng": 4507,
      "conak": 4508,
      "sanah": 4509,
      "tumnak": 4510,
      "kimzet": 4511,
      "vanhram": 4512,
      "urim": 4513,
      "thlahnak": 4514,
      "hminin": 4515,
      "vom": 4516,
      "tomi": 4517,
      "meivam": 4518,
      "leitu": 4519,
      "ṭhatman": 4520,
      "ruahdan": 4521,
      "siaṭha": 4522,
      "hruaimi": 4523,
      "hruaisual": 4524,
      "hruaikir": 4525,
      "Thih": 4526,
      "pumcawm": 4527,
      "tuufaate": 4528,
      "dungin": 4529,
      "zuun": 4530,
      "relmi": 4531,
      "caanih": 4532,
      "kiangte": 4533,
      "siarcawk": 4534,
      "Shun": 4535,
      "ciarbek": 4536,
      "Bethani": 4537,
      "Nisuah": 4538,
      "shah": 4539,
      "thihsan": 4540,
      "Ralṭha": 4541,
      "dalene": 4542,
      "Hmin": 4543,
      "tonnak": 4544,
      "thlentermi": 4545,
      "thaim": 4546,
      "sumtuahtu": 4547,
      "talhtum": 4548,
      "neitupa": 4549,
      "palik": 4550,
      "rilrawn": 4551,
      "ṭangtu": 4552,
      "Shefatiah": 4553,
      "sahzet": 4554,
      "hnongtu": 4555,
      "uhsila": 4556,
      "Ahitub": 4557,
      "phiarmi": 4558,
      "Tuucang": 4559,
      "luangmi": 4560,
      "thluasuak": 4561,
      "fektein": 4562,
      "puhmi": 4563,
      "hlatzet": 4564,
      "khawlipi": 4565,
      "Mahli": 4566,
      "ṭemcih": 4567,
      "ritter": 4568,
      "fualpi": 4569,
      "Nege": 4570,
      "Nuhmei": 4571,
      "Hnaṭuantu": 4572,
      "khihhmuhnak": 4573,
      "Gog": 4574,
      "Araunah": 4575,
      "Rangleeng": 4576,
      "khopkham": 4577,
      "Marka": 4578,
      "Thlisia": 4579,
      "Khaan": 4580,
      "hnarpawn": 4581,
      "coihcinmawi": 4582,
      "Jefunneh": 4583,
      "muvanlai": 4584,
      "nimthla": 4585,
      "Ṭihphannak": 4586,
      "Ramdangmi": 4587,
      "Thaizing": 4588,
      "Theihthiamnak": 4589,
      "Thlaici": 4590,
      "Shammah": 4591,
      "Bela": 4592,
      "tilper": 4593,
      "hlohral": 4594,
      "pawhte": 4595,
      "Delilah": 4596,
      "thluahthlo": 4597,
      "Magdalene": 4598,
      "Hnipuan": 4599,
      "saduhthah": 4600,
      "Elishama": 4601,
      "ngelcel": 4602,
      "Gershom": 4603,
      "Jazer": 4604,
      "Negev": 4605,
      "Apol": 4606,
      "Bil": 4607,
      "Baan": 4608,
      "Enok": 4609,
      "Gezer": 4610,
      "Hinn": 4611,
      "Hul": 4612,
      "Hoshe": 4613,
      "Hefer": 4614,
      "Khar": 4615,
      "Lennak": 4616,
      "Men": 4617,
      "Oth": 4618,
      "Rai": 4619,
      "Rual": 4620,
      "Ui": 4621,
      "Zil": 4622,
      "bih": 4623,
      "bilh": 4624,
      "bawr": 4625,
      "dron": 4626,
      "ja": 4627,
      "lat": 4628,
      "mangih": 4629,
      "pam": 4630,
      "pinu": 4631,
      "ren": 4632,
      "zeb": 4633,
      "ṭeu": 4634,
      "iho": 4635,
      "mitum": 4636,
      "amai": 4637,
      "haan": 4638,
      "dingter": 4639,
      "lofe": 4640,
      "aliah": 4641,
      "thiah": 4642,
      "umlo": 4643,
      "umtlan": 4644,
      "umdaan": 4645,
      "hnai": 4646,
      "khau": 4647,
      "khati": 4648,
      "khummi": 4649,
      "khennak": 4650,
      "naan": 4651,
      "thlalang": 4652,
      "hipawl": 4653,
      "ruul": 4654,
      "thuthan": 4655,
      "rasuak": 4656,
      "mahte": 4657,
      "zovek": 4658,
      "zorh": 4659,
      "bir": 4660,
      "rippa": 4661,
      "khuasung": 4662,
      "khatte": 4663,
      "zettu": 4664,
      "dangmi": 4665,
      "Sib": 4666,
      "Zif": 4667,
      "thinhennak": 4668,
      "kol": 4669,
      "ṭuansuak": 4670,
      "ṭuanman": 4671,
      "hrambur": 4672,
      "hmaizawn": 4673,
      "cangta": 4674,
      "kumtin": 4675,
      "kumtinte": 4676,
      "luak": 4677,
      "nungtu": 4678,
      "thluhmi": 4679,
      "kimten": 4680,
      "ullam": 4681,
      "ummim": 4682,
      "tlangnak": 4683,
      "tinah": 4684,
      "langta": 4685,
      "hoih": 4686,
      "deeng": 4687,
      "daithlan": 4688,
      "daiteón": 4689,
      "thiangter": 4690,
      "kutṭial": 4691,
      "thawngih": 4692,
      "camriam": 4693,
      "bol": 4694,
      "borah": 4695,
      "zohhliah": 4696,
      "Abihu": 4697,
      "ratter": 4698,
      "manna": 4699,
      "dikzet": 4700,
      "diltu": 4701,
      "hniksaknak": 4702,
      "kelon": 4703,
      "thlangam": 4704,
      "tanglamih": 4705,
      "darsumsel": 4706,
      "shan": 4707,
      "Jehiel": 4708,
      "tannak": 4709,
      "langtermi": 4710,
      "lungawiter": 4711,
      "fangkhat": 4712,
      "zahpi": 4713,
      "zahmawh": 4714,
      "saumi": 4715,
      "hleisarih": 4716,
      "nom": 4717,
      "thlentertu": 4718,
      "felfai": 4719,
      "hrangin": 4720,
      "Molek": 4721,
      "Zelofe": 4722,
      "phangter": 4723,
      "hranter": 4724,
      "hransaw": 4725,
      "lanta": 4726,
      "saaltu": 4727,
      "thawhsal": 4728,
      "pengih": 4729,
      "zungpi": 4730,
      "zunghruk": 4731,
      "hriamhrei": 4732,
      "Ashkelon": 4733,
      "sermi": 4734,
      "cawisaang": 4735,
      "zemmi": 4736,
      "Nga": 4737,
      "thuhmi": 4738,
      "runsuaktu": 4739,
      "Mahanaim": 4740,
      "pianhmang": 4741,
      "forhnak": 4742,
      "kehram": 4743,
      "hngalzet": 4744,
      "thianfaiternak": 4745,
      "Libia": 4746,
      "sukso": 4747,
      "Nahash": 4748,
      "hnangamzet": 4749,
      "nelias": 4750,
      "Arabia": 4751,
      "hlingbur": 4752,
      "hnawmhne": 4753,
      "dehmi": 4754,
      "Gaal": 4755,
      "Debir": 4756,
      "Deborah": 4757,
      "teptep": 4758,
      "Ṭihnungza": 4759,
      "shish": 4760,
      "tokhrok": 4761,
      "Agrippa": 4762,
      "patarpa": 4763,
      "thothe": 4764,
      "Tarshish": 4765,
      "vanduai": 4766,
      "Haggai": 4767,
      "Nethanel": 4768,
      "Kornelias": 4769,
      "hmaihngalnak": 4770,
      "bawngbi": 4771,
      "Malkhijah": 4772,
      "Faate": 4773,
      "Kedesh": 4774,
      "Elizabeth": 4775,
      "Sadusi": 4776,
      "Akhaia": 4777,
      "Hinnom": 4778,
      "Hoshea": 4779,
      "Zelofehad": 4780,
      "Bilh": 4781,
      "Fih": 4782,
      "Hling": 4783,
      "Lawng": 4784,
      "Mam": 4785,
      "Pai": 4786,
      "Ro": 4787,
      "Tlak": 4788,
      "Terah": 4789,
      "Teman": 4790,
      "Unau": 4791,
      "Zer": 4792,
      "bat": 4793,
      "bel": 4794,
      "bual": 4795,
      "ceh": 4796,
      "dek": 4797,
      "dru": 4798,
      "dad": 4799,
      "emiah": 4800,
      "fei": 4801,
      "fuan": 4802,
      "fem": 4803,
      "hngah": 4804,
      "kawng": 4805,
      "kawm": 4806,
      "ot": 4807,
      "ofah": 4808,
      "ppo": 4809,
      "pthlakza": 4810,
      "sumnak": 4811,
      "ssop": 4812,
      "tlok": 4813,
      "vau": 4814,
      "vua": 4815,
      "zuan": 4816,
      "anter": 4817,
      "sio": 4818,
      "cut": 4819,
      "tilian": 4820,
      "tivakap": 4821,
      "leih": 4822,
      "lehlam": 4823,
      "loihnak": 4824,
      "kal": 4825,
      "kari": 4826,
      "umhmun": 4827,
      "umsan": 4828,
      "tet": 4829,
      "pitling": 4830,
      "hil": 4831,
      "thuel": 4832,
      "thufim": 4833,
      "thuzirh": 4834,
      "awnmawi": 4835,
      "terek": 4836,
      "pheh": 4837,
      "biang": 4838,
      "rivau": 4839,
      "raltlan": 4840,
      "ralkaihmi": 4841,
      "Jedu": 4842,
      "lamhlapi": 4843,
      "parin": 4844,
      "emoth": 4845,
      "Anah": 4846,
      "Andru": 4847,
      "neizet": 4848,
      "Miruak": 4849,
      "thildang": 4850,
      "haiah": 4851,
      "suahsan": 4852,
      "Siah": 4853,
      "zianghrangah": 4854,
      "awkmi": 4855,
      "Zippo": 4856,
      "thinpit": 4857,
      "lis": 4858,
      "nundam": 4859,
      "hul": 4860,
      "hmaizahnak": 4861,
      "roh": 4862,
      "nungin": 4863,
      "thlaler": 4864,
      "Dagon": 4865,
      "abbas": 4866,
      "tlangmi": 4867,
      "tlangkawn": 4868,
      "hrihrual": 4869,
      "harzet": 4870,
      "thawngnga": 4871,
      "thawngruk": 4872,
      "ngaingaimi": 4873,
      "tlakrawh": 4874,
      "bor": 4875,
      "poih": 4876,
      "ponak": 4877,
      "polis": 4878,
      "hlanlai": 4879,
      "siazet": 4880,
      "Theipi": 4881,
      "thingkuang": 4882,
      "fifir": 4883,
      "zuri": 4884,
      "reltu": 4885,
      "relsak": 4886,
      "Zoin": 4887,
      "Zovek": 4888,
      "Zorah": 4889,
      "Zotal": 4890,
      "Zobah": 4891,
      "manah": 4892,
      "Tig": 4893,
      "adiah": 4894,
      "khamtu": 4895,
      "zanih": 4896,
      "Shek": 4897,
      "ṭulnak": 4898,
      "Ralhruang": 4899,
      "lungawizet": 4900,
      "lutmi": 4901,
      "zakua": 4902,
      "saulam": 4903,
      "Khawvel": 4904,
      "Tlangkawn": 4905,
      "khuhnak": 4906,
      "taangta": 4907,
      "laksawngah": 4908,
      "taima": 4909,
      "thawmi": 4910,
      "sumbuh": 4911,
      "cingcing": 4912,
      "Efron": 4913,
      "Efrath": 4914,
      "thiangfaiter": 4915,
      "Meri": 4916,
      "hngetmi": 4917,
      "Hazar": 4918,
      "nuamzet": 4919,
      "ṭhuamtlang": 4920,
      "Abiram": 4921,
      "taroth": 4922,
      "nauhakte": 4923,
      "Arsi": 4924,
      "Barabbas": 4925,
      "Hamor": 4926,
      "vuaknak": 4927,
      "beelkheng": 4928,
      "rialdip": 4929,
      "Kidron": 4930,
      "phurhmi": 4931,
      "phurhter": 4932,
      "famkimmi": 4933,
      "Hanun": 4934,
      "Uzzah": 4935,
      "phirivau": 4936,
      "hloralta": 4937,
      "Sualthlah": 4938,
      "fekfek": 4939,
      "rulpi": 4940,
      "Saltaannak": 4941,
      "pianzia": 4942,
      "Zebedi": 4943,
      "culhmi": 4944,
      "tluangtlam": 4945,
      "nautabik": 4946,
      "hanghnah": 4947,
      "tlensal": 4948,
      "hlio": 4949,
      "khukbil": 4950,
      "Thomas": 4951,
      "Thuṭhentu": 4952,
      "Nehtu": 4953,
      "Nehemiah": 4954,
      "Ezer": 4955,
      "Jeiel": 4956,
      "Gerar": 4957,
      "Senpi": 4958,
      "ṭoh": 4959,
      "Zamrangte": 4960,
      "hnaihnawhnak": 4961,
      "khuutmi": 4962,
      "hruaisuaktu": 4963,
      "Sudan": 4964,
      "Kedar": 4965,
      "Hlanlaipi": 4966,
      "Thlairawl": 4967,
      "Agag": 4968,
      "thusuhmi": 4969,
      "Nimthlakau": 4970,
      "Jairas": 4971,
      "hreitlung": 4972,
      "Reilote": 4973,
      "sersiammi": 4974,
      "Dibon": 4975,
      "Ṭhatnak": 4976,
      "hrokhrawl": 4977,
      "vanduainak": 4978,
      "falanu": 4979,
      "Tabor": 4980,
      "Cerhti": 4981,
      "Mino": 4982,
      "Tuksumza": 4983,
      "mizengpa": 4984,
      "taleti": 4985,
      "Ananias": 4986,
      "Abinadab": 4987,
      "ceimawi": 4988,
      "Tilik": 4989,
      "bungbeel": 4990,
      "Shunem": 4991,
      "Apollos": 4992,
      "Othniel": 4993,
      "Uico": 4994,
      "Bilhah": 4995,
      "Mamre": 4996,
      "Jeduthun": 4997,
      "Afek": 4998,
      "Dor": 4999,
      "Er": 5000,
      "Hnawm": 5001,
      "Ik": 5002,
      "Iddo": 5003,
      "Kala": 5004,
      "Leh": 5005,
      "Mual": 5006,
      "Po": 5007,
      "Rak": 5008,
      "Ruk": 5009,
      "Serh": 5010,
      "Shad": 5011,
      "Tal": 5012,
      "Tel": 5013,
      "Teko": 5014,
      "Zumtu": 5015,
      "aamah": 5016,
      "eg": 5017,
      "ekhiah": 5018,
      "fak": 5019,
      "gi": 5020,
      "herh": 5021,
      "io": 5022,
      "kak": 5023,
      "king": 5024,
      "kuah": 5025,
      "lawinak": 5026,
      "oz": 5027,
      "oam": 5028,
      "omnak": 5029,
      "sawl": 5030,
      "ub": 5031,
      "Ṭhen": 5032,
      "awzet": 5033,
      "sikhawh": 5034,
      "cuh": 5035,
      "cuvekin": 5036,
      "leser": 5037,
      "hacang": 5038,
      "dingfelnak": 5039,
      "kauh": 5040,
      "kaat": 5041,
      "kauhlam": 5042,
      "alam": 5043,
      "hnok": 5044,
      "hruh": 5045,
      "teel": 5046,
      "hissop": 5047,
      "thulehnak": 5048,
      "Pash": 5049,
      "ṭhih": 5050,
      "ṭhun": 5051,
      "thiannak": 5052,
      "saf": 5053,
      "savom": 5054,
      "tuahsiat": 5055,
      "ramsungih": 5056,
      "phuhlam": 5057,
      "khul": 5058,
      "khup": 5059,
      "Jerah": 5060,
      "bangtu": 5061,
      "Iskari": 5062,
      "khawkip": 5063,
      "zaap": 5064,
      "zaphak": 5065,
      "somei": 5066,
      "nihnak": 5067,
      "kian": 5068,
      "suahkeh": 5069,
      "Sidar": 5070,
      "laitak": 5071,
      "sualter": 5072,
      "sualman": 5073,
      "thinhn": 5074,
      "puzon": 5075,
      "phunmi": 5076,
      "veth": 5077,
      "theihpi": 5078,
      "rothil": 5079,
      "taak": 5080,
      "ngainak": 5081,
      "nungsal": 5082,
      "nunglai": 5083,
      "nungdam": 5084,
      "hmuhter": 5085,
      "Dathan": 5086,
      "Joah": 5087,
      "tinin": 5088,
      "sunloihnak": 5089,
      "hnakhai": 5090,
      "thiangte": 5091,
      "thawngkul": 5092,
      "thawnghra": 5093,
      "camcin": 5094,
      "Biaknak": 5095,
      "hlota": 5096,
      "ruahsak": 5097,
      "ruahsan": 5098,
      "eber": 5099,
      "Abed": 5100,
      "ṭihphang": 5101,
      "thingtum": 5102,
      "zuamnak": 5103,
      "nehmi": 5104,
      "ruatcat": 5105,
      "cawrual": 5106,
      "diktein": 5107,
      "ṭhitu": 5108,
      "Amoz": 5109,
      "hlawhsam": 5110,
      "lamzinah": 5111,
      "fimvar": 5112,
      "kep": 5113,
      "tlet": 5114,
      "faniah": 5115,
      "Beriah": 5116,
      "Beor": 5117,
      "Bethuel": 5118,
      "namnuai": 5119,
      "namsuk": 5120,
      "milaipa": 5121,
      "Ralrinnak": 5122,
      "fangvui": 5123,
      "dawimi": 5124,
      "rethei": 5125,
      "tello": 5126,
      "luttu": 5127,
      "thoknak": 5128,
      "Milkah": 5129,
      "hanan": 5130,
      "tivate": 5131,
      "mawiter": 5132,
      "thlaikho": 5133,
      "felte": 5134,
      "donmi": 5135,
      "Pileser": 5136,
      "phulak": 5137,
      "Zefaniah": 5138,
      "tlungter": 5139,
      "talah": 5140,
      "maveth": 5141,
      "maksaknak": 5142,
      "lawnglawngah": 5143,
      "Megi": 5144,
      "pengah": 5145,
      "kauter": 5146,
      "hraang": 5147,
      "Sheal": 5148,
      "Shelomi": 5149,
      "Shelemiah": 5150,
      "bumtu": 5151,
      "Harnak": 5152,
      "Harim": 5153,
      "Heber": 5154,
      "hluanthum": 5155,
      "ceel": 5156,
      "Arba": 5157,
      "Khur": 5158,
      "tluanah": 5159,
      "nego": 5160,
      "dawp": 5161,
      "zirnak": 5162,
      "caarter": 5163,
      "phurhnak": 5164,
      "thukmi": 5165,
      "Uzzi": 5166,
      "tawivak": 5167,
      "phiah": 5168,
      "naite": 5169,
      "fekter": 5170,
      "nahsiik": 5171,
      "fatete": 5172,
      "Sangvut": 5173,
      "Peor": 5174,
      "hangrah": 5175,
      "Rinsan": 5176,
      "Sunlawinak": 5177,
      "varngen": 5178,
      "pialter": 5179,
      "aihre": 5180,
      "Gera": 5181,
      "baangzet": 5182,
      "khuarnak": 5183,
      "ṭialmi": 5184,
      "Zingpit": 5185,
      "Tola": 5186,
      "Hanani": 5187,
      "Timnah": 5188,
      "Jael": 5189,
      "Jafet": 5190,
      "buartu": 5191,
      "Adullam": 5192,
      "phenthlam": 5193,
      "neinungzet": 5194,
      "Dedan": 5195,
      "ngenmi": 5196,
      "huatmi": 5197,
      "hakter": 5198,
      "mura": 5199,
      "Netofah": 5200,
      "ihud": 5201,
      "ciilnak": 5202,
      "Riahsia": 5203,
      "vansaanglam": 5204,
      "thinnuam": 5205,
      "thlatin": 5206,
      "thlatang": 5207,
      "canganmi": 5208,
      "khepkhep": 5209,
      "tlaihsan": 5210,
      "Laksawng": 5211,
      "Meshak": 5212,
      "himdamte": 5213,
      "cawtter": 5214,
      "hittawk": 5215,
      "ningsinza": 5216,
      "Taksa": 5217,
      "mehtok": 5218,
      "hnemtu": 5219,
      "Hnangam": 5220,
      "mawhthluknak": 5221,
      "Rilrawng": 5222,
      "pumcawmnak": 5223,
      "Kharbok": 5224,
      "Paisa": 5225,
      "Shekaniah": 5226,
      "Shadrak": 5227,
      "Tekoa": 5228,
      "aamahkhan": 5229,
      "Pashhur": 5230,
      "Iskariot": 5231,
      "Abednego": 5232,
      "Megiddo": 5233,
      "Aq": 5234,
      "Ale": 5235,
      "Dinah": 5236,
      "Fanu": 5237,
      "Hlei": 5238,
      "Huham": 5239,
      "Hriak": 5240,
      "Ih": 5241,
      "Kush": 5242,
      "Long": 5243,
      "Mem": 5244,
      "Natnak": 5245,
      "Nawhthuh": 5246,
      "Ofir": 5247,
      "Sili": 5248,
      "Tla": 5249,
      "Tawk": 5250,
      "Tro": 5251,
      "Tap": 5252,
      "Urim": 5253,
      "Vok": 5254,
      "beu": 5255,
      "cherub": 5256,
      "duum": 5257,
      "fiak": 5258,
      "frah": 5259,
      "gar": 5260,
      "huah": 5261,
      "ix": 5262,
      "mun": 5263,
      "mash": 5264,
      "nek": 5265,
      "nawp": 5266,
      "psun": 5267,
      "uun": 5268,
      "xan": 5269,
      "Ṭai": 5270,
      "Ṭingṭang": 5271,
      "ṭil": 5272,
      "thung": 5273,
      "then": 5274,
      "sian": 5275,
      "culole": 5276,
      "mitampi": 5277,
      "ticu": 5278,
      "tikhal": 5279,
      "tita": 5280,
      "leek": 5281,
      "tuamnak": 5282,
      "ngerh": 5283,
      "uhnak": 5284,
      "umseh": 5285,
      "teshazzar": 5286,
      "khik": 5287,
      "naunu": 5288,
      "piat": 5289,
      "thubuai": 5290,
      "Paam": 5291,
      "hlai": 5292,
      "hluar": 5293,
      "ṭhuk": 5294,
      "raam": 5295,
      "rapthlakza": 5296,
      "ziik": 5297,
      "ramsungah": 5298,
      "sup": 5299,
      "etin": 5300,
      "theiter": 5301,
      "theikung": 5302,
      "fau": 5303,
      "fath": 5304,
      "khuan": 5305,
      "riamnak": 5306,
      "las": 5307,
      "lau": 5308,
      "lungleng": 5309,
      "lungpen": 5310,
      "lungpher": 5311,
      "lamdang": 5312,
      "duhsak": 5313,
      "duhnungza": 5314,
      "ontu": 5315,
      "innsungih": 5316,
      "kur": 5317,
      "Mig": 5318,
      "Mis": 5319,
      "thildik": 5320,
      "tuksumnak": 5321,
      "thinnau": 5322,
      "tlaihnak": 5323,
      "biktu": 5324,
      "hub": 5325,
      "hmaizah": 5326,
      "hmunkhatah": 5327,
      "roth": 5328,
      "ṭongsia": 5329,
      "hnaset": 5330,
      "thladem": 5331,
      "vannei": 5332,
      "Jozabad": 5333,
      "tawkih": 5334,
      "rawlhun": 5335,
      "tlangkap": 5336,
      "tlanghram": 5337,
      "ngaithiamnak": 5338,
      "thangsiatnak": 5339,
      "daitu": 5340,
      "daite": 5341,
      "khawpiih": 5342,
      "kutke": 5343,
      "hlimphir": 5344,
      "camtu": 5345,
      "leidip": 5346,
      "puansen": 5347,
      "hlankhan": 5348,
      "tahṭhim": 5349,
      "hngil": 5350,
      "tlanmi": 5351,
      "ebai": 5352,
      "zinpeng": 5353,
      "Thesa": 5354,
      "pumkhat": 5355,
      "dungih": 5356,
      "nehhnu": 5357,
      "kilnak": 5358,
      "Amos": 5359,
      "lamzinpi": 5360,
      "fimmi": 5361,
      "Thutak": 5362,
      "nanmahte": 5363,
      "Eliel": 5364,
      "Leivut": 5365,
      "fanau": 5366,
      "cemnak": 5367,
      "rualpa": 5368,
      "rualrem": 5369,
      "diel": 5370,
      "dias": 5371,
      "darkheng": 5372,
      "shak": 5373,
      "hriat": 5374,
      "dawitu": 5375,
      "rukmi": 5376,
      "sauter": 5377,
      "mawiternak": 5378,
      "hmaisaih": 5379,
      "ballat": 5380,
      "arib": 5381,
      "lettu": 5382,
      "pakhatkhatah": 5383,
      "Ramṭhing": 5384,
      "catbaang": 5385,
      "phusiing": 5386,
      "dinhmun": 5387,
      "zawnnak": 5388,
      "maksakmi": 5389,
      "zuarnak": 5390,
      "dodalnak": 5391,
      "Harsat": 5392,
      "zungih": 5393,
      "Hav": 5394,
      "Haz": 5395,
      "palbeek": 5396,
      "kuatmi": 5397,
      "phuannak": 5398,
      "hluansarih": 5399,
      "Barne": 5400,
      "Khuai": 5401,
      "mithmaiṭha": 5402,
      "Lamek": 5403,
      "pomtu": 5404,
      "Culaifang": 5405,
      "Jeroham": 5406,
      "Reuel": 5407,
      "Ngak": 5408,
      "kangter": 5409,
      "Nunsimnak": 5410,
      "hlawhhlangnu": 5411,
      "khawlmi": 5412,
      "suanmi": 5413,
      "Mahala": 5414,
      "khenmi": 5415,
      "forhfial": 5416,
      "tlennak": 5417,
      "Herodias": 5418,
      "Aija": 5419,
      "khiahmi": 5420,
      "hminthangzet": 5421,
      "thianhlimter": 5422,
      "Nahshon": 5423,
      "siammi": 5424,
      "Siatcam": 5425,
      "cakuatmi": 5426,
      "khawruahharza": 5427,
      "Sihmansehla": 5428,
      "Arabah": 5429,
      "silla": 5430,
      "tungding": 5431,
      "sawpfai": 5432,
      "hruainak": 5433,
      "Sankhat": 5434,
      "Sanballat": 5435,
      "Tangphawlawng": 5436,
      "Zuri": 5437,
      "Belteshazzar": 5438,
      "Tair": 5439,
      "Paran": 5440,
      "Riahsiatnak": 5441,
      "Berekhiah": 5442,
      "Rimhmui": 5443,
      "leuhleuh": 5444,
      "Thazaang": 5445,
      "Felix": 5446,
      "Ṭhatein": 5447,
      "hnawtfai": 5448,
      "hlohralnak": 5449,
      "Hmuhsuam": 5450,
      "Tlangvalpa": 5451,
      "Immer": 5452,
      "zingpitte": 5453,
      "Mushi": 5454,
      "piangzet": 5455,
      "Shebna": 5456,
      "lonika": 5457,
      "khawkhannak": 5458,
      "malsawmnak": 5459,
      "tilpermi": 5460,
      "umtlandan": 5461,
      "thlangamte": 5462,
      "dekcok": 5463,
      "Tiglath": 5464,
      "Meribah": 5465,
      "Mualpho": 5466,
      "Shealtiel": 5467,
      "Shelomith": 5468,
      "Alexan": 5469,
      "Silisia": 5470,
      "munna": 5471,
      "hluarhlo": 5472,
      "Thesalonika": 5473,
      "Barnea": 5474,
      "Aijalon": 5475,
      "Aza": 5476,
      "Adar": 5477,
      "Adaiah": 5478,
      "Evi": 5479,
      "Elon": 5480,
      "Gam": 5481,
      "Hrem": 5482,
      "Jan": 5483,
      "Jak": 5484,
      "Ker": 5485,
      "Kho": 5486,
      "Loth": 5487,
      "Mas": 5488,
      "Or": 5489,
      "Pis": 5490,
      "Ruat": 5491,
      "Remnak": 5492,
      "Spa": 5493,
      "Seth": 5494,
      "afas": 5495,
      "buan": 5496,
      "belh": 5497,
      "blah": 5498,
      "det": 5499,
      "diah": 5500,
      "for": 5501,
      "hawk": 5502,
      "ketin": 5503,
      "merh": 5504,
      "mihud": 5505,
      "oenai": 5506,
      "reu": 5507,
      "sawt": 5508,
      "shua": 5509,
      "tawng": 5510,
      "uil": 5511,
      "ṭawl": 5512,
      "ṭet": 5513,
      "ṭawt": 5514,
      "ihlomi": 5515,
      "akza": 5516,
      "sibawi": 5517,
      "cucu": 5518,
      "culai": 5519,
      "cuca": 5520,
      "cutluk": 5521,
      "cucik": 5522,
      "mithat": 5523,
      "mikei": 5524,
      "tisual": 5525,
      "tipsun": 5526,
      "amtu": 5527,
      "lothlo": 5528,
      "palung": 5529,
      "pawlah": 5530,
      "hmen": 5531,
      "ngain": 5532,
      "uhrin": 5533,
      "alah": 5534,
      "hno": 5535,
      "hrual": 5536,
      "khabe": 5537,
      "khumnak": 5538,
      "nathan": 5539,
      "Culo": 5540,
      "Cutik": 5541,
      "Culawng": 5542,
      "ruri": 5543,
      "thuding": 5544,
      "Pathum": 5545,
      "sunghruk": 5546,
      "ramkip": 5547,
      "suum": 5548,
      "rangralkap": 5549,
      "khuil": 5550,
      "ralden": 5551,
      "Jerem": 5552,
      "Jether": 5553,
      "Jeush": 5554,
      "khawleng": 5555,
      "khawlengah": 5556,
      "khuasungih": 5557,
      "innhram": 5558,
      "innzuat": 5559,
      "zaal": 5560,
      "zadak": 5561,
      "ṭhate": 5562,
      "kuum": 5563,
      "Micak": 5564,
      "saltaang": 5565,
      "thilmak": 5566,
      "nithla": 5567,
      "Siamtu": 5568,
      "ziangvekin": 5569,
      "nucing": 5570,
      "thinhar": 5571,
      "thinphannak": 5572,
      "kot": 5573,
      "tlap": 5574,
      "tholung": 5575,
      "theihternak": 5576,
      "hmunter": 5577,
      "hmunthiang": 5578,
      "rolh": 5579,
      "rocotu": 5580,
      "luai": 5581,
      "sanih": 5582,
      "thluhtu": 5583,
      "sanghlom": 5584,
      "ṭongnak": 5585,
      "ṭongfang": 5586,
      "thlengtu": 5587,
      "tlangram": 5588,
      "ṭhensak": 5589,
      "ngaimi": 5590,
      "langhngan": 5591,
      "daiziar": 5592,
      "sawnseh": 5593,
      "puanrang": 5594,
      "puansia": 5595,
      "bot": 5596,
      "ruahti": 5597,
      "ruahcat": 5598,
      "hngi": 5599,
      "rahmi": 5600,
      "tlansuak": 5601,
      "ebar": 5602,
      "Abdon": 5603,
      "Theb": 5604,
      "Thummim": 5605,
      "pumpeknak": 5606,
      "ṭihzet": 5607,
      "thingpheng": 5608,
      "thinghnge": 5609,
      "fia": 5610,
      "Baptisma": 5611,
      "Tikhur": 5612,
      "Thlat": 5613,
      "dilin": 5614,
      "Amai": 5615,
      "Ammihud": 5616,
      "lamzinih": 5617,
      "fimthiamnak": 5618,
      "zaangfakza": 5619,
      "cazi": 5620,
      "Elifas": 5621,
      "Sher": 5622,
      "hnihmi": 5623,
      "suikual": 5624,
      "Khebar": 5625,
      "Beeroth": 5626,
      "Niko": 5627,
      "Nitin": 5628,
      "namte": 5629,
      "meel": 5630,
      "remtu": 5631,
      "remrem": 5632,
      "ṭheutu": 5633,
      "tanter": 5634,
      "thihpi": 5635,
      "thihsii": 5636,
      "luattertu": 5637,
      "mangbangin": 5638,
      "farahnak": 5639,
      "damiah": 5640,
      "keimai": 5641,
      "saupi": 5642,
      "upattu": 5643,
      "ngunih": 5644,
      "phahin": 5645,
      "phahphah": 5646,
      "Vanhram": 5647,
      "Tlangsang": 5648,
      "Puar": 5649,
      "zateek": 5650,
      "Ramhuai": 5651,
      "khurhnat": 5652,
      "taanglai": 5653,
      "khaanpi": 5654,
      "vangter": 5655,
      "tuihzan": 5656,
      "dangdangih": 5657,
      "seep": 5658,
      "phulaknak": 5659,
      "thawthaw": 5660,
      "zaangfahte": 5661,
      "fiangnak": 5662,
      "thaumi": 5663,
      "Jehohanan": 5664,
      "samphang": 5665,
      "heel": 5666,
      "eshah": 5667,
      "Korin": 5668,
      "kaupi": 5669,
      "bokvak": 5670,
      "hngette": 5671,
      "aliel": 5672,
      "zikte": 5673,
      "Abiezer": 5674,
      "hriakculh": 5675,
      "Tuihzan": 5676,
      "hluanriat": 5677,
      "khualtlawnnak": 5678,
      "lungkimpi": 5679,
      "Shime": 5680,
      "Innsang": 5681,
      "phalh": 5682,
      "Elim": 5683,
      "Elihu": 5684,
      "Shema": 5685,
      "Shaul": 5686,
      "Pakhatnak": 5687,
      "Zebah": 5688,
      "Zebadiah": 5689,
      "riamter": 5690,
      "Khuavang": 5691,
      "rehter": 5692,
      "Rezin": 5693,
      "Fifir": 5694,
      "hamṭam": 5695,
      "Cawleng": 5696,
      "Hormah": 5697,
      "milianzet": 5698,
      "Cabuai": 5699,
      "ṭialcip": 5700,
      "Rundamnak": 5701,
      "hurnak": 5702,
      "serhtanmi": 5703,
      "Karmi": 5704,
      "Arab": 5705,
      "Timna": 5706,
      "buaiter": 5707,
      "mopa": 5708,
      "hrawngih": 5709,
      "Jabin": 5710,
      "Azmaveth": 5711,
      "Santlai": 5712,
      "Tilian": 5713,
      "ṭhanter": 5714,
      "ziangzatso": 5715,
      "zarhmi": 5716,
      "Kenaz": 5717,
      "tangdornak": 5718,
      "Rial": 5719,
      "Riblah": 5720,
      "Gomer": 5721,
      "soiselnak": 5722,
      "vurvo": 5723,
      "Zikhri": 5724,
      "thinnomnak": 5725,
      "Haggi": 5726,
      "Luz": 5727,
      "cawhkuannak": 5728,
      "thureltu": 5729,
      "derdaimi": 5730,
      "fuuk": 5731,
      "Big": 5732,
      "Cakzet": 5733,
      "Zakkur": 5734,
      "mureng": 5735,
      "Kaiafas": 5736,
      "Upatnak": 5737,
      "Zalmunna": 5738,
      "phatsan": 5739,
      "vanhramdeng": 5740,
      "Baanah": 5741,
      "Raithawinak": 5742,
      "Rualpi": 5743,
      "khatión": 5744,
      "Fihnungza": 5745,
      "ṭhihṭha": 5746,
      "Jerahmeel": 5747,
      "thinhnun": 5748,
      "Aquil": 5749,
      "ṭhukṭhun": 5750,
      "Havilah": 5751,
      "Lothlo": 5752,
      "Spain": 5753,
      "Aquila": 5754,
      ".’": 5755,
      "Adah": 5756,
      "Ahin": 5757,
      "Bah": 5758,
      "Binn": 5759,
      "Ed": 5760,
      "Ezi": 5761,
      "Ethan": 5762,
      "Ebal": 5763,
      "Ebed": 5764,
      "Fung": 5765,
      "Gal": 5766,
      "Gab": 5767,
      "Ged": 5768,
      "Hen": 5769,
      "Hluan": 5770,
      "Ith": 5771,
      "Ira": 5772,
      "Kam": 5773,
      "Lawi": 5774,
      "Mih": 5775,
      "Nuam": 5776,
      "Ofrah": 5777,
      "Pri": 5778,
      "Phun": 5779,
      "Purim": 5780,
      "Ta": 5781,
      "Tih": 5782,
      "Tum": 5783,
      "Taan": 5784,
      "Vash": 5785,
      "Zung": 5786,
      "ael": 5787,
      "athan": 5788,
      "bamah": 5789,
      "eet": 5790,
      "ebiah": 5791,
      "fiah": 5792,
      "feth": 5793,
      "feem": 5794,
      "hamnak": 5795,
      "iang": 5796,
      "maan": 5797,
      "nawi": 5798,
      "tawn": 5799,
      "ṭon": 5800,
      "ṭiak": 5801,
      "ṭamnak": 5802,
      "cuam": 5803,
      "cuum": 5804,
      "culaiah": 5805,
      "milungruh": 5806,
      "tisia": 5807,
      "tidaan": 5808,
      "tisiatnak": 5809,
      "ticawm": 5810,
      "tipuut": 5811,
      "leg": 5812,
      "lep": 5813,
      "tul": 5814,
      "tuul": 5815,
      "pas": 5816,
      "kainak": 5817,
      "eiter": 5818,
      "thii": 5819,
      "thita": 5820,
      "umzia": 5821,
      "hrut": 5822,
      "hrennak": 5823,
      "khaa": 5824,
      "kharh": 5825,
      "nami": 5826,
      "nasat": 5827,
      "Cuṭheh": 5828,
      "Cutluk": 5829,
      "thlar": 5830,
      "arai": 5831,
      "pipi": 5832,
      "hiam": 5833,
      "rutu": 5834,
      "sinmi": 5835,
      "sinfen": 5836,
      "thianternak": 5837,
      "rathlen": 5838,
      "rammi": 5839,
      "ramtu": 5840,
      "ramkipah": 5841,
      "suut": 5842,
      "zok": 5843,
      "zohnen": 5844,
      "theizet": 5845,
      "imno": 5846,
      "phih": 5847,
      "phei": 5848,
      "seherh": 5849,
      "favah": 5850,
      "khuari": 5851,
      "pekih": 5852,
      "simsial": 5853,
      "lungngai": 5854,
      "lungphum": 5855,
      "lungherh": 5856,
      "khawinak": 5857,
      "khawsik": 5858,
      "khuathim": 5859,
      "duhham": 5860,
      "emuel": 5861,
      "emosh": 5862,
      "cite": 5863,
      "ciip": 5864,
      "neizik": 5865,
      "soi": 5866,
      "sobul": 5867,
      "kub": 5868,
      "Mitampi": 5869,
      "Misha": 5870,
      "Mikip": 5871,
      "vaihnak": 5872,
      "salin": 5873,
      "niar": 5874,
      "Siatnak": 5875,
      "ziangthu": 5876,
      "awktu": 5877,
      "tukmi": 5878,
      "laitu": 5879,
      "lairel": 5880,
      "laicin": 5881,
      "viah": 5882,
      "sualpitu": 5883,
      "pur": 5884,
      "thiamco": 5885,
      "dol": 5886,
      "liangah": 5887,
      "lion": 5888,
      "nunsim": 5889,
      "nunsimnak": 5890,
      "siatmi": 5891,
      "thlunin": 5892,
      "hui": 5893,
      "theihhngan": 5894,
      "hmundang": 5895,
      "taol": 5896,
      "suaktu": 5897,
      "nungla": 5898,
      "nungcung": 5899,
      "peeng": 5900,
      "sangtuah": 5901,
      "thlatu": 5902,
      "vanrang": 5903,
      "Joahaz": 5904,
      "kamter": 5905,
      "rawlret": 5906,
      "tlunpi": 5907,
      "senih": 5908,
      "hminih": 5909,
      "hminkhennak": 5910,
      "langmi": 5911,
      "daiteih": 5912,
      "sawnah": 5913,
      "tampiih": 5914,
      "leirawl": 5915,
      "hlonak": 5916,
      "hloter": 5917,
      "tlaksam": 5918,
      "hlannak": 5919,
      "hlanlaipi": 5920,
      "tahfung": 5921,
      "takte": 5922,
      "zinan": 5923,
      "zingtinte": 5924,
      "zinghnam": 5925,
      "zingthlapit": 5926,
      "Thun": 5927,
      "hremmi": 5928,
      "zup": 5929,
      "relsiatnak": 5930,
      "kilter": 5931,
      "kilkhawinak": 5932,
      "Zoar": 5933,
      "cawlem": 5934,
      "anmahte": 5935,
      "Thlam": 5936,
      "ṭhial": 5937,
      "caponak": 5938,
      "beri": 5939,
      "thanter": 5940,
      "kedah": 5941,
      "Elife": 5942,
      "hrekin": 5943,
      "cakzetmi": 5944,
      "hrilcia": 5945,
      "Khemosh": 5946,
      "Nithum": 5947,
      "Nitlak": 5948,
      "darkual": 5949,
      "mehmul": 5950,
      "tluknak": 5951,
      "remcaang": 5952,
      "Leviathan": 5953,
      "humsuak": 5954,
      "tansak": 5955,
      "Soko": 5956,
      "hriik": 5957,
      "khiing": 5958,
      "thacahnak": 5959,
      "lungawitertu": 5960,
      "hawlnak": 5961,
      "ninghan": 5962,
      "teltu": 5963,
      "lutter": 5964,
      "thoktu": 5965,
      "Filipi": 5966,
      "Khawsungih": 5967,
      "Gir": 5968,
      "mawizia": 5969,
      "mawitertu": 5970,
      "hleifuan": 5971,
      "upatmi": 5972,
      "rinsanmi": 5973,
      "Tubal": 5974,
      "Puanzar": 5975,
      "malmak": 5976,
      "nolh": 5977,
      "thlaithahnak": 5978,
      "tharmi": 5979,
      "nasazetin": 5980,
      "rungmi": 5981,
      "phuul": 5982,
      "luhter": 5983,
      "phangzet": 5984,
      "Asaiah": 5985,
      "Astar": 5986,
      "hiarmi": 5987,
      "cawcangno": 5988,
      "nemte": 5989,
      "zawnih": 5990,
      "zawntu": 5991,
      "zaiter": 5992,
      "cingih": 5993,
      "pehmi": 5994,
      "Methu": 5995,
      "karbak": 5996,
      "photer": 5997,
      "thirkawn": 5998,
      "ngamter": 5999,
      "lianzet": 6000,
      "tuucangki": 6001,
      "nuamter": 6002,
      "zamrangih": 6003,
      "thuphanpertu": 6004,
      "hngaktu": 6005,
      "Asile": 6006,
      "tunu": 6007,
      "ṭumsuk": 6008,
      "borhhlawhnak": 6009,
      "Zanthing": 6010,
      "Zanṭim": 6011,
      "valpa": 6012,
      "cawitu": 6013,
      "tawdeng": 6014,
      "Ahikam": 6015,
      "sattan": 6016,
      "Shishak": 6017,
      "misualral": 6018,
      "cinmi": 6019,
      "zirmi": 6020,
      "cawmtu": 6021,
      "Thlapi": 6022,
      "ralringzet": 6023,
      "Shafat": 6024,
      "cawhleek": 6025,
      "seemter": 6026,
      "alhter": 6027,
      "puhtu": 6028,
      "khawlnak": 6029,
      "khahsilh": 6030,
      "Salmon": 6031,
      "Jobab": 6032,
      "taantami": 6033,
      "Pedaiah": 6034,
      "Peleg": 6035,
      "khenbet": 6036,
      "pehzomnak": 6037,
      "Rehum": 6038,
      "pialsan": 6039,
      "Rehob": 6040,
      "hliap": 6041,
      "tuahmawhtu": 6042,
      "cilnak": 6043,
      "thianhlimtermi": 6044,
      "Nehnak": 6045,
      "thuthangṭha": 6046,
      "Siatsuah": 6047,
      "khohter": 6048,
      "thletmi": 6049,
      "paruknak": 6050,
      "hlingkung": 6051,
      "raitluanmi": 6052,
      "tawhawknak": 6053,
      "Mareshah": 6054,
      "Thlipi": 6055,
      "Khal": 6056,
      "colhdamnak": 6057,
      "harhdamnak": 6058,
      "innsungsang": 6059,
      "relcatmi": 6060,
      "Ningzah": 6061,
      "ziangtlukinso": 6062,
      "Kadmiel": 6063,
      "Hlanah": 6064,
      "Akkub": 6065,
      "titter": 6066,
      "tuamhlawmtu": 6067,
      "khawngtu": 6068,
      "celcel": 6069,
      "Thawngtla": 6070,
      "Eshtaol": 6071,
      "hlohter": 6072,
      "Shobal": 6073,
      "Rulhreng": 6074,
      "dawntu": 6075,
      "Laish": 6076,
      "Muvanlai": 6077,
      "Pahnihnak": 6078,
      "Makkedah": 6079,
      "Nethaniah": 6080,
      "Oholibamah": 6081,
      "Zabdi": 6082,
      "thlauthla": 6083,
      "Meshek": 6084,
      "Mikmash": 6085,
      "laihmi": 6086,
      "baakmi": 6087,
      "ṭhansonak": 6088,
      "Tlunta": 6089,
      "Zarh": 6090,
      "shaddai": 6091,
      "Bozrah": 6092,
      "Sharon": 6093,
      "renmi": 6094,
      "leihnuai": 6095,
      "Zipporah": 6096,
      "poihai": 6097,
      "Tappuah": 6098,
      "huahho": 6099,
      "hngilhlonak": 6100,
      "Ngakṭah": 6101,
      "Pisgah": 6102,
      "Jeremoth": 6103,
      "luailo": 6104,
      "Sherebiah": 6105,
      "ṭhihṭhaih": 6106,
      "Binnui": 6107,
      "Edrei": 6108,
      "Prisilla": 6109,
      "Vashti": 6110,
      "tawne": 6111,
      "ṭonṭa": 6112,
      "lungherhden": 6113,
      "malmaknak": 6114,
      "Astartes": 6115,
      "Aat": 6116,
      "Atican": 6117,
      "Bak": 6118,
      "Bei": 6119,
      "Buk": 6120,
      "Bur": 6121,
      "Cawl": 6122,
      "Deu": 6123,
      "Elath": 6124,
      "Hle": 6125,
      "Hng": 6126,
      "Hnih": 6127,
      "Hab": 6128,
      "Ittai": 6129,
      "Jat": 6130,
      "Jaa": 6131,
      "Mawi": 6132,
      "Mad": 6133,
      "Nat": 6134,
      "Nef": 6135,
      "Ol": 6136,
      "Onan": 6137,
      "Pum": 6138,
      "Ring": 6139,
      "Reipi": 6140,
      "Shu": 6141,
      "Seem": 6142,
      "Tual": 6143,
      "Uri": 6144,
      "Vung": 6145,
      "Zum": 6146,
      "Zawn": 6147,
      "Zuk": 6148,
      "Zur": 6149,
      "bawt": 6150,
      "cai": 6151,
      "duk": 6152,
      "dawm": 6153,
      "duak": 6154,
      "delh": 6155,
      "een": 6156,
      "gai": 6157,
      "gel": 6158,
      "gad": 6159,
      "gash": 6160,
      "glah": 6161,
      "hnga": 6162,
      "iim": 6163,
      "iarib": 6164,
      "muth": 6165,
      "odi": 6166,
      "pawk": 6167,
      "seng": 6168,
      "tlem": 6169,
      "tlolak": 6170,
      "ud": 6171,
      "ver": 6172,
      "zen": 6173,
      "Ṭihnak": 6174,
      "ahim": 6175,
      "ahem": 6176,
      "ihail": 6177,
      "thlotu": 6178,
      "sias": 6179,
      "mim": 6180,
      "mibumnak": 6181,
      "tithiah": 6182,
      "locun": 6183,
      "kath": 6184,
      "hmih": 6185,
      "ngennak": 6186,
      "thiangah": 6187,
      "thias": 6188,
      "umah": 6189,
      "hnaw": 6190,
      "hnamnak": 6191,
      "hrawh": 6192,
      "khami": 6193,
      "khe": 6194,
      "nauhrin": 6195,
      "Cucingin": 6196,
      "araim": 6197,
      "pim": 6198,
      "tlimno": 6199,
      "thuṭhimnak": 6200,
      "thuphuanmi": 6201,
      "eli": 6202,
      "Pale": 6203,
      "hlatnak": 6204,
      "hluum": 6205,
      "rab": 6206,
      "tuahzia": 6207,
      "zimah": 6208,
      "zom": 6209,
      "khalh": 6210,
      "khalih": 6211,
      "khalhnak": 6212,
      "favun": 6213,
      "khuak": 6214,
      "pekta": 6215,
      "ralnak": 6216,
      "simsung": 6217,
      "simsuak": 6218,
      "bangmi": 6219,
      "lamcaw": 6220,
      "parh": 6221,
      "khawk": 6222,
      "khawfing": 6223,
      "autu": 6224,
      "siangpahrangnu": 6225,
      "zalennak": 6226,
      "Kaa": 6227,
      "emath": 6228,
      "erhnak": 6229,
      "Mikhual": 6230,
      "Miburpi": 6231,
      "nihra": 6232,
      "salkaihmi": 6233,
      "dangin": 6234,
      "niim": 6235,
      "nisuak": 6236,
      "nitleu": 6237,
      "ziangkim": 6238,
      "tuksum": 6239,
      "Zibe": 6240,
      "sualforhnak": 6241,
      "thinharnak": 6242,
      "thiammi": 6243,
      "domi": 6244,
      "saksaal": 6245,
      "lio": 6246,
      "liak": 6247,
      "nunnomnak": 6248,
      "vetu": 6249,
      "hramkung": 6250,
      "hmailamih": 6251,
      "hmaisat": 6252,
      "hmunlawng": 6253,
      "hmunkipah": 6254,
      "ropi": 6255,
      "taat": 6256,
      "lul": 6257,
      "lukhum": 6258,
      "lubol": 6259,
      "suaknak": 6260,
      "nungsun": 6261,
      "sanmureng": 6262,
      "tumbik": 6263,
      "sangreu": 6264,
      "hmuhtu": 6265,
      "thlaphannak": 6266,
      "nawnlo": 6267,
      "vansiat": 6268,
      "vanruah": 6269,
      "Daar": 6270,
      "Joiada": 6271,
      "tlangtu": 6272,
      "tlangniam": 6273,
      "ṭhennak": 6274,
      "hrinkhat": 6275,
      "thangsiatter": 6276,
      "kuttum": 6277,
      "thlentu": 6278,
      "leiro": 6279,
      "leilungpi": 6280,
      "puanzim": 6281,
      "hlong": 6282,
      "boa": 6283,
      "boiim": 6284,
      "ruahpi": 6285,
      "kirtu": 6286,
      "tlantu": 6287,
      "Thian": 6288,
      "zingtin": 6289,
      "zinglamah": 6290,
      "Abarim": 6291,
      "Abihail": 6292,
      "Thei": 6293,
      "Thuhla": 6294,
      "asilo": 6295,
      "pumsa": 6296,
      "thingih": 6297,
      "thingzum": 6298,
      "thinghnah": 6299,
      "dunglet": 6300,
      "fis": 6301,
      "fianter": 6302,
      "deuhah": 6303,
      "tuartheinak": 6304,
      "zohmanin": 6305,
      "Zoan": 6306,
      "Thlaw": 6307,
      "Thlaan": 6308,
      "zantin": 6309,
      "cafang": 6310,
      "kiangin": 6311,
      "Thusim": 6312,
      "keuh": 6313,
      "kezungpi": 6314,
      "hmangmi": 6315,
      "Elia": 6316,
      "caktertu": 6317,
      "ngantu": 6318,
      "Shel": 6319,
      "Sheban": 6320,
      "hriltu": 6321,
      "ciarmi": 6322,
      "Khen": 6323,
      "Niruk": 6324,
      "Ralbawi": 6325,
      "lungawite": 6326,
      "datha": 6327,
      "daviah": 6328,
      "fanghi": 6329,
      "fangcang": 6330,
      "fanglep": 6331,
      "fingkhawi": 6332,
      "ningna": 6333,
      "panganak": 6334,
      "saangzet": 6335,
      "thokmi": 6336,
      "ṭaangah": 6337,
      "mawite": 6338,
      "hleimi": 6339,
      "buum": 6340,
      "Vansang": 6341,
      "balmi": 6342,
      "Tlangzim": 6343,
      "nasami": 6344,
      "pakhatkhatih": 6345,
      "felmi": 6346,
      "pohah": 6347,
      "tiamcia": 6348,
      "Mopuai": 6349,
      "Zeboiim": 6350,
      "sumhnam": 6351,
      "talin": 6352,
      "hmuanah": 6353,
      "hiartu": 6354,
      "suamhmang": 6355,
      "zammi": 6356,
      "phuangsuak": 6357,
      "hrukin": 6358,
      "nemhnget": 6359,
      "Jehozadak": 6360,
      "kipin": 6361,
      "Bethsai": 6362,
      "makzet": 6363,
      "zuarthlainak": 6364,
      "thlawsuahmi": 6365,
      "cahta": 6366,
      "hunmi": 6367,
      "Manna": 6368,
      "Kumtinte": 6369,
      "ruangin": 6370,
      "ruangro": 6371,
      "heth": 6372,
      "ngaihthiam": 6373,
      "ṭangin": 6374,
      "Thukamnak": 6375,
      "Thuthangṭha": 6376,
      "lianter": 6377,
      "voithumnak": 6378,
      "thunei": 6379,
      "hriakculhnak": 6380,
      "Tuihsan": 6381,
      "bahter": 6382,
      "thimkhawzing": 6383,
      "ceem": 6384,
      "Arpak": 6385,
      "omer": 6386,
      "Khual": 6387,
      "Lamhlapi": 6388,
      "khuitawkah": 6389,
      "dawihlomi": 6390,
      "baite": 6391,
      "luangter": 6392,
      "tirhthlahmi": 6393,
      "Elimelek": 6394,
      "Elnathan": 6395,
      "tawiter": 6396,
      "ralringte": 6397,
      "Maon": 6398,
      "Maihum": 6399,
      "hnamkip": 6400,
      "linghnin": 6401,
      "siangzet": 6402,
      "tuamtu": 6403,
      "apnak": 6404,
      "fihnung": 6405,
      "netabik": 6406,
      "vaim": 6407,
      "Peleth": 6408,
      "Pakhatkhat": 6409,
      "tluangter": 6410,
      "tluangkhawn": 6411,
      "ritmi": 6412,
      "tlentu": 6413,
      "bannak": 6414,
      "kuangsin": 6415,
      "Thinsau": 6416,
      "hamṭamnak": 6417,
      "Cawhnawi": 6418,
      "hliau": 6419,
      "humhimtu": 6420,
      "Hoglah": 6421,
      "Hodaviah": 6422,
      "khawvelmi": 6423,
      "Matta": 6424,
      "Matthai": 6425,
      "Mattithiah": 6426,
      "penaz": 6427,
      "Basemath": 6428,
      "Meremoth": 6429,
      "tuhmi": 6430,
      "patzai": 6431,
      "tawlrelnak": 6432,
      "siamtu": 6433,
      "ishon": 6434,
      "Dingthluk": 6435,
      "seemsuahmi": 6436,
      "seemsuahtu": 6437,
      "tawhfung": 6438,
      "Adoniram": 6439,
      "Gilboa": 6440,
      "Khatlam": 6441,
      "Sairin": 6442,
      "Jabbok": 6443,
      "phenah": 6444,
      "coihtu": 6445,
      "Azekah": 6446,
      "hawipi": 6447,
      "Misualral": 6448,
      "tawpneilo": 6449,
      "Ningzahnak": 6450,
      "rundammi": 6451,
      "Kiriathaim": 6452,
      "Hlanlai": 6453,
      "Hlanlaiah": 6454,
      "zengmi": 6455,
      "maakpa": 6456,
      "Aksah": 6457,
      "Akbor": 6458,
      "putnak": 6459,
      "putter": 6460,
      "kutzungpi": 6461,
      "dawhhna": 6462,
      "sayama": 6463,
      "Belshazzar": 6464,
      "vaangter": 6465,
      "Heres": 6466,
      "Jahath": 6467,
      "Jahaz": 6468,
      "Laodi": 6469,
      "karhzaiter": 6470,
      "Enosh": 6471,
      "zuangzam": 6472,
      "liangbah": 6473,
      "Thawnginn": 6474,
      "cohlangtu": 6475,
      "Beelzeb": 6476,
      "neemte": 6477,
      "ihngal": 6478,
      "loksong": 6479,
      "Refaiah": 6480,
      "Libni": 6481,
      "Sefar": 6482,
      "lungthote": 6483,
      "Felte": 6484,
      "saattan": 6485,
      "Hmaisabik": 6486,
      "buhmi": 6487,
      "falahim": 6488,
      "helhkamnak": 6489,
      "Delaiah": 6490,
      "haha": 6491,
      "telhcih": 6492,
      "tlaihsannak": 6493,
      "Oholibah": 6494,
      "Hosea": 6495,
      "Zabad": 6496,
      "hmaihngal": 6497,
      "Buri": 6498,
      "khingte": 6499,
      "Jarmuth": 6500,
      "lethnih": 6501,
      "ṭhansoter": 6502,
      "puahcok": 6503,
      "Ariok": 6504,
      "Ṭaangṭawm": 6505,
      "cirhti": 6506,
      "Zare": 6507,
      "iksiiknak": 6508,
      "liailiai": 6509,
      "rilrawnnak": 6510,
      "Menahem": 6511,
      "Zilpah": 6512,
      "khaupi": 6513,
      "Kalauk": 6514,
      "Lehi": 6515,
      "Poti": 6516,
      "Serhtan": 6517,
      "Memfis": 6518,
      "Troas": 6519,
      "faute": 6520,
      "Gamaliel": 6521,
      "Jakhin": 6522,
      "Oreb": 6523,
      "Thebes": 6524,
      "Thlatang": 6525,
      "Amaió": 6526,
      "Puarthau": 6527,
      "Ahinoam": 6528,
      "Lawithing": 6529,
      "Mihring": 6530,
      "Taanak": 6531,
      "thiamcotermi": 6532,
      "Elifelet": 6533,
      "Girgash": 6534,
      "Jattir": 6535,
      "Zukneng": 6536,
      "hngauh": 6537,
      "Zibeon": 6538,
      "hmaisata": 6539,
      "Shebaniah": 6540,
      "Bethsaida": 6541,
      "Arpakshad": 6542,
      "Laodisia": 6543,
      "Beelzebul": 6544,
      "12": 6545,
      "Ah": 6546,
      "Au": 6547,
      "Ang": 6548,
      "Aen": 6549,
      "Aho": 6550,
      "Adin": 6551,
      "Ataroth": 6552,
      "Athen": 6553,
      "Bebai": 6554,
      "Conkiang": 6555,
      "Cherub": 6556,
      "Don": 6557,
      "Dem": 6558,
      "Dishon": 6559,
      "Enan": 6560,
      "Etam": 6561,
      "Gih": 6562,
      "Gem": 6563,
      "Hat": 6564,
      "Hri": 6565,
      "Hrin": 6566,
      "Hrei": 6567,
      "Hnai": 6568,
      "Hran": 6569,
      "It": 6570,
      "Jad": 6571,
      "Jamin": 6572,
      "Kis": 6573,
      "Khinah": 6574,
      "Leng": 6575,
      "Lis": 6576,
      "Naioth": 6577,
      "One": 6578,
      "Pel": 6579,
      "Pul": 6580,
      "Sela": 6581,
      "Tem": 6582,
      "Tluang": 6583,
      "Ur": 6584,
      "Zihmui": 6585,
      "azu": 6586,
      "bem": 6587,
      "cer": 6588,
      "duai": 6589,
      "fawh": 6590,
      "fni": 6591,
      "fik": 6592,
      "fut": 6593,
      "ga": 6594,
      "hawng": 6595,
      "hes": 6596,
      "heba": 6597,
      "ikhuk": 6598,
      "kin": 6599,
      "keu": 6600,
      "pem": 6601,
      "reng": 6602,
      "sangah": 6603,
      "seinak": 6604,
      "shim": 6605,
      "shur": 6606,
      "selah": 6607,
      "tlo": 6608,
      "tra": 6609,
      "tleirawl": 6610,
      "ukhuh": 6611,
      "zawm": 6612,
      "ói": 6613,
      "ṭen": 6614,
      "ṭuat": 6615,
      "anan": 6616,
      "anna": 6617,
      "inim": 6618,
      "awta": 6619,
      "awkaa": 6620,
      "thak": 6621,
      "akha": 6622,
      "cute": 6623,
      "cuhnak": 6624,
      "mis": 6625,
      "mith": 6626,
      "mithianghlim": 6627,
      "mimawh": 6628,
      "mithattu": 6629,
      "mizonzai": 6630,
      "ingthlatu": 6631,
      "tibang": 6632,
      "hal": 6633,
      "lorawl": 6634,
      "lome": 6635,
      "pad": 6636,
      "paṭhat": 6637,
      "eirel": 6638,
      "airawl": 6639,
      "aipuan": 6640,
      "thiter": 6641,
      "hnuh": 6642,
      "hnuktu": 6643,
      "hruktu": 6644,
      "temo": 6645,
      "khaih": 6646,
      "khainak": 6647,
      "khonsil": 6648,
      "khlok": 6649,
      "nas": 6650,
      "Cukhal": 6651,
      "thlung": 6652,
      "thlakhat": 6653,
      "rulh": 6654,
      "Bawipaói": 6655,
      "thudang": 6656,
      "thupit": 6657,
      "thupolhmi": 6658,
      "thiantermi": 6659,
      "sas": 6660,
      "sazet": 6661,
      "saangih": 6662,
      "sathau": 6663,
      "zib": 6664,
      "rampi": 6665,
      "terih": 6666,
      "theilonak": 6667,
      "iling": 6668,
      "ilukhuh": 6669,
      "phung": 6670,
      "phuh": 6671,
      "khuih": 6672,
      "uanak": 6673,
      "rikam": 6674,
      "ralsan": 6675,
      "Jerim": 6676,
      "simter": 6677,
      "simsak": 6678,
      "bangzet": 6679,
      "bangraan": 6680,
      "lampi": 6681,
      "lamlam": 6682,
      "Isshi": 6683,
      "khawtleu": 6684,
      "khawkulhnak": 6685,
      "khuasungmi": 6686,
      "duhzetmi": 6687,
      "duhsakmi": 6688,
      "duhhamnak": 6689,
      "innbo": 6690,
      "cimit": 6691,
      "sopar": 6692,
      "kuumpi": 6693,
      "Mib": 6694,
      "vainim": 6695,
      "ongter": 6696,
      "Naamah": 6697,
      "nizarh": 6698,
      "suahthlak": 6699,
      "ziangmaw": 6700,
      "nule": 6701,
      "nutar": 6702,
      "tukin": 6703,
      "Zirh": 6704,
      "thinhna": 6705,
      "Jeshaiah": 6706,
      "puak": 6707,
      "doter": 6708,
      "sakhi": 6709,
      "phunzakip": 6710,
      "thotu": 6711,
      "lipi": 6712,
      "kaphnih": 6713,
      "hmuter": 6714,
      "cangṭheh": 6715,
      "hmunsang": 6716,
      "rod": 6717,
      "roter": 6718,
      "taal": 6719,
      "Cuihhnu": 6720,
      "hlahseh": 6721,
      "suaktertu": 6722,
      "peek": 6723,
      "esheth": 6724,
      "sangrawh": 6725,
      "ṭongkip": 6726,
      "hmuhah": 6727,
      "thlaam": 6728,
      "thlaza": 6729,
      "kimteih": 6730,
      "thlengnak": 6731,
      "nawnah": 6732,
      "vanim": 6733,
      "vanṭha": 6734,
      "vanluh": 6735,
      "vansiatnak": 6736,
      "thlahsak": 6737,
      "ulhnak": 6738,
      "tlunkhuh": 6739,
      "tlangleng": 6740,
      "tlangmual": 6741,
      "ṭhendarh": 6742,
      "ngaizet": 6743,
      "ngaisak": 6744,
      "tor": 6745,
      "topi": 6746,
      "homi": 6747,
      "sunnak": 6748,
      "sunzan": 6749,
      "sunvu": 6750,
      "harmi": 6751,
      "deem": 6752,
      "daithlang": 6753,
      "kutsuannak": 6754,
      "meilipi": 6755,
      "camriamnak": 6756,
      "leikir": 6757,
      "leitlunah": 6758,
      "leileh": 6759,
      "asai": 6760,
      "hlohnak": 6761,
      "miphunpi": 6762,
      "zohso": 6763,
      "Ziangkhal": 6764,
      "saruak": 6765,
      "kirnak": 6766,
      "kirsan": 6767,
      "taklawng": 6768,
      "pahnihte": 6769,
      "damte": 6770,
      "damsung": 6771,
      "damtertu": 6772,
      "Thiam": 6773,
      "daanih": 6774,
      "hrimnak": 6775,
      "ṭihter": 6776,
      "cungnung": 6777,
      "cungnungbik": 6778,
      "fetfet": 6779,
      "fidim": 6780,
      "tuarzia": 6781,
      "hotupa": 6782,
      "cawih": 6783,
      "hengzet": 6784,
      "Thlingthlatu": 6785,
      "ṭhio": 6786,
      "hlawhmi": 6787,
      "zankhat": 6788,
      "zaniah": 6789,
      "zanṭim": 6790,
      "ciamciam": 6791,
      "Thusimtu": 6792,
      "siarsak": 6793,
      "mitṭhep": 6794,
      "lenglo": 6795,
      "cantertu": 6796,
      "Elioenai": 6797,
      "Shes": 6798,
      "hrilnak": 6799,
      "hnihkhat": 6800,
      "ciarter": 6801,
      "Nipi": 6802,
      "cemmi": 6803,
      "cemnetnak": 6804,
      "faiter": 6805,
      "namthlak": 6806,
      "mawhphurtu": 6807,
      "hlazet": 6808,
      "remte": 6809,
      "luattu": 6810,
      "khitawk": 6811,
      "thapeknak": 6812,
      "Ralphaw": 6813,
      "lungawipi": 6814,
      "daap": 6815,
      "fangkung": 6816,
      "fangkuang": 6817,
      "hawlsuak": 6818,
      "Millo": 6819,
      "Gid": 6820,
      "hmaisatu": 6821,
      "Vanrang": 6822,
      "malzet": 6823,
      "maltuk": 6824,
      "balh": 6825,
      "reilote": 6826,
      "innsanghlei": 6827,
      "sawngtu": 6828,
      "natsatnak": 6829,
      "taanmi": 6830,
      "khuhmi": 6831,
      "khuhtu": 6832,
      "taanglaimi": 6833,
      "felteih": 6834,
      "zatzat": 6835,
      "donnak": 6836,
      "sedaap": 6837,
      "hlonta": 6838,
      "ṭantlangnak": 6839,
      "Thilṭha": 6840,
      "dinpi": 6841,
      "kaihnget": 6842,
      "Zeeb": 6843,
      "phangkhat": 6844,
      "thawbik": 6845,
      "thawthawt": 6846,
      "hnuaita": 6847,
      "sumtuah": 6848,
      "hranak": 6849,
      "hiarzet": 6850,
      "nemter": 6851,
      "saalnak": 6852,
      "fungkhen": 6853,
      "hmuitin": 6854,
      "shag": 6855,
      "itmi": 6856,
      "ittlang": 6857,
      "phumtu": 6858,
      "rianmi": 6859,
      "Lungmankhung": 6860,
      "cahmi": 6861,
      "ṭangtlang": 6862,
      "eshem": 6863,
      "dawlnak": 6864,
      "Tivate": 6865,
      "nelrawnih": 6866,
      "bokkhup": 6867,
      "Shemi": 6868,
      "tlansantu": 6869,
      "nuamzetin": 6870,
      "zukin": 6871,
      "tleuzet": 6872,
      "thlaanmual": 6873,
      "Abib": 6874,
      "Abishag": 6875,
      "tara": 6876,
      "tarkuun": 6877,
      "puarter": 6878,
      "Ashtaroth": 6879,
      "Ashpenaz": 6880,
      "hluankhat": 6881,
      "Baalah": 6882,
      "Zanvar": 6883,
      "Arte": 6884,
      "Arpad": 6885,
      "luahtu": 6886,
      "ramsungmi": 6887,
      "vuakdai": 6888,
      "Ahio": 6889,
      "lungkimmi": 6890,
      "hlirih": 6891,
      "Rawlkhawm": 6892,
      "pomhnget": 6893,
      "rintlakzet": 6894,
      "Shil": 6895,
      "neek": 6896,
      "kharnak": 6897,
      "Mesha": 6898,
      "Meshe": 6899,
      "Hmunkip": 6900,
      "phaam": 6901,
      "zirziar": 6902,
      "caarmi": 6903,
      "Kiang": 6904,
      "hoitu": 6905,
      "hoisan": 6906,
      "Lotan": 6907,
      "riakmi": 6908,
      "ṭhitmi": 6909,
      "famkimih": 6910,
      "Hanok": 6911,
      "baansan": 6912,
      "suahpimi": 6913,
      "Shaal": 6914,
      "hloralter": 6915,
      "linglet": 6916,
      "naisai": 6917,
      "cawlter": 6918,
      "cawlta": 6919,
      "fekzet": 6920,
      "siatralter": 6921,
      "thuaiih": 6922,
      "siatcammi": 6923,
      "puhnak": 6924,
      "pantu": 6925,
      "ṭio": 6926,
      "fatet": 6927,
      "Jehosheba": 6928,
      "Mahte": 6929,
      "Refidim": 6930,
      "Sunvu": 6931,
      "Hramlakih": 6932,
      "Gedor": 6933,
      "Lidia": 6934,
      "ṭialkau": 6935,
      "Hodiah": 6936,
      "Rundam": 6937,
      "saanlam": 6938,
      "Zingtin": 6939,
      "Zingthlapit": 6940,
      "hnawiti": 6941,
      "Meraioth": 6942,
      "Tofeth": 6943,
      "tuhtu": 6944,
      "nautatmi": 6945,
      "Ruahsannak": 6946,
      "Siatralnak": 6947,
      "Malluk": 6948,
      "karhter": 6949,
      "Hushah": 6950,
      "khopzet": 6951,
      "lungphengpi": 6952,
      "vorhtu": 6953,
      "vahvaihnak": 6954,
      "paampi": 6955,
      "tawlreltu": 6956,
      "Nathanael": 6957,
      "molh": 6958,
      "Addar": 6959,
      "camsiatmi": 6960,
      "Azrikam": 6961,
      "Tangdor": 6962,
      "bulta": 6963,
      "hmunrawnih": 6964,
      "Doeg": 6965,
      "Kenan": 6966,
      "tenai": 6967,
      "tenau": 6968,
      "maaknak": 6969,
      "Hitión": 6970,
      "pungsan": 6971,
      "siirang": 6972,
      "Theihpitu": 6973,
      "Shamm": 6974,
      "Shammai": 6975,
      "vuiho": 6976,
      "Shalman": 6977,
      "Parosh": 6978,
      "thusuhnak": 6979,
      "hnaihnoktu": 6980,
      "Nimrod": 6981,
      "hluahhlomi": 6982,
      "Eshtemo": 6983,
      "Thlangam": 6984,
      "Kishon": 6985,
      "dirhsuak": 6986,
      "tiamkamnak": 6987,
      "Berea": 6988,
      "Oholah": 6989,
      "calben": 6990,
      "ngakaitu": 6991,
      "phorhsuak": 6992,
      "Nob": 6993,
      "Hell": 6994,
      "Hmuhsaknak": 6995,
      "thuronmi": 6996,
      "depdet": 6997,
      "Pahra": 6998,
      "Pahath": 6999,
      "hmaitontein": 7000,
      "saangpipi": 7001,
      "harhdammi": 7002,
      "meipir": 7003,
      "Thangṭhatnak": 7004,
      "Oholiab": 7005,
      "Tahath": 7006,
      "duup": 7007,
      "relsiatu": 7008,
      "zanvarte": 7009,
      "Tefa": 7010,
      "Tesinfa": 7011,
      "Hele": 7012,
      "Jared": 7013,
      "cawtnak": 7014,
      "rilhbahnak": 7015,
      "Patar": 7016,
      "Penuel": 7017,
      "Shimron": 7018,
      "ṭekdarh": 7019,
      "lonia": 7020,
      "oniam": 7021,
      "kopmi": 7022,
      "Hakko": 7023,
      "Remaliah": 7024,
      "phaipheng": 7025,
      "laangte": 7026,
      "Huldah": 7027,
      "Sibmah": 7028,
      "femte": 7029,
      "Siahhlawh": 7030,
      "Ikoniam": 7031,
      "Talmai": 7032,
      "suahkehnak": 7033,
      "Tawkfang": 7034,
      "Ṭaiar": 7035,
      "Migdol": 7036,
      "Hazeroth": 7037,
      "Khuaitizu": 7038,
      "Alexander": 7039,
      "Kereth": 7040,
      "botcat": 7041,
      "hngirh": 7042,
      "Bigvai": 7043,
      "Bahurim": 7044,
      "Gabriel": 7045,
      "Tihal": 7046,
      "Zungthiam": 7047,
      "Mishael": 7048,
      "pursum": 7049,
      "Methuselah": 7050,
      "Beiseinak": 7051,
      "Natsia": 7052,
      "caiceh": 7053,
      "Thlawsuah": 7054,
      "Sefarvaim": 7055,
      "Angki": 7056,
      "Athens": 7057,
      "Gihon": 7058,
      "Hreitlung": 7059,
      "Listra": 7060,
      "fikfa": 7061,
      "zawmtai": 7062,
      "aipuannak": 7063,
      "Jerimoth": 7064,
      "Eshtemoa": 7065,
      "Ap": 7066,
      "Ain": 7067,
      "Ater": 7068,
      "Aiah": 7069,
      "Asinan": 7070,
      "Attai": 7071,
      "Co": 7072,
      "Cam": 7073,
      "Dawi": 7074,
      "Der": 7075,
      "Dik": 7076,
      "Dawr": 7077,
      "Epa": 7078,
      "Eder": 7079,
      "Emim": 7080,
      "Gol": 7081,
      "Hl": 7082,
      "Hal": 7083,
      "Hru": 7084,
      "Hath": 7085,
      "Hriam": 7086,
      "Hattu": 7087,
      "Iv": 7088,
      "Ital": 7089,
      "Kal": 7090,
      "Kil": 7091,
      "Khau": 7092,
      "Lal": 7093,
      "Lili": 7094,
      "Ladan": 7095,
      "Maa": 7096,
      "Mawizet": 7097,
      "Nung": 7098,
      "Ono": 7099,
      "Ofel": 7100,
      "Pam": 7101,
      "Puah": 7102,
      "Pon": 7103,
      "Phu": 7104,
      "Pol": 7105,
      "Phang": 7106,
      "Pela": 7107,
      "Rung": 7108,
      "Rek": 7109,
      "Rawn": 7110,
      "Suak": 7111,
      "Seba": 7112,
      "Serah": 7113,
      "Shur": 7114,
      "Sefer": 7115,
      "Ter": 7116,
      "Toi": 7117,
      "Umnak": 7118,
      "Vun": 7119,
      "Zufrates": 7120,
      "Zuar": 7121,
      "Zattu": 7122,
      "af": 7123,
      "aziel": 7124,
      "acozah": 7125,
      "bim": 7126,
      "bummi": 7127,
      "bbeth": 7128,
      "cen": 7129,
      "ceu": 7130,
      "duah": 7131,
      "del": 7132,
      "dawinak": 7133,
      "deiah": 7134,
      "deirel": 7135,
      "eah": 7136,
      "fo": 7137,
      "fun": 7138,
      "fur": 7139,
      "fran": 7140,
      "fili": 7141,
      "fawp": 7142,
      "iz": 7143,
      "kon": 7144,
      "keb": 7145,
      "lawk": 7146,
      "meih": 7147,
      "nes": 7148,
      "niling": 7149,
      "od": 7150,
      "pco": 7151,
      "pawt": 7152,
      "pbai": 7153,
      "pelah": 7154,
      "rum": 7155,
      "rawk": 7156,
      "star": 7157,
      "shub": 7158,
      "tangah": 7159,
      "umiel": 7160,
      "vei": 7161,
      "zek": 7162,
      "zummi": 7163,
      "Ṭap": 7164,
      "Ṭhit": 7165,
      "ṭeh": 7166,
      "ṭuak": 7167,
      "annim": 7168,
      "anṭam": 7169,
      "angte": 7170,
      "angmo": 7171,
      "cuhrangah": 7172,
      "culaifang": 7173,
      "cupco": 7174,
      "miatnak": 7175,
      "milungawi": 7176,
      "mikiltu": 7177,
      "mititer": 7178,
      "miangmo": 7179,
      "ingun": 7180,
      "tiim": 7181,
      "tisuak": 7182,
      "leam": 7183,
      "lengai": 7184,
      "ammi": 7185,
      "habiah": 7186,
      "dingfel": 7187,
      "tuang": 7188,
      "tuat": 7189,
      "tuhmui": 7190,
      "paṭha": 7191,
      "patling": 7192,
      "pasarihnak": 7193,
      "kaan": 7194,
      "karah": 7195,
      "hmuk": 7196,
      "eitlang": 7197,
      "ngo": 7198,
      "aithawhnak": 7199,
      "thizik": 7200,
      "hning": 7201,
      "hnawng": 7202,
      "hnemnak": 7203,
      "enkolh": 7204,
      "teu": 7205,
      "teek": 7206,
      "khel": 7207,
      "khis": 7208,
      "Cuihsin": 7209,
      "thlur": 7210,
      "arah": 7211,
      "hii": 7212,
      "rug": 7213,
      "atmi": 7214,
      "cunu": 7215,
      "sintu": 7216,
      "thuthu": 7217,
      "thuhman": 7218,
      "thutheih": 7219,
      "thurin": 7220,
      "thuangte": 7221,
      "hlamah": 7222,
      "razim": 7223,
      "sami": 7224,
      "sapbai": 7225,
      "tuahcop": 7226,
      "suilukhuh": 7227,
      "suingun": 7228,
      "zotu": 7229,
      "tikel": 7230,
      "tikep": 7231,
      "pahsuak": 7232,
      "theizat": 7233,
      "theifiang": 7234,
      "phummi": 7235,
      "phelh": 7236,
      "rangpar": 7237,
      "rangcang": 7238,
      "seherhnak": 7239,
      "faphir": 7240,
      "rikhiah": 7241,
      "ralta": 7242,
      "ralkaih": 7243,
      "Jedia": 7244,
      "simaw": 7245,
      "laomer": 7246,
      "lungduh": 7247,
      "lunghmu": 7248,
      "bangter": 7249,
      "lamṭang": 7250,
      "Ishi": 7251,
      "khawthimnak": 7252,
      "khawhrum": 7253,
      "duhih": 7254,
      "duhdah": 7255,
      "ukter": 7256,
      "innsungah": 7257,
      "khatkhat": 7258,
      "khatawk": 7259,
      "khattein": 7260,
      "zatha": 7261,
      "eme": 7262,
      "lakter": 7263,
      "lakhlo": 7264,
      "cianak": 7265,
      "Annas": 7266,
      "neiloin": 7267,
      "soih": 7268,
      "sodeng": 7269,
      "Mith": 7270,
      "Mipum": 7271,
      "Midik": 7272,
      "Mithm": 7273,
      "vaih": 7274,
      "vaat": 7275,
      "ongeber": 7276,
      "dangdangah": 7277,
      "niang": 7278,
      "nisa": 7279,
      "Siti": 7280,
      "Silo": 7281,
      "Siar": 7282,
      "ziangih": 7283,
      "ziangruangah": 7284,
      "ziangdang": 7285,
      "ziangsiar": 7286,
      "awkam": 7287,
      "nuang": 7288,
      "lailan": 7289,
      "ringtu": 7290,
      "vial": 7291,
      "thiamtle": 7292,
      "komah": 7293,
      "sakap": 7294,
      "osan": 7295,
      "nunlai": 7296,
      "hramnak": 7297,
      "hramsehla": 7298,
      "hramro": 7299,
      "hramthawhnak": 7300,
      "huum": 7301,
      "cangih": 7302,
      "cangthei": 7303,
      "cangtertu": 7304,
      "rok": 7305,
      "taa": 7306,
      "lemzuk": 7307,
      "lemlawi": 7308,
      "lemeth": 7309,
      "lud": 7310,
      "lubo": 7311,
      "luzim": 7312,
      "ngapi": 7313,
      "ngathur": 7314,
      "com": 7315,
      "cotlak": 7316,
      "cotlakmi": 7317,
      "tamnak": 7318,
      "peel": 7319,
      "sanikhuk": 7320,
      "eser": 7321,
      "eses": 7322,
      "ṭongter": 7323,
      "thlengtertu": 7324,
      "vanlam": 7325,
      "Joiarib": 7326,
      "abas": 7327,
      "tawkzawn": 7328,
      "kamnak": 7329,
      "rawlkhawm": 7330,
      "rawlkung": 7331,
      "tinzohnak": 7332,
      "ṭhencat": 7333,
      "holh": 7334,
      "suntlang": 7335,
      "hartuk": 7336,
      "thangsia": 7337,
      "deba": 7338,
      "runsuakmi": 7339,
      "Jerub": 7340,
      "kutthuai": 7341,
      "meifar": 7342,
      "thawngsarih": 7343,
      "thawngriat": 7344,
      "camsak": 7345,
      "asah": 7346,
      "leilawn": 7347,
      "ṭhatzia": 7348,
      "retih": 7349,
      "rettu": 7350,
      "retta": 7351,
      "hlothlau": 7352,
      "zianghmanlo": 7353,
      "miphundang": 7354,
      "miphunkip": 7355,
      "zohmi": 7356,
      "Ziangti": 7357,
      "Ziangthu": 7358,
      "taktu": 7359,
      "tlanleen": 7360,
      "hruailut": 7361,
      "Thaw": 7362,
      "reronak": 7363,
      "rintlaknak": 7364,
      "thingpi": 7365,
      "tuufa": 7366,
      "dunglamih": 7367,
      "fias": 7368,
      "kilkip": 7369,
      "kilven": 7370,
      "Baala": 7371,
      "cawsa": 7372,
      "Cunu": 7373,
      "diknak": 7374,
      "Thlun": 7375,
      "Ammiel": 7376,
      "Amasai": 7377,
      "hlawhfa": 7378,
      "zanvaar": 7379,
      "baar": 7380,
      "nauter": 7381,
      "caih": 7382,
      "capoh": 7383,
      "besiat": 7384,
      "mitmu": 7385,
      "lenglamih": 7386,
      "tangphaw": 7387,
      "Eliada": 7388,
      "Leidip": 7389,
      "Shef": 7390,
      "hnihsuak": 7391,
      "Khum": 7392,
      "fanote": 7393,
      "Bezer": 7394,
      "Besiazet": 7395,
      "cemfai": 7396,
      "nambat": 7397,
      "darpheng": 7398,
      "merual": 7399,
      "medatha": 7400,
      "mawhphurh": 7401,
      "mawhphurhnak": 7402,
      "kengih": 7403,
      "khokheng": 7404,
      "hlasa": 7405,
      "remruattu": 7406,
      "Soisel": 7407,
      "Babilonia": 7408,
      "mangki": 7409,
      "kungih": 7410,
      "khikas": 7411,
      "thaang": 7412,
      "thatho": 7413,
      "thacem": 7414,
      "lungawiza": 7415,
      "fanghra": 7416,
      "hawlmi": 7417,
      "Khawsik": 7418,
      "Gibbeth": 7419,
      "mawizetmi": 7420,
      "hleikhatnak": 7421,
      "hleiriatnak": 7422,
      "rinsanzet": 7423,
      "phahah": 7424,
      "balcim": 7425,
      "Farah": 7426,
      "reideuh": 7427,
      "tharte": 7428,
      "Ramṭhen": 7429,
      "Ramcaar": 7430,
      "Rameses": 7431,
      "vangro": 7432,
      "cuangnak": 7433,
      "hmaih": 7434,
      "hmasa": 7435,
      "hmainak": 7436,
      "hlep": 7437,
      "hleih": 7438,
      "Pirath": 7439,
      "sep": 7440,
      "hlonnak": 7441,
      "ṭankulh": 7442,
      "ṭanpitu": 7443,
      "Thilti": 7444,
      "Moza": 7445,
      "Saam": 7446,
      "kulhtu": 7447,
      "thawzet": 7448,
      "thawthaang": 7449,
      "fiangteih": 7450,
      "hrante": 7451,
      "lehmi": 7452,
      "Keimaió": 7453,
      "suamso": 7454,
      "uire": 7455,
      "thupnak": 7456,
      "duhnakah": 7457,
      "duhnakih": 7458,
      "raldotu": 7459,
      "fungzum": 7460,
      "maktara": 7461,
      "sammi": 7462,
      "cahzia": 7463,
      "hmuhsuammi": 7464,
      "ṭhangtu": 7465,
      "hee": 7466,
      "pehtlai": 7467,
      "thiangfaimi": 7468,
      "ngaihtuahtu": 7469,
      "Meon": 7470,
      "Mecang": 7471,
      "Medeba": 7472,
      "thammi": 7473,
      "bokvakmi": 7474,
      "olah": 7475,
      "sahriak": 7476,
      "Harar": 7477,
      "Harsazet": 7478,
      "thuneih": 7479,
      "nuamte": 7480,
      "zukzomi": 7481,
      "tleuter": 7482,
      "pernak": 7483,
      "Abishua": 7484,
      "Raamah": 7485,
      "kimternakah": 7486,
      "hluankua": 7487,
      "pittawp": 7488,
      "Zanriah": 7489,
      "Zanoah": 7490,
      "ceek": 7491,
      "Argo": 7492,
      "luahter": 7493,
      "luahta": 7494,
      "Hammedatha": 7495,
      "sersi": 7496,
      "hringhro": 7497,
      "vuakkuai": 7498,
      "vorhlamah": 7499,
      "khualtlawng": 7500,
      "Ahiezer": 7501,
      "Ahilud": 7502,
      "Shit": 7503,
      "dengih": 7504,
      "dungtuntu": 7505,
      "ziangtlukih": 7506,
      "cawmmi": 7507,
      "minu": 7508,
      "Uzza": 7509,
      "Mago": 7510,
      "zimte": 7511,
      "meenah": 7512,
      "phil": 7513,
      "phiit": 7514,
      "khuazakipih": 7515,
      "seemnak": 7516,
      "Elea": 7517,
      "Eleasah": 7518,
      "Jehudi": 7519,
      "longtu": 7520,
      "ṭiosan": 7521,
      "khawlai": 7522,
      "Meikhu": 7523,
      "Meivannak": 7524,
      "kuaimi": 7525,
      "kuaiter": 7526,
      "thlenpitu": 7527,
      "tualah": 7528,
      "tualleng": 7529,
      "zualkotu": 7530,
      "Sangka": 7531,
      "Sangphut": 7532,
      "Mahlah": 7533,
      "ṭemṭawn": 7534,
      "Pedah": 7535,
      "Pelet": 7536,
      "Perazim": 7537,
      "kehrolh": 7538,
      "Reaiah": 7539,
      "Rehabiah": 7540,
      "hngalhngawng": 7541,
      "Hramro": 7542,
      "Hramlakah": 7543,
      "kuanglawng": 7544,
      "Thingrah": 7545,
      "daihter": 7546,
      "daihnem": 7547,
      "Zaangzel": 7548,
      "Thinheng": 7549,
      "Thinphang": 7550,
      "thusimtu": 7551,
      "Neriah": 7552,
      "maksakzia": 7553,
      "hlikhlok": 7554,
      "hminsinnakah": 7555,
      "hngawngkol": 7556,
      "thawhtermi": 7557,
      "thawhtersal": 7558,
      "dorlaomer": 7559,
      "denthat": 7560,
      "hnahnawhnak": 7561,
      "Hofni": 7562,
      "rimthawmi": 7563,
      "bawhter": 7564,
      "Zingtinte": 7565,
      "Nahath": 7566,
      "Hagrit": 7567,
      "Nehhnu": 7568,
      "Malkhis": 7569,
      "Sihlah": 7570,
      "Dunglam": 7571,
      "nentu": 7572,
      "Gozan": 7573,
      "khermi": 7574,
      "Arad": 7575,
      "Baladan": 7576,
      "ṭeekdarh": 7577,
      "semkhat": 7578,
      "Jafia": 7579,
      "toihmi": 7580,
      "hlawhtlingter": 7581,
      "Marah": 7582,
      "hleilinak": 7583,
      "ṭoruah": 7584,
      "Admah": 7585,
      "camsiattu": 7586,
      "Azel": 7587,
      "tihriat": 7588,
      "polsia": 7589,
      "pilter": 7590,
      "ṭhangsoter": 7591,
      "Azarel": 7592,
      "rundamsuak": 7593,
      "Zuun": 7594,
      "sialtu": 7595,
      "hneemtu": 7596,
      "hneemdai": 7597,
      "lainat": 7598,
      "Dodo": 7599,
      "Dothan": 7600,
      "tlaangnak": 7601,
      "tangdorte": 7602,
      "Taikhikas": 7603,
      "Zaangfahte": 7604,
      "sihte": 7605,
      "sihmansehla": 7606,
      "Jahaziel": 7607,
      "Zerahiah": 7608,
      "zumtlakmi": 7609,
      "thlanei": 7610,
      "thlankhur": 7611,
      "Khuitawkih": 7612,
      "tlepkhat": 7613,
      "dirsuak": 7614,
      "gotha": 7615,
      "thawtnak": 7616,
      "Tarsas": 7617,
      "sasuapi": 7618,
      "sersiamtu": 7619,
      "Dib": 7620,
      "Serug": 7621,
      "Thal": 7622,
      "siknak": 7623,
      "zaarah": 7624,
      "Helio": 7625,
      "Ṭhal": 7626,
      "lungnemnak": 7627,
      "Awloksong": 7628,
      "Cite": 7629,
      "Laithat": 7630,
      "cohlanmi": 7631,
      "vokkuanglawng": 7632,
      "Pallu": 7633,
      "Ṭongṭhimnak": 7634,
      "Jason": 7635,
      "Jashub": 7636,
      "Makpelah": 7637,
      "hahio": 7638,
      "zurzo": 7639,
      "phawisuak": 7640,
      "Horonaim": 7641,
      "Hosah": 7642,
      "Ralringte": 7643,
      "Himnak": 7644,
      "Pekahiah": 7645,
      "Tlansan": 7646,
      "thiarhlo": 7647,
      "Hlawhhlangnu": 7648,
      "Alfias": 7649,
      "Hashum": 7650,
      "Hasshub": 7651,
      "bawngmal": 7652,
      "demas": 7653,
      "Shebuel": 7654,
      "kholhnakah": 7655,
      "Joktan": 7656,
      "Aristar": 7657,
      "Peninnah": 7658,
      "Shimri": 7659,
      "muril": 7660,
      "Ṭaangben": 7661,
      "zaathar": 7662,
      "sualsirnak": 7663,
      "Anakim": 7664,
      "Zalmon": 7665,
      "sawrnak": 7666,
      "Khedorlaomer": 7667,
      "zuarthlaitu": 7668,
      "pungzaiter": 7669,
      "phaikung": 7670,
      "tazacuai": 7671,
      "Tlakrawh": 7672,
      "tetti": 7673,
      "Talmon": 7674,
      "kakharh": 7675,
      "Ṭhenkhat": 7676,
      "theihpimi": 7677,
      "ceelceel": 7678,
      "Hnangamtein": 7679,
      "Tlavang": 7680,
      "Mahalalel": 7681,
      "forhfialnak": 7682,
      "Azazel": 7683,
      "Massah": 7684,
      "ngaina": 7685,
      "khuilamah": 7686,
      "Nikodemas": 7687,
      "Haggith": 7688,
      "Eziongeber": 7689,
      "Ebedmelek": 7690,
      "Tumtahnak": 7691,
      "Thuneitu": 7692,
      "Sokoh": 7693,
      "ninghannak": 7694,
      "Bakbuk": 7695,
      "Bukki": 7696,
      "Hnihsuahsainak": 7697,
      "Olte": 7698,
      "Zawnfung": 7699,
      "Eliasaf": 7700,
      "Shelumiel": 7701,
      "tluangkhawnnak": 7702,
      "hngauhsan": 7703,
      "Aenias": 7704,
      "Gemariah": 7705,
      "Tema": 7706,
      "mithnawm": 7707,
      "Isshiah": 7708,
      "Artemis": 7709,
      "Rundamtu": 7710,
      "Shammua": 7711,
      "Shalmaneser": 7712,
      "depdetnak": 7713,
      "Hakkoz": 7714,
      "Camcawhfung": 7715,
      "Derbe": 7716,
      "Epaf": 7717,
      "Golgotha": 7718,
      "Hruaitu": 7719,
      "Hathak": 7720,
      "Hattush": 7721,
      "Ivvah": 7722,
      "Italy": 7723,
      "Pamfili": 7724,
      "Pelatiah": 7725,
      "Rekem": 7726,
      "frankin": 7727,
      "kebeu": 7728,
      "mititeraw": 7729,
      "Jediael": 7730,
      "lunghmuinak": 7731,
      "Mithmai": 7732,
      "thiamtleeng": 7733,
      "Baalath": 7734,
      "Gibbethon": 7735,
      "Pirathon": 7736,
      "Argob": 7737,
      "Magog": 7738,
      "Malkhishua": 7739,
      "Heliopolis": 7740,
      "Aristarkas": 7741,
      "Pamfilia": 7742,
      "00": 7743,
      "22": 7744,
      "Arah": 7745,
      "Azu": 7746,
      "Arim": 7747,
      "Alemeth": 7748,
      "Bam": 7749,
      "Bine": 7750,
      "Din": 7751,
      "Dis": 7752,
      "Em": 7753,
      "Ev": 7754,
      "Eth": 7755,
      "Elh": 7756,
      "Etham": 7757,
      "Feipi": 7758,
      "Gun": 7759,
      "Gen": 7760,
      "Gar": 7761,
      "Gala": 7762,
      "Gaz": 7763,
      "Geth": 7764,
      "Geshem": 7765,
      "Hau": 7766,
      "Hman": 7767,
      "Hnem": 7768,
      "Hup": 7769,
      "Heth": 7770,
      "Hnget": 7771,
      "If": 7772,
      "Ir": 7773,
      "Jam": 7774,
      "Jalam": 7775,
      "Ku": 7776,
      "Khim": 7777,
      "Klau": 7778,
      "Ly": 7779,
      "Lur": 7780,
      "Luat": 7781,
      "Maim": 7782,
      "Mihngal": 7783,
      "Nam": 7784,
      "Ok": 7785,
      "Onam": 7786,
      "Oboth": 7787,
      "Pang": 7788,
      "Pha": 7789,
      "Phai": 7790,
      "Ran": 7791,
      "Ruang": 7792,
      "Ruak": 7793,
      "Sangah": 7794,
      "Sur": 7795,
      "Shual": 7796,
      "Tuan": 7797,
      "Tawh": 7798,
      "Tlawng": 7799,
      "Ulam": 7800,
      "Uriel": 7801,
      "Vur": 7802,
      "Zun": 7803,
      "Zon": 7804,
      "Zem": 7805,
      "Zef": 7806,
      "Zaa": 7807,
      "ati": 7808,
      "alo": 7809,
      "asinan": 7810,
      "buknak": 7811,
      "broth": 7812,
      "cet": 7813,
      "cawla": 7814,
      "catnak": 7815,
      "dawk": 7816,
      "dis": 7817,
      "dut": 7818,
      "dria": 7819,
      "dda": 7820,
      "dua": 7821,
      "ddim": 7822,
      "eer": 7823,
      "einung": 7824,
      "geb": 7825,
      "giel": 7826,
      "huh": 7827,
      "huk": 7828,
      "humnak": 7829,
      "hthlek": 7830,
      "id": 7831,
      "isia": 7832,
      "iroth": 7833,
      "kawl": 7834,
      "kawi": 7835,
      "kek": 7836,
      "ker": 7837,
      "kamah": 7838,
      "kebai": 7839,
      "lili": 7840,
      "mol": 7841,
      "nawh": 7842,
      "nawt": 7843,
      "pih": 7844,
      "ping": 7845,
      "ppi": 7846,
      "rahnak": 7847,
      "rennak": 7848,
      "rawhnak": 7849,
      "sing": 7850,
      "tawt": 7851,
      "tma": 7852,
      "tlong": 7853,
      "uih": 7854,
      "zpah": 7855,
      "zalam": 7856,
      "zuhnak": 7857,
      "ṭung": 7858,
      "ṭummi": 7859,
      "’,": 7860,
      "ahath": 7861,
      "iha": 7862,
      "thri": 7863,
      "thong": 7864,
      "thelah": 7865,
      "akan": 7866,
      "uno": 7867,
      "sibang": 7868,
      "siling": 7869,
      "sidia": 7870,
      "siakha": 7871,
      "cutik": 7872,
      "cuangih": 7873,
      "cuut": 7874,
      "cuvete": 7875,
      "cuainak": 7876,
      "mir": 7877,
      "mite": 7878,
      "mithah": 7879,
      "midik": 7880,
      "mizan": 7881,
      "mish": 7882,
      "mimawi": 7883,
      "miaa": 7884,
      "mivakvai": 7885,
      "mishaddai": 7886,
      "ingan": 7887,
      "tiso": 7888,
      "titheinak": 7889,
      "tisanmi": 7890,
      "leti": 7891,
      "leel": 7892,
      "lethm": 7893,
      "letas": 7894,
      "amel": 7895,
      "amsawl": 7896,
      "halh": 7897,
      "dingzet": 7898,
      "dingso": 7899,
      "dinglonak": 7900,
      "lozia": 7901,
      "tuak": 7902,
      "turah": 7903,
      "tupheng": 7904,
      "tubaite": 7905,
      "hmo": 7906,
      "hmat": 7907,
      "hmawh": 7908,
      "hmangih": 7909,
      "hmeen": 7910,
      "eitlangnak": 7911,
      "ngi": 7912,
      "ngaan": 7913,
      "ngir": 7914,
      "uhkang": 7915,
      "alter": 7916,
      "almon": 7917,
      "aizing": 7918,
      "thia": 7919,
      "thidok": 7920,
      "umpinak": 7921,
      "hnul": 7922,
      "hnep": 7923,
      "hru": 7924,
      "hreh": 7925,
      "awitertu": 7926,
      "tek": 7927,
      "khaber": 7928,
      "khihnak": 7929,
      "khelh": 7930,
      "naa": 7931,
      "nacingin": 7932,
      "Cuai": 7933,
      "arat": 7934,
      "arem": 7935,
      "artlang": 7936,
      "pir": 7937,
      "pizon": 7938,
      "hiah": 7939,
      "hivai": 7940,
      "hitlukin": 7941,
      "ruai": 7942,
      "atam": 7943,
      "tlau": 7944,
      "tlir": 7945,
      "tlinnak": 7946,
      "sinter": 7947,
      "thul": 7948,
      "thulung": 7949,
      "thuthuuk": 7950,
      "Pau": 7951,
      "Pacang": 7952,
      "Pase": 7953,
      "Pathumnak": 7954,
      "Pagiel": 7955,
      "hlarem": 7956,
      "ratu": 7957,
      "saam": 7958,
      "safai": 7959,
      "saserh": 7960,
      "tuahcia": 7961,
      "ramkhat": 7962,
      "suur": 7963,
      "theizia": 7964,
      "theilotu": 7965,
      "ilmero": 7966,
      "imaw": 7967,
      "phong": 7968,
      "phul": 7969,
      "rangva": 7970,
      "khuimaw": 7971,
      "pekin": 7972,
      "ris": 7973,
      "rizim": 7974,
      "ralca": 7975,
      "Jeriah": 7976,
      "simta": 7977,
      "simas": 7978,
      "simsia": 7979,
      "lap": 7980,
      "laan": 7981,
      "ladah": 7982,
      "lungthli": 7983,
      "lunghring": 7984,
      "lungtlep": 7985,
      "lungsedaap": 7986,
      "hmantein": 7987,
      "lamhla": 7988,
      "lamtluan": 7989,
      "khawfate": 7990,
      "khuadang": 7991,
      "khuasuah": 7992,
      "khuazing": 7993,
      "khuathimnak": 7994,
      "duhzia": 7995,
      "uksung": 7996,
      "innkil": 7997,
      "innleng": 7998,
      "innteek": 7999,
      "khatseh": 8000,
      "fehsal": 8001,
      "ṭhatu": 8002,
      "ciinmi": 8003,
      "ciinnak": 8004,
      "Anmaió": 8005,
      "neiah": 8006,
      "neiter": 8007,
      "neituih": 8008,
      "neilotu": 8009,
      "solh": 8010,
      "Mithiang": 8011,
      "Mizan": 8012,
      "Mifel": 8013,
      "Mijamin": 8014,
      "vad": 8015,
      "vaca": 8016,
      "thler": 8017,
      "salkhawngtu": 8018,
      "thilsia": 8019,
      "Nazi": 8020,
      "haimi": 8021,
      "ziangin": 8022,
      "ziangthil": 8023,
      "ziangthawn": 8024,
      "rakh": 8025,
      "awkzia": 8026,
      "nuar": 8027,
      "awmvang": 8028,
      "sualzia": 8029,
      "sualmawhnak": 8030,
      "thinṭeu": 8031,
      "Jeshim": 8032,
      "puhmawh": 8033,
      "thiamcoter": 8034,
      "phunthum": 8035,
      "phunhnam": 8036,
      "thom": 8037,
      "thotertu": 8038,
      "tholome": 8039,
      "liah": 8040,
      "nunhar": 8041,
      "nunphung": 8042,
      "thlunter": 8043,
      "hramih": 8044,
      "hramhring": 8045,
      "hramthokin": 8046,
      "theihnik": 8047,
      "theihfiangnak": 8048,
      "hmaikum": 8049,
      "cangdawl": 8050,
      "hmunṭhing": 8051,
      "hmunzakip": 8052,
      "roi": 8053,
      "lukham": 8054,
      "luruh": 8055,
      "tama": 8056,
      "sanli": 8057,
      "santlaihnak": 8058,
      "thluhnak": 8059,
      "tumter": 8060,
      "tumzia": 8061,
      "ṭongtam": 8062,
      "iakim": 8063,
      "hmuhsuak": 8064,
      "vantlolak": 8065,
      "Jot": 8066,
      "Joiakim": 8067,
      "ralkapbu": 8068,
      "aba": 8069,
      "abel": 8070,
      "thlahthlam": 8071,
      "Kana": 8072,
      "sentet": 8073,
      "thatmi": 8074,
      "tlangsuak": 8075,
      "hminsaal": 8076,
      "tinmi": 8077,
      "ṭhenmi": 8078,
      "tohnak": 8079,
      "todan": 8080,
      "langfiang": 8081,
      "hobe": 8082,
      "sunmi": 8083,
      "sunsak": 8084,
      "sunthat": 8085,
      "hrindang": 8086,
      "thangih": 8087,
      "deur": 8088,
      "debar": 8089,
      "daimon": 8090,
      "sawntu": 8091,
      "thianglo": 8092,
      "kutzeng": 8093,
      "meifi": 8094,
      "meivanmi": 8095,
      "cammi": 8096,
      "ṭhatter": 8097,
      "ṭhattertu": 8098,
      "retsak": 8099,
      "sawmnak": 8100,
      "puanfeem": 8101,
      "hlorh": 8102,
      "bohthlek": 8103,
      "zohter": 8104,
      "zohsal": 8105,
      "zohta": 8106,
      "ruahciami": 8107,
      "ruahthiamnak": 8108,
      "hlantiang": 8109,
      "Ziangtiih": 8110,
      "Ziangtal": 8111,
      "hngin": 8112,
      "hngeh": 8113,
      "Amahte": 8114,
      "takpum": 8115,
      "dammi": 8116,
      "damteih": 8117,
      "ciatu": 8118,
      "Thiati": 8119,
      "daanah": 8120,
      "zingah": 8121,
      "zingmi": 8122,
      "hruaisualtu": 8123,
      "Thawmvang": 8124,
      "ṭihnunnak": 8125,
      "ṭihhrut": 8126,
      "rinhmainak": 8127,
      "siatsuahmi": 8128,
      "ratsal": 8129,
      "thingphun": 8130,
      "thingtan": 8131,
      "thinghring": 8132,
      "thingthling": 8133,
      "tuuruun": 8134,
      "firah": 8135,
      "sutmi": 8136,
      "zuut": 8137,
      "deuhin": 8138,
      "deuhte": 8139,
      "tuarih": 8140,
      "eus": 8141,
      "Zohar": 8142,
      "Zofar": 8143,
      "ruatin": 8144,
      "ruatih": 8145,
      "ruatta": 8146,
      "thahter": 8147,
      "thahiah": 8148,
      "cawmi": 8149,
      "Tivakap": 8150,
      "Tiberi": 8151,
      "adad": 8152,
      "dilih": 8153,
      "dilsak": 8154,
      "zumzet": 8155,
      "khamnak": 8156,
      "caancaan": 8157,
      "Ammishaddai": 8158,
      "lonnak": 8159,
      "fimter": 8160,
      "baptis": 8161,
      "bazzar": 8162,
      "cati": 8163,
      "cauk": 8164,
      "capo": 8165,
      "beeng": 8166,
      "bekai": 8167,
      "isat": 8168,
      "Thusia": 8169,
      "Thutheitu": 8170,
      "siartu": 8171,
      "lenglamah": 8172,
      "kezung": 8173,
      "kezeng": 8174,
      "thianghlimtertu": 8175,
      "Elizur": 8176,
      "kaipi": 8177,
      "kaiter": 8178,
      "thangṭhattu": 8179,
      "cakzetzet": 8180,
      "kumkhuain": 8181,
      "Leiro": 8182,
      "Leiba": 8183,
      "Shah": 8184,
      "faath": 8185,
      "Leeng": 8186,
      "Leenkolh": 8187,
      "hrilzo": 8188,
      "hrilciami": 8189,
      "hnihsuah": 8190,
      "suiṭhi": 8191,
      "suikheng": 8192,
      "Betha": 8193,
      "Beunak": 8194,
      "Nizarh": 8195,
      "cemta": 8196,
      "rualle": 8197,
      "rualtein": 8198,
      "hniang": 8199,
      "diriamnak": 8200,
      "darih": 8201,
      "khol": 8202,
      "khohnak": 8203,
      "khohriik": 8204,
      "hlathiam": 8205,
      "sham": 8206,
      "remhmui": 8207,
      "ṭulzet": 8208,
      "vivotu": 8209,
      "tanmi": 8210,
      "Somei": 8211,
      "thihsanmi": 8212,
      "mangṭam": 8213,
      "kulnak": 8214,
      "thath": 8215,
      "Ralvengtu": 8216,
      "lungawiin": 8217,
      "lungawitu": 8218,
      "fanghma": 8219,
      "retu": 8220,
      "Milkom": 8221,
      "ṭaamsawl": 8222,
      "Khawri": 8223,
      "Khawfing": 8224,
      "Hma": 8225,
      "Hmaiah": 8226,
      "mawimi": 8227,
      "mawitawk": 8228,
      "mawizetih": 8229,
      "hleikua": 8230,
      "hleithumnak": 8231,
      "thlizil": 8232,
      "thinhengin": 8233,
      "thinhengtertu": 8234,
      "bua": 8235,
      "buuk": 8236,
      "buber": 8237,
      "phahmi": 8238,
      "Vanruah": 8239,
      "reizet": 8240,
      "letsarih": 8241,
      "thlaknak": 8242,
      "natsat": 8243,
      "taanter": 8244,
      "taansan": 8245,
      "khuhnakah": 8246,
      "taanglo": 8247,
      "himter": 8248,
      "hrangzet": 8249,
      "tiamta": 8250,
      "cuangmi": 8251,
      "Pisidia": 8252,
      "catlaang": 8253,
      "hlonsak": 8254,
      "Thilnung": 8255,
      "Thildik": 8256,
      "Moladah": 8257,
      "kaihreng": 8258,
      "phangin": 8259,
      "Salek": 8260,
      "taksapum": 8261,
      "thlacammi": 8262,
      "sinakih": 8263,
      "phuangin": 8264,
      "zawnruah": 8265,
      "zawnruat": 8266,
      "Jehoad": 8267,
      "Jehozabad": 8268,
      "khunghar": 8269,
      "kiltupa": 8270,
      "petupa": 8271,
      "Bethpe": 8272,
      "Bethshan": 8273,
      "makzetmi": 8274,
      "phumta": 8275,
      "burbur": 8276,
      "samsaal": 8277,
      "Lungpuk": 8278,
      "Lungkimnak": 8279,
      "athea": 8280,
      "thawhtertu": 8281,
      "Manahath": 8282,
      "ṭhangmi": 8283,
      "hleihnihnak": 8284,
      "Efah": 8285,
      "Efer": 8286,
      "pehtlaihnak": 8287,
      "Meun": 8288,
      "Melek": 8289,
      "Merab": 8290,
      "Mefaath": 8291,
      "Cazual": 8292,
      "Caponak": 8293,
      "sinsinnak": 8294,
      "ṭangkhawm": 8295,
      "cutawkin": 8296,
      "ruhter": 8297,
      "thirhri": 8298,
      "Koz": 8299,
      "cihmi": 8300,
      "cihmit": 8301,
      "Assir": 8302,
      "kauzet": 8303,
      "Shethar": 8304,
      "Shedeur": 8305,
      "sahring": 8306,
      "sahtan": 8307,
      "ngamnak": 8308,
      "fingfingih": 8309,
      "Harsha": 8310,
      "Harod": 8311,
      "zungthiamnak": 8312,
      "Nangmaió": 8313,
      "hnongta": 8314,
      "zikmi": 8315,
      "Abiel": 8316,
      "Abidan": 8317,
      "hriammi": 8318,
      "Tuihṭum": 8319,
      "tunrel": 8320,
      "tunote": 8321,
      "tarpa": 8322,
      "lenhmui": 8323,
      "Ashan": 8324,
      "Nebaioth": 8325,
      "ṭumah": 8326,
      "ramṭhingih": 8327,
      "thimzet": 8328,
      "Baalzeb": 8329,
      "Zankhat": 8330,
      "Arkhi": 8331,
      "Ararat": 8332,
      "Arvad": 8333,
      "luahmi": 8334,
      "Bartholome": 8335,
      "timtuahnak": 8336,
      "timlaam": 8337,
      "tawhram": 8338,
      "tawpir": 8339,
      "luattermi": 8340,
      "khualtlawn": 8341,
      "Ahira": 8342,
      "Ahiman": 8343,
      "satcat": 8344,
      "Lamhlatpi": 8345,
      "pommi": 8346,
      "kimvelih": 8347,
      "taktakmi": 8348,
      "neemnak": 8349,
      "mualrawn": 8350,
      "khuimi": 8351,
      "keneh": 8352,
      "Inntek": 8353,
      "Hmunkhat": 8354,
      "thlong": 8355,
      "thuamhnaw": 8356,
      "Lod": 8357,
      "Lodebar": 8358,
      "ṭhitsak": 8359,
      "famkimin": 8360,
      "luanglu": 8361,
      "cawmdawl": 8362,
      "zuahmi": 8363,
      "thuknak": 8364,
      "tirhsiang": 8365,
      "ṭhawnter": 8366,
      "Hanamel": 8367,
      "mineinung": 8368,
      "tawizet": 8369,
      "ṭaangphaw": 8370,
      "suahpitu": 8371,
      "Shemariah": 8372,
      "Shamir": 8373,
      "eekdawm": 8374,
      "ṭhekdarhtu": 8375,
      "naim": 8376,
      "naizet": 8377,
      "Voithum": 8378,
      "mifimzet": 8379,
      "apmi": 8380,
      "lukolh": 8381,
      "lukuun": 8382,
      "khaimi": 8383,
      "khaitu": 8384,
      "panhes": 8385,
      "nahsuahnak": 8386,
      "ṭia": 8387,
      "ṭiam": 8388,
      "ṭikal": 8389,
      "zuamtu": 8390,
      "tualih": 8391,
      "Salnu": 8392,
      "Sallu": 8393,
      "kuansal": 8394,
      "vaikan": 8395,
      "Mahlon": 8396,
      "ṭemmi": 8397,
      "Pethahiah": 8398,
      "khencih": 8399,
      "Sardis": 8400,
      "tluangzet": 8401,
      "tluangkhawng": 8402,
      "helhlong": 8403,
      "Rezon": 8404,
      "Sunṭam": 8405,
      "tlawngkhen": 8406,
      "Hrambur": 8407,
      "pialtertu": 8408,
      "Thinnau": 8409,
      "suhmi": 8410,
      "farnuseu": 8411,
      "Gerizim": 8412,
      "hrolhnak": 8413,
      "Fimkhur": 8414,
      "Negeb": 8415,
      "Rehoboth": 8416,
      "Gideoni": 8417,
      "Lisias": 8418,
      "Lidda": 8419,
      "Khuitawkah": 8420,
      "thluasuahtu": 8421,
      "Hnar": 8422,
      "Hnaset": 8423,
      "liamtu": 8424,
      "liamzo": 8425,
      "daarṭhuam": 8426,
      "Runnak": 8427,
      "bawhnak": 8428,
      "Matthat": 8429,
      "Tob": 8430,
      "Togar": 8431,
      "thlirnak": 8432,
      "Hananel": 8433,
      "Kareah": 8434,
      "Siatsuahtu": 8435,
      "leengah": 8436,
      "leengrual": 8437,
      "khihhmuhtu": 8438,
      "thletnak": 8439,
      "Golan": 8440,
      "Huatnak": 8441,
      "Hushim": 8442,
      "aipuangte": 8443,
      "buaipi": 8444,
      "Javan": 8445,
      "Jaakan": 8446,
      "vorhmi": 8447,
      "dehtu": 8448,
      "hnarthlaih": 8449,
      "tawlrelmi": 8450,
      "Daiziar": 8451,
      "mothar": 8452,
      "mopuai": 8453,
      "simfiangtu": 8454,
      "Jabez": 8455,
      "phentu": 8456,
      "Azgad": 8457,
      "hawizawng": 8458,
      "rawhmi": 8459,
      "tihrim": 8460,
      "Mitthli": 8461,
      "sendupmi": 8462,
      "khirhsal": 8463,
      "Gaash": 8464,
      "Ninghang": 8465,
      "Nauhakpa": 8466,
      "siimtu": 8467,
      "Thuphanper": 8468,
      "teptu": 8469,
      "ṭhantertu": 8470,
      "khuitawkih": 8471,
      "Keturah": 8472,
      "Tlar": 8473,
      "mupi": 8474,
      "baalmi": 8475,
      "baaltertu": 8476,
      "Keniz": 8477,
      "zuukin": 8478,
      "taangsunmi": 8479,
      "tlasammi": 8480,
      "Akzib": 8481,
      "Tuahtu": 8482,
      "Tuahmawh": 8483,
      "ṭamsawl": 8484,
      "sunloihmi": 8485,
      "sunloihtu": 8486,
      "kutzungthiam": 8487,
      "Thlaithar": 8488,
      "Riahnak": 8489,
      "Rizpah": 8490,
      "kelkawm": 8491,
      "luarter": 8492,
      "vuun": 8493,
      "vuinak": 8494,
      "Ishvi": 8495,
      "sualralnak": 8496,
      "pumkhawmmi": 8497,
      "mawrmi": 8498,
      "thangsiattu": 8499,
      "fahniang": 8500,
      "zuangmi": 8501,
      "Tirhthlahmi": 8502,
      "sangsangin": 8503,
      "vansaangin": 8504,
      "Faphir": 8505,
      "Fangteel": 8506,
      "Zikri": 8507,
      "dirhthlak": 8508,
      "phiatfai": 8509,
      "Upabik": 8510,
      "hnimmi": 8511,
      "thuukpi": 8512,
      "Shobab": 8513,
      "Shobak": 8514,
      "Nomnak": 8515,
      "Rulpi": 8516,
      "Sele": 8517,
      "Felzet": 8518,
      "Rabbi": 8519,
      "kothrolh": 8520,
      "cangannak": 8521,
      "Hmuhnak": 8522,
      "Awkaa": 8523,
      "Ciing": 8524,
      "Imnah": 8525,
      "Langta": 8526,
      "cokrawi": 8527,
      "Netabik": 8528,
      "Paltiel": 8529,
      "Jashobe": 8530,
      "Hosanna": 8531,
      "Mina": 8532,
      "Tahṭhimnak": 8533,
      "Tahpanhes": 8534,
      "gedi": 8535,
      "hrelhmi": 8536,
      "suaimi": 8537,
      "Buz": 8538,
      "Mikloth": 8539,
      "Helon": 8540,
      "Hegai": 8541,
      "rilhbah": 8542,
      "hrawlnak": 8543,
      "baaktu": 8544,
      "Malkhiel": 8545,
      "Faale": 8546,
      "Kedemoth": 8547,
      "Jokshan": 8548,
      "Elizafan": 8549,
      "Nekoda": 8550,
      "Sumtuah": 8551,
      "Shimshai": 8552,
      "Zakia": 8553,
      "Ṭaangthlaih": 8554,
      "million": 8555,
      "khortu": 8556,
      "khawkhanmi": 8557,
      "zaatum": 8558,
      "Nasazet": 8559,
      "Abinoam": 8560,
      "Tlunlam": 8561,
      "Hnangamnak": 8562,
      "Ibzan": 8563,
      "Ibleam": 8564,
      "Meholah": 8565,
      "Nergal": 8566,
      "Sunglawi": 8567,
      "ngilneihnak": 8568,
      "hmuhhnganah": 8569,
      "mawhthluktu": 8570,
      "hlohralter": 8571,
      "Bilhan": 8572,
      "Hulhliap": 8573,
      "Sibbekai": 8574,
      "deengthat": 8575,
      "deengkuai": 8576,
      "nompi": 8577,
      "Hlingbur": 8578,
      "Zered": 8579,
      "zuanzam": 8580,
      "Zippor": 8581,
      "Dorkas": 8582,
      "Hnawmpen": 8583,
      "Rukru": 8584,
      "Rilrawngmi": 8585,
      "Ihkhun": 8586,
      "ṭilfuan": 8587,
      "thungrul": 8588,
      "Mishma": 8589,
      "hlimphirte": 8590,
      "rualremte": 8591,
      "Zurishaddai": 8592,
      "hnawtfaimi": 8593,
      "Hmuhsuamnak": 8594,
      "Alexandria": 8595,
      "Khop": 8596,
      "buanra": 8597,
      "sawtnak": 8598,
      "khuilam": 8599,
      "thihpitlak": 8600,
      "Henadad": 8601,
      "Taleti": 8602,
      "tisiatu": 8603,
      "kharhkhum": 8604,
      "hiamhiam": 8605,
      "niarniar": 8606,
      "laicinpi": 8607,
      "tlaksamnak": 8608,
      "Khaldea": 8609,
      "ṭonṭaih": 8610,
      "ṭonṭaihnak": 8611,
      "Aatthlakza": 8612,
      "Burpi": 8613,
      "Deuel": 8614,
      "Nefeg": 8615,
      "Shuthelah": 8616,
      "Seemsuahtu": 8617,
      "dukdi": 8618,
      "simsungnak": 8619,
      "khawfingcat": 8620,
      "Mattathias": 8621,
      "Zarefath": 8622,
      "Potifar": 8623,
      "Ahoh": 8624,
      "Itthat": 8625,
      "Onesimas": 8626,
      "Pulhnat": 8627,
      "phuhrun": 8628,
      "khuihman": 8629,
      "Zirhtu": 8630,
      "Giddel": 8631,
      "Zanvarte": 8632,
      "Tangdornak": 8633,
      "Helez": 8634,
      "hngirhngir": 8635,
      "duahdo": 8636,
      "meihlio": 8637,
      "tiimlaam": 8638,
      "thlurhri": 8639,
      "phelhsolh": 8640,
      "Siloam": 8641,
      "nuangfung": 8642,
      "Khumpinu": 8643,
      "Elealeh": 8644,
      "khawlairel": 8645,
      "Pedahzur": 8646,
      "Azubah": 8647,
      "Arimathea": 8648,
      "Bamoth": 8649,
      "Binea": 8650,
      "Dishan": 8651,
      "Evilmero": 8652,
      "Elhanan": 8653,
      "Guni": 8654,
      "Hmanseh": 8655,
      "Khimham": 8656,
      "Lydia": 8657,
      "Luruh": 8658,
      "Okhran": 8659,
      "Phaarnat": 8660,
      "Rannung": 8661,
      "Tawhawknak": 8662,
      "lethmat": 8663,
      "halhsik": 8664,
      "khaberuh": 8665,
      "Paseah": 8666,
      "safaira": 8667,
      "lungthlitum": 8668,
      "Jeshimoth": 8669,
      "Thiatira": 8670,
      "Tiberias": 8671,
      "baptistma": 8672,
      "Bethaven": 8673,
      "Salekah": 8674,
      "Baalzebub": 8675,
      "Bartholomeo": 8676,
      "Togarmah": 8677,
      "Jashobeam": 8678,
      "Evilmerodak": 8679,
      ".]": 8680,
      "25": 8681,
      "30": 8682,
      "45": 8683,
      "52": 8684,
      "56": 8685,
      "At": 8686,
      "Av": 8687,
      "Ail": 8688,
      "Asen": 8689,
      "Adon": 8690,
      "Adiel": 8691,
      "Bang": 8692,
      "Bun": 8693,
      "Bet": 8694,
      "Cawi": 8695,
      "Chi": 8696,
      "Cahnak": 8697,
      "Colh": 8698,
      "Dal": 8699,
      "Dim": 8700,
      "Dong": 8701,
      "Damnak": 8702,
      "Dumah": 8703,
      "Ela": 8704,
      "Esar": 8705,
      "Ebia": 8706,
      "Eben": 8707,
      "Ezem": 8708,
      "Eras": 8709,
      "Fo": 8710,
      "Fan": 8711,
      "Fri": 8712,
      "Foni": 8713,
      "Gah": 8714,
      "Ginn": 8715,
      "Geb": 8716,
      "Guam": 8717,
      "Goi": 8718,
      "Geber": 8719,
      "Geli": 8720,
      "Gannim": 8721,
      "Gatam": 8722,
      "Hawl": 8723,
      "Hlo": 8724,
      "Hum": 8725,
      "Hari": 8726,
      "Hnuai": 8727,
      "Hnik": 8728,
      "Hnah": 8729,
      "Hakhi": 8730,
      "Halah": 8731,
      "Ij": 8732,
      "Iy": 8733,
      "Ikha": 8734,
      "Iri": 8735,
      "Igal": 8736,
      "Jek": 8737,
      "Jarib": 8738,
      "Keh": 8739,
      "Kos": 8740,
      "Kheng": 8741,
      "Kemuel": 8742,
      "Keli": 8743,
      "Lah": 8744,
      "Ling": 8745,
      "Let": 8746,
      "Lain": 8747,
      "Luhnak": 8748,
      "Mai": 8749,
      "Nei": 8750,
      "Nupa": 8751,
      "Nemuel": 8752,
      "Ode": 8753,
      "Ome": 8754,
      "Ph": 8755,
      "Pak": 8756,
      "Pur": 8757,
      "Phan": 8758,
      "Phung": 8759,
      "Phiar": 8760,
      "Pakhatte": 8761,
      "Pom": 8762,
      "Pok": 8763,
      "Phen": 8764,
      "Ris": 8765,
      "Rilh": 8766,
      "Ruf": 8767,
      "Ruun": 8768,
      "Sek": 8769,
      "Sos": 8770,
      "Shua": 8771,
      "Sari": 8772,
      "Shup": 8773,
      "Tat": 8774,
      "Thlah": 8775,
      "Teb": 8776,
      "Tingrisit": 8777,
      "Uthai": 8778,
      "Vo": 8779,
      "Vai": 8780,
      "Vuak": 8781,
      "Zuf": 8782,
      "Ziha": 8783,
      "acu": 8784,
      "aṭha": 8785,
      "bing": 8786,
      "buah": 8787,
      "bli": 8788,
      "bbe": 8789,
      "bzeel": 8790,
      "cau": 8791,
      "chuk": 8792,
      "dawng": 8793,
      "des": 8794,
      "dumter": 8795,
      "duainak": 8796,
      "eeng": 8797,
      "epal": 8798,
      "fon": 8799,
      "fuk": 8800,
      "flet": 8801,
      "feek": 8802,
      "gam": 8803,
      "gas": 8804,
      "gub": 8805,
      "hawp": 8806,
      "hfiah": 8807,
      "ith": 8808,
      "iamin": 8809,
      "jas": 8810,
      "kawt": 8811,
      "khri": 8812,
      "kesh": 8813,
      "kawr": 8814,
      "muang": 8815,
      "muel": 8816,
      "mihlo": 8817,
      "mihngal": 8818,
      "nawng": 8819,
      "nangih": 8820,
      "op": 8821,
      "phim": 8822,
      "res": 8823,
      "rawt": 8824,
      "ref": 8825,
      "tzo": 8826,
      "tawinak": 8827,
      "tangih": 8828,
      "ukan": 8829,
      "vim": 8830,
      "vuan": 8831,
      "wan": 8832,
      "yah": 8833,
      "zawt": 8834,
      "Ṭah": 8835,
      "Ṭum": 8836,
      "Ṭhang": 8837,
      "ṭin": 8838,
      "ana": 8839,
      "annak": 8840,
      "awtein": 8841,
      "ihhmuh": 8842,
      "ihthah": 8843,
      "ihor": 8844,
      "thon": 8845,
      "sip": 8846,
      "sidaan": 8847,
      "cur": 8848,
      "culo": 8849,
      "cuur": 8850,
      "cubangin": 8851,
      "cuzat": 8852,
      "mithiam": 8853,
      "mizar": 8854,
      "misaang": 8855,
      "mizawn": 8856,
      "miborhhlawh": 8857,
      "mipha": 8858,
      "miṭhazet": 8859,
      "misuan": 8860,
      "mithahnak": 8861,
      "mizanah": 8862,
      "mitlasam": 8863,
      "tii": 8864,
      "tisung": 8865,
      "titlang": 8866,
      "tias": 8867,
      "tipang": 8868,
      "titham": 8869,
      "tisualmi": 8870,
      "tius": 8871,
      "tifekfek": 8872,
      "lef": 8873,
      "lethai": 8874,
      "leennak": 8875,
      "awlmi": 8876,
      "hauh": 8877,
      "dingzat": 8878,
      "dingteih": 8879,
      "lomnak": 8880,
      "tuuno": 8881,
      "paal": 8882,
      "pathri": 8883,
      "palap": 8884,
      "ungkung": 8885,
      "hmeh": 8886,
      "hmar": 8887,
      "hmer": 8888,
      "eita": 8889,
      "ngang": 8890,
      "ngeel": 8891,
      "ngeet": 8892,
      "alabas": 8893,
      "aik": 8894,
      "aithok": 8895,
      "aithoknak": 8896,
      "thiat": 8897,
      "thicia": 8898,
      "umdan": 8899,
      "enisia": 8900,
      "hrong": 8901,
      "hrawm": 8902,
      "hrep": 8903,
      "hreen": 8904,
      "khaak": 8905,
      "khapolis": 8906,
      "khim": 8907,
      "khon": 8908,
      "khahnak": 8909,
      "kheb": 8910,
      "nar": 8911,
      "nazet": 8912,
      "Cute": 8913,
      "Cuthluh": 8914,
      "Cubangin": 8915,
      "Cucing": 8916,
      "aret": 8917,
      "arthih": 8918,
      "hiik": 8919,
      "rup": 8920,
      "sinza": 8921,
      "sintupa": 8922,
      "thuruah": 8923,
      "thuruat": 8924,
      "thufiang": 8925,
      "thutheihnak": 8926,
      "thuukmi": 8927,
      "thuthannak": 8928,
      "thupolh": 8929,
      "thuruahdan": 8930,
      "Path": 8931,
      "Paṭhat": 8932,
      "Pasarihnak": 8933,
      "sungtu": 8934,
      "hlau": 8935,
      "hlawk": 8936,
      "ṭhuang": 8937,
      "ṭhut": 8938,
      "ṭhelh": 8939,
      "ṭhulh": 8940,
      "awnthil": 8941,
      "rasal": 8942,
      "saih": 8943,
      "saangah": 8944,
      "saarthih": 8945,
      "tuahsia": 8946,
      "tuahtertu": 8947,
      "ziat": 8948,
      "zias": 8949,
      "ramin": 8950,
      "ramnak": 8951,
      "ramhnen": 8952,
      "ramlak": 8953,
      "ramtin": 8954,
      "ramkau": 8955,
      "ramnuam": 8956,
      "ramoth": 8957,
      "ramtaw": 8958,
      "rammelek": 8959,
      "etnak": 8960,
      "etri": 8961,
      "etabel": 8962,
      "tikos": 8963,
      "theirah": 8964,
      "theitertu": 8965,
      "ilam": 8966,
      "bijah": 8967,
      "ranginn": 8968,
      "faz": 8969,
      "rioth": 8970,
      "rald": 8971,
      "ralpa": 8972,
      "ralneh": 8973,
      "ralnehnak": 8974,
      "ralveng": 8975,
      "Jeka": 8976,
      "Jeuel": 8977,
      "Jetur": 8978,
      "simsin": 8979,
      "simsiat": 8980,
      "simrel": 8981,
      "simciami": 8982,
      "simtermi": 8983,
      "simsungmi": 8984,
      "lathaim": 8985,
      "lungih": 8986,
      "lungrang": 8987,
      "lungsen": 8988,
      "lungtong": 8989,
      "lungtumpi": 8990,
      "hmannak": 8991,
      "hmanter": 8992,
      "bangsehla": 8993,
      "lamhlatpi": 8994,
      "partiam": 8995,
      "khawdang": 8996,
      "khawvan": 8997,
      "khawkulh": 8998,
      "khawsaknak": 8999,
      "khawhlun": 9000,
      "khuasungah": 9001,
      "khuasia": 9002,
      "khuasaknak": 9003,
      "duhtuk": 9004,
      "duhnung": 9005,
      "duhsaknak": 9006,
      "uki": 9007,
      "innlo": 9008,
      "innruang": 9009,
      "innraang": 9010,
      "aumi": 9011,
      "khatin": 9012,
      "zabel": 9013,
      "zaanter": 9014,
      "Kap": 9015,
      "Kaat": 9016,
      "fehta": 9017,
      "fehtlang": 9018,
      "lakso": 9019,
      "lakkir": 9020,
      "ertu": 9021,
      "ereth": 9022,
      "cit": 9023,
      "Anam": 9024,
      "neita": 9025,
      "sos": 9026,
      "soser": 9027,
      "aanah": 9028,
      "kuatnak": 9029,
      "Mithiam": 9030,
      "Mithah": 9031,
      "Miaa": 9032,
      "Mithahnak": 9033,
      "Miletas": 9034,
      "thlemnak": 9035,
      "sala": 9036,
      "saltannak": 9037,
      "thilhlanmi": 9038,
      "kimah": 9039,
      "vekcun": 9040,
      "dangpi": 9041,
      "Nafi": 9042,
      "Naarah": 9043,
      "awhter": 9044,
      "nis": 9045,
      "suahsem": 9046,
      "Sia": 9047,
      "Sio": 9048,
      "Sir": 9049,
      "Siang": 9050,
      "Siddim": 9051,
      "awkil": 9052,
      "nupinu": 9053,
      "dahnak": 9054,
      "tuknak": 9055,
      "laim": 9056,
      "ringzetmi": 9057,
      "vit": 9058,
      "Zia": 9059,
      "Ziza": 9060,
      "sualih": 9061,
      "sualzet": 9062,
      "sualthianfai": 9063,
      "thinnatnak": 9064,
      "thintawi": 9065,
      "thinling": 9066,
      "Jeshan": 9067,
      "puuk": 9068,
      "thiamtlang": 9069,
      "thiamzetmi": 9070,
      "kok": 9071,
      "kota": 9072,
      "sakta": 9073,
      "saksuak": 9074,
      "phunhnih": 9075,
      "tlaseh": 9076,
      "tlavang": 9077,
      "thomi": 9078,
      "tholh": 9079,
      "ṭuantlang": 9080,
      "ṭuansuahmi": 9081,
      "nunnem": 9082,
      "hmuta": 9083,
      "siatvaat": 9084,
      "lawnghi": 9085,
      "thlunsuak": 9086,
      "theihtheinak": 9087,
      "theihsaal": 9088,
      "hmaisia": 9089,
      "hmaisong": 9090,
      "cangtu": 9091,
      "cangzo": 9092,
      "cangsal": 9093,
      "cangvaih": 9094,
      "ropit": 9095,
      "rogel": 9096,
      "tappi": 9097,
      "lemlo": 9098,
      "lemnak": 9099,
      "kumih": 9100,
      "kumpi": 9101,
      "luihlo": 9102,
      "luthlung": 9103,
      "ngaihnak": 9104,
      "suakih": 9105,
      "nungcang": 9106,
      "Juli": 9107,
      "tammi": 9108,
      "tamsawn": 9109,
      "tamdeuh": 9110,
      "sanṭha": 9111,
      "sanlai": 9112,
      "santhum": 9113,
      "santhar": 9114,
      "ikam": 9115,
      "ikuanak": 9116,
      "iksiknak": 9117,
      "cuihsan": 9118,
      "thluhseh": 9119,
      "tumhrim": 9120,
      "tumzetzet": 9121,
      "sangpheng": 9122,
      "ṭongsuak": 9123,
      "ṭongsan": 9124,
      "ṭongmawi": 9125,
      "hmuhhnik": 9126,
      "hmuhdan": 9127,
      "thlalet": 9128,
      "thlazim": 9129,
      "kimtlang": 9130,
      "thlengin": 9131,
      "vanhnuai": 9132,
      "vansaan": 9133,
      "vansaangih": 9134,
      "urtu": 9135,
      "Dabe": 9136,
      "Jog": 9137,
      "Jokheb": 9138,
      "tiangtiang": 9139,
      "Kanah": 9140,
      "kamta": 9141,
      "kamawknak": 9142,
      "rawlci": 9143,
      "rawldar": 9144,
      "tlangter": 9145,
      "tlangrai": 9146,
      "tlangkop": 9147,
      "tlangbol": 9148,
      "hminmi": 9149,
      "tinih": 9150,
      "tinzoh": 9151,
      "hrihram": 9152,
      "hrihhnik": 9153,
      "ṭhenhnih": 9154,
      "tokheng": 9155,
      "langzetmi": 9156,
      "hoter": 9157,
      "suntu": 9158,
      "sunlai": 9159,
      "sunṭam": 9160,
      "hrinsak": 9161,
      "hrinsakmi": 9162,
      "harzia": 9163,
      "thangter": 9164,
      "thangzet": 9165,
      "deek": 9166,
      "hnakua": 9167,
      "hnakruh": 9168,
      "hnakhang": 9169,
      "daimi": 9170,
      "runmi": 9171,
      "sawnter": 9172,
      "sawnta": 9173,
      "kutkhih": 9174,
      "meici": 9175,
      "thawngthawng": 9176,
      "hlimnak": 9177,
      "leicaar": 9178,
      "leilehnak": 9179,
      "retcia": 9180,
      ",’,”": 9181,
      "puanṭha": 9182,
      "puanṭelh": 9183,
      "puanpaate": 9184,
      "thumah": 9185,
      "thumih": 9186,
      "hlotu": 9187,
      "hlosak": 9188,
      "tlakzet": 9189,
      "tlakbeel": 9190,
      "Siangpahrangnu": 9191,
      "bod": 9192,
      "poisat": 9193,
      "zohseh": 9194,
      "Ziangzat": 9195,
      "hngual": 9196,
      "neihnunnak": 9197,
      "neihzat": 9198,
      "rahiah": 9199,
      "taklawngte": 9200,
      "damsak": 9201,
      "damteón": 9202,
      "ciaih": 9203,
      "Thiamnak": 9204,
      "siami": 9205,
      "daantat": 9206,
      "daanterek": 9207,
      "zingkhat": 9208,
      "hruaisualnak": 9209,
      "hruailuttu": 9210,
      "Abba": 9211,
      "Abdi": 9212,
      "The": 9213,
      "Thinn": 9214,
      "uangsuak": 9215,
      "pumte": 9216,
      "pumpek": 9217,
[...]
