{
  "version": "1.0",
  "truncation": null,
  "padding": null,
  "added_tokens": [
    {
      "id": 0,
      "content": "<pad>",
      "single_word": false,
      "lstrip": false,
      "rstrip": false,
      "normalized": false,
      "special": true
    },
    {
      "id": 1,
      "content": "<unk>",
      "single_word": false,
      "lstrip": false,
      "rstrip": false,
      "normalized": false,
      "special": true
    },
    {
      "id": 2,
      "content": "<s>",
      "single_word": false,
      "lstrip": false,
      "rstrip": false,
      "normalized": false,
      "special": true
    },
    {
      "id": 3,
      "content": "</s>",
      "single_word": false,
      "lstrip": false,
      "rstrip": false,
      "normalized": false,
      "special": true
    }
  ],
  "normalizer": null,
  "pre_tokenizer": {
    "type": "Sequence",
    "pretokenizers": [
      {
        "type": "Whitespace"
      },
      {
        "type": "Split",
        "pattern": {
          "Regex": "(?<=[ऀ-ॿ஀-௿฀-๿຀-໿က-႟ក-៿一-鿿꤀-꤯])(?=[A-Za-z0-9])|(?<=[A-Za-z0-9])(?=[ऀ-ॿ஀-௿฀-๿຀-໿က-႟ក-៿一-鿿꤀-꤯])"
        },
        "behavior": "Isolated",
        "invert": false
      }
    ]
  },
  "post_processor": null,
  "decoder": null,
  "model": {
    "type": "BPE",
    "dropout": null,
    "unk_token": "<unk>",
    "continuing_subword_prefix": null,
    "end_of_word_suffix": null,
    "fuse_unk": false,
    "byte_fallback": false,
    "ignore_merges": false,
    "vocab": {
      "<pad>": 0,
      "<unk>": 1,
      "<s>": 2,
      "</s>": 3,
      "!": 4,
      "&": 5,
      "(": 6,
      ")": 7,
      ",": 8,
      "-": 9,
      ".": 10,
      "/": 11,
      "0": 12,
      "1": 13,
      "2": 14,
      "3": 15,
      "4": 16,
      "5": 17,
      "6": 18,
      "7": 19,
      "8": 20,
      "9": 21,
      ":": 22,
      ";": 23,
      "=": 24,
      "?": 25,
      "A": 26,
      "B": 27,
      "C": 28,
      "D": 29,
      "E": 30,
      "F": 31,
      "G": 32,
      "H": 33,
      "I": 34,
      "J": 35,
      "K": 36,
      "L": 37,
      "M": 38,
      "N": 39,
      "O": 40,
      "P": 41,
      "R": 42,
      "S": 43,
      "T": 44,
      "U": 45,
      "W": 46,
      "Y": 47,
      "Z": 48,
      "[": 49,
      "]": 50,
      "a": 51,
      "b": 52,
      "c": 53,
      "d": 54,
      "e": 55,
      "f": 56,
      "g": 57,
      "h": 58,
      "i": 59,
      "j": 60,
      "k": 61,
      "l": 62,
      "m": 63,
      "n": 64,
      "o": 65,
      "p": 66,
      "r": 67,
      "s": 68,
      "t": 69,
      "u": 70,
      "w": 71,
      "y": 72,
      "é": 73,
      "ë": 74,
      "ʼ": 75,
      "–": 76,
      "’": 77,
      "”": 78,
      "an": 79,
      "eu": 80,
      "ng": 81,
      "ar": 82,
      "ka": 83,
      "ang": 84,
      "di": 85,
      "na": 86,
      "ah": 87,
      "eun": 88,
      "sa": 89,
      "ku": 90,
      "al": 91,
      "eh": 92,
      "er": 93,
      "ur": 94,
      "ti": 95,
      "ta": 96,
      "am": 97,
      "tu": 98,
      "keun": 99,
      "ba": 100,
      "anu": 101,
      "ya": 102,
      "ana": 103,
      "en": 104,
      "ma": 105,
      "pi": 106,
      "pa": 107,
      "si": 108,
      "aran": 109,
      "ul": 110,
      "ra": 111,
      "ja": 112,
      "eung": 113,
      "un": 114,
      "us": 115,
      "ara": 116,
      "ki": 117,
      "jeung": 118,
      "el": 119,
      "da": 120,
      "ing": 121,
      "eus": 122,
      "em": 123,
      "lah": 124,
      "eng": 125,
      "ung": 126,
      "wa": 127,
      "nu": 128,
      "nga": 129,
      "ari": 130,
      "teh": 131,
      "du": 132,
      "kal": 133,
      "geus": 134,
      "on": 135,
      "ami": 136,
      "Pang": 137,
      "eran": 138,
      "urang": 139,
      "ny": 140,
      "araneh": 141,
      "Pangeran": 142,
      "il": 143,
      "eta": 144,
      "teu": 145,
      "ga": 146,
      "Kami": 147,
      "ek": 148,
      "uh": 149,
      "Al": 150,
      "Allah": 151,
      "su": 152,
      "ab": 153,
      "aya": 154,
      "ji": 155,
      "es": 156,
      "tan": 157,
      "mah": 158,
      "maraneh": 159,
      "mi": 160,
      "ut": 161,
      "ala": 162,
      "jeun": 163,
      "man": 164,
      "deu": 165,
      "ge": 166,
      "bi": 167,
      "ri": 168,
      "la": 169,
      "et": 170,
      "sar": 171,
      "kur": 172,
      "nya": 173,
      "li": 174,
      "deui": 175,
      "ant": 176,
      "kitu": 177,
      "hi": 178,
      "jal": 179,
      "pang": 180,
      "ong": 181,
      "at": 182,
      "lu": 183,
      "de": 184,
      "per": 185,
      ".”": 186,
      "tang": 187,
      "bakal": 188,
      "os": 189,
      "ema": 190,
      "eur": 191,
      "or": 192,
      "kan": 193,
      "up": 194,
      "om": 195,
      "gi": 196,
      "we": 197,
      "ke": 198,
      "jadi": 199,
      "ci": 200,
      "usti": 201,
      "bu": 202,
      "im": 203,
      "Gusti": 204,
      "maneh": 205,
      "abdi": 206,
      "Sa": 207,
      "pan": 208,
      "elema": 209,
      "Na": 210,
      "it": 211,
      "Is": 212,
      "bal": 213,
      "kudu": 214,
      "ca": 215,
      "bar": 216,
      "kana": 217,
      "jeunna": 218,
      "anana": 219,
      "ko": 220,
      "ne": 221,
      "jelema": 222,
      "rail": 223,
      "aha": 224,
      "Israil": 225,
      "bang": 226,
      "po": 227,
      "in": 228,
      "ban": 229,
      "ha": 230,
      "raja": 231,
      "um": 232,
      "rek": 233,
      "sal": 234,
      "bo": 235,
      "jang": 236,
      "tur": 237,
      "ep": 238,
      "pat": 239,
      "mo": 240,
      "enna": 241,
      "Ku": 242,
      "uk": 243,
      "dina": 244,
      "ter": 245,
      "dah": 246,
      "Ba": 247,
      "bab": 248,
      "kar": 249,
      "eb": 250,
      "ea": 251,
      "jalma": 252,
      "nepi": 253,
      "ieu": 254,
      "angan": 255,
      "angg": 256,
      "maranehna": 257,
      "tina": 258,
      "moal": 259,
      "Mant": 260,
      "ali": 261,
      "Mantenna": 262,
      "keur": 263,
      "wi": 264,
      "kab": 265,
      "as": 266,
      "hiji": 267,
      "tos": 268,
      "bangsa": 269,
      "Ka": 270,
      "do": 271,
      "sing": 272,
      "ula": 273,
      "luy": 274,
      "sina": 275,
      "kuring": 276,
      "sarta": 277,
      "war": 278,
      "kna": 279,
      "tuluy": 280,
      "bae": 281,
      "uku": 282,
      "ud": 283,
      "ama": 284,
      "put": 285,
      "bisa": 286,
      "bari": 287,
      "dinya": 288,
      "ungan": 289,
      "kat": 290,
      "esus": 291,
      "ir": 292,
      "tus": 293,
      "gan": 294,
      "se": 295,
      "Yesus": 296,
      "Ta": 297,
      "para": 298,
      "sabab": 299,
      "eunang": 300,
      "kota": 301,
      "mar": 302,
      "sir": 303,
      "uru": 304,
      "Di": 305,
      "yen": 306,
      "leu": 307,
      "beu": 308,
      "ngal": 309,
      "balan": 310,
      "kara": 311,
      "pul": 312,
      "ot": 313,
      "tanah": 314,
      "ngar": 315,
      "amun": 316,
      "aja": 317,
      "ken": 318,
      "euna": 319,
      "kabeh": 320,
      "Tapi": 321,
      "oge": 322,
      "tem": 323,
      "ngan": 324,
      "gal": 325,
      "aranjeun": 326,
      "pikeun": 327,
      "An": 328,
      "mat": 329,
      "amp": 330,
      "har": 331,
      "enteu": 332,
      "maha": 333,
      "ulah": 334,
      "sim": 335,
      "rah": 336,
      "tar": 337,
      "sang": 338,
      "mu": 339,
      "dua": 340,
      "henteu": 341,
      "ju": 342,
      "wan": 343,
      "san": 344,
      "naon": 345,
      "bah": 346,
      "Mu": 347,
      "anjeunna": 348,
      "Da": 349,
      "Raja": 350,
      "kawa": 351,
      "oh": 352,
      "rup": 353,
      "dipa": 354,
      "uda": 355,
      "tim": 356,
      "poe": 357,
      "be": 358,
      "ting": 359,
      "ent": 360,
      "anak": 361,
      "Anjeunna": 362,
      "paran": 363,
      "keneh": 364,
      "is": 365,
      "saku": 366,
      "ru": 367,
      "sareng": 368,
      "Ti": 369,
      "ay": 370,
      "Nu": 371,
      "ok": 372,
      "terus": 373,
      "hirup": 374,
      "ber": 375,
      "kurban": 376,
      "tangtu": 377,
      "jo": 378,
      "Eta": 379,
      "dul": 380,
      "Yer": 381,
      "euh": 382,
      "kieu": 383,
      "ak": 384,
      "hal": 385,
      "bat": 386,
      "kaula": 387,
      "Me": 388,
      "dit": 389,
      "tung": 390,
      "ukum": 391,
      "meunang": 392,
      "rang": 393,
      "par": 394,
      "tea": 395,
      "jalan": 396,
      "bak": 397,
      "Daud": 398,
      "sum": 399,
      "Ari": 400,
      "kang": 401,
      "Yo": 402,
      "gala": 403,
      "lo": 404,
      "eug": 405,
      "jen": 406,
      "tempat": 407,
      "Maraneh": 408,
      "pam": 409,
      "salem": 410,
      "tawa": 411,
      "Sang": 412,
      "id": 413,
      "saur": 414,
      "imam": 415,
      "ngah": 416,
      "tapi": 417,
      "putra": 418,
      "!”": 419,
      "kah": 420,
      "tak": 421,
      "antaran": 422,
      "nag": 423,
      "atawa": 424,
      "usuh": 425,
      "umat": 426,
      "to": 427,
      "mur": 428,
      "dang": 429,
      "ben": 430,
      "Geus": 431,
      "aku": 432,
      "euk": 433,
      "ksa": 434,
      "ditu": 435,
      "baris": 436,
      "Yeru": 437,
      "Yerusalem": 438,
      "pari": 439,
      "dosa": 440,
      "dipi": 441,
      "pur": 442,
      "ila": 443,
      "asa": 444,
      "wak": 445,
      "Musa": 446,
      "Yuda": 447,
      "kap": 448,
      "kaom": 449,
      "timbalan": 450,
      "dam": 451,
      "can": 452,
      "puluh": 453,
      "nyi": 454,
      "ero": 455,
      "gu": 456,
      "ehan": 457,
      "supa": 458,
      "jar": 459,
      "Ki": 460,
      "dak": 461,
      "gung": 462,
      "jangji": 463,
      "sor": 464,
      "lantaran": 465,
      "aho": 466,
      "Anu": 467,
      "arita": 468,
      "dis": 469,
      "parantos": 470,
      "Bait": 471,
      "mana": 472,
      "wewe": 473,
      "mang": 474,
      "entah": 475,
      "dulur": 476,
      "Mesir": 477,
      "?”": 478,
      "kon": 479,
      "taun": 480,
      "tuh": 481,
      "hat": 482,
      "Sanggeus": 483,
      "lang": 484,
      "caya": 485,
      "pin": 486,
      "masing": 487,
      "kami": 488,
      "ahat": 489,
      "bin": 490,
      "ih": 491,
      "musuh": 492,
      "manu": 493,
      "diba": 494,
      "sam": 495,
      "ris": 496,
      "kaci": 497,
      "Urang": 498,
      "dika": 499,
      "sagala": 500,
      "yang": 501,
      "ik": 502,
      "damel": 503,
      "ran": 504,
      "uhun": 505,
      "enjo": 506,
      "go": 507,
      "matak": 508,
      "sih": 509,
      "Ab": 510,
      "tilu": 511,
      "awewe": 512,
      "wal": 513,
      "mul": 514,
      "dom": 515,
      "lain": 516,
      "ngara": 517,
      "eut": 518,
      "ayeuna": 519,
      "ker": 520,
      "Lamun": 521,
      "eg": 522,
      "parin": 523,
      "ping": 524,
      "adi": 525,
      "datang": 526,
      "Kris": 527,
      "tun": 528,
      "ongan": 529,
      "unan": 530,
      "barang": 531,
      "jur": 532,
      "wang": 533,
      "supaya": 534,
      "urut": 535,
      "eula": 536,
      "kacida": 537,
      "jero": 538,
      "lamun": 539,
      "nar": 540,
      "pe": 541,
      "sana": 542,
      "batur": 543,
      "nyar": 544,
      "bala": 545,
      "warga": 546,
      "Kristus": 547,
      "bur": 548,
      "unung": 549,
      "sorangan": 550,
      "Wal": 551,
      "wih": 552,
      "jaan": 553,
      "tukang": 554,
      "was": 555,
      "pu": 556,
      "dieu": 557,
      "alah": 558,
      "boga": 559,
      "engan": 560,
      "pas": 561,
      "jan": 562,
      "deg": 563,
      "waktu": 564,
      "nyieun": 565,
      "dih": 566,
      "enge": 567,
      "mil": 568,
      "taya": 569,
      "percaya": 570,
      "nan": 571,
      "nabi": 572,
      "Si": 573,
      "Pa": 574,
      "brah": 575,
      "elas": 576,
      "ngaran": 577,
      "ebut": 578,
      "Maha": 579,
      "pup": 580,
      "gawe": 581,
      "unya": 582,
      "mer": 583,
      "ampah": 584,
      "aman": 585,
      "dahar": 586,
      "kumaha": 587,
      "ela": 588,
      "murid": 589,
      "tet": 590,
      "ngu": 591,
      "emah": 592,
      "imah": 593,
      "imbalan": 594,
      "Man": 595,
      "eup": 596,
      "pal": 597,
      "suci": 598,
      "anggur": 599,
      "omong": 600,
      "wat": 601,
      "dia": 602,
      "bade": 603,
      "pisan": 604,
      "utra": 605,
      "leuwih": 606,
      "pra": 607,
      "bakti": 608,
      "Bapa": 609,
      "Ieu": 610,
      "wuh": 611,
      "amet": 612,
      "Dina": 613,
      "bara": 614,
      "keunana": 615,
      "bul": 616,
      "saha": 617,
      "kawas": 618,
      "gar": 619,
      "sangkan": 620,
      "manusa": 621,
      "lir": 622,
      "angkat": 623,
      "sakumaha": 624,
      "emb": 625,
      "Maneh": 626,
      "boh": 627,
      "ni": 628,
      "han": 629,
      "men": 630,
      "cara": 631,
      "katu": 632,
      "ora": 633,
      "kawasa": 634,
      "dar": 635,
      "eunana": 636,
      "juh": 637,
      "Le": 638,
      "sato": 639,
      "hate": 640,
      "uar": 641,
      "ram": 642,
      "sejen": 643,
      "geu": 644,
      "dic": 645,
      "heula": 646,
      "balad": 647,
      "domba": 648,
      "re": 649,
      "sur": 650,
      "altar": 651,
      "Bar": 652,
      "dunya": 653,
      "ahan": 654,
      "dan": 655,
      "sakur": 656,
      "jahat": 657,
      "sak": 658,
      "pama": 659,
      "engke": 660,
      "Kitu": 661,
      "cai": 662,
      "lala": 663,
      "ahu": 664,
      "sup": 665,
      "ahir": 666,
      "tam": 667,
      "hayang": 668,
      "ngala": 669,
      "diri": 670,
      "tih": 671,
      "opat": 672,
      "Ama": 673,
      "bere": 674,
      "anjeun": 675,
      "bumi": 676,
      "saper": 677,
      "eleh": 678,
      "ngag": 679,
      "Jal": 680,
      "batu": 681,
      "Sim": 682,
      "ingpin": 683,
      "manehna": 684,
      "rupa": 685,
      "nang": 686,
      "ura": 687,
      "Su": 688,
      "salah": 689,
      "Abdi": 690,
      "mara": 691,
      "jalmi": 692,
      "weng": 693,
      "perang": 694,
      "pangan": 695,
      "hade": 696,
      "nagri": 697,
      "loba": 698,
      "karuhun": 699,
      "sada": 700,
      "Maranehna": 701,
      "bener": 702,
      "uhur": 703,
      "ceuk": 704,
      "eusi": 705,
      "ahna": 706,
      "sakabeh": 707,
      "turunan": 708,
      "Aya": 709,
      "Sab": 710,
      "arek": 711,
      "parentah": 712,
      "Eli": 713,
      "angga": 714,
      "jara": 715,
      "nimbalan": 716,
      "ngi": 717,
      "lima": 718,
      "sala": 719,
      "kung": 720,
      "num": 721,
      "saru": 722,
      "ro": 723,
      "ser": 724,
      "sul": 725,
      "yar": 726,
      "Yahu": 727,
      "iji": 728,
      "Yahudi": 729,
      "lan": 730,
      "urun": 731,
      "atur": 732,
      "gul": 733,
      "kalaku": 734,
      "pes": 735,
      "emas": 736,
      "mari": 737,
      "eja": 738,
      "kir": 739,
      "Sing": 740,
      "nagara": 741,
      "lalaki": 742,
      "ged": 743,
      "ning": 744,
      "jieun": 745,
      "dara": 746,
      "sara": 747,
      "tara": 748,
      "Ay": 749,
      "Agung": 750,
      "beunang": 751,
      "Pi": 752,
      "teng": 753,
      "sapi": 754,
      "yun": 755,
      "kali": 756,
      "Saul": 757,
      "tia": 758,
      "tab": 759,
      "dep": 760,
      "sieun": 761,
      "wasa": 762,
      "yana": 763,
      "arun": 764,
      "kersa": 765,
      "tujuh": 766,
      "make": 767,
      "paeh": 768,
      "Jalma": 769,
      "pada": 770,
      "eda": 771,
      "nyaho": 772,
      "pamingpin": 773,
      "dung": 774,
      "Saur": 775,
      "Kaula": 776,
      "Bab": 777,
      "gunung": 778,
      "cap": 779,
      "Nya": 780,
      "beulah": 781,
      "angkeun": 782,
      "jaga": 783,
      "ulu": 784,
      "Sabab": 785,
      "luhur": 786,
      "ngur": 787,
      "gede": 788,
      "bagi": 789,
      "tangkal": 790,
      "unj": 791,
      "eman": 792,
      "Seug": 793,
      "wengkon": 794,
      "Lewi": 795,
      "lung": 796,
      "dig": 797,
      "hareup": 798,
      "Mo": 799,
      "kag": 800,
      "Babul": 801,
      "lian": 802,
      "kot": 803,
      "jeng": 804,
      "saurang": 805,
      "lih": 806,
      "La": 807,
      "ten": 808,
      "ngadeg": 809,
      "sumping": 810,
      "alai": 811,
      "Ulah": 812,
      "leung": 813,
      "duh": 814,
      "panjang": 815,
      "lampah": 816,
      "rana": 817,
      "inga": 818,
      "kapala": 819,
      "wewengkon": 820,
      "sakitu": 821,
      "tum": 822,
      "mugi": 823,
      "Nun": 824,
      "dum": 825,
      "gih": 826,
      "anan": 827,
      "embah": 828,
      "alaikat": 829,
      "katut": 830,
      "denge": 831,
      "nurut": 832,
      "miti": 833,
      "berkah": 834,
      "tetep": 835,
      "dipaparin": 836,
      "batan": 837,
      "ayat": 838,
      "Ana": 839,
      "panga": 840,
      "ol": 841,
      "cang": 842,
      "der": 843,
      "te": 844,
      "nun": 845,
      "sok": 846,
      "perkara": 847,
      "ngalahir": 848,
      "Yaku": 849,
      "Suci": 850,
      "Yakub": 851,
      "dos": 852,
      "jum": 853,
      "mun": 854,
      "Mugi": 855,
      "salamet": 856,
      "hukum": 857,
      "seun": 858,
      "jurit": 859,
      "cing": 860,
      "kin": 861,
      "seug": 862,
      "euting": 863,
      "yakeun": 864,
      "sukan": 865,
      "Roh": 866,
      "jangjian": 867,
      "ton": 868,
      "dian": 869,
      "dijieun": 870,
      "Ayeuna": 871,
      "uji": 872,
      "uninga": 873,
      "Ma": 874,
      "cu": 875,
      "me": 876,
      "pun": 877,
      "bapa": 878,
      "geur": 879,
      "pen": 880,
      "arima": 881,
      "lal": 882,
      "maehan": 883,
      "mimiti": 884,
      "keut": 885,
      "muji": 886,
      "Harun": 887,
      "Per": 888,
      "umur": 889,
      "kaluar": 890,
      "kti": 891,
      "unggal": 892,
      "lawang": 893,
      "langit": 894,
      "Sam": 895,
      "enya": 896,
      "Eh": 897,
      "payun": 898,
      "asup": 899,
      "kas": 900,
      "anggeng": 901,
      "warang": 902,
      "welas": 903,
      "tik": 904,
      "mere": 905,
      "ngab": 906,
      "brahala": 907,
      "harita": 908,
      ",”": 909,
      "anggo": 910,
      "sadaya": 911,
      "yu": 912,
      "karana": 913,
      "kul": 914,
      "dipaehan": 915,
      "etan": 916,
      "bas": 917,
      "gol": 918,
      "Putra": 919,
      "arajang": 920,
      "unjuk": 921,
      "pake": 922,
      "sia": 923,
      "dawuh": 924,
      "dir": 925,
      "ngabakti": 926,
      "Barang": 927,
      "pak": 928,
      "nyal": 929,
      "uruk": 930,
      "iling": 931,
      "alik": 932,
      "00": 933,
      "rus": 934,
      "ag": 935,
      "malaikat": 936,
      "kum": 937,
      "kala": 938,
      "eureun": 939,
      "le": 940,
      "karajaan": 941,
      "ilaka": 942,
      "Pel": 943,
      "disina": 944,
      "wab": 945,
      "liah": 946,
      "putrana": 947,
      "Jadi": 948,
      "mam": 949,
      "urkeun": 950,
      "Waler": 951,
      "kalakuan": 952,
      "uluy": 953,
      "co": 954,
      "gen": 955,
      "isu": 956,
      "usna": 957,
      "deukeut": 958,
      "Bi": 959,
      "bon": 960,
      "guh": 961,
      "leb": 962,
      "eneng": 963,
      "ed": 964,
      "terang": 965,
      "Walungan": 966,
      "pant": 967,
      "Kawasa": 968,
      "Tuluy": 969,
      "gana": 970,
      "dibawa": 971,
      "Sul": 972,
      "tah": 973,
      "mawa": 974,
      "dangu": 975,
      "sah": 976,
      "sil": 977,
      "eter": 978,
      "hidep": 979,
      "Suleman": 980,
      "utus": 981,
      "dipake": 982,
      "Kemah": 983,
      "buru": 984,
      "pura": 985,
      "allah": 986,
      "mani": 987,
      "kep": 988,
      "alikna": 989,
      "seuneu": 990,
      "kasa": 991,
      "rahayat": 992,
      "bagian": 993,
      "pah": 994,
      "ulus": 995,
      "eren": 996,
      "ulang": 997,
      "ngaw": 998,
      "juru": 999,
      "roh": 1000,
      "taneuh": 1001,
      "Yus": 1002,
      "pag": 1003,
      "emeh": 1004,
      "ngomong": 1005,
      "sua": 1006,
      "ngarasa": 1007,
      "asal": 1008,
      "gah": 1009,
      "rea": 1010,
      "Hukum": 1011,
      "nenjo": 1012,
      "so": 1013,
      "sem": 1014,
      "pitu": 1015,
      "ding": 1016,
      "nuh": 1017,
      "asih": 1018,
      "euri": 1019,
      "maot": 1020,
      "kedah": 1021,
      "Bet": 1022,
      "Po": 1023,
      "dibere": 1024,
      "hak": 1025,
      "Imam": 1026,
      "lot": 1027,
      "arca": 1028,
      "seja": 1029,
      "ksana": 1030,
      "malah": 1031,
      "mangsa": 1032,
      "derek": 1033,
      "gurun": 1034,
      "sakuliah": 1035,
      "tengah": 1036,
      "jumeneng": 1037,
      "anakna": 1038,
      "Yusup": 1039,
      "peuting": 1040,
      "perak": 1041,
      "oreng": 1042,
      "isti": 1043,
      "waler": 1044,
      "Ibrah": 1045,
      "Ibrahim": 1046,
      "era": 1047,
      "kia": 1048,
      "eto": 1049,
      "Am": 1050,
      "eum": 1051,
      "sisi": 1052,
      "dugi": 1053,
      "Jeung": 1054,
      "peun": 1055,
      "luk": 1056,
      "Ceuk": 1057,
      "amar": 1058,
      "dihukum": 1059,
      "Pelisti": 1060,
      "bana": 1061,
      ".’": 1062,
      "tna": 1063,
      "kula": 1064,
      "karaton": 1065,
      "bung": 1066,
      "je": 1067,
      "sawarga": 1068,
      "maparin": 1069,
      "bulan": 1070,
      "Upama": 1071,
      "acan": 1072,
      "ngandika": 1073,
      "daratang": 1074,
      "kagungan": 1075,
      "saurna": 1076,
      "puputra": 1077,
      "menta": 1078,
      "golongan": 1079,
      "kajadi": 1080,
      "emp": 1081,
      "Jelema": 1082,
      "mas": 1083,
      "basa": 1084,
      "panger": 1085,
      "bea": 1086,
      "jil": 1087,
      "Kitab": 1088,
      "sarua": 1089,
      "rar": 1090,
      "kakawasa": 1091,
      "king": 1092,
      "ngaja": 1093,
      "sanggeus": 1094,
      "elehkeun": 1095,
      "sali": 1096,
      "saban": 1097,
      "saperti": 1098,
      "eres": 1099,
      "nyak": 1100,
      "wetan": 1101,
      "turun": 1102,
      "kiran": 1103,
      "prajurit": 1104,
      "pana": 1105,
      "lis": 1106,
      "dek": 1107,
      "kari": 1108,
      "rag": 1109,
      "mulya": 1110,
      "geura": 1111,
      "tri": 1112,
      "getih": 1113,
      "luar": 1114,
      "upama": 1115,
      "mel": 1116,
      "ngadamel": 1117,
      "galkeun": 1118,
      "Paulus": 1119,
      "Mi": 1120,
      "ingon": 1121,
      "aria": 1122,
      "car": 1123,
      "eura": 1124,
      "baro": 1125,
      "Yor": 1126,
      "pinuh": 1127,
      "Pet": 1128,
      "saderek": 1129,
      "paranti": 1130,
      "weuh": 1131,
      "ngam": 1132,
      "lahir": 1133,
      "panon": 1134,
      "bendu": 1135,
      "leungeun": 1136,
      "indit": 1137,
      "margi": 1138,
      "hu": 1139,
      "sapa": 1140,
      "inget": 1141,
      "embe": 1142,
      "jaman": 1143,
      "Rama": 1144,
      "Teu": 1145,
      "beuki": 1146,
      "wasna": 1147,
      "kumpul": 1148,
      "dal": 1149,
      "keng": 1150,
      "ongkeun": 1151,
      "jenengan": 1152,
      "Poe": 1153,
      "jug": 1154,
      "kam": 1155,
      "kajadian": 1156,
      "Petrus": 1157,
      "Pe": 1158,
      "hara": 1159,
      "sus": 1160,
      "maranehanana": 1161,
      "tangtos": 1162,
      "uragan": 1163,
      "payuneun": 1164,
      "lila": 1165,
      "nah": 1166,
      "pasir": 1167,
      "wani": 1168,
      "barat": 1169,
      "beung": 1170,
      "tas": 1171,
      "pet": 1172,
      "alam": 1173,
      "indung": 1174,
      "epan": 1175,
      "Yosua": 1176,
      "das": 1177,
      "eusik": 1178,
      "jaradi": 1179,
      "panu": 1180,
      "tiasa": 1181,
      "onan": 1182,
      "Ha": 1183,
      "ner": 1184,
      "dewa": 1185,
      "jadikeun": 1186,
      "Juragan": 1187,
      "ruk": 1188,
      "paraeh": 1189,
      "Saha": 1190,
      "angna": 1191,
      "oro": 1192,
      "candak": 1193,
      "erenkeun": 1194,
      "satia": 1195,
      "marentah": 1196,
      "hareupeun": 1197,
      "wung": 1198,
      "diti": 1199,
      "nyan": 1200,
      "milu": 1201,
      "sakuriling": 1202,
      "pangandika": 1203,
      "Ga": 1204,
      "hirupna": 1205,
      "kad": 1206,
      "gandum": 1207,
      "jukan": 1208,
      "beja": 1209,
      "iba": 1210,
      "ling": 1211,
      "Yoh": 1212,
      "kuta": 1213,
      "dag": 1214,
      "enggeus": 1215,
      "Gunung": 1216,
      "belas": 1217,
      "mung": 1218,
      "angsa": 1219,
      "cak": 1220,
      "wis": 1221,
      "jaha": 1222,
      "keusik": 1223,
      "nyang": 1224,
      "salam": 1225,
      "jahatan": 1226,
      "Ar": 1227,
      "pala": 1228,
      "lobana": 1229,
      "semet": 1230,
      "ibarat": 1231,
      "tana": 1232,
      "sauran": 1233,
      "ebu": 1234,
      "ina": 1235,
      "mna": 1236,
      "bareto": 1237,
      "nyaraho": 1238,
      "isuk": 1239,
      "kakawasaan": 1240,
      "arieun": 1241,
      "bok": 1242,
      "cah": 1243,
      "anes": 1244,
      "kakara": 1245,
      "manah": 1246,
      "ngalawan": 1247,
      "mak": 1248,
      "unggul": 1249,
      "ngadenge": 1250,
      "laut": 1251,
      "Yordan": 1252,
      "Sar": 1253,
      "kamar": 1254,
      "pasukan": 1255,
      "kaler": 1256,
      "beuleu": 1257,
      "tungtung": 1258,
      "pupus": 1259,
      "atan": 1260,
      "ngum": 1261,
      "kuat": 1262,
      "ria": 1263,
      "Allahna": 1264,
      "budak": 1265,
      "pangersa": 1266,
      "Epra": 1267,
      "Geura": 1268,
      "but": 1269,
      "ukuman": 1270,
      "Sabalikna": 1271,
      "Nab": 1272,
      "bag": 1273,
      "ngadegkeun": 1274,
      "Wak": 1275,
      "langgeng": 1276,
      "disebut": 1277,
      "manuk": 1278,
      "roti": 1279,
      "kenging": 1280,
      "Aran": 1281,
      "emi": 1282,
      "hasil": 1283,
      "Kudu": 1284,
      "Abi": 1285,
      "wana": 1286,
      "unungan": 1287,
      "jalu": 1288,
      "balik": 1289,
      "kolot": 1290,
      "Moab": 1291,
      "goreng": 1292,
      "mal": 1293,
      "nen": 1294,
      "euweuh": 1295,
      "dicandak": 1296,
      "duit": 1297,
      "abur": 1298,
      "minyak": 1299,
      "kulawarga": 1300,
      "beak": 1301,
      "ere": 1302,
      "amin": 1303,
      "jikan": 1304,
      "El": 1305,
      "kajahatan": 1306,
      "papa": 1307,
      "silih": 1308,
      "sakumna": 1309,
      "nginum": 1310,
      "mariksa": 1311,
      "ibadah": 1312,
      "beur": 1313,
      "ho": 1314,
      "diu": 1315,
      "takeun": 1316,
      "teuing": 1317,
      "rebu": 1318,
      "utusan": 1319,
      "guru": 1320,
      "yong": 1321,
      "kuh": 1322,
      "enteng": 1323,
      "tuhu": 1324,
      "angin": 1325,
      "enang": 1326,
      "araya": 1327,
      "lahan": 1328,
      "sambat": 1329,
      "Aranjeun": 1330,
      "ap": 1331,
      "nul": 1332,
      "nemb": 1333,
      "rasul": 1334,
      "nyo": 1335,
      "sanes": 1336,
      "nam": 1337,
      "perjangjian": 1338,
      "hab": 1339,
      "reu": 1340,
      "eling": 1341,
      "adilan": 1342,
      "pedang": 1343,
      "darenge": 1344,
      "anggakeun": 1345,
      "jaran": 1346,
      "Kumaha": 1347,
      "meter": 1348,
      "jauh": 1349,
      "kidul": 1350,
      "suku": 1351,
      "Kana": 1352,
      "dora": 1353,
      "ngaranna": 1354,
      "ramana": 1355,
      "gedong": 1356,
      "Naha": 1357,
      "cilaka": 1358,
      "nyamin": 1359,
      "kebon": 1360,
      "bareng": 1361,
      "pokna": 1362,
      "bantu": 1363,
      "enta": 1364,
      "esep": 1365,
      "desa": 1366,
      "nurutkeun": 1367,
      "ati": 1368,
      "don": 1369,
      "pati": 1370,
      "sipat": 1371,
      "daharan": 1372,
      "udak": 1373,
      "genep": 1374,
      "Yohanes": 1375,
      "ena": 1376,
      "kaw": 1377,
      "jat": 1378,
      "timbal": 1379,
      "Binyamin": 1380,
      "Mun": 1381,
      "kany": 1382,
      "badega": 1383,
      "Ko": 1384,
      "tacan": 1385,
      "ekel": 1386,
      "mahluk": 1387,
      "pamajikan": 1388,
      "Elisa": 1389,
      "aturan": 1390,
      "Gi": 1391,
      "Kieu": 1392,
      "saya": 1393,
      "bina": 1394,
      "ampura": 1395,
      "jalankeun": 1396,
      "dosana": 1397,
      "rak": 1398,
      "duk": 1399,
      "lak": 1400,
      "pany": 1401,
      "babar": 1402,
      "dadu": 1403,
      "ungel": 1404,
      "antara": 1405,
      "perlu": 1406,
      "sasambat": 1407,
      "ametkeun": 1408,
      "mega": 1409,
      "panto": 1410,
      "Kara": 1411,
      "Para": 1412,
      "kai": 1413,
      "erah": 1414,
      "tin": 1415,
      "kira": 1416,
      "iring": 1417,
      "wates": 1418,
      "jagat": 1419,
      "dana": 1420,
      "reh": 1421,
      "sasa": 1422,
      "enyana": 1423,
      "poek": 1424,
      "hujan": 1425,
      "beb": 1426,
      "pri": 1427,
      "kuda": 1428,
      "aranjeunna": 1429,
      "nye": 1430,
      "Du": 1431,
      "jana": 1432,
      "kadaharan": 1433,
      "nyanggakeun": 1434,
      "Waktu": 1435,
      "gel": 1436,
      "ibu": 1437,
      "jing": 1438,
      "smi": 1439,
      "ngaku": 1440,
      "dut": 1441,
      "ganti": 1442,
      "sumpah": 1443,
      "ditum": 1444,
      ".)": 1445,
      "gon": 1446,
      "kanya": 1447,
      "ngurus": 1448,
      "Edom": 1449,
      "gara": 1450,
      "hukuman": 1451,
      "suka": 1452,
      "Harita": 1453,
      "tari": 1454,
      "anyar": 1455,
      "antep": 1456,
      "berkahan": 1457,
      "Asur": 1458,
      "narajang": 1459,
      "ob": 1460,
      "uel": 1461,
      "walungan": 1462,
      "lianna": 1463,
      "Kanaan": 1464,
      "doraka": 1465,
      "he": 1466,
      "kaya": 1467,
      "gakeun": 1468,
      "bukti": 1469,
      "nyalametkeun": 1470,
      "meun": 1471,
      "eri": 1472,
      "dap": 1473,
      "anggrah": 1474,
      "diserenkeun": 1475,
      "kalawan": 1476,
      "Peti": 1477,
      "hari": 1478,
      "dijadikeun": 1479,
      "bawa": 1480,
      "upami": 1481,
      "waktuna": 1482,
      "cur": 1483,
      "nyarita": 1484,
      "sukur": 1485,
      "Sagala": 1486,
      "uhunkeun": 1487,
      "embung": 1488,
      "Anak": 1489,
      "ron": 1490,
      "sapuluh": 1491,
      "amaah": 1492,
      "udag": 1493,
      "narenjo": 1494,
      "dirina": 1495,
      "Eng": 1496,
      "Ja": 1497,
      "Yeh": 1498,
      "ham": 1499,
      "yan": 1500,
      "geusan": 1501,
      "sangsara": 1502,
      "tamba": 1503,
      "beresih": 1504,
      "kungsi": 1505,
      "Nabi": 1506,
      "benteng": 1507,
      "pep": 1508,
      "euli": 1509,
      "dil": 1510,
      "dija": 1511,
      "erea": 1512,
      "jis": 1513,
      "geged": 1514,
      "ormat": 1515,
      "Yoab": 1516,
      "hatur": 1517,
      "sapertos": 1518,
      "neneda": 1519,
      "ege": 1520,
      "dipang": 1521,
      "kim": 1522,
      "nyebut": 1523,
      "kapal": 1524,
      "baladna": 1525,
      "ningali": 1526,
      "salametan": 1527,
      "Kar": 1528,
      "daek": 1529,
      "kalde": 1530,
      "dipiwarang": 1531,
      "dibasmi": 1532,
      "bong": 1533,
      "ger": 1534,
      "jamaah": 1535,
      "tal": 1536,
      "nyu": 1537,
      "ilana": 1538,
      "cikal": 1539,
      "gandek": 1540,
      "Mena": 1541,
      "serdadu": 1542,
      "pitulung": 1543,
      "jetun": 1544,
      "Te": 1545,
      "ikna": 1546,
      "pami": 1547,
      "ahli": 1548,
      "kubur": 1549,
      "beda": 1550,
      "Perjangjian": 1551,
      "nyandak": 1552,
      "Kota": 1553,
      "Ahi": 1554,
      "duruk": 1555,
      "ngali": 1556,
      "kaaya": 1557,
      "dila": 1558,
      "anat": 1559,
      "pika": 1560,
      "ngahukum": 1561,
      "dahareun": 1562,
      "Moal": 1563,
      "des": 1564,
      "sora": 1565,
      "sasauran": 1566,
      "deuh": 1567,
      "hina": 1568,
      "milik": 1569,
      "Timbalan": 1570,
      "cari": 1571,
      "jenna": 1572,
      "natan": 1573,
      "Naon": 1574,
      "kareta": 1575,
      "mulang": 1576,
      "Menase": 1577,
      "Tang": 1578,
      "Ung": 1579,
      "jud": 1580,
      "pel": 1581,
      "wah": 1582,
      "biasa": 1583,
      "bentang": 1584,
      "konan": 1585,
      "daging": 1586,
      "pung": 1587,
      "Manu": 1588,
      "Malah": 1589,
      "Nang": 1590,
      "jul": 1591,
      "kawis": 1592,
      "sakali": 1593,
      "tuang": 1594,
      "nia": 1595,
      "salaki": 1596,
      "deun": 1597,
      "hur": 1598,
      "lem": 1599,
      "kamulya": 1600,
      "unjukan": 1601,
      "pok": 1602,
      "tambaga": 1603,
      "Kur": 1604,
      "ub": 1605,
      "pikiran": 1606,
      "sarerea": 1607,
      "lum": 1608,
      "udang": 1609,
      "sejenna": 1610,
      "bahan": 1611,
      "ngahiji": 1612,
      "Siria": 1613,
      "salawasna": 1614,
      "panjangna": 1615,
      "baroga": 1616,
      "Mana": 1617,
      "Pan": 1618,
      "Rek": 1619,
      "oba": 1620,
      "ngari": 1621,
      "pagawe": 1622,
      "estu": 1623,
      "adil": 1624,
      "Pikeun": 1625,
      "anggrahan": 1626,
      "In": 1627,
      "Ya": 1628,
      "mika": 1629,
      "incu": 1630,
      "bebas": 1631,
      "ngurban": 1632,
      "pakean": 1633,
      "Nanging": 1634,
      "ceun": 1635,
      "pkeun": 1636,
      "skin": 1637,
      "ani": 1638,
      "dik": 1639,
      "sab": 1640,
      "agama": 1641,
      "Kab": 1642,
      "agung": 1643,
      "saeu": 1644,
      "urus": 1645,
      "kit": 1646,
      "elem": 1647,
      "sud": 1648,
      "kanyaah": 1649,
      "del": 1650,
      "ib": 1651,
      "jung": 1652,
      "ngora": 1653,
      "dira": 1654,
      "papan": 1655,
      "barkeun": 1656,
      "sanajan": 1657,
      "saksi": 1658,
      "Sabot": 1659,
      "pesta": 1660,
      "beuleuman": 1661,
      "pti": 1662,
      "aring": 1663,
      "mata": 1664,
      "maju": 1665,
      "nyus": 1666,
      "miwarang": 1667,
      "leng": 1668,
      "ngang": 1669,
      "kadua": 1670,
      "tiwas": 1671,
      "tanda": 1672,
      "nyaah": 1673,
      "jeneng": 1674,
      "Mugia": 1675,
      "Es": 1676,
      "ambat": 1677,
      "nyum": 1678,
      "paler": 1679,
      "atuh": 1680,
      "empur": 1681,
      "cit": 1682,
      "jarahat": 1683,
      "capkeun": 1684,
      "Amon": 1685,
      "Hi": 1686,
      "dipara": 1687,
      "ngawaler": 1688,
      "Sabat": 1689,
      "dok": 1690,
      "rug": 1691,
      "Karajaan": 1692,
      "Unggal": 1693,
      "Rah": 1694,
      "dangan": 1695,
      "tr": 1696,
      "kuli": 1697,
      "pariksa": 1698,
      "seu": 1699,
      "din": 1700,
      "amb": 1701,
      "ray": 1702,
      "jaksana": 1703,
      "ngadahar": 1704,
      "salal": 1705,
      "Samuel": 1706,
      "ean": 1707,
      "ngin": 1708,
      "marulang": 1709,
      "deuheus": 1710,
      "ceuri": 1711,
      "ewa": 1712,
      "tong": 1713,
      "won": 1714,
      "kurnia": 1715,
      "dahan": 1716,
      "dipika": 1717,
      "milih": 1718,
      "ngutus": 1719,
      "karuhunna": 1720,
      "leungit": 1721,
      "narima": 1722,
      "ukan": 1723,
      "nyawa": 1724,
      "tingali": 1725,
      "Epraim": 1726,
      "palercaya": 1727,
      "Ib": 1728,
      "tup": 1729,
      "yakin": 1730,
      "geb": 1731,
      "perkawis": 1732,
      "weung": 1733,
      "dibu": 1734,
      "midamel": 1735,
      "cageur": 1736,
      "dahal": 1737,
      "Anjeun": 1738,
      "supados": 1739,
      "kalakuanana": 1740,
      "Nyai": 1741,
      "Manusa": 1742,
      "Em": 1743,
      "dari": 1744,
      "pek": 1745,
      "saka": 1746,
      "saenyana": 1747,
      "dakeun": 1748,
      "arin": 1749,
      "barudak": 1750,
      "langkung": 1751,
      "dumeh": 1752,
      "Samaria": 1753,
      "arentah": 1754,
      "naha": 1755,
      "nyor": 1756,
      "ili": 1757,
      "kulon": 1758,
      "lebet": 1759,
      "gegeden": 1760,
      "Sal": 1761,
      "bel": 1762,
      "cor": 1763,
      "leres": 1764,
      "kukuh": 1765,
      "ratus": 1766,
      "emut": 1767,
      "baralik": 1768,
      "urug": 1769,
      "merangan": 1770,
      "Lebak": 1771,
      "hatena": 1772,
      "papakon": 1773,
      "Ye": 1774,
      "aing": 1775,
      "pong": 1776,
      "tali": 1777,
      "diangkat": 1778,
      "najis": 1779,
      "rim": 1780,
      "bodo": 1781,
      "harepan": 1782,
      "Ny": 1783,
      "Pas": 1784,
      "kel": 1785,
      "nung": 1786,
      "son": 1787,
      "kasalah": 1788,
      "alan": 1789,
      "ngayakeun": 1790,
      "teuk": 1791,
      "esar": 1792,
      "cicing": 1793,
      "mulih": 1794,
      "narurut": 1795,
      "Sina": 1796,
      "kanyaho": 1797,
      "saeutik": 1798,
      "kayu": 1799,
      "enan": 1800,
      "gaduh": 1801,
      "gapura": 1802,
      "purah": 1803,
      "ampahkeun": 1804,
      "dawuhan": 1805,
      "reujeung": 1806,
      "deng": 1807,
      "jer": 1808,
      "siki": 1809,
      "min": 1810,
      "Ishak": 1811,
      "tereh": 1812,
      "istri": 1813,
      "Ahab": 1814,
      "Upami": 1815,
      "bet": 1816,
      "iban": 1817,
      "seh": 1818,
      "ngeuna": 1819,
      "sau": 1820,
      "may": 1821,
      "panya": 1822,
      "sumeja": 1823,
      "Sion": 1824,
      "beunghar": 1825,
      "timbalana": 1826,
      "kamulyaan": 1827,
      "Ngan": 1828,
      "Yar": 1829,
      "bus": 1830,
      "emang": 1831,
      "nying": 1832,
      "nyuhunkeun": 1833,
      "esto": 1834,
      "alapan": 1835,
      "bikeun": 1836,
      "jujur": 1837,
      "maratuh": 1838,
      "Elias": 1839,
      "pagunungan": 1840,
      "Ag": 1841,
      "Bala": 1842,
      "gum": 1843,
      "lilana": 1844,
      "yus": 1845,
      "kaku": 1846,
      "sababar": 1847,
      "jaanana": 1848,
      "dat": 1849,
      "mujijat": 1850,
      "arindit": 1851,
      "sababaraha": 1852,
      "His": 1853,
      "Sid": 1854,
      "eusina": 1855,
      "anut": 1856,
      "panggih": 1857,
      "atana": 1858,
      "kabur": 1859,
      "beuh": 1860,
      "sanggakeun": 1861,
      "ngahatur": 1862,
      "bohong": 1863,
      "tiap": 1864,
      "harirup": 1865,
      "Injil": 1866,
      "Pari": 1867,
      "hun": 1868,
      "long": 1869,
      "dipariksa": 1870,
      "kitab": 1871,
      "ngadawuh": 1872,
      "gir": 1873,
      "budal": 1874,
      "Baal": 1875,
      "watara": 1876,
      "anggengna": 1877,
      "Hiskia": 1878,
      "Se": 1879,
      "jam": 1880,
      "tul": 1881,
      "singa": 1882,
      "Kasalametan": 1883,
      "anggap": 1884,
      "dipaparinkeun": 1885,
      "unjukkeun": 1886,
      "Engke": 1887,
      "hamo": 1888,
      "As": 1889,
      "Gila": 1890,
      "Ser": 1891,
      "dalah": 1892,
      "kor": 1893,
      "lar": 1894,
      "raha": 1895,
      "ses": 1896,
      "patan": 1897,
      "wareh": 1898,
      "wartos": 1899,
      "ngaromong": 1900,
      "Yonatan": 1901,
      "wangsul": 1902,
      "salalanggengna": 1903,
      "Gilad": 1904,
      "Ru": 1905,
      "dong": 1906,
      "kemah": 1907,
      "kapi": 1908,
      "eundeun": 1909,
      "bales": 1910,
      "has": 1911,
      "ebus": 1912,
      "leum": 1913,
      "tihang": 1914,
      "Ela": 1915,
      "iasa": 1916,
      "jeg": 1917,
      "arti": 1918,
      "sapanjang": 1919,
      "tata": 1920,
      "dad": 1921,
      "nyari": 1922,
      "caang": 1923,
      "leuweung": 1924,
      "sehat": 1925,
      "Bangsa": 1926,
      "demi": 1927,
      "eul": 1928,
      "duanana": 1929,
      "nyembah": 1930,
      "ngarep": 1931,
      "elemana": 1932,
      "asing": 1933,
      "dungan": 1934,
      "kem": 1935,
      "ret": 1936,
      "katuhu": 1937,
      "diantep": 1938,
      "euning": 1939,
      "sapat": 1940,
      "alus": 1941,
      "migawe": 1942,
      "samemeh": 1943,
      "imahna": 1944,
      "salira": 1945,
      "Ben": 1946,
      "gang": 1947,
      "ral": 1948,
      "sarieun": 1949,
      "wari": 1950,
      "ngaha": 1951,
      "diang": 1952,
      "pis": 1953,
      "siksa": 1954,
      "rasa": 1955,
      "jawab": 1956,
      "bijil": 1957,
      "oskeun": 1958,
      "randa": 1959,
      "pasti": 1960,
      "surat": 1961,
      "ngawula": 1962,
      "Kabeh": 1963,
      "Asa": 1964,
      "awak": 1965,
      "epi": 1966,
      "sik": 1967,
      "gat": 1968,
      "luput": 1969,
      "ompet": 1970,
      "Akang": 1971,
      "puh": 1972,
      "najan": 1973,
      "bad": 1974,
      "ngadangu": 1975,
      "tanggal": 1976,
      "buk": 1977,
      "Sakur": 1978,
      "pulkeun": 1979,
      "ngarah": 1980,
      "hartina": 1981,
      "maraot": 1982,
      "ningal": 1983,
      "Kuring": 1984,
      "atanapi": 1985,
      "Pek": 1986,
      "Tur": 1987,
      "Tim": 1988,
      "kilo": 1989,
      "manten": 1990,
      "buah": 1991,
      "tegal": 1992,
      "ngabela": 1993,
      "Parisi": 1994,
      "Nga": 1995,
      "amat": 1996,
      "ngajar": 1997,
      "eser": 1998,
      "omongan": 1999,
      "panangan": 2000,
      "capan": 2001,
      "karep": 2002,
      "tarompet": 2003,
      "ikrar": 2004,
      "panonpoe": 2005,
      "wanita": 2006,
      "Tan": 2007,
      "gri": 2008,
      "meh": 2009,
      "arkeun": 2010,
      "endah": 2011,
      "panjara": 2012,
      "anggem": 2013,
      "baheula": 2014,
      "digara": 2015,
      "maksud": 2016,
      "itu": 2017,
      "leg": 2018,
      "muru": 2019,
      "kahiji": 2020,
      "ditang": 2021,
      "bakna": 2022,
      "bapana": 2023,
      "pirang": 2024,
      "ngabara": 2025,
      "bijaksana": 2026,
      "pangbakti": 2027,
      "putri": 2028,
      "beura": 2029,
      "duaan": 2030,
      "sampal": 2031,
      "bagja": 2032,
      "Tepangan": 2033,
      "Nebu": 2034,
      "Reh": 2035,
      "hum": 2036,
      "musna": 2037,
      "nur": 2038,
      "ngelehkeun": 2039,
      "dinan": 2040,
      "dibikeun": 2041,
      "sawatara": 2042,
      "tulung": 2043,
      "pikukuh": 2044,
      "ngajalankeun": 2045,
      "pohara": 2046,
      "uksak": 2047,
      "tunkeun": 2048,
      "nandangan": 2049,
      "nembongkeun": 2050,
      "obam": 2051,
      "Agama": 2052,
      "Sum": 2053,
      "Umat": 2054,
      "ngo": 2055,
      "dikan": 2056,
      "dibar": 2057,
      "ditam": 2058,
      "diduruk": 2059,
      "itna": 2060,
      "ukup": 2061,
      "ngalantaran": 2062,
      "ngalakonan": 2063,
      "iaya": 2064,
      "nesar": 2065,
      "resep": 2066,
      "siga": 2067,
      "ulur": 2068,
      "enggon": 2069,
      "ngadarenge": 2070,
      "perwi": 2071,
      "bisaeun": 2072,
      "Dawuh": 2073,
      "dihampura": 2074,
      "kalaparan": 2075,
      "pantes": 2076,
      "kadnesar": 2077,
      "beurang": 2078,
      "Nebukadnesar": 2079,
      "ngalantarankeun": 2080,
      "Mar": 2081,
      "Puji": 2082,
      "senang": 2083,
      "ngem": 2084,
      "dii": 2085,
      "disaur": 2086,
      "sirah": 2087,
      "jual": 2088,
      "pasanggrahan": 2089,
      "percayaan": 2090,
      "Manehna": 2091,
      "linggih": 2092,
      "dalahar": 2093,
      "ce": 2094,
      "keuna": 2095,
      "lam": 2096,
      "ngiring": 2097,
      "erang": 2098,
      "karang": 2099,
      "ebul": 2100,
      "gancang": 2101,
      "kersaeun": 2102,
      "pangajaran": 2103,
      "Yarobam": 2104,
      "kanana": 2105,
      "bojo": 2106,
      "katenjo": 2107,
      "buruan": 2108,
      "nulungan": 2109,
      "kaayaan": 2110,
      "kakuatan": 2111,
      "Kal": 2112,
      "Ra": 2113,
      "jelemana": 2114,
      "okot": 2115,
      "eutan": 2116,
      "katilu": 2117,
      "ungkeun": 2118,
      "ngada": 2119,
      "kalabur": 2120,
      "kurang": 2121,
      "eurkeun": 2122,
      "parabo": 2123,
      "puji": 2124,
      "sadayana": 2125,
      "kotana": 2126,
      "sahiji": 2127,
      "amarah": 2128,
      "Gal": 2129,
      "Hiji": 2130,
      "Ram": 2131,
      "Tem": 2132,
      "memeh": 2133,
      "ug": 2134,
      "utan": 2135,
      "ekan": 2136,
      "sababna": 2137,
      "tanahna": 2138,
      "muka": 2139,
      "dite": 2140,
      "Sime": 2141,
      "lampahkeun": 2142,
      "Bal": 2143,
      "Hay": 2144,
      "pali": 2145,
      "tadi": 2146,
      "pernur": 2147,
      "sumur": 2148,
      "digarawe": 2149,
      "Beja": 2150,
      "no": 2151,
      "ucapan": 2152,
      "ngangkat": 2153,
      "disu": 2154,
      "dipul": 2155,
      "ditar": 2156,
      "gejul": 2157,
      "asan": 2158,
      "wantu": 2159,
      "pinter": 2160,
      "ptis": 2161,
      "jong": 2162,
      "mon": 2163,
      "weleh": 2164,
      "diper": 2165,
      "ahkeun": 2166,
      "jib": 2167,
      "balikna": 2168,
      "neangan": 2169,
      "salom": 2170,
      "dipidamel": 2171,
      "musuhna": 2172,
      "Absalom": 2173,
      "nyarengan": 2174,
      "katujuh": 2175,
      "Lain": 2176,
      "salametkeun": 2177,
      "nyangking": 2178,
      "cahaya": 2179,
      "caricing": 2180,
      "ngabarakti": 2181,
      "perwira": 2182,
      "En": 2183,
      "Ge": 2184,
      "Kor": 2185,
      "Sil": 2186,
      "Tah": 2187,
      "cuk": 2188,
      "dur": 2189,
      "kasam": 2190,
      "sabar": 2191,
      "antos": 2192,
      "bangke": 2193,
      "bahla": 2194,
      "damelan": 2195,
      "uarkeun": 2196,
      "puncak": 2197,
      "nyarahoeun": 2198,
      "kasalahan": 2199,
      "Hal": 2200,
      "taran": 2201,
      "ucap": 2202,
      "satengah": 2203,
      "tadina": 2204,
      "ulyakeun": 2205,
      "wakna": 2206,
      "bisi": 2207,
      "beusi": 2208,
      "Laut": 2209,
      "isukna": 2210,
      "ngumpulkeun": 2211,
      "Ang": 2212,
      "buh": 2213,
      "sung": 2214,
      "wuruk": 2215,
      "kaungel": 2216,
      "diaku": 2217,
      "diberkahan": 2218,
      "sakeun": 2219,
      "amanat": 2220,
      "jaba": 2221,
      "ngadeuheus": 2222,
      "utkeun": 2223,
      "jubah": 2224,
      "manggih": 2225,
      "prak": 2226,
      "nanging": 2227,
      "000": 2228,
      "lebah": 2229,
      "melek": 2230,
      "wungkul": 2231,
      "bebaskeun": 2232,
      "Esau": 2233,
      "Pes": 2234,
      "reur": 2235,
      "upa": 2236,
      "kati": 2237,
      "ditem": 2238,
      "digawe": 2239,
      "didahar": 2240,
      "dibakti": 2241,
      "tay": 2242,
      "entra": 2243,
      "kasus": 2244,
      "tahta": 2245,
      "Yehu": 2246,
      "yuswa": 2247,
      "jamu": 2248,
      "So": 2249,
      "dion": 2250,
      "diutus": 2251,
      "sabalikna": 2252,
      "tulang": 2253,
      "enc": 2254,
      "ngabantu": 2255,
      "amina": 2256,
      "ilea": 2257,
      "lagu": 2258,
      "lawon": 2259,
      "irup": 2260,
      "ngaranan": 2261,
      "baraya": 2262,
      "asalna": 2263,
      "Emor": 2264,
      "nyorang": 2265,
      "Galilea": 2266,
      "Keur": 2267,
      "Tu": 2268,
      "cukup": 2269,
      "gun": 2270,
      "juku": 2271,
      "mali": 2272,
      "ujug": 2273,
      "arep": 2274,
      "kahayang": 2275,
      "diha": 2276,
      "sawareh": 2277,
      "paja": 2278,
      "ungku": 2279,
      "ilu": 2280,
      "epuh": 2281,
      "wargi": 2282,
      "ngaram": 2283,
      "tembok": 2284,
      "jangjikeun": 2285,
      "luhurna": 2286,
      "tumpur": 2287,
      "nerangkeun": 2288,
      "Gad": 2289,
      "pajabat": 2290,
      "Mah": 2291,
      "dalapan": 2292,
      "hormat": 2293,
      "jamp": 2294,
      "non": 2295,
      "osa": 2296,
      "usum": 2297,
      "ngagu": 2298,
      "buangan": 2299,
      "turkeun": 2300,
      "beut": 2301,
      "Yoya": 2302,
      "nangtung": 2303,
      "Jawab": 2304,
      "pagawean": 2305,
      "dinten": 2306,
      "Heb": 2307,
      "Mangga": 2308,
      "deung": 2309,
      "nit": 2310,
      "dingaranan": 2311,
      "makam": 2312,
      "ungkur": 2313,
      "mir": 2314,
      "anten": 2315,
      "bangan": 2316,
      "ngalampahkeun": 2317,
      "ngarebut": 2318,
      "harta": 2319,
      "niat": 2320,
      "basmi": 2321,
      "Mika": 2322,
      "nyokot": 2323,
      "Rubin": 2324,
      "diangken": 2325,
      "awakna": 2326,
      "yi": 2327,
      "kadenge": 2328,
      "nasehat": 2329,
      "sai": 2330,
      "rajana": 2331,
      "miskin": 2332,
      "mantri": 2333,
      "gin": 2334,
      "pamege": 2335,
      "dipilih": 2336,
      "diselehkeun": 2337,
      "pituduh": 2338,
      "bungah": 2339,
      "sakurilingna": 2340,
      "kawin": 2341,
      "Dulur": 2342,
      "Kamar": 2343,
      "ekeun": 2344,
      "kaperlu": 2345,
      "anggeus": 2346,
      "eluk": 2347,
      "kapungkur": 2348,
      "datangkeun": 2349,
      "ninggalkeun": 2350,
      "sobat": 2351,
      "ditumpes": 2352,
      "Hidep": 2353,
      "ngeunaan": 2354,
      "Bejakeun": 2355,
      "Pesta": 2356,
      "Aser": 2357,
      "reng": 2358,
      "ukur": 2359,
      "ngesto": 2360,
      "nat": 2361,
      "nakeun": 2362,
      "badi": 2363,
      "baju": 2364,
      "jih": 2365,
      "tanana": 2366,
      "leutik": 2367,
      "bejaan": 2368,
      "burak": 2369,
      "Tangtu": 2370,
      "pongga": 2371,
      "Paska": 2372,
      "pameget": 2373,
      "Ng": 2374,
      "Pok": 2375,
      "Sat": 2376,
      "diting": 2377,
      "nap": 2378,
      "masih": 2379,
      "ngajaga": 2380,
      "nyarieun": 2381,
      "sual": 2382,
      "poho": 2383,
      "tosna": 2384,
      "tembong": 2385,
      "kurbankeun": 2386,
      "pamarentah": 2387,
      "dibagi": 2388,
      "Bu": 2389,
      "Gol": 2390,
      "Paran": 2391,
      "cek": 2392,
      "les": 2393,
      "pon": 2394,
      "sna": 2395,
      "yah": 2396,
      "kaadilan": 2397,
      "maksa": 2398,
      "oning": 2399,
      "omo": 2400,
      "jangjang": 2401,
      "marenta": 2402,
      "ampu": 2403,
      "handap": 2404,
      "satoan": 2405,
      "sapapanjangna": 2406,
      "beureum": 2407,
      "nyusu": 2408,
      "ngahaturkeun": 2409,
      "Guru": 2410,
      "Juru": 2411,
      "Kala": 2412,
      "dikur": 2413,
      "dijangjikeun": 2414,
      "arasup": 2415,
      "dasar": 2416,
      "ingkar": 2417,
      "ngatur": 2418,
      "arik": 2419,
      "duan": 2420,
      "teras": 2421,
      "leupas": 2422,
      "ditarajang": 2423,
      "dikakeun": 2424,
      "elakan": 2425,
      "tetela": 2426,
      "jeroning": 2427,
      "Turunan": 2428,
      "Be": 2429,
      "Mer": 2430,
      "Tir": 2431,
      "Yis": 2432,
      "jah": 2433,
      "lampu": 2434,
      "kaca": 2435,
      "sae": 2436,
      "sas": 2437,
      "salian": 2438,
      "kil": 2439,
      "daya": 2440,
      "ekem": 2441,
      "nyaur": 2442,
      "barisa": 2443,
      "saratus": 2444,
      "panutan": 2445,
      "sabda": 2446,
      "Jabur": 2447,
      "agul": 2448,
      "dna": 2449,
      "sen": 2450,
      "teg": 2451,
      "kawantu": 2452,
      "diparentah": 2453,
      "dianggap": 2454,
      "nalang": 2455,
      "kuma": 2456,
      "dapeun": 2457,
      "kalay": 2458,
      "ekanan": 2459,
      "lauk": 2460,
      "liwat": 2461,
      "gihan": 2462,
      "impi": 2463,
      "paneda": 2464,
      "Kaom": 2465,
      "ngarurug": 2466,
      "gupernur": 2467,
      "Piunjuk": 2468,
      "gedena": 2469,
      "mundut": 2470,
      "Elasar": 2471,
      "Golongan": 2472,
      "Gan": 2473,
      "Sana": 2474,
      "calik": 2475,
      "gam": 2476,
      "memang": 2477,
      "peta": 2478,
      "kaasup": 2479,
      "kapanggih": 2480,
      "tasan": 2481,
      "sian": 2482,
      "unggah": 2483,
      "ngago": 2484,
      "kalih": 2485,
      "urangkalih": 2486,
      "uhan": 2487,
      "pangna": 2488,
      "mojang": 2489,
      "karunya": 2490,
      "warta": 2491,
      "ngaluarkeun": 2492,
      "ngahina": 2493,
      "naring": 2494,
      "nyarembah": 2495,
      "Simon": 2496,
      "lebak": 2497,
      "ngajait": 2498,
      "ibuna": 2499,
      "ceurik": 2500,
      "Iblis": 2501,
      "jamparing": 2502,
      "cam": 2503,
      "curkeun": 2504,
      "gur": 2505,
      "euleu": 2506,
      "arang": 2507,
      "kalah": 2508,
      "dising": 2509,
      "mayar": 2510,
      "ngaba": 2511,
      "alawasna": 2512,
      "upus": 2513,
      "balah": 2514,
      "balen": 2515,
      "kokolot": 2516,
      "boyong": 2517,
      "simpen": 2518,
      "tinggal": 2519,
      "sarengan": 2520,
      "palsu": 2521,
      "coco": 2522,
      "harayang": 2523,
      "beungeut": 2524,
      "Gapura": 2525,
      "lumpat": 2526,
      "Hebron": 2527,
      "Mes": 2528,
      "beng": 2529,
      "heug": 2530,
      "iman": 2531,
      "naran": 2532,
      "nem": 2533,
      "rara": 2534,
      "dise": 2535,
      "sisir": 2536,
      "ngabasmi": 2537,
      "nyekel": 2538,
      "nedakeun": 2539,
      "epeng": 2540,
      "ampur": 2541,
      "tarum": 2542,
      "ngucapkeun": 2543,
      "diakeun": 2544,
      "Saurna": 2545,
      "ksanakeun": 2546,
      "luareun": 2547,
      "dongkap": 2548,
      "kaperluan": 2549,
      "kalayan": 2550,
      "awang": 2551,
      "dem": 2552,
      "laya": 2553,
      "sepuh": 2554,
      "tep": 2555,
      "nger": 2556,
      "disa": 2557,
      "diku": 2558,
      "saalam": 2559,
      "tikeun": 2560,
      "tuju": 2561,
      "jaya": 2562,
      "kiputri": 2563,
      "ungah": 2564,
      "ngajadi": 2565,
      "gaan": 2566,
      "oso": 2567,
      "bug": 2568,
      "maruji": 2569,
      "Yosapat": 2570,
      "ditulis": 2571,
      "pedah": 2572,
      "sucina": 2573,
      "embong": 2574,
      "lampahna": 2575,
      "pribadi": 2576,
      "seueur": 2577,
      "mayit": 2578,
      "tayungan": 2579,
      "Ca": 2580,
      "De": 2581,
      "Dom": 2582,
      "Musuh": 2583,
      "Pila": 2584,
      "itan": 2585,
      "malik": 2586,
      "rem": 2587,
      "arna": 2588,
      "arana": 2589,
      "kasor": 2590,
      "diter": 2591,
      "dilampahkeun": 2592,
      "badan": 2593,
      "pikir": 2594,
      "ulan": 2595,
      "nyara": 2596,
      "pangadilan": 2597,
      "tangga": 2598,
      "wejang": 2599,
      "cadas": 2600,
      "bogana": 2601,
      "waning": 2602,
      "jol": 2603,
      "Yoas": 2604,
      "putus": 2605,
      "marake": 2606,
      "salapan": 2607,
      "tumut": 2608,
      "uningaeun": 2609,
      "Betel": 2610,
      "salib": 2611,
      "Balhum": 2612,
      "balahi": 2613,
      "Bo": 2614,
      "Ber": 2615,
      "To": 2616,
      "gja": 2617,
      "tala": 2618,
      "sabaladna": 2619,
      "sasatoan": 2620,
      "pilahir": 2621,
      "paparin": 2622,
      "cikeun": 2623,
      "bodas": 2624,
      "supkeun": 2625,
      "diandikakeun": 2626,
      "wetaneun": 2627,
      "tarik": 2628,
      "napsu": 2629,
      "Dan": 2630,
      "ceu": 2631,
      "cun": 2632,
      "uta": 2633,
      "nganggo": 2634,
      "arah": 2635,
      "sami": 2636,
      "ilir": 2637,
      "jiban": 2638,
      "pangh": 2639,
      "panglima": 2640,
      "pangbuangan": 2641,
      "umpul": 2642,
      "salalawasna": 2643,
      "ampeurkeun": 2644,
      "rahmat": 2645,
      "rubakna": 2646,
      "kangge": 2647,
      "ngurbankeun": 2648,
      "sampalan": 2649,
      "Pilatus": 2650,
      "baran": 2651,
      "bongan": 2652,
      "dipercaya": 2653,
      "disanggakeun": 2654,
      "disalametkeun": 2655,
      "basisir": 2656,
      "padahal": 2657,
      "daerah": 2658,
      "esna": 2659,
      "hik": 2660,
      "cik": 2661,
      "cin": 2662,
      "Sakumaha": 2663,
      "hakim": 2664,
      "turug": 2665,
      "anggup": 2666,
      "ngarti": 2667,
      "ayana": 2668,
      "ngaraos": 2669,
      "pegat": 2670,
      "waskeun": 2671,
      "garwa": 2672,
      "ngirim": 2673,
      "geurkeun": 2674,
      "guha": 2675,
      "susu": 2676,
      "diusir": 2677,
      "Gidion": 2678,
      "diparaehan": 2679,
      "Dawuhan": 2680,
      "dibaktikeun": 2681,
      "Cik": 2682,
      "Har": 2683,
      "carita": 2684,
      "dihirup": 2685,
      "digu": 2686,
      "sakieu": 2687,
      "saumur": 2688,
      "impen": 2689,
      "iraha": 2690,
      "harti": 2691,
      "tungna": 2692,
      "lolong": 2693,
      "mulus": 2694,
      "degkeun": 2695,
      "caina": 2696,
      "cucuk": 2697,
      "ragrag": 2698,
      "bejakeun": 2699,
      "buktikeun": 2700,
      "Sidkia": 2701,
      "Demi": 2702,
      "bil": 2703,
      "den": 2704,
      "meu": 2705,
      "ngudag": 2706,
      "kaunggul": 2707,
      "sat": 2708,
      "sama": 2709,
      "alusna": 2710,
      "jisim": 2711,
      "sarebu": 2712,
      "lik": 2713,
      "karung": 2714,
      "karumpul": 2715,
      "ngantunkeun": 2716,
      "tunggal": 2717,
      "ngarajaan": 2718,
      "pangawal": 2719,
      "panas": 2720,
      "ngamulyakeun": 2721,
      "panyambat": 2722,
      "upacara": 2723,
      "Bral": 2724,
      "Pam": 2725,
      "carek": 2726,
      "nara": 2727,
      "rama": 2728,
      "reug": 2729,
      "sel": 2730,
      "tahan": 2731,
      "wulang": 2732,
      "ditangtu": 2733,
      "eleng": 2734,
      "dab": 2735,
      "ngaberkahan": 2736,
      "onna": 2737,
      "biduan": 2738,
      "lat": 2739,
      "wande": 2740,
      "Yerih": 2741,
      "narang": 2742,
      "tetenjo": 2743,
      "garing": 2744,
      "handapeun": 2745,
      "dicokot": 2746,
      "ngagempur": 2747,
      "dijait": 2748,
      "nyebutkeun": 2749,
      "nyumput": 2750,
      "kulit": 2751,
      "kanyahoan": 2752,
      "jukut": 2753,
      "Yeriho": 2754,
      "Ji": 2755,
      "Sekem": 2756,
      "ceuli": 2757,
      "eba": 2758,
      "hut": 2759,
      "diram": 2760,
      "dianggo": 2761,
      "kus": 2762,
      "pakarang": 2763,
      "ngadatangkeun": 2764,
      "onta": 2765,
      "gajih": 2766,
      "tanpa": 2767,
      "gigir": 2768,
      "koh": 2769,
      "bog": 2770,
      "ukna": 2771,
      "wargana": 2772,
      "kawajiban": 2773,
      "rupi": 2774,
      "sumber": 2775,
      "kapen": 2776,
      "sampe": 2777,
      "mashur": 2778,
      "elingan": 2779,
      "nyaritakeun": 2780,
      "ponggawa": 2781,
      "Ger": 2782,
      "Hero": 2783,
      "Kang": 2784,
      "Mor": 2785,
      "Taya": 2786,
      "ede": 2787,
      "geuning": 2788,
      "len": 2789,
      "reg": 2790,
      "dikersa": 2791,
      "sataun": 2792,
      "wajib": 2793,
      "ngado": 2794,
      "lawan": 2795,
      "nebus": 2796,
      "bantun": 2797,
      "hawa": 2798,
      "angger": 2799,
      "surup": 2800,
      "hadena": 2801,
      "turunanana": 2802,
      "Yesaya": 2803,
      "bun": 2804,
      "lemah": 2805,
      "murangkalih": 2806,
      "nemp": 2807,
      "andika": 2808,
      "majar": 2809,
      "pijadi": 2810,
      "eungitan": 2811,
      "usaha": 2812,
      "wadah": 2813,
      "pangab": 2814,
      "Bakal": 2815,
      "parawan": 2816,
      "sanis": 2817,
      "eukeut": 2818,
      "marawa": 2819,
      "kirkeun": 2820,
      "sieuneun": 2821,
      "pangawasa": 2822,
      "penting": 2823,
      "kasakit": 2824,
      "sasama": 2825,
      "kuburan": 2826,
      "Sanajan": 2827,
      "Domba": 2828,
      "kaunggulan": 2829,
      "Atuh": 2830,
      "Par": 2831,
      "Sem": 2832,
      "ia": 2833,
      "ring": 2834,
      "bawaning": 2835,
      "ngadar": 2836,
      "nyer": 2837,
      "lajeng": 2838,
      "atna": 2839,
      "caca": 2840,
      "otong": 2841,
      "sakula": 2842,
      "Yosia": 2843,
      "dipiceun": 2844,
      "oray": 2845,
      "agungan": 2846,
      "lebu": 2847,
      "saderekna": 2848,
      "nalangsa": 2849,
      "Cilaka": 2850,
      "Ibu": 2851,
      "Jak": 2852,
      "Liban": 2853,
      "Malaikat": 2854,
      "akeun": 2855,
      "bing": 2856,
      "jem": 2857,
      "kek": 2858,
      "arembung": 2859,
      "didangu": 2860,
      "dipeun": 2861,
      "dijalankeun": 2862,
      "arat": 2863,
      "teup": 2864,
      "aban": 2865,
      "esan": 2866,
      "tanya": 2867,
      "balang": 2868,
      "ebkeun": 2869,
      "widian": 2870,
      "wanci": 2871,
      "purna": 2872,
      "haturkeun": 2873,
      "burung": 2874,
      "marilu": 2875,
      "Ayub": 2876,
      "Dupi": 2877,
      "aniel": 2878,
      "beurat": 2879,
      "Jakaria": 2880,
      "Libanon": 2881,
      "Ahas": 2882,
      "Dam": 2883,
      "beun": 2884,
      "rong": 2885,
      "wu": 2886,
      "disarengan": 2887,
      "tuan": 2888,
      "tuna": 2889,
      "eungit": 2890,
      "enggal": 2891,
      "ngadak": 2892,
      "ante": 2893,
      "orok": 2894,
      "gimir": 2895,
      "leuh": 2896,
      "ampuh": 2897,
      "terusna": 2898,
      "jurung": 2899,
      "puguh": 2900,
      "bulu": 2901,
      "lungsur": 2902,
      "umurna": 2903,
      "Midian": 2904,
      "nampi": 2905,
      "reureuh": 2906,
      "Daniel": 2907,
      "ajal": 2908,
      "bos": 2909,
      "karan": 2910,
      "kos": 2911,
      "lok": 2912,
      "meuli": 2913,
      "nurun": 2914,
      "og": 2915,
      "obat": 2916,
      "sembah": 2917,
      "uang": 2918,
      "dikaluar": 2919,
      "pajenengan": 2920,
      "unna": 2921,
      "cinyusu": 2922,
      "Bade": 2923,
      "katembong": 2924,
      "poena": 2925,
      "engekeun": 2926,
      "nanya": 2927,
      "sucikeun": 2928,
      "unjul": 2929,
      "susah": 2930,
      "nembongan": 2931,
      "binasa": 2932,
      "salakina": 2933,
      "lembur": 2934,
      "Tanah": 2935,
      "He": 2936,
      "Hes": 2937,
      "cal": 2938,
      "ceng": 2939,
      "dor": 2940,
      "hudang": 2941,
      "seus": 2942,
      "waran": 2943,
      "wula": 2944,
      "aringet": 2945,
      "kadoraka": 2946,
      "nal": 2947,
      "tamu": 2948,
      "eunggeu": 2949,
      "kalal": 2950,
      "sujud": 2951,
      "misil": 2952,
      "pangarti": 2953,
      "dekai": 2954,
      "buahan": 2955,
      "Sadu": 2956,
      "bale": 2957,
      "nepikeun": 2958,
      "tarung": 2959,
      "tarobat": 2960,
      "diteundeun": 2961,
      "Abram": 2962,
      "dihuru": 2963,
      "tambah": 2964,
      "Saban": 2965,
      "rahayatna": 2966,
      "karitu": 2967,
      "dititah": 2968,
      "Sarta": 2969,
      "Eprat": 2970,
      "Abimelek": 2971,
      "meuncit": 2972,
      "saksian": 2973,
      "eulana": 2974,
      "kembang": 2975,
      "Mordekai": 2976,
      "dikersakeun": 2977,
      "nurunkeun": 2978,
      "Heug": 2979,
      "Yu": 2980,
      "kapin": 2981,
      "kapercayaan": 2982,
      "kaagungan": 2983,
      "disar": 2984,
      "dipar": 2985,
      "dipen": 2986,
      "saterusna": 2987,
      "tir": 2988,
      "tigin": 2989,
      "yat": 2990,
      "endeng": 2991,
      "uskeun": 2992,
      "engah": 2993,
      "kecap": 2994,
      "budi": 2995,
      "nepangan": 2996,
      "ngaleu": 2997,
      "ngaruksak": 2998,
      "ohalan": 2999,
      "waktos": 3000,
      "Abner": 3001,
      "Padahal": 3002,
      "diajar": 3003,
      "nangtu": 3004,
      "cingan": 3005,
      "ngajawab": 3006,
      "tanaga": 3007,
      "urusan": 3008,
      "ditinggalkeun": 3009,
      "nempuh": 3010,
      "),": 3011,
      "Enya": 3012,
      "Mis": 3013,
      "Pra": 3014,
      "aw": 3015,
      "ip": 3016,
      "iteuk": 3017,
      "puk": 3018,
      "teran": 3019,
      "eukeur": 3020,
      "kapan": 3021,
      "kaopat": 3022,
      "kasieun": 3023,
      "katingali": 3024,
      "disucikeun": 3025,
      "tutup": 3026,
      "ingetan": 3027,
      "wawar": 3028,
      "ngajuru": 3029,
      "jadina": 3030,
      "pog": 3031,
      "barik": 3032,
      "ngarala": 3033,
      "ajaiban": 3034,
      "kenca": 3035,
      "dulurna": 3036,
      "kondang": 3037,
      "burit": 3038,
      "Simson": 3039,
      "numpes": 3040,
      "luhureun": 3041,
      "pakeanana": 3042,
      "leungeunna": 3043,
      "nungtun": 3044,
      "dikaniaya": 3045,
      "dipulangkeun": 3046,
      "narangtung": 3047,
      "tetenjoan": 3048,
      "Ing": 3049,
      "Laban": 3050,
      "cul": 3051,
      "leh": 3052,
      "seuri": 3053,
      "yok": 3054,
      "kaajaiban": 3055,
      "dike": 3056,
      "dikep": 3057,
      "sabagian": 3058,
      "tatangkal": 3059,
      "papat": 3060,
      "lapar": 3061,
      "antel": 3062,
      "bujang": 3063,
      "panarima": 3064,
      "Najan": 3065,
      "beuli": 3066,
      "ajak": 3067,
      "tarerang": 3068,
      "tobat": 3069,
      "sering": 3070,
      "mariskin": 3071,
      "pamingpinna": 3072,
      "beuleum": 3073,
      "nyucikeun": 3074,
      "Balad": 3075,
      "rahayu": 3076,
      "nitah": 3077,
      "Tirus": 3078,
      "naringgalkeun": 3079,
      "Herodes": 3080,
      "Damsik": 3081,
      "Ke": 3082,
      "Re": 3083,
      "Sel": 3084,
      "cat": 3085,
      "jeuh": 3086,
      "meja": 3087,
      "”.": 3088,
      "euy": 3089,
      "ngen": 3090,
      "kater": 3091,
      "disiksa": 3092,
      "dikurbankeun": 3093,
      "diboyong": 3094,
      "erit": 3095,
      "padamelan": 3096,
      "nyeung": 3097,
      "rik": 3098,
      "las": 3099,
      "lisan": 3100,
      "osna": 3101,
      "omean": 3102,
      "ombongan": 3103,
      "intang": 3104,
      "umum": 3105,
      "alih": 3106,
      "wir": 3107,
      "amparan": 3108,
      "dipas": 3109,
      "bed": 3110,
      "parahu": 3111,
      "emahan": 3112,
      "duhkeun": 3113,
      "nulung": 3114,
      "pelak": 3115,
      "diraksa": 3116,
      "Sinai": 3117,
      "malire": 3118,
      "pangheulana": 3119,
      "Kangjeng": 3120,
      "saniskara": 3121,
      "dikaluarkeun": 3122,
      "!’": 3123,
      "Dewa": 3124,
      "Kahat": 3125,
      "Loba": 3126,
      "Sebul": 3127,
      "eangan": 3128,
      "pungan": 3129,
      "run": 3130,
      "kahade": 3131,
      "kamashur": 3132,
      "angon": 3133,
      "angkung": 3134,
      "dibales": 3135,
      "matuh": 3136,
      "waka": 3137,
      "suwung": 3138,
      "bira": 3139,
      "degan": 3140,
      "kol": 3141,
      "turut": 3142,
      "luyu": 3143,
      "karasa": 3144,
      "ditarima": 3145,
      "salempang": 3146,
      "diasupkeun": 3147,
      "ilakakeun": 3148,
      "lebur": 3149,
      "pamajikanana": 3150,
      "lemes": 3151,
      "leumpang": 3152,
      "sarieuneun": 3153,
      "Rehab": 3154,
      "kacapi": 3155,
      "hikmah": 3156,
      "Hanan": 3157,
      "bra": 3158,
      "ona": 3159,
      "okan": 3160,
      "rok": 3161,
      "ditimbalan": 3162,
      "dijaga": 3163,
      "disimpen": 3164,
      "tip": 3165,
      "tingan": 3166,
      "tawan": 3167,
      "paksa": 3168,
      "sib": 3169,
      "kiwari": 3170,
      "ingali": 3171,
      "mia": 3172,
      "gebug": 3173,
      "dea": 3174,
      "Nap": 3175,
      "ukti": 3176,
      "ngale": 3177,
      "galak": 3178,
      "tempatna": 3179,
      "ngarajaanana": 3180,
      "ununganana": 3181,
      "diadegkeun": 3182,
      "mending": 3183,
      "sarat": 3184,
      "nyahoeun": 3185,
      "digjaya": 3186,
      "kumpulan": 3187,
      "panuhun": 3188,
      "ruksak": 3189,
      "orow": 3190,
      "beben": 3191,
      "priha": 3192,
      "meuntasan": 3193,
      "gering": 3194,
      "nyump": 3195,
      "darieu": 3196,
      "nyingkah": 3197,
      "Simeon": 3198,
      "Hayu": 3199,
      "kasusah": 3200,
      "balangsak": 3201,
      "Het": 3202,
      "Kir": 3203,
      "nana": 3204,
      "obah": 3205,
      "pus": 3206,
      "peup": 3207,
      "sanggup": 3208,
      "kauninga": 3209,
      "kabawa": 3210,
      "diganti": 3211,
      "dibebaskeun": 3212,
      "alkeun": 3213,
      "ngabejaan": 3214,
      "dug": 3215,
      "manahna": 3216,
      "biru": 3217,
      "laku": 3218,
      "nyabak": 3219,
      "citan": 3220,
      "buahna": 3221,
      "Bagja": 3222,
      "kabul": 3223,
      "ruma": 3224,
      "sampurna": 3225,
      "ngaraksa": 3226,
      "milikna": 3227,
      "elakeun": 3228,
      "geuleuh": 3229,
      "wengi": 3230,
      "ngidinan": 3231,
      "sarupa": 3232,
      "Make": 3233,
      "Masing": 3234,
      "getihna": 3235,
      "kumpulkeun": 3236,
      "jugjug": 3237,
      "Rahel": 3238,
      "kalaluar": 3239,
      "Gil": 3240,
      "Ged": 3241,
      "Mur": 3242,
      "Memeh": 3243,
      "bela": 3244,
      "calikna": 3245,
      "epo": 3246,
      "lel": 3247,
      "win": 3248,
      "ngep": 3249,
      "kaah": 3250,
      "kagung": 3251,
      "kabina": 3252,
      "tipung": 3253,
      "tumur": 3254,
      "pilar": 3255,
      "paehan": 3256,
      "sin": 3257,
      "eungna": 3258,
      "wawuh": 3259,
      "nuju": 3260,
      "gas": 3261,
      "sugri": 3262,
      "miunjuk": 3263,
      "nyageurkeun": 3264,
      "Kaci": 3265,
      "poean": 3266,
      "Yermia": 3267,
      "dito": 3268,
      "datangna": 3269,
      "arunjukan": 3270,
      "ujian": 3271,
      "eurik": 3272,
      "ngajak": 3273,
      "indungna": 3274,
      "ungelna": 3275,
      "ngaliwat": 3276,
      "kaayaanana": 3277,
      "ngarinum": 3278,
      "jenengkeun": 3279,
      "Ester": 3280,
      "Timbal": 3281,
      "ngadago": 3282,
      "kasambut": 3283,
      "jamuga": 3284,
      "cocog": 3285,
      "beunangan": 3286,
      "Yudea": 3287,
      "Hirup": 3288,
      "Tengah": 3289,
      "cana": 3290,
      "los": 3291,
      "kaka": 3292,
      "kadangu": 3293,
      "dijuru": 3294,
      "erkeun": 3295,
      "jak": 3296,
      "ngajadikeun": 3297,
      "kale": 3298,
      "Pangsucina": 3299,
      "nyam": 3300,
      "nyampeurkeun": 3301,
      "genah": 3302,
      "bieu": 3303,
      "permata": 3304,
      "Sadok": 3305,
      "Isma": 3306,
      "dahkeun": 3307,
      "Basa": 3308,
      "anggar": 3309,
      "ganjaran": 3310,
      "mareunang": 3311,
      "rubuh": 3312,
      "halang": 3313,
      "ihti": 3314,
      "dibayar": 3315,
      "datangan": 3316,
      "nandang": 3317,
      "ijid": 3318,
      "ejat": 3319,
      "ilingan": 3320,
      "Betleh": 3321,
      "careurik": 3322,
      "kanyeri": 3323,
      "Rahayat": 3324,
      "sesana": 3325,
      "ditampi": 3326,
      "Enoh": 3327,
      "layak": 3328,
      "wawarkeun": 3329,
      "tatangkalan": 3330,
      "prihatin": 3331,
      "tumurun": 3332,
      "Kacida": 3333,
      "Betlehem": 3334,
      "Amin": 3335,
      "Bari": 3336,
      "Leres": 3337,
      "Mal": 3338,
      "Men": 3339,
      "Ro": 3340,
      "Rum": 3341,
      "Tong": 3342,
      "nin": 3343,
      "ngami": 3344,
      "dibantu": 3345,
      "saibarat": 3346,
      "ragi": 3347,
      "numan": 3348,
      "nyepeng": 3349,
      "nyilakakeun": 3350,
      "uhkeun": 3351,
      "Sawarga": 3352,
      "banda": 3353,
      "rahkeun": 3354,
      "bedas": 3355,
      "putu": 3356,
      "elasan": 3357,
      "robah": 3358,
      "tumbak": 3359,
      "sahkeun": 3360,
      "pangereh": 3361,
      "hoyong": 3362,
      "pepelakan": 3363,
      "rugrug": 3364,
      "ceurikan": 3365,
      "encet": 3366,
      "seuseungitan": 3367,
      "kapinteran": 3368,
      "Rehabam": 3369,
      "Murid": 3370,
      "Ismail": 3371,
      "Ah": 3372,
      "Coba": 3373,
      "Ter": 3374,
      "aallah": 3375,
      "ngunjukkeun": 3376,
      "kamanah": 3377,
      "kasangsara": 3378,
      "sabeulah": 3379,
      "alek": 3380,
      "pajeg": 3381,
      "nuturkeun": 3382,
      "nyali": 3383,
      "alaki": 3384,
      "laksana": 3385,
      "liang": 3386,
      "panen": 3387,
      "salamina": 3388,
      "Basan": 3389,
      "katarima": 3390,
      "katarajang": 3391,
      "ngalala": 3392,
      "pamohalan": 3393,
      "Yudas": 3394,
      "jarah": 3395,
      "nandakeun": 3396,
      "surak": 3397,
      "jahatna": 3398,
      "punten": 3399,
      "Gibon": 3400,
      "ambek": 3401,
      "Sidon": 3402,
      "ditangkep": 3403,
      "ngocor": 3404,
      "gunana": 3405,
      "ditangtukeun": 3406,
      "Naptali": 3407,
      "Aing": 3408,
      "Carita": 3409,
      "Mak": 3410,
      "Sema": 3411,
      "adat": 3412,
      "bray": 3413,
      "dunungan": 3414,
      "dununganana": 3415,
      "lek": 3416,
      "peng": 3417,
      "yonan": 3418,
      "dipo": 3419,
      "digan": 3420,
      "diunjukkeun": 3421,
      "saja": 3422,
      "tingal": 3423,
      "tatan": 3424,
      "paparabo": 3425,
      "siah": 3426,
      "ele": 3427,
      "onto": 3428,
      "nyir": 3429,
      "nyambat": 3430,
      "pangharepan": 3431,
      "ongkoh": 3432,
      "atkeun": 3433,
      "ukang": 3434,
      "beubeunangan": 3435,
      "kendat": 3436,
      "muga": 3437,
      "baturna": 3438,
      "gawena": 3439,
      "omongkeun": 3440,
      "dicari": 3441,
      "eusian": 3442,
      "anggota": 3443,
      "kepeng": 3444,
      "soteh": 3445,
      "Amalek": 3446,
      "wungu": 3447,
      "hasilna": 3448,
      "sipatna": 3449,
      "daptar": 3450,
      "hurung": 3451,
      "trem": 3452,
      "ngintun": 3453,
      "Ibran": 3454,
      "panyakit": 3455,
      "Jurusalamet": 3456,
      "Aha": 3457,
      "Mung": 3458,
      "Ni": 3459,
      "campur": 3460,
      "gudang": 3461,
      "kong": 3462,
      "lemp": 3463,
      "nangg": 3464,
      "yeba": 3465,
      "diala": 3466,
      "dihi": 3467,
      "dikabul": 3468,
      "masang": 3469,
      "pira": 3470,
      "kilat": 3471,
      "ngayonan": 3472,
      "kalintang": 3473,
      "lay": 3474,
      "neda": 3475,
      "jenan": 3476,
      "tunduk": 3477,
      "jerona": 3478,
      "garer": 3479,
      "mugia": 3480,
      "Bisa": 3481,
      "dangukeun": 3482,
      "ngawulang": 3483,
      "nyanghareup": 3484,
      "tungtungna": 3485,
      "nyesa": 3486,
      "tariwas": 3487,
      "hebat": 3488,
      "maksudna": 3489,
      "dibarengan": 3490,
      "ngemban": 3491,
      "Yoyada": 3492,
      "dikurebkeun": 3493,
      "kadorakaan": 3494,
      "Ibrani": 3495,
      "Ahasia": 3496,
      "Geuning": 3497,
      "Ham": 3498,
      "Om": 3499,
      "Sih": 3500,
      "akal": 3501,
      "nim": 3502,
      "pro": 3503,
      "rere": 3504,
      "rombongan": 3505,
      "wil": 3506,
      "anjing": 3507,
      "kakeun": 3508,
      "kakaya": 3509,
      "dial": 3510,
      "diatur": 3511,
      "dijual": 3512,
      "saanak": 3513,
      "bada": 3514,
      "mapag": 3515,
      "ulangkeun": 3516,
      "raksa": 3517,
      "ngabales": 3518,
      "eskeun": 3519,
      "miceun": 3520,
      "etkeun": 3521,
      "nyaurkeun": 3522,
      "orom": 3523,
      "kec": 3524,
      "kebat": 3525,
      "Sapanjang": 3526,
      "caah": 3527,
      "bot": 3528,
      "ukkeun": 3529,
      "karu": 3530,
      "simeut": 3531,
      "tingjar": 3532,
      "pamupus": 3533,
      "dibaptis": 3534,
      "pupujian": 3535,
      "engkep": 3536,
      "ngalaksanakeun": 3537,
      "Amasia": 3538,
      "digempur": 3539,
      "haturan": 3540,
      "jenenganana": 3541,
      "Tempat": 3542,
      "Korah": 3543,
      "kumawula": 3544,
      "ngagogoreng": 3545,
      "cunduk": 3546,
      "kahadean": 3547,
      "Mending": 3548,
      "Ara": 3549,
      "Ami": 3550,
      "Adon": 3551,
      "Has": 3552,
      "Haman": 3553,
      "Isu": 3554,
      "Lampah": 3555,
      "Maria": 3556,
      "Pili": 3557,
      "San": 3558,
      "Tung": 3559,
      "Tamar": 3560,
      "agan": 3561,
      "bongkeun": 3562,
      "boro": 3563,
      "cok": 3564,
      "net": 3565,
      "pamun": 3566,
      "punjul": 3567,
      "tor": 3568,
      "una": 3569,
      "wara": 3570,
      "yongan": 3571,
      "”,": 3572,
      "kaan": 3573,
      "katam": 3574,
      "dihina": 3575,
      "dipanjara": 3576,
      "sapoe": 3577,
      "satuhu": 3578,
      "taseun": 3579,
      "piwulang": 3580,
      "pay": 3581,
      "untung": 3582,
      "rih": 3583,
      "hiasan": 3584,
      "gikeun": 3585,
      "nepungan": 3586,
      "marek": 3587,
      "ngalanggar": 3588,
      "ngarang": 3589,
      "ngarem": 3590,
      "galede": 3591,
      "pamenta": 3592,
      "kahna": 3593,
      "eukeuh": 3594,
      "walon": 3595,
      "juragan": 3596,
      "narepi": 3597,
      "buri": 3598,
      "nagrina": 3599,
      "sarujud": 3600,
      "kotor": 3601,
      "geureuh": 3602,
      "masanggrahan": 3603,
      "Sarah": 3604,
      "ngumbara": 3605,
      "Gibea": 3606,
      "curan": 3607,
      "Kaleb": 3608,
      "Silo": 3609,
      "putusan": 3610,
      "sampean": 3611,
      "Sebulun": 3612,
      "aallahan": 3613,
      "Eu": 3614,
      "Gat": 3615,
      "Hat": 3616,
      "Hasa": 3617,
      "Jum": 3618,
      "Pin": 3619,
      "Salam": 3620,
      "lep": 3621,
      "por": 3622,
      "uasa": 3623,
      "nged": 3624,
      "alun": 3625,
      "tungan": 3626,
      "babatur": 3627,
      "madu": 3628,
      "matan": 3629,
      "piunjuk": 3630,
      "kis": 3631,
      "dakan": 3632,
      "ingkeun": 3633,
      "watan": 3634,
      "ngabu": 3635,
      "ngaganti": 3636,
      "nyerenkeun": 3637,
      "gagah": 3638,
      "mit": 3639,
      "nyadiakeun": 3640,
      "barungah": 3641,
      "turan": 3642,
      "Babad": 3643,
      "euheus": 3644,
      "jalanna": 3645,
      "puluhan": 3646,
      "pinsi": 3647,
      "Walon": 3648,
      "anggurna": 3649,
      "darora": 3650,
      "daraek": 3651,
      "munara": 3652,
      "ngabdi": 3653,
      "melak": 3654,
      "neruskeun": 3655,
      "sakurilingeunana": 3656,
      "bagjaan": 3657,
      "papanc": 3658,
      "gebrus": 3659,
      "Getih": 3660,
      "Parantos": 3661,
      "carekna": 3662,
      "sembahyang": 3663,
      "Sadumu": 3664,
      "seurikeun": 3665,
      "Timbalana": 3666,
      "propinsi": 3667,
      "Asar": 3668,
      "Nepi": 3669,
      "gentra": 3670,
      "heu": 3671,
      "lali": 3672,
      "mum": 3673,
      "eujeung": 3674,
      "ngid": 3675,
      "diwuruk": 3676,
      "nadab": 3677,
      "satim": 3678,
      "badir": 3679,
      "anaking": 3680,
      "papakean": 3681,
      "arancang": 3682,
      "lahna": 3683,
      "arim": 3684,
      "sugan": 3685,
      "minang": 3686,
      "bih": 3687,
      "sare": 3688,
      "Sakitu": 3689,
      "baluk": 3690,
      "ebah": 3691,
      "toskeun": 3692,
      "pulo": 3693,
      "kabehna": 3694,
      "raheut": 3695,
      "ayi": 3696,
      "keras": 3697,
      "ngusir": 3698,
      "ahirna": 3699,
      "perangna": 3700,
      "padati": 3701,
      "payuneuna": 3702,
      "pakemahan": 3703,
      "kasaean": 3704,
      "soara": 3705,
      "semu": 3706,
      "peuntaseun": 3707,
      "ngamusuh": 3708,
      "maling": 3709,
      "duitna": 3710,
      "nampa": 3711,
      "panyal": 3712,
      "dilapis": 3713,
      "ngangon": 3714,
      "ikrarkeun": 3715,
      "Simei": 3716,
      "disunat": 3717,
      "pamarentahan": 3718,
      "impian": 3719,
      "hutang": 3720,
      "bogoh": 3721,
      "pijadieun": 3722,
      "kosong": 3723,
      "bebendu": 3724,
      "minangka": 3725,
      "Dosa": 3726,
      "Ho": 3727,
      "Hor": 3728,
      "Memang": 3729,
      "Nah": 3730,
      "Rayi": 3731,
      "Tukang": 3732,
      "Yab": 3733,
      "aj": 3734,
      "apan": 3735,
      "dela": 3736,
      "komo": 3737,
      "lengkep": 3738,
      "mus": 3739,
      "mep": 3740,
      "narik": 3741,
      "rung": 3742,
      "ʼat": 3743,
      "dias": 3744,
      "dihar": 3745,
      "dipe": 3746,
      "disapa": 3747,
      "nabas": 3748,
      "sajeroning": 3749,
      "tawis": 3750,
      "keuneun": 3751,
      "pakan": 3752,
      "eunghar": 3753,
      "undang": 3754,
      "elek": 3755,
      "ngadon": 3756,
      "duhan": 3757,
      "gag": 3758,
      "jiwa": 3759,
      "biwir": 3760,
      "pangalusna": 3761,
      "perangan": 3762,
      "perjurit": 3763,
      "osea": 3764,
      "udan": 3765,
      "rumah": 3766,
      "beres": 3767,
      "ngaharep": 3768,
      "binti": 3769,
      "tiluan": 3770,
      "jandela": 3771,
      "Barnabas": 3772,
      "bumina": 3773,
      "jengkel": 3774,
      "tonkeun": 3775,
      "Persia": 3776,
      "kajahatanana": 3777,
      "Dua": 3778,
      "egepkeun": 3779,
      "Asap": 3780,
      "nolak": 3781,
      "dihirupkeun": 3782,
      "gigireun": 3783,
      "daroraka": 3784,
      "satimpal": 3785,
      "Awewe": 3786,
      "Bil": 3787,
      "Tilu": 3788,
      "Wang": 3789,
      "Yebus": 3790,
      "eka": 3791,
      "kant": 3792,
      "mingpin": 3793,
      "rurun": 3794,
      "ngantos": 3795,
      "kaasih": 3796,
      "kasalametan": 3797,
      "kabagjaan": 3798,
      "angka": 3799,
      "diuk": 3800,
      "dihaturkeun": 3801,
      "enung": 3802,
      "mawi": 3803,
      "padem": 3804,
      "ingg": 3805,
      "emon": 3806,
      "wawa": 3807,
      "nuhan": 3808,
      "teur": 3809,
      "abut": 3810,
      "misaur": 3811,
      "butuh": 3812,
      "Natan": 3813,
      "kok": 3814,
      "dog": 3815,
      "warna": 3816,
      "mareun": 3817,
      "istr": 3818,
      "teruskeun": 3819,
      "ngahi": 3820,
      "kahkeun": 3821,
      "nagarana": 3822,
      "murni": 3823,
      "nyiksa": 3824,
      "disus": 3825,
      "binih": 3826,
      "masta": 3827,
      "sakurilingeun": 3828,
      "Elut": 3829,
      "darengekeun": 3830,
      "Balak": 3831,
      "Seru": 3832,
      "haseup": 3833,
      "sabaraha": 3834,
      "katingal": 3835,
      "cengkat": 3836,
      "Mispa": 3837,
      "kaahengan": 3838,
      "kasangsaraan": 3839,
      "geureuhana": 3840,
      "istrenan": 3841,
      "Hu": 3842,
      "Kam": 3843,
      "Li": 3844,
      "Peuting": 3845,
      "awas": 3846,
      "adegan": 3847,
      "haran": 3848,
      "hes": 3849,
      "jon": 3850,
      "oa": 3851,
      "rel": 3852,
      "wenang": 3853,
      "eupan": 3854,
      "eudeung": 3855,
      "ngul": 3856,
      "ngantep": 3857,
      "kasauran": 3858,
      "dielehkeun": 3859,
      "dibeuleum": 3860,
      "sabangsa": 3861,
      "kuil": 3862,
      "alukan": 3863,
      "taki": 3864,
      "tapak": 3865,
      "piwelas": 3866,
      "papal": 3867,
      "japati": 3868,
      "ngabo": 3869,
      "ngaduruk": 3870,
      "nyen": 3871,
      "gaib": 3872,
      "uhna": 3873,
      "manjing": 3874,
      "lautan": 3875,
      "etna": 3876,
      "perhiasan": 3877,
      "buatan": 3878,
      "panc": 3879,
      "kobus": 3880,
      "boyongan": 3881,
      "urutan": 3882,
      "Tina": 3883,
      "gungkeun": 3884,
      "diser": 3885,
      "tuhan": 3886,
      "pindah": 3887,
      "balayar": 3888,
      "paskeun": 3889,
      "Lagu": 3890,
      "lepat": 3891,
      "nyoba": 3892,
      "babarengan": 3893,
      "gondewa": 3894,
      "Yakobus": 3895,
      "gebleg": 3896,
      "sesembah": 3897,
      "luputkeun": 3898,
      "sungut": 3899,
      "Yoyakim": 3900,
      "Asera": 3901,
      "Kalaku": 3902,
      "Yisrel": 3903,
      "Gancang": 3904,
      "balener": 3905,
      "sakulawarga": 3906,
      "ngepung": 3907,
      "dijurukeun": 3908,
      "garering": 3909,
      "eujeungan": 3910,
      "Bulan": 3911,
      "Hamat": 3912,
      "Isas": 3913,
      "Keun": 3914,
      "Leu": 3915,
      "Parentah": 3916,
      "Tenjo": 3917,
      "akar": 3918,
      "bral": 3919,
      "dunan": 3920,
      "gemb": 3921,
      "lungan": 3922,
      "uan": 3923,
      "nguku": 3924,
      "kamah": 3925,
      "kabiasa": 3926,
      "dirang": 3927,
      "dikubur": 3928,
      "diurus": 3929,
      "saestu": 3930,
      "urat": 3931,
      "entos": 3932,
      "papada": 3933,
      "rada": 3934,
      "eungteuing": 3935,
      "kiat": 3936,
      "nuduhkeun": 3937,
      "ngabuktikeun": 3938,
      "subur": 3939,
      "mis": 3940,
      "deuri": 3941,
      "pangg": 3942,
      "pangeusina": 3943,
      "panganut": 3944,
      "giru": 3945,
      "ahayu": 3946,
      "inter": 3947,
      "sangka": 3948,
      "tungtun": 3949,
      "meunangkeun": 3950,
      "disembah": 3951,
      "pug": 3952,
      "palinter": 3953,
      "omonganana": 3954,
      "lanceuk": 3955,
      "tumpes": 3956,
      "ktian": 3957,
      "Aranjeunna": 3958,
      "palataran": 3959,
      "enaya": 3960,
      "wahing": 3961,
      "Manawi": 3962,
      "sakapercayaan": 3963,
      "maratuhna": 3964,
      "beuratna": 3965,
      "Sumuhun": 3966,
      "Jawabna": 3967,
      "leupaskeun": 3968,
      "diparentahkeun": 3969,
      "Boas": 3970,
      "lenen": 3971,
      "ngaralawan": 3972,
      "dikepung": 3973,
      "Gilgal": 3974,
      "ihtiar": 3975,
      "Wangsul": 3976,
      "Isaskar": 3977,
      "Atawa": 3978,
      "Benaya": 3979,
      "Ep": 3980,
      "Hur": 3981,
      "Usia": 3982,
      "Yep": 3983,
      "kantos": 3984,
      "nekanan": 3985,
      "plok": 3986,
      "arenjo": 3987,
      "kasaksian": 3988,
      "anganana": 3989,
      "dipun": 3990,
      "diudag": 3991,
      "dikumpulkeun": 3992,
      "dijenengkeun": 3993,
      "diomongkeun": 3994,
      "nahan": 3995,
      "alya": 3996,
      "urna": 3997,
      "tatangga": 3998,
      "mabok": 3999,
      "matikeun": 4000,
      "piwuruk": 4001,
      "ras": 4002,
      "euseuh": 4003,
      "ayad": 4004,
      "mihatur": 4005,
      "uturkeun": 4006,
      "bikang": 4007,
      "pangkeun": 4008,
      "pangeusi": 4009,
      "cip": 4010,
      "ciri": 4011,
      "Saupama": 4012,
      "dogan": 4013,
      "dinyatakeun": 4014,
      "hare": 4015,
      "mutus": 4016,
      "dital": 4017,
      "ngahirup": 4018,
      "goda": 4019,
      "sihan": 4020,
      "egah": 4021,
      "nareangan": 4022,
      "peti": 4023,
      "geulis": 4024,
      "kalieun": 4025,
      "kepret": 4026,
      "benduna": 4027,
      "sukuna": 4028,
      "watesna": 4029,
      "nyebat": 4030,
      "ditumpur": 4031,
      "Karuhun": 4032,
      "dilakonan": 4033,
      "diparake": 4034,
      "Benha": 4035,
      "ngahaja": 4036,
      "endahkeun": 4037,
      "Mahkamah": 4038,
      "maksad": 4039,
      "boset": 4040,
      "kalepatan": 4041,
      "Tungtungna": 4042,
      "gembleng": 4043,
      "Prak": 4044,
      "Uria": 4045,
      "baha": 4046,
      "brana": 4047,
      "damp": 4048,
      "jeum": 4049,
      "nil": 4050,
      "som": 4051,
      "wer": 4052,
      "anc": 4053,
      "didamel": 4054,
      "diran": 4055,
      "sapar": 4056,
      "sadia": 4057,
      "sajagat": 4058,
      "alang": 4059,
      "makuta": 4060,
      "pagebug": 4061,
      "sihi": 4062,
      "ulih": 4063,
      "rasiah": 4064,
      "abhab": 4065,
      "mikeun": 4066,
      "jalmana": 4067,
      "perpuluhan": 4068,
      "cianggur": 4069,
      "Sajeroning": 4070,
      "indungan": 4071,
      "eber": 4072,
      "alian": 4073,
      "kaburu": 4074,
      "hijikeun": 4075,
      "ngandel": 4076,
      "hareupan": 4077,
      "mubadir": 4078,
      "halabhab": 4079,
      "pareum": 4080,
      "dangdam": 4081,
      "dipigawe": 4082,
      "nanyakeun": 4083,
      "geuwat": 4084,
      "Bareto": 4085,
      "engkena": 4086,
      "ngagero": 4087,
      "tengen": 4088,
      "tega": 4089,
      "dawuhana": 4090,
      "kulawargana": 4091,
      "margina": 4092,
      "Hadad": 4093,
      "nyanyi": 4094,
      "Sareng": 4095,
      "malar": 4096,
      "kayaktian": 4097,
      "tulus": 4098,
      "nyarios": 4099,
      "tegalan": 4100,
      "ngabelaan": 4101,
      "Margi": 4102,
      "diidinan": 4103,
      "ngadadak": 4104,
      "ditepikeun": 4105,
      "pohokeun": 4106,
      "ngersakeun": 4107,
      "tujuan": 4108,
      "osoeh": 4109,
      "kagungana": 4110,
      "Semaya": 4111,
      "Isukna": 4112,
      "Pilipus": 4113,
      "Benhadad": 4114,
      "sihir": 4115,
      "?’": 4116,
      "Abisa": 4117,
      "Carek": 4118,
      "Dar": 4119,
      "Henteu": 4120,
      "Jeng": 4121,
      "Tuh": 4122,
      "bant": 4123,
      "mangg": 4124,
      "neu": 4125,
      "nta": 4126,
      "nembe": 4127,
      "nurutan": 4128,
      "tkeun": 4129,
      "wol": 4130,
      "yanan": 4131,
      "kajaba": 4132,
      "disam": 4133,
      "dimak": 4134,
      "disalib": 4135,
      "alaman": 4136,
      "eha": 4137,
      "taman": 4138,
      "amana": 4139,
      "pihatur": 4140,
      "padu": 4141,
      "kitan": 4142,
      "day": 4143,
      "engg": 4144,
      "ngaga": 4145,
      "kalang": 4146,
      "gaganti": 4147,
      "pangar": 4148,
      "gian": 4149,
      "Saenyana": 4150,
      "pandeuri": 4151,
      "epkeun": 4152,
      "Kapan": 4153,
      "urukan": 4154,
      "Muga": 4155,
      "dipaksa": 4156,
      "toha": 4157,
      "damang": 4158,
      "mangga": 4159,
      "mangnedakeun": 4160,
      "nipu": 4161,
      "olot": 4162,
      "cuan": 4163,
      "diruksak": 4164,
      "pageuh": 4165,
      "salin": 4166,
      "Elya": 4167,
      "lumpuh": 4168,
      "Nyi": 4169,
      "sapatemon": 4170,
      "parabot": 4171,
      "Ramah": 4172,
      "kasampak": 4173,
      "ilujeng": 4174,
      "Merari": 4175,
      "disingkirkeun": 4176,
      "balencar": 4177,
      "seueurna": 4178,
      "kasorang": 4179,
      "dirampas": 4180,
      "jembar": 4181,
      "jeuhna": 4182,
      "nanggung": 4183,
      "reregan": 4184,
      "diwurukkeun": 4185,
      "hese": 4186,
      "dampal": 4187,
      "Isai": 4188,
      "Kan": 4189,
      "daran": 4190,
      "hulu": 4191,
      "ian": 4192,
      "inuman": 4193,
      "jep": 4194,
      "lom": 4195,
      "meng": 4196,
      "ngomean": 4197,
      "kac": 4198,
      "kamari": 4199,
      "nas": 4200,
      "saat": 4201,
      "tutu": 4202,
      "bageur": 4203,
      "sidik": 4204,
      "ragan": 4205,
      "undur": 4206,
      "kiki": 4207,
      "ngajugjug": 4208,
      "gepkeun": 4209,
      "sarum": 4210,
      "nyawana": 4211,
      "liter": 4212,
      "antosa": 4213,
      "kantun": 4214,
      "Saderek": 4215,
      "cape": 4216,
      "baru": 4217,
      "nedunan": 4218,
      "ebel": 4219,
      "paragi": 4220,
      "ditelasan": 4221,
      "putan": 4222,
      "pupusna": 4223,
      "nguarkeun": 4224,
      "regepkeun": 4225,
      "daning": 4226,
      "sakeudeung": 4227,
      "ngagel": 4228,
      "jarauh": 4229,
      "tengtrem": 4230,
      "dengekeun": 4231,
      "Maa": 4232,
      "lalum": 4233,
      "nyalindung": 4234,
      "rohangan": 4235,
      "rohani": 4236,
      "lotre": 4237,
      "petot": 4238,
      "bebeja": 4239,
      "ngahaturanan": 4240,
      "tulungan": 4241,
      "Bener": 4242,
      "ngembarkeun": 4243,
      "Hayang": 4244,
      "diakut": 4245,
      "Tujuh": 4246,
      "ngagugu": 4247,
      "Dewi": 4248,
      "ngadareuheus": 4249,
      "Hesbon": 4250,
      "eunggeul": 4251,
      "dipenta": 4252,
      "nangtukeun": 4253,
      "Prabu": 4254,
      "tawanan": 4255,
      "epod": 4256,
      "lepra": 4257,
      "Beu": 4258,
      "Eser": 4259,
      "Lea": 4260,
      "Mari": 4261,
      "Pu": 4262,
      "Rab": 4263,
      "Serah": 4264,
      "Sudan": 4265,
      "Tingali": 4266,
      "canten": 4267,
      "isukan": 4268,
      "mud": 4269,
      "teda": 4270,
      "kama": 4271,
      "kajeun": 4272,
      "disum": 4273,
      "diwaler": 4274,
      "diwidian": 4275,
      "diajak": 4276,
      "diikrarkeun": 4277,
      "salir": 4278,
      "kudana": 4279,
      "tuk": 4280,
      "enjing": 4281,
      "papanggih": 4282,
      "ratu": 4283,
      "ngapala": 4284,
      "ngabebaskeun": 4285,
      "nyim": 4286,
      "deuih": 4287,
      "kituh": 4288,
      "kituna": 4289,
      "tanggung": 4290,
      "banding": 4291,
      "Bawa": 4292,
      "karesep": 4293,
      "alima": 4294,
      "warah": 4295,
      "katel": 4296,
      "sesa": 4297,
      "sirahna": 4298,
      "leueut": 4299,
      "saning": 4300,
      "mangsana": 4301,
      "dombana": 4302,
      "pinggan": 4303,
      "Kristen": 4304,
      "altarna": 4305,
      "Saulus": 4306,
      "sumpingna": 4307,
      "anggoan": 4308,
      "guhkeun": 4309,
      "kasatia": 4310,
      "panadaran": 4311,
      "Yoram": 4312,
      "kamampuh": 4313,
      "linggihan": 4314,
      "Abia": 4315,
      "diucapkeun": 4316,
      "taleng": 4317,
      "dariuk": 4318,
      "panyapa": 4319,
      "estokeun": 4320,
      "gumbira": 4321,
      "wangsulna": 4322,
      "lamping": 4323,
      "Anggur": 4324,
      "ngestokeun": 4325,
      "pondok": 4326,
      "utama": 4327,
      "papatah": 4328,
      "orowok": 4329,
      "paparabotan": 4330,
      "Sihon": 4331,
      "tingjarerit": 4332,
      "Asarya": 4333,
      "dimakbul": 4334,
      "salirana": 4335,
      "12": 4336,
      "Ai": 4337,
      "Lalaki": 4338,
      "Sora": 4339,
      "Tar": 4340,
      "Tul": 4341,
      "Ujang": 4342,
      "beh": 4343,
      "ec": 4344,
      "eti": 4345,
      "iang": 4346,
      "keukeuh": 4347,
      "lemb": 4348,
      "meta": 4349,
      "op": 4350,
      "okeun": 4351,
      "paha": 4352,
      "ruh": 4353,
      "reren": 4354,
      "tot": 4355,
      "wali": 4356,
      "yam": 4357,
      "dica": 4358,
      "ditimbal": 4359,
      "dideuheus": 4360,
      "dijurung": 4361,
      "sapo": 4362,
      "erek": 4363,
      "tipu": 4364,
      "anuhun": 4365,
      "mapay": 4366,
      "pipi": 4367,
      "pili": 4368,
      "siel": 4369,
      "sila": 4370,
      "ulam": 4371,
      "wawaran": 4372,
      "ngaged": 4373,
      "etana": 4374,
      "nyapa": 4375,
      "lumur": 4376,
      "Sakali": 4377,
      "balna": 4378,
      "bandana": 4379,
      "kabeung": 4380,
      "warangan": 4381,
      "udangkeun": 4382,
      "ngandung": 4383,
      "halna": 4384,
      "paruku": 4385,
      "dipin": 4386,
      "asak": 4387,
      "gugah": 4388,
      "damelana": 4389,
      "ranca": 4390,
      "mulung": 4391,
      "Sip": 4392,
      "geuing": 4393,
      "dicabut": 4394,
      "Barudak": 4395,
      "Jalmi": 4396,
      "Pilahir": 4397,
      "Anaking": 4398,
      "dijieunna": 4399,
      "inditkeun": 4400,
      "susukan": 4401,
      "petana": 4402,
      "makmur": 4403,
      "disebutna": 4404,
      "nginjeum": 4405,
      "giring": 4406,
      "kapilih": 4407,
      "sampalanana": 4408,
      "bojona": 4409,
      "jongjon": 4410,
      "bangkena": 4411,
      "kapentingan": 4412,
      "hawatos": 4413,
      "dipeuncit": 4414,
      "ngaleupaskeun": 4415,
      "katerangan": 4416,
      "pamundut": 4417,
      "kabiasaan": 4418,
      "ngapalaan": 4419,
      "Boh": 4420,
      "Go": 4421,
      "bkeun": 4422,
      "ket": 4423,
      "keutan": 4424,
      "meung": 4425,
      "nari": 4426,
      "oyong": 4427,
      "teundeun": 4428,
      "yek": 4429,
      "yaho": 4430,
      "ngun": 4431,
      "nginget": 4432,
      "angke": 4433,
      "diar": 4434,
      "diker": 4435,
      "alana": 4436,
      "bati": 4437,
      "pakar": 4438,
      "raga": 4439,
      "usur": 4440,
      "daun": 4441,
      "inggu": 4442,
      "ingkir": 4443,
      "Pangandika": 4444,
      "nyanggem": 4445,
      "suk": 4446,
      "minuhan": 4447,
      "gema": 4448,
      "bia": 4449,
      "pangiring": 4450,
      "atoh": 4451,
      "orengan": 4452,
      "kandel": 4453,
      "anggu": 4454,
      "dipasang": 4455,
      "timbangan": 4456,
      "Tiap": 4457,
      "Maranehanana": 4458,
      "ngahormat": 4459,
      "kahor": 4460,
      "mangka": 4461,
      "god": 4462,
      "nyaring": 4463,
      "nyieunkeun": 4464,
      "nguping": 4465,
      "marigawe": 4466,
      "tepi": 4467,
      "ngabaran": 4468,
      "Amnon": 4469,
      "kolotna": 4470,
      "mikawelas": 4471,
      "ilipur": 4472,
      "wartoskeun": 4473,
      "ngarampas": 4474,
      "Sato": 4475,
      "barisaeun": 4476,
      "araheng": 4477,
      "dene": 4478,
      "nyalira": 4479,
      "lempeng": 4480,
      "panyalindungan": 4481,
      "Kalakuan": 4482,
      "dipundut": 4483,
      "Maaka": 4484,
      "kasatiaan": 4485,
      "Gom": 4486,
      "Han": 4487,
      "Hil": 4488,
      "Iraha": 4489,
      "brak": 4490,
      "cangan": 4491,
      "ging": 4492,
      "hampura": 4493,
      "seungit": 4494,
      "tarima": 4495,
      "teleng": 4496,
      "wur": 4497,
      "yur": 4498,
      "yung": 4499,
      "ngejat": 4500,
      "are": 4501,
      "dire": 4502,
      "naluk": 4503,
      "sagara": 4504,
      "sakitan": 4505,
      "tabe": 4506,
      "tagen": 4507,
      "babagian": 4508,
      "pih": 4509,
      "pit": 4510,
      "pihan": 4511,
      "ulya": 4512,
      "uluh": 4513,
      "uluku": 4514,
      "daekeun": 4515,
      "engis": 4516,
      "engkang": 4517,
      "ungsi": 4518,
      "ngas": 4519,
      "ngajara": 4520,
      "upeti": 4521,
      "cir": 4522,
      "buuk": 4523,
      "bubuahan": 4524,
      "Saku": 4525,
      "Saparantos": 4526,
      "ump": 4527,
      "epeh": 4528,
      "oteus": 4529,
      "hargana": 4530,
      "tarurun": 4531,
      "musim": 4532,
      "bahaya": 4533,
      "timbang": 4534,
      "pamuji": 4535,
      "puasa": 4536,
      "milampah": 4537,
      "ngubur": 4538,
      "ngucap": 4539,
      "garwana": 4540,
      "dareukeut": 4541,
      "dicang": 4542,
      "Baruk": 4543,
      "ngagencet": 4544,
      "nangtayungan": 4545,
      "darat": 4546,
      "paehna": 4547,
      "kagen": 4548,
      "kulem": 4549,
      "nulis": 4550,
      "nyebarkeun": 4551,
      "garagah": 4552,
      "meuntas": 4553,
      "Jaba": 4554,
      "mikaasih": 4555,
      "seubeuh": 4556,
      "cicingan": 4557,
      "wartosan": 4558,
      "nyarioskeun": 4559,
      "Timoteus": 4560,
      "ditangtayungan": 4561,
      "ungkun": 4562,
      "diterapan": 4563,
      "susuci": 4564,
      "nyeungceurikan": 4565,
      "Kiryat": 4566,
      "Gedalya": 4567,
      "ditolak": 4568,
      "Adonia": 4569,
      "katampi": 4570,
      "Jumlah": 4571,
      "babaturan": 4572,
      "eungteuinganan": 4573,
      "Abisai": 4574,
      "Darengekeun": 4575,
      "pahatu": 4576,
      "Arek": 4577,
      "Bara": 4578,
      "Ema": 4579,
      "Gamparan": 4580,
      "Jen": 4581,
      "Jung": 4582,
      "Pil": 4583,
      "Rut": 4584,
      "Sus": 4585,
      "Yun": 4586,
      "awahing": 4587,
      "breh": 4588,
      "conto": 4589,
      "iel": 4590,
      "skeun": 4591,
      "ukeun": 4592,
      "uban": 4593,
      "wera": 4594,
      "arangkat": 4595,
      "kaharti": 4596,
      "angk": 4597,
      "diteruskeun": 4598,
      "nak": 4599,
      "sabatur": 4600,
      "sapala": 4601,
      "kukeun": 4602,
      "ambe": 4603,
      "yas": 4604,
      "pasa": 4605,
      "ngage": 4606,
      "ngawangsul": 4607,
      "jinah": 4608,
      "tandaning": 4609,
      "deur": 4610,
      "gegel": 4611,
      "ribut": 4612,
      "saret": 4613,
      "panganten": 4614,
      "pangangon": 4615,
      "deku": 4616,
      "tanggana": 4617,
      "ombak": 4618,
      "cipanon": 4619,
      "panebus": 4620,
      "Nasaret": 4621,
      "ahas": 4622,
      "bangun": 4623,
      "bankeun": 4624,
      "karetana": 4625,
      "bangsat": 4626,
      "iram": 4627,
      "ajag": 4628,
      "harga": 4629,
      "harkat": 4630,
      "ngahuru": 4631,
      "murba": 4632,
      "mangpa": 4633,
      "iklas": 4634,
      "adigung": 4635,
      "wangun": 4636,
      "urutna": 4637,
      "brahalana": 4638,
      "nikah": 4639,
      "dicarita": 4640,
      "nangkep": 4641,
      "benerna": 4642,
      "tarapti": 4643,
      "sapina": 4644,
      "kalima": 4645,
      "muntang": 4646,
      "tahil": 4647,
      "loteng": 4648,
      "ingonna": 4649,
      "kadalapan": 4650,
      "dijabel": 4651,
      "pikasieuneun": 4652,
      "pungkur": 4653,
      "jungjung": 4654,
      "jenengana": 4655,
      "cageurkeun": 4656,
      "sakait": 4657,
      "ngeunah": 4658,
      "jawabna": 4659,
      "disaurkeun": 4660,
      "Ratu": 4661,
      "ditembongkeun": 4662,
      "dihakan": 4663,
      "Ngaran": 4664,
      "senti": 4665,
      "pikiranana": 4666,
      "talaga": 4667,
      "kapendak": 4668,
      "Gerson": 4669,
      "pangabo": 4670,
      "arembungeun": 4671,
      "Terus": 4672,
      "papancen": 4673,
      "ajrih": 4674,
      "ditumpurkeun": 4675,
      "kikiping": 4676,
      "Mariam": 4677,
      "dideuheuskeun": 4678,
      "kahormatan": 4679,
      "Jenengan": 4680,
      "Dengekeun": 4681,
      "Geu": 4682,
      "Jaman": 4683,
      "Meunang": 4684,
      "Ne": 4685,
      "Sis": 4686,
      "Sik": 4687,
      "bor": 4688,
      "ilah": 4689,
      "lami": 4690,
      "let": 4691,
      "omi": 4692,
      "rer": 4693,
      "rungkun": 4694,
      "santosa": 4695,
      "euman": 4696,
      "ngon": 4697,
      "kaa": 4698,
      "kasuci": 4699,
      "kahina": 4700,
      "kapaksa": 4701,
      "kabogoh": 4702,
      "diteu": 4703,
      "diiring": 4704,
      "dipuji": 4705,
      "dibuktikeun": 4706,
      "dibantun": 4707,
      "dihijikeun": 4708,
      "saking": 4709,
      "kutana": 4710,
      "aleutan": 4711,
      "tai": 4712,
      "tulisan": 4713,
      "babakti": 4714,
      "mati": 4715,
      "arakan": 4716,
      "ungna": 4717,
      "nuyun": 4718,
      "ngawejang": 4719,
      "jin": 4720,
      "jiga": 4721,
      "jisan": 4722,
      "mikanyaah": 4723,
      "nyasab": 4724,
      "pangluhurna": 4725,
      "Sakabeh": 4726,
      "karolot": 4727,
      "wios": 4728,
      "amak": 4729,
      "kate": 4730,
      "marah": 4731,
      "beuhan": 4732,
      "ngarobah": 4733,
      "sakujur": 4734,
      "ngahampura": 4735,
      "topan": 4736,
      "dangdan": 4737,
      "diping": 4738,
      "jarami": 4739,
      "dibaca": 4740,
      "urutkeun": 4741,
      "dieusi": 4742,
      "dihormat": 4743,
      "ngukur": 4744,
      "diaping": 4745,
      "ngagentra": 4746,
      "Jalan": 4747,
      "numutkeun": 4748,
      "serat": 4749,
      "kagorengan": 4750,
      "medal": 4751,
      "anggoanana": 4752,
      "direbut": 4753,
      "ragragan": 4754,
      "barodo": 4755,
      "panung": 4756,
      "Hajar": 4757,
      "marentahkeun": 4758,
      "Elam": 4759,
      "jauhan": 4760,
      "kawula": 4761,
      "pantona": 4762,
      "taluk": 4763,
      "Kurban": 4764,
      "kasalahanana": 4765,
      "ngahakan": 4766,
      "bijilkeun": 4767,
      "ditambah": 4768,
      "naranya": 4769,
      "reugreug": 4770,
      "Roti": 4771,
      "raksasa": 4772,
      "ngarempak": 4773,
      "Hate": 4774,
      "gebruskeun": 4775,
      "balukarna": 4776,
      "ahayukeun": 4777,
      "ancaman": 4778,
      "Rabeka": 4779,
      "Hilkia": 4780,
      "Sakuliah": 4781,
      "Yunus": 4782,
      ").": 4783,
      "Duh": 4784,
      "Gu": 4785,
      "Nil": 4786,
      "akna": 4787,
      "bruk": 4788,
      "cum": 4789,
      "lara": 4790,
      "oman": 4791,
      "rangg": 4792,
      "rante": 4793,
      "rorom": 4794,
      "rarancang": 4795,
      "teung": 4796,
      "yed": 4797,
      "ancur": 4798,
      "aralus": 4799,
      "kaja": 4800,
      "dita": 4801,
      "dikitu": 4802,
      "dibe": 4803,
      "dikumaha": 4804,
      "dipal": 4805,
      "dibara": 4806,
      "dikapala": 4807,
      "diuji": 4808,
      "dibela": 4809,
      "saan": 4810,
      "saeusi": 4811,
      "sakarep": 4812,
      "sabot": 4813,
      "aluk": 4814,
      "alangsa": 4815,
      "ehkeun": 4816,
      "urak": 4817,
      "tio": 4818,
      "baja": 4819,
      "yatar": 4820,
      "enca": 4821,
      "pacek": 4822,
      "jag": 4823,
      "uncal": 4824,
      "arabin": 4825,
      "ngajual": 4826,
      "ngawawarkeun": 4827,
      "ngagungkeun": 4828,
      "ngabijilkeun": 4829,
      "arian": 4830,
      "nyalah": 4831,
      "get": 4832,
      "gegen": 4833,
      "panghadena": 4834,
      "dewana": 4835,
      "ometer": 4836,
      "cikan": 4837,
      "butan": 4838,
      "Nagri": 4839,
      "Naomi": 4840,
      "balok": 4841,
      "baleunghar": 4842,
      "newe": 4843,
      "bangsana": 4844,
      "umput": 4845,
      "ukarabin": 4846,
      "dahna": 4847,
      "karamat": 4848,
      "ebreh": 4849,
      "eak": 4850,
      "kabungah": 4851,
      "tuluyna": 4852,
      "sepi": 4853,
      "sedih": 4854,
      "seger": 4855,
      "maru": 4856,
      "karajaanana": 4857,
      "ngaru": 4858,
      "sumbangan": 4859,
      "Yoyakin": 4860,
      "kahoyong": 4861,
      "ditulungan": 4862,
      "Abyatar": 4863,
      "ngaranyed": 4864,
      "kungna": 4865,
      "pesen": 4866,
      "pangaji": 4867,
      "mundur": 4868,
      "lalang": 4869,
      "guhan": 4870,
      "peuntas": 4871,
      "jej": 4872,
      "saruakeun": 4873,
      "nyaksian": 4874,
      "barogod": 4875,
      "nahna": 4876,
      "Yohanan": 4877,
      "hukumanana": 4878,
      "dijawab": 4879,
      "ngalih": 4880,
      "dilaksanakeun": 4881,
      "dikeuna": 4882,
      "dibuka": 4883,
      "dibuang": 4884,
      "korma": 4885,
      "ngajarkeun": 4886,
      "reureujeungan": 4887,
      "dihaja": 4888,
      "ungkulan": 4889,
      "kilometer": 4890,
      "cinta": 4891,
      "impenan": 4892,
      "cacadna": 4893,
      "rongkah": 4894,
      "karanjang": 4895,
      "disarebut": 4896,
      "sajati": 4897,
      "Ninewe": 4898,
      "wilay": 4899,
      "pademen": 4900,
      "ngahianat": 4901,
      "nyenangkeun": 4902,
      "ngahirupkeun": 4903,
      "gemblengna": 4904,
      "30": 4905,
      "400": 4906,
      "Beur": 4907,
      "Kul": 4908,
      "Kis": 4909,
      "Lir": 4910,
      "det": 4911,
      "donan": 4912,
      "gusti": 4913,
      "graha": 4914,
      "heran": 4915,
      "hurkeun": 4916,
      "kanggo": 4917,
      "mala": 4918,
      "mup": 4919,
      "nir": 4920,
      "seung": 4921,
      "semah": 4922,
      "ngor": 4923,
      "nganuhun": 4924,
      "ngungkulan": 4925,
      "artos": 4926,
      "kabu": 4927,
      "katangtu": 4928,
      "kaera": 4929,
      "dip": 4930,
      "dilahir": 4931,
      "dibeuli": 4932,
      "ditungtun": 4933,
      "dileupaskeun": 4934,
      "disaruakeun": 4935,
      "nasib": 4936,
      "eunan": 4937,
      "ehas": 4938,
      "urup": 4939,
      "taʼat": 4940,
      "picilaka": 4941,
      "pakna": 4942,
      "uni": 4943,
      "kirim": 4944,
      "eli": 4945,
      "ngagan": 4946,
      "ngagar": 4947,
      "ngawasa": 4948,
      "kalangan": 4949,
      "ontak": 4950,
      "nyosoeh": 4951,
      "uhud": 4952,
      "supan": 4953,
      "abuh": 4954,
      "rig": 4955,
      "nyaangan": 4956,
      "percanten": 4957,
      "kedul": 4958,
      "Sawareh": 4959,
      "kuduna": 4960,
      "bangkeun": 4961,
      "polah": 4962,
      "asana": 4963,
      "sirna": 4964,
      "temahna": 4965,
      "nganiaya": 4966,
      "tare": 4967,
      "muja": 4968,
      "henteuna": 4969,
      "wantun": 4970,
      "kawajib": 4971,
      "jodo": 4972,
      "euhan": 4973,
      "ditarik": 4974,
      "kaomna": 4975,
      "guman": 4976,
      "manggihan": 4977,
      "dikawin": 4978,
      "waleran": 4979,
      "petan": 4980,
      "pasrah": 4981,
      "niup": 4982,
      "kawasaan": 4983,
      "tameng": 4984,
      "ngagul": 4985,
      "ngagentos": 4986,
      "suluh": 4987,
      "Pira": 4988,
      "olong": 4989,
      "teka": 4990,
      "cua": 4991,
      "Bisi": 4992,
      "edana": 4993,
      "ngawuruk": 4994,
      "ngomongkeun": 4995,
      "sanggeusna": 4996,
      "ragkeun": 4997,
      "Waktos": 4998,
      "Karmel": 4999,
      "ngaliwatan": 5000,
      "dagingna": 5001,
      "nyusahkeun": 5002,
      "Esra": 5003,
      "mintonkeun": 5004,
      "yuswana": 5005,
      "legana": 5006,
      "dikantun": 5007,
      "beuteung": 5008,
      "jangjangna": 5009,
      "Cai": 5010,
      "rempug": 5011,
      "ngadoja": 5012,
      "buni": 5013,
      "ngentab": 5014,
      "dipasrahkeun": 5015,
      "brasna": 5016,
      "nyumponan": 5017,
      "ngalalayanan": 5018,
      "Maksud": 5019,
      "tingalan": 5020,
      "layon": 5021,
      "kakayaan": 5022,
      "Pinehas": 5023,
      "mustahil": 5024,
      "teurkeun": 5025,
      "mastaka": 5026,
      "jeput": 5027,
      "nyimpang": 5028,
      "metakeun": 5029,
      "ditimbalkeun": 5030,
      "gegelendeng": 5031,
      "Sisera": 5032,
      "kahinaan": 5033,
      "rorompok": 5034,
      "kawajibanana": 5035,
      "22": 5036,
      "Ci": 5037,
      "Hana": 5038,
      "Oho": 5039,
      "Obed": 5040,
      "Sara": 5041,
      "Tab": 5042,
      "awon": 5043,
      "ktosna": 5044,
      "mukti": 5045,
      "opo": 5046,
      "sela": 5047,
      "sanggem": 5048,
      "wet": 5049,
      "nganggap": 5050,
      "aranut": 5051,
      "angen": 5052,
      "diaya": 5053,
      "diturut": 5054,
      "naek": 5055,
      "eunteung": 5056,
      "satunggal": 5057,
      "sagemblengna": 5058,
      "ereh": 5059,
      "majeng": 5060,
      "pil": 5061,
      "pilang": 5062,
      "pisalamet": 5063,
      "pihak": 5064,
      "pikanyaah": 5065,
      "rasana": 5066,
      "elak": 5067,
      "dadamelan": 5068,
      "ingan": 5069,
      "duka": 5070,
      "nyeri": 5071,
      "Altar": 5072,
      "suda": 5073,
      "abid": 5074,
      "jit": 5075,
      "midangdam": 5076,
      "bir": 5077,
      "lacur": 5078,
      "saral": 5079,
      "sarus": 5080,
      "linen": 5081,
      "hiber": 5082,
      "pangi": 5083,
      "tangara": 5084,
      "oram": 5085,
      "uputkeun": 5086,
      "ketan": 5087,
      "Sapi": 5088,
      "Isebel": 5089,
      "barontak": 5090,
      "salilana": 5091,
      "patkeun": 5092,
      "Kades": 5093,
      "beul": 5094,
      "otna": 5095,
      "timeter": 5096,
      "ditet": 5097,
      "idek": 5098,
      "kahan": 5099,
      "guan": 5100,
      "mulangkeun": 5101,
      "sanaos": 5102,
      "tukangeun": 5103,
      "Paeh": 5104,
      "menc": 5105,
      "mendak": 5106,
      "bagikeun": 5107,
      "bagianana": 5108,
      "Lawang": 5109,
      "pangagung": 5110,
      "derma": 5111,
      "kumbah": 5112,
      "lega": 5113,
      "cokot": 5114,
      "gahkeun": 5115,
      "bungbu": 5116,
      "kajadianana": 5117,
      "ngambah": 5118,
      "sapapa": 5119,
      "kampung": 5120,
      "harade": 5121,
      "bokor": 5122,
      "malarat": 5123,
      "Elkana": 5124,
      "lahanna": 5125,
      "apkeun": 5126,
      "jauhna": 5127,
      "cilakaan": 5128,
      "doni": 5129,
      "raksukan": 5130,
      "narenjoeun": 5131,
      "Yehoram": 5132,
      "pepeling": 5133,
      "ngariung": 5134,
      "incuna": 5135,
      "Salum": 5136,
      "Silas": 5137,
      "nonoman": 5138,
      "ukuran": 5139,
      "sentimeter": 5140,
      "ngabaptis": 5141,
      "tarumpak": 5142,
      "tarumpah": 5143,
      "kasoran": 5144,
      "selir": 5145,
      "Jig": 5146,
      "Jisim": 5147,
      "nyumpahan": 5148,
      "nanaon": 5149,
      "Makedoni": 5150,
      "ngamimiti": 5151,
      "heubeul": 5152,
      "ngabobodo": 5153,
      "neuteup": 5154,
      "sarumping": 5155,
      "tedaeun": 5156,
      "parukuyan": 5157,
      "dikapalaan": 5158,
      "Calikna": 5159,
      "Jang": 5160,
      "Komo": 5161,
      "Meh": 5162,
      "Pen": 5163,
      "Wan": 5164,
      "cab": 5165,
      "gungan": 5166,
      "gilir": 5167,
      "idin": 5168,
      "juk": 5169,
      "junan": 5170,
      "jengan": 5171,
      "ksian": 5172,
      "oja": 5173,
      "peur": 5174,
      "rut": 5175,
      "wala": 5176,
      "kaha": 5177,
      "kaduh": 5178,
      "kabijaksana": 5179,
      "dibal": 5180,
      "didatangan": 5181,
      "diluputkeun": 5182,
      "digiring": 5183,
      "dicageurkeun": 5184,
      "nali": 5185,
      "saena": 5186,
      "kungan": 5187,
      "titingalan": 5188,
      "tad": 5189,
      "amkeun": 5190,
      "tula": 5191,
      "baku": 5192,
      "maca": 5193,
      "paka": 5194,
      "pasar": 5195,
      "eungseurikeun": 5196,
      "kiman": 5197,
      "elmu": 5198,
      "dapan": 5199,
      "dayana": 5200,
      "emban": 5201,
      "wad": 5202,
      "wakeun": 5203,
      "ngabohong": 5204,
      "ngabantun": 5205,
      "ngajenan": 5206,
      "nyegah": 5207,
      "mitina": 5208,
      "mandi": 5209,
      "kandungan": 5210,
      "jangkungna": 5211,
      "Baasa": 5212,
      "karebut": 5213,
      "Kain": 5214,
      "Antio": 5215,
      "bedah": 5216,
      "istakeun": 5217,
      "pareng": 5218,
      "parekan": 5219,
      "Yosa": 5220,
      "Yotam": 5221,
      "dituyun": 5222,
      "nyiri": 5223,
      "kerta": 5224,
      "wihkeun": 5225,
      "elaan": 5226,
      "omongna": 5227,
      "nangtang": 5228,
      "rol": 5229,
      "saratia": 5230,
      "kaliwat": 5231,
      "jengkar": 5232,
      "ngadegdeg": 5233,
      "tebih": 5234,
      "kintun": 5235,
      "medan": 5236,
      "nyalukan": 5237,
      "nuhun": 5238,
      "empel": 5239,
      "raram": 5240,
      "kakawasaanana": 5241,
      "dekna": 5242,
      "nahkeun": 5243,
      "esepuh": 5244,
      "timbalanana": 5245,
      "tinekanan": 5246,
      "pribumi": 5247,
      "hees": 5248,
      "dilarang": 5249,
      "jiskeun": 5250,
      "desana": 5251,
      "carios": 5252,
      "Tangtos": 5253,
      "pagaweanana": 5254,
      "tongg": 5255,
      "dahanna": 5256,
      "samemehna": 5257,
      "ngawulaan": 5258,
      "Ramot": 5259,
      "sungkawa": 5260,
      "Parandene": 5261,
      "Kalawan": 5262,
      "harayangeun": 5263,
      "tarerangeun": 5264,
      "runtuh": 5265,
      "pengkuh": 5266,
      "diganjar": 5267,
      "dicarioskeun": 5268,
      "dihias": 5269,
      "saparo": 5270,
      "kalangkang": 5271,
      "pilihan": 5272,
      "nalukkeun": 5273,
      "kagenep": 5274,
      "pasagi": 5275,
      "dicaritakeun": 5276,
      "Geuwat": 5277,
      "nyasabkeun": 5278,
      "encay": 5279,
      "nganuhunkeun": 5280,
      "gumantung": 5281,
      "pisalameteun": 5282,
      "saralamet": 5283,
      "sapapaosna": 5284,
      "Antioki": 5285,
      "Dari": 5286,
      "Dit": 5287,
      "Gasa": 5288,
      "Kari": 5289,
      "Kat": 5290,
      "Lay": 5291,
      "Lib": 5292,
      "Mil": 5293,
      "Ras": 5294,
      "Sepan": 5295,
      "Sanggem": 5296,
      "Tet": 5297,
      "Un": 5298,
      "bya": 5299,
      "dalima": 5300,
      "gunungan": 5301,
      "lon": 5302,
      "mama": 5303,
      "moro": 5304,
      "nera": 5305,
      "soso": 5306,
      "syeba": 5307,
      "sesepuh": 5308,
      "ukiran": 5309,
      "ngana": 5310,
      "ngera": 5311,
      "ngingetan": 5312,
      "kasurup": 5313,
      "kacilakaan": 5314,
      "anggih": 5315,
      "dili": 5316,
      "digal": 5317,
      "dibeb": 5318,
      "dimakam": 5319,
      "dipelak": 5320,
      "dicicingan": 5321,
      "sasar": 5322,
      "tagi": 5323,
      "bayar": 5324,
      "batin": 5325,
      "anus": 5326,
      "pating": 5327,
      "siang": 5328,
      "raya": 5329,
      "unyana": 5330,
      "ngabar": 5331,
      "ngabul": 5332,
      "ngagede": 5333,
      "ngagol": 5334,
      "dukna": 5335,
      "nyimpen": 5336,
      "teukna": 5337,
      "gak": 5338,
      "sarurak": 5339,
      "liat": 5340,
      "Sapan": 5341,
      "Sabada": 5342,
      "panan": 5343,
      "Naaman": 5344,
      "cacah": 5345,
      "kanajisan": 5346,
      "kotan": 5347,
      "umbar": 5348,
      "umbul": 5349,
      "umpak": 5350,
      "salila": 5351,
      "patokan": 5352,
      "ukul": 5353,
      "setan": 5354,
      "seep": 5355,
      "ngalarti": 5356,
      "pulih": 5357,
      "oto": 5358,
      "ajaib": 5359,
      "tembo": 5360,
      "haram": 5361,
      "hartosna": 5362,
      "musik": 5363,
      "kawasana": 5364,
      "oho": 5365,
      "bejana": 5366,
      "tingkeun": 5367,
      "halangan": 5368,
      "Sangkan": 5369,
      "guna": 5370,
      "gumati": 5371,
      "goan": 5372,
      "godos": 5373,
      "awewena": 5374,
      "kersaning": 5375,
      "eger": 5376,
      "nyaru": 5377,
      "nguji": 5378,
      "wuhan": 5379,
      "liren": 5380,
      "heulaeun": 5381,
      "saksina": 5382,
      "tambang": 5383,
      "ngagotong": 5384,
      "batuna": 5385,
      "nangis": 5386,
      "gulung": 5387,
      "nunuhun": 5388,
      "diandih": 5389,
      "benduan": 5390,
      "sapagodos": 5391,
      "ngadengekeun": 5392,
      "diukur": 5393,
      "sanesna": 5394,
      "embungeun": 5395,
      "yanyi": 5396,
      "cikalna": 5397,
      "pikagiru": 5398,
      "Hiwi": 5399,
      "kulitna": 5400,
      "jerit": 5401,
      "cec": 5402,
      "cekap": 5403,
      "mukakeun": 5404,
      "Kores": 5405,
      "Mesulam": 5406,
      "raray": 5407,
      "Bersyeba": 5408,
      "ceuceu": 5409,
      "Repa": 5410,
      "Hananya": 5411,
      "rumaos": 5412,
      "nincak": 5413,
      "Lampahna": 5414,
      "ngedeng": 5415,
      "ngabujeng": 5416,
      "Yabes": 5417,
      "pancuh": 5418,
      "ngukus": 5419,
      "Epesus": 5420,
      "lombang": 5421,
      "baruahan": 5422,
      "lalumpatan": 5423,
      "kabeungharan": 5424,
      "Goliat": 5425,
      "dikumahakeun": 5426,
      "wilayah": 5427,
      "picilakaeun": 5428,
      "sudagar": 5429,
      "kaduhung": 5430,
      "Darius": 5431,
      "10": 5432,
      "500": 5433,
      "Bat": 5434,
      "Bruk": 5435,
      "Dang": 5436,
      "Ek": 5437,
      "Her": 5438,
      "Kaha": 5439,
      "Mangsa": 5440,
      "Mulyakeun": 5441,
      "Og": 5442,
      "Yunan": 5443,
      "Yarim": 5444,
      "bekel": 5445,
      "eya": 5446,
      "ebog": 5447,
      "gengg": 5448,
      "peu": 5449,
      "rendah": 5450,
      "set": 5451,
      "suhud": 5452,
      "tel": 5453,
      "wahan": 5454,
      "ngong": 5455,
      "kateu": 5456,
      "diraja": 5457,
      "dibejaan": 5458,
      "ditimbang": 5459,
      "aheng": 5460,
      "kun": 5461,
      "kuku": 5462,
      "erusna": 5463,
      "tinan": 5464,
      "tut": 5465,
      "tupan": 5466,
      "bawahan": 5467,
      "eungeu": 5468,
      "aris": 5469,
      "dupa": 5470,
      "kalan": 5471,
      "kalung": 5472,
      "amis": 5473,
      "nyeuseuh": 5474,
      "teuas": 5475,
      "sumu": 5476,
      "misah": 5477,
      "alaga": 5478,
      "mantuan": 5479,
      "geto": 5480,
      "liahna": 5481,
      "hianat": 5482,
      "pangang": 5483,
      "osok": 5484,
      "imbang": 5485,
      "Saper": 5486,
      "inten": 5487,
      "bani": 5488,
      "rajabrana": 5489,
      "boa": 5490,
      "wirang": 5491,
      "aseya": 5492,
      "Kade": 5493,
      "Kakara": 5494,
      "Kapala": 5495,
      "Kajaba": 5496,
      "ukun": 5497,
      "katarenjo": 5498,
      "ngalayad": 5499,
      "karapihan": 5500,
      "bahya": 5501,
      "udakna": 5502,
      "sakuliahna": 5503,
      "kangewa": 5504,
      "pamu": 5505,
      "benang": 5506,
      "nyiar": 5507,
      "nyicingan": 5508,
      "sore": 5509,
      "dibakukeun": 5510,
      "pukan": 5511,
      "degong": 5512,
      "gare": 5513,
      "gareja": 5514,
      "ngagur": 5515,
      "marabok": 5516,
      "ijideun": 5517,
      "daraekeun": 5518,
      "hareupna": 5519,
      "lawangna": 5520,
      "kasebut": 5521,
      "edunan": 5522,
      "peuncit": 5523,
      "jeki": 5524,
      "nyanghareupan": 5525,
      "Arnon": 5526,
      "ngakukeun": 5527,
      "Yair": 5528,
      "dipikawelas": 5529,
      "palercayaeun": 5530,
      "dibuat": 5531,
      "Yesua": 5532,
      "nunggu": 5533,
      "tulen": 5534,
      "tatabeuhan": 5535,
      "siksaan": 5536,
      "Dawuhana": 5537,
      "rengse": 5538,
      "Saterusna": 5539,
      "Bumi": 5540,
      "naranyakeun": 5541,
      "dihirupan": 5542,
      "biluk": 5543,
      "meujeuhna": 5544,
      "eunggeulan": 5545,
      "Inget": 5546,
      "hebatna": 5547,
      "Yepta": 5548,
      "Puguh": 5549,
      "mudun": 5550,
      "Gomora": 5551,
      "telenges": 5552,
      "nyalahkeun": 5553,
      "ngawasaan": 5554,
      "kasurupan": 5555,
      "dimakamkeun": 5556,
      "dirajaan": 5557,
      "sumujud": 5558,
      "Adam": 5559,
      "Anyar": 5560,
      "Geha": 5561,
      "Hel": 5562,
      "Hab": 5563,
      "Ked": 5564,
      "Lo": 5565,
      "Ngar": 5566,
      "Step": 5567,
      "Syeba": 5568,
      "Yas": 5569,
      "awal": 5570,
      "brek": 5571,
      "eang": 5572,
      "gram": 5573,
      "gragkeun": 5574,
      "isan": 5575,
      "jrek": 5576,
      "jok": 5577,
      "lulus": 5578,
      "meureun": 5579,
      "mukarabin": 5580,
      "neunggeul": 5581,
      "peung": 5582,
      "ros": 5583,
      "sari": 5584,
      "yo": 5585,
      "kabal": 5586,
      "kadarenge": 5587,
      "kaalaman": 5588,
      "dio": 5589,
      "dige": 5590,
      "diru": 5591,
      "dikieu": 5592,
      "ditempat": 5593,
      "disaru": 5594,
      "diputus": 5595,
      "saparantos": 5596,
      "satuju": 5597,
      "tipan": 5598,
      "tiis": 5599,
      "tilar": 5600,
      "tinangtu": 5601,
      "tugas": 5602,
      "pir": 5603,
      "pingan": 5604,
      "pilih": 5605,
      "pae": 5606,
      "pait": 5607,
      "paca": 5608,
      "rakana": 5609,
      "kinan": 5610,
      "kidung": 5611,
      "ngagi": 5612,
      "ngawi": 5613,
      "ngajo": 5614,
      "ngabinasa": 5615,
      "ilang": 5616,
      "sugema": 5617,
      "alas": 5618,
      "mantep": 5619,
      "bit": 5620,
      "lapor": 5621,
      "nyabut": 5622,
      "ongok": 5623,
      "cakan": 5624,
      "pot": 5625,
      "hakna": 5626,
      "epungan": 5627,
      "babel": 5628,
      "ebur": 5629,
      "wijaksana": 5630,
      "seba": 5631,
      "marere": 5632,
      "ngalengis": 5633,
      "ngarar": 5634,
      "temen": 5635,
      "hareula": 5636,
      "muna": 5637,
      "timbul": 5638,
      "ditebus": 5639,
      "ngahalang": 5640,
      "Kiamat": 5641,
      "sihkeun": 5642,
      "mulyakeun": 5643,
      "nyarekel": 5644,
      "burencay": 5645,
      "Pacuan": 5646,
      "ngaranjah": 5647,
      "pupu": 5648,
      "angkatna": 5649,
      "katutup": 5650,
      "rejeki": 5651,
      "Simri": 5652,
      "Sabar": 5653,
      "tengahna": 5654,
      "sapian": 5655,
      "kalina": 5656,
      "ngalahirkeun": 5657,
      "laluhur": 5658,
      "ageung": 5659,
      "nenjoeun": 5660,
      "eurih": 5661,
      "eraeun": 5662,
      "maparinkeun": 5663,
      "turunkeun": 5664,
      "prajuritna": 5665,
      "caring": 5666,
      "panonna": 5667,
      "mariksakeun": 5668,
      "sayakti": 5669,
      "sasat": 5670,
      "Karana": 5671,
      "kamulyaana": 5672,
      "Panon": 5673,
      "agungna": 5674,
      "rayina": 5675,
      "ngintip": 5676,
      "kelang": 5677,
      "teukteuk": 5678,
      "nyingkir": 5679,
      "Sumping": 5680,
      "lambang": 5681,
      "palita": 5682,
      "satengahing": 5683,
      "dibagikeun": 5684,
      "cocoba": 5685,
      "beungeutna": 5686,
      "bengis": 5687,
      "nempatkeun": 5688,
      "gajihna": 5689,
      "baledogan": 5690,
      "umumkeun": 5691,
      "nyingkahan": 5692,
      "kakait": 5693,
      "tatandu": 5694,
      "kongkor": 5695,
      "dialungkeun": 5696,
      "kecet": 5697,
      "netelakeun": 5698,
      "Hasael": 5699,
      "Serubabel": 5700,
      "papalang": 5701,
      "Leuwih": 5702,
      "mistina": 5703,
      "diranjah": 5704,
      "tohaga": 5705,
      "pangiringna": 5706,
      "nguburkeun": 5707,
      "cumeluk": 5708,
      "paceklik": 5709,
      "nalika": 5710,
      "tagiwur": 5711,
      "yanyikeun": 5712,
      "pikagirukeun": 5713,
      "Ekron": 5714,
      "Yunani": 5715,
      "Gehasi": 5716,
      "Stepanus": 5717,
      "60": 5718,
      "Bah": 5719,
      "Haran": 5720,
      "Hiram": 5721,
      "Ker": 5722,
      "Kena": 5723,
      "Nurutkeun": 5724,
      "Obaja": 5725,
      "Pun": 5726,
      "Sur": 5727,
      "Sin": 5728,
      "Upam": 5729,
      "ajur": 5730,
      "gek": 5731,
      "mes": 5732,
      "mut": 5733,
      "res": 5734,
      "reup": 5735,
      "repeh": 5736,
      "telakeun": 5737,
      "eubeuh": 5738,
      "ngeusian": 5739,
      "ngamak": 5740,
      "arwah": 5741,
      "kakur": 5742,
      "kajauhan": 5743,
      "dingan": 5744,
      "dijar": 5745,
      "dile": 5746,
      "didalahar": 5747,
      "diwawarkeun": 5748,
      "diestokeun": 5749,
      "naga": 5750,
      "samar": 5751,
      "sayang": 5752,
      "sasapian": 5753,
      "tian": 5754,
      "bay": 5755,
      "yag": 5756,
      "yatakeun": 5757,
      "eny": 5758,
      "enkeun": 5759,
      "pipikiran": 5760,
      "piboset": 5761,
      "pakanana": 5762,
      "paburi": 5763,
      "jawa": 5764,
      "usul": 5765,
      "araan": 5766,
      "daunna": 5767,
      "emutan": 5768,
      "empetan": 5769,
      "engkeun": 5770,
      "engker": 5771,
      "wawal": 5772,
      "wawang": 5773,
      "nugraha": 5774,
      "ngawas": 5775,
      "ilin": 5776,
      "gasana": 5777,
      "tanduk": 5778,
      "mikir": 5779,
      "mikiran": 5780,
      "biri": 5781,
      "etek": 5782,
      "sarenang": 5783,
      "lini": 5784,
      "hideung": 5785,
      "atet": 5786,
      "perih": 5787,
      "perkarana": 5788,
      "tangan": 5789,
      "upah": 5790,
      "buukna": 5791,
      "abdina": 5792,
      "Nadab": 5793,
      "bangunna": 5794,
      "hajat": 5795,
      "jangan": 5796,
      "Batu": 5797,
      "ngaleungit": 5798,
      "ngarendahkeun": 5799,
      "ngancam": 5800,
      "nganyatakeun": 5801,
      "tarang": 5802,
      "Daging": 5803,
      "bedana": 5804,
      "Mepiboset": 5805,
      "paruasa": 5806,
      "Yoahas": 5807,
      "log": 5808,
      "Sanggakeun": 5809,
      "imamna": 5810,
      "ditun": 5811,
      "dipisahkeun": 5812,
      "nyip": 5813,
      "jarahan": 5814,
      "pingping": 5815,
      "barangna": 5816,
      "degana": 5817,
      "nanjak": 5818,
      "ebutkeun": 5819,
      "gararing": 5820,
      "sapertilu": 5821,
      "salahna": 5822,
      "ngurilingan": 5823,
      "Lasarus": 5824,
      "tumpukan": 5825,
      "cangkir": 5826,
      "jumlahna": 5827,
      "Maaseya": 5828,
      "lalolong": 5829,
      "Peres": 5830,
      "ngabaktikeun": 5831,
      "saheula": 5832,
      "soca": 5833,
      "diberean": 5834,
      "empling": 5835,
      "weuhkeun": 5836,
      "mungkir": 5837,
      "palacuran": 5838,
      "disebutkeun": 5839,
      "nguruskeun": 5840,
      "bentengna": 5841,
      "dipangnedakeun": 5842,
      "dipangnyieunkeun": 5843,
      "pikaijideun": 5844,
      "Tangkal": 5845,
      "sakalian": 5846,
      "corong": 5847,
      "Nyaho": 5848,
      "dengki": 5849,
      "sarieuneunana": 5850,
      "buahanana": 5851,
      "ditempuh": 5852,
      "teger": 5853,
      "gampang": 5854,
      "euleut": 5855,
      "Mesopo": 5856,
      "sepuhna": 5857,
      "remuk": 5858,
      "diterangkeun": 5859,
      "Pamingpin": 5860,
      "pijadieunana": 5861,
      "Pares": 5862,
      "Semes": 5863,
      "naluturkeun": 5864,
      "Prajurit": 5865,
      "katerap": 5866,
      "peupeuting": 5867,
      "nimbang": 5868,
      "Arab": 5869,
      "inggeung": 5870,
      "yahokeun": 5871,
      "Susan": 5872,
      "ebrehkeun": 5873,
      "katangtuan": 5874,
      "nyirikeun": 5875,
      "nerapkeun": 5876,
      "ceuceub": 5877,
      "Batseba": 5878,
      "Upamana": 5879,
      "paburisat": 5880,
      "Mesopota": 5881,
      "50": 5882,
      "Ad": 5883,
      "Ak": 5884,
      "Atal": 5885,
      "Bel": 5886,
      "Do": 5887,
      "Del": 5888,
      "Enung": 5889,
      "Kas": 5890,
      "Lampahkeun": 5891,
      "Mik": 5892,
      "Regepkeun": 5893,
      "Seb": 5894,
      "Sir": 5895,
      "Sanes": 5896,
      "Tum": 5897,
      "Talaga": 5898,
      "Yit": 5899,
      "catur": 5900,
      "dunyana": 5901,
      "gamparan": 5902,
      "ig": 5903,
      "inum": 5904,
      "ksi": 5905,
      "sos": 5906,
      "uc": 5907,
      "wora": 5908,
      "anting": 5909,
      "andel": 5910,
      "euha": 5911,
      "ngol": 5912,
      "ngewa": 5913,
      "arambe": 5914,
      "kasar": 5915,
      "kabagian": 5916,
      "digung": 5917,
      "disala": 5918,
      "dikari": 5919,
      "disasa": 5920,
      "dipali": 5921,
      "diarah": 5922,
      "napas": 5923,
      "sakan": 5924,
      "sapuk": 5925,
      "baca": 5926,
      "baptis": 5927,
      "piceun": 5928,
      "piwarangan": 5929,
      "sirik": 5930,
      "dakna": 5931,
      "ngawar": 5932,
      "ngawangun": 5933,
      "ontal": 5934,
      "nyaran": 5935,
      "gap": 5936,
      "gagal": 5937,
      "subuh": 5938,
      "eseh": 5939,
      "deukeutan": 5940,
      "geakeun": 5941,
      "laip": 5942,
      "nyata": 5943,
      "pangperangan": 5944,
      "panglinggihan": 5945,
      "tanggah": 5946,
      "oran": 5947,
      "upamana": 5948,
      "ginan": 5949,
      "panyang": 5950,
      "hakan": 5951,
      "Bagian": 5952,
      "dod": 5953,
      "putkeun": 5954,
      "Diri": 5955,
      "ngalangkung": 5956,
      "ngarora": 5957,
      "ngancik": 5958,
      "ampun": 5959,
      "hartos": 5960,
      "hirupan": 5961,
      "paroho": 5962,
      "sumang": 5963,
      "pamere": 5964,
      "sauranana": 5965,
      "mangpirang": 5966,
      "mangkok": 5967,
      "binang": 5968,
      "damelna": 5969,
      "egdeg": 5970,
      "nyarumput": 5971,
      "puy": 5972,
      "dieuweuhkeun": 5973,
      "mentang": 5974,
      "menyat": 5975,
      "hayangeun": 5976,
      "saruka": 5977,
      "ninggang": 5978,
      "edaya": 5979,
      "tangkalna": 5980,
      "Lajeng": 5981,
      "Lakis": 5982,
      "diancurkeun": 5983,
      "lale": 5984,
      "kasempetan": 5985,
      "eureunkeun": 5986,
      "bungsu": 5987,
      "lisahan": 5988,
      "orokna": 5989,
      "tanagana": 5990,
      "erahkeun": 5991,
      "watesan": 5992,
      "Enggal": 5993,
      "Ahir": 5994,
      "Ahimelek": 5995,
      "ibun": 5996,
      "tingalian": 5997,
      "kuloneun": 5998,
      "Ngandika": 5999,
      "gumel": 6000,
      "Asdod": 6001,
      "Seraya": 6002,
      "karepna": 6003,
      "Tanahna": 6004,
      "diinum": 6005,
      "ditarurut": 6006,
      "jubahna": 6007,
      "lesot": 6008,
      "teguh": 6009,
      "euleuman": 6010,
      "disesakeun": 6011,
      "utamana": 6012,
      "caritakeun": 6013,
      "digugahkeun": 6014,
      "panyambatna": 6015,
      "ceulina": 6016,
      "lendo": 6017,
      "aratoh": 6018,
      "karandapan": 6019,
      "ngalegaan": 6020,
      "nyampak": 6021,
      "mapagkeun": 6022,
      "Hasor": 6023,
      "mepek": 6024,
      "sesembahan": 6025,
      "katelah": 6026,
      "pakarangna": 6027,
      "umponan": 6028,
      "ngamimitian": 6029,
      "kabijaksanaan": 6030,
      "tonggong": 6031,
      "paedahna": 6032,
      "Atalya": 6033,
      "disalaur": 6034,
      "dikarikeun": 6035,
      "Asah": 6036,
      "Budak": 6037,
      "Dat": 6038,
      "Hatur": 6039,
      "Hukuman": 6040,
      "Ita": 6041,
      "Isukan": 6042,
      "Jol": 6043,
      "Lahir": 6044,
      "Ngal": 6045,
      "Netan": 6046,
      "Salah": 6047,
      "Tam": 6048,
      "Tat": 6049,
      "Utus": 6050,
      "Usiel": 6051,
      "iwal": 6052,
      "lun": 6053,
      "rari": 6054,
      "rusuh": 6055,
      "rukun": 6056,
      "seukeut": 6057,
      "uyah": 6058,
      "wuk": 6059,
      "wilujeng": 6060,
      "ngimpi": 6061,
      "kaang": 6062,
      "kating": 6063,
      "kakia": 6064,
      "kaagama": 6065,
      "dim": 6066,
      "didawuh": 6067,
      "diburak": 6068,
      "dijungjung": 6069,
      "diturunkeun": 6070,
      "eunteu": 6071,
      "satanah": 6072,
      "sawios": 6073,
      "kuci": 6074,
      "alungkeun": 6075,
      "urung": 6076,
      "urusna": 6077,
      "tikna": 6078,
      "taan": 6079,
      "tumi": 6080,
      "tutung": 6081,
      "tugu": 6082,
      "tulis": 6083,
      "bata": 6084,
      "badegana": 6085,
      "ulungan": 6086,
      "unina": 6087,
      "untungna": 6088,
      "kingan": 6089,
      "elep": 6090,
      "emot": 6091,
      "gai": 6092,
      "gail": 6093,
      "tani": 6094,
      "mios": 6095,
      "misahkeun": 6096,
      "sareubeuh": 6097,
      "kuran": 6098,
      "nyatu": 6099,
      "perakna": 6100,
      "pernahna": 6101,
      "kandang": 6102,
      "buku": 6103,
      "Saupami": 6104,
      "jangkeun": 6105,
      "Kuta": 6106,
      "ebon": 6107,
      "ebet": 6108,
      "alikan": 6109,
      "hijina": 6110,
      "Taun": 6111,
      "Tadina": 6112,
      "maro": 6113,
      "karasana": 6114,
      "harudang": 6115,
      "tingg": 6116,
      "ditahan": 6117,
      "jalanan": 6118,
      "imaman": 6119,
      "usuhan": 6120,
      "murtad": 6121,
      "mulyana": 6122,
      "teteg": 6123,
      "diaan": 6124,
      "garoreng": 6125,
      "mendakan": 6126,
      "rampog": 6127,
      "heulaan": 6128,
      "tihangna": 6129,
      "padataran": 6130,
      "laleu": 6131,
      "Samemeh": 6132,
      "dirante": 6133,
      "maotna": 6134,
      "kulawargi": 6135,
      "ngandikakeun": 6136,
      "Mikal": 6137,
      "sapasukan": 6138,
      "marentahna": 6139,
      "ditiup": 6140,
      "ebug": 6141,
      "Nabal": 6142,
      "Nabot": 6143,
      "Abigail": 6144,
      "nambahan": 6145,
      "pedangna": 6146,
      "nyebar": 6147,
      "kayakinan": 6148,
      "egep": 6149,
      "gandekna": 6150,
      "dilawan": 6151,
      "Pany": 6152,
      "ngangkir": 6153,
      "Rahab": 6154,
      "dipikaasih": 6155,
      "gebray": 6156,
      "pongpok": 6157,
      "Seba": 6158,
      "kemahna": 6159,
      "tatapakan": 6160,
      "ngahakiman": 6161,
      "Sumangga": 6162,
      "enggoning": 6163,
      "kakuatanana": 6164,
      "diperangan": 6165,
      "jamuan": 6166,
      "gambar": 6167,
      "layakna": 6168,
      "Tobia": 6169,
      "ngirimkeun": 6170,
      "Harta": 6171,
      "kekebul": 6172,
      "Kedah": 6173,
      "digantung": 6174,
      "piraku": 6175,
      "Aminadab": 6176,
      "mitra": 6177,
      "mareuntas": 6178,
      "sesembahanana": 6179,
      "akarna": 6180,
      "nyebatkeun": 6181,
      "dayeuh": 6182,
      "balencarkeun": 6183,
      "mengkol": 6184,
      "ruhak": 6185,
      "sapopoe": 6186,
      "dipindahkeun": 6187,
      "direkakeun": 6188,
      "tabeat": 6189,
      "ngagentraan": 6190,
      "panungtungan": 6191,
      "mupu": 6192,
      "Oholi": 6193,
      "Sarai": 6194,
      "ngamakbul": 6195,
      "ngaleungitkeun": 6196,
      "Mesopotami": 6197,
      "ginanjar": 6198,
      "Itamar": 6199,
      "tumiba": 6200,
      "Asia": 6201,
      "Akis": 6202,
      "Ajengan": 6203,
      "Breh": 6204,
      "Der": 6205,
      "Eg": 6206,
      "Gos": 6207,
      "Hosea": 6208,
      "Itu": 6209,
      "Imah": 6210,
      "Keh": 6211,
      "Kesar": 6212,
      "Nenjo": 6213,
      "Ngara": 6214,
      "Put": 6215,
      "Usa": 6216,
      "Umur": 6217,
      "bek": 6218,
      "bles": 6219,
      "breg": 6220,
      "cut": 6221,
      "eah": 6222,
      "gali": 6223,
      "hus": 6224,
      "hok": 6225,
      "heura": 6226,
      "igel": 6227,
      "jempling": 6228,
      "nis": 6229,
      "neungteuinganan": 6230,
      "pukul": 6231,
      "ren": 6232,
      "sonan": 6233,
      "yeri": 6234,
      "euyan": 6235,
      "eujeuh": 6236,
      "nginditkeun": 6237,
      "kapake": 6238,
      "kasuka": 6239,
      "kadigjaya": 6240,
      "diw": 6241,
      "dikurban": 6242,
      "disaya": 6243,
      "dihatur": 6244,
      "didik": 6245,
      "dijarah": 6246,
      "digebruskeun": 6247,
      "dikirim": 6248,
      "nadar": 6249,
      "sad": 6250,
      "sabu": 6251,
      "sabulan": 6252,
      "saupama": 6253,
      "sabada": 6254,
      "kueh": 6255,
      "ehanana": 6256,
      "yagikeun": 6257,
      "enjag": 6258,
      "piwejang": 6259,
      "piharti": 6260,
      "piring": 6261,
      "pasang": 6262,
      "pajara": 6263,
      "sisina": 6264,
      "raos": 6265,
      "jaka": 6266,
      "eungceurikan": 6267,
      "undul": 6268,
      "datna": 6269,
      "embarkeun": 6270,
      "watir": 6271,
      "ngadu": 6272,
      "ngaji": 6273,
      "ngabeda": 6274,
      "dupi": 6275,
      "sunat": 6276,
      "tanyakeun": 6277,
      "mimitina": 6278,
      "mandar": 6279,
      "mandor": 6280,
      "biasana": 6281,
      "ongkap": 6282,
      "perna": 6283,
      "ombong": 6284,
      "gina": 6285,
      "weweleh": 6286,
      "Saung": 6287,
      "Sawangsulna": 6288,
      "pani": 6289,
      "panang": 6290,
      "potong": 6291,
      "hayu": 6292,
      "umkeun": 6293,
      "salju": 6294,
      "babari": 6295,
      "Kaaya": 6296,
      "singgasana": 6297,
      "barisan": 6298,
      "urugan": 6299,
      "Dikira": 6300,
      "leutak": 6301,
      "beubeut": 6302,
      "ngalum": 6303,
      "ngalilipur": 6304,
      "ngaluputkeun": 6305,
      "ngarum": 6306,
      "tembalna": 6307,
      "amprok": 6308,
      "hareran": 6309,
      "dipabalencarkeun": 6310,
      "parantina": 6311,
      "sakuat": 6312,
      "Titus": 6313,
      "Media": 6314,
      "ditedunan": 6315,
      "Yopa": 6316,
      "Yoel": 6317,
      "lolos": 6318,
      "ngahar": 6319,
      "topel": 6320,
      "jaring": 6321,
      "dakwa": 6322,
      "sorang": 6323,
      "sorana": 6324,
      "saminggu": 6325,
      "kaciri": 6326,
      "kacinta": 6327,
      "walurat": 6328,
      "pecah": 6329,
      "pasangan": 6330,
      "nyieunna": 6331,
      "Paehan": 6332,
      "merde": 6333,
      "nitih": 6334,
      "meneran": 6335,
      "rames": 6336,
      "ramalan": 6337,
      "dicatet": 6338,
      "reana": 6339,
      "ngager": 6340,
      "Sukot": 6341,
      "rosa": 6342,
      "emasna": 6343,
      "digotong": 6344,
      "digusur": 6345,
      "ngadegna": 6346,
      "geureuha": 6347,
      "penjahat": 6348,
      "kasep": 6349,
      "pakewuh": 6350,
      "siap": 6351,
      "nyalampeurkeun": 6352,
      "nyalingkir": 6353,
      "coba": 6354,
      "cokan": 6355,
      "allahna": 6356,
      "ngomongna": 6357,
      "Poma": 6358,
      "peutingna": 6359,
      "Amos": 6360,
      "ngamuk": 6361,
      "huma": 6362,
      "jenenganan": 6363,
      "susumbar": 6364,
      "kutaan": 6365,
      "ngumumkeun": 6366,
      "bagjana": 6367,
      "haben": 6368,
      "Duanana": 6369,
      "eritan": 6370,
      "Ahia": 6371,
      "Ahitopel": 6372,
      "wahyu": 6373,
      "Paneda": 6374,
      "darinya": 6375,
      "sakadar": 6376,
      "Nyuhunkeun": 6377,
      "mayitna": 6378,
      "kakuping": 6379,
      "budalkeun": 6380,
      "katuhueun": 6381,
      "badami": 6382,
      "Marta": 6383,
      "taranjang": 6384,
      "kasusahan": 6385,
      "deungeun": 6386,
      "handapna": 6387,
      "naringal": 6388,
      "disadiakeun": 6389,
      "dituliskeun": 6390,
      "cindung": 6391,
      "digumatikeun": 6392,
      "tahanan": 6393,
      "Hesron": 6394,
      "disarembah": 6395,
      "ngaleueut": 6396,
      "rumasa": 6397,
      "kakayaanana": 6398,
      "piunjukna": 6399,
      "Kamulya": 6400,
      "Gancangna": 6401,
      "panggilingan": 6402,
      "tengeneun": 6403,
      "Tulis": 6404,
      "pangabogana": 6405,
      "kasucian": 6406,
      "lalangse": 6407,
      "Beureum": 6408,
      "Kulon": 6409,
      "seungitna": 6410,
      "diayakeun": 6411,
      "kahaja": 6412,
      "kabalangsa": 6413,
      "caringcing": 6414,
      "dipalire": 6415,
      "binangkit": 6416,
      "gumelar": 6417,
      "Asahel": 6418,
      "kaagamaan": 6419,
      "Kesarea": 6420,
      "20": 6421,
      "200": 6422,
      "Co": 6423,
      "Ges": 6424,
      "Lang": 6425,
      "Mel": 6426,
      "Mat": 6427,
      "Opat": 6428,
      "Panu": 6429,
      "Pant": 6430,
      "Pali": 6431,
      "Pama": 6432,
      "Set": 6433,
      "Tara": 6434,
      "aeb": 6435,
      "ajug": 6436,
      "cel": 6437,
      "cung": 6438,
      "cong": 6439,
      "gem": 6440,
      "itung": 6441,
      "lamina": 6442,
      "sanu": 6443,
      "utuh": 6444,
      "yem": 6445,
      "ʼManeh": 6446,
      "ngkeun": 6447,
      "ngung": 6448,
      "nget": 6449,
      "ngelingan": 6450,
      "kata": 6451,
      "kaba": 6452,
      "kaun": 6453,
      "dici": 6454,
      "disang": 6455,
      "didenge": 6456,
      "diuninga": 6457,
      "dibung": 6458,
      "didaptar": 6459,
      "dibenduan": 6460,
      "dijenenganan": 6461,
      "napak": 6462,
      "satem": 6463,
      "sapeupeuting": 6464,
      "uran": 6465,
      "tiris": 6466,
      "tihan": 6467,
      "tatala": 6468,
      "tatanggana": 6469,
      "bakan": 6470,
      "eni": 6471,
      "pikurban": 6472,
      "pasan": 6473,
      "pajar": 6474,
      "padamelana": 6475,
      "untuh": 6476,
      "aragung": 6477,
      "aradigung": 6478,
      "kiara": 6479,
      "kitna": 6480,
      "dago": 6481,
      "emu": 6482,
      "empang": 6483,
      "wawan": 6484,
      "ngabe": 6485,
      "ngaping": 6486,
      "ngadara": 6487,
      "Panglima": 6488,
      "ilik": 6489,
      "sugih": 6490,
      "jiwana": 6491,
      "tandana": 6492,
      "minan": 6493,
      "gebar": 6494,
      "lag": 6495,
      "laksa": 6496,
      "nyatet": 6497,
      "pangutamana": 6498,
      "Gustina": 6499,
      "Saurang": 6500,
      "cacarios": 6501,
      "barudakna": 6502,
      "bangkong": 6503,
      "bandungan": 6504,
      "umbira": 6505,
      "moyok": 6506,
      "Kutan": 6507,
      "askeun": 6508,
      "Kaperna": 6509,
      "sedep": 6510,
      "leuleu": 6511,
      "beulian": 6512,
      "ngalaman": 6513,
      "ngaro": 6514,
      "sangkal": 6515,
      "parna": 6516,
      "taker": 6517,
      "taksir": 6518,
      "murah": 6519,
      "ditutup": 6520,
      "diseren": 6521,
      "manawi": 6522,
      "ihan": 6523,
      "ihkeun": 6524,
      "ngaraku": 6525,
      "ngaragragkeun": 6526,
      "Walonna": 6527,
      "waspada": 6528,
      "dieusian": 6529,
      "nanj": 6530,
      "Pagunungan": 6531,
      "ngarandeg": 6532,
      "mendung": 6533,
      "darongkap": 6534,
      "hayangna": 6535,
      "Supa": 6536,
      "Sukur": 6537,
      "Eliab": 6538,
      "digencet": 6539,
      "tumali": 6540,
      "Anatot": 6541,
      "tekad": 6542,
      "jumlah": 6543,
      "diancam": 6544,
      "Perkara": 6545,
      "kasen": 6546,
      "dirahayukeun": 6547,
      "terangeun": 6548,
      "suaka": 6549,
      "pitutur": 6550,
      "kakawasaana": 6551,
      "kadeseh": 6552,
      "nyoara": 6553,
      "dorakana": 6554,
      "kebonna": 6555,
      "sayaktosna": 6556,
      "anggrahanana": 6557,
      "kapalana": 6558,
      "Manuk": 6559,
      "nyusul": 6560,
      "ngangken": 6561,
      "nyaaheun": 6562,
      "Hiap": 6563,
      "dipikasieun": 6564,
      "daritu": 6565,
      "nyingkiran": 6566,
      "tatapakanana": 6567,
      "ngadangukeun": 6568,
      "kilogram": 6569,
      "dibarere": 6570,
      "diitung": 6571,
      "palih": 6572,
      "disuguhkeun": 6573,
      "dipulihkeun": 6574,
      "mondok": 6575,
      "Sobat": 6576,
      "diondang": 6577,
      "jukutan": 6578,
      "kahayangna": 6579,
      "ngagunakeun": 6580,
      "nitahan": 6581,
      "tegesna": 6582,
      "disingkahkeun": 6583,
      "dikucurkeun": 6584,
      "naraka": 6585,
      "narabeuh": 6586,
      "sataunan": 6587,
      "bingah": 6588,
      "diajarkeun": 6589,
      "katingalieun": 6590,
      "Ingon": 6591,
      "catetan": 6592,
      "nyeungseurikeun": 6593,
      "leler": 6594,
      "karuat": 6595,
      "ngarangkul": 6596,
      "ngedalkeun": 6597,
      "ngider": 6598,
      "ruruntuhan": 6599,
      "angkatan": 6600,
      "Seruya": 6601,
      "Peutingna": 6602,
      "sungutna": 6603,
      "saestuna": 6604,
      "banteng": 6605,
      "lembut": 6606,
      "nariup": 6607,
      "ngajaraga": 6608,
      "pangajina": 6609,
      "jejeritan": 6610,
      "nirca": 6611,
      "tarekah": 6612,
      "Wanci": 6613,
      "giliran": 6614,
      "Rasul": 6615,
      "Hermon": 6616,
      "ngaguruh": 6617,
      "Sabaraha": 6618,
      "kakurangan": 6619,
      "jawaban": 6620,
      "worakeun": 6621,
      "Utusan": 6622,
      "kakiatan": 6623,
      "didawuhkeun": 6624,
      "Kehila": 6625,
      "dihaturanan": 6626,
      "rameswari": 6627,
      "Paliyas": 6628,
      "sanubari": 6629,
      "satemenna": 6630,
      "tatalagaan": 6631,
      "Kapernaum": 6632,
      ",’": 6633,
      "Apo": 6634,
      "Asal": 6635,
      "Amar": 6636,
      "Aram": 6637,
      "Bani": 6638,
      "Bray": 6639,
      "Eden": 6640,
      "Gurun": 6641,
      "Heuleut": 6642,
      "Kula": 6643,
      "Ran": 6644,
      "Rim": 6645,
      "Sala": 6646,
      "Sali": 6647,
      "Ting": 6648,
      "Teg": 6649,
      "Wa": 6650,
      "bent": 6651,
      "cila": 6652,
      "ceg": 6653,
      "gura": 6654,
      "gorom": 6655,
      "jel": 6656,
      "jut": 6657,
      "krang": 6658,
      "keup": 6659,
      "rur": 6660,
      "rul": 6661,
      "reb": 6662,
      "sek": 6663,
      "ʼIeu": 6664,
      "ngemut": 6665,
      "arum": 6666,
      "kaul": 6667,
      "kaala": 6668,
      "kakant": 6669,
      "kawarah": 6670,
      "kahirupan": 6671,
      "diul": 6672,
      "dipan": 6673,
      "dilala": 6674,
      "dibenteng": 6675,
      "diarep": 6676,
      "dipegat": 6677,
      "dibejakeun": 6678,
      "diomean": 6679,
      "ditawan": 6680,
      "dirobah": 6681,
      "dimulyakeun": 6682,
      "dibaledogan": 6683,
      "ahar": 6684,
      "saak": 6685,
      "sasala": 6686,
      "sasiki": 6687,
      "kukur": 6688,
      "alum": 6689,
      "tatar": 6690,
      "tatah": 6691,
      "ambangkeun": 6692,
      "tuman": 6693,
      "babi": 6694,
      "babawa": 6695,
      "magar": 6696,
      "pisumping": 6697,
      "pirempug": 6698,
      "sig": 6699,
      "raka": 6700,
      "racun": 6701,
      "rapih": 6702,
      "jajaran": 6703,
      "elok": 6704,
      "embang": 6705,
      "empo": 6706,
      "ngaca": 6707,
      "ngawalon": 6708,
      "ngawartosan": 6709,
      "ngajerit": 6710,
      "ngabudalkeun": 6711,
      "nyura": 6712,
      "susila": 6713,
      "alageurkeun": 6714,
      "manna": 6715,
      "risi": 6716,
      "ripuh": 6717,
      "nyakan": 6718,
      "nyayagikeun": 6719,
      "panggeuing": 6720,
      "orot": 6721,
      "kanca": 6722,
      "upan": 6723,
      "Satiap": 6724,
      "Isboset": 6725,
      "bangetna": 6726,
      "pojok": 6727,
      "haid": 6728,
      "hayam": 6729,
      "salel": 6730,
      "jangg": 6731,
      "ebr": 6732,
      "widi": 6733,
      "Kajadi": 6734,
      "Kajahatan": 6735,
      "Katingali": 6736,
      "udar": 6737,
      "katna": 6738,
      "ngaling": 6739,
      "ngalarang": 6740,
      "karawin": 6741,
      "ngarer": 6742,
      "tempo": 6743,
      "nganistakeun": 6744,
      "nganyanyikeun": 6745,
      "matana": 6746,
      "dipapag": 6747,
      "tinggar": 6748,
      "tinggalkeun": 6749,
      "entong": 6750,
      "batara": 6751,
      "Yonadab": 6752,
      "nyium": 6753,
      "dibawah": 6754,
      "nyarebut": 6755,
      "balas": 6756,
      "bogaan": 6757,
      "nyieunan": 6758,
      "daharna": 6759,
      "elakanana": 6760,
      "tetek": 6761,
      "dicumponan": 6762,
      "dicalageurkeun": 6763,
      "Amasa": 6764,
      "nangtoskeun": 6765,
      "Elieser": 6766,
      "ngira": 6767,
      "serab": 6768,
      "serong": 6769,
      "yarkeun": 6770,
      "gulu": 6771,
      "sieuneunana": 6772,
      "edas": 6773,
      "cangkingan": 6774,
      "Mag": 6775,
      "Matanya": 6776,
      "laleum": 6777,
      "Perkawis": 6778,
      "Ehud": 6779,
      "kumel": 6780,
      "kasabaran": 6781,
      "ngawin": 6782,
      "socana": 6783,
      "jumenengna": 6784,
      "bungahna": 6785,
      "ngajabel": 6786,
      "kamukti": 6787,
      "Hasil": 6788,
      "Hagai": 6789,
      "orojol": 6790,
      "gandumna": 6791,
      "caket": 6792,
      "ngumbar": 6793,
      "entag": 6794,
      "kawen": 6795,
      "Elisama": 6796,
      "sasajen": 6797,
      "ditumpangan": 6798,
      "Yehiel": 6799,
      "bongkar": 6800,
      "serdaduna": 6801,
      "ngariring": 6802,
      "Estu": 6803,
      "ambreg": 6804,
      "salalamina": 6805,
      "yakinkeun": 6806,
      "sono": 6807,
      "iasaeun": 6808,
      "Timna": 6809,
      "dibarung": 6810,
      "ucapanana": 6811,
      "caricingna": 6812,
      "dihapunten": 6813,
      "beuteungna": 6814,
      "nasehatna": 6815,
      "mantrina": 6816,
      "ponggawana": 6817,
      "Jurubaptis": 6818,
      "Besalel": 6819,
      "Tirsa": 6820,
      "nemonan": 6821,
      "nyaraah": 6822,
      "nyaratuan": 6823,
      "gjag": 6824,
      "bilih": 6825,
      "pangabutuh": 6826,
      "bingung": 6827,
      "ogok": 6828,
      "warani": 6829,
      "bujangna": 6830,
      "Selah": 6831,
      "lelep": 6832,
      "rubuhkeun": 6833,
      "Malkia": 6834,
      "Getihna": 6835,
      "Nahor": 6836,
      "diserat": 6837,
      "tutuwuhan": 6838,
      "meungpeung": 6839,
      "kandelna": 6840,
      "Hanok": 6841,
      "ngondang": 6842,
      "katebak": 6843,
      "dangdanan": 6844,
      "Gupernur": 6845,
      "dikitukeun": 6846,
      "pakakas": 6847,
      "Repaim": 6848,
      "Dangukeun": 6849,
      "genggeman": 6850,
      "mestakeun": 6851,
      "enyepan": 6852,
      "inumeun": 6853,
      "gaplah": 6854,
      "Ahirna": 6855,
      "Kamulyaan": 6856,
      "Langit": 6857,
      "Rimon": 6858,
      "cilakana": 6859,
      "sasalad": 6860,
      "18": 6861,
      "45": 6862,
      "Bangke": 6863,
      "Can": 6864,
      "Heman": 6865,
      "Je": 6866,
      "Jahat": 6867,
      "Lila": 6868,
      "Lahan": 6869,
      "Mir": 6870,
      "Ner": 6871,
      "Nek": 6872,
      "Nali": 6873,
      "Nebus": 6874,
      "Ong": 6875,
      "Oge": 6876,
      "We": 6877,
      "War": 6878,
      "gelas": 6879,
      "gsig": 6880,
      "hud": 6881,
      "herang": 6882,
      "iteukna": 6883,
      "jari": 6884,
      "ming": 6885,
      "meser": 6886,
      "mupus": 6887,
      "nor": 6888,
      "neundeun": 6889,
      "oah": 6890,
      "odo": 6891,
      "opatan": 6892,
      "prung": 6893,
      "prameswari": 6894,
      "sanak": 6895,
      "tenjo": 6896,
      "ngaman": 6897,
      "areleh": 6898,
      "arcana": 6899,
      "areraeun": 6900,
      "dij": 6901,
      "dipep": 6902,
      "dimusna": 6903,
      "ditanya": 6904,
      "dirugrug": 6905,
      "dibanding": 6906,
      "diidek": 6907,
      "saung": 6908,
      "sake": 6909,
      "sawelas": 6910,
      "kuk": 6911,
      "alna": 6912,
      "alit": 6913,
      "urban": 6914,
      "urni": 6915,
      "takabur": 6916,
      "ampas": 6917,
      "tumer": 6918,
      "yak": 6919,
      "maas": 6920,
      "matih": 6921,
      "pakidul": 6922,
      "pabalencar": 6923,
      "rabi": 6924,
      "eungeun": 6925,
      "aradan": 6926,
      "arasak": 6927,
      "kisidik": 6928,
      "inggi": 6929,
      "wawartos": 6930,
      "ngageged": 6931,
      "ngawihkeun": 6932,
      "ngagebray": 6933,
      "ngabogaan": 6934,
      "oni": 6935,
      "nyurup": 6936,
      "teuh": 6937,
      "gagak": 6938,
      "tanding": 6939,
      "rikan": 6940,
      "etep": 6941,
      "saregep": 6942,
      "pangbantu": 6943,
      "pangpangna": 6944,
      "panghandapna": 6945,
      "onganana": 6946,
      "eureuh": 6947,
      "omer": 6948,
      "omplok": 6949,
      "giruk": 6950,
      "budakna": 6951,
      "caangna": 6952,
      "newak": 6953,
      "bangor": 6954,
      "pogan": 6955,
      "salul": 6956,
      "mopohokeun": 6957,
      "ulak": 6958,
      "bariluk": 6959,
      "gantina": 6960,
      "parat": 6961,
      "uruba": 6962,
      "urujit": 6963,
      "Dipi": 6964,
      "ngalebur": 6965,
      "kendi": 6966,
      "ngancurkeun": 6967,
      "tarana": 6968,
      "jujukutan": 6969,
      "Daun": 6970,
      "dipasihkeun": 6971,
      "tingkah": 6972,
      "entana": 6973,
      "entara": 6974,
      "rubak": 6975,
      "kurbanna": 6976,
      "halal": 6977,
      "logam": 6978,
      "kahuru": 6979,
      "kaheman": 6980,
      "ilap": 6981,
      "taunna": 6982,
      "kersana": 6983,
      "egruk": 6984,
      "naroskeun": 6985,
      "nyaranggakeun": 6986,
      "balageur": 6987,
      "tukangna": 6988,
      "Siba": 6989,
      "Pasukan": 6990,
      "nguatkeun": 6991,
      "palebah": 6992,
      "diajangkeun": 6993,
      "garel": 6994,
      "katuangan": 6995,
      "dicar": 6996,
      "pamatuhan": 6997,
      "Sugri": 6998,
      "salahkeun": 6999,
      "lanjang": 7000,
      "lantip": 7001,
      "guling": 7002,
      "beunangna": 7003,
      "tumetep": 7004,
      "canganana": 7005,
      "cangkeng": 7006,
      "cumah": 7007,
      "Samangsa": 7008,
      "payuneunana": 7009,
      "asupna": 7010,
      "direm": 7011,
      "paham": 7012,
      "Amram": 7013,
      "empl": 7014,
      "masrahkeun": 7015,
      "eresan": 7016,
      "meletek": 7017,
      "barobah": 7018,
      "ingetkeun": 7019,
      "Pedang": 7020,
      "Arca": 7021,
      "kiduleun": 7022,
      "atikan": 7023,
      "panyum": 7024,
      "kanyaahna": 7025,
      "eria": 7026,
      "nyuuh": 7027,
      "pamikir": 7028,
      "Ahimaas": 7029,
      "ubuh": 7030,
      "beungharna": 7031,
      "korban": 7032,
      "kapimilik": 7033,
      "warisan": 7034,
      "murubul": 7035,
      "pantesna": 7036,
      "Raba": 7037,
      "Tembal": 7038,
      "Tembok": 7039,
      "Geba": 7040,
      "ucapna": 7041,
      "ngarampog": 7042,
      "ukuranana": 7043,
      "cekcok": 7044,
      "Meriba": 7045,
      "Yishar": 7046,
      "disapu": 7047,
      "nyaraksian": 7048,
      "nyerina": 7049,
      "dipeuncitan": 7050,
      "Saduki": 7051,
      "Hirupna": 7052,
      "dicaricingan": 7053,
      "Omri": 7054,
      "Hasabya": 7055,
      "heulang": 7056,
      "laliwat": 7057,
      "mumbul": 7058,
      "mepelingan": 7059,
      "diasongkeun": 7060,
      "kantong": 7061,
      "disusul": 7062,
      "dirangket": 7063,
      "Huram": 7064,
      "Carekna": 7065,
      "Elyasib": 7066,
      "lembek": 7067,
      "rancatan": 7068,
      "Siprus": 7069,
      "ngunek": 7070,
      "ngasta": 7071,
      "Barak": 7072,
      "dipingpin": 7073,
      "dibarawa": 7074,
      "dikeunaan": 7075,
      "Piraku": 7076,
      "Libna": 7077,
      "nganajiskeun": 7078,
      "ditempatkeun": 7079,
      "tatandukan": 7080,
      "nyaranyi": 7081,
      "kasukaan": 7082,
      "kadigjayaan": 7083,
      "Melkisidik": 7084,
      "minantu": 7085,
      "diserenan": 7086,
      "Amarya": 7087,
      "kumelip": 7088,
      "Nalika": 7089,
      "Nebusaradan": 7090,
      "Ongkoh": 7091,
      "ngagegedur": 7092,
      ".]": 7093,
      "Aw": 7094,
      "Buru": 7095,
      "Jelemana": 7096,
      "Lantaran": 7097,
      "Leungeun": 7098,
      "May": 7099,
      "Mahli": 7100,
      "Ningali": 7101,
      "Pup": 7102,
      "Poh": 7103,
      "Sy": 7104,
      "Ses": 7105,
      "Sup": 7106,
      "Sep": 7107,
      "ajeg": 7108,
      "bru": 7109,
      "ceb": 7110,
      "campuh": 7111,
      "denan": 7112,
      "galih": 7113,
      "geskeun": 7114,
      "hengker": 7115,
      "isa": 7116,
      "iuh": 7117,
      "ipis": 7118,
      "koreng": 7119,
      "nong": 7120,
      "nelasan": 7121,
      "peran": 7122,
      "pruk": 7123,
      "rosea": 7124,
      "tra": 7125,
      "weu": 7126,
      "wila": 7127,
      "ʼatna": 7128,
      "’,": 7129,
      "antawis": 7130,
      "nguninga": 7131,
      "katang": 7132,
      "dibah": 7133,
      "disaksian": 7134,
      "dilebur": 7135,
      "diistrenan": 7136,
      "dikumbah": 7137,
      "diurusna": 7138,
      "sapara": 7139,
      "sadunya": 7140,
      "sapura": 7141,
      "satungtung": 7142,
      "alti": 7143,
      "tita": 7144,
      "titah": 7145,
      "tamat": 7146,
      "tabah": 7147,
      "amuk": 7148,
      "tumar": 7149,
      "basana": 7150,
      "bakung": 7151,
      "eneran": 7152,
      "maturan": 7153,
      "maehkeun": 7154,
      "pigawe": 7155,
      "pisah": 7156,
      "paju": 7157,
      "ulana": 7158,
      "ulung": 7159,
      "raina": 7160,
      "kirang": 7161,
      "kilang": 7162,
      "ingal": 7163,
      "euseul": 7164,
      "ngaj": 7165,
      "ngabagi": 7166,
      "ngajeng": 7167,
      "ngabuk": 7168,
      "ngaburak": 7169,
      "ngaboyong": 7170,
      "ngajurung": 7171,
      "ngadeukeutan": 7172,
      "duma": 7173,
      "dutun": 7174,
      "kalangkung": 7175,
      "Panga": 7176,
      "sukana": 7177,
      "jir": 7178,
      "mim": 7179,
      "mantu": 7180,
      "deudeu": 7181,
      "bigal": 7182,
      "riki": 7183,
      "sarare": 7184,
      "anteng": 7185,
      "pangeling": 7186,
      "pangrasa": 7187,
      "ongk": 7188,
      "luma": 7189,
      "osan": 7190,
      "girang": 7191,
      "kena": 7192,
      "buat": 7193,
      "bubuk": 7194,
      "Sapuluh": 7195,
      "Sakum": 7196,
      "Sasumpingna": 7197,
      "bali": 7198,
      "cayana": 7199,
      "barung": 7200,
      "bangkawarah": 7201,
      "bobo": 7202,
      "bolan": 7203,
      "jangna": 7204,
      "patali": 7205,
      "tere": 7206,
      "karya": 7207,
      "ashurkeun": 7208,
      "Kawas": 7209,
      "dol": 7210,
      "kateleng": 7211,
      "segel": 7212,
      "parab": 7213,
      "leutikna": 7214,
      "ngalambangkeun": 7215,
      "otkeun": 7216,
      "Anani": 7217,
      "muce": 7218,
      "judi": 7219,
      "wanoja": 7220,
      "ohan": 7221,
      "rugi": 7222,
      "berbudi": 7223,
      "ditah": 7224,
      "tunggara": 7225,
      "pare": 7226,
      "pamo": 7227,
      "ngaharti": 7228,
      "dipirosea": 7229,
      "jarkeun": 7230,
      "diso": 7231,
      "disuhunkeun": 7232,
      "mangrebu": 7233,
      "kamis": 7234,
      "damelkeun": 7235,
      "goci": 7236,
      "ngarawih": 7237,
      "kere": 7238,
      "wangkelang": 7239,
      "buruh": 7240,
      "buruk": 7241,
      "pucuk": 7242,
      "dihudangkeun": 7243,
      "diadonan": 7244,
      "barayana": 7245,
      "embongkeun": 7246,
      "satona": 7247,
      "geum": 7248,
      "dicarek": 7249,
      "sarakah": 7250,
      "taraan": 7251,
      "aruninga": 7252,
      "Makir": 7253,
      "kulkeun": 7254,
      "pakeeun": 7255,
      "cog": 7256,
      "ngarasakeun": 7257,
      "pituah": 7258,
      "asihna": 7259,
      "daratangna": 7260,
      "ngajagi": 7261,
      "carana": 7262,
      "lahiran": 7263,
      "dalkeun": 7264,
      "Pekah": 7265,
      "panuding": 7266,
      "ditikah": 7267,
      "ditilar": 7268,
      "nyangka": 7269,
      "Arur": 7270,
      "kamarna": 7271,
      "kalereun": 7272,
      "papaes": 7273,
      "ibadahna": 7274,
      "tinimbang": 7275,
      "Duit": 7276,
      "ibukota": 7277,
      "tarigu": 7278,
      "yaning": 7279,
      "gegedenna": 7280,
      "hurip": 7281,
      "ubuhkeun": 7282,
      "barogaeun": 7283,
      "Indung": 7284,
      "mikageuleuh": 7285,
      "jungjunan": 7286,
      "ptisan": 7287,
      "Yedutun": 7288,
      "beuheung": 7289,
      "huntu": 7290,
      "huntuna": 7291,
      "dadamp": 7292,
      "buktina": 7293,
      "Ngadangu": 7294,
      "ngadarengekeun": 7295,
      "diteangan": 7296,
      "nolih": 7297,
      "moncorong": 7298,
      "digawekeun": 7299,
      "ngaramal": 7300,
      "kurbankeuneun": 7301,
      "jangjangan": 7302,
      "dasarna": 7303,
      "gampil": 7304,
      "petakan": 7305,
      "tarumpakna": 7306,
      "hikmat": 7307,
      "ragragna": 7308,
      "bilangan": 7309,
      "ditangtungkeun": 7310,
      "nyumputkeun": 7311,
      "usahakeun": 7312,
      "cacad": 7313,
      "haturkeuneun": 7314,
      "Ahaswer": 7315,
      "wuwuh": 7316,
      "wujud": 7317,
      "Badega": 7318,
      "lemburna": 7319,
      "dorkeun": 7320,
      "kembangna": 7321,
      "awet": 7322,
      "kagunganana": 7323,
      "Caritakeun": 7324,
      "Omongan": 7325,
      "warawuh": 7326,
      "Horon": 7327,
      "diharamkeun": 7328,
      "gagahna": 7329,
      "ruruntuk": 7330,
      "panggalih": 7331,
      "Elyakim": 7332,
      "leueuteun": 7333,
      "opsir": 7334,
      "ngagedur": 7335,
      "rancatanana": 7336,
      "ngabarandungan": 7337,
      "Siklag": 7338,
      "letah": 7339,
      "ranggeuy": 7340,
      "dibelaan": 7341,
      "alangsaan": 7342,
      "dipelakan": 7343,
      "pangirikan": 7344,
      "Layon": 7345,
      "mamakutaan": 7346,
      "ngagedean": 7347,
      "setra": 7348,
      "garejul": 7349,
      "Habil": 7350,
      "bayaran": 7351,
      "Delila": 7352,
      "Yitro": 7353,
      "disasaak": 7354,
      "sumanget": 7355,
      "Gosen": 7356,
      "Ngarajaanana": 7357,
      "husus": 7358,
      "heurap": 7359,
      "disayagikeun": 7360,
      "pajaratan": 7361,
      "Pamajikan": 7362,
      "kasenangan": 7363,
      "Apolos": 7364,
      "gorombolan": 7365,
      "kakantet": 7366,
      "guludug": 7367,
      "Jetun": 7368,
      "Miryam": 7369,
      "Neko": 7370,
      "dimusnakeun": 7371,
      "tumerap": 7372,
      "Pohara": 7373,
      "weuteuh": 7374,
      "sapuratina": 7375,
      "tumaros": 7376,
      "Sakumna": 7377,
      "mucekil": 7378,
      "Ahasweros": 7379,
      "100": 7380,
      "66": 7381,
      "600": 7382,
      "Adar": 7383,
      "Beh": 7384,
      "Bere": 7385,
      "Dinten": 7386,
      "Eber": 7387,
      "Emas": 7388,
      "Gam": 7389,
      "Gog": 7390,
      "Kr": 7391,
      "Kaya": 7392,
      "Kid": 7393,
      "Keusik": 7394,
      "Mulangkeun": 7395,
      "Mangka": 7396,
      "Pala": 7397,
      "Pep": 7398,
      "Puluh": 7399,
      "Salaki": 7400,
      "Tepungan": 7401,
      "Yok": 7402,
      "awaskeun": 7403,
      "brag": 7404,
      "curang": 7405,
      "duru": 7406,
      "durukan": 7407,
      "geug": 7408,
      "gumur": 7409,
      "gomplok": 7410,
      "heri": 7411,
      "ktina": 7412,
      "lilir": 7413,
      "labuh": 7414,
      "mek": 7415,
      "mela": 7416,
      "rentag": 7417,
      "ruruba": 7418,
      "tentara": 7419,
      "ua": 7420,
      "uma": 7421,
      "ucapkeun": 7422,
      "ucul": 7423,
      "weus": 7424,
      "wek": 7425,
      "yol": 7426,
      "ʼKami": 7427,
      "eub": 7428,
      "nge": 7429,
      "ngob": 7430,
      "ngebul": 7431,
      "kaen": 7432,
      "katin": 7433,
      "kaagung": 7434,
      "kabodo": 7435,
      "kasanggakeun": 7436,
      "kasuk": 7437,
      "kahalangan": 7438,
      "kayaning": 7439,
      "diah": 7440,
      "disi": 7441,
      "diara": 7442,
      "diban": 7443,
      "disir": 7444,
      "digar": 7445,
      "dipes": 7446,
      "dibeung": 7447,
      "digebug": 7448,
      "dipeup": 7449,
      "disangka": 7450,
      "dilotre": 7451,
      "diwartoskeun": 7452,
      "dikawasaan": 7453,
      "dilisahan": 7454,
      "disalahkeun": 7455,
      "naker": 7456,
      "nabeuh": 7457,
      "ahana": 7458,
      "sap": 7459,
      "sasaha": 7460,
      "saupami": 7461,
      "saluyu": 7462,
      "satengahna": 7463,
      "kulan": 7464,
      "aleu": 7465,
      "erna": 7466,
      "tiara": 7467,
      "tipkeun": 7468,
      "tikukur": 7469,
      "tutur": 7470,
      "anaim": 7471,
      "pimana": 7472,
      "pitapak": 7473,
      "payah": 7474,
      "papakeanana": 7475,
      "pakumpulan": 7476,
      "pacuan": 7477,
      "siahkeun": 7478,
      "rajin": 7479,
      "jait": 7480,
      "jagjag": 7481,
      "une": 7482,
      "untu": 7483,
      "arakeun": 7484,
      "dayang": 7485,
      "ingung": 7486,
      "emur": 7487,
      "unggu": 7488,
      "nutupan": 7489,
      "ngaje": 7490,
      "ngacak": 7491,
      "ngawaskeun": 7492,
      "ngaburi": 7493,
      "kalimah": 7494,
      "kaleungitan": 7495,
      "nyel": 7496,
      "Alus": 7497,
      "jig": 7498,
      "tandukna": 7499,
      "mahal": 7500,
      "miheulaan": 7501,
      "deudeuh": 7502,
      "lapis": 7503,
      "etrak": 7504,
      "sarana": 7505,
      "antah": 7506,
      "antem": 7507,
      "jalir": 7508,
      "panghina": 7509,
      "pangalaman": 7510,
      "lueun": 7511,
      "perjalanan": 7512,
      "eureu": 7513,
      "kanalangsaan": 7514,
      "upkeun": 7515,
      "ome": 7516,
      "cid": 7517,
      "Sae": 7518,
      "Sawatara": 7519,
      "panal": 7520,
      "pananganana": 7521,
      "cacarita": 7522,
      "koko": 7523,
      "kokotor": 7524,
      "bangbarung": 7525,
      "banjir": 7526,
      "hap": 7527,
      "hapunten": 7528,
      "rajawali": 7529,
      "bobodo": 7530,
      "Kuda": 7531,
      "eblak": 7532,
      "asor": 7533,
      "dot": 7534,
      "ukus": 7535,
      "udul": 7536,
      "udra": 7537,
      "sena": 7538,
      "marulih": 7539,
      "Diwaler": 7540,
      "ngalang": 7541,
      "ngalant": 7542,
      "karawasa": 7543,
      "ngarudag": 7544,
      "ngarubuhkeun": 7545,
      "nganjrek": 7546,
      "And": 7547,
      "mutiara": 7548,
      "wanti": 7549,
      "oham": 7550,
      "beg": 7551,
      "ental": 7552,
      "Tih": 7553,
      "akon": 7554,
      "batalkeun": 7555,
      "baktina": 7556,
      "lokan": 7557,
      "dituang": 7558,
      "dituna": 7559,
      "pariuk": 7560,
      "dipikanyaah": 7561,
      "dipikarunya": 7562,
      "dipirig": 7563,
      "purba": 7564,
      "mangrupa": 7565,
      "mulungan": 7566,
      "naros": 7567,
      "puas": 7568,
      "milari": 7569,
      "nabina": 7570,
      "ngudu": 7571,
      "emahanana": 7572,
      "diasih": 7573,
      "niwaskeun": 7574,
      "mentingkeun": 7575,
      "ramo": 7576,
      "rambut": 7577,
      "dicerek": 7578,
      "Barsila": 7579,
      "pamaen": 7580,
      "lalakon": 7581,
      "ngagorowok": 7582,
      "ngaganggu": 7583,
      "sarupi": 7584,
      "sulaman": 7585,
      "tarajang": 7586,
      "beunanganana": 7587,
      "ngurung": 7588,
      "jengna": 7589,
      "tumbakna": 7590,
      "dera": 7591,
      "tenah": 7592,
      "Mata": 7593,
      "metik": 7594,
      "laluasa": 7595,
      "kaluarna": 7596,
      "ngabantah": 7597,
      "ageungna": 7598,
      "tahsas": 7599,
      "kasapuluh": 7600,
      "ngawuluku": 7601,
      "jurusalamet": 7602,
      "taneuhna": 7603,
      "diberesihan": 7604,
      "empungan": 7605,
      "rarubuh": 7606,
      "luarna": 7607,
      "ngamashurkeun": 7608,
      "Peor": 7609,
      "Hasar": 7610,
      "nere": 7611,
      "satiap": 7612,
      "dititipan": 7613,
      "kaduruk": 7614,
      "lingkungan": 7615,
      "nyangsara": 7616,
      "Artahsas": 7617,
      "cahkeun": 7618,
      "ngumbah": 7619,
      "gorengna": 7620,
      "beakkeun": 7621,
      "eresih": 7622,
      "reuwas": 7623,
      "barengis": 7624,
      "sasadiaan": 7625,
      "pribumina": 7626,
      "garaduh": 7627,
      "nyual": 7628,
      "tuangeun": 7629,
      "Yapet": 7630,
      "saeusina": 7631,
      "nyoreang": 7632,
      "beuheungna": 7633,
      "buktos": 7634,
      "Tembalna": 7635,
      "diteang": 7636,
      "katujuhna": 7637,
      "sobatna": 7638,
      "teges": 7639,
      "arangkuh": 7640,
      "bengang": 7641,
      "imanna": 7642,
      "naranjak": 7643,
      "disebat": 7644,
      "tepung": 7645,
      "Tomas": 7646,
      "meuleum": 7647,
      "seler": 7648,
      "hutangna": 7649,
      "Gerar": 7650,
      "ngadoakeun": 7651,
      "buntu": 7652,
      "ngadakwa": 7653,
      "buluna": 7654,
      "diteundeunan": 7655,
      "antelkeun": 7656,
      "kakasih": 7657,
      "Malki": 7658,
      "hoyongeun": 7659,
      "ngocorna": 7660,
      "paparabotanana": 7661,
      "nyiram": 7662,
      "nyirnakeun": 7663,
      "masangkeun": 7664,
      "Hamo": 7665,
      "karuma": 7666,
      "Sanheri": 7667,
      "Euweuh": 7668,
      "mareuntasan": 7669,
      "Yepune": 7670,
      "sombong": 7671,
      "manggul": 7672,
      "huluna": 7673,
      "nasti": 7674,
      "ngagelebug": 7675,
      "rerencanganana": 7676,
      "walirang": 7677,
      "dicangking": 7678,
      "mangpaʼatna": 7679,
      "Nebat": 7680,
      "ranggeuyan": 7681,
      "kajabi": 7682,
      "gegentos": 7683,
      "ngagantung": 7684,
      "mencil": 7685,
      "Jangji": 7686,
      "dibalangkeun": 7687,
      "Sepanyol": 7688,
      "Kahade": 7689,
      "tinanding": 7690,
      "kalungguhan": 7691,
      "Yaser": 7692,
      "sarigsig": 7693,
      "disarunatan": 7694,
      "ngawitan": 7695,
      "laporan": 7696,
      "Kenas": 7697,
      "wawales": 7698,
      "wawangian": 7699,
      "andelan": 7700,
      "bacacar": 7701,
      "Lahiran": 7702,
      "nista": 7703,
      "pihartieunana": 7704,
      "undulan": 7705,
      "panangana": 7706,
      "Kaayaan": 7707,
      "leuleuy": 7708,
      "ngacapi": 7709,
      "nyuratan": 7710,
      "kawentar": 7711,
      "Wewengkon": 7712,
      "Syama": 7713,
      "perantaraan": 7714,
      "ngabuktoskeun": 7715,
      "deudeul": 7716,
      "Ananias": 7717,
      "Kreta": 7718,
      "kasukeran": 7719,
      "pimanaeun": 7720,
      "Barsilai": 7721,
      "Artahsasta": 7722,
      "Sanherib": 7723,
      "13": 7724,
      "Awak": 7725,
      "Bela": 7726,
      "Betan": 7727,
      "Cara": 7728,
      "Cin": 7729,
      "Epa": 7730,
      "Enak": 7731,
      "Fes": 7732,
      "Gar": 7733,
      "Gir": 7734,
      "Geser": 7735,
      "Hem": 7736,
      "Hin": 7737,
      "Hak": 7738,
      "Ibarat": 7739,
      "Jam": 7740,
      "Keni": 7741,
      "Mas": 7742,
      "Menta": 7743,
      "Neh": 7744,
      "Neto": 7745,
      "Pon": 7746,
      "Sama": 7747,
      "Sela": 7748,
      "Surat": 7749,
      "Tek": 7750,
      "Urut": 7751,
      "Wetan": 7752,
      "Yah": 7753,
      "Yedaya": 7754,
      "bunan": 7755,
      "cala": 7756,
      "ebar": 7757,
      "gilin": 7758,
      "hah": 7759,
      "kes": 7760,
      "leus": 7761,
      "lulu": 7762,
      "maran": 7763,
      "mingg": 7764,
      "meak": 7765,
      "nula": 7766,
      "neli": 7767,
      "okna": 7768,
      "pahna": 7769,
      "peurkeun": 7770,
      "raran": 7771,
      "tok": 7772,
      "tni": 7773,
      "ugu": 7774,
      "ujan": 7775,
      "yon": 7776,
      "yot": 7777,
      "yokan": 7778,
      "eujeuhna": 7779,
      "ngebrehkeun": 7780,
      "arya": 7781,
      "areup": 7782,
      "areling": 7783,
      "kaboga": 7784,
      "kapercaya": 7785,
      "kasalapan": 7786,
      "kagagah": 7787,
      "angkuh": 7788,
      "dikudu": 7789,
      "digo": 7790,
      "dikawasa": 7791,
      "dimimiti": 7792,
      "diling": 7793,
      "dibalik": 7794,
      "ditata": 7795,
      "didatangkeun": 7796,
      "diwejang": 7797,
      "diwulang": 7798,
      "dijugjug": 7799,
      "diinditkeun": 7800,
      "dibarogod": 7801,
      "diumumkeun": 7802,
      "dieureunkeun": 7803,
      "diembarkeun": 7804,
      "disorang": 7805,
      "dibeakkeun": 7806,
      "nalung": 7807,
      "nadahkeun": 7808,
      "euncit": 7809,
      "sabisa": 7810,
      "sakara": 7811,
      "sabala": 7812,
      "saimah": 7813,
      "sapeuting": 7814,
      "sasapa": 7815,
      "samak": 7816,
      "sakilo": 7817,
      "sasarengan": 7818,
      "sakecap": 7819,
      "sawawa": 7820,
      "sateka": 7821,
      "alon": 7822,
      "urim": 7823,
      "tatu": 7824,
      "tub": 7825,
      "tuga": 7826,
      "tumari": 7827,
      "tulak": 7828,
      "tutulung": 7829,
      "bau": 7830,
      "baba": 7831,
      "bawah": 7832,
      "baptisan": 7833,
      "mayun": 7834,
      "pilampah": 7835,
      "pinasti": 7836,
      "paur": 7837,
      "pabu": 7838,
      "patina": 7839,
      "pakat": 7840,
      "side": 7841,
      "silo": 7842,
      "sideku": 7843,
      "aranjang": 7844,
      "rata": 7845,
      "jakal": 7846,
      "eungeut": 7847,
      "eunggar": 7848,
      "kian": 7849,
      "kila": 7850,
      "elat": 7851,
      "dadamelana": 7852,
      "ingkah": 7853,
      "inggalkeun": 7854,
      "ngagal": 7855,
      "ngayakinkeun": 7856,
      "dutna": 7857,
      "Pangna": 7858,
      "nyampur": 7859,
      "gasa": 7860,
      "gapur": 7861,
      "ekya": 7862,
      "miara": 7863,
      "miel": 7864,
      "mikarunya": 7865,
      "gege": 7866,
      "riel": 7867,
      "sarupan": 7868,
      "nyaturkeun": 7869,
      "nyaketan": 7870,
      "nyasaak": 7871,
      "pangurus": 7872,
      "pangistrenan": 7873,
      "pangruruba": 7874,
      "perkasa": 7875,
      "ore": 7876,
      "jadikeunana": 7877,
      "Satuluyna": 7878,
      "pod": 7879,
      "hadiah": 7880,
      "terangkeun": 7881,
      "karampas": 7882,
      "eakan": 7883,
      "wiwirang": 7884,
      "doho": 7885,
      "singkirkeun": 7886,
      "leuleus": 7887,
      "ngaler": 7888,
      "ngaluhur": 7889,
      "ngalurban": 7890,
      "pulang": 7891,
      "otana": 7892,
      "ngarara": 7893,
      "eunah": 7894,
      "nganyahokeun": 7895,
      "tarot": 7896,
      "sangsarana": 7897,
      "mupakat": 7898,
      "ohok": 7899,
      "rupana": 7900,
      "dipapat": 7901,
      "jolang": 7902,
      "diteg": 7903,
      "sumebar": 7904,
      "pameuleuman": 7905,
      "ider": 7906,
      "ngahudangkeun": 7907,
      "kahontal": 7908,
      "dangna": 7909,
      "dituturkeun": 7910,
      "ditulisan": 7911,
      "gug": 7912,
      "gunakeun": 7913,
      "jarangkung": 7914,
      "weweg": 7915,
      "hatoskeun": 7916,
      "egleg": 7917,
      "barangdamel": 7918,
      "jeroeun": 7919,
      "naram": 7920,
      "pecut": 7921,
      "sanagara": 7922,
      "baturan": 7923,
      "nyarewa": 7924,
      "nyarekan": 7925,
      "pusaka": 7926,
      "dihan": 7927,
      "diharakan": 7928,
      "milarian": 7929,
      "Sib": 7930,
      "Pake": 7931,
      "meres": 7932,
      "ampahan": 7933,
      "Manoah": 7934,
      "eupeul": 7935,
      "diawaskeun": 7936,
      "leuwihna": 7937,
      "geuy": 7938,
      "dicekel": 7939,
      "dicepeng": 7940,
      "maraehan": 7941,
      "parentahna": 7942,
      "ngirik": 7943,
      "numpang": 7944,
      "rotina": 7945,
      "jieunan": 7946,
      "daratan": 7947,
      "tarajong": 7948,
      "nguriling": 7949,
      "tenda": 7950,
      "berkahna": 7951,
      "jumerit": 7952,
      "seuneuna": 7953,
      "Matak": 7954,
      "ngabong": 7955,
      "ngabeb": 7956,
      "dirurug": 7957,
      "kalasi": 7958,
      "mawakeun": 7959,
      "reas": 7960,
      "walerna": 7961,
      "mashurkeun": 7962,
      "saliter": 7963,
      "karisi": 7964,
      "upamakeun": 7965,
      "dalit": 7966,
      "dalena": 7967,
      "kampak": 7968,
      "wanieun": 7969,
      "Gajih": 7970,
      "mungkur": 7971,
      "ngumpul": 7972,
      "kuatkeun": 7973,
      "male": 7974,
      "papadana": 7975,
      "bantuan": 7976,
      "sayagi": 7977,
      "megat": 7978,
      "Karajaanana": 7979,
      "kaitung": 7980,
      "ditumutkeun": 7981,
      "meuncitan": 7982,
      "talangke": 7983,
      "Ahitub": 7984,
      "bahanna": 7985,
      "elemya": 7986,
      "dirabut": 7987,
      "nyawaan": 7988,
      "Embe": 7989,
      "ilikan": 7990,
      "bele": 7991,
      "taliti": 7992,
      "najisna": 7993,
      "kelon": 7994,
      "saucap": 7995,
      "Baladna": 7996,
      "harirupna": 7997,
      "Sepaca": 7998,
      "Askelon": 7999,
      "Serdadu": 8000,
      "ngaromongna": 8001,
      "ngaromongkeun": 8002,
      "leumpangna": 8003,
      "nyaricingan": 8004,
      "kemit": 8005,
      "Bentang": 8006,
      "anggemkeun": 8007,
      "Kalde": 8008,
      "digarawekeun": 8009,
      "pinterna": 8010,
      "cahayaan": 8011,
      "Korneli": 8012,
      "Anggeus": 8013,
      "pajabatna": 8014,
      "Mahanaim": 8015,
      "sasari": 8016,
      "Gandek": 8017,
      "Sanaos": 8018,
      "ngagoda": 8019,
      "Mesah": 8020,
      "nempo": 8021,
      "dikucuran": 8022,
      "diterapkeun": 8023,
      "baranahan": 8024,
      "tunggalan": 8025,
      "regang": 8026,
      "wajibkeun": 8027,
      "pentingna": 8028,
      "bosen": 8029,
      "kadorakaanana": 8030,
      "nalangan": 8031,
      "diteundeunna": 8032,
      "biruang": 8033,
      "geuleuheun": 8034,
      "wawuheun": 8035,
      "kadangueun": 8036,
      "ganjaranana": 8037,
      "ngamilik": 8038,
      "Ahaya": 8039,
      "dipoyok": 8040,
      "kecrek": 8041,
      "punjulna": 8042,
      "warakeun": 8043,
      "pademenna": 8044,
      "mastakana": 8045,
      "Husai": 8046,
      "disered": 8047,
      "Epron": 8048,
      "plokkeun": 8049,
      "mutuskeun": 8050,
      "ditalukkeun": 8051,
      "nilarkeun": 8052,
      "ngandelkeun": 8053,
      "disambung": 8054,
      "pangaruh": 8055,
      "Nyieun": 8056,
      "Beuki": 8057,
      "disumputkeun": 8058,
      "panadaranana": 8059,
      "Lalakina": 8060,
      "Tulungan": 8061,
      "pipilueun": 8062,
      "ngageder": 8063,
      "angkeuh": 8064,
      "angkeub": 8065,
      "Nebo": 8066,
      "dipaling": 8067,
      "dikeunakeun": 8068,
      "malak": 8069,
      "kabuka": 8070,
      "nasibna": 8071,
      "ngawurukkeun": 8072,
      "ditetepkeun": 8073,
      "Yosabad": 8074,
      "empelkeun": 8075,
      "Tetela": 8076,
      "ngerakeun": 8077,
      "digaleuh": 8078,
      "ngagoler": 8079,
      "kongkorongok": 8080,
      "ngawartakeun": 8081,
      "laleutik": 8082,
      "Eglon": 8083,
      "ngabedakeun": 8084,
      "kabalangsakan": 8085,
      "Cobi": 8086,
      "Gesur": 8087,
      "congo": 8088,
      "kauntungan": 8089,
      "pikurbaneun": 8090,
      "babawaan": 8091,
      "teteken": 8092,
      "Magdalena": 8093,
      "laleumpang": 8094,
      "pajuaran": 8095,
      "kamistian": 8096,
      "Andreas": 8097,
      "nerekab": 8098,
      "Betania": 8099,
      "Festus": 8100,
      "Hinom": 8101,
      "Netopa": 8102,
      "Tekoa": 8103,
      "gilinding": 8104,
      "kapercayaanana": 8105,
      "kagagahanana": 8106,
      "dikudukeun": 8107,
      "dikawasakeun": 8108,
      "nalungtik": 8109,
      "sabalakana": 8110,
      "tugasna": 8111,
      "siloka": 8112,
      "gapurana": 8113,
      "sarupaning": 8114,
      "Kornelius": 8115,
      "14": 8116,
      "Aku": 8117,
      "Aksa": 8118,
      "Agag": 8119,
      "Bang": 8120,
      "Bos": 8121,
      "Bin": 8122,
      "Brek": 8123,
      "Batur": 8124,
      "Cokot": 8125,
      "Dara": 8126,
      "Gentra": 8127,
      "Ido": 8128,
      "Jamp": 8129,
      "Kah": 8130,
      "Kus": 8131,
      "Kungsi": 8132,
      "Lal": 8133,
      "Lam": 8134,
      "Meureun": 8135,
      "Pat": 8136,
      "Pis": 8137,
      "Reg": 8138,
      "Soba": 8139,
      "Tal": 8140,
      "Tas": 8141,
      "Turug": 8142,
      "Teluk": 8143,
      "Tembongkeun": 8144,
      "Usi": 8145,
      "Ucap": 8146,
      "adina": 8147,
      "brug": 8148,
      "cep": 8149,
      "dkeun": 8150,
      "esa": 8151,
      "eana": 8152,
      "gok": 8153,
      "gangna": 8154,
      "hantem": 8155,
      "kekem": 8156,
      "luh": 8157,
      "mongk": 8158,
      "neng": 8159,
      "omat": 8160,
      "oprak": 8161,
      "oyag": 8162,
      "seuna": 8163,
      "smani": 8164,
      "telaan": 8165,
      "uy": 8166,
      "ual": 8167,
      "uga": 8168,
      "umah": 8169,
      "ubar": 8170,
      "wut": 8171,
      "wurkeun": 8172,
      "eulian": 8173,
      "ngetan": 8174,
      "kak": 8175,
      "kabi": 8176,
      "kaper": 8177,
      "kapo": 8178,
      "kawih": 8179,
      "kacang": 8180,
      "kajurung": 8181,
      "kadatangan": 8182,
      "kasedih": 8183,
      "kahartos": 8184,
      "angkeng": 8185,
      "disal": 8186,
      "dido": 8187,
      "dimu": 8188,
      "diber": 8189,
      "dilantaran": 8190,
      "dikali": 8191,
      "diberkah": 8192,
      "dileungit": 8193,
      "dielingan": 8194,
      "dihalang": 8195,
      "disalin": 8196,
      "diteukteuk": 8197,
      "diamuk": 8198,
      "dijadikeunana": 8199,
      "nadah": 8200,
      "nawis": 8201,
      "euncitan": 8202,
      "saeun": 8203,
      "sati": 8204,
      "sawangsulna": 8205,
      "sabenerna": 8206,
      "sataker": 8207,
      "alal": 8208,
      "tibra": 8209,
      "tigebrus": 8210,
      "tiguling": 8211,
      "ambah": 8212,
      "ambarkeun": 8213,
      "bai": 8214,
      "anun": 8215,
      "anutna": 8216,
      "yap": 8217,
      "yatim": 8218,
      "end": 8219,
      "enting": 8220,
      "pia": 8221,
      "piomong": 8222,
      "pibahla": 8223,
      "paburencay": 8224,
      "jajaka": 8225,
      "jasmani": 8226,
      "undut": 8227,
      "usahana": 8228,
      "arak": 8229,
      "kid": 8230,
      "kiwa": 8231,
      "kilan": 8232,
      "kikintun": 8233,
      "elot": 8234,
      "dai": 8235,
      "euseun": 8236,
      "engtr": 8237,
      "wawatesan": 8238,
      "nuding": 8239,
      "nutup": 8240,
      "ngaben": 8241,
      "ngaberesih": 8242,
      "ngadalahar": 8243,
      "ngauban": 8244,
      "ngabarogod": 8245,
      "arit": 8246,
      "dukun": 8247,
      "eranana": 8248,
      "nyana": 8249,
      "nyin": 8250,
      "nyerahkeun": 8251,
      "gatan": 8252,
      "gading": 8253,
      "jiret": 8254,
      "alaj": 8255,
      "alak": 8256,
      "mandang": 8257,
      "mandan": 8258,
      "ripa": 8259,
      "lakan": 8260,
      "etang": 8261,
      "etah": 8262,
      "nyay": 8263,
      "nyaba": 8264,
      "nyapira": 8265,
      "lin": 8266,
      "pangkat": 8267,
      "panglinggih": 8268,
      "pangleutikna": 8269,
      "pangpunjulna": 8270,
      "lugina": 8271,
      "peringetan": 8272,
      "percayana": 8273,
      "pertelaan": 8274,
      "tanghi": 8275,
      "git": 8276,
      "ketir": 8277,
      "Sadaya": 8278,
      "panah": 8279,
      "Nasir": 8280,
      "Nagara": 8281,
      "kolong": 8282,
      "pokan": 8283,
      "intuh": 8284,
      "banting": 8285,
      "hadira": 8286,
      "mot": 8287,
      "model": 8288,
      "Baana": 8289,
      "ebyar": 8290,
      "keuran": 8291,
      "kabeu": 8292,
      "astana": 8293,
      "Kayu": 8294,
      "Kakaya": 8295,
      "Kapungkur": 8296,
      "Kakawasaan": 8297,
      "maren": 8298,
      "yenyeri": 8299,
      "beubeunanganana": 8300,
      "ngalampah": 8301,
      "otog": 8302,
      "ngareungeu": 8303,
      "ngarurujit": 8304,
      "tembal": 8305,
      "Andika": 8306,
      "taraluk": 8307,
      "betan": 8308,
      "bedegong": 8309,
      "akkeun": 8310,
      "halodo": 8311,
      "parunggu": 8312,
      "galagat": 8313,
      "paman": 8314,
      "saurkeun": 8315,
      "bentar": 8316,
      "ditueun": 8317,
      "dipikir": 8318,
      "asaan": 8319,
      "jarang": 8320,
      "jarong": 8321,
      "disara": 8322,
      "diseungseurikeun": 8323,
      "disanggemkeun": 8324,
      "koneng": 8325,
      "konci": 8326,
      "tuhanana": 8327,
      "langlay": 8328,
      "sameter": 8329,
      "randana": 8330,
      "gog": 8331,
      "ngaras": 8332,
      "ngaradon": 8333,
      "kerasan": 8334,
      "egar": 8335,
      "eganana": 8336,
      "narum": 8337,
      "balap": 8338,
      "dieukeun": 8339,
      "Sipat": 8340,
      "pupulih": 8341,
      "mertu": 8342,
      "mertelakeun": 8343,
      "ngugung": 8344,
      "diajenan": 8345,
      "diauban": 8346,
      "baktikeuneun": 8347,
      "embaran": 8348,
      "haneut": 8349,
      "dare": 8350,
      "geulang": 8351,
      "retan": 8352,
      "berekah": 8353,
      "ngagambarkeun": 8354,
      "jalmina": 8355,
      "wengku": 8356,
      "panganiaya": 8357,
      "jaraga": 8358,
      "limaan": 8359,
      "serenkeun": 8360,
      "aturanana": 8361,
      "saratna": 8362,
      "ngurebkeun": 8363,
      "Molek": 8364,
      "kagalih": 8365,
      "tebar": 8366,
      "kintunkeun": 8367,
      "pendak": 8368,
      "lalim": 8369,
      "lalabuh": 8370,
      "lalintuh": 8371,
      "meredih": 8372,
      "eureunan": 8373,
      "lebar": 8374,
      "genj": 8375,
      "guhana": 8376,
      "kasawat": 8377,
      "pahlawan": 8378,
      "ngawulangkeun": 8379,
      "jurunasehat": 8380,
      "dingding": 8381,
      "peuncitan": 8382,
      "eresna": 8383,
      "trik": 8384,
      "meleng": 8385,
      "caroge": 8386,
      "panuju": 8387,
      "Hade": 8388,
      "orod": 8389,
      "dagang": 8390,
      "pasukanana": 8391,
      "kuatna": 8392,
      "Abiram": 8393,
      "Abihu": 8394,
      "diukir": 8395,
      "rasulna": 8396,
      "enai": 8397,
      "jatkeun": 8398,
      "sayaga": 8399,
      "beberesih": 8400,
      "pepelakanana": 8401,
      "dilel": 8402,
      "gerak": 8403,
      "nyukakeun": 8404,
      "lempar": 8405,
      "ngarigel": 8406,
      "majuna": 8407,
      "lengkah": 8408,
      "ambeh": 8409,
      "ambekan": 8410,
      "dibuburak": 8411,
      "Embarkeun": 8412,
      "nyorangan": 8413,
      "belang": 8414,
      "corok": 8415,
      "Pashur": 8416,
      "Agripa": 8417,
      "gumebyar": 8418,
      "waris": 8419,
      "ngahapunten": 8420,
      "endahna": 8421,
      "ditambahan": 8422,
      "Ramana": 8423,
      "paliyas": 8424,
      "disunatan": 8425,
      "ditareangan": 8426,
      "ditaringgalkeun": 8427,
      "dipernahkeun": 8428,
      "buhan": 8429,
      "kasusul": 8430,
      "jamuju": 8431,
      "wargina": 8432,
      "ngarampogan": 8433,
      "nangtungna": 8434,
      "Beel": 8435,
      "impianana": 8436,
      "karunyaan": 8437,
      "ngabageakeun": 8438,
      "Debir": 8439,
      "Boa": 8440,
      "Berekya": 8441,
      "napsuna": 8442,
      "ceukna": 8443,
      "utami": 8444,
      "cindekna": 8445,
      "meulah": 8446,
      "satru": 8447,
      "Pamenta": 8448,
      "dirampog": 8449,
      "sampeana": 8450,
      "sakulawargana": 8451,
      "lokkeun": 8452,
      "Heper": 8453,
      "kasieunan": 8454,
      "papatahan": 8455,
      "Rekab": 8456,
      "Selop": 8457,
      "dipastikeun": 8458,
      "dialajar": 8459,
      "Arauna": 8460,
      "torek": 8461,
      "kaancikan": 8462,
      "katampa": 8463,
      "Eusi": 8464,
      "babaturanana": 8465,
      "ngidek": 8466,
      "Bilih": 8467,
      "Libia": 8468,
      "buatanana": 8469,
      "saparona": 8470,
      "ehad": 8471,
      "eces": 8472,
      "ngingetkeun": 8473,
      "nyanggemkeun": 8474,
      "tabeatna": 8475,
      "Barabas": 8476,
      "mangpaʼat": 8477,
      "pangaboga": 8478,
      "Sikri": 8479,
      "kaajen": 8480,
      "kaasupan": 8481,
      "ngawejangkeun": 8482,
      "marahal": 8483,
      "ngagarugu": 8484,
      "Tabor": 8485,
      "cabul": 8486,
      "walakaya": 8487,
      "wadya": 8488,
      "ngabulkeun": 8489,
      "tembokna": 8490,
      "rarayna": 8491,
      "katarenjoeun": 8492,
      "Baheula": 8493,
      "resmi": 8494,
      "dileyek": 8495,
      "nyiptakeun": 8496,
      "Mikmas": 8497,
      "soson": 8498,
      "uculan": 8499,
      "arambekeun": 8500,
      "Netanel": 8501,
      "katinggang": 8502,
      "tinggorowok": 8503,
      "Panyambat": 8504,
      "galimir": 8505,
      "rencang": 8506,
      "dikurbankeunana": 8507,
      "sabudeur": 8508,
      "paniatan": 8509,
      "merdeka": 8510,
      "Panto": 8511,
      "didaptarkeun": 8512,
      "wawanen": 8513,
      "nanjeur": 8514,
      "tinggarero": 8515,
      "kamuktian": 8516,
      "waranieun": 8517,
      "norah": 8518,
      "dipepelingan": 8519,
      "pakidulan": 8520,
      "saluluar": 8521,
      "garelut": 8522,
      "Pupusna": 8523,
      "korengna": 8524,
      "patalina": 8525,
      "warawuheun": 8526,
      "Kidron": 8527,
      "kabodoan": 8528,
      "cidra": 8529,
      "Hemor": 8530,
      "ujanan": 8531,
      "dilingkung": 8532,
      "sasapaan": 8533,
      "pilampaheun": 8534,
      "Binih": 8535,
      "kekembangan": 8536,
      "mongkleng": 8537,
      "diberkahanana": 8538,
      "nawiskeun": 8539,
      "piomongeun": 8540,
      "pibahlaeun": 8541,
      "engtreman": 8542,
      "hadirat": 8543,
      "ngalampahkeunana": 8544,
      "langlayeuseun": 8545,
      "panganiayaan": 8546,
      "Selopehad": 8547,
      "32": 8548,
      "300": 8549,
      "Adi": 8550,
      "Adul": 8551,
      "Abed": 8552,
      "Amarah": 8553,
      "Brah": 8554,
      "Beres": 8555,
      "Beria": 8556,
      "Dor": 8557,
      "Dalah": 8558,
      "Dunya": 8559,
      "Dahar": 8560,
      "Er": 8561,
      "Gur": 8562,
      "Gid": 8563,
      "Hari": 8564,
      "Harim": 8565,
      "Hanun": 8566,
      "Mam": 8567,
      "Ngah": 8568,
      "Otni": 8569,
      "Paman": 8570,
      "Sok": 8571,
      "Sekan": 8572,
      "Té": 8573,
      "Tro": 8574,
      "Tulang": 8575,
      "Wilujeng": 8576,
      "Yos": 8577,
      "adonan": 8578,
      "br": 8579,
      "bila": 8580,
      "cer": 8581,
      "cepan": 8582,
      "dama": 8583,
      "drah": 8584,
      "edegong": 8585,
      "geung": 8586,
      "ges": 8587,
      "geuh": 8588,
      "gere": 8589,
      "hana": 8590,
      "hama": 8591,
      "helok": 8592,
      "iga": 8593,
      "idinan": 8594,
      "jun": 8595,
      "mem": 8596,
      "mampuh": 8597,
      "meber": 8598,
      "okotan": 8599,
      "plek": 8600,
      "rud": 8601,
      "sol": 8602,
      "tenna": 8603,
      "uman": 8604,
      "udah": 8605,
      "uju": 8606,
      "wing": 8607,
      "’.": 8608,
      "anteurkeun": 8609,
      "ngulu": 8610,
      "ngomongan": 8611,
      "ngistrenan": 8612,
      "kage": 8613,
      "kawal": 8614,
      "kagejul": 8615,
      "kagag": 8616,
      "kakandungan": 8617,
      "kaimaman": 8618,
      "diga": 8619,
      "diken": 8620,
      "digul": 8621,
      "disapi": 8622,
      "dicap": 8623,
      "dirak": 8624,
      "dipung": 8625,
      "diemut": 8626,
      "diwajibkeun": 8627,
      "nalu": 8628,
      "sakna": 8629,
      "sabalad": 8630,
      "samangsa": 8631,
      "sadinten": 8632,
      "sasauranana": 8633,
      "kuhan": 8634,
      "alesan": 8635,
      "titarajong": 8636,
      "taim": 8637,
      "takna": 8638,
      "tuturkeun": 8639,
      "babanda": 8640,
      "basangkal": 8641,
      "endog": 8642,
      "mawon": 8643,
      "maehanana": 8644,
      "pikah": 8645,
      "pidamel": 8646,
      "pibendu": 8647,
      "pireu": 8648,
      "pikersaeun": 8649,
      "paku": 8650,
      "sisimpen": 8651,
      "ulum": 8652,
      "rat": 8653,
      "rasan": 8654,
      "jajar": 8655,
      "unduk": 8656,
      "kijamuju": 8657,
      "elang": 8658,
      "dada": 8659,
      "embar": 8660,
      "emenna": 8661,
      "nuaran": 8662,
      "nuduhan": 8663,
      "ngawa": 8664,
      "ngasupkeun": 8665,
      "ngabejakeun": 8666,
      "ariksa": 8667,
      "arinum": 8668,
      "dudulur": 8669,
      "ilham": 8670,
      "eke": 8671,
      "ekna": 8672,
      "eket": 8673,
      "sumawon": 8674,
      "abuan": 8675,
      "esotkeun": 8676,
      "mahi": 8677,
      "mihak": 8678,
      "mitoha": 8679,
      "miwarangan": 8680,
      "mikaheman": 8681,
      "utarakeun": 8682,
      "alat": 8683,
      "bisul": 8684,
      "rido": 8685,
      "laju": 8686,
      "lapur": 8687,
      "sareh": 8688,
      "nyatujuan": 8689,
      "lipur": 8690,
      "antarana": 8691,
      "jaloprak": 8692,
      "panguku": 8693,
      "panggedena": 8694,
      "pangajak": 8695,
      "panggagahna": 8696,
      "ongkos": 8697,
      "luang": 8698,
      "gido": 8699,
      "kedal": 8700,
      "cisusu": 8701,
      "ciibun": 8702,
      "Sadrah": 8703,
      "Iskari": 8704,
      "baredas": 8705,
      "kosa": 8706,
      "nego": 8707,
      "ahayana": 8708,
      "poma": 8709,
      "bol": 8710,
      "bora": 8711,
      "turutkeun": 8712,
      "ebe": 8713,
      "kabeuli": 8714,
      "Kaku": 8715,
      "Kaadilan": 8716,
      "udun": 8717,
      "kateter": 8718,
      "katengtreman": 8719,
      "seg": 8720,
      "sewa": 8721,
      "Tacan": 8722,
      "marub": 8723,
      "Dibon": 8724,
      "leuit": 8725,
      "leubeut": 8726,
      "ngalol": 8727,
      "ngaloba": 8728,
      "ngareng": 8729,
      "ngarung": 8730,
      "ngarali": 8731,
      "ngarahayukeun": 8732,
      "ngarenjag": 8733,
      "kendatna": 8734,
      "tempur": 8735,
      "amparkeun": 8736,
      "Musi": 8737,
      "Datan": 8738,
      "Dasar": 8739,
      "Tig": 8740,
      "jokeun": 8741,
      "Megido": 8742,
      "ditalian": 8743,
      "diteungteuinganan": 8744,
      "paru": 8745,
      "ngahan": 8746,
      "akuan": 8747,
      "eukseu": 8748,
      "dituar": 8749,
      "dituduhkeun": 8750,
      "waktosna": 8751,
      "eroan": 8752,
      "jangjina": 8753,
      "pinunjul": 8754,
      "ikla": 8755,
      "walonna": 8756,
      "keri": 8757,
      "egur": 8758,
      "parindah": 8759,
      "tuning": 8760,
      "baranggawe": 8761,
      "jurungan": 8762,
      "petingan": 8763,
      "buran": 8764,
      "bogaeun": 8765,
      "Pasir": 8766,
      "Pagawe": 8767,
      "merul": 8768,
      "emahna": 8769,
      "eupna": 8770,
      "diasupan": 8771,
      "bulukna": 8772,
      "katum": 8773,
      "oraah": 8774,
      "rame": 8775,
      "dicukup": 8776,
      "dicegah": 8777,
      "reka": 8778,
      "surya": 8779,
      "benerkeun": 8780,
      "Eliel": 8781,
      "anggapan": 8782,
      "ngidul": 8783,
      "ngigel": 8784,
      "saruci": 8785,
      "rog": 8786,
      "suling": 8787,
      "suluhna": 8788,
      "gulungan": 8789,
      "Pihatur": 8790,
      "paeheun": 8791,
      "Saurkeun": 8792,
      "lungkeun": 8793,
      "digentos": 8794,
      "kagurni": 8795,
      "Lauk": 8796,
      "tumpak": 8797,
      "munarana": 8798,
      "dianyarkeun": 8799,
      "Mati": 8800,
      "medar": 8801,
      "mesat": 8802,
      "asupkeun": 8803,
      "yuan": 8804,
      "agreng": 8805,
      "legan": 8806,
      "Walerna": 8807,
      "genek": 8808,
      "deukeutna": 8809,
      "tahang": 8810,
      "kasakitna": 8811,
      "kasaeana": 8812,
      "juruna": 8813,
      "gahala": 8814,
      "jejeg": 8815,
      "panasna": 8816,
      "carkeun": 8817,
      "panuyun": 8818,
      "rukkeun": 8819,
      "ditilas": 8820,
      "Gaal": 8821,
      "palay": 8822,
      "bagong": 8823,
      "nembrak": 8824,
      "nyobat": 8825,
      "nyokotan": 8826,
      "reuy": 8827,
      "Nahas": 8828,
      "Elisabet": 8829,
      "sasambatna": 8830,
      "megatan": 8831,
      "megatkeun": 8832,
      "Karaton": 8833,
      "sasab": 8834,
      "Duka": 8835,
      "obor": 8836,
      "hejo": 8837,
      "Jaga": 8838,
      "Kareta": 8839,
      "kaldena": 8840,
      "pikagimir": 8841,
      "ngahukumna": 8842,
      "estuna": 8843,
      "Yael": 8844,
      "uruskeun": 8845,
      "dirasiahkeun": 8846,
      "lengoh": 8847,
      "ngangsonan": 8848,
      "dipikageuleuh": 8849,
      "Salila": 8850,
      "bodona": 8851,
      "mindeng": 8852,
      "mindahkeun": 8853,
      "panyaksi": 8854,
      "korsi": 8855,
      "kapikir": 8856,
      "suratna": 8857,
      "Ngadarenge": 8858,
      "ngajaring": 8859,
      "resepeun": 8860,
      "Markus": 8861,
      "jonghok": 8862,
      "dipidamelna": 8863,
      "tulangna": 8864,
      "nitenan": 8865,
      "Mikael": 8866,
      "renggenek": 8867,
      "Satemenna": 8868,
      "dibagianan": 8869,
      "Kalayan": 8870,
      "Beor": 8871,
      "disaput": 8872,
      "Dedan": 8873,
      "Debora": 8874,
      "Boga": 8875,
      "susuguh": 8876,
      "liket": 8877,
      "Jieun": 8878,
      "sumberna": 8879,
      "ngadoa": 8880,
      "pangabisa": 8881,
      "Paruji": 8882,
      "nyered": 8883,
      "jempe": 8884,
      "rongkahna": 8885,
      "nampik": 8886,
      "diparengkeun": 8887,
      "dikepret": 8888,
      "Kedar": 8889,
      "Gedong": 8890,
      "ditolih": 8891,
      "nyamber": 8892,
      "Baris": 8893,
      "dibantuan": 8894,
      "Amihud": 8895,
      "waras": 8896,
      "eukeuhan": 8897,
      "Hatena": 8898,
      "ngideran": 8899,
      "balukar": 8900,
      "raheutna": 8901,
      "dipeperih": 8902,
      "rumahuh": 8903,
      "Bilha": 8904,
      "ngulon": 8905,
      "papalangna": 8906,
      "Leuweung": 8907,
      "rasrasan": 8908,
      "someah": 8909,
      "manggil": 8910,
      "ngagaur": 8911,
      "kacerek": 8912,
      "kamagungan": 8913,
      "tukangan": 8914,
      "rerencepan": 8915,
      "nginjeumkeun": 8916,
      "pakarepan": 8917,
      "ngorbankeun": 8918,
      "dilahirkeun": 8919,
      "Maksudna": 8920,
      "cabang": 8921,
      "Katenjo": 8922,
      "Sepanya": 8923,
      "ngalartieun": 8924,
      "ngongora": 8925,
      "Kedes": 8926,
      "kadarengeeun": 8927,
      "burencaykeun": 8928,
      "Dagingna": 8929,
      "ditundung": 8930,
      "Dirina": 8931,
      "sareubeuheun": 8932,
      "ngalumbara": 8933,
      "hareraneun": 8934,
      "diuningaan": 8935,
      "nyatetkeun": 8936,
      "Katingalieun": 8937,
      "dirugrugkeun": 8938,
      "Sesana": 8939,
      "altiel": 8940,
      "titajong": 8941,
      "lumaku": 8942,
      "ditaheunan": 8943,
      "Kayapas": 8944,
      "gumuruh": 8945,
      "Tihang": 8946,
      "Cindekna": 8947,
      "calageur": 8948,
      "nulad": 8949,
      "dimimitian": 8950,
      "nyampurnakeun": 8951,
      "ngaluhuran": 8952,
      "kapopohokeun": 8953,
      "dilantarankeun": 8954,
      "dileungitkeun": 8955,
      "satiana": 8956,
      "panglinggihana": 8957,
      "Adulam": 8958,
      "Abednego": 8959,
      "Sekanya": 8960,
      "Téman": 8961,
      "junun": 8962,
      "kagagahan": 8963,
      "Iskariot": 8964,
      "marubus": 8965,
      "eukseukan": 8966,
      "17": 8967,
      "40": 8968,
      "Akan": 8969,
      "Asih": 8970,
      "Aduh": 8971,
      "Adaya": 8972,
      "Eur": 8973,
      "Etan": 8974,
      "Gen": 8975,
      "Imer": 8976,
      "Jab": 8977,
      "Kil": 8978,
      "Kebon": 8979,
      "Mang": 8980,
      "Mara": 8981,
      "Mem": 8982,
      "Murangkalih": 8983,
      "Nim": 8984,
      "Ngu": 8985,
      "Pri": 8986,
      "Pak": 8987,
      "Rem": 8988,
      "Rere": 8989,
      "Seun": 8990,
      "Seung": 8991,
      "Samp": 8992,
      "Seja": 8993,
      "Sebah": 8994,
      "Sebutkeun": 8995,
      "Selemya": 8996,
      "Terah": 8997,
      "Terang": 8998,
      "Wi": 8999,
      "Wani": 9000,
      "Yib": 9001,
      "akur": 9002,
      "ajang": 9003,
      "ajar": 9004,
      "adegkeun": 9005,
      "asiel": 9006,
      "breng": 9007,
      "brol": 9008,
      "bulak": 9009,
      "ceak": 9010,
      "dami": 9011,
      "dring": 9012,
      "gemah": 9013,
      "gempur": 9014,
      "gamb": 9015,
      "gili": 9016,
      "garis": 9017,
      "hos": 9018,
      "hali": 9019,
      "jor": 9020,
      "jukkeun": 9021,
      "lelem": 9022,
      "lante": 9023,
      "nelek": 9024,
      "ogo": 9025,
      "omit": 9026,
      "sebut": 9027,
      "ukir": 9028,
      "wos": 9029,
      "wulana": 9030,
      "ʼGusti": 9031,
      "ʼGeura": 9032,
      "ʼKuring": 9033,
      "”.)": 9034,
      "ngot": 9035,
      "ngimpen": 9036,
      "ngempelkeun": 9037,
      "arahli": 9038,
      "arunggah": 9039,
      "aromongna": 9040,
      "katan": 9041,
      "kahi": 9042,
      "kasum": 9043,
      "kadar": 9044,
      "katerang": 9045,
      "kawani": 9046,
      "kaemut": 9047,
      "kasiksa": 9048,
      "kakurang": 9049,
      "kagoda": 9050,
      "kaereh": 9051,
      "kakerasan": 9052,
      "digi": 9053,
      "diabdi": 9054,
      "dican": 9055,
      "dilan": 9056,
      "dipupus": 9057,
      "dicip": 9058,
      "diwartosan": 9059,
      "diragragan": 9060,
      "dikintun": 9061,
      "dipupu": 9062,
      "dibongkar": 9063,
      "dinyana": 9064,
      "nasi": 9065,
      "natamu": 9066,
      "saputra": 9067,
      "sakaom": 9068,
      "sabelas": 9069,
      "kua": 9070,
      "kumur": 9071,
      "alingan": 9072,
      "timah": 9073,
      "titingalian": 9074,
      "tibeubeut": 9075,
      "tapel": 9076,
      "tuel": 9077,
      "tuduh": 9078,
      "badah": 9079,
      "badot": 9080,
      "ening": 9081,
      "mad": 9082,
      "mai": 9083,
      "madep": 9084,
      "mawet": 9085,
      "pid": 9086,
      "pijalan": 9087,
      "pilembur": 9088,
      "pikaresep": 9089,
      "pikabungah": 9090,
      "pipaeheun": 9091,
      "papag": 9092,
      "paeunteung": 9093,
      "pageto": 9094,
      "pabentar": 9095,
      "sion": 9096,
      "sibat": 9097,
      "arandika": 9098,
      "jasa": 9099,
      "jatna": 9100,
      "unem": 9101,
      "araeh": 9102,
      "kiamat": 9103,
      "elna": 9104,
      "daunan": 9105,
      "ingkus": 9106,
      "euskeun": 9107,
      "emuel": 9108,
      "engkat": 9109,
      "ungk": 9110,
      "wayah": 9111,
      "wakil": 9112,
      "ngaso": 9113,
      "ngawidian": 9114,
      "ngasaan": 9115,
      "arib": 9116,
      "ariji": 9117,
      "geuskeun": 9118,
      "ondang": 9119,
      "nyelehkeun": 9120,
      "etak": 9121,
      "gabug": 9122,
      "eksan": 9123,
      "uhit": 9124,
      "Aleksan": 9125,
      "eson": 9126,
      "eset": 9127,
      "esmikeun": 9128,
      "tandon": 9129,
      "mitulung": 9130,
      "mitenah": 9131,
      "utna": 9132,
      "deut": 9133,
      "gegek": 9134,
      "biang": 9135,
      "bibit": 9136,
      "rikat": 9137,
      "rinta": 9138,
      "laka": 9139,
[...]
