{
  "version": "1.0",
  "truncation": null,
  "padding": null,
  "added_tokens": [
    {
      "id": 0,
      "content": "<pad>",
      "single_word": false,
      "lstrip": false,
      "rstrip": false,
      "normalized": false,
      "special": true
    },
    {
      "id": 1,
      "content": "<unk>",
      "single_word": false,
      "lstrip": false,
      "rstrip": false,
      "normalized": false,
      "special": true
    },
    {
      "id": 2,
      "content": "<s>",
      "single_word": false,
      "lstrip": false,
      "rstrip": false,
      "normalized": false,
      "special": true
    },
    {
      "id": 3,
      "content": "</s>",
      "single_word": false,
      "lstrip": false,
      "rstrip": false,
      "normalized": false,
      "special": true
    }
  ],
  "normalizer": null,
  "pre_tokenizer": {
    "type": "Sequence",
    "pretokenizers": [
      {
        "type": "Whitespace"
      },
      {
        "type": "Split",
        "pattern": {
          "Regex": "(?<=[ऀ-ॿ஀-௿฀-๿຀-໿က-႟ក-៿一-鿿꤀-꤯])(?=[A-Za-z0-9])|(?<=[A-Za-z0-9])(?=[ऀ-ॿ஀-௿฀-๿຀-໿က-႟ក-៿一-鿿꤀-꤯])"
        },
        "behavior": "Isolated",
        "invert": false
      }
    ]
  },
  "post_processor": null,
  "decoder": null,
  "model": {
    "type": "BPE",
    "dropout": null,
    "unk_token": "<unk>",
    "continuing_subword_prefix": null,
    "end_of_word_suffix": null,
    "fuse_unk": false,
    "byte_fallback": false,
    "ignore_merges": false,
    "vocab": {
      "<pad>": 0,
      "<unk>": 1,
      "<s>": 2,
      "</s>": 3,
      "!": 4,
      "(": 5,
      ")": 6,
      ",": 7,
      "-": 8,
      ".": 9,
      "/": 10,
      "0": 11,
      "1": 12,
      "2": 13,
      "3": 14,
      "4": 15,
      "5": 16,
      "6": 17,
      "7": 18,
      "8": 19,
      "9": 20,
      ":": 21,
      ";": 22,
      "=": 23,
      "?": 24,
      "A": 25,
      "B": 26,
      "C": 27,
      "D": 28,
      "E": 29,
      "F": 30,
      "G": 31,
      "H": 32,
      "I": 33,
      "J": 34,
      "K": 35,
      "L": 36,
      "M": 37,
      "N": 38,
      "O": 39,
      "P": 40,
      "R": 41,
      "S": 42,
      "T": 43,
      "U": 44,
      "W": 45,
      "Y": 46,
      "Z": 47,
      "[": 48,
      "]": 49,
      "a": 50,
      "b": 51,
      "c": 52,
      "d": 53,
      "e": 54,
      "f": 55,
      "g": 56,
      "h": 57,
      "i": 58,
      "j": 59,
      "k": 60,
      "l": 61,
      "m": 62,
      "n": 63,
      "o": 64,
      "p": 65,
      "r": 66,
      "s": 67,
      "t": 68,
      "u": 69,
      "v": 70,
      "w": 71,
      "y": 72,
      "z": 73,
      "–": 74,
      "‘": 75,
      "’": 76,
      "“": 77,
      "”": 78,
      "an": 79,
      "er": 80,
      "ang": 81,
      "ah": 82,
      "en": 83,
      "ak": 84,
      "ka": 85,
      "da": 86,
      "em": 87,
      "di": 88,
      "tu": 89,
      "pa": 90,
      "men": 91,
      "ti": 92,
      "ta": 93,
      "ya": 94,
      "la": 95,
      "ber": 96,
      "in": 97,
      "ke": 98,
      "kan": 99,
      "un": 100,
      "lah": 101,
      "se": 102,
      "yang": 103,
      "dan": 104,
      "ga": 105,
      "sa": 106,
      "ma": 107,
      "ba": 108,
      "mu": 109,
      "itu": 110,
      "ja": 111,
      "ku": 112,
      "or": 113,
      "ha": 114,
      "akan": 115,
      "ri": 116,
      "per": 117,
      "mem": 118,
      "ra": 119,
      "pada": 120,
      "su": 121,
      "eka": 122,
      "ereka": 123,
      "orang": 124,
      "ia": 125,
      "el": 126,
      "bu": 127,
      "eng": 128,
      "mereka": 129,
      "dak": 130,
      "kamu": 131,
      "lu": 132,
      "aku": 133,
      "kepada": 134,
      "gi": 135,
      "wa": 136,
      "tidak": 137,
      "nya": 138,
      "li": 139,
      "aha": 140,
      "emu": 141,
      "le": 142,
      "AN": 143,
      "HAN": 144,
      "TU": 145,
      "TUHAN": 146,
      "ter": 147,
      "du": 148,
      "bi": 149,
      "meng": 150,
      "te": 151,
      "ru": 152,
      "engan": 153,
      "ki": 154,
      "tan": 155,
      "Aku": 156,
      "dari": 157,
      "Al": 158,
      "dengan": 159,
      "ana": 160,
      "pi": 161,
      "tuk": 162,
      "Allah": 163,
      "ng": 164,
      "tah": 165,
      "pu": 166,
      "si": 167,
      "ing": 168,
      "untuk": 169,
      "pat": 170,
      "leh": 171,
      "aja": 172,
      "mi": 173,
      "be": 174,
      "ju": 175,
      "man": 176,
      "ker": 177,
      "at": 178,
      "pun": 179,
      "ar": 180,
      "meny": 181,
      "dia": 182,
      "Dia": 183,
      "tapi": 184,
      "Raja": 185,
      "anak": 186,
      "tang": 187,
      "kata": 188,
      "menja": 189,
      "semu": 190,
      "beri": 191,
      "ir": 192,
      "ung": 193,
      ".”": 194,
      "dah": 195,
      "Ye": 196,
      "lam": 197,
      "mat": 198,
      "ada": 199,
      "apa": 200,
      "telah": 201,
      "ini": 202,
      "kau": 203,
      "uh": 204,
      "daripada": 205,
      "lalu": 206,
      "baha": 207,
      "ko": 208,
      "oleh": 209,
      "bah": 210,
      "na": 211,
      "mel": 212,
      "kerana": 213,
      "ji": 214,
      "do": 215,
      "hi": 216,
      "eri": 217,
      "semua": 218,
      "Is": 219,
      "bang": 220,
      "hu": 221,
      "mah": 222,
      "as": 223,
      "ata": 224,
      "berkata": 225,
      "pen": 226,
      "au": 227,
      "Ku": 228,
      "menga": 229,
      "rang": 230,
      "Nya": 231,
      "anya": 232,
      "diri": 233,
      "rael": 234,
      "Israel": 235,
      "sus": 236,
      "angan": 237,
      "gai": 238,
      "ik": 239,
      "asa": 240,
      "me": 241,
      "ca": 242,
      "menjadi": 243,
      "dapat": 244,
      "memb": 245,
      "Mereka": 246,
      "Se": 247,
      "dalam": 248,
      "sem": 249,
      "kita": 250,
      "Mu": 251,
      "mp": 252,
      "perti": 253,
      "ban": 254,
      "sia": 255,
      "raja": 256,
      "kota": 257,
      "bahawa": 258,
      "sudah": 259,
      "seperti": 260,
      "ran": 261,
      "gal": 262,
      "on": 263,
      "emi": 264,
      "Yesus": 265,
      "sama": 266,
      "tem": 267,
      "Te": 268,
      "mba": 269,
      "pe": 270,
      "akukan": 271,
      "kami": 272,
      "memberi": 273,
      "pan": 274,
      "enga": 275,
      "Tetapi": 276,
      "seba": 277,
      "seorang": 278,
      "dian": 279,
      "tahu": 280,
      "aki": 281,
      "ap": 282,
      "rus": 283,
      "dang": 284,
      "lan": 285,
      "hada": 286,
      "tetapi": 287,
      "Ka": 288,
      "juga": 289,
      "emudian": 290,
      "bila": 291,
      "umat": 292,
      "hari": 293,
      "lem": 294,
      "intah": 295,
      "Eng": 296,
      "Engkau": 297,
      "kat": 298,
      "ting": 299,
      "sen": 300,
      "ser": 301,
      "ur": 302,
      "mpa": 303,
      "eg": 304,
      "ten": 305,
      "lagi": 306,
      "irman": 307,
      "tus": 308,
      "firman": 309,
      "ai": 310,
      "datang": 311,
      "han": 312,
      "lo": 313,
      "ci": 314,
      "Kemudian": 315,
      "ben": 316,
      "paya": 317,
      "lain": 318,
      "ruh": 319,
      "supaya": 320,
      "kor": 321,
      "engar": 322,
      "Ba": 323,
      "tempat": 324,
      "dua": 325,
      "engkau": 326,
      "hidu": 327,
      "jan": 328,
      "yak": 329,
      "Oleh": 330,
      "atau": 331,
      "makan": 332,
      "memba": 333,
      "hidup": 334,
      "hat": 335,
      "peng": 336,
      "baik": 337,
      "Sa": 338,
      "harus": 339,
      "buat": 340,
      "sebagai": 341,
      "bangsa": 342,
      "is": 343,
      "hati": 344,
      "sela": 345,
      "kut": 346,
      "us": 347,
      "mati": 348,
      "lang": 349,
      "neg": 350,
      "wan": 351,
      "dengar": 352,
      "ela": 353,
      "gala": 354,
      "min": 355,
      "kum": 356,
      "um": 357,
      "Yo": 358,
      "bil": 359,
      "pergi": 360,
      "negeri": 361,
      "pak": 362,
      "de": 363,
      "tiap": 364,
      "kepa": 365,
      "sy": 366,
      "tuan": 367,
      "sembah": 368,
      "ingga": 369,
      "Apa": 370,
      "buah": 371,
      "hingga": 372,
      "sua": 373,
      "mer": 374,
      "kem": 375,
      "hadap": 376,
      "rkan": 377,
      "Dau": 378,
      "kian": 379,
      "berfirman": 380,
      "Daud": 381,
      "emikian": 382,
      "luar": 383,
      "segala": 384,
      "am": 385,
      "hamba": 386,
      "sehingga": 387,
      "mam": 388,
      "unuh": 389,
      "bel": 390,
      "Orang": 391,
      "tinggal": 392,
      "Pada": 393,
      "wab": 394,
      "bin": 395,
      "inya": 396,
      "seka": 397,
      "mengu": 398,
      "sau": 399,
      "ika": 400,
      "cu": 401,
      "tanah": 402,
      "sendiri": 403,
      "lik": 404,
      "mpai": 405,
      "Yer": 406,
      "Apabila": 407,
      "Jika": 408,
      "bo": 409,
      "persembah": 410,
      "menu": 411,
      "hen": 412,
      "sti": 413,
      "lel": 414,
      "Me": 415,
      "bagi": 416,
      "jaha": 417,
      "hal": 418,
      "kanlah": 419,
      "melakukan": 420,
      "memberikan": 421,
      "rat": 422,
      "dudu": 423,
      "inda": 424,
      "mendengar": 425,
      "et": 426,
      "Kamu": 427,
      "dosa": 428,
      "sir": 429,
      "sih": 430,
      "Ke": 431,
      "sauda": 432,
      "Per": 433,
      "ketu": 434,
      "Ru": 435,
      "korban": 436,
      "run": 437,
      "gun": 438,
      "mur": 439,
      "lelaki": 440,
      "saya": 441,
      "atan": 442,
      "yai": 443,
      "lakukan": 444,
      "mo": 445,
      "janji": 446,
      "satu": 447,
      "serta": 448,
      "tika": 449,
      "al": 450,
      "atas": 451,
      "ginda": 452,
      "keluar": 453,
      "bih": 454,
      "ro": 455,
      "hukum": 456,
      "gu": 457,
      "san": 458,
      "usa": 459,
      "masa": 460,
      "membawa": 461,
      "pem": 462,
      "ari": 463,
      "but": 464,
      "ahkan": 465,
      "Musa": 466,
      "kah": 467,
      "tara": 468,
      "ihat": 469,
      "uhan": 470,
      "Yerusa": 471,
      "perintah": 472,
      "Yerusalem": 473,
      "situ": 474,
      "Yehu": 475,
      "duduk": 476,
      "rumah": 477,
      "mpin": 478,
      "Si": 479,
      "bersama": 480,
      "terhadap": 481,
      "mahu": 482,
      "Tuhan": 483,
      "saha": 484,
      "punyai": 485,
      "mempunyai": 486,
      "demikian": 487,
      "lebih": 488,
      "tanya": 489,
      "Di": 490,
      "kh": 491,
      "!”": 492,
      "jalan": 493,
      "imam": 494,
      "mak": 495,
      "tera": 496,
      "Rumah": 497,
      "ikut": 498,
      "usia": 499,
      "sar": 500,
      "menyer": 501,
      "mbil": 502,
      "banyak": 503,
      "inggal": 504,
      "menjawab": 505,
      "siapa": 506,
      "selama": 507,
      "pas": 508,
      "para": 509,
      "erintah": 510,
      "perka": 511,
      "yat": 512,
      "Yehuda": 513,
      "ita": 514,
      "Jangan": 515,
      "hendak": 516,
      "mengi": 517,
      "tentang": 518,
      "meninggal": 519,
      "saudara": 520,
      "wi": 521,
      "danya": 522,
      "ris": 523,
      "jahat": 524,
      "olo": 525,
      "suh": 526,
      "Mesir": 527,
      "tahun": 528,
      "jak": 529,
      "menye": 530,
      "kit": 531,
      "persembahkan": 532,
      "boleh": 533,
      "dun": 534,
      "baginda": 535,
      "rah": 536,
      "ina": 537,
      "melihat": 538,
      "suk": 539,
      "bahagi": 540,
      "tuanku": 541,
      "perbu": 542,
      "benar": 543,
      "kuasa": 544,
      "sampai": 545,
      "?”": 546,
      "La": 547,
      "nama": 548,
      "membunuh": 549,
      "mana": 550,
      "gan": 551,
      "sana": 552,
      "empu": 553,
      "ahu": 554,
      "olong": 555,
      "Kris": 556,
      "apabila": 557,
      "laku": 558,
      "sang": 559,
      "Kristus": 560,
      "ahan": 561,
      "beta": 562,
      "Ti": 563,
      "perkara": 564,
      "bat": 565,
      "mpak": 566,
      "las": 567,
      "teri": 568,
      "yi": 569,
      "kar": 570,
      "runan": 571,
      "pemi": 572,
      "lau": 573,
      "selu": 574,
      "pakah": 575,
      "pin": 576,
      "skan": 577,
      "kha": 578,
      "pengikut": 579,
      "menyu": 580,
      "perca": 581,
      "luh": 582,
      "manusia": 583,
      "besar": 584,
      "batu": 585,
      "ati": 586,
      "berikan": 587,
      "bun": 588,
      "buh": 589,
      "suatu": 590,
      "sahaja": 591,
      "suku": 592,
      "musuh": 593,
      "po": 594,
      "perbuatan": 595,
      "gawa": 596,
      "salah": 597,
      "seluruh": 598,
      "ger": 599,
      "An": 600,
      "Ab": 601,
      "puluh": 602,
      "bur": 603,
      "air": 604,
      "bali": 605,
      "berlaku": 606,
      "hadapan": 607,
      "jika": 608,
      "berha": 609,
      "Le": 610,
      "ketika": 611,
      "bumi": 612,
      "Sau": 613,
      "annya": 614,
      "atang": 615,
      "menge": 616,
      "gur": 617,
      "masuk": 618,
      "keturunan": 619,
      "yu": 620,
      "belah": 621,
      "pemimpin": 622,
      "domba": 623,
      "maz": 624,
      "tiga": 625,
      "elamat": 626,
      "ling": 627,
      "taku": 628,
      "kok": 629,
      "pintu": 630,
      "tiba": 631,
      "rut": 632,
      "mas": 633,
      "menyem": 634,
      "Sem": 635,
      "Semu": 636,
      "kepadanya": 637,
      "menya": 638,
      "mesti": 639,
      "lai": 640,
      "memi": 641,
      "sekarang": 642,
      "mela": 643,
      "percaya": 644,
      "bertanya": 645,
      "empat": 646,
      "Ber": 647,
      "penduduk": 648,
      "perempu": 649,
      "ni": 650,
      "masih": 651,
      "Dengan": 652,
      "nah": 653,
      "berapa": 654,
      "setiap": 655,
      "bukan": 656,
      "lis": 657,
      "sedang": 658,
      "kembali": 659,
      "za": 660,
      "sekali": 661,
      "binatang": 662,
      "sangat": 663,
      "ekor": 664,
      "oh": 665,
      "nampak": 666,
      "belum": 667,
      "lkan": 668,
      "es": 669,
      "meninggalkan": 670,
      "tak": 671,
      "dahu": 672,
      "ab": 673,
      "mazbah": 674,
      "bahagian": 675,
      "ungai": 676,
      "nabi": 677,
      "mengambil": 678,
      "pokok": 679,
      "menyuruh": 680,
      "Ya": 681,
      "tuju": 682,
      "epas": 683,
      "laman": 684,
      "membuat": 685,
      "dahulu": 686,
      "00": 687,
      "emah": 688,
      "dunia": 689,
      "Sel": 690,
      "makanan": 691,
      "perempuan": 692,
      ".’": 693,
      "suka": 694,
      "kerja": 695,
      "bia": 696,
      "Semua": 697,
      "gem": 698,
      "mengh": 699,
      "Ha": 700,
      "jangan": 701,
      "sebelah": 702,
      "ek": 703,
      "ialah": 704,
      "menang": 705,
      "mendapat": 706,
      "memerintah": 707,
      "lia": 708,
      "Lalu": 709,
      "teng": 710,
      "emas": 711,
      "erita": 712,
      "sesiapa": 713,
      "gung": 714,
      "Yahu": 715,
      "Yahudi": 716,
      "Anak": 717,
      "mb": 718,
      "mempersembahkan": 719,
      "takan": 720,
      "rak": 721,
      "memu": 722,
      "tap": 723,
      "doa": 724,
      "inga": 725,
      "menurut": 726,
      "adi": 727,
      "tuh": 728,
      "diberikan": 729,
      "akar": 730,
      "kal": 731,
      "elamatkan": 732,
      "it": 733,
      "menyelamatkan": 734,
      "mula": 735,
      "lembu": 736,
      "antara": 737,
      "Kami": 738,
      "ram": 739,
      "bkan": 740,
      "Ma": 741,
      "daku": 742,
      "pegawa": 743,
      "Be": 744,
      "har": 745,
      "bagai": 746,
      "Saul": 747,
      "janjian": 748,
      "Su": 749,
      "kkan": 750,
      "sihi": 751,
      "askar": 752,
      "syur": 753,
      "Yang": 754,
      "wak": 755,
      "enek": 756,
      "dilakukan": 757,
      "tung": 758,
      "lus": 759,
      "takut": 760,
      "kin": 761,
      "mena": 762,
      "menc": 763,
      "hanya": 764,
      "sebuah": 765,
      "memper": 766,
      "hai": 767,
      "moyang": 768,
      "waktu": 769,
      "bunuh": 770,
      "jar": 771,
      "cara": 772,
      "Yu": 773,
      "lih": 774,
      "Selepas": 775,
      "pernah": 776,
      "yah": 777,
      "meneri": 778,
      "angkan": 779,
      "Na": 780,
      "berdosa": 781,
      "gang": 782,
      "gil": 783,
      "Hai": 784,
      "ken": 785,
      "jang": 786,
      "berka": 787,
      "iaitu": 788,
      "Maha": 789,
      "memberitahu": 790,
      "angkat": 791,
      "laikat": 792,
      "Seka": 793,
      "seti": 794,
      "pera": 795,
      "nenek": 796,
      "rlah": 797,
      "belas": 798,
      "tentera": 799,
      "berbuat": 800,
      "yaan": 801,
      "kap": 802,
      "ataupun": 803,
      "Har": 804,
      "berhala": 805,
      "bar": 806,
      "lalui": 807,
      "pakai": 808,
      "kepadaku": 809,
      "suci": 810,
      "Tidak": 811,
      "tai": 812,
      "menyerang": 813,
      "tetap": 814,
      "sung": 815,
      "milik": 816,
      "kali": 817,
      "menjadikan": 818,
      "keli": 819,
      "tengah": 820,
      "padang": 821,
      "Setelah": 822,
      "wanita": 823,
      "Lewi": 824,
      "menerima": 825,
      "sebab": 826,
      "cak": 827,
      "ara": 828,
      "mai": 829,
      "bapa": 830,
      "pegawai": 831,
      "kur": 832,
      "semuanya": 833,
      "Ben": 834,
      "guh": 835,
      "lama": 836,
      "semula": 837,
      "tana": 838,
      "eli": 839,
      "kemu": 840,
      "to": 841,
      "Yaku": 842,
      "penuh": 843,
      "kumpu": 844,
      "Yakub": 845,
      "hak": 846,
      "tahui": 847,
      "Tau": 848,
      "lamanya": 849,
      "Taurat": 850,
      "lak": 851,
      "yan": 852,
      "mpun": 853,
      "menghukum": 854,
      "gunakan": 855,
      "kuat": 856,
      "sul": 857,
      "Gi": 858,
      "beberapa": 859,
      "menyen": 860,
      "menyembah": 861,
      "malam": 862,
      "memang": 863,
      "pulang": 864,
      "mengha": 865,
      "menyeba": 866,
      "lin": 867,
      "kedua": 868,
      "kannya": 869,
      "tiada": 870,
      "Bu": 871,
      "sedi": 872,
      "tujuh": 873,
      "memben": 874,
      "Salo": 875,
      "Menga": 876,
      "dewa": 877,
      "Salomo": 878,
      "aham": 879,
      "berti": 880,
      "Sekarang": 881,
      "melalui": 882,
      "Ta": 883,
      "dung": 884,
      "khaba": 885,
      "menyebabkan": 886,
      "Ini": 887,
      "Tu": 888,
      "api": 889,
      "fi": 890,
      "dakah": 891,
      "bijak": 892,
      "mengen": 893,
      "jantan": 894,
      "selamat": 895,
      "ladang": 896,
      "senti": 897,
      "akah": 898,
      "ria": 899,
      "tangan": 900,
      "rakyat": 901,
      "setia": 902,
      "mpi": 903,
      "meni": 904,
      "keluarga": 905,
      "Roh": 906,
      "seru": 907,
      "Harun": 908,
      "perang": 909,
      "bok": 910,
      "puak": 911,
      "asakan": 912,
      "mata": 913,
      "menca": 914,
      "berdoa": 915,
      "so": 916,
      "wang": 917,
      "lahkan": 918,
      "malaikat": 919,
      "mpu": 920,
      "kayu": 921,
      "maka": 922,
      "Fi": 923,
      "Tia": 924,
      "sesuatu": 925,
      "peny": 926,
      "Inilah": 927,
      "wah": 928,
      "akh": 929,
      "membina": 930,
      "deka": 931,
      "katakan": 932,
      "gunung": 933,
      "anti": 934,
      "tama": 935,
      "menolong": 936,
      "kuda": 937,
      "tuhan": 938,
      "minta": 939,
      "Pen": 940,
      "membu": 941,
      "bada": 942,
      "beru": 943,
      "Demikian": 944,
      "akkan": 945,
      "menghadap": 946,
      "mengasihi": 947,
      "Bapa": 948,
      "Eli": 949,
      "suf": 950,
      "tembok": 951,
      "lima": 952,
      "masing": 953,
      "Yusuf": 954,
      "baru": 955,
      "Kh": 956,
      "up": 957,
      "Khemah": 958,
      "Sungai": 959,
      "gar": 960,
      "Fili": 961,
      "badat": 962,
      "raham": 963,
      "Abraham": 964,
      "burung": 965,
      "berdiri": 966,
      "gas": 967,
      "mpah": 968,
      "derita": 969,
      "sentiasa": 970,
      "mera": 971,
      "zar": 972,
      "pati": 973,
      "sai": 974,
      "bukit": 975,
      "onia": 976,
      "langit": 977,
      "Itu": 978,
      "pel": 979,
      "kehendak": 980,
      "Ketika": 981,
      "ormati": 982,
      "bernama": 983,
      "bawah": 984,
      "meter": 985,
      "Babil": 986,
      "isteri": 987,
      "Babilonia": 988,
      "panjang": 989,
      "pakaian": 990,
      "cur": 991,
      "ota": 992,
      "diba": 993,
      "Kuasa": 994,
      "Imam": 995,
      "sini": 996,
      "beg": 997,
      "bunyi": 998,
      "lahir": 999,
      "aka": 1000,
      "taat": 1001,
      "Adakah": 1002,
      "minum": 1003,
      "gurun": 1004,
      "sihan": 1005,
      "memanggil": 1006,
      "perak": 1007,
      "Ga": 1008,
      "dar": 1009,
      "Pau": 1010,
      "ani": 1011,
      "berkati": 1012,
      "Itulah": 1013,
      "Paulus": 1014,
      "lari": 1015,
      "layah": 1016,
      "roti": 1017,
      "dai": 1018,
      "nahkan": 1019,
      "tulis": 1020,
      "ingin": 1021,
      "menyenangkan": 1022,
      "ut": 1023,
      "arkan": 1024,
      "gen": 1025,
      "sungguh": 1026,
      "fiki": 1027,
      "inta": 1028,
      "lea": 1029,
      "tusan": 1030,
      "dekat": 1031,
      "rai": 1032,
      "bulan": 1033,
      "persembahan": 1034,
      "kia": 1035,
      "menun": 1036,
      "terus": 1037,
      "laupun": 1038,
      "Am": 1039,
      "kemen": 1040,
      "ibu": 1041,
      "kitab": 1042,
      "beba": 1043,
      "balik": 1044,
      "Aha": 1045,
      "jauh": 1046,
      "akit": 1047,
      "jahatan": 1048,
      "oga": 1049,
      "anku": 1050,
      "darah": 1051,
      "rim": 1052,
      "khabaran": 1053,
      "Pu": 1054,
      "tugas": 1055,
      "Mari": 1056,
      "berseru": 1057,
      "wilayah": 1058,
      "syurga": 1059,
      "kasih": 1060,
      "seekor": 1061,
      "mengikut": 1062,
      "perjanjian": 1063,
      "pengu": 1064,
      "diper": 1065,
      "iz": 1066,
      "kaki": 1067,
      "jukkan": 1068,
      "tar": 1069,
      "peri": 1070,
      "stin": 1071,
      "Filistin": 1072,
      "erah": 1073,
      "gembi": 1074,
      "akhir": 1075,
      "Bi": 1076,
      "keraja": 1077,
      "mema": 1078,
      "Akulah": 1079,
      "istana": 1080,
      "kejahatan": 1081,
      "perkhabaran": 1082,
      "asing": 1083,
      "bersu": 1084,
      "lukan": 1085,
      "membin": 1086,
      "henti": 1087,
      "cakap": 1088,
      "roh": 1089,
      "kemudian": 1090,
      "wain": 1091,
      "dur": 1092,
      "pemerintah": 1093,
      "anggur": 1094,
      "taati": 1095,
      "ping": 1096,
      "bela": 1097,
      "membakar": 1098,
      "Demikianlah": 1099,
      "win": 1100,
      "gerbang": 1101,
      "dih": 1102,
      "tubuh": 1103,
      "Sesiapa": 1104,
      "mengetahui": 1105,
      "ih": 1106,
      "hara": 1107,
      "iarkan": 1108,
      "Janganlah": 1109,
      "nia": 1110,
      "dibuat": 1111,
      "kepadamu": 1112,
      "kepala": 1113,
      "bertitah": 1114,
      "mencari": 1115,
      "tolong": 1116,
      "Yor": 1117,
      "re": 1118,
      "sak": 1119,
      "pertama": 1120,
      "ajaran": 1121,
      "jawab": 1122,
      "dum": 1123,
      "anaknya": 1124,
      "ketua": 1125,
      "syu": 1126,
      "Sia": 1127,
      "kerajaan": 1128,
      "tanpa": 1129,
      "tam": 1130,
      "jatuh": 1131,
      "bekerja": 1132,
      "gandum": 1133,
      "Bet": 1134,
      "Kita": 1135,
      "bap": 1136,
      "Yosua": 1137,
      "Ef": 1138,
      "Pet": 1139,
      "dipersembahkan": 1140,
      "cita": 1141,
      "membiarkan": 1142,
      "melawan": 1143,
      "Petrus": 1144,
      "kawa": 1145,
      "timur": 1146,
      "sebelum": 1147,
      "mener": 1148,
      "barang": 1149,
      "hadi": 1150,
      "tinggi": 1151,
      "minyak": 1152,
      "mengutus": 1153,
      "bung": 1154,
      "pal": 1155,
      "ungkin": 1156,
      "ingat": 1157,
      "kalangan": 1158,
      "turan": 1159,
      "kahwin": 1160,
      "kumpul": 1161,
      "begitu": 1162,
      "lahirkan": 1163,
      "gembira": 1164,
      "membinasakan": 1165,
      "ebu": 1166,
      "turun": 1167,
      "yar": 1168,
      "memberkati": 1169,
      "kaan": 1170,
      "kuman": 1171,
      "datangkan": 1172,
      "Baik": 1173,
      "Yohan": 1174,
      "ikan": 1175,
      "bercakap": 1176,
      "putera": 1177,
      "bodo": 1178,
      "gera": 1179,
      "Semoga": 1180,
      "demi": 1181,
      "dis": 1182,
      "tun": 1183,
      "jam": 1184,
      "Dari": 1185,
      "mentaati": 1186,
      ",”": 1187,
      "Hal": 1188,
      "sungai": 1189,
      "era": 1190,
      "berse": 1191,
      "mbing": 1192,
      "kawasan": 1193,
      "ramai": 1194,
      "murka": 1195,
      "mengenal": 1196,
      "Da": 1197,
      "berkumpul": 1198,
      "ganti": 1199,
      "sihat": 1200,
      "dungi": 1201,
      "dihukum": 1202,
      "lat": 1203,
      "umpu": 1204,
      "pang": 1205,
      "sta": 1206,
      "dikan": 1207,
      "bangkit": 1208,
      "segera": 1209,
      "hatan": 1210,
      "tentu": 1211,
      "angga": 1212,
      "bersalah": 1213,
      "mengalahkan": 1214,
      "menyerahkan": 1215,
      "paling": 1216,
      "hukuman": 1217,
      "cap": 1218,
      "entara": 1219,
      "berperang": 1220,
      "mus": 1221,
      "adalah": 1222,
      "dom": 1223,
      "menunjukkan": 1224,
      "Mo": 1225,
      "nakan": 1226,
      "diu": 1227,
      "berjalan": 1228,
      "kemati": 1229,
      "mpaikan": 1230,
      "menen": 1231,
      "mis": 1232,
      "mendatangkan": 1233,
      "kul": 1234,
      "sye": 1235,
      "laut": 1236,
      "Ker": 1237,
      "jen": 1238,
      "Saya": 1239,
      "khemah": 1240,
      "genap": 1241,
      "kain": 1242,
      "patung": 1243,
      "tong": 1244,
      "Ada": 1245,
      "rkaan": 1246,
      "dibunuh": 1247,
      "memuji": 1248,
      "Tabut": 1249,
      "sebagaimana": 1250,
      "sebabnya": 1251,
      "tiang": 1252,
      "kel": 1253,
      "mengirim": 1254,
      "sukacita": 1255,
      "luk": 1256,
      "saudar": 1257,
      "seseorang": 1258,
      "pekerja": 1259,
      "peraturan": 1260,
      "erti": 1261,
      "Tiada": 1262,
      "utara": 1263,
      "tut": 1264,
      "pula": 1265,
      "bong": 1266,
      "penguasa": 1267,
      "gela": 1268,
      "menyampaikan": 1269,
      "keliling": 1270,
      "Yordan": 1271,
      "Yohanes": 1272,
      "Moab": 1273,
      "menggunakan": 1274,
      "bina": 1275,
      "miskin": 1276,
      "Bia": 1277,
      "Dengar": 1278,
      "yakan": 1279,
      "angin": 1280,
      "susahan": 1281,
      "pekan": 1282,
      "Abi": 1283,
      "berada": 1284,
      "sil": 1285,
      "sahabat": 1286,
      "jah": 1287,
      "tup": 1288,
      "Para": 1289,
      "lihat": 1290,
      "bangun": 1291,
      "menghormati": 1292,
      "Hen": 1293,
      "dara": 1294,
      "manakah": 1295,
      "memimpin": 1296,
      "Siapakah": 1297,
      "kematian": 1298,
      "memus": 1299,
      "puji": 1300,
      "wanan": 1301,
      "sekeliling": 1302,
      "sambil": 1303,
      "Baginda": 1304,
      "usaha": 1305,
      "Sim": 1306,
      "He": 1307,
      "ce": 1308,
      "tua": 1309,
      "pasu": 1310,
      "pagi": 1311,
      "ternakan": 1312,
      "bagaimana": 1313,
      "kemurkaan": 1314,
      "bodoh": 1315,
      "Apakah": 1316,
      "mene": 1317,
      "berasa": 1318,
      "muda": 1319,
      "meman": 1320,
      "meminta": 1321,
      "Mengapa": 1322,
      "antik": 1323,
      "anggap": 1324,
      "memusnahkan": 1325,
      "mun": 1326,
      "Biarlah": 1327,
      "len": 1328,
      "kambing": 1329,
      "buk": 1330,
      "bilik": 1331,
      "pedang": 1332,
      "kesusahan": 1333,
      "ahaya": 1334,
      "selatan": 1335,
      "il": 1336,
      "kekal": 1337,
      "segenap": 1338,
      "tertulis": 1339,
      "ot": 1340,
      "kaya": 1341,
      "ema": 1342,
      "adil": 1343,
      "gel": 1344,
      "berangkat": 1345,
      "mengumpu": 1346,
      "berikut": 1347,
      "mahupun": 1348,
      "syukur": 1349,
      "dise": 1350,
      "tidur": 1351,
      "yamin": 1352,
      "berang": 1353,
      "berkat": 1354,
      "mengampun": 1355,
      "mengumpulkan": 1356,
      "berhenti": 1357,
      "berita": 1358,
      "naji": 1359,
      "melet": 1360,
      "itun": 1361,
      "kira": 1362,
      "puti": 1363,
      "bebaskan": 1364,
      "berju": 1365,
      "hasil": 1366,
      "saksi": 1367,
      "Kana": 1368,
      "perjalan": 1369,
      "Perjanjian": 1370,
      "Benyamin": 1371,
      "dipi": 1372,
      "berkahwin": 1373,
      "cip": 1374,
      "Elisa": 1375,
      "Berita": 1376,
      "erai": 1377,
      "mere": 1378,
      "Mana": 1379,
      "sele": 1380,
      "000": 1381,
      "eta": 1382,
      "Seorang": 1383,
      "dibawa": 1384,
      "Asyur": 1385,
      "Re": 1386,
      "embah": 1387,
      "Setiap": 1388,
      "perintahkan": 1389,
      "benda": 1390,
      "sepuluh": 1391,
      "pung": 1392,
      "arah": 1393,
      "mengajar": 1394,
      "Mengapakah": 1395,
      "Kanaan": 1396,
      "diti": 1397,
      "kubu": 1398,
      "cil": 1399,
      "najis": 1400,
      "Maka": 1401,
      "jud": 1402,
      "suara": 1403,
      "menerus": 1404,
      "emaah": 1405,
      "keku": 1406,
      "mengab": 1407,
      "pemerintahan": 1408,
      "cahaya": 1409,
      "dag": 1410,
      "tum": 1411,
      "indungi": 1412,
      "harta": 1413,
      "bapanya": 1414,
      "rasul": 1415,
      "beam": 1416,
      "keldai": 1417,
      "Edom": 1418,
      "selalu": 1419,
      "daklah": 1420,
      "ahari": 1421,
      "hancur": 1422,
      "ali": 1423,
      "kasihan": 1424,
      "kecil": 1425,
      "tahan": 1426,
      "sembunyi": 1427,
      "Pergi": 1428,
      "zaitun": 1429,
      "pasukan": 1430,
      "ibadat": 1431,
      "bers": 1432,
      "itulah": 1433,
      "memer": 1434,
      "surat": 1435,
      "elu": 1436,
      "teranya": 1437,
      "juk": 1438,
      "kereta": 1439,
      "mpas": 1440,
      "janjikan": 1441,
      "Gun": 1442,
      "daerah": 1443,
      "mengan": 1444,
      "hujan": 1445,
      "beritahu": 1446,
      "pengawa": 1447,
      "cuba": 1448,
      "jemaah": 1449,
      "padan": 1450,
      "sedar": 1451,
      "rap": 1452,
      "termasuk": 1453,
      "Yoab": 1454,
      "Siria": 1455,
      "khem": 1456,
      "makh": 1457,
      "Nabi": 1458,
      "bijaksana": 1459,
      "bakar": 1460,
      "mbong": 1461,
      "menj": 1462,
      "muk": 1463,
      "walaupun": 1464,
      "Dengarlah": 1465,
      "khemahan": 1466,
      "perangan": 1467,
      "penderita": 1468,
      "memilih": 1469,
      "janganlah": 1470,
      "sedikit": 1471,
      "berkuasa": 1472,
      "memak": 1473,
      "guru": 1474,
      "bersumpah": 1475,
      "Kerana": 1476,
      "Manasye": 1477,
      "kesalah": 1478,
      "perkhemahan": 1479,
      "makhluk": 1480,
      "Ten": 1481,
      "ne": 1482,
      "upa": 1483,
      "Samu": 1484,
      "ohon": 1485,
      "kemenangan": 1486,
      "Hendaklah": 1487,
      "perjalanan": 1488,
      "Ra": 1489,
      "dakan": 1490,
      "ib": 1491,
      "utusan": 1492,
      "menju": 1493,
      "berja": 1494,
      "melindungi": 1495,
      "tempu": 1496,
      "Hamba": 1497,
      "Marilah": 1498,
      "hor": 1499,
      "mungkin": 1500,
      "ok": 1501,
      "olah": 1502,
      "kai": 1503,
      "letak": 1504,
      "pela": 1505,
      "menyertai": 1506,
      "Pergilah": 1507,
      "Elia": 1508,
      "zat": 1509,
      "dapati": 1510,
      "berani": 1511,
      "Alkitab": 1512,
      "peperangan": 1513,
      "gangsa": 1514,
      "Samuel": 1515,
      "angku": 1516,
      "enam": 1517,
      "saf": 1518,
      "memohon": 1519,
      "lit": 1520,
      "menangis": 1521,
      "Beta": 1522,
      "sulung": 1523,
      "semak": 1524,
      "depan": 1525,
      "Lihat": 1526,
      "berat": 1527,
      "bersukacita": 1528,
      "tanda": 1529,
      "menangkap": 1530,
      "daging": 1531,
      ".)": 1532,
      "gota": 1533,
      "tiha": 1534,
      "sepanjang": 1535,
      "matahari": 1536,
      "mero": 1537,
      "membenarkan": 1538,
      "beron": 1539,
      "bulu": 1540,
      "terlalu": 1541,
      "dusta": 1542,
      "mengaku": 1543,
      "bahag": 1544,
      "membenci": 1545,
      "meletakkan": 1546,
      "Beri": 1547,
      "ron": 1548,
      "menghina": 1549,
      "tiharkan": 1550,
      "mengusir": 1551,
      "Man": 1552,
      "mbut": 1553,
      "baikan": 1554,
      "boh": 1555,
      "!’": 1556,
      "Kota": 1557,
      "Peng": 1558,
      "pah": 1559,
      "rumpu": 1560,
      "membayar": 1561,
      "fikiran": 1562,
      "penderitaan": 1563,
      "rumput": 1564,
      "Ze": 1565,
      "im": 1566,
      "tlah": 1567,
      "lami": 1568,
      "terinya": 1569,
      "zaman": 1570,
      "sombong": 1571,
      "Bang": 1572,
      "Ib": 1573,
      "In": 1574,
      "awan": 1575,
      "beribadat": 1576,
      "terima": 1577,
      "upacara": 1578,
      "Hiz": 1579,
      "naik": 1580,
      "siap": 1581,
      "cuku": 1582,
      "menuju": 1583,
      "berumur": 1584,
      "diperintahkan": 1585,
      "mpan": 1586,
      "penyakit": 1587,
      "Hizkia": 1588,
      "Sama": 1589,
      "Beberapa": 1590,
      "der": 1591,
      "mlah": 1592,
      "kulit": 1593,
      "memas": 1594,
      "jizat": 1595,
      "mengucap": 1596,
      "bangkitkan": 1597,
      "dir": 1598,
      "digunakan": 1599,
      "pasti": 1600,
      "iran": 1601,
      "Gunung": 1602,
      "son": 1603,
      "tkan": 1604,
      "uru": 1605,
      "tali": 1606,
      "kilo": 1607,
      "mengatakan": 1608,
      "bintang": 1609,
      "yanyi": 1610,
      "Umat": 1611,
      "pemu": 1612,
      "anggota": 1613,
      "dija": 1614,
      "tim": 1615,
      "walah": 1616,
      "Ishak": 1617,
      "des": 1618,
      "Ahab": 1619,
      "disebut": 1620,
      "pengawal": 1621,
      "mukjizat": 1622,
      "kesalahan": 1623,
      "aman": 1624,
      "menung": 1625,
      "perlu": 1626,
      "juh": 1627,
      "keras": 1628,
      "bahkan": 1629,
      "ranc": 1630,
      "lemah": 1631,
      "abdi": 1632,
      "liaan": 1633,
      "perayaan": 1634,
      "dikatakan": 1635,
      "suruh": 1636,
      "biasa": 1637,
      "mengampunkan": 1638,
      "Mik": 1639,
      "Pe": 1640,
      "ekh": 1641,
      "keada": 1642,
      "membebaskan": 1643,
      "membuang": 1644,
      "berontak": 1645,
      "ge": 1646,
      "menderita": 1647,
      "kecu": 1648,
      "sejak": 1649,
      "buang": 1650,
      "sempadan": 1651,
      "akim": 1652,
      "Amon": 1653,
      "Lihatlah": 1654,
      "Pem": 1655,
      "agung": 1656,
      "singa": 1657,
      "ero": 1658,
      "ketiga": 1659,
      "bala": 1660,
      "terbaik": 1661,
      "biarkan": 1662,
      "mpir": 1663,
      "cana": 1664,
      "melantik": 1665,
      "Sabat": 1666,
      "Hari": 1667,
      "Wa": 1668,
      "berjanji": 1669,
      "juju": 1670,
      "cucu": 1671,
      "mendengarkan": 1672,
      "kekuatan": 1673,
      "zia": 1674,
      "dika": 1675,
      "bal": 1676,
      "habi": 1677,
      "akanlah": 1678,
      "jubah": 1679,
      "natan": 1680,
      "sembuh": 1681,
      "buahnya": 1682,
      "biarlah": 1683,
      "Samaria": 1684,
      "Ge": 1685,
      "ganya": 1686,
      "nu": 1687,
      "ski": 1688,
      "kapal": 1689,
      "barat": 1690,
      "kubur": 1691,
      "halaman": 1692,
      "dahs": 1693,
      "takh": 1694,
      "raim": 1695,
      "berjaya": 1696,
      "skipun": 1697,
      "aya": 1698,
      "iman": 1699,
      "dili": 1700,
      "yap": 1701,
      "hampir": 1702,
      "nasihat": 1703,
      "isterinya": 1704,
      "Inga": 1705,
      "Un": 1706,
      "kepu": 1707,
      "sisi": 1708,
      "Sementara": 1709,
      "kemuliaan": 1710,
      "pelita": 1711,
      "angkuk": 1712,
      "lapa": 1713,
      "memen": 1714,
      "yakin": 1715,
      "Ingatlah": 1716,
      "Men": 1717,
      "setelah": 1718,
      "menyi": 1719,
      "jilah": 1720,
      "melahirkan": 1721,
      "Sebalik": 1722,
      "kenan": 1723,
      "Efraim": 1724,
      "Sebaliknya": 1725,
      "kak": 1726,
      "duk": 1727,
      "belih": 1728,
      "menyambut": 1729,
      "Tiap": 1730,
      "cukup": 1731,
      "kecuali": 1732,
      "De": 1733,
      "Kor": 1734,
      "Nebu": 1735,
      "yahan": 1736,
      "meno": 1737,
      "sesama": 1738,
      "mayat": 1739,
      "tanggung": 1740,
      "Yonatan": 1741,
      "adik": 1742,
      "tolongan": 1743,
      "Manusia": 1744,
      "Do": 1745,
      "Pas": 1746,
      "sanya": 1747,
      "patut": 1748,
      "berda": 1749,
      "bulkan": 1750,
      "lut": 1751,
      "terdapat": 1752,
      "mengganti": 1753,
      "adilan": 1754,
      "bagaikan": 1755,
      "Peny": 1756,
      "pekerjaan": 1757,
      "memandang": 1758,
      "endah": 1759,
      "tuhi": 1760,
      "tin": 1761,
      "keka": 1762,
      "sebanyak": 1763,
      "kering": 1764,
      "ikmati": 1765,
      "asai": 1766,
      "mpet": 1767,
      "Sion": 1768,
      "Dalam": 1769,
      "takhta": 1770,
      "gadis": 1771,
      "marah": 1772,
      "menghi": 1773,
      "masanya": 1774,
      "dirinya": 1775,
      "cang": 1776,
      "bahasa": 1777,
      "Bukan": 1778,
      "Tuan": 1779,
      "semakin": 1780,
      "sakit": 1781,
      "berusaha": 1782,
      "pertolongan": 1783,
      "menyan": 1784,
      "Dialah": 1785,
      "Baal": 1786,
      "Yero": 1787,
      "hendaklah": 1788,
      "Saudara": 1789,
      "kemenyan": 1790,
      "Lembah": 1791,
      "ketaku": 1792,
      "saling": 1793,
      "binasa": 1794,
      "Pera": 1795,
      "rompet": 1796,
      "Walaupun": 1797,
      "dahsyat": 1798,
      "ketakutan": 1799,
      "Guru": 1800,
      "aga": 1801,
      "tel": 1802,
      "mencu": 1803,
      "keempat": 1804,
      "ahami": 1805,
      "benarnya": 1806,
      "Untuk": 1807,
      "keputusan": 1808,
      "khi": 1809,
      "sekita": 1810,
      "tukang": 1811,
      "diam": 1812,
      "Baru": 1813,
      "mengejar": 1814,
      "merampas": 1815,
      "fikir": 1816,
      "Pujilah": 1817,
      "menentang": 1818,
      "jujur": 1819,
      "sekitar": 1820,
      "az": 1821,
      "gram": 1822,
      "zer": 1823,
      "dike": 1824,
      "menyang": 1825,
      "matan": 1826,
      "rikan": 1827,
      "manya": 1828,
      "menolak": 1829,
      "lagu": 1830,
      "kanak": 1831,
      "penja": 1832,
      "memban": 1833,
      "firmankan": 1834,
      "melarikan": 1835,
      "rancangan": 1836,
      "menyanyi": 1837,
      "ilah": 1838,
      "jung": 1839,
      "trompet": 1840,
      "angkah": 1841,
      "tulang": 1842,
      "indah": 1843,
      "terc": 1844,
      "sim": 1845,
      "menjaga": 1846,
      "Segala": 1847,
      "berharap": 1848,
      "lindung": 1849,
      "tambah": 1850,
      "langan": 1851,
      "mendapati": 1852,
      "mimpi": 1853,
      "bencana": 1854,
      "Babel": 1855,
      "Sime": 1856,
      "Go": 1857,
      "ama": 1858,
      "bersatu": 1859,
      "keping": 1860,
      "akannya": 1861,
      "memberontak": 1862,
      "wal": 1863,
      "lom": 1864,
      "Gilea": 1865,
      "tumbuh": 1866,
      "Gilead": 1867,
      "Pi": 1868,
      "das": 1869,
      "tik": 1870,
      "liki": 1871,
      "penting": 1872,
      "dengarlah": 1873,
      "Agung": 1874,
      "Bar": 1875,
      "Hu": 1876,
      "lihatan": 1877,
      "keru": 1878,
      "apakah": 1879,
      "kumpulan": 1880,
      "saudaranya": 1881,
      "kilogram": 1882,
      "Yerobeam": 1883,
      "Mi": 1884,
      "akang": 1885,
      "menikmati": 1886,
      "kutuk": 1887,
      "menguasai": 1888,
      "sedih": 1889,
      "Penduduk": 1890,
      "cepat": 1891,
      "Penyelamat": 1892,
      "umur": 1893,
      "menemu": 1894,
      "bertugas": 1895,
      "kekuasa": 1896,
      "kanan": 1897,
      "mar": 1898,
      "dok": 1899,
      "minya": 1900,
      "memperlakukan": 1901,
      "dipilih": 1902,
      "As": 1903,
      "ayahan": 1904,
      "fana": 1905,
      "ditu": 1906,
      "kegela": 1907,
      "salom": 1908,
      "sud": 1909,
      "lir": 1910,
      "Alangkah": 1911,
      "eritakan": 1912,
      "Bagai": 1913,
      "merah": 1914,
      "ketujuh": 1915,
      "guna": 1916,
      "pembunuh": 1917,
      "gantung": 1918,
      "menanggung": 1919,
      "Suci": 1920,
      "kegelapan": 1921,
      "ginya": 1922,
      "dilahirkan": 1923,
      "tis": 1924,
      "balu": 1925,
      "semasa": 1926,
      "lembah": 1927,
      "membalas": 1928,
      "tanaman": 1929,
      "selamatkan": 1930,
      "hadirat": 1931,
      "Asy": 1932,
      "kad": 1933,
      "tepi": 1934,
      "cam": 1935,
      "Absalom": 1936,
      "Tuanku": 1937,
      "tanggungjawab": 1938,
      "Pa": 1939,
      "daha": 1940,
      "dibuang": 1941,
      "tau": 1942,
      "kebaikan": 1943,
      "malukan": 1944,
      "batang": 1945,
      "kitan": 1946,
      "benor": 1947,
      "Ger": 1948,
      "mangkuk": 1949,
      "sah": 1950,
      "bul": 1951,
      "bus": 1952,
      "mengur": 1953,
      "anakku": 1954,
      "uhi": 1955,
      "melekh": 1956,
      "betapa": 1957,
      "mbak": 1958,
      "lenyap": 1959,
      "memakai": 1960,
      "nezar": 1961,
      "Nebukad": 1962,
      "menggantikan": 1963,
      "Nebukadnezar": 1964,
      "Pin": 1965,
      "ho": 1966,
      "tikan": 1967,
      "kelak": 1968,
      "memeg": 1969,
      "tahbi": 1970,
      "besi": 1971,
      "kelihatan": 1972,
      "menipu": 1973,
      "Ar": 1974,
      "Ban": 1975,
      "Hero": 1976,
      "Ro": 1977,
      "agar": 1978,
      "diser": 1979,
      "ribu": 1980,
      "terang": 1981,
      "kaum": 1982,
      "aut": 1983,
      "duduki": 1984,
      "mengabdi": 1985,
      "hem": 1986,
      "hon": 1987,
      "lon": 1988,
      "keca": 1989,
      "buangan": 1990,
      "war": 1991,
      "jut": 1992,
      "hilang": 1993,
      "sera": 1994,
      "mengisy": 1995,
      "bunya": 1996,
      "habis": 1997,
      "Fari": 1998,
      "go": 1999,
      "dimakan": 2000,
      "musim": 2001,
      "pus": 2002,
      "penu": 2003,
      "belakang": 2004,
      "rumahnya": 2005,
      "menyeberang": 2006,
      "elihara": 2007,
      "harapan": 2008,
      "bijaksanaan": 2009,
      "memegang": 2010,
      "mengisytiharkan": 2011,
      "Farisi": 2012,
      "Esau": 2013,
      "dijanjikan": 2014,
      "berfikir": 2015,
      "keadilan": 2016,
      "sebahagian": 2017,
      "melepas": 2018,
      "urun": 2019,
      "maksud": 2020,
      "Maz": 2021,
      "perigi": 2022,
      "keadaan": 2023,
      "azah": 2024,
      "amaran": 2025,
      "tukan": 2026,
      "saja": 2027,
      "perminta": 2028,
      "Seperti": 2029,
      "Engkaulah": 2030,
      "senja": 2031,
      "penglihatan": 2032,
      "tetapkan": 2033,
      "Gibe": 2034,
      "saudaraku": 2035,
      "jahtera": 2036,
      "kekuasaan": 2037,
      "ayah": 2038,
      "hina": 2039,
      "dibakar": 2040,
      "berguna": 2041,
      "seja": 2042,
      "ori": 2043,
      "orak": 2044,
      "naf": 2045,
      "Selama": 2046,
      "menyedi": 2047,
      "gembala": 2048,
      "Ahi": 2049,
      "Ter": 2050,
      "muka": 2051,
      "nyala": 2052,
      "mengalami": 2053,
      "melakukannya": 2054,
      "Simson": 2055,
      "Mikha": 2056,
      "melepaskan": 2057,
      "Hanya": 2058,
      "mulut": 2059,
      "Yosia": 2060,
      "khas": 2061,
      "bunga": 2062,
      "Gali": 2063,
      "Bilik": 2064,
      "dijadikan": 2065,
      "kerub": 2066,
      "zi": 2067,
      "anggar": 2068,
      "maut": 2069,
      "badi": 2070,
      "buru": 2071,
      "inilah": 2072,
      "membeli": 2073,
      "bilangan": 2074,
      "paksa": 2075,
      "sedangkan": 2076,
      "berjumpa": 2077,
      "memasang": 2078,
      "Banyak": 2079,
      "por": 2080,
      "temu": 2081,
      "uk": 2082,
      "kawanan": 2083,
      "berpu": 2084,
      "muan": 2085,
      "kir": 2086,
      "melanggar": 2087,
      "hujung": 2088,
      "buhkan": 2089,
      "diutus": 2090,
      "ciptakan": 2091,
      "hancurkan": 2092,
      "Hi": 2093,
      "Tan": 2094,
      "ong": 2095,
      "tul": 2096,
      "lapan": 2097,
      "berkhemah": 2098,
      "keja": 2099,
      "kehi": 2100,
      "sejahtera": 2101,
      "saat": 2102,
      "buta": 2103,
      "yub": 2104,
      "upakan": 2105,
      "tunjuk": 2106,
      "tempuran": 2107,
      "Herodes": 2108,
      "menyediakan": 2109,
      "Ne": 2110,
      "Za": 2111,
      "ding": 2112,
      "disembah": 2113,
      "dibina": 2114,
      "diselamatkan": 2115,
      "ditetapkan": 2116,
      "membahagi": 2117,
      "memahami": 2118,
      "anas": 2119,
      "menulis": 2120,
      "memukul": 2121,
      "kenal": 2122,
      "panglima": 2123,
      "musnahkan": 2124,
      "jenis": 2125,
      "jenazah": 2126,
      "nubuat": 2127,
      "sejati": 2128,
      "Asa": 2129,
      "Ayub": 2130,
      "Laut": 2131,
      "Mem": 2132,
      "uman": 2133,
      "dik": 2134,
      "tas": 2135,
      "kebijaksanaan": 2136,
      "unat": 2137,
      "bara": 2138,
      "akimi": 2139,
      "tenteranya": 2140,
      "deon": 2141,
      "suami": 2142,
      "perbukitan": 2143,
      "Gideon": 2144,
      "Amori": 2145,
      "menunggu": 2146,
      "kehilangan": 2147,
      "den": 2148,
      "mangkat": 2149,
      "bersyukur": 2150,
      "unya": 2151,
      "sepenuh": 2152,
      "mari": 2153,
      "malu": 2154,
      "pur": 2155,
      "hatikan": 2156,
      "menimpa": 2157,
      "sihani": 2158,
      "merebut": 2159,
      "Iblis": 2160,
      "Bahkan": 2161,
      "wanya": 2162,
      "membela": 2163,
      "sum": 2164,
      "subur": 2165,
      "wapan": 2166,
      "biji": 2167,
      "sementara": 2168,
      "perkasa": 2169,
      "bersujud": 2170,
      "kekayaan": 2171,
      "Galilea": 2172,
      "Dahu": 2173,
      "abang": 2174,
      "bing": 2175,
      "isi": 2176,
      "ksa": 2177,
      "angka": 2178,
      "dianggap": 2179,
      "lar": 2180,
      "mum": 2181,
      "jamuan": 2182,
      "leam": 2183,
      "meli": 2184,
      "dirikan": 2185,
      "penge": 2186,
      "usah": 2187,
      "Ruben": 2188,
      "teriak": 2189,
      "musuhku": 2190,
      "Gad": 2191,
      "tentukan": 2192,
      "memenuhi": 2193,
      "Perayaan": 2194,
      "menyangka": 2195,
      "Dahulu": 2196,
      "El": 2197,
      "So": 2198,
      "fa": 2199,
      "gah": 2200,
      "berkenan": 2201,
      "terja": 2202,
      "terben": 2203,
      "rani": 2204,
      "Yosaf": 2205,
      "tongkat": 2206,
      "menjumpai": 2207,
      "bohkan": 2208,
      "Yosafat": 2209,
      "alat": 2210,
      "khu": 2211,
      "nyanyi": 2212,
      "anmu": 2213,
      "dimusnahkan": 2214,
      "menyat": 2215,
      "layak": 2216,
      "kuran": 2217,
      "perse": 2218,
      "mengangkat": 2219,
      "atat": 2220,
      "mengasihani": 2221,
      "benih": 2222,
      "khabarkan": 2223,
      "selesai": 2224,
      "meneruskan": 2225,
      "dikalahkan": 2226,
      "Elea": 2227,
      "pia": 2228,
      "umpa": 2229,
      "dira": 2230,
      "menari": 2231,
      "jarah": 2232,
      "pertempuran": 2233,
      "kirkan": 2234,
      "lambang": 2235,
      "Sejak": 2236,
      "siapakah": 2237,
      "indas": 2238,
      "sanakan": 2239,
      "linen": 2240,
      "merayakan": 2241,
      "Maria": 2242,
      "Akh": 2243,
      "angi": 2244,
      "menurun": 2245,
      "bertanggungjawab": 2246,
      "hamb": 2247,
      "nyawa": 2248,
      "mengelu": 2249,
      "siang": 2250,
      "Ketu": 2251,
      "menceritakan": 2252,
      "menyentuh": 2253,
      "Bileam": 2254,
      "hadiah": 2255,
      "Simon": 2256,
      "penjara": 2257,
      "menemui": 2258,
      "Mazmur": 2259,
      "menyatakan": 2260,
      "ner": 2261,
      "diterima": 2262,
      "meme": 2263,
      "duli": 2264,
      "esok": 2265,
      "rambut": 2266,
      "membuka": 2267,
      "Tentu": 2268,
      "Paska": 2269,
      "Sy": 2270,
      "hia": 2271,
      "kmat": 2272,
      "kejam": 2273,
      "unta": 2274,
      "hikmat": 2275,
      "panah": 2276,
      "aikan": 2277,
      "cian": 2278,
      "tinggalkan": 2279,
      "keluarganya": 2280,
      "gelap": 2281,
      "pujian": 2282,
      "cipta": 2283,
      "umpama": 2284,
      "mengeluarkan": 2285,
      "jela": 2286,
      "sing": 2287,
      "membangkitkan": 2288,
      "ajar": 2289,
      "mengapa": 2290,
      "mengabulkan": 2291,
      "peduli": 2292,
      "binasakan": 2293,
      "menyembuhkan": 2294,
      "Zede": 2295,
      "pemuda": 2296,
      "taubat": 2297,
      "penutup": 2298,
      "Keturunan": 2299,
      "Es": 2300,
      "cik": 2301,
      "rakan": 2302,
      "akinya": 2303,
      "inar": 2304,
      "kesaksi": 2305,
      "kuti": 2306,
      "buatan": 2307,
      "lebar": 2308,
      "mengem": 2309,
      "hutan": 2310,
      "peda": 2311,
      "minuman": 2312,
      "mengubah": 2313,
      "gul": 2314,
      "Suruh": 2315,
      "kena": 2316,
      "bersedia": 2317,
      "Mor": 2318,
      "car": 2319,
      "kun": 2320,
      "tor": 2321,
      "lawan": 2322,
      "berdusta": 2323,
      "inkan": 2324,
      "diaman": 2325,
      "namakan": 2326,
      "penga": 2327,
      "cawan": 2328,
      "isti": 2329,
      "tuhkan": 2330,
      "bertin": 2331,
      "antikan": 2332,
      "perisai": 2333,
      "mengakui": 2334,
      "tahbiskan": 2335,
      "Eleazar": 2336,
      "Zedekia": 2337,
      "Yeri": 2338,
      "bron": 2339,
      "patah": 2340,
      "latus": 2341,
      "seolah": 2342,
      "gabenor": 2343,
      "sat": 2344,
      "sali": 2345,
      "burkan": 2346,
      "lepas": 2347,
      "Allahku": 2348,
      "tangannya": 2349,
      "ungan": 2350,
      "Sebagaimana": 2351,
      "petang": 2352,
      "Bawalah": 2353,
      "merata": 2354,
      "kho": 2355,
      "baring": 2356,
      "tahuilah": 2357,
      "menentukan": 2358,
      "putih": 2359,
      "pelacur": 2360,
      "bahagia": 2361,
      "Pilatus": 2362,
      "Memang": 2363,
      "?’": 2364,
      "Dan": 2365,
      "bon": 2366,
      "okan": 2367,
      "ditentukan": 2368,
      "tuai": 2369,
      "menak": 2370,
      "bersih": 2371,
      "bererti": 2372,
      "kediaman": 2373,
      "badan": 2374,
      "duh": 2375,
      "melak": 2376,
      "meja": 2377,
      "akibat": 2378,
      "pemilik": 2379,
      "menyembelih": 2380,
      "menamakan": 2381,
      "barulah": 2382,
      "Hebron": 2383,
      "menepati": 2384,
      "berasal": 2385,
      "selepas": 2386,
      "jir": 2387,
      "menan": 2388,
      "tirai": 2389,
      "bertambah": 2390,
      "jawapan": 2391,
      "limpah": 2392,
      "terta": 2393,
      "puskan": 2394,
      "atlah": 2395,
      "melu": 2396,
      "susah": 2397,
      "hidupan": 2398,
      "menutup": 2399,
      "lelakinya": 2400,
      "makmur": 2401,
      "khai": 2402,
      "Betel": 2403,
      "Bangsa": 2404,
      "menurunkan": 2405,
      "kesaksian": 2406,
      "Suruhlah": 2407,
      "Han": 2408,
      "Zak": 2409,
      "dita": 2410,
      "dinamakan": 2411,
      "salam": 2412,
      "hairan": 2413,
      "perlindung": 2414,
      "terletak": 2415,
      "menghancurkan": 2416,
      "puncak": 2417,
      "nas": 2418,
      "namun": 2419,
      "jiskan": 2420,
      "bangga": 2421,
      "mengalir": 2422,
      "stian": 2423,
      "benarkan": 2424,
      "menghakimi": 2425,
      "dihina": 2426,
      "palsu": 2427,
      "Bukankah": 2428,
      "bertindak": 2429,
      "Kri": 2430,
      "beka": 2431,
      "dam": 2432,
      "dic": 2433,
      "sujud": 2434,
      "tahuan": 2435,
      "penduduknya": 2436,
      "liar": 2437,
      "Abimelekh": 2438,
      "sekelilingnya": 2439,
      "Kristian": 2440,
      "Sik": 2441,
      "leng": 2442,
      "ptis": 2443,
      "rendah": 2444,
      "tur": 2445,
      "menindas": 2446,
      "bersa": 2447,
      "terbunuh": 2448,
      "pendapat": 2449,
      "haria": 2450,
      "Yoas": 2451,
      "sayap": 2452,
      "mpakkan": 2453,
      "Malaikat": 2454,
      "menajiskan": 2455,
      "lingi": 2456,
      "Buatlah": 2457,
      "gunungan": 2458,
      "Pintu": 2459,
      "Zakharia": 2460,
      "Ja": 2461,
      "ikat": 2462,
      "ibunya": 2463,
      "damai": 2464,
      "dinya": 2465,
      "kepun": 2466,
      "luka": 2467,
      "sik": 2468,
      "besa": 2469,
      "betul": 2470,
      "berian": 2471,
      "mengadakan": 2472,
      "pasang": 2473,
      "esokan": 2474,
      "Tidakkah": 2475,
      "sungut": 2476,
      "dihormati": 2477,
      "niai": 2478,
      "ditimpa": 2479,
      "diberitahu": 2480,
      "meneg": 2481,
      "bersembunyi": 2482,
      "bertaubat": 2483,
      "inti": 2484,
      "kehidupan": 2485,
      "seberang": 2486,
      "iaya": 2487,
      "pilih": 2488,
      "putus": 2489,
      "donia": 2490,
      "hubung": 2491,
      "lemak": 2492,
      "dekhai": 2493,
      "bahagialah": 2494,
      "menyimpan": 2495,
      "Mordekhai": 2496,
      "perlindungan": 2497,
      "To": 2498,
      "seri": 2499,
      "berdu": 2500,
      "lihan": 2501,
      "menganggap": 2502,
      "kiri": 2503,
      "daripa": 2504,
      "jumlah": 2505,
      "pantai": 2506,
      "langlah": 2507,
      "suaminya": 2508,
      "memperhatikan": 2509,
      "mpiri": 2510,
      "membuk": 2511,
      "dipermalukan": 2512,
      "mengabdikan": 2513,
      "menjela": 2514,
      "buluran": 2515,
      "permintaan": 2516,
      "Sikhem": 2517,
      "Ho": 2518,
      "Nam": 2519,
      "abadi": 2520,
      "bak": 2521,
      "hakim": 2522,
      "dilan": 2523,
      "difirmankan": 2524,
      "tawanan": 2525,
      "berko": 2526,
      "keingin": 2527,
      "bas": 2528,
      "ratus": 2529,
      "lubang": 2530,
      "pilihan": 2531,
      "menuai": 2532,
      "sampaikan": 2533,
      "Abram": 2534,
      "harinya": 2535,
      "mencerai": 2536,
      "menetap": 2537,
      "terjadi": 2538,
      "hambanya": 2539,
      "Bin": 2540,
      "Beg": 2541,
      "lakan": 2542,
      "kasihi": 2543,
      "bera": 2544,
      "berteriak": 2545,
      "sebenarnya": 2546,
      "kurang": 2547,
      "halus": 2548,
      "menghan": 2549,
      "menyel": 2550,
      "don": 2551,
      "Meskipun": 2552,
      "kuasai": 2553,
      "emput": 2554,
      "Lebih": 2555,
      "gemen": 2556,
      "menghampiri": 2557,
      "aniel": 2558,
      "pinggang": 2559,
      "senjata": 2560,
      "Namun": 2561,
      "Mungkin": 2562,
      "Zi": 2563,
      "sanak": 2564,
      "ular": 2565,
      "zina": 2566,
      "berpe": 2567,
      "duhan": 2568,
      "puteri": 2569,
      "asanya": 2570,
      "galanya": 2571,
      "hatiku": 2572,
      "debu": 2573,
      "Ketahuilah": 2574,
      "pembina": 2575,
      "berhar": 2576,
      "Semuanya": 2577,
      "perangkap": 2578,
      "hormatan": 2579,
      "Pemerintah": 2580,
      "khiana": 2581,
      "pembunuhan": 2582,
      "mengurniai": 2583,
      "kecapi": 2584,
      "meliputi": 2585,
      "pengetahuan": 2586,
      "Yerikho": 2587,
      "membuktikan": 2588,
      "12": 2589,
      "Daniel": 2590,
      "gon": 2591,
      "wakan": 2592,
      "katanya": 2593,
      "dikuasai": 2594,
      "sur": 2595,
      "buka": 2596,
      "busi": 2597,
      "puteranya": 2598,
      "inggi": 2599,
      "atkan": 2600,
      "Yesaya": 2601,
      "hur": 2602,
      "Selain": 2603,
      "banon": 2604,
      "petunjuk": 2605,
      "lanjut": 2606,
      "bentuk": 2607,
      "pemberian": 2608,
      "rahmat": 2609,
      "percayai": 2610,
      "potong": 2611,
      "Lebanon": 2612,
      "pegawainya": 2613,
      "musnah": 2614,
      "Midian": 2615,
      "khuati": 2616,
      "Ester": 2617,
      "berharga": 2618,
      "Bo": 2619,
      "menduduki": 2620,
      "bertu": 2621,
      "mengkhabarkan": 2622,
      "silkan": 2623,
      "beban": 2624,
      "menjalan": 2625,
      "menjatuhkan": 2626,
      "adab": 2627,
      "pembuangan": 2628,
      "Berbahagialah": 2629,
      "bunyikan": 2630,
      "merobohkan": 2631,
      "Pemerintahan": 2632,
      "ahli": 2633,
      "disuruh": 2634,
      "yarak": 2635,
      "kebuluran": 2636,
      "mulai": 2637,
      "perahu": 2638,
      "tepung": 2639,
      "diampun": 2640,
      "jiji": 2641,
      "dirimu": 2642,
      "masyarak": 2643,
      "Beritahu": 2644,
      "gesa": 2645,
      "lapar": 2646,
      "masyarakat": 2647,
      "hela": 2648,
      "tio": 2649,
      "berdua": 2650,
      "kelapa": 2651,
      "unus": 2652,
      "bayi": 2653,
      "ora": 2654,
      "memelihara": 2655,
      "gir": 2656,
      "lek": 2657,
      "dut": 2658,
      "mewa": 2659,
      "bandar": 2660,
      "cikan": 2661,
      "mengutuk": 2662,
      "Abner": 2663,
      "harga": 2664,
      "tombak": 2665,
      "kehendaki": 2666,
      "bebas": 2667,
      "belalang": 2668,
      "Reha": 2669,
      "diserahkan": 2670,
      "Tanah": 2671,
      "melaksanakan": 2672,
      "kepunyaan": 2673,
      "gementar": 2674,
      "kelaparan": 2675,
      "paha": 2676,
      "tuduhan": 2677,
      "berke": 2678,
      "bermula": 2679,
      "berakhir": 2680,
      "mabuk": 2681,
      "bilan": 2682,
      "bahaya": 2683,
      "meskipun": 2684,
      "Yoya": 2685,
      "makna": 2686,
      "mengepung": 2687,
      "niakan": 2688,
      "Bukit": 2689,
      "mpur": 2690,
      "Menu": 2691,
      "telinga": 2692,
      "menyeberangi": 2693,
      "helai": 2694,
      "Amin": 2695,
      "Mer": 2696,
      "Rah": 2697,
      "alas": 2698,
      "seng": 2699,
      "dibinasakan": 2700,
      "menam": 2701,
      "berzina": 2702,
      "setengah": 2703,
      "buhan": 2704,
      "nyata": 2705,
      "menger": 2706,
      "irnya": 2707,
      "pena": 2708,
      "mengawal": 2709,
      "cabang": 2710,
      "sembilan": 2711,
      "Musuh": 2712,
      "baiknya": 2713,
      "Yerem": 2714,
      "gua": 2715,
      "mengikat": 2716,
      "khaskan": 2717,
      "dilakukannya": 2718,
      "pakaiannya": 2719,
      "selamatkanlah": 2720,
      "bersorak": 2721,
      "menjual": 2722,
      "hormat": 2723,
      "menyanyikan": 2724,
      "menjalankan": 2725,
      "cat": 2726,
      "lanya": 2727,
      "rela": 2728,
      "kam": 2729,
      "bawa": 2730,
      "kuh": 2731,
      "melain": 2732,
      "pengerti": 2733,
      "menyucikan": 2734,
      "melarang": 2735,
      "Naf": 2736,
      "Benar": 2737,
      "sungguhnya": 2738,
      "mematuhi": 2739,
      "Efrat": 2740,
      "Daripada": 2741,
      "tercatat": 2742,
      "seratus": 2743,
      "melainkan": 2744,
      "Demi": 2745,
      "fta": 2746,
      "dada": 2747,
      "daya": 2748,
      "dibangkitkan": 2749,
      "mendirikan": 2750,
      "maju": 2751,
      "bawalah": 2752,
      "rik": 2753,
      "lupa": 2754,
      "Sebelum": 2755,
      "pergilah": 2756,
      "mengurus": 2757,
      "menguatkan": 2758,
      "curi": 2759,
      "Laban": 2760,
      "Semasa": 2761,
      "menampakkan": 2762,
      "gelang": 2763,
      "dendam": 2764,
      "umpamaan": 2765,
      "Rehabeam": 2766,
      "Ama": 2767,
      "fo": 2768,
      "utama": 2769,
      "daun": 2770,
      "dila": 2771,
      "menciptakan": 2772,
      "beraikan": 2773,
      "secara": 2774,
      "bai": 2775,
      "jaga": 2776,
      "pergunungan": 2777,
      "perumpamaan": 2778,
      "emuk": 2779,
      "terakhir": 2780,
      "mengingat": 2781,
      "puas": 2782,
      "ungut": 2783,
      "erikan": 2784,
      "bangan": 2785,
      "asas": 2786,
      "degil": 2787,
      "Perbuatan": 2788,
      "Tirus": 2789,
      "keturunannya": 2790,
      "memiliki": 2791,
      "menim": 2792,
      "bersinar": 2793,
      "Bagaimanakah": 2794,
      "berpuasa": 2795,
      "intip": 2796,
      "Rahel": 2797,
      "Bel": 2798,
      "Du": 2799,
      "Sin": 2800,
      "Yiz": 2801,
      "non": 2802,
      "yakim": 2803,
      "anda": 2804,
      "dilihat": 2805,
      "dibenarkan": 2806,
      "gam": 2807,
      "mulia": 2808,
      "sudut": 2809,
      "mengerikan": 2810,
      "hidupnya": 2811,
      "wabak": 2812,
      "menyesa": 2813,
      "sekalian": 2814,
      "berkabung": 2815,
      "menghasilkan": 2816,
      "penyembah": 2817,
      "upah": 2818,
      "Ahazia": 2819,
      "memerlukan": 2820,
      "letakkan": 2821,
      "agama": 2822,
      "Barulah": 2823,
      "terbenam": 2824,
      "dinyatakan": 2825,
      "menghantar": 2826,
      "Kata": 2827,
      "ala": 2828,
      "alam": 2829,
      "cerai": 2830,
      "fan": 2831,
      "isar": 2832,
      "angat": 2833,
      "diraja": 2834,
      "bergantung": 2835,
      "mael": 2836,
      "memin": 2837,
      "rata": 2838,
      "suri": 2839,
      "wat": 2840,
      "waji": 2841,
      "arahan": 2842,
      "hutang": 2843,
      "Kaisar": 2844,
      "harusnya": 2845,
      "gup": 2846,
      "bumikan": 2847,
      "Suku": 2848,
      "Sekali": 2849,
      "barli": 2850,
      "menghapuskan": 2851,
      "Ahas": 2852,
      "bangunan": 2853,
      "Simeon": 2854,
      "Akhirnya": 2855,
      "keinginan": 2856,
      "50": 2857,
      "Bas": 2858,
      "Kar": 2859,
      "Kir": 2860,
      "Zebu": 2861,
      "dera": 2862,
      "lya": 2863,
      "kegembira": 2864,
      "sut": 2865,
      "tepat": 2866,
      "pihak": 2867,
      "puan": 2868,
      "anakmu": 2869,
      "melupakan": 2870,
      "cabul": 2871,
      "Bagi": 2872,
      "hatikanlah": 2873,
      "cukai": 2874,
      "mohon": 2875,
      "satunya": 2876,
      "makam": 2877,
      "Haman": 2878,
      "mbung": 2879,
      "begini": 2880,
      "bersetuju": 2881,
      "Ibrani": 2882,
      "Domba": 2883,
      "mumkan": 2884,
      "menyele": 2885,
      "Beritahulah": 2886,
      "Yoyada": 2887,
      "Menurut": 2888,
      "Ki": 2889,
      "Nuh": 2890,
      "Rib": 2891,
      "kuil": 2892,
      "mempeduli": 2893,
      "simpan": 2894,
      "tangkap": 2895,
      "bahan": 2896,
      "Ismael": 2897,
      "lot": 2898,
      "Sampai": 2899,
      "meran": 2900,
      "ambil": 2901,
      "Kedua": 2902,
      "perbuatannya": 2903,
      "menyembunyikan": 2904,
      "liat": 2905,
      "Yeremia": 2906,
      "Sinai": 2907,
      "penyembahan": 2908,
      "Ambil": 2909,
      "Amaz": 2910,
      "Dam": 2911,
      "Kat": 2912,
      "kini": 2913,
      "oyak": 2914,
      "pkan": 2915,
      "menahan": 2916,
      "berbaring": 2917,
      "kepenting": 2918,
      "gaskan": 2919,
      "ribut": 2920,
      "permata": 2921,
      "perut": 2922,
      "memeri": 2923,
      "liakan": 2924,
      "teguh": 2925,
      "uhkan": 2926,
      "rangan": 2927,
      "sebatang": 2928,
      "syik": 2929,
      "meratap": 2930,
      "pengertian": 2931,
      "Amazia": 2932,
      "Damsyik": 2933,
      "panas": 2934,
      "saku": 2935,
      "zik": 2936,
      "anglah": 2937,
      "kawan": 2938,
      "diju": 2939,
      "menana": 2940,
      "lape": 2941,
      "berbaik": 2942,
      "seharusnya": 2943,
      "lurkan": 2944,
      "liter": 2945,
      "terpaksa": 2946,
      "miliki": 2947,
      "dahkan": 2948,
      "penyu": 2949,
      "sempur": 2950,
      "galkan": 2951,
      "sebaik": 2952,
      "membawanya": 2953,
      "khah": 2954,
      "taka": 2955,
      "memerintahkan": 2956,
      "Tamar": 2957,
      "syeba": 2958,
      "tempur": 2959,
      "patutnya": 2960,
      "hiasan": 2961,
      "naskhah": 2962,
      "lapetaka": 2963,
      "Het": 2964,
      "ezer": 2965,
      "jlis": 2966,
      "senga": 2967,
      "tulen": 2968,
      "yarat": 2969,
      "bergembira": 2970,
      "berpaling": 2971,
      "bertempur": 2972,
      "kepercaya": 2973,
      "kesetia": 2974,
      "sesu": 2975,
      "buku": 2976,
      "mengeli": 2977,
      "koir": 2978,
      "nazar": 2979,
      "asal": 2980,
      "dea": 2981,
      "dek": 2982,
      "gundik": 2983,
      "lakukanlah": 2984,
      "sanggup": 2985,
      "Tiga": 2986,
      "menyala": 2987,
      "Yudas": 2988,
      "Yudea": 2989,
      "maisuri": 2990,
      "kurnia": 2991,
      "menghalang": 2992,
      "sok": 2993,
      "Baiklah": 2994,
      "ayahanda": 2995,
      "ayahandanya": 2996,
      "dahal": 2997,
      "Gerbang": 2998,
      "Roma": 2999,
      "sejahteraan": 3000,
      "ditawan": 3001,
      "Aga": 3002,
      "Air": 3003,
      "adakah": 3004,
      "cah": 3005,
      "cau": 3006,
      "cantik": 3007,
      "ytiharkan": 3008,
      "dica": 3009,
      "ditinggalkan": 3010,
      "taman": 3011,
      "berpakaian": 3012,
      "kandung": 3013,
      "malapetaka": 3014,
      "buas": 3015,
      "ahas": 3016,
      "terbang": 3017,
      "tanam": 3018,
      "tahkan": 3019,
      "diami": 3020,
      "diambil": 3021,
      "bangg": 3022,
      "rantai": 3023,
      "hadapi": 3024,
      "benci": 3025,
      "rahsia": 3026,
      "sediakan": 3027,
      "meniup": 3028,
      "periuk": 3029,
      "belayar": 3030,
      "tunjukkan": 3031,
      "menjemput": 3032,
      "mengucapkan": 3033,
      "berdaya": 3034,
      "pedati": 3035,
      "menaklu": 3036,
      "damaian": 3037,
      "Amalek": 3038,
      "menyelesai": 3039,
      "kepentingan": 3040,
      "Ken": 3041,
      "Li": 3042,
      "Mak": 3043,
      "Natan": 3044,
      "Tolong": 3045,
      "dangan": 3046,
      "eru": 3047,
      "empa": 3048,
      "dikehendaki": 3049,
      "dikhaskan": 3050,
      "berga": 3051,
      "untung": 3052,
      "jaran": 3053,
      "luas": 3054,
      "terlebih": 3055,
      "lehem": 3056,
      "bed": 3057,
      "Kumpu": 3058,
      "rangka": 3059,
      "Sedang": 3060,
      "Sebenarnya": 3061,
      "memberitakan": 3062,
      "Tiba": 3063,
      "Selu": 3064,
      "menara": 3065,
      "mencel": 3066,
      "kelima": 3067,
      "pelu": 3068,
      "Tentera": 3069,
      "Pengikut": 3070,
      "Bangun": 3071,
      "agungan": 3072,
      "kakas": 3073,
      "warna": 3074,
      "Zadok": 3075,
      "besaran": 3076,
      "Basan": 3077,
      "kegembiraan": 3078,
      "Ambillah": 3079,
      "banggakan": 3080,
      "En": 3081,
      "menaku": 3082,
      "menjiji": 3083,
      "berlari": 3084,
      "bernubuat": 3085,
      "seiman": 3086,
      "sarkan": 3087,
      "terdengar": 3088,
      "terbuka": 3089,
      "kilat": 3090,
      "pukul": 3091,
      "ajaib": 3092,
      "mengadili": 3093,
      "semangat": 3094,
      "cul": 3095,
      "bapamu": 3096,
      "Betlehem": 3097,
      "muncul": 3098,
      "bukti": 3099,
      "angkatan": 3100,
      "jelas": 3101,
      "gulungan": 3102,
      "hubungan": 3103,
      "penasihat": 3104,
      "Naftali": 3105,
      "memeriksa": 3106,
      "penyucian": 3107,
      "sengaja": 3108,
      "menjijikkan": 3109,
      "Hor": 3110,
      "Lakukan": 3111,
      "Pemi": 3112,
      "Ram": 3113,
      "Uzia": 3114,
      "gak": 3115,
      "pengan": 3116,
      "disa": 3117,
      "dite": 3118,
      "menantikan": 3119,
      "bersiap": 3120,
      "indung": 3121,
      "sepatutnya": 3122,
      "gali": 3123,
      "raya": 3124,
      "elang": 3125,
      "engah": 3126,
      "terlepas": 3127,
      "tanduk": 3128,
      "ungu": 3129,
      "pesan": 3130,
      "pandai": 3131,
      "menguji": 3132,
      "keturunanmu": 3133,
      "tujuan": 3134,
      "Gil": 3135,
      "song": 3136,
      "bersetubuh": 3137,
      "berjumlah": 3138,
      "tahanan": 3139,
      "kepercayaan": 3140,
      "sesuai": 3141,
      "peluang": 3142,
      "Az": 3143,
      "Tinggi": 3144,
      "fsi": 3145,
      "golong": 3146,
      "hin": 3147,
      "iri": 3148,
      "taran": 3149,
      "layu": 3150,
      "berca": 3151,
      "kec": 3152,
      "keji": 3153,
      "kesejahteraan": 3154,
      "sedia": 3155,
      "jari": 3156,
      "permula": 3157,
      "leb": 3158,
      "duanya": 3159,
      "tannya": 3160,
      "doaku": 3161,
      "Sejarah": 3162,
      "Kaleb": 3163,
      "serangan": 3164,
      "tenang": 3165,
      "Balak": 3166,
      "bagiku": 3167,
      "lakuan": 3168,
      "perempuannya": 3169,
      "memberitahukan": 3170,
      "penye": 3171,
      "pujilah": 3172,
      "mengandung": 3173,
      "berdasarkan": 3174,
      "Gibeon": 3175,
      "Sodom": 3176,
      "seribu": 3177,
      "khuatir": 3178,
      "kesetiaan": 3179,
      "),": 3180,
      "Ara": 3181,
      "Hada": 3182,
      "Kem": 3183,
      "amat": 3184,
      "cin": 3185,
      "jiran": 3186,
      "ze": 3187,
      "ako": 3188,
      "akhi": 3189,
      "turut": 3190,
      "menempat": 3191,
      "bersungut": 3192,
      "kekasih": 3193,
      "keagungan": 3194,
      "sesat": 3195,
      "baju": 3196,
      "perkakas": 3197,
      "ias": 3198,
      "akul": 3199,
      "mengoyak": 3200,
      "menghadapi": 3201,
      "tela": 3202,
      "tangkan": 3203,
      "diriku": 3204,
      "Sebaik": 3205,
      "semoga": 3206,
      "mpang": 3207,
      "mping": 3208,
      "Keesokan": 3209,
      "Persembah": 3210,
      "Silo": 3211,
      "memikirkan": 3212,
      "Sudah": 3213,
      "akhirnya": 3214,
      "pinggir": 3215,
      "hadir": 3216,
      "ingatlah": 3217,
      "beritahulah": 3218,
      "timbun": 3219,
      "Gibea": 3220,
      "Sye": 3221,
      "salib": 3222,
      "mempedulikan": 3223,
      "menanam": 3224,
      "sempurna": 3225,
      "mengelilingi": 3226,
      "Bangunlah": 3227,
      "menempatkan": 3228,
      "Ez": 3229,
      "Neg": 3230,
      "Po": 3231,
      "faham": 3232,
      "jing": 3233,
      "dipang": 3234,
      "tafsi": 3235,
      "bere": 3236,
      "kedudu": 3237,
      "kedamaian": 3238,
      "madu": 3239,
      "malkan": 3240,
      "sumpah": 3241,
      "teta": 3242,
      "Yeho": 3243,
      "elamatan": 3244,
      "beli": 3245,
      "mengumumkan": 3246,
      "Sidon": 3247,
      "bahagikan": 3248,
      "gerak": 3249,
      "Surat": 3250,
      "yani": 3251,
      "izpa": 3252,
      "Yoram": 3253,
      "ebus": 3254,
      "diusir": 3255,
      "mengampuni": 3256,
      "memaksa": 3257,
      "Bagaimana": 3258,
      "lambangkan": 3259,
      "khianati": 3260,
      "alasan": 3261,
      "menyelesaikan": 3262,
      "Seluruh": 3263,
      "permulaan": 3264,
      ",’": 3265,
      "Adonia": 3266,
      "efo": 3267,
      "mon": 3268,
      "om": 3269,
      "omi": 3270,
      "anjang": 3271,
      "kala": 3272,
      "dipuji": 3273,
      "dipercayai": 3274,
      "kehormatan": 3275,
      "selanjut": 3276,
      "malah": 3277,
      "itung": 3278,
      "bumbung": 3279,
      "wasi": 3280,
      "ahat": 3281,
      "terselamat": 3282,
      "dup": 3283,
      "dus": 3284,
      "kilau": 3285,
      "anasan": 3286,
      "pis": 3287,
      "patkah": 3288,
      "menyus": 3289,
      "kosong": 3290,
      "Sesungguhnya": 3291,
      "Kehat": 3292,
      "Persia": 3293,
      "demikianlah": 3294,
      "mengikuti": 3295,
      "sukkan": 3296,
      "mpung": 3297,
      "sentimeter": 3298,
      "Dapatkah": 3299,
      "menganiaya": 3300,
      "menunggang": 3301,
      "mencuri": 3302,
      "hinaan": 3303,
      "menarik": 3304,
      "Zebulon": 3305,
      "efod": 3306,
      "selanjutnya": 3307,
      "Gat": 3308,
      "Mar": 3309,
      "Masanya": 3310,
      "Tinggal": 3311,
      "bakul": 3312,
      "fat": 3313,
      "stor": 3314,
      "erinya": 3315,
      "kampung": 3316,
      "empah": 3317,
      "disampaikan": 3318,
      "diletakkan": 3319,
      "pasir": 3320,
      "kebesaran": 3321,
      "undang": 3322,
      "set": 3323,
      "seumur": 3324,
      "mudah": 3325,
      "memakannya": 3326,
      "raan": 3327,
      "lumpu": 3328,
      "nabas": 3329,
      "melempa": 3330,
      "membel": 3331,
      "mplot": 3332,
      "mbar": 3333,
      "hadad": 3334,
      "tenaga": 3335,
      "isan": 3336,
      "Yoyakim": 3337,
      "sihir": 3338,
      "Rut": 3339,
      "lautan": 3340,
      "khabar": 3341,
      "memikul": 3342,
      "melawat": 3343,
      "Benhadad": 3344,
      "berubah": 3345,
      "dipimpin": 3346,
      "pahlawan": 3347,
      "Dewi": 3348,
      "Korah": 3349,
      "endahkan": 3350,
      "Simei": 3351,
      "Barnabas": 3352,
      "lebarnya": 3353,
      "Binatang": 3354,
      "Ribka": 3355,
      "Katakanlah": 3356,
      "Lakukanlah": 3357,
      "Negeri": 3358,
      "lumpuh": 3359,
      "10": 3360,
      "Sung": 3361,
      "pakan": 3362,
      "rempah": 3363,
      "dibiarkan": 3364,
      "berlimpah": 3365,
      "keperlu": 3366,
      "unyi": 3367,
      "masy": 3368,
      "kudanya": 3369,
      "haru": 3370,
      "biru": 3371,
      "menghu": 3372,
      "askan": 3373,
      "dalamnya": 3374,
      "usung": 3375,
      "dengarkanlah": 3376,
      "kepalanya": 3377,
      "tuannya": 3378,
      "runtuhan": 3379,
      "roda": 3380,
      "gut": 3381,
      "menyebut": 3382,
      "Semaya": 3383,
      "Malanglah": 3384,
      "mpunan": 3385,
      "dekati": 3386,
      "Askar": 3387,
      "Asyer": 3388,
      "membahagikan": 3389,
      "berehat": 3390,
      "masyhur": 3391,
      "Ibu": 3392,
      "Lot": 3393,
      "Mizpa": 3394,
      "Tengah": 3395,
      "edah": 3396,
      "sakkan": 3397,
      "titah": 3398,
      "lapor": 3399,
      "berkuda": 3400,
      "bertemu": 3401,
      "kanya": 3402,
      "sasa": 3403,
      "malang": 3404,
      "bit": 3405,
      "rugi": 3406,
      "tandus": 3407,
      "ingan": 3408,
      "tangga": 3409,
      "asap": 3410,
      "mpal": 3411,
      "Sara": 3412,
      "merpati": 3413,
      "mengukur": 3414,
      "tanahnya": 3415,
      "menuduh": 3416,
      "Perka": 3417,
      "Perca": 3418,
      "murni": 3419,
      "Saulus": 3420,
      "jarakan": 3421,
      "Filipus": 3422,
      "capkan": 3423,
      "kutuklah": 3424,
      "buruk": 3425,
      "bekas": 3426,
      "Benarkanlah": 3427,
      "Dua": 3428,
      "Sungguh": 3429,
      "Esok": 3430,
      "Hati": 3431,
      "Yako": 3432,
      "af": 3433,
      "anjing": 3434,
      "akhar": 3435,
      "diki": 3436,
      "ditahbiskan": 3437,
      "dimakam": 3438,
      "tipu": 3439,
      "kes": 3440,
      "keta": 3441,
      "sabar": 3442,
      "samping": 3443,
      "jarkan": 3444,
      "kus": 3445,
      "kudis": 3446,
      "risan": 3447,
      "sukar": 3448,
      "mengkhianati": 3449,
      "tahir": 3450,
      "olehkan": 3451,
      "melambangkan": 3452,
      "cacat": 3453,
      "membolehkan": 3454,
      "sembelih": 3455,
      "dangkan": 3456,
      "pengintip": 3457,
      "negerinya": 3458,
      "memberikannya": 3459,
      "gunanya": 3460,
      "Abia": 3461,
      "menyalahkan": 3462,
      "melayani": 3463,
      "Benaya": 3464,
      "sedihan": 3465,
      "wangi": 3466,
      "Puak": 3467,
      "mematahkan": 3468,
      "mencuci": 3469,
      "nafas": 3470,
      "sumber": 3471,
      "daripadanya": 3472,
      "menjelajah": 3473,
      "goncang": 3474,
      "Boas": 3475,
      "sengsa": 3476,
      "menakutkan": 3477,
      "Gilgal": 3478,
      "Perkara": 3479,
      "Yakobus": 3480,
      "dimakamkan": 3481,
      "Asaf": 3482,
      "Isai": 3483,
      "Mati": 3484,
      "Ser": 3485,
      "Tem": 3486,
      "Uria": 3487,
      "Zeru": 3488,
      "abu": 3489,
      "akkannya": 3490,
      "diha": 3491,
      "tuli": 3492,
      "mendekati": 3493,
      "yalah": 3494,
      "berbelas": 3495,
      "berkubu": 3496,
      "berwarna": 3497,
      "keg": 3498,
      "kelo": 3499,
      "uni": 3500,
      "jau": 3501,
      "kukuh": 3502,
      "peristi": 3503,
      "memakan": 3504,
      "sikap": 3505,
      "dosanya": 3506,
      "mengawasi": 3507,
      "Sela": 3508,
      "banjir": 3509,
      "sudahan": 3510,
      "buatlah": 3511,
      "halnya": 3512,
      "ganda": 3513,
      "perala": 3514,
      "mengenakan": 3515,
      "penyelamatan": 3516,
      "pengurus": 3517,
      "reel": 3518,
      "membantu": 3519,
      "Hidup": 3520,
      "tuaian": 3521,
      "tertawakan": 3522,
      "pembinaan": 3523,
      "diampunkan": 3524,
      "Yizreel": 3525,
      "menyesatkan": 3526,
      "Percayalah": 3527,
      "peristiwa": 3528,
      "30": 3529,
      "Ai": 3530,
      "Ang": 3531,
      "Azar": 3532,
      "Kemu": 3533,
      "ayat": 3534,
      "esa": 3535,
      "eha": 3536,
      "jek": 3537,
      "yung": 3538,
      "karan": 3539,
      "dipen": 3540,
      "dibebaskan": 3541,
      "padahal": 3542,
      "yatim": 3543,
      "berbuah": 3544,
      "berusia": 3545,
      "berteng": 3546,
      "berhak": 3547,
      "bergerak": 3548,
      "ingi": 3549,
      "kebun": 3550,
      "undi": 3551,
      "mengerti": 3552,
      "manis": 3553,
      "Isakhar": 3554,
      "Batu": 3555,
      "pengusung": 3556,
      "merendahkan": 3557,
      "olok": 3558,
      "Berapa": 3559,
      "moyangnya": 3560,
      "arai": 3561,
      "mengharap": 3562,
      "dibaptis": 3563,
      "hentikan": 3564,
      "ditiup": 3565,
      "kekurangan": 3566,
      "tumbuhan": 3567,
      "Rama": 3568,
      "binasaan": 3569,
      "Asyera": 3570,
      "marilah": 3571,
      "mengembali": 3572,
      "dilantik": 3573,
      "timbunan": 3574,
      "dipenjarakan": 3575,
      "bertengkar": 3576,
      "22": 3577,
      "Rak": 3578,
      "teka": 3579,
      "akha": 3580,
      "kamah": 3581,
      "dasar": 3582,
      "disembelih": 3583,
      "tupi": 3584,
      "tulus": 3585,
      "paruh": 3586,
      "mentertawakan": 3587,
      "tih": 3588,
      "tius": 3589,
      "keuntung": 3590,
      "kesedihan": 3591,
      "memis": 3592,
      "ratu": 3593,
      "susu": 3594,
      "busur": 3595,
      "termasyhur": 3596,
      "menying": 3597,
      "diadili": 3598,
      "dahan": 3599,
      "mahir": 3600,
      "mahkamah": 3601,
      "Kuberikan": 3602,
      "tingkat": 3603,
      "yakhin": 3604,
      "membasuh": 3605,
      "Yoyakhin": 3606,
      "bot": 3607,
      "guni": 3608,
      "roboh": 3609,
      "sandung": 3610,
      "Sihon": 3611,
      "sangka": 3612,
      "Lea": 3613,
      "masak": 3614,
      "dahului": 3615,
      "miliknya": 3616,
      "kumpulkan": 3617,
      "Kitab": 3618,
      "Dosa": 3619,
      "sekitarnya": 3620,
      "nafsu": 3621,
      "berduri": 3622,
      "menimbulkan": 3623,
      "laporan": 3624,
      "memisahkan": 3625,
      "cangkan": 3626,
      "fajar": 3627,
      "he": 3628,
      "helang": 3629,
      "lengan": 3630,
      "anita": 3631,
      "kari": 3632,
      "dataran": 3633,
      "diban": 3634,
      "diberkati": 3635,
      "ditangkap": 3636,
      "tasik": 3637,
      "berlalu": 3638,
      "berkilau": 3639,
      "intai": 3640,
      "kedatang": 3641,
      "sehari": 3642,
      "gara": 3643,
      "mara": 3644,
      "baginya": 3645,
      "haram": 3646,
      "perkata": 3647,
      "perhiasan": 3648,
      "suki": 3649,
      "bukanlah": 3650,
      "luhan": 3651,
      "lupakan": 3652,
      "puk": 3653,
      "pulau": 3654,
      "sib": 3655,
      "jukan": 3656,
      "menjarah": 3657,
      "ungkan": 3658,
      "Yebusi": 3659,
      "melinta": 3660,
      "asar": 3661,
      "hidupku": 3662,
      "hatinya": 3663,
      "usan": 3664,
      "merupakan": 3665,
      "boset": 3666,
      "Perempu": 3667,
      "ketul": 3668,
      "biar": 3669,
      "gempa": 3670,
      "Hamat": 3671,
      "mencur": 3672,
      "penuhi": 3673,
      "bapaku": 3674,
      "bodohan": 3675,
      "lihatlah": 3676,
      "bersunat": 3677,
      "merompak": 3678,
      "Berilah": 3679,
      "kejadian": 3680,
      "istimewa": 3681,
      "bersihkan": 3682,
      "kedudukan": 3683,
      "menghulurkan": 3684,
      "Perempuan": 3685,
      "Ata": 3686,
      "Etio": 3687,
      "Wanita": 3688,
      "Yunus": 3689,
      "cela": 3690,
      "fel": 3691,
      "sinya": 3692,
      "sorak": 3693,
      "kalah": 3694,
      "darat": 3695,
      "dimu": 3696,
      "diberi": 3697,
      "diro": 3698,
      "berlu": 3699,
      "bermalam": 3700,
      "bernyanyi": 3701,
      "kebinasaan": 3702,
      "muzik": 3703,
      "ras": 3704,
      "ragu": 3705,
      "was": 3706,
      "terdiri": 3707,
      "teram": 3708,
      "mengah": 3709,
      "Allahmu": 3710,
      "ajarkan": 3711,
      "mahkota": 3712,
      "pencuri": 3713,
      "mengajarkan": 3714,
      "akiti": 3715,
      "isytiharkan": 3716,
      "Yotam": 3717,
      "saudaramu": 3718,
      "menanggalkan": 3719,
      "Maakha": 3720,
      "membentangkan": 3721,
      "pelindung": 3722,
      "panjangnya": 3723,
      "memasukkan": 3724,
      "memerangi": 3725,
      "diliputi": 3726,
      "dikebumikan": 3727,
      "porkan": 3728,
      "sepenuhnya": 3729,
      "menegur": 3730,
      "mengoyakkan": 3731,
      "Syeba": 3732,
      "Ezra": 3733,
      "keganasan": 3734,
      "Etiopia": 3735,
      "Baha": 3736,
      "Bela": 3737,
      "Mel": 3738,
      "gum": 3739,
      "ganas": 3740,
      "lor": 3741,
      "kacita": 3742,
      "embun": 3743,
      "dimiliki": 3744,
      "disediakan": 3745,
      "dipenuhi": 3746,
      "menebus": 3747,
      "talkan": 3748,
      "bernyala": 3749,
      "sebi": 3750,
      "sayang": 3751,
      "baja": 3752,
      "perkahwin": 3753,
      "buran": 3754,
      "gila": 3755,
      "tertinggal": 3756,
      "tersandung": 3757,
      "menggali": 3758,
      "tebal": 3759,
      "menyia": 3760,
      "peni": 3761,
      "mengapakah": 3762,
      "ondok": 3763,
      "akitan": 3764,
      "tingginya": 3765,
      "membaptis": 3766,
      "isah": 3767,
      "hatilah": 3768,
      "menutupi": 3769,
      "Melalui": 3770,
      "pemban": 3771,
      "menyapu": 3772,
      "waktunya": 3773,
      "rakyatnya": 3774,
      "ormatilah": 3775,
      "meterai": 3776,
      "diperlukan": 3777,
      "memalukan": 3778,
      "tolonglah": 3779,
      "eluk": 3780,
      "suruhlah": 3781,
      "mengurniakan": 3782,
      "usahakan": 3783,
      "faedah": 3784,
      "jarahan": 3785,
      "lengang": 3786,
      "bersalin": 3787,
      "beragi": 3788,
      "Merari": 3789,
      "baiki": 3790,
      "Belum": 3791,
      "dijual": 3792,
      "Agama": 3793,
      "menaklukkan": 3794,
      "Make": 3795,
      "Kumpulan": 3796,
      "teladan": 3797,
      "mengharapkan": 3798,
      "Bahagi": 3799,
      "400": 3800,
      "Hana": 3801,
      "Kelu": 3802,
      "Lel": 3803,
      "Tang": 3804,
      "Zo": 3805,
      "cemas": 3806,
      "mang": 3807,
      "syarat": 3808,
      "zir": 3809,
      "aksi": 3810,
      "din": 3811,
      "didapati": 3812,
      "dipasang": 3813,
      "disimpan": 3814,
      "mendahului": 3815,
      "kelakuan": 3816,
      "kebodohan": 3817,
      "sal": 3818,
      "raj": 3819,
      "padam": 3820,
      "terj": 3821,
      "terbakar": 3822,
      "pura": 3823,
      "berisi": 3824,
      "pendek": 3825,
      "galakkan": 3826,
      "tingkap": 3827,
      "umlah": 3828,
      "sybon": 3829,
      "belaka": 3830,
      "Perintah": 3831,
      "motius": 3832,
      "atasnya": 3833,
      "Timotius": 3834,
      "memihak": 3835,
      "mendapatkan": 3836,
      "Majlis": 3837,
      "askarnya": 3838,
      "lihkan": 3839,
      "berupa": 3840,
      "belajar": 3841,
      "erasi": 3842,
      "Hesybon": 3843,
      "kenankan": 3844,
      "Dewa": 3845,
      "tercerai": 3846,
      "menyusahkan": 3847,
      "kesakitan": 3848,
      "Azarya": 3849,
      "mengembalikan": 3850,
      "keuntungan": 3851,
      "Lelaki": 3852,
      "Peri": 3853,
      "otong": 3854,
      "ombak": 3855,
      "waku": 3856,
      "kasut": 3857,
      "dire": 3858,
      "mende": 3859,
      "mentahbiskan": 3860,
      "berbagai": 3861,
      "kelapan": 3862,
      "untuhan": 3863,
      "gagah": 3864,
      "batas": 3865,
      "memotong": 3866,
      "bir": 3867,
      "juran": 3868,
      "mandi": 3869,
      "menjauhkan": 3870,
      "matkanlah": 3871,
      "namanya": 3872,
      "penyanyi": 3873,
      "mpok": 3874,
      "tempa": 3875,
      "danglah": 3876,
      "senarai": 3877,
      "datanglah": 3878,
      "hatimu": 3879,
      "ampun": 3880,
      "persembahkanlah": 3881,
      "mendengarnya": 3882,
      "Kepada": 3883,
      "guling": 3884,
      "Silas": 3885,
      "Sisera": 3886,
      "mengirik": 3887,
      "memijak": 3888,
      "melaporkan": 3889,
      "tengkaran": 3890,
      "menawan": 3891,
      "mempermalukan": 3892,
      "Naomi": 3893,
      "setimpal": 3894,
      "elima": 3895,
      "tolak": 3896,
      "Bulan": 3897,
      "memasuki": 3898,
      "harapkan": 3899,
      "meletakkannya": 3900,
      "kasihanilah": 3901,
      "pelayan": 3902,
      "adiknya": 3903,
      "tindakan": 3904,
      "diketahui": 3905,
      "goda": 3906,
      "dirampas": 3907,
      "berkomplot": 3908,
      "Persembahkanlah": 3909,
      "melemparkan": 3910,
      "keperluan": 3911,
      "Selamatkanlah": 3912,
      "Rakyat": 3913,
      "Firman": 3914,
      "Ham": 3915,
      "Tempat": 3916,
      "Yit": 3917,
      "bya": 3918,
      "jana": 3919,
      "”.": 3920,
      "dafta": 3921,
      "dikur": 3922,
      "ditulis": 3923,
      "diikat": 3924,
      "didiami": 3925,
      "tabah": 3926,
      "tajam": 3927,
      "beroleh": 3928,
      "berbangga": 3929,
      "indu": 3930,
      "kesuka": 3931,
      "sehelai": 3932,
      "baya": 3933,
      "bayang": 3934,
      "baris": 3935,
      "kutu": 3936,
      "menghentikan": 3937,
      "tebing": 3938,
      "kiran": 3939,
      "tangisan": 3940,
      "berilah": 3941,
      "beriman": 3942,
      "berikanlah": 3943,
      "dosaku": 3944,
      "hijau": 3945,
      "cari": 3946,
      "hani": 3947,
      "hidupkan": 3948,
      "Salu": 3949,
      "Ketua": 3950,
      "Pernah": 3951,
      "murah": 3952,
      "banyaknya": 3953,
      "pasak": 3954,
      "tentangan": 3955,
      "Berdoa": 3956,
      "mencabut": 3957,
      "Amnon": 3958,
      "niat": 3959,
      "erami": 3960,
      "merosakkan": 3961,
      "dikasihi": 3962,
      "Goliat": 3963,
      "piatu": 3964,
      "mengembara": 3965,
      "menambah": 3966,
      "Pemimpin": 3967,
      "penyewa": 3968,
      "dipanggil": 3969,
      "harum": 3970,
      "kedatangan": 3971,
      "daftarkan": 3972,
      "Berdoalah": 3973,
      "200": 3974,
      "Bat": 3975,
      "Elam": 3976,
      "Tah": 3977,
      "cahkan": 3978,
      "cinta": 3979,
      "fit": 3980,
      "iban": 3981,
      "nahan": 3982,
      "snahan": 3983,
      "erat": 3984,
      "ahi": 3985,
      "diciptakan": 3986,
      "tina": 3987,
      "berhadapan": 3988,
      "berlindung": 3989,
      "injak": 3990,
      "keaja": 3991,
      "sebelas": 3992,
      "mukanya": 3993,
      "jadikan": 3994,
      "perasa": 3995,
      "lebat": 3996,
      "tersembunyi": 3997,
      "bihan": 3998,
      "rusa": 3999,
      "puluhan": 4000,
      "sida": 4001,
      "leher": 4002,
      "beza": 4003,
      "betina": 4004,
      "tenteram": 4005,
      "cium": 4006,
      "Laza": 4007,
      "esta": 4008,
      "raksasa": 4009,
      "mencintai": 4010,
      "menerimanya": 4011,
      "Naaman": 4012,
      "ganggu": 4013,
      "Tujuh": 4014,
      "Abisai": 4015,
      "gelisah": 4016,
      "merejam": 4017,
      "Ratu": 4018,
      "keadaannya": 4019,
      "nurani": 4020,
      "ayam": 4021,
      "dahaga": 4022,
      "dirasuk": 4023,
      "Begitu": 4024,
      "bergabung": 4025,
      "tafsirkan": 4026,
      "Yehoas": 4027,
      "melintasi": 4028,
      "fitnah": 4029,
      "keajaiban": 4030,
      "Lazarus": 4031,
      "Ela": 4032,
      "Mal": 4033,
      "Nasar": 4034,
      "San": 4035,
      "alan": 4036,
      "cer": 4037,
      "gemuk": 4038,
      "ol": 4039,
      "uger": 4040,
      "angkut": 4041,
      "dap": 4042,
      "emarkan": 4043,
      "pagar": 4044,
      "mendak": 4045,
      "bermakna": 4046,
      "sebut": 4047,
      "selebih": 4048,
      "malas": 4049,
      "babi": 4050,
      "pertengkaran": 4051,
      "membi": 4052,
      "membanggakan": 4053,
      "leel": 4054,
      "terkenal": 4055,
      "mengel": 4056,
      "menyakiti": 4057,
      "menyaksi": 4058,
      "adat": 4059,
      "kolam": 4060,
      "melanda": 4061,
      "hitam": 4062,
      "ikh": 4063,
      "sebalik": 4064,
      "lembut": 4065,
      "kataku": 4066,
      "Baesa": 4067,
      "makanlah": 4068,
      "langsung": 4069,
      "rohani": 4070,
      "melihatnya": 4071,
      "mengetuai": 4072,
      "sekalipun": 4073,
      "haka": 4074,
      "generasi": 4075,
      "rehat": 4076,
      "Yohanan": 4077,
      "cedera": 4078,
      "merebak": 4079,
      "kilometer": 4080,
      "gelam": 4081,
      "sembuhkan": 4082,
      "Roti": 4083,
      "Terkutuklah": 4084,
      "persepuluhan": 4085,
      "daripadaku": 4086,
      "menjelaskan": 4087,
      "berpegang": 4088,
      "merancang": 4089,
      "ambillah": 4090,
      "pengantin": 4091,
      "lorong": 4092,
      "Keluar": 4093,
      "Pernahkah": 4094,
      "Nasaret": 4095,
      "selebihnya": 4096,
      "20": 4097,
      "500": 4098,
      "60": 4099,
      "Hil": 4100,
      "Mat": 4101,
      "Mata": 4102,
      "Pang": 4103,
      "Zerah": 4104,
      "alami": 4105,
      "beng": 4106,
      "cel": 4107,
      "ea": 4108,
      "ikuti": 4109,
      "jerami": 4110,
      "sahkan": 4111,
      "umum": 4112,
      "we": 4113,
      "dalya": 4114,
      "dipa": 4115,
      "palang": 4116,
      "padanya": 4117,
      "paginya": 4118,
      "mentafsirkan": 4119,
      "lapuk": 4120,
      "berun": 4121,
      "kesudahan": 4122,
      "unjuran": 4123,
      "sejuk": 4124,
      "separuh": 4125,
      "sarang": 4126,
      "bad": 4127,
      "hala": 4128,
      "pertahanan": 4129,
      "memindah": 4130,
      "budak": 4131,
      "gigi": 4132,
      "menggalakkan": 4133,
      "sisa": 4134,
      "ingkan": 4135,
      "ingini": 4136,
      "bes": 4137,
      "mandan": 4138,
      "Yesua": 4139,
      "bahtera": 4140,
      "hud": 4141,
      "ausaha": 4142,
      "senang": 4143,
      "logam": 4144,
      "bilakah": 4145,
      "merasakan": 4146,
      "Perhatikanlah": 4147,
      "mos": 4148,
      "gugur": 4149,
      "pembesar": 4150,
      "pindah": 4151,
      "gawai": 4152,
      "daikata": 4153,
      "diperkenankan": 4154,
      "gembirakan": 4155,
      "disunat": 4156,
      "bongsu": 4157,
      "Pegawai": 4158,
      "Korban": 4159,
      "Gerson": 4160,
      "bijian": 4161,
      "angkasa": 4162,
      "malangnya": 4163,
      "kelompok": 4164,
      "mencurahkan": 4165,
      "waspada": 4166,
      "perkahwinan": 4167,
      "Batsyeba": 4168,
      "sebaliknya": 4169,
      "Hilkia": 4170,
      "Elkan": 4171,
      "Her": 4172,
      "Kis": 4173,
      "Nenek": 4174,
      "Obed": 4175,
      "Uzi": 4176,
      "cakan": 4177,
      "nanya": 4178,
      "uf": 4179,
      "angus": 4180,
      "disembuhkan": 4181,
      "tal": 4182,
      "tadi": 4183,
      "berbi": 4184,
      "bermimpi": 4185,
      "bersedih": 4186,
      "bersikap": 4187,
      "kesepuluh": 4188,
      "kewaji": 4189,
      "sedemikian": 4190,
      "setinggi": 4191,
      "macam": 4192,
      "perantara": 4193,
      "memungut": 4194,
      "membersihkan": 4195,
      "sulam": 4196,
      "suhan": 4197,
      "lebihan": 4198,
      "teringat": 4199,
      "duri": 4200,
      "mengun": 4201,
      "menggem": 4202,
      "pimpin": 4203,
      "siakan": 4204,
      "sifat": 4205,
      "dahi": 4206,
      "Yehor": 4207,
      "Yefta": 4208,
      "jiwa": 4209,
      "pengala": 4210,
      "capan": 4211,
      "Seseorang": 4212,
      "rannya": 4213,
      "pesta": 4214,
      "membaca": 4215,
      "Sal": 4216,
      "buahan": 4217,
      "meren": 4218,
      "kemarahan": 4219,
      "Permaisuri": 4220,
      "musuhnya": 4221,
      "airnya": 4222,
      "kembalikan": 4223,
      "meratapi": 4224,
      "ingatkan": 4225,
      "mengandungi": 4226,
      "pahit": 4227,
      "derhaka": 4228,
      "Gedalya": 4229,
      "penjaga": 4230,
      "diserang": 4231,
      "pusaka": 4232,
      "Karmel": 4233,
      "Kiryat": 4234,
      "Tolonglah": 4235,
      "golongan": 4236,
      "tekad": 4237,
      "hebat": 4238,
      "perkataan": 4239,
      "perasaan": 4240,
      "Elkana": 4241,
      "kewajipan": 4242,
      "Yehoram": 4243,
      "pengalaman": 4244,
      ").": 4245,
      "Boleh": 4246,
      "Gen": 4247,
      "Jumlah": 4248,
      "Kel": 4249,
      "Nini": 4250,
      "Nil": 4251,
      "Oho": 4252,
      "Pak": 4253,
      "Sar": 4254,
      "fahami": 4255,
      "urus": 4256,
      "utas": 4257,
      "ukuran": 4258,
      "waki": 4259,
      "akas": 4260,
      "dipakai": 4261,
      "mencipta": 4262,
      "mencium": 4263,
      "yatar": 4264,
      "berdiam": 4265,
      "bertentangan": 4266,
      "bertekad": 4267,
      "selain": 4268,
      "perhatikanlah": 4269,
      "liskan": 4270,
      "terbit": 4271,
      "mengakibat": 4272,
      "menggembirakan": 4273,
      "rupa": 4274,
      "semesta": 4275,
      "Kades": 4276,
      "Satu": 4277,
      "bagimu": 4278,
      "khia": 4279,
      "Lagu": 4280,
      "ahukah": 4281,
      "Antio": 4282,
      "Abyatar": 4283,
      "Nama": 4284,
      "kenyang": 4285,
      "kelilingi": 4286,
      "berukuran": 4287,
      "Gabenor": 4288,
      "memainkan": 4289,
      "pemerintahannya": 4290,
      "membakarnya": 4291,
      "Daun": 4292,
      "Dengarkanlah": 4293,
      "berjuang": 4294,
      "kakinya": 4295,
      "membantah": 4296,
      "Hukum": 4297,
      "ditugaskan": 4298,
      "Pineha": 4299,
      "maksudkan": 4300,
      "sumbangan": 4301,
      "mengingatkan": 4302,
      "Pokok": 4303,
      "Makedonia": 4304,
      "memindahkan": 4305,
      "Niniwe": 4306,
      "akasia": 4307,
      "mengakibatkan": 4308,
      "Antiokhia": 4309,
      "Pinehas": 4310,
      "100": 4311,
      "Ah": 4312,
      "Ahia": 4313,
      "Bon": 4314,
      "Ce": 4315,
      "Ize": 4316,
      "Mah": 4317,
      "fas": 4318,
      "os": 4319,
      "pelihara": 4320,
      "akal": 4321,
      "ditemu": 4322,
      "menem": 4323,
      "menel": 4324,
      "tabia": 4325,
      "kebenar": 4326,
      "keesokan": 4327,
      "main": 4328,
      "kurlah": 4329,
      "kulapuk": 4330,
      "perhati": 4331,
      "pertanya": 4332,
      "memung": 4333,
      "pisi": 4334,
      "besen": 4335,
      "pendusta": 4336,
      "Mulai": 4337,
      "bantuan": 4338,
      "Katanya": 4339,
      "harian": 4340,
      "tenun": 4341,
      "bentar": 4342,
      "Safan": 4343,
      "belang": 4344,
      "cuk": 4345,
      "menuang": 4346,
      "runtuh": 4347,
      "pemungut": 4348,
      "Lagi": 4349,
      "terikat": 4350,
      "perbuatanmu": 4351,
      "Yabes": 4352,
      "Haza": 4353,
      "Hagar": 4354,
      "memulihkan": 4355,
      "bertiup": 4356,
      "keluargamu": 4357,
      "katakanlah": 4358,
      "pelbagai": 4359,
      "memancar": 4360,
      "hasilnya": 4361,
      "habisan": 4362,
      "menghiburkan": 4363,
      "Peraturan": 4364,
      "telanjang": 4365,
      "kiranya": 4366,
      "Hiram": 4367,
      "terbentang": 4368,
      "memetik": 4369,
      "tertawa": 4370,
      "Begitulah": 4371,
      "jagalah": 4372,
      "andainya": 4373,
      "Ramot": 4374,
      "tetamu": 4375,
      "menjelajahi": 4376,
      "Bahagian": 4377,
      "mendesak": 4378,
      "dikurniakan": 4379,
      "perantaraan": 4380,
      "Cepat": 4381,
      "Izebel": 4382,
      "tabiat": 4383,
      "perhatian": 4384,
      "Bunuh": 4385,
      "Cu": 4386,
      "Keka": 4387,
      "Kau": 4388,
      "Matan": 4389,
      "Og": 4390,
      "Pan": 4391,
      "Saha": 4392,
      "Yun": 4393,
      "dmat": 4394,
      "denga": 4395,
      "delima": 4396,
      "eel": 4397,
      "esus": 4398,
      "okh": 4399,
      "rer": 4400,
      "res": 4401,
      "ukar": 4402,
      "ucapan": 4403,
      "anting": 4404,
      "kati": 4405,
      "diperintah": 4406,
      "dimasuk": 4407,
      "diangkat": 4408,
      "dipukul": 4409,
      "dilupakan": 4410,
      "pau": 4411,
      "patan": 4412,
      "berla": 4413,
      "berhati": 4414,
      "bergoncang": 4415,
      "kesyu": 4416,
      "keberani": 4417,
      "sea": 4418,
      "sekuat": 4419,
      "garam": 4420,
      "muran": 4421,
      "risi": 4422,
      "rasu": 4423,
      "engk": 4424,
      "ahab": 4425,
      "terke": 4426,
      "terseba": 4427,
      "tertinggi": 4428,
      "terutama": 4429,
      "pucuk": 4430,
      "untukku": 4431,
      "mijak": 4432,
      "lampau": 4433,
      "apai": 4434,
      "kong": 4435,
      "kotanya": 4436,
      "naga": 4437,
      "mele": 4438,
      "melan": 4439,
      "Isteri": 4440,
      "bangkai": 4441,
      "susun": 4442,
      "medan": 4443,
      "cadangan": 4444,
      "Sepanjang": 4445,
      "tempatnya": 4446,
      "haruslah": 4447,
      "belukar": 4448,
      "curan": 4449,
      "menyerah": 4450,
      "mengir": 4451,
      "karung": 4452,
      "gersang": 4453,
      "Andaikata": 4454,
      "berlakulah": 4455,
      "takuti": 4456,
      "Sempadan": 4457,
      "takluk": 4458,
      "memuliakan": 4459,
      "Sua": 4460,
      "janggut": 4461,
      "membentuk": 4462,
      "berulang": 4463,
      "Bil": 4464,
      "baptis": 4465,
      "Efesus": 4466,
      "mustah": 4467,
      "yakanlah": 4468,
      "Hewi": 4469,
      "menebang": 4470,
      "Ref": 4471,
      "tahankan": 4472,
      "negara": 4473,
      "pemuja": 4474,
      "Pembaptis": 4475,
      "tindas": 4476,
      "khidmat": 4477,
      "baraan": 4478,
      "Elya": 4479,
      "nyanyian": 4480,
      "ciptaan": 4481,
      "caranya": 4482,
      "salibkan": 4483,
      "menantu": 4484,
      "Hananya": 4485,
      "bekalan": 4486,
      "diampuni": 4487,
      "meminum": 4488,
      "bercampur": 4489,
      "berlutut": 4490,
      "mangsa": 4491,
      "Salum": 4492,
      "Hazael": 4493,
      "kesyukuran": 4494,
      "rasuah": 4495,
      "Ikut": 4496,
      "Kia": 4497,
      "Lib": 4498,
      "Pel": 4499,
      "Pela": 4500,
      "Sera": 4501,
      "far": 4502,
      "itan": 4503,
      "ler": 4504,
      "anca": 4505,
      "kasar": 4506,
      "embu": 4507,
      "diserta": 4508,
      "menai": 4509,
      "berkhidmat": 4510,
      "keyakin": 4511,
      "kebahagia": 4512,
      "kedenga": 4513,
      "bata": 4514,
      "jala": 4515,
      "permaisuri": 4516,
      "membelah": 4517,
      "ragi": 4518,
      "libkan": 4519,
      "terkemu": 4520,
      "menggel": 4521,
      "jubkan": 4522,
      "ikmat": 4523,
      "ont": 4524,
      "Kain": 4525,
      "sering": 4526,
      "langkah": 4527,
      "dezer": 4528,
      "menugaskan": 4529,
      "Mesulam": 4530,
      "perkar": 4531,
      "Timur": 4532,
      "musuhmu": 4533,
      "Bersyeba": 4534,
      "tenggelam": 4535,
      "mempersembahkannya": 4536,
      "ingatan": 4537,
      "hargai": 4538,
      "hartanya": 4539,
      "bagaimanakah": 4540,
      "menabur": 4541,
      "mencela": 4542,
      "mencemarkan": 4543,
      "memperoleh": 4544,
      "Bumi": 4545,
      "peribadi": 4546,
      "syukurlah": 4547,
      "Adam": 4548,
      "kuburkan": 4549,
      "Betapa": 4550,
      "timbul": 4551,
      "Pekah": 4552,
      "balakan": 4553,
      "menyimpang": 4554,
      "Kores": 4555,
      "tuhilah": 4556,
      "Arnon": 4557,
      "dingkan": 4558,
      "singkan": 4559,
      "pedagang": 4560,
      "menakjubkan": 4561,
      "meminjam": 4562,
      "Hadadezer": 4563,
      "Kembali": 4564,
      "sengsara": 4565,
      "Tembok": 4566,
      "peralatannya": 4567,
      "berkilauan": 4568,
      "anguskan": 4569,
      "memungkiri": 4570,
      "Yunani": 4571,
      "reruntuhan": 4572,
      "keberanian": 4573,
      "Ikutlah": 4574,
      "Kiamat": 4575,
      "ancaman": 4576,
      "disertai": 4577,
      "menaiki": 4578,
      "terkemuka": 4579,
      "18": 4580,
      "Amasa": 4581,
      "Makhir": 4582,
      "Nah": 4583,
      "Nun": 4584,
      "Nadab": 4585,
      "Par": 4586,
      "Tun": 4587,
      "Teri": 4588,
      "gaku": 4589,
      "nanti": 4590,
      "oah": 4591,
      "dituju": 4592,
      "dikumpulkan": 4593,
      "dikelilingi": 4594,
      "dikuburkan": 4595,
      "tugu": 4596,
      "mencuba": 4597,
      "bertahan": 4598,
      "berpihak": 4599,
      "kesem": 4600,
      "keenam": 4601,
      "seya": 4602,
      "seper": 4603,
      "sesuka": 4604,
      "sebilangan": 4605,
      "gagal": 4606,
      "jat": 4607,
      "ham": 4608,
      "hazi": 4609,
      "persembunyi": 4610,
      "peringatan": 4611,
      "rau": 4612,
      "luti": 4613,
      "wajah": 4614,
      "mengemuk": 4615,
      "pit": 4616,
      "Allahnya": 4617,
      "untukmu": 4618,
      "menyo": 4619,
      "lambat": 4620,
      "bahu": 4621,
      "himpunan": 4622,
      "penju": 4623,
      "Segenap": 4624,
      "peti": 4625,
      "dianiaya": 4626,
      "lantang": 4627,
      "Kasihan": 4628,
      "Barat": 4629,
      "hidupmu": 4630,
      "istan": 4631,
      "gunting": 4632,
      "mot": 4633,
      "guruh": 4634,
      "percayakan": 4635,
      "besarnya": 4636,
      "mengejek": 4637,
      "Bersama": 4638,
      "memulakan": 4639,
      "Suara": 4640,
      "mence": 4641,
      "Nabal": 4642,
      "eliti": 4643,
      "kemusnahan": 4644,
      "penyelamat": 4645,
      "menuntut": 4646,
      "bebasan": 4647,
      "palma": 4648,
      "Darius": 4649,
      "diucapkan": 4650,
      "munaf": 4651,
      "kuburan": 4652,
      "mengancam": 4653,
      "Tentang": 4654,
      "Berikanlah": 4655,
      "mencukur": 4656,
      "Barukh": 4657,
      "Gom": 4658,
      "kirbat": 4659,
      "abangnya": 4660,
      "memecahkan": 4661,
      "menanyakan": 4662,
      "Hosea": 4663,
      "bertutur": 4664,
      "pahala": 4665,
      "ratapan": 4666,
      "Atalya": 4667,
      "Yitro": 4668,
      "ufti": 4669,
      "Pakai": 4670,
      "kebenaran": 4671,
      "pertanyaan": 4672,
      "tersebar": 4673,
      "munafik": 4674,
      "25": 4675,
      "Bau": 4676,
      "Bap": 4677,
      "Hikmat": 4678,
      "Ko": 4679,
      "Kini": 4680,
      "Let": 4681,
      "Masa": 4682,
      "Rahab": 4683,
      "cem": 4684,
      "carkan": 4685,
      "cangkuk": 4686,
      "dor": 4687,
      "fu": 4688,
      "gemu": 4689,
      "mri": 4690,
      "maha": 4691,
      "mbang": 4692,
      "ompak": 4693,
      "panya": 4694,
      "sor": 4695,
      "angkap": 4696,
      "akakan": 4697,
      "dilah": 4698,
      "dikenal": 4699,
      "didirikan": 4700,
      "ditanam": 4701,
      "diisytiharkan": 4702,
      "disalibkan": 4703,
      "payah": 4704,
      "menanti": 4705,
      "berbentuk": 4706,
      "sejauh": 4707,
      "sebentar": 4708,
      "babel": 4709,
      "barisan": 4710,
      "rit": 4711,
      "perhimpunan": 4712,
      "perompak": 4713,
      "suhi": 4714,
      "enggan": 4715,
      "terhormat": 4716,
      "mengger": 4717,
      "menggesa": 4718,
      "ruti": 4719,
      "sip": 4720,
      "bez": 4721,
      "kera": 4722,
      "arak": 4723,
      "pecah": 4724,
      "panji": 4725,
      "lempa": 4726,
      "katak": 4727,
      "aim": 4728,
      "Salah": 4729,
      "sendirian": 4730,
      "Meso": 4731,
      "Peres": 4732,
      "peman": 4733,
      "situlah": 4734,
      "menyeret": 4735,
      "Tim": 4736,
      "hadapannya": 4737,
      "menghanguskan": 4738,
      "Haz": 4739,
      "Harus": 4740,
      "menaruh": 4741,
      "mempertahankan": 4742,
      "Tulis": 4743,
      "Gaza": 4744,
      "diperhamba": 4745,
      "menerangi": 4746,
      "muslihat": 4747,
      "Keraja": 4748,
      "sahabatnya": 4749,
      "pasukannya": 4750,
      "ilmu": 4751,
      "berikutnya": 4752,
      "memerangkap": 4753,
      "Mikhal": 4754,
      "balasan": 4755,
      "ziarah": 4756,
      "Gehazi": 4757,
      "berpura": 4758,
      "persegi": 4759,
      "rambutnya": 4760,
      "besarkan": 4761,
      "menegakkan": 4762,
      "berdukacita": 4763,
      "dilapisi": 4764,
      "Zerubabel": 4765,
      "menyaksikan": 4766,
      "menggembalakan": 4767,
      "Bolehkah": 4768,
      "terkejut": 4769,
      "kebahagiaan": 4770,
      "mengemukakan": 4771,
      "Gomora": 4772,
      "40": 4773,
      "Ak": 4774,
      "Dun": 4775,
      "Ek": 4776,
      "Feri": 4777,
      "Hem": 4778,
      "Hormatilah": 4779,
      "Lakhi": 4780,
      "Yi": 4781,
      "aseya": 4782,
      "cata": 4783,
      "dre": 4784,
      "ed": 4785,
      "nak": 4786,
      "udara": 4787,
      "wini": 4788,
      "’,": 4789,
      "erang": 4790,
      "kalau": 4791,
      "dij": 4792,
      "dipin": 4793,
      "dimaksudkan": 4794,
      "papan": 4795,
      "lalang": 4796,
      "berlain": 4797,
      "berpendapat": 4798,
      "bercela": 4799,
      "berlangsung": 4800,
      "ketidak": 4801,
      "keaman": 4802,
      "kebiasa": 4803,
      "ungi": 4804,
      "lahan": 4805,
      "sekumpulan": 4806,
      "gaji": 4807,
      "matanya": 4808,
      "mainkan": 4809,
      "jamin": 4810,
      "riel": 4811,
      "perlukan": 4812,
      "perbaraan": 4813,
      "ekat": 4814,
      "busan": 4815,
      "enggu": 4816,
      "tergesa": 4817,
      "bijir": 4818,
      "menghendak": 4819,
      "ruangan": 4820,
      "ruhan": 4821,
      "kik": 4822,
      "sisinya": 4823,
      "katamu": 4824,
      "unggang": 4825,
      "dod": 4826,
      "atap": 4827,
      "penjahat": 4828,
      "mengabaikan": 4829,
      "mengatur": 4830,
      "mengamalkan": 4831,
      "mengajukan": 4832,
      "gail": 4833,
      "Sebagai": 4834,
      "mpakan": 4835,
      "Kasihi": 4836,
      "pengh": 4837,
      "Sarai": 4838,
      "Yoel": 4839,
      "Yoza": 4840,
      "menguburkan": 4841,
      "mengukuh": 4842,
      "ganjaran": 4843,
      "potam": 4844,
      "Anat": 4845,
      "Semes": 4846,
      "zaleel": 4847,
      "nampaknya": 4848,
      "sukai": 4849,
      "Masih": 4850,
      "Bezaleel": 4851,
      "gillah": 4852,
      "setiausaha": 4853,
      "laksanakan": 4854,
      "menghala": 4855,
      "lindungi": 4856,
      "soalan": 4857,
      "memburu": 4858,
      "isterimu": 4859,
      "diperoleh": 4860,
      "menerangkan": 4861,
      "Abigail": 4862,
      "derakan": 4863,
      "menghibur": 4864,
      "tambahan": 4865,
      "Asdod": 4866,
      "ditutup": 4867,
      "bilangannya": 4868,
      "bingkai": 4869,
      "bonda": 4870,
      "bersabar": 4871,
      "Tobia": 4872,
      "potongan": 4873,
      "relau": 4874,
      "dilarang": 4875,
      "Kira": 4876,
      "sebilah": 4877,
      "dinding": 4878,
      "bayaran": 4879,
      "Tahun": 4880,
      "bengkak": 4881,
      "pimpinan": 4882,
      "Bunuhlah": 4883,
      "dimasukkan": 4884,
      "pemujaan": 4885,
      "keyakinan": 4886,
      "Kasihanilah": 4887,
      "istananya": 4888,
      "Mesopotam": 4889,
      "Haruskah": 4890,
      "Dunia": 4891,
      "Ekron": 4892,
      "Feris": 4893,
      "Lakhis": 4894,
      "berlainan": 4895,
      "keamanan": 4896,
      "bijirin": 4897,
      "Kasihilah": 4898,
      "Mesopotamia": 4899,
      "600": 4900,
      "Ampun": 4901,
      "Akhi": 4902,
      "Deli": 4903,
      "Gela": 4904,
      "Hel": 4905,
      "Makh": 4906,
      "No": 4907,
      "Nyanyi": 4908,
      "Obaja": 4909,
      "Omri": 4910,
      "Penga": 4911,
      "Ste": 4912,
      "Tir": 4913,
      "Zim": 4914,
      "fer": 4915,
      "fet": 4916,
      "kang": 4917,
      "sunyi": 4918,
      "teliti": 4919,
      "uasa": 4920,
      "zinkan": 4921,
      "angnya": 4922,
      "dainya": 4923,
      "dihi": 4924,
      "ditunjukkan": 4925,
      "diajarkan": 4926,
      "didaftarkan": 4927,
      "diikuti": 4928,
      "tuanya": 4929,
      "bersuka": 4930,
      "bercucu": 4931,
      "berbahagia": 4932,
      "berdegil": 4933,
      "berahi": 4934,
      "berwaspada": 4935,
      "kehabisan": 4936,
      "kanannya": 4937,
      "una": 4938,
      "salih": 4939,
      "perna": 4940,
      "memeluk": 4941,
      "memfitnah": 4942,
      "radan": 4943,
      "kamulah": 4944,
      "terh": 4945,
      "teruk": 4946,
      "tertindas": 4947,
      "mengolok": 4948,
      "sihati": 4949,
      "jutkan": 4950,
      "keri": 4951,
      "dialah": 4952,
      "tangki": 4953,
      "nam": 4954,
      "mengajak": 4955,
      "catan": 4956,
      "sepertiga": 4957,
      "tempang": 4958,
      "egah": 4959,
      "bendaha": 4960,
      "kemas": 4961,
      "ikam": 4962,
      "Mefi": 4963,
      "keluarkan": 4964,
      "gudang": 4965,
      "pemberontak": 4966,
      "menyusul": 4967,
      "mengebumikan": 4968,
      "Semak": 4969,
      "zaradan": 4970,
      "memusuhi": 4971,
      "Maaseya": 4972,
      "Betul": 4973,
      "memperbaiki": 4974,
      "haiwan": 4975,
      "Nabot": 4976,
      "kencang": 4977,
      "Haran": 4978,
      "tofel": 4979,
      "Tasik": 4980,
      "soal": 4981,
      "berucap": 4982,
      "meramalkan": 4983,
      "patik": 4984,
      "berkatilah": 4985,
      "diperlakukan": 4986,
      "niaga": 4987,
      "Siapa": 4988,
      "bungan": 4989,
      "jenayah": 4990,
      "Rehu": 4991,
      "ditin": 4992,
      "Penguasa": 4993,
      "sombongan": 4994,
      "memastikan": 4995,
      "Nebuzaradan": 4996,
      "kekacau": 4997,
      "Ahitofel": 4998,
      "esoknya": 4999,
      "Jauh": 5000,
      "menceraikan": 5001,
      "khianat": 5002,
      "fanus": 5003,
      "gundiknya": 5004,
      "menghalangi": 5005,
      "kandungan": 5006,
      "mencelakakan": 5007,
      "akhiri": 5008,
      "tulisan": 5009,
      "menembusi": 5010,
      "Matanya": 5011,
      "kedengaran": 5012,
      "Kembalilah": 5013,
      "bezakan": 5014,
      "kebiasaan": 5015,
      "Delila": 5016,
      "Stefanus": 5017,
      "Mefiboset": 5018,
      "kekacauan": 5019,
      "Ad": 5020,
      "Api": 5021,
      "Amos": 5022,
      "Eg": 5023,
      "Eden": 5024,
      "Husa": 5025,
      "Itama": 5026,
      "Lu": 5027,
      "Ner": 5028,
      "Pemu": 5029,
      "Serah": 5030,
      "Susan": 5031,
      "jinya": 5032,
      "jempu": 5033,
      "nan": 5034,
      "kacak": 5035,
      "didengar": 5036,
      "ditahan": 5037,
      "dikutuk": 5038,
      "dihidupkan": 5039,
      "dikembalikan": 5040,
      "dilaksanakan": 5041,
      "parah": 5042,
      "patuh": 5043,
      "mentuanya": 5044,
      "tisan": 5045,
      "tamak": 5046,
      "tawar": 5047,
      "lap": 5048,
      "bersan": 5049,
      "bermaksud": 5050,
      "berbahaya": 5051,
      "keselama": 5052,
      "kandang": 5053,
      "sekeping": 5054,
      "samu": 5055,
      "balak": 5056,
      "itus": 5057,
      "perbendaha": 5058,
      "membangun": 5059,
      "lidah": 5060,
      "ternyata": 5061,
      "menggantung": 5062,
      "mengusahakan": 5063,
      "kisah": 5064,
      "dengannya": 5065,
      "inggu": 5066,
      "jurai": 5067,
      "dialami": 5068,
      "komandan": 5069,
      "bangsanya": 5070,
      "ikkan": 5071,
      "meyakin": 5072,
      "Sepuluh": 5073,
      "mpar": 5074,
      "tuskan": 5075,
      "penghormatan": 5076,
      "merasa": 5077,
      "kemak": 5078,
      "belaku": 5079,
      "bintik": 5080,
      "pema": 5081,
      "rumahmu": 5082,
      "maknanya": 5083,
      "mengizinkan": 5084,
      "menyetuju": 5085,
      "atilah": 5086,
      "seluruhnya": 5087,
      "berhampi": 5088,
      "menyalakan": 5089,
      "kembalilah": 5090,
      "memutuskan": 5091,
      "Mayat": 5092,
      "mencegah": 5093,
      "Bencana": 5094,
      "Taatilah": 5095,
      "mengendahkan": 5096,
      "seruan": 5097,
      "Pencipta": 5098,
      "fikirkan": 5099,
      "Pulanglah": 5100,
      "kerajaannya": 5101,
      "reda": 5102,
      "menerkam": 5103,
      "keldainya": 5104,
      "Hez": 5105,
      "memercik": 5106,
      "rumputnya": 5107,
      "siaplah": 5108,
      "timbangan": 5109,
      "dikatakannya": 5110,
      "sahi": 5111,
      "tahbisan": 5112,
      "Ahimelekh": 5113,
      "neraka": 5114,
      "badannya": 5115,
      "pemiliknya": 5116,
      "Hanan": 5117,
      "lengkap": 5118,
      "serigala": 5119,
      "mewarisi": 5120,
      "Kaisarea": 5121,
      "tetapan": 5122,
      "Marta": 5123,
      "Tinggalkanlah": 5124,
      "mengahwin": 5125,
      "gulingkan": 5126,
      "mendaki": 5127,
      "ditemui": 5128,
      "Pandanglah": 5129,
      "Sahabat": 5130,
      "mengiringi": 5131,
      "Seraya": 5132,
      "Terimalah": 5133,
      "persembunyian": 5134,
      "Hazor": 5135,
      "jaminan": 5136,
      "menghendaki": 5137,
      "mengukuhkan": 5138,
      "Akhis": 5139,
      "ditindas": 5140,
      "Itamar": 5141,
      "perbendaharaan": 5142,
      "meyakinkan": 5143,
      "berhampiran": 5144,
      "13": 5145,
      "45": 5146,
      "Ami": 5147,
      "Ana": 5148,
      "Asia": 5149,
      "Aro": 5150,
      "Bur": 5151,
      "Hasa": 5152,
      "Hur": 5153,
      "Pondok": 5154,
      "Uza": 5155,
      "Wi": 5156,
      "awal": 5157,
      "cun": 5158,
      "cont": 5159,
      "gri": 5160,
      "jeri": 5161,
      "ul": 5162,
      "ukiran": 5163,
      "yon": 5164,
      "kas": 5165,
      "kapak": 5166,
      "diker": 5167,
      "diseba": 5168,
      "diken": 5169,
      "dipaksa": 5170,
      "dibeli": 5171,
      "induk": 5172,
      "kesembilan": 5173,
      "sepatah": 5174,
      "sekutu": 5175,
      "maas": 5176,
      "majlis": 5177,
      "baca": 5178,
      "mut": 5179,
      "kufu": 5180,
      "permohon": 5181,
      "perkuburan": 5182,
      "memaha": 5183,
      "iasi": 5184,
      "mengakhiri": 5185,
      "tani": 5186,
      "pijak": 5187,
      "silah": 5188,
      "mim": 5189,
      "iringi": 5190,
      "Yeari": 5191,
      "lamakah": 5192,
      "Isy": 5193,
      "bangsaku": 5194,
      "pentahbisan": 5195,
      "mengagum": 5196,
      "Seandainya": 5197,
      "semata": 5198,
      "Mula": 5199,
      "emis": 5200,
      "pandangan": 5201,
      "tahuinya": 5202,
      "Kayu": 5203,
      "serata": 5204,
      "serahkan": 5205,
      "membatalkan": 5206,
      "Salam": 5207,
      "isyarat": 5208,
      "Daulat": 5209,
      "mengupah": 5210,
      "rosak": 5211,
      "pembelaku": 5212,
      "perkabungan": 5213,
      "kitlah": 5214,
      "bolehan": 5215,
      "Berhati": 5216,
      "Bersyukurlah": 5217,
      "biasanya": 5218,
      "memuaskan": 5219,
      "akarnya": 5220,
      "bunuhlah": 5221,
      "menjadikannya": 5222,
      "dewasa": 5223,
      "tanganmu": 5224,
      "matamu": 5225,
      "mencabar": 5226,
      "dibacakan": 5227,
      "inginkan": 5228,
      "balikkan": 5229,
      "membinanya": 5230,
      "durjana": 5231,
      "dihias": 5232,
      "cewakan": 5233,
      "memusnahkannya": 5234,
      "cubaan": 5235,
      "berjaga": 5236,
      "bersukacitalah": 5237,
      "Bangkitlah": 5238,
      "Mendengar": 5239,
      "menghidap": 5240,
      "dikepung": 5241,
      "bulkanlah": 5242,
      "Ahimaas": 5243,
      "kejaman": 5244,
      "abangmu": 5245,
      "singkat": 5246,
      "Jalan": 5247,
      "berpesta": 5248,
      "menyesal": 5249,
      "mencelup": 5250,
      "bercadang": 5251,
      "Arab": 5252,
      "Tinggallah": 5253,
      "sukarela": 5254,
      "menyingkirkan": 5255,
      "dimuliakan": 5256,
      "dirobohkan": 5257,
      "Belalang": 5258,
      "menyapukan": 5259,
      "mengeluh": 5260,
      "dipatuhi": 5261,
      "Hermon": 5262,
      "Uziel": 5263,
      "Genting": 5264,
      "menelan": 5265,
      "katil": 5266,
      "Refaim": 5267,
      "Nahor": 5268,
      "ditujukan": 5269,
      "raukan": 5270,
      "mahal": 5271,
      "catatan": 5272,
      "Gelagah": 5273,
      "Zimri": 5274,
      "Pemuda": 5275,
      "samudera": 5276,
      "kemakmuran": 5277,
      "Burung": 5278,
      "Wilayah": 5279,
      "contoh": 5280,
      "kufuri": 5281,
      "memahaminya": 5282,
      "Yearim": 5283,
      "mengagumkan": 5284,
      "17": 5285,
      "Adu": 5286,
      "Bunyi": 5287,
      "Em": 5288,
      "Ehud": 5289,
      "Gadi": 5290,
      "Naha": 5291,
      "Rim": 5292,
      "Tangan": 5293,
      "Titus": 5294,
      "Yon": 5295,
      "cing": 5296,
      "cung": 5297,
      "cangan": 5298,
      "dem": 5299,
      "heri": 5300,
      "lkanlah": 5301,
      "lunya": 5302,
      "sinar": 5303,
      "emar": 5304,
      "dipotong": 5305,
      "ditenun": 5306,
      "dilempa": 5307,
      "diiringi": 5308,
      "meninggi": 5309,
      "tidu": 5310,
      "taan": 5311,
      "berte": 5312,
      "bersem": 5313,
      "berge": 5314,
      "berpindah": 5315,
      "ketahui": 5316,
      "kebebasan": 5317,
      "ketetapan": 5318,
      "kekejaman": 5319,
      "seli": 5320,
      "segalanya": 5321,
      "sedek": 5322,
      "sam": 5323,
      "saba": 5324,
      "samanya": 5325,
      "bag": 5326,
      "bau": 5327,
      "batan": 5328,
      "jas": 5329,
      "membesar": 5330,
      "rama": 5331,
      "iat": 5332,
      "budi": 5333,
      "merekalah": 5334,
      "lurus": 5335,
      "warisan": 5336,
      "mengor": 5337,
      "mengum": 5338,
      "mengkufuri": 5339,
      "tegas": 5340,
      "kisedek": 5341,
      "jurang": 5342,
      "beribu": 5343,
      "Yehi": 5344,
      "kot": 5345,
      "koyak": 5346,
      "penya": 5347,
      "Kuda": 5348,
      "mengaum": 5349,
      "Merekalah": 5350,
      "Seba": 5351,
      "Kasih": 5352,
      "hancuran": 5353,
      "benang": 5354,
      "membajak": 5355,
      "Yok": 5356,
      "pakat": 5357,
      "meru": 5358,
      "belan": 5359,
      "menuliskan": 5360,
      "Kamulah": 5361,
      "Keada": 5362,
      "Kehi": 5363,
      "rot": 5364,
      "arilah": 5365,
      "pasangkan": 5366,
      "khaya": 5367,
      "menyusu": 5368,
      "Antara": 5369,
      "Bera": 5370,
      "Bersukacita": 5371,
      "Berusaha": 5372,
      "harganya": 5373,
      "Sukot": 5374,
      "tunggal": 5375,
      "menasihati": 5376,
      "mencapai": 5377,
      "memperingatkan": 5378,
      "haid": 5379,
      "Nazir": 5380,
      "Benih": 5381,
      "penyo": 5382,
      "gentar": 5383,
      "Bilangan": 5384,
      "tubuhnya": 5385,
      "harap": 5386,
      "sahabatku": 5387,
      "Henokh": 5388,
      "mundur": 5389,
      "gelora": 5390,
      "perjalanannya": 5391,
      "Rayakanlah": 5392,
      "bohong": 5393,
      "Pengem": 5394,
      "deru": 5395,
      "eros": 5396,
      "yapkan": 5397,
      "menyiram": 5398,
      "Pasti": 5399,
      "membanci": 5400,
      "Huram": 5401,
      "cambuk": 5402,
      "Patuhilah": 5403,
      "kecacatan": 5404,
      "Terpujilah": 5405,
      "Mikhael": 5406,
      "Asael": 5407,
      "pengampunan": 5408,
      "diberitahukan": 5409,
      "giring": 5410,
      "cincin": 5411,
      "dikirim": 5412,
      "Kemurkaan": 5413,
      "Melkisedek": 5414,
      "rajanya": 5415,
      "direjam": 5416,
      "Sanheri": 5417,
      "ikhlas": 5418,
      "Keluarga": 5419,
      "berunding": 5420,
      "berbisa": 5421,
      "mencederakan": 5422,
      "menggerakkan": 5423,
      "Kerajaan": 5424,
      "Heman": 5425,
      "Anatot": 5426,
      "bersandar": 5427,
      "Hezron": 5428,
      "Empat": 5429,
      "Rimon": 5430,
      "Yonadab": 5431,
      "Bersukacitalah": 5432,
      "Berusahalah": 5433,
      "Sanherib": 5434,
      "Ap": 5435,
      "Abin": 5436,
      "Ayahan": 5437,
      "Atau": 5438,
      "Ajaran": 5439,
      "Lo": 5440,
      "Lang": 5441,
      "Nanti": 5442,
      "Nim": 5443,
      "Sen": 5444,
      "Yair": 5445,
      "apan": 5446,
      "nantikan": 5447,
      "pondok": 5448,
      "ubat": 5449,
      "weros": 5450,
      "yot": 5451,
      "kagum": 5452,
      "dihan": 5453,
      "dibahagi": 5454,
      "dicur": 5455,
      "mendi": 5456,
      "menum": 5457,
      "menikam": 5458,
      "yam": 5459,
      "labuh": 5460,
      "berta": 5461,
      "bertembok": 5462,
      "bersahabat": 5463,
      "beradik": 5464,
      "berniat": 5465,
      "bermain": 5466,
      "inap": 5467,
      "inari": 5468,
      "kesengsa": 5469,
      "sedu": 5470,
      "sesudah": 5471,
      "sede": 5472,
      "sebesar": 5473,
      "seberapa": 5474,
      "sesungguhnya": 5475,
      "balas": 5476,
      "kuih": 5477,
      "peran": 5478,
      "permu": 5479,
      "perju": 5480,
      "perhamba": 5481,
      "radang": 5482,
      "busuk": 5483,
      "watan": 5484,
      "liba": 5485,
      "emukkan": 5486,
      "lelah": 5487,
      "letih": 5488,
      "terhu": 5489,
      "terkecil": 5490,
      "tergolong": 5491,
      "dul": 5492,
      "pisah": 5493,
      "ngeri": 5494,
      "betu": 5495,
      "mani": 5496,
      "mandul": 5497,
      "menjauhi": 5498,
      "mataku": 5499,
      "melen": 5500,
      "penunggang": 5501,
      "ikla": 5502,
      "mewah": 5503,
      "Seb": 5504,
      "Seti": 5505,
      "pelari": 5506,
      "Kaperna": 5507,
      "pengganti": 5508,
      "bangsawan": 5509,
      "Yope": 5510,
      "tuanmu": 5511,
      "kembang": 5512,
      "ambang": 5513,
      "tinggallah": 5514,
      "yaitan": 5515,
      "tikar": 5516,
      "rumahku": 5517,
      "terhadapmu": 5518,
      "menyedari": 5519,
      "pengikutnya": 5520,
      "Anan": 5521,
      "balian": 5522,
      "mengetahuinya": 5523,
      "Yael": 5524,
      "kenya": 5525,
      "berkali": 5526,
      "berkaitan": 5527,
      "Tubuh": 5528,
      "mengenali": 5529,
      "berdoalah": 5530,
      "Eliezer": 5531,
      "dihkan": 5532,
      "dihitung": 5533,
      "jawablah": 5534,
      "jawabnya": 5535,
      "mentaatinya": 5536,
      "dagangan": 5537,
      "jukkanlah": 5538,
      "Gunakanlah": 5539,
      "Raba": 5540,
      "Eliab": 5541,
      "pemuzik": 5542,
      "nasihatku": 5543,
      "menghilang": 5544,
      "Barak": 5545,
      "nafkah": 5546,
      "kejatuhan": 5547,
      "akibatnya": 5548,
      "hubungkan": 5549,
      "Ziba": 5550,
      "sengit": 5551,
      "Sampaikanlah": 5552,
      "merancangkan": 5553,
      "dijumpai": 5554,
      "menakluki": 5555,
      "Hadad": 5556,
      "Zeruya": 5557,
      "dihapuskan": 5558,
      "mengahwini": 5559,
      "salji": 5560,
      "indukan": 5561,
      "kesukaan": 5562,
      "bayangan": 5563,
      "Panggillah": 5564,
      "celaka": 5565,
      "Oholiba": 5566,
      "belanga": 5567,
      "Elyasib": 5568,
      "Libna": 5569,
      "Tunjukkanlah": 5570,
      "penyelamatku": 5571,
      "gemuruh": 5572,
      "kerabat": 5573,
      "Nyanyikanlah": 5574,
      "Tirza": 5575,
      "mengahwinkan": 5576,
      "Aroer": 5577,
      "Isyboset": 5578,
      "Yehiel": 5579,
      "Kehila": 5580,
      "Pengembalian": 5581,
      "Ayahanda": 5582,
      "kesengsaraan": 5583,
      "sedekah": 5584,
      "perhambaan": 5585,
      "Kapernaum": 5586,
      "66": 5587,
      "Aram": 5588,
      "Cahaya": 5589,
      "Fes": 5590,
      "Makan": 5591,
      "Mir": 5592,
      "Minta": 5593,
      "Of": 5594,
      "Yar": 5595,
      "Yis": 5596,
      "Zela": 5597,
      "iel": 5598,
      "je": 5599,
      "oak": 5600,
      "prus": 5601,
      "ring": 5602,
      "ulang": 5603,
      "ucapkan": 5604,
      "wia": 5605,
      "’.": 5606,
      "kapi": 5607,
      "kaji": 5608,
      "kabulkanlah": 5609,
      "dad": 5610,
      "dal": 5611,
      "diter": 5612,
      "dipu": 5613,
      "dihancurkan": 5614,
      "disukai": 5615,
      "dikeluarkan": 5616,
      "tutup": 5617,
      "tad": 5618,
      "lasilah": 5619,
      "bermu": 5620,
      "bertelinga": 5621,
      "kelahir": 5622,
      "kebolehan": 5623,
      "kehancuran": 5624,
      "seberat": 5625,
      "sepucuk": 5626,
      "gambar": 5627,
      "sampah": 5628,
      "bab": 5629,
      "baunya": 5630,
      "muri": 5631,
      "kuk": 5632,
      "sukan": 5633,
      "suar": 5634,
      "buyung": 5635,
      "lukannya": 5636,
      "lisihan": 5637,
      "terbesar": 5638,
      "terbelah": 5639,
      "terbaring": 5640,
      "duki": 5641,
      "bik": 5642,
      "tegur": 5643,
      "manna": 5644,
      "tangganya": 5645,
      "beril": 5646,
      "kotor": 5647,
      "bahlah": 5648,
      "domb": 5649,
      "Isytiharkan": 5650,
      "bangkan": 5651,
      "asak": 5652,
      "penat": 5653,
      "iks": 5654,
      "membong": 5655,
      "bankan": 5656,
      "lantai": 5657,
      "tingkan": 5658,
      "sentuh": 5659,
      "Bara": 5660,
      "Sambil": 5661,
      "bangsamu": 5662,
      "debar": 5663,
      "syen": 5664,
      "syweros": 5665,
      "merun": 5666,
      "Media": 5667,
      "indasan": 5668,
      "pemberon": 5669,
      "Siprus": 5670,
      "wila": 5671,
      "olokkan": 5672,
      "menyedihkan": 5673,
      "rahsiakan": 5674,
      "perbuatanku": 5675,
      "Lewia": 5676,
      "mengesahkan": 5677,
      "menyalibkan": 5678,
      "menghunus": 5679,
      "Mag": 5680,
      "tunggu": 5681,
      "menampar": 5682,
      "memperdaya": 5683,
      "mempermainkan": 5684,
      "milikmu": 5685,
      "cakapan": 5686,
      "seruanku": 5687,
      "mpuri": 5688,
      "Elisama": 5689,
      "Amram": 5690,
      "Ahasyweros": 5691,
      "pinggan": 5692,
      "tubuhmu": 5693,
      "rebah": 5694,
      "barangan": 5695,
      "diuji": 5696,
      "ternakannya": 5697,
      "lena": 5698,
      "kesusahanku": 5699,
      "ditipu": 5700,
      "memeras": 5701,
      "beritahukan": 5702,
      "pengawas": 5703,
      "jujuran": 5704,
      "jubahnya": 5705,
      "mementingkan": 5706,
      "menghiraukan": 5707,
      "menyangga": 5708,
      "Gosyen": 5709,
      "Hukuman": 5710,
      "Mazbah": 5711,
      "tunjukkanlah": 5712,
      "Zaitun": 5713,
      "purba": 5714,
      "perselisihan": 5715,
      "pengadilan": 5716,
      "khuatiran": 5717,
      "jijik": 5718,
      "Lima": 5719,
      "kekasihku": 5720,
      "membelok": 5721,
      "peralatan": 5722,
      "Angin": 5723,
      "dibandingkan": 5724,
      "pembancian": 5725,
      "tempayan": 5726,
      "Malkia": 5727,
      "ugerah": 5728,
      "membimbing": 5729,
      "Matahari": 5730,
      "Bondanya": 5731,
      "Cepatlah": 5732,
      "meminjamkan": 5733,
      "sepersepuluh": 5734,
      "Pakaian": 5735,
      "sipres": 5736,
      "Timna": 5737,
      "Tulislah": 5738,
      "ketidakadilan": 5739,
      "Semakin": 5740,
      "jemputan": 5741,
      "keselamatan": 5742,
      "menyetujui": 5743,
      "meninggikan": 5744,
      "baghal": 5745,
      "mengorbankan": 5746,
      "mengumpat": 5747,
      "Beragi": 5748,
      "Langit": 5749,
      "terhuyung": 5750,
      "melenyapkan": 5751,
      "Ananias": 5752,
      "kenyataan": 5753,
      "Festus": 5754,
      "Mintalah": 5755,
      "Isytiharkanlah": 5756,
      "pemberontakan": 5757,
      "Lewiatan": 5758,
      ".]": 5759,
      "32": 5760,
      "300": 5761,
      "Aya": 5762,
      "Bani": 5763,
      "Datang": 5764,
      "Darah": 5765,
      "Ju": 5766,
      "Min": 5767,
      "Tahukah": 5768,
      "Zikla": 5769,
      "cerita": 5770,
      "jungi": 5771,
      "syaitan": 5772,
      "wet": 5773,
      "yol": 5774,
      "zin": 5775,
      "diwaji": 5776,
      "dipelihara": 5777,
      "menumpu": 5778,
      "mentua": 5779,
      "bercahaya": 5780,
      "bernazar": 5781,
      "kesi": 5782,
      "kekaya": 5783,
      "kekhuatiran": 5784,
      "sei": 5785,
      "secepat": 5786,
      "yangkan": 5787,
      "batin": 5788,
      "muti": 5789,
      "mulanya": 5790,
      "kuku": 5791,
      "kuasanya": 5792,
      "hayang": 5793,
      "membezakan": 5794,
      "rasa": 5795,
      "rasanya": 5796,
      "orangnya": 5797,
      "iayaan": 5798,
      "lumpur": 5799,
      "nyawaku": 5800,
      "teru": 5801,
      "terlan": 5802,
      "terdahulu": 5803,
      "tertentu": 5804,
      "tertangkap": 5805,
      "ternak": 5806,
      "dutun": 5807,
      "bisu": 5808,
      "biskan": 5809,
      "bisul": 5810,
      "menggo": 5811,
      "menginjak": 5812,
      "mengangkut": 5813,
      "tekun": 5814,
      "rupanya": 5815,
      "anaim": 5816,
      "put": 5817,
      "ajarlah": 5818,
      "bet": 5819,
      "kerj": 5820,
      "menjalar": 5821,
      "Yedutun": 5822,
      "meleng": 5823,
      "melom": 5824,
      "himpun": 5825,
      "hidung": 5826,
      "penolong": 5827,
      "penindasan": 5828,
      "Kulakukan": 5829,
      "mengasingkan": 5830,
      "Sesudah": 5831,
      "Sepan": 5832,
      "sebarang": 5833,
      "serban": 5834,
      "janjinya": 5835,
      "membalut": 5836,
      "Saduki": 5837,
      "Yoahas": 5838,
      "negerimu": 5839,
      "merta": 5840,
      "meremukkan": 5841,
      "belenggu": 5842,
      "curang": 5843,
      "bolan": 5844,
      "menuangkan": 5845,
      "menuruti": 5846,
      "Mese": 5847,
      "Pergunungan": 5848,
      "alti": 5849,
      "keluargaku": 5850,
      "sanakannya": 5851,
      "masalah": 5852,
      "pembawa": 5853,
      "mengisi": 5854,
      "olos": 5855,
      "benarkanlah": 5856,
      "membunuhnya": 5857,
      "menyambar": 5858,
      "melacur": 5859,
      "percayalah": 5860,
      "Berjaga": 5861,
      "Berhala": 5862,
      "dahulunya": 5863,
      "abor": 5864,
      "jarinya": 5865,
      "lihlah": 5866,
      "kendi": 5867,
      "berkas": 5868,
      "lakah": 5869,
      "menghabiskan": 5870,
      "rakyatmu": 5871,
      "serupa": 5872,
      "wangnya": 5873,
      "beruang": 5874,
      "pelan": 5875,
      "ibuku": 5876,
      "darahnya": 5877,
      "Bilakah": 5878,
      "dibuatnya": 5879,
      "umput": 5880,
      "menyerahkannya": 5881,
      "celah": 5882,
      "diseksa": 5883,
      "Manoah": 5884,
      "membayarnya": 5885,
      "Zef": 5886,
      "derma": 5887,
      "memasak": 5888,
      "urutan": 5889,
      "Mikh": 5890,
      "buanglah": 5891,
      "menghidangkan": 5892,
      "telur": 5893,
      "Gog": 5894,
      "Barang": 5895,
      "Barzi": 5896,
      "Pagi": 5897,
      "permintaanmu": 5898,
      "kejayaan": 5899,
      "Nebat": 5900,
      "Elyakim": 5901,
      "terjaga": 5902,
      "kunci": 5903,
      "Jawab": 5904,
      "Zif": 5905,
      "gambus": 5906,
      "wajib": 5907,
      "Kenas": 5908,
      "Kumpulkanlah": 5909,
      "Horon": 5910,
      "penganiayaan": 5911,
      "Poti": 5912,
      "malahan": 5913,
      "Hatiku": 5914,
      "karib": 5915,
      "menyiapkan": 5916,
      "kesukaran": 5917,
      "Kish": 5918,
      "merenungkan": 5919,
      "wakil": 5920,
      "Kaum": 5921,
      "mustahak": 5922,
      "perkaraku": 5923,
      "Letakkan": 5924,
      "cemburu": 5925,
      "keriuhan": 5926,
      "memercikkan": 5927,
      "Hasabya": 5928,
      "Apolos": 5929,
      "betulan": 5930,
      "pelarian": 5931,
      "Miryam": 5932,
      "Ziklag": 5933,
      "diwajibkan": 5934,
      "kekayaannya": 5935,
      "terlantar": 5936,
      "melompat": 5937,
      "Sepanyol": 5938,
      "Barzilai": 5939,
      "700": 5940,
      "Ayah": 5941,
      "Adar": 5942,
      "Amar": 5943,
      "Ezer": 5944,
      "Gu": 5945,
      "Hin": 5946,
      "Meri": 5947,
      "Makanlah": 5948,
      "Mahli": 5949,
      "Ot": 5950,
      "Sya": 5951,
      "Wang": 5952,
      "Was": 5953,
      "arat": 5954,
      "adun": 5955,
      "alangkah": 5956,
      "fun": 5957,
      "gus": 5958,
      "hormatilah": 5959,
      "sya": 5960,
      "yo": 5961,
      "yun": 5962,
      "anugerah": 5963,
      "ahem": 5964,
      "kacau": 5965,
      "ditempat": 5966,
      "dilalui": 5967,
      "ditun": 5968,
      "diranc": 5969,
      "dibenci": 5970,
      "diangkut": 5971,
      "difahami": 5972,
      "dihubungkan": 5973,
      "tutan": 5974,
      "pasar": 5975,
      "parit": 5976,
      "menia": 5977,
      "menenga": 5978,
      "menjanjikan": 5979,
      "lati": 5980,
      "lazat": 5981,
      "bergi": 5982,
      "berbangsa": 5983,
      "berhutang": 5984,
      "bertelanjang": 5985,
      "bergelora": 5986,
      "kebang": 5987,
      "kesombongan": 5988,
      "lahi": 5989,
      "sebangsa": 5990,
      "setahun": 5991,
      "setuju": 5992,
      "sasta": 5993,
      "matang": 5994,
      "jarak": 5995,
      "hami": 5996,
      "perhatikan": 5997,
      "perjamuan": 5998,
      "suruhan": 5999,
      "tidaknya": 6000,
      "terla": 6001,
      "tertidur": 6002,
      "terpilih": 6003,
      "terperan": 6004,
      "bibir": 6005,
      "mengga": 6006,
      "mengintip": 6007,
      "mengganggu": 6008,
      "menggulingkan": 6009,
      "menginap": 6010,
      "tegak": 6011,
      "kis": 6012,
      "kijang": 6013,
      "pilu": 6014,
      "tahsasta": 6015,
      "bejana": 6016,
      "mandur": 6017,
      "keramat": 6018,
      "iringan": 6019,
      "unggu": 6020,
      "Yefun": 6021,
      "daripadamu": 6022,
      "nari": 6023,
      "nasib": 6024,
      "doanya": 6025,
      "pentad": 6026,
      "Kuat": 6027,
      "Kupilih": 6028,
      "membung": 6029,
      "Sebahagian": 6030,
      "Mus": 6031,
      "mpahkan": 6032,
      "ranting": 6033,
      "bilau": 6034,
      "tena": 6035,
      "datangnya": 6036,
      "bencian": 6037,
      "pengkhianat": 6038,
      "Sampaikan": 6039,
      "isinya": 6040,
      "istiada": 6041,
      "merindukan": 6042,
      "rkanlah": 6043,
      "belerang": 6044,
      "cuma": 6045,
      "menumpang": 6046,
      "eto": 6047,
      "Kejahatan": 6048,
      "guntur": 6049,
      "pembela": 6050,
      "Siang": 6051,
      "terhadapnya": 6052,
      "menyerbu": 6053,
      "rahim": 6054,
      "pinja": 6055,
      "Andre": 6056,
      "burin": 6057,
      "keturunanku": 6058,
      "tibalah": 6059,
      "pendudukmu": 6060,
      "niel": 6061,
      "Hagai": 6062,
      "emasan": 6063,
      "memujuk": 6064,
      "jarlah": 6065,
      "pernahkah": 6066,
      "sucikan": 6067,
      "tanami": 6068,
      "menghasut": 6069,
      "menyebarkan": 6070,
      "mengenda": 6071,
      "mintalah": 6072,
      "temboknya": 6073,
      "merayu": 6074,
      "dibatalkan": 6075,
      "menunaikan": 6076,
      "ibumu": 6077,
      "Puluh": 6078,
      "diperbaiki": 6079,
      "tamburin": 6080,
      "diubah": 6081,
      "mengirimkan": 6082,
      "Abiram": 6083,
      "Heber": 6084,
      "gelung": 6085,
      "bakarlah": 6086,
      "beratnya": 6087,
      "dijarah": 6088,
      "dijatuhi": 6089,
      "Peor": 6090,
      "Geba": 6091,
      "Menahem": 6092,
      "dahsyatnya": 6093,
      "Padahal": 6094,
      "Artahsasta": 6095,
      "saatnya": 6096,
      "Nebo": 6097,
      "tongkatnya": 6098,
      "gulung": 6099,
      "patahkan": 6100,
      "lepaskan": 6101,
      "melaksanakannya": 6102,
      "jumlahnya": 6103,
      "berkobar": 6104,
      "pinggangnya": 6105,
      "Boz": 6106,
      "bertunas": 6107,
      "pahat": 6108,
      "mengeringkan": 6109,
      "Rambut": 6110,
      "disaluti": 6111,
      "Arauna": 6112,
      "Yehoahas": 6113,
      "menyingsing": 6114,
      "sebidang": 6115,
      "sayangku": 6116,
      "pembantu": 6117,
      "rajin": 6118,
      "halal": 6119,
      "engking": 6120,
      "meminumnya": 6121,
      "lereng": 6122,
      "kesempatan": 6123,
      "sorai": 6124,
      "dijemput": 6125,
      "penghuni": 6126,
      "Yozabad": 6127,
      "Ampunkanlah": 6128,
      "bercucuk": 6129,
      "Eglon": 6130,
      "Husai": 6131,
      "Serahkanlah": 6132,
      "lapangan": 6133,
      "membangunkan": 6134,
      "Gadis": 6135,
      "bersemayam": 6136,
      "ramalan": 6137,
      "menyusui": 6138,
      "permukaan": 6139,
      "Zelaf": 6140,
      "diterkam": 6141,
      "menumpukan": 6142,
      "Amarya": 6143,
      "Meriba": 6144,
      "adunan": 6145,
      "menengadah": 6146,
      "kebangkitan": 6147,
      "terperanjat": 6148,
      "Yefune": 6149,
      "istiadat": 6150,
      "Andreas": 6151,
      "15": 6152,
      "70": 6153,
      "Ari": 6154,
      "Aki": 6155,
      "Agri": 6156,
      "Datan": 6157,
      "Fel": 6158,
      "Jadi": 6159,
      "Kre": 6160,
      "Lindungi": 6161,
      "Lembu": 6162,
      "Mil": 6163,
      "Mahukah": 6164,
      "Ni": 6165,
      "Nekh": 6166,
      "Neto": 6167,
      "Panjang": 6168,
      "Takh": 6169,
      "ainya": 6170,
      "acam": 6171,
      "bora": 6172,
      "dron": 6173,
      "eh": 6174,
      "geng": 6175,
      "jin": 6176,
      "mburkan": 6177,
      "no": 6178,
      "ny": 6179,
      "neli": 6180,
      "ringan": 6181,
      "uel": 6182,
      "utan": 6183,
      "yhur": 6184,
      "”,": 6185,
      "dim": 6186,
      "dipe": 6187,
      "ditaati": 6188,
      "diduduki": 6189,
      "ditakuti": 6190,
      "dilindungi": 6191,
      "disucikan": 6192,
      "menda": 6193,
      "tipis": 6194,
      "taruh": 6195,
      "laju": 6196,
      "lalat": 6197,
      "berinya": 6198,
      "berpengalaman": 6199,
      "berarak": 6200,
      "keha": 6201,
      "ketidu": 6202,
      "sepi": 6203,
      "selagi": 6204,
      "sekiranya": 6205,
      "itub": 6206,
      "kurus": 6207,
      "kukur": 6208,
      "kutukan": 6209,
      "haus": 6210,
      "hayat": 6211,
      "perbeza": 6212,
      "memun": 6213,
      "mempercayakan": 6214,
      "racun": 6215,
      "subuh": 6216,
      "elok": 6217,
      "buhi": 6218,
      "gili": 6219,
      "gilan": 6220,
      "warkan": 6221,
      "tidakkah": 6222,
      "nyaring": 6223,
      "lim": 6224,
      "terbahagi": 6225,
      "terkena": 6226,
      "terbukti": 6227,
      "tertipu": 6228,
      "tersebut": 6229,
      "duta": 6230,
      "dukacita": 6231,
      "menghidupkan": 6232,
      "mengguntur": 6233,
      "tekukur": 6234,
      "tania": 6235,
      "taneel": 6236,
      "puing": 6237,
      "simba": 6238,
      "sibuk": 6239,
      "miel": 6240,
      "arwah": 6241,
      "menyeli": 6242,
      "menyunat": 6243,
      "menyinari": 6244,
      "Yedaya": 6245,
      "Yeiel": 6246,
      "nai": 6247,
      "jiwaku": 6248,
      "huru": 6249,
      "pendiri": 6250,
      "Kujadikan": 6251,
      "mengadu": 6252,
      "mengamuk": 6253,
      "meel": 6254,
      "mesyu": 6255,
      "mewaki": 6256,
      "dapatkah": 6257,
      "Sefa": 6258,
      "semacam": 6259,
      "mpahan": 6260,
      "banyakan": 6261,
      "onoh": 6262,
      "petani": 6263,
      "pandanglah": 6264,
      "Kalau": 6265,
      "Kambing": 6266,
      "senonoh": 6267,
      "hantu": 6268,
      "membac": 6269,
      "membasahi": 6270,
      "baiklah": 6271,
      "dengarkan": 6272,
      "pakatan": 6273,
      "sembahlah": 6274,
      "kemah": 6275,
      "kemahu": 6276,
      "sekam": 6277,
      "sendirilah": 6278,
      "menukar": 6279,
      "saudagar": 6280,
      "Perkhabaran": 6281,
      "Perlakukanlah": 6282,
      "lelakimu": 6283,
      "terhadapku": 6284,
      "Diberkatilah": 6285,
      "ikutlah": 6286,
      "menyeksa": 6287,
      "bolehkah": 6288,
      "bahagianya": 6289,
      "teriakan": 6290,
      "khab": 6291,
      "polis": 6292,
      "hadapanku": 6293,
      "Bersiaplah": 6294,
      "mengambilnya": 6295,
      "Yafet": 6296,
      "Hara": 6297,
      "Habel": 6298,
      "menangisi": 6299,
      "liaran": 6300,
      "rakh": 6301,
      "doamu": 6302,
      "ingati": 6303,
      "Betania": 6304,
      "menafi": 6305,
      "menawarkan": 6306,
      "memperkuat": 6307,
      "berkawal": 6308,
      "peratus": 6309,
      "taim": 6310,
      "sungutan": 6311,
      "pulanglah": 6312,
      "Tukang": 6313,
      "menimpakan": 6314,
      "puaknya": 6315,
      "menghadapkan": 6316,
      "Elifas": 6317,
      "pelana": 6318,
      "pelangga": 6319,
      "dibayar": 6320,
      "akala": 6321,
      "jauhkanlah": 6322,
      "Putera": 6323,
      "tarbalikkan": 6324,
      "dihiasi": 6325,
      "tubuhku": 6326,
      "kawal": 6327,
      "tunduk": 6328,
      "berseketidu": 6329,
      "pangkal": 6330,
      "kelon": 6331,
      "gelagah": 6332,
      "Hefer": 6333,
      "pedangnya": 6334,
      "dipijak": 6335,
      "Elisabet": 6336,
      "Reho": 6337,
      "Rekhab": 6338,
      "sembunyikan": 6339,
      "Rasul": 6340,
      "tempuh": 6341,
      "angkuh": 6342,
      "Berikut": 6343,
      "Penglihatan": 6344,
      "terimalah": 6345,
      "Pedang": 6346,
      "Gezer": 6347,
      "Gesur": 6348,
      "halamannya": 6349,
      "Debora": 6350,
      "Korneli": 6351,
      "Pasyhur": 6352,
      "berdamai": 6353,
      "menyangkal": 6354,
      "menemuinya": 6355,
      "Askelon": 6356,
      "dituai": 6357,
      "hembusan": 6358,
      "Netaneel": 6359,
      "nyanyilah": 6360,
      "persetujuan": 6361,
      "dicatat": 6362,
      "Jawapan": 6363,
      "pasanglah": 6364,
      "lemaknya": 6365,
      "Tomas": 6366,
      "Mungkinkah": 6367,
      "berkeliaran": 6368,
      "Yizhar": 6369,
      "Agag": 6370,
      "dicampuri": 6371,
      "Enak": 6372,
      "kecemasan": 6373,
      "Teman": 6374,
      "dibantu": 6375,
      "pelindungku": 6376,
      "menyiasat": 6377,
      "terjun": 6378,
      "Panglima": 6379,
      "urusan": 6380,
      "Mahanaim": 6381,
      "Lagipun": 6382,
      "berlawanan": 6383,
      "melancarkan": 6384,
      "melanjutkan": 6385,
      "penjuru": 6386,
      "Jauhkanlah": 6387,
      "demam": 6388,
      "sabaran": 6389,
      "penyodok": 6390,
      "Abinadab": 6391,
      "dombanya": 6392,
      "Datanglah": 6393,
      "Potifar": 6394,
      "Hinom": 6395,
      "Otniel": 6396,
      "pinjaman": 6397,
      "Akibat": 6398,
      "Agripa": 6399,
      "Feliks": 6400,
      "Lindungilah": 6401,
      "Nekho": 6402,
      "Netofa": 6403,
      "Takhta": 6404,
      "genggam": 6405,
      "kehausan": 6406,
      "simbal": 6407,
      "mesyuarat": 6408,
      "mewakili": 6409,
      "Sefaca": 6410,
      "pelanggaran": 6411,
      "berseketiduran": 6412,
      "Kornelius": 6413,
      "80": 6414,
      "Akhaya": 6415,
      "Bina": 6416,
      "Dis": 6417,
      "Eber": 6418,
      "Esy": 6419,
      "Ikat": 6420,
      "Keg": 6421,
      "Maut": 6422,
      "Nahas": 6423,
      "Tabor": 6424,
      "Zora": 6425,
      "Zikh": 6426,
      "aju": 6427,
      "bor": 6428,
      "drakh": 6429,
      "eb": 6430,
      "gemi": 6431,
      "peli": 6432,
      "reka": 6433,
      "smi": 6434,
      "wu": 6435,
      "yhu": 6436,
      "’?": 6437,
      "kasau": 6438,
      "datuk": 6439,
      "dalena": 6440,
      "dicu": 6441,
      "diminta": 6442,
      "diminum": 6443,
      "diganti": 6444,
      "diajar": 6445,
      "dicuri": 6446,
      "dirantai": 6447,
      "digali": 6448,
      "dimasak": 6449,
      "dipahat": 6450,
      "tumpu": 6451,
      "tir": 6452,
      "tiru": 6453,
      "tarkan": 6454,
      "tarlah": 6455,
      "yatan": 6456,
      "berangan": 6457,
      "berbatu": 6458,
      "berpenyakit": 6459,
      "berkeras": 6460,
      "bersenjata": 6461,
      "berpeluang": 6462,
      "berkekurangan": 6463,
      "berniaga": 6464,
      "kesebelas": 6465,
      "kejujuran": 6466,
      "kebencian": 6467,
      "seketika": 6468,
      "segar": 6469,
      "sejumlah": 6470,
      "sepotong": 6471,
      "yangi": 6472,
      "gading": 6473,
      "gagak": 6474,
      "balat": 6475,
      "kup": 6476,
      "kubunya": 6477,
      "has": 6478,
      "hawa": 6479,
      "perlakukan": 6480,
      "percakapan": 6481,
      "mempercayai": 6482,
      "ramah": 6483,
      "bulir": 6484,
      "waris": 6485,
      "terangan": 6486,
      "terik": 6487,
      "terdekat": 6488,
      "terkandung": 6489,
      "biak": 6490,
      "bidan": 6491,
      "menghargai": 6492,
      "ingkari": 6493,
      "dahannya": 6494,
      "koa": 6495,
      "penyi": 6496,
      "penindas": 6497,
      "melam": 6498,
      "mekh": 6499,
      "Sekiranya": 6500,
      "sempat": 6501,
      "mpannya": 6502,
      "Tekoa": 6503,
      "akiman": 6504,
      "Baana": 6505,
      "Sajak": 6506,
      "sembahyang": 6507,
      "merana": 6508,
      "kemara": 6509,
      "mampu": 6510,
      "cup": 6511,
      "Kedar": 6512,
      "Kedes": 6513,
      "satukan": 6514,
      "pemba": 6515,
      "pemburu": 6516,
      "sarung": 6517,
      "menyerupa": 6518,
      "wibawa": 6519,
      "sampaikanlah": 6520,
      "Lama": 6521,
      "Ladang": 6522,
      "Lamekh": 6523,
      "karya": 6524,
      "gerom": 6525,
      "memikat": 6526,
      "Bernyanyilah": 6527,
      "nilai": 6528,
      "bukannya": 6529,
      "Yaezer": 6530,
      "Selomi": 6531,
      "menghitung": 6532,
      "menghembu": 6533,
      "Hazar": 6534,
      "mendapatnya": 6535,
      "emaskan": 6536,
      "diberikannya": 6537,
      "Masuk": 6538,
      "Beer": 6539,
      "mempertaruh": 6540,
      "taian": 6541,
      "topi": 6542,
      "Bukalah": 6543,
      "patilah": 6544,
      "dibawanya": 6545,
      "taatlah": 6546,
      "Gaal": 6547,
      "Pul": 6548,
      "Puteri": 6549,
      "tugasnya": 6550,
      "izin": 6551,
      "kakiku": 6552,
      "taatilah": 6553,
      "jatuhkan": 6554,
      "baptisan": 6555,
      "sebelumnya": 6556,
      "kematiannya": 6557,
      "khemahnya": 6558,
      "Abihu": 6559,
      "jahit": 6560,
      "memanah": 6561,
      "saksikan": 6562,
      "cubai": 6563,
      "Penggoda": 6564,
      "mpanan": 6565,
      "kulitnya": 6566,
      "memasangkan": 6567,
      "Peda": 6568,
      "dahsyatan": 6569,
      "kakak": 6570,
      "Dewan": 6571,
      "Simea": 6572,
      "Pilihlah": 6573,
      "Hujan": 6574,
      "umurnya": 6575,
      "menemukan": 6576,
      "eritakanlah": 6577,
      "Padang": 6578,
      "temurun": 6579,
      "hambaku": 6580,
      "Syur": 6581,
      "menyembelihnya": 6582,
      "meluaskan": 6583,
      "meludahi": 6584,
      "Hanun": 6585,
      "bakung": 6586,
      "berkokok": 6587,
      "menetapkan": 6588,
      "Zipor": 6589,
      "berpecah": 6590,
      "berkelakuan": 6591,
      "Aminadab": 6592,
      "Kidron": 6593,
      "Libia": 6594,
      "bergaul": 6595,
      "disambut": 6596,
      "ditebang": 6597,
      "ditebus": 6598,
      "telapak": 6599,
      "Persembahan": 6600,
      "Markus": 6601,
      "Seranglah": 6602,
      "ehad": 6603,
      "lengannya": 6604,
      "penipu": 6605,
      "direbut": 6606,
      "berundur": 6607,
      "mengunjungi": 6608,
      "Hukumlah": 6609,
      "Ahitub": 6610,
      "Bapanya": 6611,
      "pemandu": 6612,
      "dipindahkan": 6613,
      "disebabkan": 6614,
      "selimut": 6615,
      "belantan": 6616,
      "dicurahkan": 6617,
      "Makanan": 6618,
      "berilmu": 6619,
      "Barabas": 6620,
      "meruntuhkan": 6621,
      "Magdalena": 6622,
      "mutiara": 6623,
      "altiel": 6624,
      "Mikhmas": 6625,
      "Zelafehad": 6626,
      "Kreta": 6627,
      "Niko": 6628,
      "kemahiran": 6629,
      "Akibatnya": 6630,
      "Zikhri": 6631,
      "gemilang": 6632,
      "penyimpanan": 6633,
      "kemarau": 6634,
      "menyerupai": 6635,
      "gerombolan": 6636,
      "menghembuskan": 6637,
      "mempertaruhkan": 6638,
      "14": 6639,
      "24": 6640,
      "250": 6641,
      "35": 6642,
      "Af": 6643,
      "Akan": 6644,
      "Abed": 6645,
      "Er": 6646,
      "Gem": 6647,
      "Jaga": 6648,
      "Jahat": 6649,
      "Manak": 6650,
      "Mis": 6651,
      "Mam": 6652,
      "Molo": 6653,
      "Seri": 6654,
      "Sis": 6655,
      "Tar": 6656,
      "Tal": 6657,
      "Yas": 6658,
      "Yai": 6659,
      "awa": 6660,
      "adakan": 6661,
      "dela": 6662,
      "ehan": 6663,
      "eus": 6664,
      "ftar": 6665,
      "gakkan": 6666,
      "iki": 6667,
      "kakan": 6668,
      "kemis": 6669,
      "oam": 6670,
      "rindu": 6671,
      "sakh": 6672,
      "sunat": 6673,
      "yuh": 6674,
      "eret": 6675,
      "enai": 6676,
      "daftar": 6677,
      "dipak": 6678,
      "dikuat": 6679,
      "didatangkan": 6680,
      "ditambah": 6681,
      "dibuka": 6682,
      "dibentuk": 6683,
      "difikirkan": 6684,
      "dirahsiakan": 6685,
      "dilepaskan": 6686,
      "tuel": 6687,
      "menoleh": 6688,
      "mendiami": 6689,
      "mendaftarkan": 6690,
      "layar": 6691,
      "berbin": 6692,
      "berbunyi": 6693,
      "berfaedah": 6694,
      "berbeza": 6695,
      "berkuku": 6696,
      "berhimpun": 6697,
      "intus": 6698,
      "insaf": 6699,
      "kesu": 6700,
      "kesen": 6701,
      "kelaku": 6702,
      "kepah": 6703,
      "ketahuilah": 6704,
      "kebangga": 6705,
      "kebanyakan": 6706,
      "kesabaran": 6707,
      "kedahsyatan": 6708,
      "sebenar": 6709,
      "sepasang": 6710,
      "seketul": 6711,
      "garis": 6712,
      "salon": 6713,
      "sabit": 6714,
      "bati": 6715,
      "baskan": 6716,
      "basah": 6717,
      "muji": 6718,
      "muliakan": 6719,
      "peru": 6720,
      "perdagangan": 6721,
      "memarah": 6722,
      "buruh": 6723,
      "gikan": 6724,
      "gido": 6725,
      "licik": 6726,
      "terpen": 6727,
      "tergantung": 6728,
      "tersedia": 6729,
      "tergoda": 6730,
      "tertutup": 6731,
      "mengingini": 6732,
      "tepatilah": 6733,
      "kil": 6734,
      "kisi": 6735,
      "tuklah": 6736,
      "untuknya": 6737,
      "punya": 6738,
      "menyelu": 6739,
      "iring": 6740,
      "laluinya": 6741,
      "baharu": 6742,
      "naungan": 6743,
      "dol": 6744,
      "doni": 6745,
      "hiso": 6746,
      "Iskari": 6747,
      "hulu": 6748,
      "asli": 6749,
      "ikah": 6750,
      "mes": 6751,
      "Sedi": 6752,
      "Sebuah": 6753,
      "Seekor": 6754,
      "Tepat": 6755,
      "pesuruh": 6756,
      "pepatah": 6757,
      "pandang": 6758,
      "pantas": 6759,
      "Kali": 6760,
      "serangga": 6761,
      "mpaan": 6762,
      "ais": 6763,
      "membaiki": 6764,
      "pengem": 6765,
      "Sadrakh": 6766,
      "selamanya": 6767,
      "nego": 6768,
      "Yoah": 6769,
      "deus": 6770,
      "buahmu": 6771,
      "merasai": 6772,
      "kemangkatan": 6773,
      "tinggalkanlah": 6774,
      "Yerah": 6775,
      "boto": 6776,
      "menusuk": 6777,
      "stiwa": 6778,
      "lelehan": 6779,
      "Mesakh": 6780,
      "Megido": 6781,
      "dosamu": 6782,
      "Kepa": 6783,
      "Kesusahan": 6784,
      "Kebetulan": 6785,
      "guran": 6786,
      "pembuat": 6787,
      "perintahnya": 6788,
      "sahabatan": 6789,
      "Dibon": 6790,
      "namamu": 6791,
      "menyukai": 6792,
      "Beria": 6793,
      "nilam": 6794,
      "taklu": 6795,
      "membuatnya": 6796,
      "kalung": 6797,
      "Malam": 6798,
      "Beor": 6799,
      "takutlah": 6800,
      "jangka": 6801,
      "menyembahnya": 6802,
      "lintang": 6803,
      "mengenyangkan": 6804,
      "menimba": 6805,
      "seruling": 6806,
      "uplah": 6807,
      "meraba": 6808,
      "larilah": 6809,
      "terusnya": 6810,
      "pengukur": 6811,
      "penguburan": 6812,
      "bersulam": 6813,
      "Efron": 6814,
      "begitulah": 6815,
      "turunkan": 6816,
      "diumumkan": 6817,
      "jendela": 6818,
      "lihatkan": 6819,
      "buktikan": 6820,
      "tidurnya": 6821,
      "najiskan": 6822,
      "dipisahkan": 6823,
      "ditimbang": 6824,
      "memerlukannya": 6825,
      "mukaku": 6826,
      "kesalahannya": 6827,
      "kesalahanku": 6828,
      "pelajari": 6829,
      "menangislah": 6830,
      "mbutlah": 6831,
      "penyakitnya": 6832,
      "pastikanlah": 6833,
      "ekhya": 6834,
      "gega": 6835,
      "Harim": 6836,
      "imannya": 6837,
      "Dedan": 6838,
      "Debir": 6839,
      "Korintus": 6840,
      "kekalahan": 6841,
      "dikejar": 6842,
      "kekuasaannya": 6843,
      "Gerar": 6844,
      "gol": 6845,
      "menyeberanginya": 6846,
      "temuan": 6847,
      "berpuas": 6848,
      "Tanpa": 6849,
      "jenazahnya": 6850,
      "bingung": 6851,
      "Akhsa": 6852,
      "Syela": 6853,
      "singgah": 6854,
      "carang": 6855,
      "jirannya": 6856,
      "melukai": 6857,
      "dicerai": 6858,
      "sayapnya": 6859,
      "Tola": 6860,
      "bakti": 6861,
      "goncangkan": 6862,
      "berkelahi": 6863,
      "alasnya": 6864,
      "daunnya": 6865,
      "kawannya": 6866,
      "nazarnya": 6867,
      "Keni": 6868,
      "mencelikkan": 6869,
      "ditegur": 6870,
      "kecantikan": 6871,
      "menyusun": 6872,
      "ketamakan": 6873,
      "kelopak": 6874,
      "Anggota": 6875,
      "Zoba": 6876,
      "Peristiwa": 6877,
      "ampunilah": 6878,
      "lehernya": 6879,
      "Sanbalat": 6880,
      "mendakwa": 6881,
      "Bonda": 6882,
      "Kekasih": 6883,
      "Bilha": 6884,
      "mustahil": 6885,
      "Paran": 6886,
      "dihidangkan": 6887,
      "soalkan": 6888,
      "Rehuel": 6889,
      "pemabuk": 6890,
      "dikerat": 6891,
      "dilemparkan": 6892,
      "jasmani": 6893,
      "merugikan": 6894,
      "perjumpaan": 6895,
      "suaranya": 6896,
      "membongkar": 6897,
      "Jawablah": 6898,
      "Wasti": 6899,
      "terlatih": 6900,
      "Kuatkanlah": 6901,
      "membungkus": 6902,
      "perbezaan": 6903,
      "giliran": 6904,
      "kemahuan": 6905,
      "wujud": 6906,
      "Selomit": 6907,
      "Masuklah": 6908,
      "Abednego": 6909,
      "Jagalah": 6910,
      "Mamre": 6911,
      "Molokh": 6912,
      "Yairus": 6913,
      "berbincang": 6914,
      "kesenangan": 6915,
      "memarahi": 6916,
      "hisop": 6917,
      "Iskariot": 6918,
      "botol": 6919,
      "27": 6920,
      "75": 6921,
      "800": 6922,
      "Aka": 6923,
      "Adi": 6924,
      "Abel": 6925,
      "Alek": 6926,
      "Adoni": 6927,
      "Bak": 6928,
      "Biarkan": 6929,
      "Carilah": 6930,
      "Dor": 6931,
      "Dina": 6932,
      "Etan": 6933,
      "Emas": 6934,
      "Enam": 6935,
      "Gan": 6936,
      "Gera": 6937,
      "Gurun": 6938,
      "Ido": 6939,
      "Imer": 6940,
      "Jan": 6941,
      "Pis": 6942,
      "Ran": 6943,
      "Sun": 6944,
      "Terah": 6945,
      "Teluk": 6946,
      "Tunggu": 6947,
      "Yah": 6948,
      "Yib": 6949,
      "Zu": 6950,
      "Zin": 6951,
      "agak": 6952,
      "ceka": 6953,
      "mbun": 6954,
      "pkanlah": 6955,
      "pangkat": 6956,
      "skanlah": 6957,
      "tsa": 6958,
      "ui": 6959,
      "yinya": 6960,
      "anjut": 6961,
      "ahnya": 6962,
      "enyak": 6963,
      "karang": 6964,
      "kainya": 6965,
      "kacang": 6966,
      "dayang": 6967,
      "emya": 6968,
      "emahkan": 6969,
      "dihadap": 6970,
      "ditinggi": 6971,
      "dibunyikan": 6972,
      "ditolak": 6973,
      "diingini": 6974,
      "dipercayakan": 6975,
      "ditanami": 6976,
      "dipatahkan": 6977,
      "dikawal": 6978,
      "ditaklu": 6979,
      "tuki": 6980,
      "papa": 6981,
      "menatap": 6982,
      "tampi": 6983,
      "yaannya": 6984,
      "larang": 6985,
      "bersaudara": 6986,
      "berair": 6987,
      "bertun": 6988,
      "bertakhta": 6989,
      "berbunga": 6990,
      "berpengetahuan": 6991,
      "berbaris": 6992,
      "kedu": 6993,
      "ketentera": 6994,
      "kesuci": 6995,
      "keangku": 6996,
      "keperkasa": 6997,
      "segi": 6998,
      "setidak": 6999,
      "sehati": 7000,
      "seutas": 7001,
      "mawet": 7002,
      "muatan": 7003,
      "kubah": 7004,
      "persahabatan": 7005,
      "pertemuan": 7006,
      "memada": 7007,
      "memungkin": 7008,
      "membesarkan": 7009,
      "memberinya": 7010,
      "sudi": 7011,
      "surut": 7012,
      "luran": 7013,
      "lucah": 7014,
      "akui": 7015,
      "akuan": 7016,
      "akulah": 7017,
      "wali": 7018,
      "terde": 7019,
      "terjatuh": 7020,
      "terperangkap": 7021,
      "terbiar": 7022,
      "duan": 7023,
      "menggi": 7024,
      "mengingati": 7025,
      "rukun": 7026,
      "kisa": 7027,
      "pusat": 7028,
      "pucat": 7029,
      "bedeus": 7030,
      "manakala": 7031,
      "arang": 7032,
      "diadakan": 7033,
      "Yeus": 7034,
      "adai": 7035,
      "kol": 7036,
      "komplot": 7037,
      "jiri": 7038,
      "dirilah": 7039,
      "megah": 7040,
      "campur": 7041,
      "Set": 7042,
      "Selah": 7043,
      "Sekh": 7044,
      "Musi": 7045,
      "teman": 7046,
      "Tesalon": 7047,
      "mbai": 7048,
      "peladang": 7049,
      "pedih": 7050,
      "lantik": 7051,
      "serang": 7052,
      "serah": 7053,
      "seram": 7054,
      "seranglah": 7055,
      "lainnya": 7056,
      "membasmi": 7057,
      "penghinaan": 7058,
      "elayan": 7059,
      "mengutuki": 7060,
      "likia": 7061,
      "Keadilan": 7062,
      "Kebijaksanaan": 7063,
      "keluarlah": 7064,
      "sanakanlah": 7065,
      "masam": 7066,
      "butakan": 7067,
      "perintahku": 7068,
      "Sib": 7069,
      "teratur": 7070,
      "sardis": 7071,
      "gane": 7072,
      "ahut": 7073,
      "pinjam": 7074,
      "bungi": 7075,
      "Lepas": 7076,
      "mengecam": 7077,
      "mengekhaskan": 7078,
      "menyamar": 7079,
      "menyaluti": 7080,
      "Berjanji": 7081,
      "Bertaubat": 7082,
      "Berekhya": 7083,
      "bukankah": 7084,
      "zalim": 7085,
      "menyuruhnya": 7086,
      "Selemya": 7087,
      "memutarbalikkan": 7088,
      "Malah": 7089,
      "Betuel": 7090,
      "memperhamba": 7091,
      "lihkanlah": 7092,
      "kenama": 7093,
      "angkatlah": 7094,
      "tengahnya": 7095,
      "kurma": 7096,
      "menghamburkan": 7097,
      "linan": 7098,
      "Buah": 7099,
      "Tubal": 7100,
      "tanganku": 7101,
      "menilai": 7102,
      "som": 7103,
      "Fikiran": 7104,
      "menolongnya": 7105,
      "Eliel": 7106,
      "bawahnya": 7107,
      "jauhkan": 7108,
      "peribahasa": 7109,
      "reb": 7110,
      "reput": 7111,
      "Siapkanlah": 7112,
      "baranganmu": 7113,
      "tuntutan": 7114,
      "panggilan": 7115,
      "Abiezer": 7116,
      "selebar": 7117,
      "pengawasan": 7118,
      "nea": 7119,
      "letaknya": 7120,
      "Zebedeus": 7121,
      "siapkan": 7122,
      "Wain": 7123,
      "kekuatannya": 7124,
      "Menara": 7125,
      "dukung": 7126,
      "menyambutnya": 7127,
      "mayatnya": 7128,
      "berusahalah": 7129,
      "Yeroham": 7130,
      "dikecewakan": 7131,
      "membanting": 7132,
      "ilahi": 7133,
      "indahnya": 7134,
      "Barnea": 7135,
      "Mig": 7136,
      "Penduduknya": 7137,
      "merahsiakan": 7138,
      "Pasukan": 7139,
      "Gersom": 7140,
      "kelihatannya": 7141,
      "wargane": 7142,
      "goyang": 7143,
      "hujungnya": 7144,
      "suamiku": 7145,
      "Elyo": 7146,
      "Syo": 7147,
      "penutupnya": 7148,
      "kuncup": 7149,
      "badanku": 7150,
      "menandatang": 7151,
      "menandakan": 7152,
      "meluas": 7153,
      "Hanani": 7154,
      "ditarik": 7155,
      "Bintang": 7156,
      "Beginilah": 7157,
      "bebani": 7158,
      "tombaknya": 7159,
      "bebaskanlah": 7160,
      "menampung": 7161,
      "mengerang": 7162,
      "cabangnya": 7163,
      "menimbun": 7164,
      "Belsya": 7165,
      "Beltsa": 7166,
      "sudutnya": 7167,
      "Kilikia": 7168,
      "Ribla": 7169,
      "merataplah": 7170,
      "asalnya": 7171,
      "dicabut": 7172,
      "Pemilik": 7173,
      "Kemati": 7174,
      "dipanggang": 7175,
      "tafsirannya": 7176,
      "Sungguhpun": 7177,
      "Abiam": 7178,
      "Kemuliaan": 7179,
      "pengusungnya": 7180,
      "dimulakan": 7181,
      "penipuan": 7182,
      "Tangkap": 7183,
      "tempaan": 7184,
      "Hamor": 7185,
      "Keldai": 7186,
      "Cuba": 7187,
      "Cukup": 7188,
      "Kekayaan": 7189,
      "perkaranya": 7190,
      "kesembuhan": 7191,
      "menyoal": 7192,
      "Komandan": 7193,
      "Akhan": 7194,
      "Makhluk": 7195,
      "Pengawal": 7196,
      "kemasyhu": 7197,
      "nanah": 7198,
      "jerih": 7199,
      "permohonanku": 7200,
      "mencelupkan": 7201,
      "Adulam": 7202,
      "penyayang": 7203,
      "Keadaannya": 7204,
      "Pastikanlah": 7205,
      "Sebna": 7206,
      "bermusuhan": 7207,
      "Ayalon": 7208,
      "seiras": 7209,
      "menggotong": 7210,
      "kerjanya": 7211,
      "melengkapi": 7212,
      "Zefanya": 7213,
      "nyenyak": 7214,
      "pendirian": 7215,
      "Rehob": 7216,
      "Binalah": 7217,
      "Gembala": 7218,
      "Sisak": 7219,
      "dipakainya": 7220,
      "Kepala": 7221,
      "Aleksan": 7222,
      "Sunem": 7223,
      "tampil": 7224,
      "bertunang": 7225,
      "ketenteraman": 7226,
      "keangkuhan": 7227,
      "memadam": 7228,
      "memungkinkan": 7229,
      "Tesalonika": 7230,
      "Bertaubatlah": 7231,
      "kenamaan": 7232,
      "Elyoenai": 7233,
      "Belsyazar": 7234,
      "Beltsazar": 7235,
      "16": 7236,
      "34": 7237,
      "42": 7238,
      "Awal": 7239,
      "Atas": 7240,
      "Ajarlah": 7241,
      "Etam": 7242,
      "Jen": 7243,
      "Jemaah": 7244,
      "Lais": 7245,
      "Masing": 7246,
      "Mero": 7247,
      "Pengan": 7248,
      "Pat": 7249,
      "Tel": 7250,
      "Tik": 7251,
      "Tam": 7252,
      "Tro": 7253,
      "Utusan": 7254,
      "Yahas": 7255,
      "Zaku": 7256,
      "Zur": 7257,
      "Zabdi": 7258,
      "banya": 7259,
      "cerah": 7260,
      "ejek": 7261,
      "ebya": 7262,
      "giat": 7263,
      "hkan": 7264,
      "hsa": 7265,
      "hakimi": 7266,
      "jerat": 7267,
      "mbuk": 7268,
      "neka": 7269,
      "naku": 7270,
      "nat": 7271,
      "nelayan": 7272,
      "pekat": 7273,
      "rnakan": 7274,
      "ub": 7275,
      "utus": 7276,
      "zon": 7277,
      "zam": 7278,
      "akkanlah": 7279,
      "kapan": 7280,
      "kabur": 7281,
      "dayakan": 7282,
      "dapur": 7283,
      "dapatan": 7284,
      "dilu": 7285,
      "dibin": 7286,
      "diteri": 7287,
      "ditolong": 7288,
      "diingat": 7289,
      "dikahwin": 7290,
      "digantung": 7291,
      "digo": 7292,
      "dibahagikan": 7293,
      "dibersihkan": 7294,
      "dipadam": 7295,
      "diharapkan": 7296,
      "dihargai": 7297,
      "dijatuhkan": 7298,
      "disaksikan": 7299,
      "tudung": 7300,
      "tunas": 7301,
      "timah": 7302,
      "tari": 7303,
      "yafas": 7304,
      "lapis": 7305,
      "bertahun": 7306,
      "berakar": 7307,
      "berapi": 7308,
      "bersungguh": 7309,
      "berdarah": 7310,
      "berpatah": 7311,
      "bersusah": 7312,
      "bercerai": 7313,
      "bertolak": 7314,
      "berpisah": 7315,
      "berpenghuni": 7316,
      "berbakti": 7317,
      "bernanah": 7318,
      "kelam": 7319,
      "kejar": 7320,
      "kece": 7321,
      "unga": 7322,
      "unting": 7323,
      "undur": 7324,
      "sepu": 7325,
      "sejahat": 7326,
      "seksa": 7327,
      "seterusnya": 7328,
      "yangga": 7329,
      "gap": 7330,
      "sambutlah": 7331,
      "malanglah": 7332,
      "baga": 7333,
      "bajak": 7334,
      "balkan": 7335,
      "muak": 7336,
      "kukatakan": 7337,
      "halang": 7338,
      "rip": 7339,
      "membutakan": 7340,
      "membebani": 7341,
      "rab": 7342,
      "suluh": 7343,
      "sudilah": 7344,
      "ekas": 7345,
      "elup": 7346,
      "engkan": 7347,
      "engeri": 7348,
      "dakwa": 7349,
      "lusan": 7350,
      "lutut": 7351,
      "nyawanya": 7352,
      "liel": 7353,
      "terpe": 7354,
      "terkuat": 7355,
      "terlen": 7356,
      "terlindung": 7357,
      "tersing": 7358,
      "terharu": 7359,
      "dukkan": 7360,
      "biran": 7361,
      "bikar": 7362,
      "tetam": 7363,
      "tebusan": 7364,
      "kiel": 7365,
      "pisau": 7366,
      "ngsi": 7367,
      "puah": 7368,
      "puterinya": 7369,
      "mimp": 7370,
      "beel": 7371,
      "jum": 7372,
      "juta": 7373,
      "pungan": 7374,
      "arya": 7375,
      "menyempu": 7376,
      "dias": 7377,
      "tangkai": 7378,
      "menjamah": 7379,
      "menjamin": 7380,
      "jikan": 7381,
      "jilat": 7382,
      "erit": 7383,
      "Isterinya": 7384,
      "pendarah": 7385,
      "Kus": 7386,
      "mengadang": 7387,
      "mengacau": 7388,
      "melaluinya": 7389,
      "Segera": 7390,
      "semalam": 7391,
      "tembaga": 7392,
      "pelaut": 7393,
      "pekak": 7394,
      "Kad": 7395,
      "Kayafas": 7396,
      "katlah": 7397,
      "datangi": 7398,
      "membacakan": 7399,
      "pengiring": 7400,
      "Salibkan": 7401,
      "hatikannya": 7402,
      "elaya": 7403,
      "umuni": 7404,
      "pakhsa": 7405,
      "dewan": 7406,
      "dewi": 7407,
      "dekkan": 7408,
      "kepalaku": 7409,
      "kembar": 7410,
      "mengukir": 7411,
      "bosan": 7412,
      "sirlah": 7413,
      "Keempat": 7414,
      "Kebar": 7415,
      "Perkata": 7416,
      "ketuhar": 7417,
      "ketulusan": 7418,
      "janjiku": 7419,
      "alya": 7420,
      "hukumlah": 7421,
      "pemakan": 7422,
      "pembeli": 7423,
      "jalanku": 7424,
      "pasangan": 7425,
      "jahatnya": 7426,
      "tahunan": 7427,
      "bolehlah": 7428,
      "yim": 7429,
      "seluas": 7430,
      "selubung": 7431,
      "salahkan": 7432,
      "Abdi": 7433,
      "mengecewakan": 7434,
      "masuklah": 7435,
      "pemimpinnya": 7436,
      "Sembelih": 7437,
      "Bersorak": 7438,
      "Berdirilah": 7439,
      "Selanjut": 7440,
      "akarlah": 7441,
      "kalanya": 7442,
      "Bez": 7443,
      "tunggul": 7444,
      "menaikkan": 7445,
      "mencatat": 7446,
      "memperhatikannya": 7447,
      "moyangku": 7448,
      "perabot": 7449,
      "pakailah": 7450,
      "menyerangnya": 7451,
      "kelimpahan": 7452,
      "Tapuah": 7453,
      "ladangnya": 7454,
      "mencambuk": 7455,
      "Tiadakah": 7456,
      "badam": 7457,
      "Elifel": 7458,
      "garpu": 7459,
      "meraung": 7460,
      "akainya": 7461,
      "izinkan": 7462,
      "Big": 7463,
      "gerbangnya": 7464,
      "ajaranku": 7465,
      "ajarannya": 7466,
      "Efrata": 7467,
      "turunlah": 7468,
      "bersepakat": 7469,
      "Dagon": 7470,
      "panggil": 7471,
      "bangkitlah": 7472,
      "Adaya": 7473,
      "pekerjaannya": 7474,
      "Dengarkan": 7475,
      "muna": 7476,
      "muntah": 7477,
      "gelita": 7478,
      "Rezin": 7479,
      "kasihani": 7480,
      "menganuger": 7481,
      "kaian": 7482,
      "Zebah": 7483,
      "Zebaja": 7484,
      "deras": 7485,
      "derap": 7486,
      "abdinya": 7487,
      "Pekerja": 7488,
      "membuangnya": 7489,
      "kekuatanku": 7490,
      "Gedor": 7491,
      "nujum": 7492,
      "memendekkan": 7493,
      "menyimpannya": 7494,
      "duklah": 7495,
      "adikmu": 7496,
      "Doa": 7497,
      "membanjiri": 7498,
      "tulangku": 7499,
      "Gomer": 7500,
      "akangi": 7501,
      "cepatlah": 7502,
      "doktor": 7503,
      "dituang": 7504,
      "dituduh": 7505,
      "Asytor": 7506,
      "Arpakhsa": 7507,
      "Herodias": 7508,
      "hemia": 7509,
      "kecamlah": 7510,
      "mengisytiharkannya": 7511,
      "Ternakan": 7512,
      "ziel": 7513,
      "memasangnya": 7514,
      "kirinya": 7515,
      "Tanduk": 7516,
      "Nehemia": 7517,
      "memeter": 7518,
      "memekik": 7519,
      "pedulikan": 7520,
      "pengasih": 7521,
      "salamku": 7522,
      "diceritakan": 7523,
      "pendapatku": 7524,
      "dilanda": 7525,
      "berkongsi": 7526,
      "Binui": 7527,
      "beradu": 7528,
      "120": 7529,
      "potonglah": 7530,
      "menampi": 7531,
      "nyatalah": 7532,
      "Benarkah": 7533,
      "menimbang": 7534,
      "Duduklah": 7535,
      "Karmi": 7536,
      "mempedulikannya": 7537,
      "simpanlah": 7538,
      "Lidia": 7539,
      "Sedangkan": 7540,
      "menakut": 7541,
      "bernubuatlah": 7542,
      "Horma": 7543,
      "kekasihmu": 7544,
      "kedudukannya": 7545,
      "membelakangi": 7546,
      "sasaran": 7547,
      "ketaatan": 7548,
      "Matica": 7549,
      "Serebya": 7550,
      "tuliskan": 7551,
      "diberitakan": 7552,
      "Melekh": 7553,
      "menebusnya": 7554,
      "menyapukannya": 7555,
      "faedahnya": 7556,
      "mangsanya": 7557,
      "cerdas": 7558,
      "mengelakkan": 7559,
      "Keluarlah": 7560,
      "Salmuna": 7561,
      "ukurannya": 7562,
      "susunan": 7563,
      "Suami": 7564,
      "Suaminya": 7565,
      "menyokong": 7566,
      "Akwila": 7567,
      "bersukaria": 7568,
      "terhunus": 7569,
      "Nahason": 7570,
      "menyiramkan": 7571,
      "menumbuhkan": 7572,
      "kelahiran": 7573,
      "hamil": 7574,
      "menggagalkan": 7575,
      "kismis": 7576,
      "pentadbiran": 7577,
      "Milka": 7578,
      "menyelidiki": 7579,
      "Afek": 7580,
      "dikuatkan": 7581,
      "kebanggaan": 7582,
      "mesra": 7583,
      "pengembara": 7584,
      "Yerahmeel": 7585,
      "Kekasihku": 7586,
      "Akaba": 7587,
      "Janji": 7588,
      "Rancangan": 7589,
      "cekap": 7590,
      "dihadapkan": 7591,
      "ditinggikan": 7592,
      "ditaklukkan": 7593,
      "keperkasaan": 7594,
      "kisaran": 7595,
      "Sekhanya": 7596,
      "Berjanjilah": 7597,
      "warganegara": 7598,
      "Syobal": 7599,
      "Kematian": 7600,
      "Tangkaplah": 7601,
      "Zakur": 7602,
      "nekad": 7603,
      "kecewa": 7604,
      "engerian": 7605,
      "terlentang": 7606,
      "tetamunya": 7607,
      "mimpinya": 7608,
      "menyempurnakan": 7609,
      "Sembelihlah": 7610,
      "Selanjutnya": 7611,
      "Asytoret": 7612,
      "Arpakhsad": 7613,
      "28": 7614,
      "37": 7615,
      "44": 7616,
      "52": 7617,
      "90": 7618,
      "Abang": 7619,
      "Asaya": 7620,
      "Aza": 7621,
      "Ahin": 7622,
      "Bakarlah": 7623,
      "Ebal": 7624,
      "Elon": 7625,
      "Ebed": 7626,
      "Edre": 7627,
      "Gir": 7628,
      "Gab": 7629,
      "Ira": 7630,
      "Itai": 7631,
      "Kelima": 7632,
      "Lus": 7633,
      "Lantik": 7634,
      "Meng": 7635,
      "Mera": 7636,
      "Pris": 7637,
      "Us": 7638,
      "Urim": 7639,
      "Yakh": 7640,
      "Yim": 7641,
      "Zer": 7642,
      "Zil": 7643,
      "cen": 7644,
      "cahan": 7645,
      "cunya": 7646,
      "derai": 7647,
      "fia": 7648,
      "gangan": 7649,
      "jakan": 7650,
      "ren": 7651,
      "rakannya": 7652,
      "ton": 7653,
      "yanya": 7654,
      "zan": 7655,
      "zur": 7656,
      "anoah": 7657,
      "ene": 7658,
      "enak": 7659,
      "emet": 7660,
      "empas": 7661,
      "disu": 7662,
      "ditan": 7663,
      "disang": 7664,
      "dikhabarkan": 7665,
      "diterbang": 7666,
      "dimurni": 7667,
      "disangka": 7668,
      "dibesarkan": 7669,
      "dijahit": 7670,
      "dicubai": 7671,
      "diturunkan": 7672,
      "diakui": 7673,
      "par": 7674,
      "padaku": 7675,
      "mencuku": 7676,
      "menziarah": 7677,
      "menjilat": 7678,
      "tira": 7679,
      "taol": 7680,
      "yadai": 7681,
      "yataim": 7682,
      "berdi": 7683,
      "berpuluh": 7684,
      "bergem": 7685,
      "berdeka": 7686,
      "bersenja": 7687,
      "bernyawa": 7688,
      "bersayap": 7689,
      "berhubungan": 7690,
      "berbintik": 7691,
      "berbau": 7692,
      "berkembang": 7693,
      "bersembahyang": 7694,
      "inakan": 7695,
      "kelem": 7696,
      "kehairan": 7697,
      "unaskan": 7698,
      "lahkannya": 7699,
      "ses": 7700,
      "seharga": 7701,
      "seandainya": 7702,
      "dana": 7703,
      "sael": 7704,
      "sapu": 7705,
      "salasilah": 7706,
      "saluran": 7707,
      "mau": 7708,
      "bayar": 7709,
      "mul": 7710,
      "kusan": 7711,
      "akanya": 7712,
      "risau": 7713,
      "permaka": 7714,
      "perlakukanlah": 7715,
      "memeng": 7716,
      "memur": 7717,
      "memahat": 7718,
      "memakainya": 7719,
      "rayu": 7720,
      "rampas": 7721,
      "sub": 7722,
      "sulaman": 7723,
      "butir": 7724,
      "engkam": 7725,
      "luruh": 7726,
      "wasan": 7727,
      "wayat": 7728,
      "walau": 7729,
      "wajar": 7730,
      "waras": 7731,
      "likan": 7732,
      "terbi": 7733,
      "terhi": 7734,
      "terangkat": 7735,
      "terpuji": 7736,
      "tersedu": 7737,
      "terpisah": 7738,
      "bim": 7739,
      "bihi": 7740,
      "bimbing": 7741,
      "menggen": 7742,
      "menghancur": 7743,
      "menggoda": 7744,
      "menggunting": 7745,
      "menginginkan": 7746,
      "menggiring": 7747,
      "mengkaji": 7748,
      "menggulung": 7749,
      "mengingkari": 7750,
      "teki": 7751,
      "teduh": 7752,
      "rubah": 7753,
      "rumpai": 7754,
      "rusuk": 7755,
      "rumbai": 7756,
      "kirim": 7757,
      "tandanya": 7758,
      "Akub": 7759,
      "anaskan": 7760,
      "puasa": 7761,
      "sila": 7762,
      "sianya": 7763,
      "beku": 7764,
      "juang": 7765,
      "kerap": 7766,
      "menyahut": 7767,
      "diasingkan": 7768,
      "tangis": 7769,
      ".”)": 7770,
      "Yeter": 7771,
      "apalagi": 7772,
      "kosa": 7773,
      "naim": 7774,
      "meluru": 7775,
      "melindung": 7776,
      "jian": 7777,
      "dong": 7778,
      "mengasih": 7779,
      "mengairi": 7780,
      "cabut": 7781,
      "Sehingga": 7782,
      "Sebanyak": 7783,
      "Seketika": 7784,
      "Sebilangan": 7785,
      "Sebaiknya": 7786,
      "sempit": 7787,
      "seminggu": 7788,
      "sialah": 7789,
      "galkanlah": 7790,
      "samamu": 7791,
      "tembikar": 7792,
      "Tebe": 7793,
      "mbat": 7794,
      "pegang": 7795,
      "pecahan": 7796,
      "pejuang": 7797,
      "apakan": 7798,
      "dangkannya": 7799,
      "Kawanan": 7800,
      "Kamos": 7801,
      "Kawasan": 7802,
      "harimau": 7803,
      "seron": 7804,
      "mpasan": 7805,
      "lainya": 7806,
      "pengsan": 7807,
      "pengerah": 7808,
      "pengharga": 7809,
      "Sam": 7810,
      "Salasilah": 7811,
      "usang": 7812,
      "Yoseba": 7813,
      "merumput": 7814,
      "amkan": 7815,
      "hambamu": 7816,
      "cucunya": 7817,
      "mpaikannya": 7818,
      "boa": 7819,
      "botak": 7820,
      "menudung": 7821,
      "menumpahkan": 7822,
      "Metu": 7823,
      "etak": 7824,
      "Kebaikan": 7825,
      "Pertempuran": 7826,
      "Ruangan": 7827,
      "motong": 7828,
      "rod": 7829,
      "rombong": 7830,
      "pemang": 7831,
      "pembahagian": 7832,
      "pembalasan": 7833,
      "pembayaran": 7834,
      "Sila": 7835,
      "Tuhanku": 7836,
      "menyebat": 7837,
      "sanalah": 7838,
      "Kristuslah": 7839,
      "Tiang": 7840,
      "Tirai": 7841,
      "seluruhan": 7842,
      "pengikutmu": 7843,
      "Abdon": 7844,
      "hadapanmu": 7845,
      "berhasil": 7846,
      "mengetuk": 7847,
      "yutkan": 7848,
      "belahan": 7849,
      "Sema": 7850,
      "menyayangi": 7851,
      "menyampaikannya": 7852,
      "Berseru": 7853,
      "nikan": 7854,
      "Yabin": 7855,
      "duniawi": 7856,
      "Seli": 7857,
      "gemar": 7858,
      "Hadi": 7859,
      "Besar": 7860,
      "kinan": 7861,
      "hanyalah": 7862,
      "memperlihatkan": 7863,
      "hail": 7864,
      "moyangmu": 7865,
      "jaring": 7866,
      "Naga": 7867,
      "Mahala": 7868,
      "tenteramu": 7869,
      "pegawaimu": 7870,
      "haknya": 7871,
      "menghalau": 7872,
      "Tumim": 7873,
      "filah": 7874,
      "mengenang": 7875,
      "mencampakkan": 7876,
      "Pendapat": 7877,
      "Bapamu": 7878,
      "upahan": 7879,
      "Filipi": 7880,
      "dibajak": 7881,
      "Gama": 7882,
      "Galati": 7883,
      "tulislah": 7884,
      "genting": 7885,
      "Puteranya": 7886,
      "memamah": 7887,
      "kejahatanmu": 7888,
      "lukanya": 7889,
      "membincangkan": 7890,
      "cakapkan": 7891,
      "anggurnya": 7892,
      "bungkusan": 7893,
      "berseler": 7894,
      "kematianku": 7895,
      "Kereta": 7896,
      "Kerub": 7897,
      "ertinya": 7898,
      "menggunakannya": 7899,
      "binaan": 7900,
      "bangunlah": 7901,
      "memancarkan": 7902,
      "pedangmu": 7903,
      "disesa": 7904,
      "berhentilah": 7905,
      "meredakan": 7906,
      "suratku": 7907,
      "mengantuk": 7908,
      "penderitaanku": 7909,
      "dagingnya": 7910,
      "Penge": 7911,
      "Pengh": 7912,
      "fikiranku": 7913,
      "cukupan": 7914,
      "kesalahanmu": 7915,
      "Pedaya": 7916,
      "Geber": 7917,
      "ikmatilah": 7918,
      "trompetnya": 7919,
      "Hutan": 7920,
      "merahmati": 7921,
      "gantungan": 7922,
      "Sucikanlah": 7923,
      "Arba": 7924,
      "warga": 7925,
      "permintaannya": 7926,
      "senjatanya": 7927,
      "mulutmu": 7928,
      "mulutnya": 7929,
      "Netanya": 7930,
      "Zabad": 7931,
      "suamimu": 7932,
      "denda": 7933,
      "isilah": 7934,
      "melimpah": 7935,
      "pengepungan": 7936,
      "usahanya": 7937,
      "Sokho": 7938,
      "faat": 7939,
      "piaskan": 7940,
      "jelata": 7941,
      "jelasan": 7942,
      "binasakanlah": 7943,
      "kuning": 7944,
      "kunjung": 7945,
      "menamakannya": 7946,
      "tertarik": 7947,
      "dinamakannya": 7948,
      "dicelup": 7949,
      "bersarang": 7950,
      "meneguhkan": 7951,
      "Tofet": 7952,
      "terjadilah": 7953,
      "berpesan": 7954,
      "menambahkan": 7955,
      "mengerat": 7956,
      "mengerahkan": 7957,
      "mengerumuni": 7958,
      "dadamu": 7959,
      "foya": 7960,
      "jagaan": 7961,
      "hutangnya": 7962,
      "Sekalipun": 7963,
      "Katakan": 7964,
      "perutnya": 7965,
      "bergembiralah": 7966,
      "Maksud": 7967,
      "Enos": 7968,
      "disapu": 7969,
      "ditegakkan": 7970,
      "Gilboa": 7971,
      "membelinya": 7972,
      "perkataanku": 7973,
      "Atarot": 7974,
      "dirompak": 7975,
      "bernyanyilah": 7976,
      "rasmi": 7977,
      "Makeda": 7978,
      "Zoar": 7979,
      "zirah": 7980,
      "terjerat": 7981,
      "Perigi": 7982,
      "ampunkanlah": 7983,
      "melemparkannya": 7984,
      "menyaksikannya": 7985,
      "dipatuk": 7986,
      "penjagaan": 7987,
      "Saron": 7988,
      "melebihi": 7989,
      "menantunya": 7990,
      "peribadinya": 7991,
      "guntingan": 7992,
      "Bapaku": 7993,
      "sorakan": 7994,
      "pemanah": 7995,
      "ataplah": 7996,
      "Yozadak": 7997,
      "berwaspadalah": 7998,
      "terhitung": 7999,
      "Betulkah": 8000,
      "Rehum": 8001,
      "menggantungkan": 8002,
      "pemain": 8003,
      "Amihud": 8004,
      "permohonan": 8005,
      "bergegar": 8006,
      "Keadaan": 8007,
      "Nimrod": 8008,
      "Setiausaha": 8009,
      "Ofra": 8010,
      "jejak": 8011,
      "dipuja": 8012,
      "kotoran": 8013,
      "tunggulah": 8014,
      "Minyak": 8015,
      "Mesekh": 8016,
      "Barangkali": 8017,
      "dirancang": 8018,
      "meniarap": 8019,
      "bergilir": 8020,
      "mengendarai": 8021,
      "Bozra": 8022,
      "Jadilah": 8023,
      "memuncak": 8024,
      "huruf": 8025,
      "membacanya": 8026,
      "Esytaol": 8027,
      "hasrat": 8028,
      "melampiaskan": 8029,
      "pembasuhan": 8030,
      "Beerot": 8031,
      "Zipora": 8032,
      "Manakah": 8033,
      "awam": 8034,
      "kemiskinan": 8035,
      "baharui": 8036,
      "gegat": 8037,
      "Pisga": 8038,
      "Lepaskanlah": 8039,
      "kemasyhuran": 8040,
      "memadamkan": 8041,
      "Jenazah": 8042,
      "nakutkan": 8043,
      "dipadamkan": 8044,
      "Kadmiel": 8045,
      "Elifelet": 8046,
      "Azaz": 8047,
      "Edrei": 8048,
      "Gabriel": 8049,
      "Lantiklah": 8050,
      "Yakhin": 8051,
      "Zilpa": 8052,
      "diterbangkan": 8053,
      "dimurnikan": 8054,
      "mencukupi": 8055,
      "menziarahi": 8056,
      "berdekatan": 8057,
      "bersenjatakan": 8058,
      "kelemahan": 8059,
      "kehairanan": 8060,
      "permakaman": 8061,
      "memenggal": 8062,
      "memurnikan": 8063,
      "terbilang": 8064,
      "menghancurkannya": 8065,
      "melindunginya": 8066,
      "mengasihinya": 8067,
      "Berserulah": 8068,
      "Galatia": 8069,
      "110": 8070,
      "23": 8071,
      "36": 8072,
      "Adik": 8073,
      "Bahu": 8074,
      "Cara": 8075,
      "Ceritakanlah": 8076,
      "Din": 8077,
      "Delaya": 8078,
      "Fen": 8079,
      "II": 8080,
      "Ibunya": 8081,
      "Jela": 8082,
      "Kapa": 8083,
      "Kuh": 8084,
      "Larilah": 8085,
      "Madai": 8086,
      "One": 8087,
      "Oreb": 8088,
      "Ri": 8089,
      "Rumput": 8090,
      "Sang": 8091,
      "Singa": 8092,
      "Tana": 8093,
      "Tong": 8094,
      "Uri": 8095,
      "Umpa": 8096,
      "Ukuran": 8097,
      "Yahat": 8098,
      "ael": 8099,
      "ceng": 8100,
      "caha": 8101,
      "del": 8102,
      "demu": 8103,
      "eje": 8104,
      "gla": 8105,
      "ging": 8106,
      "hes": 8107,
      "hitung": 8108,
      "jel": 8109,
      "jaku": 8110,
      "jemu": 8111,
      "jengking": 8112,
      "ksalah": 8113,
      "kengerian": 8114,
      "lekas": 8115,
      "mban": 8116,
      "minggu": 8117,
      "odi": 8118,
      "paku": 8119,
      "raku": 8120,
      "rinti": 8121,
      "steru": 8122,
      "tbah": 8123,
      "usus": 8124,
      "upaya": 8125,
      "ulat": 8126,
      "wya": 8127,
      "yur": 8128,
      "ancam": 8129,
      "erbak": 8130,
      "enun": 8131,
      "akrab": 8132,
      "data": 8133,
      "emak": 8134,
      "disi": 8135,
      "dium": 8136,
      "dide": 8137,
      "dijalan": 8138,
      "dimilik": 8139,
      "ditum": 8140,
      "diletak": 8141,
      "dikubur": 8142,
      "dinyanyi": 8143,
      "dimeterai": 8144,
      "dipasangkan": 8145,
      "dicambuk": 8146,
      "ditempuh": 8147,
      "diwaris": 8148,
      "dibuktikan": 8149,
      "diejek": 8150,
      "tukul": 8151,
      "patuhilah": 8152,
      "meneng": 8153,
      "mendia": 8154,
      "mendung": 8155,
      "menengking": 8156,
      "tilik": 8157,
      "tikanlah": 8158,
      "tikus": 8159,
      "tat": 8160,
      "tarot": 8161,
      "lal": 8162,
      "beran": 8163,
      "bertem": 8164,
      "berde": 8165,
      "berserta": 8166,
      "berbukit": 8167,
      "berterus": 8168,
      "berterima": 8169,
      "berbahasa": 8170,
      "bersuami": 8171,
      "berkhu": 8172,
      "berlemak": 8173,
      "berkurang": 8174,
      "berpakat": 8175,
      "bergemuruh": 8176,
      "insan": 8177,
      "kese": 8178,
      "kepe": 8179,
      "kekeras": 8180,
      "keindah": 8181,
      "kebing": 8182,
      "kesayang": 8183,
      "kelebihan": 8184,
      "keterangan": 8185,
      "keseluruhan": 8186,
      "kantung": 8187,
      "unjung": 8188,
      "seko": 8189,
      "sedalam": 8190,
      "secukup": 8191,
      "seindah": 8192,
      "sekeja": 8193,
      "sejenis": 8194,
      "segenggam": 8195,
      "gasi": 8196,
      "gamba": 8197,
      "garkan": 8198,
      "sayur": 8199,
      "barkan": 8200,
      "mudanya": 8201,
      "jadi": 8202,
      "kulan": 8203,
      "kuari": 8204,
      "rib": 8205,
      "riuh": 8206,
      "riwayat": 8207,
      "perleng": 8208,
      "persoalan": 8209,
      "raga": 8210,
      "raba": 8211,
      "rampasan": 8212,
      "elz": 8213,
      "elaka": 8214,
      "bulat": 8215,
      "enguk": 8216,
      "dakh": 8217,
      "wai": 8218,
      "waim": 8219,
      "tidaklah": 8220,
      "lisi": 8221,
      "emuh": 8222,
      "emuel": 8223,
      "terli": 8224,
      "terlihat": 8225,
      "tersusun": 8226,
      "terkembang": 8227,
      "terdaftar": 8228,
      "mengo": 8229,
      "menggembala": 8230,
      "tea": 8231,
      "kila": 8232,
      "anat": 8233,
      "pim": 8234,
      "ngoyak": 8235,
      "puting": 8236,
      "pudar": 8237,
      "sihatilah": 8238,
      "ingkirkan": 8239,
      "beon": 8240,
      "julah": 8241,
      "juru": 8242,
      "jual": 8243,
      "justeru": 8244,
      "arakan": 8245,
      "anakh": 8246,
      "ungkil": 8247,
      "kobar": 8248,
      "olehnya": 8249,
      "naung": 8250,
      "melengk": 8251,
      "jisan": 8252,
      "doakan": 8253,
      "banglah": 8254,
      "berkatalah": 8255,
      "penas": 8256,
      "penjelasan": 8257,
      "penenun": 8258,
      "Kulit": 8259,
      "Kutuklah": 8260,
      "mengawan": 8261,
      "cacing": 8262,
      "Sean": 8263,
      "Separuh": 8264,
      "Sefar": 8265,
      "Sealtiel": 8266,
      "pertimbang": 8267,
      "banding": 8268,
      "pekerjanya": 8269,
      "diancam": 8270,
      "lemas": 8271,
      "lembunya": 8272,
      "lembing": 8273,
      "sendi": 8274,
      "senyap": 8275,
      "sendirinya": 8276,
      "egahan": 8277,
      "handal": 8278,
      "korak": 8279,
      "Bala": 8280,
      "engkaulah": 8281,
      "penggantungan": 8282,
      "dewanya": 8283,
      "buahku": 8284,
      "merahan": 8285,
      "kemam": 8286,
      "kemerah": 8287,
      "kemegahan": 8288,
      "luarnya": 8289,
      "cut": 8290,
      "cuping": 8291,
      "boim": 8292,
      "persembahannya": 8293,
      "Meon": 8294,
      "Kesemua": 8295,
      "Kekuasa": 8296,
      "Ketiga": 8297,
      "Kesombongan": 8298,
      "roma": 8299,
      "pembohong": 8300,
      "duduklah": 8301,
      "mahukah": 8302,
      "tanyalah": 8303,
      "jalanlah": 8304,
      "imamnya": 8305,
      "mengira": 8306,
      "menyegarkan": 8307,
      "bahagikanlah": 8308,
      "Laodi": 8309,
      "Tiuplah": 8310,
      "selumbar": 8311,
      "menyukakan": 8312,
      "buhlah": 8313,
      "bumikanlah": 8314,
      "mengepu": 8315,
      "mazmur": 8316,
      "menyalah": 8317,
      "menyabung": 8318,
      "laikan": 8319,
      "melayang": 8320,
      "Berhenti": 8321,
      "Bersembunyi": 8322,
      "nilainya": 8323,
      "Yabok": 8324,
      "perempuanmu": 8325,
      "Hagi": 8326,
      "Hawa": 8327,
      "Hatah": 8328,
      "Hawila": 8329,
      "tengkuk": 8330,
      "Anakku": 8331,
      "adin": 8332,
      "menyelamatkannya": 8333,
      "Maon": 8334,
      "Masukkan": 8335,
      "Maaf": 8336,
      "Majulah": 8337,
      "menaungi": 8338,
      "mencer": 8339,
      "mempersoalkan": 8340,
      "Mahalat": 8341,
      "Haro": 8342,
      "menghairan": 8343,
      "menghapus": 8344,
      "bertimbun": 8345,
      "Taanakh": 8346,
      "Tugas": 8347,
      "perangnya": 8348,
      "mencampur": 8349,
      "mencabik": 8350,
      "malaikatnya": 8351,
      "mpulan": 8352,
      "Penolong": 8353,
      "Penderita": 8354,
      "Penuel": 8355,
      "berukir": 8356,
      "Elihu": 8357,
      "Elimelekh": 8358,
      "saida": 8359,
      "curkan": 8360,
      "dibasahi": 8361,
      "memanggilnya": 8362,
      "ingininya": 8363,
      "menunjang": 8364,
      "menuntun": 8365,
      "menundukkan": 8366,
      "Pulihkanlah": 8367,
      "kakimu": 8368,
      "memasuk": 8369,
      "dihuni": 8370,
      "rebut": 8371,
      "Betsaida": 8372,
      "membiarkannya": 8373,
      "bersekutu": 8374,
      "Daging": 8375,
      "pangku": 8376,
      "menenun": 8377,
      "Sayap": 8378,
      "Sayalah": 8379,
      "Abihail": 8380,
      "sahabatmu": 8381,
      "daratan": 8382,
      "sekelilingmu": 8383,
      "memanjat": 8384,
      "biliknya": 8385,
      "berangkatlah": 8386,
      "bakaran": 8387,
      "menjemu": 8388,
      "menjerit": 8389,
      "menjenguk": 8390,
      "penderitaannya": 8391,
      "Rampas": 8392,
      "Rajaku": 8393,
      "letakkanlah": 8394,
      "pelabuhan": 8395,
      "pelacuran": 8396,
      "merosak": 8397,
      "merogol": 8398,
      "fikirannya": 8399,
      "Zeboim": 8400,
      "Inikah": 8401,
      "keadaanku": 8402,
      "sempadannya": 8403,
      "Pemban": 8404,
      "Pembahagian": 8405,
      "Pembunuh": 8406,
      "balunya": 8407,
      "sisik": 8408,
      "Doeg": 8409,
      "telan": 8410,
      "mencucurkan": 8411,
      "Hul": 8412,
      "Hulurkan": 8413,
      "kerugi": 8414,
      "marmar": 8415,
      "Aspenas": 8416,
      "gunaan": 8417,
      "menanggungnya": 8418,
      "Asytarot": 8419,
      "Patut": 8420,
      "mangkuknya": 8421,
      "puskanlah": 8422,
      "penuai": 8423,
      "Ahikam": 8424,
      "zion": 8425,
      "membahagiakan": 8426,
      "menulisnya": 8427,
      "merebutnya": 8428,
      "sumbu": 8429,
      "Elnatan": 8430,
      "dirayakan": 8431,
      "merayakannya": 8432,
      "menyentuhnya": 8433,
      "memecah": 8434,
      "pengacau": 8435,
      "Yerimot": 8436,
      "dinyalakan": 8437,
      "kepunyaannya": 8438,
      "pilihlah": 8439,
      "Hogla": 8440,
      "kasihilah": 8441,
      "Zibeon": 8442,
      "bentuknya": 8443,
      "mewaris": 8444,
      "berkesudahan": 8445,
      "berkecukupan": 8446,
      "Yoyarib": 8447,
      "Merataplah": 8448,
      "Musuhku": 8449,
      "asasnya": 8450,
      "dilihatnya": 8451,
      "Kirene": 8452,
      "Kiryataim": 8453,
      "Zebul": 8454,
      "merantai": 8455,
      "menanami": 8456,
      "dicari": 8457,
      "Kenan": 8458,
      "Lidah": 8459,
      "Natanael": 8460,
      "penasihatnya": 8461,
      "Azmawet": 8462,
      "penyeberangan": 8463,
      "kekasihnya": 8464,
      "Sudahlah": 8465,
      "Sudahkah": 8466,
      "menanamnya": 8467,
      "beliung": 8468,
      "kilauan": 8469,
      "Maresa": 8470,
      "membelenggu": 8471,
      "ketat": 8472,
      "Matius": 8473,
      "dihalau": 8474,
      "dihasilkan": 8475,
      "Angkatlah": 8476,
      "Dosamu": 8477,
      "isytiharkanlah": 8478,
      "terje": 8479,
      "Periksalah": 8480,
      "pelayanan": 8481,
      "cerdik": 8482,
      "Mataku": 8483,
      "mentafsirkannya": 8484,
      "berbisik": 8485,
      "berlagak": 8486,
      "Libni": 8487,
      "Peleg": 8488,
      "Pekahya": 8489,
      "Amasai": 8490,
      "mencubai": 8491,
      "Letakkanlah": 8492,
      "siplin": 8493,
      "Tuliskanlah": 8494,
      "bercucuran": 8495,
      "Luka": 8496,
      "induknya": 8497,
      "berteduh": 8498,
      "jasper": 8499,
      "merusuh": 8500,
      "Lotan": 8501,
      "bertaburan": 8502,
      "balaslah": 8503,
      "Sebanya": 8504,
      "menghilangkan": 8505,
      "Oholibama": 8506,
      "Ofir": 8507,
      "Yarmut": 8508,
      "ditempatkan": 8509,
      "ditempatkannya": 8510,
      "bibirku": 8511,
      "Musnahkan": 8512,
      "Panjangnya": 8513,
      "dipetik": 8514,
      "mendadak": 8515,
      "menafikan": 8516,
      "Disyon": 8517,
      "tiruan": 8518,
      "Syurga": 8519,
      "Nikodemu": 8520,
      "kesuburan": 8521,
      "menyelubungi": 8522,
      "Sediakanlah": 8523,
      "kedukaan": 8524,
      "terdedah": 8525,
      "serambi": 8526,
      "menandatangani": 8527,
      "Merodakh": 8528,
      "Tambahan": 8529,
      "dibinanya": 8530,
      "diterimanya": 8531,
      "terpegun": 8532,
      "Bersoraklah": 8533,
      "Ahinoam": 8534,
      "Girgasi": 8535,
      "Priskila": 8536,
      "cendana": 8537,
      "empaskan": 8538,
      "berdiang": 8539,
      "terhibur": 8540,
      "penghargaan": 8541,
      "rombongan": 8542,
      "Mahalaleel": 8543,
      "Gamaliel": 8544,
      "disesatkan": 8545,
      "Penghakiman": 8546,
      "Bahurim": 8547,
      "Onesi": 8548,
      "Tongkat": 8549,
      "ejekan": 8550,
      "jelita": 8551,
      "rakus": 8552,
      "rintihan": 8553,
      "dimilikinya": 8554,
      "dinyanyikan": 8555,
      "diwariskan": 8556,
      "mendiaminya": 8557,
      "berkhutbah": 8558,
      "kepedihan": 8559,
      "kekerasan": 8560,
      "kebingungan": 8561,
      "secukupnya": 8562,
      "sekejap": 8563,
      "perlengkapan": 8564,
      "Kekuasaan": 8565,
      "Laodikia": 8566,
      "Bersembunyilah": 8567,
      "menghairankan": 8568,
      "Nikodemus": 8569,
      "150": 8570,
      "21": 8571,
      "74": 8572,
      "AK": 8573,
      "Ain": 8574,
      "Aba": 8575,
      "Awan": 8576,
      "Aris": 8577,
      "Are": 8578,
      "Atena": 8579,
      "Bunga": 8580,
      "Der": 8581,
      "Esa": 8582,
      "Ewi": 8583,
      "Ezion": 8584,
      "Hak": 8585,
      "Has": 8586,
      "Hakim": 8587,
      "Hori": 8588,
      "Ikan": 8589,
      "Iko": 8590,
      "Kas": 8591,
      "Kaki": 8592,
      "Lis": 8593,
      "Mib": 8594,
      "Onan": 8595,
      "Pon": 8596,
      "Pahat": 8597,
      "Rem": 8598,
      "Semi": 8599,
      "Seru": 8600,
      "Tin": 8601,
      "Teng": 8602,
      "Tanya": 8603,
      "Turun": 8604,
      "Ur": 8605,
      "Utara": 8606,
      "Usirlah": 8607,
      "Yaha": 8608,
      "bakh": 8609,
      "deng": 8610,
      "eda": 8611,
      "fis": 8612,
      "her": 8613,
      "oa": 8614,
      "remuk": 8615,
      "ringkan": 8616,
      "steri": 8617,
      "sunya": 8618,
      "tra": 8619,
      "taha": 8620,
      "tolo": 8621,
      "temis": 8622,
      "uba": 8623,
      "wahan": 8624,
      "yaku": 8625,
      "zib": 8626,
      "zim": 8627,
      "ahir": 8628,
      "enang": 8629,
      "akluk": 8630,
      "kait": 8631,
      "dawya": 8632,
      "emot": 8633,
      "dile": 8634,
      "ditang": 8635,
      "ditem": 8636,
      "ditika": 8637,
      "dikasih": 8638,
      "ditanggung": 8639,
      "ditunjuk": 8640,
      "diperangkap": 8641,
      "diharap": 8642,
      "digiring": 8643,
      "disentuh": 8644,
      "dibelenggu": 8645,
      "disatukan": 8646,
      "dipandang": 8647,
      "dinajiskan": 8648,
      "didakwa": 8649,
      "didatangi": 8650,
      "diizinkan": 8651,
      "pad": 8652,
      "menderu": 8653,
      "mendukung": 8654,
      "mendoakan": 8655,
      "titisan": 8656,
      "tawa": 8657,
      "tasi": 8658,
      "tamakan": 8659,
      "tawan": 8660,
      "labah": 8661,
      "lawanan": 8662,
      "berpa": 8663,
      "berbu": 8664,
      "berli": 8665,
      "berter": 8666,
      "bersi": 8667,
      "beranak": 8668,
      "berpen": 8669,
      "berpergi": 8670,
      "berhal": 8671,
      "bertiga": 8672,
      "bertulis": 8673,
      "berbalik": 8674,
      "berkereta": 8675,
      "berbulu": 8676,
      "berburu": 8677,
      "berkena": 8678,
      "berbahagialah": 8679,
      "bertingkat": 8680,
      "berguling": 8681,
      "bermurah": 8682,
      "berakal": 8683,
      "berlambat": 8684,
      "berbudi": 8685,
      "berasak": 8686,
      "bermesyuarat": 8687,
      "bergoyang": 8688,
      "inakkan": 8689,
      "kele": 8690,
      "kesudah": 8691,
      "keten": 8692,
      "kesan": 8693,
      "kegen": 8694,
      "kehinaan": 8695,
      "keluhan": 8696,
      "kesal": 8697,
      "kegunaan": 8698,
      "seakan": 8699,
      "sewaktu": 8700,
      "selen": 8701,
      "sepasukan": 8702,
      "sebiji": 8703,
      "seisi": 8704,
      "sesetengah": 8705,
      "sepuas": 8706,
      "sebuku": 8707,
      "setebal": 8708,
      "sedap": 8709,
      "sap": 8710,
      "sauh": 8711,
      "sawi": 8712,
      "salaman": 8713,
      "mal": 8714,
      "bam": 8715,
      "basuh": 8716,
      "barkanlah": 8717,
      "muram": 8718,
      "jasa": 8719,
      "jawatan": 8720,
      "kuali": 8721,
      "ort": 8722,
      "hapuskanlah": 8723,
      "riang": 8724,
      "rikam": 8725,
      "peroleh": 8726,
      "peras": 8727,
      "permai": 8728,
      "perzina": 8729,
      "perdamaian": 8730,
      "perbekalan": 8731,
      "percuma": 8732,
      "memati": 8733,
      "mempelajari": 8734,
      "memanaskan": 8735,
      "rami": 8736,
      "padamu": 8737,
      "lur": 8738,
      "lusa": 8739,
      "lukh": 8740,
      "girang": 8741,
      "wati": 8742,
      "warisi": 8743,
      "liti": 8744,
      "lilin": 8745,
      "liakanlah": 8746,
      "licin": 8747,
      "lebah": 8748,
      "lebuh": 8749,
      "terhingga": 8750,
      "tergel": 8751,
      "terkunci": 8752,
      "bisi": 8753,
      "mengerah": 8754,
      "menggoncangkan": 8755,
      "teguran": 8756,
      "rud": 8757,
      "rum": 8758,
      "tanding": 8759,
      "denganmu": 8760,
      "pik": 8761,
      "pipi": 8762,
      "puyuh": 8763,
      "sis": 8764,
      "mir": 8765,
      "kersang": 8766,
      "keruntuhan": 8767,
      "keros": 8768,
      "pungut": 8769,
      "menyela": 8770,
      "menyakit": 8771,
      "Diamlah": 8772,
      "menjala": 8773,
      "beristeri": 8774,
      "ungkannya": 8775,
      "Yesi": 8776,
      "koh": 8777,
      "bahunya": 8778,
      "melangkah": 8779,
      "melekat": 8780,
      "melemahkan": 8781,
      "melunaskan": 8782,
      "doh": 8783,
      "hikus": 8784,
      "bangkainya": 8785,
      "asmara": 8786,
      "penun": 8787,
      "pentas": 8788,
      "penerang": 8789,
      "penyangga": 8790,
      "Kubiarkan": 8791,
      "Kufirmankan": 8792,
      "mengasah": 8793,
      "mengalahkannya": 8794,
      "asalkan": 8795,
      "meus": 8796,
      "campu": 8797,
      "memboh": 8798,
      "Sejahtera": 8799,
      "semerbak": 8800,
      "mpangan": 8801,
      "mport": 8802,
      "siat": 8803,
      "kotamu": 8804,
      "Yesuslah": 8805,
      "temoa": 8806,
      "Tepung": 8807,
      "memberitahun": 8808,
      "rusan": 8809,
      "tingkah": 8810,
      "serba": 8811,
      "seraga": 8812,
      "mpainya": 8813,
      "aib": 8814,
      "Badan": 8815,
      "Balik": 8816,
      "Baala": 8817,
      "jantung": 8818,
      "hiduplah": 8819,
      "pengganas": 8820,
      "Saat": 8821,
      "Samai": 8822,
      "Safat": 8823,
      "langkan": 8824,
      "Yobab": 8825,
      "pakar": 8826,
      "merebus": 8827,
      "mengulang": 8828,
      "Yeria": 8829,
      "bogel": 8830,
      "Mesa": 8831,
      "Keingin": 8832,
      "Kebuluran": 8833,
      "Perga": 8834,
      "Rupanya": 8835,
      "pemelihara": 8836,
      "pembaca": 8837,
      "arif": 8838,
      "dudukinya": 8839,
      "Sitim": 8840,
      "menyesali": 8841,
      "rahan": 8842,
      "rahang": 8843,
      "bahagiannya": 8844,
      "buhkannya": 8845,
      "poh": 8846,
      "gerun": 8847,
      "gering": 8848,
      "geram": 8849,
      "gergaji": 8850,
      "Lehi": 8851,
      "bumikannya": 8852,
      "mengejutkan": 8853,
      "yut": 8854,
      "pintunya": 8855,
      "tibaan": 8856,
      "Sembahlah": 8857,
      "menyatukan": 8858,
      "menyambung": 8859,
      "mestilah": 8860,
      "melarat": 8861,
      "melatih": 8862,
      "melalaikan": 8863,
      "Bertin": 8864,
      "Berwaspada": 8865,
      "Berkati": 8866,
      "Berjalanlah": 8867,
      "nium": 8868,
      "Yamin": 8869,
      "menghias": 8870,
      "menghiasi": 8871,
      "Hasil": 8872,
      "mbor": 8873,
      "Malukh": 8874,
      "Bebai": 8875,
      "Beelz": 8876,
      "Sudut": 8877,
      "Sudilah": 8878,
      "tunggang": 8879,
      "menasihat": 8880,
      "menabalkan": 8881,
      "mencemuh": 8882,
      "memperdayakan": 8883,
      "meneriakkan": 8884,
      "Namanya": 8885,
      "berbuatlah": 8886,
      "Harta": 8887,
      "araim": 8888,
      "Benda": 8889,
      "lakkan": 8890,
      "Gihon": 8891,
      "Buanglah": 8892,
      "Taman": 8893,
      "dungu": 8894,
      "Tuannya": 8895,
      "fira": 8896,
      "mengenai": 8897,
      "mengenakannya": 8898,
      "mengenderai": 8899,
      "rakyatku": 8900,
      "setialah": 8901,
      "meniduri": 8902,
      "mencadangkan": 8903,
      "sokong": 8904,
      "penyel": 8905,
      "Penjaga": 8906,
      "badai": 8907,
      "Elim": 8908,
      "merawat": 8909,
      "pelangi": 8910,
      "isteriku": 8911,
      "pakaianmu": 8912,
      "sinilah": 8913,
      "bebal": 8914,
      "Puan": 8915,
      "tugasku": 8916,
      "berserulah": 8917,
      "kejahatannya": 8918,
      "anggurku": 8919,
      "dihakimi": 8920,
      "kepalamu": 8921,
      "rebus": 8922,
      "resam": 8923,
      "kerajaanmu": 8924,
      "bekerjasama": 8925,
      "bunganya": 8926,
      "ebul": 8927,
      "disahkan": 8928,
      "disingkirkan": 8929,
      "dikandung": 8930,
      "berjalanlah": 8931,
      "menenangkan": 8932,
      "patungnya": 8933,
      "tutkan": 8934,
      "Hentikanlah": 8935,
      "sekelilingku": 8936,
      "Simron": 8937,
      "Hegai": 8938,
      "bodohnya": 8939,
      "menekan": 8940,
      "merebahkan": 8941,
      "Rekem": 8942,
      "menjunjung": 8943,
      "memakamkan": 8944,
      "menjumpainya": 8945,
      "pelajaran": 8946,
      "Pengurus": 8947,
      "Zeeb": 8948,
      "rancangkan": 8949,
      "Peperangan": 8950,
      "kecurangan": 8951,
      "Pemberian": 8952,
      "Gedi": 8953,
      "takhtanya": 8954,
      "memenangi": 8955,
      "cukupkah": 8956,
      "menopang": 8957,
      "Pasanglah": 8958,
      "Penyelamatan": 8959,
      "teling": 8960,
      "membantutkan": 8961,
      "rancangannya": 8962,
      "tulangnya": 8963,
      "tercemar": 8964,
      "kepingan": 8965,
      "kerusi": 8966,
      "Misael": 8967,
      "ditulisi": 8968,
      "Patung": 8969,
      "batangnya": 8970,
      "Artemis": 8971,
      "Arpad": 8972,
      "diseret": 8973,
      "warnanya": 8974,
      "hilanglah": 8975,
      "harapanku": 8976,
      "permintaanku": 8977,
      "sejarah": 8978,
      "Terus": 8979,
      "Terutama": 8980,
      "mulutku": 8981,
      "ziah": 8982,
      "Hira": 8983,
      "Nef": 8984,
      "Asap": 8985,
      "Memfis": 8986,
      "khus": 8987,
      "khusus": 8988,
[...]
