{
  "version": "1.0",
  "truncation": null,
  "padding": null,
  "added_tokens": [
    {
      "id": 0,
      "content": "<pad>",
      "single_word": false,
      "lstrip": false,
      "rstrip": false,
      "normalized": false,
      "special": true
    },
    {
      "id": 1,
      "content": "<unk>",
      "single_word": false,
      "lstrip": false,
      "rstrip": false,
      "normalized": false,
      "special": true
    },
    {
      "id": 2,
      "content": "<s>",
      "single_word": false,
      "lstrip": false,
      "rstrip": false,
      "normalized": false,
      "special": true
    },
    {
      "id": 3,
      "content": "</s>",
      "single_word": false,
      "lstrip": false,
      "rstrip": false,
      "normalized": false,
      "special": true
    }
  ],
  "normalizer": null,
  "pre_tokenizer": {
    "type": "Sequence",
    "pretokenizers": [
      {
        "type": "Whitespace"
      },
      {
        "type": "Split",
        "pattern": {
          "Regex": "(?<=[ऀ-ॿ஀-௿฀-๿຀-໿က-႟ក-៿一-鿿꤀-꤯])(?=[A-Za-z0-9])|(?<=[A-Za-z0-9])(?=[ऀ-ॿ஀-௿฀-๿຀-໿က-႟ក-៿一-鿿꤀-꤯])"
        },
        "behavior": "Isolated",
        "invert": false
      }
    ]
  },
  "post_processor": null,
  "decoder": null,
  "model": {
    "type": "BPE",
    "dropout": null,
    "unk_token": "<unk>",
    "continuing_subword_prefix": null,
    "end_of_word_suffix": null,
    "fuse_unk": false,
    "byte_fallback": false,
    "ignore_merges": false,
    "vocab": {
      "<pad>": 0,
      "<unk>": 1,
      "<s>": 2,
      "</s>": 3,
      "!": 4,
      "'": 5,
      "(": 6,
      ")": 7,
      ",": 8,
      "-": 9,
      ".": 10,
      ":": 11,
      ";": 12,
      "?": 13,
      "A": 14,
      "B": 15,
      "C": 16,
      "D": 17,
      "E": 18,
      "F": 19,
      "G": 20,
      "H": 21,
      "I": 22,
      "J": 23,
      "K": 24,
      "L": 25,
      "M": 26,
      "N": 27,
      "O": 28,
      "P": 29,
      "Q": 30,
      "R": 31,
      "S": 32,
      "T": 33,
      "U": 34,
      "V": 35,
      "W": 36,
      "Y": 37,
      "Z": 38,
      "a": 39,
      "b": 40,
      "c": 41,
      "d": 42,
      "e": 43,
      "f": 44,
      "g": 45,
      "h": 46,
      "i": 47,
      "j": 48,
      "k": 49,
      "l": 50,
      "m": 51,
      "n": 52,
      "o": 53,
      "p": 54,
      "q": 55,
      "r": 56,
      "s": 57,
      "t": 58,
      "u": 59,
      "v": 60,
      "w": 61,
      "x": 62,
      "y": 63,
      "z": 64,
      "Æ": 65,
      "æ": 66,
      "–": 67,
      "th": 68,
      "the": 69,
      "nd": 70,
      "and": 71,
      "in": 72,
      "re": 73,
      "of": 74,
      "he": 75,
      "ou": 76,
      "to": 77,
      "ha": 78,
      "hi": 79,
      "ll": 80,
      "er": 81,
      "on": 82,
      "or": 83,
      "at": 84,
      "se": 85,
      "es": 86,
      "en": 87,
      "an": 88,
      "ed": 89,
      "ing": 90,
      "be": 91,
      "ar": 92,
      "as": 93,
      "it": 94,
      "is": 95,
      "wi": 96,
      "me": 97,
      "And": 98,
      "that": 99,
      "sa": 100,
      "sha": 101,
      "un": 102,
      "le": 103,
      "no": 104,
      "st": 105,
      "shall": 106,
      "ve": 107,
      "id": 108,
      "for": 109,
      "om": 110,
      "unto": 111,
      "his": 112,
      "ld": 113,
      "gh": 114,
      "all": 115,
      "we": 116,
      "od": 117,
      "ch": 118,
      "him": 119,
      "ay": 120,
      "ir": 121,
      "them": 122,
      "they": 123,
      "with": 124,
      "not": 125,
      "ce": 126,
      "LO": 127,
      "RD": 128,
      "LORD": 129,
      "ut": 130,
      "ri": 131,
      "ra": 132,
      "ho": 133,
      "li": 134,
      "ght": 135,
      "ver": 136,
      "ther": 137,
      "up": 138,
      "thou": 139,
      "ke": 140,
      "ye": 141,
      "de": 142,
      "our": 143,
      "ca": 144,
      "al": 145,
      "ow": 146,
      "ent": 147,
      "was": 148,
      "whi": 149,
      "thy": 150,
      "am": 151,
      "ore": 152,
      "The": 153,
      "ord": 154,
      "there": 155,
      "my": 156,
      "pe": 157,
      "ain": 158,
      "which": 159,
      "are": 160,
      "el": 161,
      "us": 162,
      "so": 163,
      "God": 164,
      "out": 165,
      "ven": 166,
      "co": 167,
      "said": 168,
      "fr": 169,
      "est": 170,
      "ion": 171,
      "hou": 172,
      "will": 173,
      "their": 174,
      "have": 175,
      "ro": 176,
      "ab": 177,
      "thee": 178,
      "ah": 179,
      "il": 180,
      "man": 181,
      "whe": 182,
      "from": 183,
      "one": 184,
      "ad": 185,
      "fore": 186,
      "king": 187,
      "ma": 188,
      "go": 189,
      "ur": 190,
      "son": 191,
      "were": 192,
      "fi": 193,
      "ter": 194,
      "you": 195,
      "ag": 196,
      "fe": 197,
      "Is": 198,
      "ne": 199,
      "her": 200,
      "ren": 201,
      "lo": 202,
      "ac": 203,
      "ple": 204,
      "upon": 205,
      "ly": 206,
      "ine": 207,
      "lt": 208,
      "day": 209,
      "by": 210,
      "red": 211,
      "rael": 212,
      "Israel": 213,
      "ess": 214,
      "fa": 215,
      "say": 216,
      "when": 217,
      "chi": 218,
      "this": 219,
      "rou": 220,
      "but": 221,
      "nt": 222,
      "hath": 223,
      "ation": 224,
      "come": 225,
      "hear": 226,
      "sp": 227,
      "again": 228,
      "ever": 229,
      "came": 230,
      "ts": 231,
      "house": 232,
      "eth": 233,
      "had": 234,
      "do": 235,
      "ers": 236,
      "peo": 237,
      "people": 238,
      "ose": 239,
      "now": 240,
      "pt": 241,
      "sel": 242,
      "la": 243,
      "hand": 244,
      "child": 245,
      "into": 246,
      "she": 247,
      "ong": 248,
      "thing": 249,
      "your": 250,
      "way": 251,
      "own": 252,
      "men": 253,
      "com": 254,
      "For": 255,
      "ud": 256,
      "ight": 257,
      "te": 258,
      "ge": 259,
      "use": 260,
      "ck": 261,
      "ok": 262,
      "children": 263,
      "ast": 264,
      "gi": 265,
      "land": 266,
      "ake": 267,
      "before": 268,
      "ith": 269,
      "off": 270,
      "ness": 271,
      "af": 272,
      "went": 273,
      "ser": 274,
      "hold": 275,
      "word": 276,
      "ul": 277,
      "hat": 278,
      "also": 279,
      "ity": 280,
      "ear": 281,
      "cause": 282,
      "But": 283,
      "against": 284,
      "shalt": 285,
      "if": 286,
      "und": 287,
      "sed": 288,
      "who": 289,
      "ak": 290,
      "wor": 291,
      "pr": 292,
      "con": 293,
      "saying": 294,
      "gre": 295,
      "over": 296,
      "su": 297,
      "les": 298,
      "father": 299,
      "im": 300,
      "bre": 301,
      "av": 302,
      "pro": 303,
      "urn": 304,
      "ard": 305,
      "made": 306,
      "He": 307,
      "et": 308,
      "even": 309,
      "ant": 310,
      "ass": 311,
      "ment": 312,
      "ath": 313,
      "mo": 314,
      "serv": 315,
      "ans": 316,
      "then": 317,
      "ev": 318,
      "know": 319,
      "Then": 320,
      "ep": 321,
      "br": 322,
      "saith": 323,
      "bo": 324,
      "iah": 325,
      "offer": 326,
      "na": 327,
      "wo": 328,
      "pre": 329,
      "hast": 330,
      "ves": 331,
      "after": 332,
      "every": 333,
      "ru": 334,
      "may": 335,
      "comm": 336,
      "let": 337,
      "art": 338,
      "ct": 339,
      "po": 340,
      "things": 341,
      "great": 342,
      "ies": 343,
      "sons": 344,
      "Lord": 345,
      "ous": 346,
      "Be": 347,
      "down": 348,
      "make": 349,
      "see": 350,
      "right": 351,
      "did": 352,
      "ist": 353,
      "Jes": 354,
      "Dav": 355,
      "David": 356,
      "cha": 357,
      "ol": 358,
      "ide": 359,
      "di": 360,
      "any": 361,
      "pri": 362,
      "ount": 363,
      "Jer": 364,
      "ither": 365,
      "bu": 366,
      "Je": 367,
      "earth": 368,
      "these": 369,
      "because": 370,
      "sto": 371,
      "other": 372,
      "nor": 373,
      "offering": 374,
      "rought": 375,
      "turn": 376,
      "name": 377,
      "put": 378,
      "hea": 379,
      "Jesus": 380,
      "self": 381,
      "per": 382,
      "ga": 383,
      "ti": 384,
      "give": 385,
      "ice": 386,
      "spe": 387,
      "mb": 388,
      "sou": 389,
      "qu": 390,
      "priest": 391,
      "lem": 392,
      "ree": 393,
      "forth": 394,
      "orn": 395,
      "pass": 396,
      "mu": 397,
      "Jud": 398,
      "year": 399,
      "pl": 400,
      "hould": 401,
      "ang": 402,
      "sin": 403,
      "ved": 404,
      "thine": 405,
      "away": 406,
      "command": 407,
      "ward": 408,
      "thereof": 409,
      "among": 410,
      "should": 411,
      "wh": 412,
      "itt": 413,
      "ites": 414,
      "ft": 415,
      "cord": 416,
      "where": 417,
      "call": 418,
      "brought": 419,
      "sent": 420,
      "city": 421,
      "days": 422,
      "ry": 423,
      "might": 424,
      "oses": 425,
      "phe": 426,
      "heart": 427,
      "good": 428,
      "Moses": 429,
      "eat": 430,
      "hed": 431,
      "ure": 432,
      "Jeru": 433,
      "wat": 434,
      "two": 435,
      "Whe": 436,
      "Jo": 437,
      "Judah": 438,
      "salem": 439,
      "Jerusalem": 440,
      "take": 441,
      "led": 442,
      "ound": 443,
      "therefore": 444,
      "Ab": 445,
      "dom": 446,
      "what": 447,
      "ss": 448,
      "live": 449,
      "cording": 450,
      "ught": 451,
      "well": 452,
      "ng": 453,
      "bring": 454,
      "cri": 455,
      "ap": 456,
      "ise": 457,
      "took": 458,
      "behold": 459,
      "according": 460,
      "whom": 461,
      "Eg": 462,
      "Thou": 463,
      "jud": 464,
      "more": 465,
      "ants": 466,
      "fo": 467,
      "like": 468,
      "pla": 469,
      "set": 470,
      "oice": 471,
      "ypt": 472,
      "work": 473,
      "Egypt": 474,
      "ance": 475,
      "heaven": 476,
      "place": 477,
      "ci": 478,
      "neither": 479,
      "sh": 480,
      "si": 481,
      "fir": 482,
      "bit": 483,
      "under": 484,
      "ill": 485,
      "Th": 486,
      "ish": 487,
      "bro": 488,
      "gl": 489,
      "ate": 490,
      "refore": 491,
      "So": 492,
      "da": 493,
      "eld": 494,
      "stand": 495,
      "ations": 496,
      "ey": 497,
      "ces": 498,
      "ken": 499,
      "ould": 500,
      "bur": 501,
      "selves": 502,
      "time": 503,
      "rough": 504,
      "heard": 505,
      "prophe": 506,
      "tru": 507,
      "des": 508,
      "part": 509,
      "Now": 510,
      "end": 511,
      "ern": 512,
      "about": 513,
      "wom": 514,
      "hund": 515,
      "called": 516,
      "hundred": 517,
      "gn": 518,
      "ite": 519,
      "hr": 520,
      "evil": 521,
      "than": 522,
      "through": 523,
      "tre": 524,
      "sand": 525,
      "em": 526,
      "mine": 527,
      "first": 528,
      "law": 529,
      "ind": 530,
      "ex": 531,
      "eous": 532,
      "alt": 533,
      "cei": 534,
      "Behold": 535,
      "aul": 536,
      "spake": 537,
      "ph": 538,
      "host": 539,
      "irit": 540,
      "thousand": 541,
      "mount": 542,
      "dis": 543,
      "str": 544,
      "righteous": 545,
      "daught": 546,
      "Chr": 547,
      "seven": 548,
      "beg": 549,
      "Christ": 550,
      "dest": 551,
      "saw": 552,
      "words": 553,
      "mer": 554,
      "cked": 555,
      "done": 556,
      "thren": 557,
      "judg": 558,
      "found": 559,
      "ace": 560,
      "fire": 561,
      "cle": 562,
      "ities": 563,
      "brethren": 564,
      "mon": 565,
      "yet": 566,
      "fathers": 567,
      "given": 568,
      "ful": 569,
      "op": 570,
      "cu": 571,
      "They": 572,
      "cast": 573,
      "ink": 574,
      "years": 575,
      "servant": 576,
      "soul": 577,
      "many": 578,
      "glor": 579,
      "pray": 580,
      "lood": 581,
      "himself": 582,
      "head": 583,
      "round": 584,
      "gether": 585,
      "dr": 586,
      "together": 587,
      "four": 588,
      "ty": 589,
      "ark": 590,
      "tab": 591,
      "answere": 592,
      "voice": 593,
      "servants": 594,
      "ings": 595,
      "eyes": 596,
      "med": 597,
      "Let": 598,
      "dwell": 599,
      "answered": 600,
      "ments": 601,
      "wicked": 602,
      "side": 603,
      "gold": 604,
      "capt": 605,
      "bl": 606,
      "roy": 607,
      "che": 608,
      "would": 609,
      "If": 610,
      "ten": 611,
      "three": 612,
      "tri": 613,
      "ving": 614,
      "Ja": 615,
      "lay": 616,
      "ue": 617,
      "gave": 618,
      "holy": 619,
      "turned": 620,
      "ef": 621,
      "bread": 622,
      "Ye": 623,
      "ach": 624,
      "speak": 625,
      "blood": 626,
      "cut": 627,
      "wr": 628,
      "light": 629,
      "hands": 630,
      "shi": 631,
      "those": 632,
      "reg": 633,
      "life": 634,
      "can": 635,
      "another": 636,
      "thir": 637,
      "destroy": 638,
      "cities": 639,
      "tain": 640,
      "commanded": 641,
      "clean": 642,
      "mou": 643,
      "rem": 644,
      "mouth": 645,
      "row": 646,
      "twe": 647,
      "sea": 648,
      "Thus": 649,
      "ot": 650,
      "fles": 651,
      "bes": 652,
      "fam": 653,
      "int": 654,
      "Therefore": 655,
      "altar": 656,
      "ba": 657,
      "flesh": 658,
      "car": 659,
      "mber": 660,
      "When": 661,
      "cre": 662,
      "how": 663,
      "sword": 664,
      "ses": 665,
      "peace": 666,
      "without": 667,
      "Saul": 668,
      "gra": 669,
      "soever": 670,
      "high": 671,
      "ull": 672,
      "alk": 673,
      "In": 674,
      "She": 675,
      "face": 676,
      "mid": 677,
      "wife": 678,
      "themselves": 679,
      "ign": 680,
      "water": 681,
      "brother": 682,
      "spirit": 683,
      "old": 684,
      "oil": 685,
      "Pha": 686,
      "att": 687,
      "glory": 688,
      "ily": 689,
      "priests": 690,
      "kingdom": 691,
      "keep": 692,
      "prin": 693,
      "ust": 694,
      "fall": 695,
      "count": 696,
      "cl": 697,
      "ence": 698,
      "wise": 699,
      "shew": 700,
      "Re": 701,
      "ble": 702,
      "har": 703,
      "mult": 704,
      "llow": 705,
      "Am": 706,
      "As": 707,
      "unt": 708,
      "recei": 709,
      "Who": 710,
      "cob": 711,
      "Jacob": 712,
      "anger": 713,
      "rest": 714,
      "woman": 715,
      "death": 716,
      "love": 717,
      "jo": 718,
      "dead": 719,
      "cong": 720,
      "sil": 721,
      "god": 722,
      "sal": 723,
      "congreg": 724,
      "Lev": 725,
      "lie": 726,
      "igh": 727,
      "burnt": 728,
      "midst": 729,
      "congregation": 730,
      "fear": 731,
      "What": 732,
      "habit": 733,
      "drink": 734,
      "both": 735,
      "den": 736,
      "ried": 737,
      "aken": 738,
      "ub": 739,
      "faith": 740,
      "cy": 741,
      "hor": 742,
      "acle": 743,
      "itten": 744,
      "tabern": 745,
      "pas": 746,
      "rise": 747,
      "read": 748,
      "aron": 749,
      "Aaron": 750,
      "ains": 751,
      "ner": 752,
      "field": 753,
      "new": 754,
      "Ne": 755,
      "left": 756,
      "able": 757,
      "lon": 758,
      "lam": 759,
      "wild": 760,
      "chief": 761,
      "tem": 762,
      "stood": 763,
      "ship": 764,
      "same": 765,
      "young": 766,
      "Phi": 767,
      "toward": 768,
      "none": 769,
      "sle": 770,
      "sight": 771,
      "reign": 772,
      "until": 773,
      "depart": 774,
      "long": 775,
      "raise": 776,
      "ls": 777,
      "lled": 778,
      "five": 779,
      "az": 780,
      "ared": 781,
      "herit": 782,
      "taken": 783,
      "nu": 784,
      "mighty": 785,
      "night": 786,
      "walk": 787,
      "sacri": 788,
      "nations": 789,
      "ini": 790,
      "dev": 791,
      "sacrifi": 792,
      "full": 793,
      "war": 794,
      "iniqu": 795,
      "This": 796,
      "clo": 797,
      "ek": 798,
      "kings": 799,
      "much": 800,
      "been": 801,
      "liver": 802,
      "uit": 803,
      "aces": 804,
      "ction": 805,
      "twent": 806,
      "mother": 807,
      "Gi": 808,
      "ham": 809,
      "tabernacle": 810,
      "attle": 811,
      "tr": 812,
      "fruit": 813,
      "daughter": 814,
      "reng": 815,
      "Sam": 816,
      "ower": 817,
      "die": 818,
      "righteousness": 819,
      "fied": 820,
      "silver": 821,
      "ished": 822,
      "ase": 823,
      "delive": 824,
      "streng": 825,
      "very": 826,
      "laid": 827,
      "serve": 828,
      "cou": 829,
      "sm": 830,
      "GO": 831,
      "Abra": 832,
      "GOD": 833,
      "wall": 834,
      "inherit": 835,
      "month": 836,
      "ather": 837,
      "ild": 838,
      "ary": 839,
      "cometh": 840,
      "pi": 841,
      "erness": 842,
      "ped": 843,
      "lessed": 844,
      "Sol": 845,
      "ched": 846,
      "omon": 847,
      "wilderness": 848,
      "Solomon": 849,
      "ave": 850,
      "ines": 851,
      "ars": 852,
      "thus": 853,
      "coven": 854,
      "burn": 855,
      "hosts": 856,
      "Bab": 857,
      "My": 858,
      "ylon": 859,
      "meat": 860,
      "Babylon": 861,
      "angel": 862,
      "covenant": 863,
      "list": 864,
      "thered": 865,
      "open": 866,
      "Son": 867,
      "That": 868,
      "yri": 869,
      "delivered": 870,
      "world": 871,
      "judgment": 872,
      "twenty": 873,
      "oh": 874,
      "ought": 875,
      "Jew": 876,
      "Philist": 877,
      "ia": 878,
      "deliver": 879,
      "lord": 880,
      "smo": 881,
      "ister": 882,
      "spok": 883,
      "Eli": 884,
      "asure": 885,
      "whose": 886,
      "Go": 887,
      "spoken": 888,
      "seed": 889,
      "being": 890,
      "pos": 891,
      "waters": 892,
      "written": 893,
      "san": 894,
      "born": 895,
      "look": 896,
      "inhabit": 897,
      "told": 898,
      "hon": 899,
      "six": 900,
      "raoh": 901,
      "ack": 902,
      "Pharaoh": 903,
      "ways": 904,
      "iniquity": 905,
      "nes": 906,
      "ua": 907,
      "seen": 908,
      "build": 909,
      "Father": 910,
      "gate": 911,
      "power": 912,
      "disci": 913,
      "strong": 914,
      "sanct": 915,
      "It": 916,
      "kind": 917,
      "asts": 918,
      "ali": 919,
      "cer": 920,
      "wine": 921,
      "mercy": 922,
      "par": 923,
      "less": 924,
      "reth": 925,
      "char": 926,
      "qui": 927,
      "enem": 928,
      "some": 929,
      "ches": 930,
      "princes": 931,
      "enemies": 932,
      "ced": 933,
      "cur": 934,
      "cern": 935,
      "gathered": 936,
      "min": 937,
      "ples": 938,
      "wa": 939,
      "bear": 940,
      "lift": 941,
      "multit": 942,
      "offerings": 943,
      "Levites": 944,
      "Ben": 945,
      "vers": 946,
      "door": 947,
      "Beth": 948,
      "ps": 949,
      "hel": 950,
      "ning": 951,
      "sat": 952,
      "por": 953,
      "ude": 954,
      "Wherefore": 955,
      "lest": 956,
      "pit": 957,
      "sl": 958,
      "understand": 959,
      "ins": 960,
      "cubit": 961,
      "Jose": 962,
      "gen": 963,
      "oth": 964,
      "asse": 965,
      "pur": 966,
      "feet": 967,
      "Philistines": 968,
      "daughters": 969,
      "Jews": 970,
      "sc": 971,
      "cond": 972,
      "fell": 973,
      "ned": 974,
      "lies": 975,
      "cont": 976,
      "sure": 977,
      "Jeho": 978,
      "whole": 979,
      "Abraham": 980,
      "Joseph": 981,
      "gar": 982,
      "raim": 983,
      "ai": 984,
      "flo": 985,
      "ittle": 986,
      "prophet": 987,
      "return": 988,
      "send": 989,
      "We": 990,
      "such": 991,
      "disciples": 992,
      "oud": 993,
      "filled": 994,
      "ssion": 995,
      "cerning": 996,
      "multitude": 997,
      "band": 998,
      "dre": 999,
      "tribe": 1000,
      "gods": 1001,
      "works": 1002,
      "prophets": 1003,
      "inheritance": 1004,
      "How": 1005,
      "bed": 1006,
      "hu": 1007,
      "little": 1008,
      "keth": 1009,
      "cks": 1010,
      "seek": 1011,
      "strength": 1012,
      "bs": 1013,
      "aff": 1014,
      "asha": 1015,
      "follow": 1016,
      "truth": 1017,
      "bow": 1018,
      "isdom": 1019,
      "unclean": 1020,
      "exce": 1021,
      "tim": 1022,
      "thr": 1023,
      "There": 1024,
      "certain": 1025,
      "Mo": 1026,
      "orning": 1027,
      "All": 1028,
      "kill": 1029,
      "ove": 1030,
      "betwe": 1031,
      "weth": 1032,
      "cove": 1033,
      "between": 1034,
      "test": 1035,
      "vis": 1036,
      "orrow": 1037,
      "therein": 1038,
      "gener": 1039,
      "fl": 1040,
      "only": 1041,
      "known": 1042,
      "capti": 1043,
      "smote": 1044,
      "posse": 1045,
      "sy": 1046,
      "concerning": 1047,
      "inted": 1048,
      "morning": 1049,
      "wit": 1050,
      "save": 1051,
      "ram": 1052,
      "dwe": 1053,
      "dwelt": 1054,
      "Sha": 1055,
      "zz": 1056,
      "aster": 1057,
      "wind": 1058,
      "begat": 1059,
      "vi": 1060,
      "wisdom": 1061,
      "wer": 1062,
      "nothing": 1063,
      "shua": 1064,
      "ask": 1065,
      "cam": 1066,
      "order": 1067,
      "To": 1068,
      "places": 1069,
      "sacrifice": 1070,
      "Pe": 1071,
      "ged": 1072,
      "rej": 1073,
      "ons": 1074,
      "atter": 1075,
      "These": 1076,
      "ilt": 1077,
      "bod": 1078,
      "above": 1079,
      "stone": 1080,
      "nce": 1081,
      "comp": 1082,
      "Aha": 1083,
      "reme": 1084,
      "coun": 1085,
      "praise": 1086,
      "wra": 1087,
      "chari": 1088,
      "Joshua": 1089,
      "departed": 1090,
      "lf": 1091,
      "thyself": 1092,
      "ify": 1093,
      "hy": 1094,
      "lead": 1095,
      "gone": 1096,
      "ates": 1097,
      "cubits": 1098,
      "Can": 1099,
      "ima": 1100,
      "ified": 1101,
      "joy": 1102,
      "back": 1103,
      "cry": 1104,
      "wilt": 1105,
      "near": 1106,
      "cour": 1107,
      "offe": 1108,
      "oney": 1109,
      "age": 1110,
      "loved": 1111,
      "bb": 1112,
      "arm": 1113,
      "receive": 1114,
      "dark": 1115,
      "hearken": 1116,
      "passed": 1117,
      "poor": 1118,
      "Because": 1119,
      "temple": 1120,
      "just": 1121,
      "sake": 1122,
      "desol": 1123,
      "trou": 1124,
      "suf": 1125,
      "inhabitants": 1126,
      "ised": 1127,
      "mar": 1128,
      "tree": 1129,
      "vine": 1130,
      "gr": 1131,
      "mbe": 1132,
      "sheep": 1133,
      "tell": 1134,
      "vessel": 1135,
      "died": 1136,
      "wrath": 1137,
      "Al": 1138,
      "cr": 1139,
      "swe": 1140,
      "ste": 1141,
      "spoil": 1142,
      "cried": 1143,
      "Jord": 1144,
      "raid": 1145,
      "enter": 1146,
      "knowled": 1147,
      "slew": 1148,
      "Moab": 1149,
      "Jordan": 1150,
      "Eph": 1151,
      "Ho": 1152,
      "bare": 1153,
      "east": 1154,
      "ic": 1155,
      "manner": 1156,
      "book": 1157,
      "fool": 1158,
      "lieve": 1159,
      "contin": 1160,
      "ground": 1161,
      "ano": 1162,
      "worship": 1163,
      "athan": 1164,
      "most": 1165,
      "yria": 1166,
      "sing": 1167,
      "res": 1168,
      "though": 1169,
      "find": 1170,
      "appe": 1171,
      "clothe": 1172,
      "Ba": 1173,
      "Mi": 1174,
      "eb": 1175,
      "afraid": 1176,
      "fami": 1177,
      "surely": 1178,
      "lve": 1179,
      "imon": 1180,
      "yourselves": 1181,
      "trans": 1182,
      "cover": 1183,
      "broken": 1184,
      "ekiah": 1185,
      "knowledge": 1186,
      "jam": 1187,
      "rep": 1188,
      "lee": 1189,
      "stre": 1190,
      "stones": 1191,
      "Thy": 1192,
      "cen": 1193,
      "uel": 1194,
      "doth": 1195,
      "mbered": 1196,
      "ones": 1197,
      "twelve": 1198,
      "rejoice": 1199,
      "dra": 1200,
      "oured": 1201,
      "stat": 1202,
      "while": 1203,
      "women": 1204,
      "ased": 1205,
      "last": 1206,
      "scri": 1207,
      "returned": 1208,
      "having": 1209,
      "believe": 1210,
      "utter": 1211,
      "desi": 1212,
      "bless": 1213,
      "cannot": 1214,
      "remain": 1215,
      "far": 1216,
      "gu": 1217,
      "trust": 1218,
      "third": 1219,
      "slain": 1220,
      "blessed": 1221,
      "get": 1222,
      "Abi": 1223,
      "Benjam": 1224,
      "Ephraim": 1225,
      "Sp": 1226,
      "jour": 1227,
      "rul": 1228,
      "beast": 1229,
      "river": 1230,
      "country": 1231,
      "corn": 1232,
      "hus": 1233,
      "knew": 1234,
      "sun": 1235,
      "consu": 1236,
      "within": 1237,
      "iled": 1238,
      "elders": 1239,
      "began": 1240,
      "affli": 1241,
      "transgre": 1242,
      "lin": 1243,
      "omin": 1244,
      "prep": 1245,
      "judge": 1246,
      "body": 1247,
      "here": 1248,
      "llo": 1249,
      "commandment": 1250,
      "number": 1251,
      "iel": 1252,
      "mountains": 1253,
      "Yea": 1254,
      "reigned": 1255,
      "throne": 1256,
      "Spirit": 1257,
      "Ar": 1258,
      "aan": 1259,
      "ta": 1260,
      "tent": 1261,
      "va": 1262,
      "repro": 1263,
      "kept": 1264,
      "abomin": 1265,
      "Man": 1266,
      "second": 1267,
      "prov": 1268,
      "thirty": 1269,
      "families": 1270,
      "dow": 1271,
      "ered": 1272,
      "ted": 1273,
      "arose": 1274,
      "sins": 1275,
      "husband": 1276,
      "battle": 1277,
      "jah": 1278,
      "tong": 1279,
      "esh": 1280,
      "appo": 1281,
      "sabb": 1282,
      "areth": 1283,
      "commandments": 1284,
      "sabbath": 1285,
      "could": 1286,
      "bey": 1287,
      "built": 1288,
      "fast": 1289,
      "pal": 1290,
      "tion": 1291,
      "ated": 1292,
      "alley": 1293,
      "pie": 1294,
      "El": 1295,
      "fer": 1296,
      "nation": 1297,
      "ox": 1298,
      "valley": 1299,
      "moved": 1300,
      "div": 1301,
      "south": 1302,
      "destroyed": 1303,
      "statut": 1304,
      "Jon": 1305,
      "nam": 1306,
      "sk": 1307,
      "ison": 1308,
      "Benjamin": 1309,
      "ason": 1310,
      "stri": 1311,
      "Isa": 1312,
      "Paul": 1313,
      "Whi": 1314,
      "vation": 1315,
      "yea": 1316,
      "ird": 1317,
      "fift": 1318,
      "neth": 1319,
      "Canaan": 1320,
      "ians": 1321,
      "Peter": 1322,
      "darkness": 1323,
      "Dan": 1324,
      "master": 1325,
      "tou": 1326,
      "throughout": 1327,
      "cloud": 1328,
      "fat": 1329,
      "beli": 1330,
      "aled": 1331,
      "gather": 1332,
      "till": 1333,
      "cum": 1334,
      "received": 1335,
      "nder": 1336,
      "ene": 1337,
      "maid": 1338,
      "neigh": 1339,
      "answer": 1340,
      "border": 1341,
      "ots": 1342,
      "hid": 1343,
      "wherein": 1344,
      "salvation": 1345,
      "lifted": 1346,
      "understanding": 1347,
      "Ass": 1348,
      "aven": 1349,
      "bour": 1350,
      "eved": 1351,
      "trees": 1352,
      "wait": 1353,
      "times": 1354,
      "neighbour": 1355,
      "thre": 1356,
      "hill": 1357,
      "stra": 1358,
      "boam": 1359,
      "north": 1360,
      "covered": 1361,
      "continu": 1362,
      "Take": 1363,
      "Why": 1364,
      "beasts": 1365,
      "whether": 1366,
      "fifty": 1367,
      "Zion": 1368,
      "pill": 1369,
      "herd": 1370,
      "Hez": 1371,
      "sign": 1372,
      "grace": 1373,
      "vessels": 1374,
      "cattle": 1375,
      "ref": 1376,
      "ash": 1377,
      "forty": 1378,
      "counsel": 1379,
      "gri": 1380,
      "incre": 1381,
      "chose": 1382,
      "teen": 1383,
      "bullo": 1384,
      "Of": 1385,
      "rede": 1386,
      "ears": 1387,
      "More": 1388,
      "wood": 1389,
      "heathen": 1390,
      "cir": 1391,
      "fled": 1392,
      "half": 1393,
      "thence": 1394,
      "Neither": 1395,
      "camp": 1396,
      "ome": 1397,
      "incen": 1398,
      "Jerem": 1399,
      "Hear": 1400,
      "vent": 1401,
      "rain": 1402,
      "living": 1403,
      "asseh": 1404,
      "desolate": 1405,
      "Manasseh": 1406,
      "Jeremiah": 1407,
      "mour": 1408,
      "decl": 1409,
      "fect": 1410,
      "incense": 1411,
      "ber": 1412,
      "slay": 1413,
      "post": 1414,
      "Joab": 1415,
      "carried": 1416,
      "Holy": 1417,
      "Se": 1418,
      "gates": 1419,
      "lab": 1420,
      "spr": 1421,
      "sub": 1422,
      "glad": 1423,
      "circum": 1424,
      "Ham": 1425,
      "mind": 1426,
      "prof": 1427,
      "looked": 1428,
      "Moreover": 1429,
      "money": 1430,
      "ob": 1431,
      "abl": 1432,
      "Samuel": 1433,
      "sanctu": 1434,
      "offered": 1435,
      "ks": 1436,
      "cho": 1437,
      "houses": 1438,
      "cher": 1439,
      "han": 1440,
      "lot": 1441,
      "present": 1442,
      "Ad": 1443,
      "ware": 1444,
      "meet": 1445,
      "thought": 1446,
      "ions": 1447,
      "sheke": 1448,
      "captain": 1449,
      "tter": 1450,
      "wives": 1451,
      "leth": 1452,
      "break": 1453,
      "aves": 1454,
      "begin": 1455,
      "Or": 1456,
      "vity": 1457,
      "goat": 1458,
      "mountain": 1459,
      "shewed": 1460,
      "opened": 1461,
      "stead": 1462,
      "sanctuary": 1463,
      "iles": 1464,
      "witness": 1465,
      "sister": 1466,
      "stru": 1467,
      "goeth": 1468,
      "tered": 1469,
      "must": 1470,
      "whatsoever": 1471,
      "cor": 1472,
      "hn": 1473,
      "become": 1474,
      "cept": 1475,
      "Samar": 1476,
      "minister": 1477,
      "kno": 1478,
      "thi": 1479,
      "tor": 1480,
      "entiles": 1481,
      "whither": 1482,
      "service": 1483,
      "John": 1484,
      "heavens": 1485,
      "honour": 1486,
      "Shall": 1487,
      "Yet": 1488,
      "du": 1489,
      "vour": 1490,
      "help": 1491,
      "statutes": 1492,
      "Isaac": 1493,
      "Ahi": 1494,
      "idol": 1495,
      "rose": 1496,
      "feast": 1497,
      "whosoever": 1498,
      "stranger": 1499,
      "ready": 1500,
      "need": 1501,
      "prom": 1502,
      "prison": 1503,
      "conf": 1504,
      "beside": 1505,
      "Gentiles": 1506,
      "tongue": 1507,
      "redeem": 1508,
      "bra": 1509,
      "eye": 1510,
      "sup": 1511,
      "giveth": 1512,
      "plag": 1513,
      "numbered": 1514,
      "Hezekiah": 1515,
      "hope": 1516,
      "why": 1517,
      "Ammon": 1518,
      "captivity": 1519,
      "appointed": 1520,
      "His": 1521,
      "Shi": 1522,
      "cus": 1523,
      "je": 1524,
      "ney": 1525,
      "brass": 1526,
      "maketh": 1527,
      "judgments": 1528,
      "No": 1529,
      "mes": 1530,
      "male": 1531,
      "sick": 1532,
      "wickedness": 1533,
      "stret": 1534,
      "pieces": 1535,
      "Come": 1536,
      "ip": 1537,
      "ian": 1538,
      "bond": 1539,
      "sought": 1540,
      "Samaria": 1541,
      "Blessed": 1542,
      "instru": 1543,
      "hes": 1544,
      "esca": 1545,
      "comfor": 1546,
      "family": 1547,
      "walked": 1548,
      "chosen": 1549,
      "Asa": 1550,
      "isha": 1551,
      "establ": 1552,
      "Where": 1553,
      "foot": 1554,
      "ashamed": 1555,
      "court": 1556,
      "Esa": 1557,
      "nak": 1558,
      "rod": 1559,
      "yard": 1560,
      "ined": 1561,
      "offi": 1562,
      "chur": 1563,
      "didst": 1564,
      "perish": 1565,
      "dream": 1566,
      "Jonathan": 1567,
      "Ma": 1568,
      "lly": 1569,
      "ally": 1570,
      "lips": 1571,
      "sound": 1572,
      "orns": 1573,
      "seventh": 1574,
      "Si": 1575,
      "sold": 1576,
      "cted": 1577,
      "sinned": 1578,
      "captains": 1579,
      "portion": 1580,
      "asked": 1581,
      "suffer": 1582,
      "bar": 1583,
      "seng": 1584,
      "sence": 1585,
      "myself": 1586,
      "teach": 1587,
      "served": 1588,
      "perfect": 1589,
      "trum": 1590,
      "oppre": 1591,
      "heads": 1592,
      "generations": 1593,
      "Assyria": 1594,
      "dri": 1595,
      "eight": 1596,
      "fur": 1597,
      "gs": 1598,
      "leave": 1599,
      "spread": 1600,
      "cious": 1601,
      "firstborn": 1602,
      "possession": 1603,
      "top": 1604,
      "presence": 1605,
      "ceived": 1606,
      "azar": 1607,
      "trouble": 1608,
      "believed": 1609,
      "trumpe": 1610,
      "Az": 1611,
      "sho": 1612,
      "van": 1613,
      "lion": 1614,
      "def": 1615,
      "subur": 1616,
      "devil": 1617,
      "smite": 1618,
      "suburbs": 1619,
      "lech": 1620,
      "ages": 1621,
      "mayest": 1622,
      "committ": 1623,
      "Jero": 1624,
      "shut": 1625,
      "Gilead": 1626,
      "vineyard": 1627,
      "sweet": 1628,
      "draw": 1629,
      "teth": 1630,
      "um": 1631,
      "vain": 1632,
      "held": 1633,
      "ung": 1634,
      "peth": 1635,
      "abund": 1636,
      "hearts": 1637,
      "zzar": 1638,
      "chariots": 1639,
      "messeng": 1640,
      "bound": 1641,
      "fine": 1642,
      "ron": 1643,
      "sorrow": 1644,
      "never": 1645,
      "tribes": 1646,
      "possess": 1647,
      "Which": 1648,
      "ling": 1649,
      "obey": 1650,
      "wro": 1651,
      "raised": 1652,
      "rock": 1653,
      "fight": 1654,
      "tresp": 1655,
      "horse": 1656,
      "horses": 1657,
      "flock": 1658,
      "testimon": 1659,
      "Bal": 1660,
      "flee": 1661,
      "gro": 1662,
      "iz": 1663,
      "ely": 1664,
      "Baal": 1665,
      "desire": 1666,
      "enemy": 1667,
      "phat": 1668,
      "tar": 1669,
      "vest": 1670,
      "eding": 1671,
      "beloved": 1672,
      "ims": 1673,
      "asures": 1674,
      "followed": 1675,
      "Bar": 1676,
      "bus": 1677,
      "dust": 1678,
      "run": 1679,
      "shame": 1680,
      "bran": 1681,
      "Absal": 1682,
      "prayer": 1683,
      "charge": 1684,
      "curse": 1685,
      "assemb": 1686,
      "imag": 1687,
      "Absalom": 1688,
      "aiah": 1689,
      "ssed": 1690,
      "riend": 1691,
      "alone": 1692,
      "Nebu": 1693,
      "generation": 1694,
      "journey": 1695,
      "bullock": 1696,
      "een": 1697,
      "len": 1698,
      "uri": 1699,
      "zer": 1700,
      "became": 1701,
      "entered": 1702,
      "fif": 1703,
      "buried": 1704,
      "beginning": 1705,
      "Edom": 1706,
      "sid": 1707,
      "sore": 1708,
      "tten": 1709,
      "reward": 1710,
      "still": 1711,
      "deth": 1712,
      "eaten": 1713,
      "vail": 1714,
      "sit": 1715,
      "ints": 1716,
      "better": 1717,
      "saved": 1718,
      "gospe": 1719,
      "plain": 1720,
      "repent": 1721,
      "linen": 1722,
      "labour": 1723,
      "knoweth": 1724,
      "Jeroboam": 1725,
      "gospel": 1726,
      "Her": 1727,
      "mur": 1728,
      "morrow": 1729,
      "matter": 1730,
      "melech": 1731,
      "ters": 1732,
      "eph": 1733,
      "mbers": 1734,
      "wherewith": 1735,
      "garments": 1736,
      "clothes": 1737,
      "prepared": 1738,
      "naked": 1739,
      "An": 1740,
      "gain": 1741,
      "oke": 1742,
      "tow": 1743,
      "thanks": 1744,
      "Jehoi": 1745,
      "oxen": 1746,
      "increase": 1747,
      "By": 1748,
      "friend": 1749,
      "wrought": 1750,
      "inter": 1751,
      "burden": 1752,
      "Give": 1753,
      "image": 1754,
      "utterly": 1755,
      "idols": 1756,
      "gird": 1757,
      "nigh": 1758,
      "west": 1759,
      "leaven": 1760,
      "coming": 1761,
      "bapt": 1762,
      "prince": 1763,
      "remember": 1764,
      "appear": 1765,
      "Esau": 1766,
      "Even": 1767,
      "bones": 1768,
      "fal": 1769,
      "pure": 1770,
      "iron": 1771,
      "ents": 1772,
      "faithful": 1773,
      "small": 1774,
      "anointed": 1775,
      "transgression": 1776,
      "aam": 1777,
      "tra": 1778,
      "thither": 1779,
      "rebe": 1780,
      "secre": 1781,
      "ari": 1782,
      "upright": 1783,
      "seeing": 1784,
      "Egyptians": 1785,
      "burned": 1786,
      "exceeding": 1787,
      "lasting": 1788,
      "plague": 1789,
      "false": 1790,
      "cup": 1791,
      "hour": 1792,
      "ig": 1793,
      "theless": 1794,
      "wash": 1795,
      "everlasting": 1796,
      "aketh": 1797,
      "ruction": 1798,
      "exalt": 1799,
      "Also": 1800,
      "names": 1801,
      "goats": 1802,
      "nded": 1803,
      "saints": 1804,
      "riches": 1805,
      "gotten": 1806,
      "doeth": 1807,
      "liveth": 1808,
      "famine": 1809,
      "multip": 1810,
      "Gibe": 1811,
      "vision": 1812,
      "consumed": 1813,
      "shekels": 1814,
      "bli": 1815,
      "ious": 1816,
      "reason": 1817,
      "separ": 1818,
      "Cha": 1819,
      "Gad": 1820,
      "With": 1821,
      "uch": 1822,
      "caused": 1823,
      "plant": 1824,
      "carry": 1825,
      "angels": 1826,
      "Ahab": 1827,
      "core": 1828,
      "fter": 1829,
      "sitt": 1830,
      "hind": 1831,
      "escore": 1832,
      "urely": 1833,
      "standing": 1834,
      "destruction": 1835,
      "nant": 1836,
      "pp": 1837,
      "rer": 1838,
      "als": 1839,
      "breadth": 1840,
      "remnant": 1841,
      "cherub": 1842,
      "committed": 1843,
      "Surely": 1844,
      "chad": 1845,
      "rup": 1846,
      "tal": 1847,
      "vow": 1848,
      "removed": 1849,
      "weep": 1850,
      "lic": 1851,
      "going": 1852,
      "watch": 1853,
      "Reub": 1854,
      "sleep": 1855,
      "drew": 1856,
      "threescore": 1857,
      "Nebuchad": 1858,
      "Reuben": 1859,
      "Do": 1860,
      "Ghost": 1861,
      "fow": 1862,
      "heth": 1863,
      "hate": 1864,
      "ayed": 1865,
      "corrup": 1866,
      "blind": 1867,
      "Chald": 1868,
      "Li": 1869,
      "pun": 1870,
      "ors": 1871,
      "ided": 1872,
      "gover": 1873,
      "reproach": 1874,
      "pillars": 1875,
      "Chalde": 1876,
      "Han": 1877,
      "alive": 1878,
      "hur": 1879,
      "hah": 1880,
      "noise": 1881,
      "early": 1882,
      "wherefore": 1883,
      "cised": 1884,
      "endure": 1885,
      "pursu": 1886,
      "company": 1887,
      "affliction": 1888,
      "secret": 1889,
      "vill": 1890,
      "pleased": 1891,
      "greatly": 1892,
      "Pharise": 1893,
      "Amor": 1894,
      "Jehosha": 1895,
      "Pharisees": 1896,
      "After": 1897,
      "mis": 1898,
      "ran": 1899,
      "hem": 1900,
      "aniah": 1901,
      "ached": 1902,
      "accept": 1903,
      "wond": 1904,
      "prophesy": 1905,
      "fallen": 1906,
      "tempt": 1907,
      "garment": 1908,
      "ruler": 1909,
      "supp": 1910,
      "bas": 1911,
      "ick": 1912,
      "mor": 1913,
      "poured": 1914,
      "iness": 1915,
      "hang": 1916,
      "arise": 1917,
      "widow": 1918,
      "fellow": 1919,
      "lame": 1920,
      "compass": 1921,
      "merc": 1922,
      "skin": 1923,
      "Jehoshaphat": 1924,
      "At": 1925,
      "Ele": 1926,
      "kes": 1927,
      "past": 1928,
      "ze": 1929,
      "hair": 1930,
      "seth": 1931,
      "sear": 1932,
      "shadow": 1933,
      "rich": 1934,
      "mble": 1935,
      "fourth": 1936,
      "visit": 1937,
      "crown": 1938,
      "vanity": 1939,
      "trespass": 1940,
      "pherd": 1941,
      "rom": 1942,
      "sware": 1943,
      "enqui": 1944,
      "forsa": 1945,
      "delight": 1946,
      "feed": 1947,
      "perse": 1948,
      "rams": 1949,
      "foolish": 1950,
      "Daniel": 1951,
      "De": 1952,
      "ato": 1953,
      "aking": 1954,
      "apost": 1955,
      "xed": 1956,
      "bel": 1957,
      "beat": 1958,
      "army": 1959,
      "elah": 1960,
      "ilk": 1961,
      "strang": 1962,
      "fulfilled": 1963,
      "pitched": 1964,
      "hearkened": 1965,
      "declare": 1966,
      "circumcised": 1967,
      "atone": 1968,
      "One": 1969,
      "nine": 1970,
      "ring": 1971,
      "ziah": 1972,
      "hither": 1973,
      "sell": 1974,
      "edge": 1975,
      "asses": 1976,
      "road": 1977,
      "bron": 1978,
      "ceive": 1979,
      "drun": 1980,
      "tenth": 1981,
      "lambs": 1982,
      "troub": 1983,
      "taught": 1984,
      "governor": 1985,
      "atonement": 1986,
      "Gali": 1987,
      "Wo": 1988,
      "reve": 1989,
      "heed": 1990,
      "ode": 1991,
      "deep": 1992,
      "Ish": 1993,
      "shepherd": 1994,
      "scat": 1995,
      "flocks": 1996,
      "continually": 1997,
      "church": 1998,
      "leng": 1999,
      "From": 2000,
      "dam": 2001,
      "ele": 2002,
      "free": 2003,
      "pul": 2004,
      "rebu": 2005,
      "healed": 2006,
      "ened": 2007,
      "abroad": 2008,
      "Hebron": 2009,
      "chamber": 2010,
      "bringeth": 2011,
      "true": 2012,
      "sacrifices": 2013,
      "viol": 2014,
      "Elisha": 2015,
      "profit": 2016,
      "messengers": 2017,
      "Te": 2018,
      "eed": 2019,
      "oc": 2020,
      "wound": 2021,
      "ange": 2022,
      "ceit": 2023,
      "kets": 2024,
      "knowest": 2025,
      "aph": 2026,
      "souls": 2027,
      "table": 2028,
      "write": 2029,
      "bowed": 2030,
      "rulers": 2031,
      "Woe": 2032,
      "Amen": 2033,
      "Lo": 2034,
      "Ram": 2035,
      "Syria": 2036,
      "Zeb": 2037,
      "air": 2038,
      "bid": 2039,
      "cru": 2040,
      "xt": 2041,
      "ton": 2042,
      "abide": 2043,
      "used": 2044,
      "preach": 2045,
      "likewise": 2046,
      "lamb": 2047,
      "devour": 2048,
      "flour": 2049,
      "baptiz": 2050,
      "strangers": 2051,
      "Simon": 2052,
      "Zer": 2053,
      "aut": 2054,
      "low": 2055,
      "vir": 2056,
      "wings": 2057,
      "sevent": 2058,
      "hish": 2059,
      "cease": 2060,
      "rivers": 2061,
      "sover": 2062,
      "fier": 2063,
      "sper": 2064,
      "prosper": 2065,
      "greater": 2066,
      "strange": 2067,
      "abomination": 2068,
      "length": 2069,
      "Arise": 2070,
      "Mer": 2071,
      "On": 2072,
      "Selah": 2073,
      "Ver": 2074,
      "fts": 2075,
      "uth": 2076,
      "haz": 2077,
      "arrow": 2078,
      "wast": 2079,
      "white": 2080,
      "net": 2081,
      "precious": 2082,
      "taketh": 2083,
      "grave": 2084,
      "passover": 2085,
      "abominations": 2086,
      "stretched": 2087,
      "testimony": 2088,
      "branches": 2089,
      "leavened": 2090,
      "villages": 2091,
      "forsaken": 2092,
      "Leb": 2093,
      "Syri": 2094,
      "dist": 2095,
      "rejo": 2096,
      "form": 2097,
      "sojour": 2098,
      "feared": 2099,
      "iful": 2100,
      "move": 2101,
      "speaketh": 2102,
      "fruits": 2103,
      "kindness": 2104,
      "clothed": 2105,
      "established": 2106,
      "Eleazar": 2107,
      "Verily": 2108,
      "King": 2109,
      "faces": 2110,
      "pest": 2111,
      "sn": 2112,
      "anon": 2113,
      "meth": 2114,
      "youth": 2115,
      "prey": 2116,
      "commit": 2117,
      "brake": 2118,
      "Amorites": 2119,
      "Un": 2120,
      "Uzz": 2121,
      "Ze": 2122,
      "dry": 2123,
      "gard": 2124,
      "ual": 2125,
      "hide": 2126,
      "behind": 2127,
      "aside": 2128,
      "ada": 2129,
      "add": 2130,
      "household": 2131,
      "shouldest": 2132,
      "bitter": 2133,
      "tained": 2134,
      "Levi": 2135,
      "grass": 2136,
      "prepare": 2137,
      "touch": 2138,
      "defiled": 2139,
      "interpre": 2140,
      "Galilee": 2141,
      "Never": 2142,
      "Spe": 2143,
      "dou": 2144,
      "ris": 2145,
      "ately": 2146,
      "seat": 2147,
      "beaut": 2148,
      "wept": 2149,
      "lig": 2150,
      "desp": 2151,
      "womb": 2152,
      "chem": 2153,
      "strengthen": 2154,
      "doors": 2155,
      "flow": 2156,
      "images": 2157,
      "scattered": 2158,
      "Lebanon": 2159,
      "Speak": 2160,
      "cand": 2161,
      "cent": 2162,
      "pped": 2163,
      "wal": 2164,
      "sepul": 2165,
      "besee": 2166,
      "ariah": 2167,
      "ision": 2168,
      "Their": 2169,
      "advers": 2170,
      "worthy": 2171,
      "fully": 2172,
      "worshipped": 2173,
      "appeared": 2174,
      "Nevertheless": 2175,
      "sepulch": 2176,
      "beseech": 2177,
      "kid": 2178,
      "ners": 2179,
      "ond": 2180,
      "pose": 2181,
      "heal": 2182,
      "measure": 2183,
      "deceit": 2184,
      "abode": 2185,
      "lying": 2186,
      "favour": 2187,
      "nago": 2188,
      "afterward": 2189,
      "store": 2190,
      "Job": 2191,
      "indeed": 2192,
      "Elijah": 2193,
      "killed": 2194,
      "synago": 2195,
      "divided": 2196,
      "straight": 2197,
      "fury": 2198,
      "troubled": 2199,
      "Ash": 2200,
      "Mid": 2201,
      "Zi": 2202,
      "ience": 2203,
      "rus": 2204,
      "talk": 2205,
      "think": 2206,
      "lear": 2207,
      "lieth": 2208,
      "dec": 2209,
      "rent": 2210,
      "loo": 2211,
      "shed": 2212,
      "whereof": 2213,
      "shield": 2214,
      "cloth": 2215,
      "scribes": 2216,
      "abundance": 2217,
      "Have": 2218,
      "Ty": 2219,
      "bri": 2220,
      "horns": 2221,
      "pes": 2222,
      "ray": 2223,
      "stu": 2224,
      "weight": 2225,
      "soon": 2226,
      "pleas": 2227,
      "Jeri": 2228,
      "firm": 2229,
      "quick": 2230,
      "liness": 2231,
      "Midian": 2232,
      "Sar": 2233,
      "cla": 2234,
      "ices": 2235,
      "path": 2236,
      "beit": 2237,
      "formed": 2238,
      "ute": 2239,
      "ries": 2240,
      "verily": 2241,
      "thereon": 2242,
      "fill": 2243,
      "terri": 2244,
      "few": 2245,
      "acts": 2246,
      "pleasure": 2247,
      "fail": 2248,
      "ards": 2249,
      "poll": 2250,
      "chambers": 2251,
      "angu": 2252,
      "since": 2253,
      "ughter": 2254,
      "golden": 2255,
      "cheth": 2256,
      "walls": 2257,
      "kindled": 2258,
      "condem": 2259,
      "Abimelech": 2260,
      "tents": 2261,
      "hills": 2262,
      "promise": 2263,
      "Chaldeans": 2264,
      "hurt": 2265,
      "Mor": 2266,
      "bon": 2267,
      "ecut": 2268,
      "ied": 2269,
      "aston": 2270,
      "stree": 2271,
      "adab": 2272,
      "acher": 2273,
      "fair": 2274,
      "prayed": 2275,
      "Shechem": 2276,
      "loveth": 2277,
      "cursed": 2278,
      "blessing": 2279,
      "persecut": 2280,
      "virg": 2281,
      "garden": 2282,
      "streets": 2283,
      ",)": 2284,
      "Ac": 2285,
      "Es": 2286,
      "Fear": 2287,
      "Zed": 2288,
      "blem": 2289,
      "fain": 2290,
      "fought": 2291,
      "honey": 2292,
      "oath": 2293,
      "inion": 2294,
      "height": 2295,
      "hence": 2296,
      "wels": 2297,
      "cai": 2298,
      "alous": 2299,
      "waste": 2300,
      "bot": 2301,
      "rule": 2302,
      "others": 2303,
      "shout": 2304,
      "Reho": 2305,
      "hard": 2306,
      "parts": 2307,
      "chariot": 2308,
      "anoint": 2309,
      "exalted": 2310,
      "cherubims": 2311,
      "apostles": 2312,
      "Jericho": 2313,
      "Dam": 2314,
      "flood": 2315,
      "hung": 2316,
      "loud": 2317,
      "ming": 2318,
      "pour": 2319,
      "ues": 2320,
      "sack": 2321,
      "savour": 2322,
      "rah": 2323,
      "deal": 2324,
      "loose": 2325,
      "loins": 2326,
      "laughter": 2327,
      "Abner": 2328,
      "daily": 2329,
      "judged": 2330,
      "harvest": 2331,
      "smitten": 2332,
      "nesses": 2333,
      "excell": 2334,
      "redeemed": 2335,
      "comfort": 2336,
      "Balaam": 2337,
      "fin": 2338,
      "mir": 2339,
      "prou": 2340,
      "heav": 2341,
      "ort": 2342,
      "always": 2343,
      "ently": 2344,
      "coast": 2345,
      "neck": 2346,
      "rust": 2347,
      "speaking": 2348,
      "execut": 2349,
      "thousands": 2350,
      "sanctify": 2351,
      "sanctified": 2352,
      "wrote": 2353,
      "Zedekiah": 2354,
      "blemish": 2355,
      "Ca": 2356,
      "Make": 2357,
      "bad": 2358,
      "cers": 2359,
      "fil": 2360,
      "ured": 2361,
      "ascus": 2362,
      "rather": 2363,
      "upward": 2364,
      "manif": 2365,
      "acles": 2366,
      "evening": 2367,
      "preached": 2368,
      "dilig": 2369,
      "mbled": 2370,
      "dominion": 2371,
      "app": 2372,
      "treasures": 2373,
      "Abram": 2374,
      "satis": 2375,
      "ashan": 2376,
      "teenth": 2377,
      "See": 2378,
      "sprink": 2379,
      "choose": 2380,
      "drive": 2381,
      "trumpet": 2382,
      "fifth": 2383,
      "punish": 2384,
      "baptized": 2385,
      "Syrians": 2386,
      "snare": 2387,
      "Bashan": 2388,
      "Har": 2389,
      "Praise": 2390,
      "yoke": 2391,
      "rea": 2392,
      "ough": 2393,
      "unleavened": 2394,
      "lip": 2395,
      "lived": 2396,
      "decai": 2397,
      "ordin": 2398,
      "nezzar": 2399,
      "giving": 2400,
      "hated": 2401,
      "Jehu": 2402,
      "despi": 2403,
      "founded": 2404,
      "dwelling": 2405,
      "circumc": 2406,
      "Nebuchadnezzar": 2407,
      "supplic": 2408,
      "seventy": 2409,
      "Unto": 2410,
      "Mordecai": 2411,
      "Damascus": 2412,
      "despised": 2413,
      "Every": 2414,
      "Uri": 2415,
      "lod": 2416,
      "ns": 2417,
      "inno": 2418,
      "rection": 2419,
      "recomp": 2420,
      "seeth": 2421,
      "asphe": 2422,
      "meon": 2423,
      "forget": 2424,
      "whence": 2425,
      "gift": 2426,
      "chang": 2427,
      "spee": 2428,
      "blasphe": 2429,
      "fields": 2430,
      "lament": 2431,
      "months": 2432,
      "burning": 2433,
      "captive": 2434,
      "swear": 2435,
      "horsemen": 2436,
      "endureth": 2437,
      "Master": 2438,
      "kne": 2439,
      "lah": 2440,
      "nal": 2441,
      "nah": 2442,
      "pat": 2443,
      "scar": 2444,
      "tur": 2445,
      "season": 2446,
      "akim": 2447,
      "quest": 2448,
      "plu": 2449,
      "dwelleth": 2450,
      "habitation": 2451,
      "except": 2452,
      "escape": 2453,
      "escaped": 2454,
      "officers": 2455,
      "Again": 2456,
      "Lab": 2457,
      "Sin": 2458,
      "epeth": 2459,
      "ff": 2460,
      "hom": 2461,
      "ias": 2462,
      "ting": 2463,
      "once": 2464,
      "atan": 2465,
      "ank": 2466,
      "meas": 2467,
      "lied": 2468,
      "dealt": 2469,
      "willing": 2470,
      "next": 2471,
      "handmaid": 2472,
      "sum": 2473,
      "chant": 2474,
      "queen": 2475,
      "prophesi": 2476,
      "kingdoms": 2477,
      "curtain": 2478,
      "raiment": 2479,
      "compan": 2480,
      "remembered": 2481,
      "Almighty": 2482,
      "provin": 2483,
      "named": 2484,
      "thoughts": 2485,
      "nakedness": 2486,
      "pleasant": 2487,
      "Le": 2488,
      "Pil": 2489,
      "Satan": 2490,
      "aw": 2491,
      "bind": 2492,
      "ms": 2493,
      "pen": 2494,
      "pers": 2495,
      "rings": 2496,
      "slaughter": 2497,
      "tle": 2498,
      "tation": 2499,
      "vo": 2500,
      "reed": 2501,
      "enance": 2502,
      "met": 2503,
      "member": 2504,
      "weak": 2505,
      "owed": 2506,
      "doct": 2507,
      "person": 2508,
      "persons": 2509,
      "eateth": 2510,
      "tables": 2511,
      "carca": 2512,
      "graven": 2513,
      "purpose": 2514,
      "suffe": 2515,
      "marve": 2516,
      "despise": 2517,
      "Esther": 2518,
      "proud": 2519,
      "Pilate": 2520,
      "doctr": 2521,
      "Are": 2522,
      "Haz": 2523,
      "Na": 2524,
      "ckets": 2525,
      "ile": 2526,
      "iately": 2527,
      "lad": 2528,
      "ult": 2529,
      "ane": 2530,
      "forgive": 2531,
      "oked": 2532,
      "haste": 2533,
      "Jez": 2534,
      "Though": 2535,
      "food": 2536,
      "mediately": 2537,
      "thirst": 2538,
      "altars": 2539,
      "countries": 2540,
      "iniquities": 2541,
      "spoiled": 2542,
      "consume": 2543,
      "Canaanites": 2544,
      "devils": 2545,
      "fowls": 2546,
      "wonders": 2547,
      "mingled": 2548,
      "Laban": 2549,
      "Gil": 2550,
      "Ko": 2551,
      "Mary": 2552,
      "bird": 2553,
      "ient": 2554,
      "lust": 2555,
      "non": 2556,
      "siah": 2557,
      "requi": 2558,
      "shake": 2559,
      "lean": 2560,
      "lehem": 2561,
      "odom": 2562,
      "sockets": 2563,
      "tery": 2564,
      "redom": 2565,
      "lands": 2566,
      "ously": 2567,
      "chan": 2568,
      "buy": 2569,
      "brook": 2570,
      "foundation": 2571,
      "charged": 2572,
      "quiet": 2573,
      "scribe": 2574,
      "afflicted": 2575,
      "beyond": 2576,
      "signs": 2577,
      "Shime": 2578,
      "Herod": 2579,
      "violence": 2580,
      "Zebul": 2581,
      "sepulchre": 2582,
      ";)": 2583,
      "Me": 2584,
      "Mac": 2585,
      "Not": 2586,
      "Say": 2587,
      "Zad": 2588,
      "ded": 2589,
      "ature": 2590,
      "beheld": 2591,
      "ition": 2592,
      "home": 2593,
      "deed": 2594,
      "cah": 2595,
      "pture": 2596,
      "tend": 2597,
      "gifts": 2598,
      "serp": 2599,
      "whoredom": 2600,
      "immediately": 2601,
      "dig": 2602,
      "Josiah": 2603,
      "countenance": 2604,
      "devoured": 2605,
      "Elias": 2606,
      "aliah": 2607,
      "scripture": 2608,
      "remained": 2609,
      "Art": 2610,
      "Haman": 2611,
      "observe": 2612,
      "Noah": 2613,
      "Simeon": 2614,
      "Ishma": 2615,
      "candlest": 2616,
      "manifest": 2617,
      "Zadok": 2618,
      "Ke": 2619,
      "Kir": 2620,
      "Neth": 2621,
      "Naph": 2622,
      "Sal": 2623,
      "tali": 2624,
      "reel": 2625,
      "ress": 2626,
      "heareth": 2627,
      "asmuch": 2628,
      "rage": 2629,
      "ows": 2630,
      "wheat": 2631,
      "afar": 2632,
      "consid": 2633,
      "brance": 2634,
      "Beer": 2635,
      "counted": 2636,
      "Whosoever": 2637,
      "remem": 2638,
      "ication": 2639,
      "Miz": 2640,
      "desired": 2641,
      "guard": 2642,
      "jealous": 2643,
      "Jehoiada": 2644,
      "speech": 2645,
      "scarlet": 2646,
      "consider": 2647,
      "Amale": 2648,
      "Jam": 2649,
      "bright": 2650,
      "dro": 2651,
      "eter": 2652,
      "each": 2653,
      "iced": 2654,
      "swall": 2655,
      "too": 2656,
      "stir": 2657,
      "stars": 2658,
      "forward": 2659,
      "forsake": 2660,
      "ourselves": 2661,
      "coasts": 2662,
      "root": 2663,
      "fig": 2664,
      "fet": 2665,
      "doings": 2666,
      "perver": 2667,
      "goodness": 2668,
      "deser": 2669,
      "ends": 2670,
      "judges": 2671,
      "risen": 2672,
      "cedar": 2673,
      "witnesses": 2674,
      "promised": 2675,
      "trumpets": 2676,
      "ephod": 2677,
      "talents": 2678,
      "terrible": 2679,
      "doctrine": 2680,
      "Ishmael": 2681,
      "remembrance": 2682,
      "Amalek": 2683,
      "Bring": 2684,
      "Tim": 2685,
      "furn": 2686,
      "ieth": 2687,
      "puri": 2688,
      "reap": 2689,
      "hell": 2690,
      "tower": 2691,
      "ances": 2692,
      "belong": 2693,
      "itself": 2694,
      "stance": 2695,
      "staves": 2696,
      "idon": 2697,
      "ideth": 2698,
      "idings": 2699,
      "former": 2700,
      "forgiven": 2701,
      "venge": 2702,
      "please": 2703,
      "camels": 2704,
      "teeth": 2705,
      "moon": 2706,
      "knowing": 2707,
      "bury": 2708,
      "glorified": 2709,
      "blue": 2710,
      "Remember": 2711,
      "builded": 2712,
      "parable": 2713,
      "covering": 2714,
      "mourning": 2715,
      "substance": 2716,
      "instruments": 2717,
      "Like": 2718,
      "damsel": 2719,
      "pestil": 2720,
      "rising": 2721,
      "Rehoboam": 2722,
      "circumcision": 2723,
      "prophesied": 2724,
      "suffered": 2725,
      "Naphtali": 2726,
      "Nathan": 2727,
      "Rac": 2728,
      "Sodom": 2729,
      "ger": 2730,
      "ield": 2731,
      "langu": 2732,
      "nest": 2733,
      "val": 2734,
      "want": 2735,
      "yield": 2736,
      "æa": 2737,
      "tham": 2738,
      "thorns": 2739,
      "thrust": 2740,
      "belly": 2741,
      "aries": 2742,
      "iting": 2743,
      "issu": 2744,
      "uted": 2745,
      "liken": 2746,
      "lions": 2747,
      "arer": 2748,
      "confounded": 2749,
      "brew": 2750,
      "breast": 2751,
      "Hebrew": 2752,
      "Joash": 2753,
      "empt": 2754,
      "slept": 2755,
      "touched": 2756,
      "griev": 2757,
      "increased": 2758,
      "driven": 2759,
      "Azariah": 2760,
      "wroth": 2761,
      "assembly": 2762,
      "friends": 2763,
      "search": 2764,
      "decree": 2765,
      "Jezreel": 2766,
      "Che": 2767,
      "Hitt": 2768,
      "fount": 2769,
      "gal": 2770,
      "lar": 2771,
      "milk": 2772,
      "swor": 2773,
      "inward": 2774,
      "err": 2775,
      "oni": 2776,
      "ained": 2777,
      "roar": 2778,
      "wheel": 2779,
      "adul": 2780,
      "dost": 2781,
      "spear": 2782,
      "sinners": 2783,
      "Shema": 2784,
      "purple": 2785,
      "palace": 2786,
      "divide": 2787,
      "clouds": 2788,
      "oppress": 2789,
      "sides": 2790,
      "transgressions": 2791,
      "Gibeah": 2792,
      "mischief": 2793,
      "enquire": 2794,
      "sworn": 2795,
      "Cæ": 2796,
      "Ged": 2797,
      "cro": 2798,
      "cess": 2799,
      "chast": 2800,
      "kis": 2801,
      "ni": 2802,
      "obed": 2803,
      "uge": 2804,
      "tom": 2805,
      "enced": 2806,
      "pet": 2807,
      "fro": 2808,
      "song": 2809,
      "pride": 2810,
      "antly": 2811,
      "Jesse": 2812,
      "glorious": 2813,
      "sixth": 2814,
      "bands": 2815,
      "Micha": 2816,
      "pillar": 2817,
      "spring": 2818,
      "gladness": 2819,
      "confid": 2820,
      "rebell": 2821,
      "rejoiced": 2822,
      "beauty": 2823,
      "Kohath": 2824,
      "eternal": 2825,
      "pestilence": 2826,
      "Rachel": 2827,
      "Bo": 2828,
      "Ez": 2829,
      "Hu": 2830,
      "Jeph": 2831,
      "Know": 2832,
      "Mes": 2833,
      "Rab": 2834,
      "biah": 2835,
      "ked": 2836,
      "mi": 2837,
      "tw": 2838,
      "inth": 2839,
      "inner": 2840,
      "hew": 2841,
      "step": 2842,
      "forgotten": 2843,
      "goest": 2844,
      "urrection": 2845,
      "conceived": 2846,
      "mbling": 2847,
      "fold": 2848,
      "harden": 2849,
      "joined": 2850,
      "Philip": 2851,
      "Howbeit": 2852,
      "entering": 2853,
      "refuge": 2854,
      "mourn": 2855,
      "office": 2856,
      "multiply": 2857,
      "interpretation": 2858,
      "sackcloth": 2859,
      "measured": 2860,
      "Zebulun": 2861,
      "Ai": 2862,
      "Bel": 2863,
      "Per": 2864,
      "Shu": 2865,
      "bal": 2866,
      "gue": 2867,
      "som": 2868,
      "tidings": 2869,
      "orah": 2870,
      "shan": 2871,
      "keepeth": 2872,
      "defi": 2873,
      "sheba": 2874,
      "Jebus": 2875,
      "created": 2876,
      "smoke": 2877,
      "aired": 2878,
      "armour": 2879,
      "desolation": 2880,
      "believeth": 2881,
      "appoint": 2882,
      "bullocks": 2883,
      "establish": 2884,
      "vineyards": 2885,
      "tarry": 2886,
      "towns": 2887,
      "multiplied": 2888,
      "Gibeon": 2889,
      "synagogue": 2890,
      "Car": 2891,
      "Gers": 2892,
      "Gide": 2893,
      "Lot": 2894,
      "Nor": 2895,
      "Nab": 2896,
      "Up": 2897,
      "bought": 2898,
      "ereth": 2899,
      "olive": 2900,
      "has": 2901,
      "sachar": 2902,
      "washed": 2903,
      "Issachar": 2904,
      "compassed": 2905,
      "udden": 2906,
      "unders": 2907,
      "green": 2908,
      "commun": 2909,
      "perform": 2910,
      "spect": 2911,
      "angry": 2912,
      "treasure": 2913,
      "fulness": 2914,
      "regard": 2915,
      "besought": 2916,
      "Asher": 2917,
      "posses": 2918,
      "repaired": 2919,
      "hanan": 2920,
      "thick": 2921,
      "obeyed": 2922,
      "sitting": 2923,
      "mercies": 2924,
      "eleven": 2925,
      "rebuke": 2926,
      "arrows": 2927,
      "Had": 2928,
      "Jab": 2929,
      "bord": 2930,
      "der": 2931,
      "fy": 2932,
      "hin": 2933,
      "mad": 2934,
      "twi": 2935,
      "record": 2936,
      "hail": 2937,
      "hire": 2938,
      "anah": 2939,
      "ashes": 2940,
      "salt": 2941,
      "uncircumcised": 2942,
      "staff": 2943,
      "forbid": 2944,
      "lives": 2945,
      "care": 2946,
      "else": 2947,
      "doest": 2948,
      "fatherless": 2949,
      "Judæa": 2950,
      "merchant": 2951,
      "cleave": 2952,
      "tribut": 2953,
      "passeth": 2954,
      "following": 2955,
      "captives": 2956,
      "armies": 2957,
      "justified": 2958,
      "piece": 2959,
      "shekel": 2960,
      "duke": 2961,
      "Balak": 2962,
      "weeping": 2963,
      "virgin": 2964,
      "satisfied": 2965,
      "turneth": 2966,
      "vengeance": 2967,
      "borders": 2968,
      "Ge": 2969,
      "Hor": 2970,
      "Mine": 2971,
      "ie": 2972,
      "latter": 2973,
      "mah": 2974,
      "pu": 2975,
      "sudden": 2976,
      "tes": 2977,
      "onou": 2978,
      "betr": 2979,
      "iding": 2980,
      "weary": 2981,
      "rable": 2982,
      "abhor": 2983,
      "magn": 2984,
      "herself": 2985,
      "breath": 2986,
      "wonder": 2987,
      "seeketh": 2988,
      "shoulder": 2989,
      "goods": 2990,
      "spirits": 2991,
      "harlot": 2992,
      "godly": 2993,
      "Benaiah": 2994,
      "Ahaz": 2995,
      "vailed": 2996,
      "provoke": 2997,
      "posts": 2998,
      "tors": 2999,
      "stretch": 3000,
      "planted": 3001,
      "sitteth": 3002,
      "rers": 3003,
      "straightway": 3004,
      "talked": 3005,
      "claim": 3006,
      "paths": 3007,
      "faint": 3008,
      "finished": 3009,
      "changed": 3010,
      "Shimei": 3011,
      "James": 3012,
      "desert": 3013,
      "steps": 3014,
      ".)": 3015,
      "Ethi": 3016,
      "Hag": 3017,
      "La": 3018,
      "Our": 3019,
      "auth": 3020,
      "bles": 3021,
      "fing": 3022,
      "psal": 3023,
      "sow": 3024,
      "repor": 3025,
      "secr": 3026,
      "istered": 3027,
      "ceed": 3028,
      "forest": 3029,
      "accom": 3030,
      "acheth": 3031,
      "plead": 3032,
      "hearing": 3033,
      "bride": 3034,
      "boards": 3035,
      "bosom": 3036,
      "shine": 3037,
      "lawful": 3038,
      "indign": 3039,
      "creature": 3040,
      "lords": 3041,
      "visions": 3042,
      "resurrection": 3043,
      "transgress": 3044,
      "declared": 3045,
      "compassion": 3046,
      "merciful": 3047,
      "drunk": 3048,
      "fierce": 3049,
      "Sarah": 3050,
      "Gilgal": 3051,
      "candlestick": 3052,
      "Shemaiah": 3053,
      "possessed": 3054,
      "Ethiop": 3055,
      "author": 3056,
      "accompl": 3057,
      "indignation": 3058,
      "Ama": 3059,
      "Turn": 3060,
      "bah": 3061,
      "dried": 3062,
      "grow": 3063,
      "mark": 3064,
      "obl": 3065,
      "pay": 3066,
      "wand": 3067,
      "tho": 3068,
      "hir": 3069,
      "orne": 3070,
      "cend": 3071,
      "ament": 3072,
      "ush": 3073,
      "mak": 3074,
      "terr": 3075,
      "spare": 3076,
      "tender": 3077,
      "ckon": 3078,
      "consecr": 3079,
      "pocr": 3080,
      "fruitful": 3081,
      "honou": 3082,
      "uncleanness": 3083,
      "hypocr": 3084,
      "fools": 3085,
      "toucheth": 3086,
      "grieved": 3087,
      "Seir": 3088,
      "beaten": 3089,
      "drunken": 3090,
      "strengthened": 3091,
      "walketh": 3092,
      "polluted": 3093,
      "heavy": 3094,
      "serpent": 3095,
      "issue": 3096,
      "grievous": 3097,
      "Amaziah": 3098,
      ":)": 3099,
      "Cy": 3100,
      "Hesh": 3101,
      "Nay": 3102,
      "Red": 3103,
      "due": 3104,
      "eigh": 3105,
      "fish": 3106,
      "horn": 3107,
      "iv": 3108,
      "ifi": 3109,
      "pah": 3110,
      "sor": 3111,
      "sim": 3112,
      "ttim": 3113,
      "vy": 3114,
      "vali": 3115,
      "remove": 3116,
      "ery": 3117,
      "sen": 3118,
      "measures": 3119,
      "least": 3120,
      "lepro": 3121,
      "forn": 3122,
      "holiness": 3123,
      "ket": 3124,
      "coat": 3125,
      "room": 3126,
      "lten": 3127,
      "sayest": 3128,
      "doing": 3129,
      "concu": 3130,
      "molten": 3131,
      "bowels": 3132,
      "pot": 3133,
      "cient": 3134,
      "tread": 3135,
      "writing": 3136,
      "cleansed": 3137,
      "ships": 3138,
      "Samson": 3139,
      "ministered": 3140,
      "wax": 3141,
      "porch": 3142,
      "chariah": 3143,
      "course": 3144,
      "eastward": 3145,
      "corners": 3146,
      "strife": 3147,
      "strait": 3148,
      "bondage": 3149,
      "ronic": 3150,
      "exceedingly": 3151,
      "ignor": 3152,
      "Merari": 3153,
      "Zechariah": 3154,
      "quickly": 3155,
      "supplication": 3156,
      "recompen": 3157,
      "adultery": 3158,
      "Gideon": 3159,
      "suddenly": 3160,
      "eighth": 3161,
      "leprosy": 3162,
      "concub": 3163,
      "En": 3164,
      "ban": 3165,
      "bars": 3166,
      "dle": 3167,
      "equ": 3168,
      "fenced": 3169,
      "ial": 3170,
      "kah": 3171,
      "swi": 3172,
      "happ": 3173,
      "era": 3174,
      "melt": 3175,
      "memor": 3176,
      "leb": 3177,
      "chronic": 3178,
      "cended": 3179,
      "liar": 3180,
      "cal": 3181,
      "ordained": 3182,
      "pronou": 3183,
      "proclaim": 3184,
      "Here": 3185,
      "divers": 3186,
      "tithe": 3187,
      "drin": 3188,
      "wouldest": 3189,
      "score": 3190,
      "content": 3191,
      "floor": 3192,
      "continue": 3193,
      "singers": 3194,
      "drag": 3195,
      "needy": 3196,
      "oppressed": 3197,
      "girdle": 3198,
      "appearance": 3199,
      "pursued": 3200,
      "revealed": 3201,
      "shepherds": 3202,
      "innocent": 3203,
      "digged": 3204,
      "empty": 3205,
      "Heshbon": 3206,
      "chronicles": 3207,
      "Gath": 3208,
      "Kad": 3209,
      "Lest": 3210,
      "Oh": 3211,
      "Pers": 3212,
      "either": 3213,
      "fis": 3214,
      "jath": 3215,
      "phan": 3216,
      "tood": 3217,
      "mean": 3218,
      "sad": 3219,
      "shar": 3220,
      "ley": 3221,
      "iram": 3222,
      "liber": 3223,
      "dew": 3224,
      "caught": 3225,
      "sol": 3226,
      "adan": 3227,
      "ption": 3228,
      "worketh": 3229,
      "avest": 3230,
      "prevailed": 3231,
      "letter": 3232,
      "chains": 3233,
      "heap": 3234,
      "appro": 3235,
      "cified": 3236,
      "broad": 3237,
      "blow": 3238,
      "grapes": 3239,
      "lamps": 3240,
      "building": 3241,
      "waxed": 3242,
      "scatter": 3243,
      "Ahaziah": 3244,
      "receiveth": 3245,
      "remaineth": 3246,
      "corner": 3247,
      "afflict": 3248,
      "palm": 3249,
      "Hamath": 3250,
      "comforted": 3251,
      "churches": 3252,
      "Sihon": 3253,
      "soldi": 3254,
      "assembled": 3255,
      "Jehoiakim": 3256,
      "crucified": 3257,
      "Tyre": 3258,
      "Caleb": 3259,
      "Sinai": 3260,
      "Kirjath": 3261,
      "valour": 3262,
      "confidence": 3263,
      "understood": 3264,
      "tribute": 3265,
      "authority": 3266,
      "Ara": 3267,
      "Hast": 3268,
      "cra": 3269,
      "dung": 3270,
      "ible": 3271,
      "line": 3272,
      "nought": 3273,
      "ug": 3274,
      "instead": 3275,
      "restore": 3276,
      "oft": 3277,
      "seas": 3278,
      "sealed": 3279,
      "withstanding": 3280,
      "solem": 3281,
      "col": 3282,
      "ury": 3283,
      "tears": 3284,
      "avi": 3285,
      "bold": 3286,
      "boast": 3287,
      "disea": 3288,
      "whereby": 3289,
      "folly": 3290,
      "fourscore": 3291,
      "wrong": 3292,
      "canst": 3293,
      "ullam": 3294,
      "twentieth": 3295,
      "kindred": 3296,
      "covet": 3297,
      "street": 3298,
      "tongues": 3299,
      "venture": 3300,
      "confess": 3301,
      "barley": 3302,
      "testimonies": 3303,
      "wounded": 3304,
      "Ramah": 3305,
      "doub": 3306,
      "adversaries": 3307,
      "According": 3308,
      "diligently": 3309,
      "rebellious": 3310,
      "defile": 3311,
      "fornication": 3312,
      "solemn": 3313,
      "Ep": 3314,
      "Jed": 3315,
      "St": 3316,
      "bul": 3317,
      "flame": 3318,
      "gavest": 3319,
      "respect": 3320,
      "hallow": 3321,
      "oram": 3322,
      "encam": 3323,
      "means": 3324,
      "stay": 3325,
      "withal": 3326,
      "ceased": 3327,
      "therewith": 3328,
      "cons": 3329,
      "overlaid": 3330,
      "ephah": 3331,
      "perceived": 3332,
      "creep": 3333,
      "silence": 3334,
      "scorn": 3335,
      "thrown": 3336,
      "bodies": 3337,
      "sabbaths": 3338,
      "statute": 3339,
      "waited": 3340,
      "herds": 3341,
      "refuse": 3342,
      "travail": 3343,
      "fowl": 3344,
      "corrupt": 3345,
      "oblation": 3346,
      "Gre": 3347,
      "High": 3348,
      "Hilk": 3349,
      "Ser": 3350,
      "Sing": 3351,
      "Will": 3352,
      "Wilt": 3353,
      "aim": 3354,
      "cun": 3355,
      "eag": 3356,
      "kins": 3357,
      "ninth": 3358,
      "hired": 3359,
      "array": 3360,
      "idue": 3361,
      "hook": 3362,
      "deceived": 3363,
      "adventure": 3364,
      "goings": 3365,
      "loh": 3366,
      "proceed": 3367,
      "letters": 3368,
      "plent": 3369,
      "thank": 3370,
      "besie": 3371,
      "gracious": 3372,
      "harp": 3373,
      "sacrificed": 3374,
      "reje": 3375,
      "counsell": 3376,
      "married": 3377,
      "residue": 3378,
      "transgressed": 3379,
      "provoked": 3380,
      "thresh": 3381,
      "refused": 3382,
      "Adoni": 3383,
      "Asaph": 3384,
      "drawn": 3385,
      "messenger": 3386,
      "girded": 3387,
      "rebelled": 3388,
      "enquired": 3389,
      "astonished": 3390,
      "patience": 3391,
      "Leah": 3392,
      "carcase": 3393,
      "change": 3394,
      "deeds": 3395,
      "likeness": 3396,
      "Hilkiah": 3397,
      "cunning": 3398,
      "Cur": 3399,
      "Did": 3400,
      "Mar": 3401,
      "Matt": 3402,
      "Out": 3403,
      "Obed": 3404,
      "Put": 3405,
      "Su": 3406,
      "clay": 3407,
      "ges": 3408,
      "sar": 3409,
      "tro": 3410,
      "wave": 3411,
      "thah": 3412,
      "hig": 3413,
      "isheth": 3414,
      "mel": 3415,
      "megr": 3416,
      "safe": 3417,
      "odden": 3418,
      "hot": 3419,
      "deter": 3420,
      "roll": 3421,
      "lost": 3422,
      "loving": 3423,
      "spot": 3424,
      "sheth": 3425,
      "preserve": 3426,
      "pomegr": 3427,
      "price": 3428,
      "Judas": 3429,
      "goodly": 3430,
      "cience": 3431,
      "treacher": 3432,
      "exhor": 3433,
      "Philistine": 3434,
      "inhabitant": 3435,
      "porters": 3436,
      "palaces": 3437,
      "continual": 3438,
      "profane": 3439,
      "Adam": 3440,
      "Shiloh": 3441,
      "instruction": 3442,
      "eighteen": 3443,
      "journeyed": 3444,
      "separated": 3445,
      "sojourn": 3446,
      "looketh": 3447,
      "excellent": 3448,
      "jealousy": 3449,
      "fountain": 3450,
      "wheels": 3451,
      "hardened": 3452,
      "Carmel": 3453,
      "valiant": 3454,
      "encamped": 3455,
      "pomegran": 3456,
      "Med": 3457,
      "Ner": 3458,
      "Ph": 3459,
      "ael": 3460,
      "fed": 3461,
      "ging": 3462,
      "mit": 3463,
      "mal": 3464,
      "sown": 3465,
      "reckon": 3466,
      "heat": 3467,
      "enough": 3468,
      "members": 3469,
      "ider": 3470,
      "deceive": 3471,
      "cave": 3472,
      "ils": 3473,
      "ilty": 3474,
      "feasts": 3475,
      "loaves": 3476,
      "causeth": 3477,
      "contr": 3478,
      "prove": 3479,
      "greatness": 3480,
      "Abisha": 3481,
      "partak": 3482,
      "firstfruits": 3483,
      "dismay": 3484,
      "foundations": 3485,
      "Sheba": 3486,
      "inhabited": 3487,
      "covereth": 3488,
      "testify": 3489,
      "grant": 3490,
      "trusted": 3491,
      "Isaiah": 3492,
      "Hearken": 3493,
      "subje": 3494,
      "abundantly": 3495,
      "tarried": 3496,
      "branch": 3497,
      "repented": 3498,
      "distress": 3499,
      "henceforth": 3500,
      "loosed": 3501,
      "whoredoms": 3502,
      "large": 3503,
      "Gedaliah": 3504,
      "Upon": 3505,
      "memorial": 3506,
      "determin": 3507,
      "males": 3508,
      "Zidon": 3509,
      "fre": 3510,
      "hua": 3511,
      "kam": 3512,
      "oint": 3513,
      "pain": 3514,
      "tles": 3515,
      "intre": 3516,
      "resto": 3517,
      "rezzar": 3518,
      "heir": 3519,
      "erus": 3520,
      "onia": 3521,
      "bearer": 3522,
      "bekah": 3523,
      "ashi": 3524,
      "sakes": 3525,
      "stayed": 3526,
      "upper": 3527,
      "already": 3528,
      "esty": 3529,
      "iling": 3530,
      "lots": 3531,
      "spices": 3532,
      "gilead": 3533,
      "hateth": 3534,
      "worm": 3535,
      "sayings": 3536,
      "suerus": 3537,
      "athar": 3538,
      "moth": 3539,
      "perpet": 3540,
      "speed": 3541,
      "plate": 3542,
      "truly": 3543,
      "cleanse": 3544,
      "falleth": 3545,
      "Whoso": 3546,
      "younger": 3547,
      "courage": 3548,
      "minist": 3549,
      "Ahasuerus": 3550,
      "crying": 3551,
      "Micah": 3552,
      "Abiathar": 3553,
      "skins": 3554,
      "answering": 3555,
      "Nebuchadrezzar": 3556,
      "pasture": 3557,
      "learn": 3558,
      "looking": 3559,
      "appare": 3560,
      "curtains": 3561,
      "conscience": 3562,
      "dismayed": 3563,
      "Aho": 3564,
      "Elam": 3565,
      "Gom": 3566,
      "Get": 3567,
      "Ked": 3568,
      "Lam": 3569,
      "Naz": 3570,
      "Sho": 3571,
      "Tir": 3572,
      "adeth": 3573,
      "borne": 3574,
      "cas": 3575,
      "pity": 3576,
      "tu": 3577,
      "xes": 3578,
      "hest": 3579,
      "ens": 3580,
      "ency": 3581,
      "beam": 3582,
      "armed": 3583,
      "meek": 3584,
      "nobles": 3585,
      "ours": 3586,
      "calf": 3587,
      "alo": 3588,
      "along": 3589,
      "whir": 3590,
      "abas": 3591,
      "abound": 3592,
      "making": 3593,
      "acc": 3594,
      "aches": 3595,
      "tereth": 3596,
      "consp": 3597,
      "mention": 3598,
      "press": 3599,
      "prevail": 3600,
      "dieth": 3601,
      "putteth": 3602,
      "quen": 3603,
      "calleth": 3604,
      "standeth": 3605,
      "Rebekah": 3606,
      "tabernacles": 3607,
      "heritage": 3608,
      "Shaphan": 3609,
      "windows": 3610,
      "icing": 3611,
      "murde": 3612,
      "separate": 3613,
      "vows": 3614,
      "hanged": 3615,
      "Tell": 3616,
      "walking": 3617,
      "sprinkle": 3618,
      "ordinance": 3619,
      "knees": 3620,
      "pluck": 3621,
      "provinces": 3622,
      "dedic": 3623,
      "fetch": 3624,
      "furnace": 3625,
      "Likewise": 3626,
      "Cæsar": 3627,
      "Gershon": 3628,
      "publ": 3629,
      "honourable": 3630,
      "soldiers": 3631,
      "threshing": 3632,
      "determined": 3633,
      "Lamb": 3634,
      "Ex": 3635,
      "Joram": 3636,
      "Ken": 3637,
      "Nun": 3638,
      "Sham": 3639,
      "Savi": 3640,
      "Tars": 3641,
      "Whom": 3642,
      "Zac": 3643,
      "bat": 3644,
      "dim": 3645,
      "gall": 3646,
      "hud": 3647,
      "jesty": 3648,
      "lack": 3649,
      "lwind": 3650,
      "nabas": 3651,
      "och": 3652,
      "pth": 3653,
      "aned": 3654,
      "vex": 3655,
      "weap": 3656,
      "race": 3657,
      "depth": 3658,
      "alth": 3659,
      "altogether": 3660,
      "abideth": 3661,
      "loth": 3662,
      "wholly": 3663,
      "prover": 3664,
      "woe": 3665,
      "Jeshua": 3666,
      "chapit": 3667,
      "heave": 3668,
      "merry": 3669,
      "royal": 3670,
      "disciple": 3671,
      "humbled": 3672,
      "certainly": 3673,
      "camest": 3674,
      "praises": 3675,
      "arms": 3676,
      "singing": 3677,
      "While": 3678,
      "continued": 3679,
      "dumb": 3680,
      "brasen": 3681,
      "Maha": 3682,
      "Barnabas": 3683,
      "business": 3684,
      "Hananiah": 3685,
      "accepted": 3686,
      "hungry": 3687,
      "execute": 3688,
      "require": 3689,
      "Maced": 3690,
      "perverse": 3691,
      "cross": 3692,
      "obedient": 3693,
      "Jephthah": 3694,
      "merchants": 3695,
      "report": 3696,
      "terror": 3697,
      "Persia": 3698,
      "sharp": 3699,
      "rejected": 3700,
      "Cursed": 3701,
      "whirlwind": 3702,
      "Saviour": 3703,
      "Con": 3704,
      "Gree": 3705,
      "Nah": 3706,
      "Naam": 3707,
      "Pro": 3708,
      "Rep": 3709,
      "bir": 3710,
      "blo": 3711,
      "bene": 3712,
      "cat": 3713,
      "dar": 3714,
      "dish": 3715,
      "eem": 3716,
      "gat": 3717,
      "sca": 3718,
      "throw": 3719,
      "seer": 3720,
      "seest": 3721,
      "ani": 3722,
      "forbear": 3723,
      "week": 3724,
      "usion": 3725,
      "robe": 3726,
      "aded": 3727,
      "locu": 3728,
      "spo": 3729,
      "prud": 3730,
      "grew": 3731,
      "pool": 3732,
      "Before": 3733,
      "phel": 3734,
      "moreover": 3735,
      "workers": 3736,
      "short": 3737,
      "hundreds": 3738,
      "glorify": 3739,
      "shittim": 3740,
      "spiritual": 3741,
      "princi": 3742,
      "Amnon": 3743,
      "Levite": 3744,
      "Peace": 3745,
      "Baasha": 3746,
      "uttermost": 3747,
      "valleys": 3748,
      "obtained": 3749,
      "thief": 3750,
      "thanksgiving": 3751,
      "punished": 3752,
      "pursue": 3753,
      "touching": 3754,
      "learned": 3755,
      "anointing": 3756,
      "Uriah": 3757,
      "Timo": 3758,
      "breastplate": 3759,
      "Kadesh": 3760,
      "covetous": 3761,
      "creeping": 3762,
      "perpetual": 3763,
      "apparel": 3764,
      "Nazareth": 3765,
      "Macedonia": 3766,
      "birth": 3767,
      "beneath": 3768,
      "locust": 3769,
      "Bu": 3770,
      "Cain": 3771,
      "Esh": 3772,
      "Gaz": 3773,
      "Kish": 3774,
      "Men": 3775,
      "Mal": 3776,
      "ame": 3777,
      "best": 3778,
      "eun": 3779,
      "fit": 3780,
      "gers": 3781,
      "ier": 3782,
      "tha": 3783,
      "ination": 3784,
      "render": 3785,
      "isles": 3786,
      "ungodly": 3787,
      "amar": 3788,
      "majesty": 3789,
      "fault": 3790,
      "space": 3791,
      "hadad": 3792,
      "comest": 3793,
      "breasts": 3794,
      "bosheth": 3795,
      "perceive": 3796,
      "play": 3797,
      "eating": 3798,
      "Johanan": 3799,
      "Egyptian": 3800,
      "tremble": 3801,
      "rows": 3802,
      "deny": 3803,
      "trodden": 3804,
      "justice": 3805,
      "suffi": 3806,
      "masters": 3807,
      "grief": 3808,
      "Shallum": 3809,
      "Maac": 3810,
      "oppression": 3811,
      "further": 3812,
      "nevertheless": 3813,
      "running": 3814,
      "Deliver": 3815,
      "Ramoth": 3816,
      "preaching": 3817,
      "Zeru": 3818,
      "Uzziah": 3819,
      "double": 3820,
      "bottom": 3821,
      "miracles": 3822,
      "punishment": 3823,
      "ordinances": 3824,
      "summer": 3825,
      "province": 3826,
      "language": 3827,
      "Ezra": 3828,
      "fishes": 3829,
      "liberty": 3830,
      "hooks": 3831,
      "restored": 3832,
      "eunuch": 3833,
      "Hath": 3834,
      "Korah": 3835,
      "Mesh": 3836,
      "Zo": 3837,
      "ler": 3838,
      "mand": 3839,
      "pub": 3840,
      "praised": 3841,
      "sme": 3842,
      "waves": 3843,
      "thunder": 3844,
      "rend": 3845,
      "oureth": 3846,
      "seal": 3847,
      "envy": 3848,
      "beth": 3849,
      "beareth": 3850,
      "unbeli": 3851,
      "forso": 3852,
      "myst": 3853,
      "estim": 3854,
      "rence": 3855,
      "evermore": 3856,
      "shem": 3857,
      "worse": 3858,
      "conv": 3859,
      "conside": 3860,
      "overflow": 3861,
      "suck": 3862,
      "seem": 3863,
      "seemeth": 3864,
      "perished": 3865,
      "cords": 3866,
      "cians": 3867,
      "trembling": 3868,
      "fourteen": 3869,
      "black": 3870,
      "tribul": 3871,
      "baal": 3872,
      "Whose": 3873,
      "aseiah": 3874,
      "charity": 3875,
      "timber": 3876,
      "testified": 3877,
      "offend": 3878,
      "findeth": 3879,
      "guilty": 3880,
      "whithersoever": 3881,
      "confusion": 3882,
      "bonds": 3883,
      "Baruch": 3884,
      "repentance": 3885,
      "westward": 3886,
      "separation": 3887,
      "widows": 3888,
      "Only": 3889,
      "rejoicing": 3890,
      "excellency": 3891,
      "swallowed": 3892,
      "purify": 3893,
      "Hittite": 3894,
      "kissed": 3895,
      "finger": 3896,
      "accomplished": 3897,
      "makest": 3898,
      "recompense": 3899,
      "Adonijah": 3900,
      "lovingkindness": 3901,
      "ointment": 3902,
      "principal": 3903,
      "Zeruiah": 3904,
      "forsook": 3905,
      "Ach": 3906,
      "Deb": 3907,
      "Dari": 3908,
      "Ek": 3909,
      "Hiv": 3910,
      "Sh": 3911,
      "TH": 3912,
      "Than": 3913,
      "bough": 3914,
      "ease": 3915,
      "fly": 3916,
      "fashi": 3917,
      "mption": 3918,
      "snow": 3919,
      "rele": 3920,
      "request": 3921,
      "ont": 3922,
      "onour": 3923,
      "begotten": 3924,
      "aste": 3925,
      "withered": 3926,
      "uncover": 3927,
      "stro": 3928,
      "stub": 3929,
      "wear": 3930,
      "wealth": 3931,
      "cakes": 3932,
      "thereth": 3933,
      "ilah": 3934,
      "inehas": 3935,
      "fai": 3936,
      "udes": 3937,
      "prolong": 3938,
      "pertain": 3939,
      "plains": 3940,
      "whereon": 3941,
      "Thine": 3942,
      "ishment": 3943,
      "displeased": 3944,
      "fourteenth": 3945,
      "babel": 3946,
      "Nebat": 3947,
      "somewhat": 3948,
      "counc": 3949,
      "joyful": 3950,
      "courts": 3951,
      "offended": 3952,
      "marri": 3953,
      "steal": 3954,
      "Arnon": 3955,
      "rained": 3956,
      "ministers": 3957,
      "jewels": 3958,
      "Maaseiah": 3959,
      "burdens": 3960,
      "ppa": 3961,
      "corruption": 3962,
      "Lib": 3963,
      "tempted": 3964,
      "rebuked": 3965,
      "ocation": 3966,
      "occas": 3967,
      "hunger": 3968,
      "sprinkled": 3969,
      "lodge": 3970,
      "willingly": 3971,
      "awake": 3972,
      "void": 3973,
      "birds": 3974,
      "Notwithstanding": 3975,
      "Keep": 3976,
      "Jebusites": 3977,
      "equal": 3978,
      "eagle": 3979,
      "Phinehas": 3980,
      "Abishai": 3981,
      "Meshullam": 3982,
      "Darius": 3983,
      "Abel": 3984,
      "Ber": 3985,
      "Com": 3986,
      "Ephe": 3987,
      "Im": 3988,
      "Lac": 3989,
      "Par": 3990,
      "Tamar": 3991,
      "ahaz": 3992,
      "bath": 3993,
      "dy": 3994,
      "izz": 3995,
      "joice": 3996,
      "kine": 3997,
      "mus": 3998,
      "pare": 3999,
      "pts": 4000,
      "thigh": 4001,
      "rect": 4002,
      "llous": 4003,
      "forasmuch": 4004,
      "cepts": 4005,
      "calam": 4006,
      "oward": 4007,
      "myr": 4008,
      "peh": 4009,
      "usury": 4010,
      "coals": 4011,
      "froward": 4012,
      "abad": 4013,
      "figs": 4014,
      "female": 4015,
      "lose": 4016,
      "fame": 4017,
      "dogs": 4018,
      "holds": 4019,
      "holden": 4020,
      "earnest": 4021,
      "precepts": 4022,
      "hasted": 4023,
      "poss": 4024,
      "priv": 4025,
      "whereas": 4026,
      "calling": 4027,
      "Jotham": 4028,
      "bringing": 4029,
      "apart": 4030,
      "prayers": 4031,
      "bald": 4032,
      "Rejoice": 4033,
      "cedars": 4034,
      "helped": 4035,
      "bowls": 4036,
      "marry": 4037,
      "anoah": 4038,
      "stream": 4039,
      "gues": 4040,
      "southward": 4041,
      "northward": 4042,
      "plagues": 4043,
      "barren": 4044,
      "shoot": 4045,
      "groom": 4046,
      "groves": 4047,
      "ninety": 4048,
      "cruel": 4049,
      "centuri": 4050,
      "synagogues": 4051,
      "brim": 4052,
      "Midianites": 4053,
      "condemn": 4054,
      "lamentation": 4055,
      "persu": 4056,
      "lusts": 4057,
      "Amalekites": 4058,
      "Boaz": 4059,
      "Husha": 4060,
      "Jabesh": 4061,
      "bridegroom": 4062,
      "swift": 4063,
      "tithes": 4064,
      "contrary": 4065,
      "Gomor": 4066,
      "dedicated": 4067,
      "Tarshish": 4068,
      "prudent": 4069,
      "smell": 4070,
      "shemesh": 4071,
      "Ekron": 4072,
      "Lachish": 4073,
      "possible": 4074,
      "Doth": 4075,
      "Hiram": 4076,
      "Many": 4077,
      "Sis": 4078,
      "Sil": 4079,
      "Send": 4080,
      "bone": 4081,
      "ealo": 4082,
      "glean": 4083,
      "ib": 4084,
      "nat": 4085,
      "pha": 4086,
      "pow": 4087,
      "pull": 4088,
      "rid": 4089,
      "swords": 4090,
      "recon": 4091,
      "ancient": 4092,
      "edfast": 4093,
      "lew": 4094,
      "stedfast": 4095,
      "hood": 4096,
      "dear": 4097,
      "amaz": 4098,
      "rocks": 4099,
      "robb": 4100,
      "mali": 4101,
      "fection": 4102,
      "nets": 4103,
      "lovers": 4104,
      "lted": 4105,
      "chiah": 4106,
      "ift": 4107,
      "whoso": 4108,
      "convers": 4109,
      "eves": 4110,
      "pots": 4111,
      "Jehor": 4112,
      "Jeze": 4113,
      "namely": 4114,
      "quar": 4115,
      "whereunto": 4116,
      "heavenly": 4117,
      "sia": 4118,
      "laws": 4119,
      "expe": 4120,
      "clear": 4121,
      "wickedly": 4122,
      "effect": 4123,
      "twelf": 4124,
      "bestow": 4125,
      "keepers": 4126,
      "blew": 4127,
      "salute": 4128,
      "devise": 4129,
      "coupl": 4130,
      "bearing": 4131,
      "multitudes": 4132,
      "genealo": 4133,
      "Jehoahaz": 4134,
      "killeth": 4135,
      "winds": 4136,
      "grown": 4137,
      "guide": 4138,
      "reprove": 4139,
      "abominable": 4140,
      "Assyri": 4141,
      "subdu": 4142,
      "Ammonites": 4143,
      "teaching": 4144,
      "fifteen": 4145,
      "matters": 4146,
      "baptis": 4147,
      "acceptable": 4148,
      "basket": 4149,
      "visited": 4150,
      "shields": 4151,
      "condemned": 4152,
      "persecute": 4153,
      "plucked": 4154,
      "marvelled": 4155,
      "Hazael": 4156,
      "Machir": 4157,
      "Mizpah": 4158,
      "Mizpeh": 4159,
      "swallow": 4160,
      "stirred": 4161,
      "Perizz": 4162,
      "betray": 4163,
      "Cyrus": 4164,
      "pronounce": 4165,
      "besieged": 4166,
      "treacherously": 4167,
      "pomegranates": 4168,
      "estimation": 4169,
      "council": 4170,
      "Jehoram": 4171,
      "Jezebel": 4172,
      "twelfth": 4173,
      "Bless": 4174,
      "Mak": 4175,
      "Og": 4176,
      "Set": 4177,
      "blame": 4178,
      "cation": 4179,
      "dod": 4180,
      "emb": 4181,
      "jub": 4182,
      "mom": 4183,
      "mite": 4184,
      "pound": 4185,
      "ride": 4186,
      "taste": 4187,
      "wed": 4188,
      "za": 4189,
      "andise": 4190,
      "infirm": 4191,
      "hiah": 4192,
      "saf": 4193,
      "shaken": 4194,
      "vexed": 4195,
      "omi": 4196,
      "chandise": 4197,
      "deb": 4198,
      "alway": 4199,
      "saidst": 4200,
      "roof": 4201,
      "fee": 4202,
      "necess": 4203,
      "accus": 4204,
      "fav": 4205,
      "hadst": 4206,
      "comme": 4207,
      "astray": 4208,
      "overcome": 4209,
      "breach": 4210,
      "common": 4211,
      "potter": 4212,
      "chased": 4213,
      "stor": 4214,
      "stoned": 4215,
      "peradventure": 4216,
      "pledge": 4217,
      "sinneth": 4218,
      "whor": 4219,
      "setteth": 4220,
      "discovered": 4221,
      "merchandise": 4222,
      "fulfil": 4223,
      "keeper": 4224,
      "Amas": 4225,
      "ubbabel": 4226,
      "tempest": 4227,
      "alim": 4228,
      "scour": 4229,
      "humble": 4230,
      "vile": 4231,
      "vict": 4232,
      "Elk": 4233,
      "strive": 4234,
      "neighbours": 4235,
      "mourned": 4236,
      "suffering": 4237,
      "defence": 4238,
      "sorrows": 4239,
      "governors": 4240,
      "Zerubbabel": 4241,
      "bitterness": 4242,
      "adversary": 4243,
      "Ashdod": 4244,
      "Tyrus": 4245,
      "virgins": 4246,
      "companions": 4247,
      "carcases": 4248,
      "required": 4249,
      "brightness": 4250,
      "Hebrews": 4251,
      "Hittites": 4252,
      "Nabal": 4253,
      "Naboth": 4254,
      "concubine": 4255,
      "Stand": 4256,
      "reckoned": 4257,
      "partakers": 4258,
      "ministry": 4259,
      "tumult": 4260,
      "tribulation": 4261,
      "occasion": 4262,
      "baptism": 4263,
      "jubile": 4264,
      "moment": 4265,
      "Ah": 4266,
      "Ant": 4267,
      "Amo": 4268,
      "Asia": 4269,
      "Bil": 4270,
      "Cast": 4271,
      "Eup": 4272,
      "Itham": 4273,
      "Ly": 4274,
      "Mah": 4275,
      "Ret": 4276,
      "Shim": 4277,
      "Unt": 4278,
      "Your": 4279,
      "aleth": 4280,
      "bab": 4281,
      "blot": 4282,
      "ezer": 4283,
      "fra": 4284,
      "kk": 4285,
      "oak": 4286,
      "pher": 4287,
      "sort": 4288,
      "wake": 4289,
      "zar": 4290,
      "zah": 4291,
      "recover": 4292,
      "token": 4293,
      "eneth": 4294,
      "asunder": 4295,
      "unrighteousness": 4296,
      "leel": 4297,
      "chri": 4298,
      "choice": 4299,
      "rib": 4300,
      "alm": 4301,
      "rob": 4302,
      "ables": 4303,
      "whel": 4304,
      "neh": 4305,
      "nts": 4306,
      "ifer": 4307,
      "akest": 4308,
      "consent": 4309,
      "mocked": 4310,
      "epist": 4311,
      "pressed": 4312,
      "greatest": 4313,
      "performed": 4314,
      "played": 4315,
      "sinner": 4316,
      "prophecy": 4317,
      "desir": 4318,
      "ended": 4319,
      "hrates": 4320,
      "trembled": 4321,
      "discern": 4322,
      "sawest": 4323,
      "ops": 4324,
      "casting": 4325,
      "bai": 4326,
      "base": 4327,
      "howl": 4328,
      "graves": 4329,
      "rested": 4330,
      "openeth": 4331,
      "Eliab": 4332,
      "sixteen": 4333,
      "stronger": 4334,
      "hum": 4335,
      "husbandmen": 4336,
      "slayer": 4337,
      "minded": 4338,
      "prisoners": 4339,
      "Esaias": 4340,
      "dreams": 4341,
      "shoes": 4342,
      "bush": 4343,
      "falsely": 4344,
      "Look": 4345,
      "deceitful": 4346,
      "astonishment": 4347,
      "Achish": 4348,
      "executed": 4349,
      "supplications": 4350,
      "lodged": 4351,
      "marvellous": 4352,
      "Naomi": 4353,
      "scriptures": 4354,
      "twined": 4355,
      "Shushan": 4356,
      "magnified": 4357,
      "wander": 4358,
      "drinking": 4359,
      "approach": 4360,
      "doubt": 4361,
      "counsellors": 4362,
      "weapons": 4363,
      "darken": 4364,
      "mystery": 4365,
      "fashion": 4366,
      "release": 4367,
      "parents": 4368,
      "centurion": 4369,
      "Sisera": 4370,
      "lewd": 4371,
      "amazed": 4372,
      "safely": 4373,
      "Elkanah": 4374,
      "Euphrates": 4375,
      "Ithamar": 4376,
      "Return": 4377,
      "Until": 4378,
      "Ath": 4379,
      "Ahim": 4380,
      "Eno": 4381,
      "Eden": 4382,
      "Lift": 4383,
      "Mel": 4384,
      "Nine": 4385,
      "Nadab": 4386,
      "Obad": 4387,
      "Zim": 4388,
      "bi": 4389,
      "swine": 4390,
      "wing": 4391,
      "incl": 4392,
      "heifer": 4393,
      "tool": 4394,
      "ory": 4395,
      "edom": 4396,
      "ascend": 4397,
      "iss": 4398,
      "uncle": 4399,
      "lend": 4400,
      "leap": 4401,
      "idle": 4402,
      "weig": 4403,
      "raw": 4404,
      "aloud": 4405,
      "entereth": 4406,
      "thereto": 4407,
      "thereby": 4408,
      "ushi": 4409,
      "roots": 4410,
      "adv": 4411,
      "adult": 4412,
      "songs": 4413,
      "teries": 4414,
      "ague": 4415,
      "feareth": 4416,
      "accursed": 4417,
      "sheweth": 4418,
      "teacher": 4419,
      "ardon": 4420,
      "bru": 4421,
      "buck": 4422,
      "heaps": 4423,
      "pertained": 4424,
      "quake": 4425,
      "plow": 4426,
      "shoulders": 4427,
      "Joel": 4428,
      "elder": 4429,
      "treas": 4430,
      "exam": 4431,
      "praying": 4432,
      "medit": 4433,
      "tried": 4434,
      "layeth": 4435,
      "middle": 4436,
      "harps": 4437,
      "habitations": 4438,
      "flower": 4439,
      "steward": 4440,
      "Abijah": 4441,
      "taking": 4442,
      "Whither": 4443,
      "Hezron": 4444,
      "redemption": 4445,
      "Ahijah": 4446,
      "Ahitho": 4447,
      "Ahikam": 4448,
      "custom": 4449,
      "sickness": 4450,
      "dreamed": 4451,
      "groan": 4452,
      "murmu": 4453,
      "secretly": 4454,
      "searched": 4455,
      "elect": 4456,
      "profitable": 4457,
      "fiery": 4458,
      "beautiful": 4459,
      "persecuted": 4460,
      "filth": 4461,
      "recompence": 4462,
      "Nethaniah": 4463,
      "belongeth": 4464,
      "inwards": 4465,
      "eleventh": 4466,
      "wonderful": 4467,
      "transgressors": 4468,
      "Ethiopia": 4469,
      "hypocrites": 4470,
      "ifieth": 4471,
      "simple": 4472,
      "hallowed": 4473,
      "Seraiah": 4474,
      "Suc": 4475,
      "higher": 4476,
      "murderer": 4477,
      "proverb": 4478,
      "eunuchs": 4479,
      "persuaded": 4480,
      "conversation": 4481,
      "subdued": 4482,
      "feeble": 4483,
      "Anti": 4484,
      "Obadiah": 4485,
      "adulte": 4486,
      "Ahithophel": 4487,
      "Amon": 4488,
      "Bre": 4489,
      "Chi": 4490,
      "Cons": 4491,
      "Dep": 4492,
      "Hel": 4493,
      "Jok": 4494,
      "Mep": 4495,
      "Sir": 4496,
      "Sidon": 4497,
      "Tab": 4498,
      "Till": 4499,
      "dition": 4500,
      "ege": 4501,
      "ired": 4502,
      "icks": 4503,
      "nour": 4504,
      "ost": 4505,
      "ugh": 4506,
      "theus": 4507,
      "reven": 4508,
      "sever": 4509,
      "ascended": 4510,
      "itus": 4511,
      "itess": 4512,
      "ising": 4513,
      "sah": 4514,
      "unge": 4515,
      "unjust": 4516,
      "leaves": 4517,
      "legs": 4518,
      "league": 4519,
      "force": 4520,
      "ghost": 4521,
      "irt": 4522,
      "riel": 4523,
      "raven": 4524,
      "hoof": 4525,
      "deals": 4526,
      "arest": 4527,
      "coth": 4528,
      "agon": 4529,
      "herb": 4530,
      "account": 4531,
      "spent": 4532,
      "dove": 4533,
      "laugh": 4534,
      "Forasmuch": 4535,
      "offence": 4536,
      "earim": 4537,
      "working": 4538,
      "contend": 4539,
      "overthrow": 4540,
      "mock": 4541,
      "Beli": 4542,
      "Jehi": 4543,
      "mightest": 4544,
      "Through": 4545,
      "standard": 4546,
      "descend": 4547,
      "descended": 4548,
      "drank": 4549,
      "dwellest": 4550,
      "bathe": 4551,
      "harm": 4552,
      "godliness": 4553,
      "denied": 4554,
      "clothing": 4555,
      "closed": 4556,
      "kindle": 4557,
      "pitch": 4558,
      "scor": 4559,
      "aileth": 4560,
      "Moabites": 4561,
      "Jonah": 4562,
      "laboured": 4563,
      "chers": 4564,
      "sisters": 4565,
      "torment": 4566,
      "instructed": 4567,
      "committeth": 4568,
      "murmur": 4569,
      "faithfulness": 4570,
      "uprightness": 4571,
      "vowed": 4572,
      "foolishness": 4573,
      "Teman": 4574,
      "Zerah": 4575,
      "distres": 4576,
      "stumble": 4577,
      "stumbling": 4578,
      "bottles": 4579,
      "floods": 4580,
      "Seeing": 4581,
      "Haran": 4582,
      "question": 4583,
      "purposed": 4584,
      "despiseth": 4585,
      "Hazor": 4586,
      "kiss": 4587,
      "Mesha": 4588,
      "betrayed": 4589,
      "magnify": 4590,
      "dragon": 4591,
      "Arab": 4592,
      "safety": 4593,
      "speedily": 4594,
      "Aholi": 4595,
      "conspired": 4596,
      "Timotheus": 4597,
      "covetousness": 4598,
      "Gaza": 4599,
      "THE": 4600,
      "faileth": 4601,
      "calamity": 4602,
      "Gomorrah": 4603,
      "whoring": 4604,
      "epistle": 4605,
      "darkened": 4606,
      "Nineve": 4607,
      "murmured": 4608,
      "Succoth": 4609,
      "Antioch": 4610,
      "Consider": 4611,
      "Depart": 4612,
      "Anak": 4613,
      "Di": 4614,
      "Ga": 4615,
      "Hore": 4616,
      "Hav": 4617,
      "Hasha": 4618,
      "Mag": 4619,
      "Manoah": 4620,
      "Om": 4621,
      "Sen": 4622,
      "San": 4623,
      "Wr": 4624,
      "bud": 4625,
      "bak": 4626,
      "cing": 4627,
      "dal": 4628,
      "hunt": 4629,
      "jearim": 4630,
      "lings": 4631,
      "lower": 4632,
      "ny": 4633,
      "nings": 4634,
      "pover": 4635,
      "sus": 4636,
      "wages": 4637,
      "inims": 4638,
      "reach": 4639,
      "tops": 4640,
      "leep": 4641,
      "uttered": 4642,
      "rice": 4643,
      "caiah": 4644,
      "cold": 4645,
      "colt": 4646,
      "cock": 4647,
      "frank": 4648,
      "manna": 4649,
      "necks": 4650,
      "herbs": 4651,
      "Israelites": 4652,
      "rous": 4653,
      "cken": 4654,
      "confirm": 4655,
      "consol": 4656,
      "suc": 4657,
      "breaking": 4658,
      "aved": 4659,
      "turning": 4660,
      "whomsoever": 4661,
      "burneth": 4662,
      "exer": 4663,
      "phy": 4664,
      "blast": 4665,
      "mouths": 4666,
      "bade": 4667,
      "howbeit": 4668,
      "Shel": 4669,
      "shewbread": 4670,
      "Recha": 4671,
      "Ask": 4672,
      "youngest": 4673,
      "nights": 4674,
      "ekah": 4675,
      "backward": 4676,
      "courses": 4677,
      "Baalim": 4678,
      "Micaiah": 4679,
      "familiar": 4680,
      "rejoiceth": 4681,
      "tax": 4682,
      "fastened": 4683,
      "stricken": 4684,
      "maidens": 4685,
      "threw": 4686,
      "springs": 4687,
      "obtain": 4688,
      "presented": 4689,
      "neys": 4690,
      "Asahel": 4691,
      "sounded": 4692,
      "sorrowful": 4693,
      "taroth": 4694,
      "fifteenth": 4695,
      "Anath": 4696,
      "basons": 4697,
      "hanging": 4698,
      "hangings": 4699,
      "apostle": 4700,
      "Uzziel": 4701,
      "kidneys": 4702,
      "aneel": 4703,
      "thirsty": 4704,
      "Keilah": 4705,
      "Nethinims": 4706,
      "fetched": 4707,
      "obedience": 4708,
      "Michal": 4709,
      "armourbearer": 4710,
      "communed": 4711,
      "ignorance": 4712,
      "calves": 4713,
      "craft": 4714,
      "Ephr": 4715,
      "intreated": 4716,
      "Tirzah": 4717,
      "Maachah": 4718,
      "boughs": 4719,
      "stubble": 4720,
      "marriage": 4721,
      "Libnah": 4722,
      "Perizzites": 4723,
      "weighed": 4724,
      "Nineveh": 4725,
      "Omri": 4726,
      "Aro": 4727,
      "Awake": 4728,
      "Gather": 4729,
      "Grace": 4730,
      "Hur": 4731,
      "Lu": 4732,
      "Mat": 4733,
      "Ri": 4734,
      "Zep": 4735,
      "aware": 4736,
      "ben": 4737,
      "cure": 4738,
      "dif": 4739,
      "dread": 4740,
      "pra": 4741,
      "pardon": 4742,
      "rh": 4743,
      "tled": 4744,
      "ued": 4745,
      "uals": 4746,
      "thin": 4747,
      "thres": 4748,
      "thed": 4749,
      "inte": 4750,
      "rez": 4751,
      "hari": 4752,
      "hib": 4753,
      "hinder": 4754,
      "onite": 4755,
      "oracle": 4756,
      "sarea": 4757,
      "uncovered": 4758,
      "leper": 4759,
      "stabl": 4760,
      "fortre": 4761,
      "omuch": 4762,
      "rach": 4763,
      "eled": 4764,
      "estate": 4765,
      "esteem": 4766,
      "ably": 4767,
      "mai": 4768,
      "acknowledge": 4769,
      "comely": 4770,
      "dog": 4771,
      "complain": 4772,
      "holdeth": 4773,
      "hatred": 4774,
      "overtake": 4775,
      "breaketh": 4776,
      "prospe": 4777,
      "board": 4778,
      "prevent": 4779,
      "divisions": 4780,
      "putting": 4781,
      "gail": 4782,
      "gathereth": 4783,
      "tieth": 4784,
      "Abin": 4785,
      "crieth": 4786,
      "workman": 4787,
      "cia": 4788,
      "sig": 4789,
      "siege": 4790,
      "judgeth": 4791,
      "dwellings": 4792,
      "Sheb": 4793,
      "Shem": 4794,
      "Amram": 4795,
      "join": 4796,
      "Whatsoever": 4797,
      "cymb": 4798,
      "longer": 4799,
      "pier": 4800,
      "charger": 4801,
      "insomuch": 4802,
      "Jehoash": 4803,
      "bowl": 4804,
      "backsl": 4805,
      "stature": 4806,
      "desireth": 4807,
      "trusteth": 4808,
      "Abigail": 4809,
      "reproof": 4810,
      "husbands": 4811,
      "fasting": 4812,
      "Elah": 4813,
      "stripes": 4814,
      "fatness": 4815,
      "maidservant": 4816,
      "hidden": 4817,
      "torn": 4818,
      "bondmen": 4819,
      "shot": 4820,
      "shore": 4821,
      "grove": 4822,
      "towers": 4823,
      "licans": 4824,
      "watchman": 4825,
      "fellowship": 4826,
      "freewill": 4827,
      "Elishama": 4828,
      "prosperity": 4829,
      "flowers": 4830,
      "health": 4831,
      "firmament": 4832,
      "Sarai": 4833,
      "anguish": 4834,
      "filthy": 4835,
      "companies": 4836,
      "voices": 4837,
      "Eliashib": 4838,
      "Cæsarea": 4839,
      "twain": 4840,
      "hewn": 4841,
      "ignorant": 4842,
      "concubines": 4843,
      "drinketh": 4844,
      "Great": 4845,
      "kinsman": 4846,
      "subject": 4847,
      "freely": 4848,
      "quenched": 4849,
      "threshingfloor": 4850,
      "Except": 4851,
      "depths": 4852,
      "Nahor": 4853,
      "Naaman": 4854,
      "locusts": 4855,
      "publicans": 4856,
      "Ephesus": 4857,
      "victuals": 4858,
      "lewdness": 4859,
      "Athaliah": 4860,
      "Belial": 4861,
      "Horeb": 4862,
      "frankincense": 4863,
      "Rechab": 4864,
      "Aroer": 4865,
      "Ag": 4866,
      "Bet": 4867,
      "Call": 4868,
      "Heth": 4869,
      "Mir": 4870,
      "Rim": 4871,
      "Rise": 4872,
      "Sad": 4873,
      "aha": 4874,
      "cify": 4875,
      "don": 4876,
      "dan": 4877,
      "ding": 4878,
      "ee": 4879,
      "eg": 4880,
      "gy": 4881,
      "geth": 4882,
      "iam": 4883,
      "lst": 4884,
      "mul": 4885,
      "mill": 4886,
      "nay": 4887,
      "nur": 4888,
      "pa": 4889,
      "pan": 4890,
      "rans": 4891,
      "surn": 4892,
      "sloth": 4893,
      "try": 4894,
      "wag": 4895,
      "thite": 4896,
      "revi": 4897,
      "reserved": 4898,
      "often": 4899,
      "haught": 4900,
      "hideth": 4901,
      "estho": 4902,
      "ences": 4903,
      "beard": 4904,
      "betwi": 4905,
      "arch": 4906,
      "asleep": 4907,
      "unneh": 4908,
      "noon": 4909,
      "star": 4910,
      "veth": 4911,
      "fort": 4912,
      "forces": 4913,
      "weari": 4914,
      "degre": 4915,
      "wasted": 4916,
      "sop": 4917,
      "outward": 4918,
      "ility": 4919,
      "forehead": 4920,
      "math": 4921,
      "magi": 4922,
      "nether": 4923,
      "acqu": 4924,
      "accord": 4925,
      "teacheth": 4926,
      "confir": 4927,
      "overthrown": 4928,
      "Heman": 4929,
      "evid": 4930,
      "naum": 4931,
      "preserved": 4932,
      "seemed": 4933,
      "priestho": 4934,
      "earthquake": 4935,
      "stopped": 4936,
      "puted": 4937,
      "pernaum": 4938,
      "spears": 4939,
      "mbleth": 4940,
      "quet": 4941,
      "quite": 4942,
      "Whether": 4943,
      "foots": 4944,
      "casteth": 4945,
      "cheer": 4946,
      "speakest": 4947,
      "bases": 4948,
      "highway": 4949,
      "Amariah": 4950,
      "longsuffering": 4951,
      "devices": 4952,
      "smit": 4953,
      "deliverance": 4954,
      "sixty": 4955,
      "parables": 4956,
      "window": 4957,
      "grity": 4958,
      "Alas": 4959,
      "avenged": 4960,
      "straw": 4961,
      "refre": 4962,
      "minds": 4963,
      "obah": 4964,
      "thieves": 4965,
      "Ahimelech": 4966,
      "needs": 4967,
      "portions": 4968,
      "Reubenites": 4969,
      "wondrous": 4970,
      "temptation": 4971,
      "suppose": 4972,
      "zeal": 4973,
      "occup": 4974,
      "seventeen": 4975,
      "candle": 4976,
      "sepulchres": 4977,
      "Ziba": 4978,
      "stuff": 4979,
      "Capernaum": 4980,
      "readeth": 4981,
      "blasphemed": 4982,
      "Naha": 4983,
      "shakeh": 4984,
      "Salute": 4985,
      "roaring": 4986,
      "chastise": 4987,
      "Jephunneh": 4988,
      "twice": 4989,
      "abhorred": 4990,
      "banquet": 4991,
      "proclaimed": 4992,
      "dragons": 4993,
      "Mattaniah": 4994,
      "accuse": 4995,
      "chapiters": 4996,
      "unbelief": 4997,
      "convocation": 4998,
      "considered": 4999,
      "Hivites": 5000,
      "musick": 5001,
      "myrrh": 5002,
      "earnestly": 5003,
      "expect": 5004,
      "favoured": 5005,
      "Amasa": 5006,
      "filthiness": 5007,
      "Jehiel": 5008,
      "Anathoth": 5009,
      "integrity": 5010,
      "cymbals": 5011,
      "Rimmon": 5012,
      "ransom": 5013,
      "betwixt": 5014,
      "priesthood": 5015,
      "footstool": 5016,
      "Acha": 5017,
      "Bani": 5018,
      "Cor": 5019,
      "Er": 5020,
      "Elie": 5021,
      "Fo": 5022,
      "Ger": 5023,
      "Hold": 5024,
      "Hazar": 5025,
      "Id": 5026,
      "Iz": 5027,
      "Lazar": 5028,
      "Mil": 5029,
      "Ro": 5030,
      "Rome": 5031,
      "Sit": 5032,
      "Shad": 5033,
      "Seven": 5034,
      "Should": 5035,
      "Ter": 5036,
      "Tru": 5037,
      "Titus": 5038,
      "Zab": 5039,
      "Zip": 5040,
      "afore": 5041,
      "ahath": 5042,
      "aaz": 5043,
      "cart": 5044,
      "cree": 5045,
      "flam": 5046,
      "kl": 5047,
      "main": 5048,
      "nan": 5049,
      "nced": 5050,
      "oam": 5051,
      "ping": 5052,
      "patter": 5053,
      "phaz": 5054,
      "squ": 5055,
      "scept": 5056,
      "soft": 5057,
      "tub": 5058,
      "uah": 5059,
      "winter": 5060,
      "zabad": 5061,
      "æus": 5062,
      "ining": 5063,
      "renew": 5064,
      "reins": 5065,
      "hites": 5066,
      "hibosheth": 5067,
      "erxes": 5068,
      "enjoy": 5069,
      "enlar": 5070,
      "becometh": 5071,
      "beget": 5072,
      "arches": 5073,
      "ardeth": 5074,
      "assed": 5075,
      "wide": 5076,
      "meel": 5077,
      "sailed": 5078,
      "uncircumcision": 5079,
      "nostri": 5080,
      "stam": 5081,
      "oman": 5082,
      "ribut": 5083,
      "defe": 5084,
      "deaf": 5085,
      "entry": 5086,
      "aint": 5087,
      "areah": 5088,
      "elo": 5089,
      "soweth": 5090,
      "rovers": 5091,
      "nego": 5092,
      "locks": 5093,
      "aced": 5094,
      "spit": 5095,
      "ptist": 5096,
      "laver": 5097,
      "shen": 5098,
      "whore": 5099,
      "worth": 5100,
      "contempt": 5101,
      "overlay": 5102,
      "breaches": 5103,
      "Heber": 5104,
      "boil": 5105,
      "direct": 5106,
      "selfsame": 5107,
      "gai": 5108,
      "hearted": 5109,
      "Jerub": 5110,
      "Abed": 5111,
      "follo": 5112,
      "bloody": 5113,
      "region": 5114,
      "regardeth": 5115,
      "thirteen": 5116,
      "Rez": 5117,
      "wars": 5118,
      "close": 5119,
      "openly": 5120,
      "Eliakim": 5121,
      "Eliphaz": 5122,
      "Goshen": 5123,
      "builders": 5124,
      "winepress": 5125,
      "wailing": 5126,
      "sendeth": 5127,
      "flatter": 5128,
      "Tobiah": 5129,
      "ifying": 5130,
      "Canst": 5131,
      "offereth": 5132,
      "resist": 5133,
      "Baptist": 5134,
      "repair": 5135,
      "Artax": 5136,
      "reproached": 5137,
      "fasted": 5138,
      "avenge": 5139,
      "Seek": 5140,
      "labou": 5141,
      "profaned": 5142,
      "dukes": 5143,
      "Ahitub": 5144,
      "prisoner": 5145,
      "rode": 5146,
      "rods": 5147,
      "trespassed": 5148,
      "Nebuzar": 5149,
      "increaseth": 5150,
      "wondered": 5151,
      "baskets": 5152,
      "hairs": 5153,
      "visitation": 5154,
      "chamberl": 5155,
      "Teach": 5156,
      "wounds": 5157,
      "flourish": 5158,
      "distribut": 5159,
      "sojourneth": 5160,
      "added": 5161,
      "Zikl": 5162,
      "bottle": 5163,
      "shouting": 5164,
      "mirth": 5165,
      "diligent": 5166,
      "snares": 5167,
      "Against": 5168,
      "brooks": 5169,
      "drop": 5170,
      "fountains": 5171,
      "Michael": 5172,
      "Kohathites": 5173,
      "Meshe": 5174,
      "mire": 5175,
      "Hadad": 5176,
      "derision": 5177,
      "Hagar": 5178,
      "fingers": 5179,
      "happy": 5180,
      "disease": 5181,
      "exhort": 5182,
      "granted": 5183,
      "publish": 5184,
      "Zachari": 5185,
      "Prophe": 5186,
      "catch": 5187,
      "weeks": 5188,
      "shortly": 5189,
      "privily": 5190,
      "genealogy": 5191,
      "blameless": 5192,
      "Ahimaaz": 5193,
      "Melchi": 5194,
      "Zimri": 5195,
      "Mephibosheth": 5196,
      "Meshach": 5197,
      "Hashabiah": 5198,
      "consolation": 5199,
      "diffe": 5200,
      "fortress": 5201,
      "Miriam": 5202,
      "slothful": 5203,
      "magicians": 5204,
      "Eliezer": 5205,
      "Lazarus": 5206,
      "Shadrach": 5207,
      "nostrils": 5208,
      "followeth": 5209,
      "Artaxerxes": 5210,
      "Ziklag": 5211,
      "Honour": 5212,
      "JE": 5213,
      "Ped": 5214,
      "Pash": 5215,
      "Tek": 5216,
      "bag": 5217,
      "bank": 5218,
      "cise": 5219,
      "ere": 5220,
      "eas": 5221,
      "gid": 5222,
      "gah": 5223,
      "gad": 5224,
      "lac": 5225,
      "miel": 5226,
      "nath": 5227,
      "scall": 5228,
      "tai": 5229,
      "ura": 5230,
      "umber": 5231,
      "zur": 5232,
      "innu": 5233,
      "reacheth": 5234,
      "hite": 5235,
      "lls": 5236,
      "ony": 5237,
      "edan": 5238,
      "bere": 5239,
      "beware": 5240,
      "shave": 5241,
      "leadeth": 5242,
      "stif": 5243,
      "state": 5244,
      "stick": 5245,
      "ods": 5246,
      "cees": 5247,
      "lius": 5248,
      "yeth": 5249,
      "alms": 5250,
      "aments": 5251,
      "sober": 5252,
      "cost": 5253,
      "adiah": 5254,
      "uring": 5255,
      "spies": 5256,
      "lath": 5257,
      "laug": 5258,
      "handful": 5259,
      "wentest": 5260,
      "conver": 5261,
      "conceive": 5262,
      "proved": 5263,
      "eving": 5264,
      "evild": 5265,
      "naim": 5266,
      "wool": 5267,
      "ruin": 5268,
      "ruleth": 5269,
      "Beware": 5270,
      "seeking": 5271,
      "chase": 5272,
      "chaff": 5273,
      "stolen": 5274,
      "lemiah": 5275,
      "ornaments": 5276,
      "muel": 5277,
      "placed": 5278,
      "beholding": 5279,
      "sigh": 5280,
      "bite": 5281,
      "eldest": 5282,
      "parted": 5283,
      "firstling": 5284,
      "cheek": 5285,
      "trium": 5286,
      "Jahaz": 5287,
      "lightnings": 5288,
      "destroying": 5289,
      "Shew": 5290,
      "midnight": 5291,
      "wisely": 5292,
      "shewing": 5293,
      "Among": 5294,
      "Ammin": 5295,
      "horon": 5296,
      "riseth": 5297,
      "smith": 5298,
      "slow": 5299,
      "purged": 5300,
      "controvers": 5301,
      "surety": 5302,
      "sending": 5303,
      "bows": 5304,
      "testament": 5305,
      "wrapped": 5306,
      "remaining": 5307,
      "guilt": 5308,
      "Canaanite": 5309,
      "ducees": 5310,
      "idolat": 5311,
      "supper": 5312,
      "groweth": 5313,
      "Barak": 5314,
      "assemble": 5315,
      "imagination": 5316,
      "rewarded": 5317,
      "Hermon": 5318,
      "town": 5319,
      "rebel": 5320,
      "falsehood": 5321,
      "Gadites": 5322,
      "talent": 5323,
      "corrupted": 5324,
      "Chaldees": 5325,
      "Amorite": 5326,
      "delighteth": 5327,
      "hitherto": 5328,
      "bidden": 5329,
      "uthun": 5330,
      "hazi": 5331,
      "healing": 5332,
      "clave": 5333,
      "fairs": 5334,
      "shouted": 5335,
      "badgers": 5336,
      "blasphemy": 5337,
      "questions": 5338,
      "Nethaneel": 5339,
      "oppressor": 5340,
      "crooked": 5341,
      "frogs": 5342,
      "Bela": 5343,
      "Jebusite": 5344,
      "Gershom": 5345,
      "psalteries": 5346,
      "accomplish": 5347,
      "consecrated": 5348,
      "sorry": 5349,
      "coats": 5350,
      "pronounced": 5351,
      "colour": 5352,
      "Jeduthun": 5353,
      "plenteous": 5354,
      "Medes": 5355,
      "subjection": 5356,
      "meekness": 5357,
      "accused": 5358,
      "dimin": 5359,
      "vexation": 5360,
      "Greeks": 5361,
      "Repha": 5362,
      "Malchi": 5363,
      "Debir": 5364,
      "Shun": 5365,
      "brimstone": 5366,
      "Hushai": 5367,
      "powers": 5368,
      "bestowed": 5369,
      "commend": 5370,
      "storm": 5371,
      "teachers": 5372,
      "meditate": 5373,
      "stumblingblo": 5374,
      "poverty": 5375,
      "threshold": 5376,
      "Sadducees": 5377,
      "wearied": 5378,
      "expectation": 5379,
      "Iddo": 5380,
      "creepeth": 5381,
      "pattern": 5382,
      "square": 5383,
      "sceptre": 5384,
      "Jerubbaal": 5385,
      "Pashur": 5386,
      "Teko": 5387,
      "stiff": 5388,
      "evildo": 5389,
      "Ale": 5390,
      "Draw": 5391,
      "Dagon": 5392,
      "Eber": 5393,
      "Fest": 5394,
      "Gitt": 5395,
      "Gesh": 5396,
      "Hod": 5397,
      "Him": 5398,
      "Happ": 5399,
      "Hinno": 5400,
      "Jah": 5401,
      "Kareah": 5402,
      "None": 5403,
      "Op": 5404,
      "Olives": 5405,
      "Ruth": 5406,
      "Save": 5407,
      "Two": 5408,
      "Wat": 5409,
      "ax": 5410,
      "ago": 5411,
      "borrow": 5412,
      "dunge": 5413,
      "jaw": 5414,
      "ker": 5415,
      "mist": 5416,
      "nac": 5417,
      "narrow": 5418,
      "oven": 5419,
      "pil": 5420,
      "rin": 5421,
      "rison": 5422,
      "swell": 5423,
      "show": 5424,
      "vil": 5425,
      "vings": 5426,
      "wist": 5427,
      "thrice": 5428,
      "rew": 5429,
      "reig": 5430,
      "herib": 5431,
      "attend": 5432,
      "enchant": 5433,
      "behalf": 5434,
      "betro": 5435,
      "itude": 5436,
      "meal": 5437,
      "Andrew": 5438,
      "unna": 5439,
      "stain": 5440,
      "cele": 5441,
      "risee": 5442,
      "hole": 5443,
      "holes": 5444,
      "cake": 5445,
      "caul": 5446,
      "ambas": 5447,
      "ushed": 5448,
      "manservant": 5449,
      "mantle": 5450,
      "feign": 5451,
      "loops": 5452,
      "act": 5453,
      "acy": 5454,
      "shea": 5455,
      "owner": 5456,
      "tear": 5457,
      "giants": 5458,
      "aked": 5459,
      "greet": 5460,
      "chain": 5461,
      "stoop": 5462,
      "otherwise": 5463,
      "Judge": 5464,
      "commandeth": 5465,
      "broughtest": 5466,
      "mightier": 5467,
      "Joi": 5468,
      "Joppa": 5469,
      "Eglon": 5470,
      "Some": 5471,
      "dai": 5472,
      "disobedient": 5473,
      "opard": 5474,
      "answereth": 5475,
      "Jair": 5476,
      "laying": 5477,
      "lighted": 5478,
      "carp": 5479,
      "carved": 5480,
      "Whence": 5481,
      "Pharisee": 5482,
      "falling": 5483,
      "clare": 5484,
      "Remali": 5485,
      "Nebo": 5486,
      "Netop": 5487,
      "lamp": 5488,
      "delivereth": 5489,
      "alien": 5490,
      "purge": 5491,
      "garrison": 5492,
      "aioth": 5493,
      "floweth": 5494,
      "Most": 5495,
      "vinegar": 5496,
      "Mich": 5497,
      "ceness": 5498,
      "drave": 5499,
      "draweth": 5500,
      "ruled": 5501,
      "consulted": 5502,
      "palsy": 5503,
      "ferred": 5504,
      "Hamor": 5505,
      "Six": 5506,
      "possessions": 5507,
      "vanities": 5508,
      "abundant": 5509,
      "imagine": 5510,
      "Edomites": 5511,
      "labours": 5512,
      "Hannah": 5513,
      "afflictions": 5514,
      "mortal": 5515,
      "fellows": 5516,
      "Declare": 5517,
      "reverence": 5518,
      "rush": 5519,
      "promises": 5520,
      "heaviness": 5521,
      "ffed": 5522,
      "homer": 5523,
      "companion": 5524,
      "serpents": 5525,
      "error": 5526,
      "petition": 5527,
      "Rabbah": 5528,
      "hewed": 5529,
      "cleaveth": 5530,
      "Gezer": 5531,
      "psaltery": 5532,
      "Ethiopians": 5533,
      "consecrate": 5534,
      "ivory": 5535,
      "ification": 5536,
      "melted": 5537,
      "crafts": 5538,
      "boldly": 5539,
      "diseases": 5540,
      "Jedaiah": 5541,
      "plenty": 5542,
      "counsellor": 5543,
      "Martha": 5544,
      "troop": 5545,
      "highest": 5546,
      "mitre": 5547,
      "intreat": 5548,
      "heirs": 5549,
      "chapiter": 5550,
      "Mahanaim": 5551,
      "Concerning": 5552,
      "strove": 5553,
      "Silas": 5554,
      "natura": 5555,
      "reconci": 5556,
      "Assyrian": 5557,
      "Amoz": 5558,
      "robbed": 5559,
      "inclined": 5560,
      "Magdal": 5561,
      "Sennac": 5562,
      "Write": 5563,
      "Ephron": 5564,
      "prospered": 5565,
      "Abinadab": 5566,
      "Agag": 5567,
      "Better": 5568,
      "confirmed": 5569,
      "smiteth": 5570,
      "laughed": 5571,
      "Amminadab": 5572,
      "controversy": 5573,
      "Festus": 5574,
      "Geshur": 5575,
      "Happy": 5576,
      "Hinnom": 5577,
      "Ophir": 5578,
      "dungeon": 5579,
      "reigneth": 5580,
      "Remaliah": 5581,
      "natural": 5582,
      "Sennacherib": 5583,
      "Ari": 5584,
      "Agri": 5585,
      "Bath": 5586,
      "Dest": 5587,
      "Dedan": 5588,
      "Ebed": 5589,
      "Jar": 5590,
      "Mark": 5591,
      "Nim": 5592,
      "Nazar": 5593,
      "Open": 5594,
      "Pre": 5595,
      "Pen": 5596,
      "Pel": 5597,
      "Prep": 5598,
      "Tar": 5599,
      "Was": 5600,
      "Zalm": 5601,
      "aud": 5602,
      "ahiah": 5603,
      "ball": 5604,
      "bount": 5605,
      "cto": 5606,
      "dled": 5607,
      "ew": 5608,
      "eli": 5609,
      "ets": 5610,
      "fla": 5611,
      "ive": 5612,
      "kin": 5613,
      "kni": 5614,
      "nature": 5615,
      "obe": 5616,
      "py": 5617,
      "phi": 5618,
      "rang": 5619,
      "snu": 5620,
      "sseth": 5621,
      "ssop": 5622,
      "tan": 5623,
      "tare": 5624,
      "uous": 5625,
      "vines": 5626,
      "zill": 5627,
      "thro": 5628,
      "nds": 5629,
      "iners": 5630,
      "ret": 5631,
      "tooth": 5632,
      "erred": 5633,
      "seers": 5634,
      "encamp": 5635,
      "beha": 5636,
      "archers": 5637,
      "mech": 5638,
      "sage": 5639,
      "saving": 5640,
      "sapp": 5641,
      "unaware": 5642,
      "nose": 5643,
      "omas": 5644,
      "hiss": 5645,
      "weaned": 5646,
      "rim": 5647,
      "ripe": 5648,
      "raged": 5649,
      "verse": 5650,
      "kelon": 5651,
      "decei": 5652,
      "alon": 5653,
      "entre": 5654,
      "amed": 5655,
      "arezer": 5656,
      "sole": 5657,
      "front": 5658,
      "roe": 5659,
      "rolled": 5660,
      "abbas": 5661,
      "adah": 5662,
      "admon": 5663,
      "mag": 5664,
      "aged": 5665,
      "agree": 5666,
      "accounted": 5667,
      "failed": 5668,
      "hathite": 5669,
      "spy": 5670,
      "spared": 5671,
      "spreadeth": 5672,
      "camel": 5673,
      "doves": 5674,
      "compe": 5675,
      "geons": 5676,
      "ckled": 5677,
      "givest": 5678,
      "offspring": 5679,
      "earrings": 5680,
      "overthrew": 5681,
      "sured": 5682,
      "brea": 5683,
      "atha": 5684,
      "servile": 5685,
      "prepar": 5686,
      "rumour": 5687,
      "pol": 5688,
      "point": 5689,
      "dip": 5690,
      "divine": 5691,
      "Jerah": 5692,
      "tible": 5693,
      "mbs": 5694,
      "pheth": 5695,
      "watched": 5696,
      "watered": 5697,
      "workmen": 5698,
      "Thomas": 5699,
      "heardest": 5700,
      "throughly": 5701,
      "discre": 5702,
      "discover": 5703,
      "begun": 5704,
      "curi": 5705,
      "lightning": 5706,
      "oted": 5707,
      "grape": 5708,
      "Shephat": 5709,
      "Pharez": 5710,
      "keeping": 5711,
      "clust": 5712,
      "salut": 5713,
      "departing": 5714,
      "devised": 5715,
      "warm": 5716,
      "warn": 5717,
      "couple": 5718,
      "cursing": 5719,
      "pitcher": 5720,
      "bedee": 5721,
      "victo": 5722,
      "hyssop": 5723,
      "censer": 5724,
      "Abihu": 5725,
      "divination": 5726,
      "Jonas": 5727,
      "Jonadab": 5728,
      "skirt": 5729,
      "strike": 5730,
      "stripped": 5731,
      "counsels": 5732,
      "Ornan": 5733,
      "needle": 5734,
      "custo": 5735,
      "sickle": 5736,
      "footmen": 5737,
      "officer": 5738,
      "shook": 5739,
      "trespasses": 5740,
      "Barzill": 5741,
      "Anan": 5742,
      "Anah": 5743,
      "uprightly": 5744,
      "reasoned": 5745,
      "watchmen": 5746,
      "corruptible": 5747,
      "Hanan": 5748,
      "delighted": 5749,
      "foolishly": 5750,
      "troubles": 5751,
      "Zebah": 5752,
      "crucify": 5753,
      "fierceness": 5754,
      "Syrian": 5755,
      "sojourned": 5756,
      "Zebedee": 5757,
      "flowing": 5758,
      "Zichri": 5759,
      "briers": 5760,
      "condemnation": 5761,
      "gardens": 5762,
      "fainted": 5763,
      "satisfy": 5764,
      "blasphem": 5765,
      "Megid": 5766,
      "candlesticks": 5767,
      "drove": 5768,
      "purified": 5769,
      "belonged": 5770,
      "arers": 5771,
      "chasten": 5772,
      "Huram": 5773,
      "Hadarezer": 5774,
      "Geba": 5775,
      "Gehazi": 5776,
      "Lamech": 5777,
      "reported": 5778,
      "creatures": 5779,
      "simil": 5780,
      "waxen": 5781,
      "happened": 5782,
      "seasons": 5783,
      "colours": 5784,
      "Kedar": 5785,
      "Kedesh": 5786,
      "beams": 5787,
      "Greek": 5788,
      "spoon": 5789,
      "spoons": 5790,
      "purifying": 5791,
      "streams": 5792,
      "coupled": 5793,
      "infirmities": 5794,
      "scourge": 5795,
      "desiring": 5796,
      "Enoch": 5797,
      "Brethren": 5798,
      "several": 5799,
      "exercise": 5800,
      "backsliding": 5801,
      "mules": 5802,
      "difference": 5803,
      "triumph": 5804,
      "stumblingblock": 5805,
      "evildoers": 5806,
      "Watch": 5807,
      "ambassad": 5808,
      "Magdalene": 5809,
      "Agrippa": 5810,
      "Prepare": 5811,
      "Zalmunna": 5812,
      "audience": 5813,
      "unawares": 5814,
      "Shephatiah": 5815,
      "victory": 5816,
      "Barzillai": 5817,
      "Apo": 5818,
      "Aram": 5819,
      "Both": 5820,
      "Cre": 5821,
      "Din": 5822,
      "Fur": 5823,
      "Gal": 5824,
      "Ha": 5825,
      "IN": 5826,
      "Jeth": 5827,
      "Kid": 5828,
      "Pray": 5829,
      "Padan": 5830,
      "Pekah": 5831,
      "Qu": 5832,
      "Sa": 5833,
      "Ste": 5834,
      "Sep": 5835,
      "Tal": 5836,
      "Vash": 5837,
      "Zin": 5838,
      "Zobah": 5839,
      "Zelo": 5840,
      "alike": 5841,
      "cli": 5842,
      "cud": 5843,
      "fle": 5844,
      "fol": 5845,
      "flying": 5846,
      "gour": 5847,
      "gent": 5848,
      "iot": 5849,
      "lation": 5850,
      "mas": 5851,
      "pins": 5852,
      "rance": 5853,
      "rayed": 5854,
      "sang": 5855,
      "ssal": 5856,
      "slip": 5857,
      "sowed": 5858,
      "wrea": 5859,
      "yest": 5860,
      "renow": 5861,
      "recovered": 5862,
      "revo": 5863,
      "remoth": 5864,
      "eries": 5865,
      "sest": 5866,
      "eness": 5867,
      "envi": 5868,
      "ann": 5869,
      "bez": 5870,
      "bend": 5871,
      "aram": 5872,
      "arrayed": 5873,
      "asketh": 5874,
      "itions": 5875,
      "wiz": 5876,
      "wither": 5877,
      "sam": 5878,
      "shah": 5879,
      "unpunished": 5880,
      "leg": 5881,
      "leaf": 5882,
      "notwithstanding": 5883,
      "utish": 5884,
      "utmost": 5885,
      "hoped": 5886,
      "liest": 5887,
      "decre": 5888,
      "delic": 5889,
      "demand": 5890,
      "alti": 5891,
      "entrance": 5892,
      "Thessal": 5893,
      "robes": 5894,
      "absent": 5895,
      "maveth": 5896,
      "fetter": 5897,
      "Iscar": 5898,
      "loss": 5899,
      "lovest": 5900,
      "lade": 5901,
      "handle": 5902,
      "tended": 5903,
      "asted": 5904,
      "oversight": 5905,
      "overcometh": 5906,
      "provision": 5907,
      "moc": 5908,
      "moons": 5909,
      "ansing": 5910,
      "brutish": 5911,
      "booth": 5912,
      "precept": 5913,
      "bub": 5914,
      "Jeiel": 5915,
      "stop": 5916,
      "perfection": 5917,
      "tip": 5918,
      "spend": 5919,
      "speckled": 5920,
      "passing": 5921,
      "itted": 5922,
      "sentence": 5923,
      "mightily": 5924,
      "phehad": 5925,
      "Joah": 5926,
      "Abiram": 5927,
      "wells": 5928,
      "cially": 5929,
      "shor": 5930,
      "shining": 5931,
      "exper": 5932,
      "disput": 5933,
      "blah": 5934,
      "chest": 5935,
      "Jazer": 5936,
      "Japheth": 5937,
      "achin": 5938,
      "lightened": 5939,
      "thirteenth": 5940,
      "famous": 5941,
      "intent": 5942,
      "carnal": 5943,
      "Into": 5944,
      "Shelah": 5945,
      "clam": 5946,
      "Remove": 5947,
      "Ammi": 5948,
      "ubal": 5949,
      "warned": 5950,
      "serveth": 5951,
      "couraged": 5952,
      "Elihu": 5953,
      "Gog": 5954,
      "Bethany": 5955,
      "slumber": 5956,
      "understandeth": 5957,
      "viour": 5958,
      "justify": 5959,
      "desolations": 5960,
      "market": 5961,
      "sweareth": 5962,
      "Hoshea": 5963,
      "guile": 5964,
      "tale": 5965,
      "divor": 5966,
      "gathering": 5967,
      "maids": 5968,
      "waiteth": 5969,
      "ashub": 5970,
      "grind": 5971,
      "mourneth": 5972,
      "mindful": 5973,
      "observed": 5974,
      "Adullam": 5975,
      "correction": 5976,
      "ump": 5977,
      "Barabbas": 5978,
      "runneth": 5979,
      "leness": 5980,
      "urim": 5981,
      "plainly": 5982,
      "Jehoiachin": 5983,
      "intercess": 5984,
      "trave": 5985,
      "tradition": 5986,
      "Hanun": 5987,
      "Hanani": 5988,
      "morter": 5989,
      "morsel": 5990,
      "ariseth": 5991,
      "zebub": 5992,
      "damnation": 5993,
      "lowest": 5994,
      "Uzzi": 5995,
      "interpreted": 5996,
      "seats": 5997,
      "deceitfully": 5998,
      "afterwards": 5999,
      "Ashtaroth": 6000,
      "pollute": 6001,
      "finish": 6002,
      "Harim": 6003,
      "Urijah": 6004,
      "lamented": 6005,
      "measuring": 6006,
      "penny": 6007,
      "persua": 6008,
      "reeds": 6009,
      "quietness": 6010,
      "Beeroth": 6011,
      "Timnath": 6012,
      "purifi": 6013,
      "burying": 6014,
      "Knowest": 6015,
      "Haggai": 6016,
      "maker": 6017,
      "terrors": 6018,
      "hypocrite": 6019,
      "Redeem": 6020,
      "straitly": 6021,
      "scorner": 6022,
      "besiege": 6023,
      "Suf": 6024,
      "eighteenth": 6025,
      "pastures": 6026,
      "conspir": 6027,
      "quench": 6028,
      "published": 6029,
      "Kenaz": 6030,
      "lacked": 6031,
      "dishonour": 6032,
      "sufficient": 6033,
      "overflowing": 6034,
      "stroke": 6035,
      "Beriah": 6036,
      "Paran": 6037,
      "robbers": 6038,
      "Bilhah": 6039,
      "Mahli": 6040,
      "ission": 6041,
      "buckler": 6042,
      "scorp": 6043,
      "distressed": 6044,
      "Dibon": 6045,
      "physi": 6046,
      "Shelom": 6047,
      "Riblah": 6048,
      "stablish": 6049,
      "esteemed": 6050,
      "signet": 6051,
      "ahab": 6052,
      "acquaint": 6053,
      "Achaia": 6054,
      "Follow": 6055,
      "Izhar": 6056,
      "Milcah": 6057,
      "Terah": 6058,
      "Truly": 6059,
      "maintain": 6060,
      "enlarged": 6061,
      "defend": 6062,
      "Rezin": 6063,
      "labourers": 6064,
      "Zacharias": 6065,
      "Prophesy": 6066,
      "onyx": 6067,
      "axe": 6068,
      "ballat": 6069,
      "flax": 6070,
      "Ananias": 6071,
      "Megiddo": 6072,
      "similitude": 6073,
      "Further": 6074,
      "Kidron": 6075,
      "Zelophehad": 6076,
      "fetters": 6077,
      "Iscariot": 6078,
      "acquaintance": 6079,
      "Ada": 6080,
      "Bi": 6081,
      "Corne": 6082,
      "Cushi": 6083,
      "Dathan": 6084,
      "Ehud": 6085,
      "Hen": 6086,
      "Hide": 6087,
      "Just": 6088,
      "Lay": 6089,
      "Mam": 6090,
      "Mill": 6091,
      "Mushi": 6092,
      "Po": 6093,
      "Pass": 6094,
      "Prin": 6095,
      "Rahab": 6096,
      "Stre": 6097,
      "Smite": 6098,
      "Tro": 6099,
      "Tah": 6100,
      "Tubal": 6101,
      "Uz": 6102,
      "Under": 6103,
      "Wi": 6104,
      "Wisdom": 6105,
      "Zar": 6106,
      "Zur": 6107,
      "bake": 6108,
      "dance": 6109,
      "fare": 6110,
      "flies": 6111,
      "jalon": 6112,
      "lu": 6113,
      "lid": 6114,
      "lers": 6115,
      "mim": 6116,
      "oved": 6117,
      "pom": 6118,
      "push": 6119,
      "poureth": 6120,
      "riding": 6121,
      "sland": 6122,
      "tch": 6123,
      "taches": 6124,
      "vom": 6125,
      "vah": 6126,
      "vol": 6127,
      "vint": 6128,
      "wrest": 6129,
      "xand": 6130,
      "xad": 6131,
      "thu": 6132,
      "inst": 6133,
      "resh": 6134,
      "retain": 6135,
      "reared": 6136,
      "rechiah": 6137,
      "hen": 6138,
      "heel": 6139,
      "hazzar": 6140,
      "attained": 6141,
      "enai": 6142,
      "enlarge": 6143,
      "anci": 6144,
      "bewa": 6145,
      "asing": 6146,
      "iser": 6147,
      "sail": 6148,
      "sacks": 6149,
      "unah": 6150,
      "unrighteous": 6151,
      "noble": 6152,
      "stair": 6153,
      "ides": 6154,
      "omer": 6155,
      "withstand": 6156,
      "withholden": 6157,
      "uttereth": 6158,
      "rath": 6159,
      "liers": 6160,
      "lilies": 6161,
      "dealeth": 6162,
      "almo": 6163,
      "alarm": 6164,
      "almost": 6165,
      "owl": 6166,
      "amah": 6167,
      "ambush": 6168,
      "peor": 6169,
      "pear": 6170,
      "forefront": 6171,
      "maim": 6172,
      "nea": 6173,
      "achest": 6174,
      "spakest": 6175,
      "haddai": 6176,
      "lake": 6177,
      "menservants": 6178,
      "comfit": 6179,
      "beforetime": 6180,
      "affection": 6181,
      "holding": 6182,
      "earthen": 6183,
      "conce": 6184,
      "conven": 6185,
      "constra": 6186,
      "greed": 6187,
      "overtook": 6188,
      "Hepher": 6189,
      "nail": 6190,
      "nails": 6191,
      "wot": 6192,
      "prehe": 6193,
      "Beor": 6194,
      "Berechiah": 6195,
      "istr": 6196,
      "chance": 6197,
      "diel": 6198,
      "dipped": 6199,
      "bulls": 6200,
      "stock": 6201,
      "persed": 6202,
      "forthwith": 6203,
      "Juda": 6204,
      "judah": 6205,
      "burst": 6206,
      "treadeth": 6207,
      "phrah": 6208,
      "dissol": 6209,
      "discomfit": 6210,
      "dispersed": 6211,
      "cleansing": 6212,
      "headed": 6213,
      "cheweth": 6214,
      "lights": 6215,
      "remission": 6216,
      "carri": 6217,
      "peaceably": 6218,
      "highways": 6219,
      "Incl": 6220,
      "Shelemiah": 6221,
      "Reuel": 6222,
      "fearful": 6223,
      "device": 6224,
      "devoureth": 6225,
      "pigeons": 6226,
      "Eliel": 6227,
      "honest": 6228,
      "kinds": 6229,
      "kindly": 6230,
      "lifteth": 6231,
      "Bethuel": 6232,
      "helper": 6233,
      "Well": 6234,
      "dress": 6235,
      "beds": 6236,
      "affright": 6237,
      "timbre": 6238,
      "flat": 6239,
      "finding": 6240,
      "appeareth": 6241,
      "Baanah": 6242,
      "knewest": 6243,
      "hereafter": 6244,
      "llos": 6245,
      "Arpha": 6246,
      "tail": 6247,
      "reproved": 6248,
      "Elis": 6249,
      "divideth": 6250,
      "skil": 6251,
      "maidservants": 6252,
      "submit": 6253,
      "haniah": 6254,
      "presents": 6255,
      "Adar": 6256,
      "Samarit": 6257,
      "knop": 6258,
      "confes": 6259,
      "redeemer": 6260,
      "bracele": 6261,
      "instruct": 6262,
      "Wherein": 6263,
      "Sib": 6264,
      "sufferings": 6265,
      "barnea": 6266,
      "troubleth": 6267,
      "shoe": 6268,
      "shove": 6269,
      "Jeroham": 6270,
      "curseth": 6271,
      "uries": 6272,
      "gained": 6273,
      "secrets": 6274,
      "arib": 6275,
      "washing": 6276,
      "village": 6277,
      "Afterward": 6278,
      "zealous": 6279,
      "violent": 6280,
      "violently": 6281,
      "ceaseth": 6282,
      "snared": 6283,
      "Uzza": 6284,
      "grassho": 6285,
      "interpret": 6286,
      "adversity": 6287,
      "Ziph": 6288,
      "brick": 6289,
      "astonied": 6290,
      "persecution": 6291,
      "Rehob": 6292,
      "miracle": 6293,
      "diligence": 6294,
      "blaspheme": 6295,
      "turtled": 6296,
      "dedication": 6297,
      "manifested": 6298,
      "figure": 6299,
      "pervert": 6300,
      "Chereth": 6301,
      "Boz": 6302,
      "Philippi": 6303,
      "Beltes": 6304,
      "Beloved": 6305,
      "Peradventure": 6306,
      "balances": 6307,
      "madest": 6308,
      "wandered": 6309,
      "recompensed": 6310,
      "equity": 6311,
      "saddled": 6312,
      "boldness": 6313,
      "Greet": 6314,
      "proceedeth": 6315,
      "exhortation": 6316,
      "pomegranate": 6317,
      "Neriah": 6318,
      "Zidonians": 6319,
      "murderers": 6320,
      "scales": 6321,
      "birthright": 6322,
      "Zoar": 6323,
      "Deborah": 6324,
      "Immer": 6325,
      "reconc": 6326,
      "stedfastly": 6327,
      "coupling": 6328,
      "Assyrians": 6329,
      "infirmity": 6330,
      "necessity": 6331,
      "accusation": 6332,
      "whelps": 6333,
      "treasuries": 6334,
      "Tabor": 6335,
      "nourished": 6336,
      "Sanballat": 6337,
      "Zephaniah": 6338,
      "praising": 6339,
      "nurse": 6340,
      "haughty": 6341,
      "refreshed": 6342,
      "Corinth": 6343,
      "Gerar": 6344,
      "Zippor": 6345,
      "flaming": 6346,
      "guiltless": 6347,
      "Alexand": 6348,
      "enchantments": 6349,
      "magistr": 6350,
      "Jerahmeel": 6351,
      "curious": 6352,
      "Apollos": 6353,
      "Jethro": 6354,
      "Vashti": 6355,
      "wreathen": 6356,
      "altiel": 6357,
      "Ammihud": 6358,
      "conspiracy": 6359,
      "Furthermore": 6360,
      "Cornelius": 6361,
      "Mamre": 6362,
      "Millo": 6363,
      "Stretch": 6364,
      "vomit": 6365,
      "vintage": 6366,
      "ancients": 6367,
      "stairs": 6368,
      "Incline": 6369,
      "Arphaxad": 6370,
      "bracelets": 6371,
      "Belteshazzar": 6372,
      "Ap": 6373,
      "Aphe": 6374,
      "Bes": 6375,
      "Big": 6376,
      "Co": 6377,
      "Cai": 6378,
      "Carm": 6379,
      "Dr": 6380,
      "Dor": 6381,
      "Dod": 6382,
      "Elon": 6383,
      "Ezer": 6384,
      "Feli": 6385,
      "Gam": 6386,
      "Gab": 6387,
      "Gera": 6388,
      "Hat": 6389,
      "Has": 6390,
      "Hada": 6391,
      "Mad": 6392,
      "Mach": 6393,
      "Misha": 6394,
      "OF": 6395,
      "Rom": 6396,
      "Seth": 6397,
      "Ti": 6398,
      "Tho": 6399,
      "Woman": 6400,
      "Zil": 6401,
      "abeth": 6402,
      "bill": 6403,
      "baken": 6404,
      "bbeth": 6405,
      "crow": 6406,
      "dut": 6407,
      "dur": 6408,
      "drought": 6409,
      "fan": 6410,
      "ius": 6411,
      "ium": 6412,
      "mp": 6413,
      "mat": 6414,
      "mity": 6415,
      "mash": 6416,
      "niel": 6417,
      "os": 6418,
      "pis": 6419,
      "pine": 6420,
      "pim": 6421,
      "pang": 6422,
      "rud": 6423,
      "sses": 6424,
      "tin": 6425,
      "task": 6426,
      "tage": 6427,
      "takest": 6428,
      "ually": 6429,
      "wont": 6430,
      "inn": 6431,
      "inv": 6432,
      "requite": 6433,
      "halt": 6434,
      "erday": 6435,
      "erity": 6436,
      "eroth": 6437,
      "erpill": 6438,
      "ateth": 6439,
      "sedec": 6440,
      "engra": 6441,
      "anks": 6442,
      "befall": 6443,
      "assured": 6444,
      "itish": 6445,
      "itute": 6446,
      "island": 6447,
      "isance": 6448,
      "shai": 6449,
      "shak": 6450,
      "unity": 6451,
      "unic": 6452,
      "chin": 6453,
      "withdraw": 6454,
      "rav": 6455,
      "raud": 6456,
      "hollow": 6457,
      "liation": 6458,
      "lick": 6459,
      "lican": 6460,
      "liars": 6461,
      "uppim": 6462,
      "dezer": 6463,
      "case": 6464,
      "cald": 6465,
      "enters": 6466,
      "whiles": 6467,
      "thereunto": 6468,
      "pered": 6469,
      "copy": 6470,
      "rolo": 6471,
      "rotten": 6472,
      "abiding": 6473,
      "ability": 6474,
      "foreskin": 6475,
      "fever": 6476,
      "feel": 6477,
      "feeding": 6478,
      "necked": 6479,
      "butter": 6480,
      "span": 6481,
      "sheaf": 6482,
      "sheaves": 6483,
      "comb": 6484,
      "astrolo": 6485,
      "giver": 6486,
      "ithiah": 6487,
      "ifull": 6488,
      "sedu": 6489,
      "contain": 6490,
      "impossible": 6491,
      "avan": 6492,
      "proclam": 6493,
      "Hele": 6494,
      "moving": 6495,
      "event": 6496,
      "bridle": 6497,
      "naught": 6498,
      "woof": 6499,
      "hasty": 6500,
      "hasteth": 6501,
      "poison": 6502,
      "Beza": 6503,
      "seethe": 6504,
      "stocks": 6505,
      "perisheth": 6506,
      "mule": 6507,
      "yearly": 6508,
      "plates": 6509,
      "whereupon": 6510,
      "phet": 6511,
      "hedge": 6512,
      "Jozabad": 6513,
      "ssom": 6514,
      "cribe": 6515,
      "aphas": 6516,
      "settle": 6517,
      "shon": 6518,
      "shined": 6519,
      "glass": 6520,
      "daub": 6521,
      "gnash": 6522,
      "evils": 6523,
      "expi": 6524,
      "disgu": 6525,
      "castle": 6526,
      "foursquare": 6527,
      "arks": 6528,
      "tened": 6529,
      "Jaaz": 6530,
      "Jachin": 6531,
      "lightly": 6532,
      "thirtieth": 6533,
      "Shere": 6534,
      "Shealtiel": 6535,
      "hart": 6536,
      "silent": 6537,
      "saluted": 6538,
      "dens": 6539,
      "faithfully": 6540,
      "chiefest": 6541,
      "temples": 6542,
      "longed": 6543,
      "devout": 6544,
      "warp": 6545,
      "warred": 6546,
      "deliverer": 6547,
      "avement": 6548,
      "posing": 6549,
      "honoured": 6550,
      "buildeth": 6551,
      "parched": 6552,
      "lifting": 6553,
      "port": 6554,
      "sling": 6555,
      "slack": 6556,
      "purchased": 6557,
      "Howl": 6558,
      "seekest": 6559,
      "exceed": 6560,
      "thrones": 6561,
      "witch": 6562,
      "Tophet": 6563,
      "Peleth": 6564,
      "cruse": 6565,
      "spoiler": 6566,
      "covert": 6567,
      "repay": 6568,
      "blessings": 6569,
      "guest": 6570,
      "getteth": 6571,
      "vale": 6572,
      "provo": 6573,
      "provided": 6574,
      "fervent": 6575,
      "avenger": 6576,
      "bery": 6577,
      "posterity": 6578,
      "subt": 6579,
      "profess": 6580,
      "ministering": 6581,
      "knops": 6582,
      "eyelid": 6583,
      "Ammonite": 6584,
      "Whereas": 6585,
      "defenced": 6586,
      "Gileadite": 6587,
      "fleece": 6588,
      "vesture": 6589,
      "journeys": 6590,
      "murder": 6591,
      "Ans": 6592,
      "exalteth": 6593,
      "carrying": 6594,
      "talking": 6595,
      "icken": 6596,
      "crowns": 6597,
      "persecu": 6598,
      "revelation": 6599,
      "scattereth": 6600,
      "Zebadiah": 6601,
      "baptize": 6602,
      "bitterly": 6603,
      "Jobab": 6604,
      "Ashkelon": 6605,
      "learning": 6606,
      "honeycomb": 6607,
      "hungred": 6608,
      "patient": 6609,
      "Since": 6610,
      "sumpt": 6611,
      "bindeth": 6612,
      "proudly": 6613,
      "reapers": 6614,
      "rebellion": 6615,
      "kedah": 6616,
      "mixed": 6617,
      "hewers": 6618,
      "defileth": 6619,
      "regarded": 6620,
      "madness": 6621,
      "twilight": 6622,
      "recorder": 6623,
      "hireling": 6624,
      "virginity": 6625,
      "Hormah": 6626,
      "shineth": 6627,
      "consecration": 6628,
      "honoureth": 6629,
      "sorce": 6630,
      "contention": 6631,
      "fisher": 6632,
      "Araunah": 6633,
      "boasting": 6634,
      "refuseth": 6635,
      "eagles": 6636,
      "proceeded": 6637,
      "treacherous": 6638,
      "partaker": 6639,
      "ministr": 6640,
      "Shobal": 6641,
      "Gershonites": 6642,
      "proverbs": 6643,
      "Nahshon": 6644,
      "blossom": 6645,
      "caterpill": 6646,
      "scab": 6647,
      "Timothy": 6648,
      "Malchiah": 6649,
      "considereth": 6650,
      "Hivite": 6651,
      "prolonged": 6652,
      "pertaineth": 6653,
      "Command": 6654,
      "baths": 6655,
      "riddle": 6656,
      "quarters": 6657,
      "Maker": 6658,
      "Makkedah": 6659,
      "necessary": 6660,
      "babes": 6661,
      "advice": 6662,
      "bruise": 6663,
      "bruised": 6664,
      "treasury": 6665,
      "groaning": 6666,
      "adulterers": 6667,
      "murmurings": 6668,
      "Anakims": 6669,
      "Gaal": 6670,
      "Having": 6671,
      "benef": 6672,
      "dreadful": 6673,
      "prevented": 6674,
      "Shebna": 6675,
      "millstone": 6676,
      "wagons": 6677,
      "degrees": 6678,
      "Nahash": 6679,
      "stamped": 6680,
      "chamberlains": 6681,
      "Melchisedec": 6682,
      "converted": 6683,
      "diminish": 6684,
      "stiffnecked": 6685,
      "mistress": 6686,
      "showers": 6687,
      "betrothed": 6688,
      "carpenters": 6689,
      "Michmash": 6690,
      "Nazarite": 6691,
      "obeisance": 6692,
      "snuff": 6693,
      "behaved": 6694,
      "sapphire": 6695,
      "entreated": 6696,
      "preparation": 6697,
      "needlework": 6698,
      "Quicken": 6699,
      "fleeth": 6700,
      "wizards": 6701,
      "booths": 6702,
      "shortened": 6703,
      "intercession": 6704,
      "persuade": 6705,
      "Suffer": 6706,
      "scorpions": 6707,
      "Shelomith": 6708,
      "Adaiah": 6709,
      "convenient": 6710,
      "discomfited": 6711,
      "affrighted": 6712,
      "Elisabeth": 6713,
      "shovels": 6714,
      "Cherethites": 6715,
      "Bozrah": 6716,
      "Caiaphas": 6717,
      "Drink": 6718,
      "Felix": 6719,
      "Hadadezer": 6720,
      "Those": 6721,
      "durst": 6722,
      "pangs": 6723,
      "ifully": 6724,
      "proclamation": 6725,
      "Bezaleel": 6726,
      "expired": 6727,
      "eyelids": 6728,
      "Athen": 6729,
      "Ahin": 6730,
      "Akk": 6731,
      "Ci": 6732,
      "Cal": 6733,
      "Dis": 6734,
      "Ethan": 6735,
      "Edre": 6736,
      "Ebal": 6737,
      "Feed": 6738,
      "Gird": 6739,
      "Hab": 6740,
      "Ira": 6741,
      "Ithr": 6742,
      "Light": 6743,
      "Love": 6744,
      "Mas": 6745,
      "Mis": 6746,
      "Mall": 6747,
      "Mare": 6748,
      "Meth": 6749,
      "Much": 6750,
      "Nep": 6751,
      "Oth": 6752,
      "Over": 6753,
      "Ophrah": 6754,
      "Pis": 6755,
      "Res": 6756,
      "Right": 6757,
      "Rend": 6758,
      "Sy": 6759,
      "Sion": 6760,
      "Shar": 6761,
      "Shin": 6762,
      "Tou": 6763,
      "Trust": 6764,
      "Zop": 6765,
      "Zorah": 6766,
      "Zabad": 6767,
      "awo": 6768,
      "ahem": 6769,
      "bor": 6770,
      "bent": 6771,
      "bamah": 6772,
      "danger": 6773,
      "ez": 6774,
      "flight": 6775,
      "furi": 6776,
      "gments": 6777,
      "hun": 6778,
      "ijah": 6779,
      "ibah": 6780,
      "læ": 6781,
      "lof": 6782,
      "nit": 6783,
      "oenai": 6784,
      "pans": 6785,
      "pavement": 6786,
      "rs": 6787,
      "sine": 6788,
      "sers": 6789,
      "sower": 6790,
      "tof": 6791,
      "tah": 6792,
      "tren": 6793,
      "tasted": 6794,
      "usel": 6795,
      "uously": 6796,
      "vap": 6797,
      "vaileth": 6798,
      "waf": 6799,
      "wiser": 6800,
      "inf": 6801,
      "intend": 6802,
      "inclosed": 6803,
      "relieve": 6804,
      "reached": 6805,
      "hement": 6806,
      "hearest": 6807,
      "ouches": 6808,
      "hap": 6809,
      "hall": 6810,
      "hia": 6811,
      "llen": 6812,
      "erods": 6813,
      "esp": 6814,
      "ensign": 6815,
      "enmity": 6816,
      "edifying": 6817,
      "beon": 6818,
      "beckon": 6819,
      "its": 6820,
      "itch": 6821,
      "iture": 6822,
      "isho": 6823,
      "wipe": 6824,
      "withereth": 6825,
      "saviour": 6826,
      "shaking": 6827,
      "shazzar": 6828,
      "uni": 6829,
      "unknown": 6830,
      "leh": 6831,
      "stall": 6832,
      "stink": 6833,
      "vehement": 6834,
      "forgave": 6835,
      "forgat": 6836,
      "hissing": 6837,
      "allu": 6838,
      "allowed": 6839,
      "wea": 6840,
      "weigh": 6841,
      "odice": 6842,
      "rial": 6843,
      "rai": 6844,
      "liah": 6845,
      "licia": 6846,
      "uphold": 6847,
      "uproar": 6848,
      "key": 6849,
      "deput": 6850,
      "decked": 6851,
      "although": 6852,
      "whilst": 6853,
      "ammite": 6854,
      "elaiah": 6855,
      "sooth": 6856,
      "outside": 6857,
      "outgoings": 6858,
      "venison": 6859,
      "coll": 6860,
      "rog": 6861,
      "royeth": 6862,
      "ado": 6863,
      "foreheads": 6864,
      "got": 6865,
      "agreed": 6866,
      "achah": 6867,
      "pleasures": 6868,
      "daytime": 6869,
      "butler": 6870,
      "spou": 6871,
      "sport": 6872,
      "housetops": 6873,
      "doer": 6874,
      "lai": 6875,
      "sheath": 6876,
      "comore": 6877,
      "teachest": 6878,
      "gies": 6879,
      "giant": 6880,
      "affairs": 6881,
      "worms": 6882,
      "prus": 6883,
      "overwhel": 6884,
      "imoth": 6885,
      "imputed": 6886,
      "athite": 6887,
      "mosh": 6888,
      "evest": 6889,
      "brand": 6890,
      "boa": 6891,
      "box": 6892,
      "nai": 6893,
      "hasten": 6894,
      "hastily": 6895,
      "ctify": 6896,
      "idered": 6897,
      "diverse": 6898,
      "Jerimoth": 6899,
      "Jether": 6900,
      "Jeush": 6901,
      "perple": 6902,
      "perils": 6903,
      "perdition": 6904,
      "tied": 6905,
      "quit": 6906,
      "plants": 6907,
      "sinful": 6908,
      "wheresoever": 6909,
      "Abdon": 6910,
      "aphim": 6911,
      "apple": 6912,
      "apie": 6913,
      "cian": 6914,
      "Think": 6915,
      "broth": 6916,
      "broidered": 6917,
      "endured": 6918,
      "emerods": 6919,
      "lawy": 6920,
      "extor": 6921,
      "disse": 6922,
      "righteously": 6923,
      "begu": 6924,
      "destitute": 6925,
      "destroyeth": 6926,
      "judgest": 6927,
      "Jahath": 6928,
      "writ": 6929,
      "lighten": 6930,
      "peaceable": 6931,
      "grain": 6932,
      "Shechan": 6933,
      "atted": 6934,
      "attent": 6935,
      "Rehum": 6936,
      "restrained": 6937,
      "fearing": 6938,
      "pastors": 6939,
      "Nehem": 6940,
      "temper": 6941,
      "tempered": 6942,
      "departeth": 6943,
      "raiseth": 6944,
      "warning": 6945,
      "mothers": 6946,
      "trode": 6947,
      "couch": 6948,
      "meats": 6949,
      "Eliphe": 6950,
      "Elioenai": 6951,
      "Ittai": 6952,
      "curses": 6953,
      "Bethlehem": 6954,
      "helmet": 6955,
      "pits": 6956,
      "purchase": 6957,
      "prophetess": 6958,
      "followers": 6959,
      "Molech": 6960,
      "sycomore": 6961,
      "Shaul": 6962,
      "Shaphat": 6963,
      "vial": 6964,
      "backs": 6965,
      "Although": 6966,
      "books": 6967,
      "censers": 6968,
      "Benjamites": 6969,
      "Benjamite": 6970,
      "sunrising": 6971,
      "heretof": 6972,
      "Archi": 6973,
      "provide": 6974,
      "provocation": 6975,
      "fifties": 6976,
      "believing": 6977,
      "maiden": 6978,
      "Asshur": 6979,
      "herdmen": 6980,
      "declar": 6981,
      "Seest": 6982,
      "sprung": 6983,
      "subdue": 6984,
      "gladly": 6985,
      "Adah": 6986,
      "correct": 6987,
      "helpers": 6988,
      "bondwoman": 6989,
      "instrument": 6990,
      "Whereupon": 6991,
      "Maon": 6992,
      "perfected": 6993,
      "furrows": 6994,
      "Azmaveth": 6995,
      "shutteth": 6996,
      "ummim": 6997,
      "bounds": 6998,
      "ppers": 6999,
      "Dost": 7000,
      "govern": 7001,
      "pursuing": 7002,
      "pursueth": 7003,
      "rank": 7004,
      "temptations": 7005,
      "searcheth": 7006,
      "feedeth": 7007,
      "Galilæ": 7008,
      "reveal": 7009,
      "deeper": 7010,
      "prosperous": 7011,
      "Onan": 7012,
      "sojourner": 7013,
      "moveth": 7014,
      "dough": 7015,
      "despite": 7016,
      "kids": 7017,
      "Zibeon": 7018,
      "pleasing": 7019,
      "fillets": 7020,
      "hardly": 7021,
      "savoury": 7022,
      "manifold": 7023,
      "appuah": 7024,
      "circumcise": 7025,
      "kneeled": 7026,
      "handmaids": 7027,
      "awaked": 7028,
      "marvel": 7029,
      "Gilboa": 7030,
      "quieted": 7031,
      "dross": 7032,
      "stirreth": 7033,
      "rooted": 7034,
      "furniture": 7035,
      "languisheth": 7036,
      "wanting": 7037,
      "yielded": 7038,
      "emptied": 7039,
      "Jezreelite": 7040,
      "Chebar": 7041,
      "Chemosh": 7042,
      "errors": 7043,
      "oppressors": 7044,
      "chastened": 7045,
      "confident": 7046,
      "Meso": 7047,
      "Rabbi": 7048,
      "Rabshakeh": 7049,
      "folds": 7050,
      "Belshazzar": 7051,
      "balance": 7052,
      "communic": 7053,
      "Jabin": 7054,
      "careless": 7055,
      "Haggi": 7056,
      "Laodice": 7057,
      "blesseth": 7058,
      "Ethiopian": 7059,
      "Cyprus": 7060,
      "straitened": 7061,
      "swim": 7062,
      "Kadmiel": 7063,
      "meaneth": 7064,
      "liberal": 7065,
      "solit": 7066,
      "approved": 7067,
      "diseased": 7068,
      "kindreds": 7069,
      "Mattithiah": 7070,
      "spotted": 7071,
      "preserveth": 7072,
      "fret": 7073,
      "wormwood": 7074,
      "Kenites": 7075,
      "Shammah": 7076,
      "Zaccur": 7077,
      "gallows": 7078,
      "weapon": 7079,
      "Repent": 7080,
      "Menahem": 7081,
      "suffice": 7082,
      "pertaining": 7083,
      "privately": 7084,
      "baldness": 7085,
      "powder": 7086,
      "dearth": 7087,
      "dearly": 7088,
      "quarter": 7089,
      "deviseth": 7090,
      "genealogies": 7091,
      "embrace": 7092,
      "accusers": 7093,
      "commended": 7094,
      "Amos": 7095,
      "leaped": 7096,
      "example": 7097,
      "descending": 7098,
      "tormented": 7099,
      "distresses": 7100,
      "Arabia": 7101,
      "Aholibamah": 7102,
      "Sanctify": 7103,
      "baker": 7104,
      "Luz": 7105,
      "complaint": 7106,
      "pierced": 7107,
      "surname": 7108,
      "surnamed": 7109,
      "revive": 7110,
      "supposed": 7111,
      "occupied": 7112,
      "Rock": 7113,
      "flattering": 7114,
      "Meshech": 7115,
      "Pedaiah": 7116,
      "easier": 7117,
      "lacking": 7118,
      "Shunammite": 7119,
      "Gittite": 7120,
      "feigned": 7121,
      "Netophathite": 7122,
      "rushing": 7123,
      "reconciliation": 7124,
      "Destroy": 7125,
      "Penuel": 7126,
      "Tarry": 7127,
      "tares": 7128,
      "polis": 7129,
      "discretion": 7130,
      "ambassadors": 7131,
      "Dinah": 7132,
      "Galat": 7133,
      "Sephar": 7134,
      "yesterday": 7135,
      "travell": 7136,
      "purification": 7137,
      "Redeemer": 7138,
      "Bichri": 7139,
      "instant": 7140,
      "almonds": 7141,
      "pearls": 7142,
      "dissolved": 7143,
      "skilful": 7144,
      "magistrates": 7145,
      "Aphek": 7146,
      "Carmi": 7147,
      "Mishael": 7148,
      "duty": 7149,
      "astrologers": 7150,
      "Sherebiah": 7151,
      "beryl": 7152,
      "persecutors": 7153,
      "ministration": 7154,
      "Akkub": 7155,
      "Cilicia": 7156,
      "Edrei": 7157,
      "Mareshah": 7158,
      "Righteous": 7159,
      "awoke": 7160,
      "lofty": 7161,
      "sinew": 7162,
      "trench": 7163,
      "apiece": 7164,
      "extortion": 7165,
      "Shechaniah": 7166,
      "Nehemiah": 7167,
      "heretofore": 7168,
      "Ataroth": 7169,
      "Bas": 7170,
      "Bind": 7171,
      "Binnu": 7172,
      "Cry": 7173,
      "Char": 7174,
      "Cush": 7175,
      "Dish": 7176,
      "Eat": 7177,
      "Evil": 7178,
      "Flee": 7179,
      "Gid": 7180,
      "Gir": 7181,
      "Gol": 7182,
      "HO": 7183,
      "Hatt": 7184,
      "Hig": 7185,
      "Ib": 7186,
      "Ith": 7187,
      "Jas": 7188,
      "Javan": 7189,
      "Kor": 7190,
      "Ore": 7191,
      "Other": 7192,
      "Peth": 7193,
      "Path": 7194,
      "Raam": 7195,
      "Tel": 7196,
      "Taan": 7197,
      "US": 7198,
      "Word": 7199,
      "Would": 7200,
      "axes": 7201,
      "bok": 7202,
      "bisho": 7203,
      "cow": 7204,
      "casts": 7205,
      "das": 7206,
      "dash": 7207,
      "eve": 7208,
      "ewe": 7209,
      "fou": 7210,
      "ffe": 7211,
      "ivity": 7212,
      "iently": 7213,
      "jas": 7214,
      "jave": 7215,
      "lat": 7216,
      "las": 7217,
      "lent": 7218,
      "lves": 7219,
      "lump": 7220,
      "nathan": 7221,
      "oves": 7222,
      "onder": 7223,
      "plo": 7224,
      "pavi": 7225,
      "rideth": 7226,
      "rider": 7227,
      "sw": 7228,
      "sunder": 7229,
      "skill": 7230,
      "tue": 7231,
      "tify": 7232,
      "win": 7233,
      "wish": 7234,
      "yonder": 7235,
      "zor": 7236,
      "zan": 7237,
      "zad": 7238,
      "thund": 7239,
      "thorn": 7240,
      "thread": 7241,
      "thunders": 7242,
      "theth": 7243,
      "theneth": 7244,
      "inations": 7245,
      "invent": 7246,
      "inasmuch": 7247,
      "rel": 7248,
      "repl": 7249,
      "returneth": 7250,
      "realm": 7251,
      "toes": 7252,
      "tossed": 7253,
      "haiah": 7254,
      "hip": 7255,
      "ating": 7256,
      "semble": 7257,
      "secure": 7258,
      "beel": 7259,
      "behave": 7260,
      "bemo": 7261,
      "befallen": 7262,
      "beeves": 7263,
      "beheaded": 7264,
      "arim": 7265,
      "arite": 7266,
      "asking": 7267,
      "iti": 7268,
      "itter": 7269,
      "islands": 7270,
      "mete": 7271,
      "shaven": 7272,
      "shaketh": 7273,
      "unprofitable": 7274,
      "noond": 7275,
      "vel": 7276,
      "veil": 7277,
      "forced": 7278,
      "welf": 7279,
      "odours": 7280,
      "chol": 7281,
      "choh": 7282,
      "irst": 7283,
      "irts": 7284,
      "withheld": 7285,
      "ceasing": 7286,
      "ution": 7287,
      "riot": 7288,
      "rible": 7289,
      "razor": 7290,
      "lia": 7291,
      "lily": 7292,
      "detest": 7293,
      "careth": 7294,
      "entice": 7295,
      "amia": 7296,
      "amoth": 7297,
      "pecu": 7298,
      "elzebub": 7299,
      "using": 7300,
      "soles": 7301,
      "outcasts": 7302,
      "saida": 7303,
      "estin": 7304,
      "roast": 7305,
      "adj": 7306,
      "gog": 7307,
      "urance": 7308,
      "feather": 7309,
      "Ishi": 7310,
      "neg": 7311,
      "acknowled": 7312,
      "fadeth": 7313,
      "sayers": 7314,
      "chicus": 7315,
      "hathites": 7316,
      "hearth": 7317,
      "doers": 7318,
      "lap": 7319,
      "laleel": 7320,
      "childless": 7321,
      "shean": 7322,
      "Forsake": 7323,
      "tetr": 7324,
      "useth": 7325,
      "offences": 7326,
      "causes": 7327,
      "undef": 7328,
      "prun": 7329,
      "coniah": 7330,
      "contem": 7331,
      "conceit": 7332,
      "imput": 7333,
      "avo": 7334,
      "protest": 7335,
      "assurance": 7336,
      "serving": 7337,
      "boat": 7338,
      "wolves": 7339,
      "presumpt": 7340,
      "Beelzebub": 7341,
      "chable": 7342,
      "dia": 7343,
      "Jeconiah": 7344,
      "stony": 7345,
      "puttest": 7346,
      "ornament": 7347,
      "muth": 7348,
      "sincer": 7349,
      "phen": 7350,
      "Abid": 7351,
      "Abish": 7352,
      "cription": 7353,
      "foes": 7354,
      "foxes": 7355,
      "plaister": 7356,
      "settest": 7357,
      "settled": 7358,
      "shone": 7359,
      "glitter": 7360,
      "daw": 7361,
      "standest": 7362,
      "hundredfold": 7363,
      "emin": 7364,
      "lawgiver": 7365,
      "inder": 7366,
      "exped": 7367,
      "expound": 7368,
      "exact": 7369,
      "disperse": 7370,
      "merable": 7371,
      "prayeth": 7372,
      "drown": 7373,
      "media": 7374,
      "meddle": 7375,
      "canker": 7376,
      "destroyer": 7377,
      "besides": 7378,
      "create": 7379,
      "Sheth": 7380,
      "midwives": 7381,
      "harlots": 7382,
      "receiving": 7383,
      "deadly": 7384,
      "sleepeth": 7385,
      "walkest": 7386,
      "devoted": 7387,
      "cloke": 7388,
      "hammer": 7389,
      "strengtheneth": 7390,
      "walled": 7391,
      "opening": 7392,
      "Good": 7393,
      "aliel": 7394,
      "quiver": 7395,
      "something": 7396,
      "Bethsaida": 7397,
      "garris": 7398,
      "Were": 7399,
      "dressed": 7400,
      "humbleth": 7401,
      "certainty": 7402,
      "flag": 7403,
      "saveth": 7404,
      "zzah": 7405,
      "camps": 7406,
      "Tola": 7407,
      "Peleg": 7408,
      "remembe": 7409,
      "gray": 7410,
      "telleth": 7411,
      "crushed": 7412,
      "spoilers": 7413,
      "worshippers": 7414,
      "scrip": 7415,
      "sunk": 7416,
      "taol": 7417,
      "vaim": 7418,
      "reproacheth": 7419,
      "husbandman": 7420,
      "palms": 7421,
      "Elnathan": 7422,
      "dividing": 7423,
      "diviners": 7424,
      "sky": 7425,
      "skirts": 7426,
      "strip": 7427,
      "waiting": 7428,
      "straked": 7429,
      "refrained": 7430,
      "decline": 7431,
      "slaying": 7432,
      "sprang": 7433,
      "struck": 7434,
      "cornet": 7435,
      "feasting": 7436,
      "supposing": 7437,
      "Shilon": 7438,
      "Shishak": 7439,
      "jeopard": 7440,
      "Noph": 7441,
      "message": 7442,
      "stretcheth": 7443,
      "Wherewith": 7444,
      "footed": 7445,
      "sounding": 7446,
      "perfectly": 7447,
      "Azekah": 7448,
      "defraud": 7449,
      "travaileth": 7450,
      "Within": 7451,
      "sittest": 7452,
      "hinds": 7453,
      "blindness": 7454,
      "Chaldea": 7455,
      "misery": 7456,
      "tempting": 7457,
      "zeel": 7458,
      "crowned": 7459,
      "ringstraked": 7460,
      "selleth": 7461,
      "virtue": 7462,
      "Meraioth": 7463,
      "Meribah": 7464,
      "wastes": 7465,
      "network": 7466,
      "Zebo": 7467,
      "households": 7468,
      "posed": 7469,
      "Tychicus": 7470,
      "quickened": 7471,
      "clap": 7472,
      "hardness": 7473,
      "Cause": 7474,
      "Urim": 7475,
      "speeches": 7476,
      "prophesieth": 7477,
      "weakness": 7478,
      "Saying": 7479,
      "Jamin": 7480,
      "dropped": 7481,
      "forgiveness": 7482,
      "languages": 7483,
      "value": 7484,
      "wanteth": 7485,
      "yielding": 7486,
      "issued": 7487,
      "grievously": 7488,
      "Gedor": 7489,
      "frost": 7490,
      "Michaiah": 7491,
      "Ezion": 7492,
      "Aijalon": 7493,
      "Lotan": 7494,
      "Jabbok": 7495,
      "careful": 7496,
      "Laish": 7497,
      "Laadan": 7498,
      "psalms": 7499,
      "hypocris": 7500,
      "drunkenness": 7501,
      "sorts": 7502,
      "rooms": 7503,
      "pottage": 7504,
      "potamia": 7505,
      "melteth": 7506,
      "Hereby": 7507,
      "soldier": 7508,
      "dunghill": 7509,
      "wrongfully": 7510,
      "Streng": 7511,
      "kinsmen": 7512,
      "troops": 7513,
      "provender": 7514,
      "mentioned": 7515,
      "Mahalaleel": 7516,
      "Buy": 7517,
      "Build": 7518,
      "Bukk": 7519,
      "Cainan": 7520,
      "Eshtaol": 7521,
      "playing": 7522,
      "bottomless": 7523,
      "Zoan": 7524,
      "convin": 7525,
      "principalities": 7526,
      "Achbor": 7527,
      "stubborn": 7528,
      "dyed": 7529,
      "nativity": 7530,
      "pulled": 7531,
      "robbery": 7532,
      "embra": 7533,
      "wedding": 7534,
      "debt": 7535,
      "fragments": 7536,
      "tokens": 7537,
      "humility": 7538,
      "fashioned": 7539,
      "Enos": 7540,
      "incline": 7541,
      "Break": 7542,
      "revenger": 7543,
      "hoofs": 7544,
      "Havilah": 7545,
      "pract": 7546,
      "workmanship": 7547,
      "Shebaniah": 7548,
      "dancing": 7549,
      "eggs": 7550,
      "degree": 7551,
      "evidence": 7552,
      "aforetime": 7553,
      "softly": 7554,
      "innumerable": 7555,
      "bereave": 7556,
      "sighing": 7557,
      "swelling": 7558,
      "stooped": 7559,
      "alienated": 7560,
      "craftsmen": 7561,
      "Arioch": 7562,
      "Jarmuth": 7563,
      "knife": 7564,
      "throat": 7565,
      "clusters": 7566,
      "customs": 7567,
      "Hail": 7568,
      "Stephen": 7569,
      "folk": 7570,
      "masons": 7571,
      "renown": 7572,
      "revolted": 7573,
      "demanded": 7574,
      "divorce": 7575,
      "buryingplace": 7576,
      "pomp": 7577,
      "maimed": 7578,
      "Samaritans": 7579,
      "confessed": 7580,
      "grasshoppers": 7581,
      "turtledoves": 7582,
      "reconciled": 7583,
      "Gamaliel": 7584,
      "Romans": 7585,
      "Zilpah": 7586,
      "ravished": 7587,
      "daubed": 7588,
      "gnashing": 7589,
      "Pelethites": 7590,
      "fishers": 7591,
      "Athens": 7592,
      "Ahinoam": 7593,
      "Othniel": 7594,
      "Render": 7595,
      "Shinar": 7596,
      "espou": 7597,
      "weaver": 7598,
      "overwhelmed": 7599,
      "Mesopotamia": 7600,
      "solitary": 7601,
      "Binnui": 7602,
      "Dishon": 7603,
      "Girg": 7604,
      "Oreb": 7605,
      "jasper": 7606,
      "javelin": 7607,
      "zadak": 7608,
      "replen": 7609,
      "noonday": 7610,
      "welfare": 7611,
      "peculiar": 7612,
      "feathers": 7613,
      "tetrarch": 7614,
      "undefiled": 7615,
      "sincerity": 7616,
      "expedient": 7617,
      "mediator": 7618,
      "garrisons": 7619,
      "Av": 7620,
      "Aqu": 7621,
      "Achan": 7622,
      "Ariel": 7623,
      "Bow": 7624,
      "Bak": 7625,
      "Blow": 7626,
      "Cep": 7627,
      "Caph": 7628,
      "Cease": 7629,
      "Day": 7630,
      "Delaiah": 7631,
      "Em": 7632,
      "Fin": 7633,
      "Fill": 7634,
      "Friend": 7635,
      "Gl": 7636,
      "Ges": 7637,
      "Gem": 7638,
      "Hal": 7639,
      "Hus": 7640,
      "Hano": 7641,
      "Icon": 7642,
      "Joses": 7643,
      "Jap": 7644,
      "Jared": 7645,
      "KIN": 7646,
      "Lod": 7647,
      "Lud": 7648,
      "Mish": 7649,
      "Ni": 7650,
      "Nob": 7651,
      "Naioth": 7652,
      "Oz": 7653,
      "Ones": 7654,
      "Pir": 7655,
      "Pour": 7656,
      "Pur": 7657,
      "Pris": 7658,
      "Pahath": 7659,
      "Slay": 7660,
      "Str": 7661,
      "Shur": 7662,
      "Swear": 7663,
      "SUS": 7664,
      "Tish": 7665,
      "Tahath": 7666,
      "Tappuah": 7667,
      "Ur": 7668,
      "Wor": 7669,
      "Zu": 7670,
      "apo": 7671,
      "aleh": 7672,
      "bay": 7673,
      "bund": 7674,
      "bies": 7675,
      "batt": 7676,
      "cister": 7677,
      "ders": 7678,
      "drams": 7679,
      "dances": 7680,
      "ditch": 7681,
      "emoth": 7682,
      "fu": 7683,
      "ffi": 7684,
      "fac": 7685,
      "fug": 7686,
      "gir": 7687,
      "knit": 7688,
      "lain": 7689,
      "mod": 7690,
      "mam": 7691,
      "nav": 7692,
      "ote": 7693,
      "ollen": 7694,
      "pli": 7695,
      "pant": 7696,
      "sodden": 7697,
      "tall": 7698,
      "vai": 7699,
      "viled": 7700,
      "wre": 7701,
      "whis": 7702,
      "waved": 7703,
      "zap": 7704,
      "zib": 7705,
      "thic": 7706,
      "thecar": 7707,
      "incu": 7708,
      "informed": 7709,
      "rema": 7710,
      "rehear": 7711,
      "rewar": 7712,
      "rereward": 7713,
      "retained": 7714,
      "reviled": 7715,
      "heres": 7716,
      "hemath": 7717,
      "toe": 7718,
      "toler": 7719,
      "tombs": 7720,
      "hare": 7721,
      "hale": 7722,
      "haven": 7723,
      "hidest": 7724,
      "lla": 7725,
      "atah": 7726,
      "atiah": 7727,
      "attain": 7728,
      "ensam": 7729,
      "enlightened": 7730,
      "eder": 7731,
      "edges": 7732,
      "ingly": 7733,
      "beans": 7734,
      "beset": 7735,
      "arba": 7736,
      "asah": 7737,
      "ita": 7738,
      "itution": 7739,
      "isle": 7740,
      "unfruitful": 7741,
      "unlearned": 7742,
      "lect": 7743,
      "leprou": 7744,
      "lepers": 7745,
      "levy": 7746,
      "leopard": 7747,
      "stin": 7748,
      "stable": 7749,
      "sticks": 7750,
      "forts": 7751,
      "formeth": 7752,
      "ldren": 7753,
      "allow": 7754,
      "wet": 7755,
      "weaken": 7756,
      "choked": 7757,
      "himon": 7758,
      "ayeth": 7759,
      "withstood": 7760,
      "withdrew": 7761,
      "withdrawn": 7762,
      "cel": 7763,
      "rikam": 7764,
      "rakes": 7765,
      "hol": 7766,
      "lice": 7767,
      "liath": 7768,
      "lilah": 7769,
      "del": 7770,
      "dech": 7771,
      "defied": 7772,
      "caves": 7773,
      "owls": 7774,
      "ordain": 7775,
      "pelah": 7776,
      "els": 7777,
      "ropes": 7778,
      "abol": 7779,
      "abated": 7780,
      "ila": 7781,
      "mankind": 7782,
      "manners": 7783,
      "ading": 7784,
      "adorn": 7785,
      "gob": 7786,
      "urged": 7787,
      "teraphim": 7788,
      "agger": 7789,
      "log": 7790,
      "byword": 7791,
      "reddish": 7792,
      "fade": 7793,
      "spied": 7794,
      "evers": 7795,
      "housetop": 7796,
      "doted": 7797,
      "laud": 7798,
      "shearers": 7799,
      "wayfar": 7800,
      "compar": 7801,
      "temo": 7802,
      "teareth": 7803,
      "geber": 7804,
      "holdest": 7805,
      "hatest": 7806,
      "akk": 7807,
      "contended": 7808,
      "overseer": 7809,
      "overseers": 7810,
      "sust": 7811,
      "imes": 7812,
      "immortal": 7813,
      "avah": 7814,
      "proof": 7815,
      "prospect": 7816,
      "anti": 7817,
      "athites": 7818,
      "athaim": 7819,
      "moab": 7820,
      "mote": 7821,
      "brink": 7822,
      "bolst": 7823,
      "wolf": 7824,
      "woollen": 7825,
      "preacher": 7826,
      "presses": 7827,
      "hastened": 7828,
      "rubies": 7829,
      "ousness": 7830,
      "Bez": 7831,
      "Bebai": 7832,
      "Jeshimon": 7833,
      "dign": 7834,
      "division": 7835,
      "buk": 7836,
      "burial": 7837,
      "Jehon": 7838,
      "Jehud": 7839,
      "stole": 7840,
      "tire": 7841,
      "tified": 7842,
      "specially": 7843,
      "sink": 7844,
      "goodman": 7845,
      "hedges": 7846,
      "wellbeloved": 7847,
      "cribed": 7848,
      "aphr": 7849,
      "civi": 7850,
      "shod": 7851,
      "shba": 7852,
      "Three": 7853,
      "glah": 7854,
      "roughly": 7855,
      "emera": 7856,
      "firstlings": 7857,
      "exac": 7858,
      "exchange": 7859,
      "expressed": 7860,
      "phni": 7861,
      "dishes": 7862,
      "disobedience": 7863,
      "disann": 7864,
      "discouraged": 7865,
      "disquieted": 7866,
      "sevenfold": 7867,
      "judging": 7868,
      "cured": 7869,
      "castles": 7870,
      "dwelled": 7871,
      "goldsmith": 7872,
      "tenons": 7873,
      "trial": 7874,
      "Jaal": 7875,
      "Jael": 7876,
      "babe": 7877,
      "creation": 7878,
      "howling": 7879,
      "highly": 7880,
      "brotherly": 7881,
      "clods": 7882,
      "Receive": 7883,
      "Ammiel": 7884,
      "Assemble": 7885,
      "restitution": 7886,
      "joints": 7887,
      "horrible": 7888,
      "passest": 7889,
      "reading": 7890,
      "warmed": 7891,
      "Gihon": 7892,
      "Gibbeth": 7893,
      "inherited": 7894,
      "pipes": 7895,
      "iael": 7896,
      "smooth": 7897,
      "Elim": 7898,
      "Elimelech": 7899,
      "Goliath": 7900,
      "sanna": 7901,
      "parl": 7902,
      "parcel": 7903,
      "charges": 7904,
      "porter": 7905,
      "pitied": 7906,
      "slug": 7907,
      "Josedech": 7908,
      "scra": 7909,
      "Jehohanan": 7910,
      "garn": 7911,
      "sendest": 7912,
      "bedchamber": 7913,
      "visible": 7914,
      "flanks": 7915,
      "witnes": 7916,
      "Shal": 7917,
      "wert": 7918,
      "sacrificeth": 7919,
      "grate": 7920,
      "Moabitess": 7921,
      "Ephrath": 7922,
      "Hosanna": 7923,
      "worshippeth": 7924,
      "rescu": 7925,
      "Mib": 7926,
      "Mig": 7927,
      "trustest": 7928,
      "Abib": 7929,
      "Abihail": 7930,
      "hereby": 7931,
      "Arp": 7932,
      "tails": 7933,
      "reprob": 7934,
      "tongs": 7935,
      "fasten": 7936,
      "cloudy": 7937,
      "believest": 7938,
      "hiding": 7939,
      "threat": 7940,
      "refrain": 7941,
      "Adin": 7942,
      "Ahio": 7943,
      "Ahiezer": 7944,
      "needeth": 7945,
      "needful": 7946,
      "confeder": 7947,
      "super": 7948,
      "plagued": 7949,
      "iana": 7950,
      "bondman": 7951,
      "escapeth": 7952,
      "Asaiah": 7953,
      "furb": 7954,
      "leaveth": 7955,
      "Azel": 7956,
      "Azrikam": 7957,
      "umah": 7958,
      "assemblies": 7959,
      "imaginations": 7960,
      "Edomite": 7961,
      "girdles": 7962,
      "appearing": 7963,
      "traffi": 7964,
      "cups": 7965,
      "sleeping": 7966,
      "missed": 7967,
      "prophesying": 7968,
      "fellowservant": 7969,
      "forsaketh": 7970,
      "delights": 7971,
      "Delilah": 7972,
      "revealeth": 7973,
      "damage": 7974,
      "election": 7975,
      "Hebronites": 7976,
      "profited": 7977,
      "profiteth": 7978,
      "ocations": 7979,
      "devouring": 7980,
      "lowly": 7981,
      "Zeeb": 7982,
      "storehouses": 7983,
      "stumbled": 7984,
      "weights": 7985,
      "filleth": 7986,
      "polls": 7987,
      "bonnets": 7988,
      "persecutest": 7989,
      "executeth": 7990,
      "lodging": 7991,
      "changes": 7992,
      "knee": 7993,
      "patiently": 7994,
      "Hazeroth": 7995,
      "Naar": 7996,
      "laden": 7997,
      "lusteth": 7998,
      "leaned": 7999,
      "Herodias": 8000,
      "Meremoth": 8001,
      "tendeth": 8002,
      "Eliasaph": 8003,
      "Salah": 8004,
      "Salmon": 8005,
      "Salvation": 8006,
      "deserts": 8007,
      "furnished": 8008,
      "pleaseth": 8009,
      "Nathanael": 8010,
      "languish": 8011,
      "likened": 8012,
      "onica": 8013,
      "chastised": 8014,
      "twins": 8015,
      "balm": 8016,
      "Gibeonites": 8017,
      "oliveyard": 8018,
      "commune": 8019,
      "communication": 8020,
      "puffed": 8021,
      "psalm": 8022,
      "drunkards": 8023,
      "marked": 8024,
      "wandereth": 8025,
      "sorcer": 8026,
      "valiantly": 8027,
      "swifter": 8028,
      "happeneth": 8029,
      "memory": 8030,
      "calm": 8031,
      "contentions": 8032,
      "confession": 8033,
      "Epaphr": 8034,
      "Jediael": 8035,
      "Mede": 8036,
      "Media": 8037,
      "deceiveth": 8038,
      "uppermost": 8039,
      "Gomer": 8040,
      "Kenite": 8041,
      "Shammai": 8042,
      "perverseness": 8043,
      "pools": 8044,
      "Buz": 8045,
      "Eshcol": 8046,
      "Eshtemo": 8047,
      "Kishon": 8048,
      "mandrakes": 8049,
      "publican": 8050,
      "thunderings": 8051,
      "unbelieving": 8052,
      "blackness": 8053,
      "Ephesi": 8054,
      "dying": 8055,
      "myrtle": 8056,
      "gleaned": 8057,
      "malice": 8058,
      "effectual": 8059,
      "Lystra": 8060,
      "Shimron": 8061,
      "blotted": 8062,
      "oaks": 8063,
      "desirous": 8064,
      "wandering": 8065,
      "doubtless": 8066,
      "advant": 8067,
      "examined": 8068,
      "meditation": 8069,
      "Chittim": 8070,
      "Children": 8071,
      "Joktan": 8072,
      "Sirs": 8073,
      "nourish": 8074,
      "Temanite": 8075,
      "Arabians": 8076,
      "Aholibah": 8077,
      "succeed": 8078,
      "exercised": 8079,
      "thinketh": 8080,
      "danced": 8081,
      "revived": 8082,
      "fortify": 8083,
      "seventeenth": 8084,
      "Zabdi": 8085,
      "renewed": 8086,
      "chamberlain": 8087,
      "distributed": 8088,
      "JESUS": 8089,
      "bereaved": 8090,
      "costly": 8091,
      "Jahaziel": 8092,
      "Rephaim": 8093,
      "Malchijah": 8094,
      "Tekoa": 8095,
      "jaws": 8096,
      "pilgri": 8097,
      "bountifully": 8098,
      "rimmon": 8099,
      "agreement": 8100,
      "compelled": 8101,
      "salutation": 8102,
      "blasphemies": 8103,
      "chastening": 8104,
      "Talmai": 8105,
      "climb": 8106,
      "gourd": 8107,
      "envied": 8108,
      "Thessalonica": 8109,
      "expert": 8110,
      "talebearer": 8111,
      "physicians": 8112,
      "Troas": 8113,
      "Zarhites": 8114,
      "lucre": 8115,
      "thumb": 8116,
      "bewail": 8117,
      "conceal": 8118,
      "constrained": 8119,
      "greedy": 8120,
      "prehended": 8121,
      "flattereth": 8122,
      "Alexander": 8123,
      "Bigvai": 8124,
      "Machpelah": 8125,
      "pisseth": 8126,
      "taskmasters": 8127,
      "assuredly": 8128,
      "unicorn": 8129,
      "caldron": 8130,
      "portunity": 8131,
      "guests": 8132,
      "provoking": 8133,
      "subtilty": 8134,
      "sorcerers": 8135,
      "snuffers": 8136,
      "Malluch": 8137,
      "Methusel": 8138,
      "Sharon": 8139,
      "Touch": 8140,
      "furious": 8141,
      "haply": 8142,
      "beckoned": 8143,
      "soothsayers": 8144,
      "spouse": 8145,
      "attentive": 8146,
      "Eliphelet": 8147,
      "Laodicea": 8148,
      "Galatia": 8149,
      "Sepharvaim": 8150,
      "Bashemath": 8151,
      "Taanach": 8152,
      "lascivi": 8153,
      "bemoan": 8154,
      "detestable": 8155,
      "presumptuously": 8156,
      "glittering": 8157,
      "expounded": 8158,
      "cankerworm": 8159,
      "jeopardy": 8160,
      "hypocrisy": 8161,
      "divorcement": 8162,
      "Girgashi": 8163,
      "Aquila": 8164,
      "Cephas": 8165,
      "Finally": 8166,
      "Iconium": 8167,
      "KING": 8168,
      "Pirath": 8169,
      "Tishbite": 8170,
      "apothecar": 8171,
      "battles": 8172,
      "navy": 8173,
      "zaphan": 8174,
      "incurable": 8175,
      "remainder": 8176,
      "rewardeth": 8177,
      "tolerable": 8178,
      "leprous": 8179,
      "wayfaring": 8180,
      "bolster": 8181,
      "emerald": 8182,
      "Gibbethon": 8183,
      "sluggard": 8184,
      "traffick": 8185,
      "Methuselah": 8186,
      "lasciviousness": 8187,
      "AH": 8188,
      "Ain": 8189,
      "Ater": 8190,
      "Away": 8191,
      "Aiah": 8192,
      "Bah": 8193,
      "Bild": 8194,
      "Cas": 8195,
      "Cut": 8196,
      "Cher": 8197,
      "Ched": 8198,
      "Chu": 8199,
      "Claud": 8200,
      "Diana": 8201,
      "ES": 8202,
      "Et": 8203,
      "Elath": 8204,
      "Fall": 8205,
      "Gr": 8206,
      "Gin": 8207,
      "Gen": 8208,
      "Gall": 8209,
      "Gai": 8210,
      "Geb": 8211,
      "Hac": 8212,
      "Hither": 8213,
      "Hashub": 8214,
      "Idu": 8215,
      "Ju": 8216,
      "Jason": 8217,
      "Jashub": 8218,
      "Ki": 8219,
      "Ker": 8220,
      "Mith": 8221,
      "Mol": 8222,
      "Nic": 8223,
      "Ono": 8224,
      "Ocr": 8225,
      "Obey": 8226,
      "Ophel": 8227,
      "Pi": 8228,
      "Pal": 8229,
      "Pam": 8230,
      "Pag": 8231,
      "Pek": 8232,
      "Purim": 8233,
      "Pallu": 8234,
      "Ru": 8235,
      "Roman": 8236,
      "Sab": 8237,
      "Sac": 8238,
      "Sear": 8239,
      "Ta": 8240,
      "Wa": 8241,
      "Walk": 8242,
      "Wash": 8243,
      "Zor": 8244,
      "Zal": 8245,
      "Zare": 8246,
      "Zem": 8247,
      "Zered": 8248,
      "Zanoah": 8249,
      "ator": 8250,
      "bun": 8251,
      "bach": 8252,
      "bason": 8253,
      "blade": 8254,
      "cred": 8255,
      "cuse": 8256,
      "cketh": 8257,
      "dess": 8258,
      "eav": 8259,
      "erest": 8260,
      "eches": 8261,
      "fel": 8262,
      "fins": 8263,
      "fuel": 8264,
      "fables": 8265,
      "fatted": 8266,
      "gushed": 8267,
      "iph": 8268,
      "ileth": 8269,
      "itor": 8270,
      "jes": 8271,
      "kest": 8272,
      "lal": 8273,
      "lur": 8274,
      "lud": 8275,
      "lint": 8276,
      "loft": 8277,
      "mun": 8278,
      "mson": 8279,
      "mers": 8280,
      "mild": 8281,
      "mitted": 8282,
      "oz": 8283,
      "osh": 8284,
      "pac": 8285,
      "phath": 8286,
      "pper": 8287,
      "poses": 8288,
      "pence": 8289,
      "pained": 8290,
      "rha": 8291,
      "rites": 8292,
      "rate": 8293,
      "sli": 8294,
      "sour": 8295,
      "sur": 8296,
      "sard": 8297,
      "swar": 8298,
      "scum": 8299,
      "sodom": 8300,
      "tit": 8301,
      "trough": 8302,
      "wk": 8303,
      "wan": 8304,
      "witt": 8305,
      "warks": 8306,
      "thai": 8307,
      "thew": 8308,
      "theart": 8309,
      "ndereth": 8310,
      "invisible": 8311,
      "rets": 8312,
      "reput": 8313,
      "rected": 8314,
      "rezer": 8315,
      "relig": 8316,
      "revenge": 8317,
      "removing": 8318,
      "oftent": 8319,
      "tocks": 8320,
      "hab": 8321,
      "hai": 8322,
      "haber": 8323,
      "habiah": 8324,
      "hawk": 8325,
      "onti": 8326,
      "onians": 8327,
      "orla": 8328,
      "orted": 8329,
      "ats": 8330,
      "sect": 8331,
      "seiz": 8332,
      "seals": 8333,
      "espe": 8334,
      "enan": 8335,
      "ench": 8336,
      "encouraged": 8337,
      "ana": 8338,
      "anna": 8339,
      "bell": 8340,
      "befell": 8341,
      "betimes": 8342,
      "bearest": 8343,
      "aright": 8344,
      "assay": 8345,
      "ited": 8346,
      "isome": 8347,
      "ishaddai": 8348,
      "saint": 8349,
      "sages": 8350,
      "shatha": 8351,
      "unless": 8352,
      "unsear": 8353,
      "untempered": 8354,
      "leav": 8355,
      "levi": 8356,
      "stal": 8357,
      "stout": 8358,
      "stud": 8359,
      "forbad": 8360,
      "forni": 8361,
      "omed": 8362,
      "wel": 8363,
      "oda": 8364,
      "odem": 8365,
      "odach": 8366,
      "ira": 8367,
      "withhold": 8368,
      "notable": 8369,
      "rix": 8370,
      "rigour": 8371,
      "raging": 8372,
      "hoar": 8373,
      "upside": 8374,
      "thout": 8375,
      "kem": 8376,
      "deur": 8377,
      "deac": 8378,
      "delay": 8379,
      "aly": 8380,
      "entang": 8381,
      "whit": 8382,
      "amin": 8383,
      "Them": 8384,
      "thereupon": 8385,
      "areb": 8386,
      "areel": 8387,
      "arenes": 8388,
      "estrang": 8389,
      "willows": 8390,
      "ros": 8391,
      "rot": 8392,
      "roth": 8393,
      "roes": 8394,
      "roared": 8395,
      "abstain": 8396,
      "ahs": 8397,
      "ahzur": 8398,
      "oneth": 8399,
      "forepart": 8400,
      "foreskins": 8401,
      "maachah": 8402,
      "werest": 8403,
      "fixed": 8404,
      "lock": 8405,
      "chiev": 8406,
      "chites": 8407,
      "thistle": 8408,
      "comeliness": 8409,
      "spi": 8410,
      "spice": 8411,
      "spite": 8412,
      "spots": 8413,
      "erscription": 8414,
      "lace": 8415,
      "lavers": 8416,
      "owners": 8417,
      "compasseth": 8418,
      "Forty": 8419,
      "Forget": 8420,
      "geon": 8421,
      "landmark": 8422,
      "beforehand": 8423,
      "affect": 8424,
      "ular": 8425,
      "hatta": 8426,
      "earring": 8427,
      "undone": 8428,
      "sedition": 8429,
      "whorem": 8430,
      "akes": 8431,
      "confound": 8432,
      "concl": 8433,
      "contained": 8434,
      "overshadow": 8435,
      "overthro": 8436,
      "breeches": 8437,
      "process": 8438,
      "Hew": 8439,
      "Hell": 8440,
      "Heal": 8441,
      "Heaven": 8442,
      "athirst": 8443,
      "servest": 8444,
      "naanah": 8445,
      "presid": 8446,
      "preferred": 8447,
      "rump": 8448,
      "potent": 8449,
      "Being": 8450,
      "Becher": 8451,
      "Bezer": 8452,
      "Beaut": 8453,
      "downward": 8454,
      "istarch": 8455,
      "Jeshaiah": 8456,
      "Jeremoth": 8457,
      "earthly": 8458,
      "stories": 8459,
      "percei": 8460,
      "perfu": 8461,
      "gaz": 8462,
      "gathere": 8463,
      "mua": 8464,
      "plowed": 8465,
      "ures": 8466,
      "watches": 8467,
      "watereth": 8468,
      "Jozadak": 8469,
      "leddest": 8470,
      "ledges": 8471,
      "Abide": 8472,
      "lively": 8473,
      "bringest": 8474,
      "criest": 8475,
      "crimson": 8476,
      "cilla": 8477,
      "sias": 8478,
      "size": 8479,
      "Thummim": 8480,
      "kenard": 8481,
      "partly": 8482,
      "endued": 8483,
      "endeav": 8484,
      "gnas": 8485,
      "exto": 8486,
      "phæus": 8487,
      "displeasure": 8488,
      "displease": 8489,
      "disputed": 8490,
      "disallowed": 8491,
      "string": 8492,
      "founder": 8493,
      "firebrand": 8494,
      "clefts": 8495,
      "opportunity": 8496,
      "tably": 8497,
      "tabrets": 8498,
      "medatha": 8499,
      "chet": 8500,
      "cutteth": 8501,
      "cutting": 8502,
      "wring": 8503,
      "lighter": 8504,
      "cleanness": 8505,
      "fleshed": 8506,
      "baoth": 8507,
      "fleshhooks": 8508,
      "crew": 8509,
      "graffed": 8510,
      "Sheshan": 8511,
      "Shedeur": 8512,
      "shewest": 8513,
      "Reu": 8514,
      "Rehabiah": 8515,
      "Rekem": 8516,
      "hars": 8517,
      "Ammis": 8518,
      "resting": 8519,
      "joint": 8520,
      "goddess": 8521,
      "passeng": 8522,
      "passages": 8523,
      "longs": 8524,
      "azim": 8525,
      "aziah": 8526,
      "warfare": 8527,
      "cloven": 8528,
      "trance": 8529,
      "smiting": 8530,
      "wallow": 8531,
      "smoking": 8532,
      "Elizur": 8533,
      "Gozan": 8534,
      "seeds": 8535,
      "looks": 8536,
      "buildest": 8537,
      "sanctification": 8538,
      "Italy": 8539,
      "certify": 8540,
      "pitchers": 8541,
      "insurrection": 8542,
      "purse": 8543,
      "purposes": 8544,
      "condu": 8545,
      "Weep": 8546,
      "excel": 8547,
      "throng": 8548,
      "Moza": 8549,
      "killing": 8550,
      "testifieth": 8551,
      "flint": 8552,
      "Shaal": 8553,
      "vials": 8554,
      "Peor": 8555,
      "Perez": 8556,
      "compared": 8557,
      "crystal": 8558,
      "troubl": 8559,
      "march": 8560,
      "marred": 8561,
      "marrow": 8562,
      "marble": 8563,
      "mariners": 8564,
      "Alphæus": 8565,
      "steep": 8566,
      "spoils": 8567,
      "spoiling": 8568,
      "Hosah": 8569,
      "Hophni": 8570,
      "worshipping": 8571,
      "resorted": 8572,
      "cency": 8573,
      "draught": 8574,
      "utterance": 8575,
      "guided": 8576,
      "Abijam": 8577,
      "Abiezer": 8578,
      "Ephraimites": 8579,
      "sung": 8580,
      "consumption": 8581,
      "herein": 8582,
      "Argob": 8583,
      "Aristarch": 8584,
      "reproaches": 8585,
      "couldest": 8586,
      "Else": 8587,
      "skies": 8588,
      "skull": 8589,
      "fatlings": 8590,
      "hidim": 8591,
      "Assir": 8592,
      "strawed": 8593,
      "continueth": 8594,
      "continuance": 8595,
      "refined": 8596,
      "grieve": 8597,
      "slayeth": 8598,
      "laboureth": 8599,
      "subver": 8600,
      "Hammedatha": 8601,
      "sanctuaries": 8602,
      "presently": 8603,
      "Admah": 8604,
      "wares": 8605,
      "mustard": 8606,
      "corp": 8607,
      "Ahira": 8608,
      "Ahilud": 8609,
      "promoted": 8610,
      "promote": 8611,
      "brakest": 8612,
      "superscription": 8613,
      "Shittim": 8614,
      "Noe": 8615,
      "comforteth": 8616,
      "comforters": 8617,
      "comfortably": 8618,
      "offices": 8619,
      "Magog": 8620,
      "barn": 8621,
      "oppresseth": 8622,
      "furlongs": 8623,
      "spreading": 8624,
      "topaz": 8625,
      "Azareel": 8626,
      "defy": 8627,
      "sweetness": 8628,
      "umiel": 8629,
      "horseback": 8630,
      "grope": 8631,
      "Baalah": 8632,
      "chargeable": 8633,
      "rewards": 8634,
      "situ": 8635,
      "repenteth": 8636,
      "burdensome": 8637,
      "trade": 8638,
      "traded": 8639,
      "travailed": 8640,
      "blinded": 8641,
      "reasoning": 8642,
      "separateth": 8643,
      "planteth": 8644,
      "hindered": 8645,
      "watching": 8646,
      "Doeg": 8647,
      "Liby": 8648,
      "pursuers": 8649,
      "mischiev": 8650,
      "supply": 8651,
      "Elealeh": 8652,
      "hairy": 8653,
      "swarest": 8654,
      "Deal": 8655,
      "Ishmeel": 8656,
      "Tema": 8657,
      "Zerahiah": 8658,
      "nettles": 8659,
      "adder": 8660,
      "thinkest": 8661,
      "quicken": 8662,
      "quickeneth": 8663,
      "sincere": 8664,
      "persecutions": 8665,
      "Hararite": 8666,
      "dwellingplaces": 8667,
      "innocency": 8668,
      "changers": 8669,
      "blasphemeth": 8670,
      "kneel": 8671,
      "patri": 8672,
      "scarce": 8673,
      "companied": 8674,
      "suffereth": 8675,
      "doctrines": 8676,
      "Nahath": 8677,
      "leanness": 8678,
      "Kiri": 8679,
      "drops": 8680,
      "perverted": 8681,
      "perverteth": 8682,
      "Timnah": 8683,
      "belonging": 8684,
      "gerahs": 8685,
      "Jezreelitess": 8686,
      "Chenaanah": 8687,
      "adulteries": 8688,
      "chasteneth": 8689,
      "springing": 8690,
      "folding": 8691,
      "Shuah": 8692,
      "Shuhite": 8693,
      "Carry": 8694,
      "Gideoni": 8695,
      "hailstones": 8696,
      "abhorreth": 8697,
      "transgressor": 8698,
      "drunkard": 8699,
      "oblations": 8700,
      "simpli": 8701,
      "removeth": 8702,
      "straitness": 8703,
      "Enan": 8704,
      "Enter": 8705,
      "banks": 8706,
      "contentious": 8707,
      "Persians": 8708,
      "sharpen": 8709,
      "Arad": 8710,
      "Ephah": 8711,
      "bulwarks": 8712,
      "Serug": 8713,
      "thankful": 8714,
      "reject": 8715,
      "Marah": 8716,
      "Carmelite": 8717,
      "contrite": 8718,
      "Abishag": 8719,
      "ointments": 8720,
      "bearers": 8721,
      "courageous": 8722,
      "Aholah": 8723,
      "Ahohite": 8724,
      "Tirshatha": 8725,
      "aloes": 8726,
      "abounded": 8727,
      "Shammua": 8728,
      "Tarsus": 8729,
      "Naamah": 8730,
      "Rephidim": 8731,
      "forbearing": 8732,
      "amend": 8733,
      "suffici": 8734,
      "envying": 8735,
      "mysteries": 8736,
      "Achor": 8737,
      "requested": 8738,
      "Libni": 8739,
      "Parosh": 8740,
      "cruelty": 8741,
      "Hushathite": 8742,
      "Gomorrha": 8743,
      "gleaning": 8744,
      "riders": 8745,
      "robber": 8746,
      "clearly": 8747,
      "Perizzite": 8748,
      "pounds": 8749,
      "debtors": 8750,
      "favou": 8751,
      "stork": 8752,
      "Amasai": 8753,
      "victual": 8754,
      "babbl": 8755,
      "frame": 8756,
      "consented": 8757,
      "ascending": 8758,
      "bucklers": 8759,
      "adulteress": 8760,
      "Help": 8761,
      "Helon": 8762,
      "Sidonians": 8763,
      "ravens": 8764,
      "ravening": 8765,
      "mockers": 8766,
      "Aholiab": 8767,
      "Written": 8768,
      "budded": 8769,
      "sucking": 8770,
      "phylia": 8771,
      "blasted": 8772,
      "blasting": 8773,
      "Shelumiel": 8774,
      "craftiness": 8775,
      "Ephratah": 8776,
      "Matthew": 8777,
      "pierce": 8778,
      "panhes": 8779,
      "haughtiness": 8780,
      "evident": 8781,
      "refresh": 8782,
      "occupation": 8783,
      "chastisement": 8784,
      "distribute": 8785,
      "Pedahzur": 8786,
      "lacketh": 8787,
      "handfuls": 8788,
      "cheeks": 8789,
      "idolaters": 8790,
      "idolatry": 8791,
      "diminished": 8792,
      "Rephaiah": 8793,
      "Hodijah": 8794,
      "Joiarib": 8795,
      "reconcile": 8796,
      "Agagite": 8797,
      "Geshurites": 8798,
      "Nimshi": 8799,
      "Preserve": 8800,
      "Preacher": 8801,
      "Pelatiah": 8802,
      "knives": 8803,
      "deceiver": 8804,
      "admonished": 8805,
      "compel": 8806,
      "cluster": 8807,
      "saluteth": 8808,
      "custody": 8809,
      "Crete": 8810,
      "Talmon": 8811,
      "gentle": 8812,
      "decreed": 8813,
      "delicate": 8814,
      "Thessalonians": 8815,
      "mocking": 8816,
      "mocketh": 8817,
      "disputing": 8818,
      "physician": 8819,
      "Prince": 8820,
      "Princes": 8821,
      "Tahpanhes": 8822,
      "Without": 8823,
      "Zurishaddai": 8824,
      "volunt": 8825,
      "timbrel": 8826,
      "timbrels": 8827,
      "Dodo": 8828,
      "Hashum": 8829,
      "matrix": 8830,
      "invaded": 8831,
      "engravings": 8832,
      "Helez": 8833,
      "eventide": 8834,
      "disguised": 8835,
      "Answerest": 8836,
      "caterpiller": 8837,
      "benefit": 8838,
      "Dishan": 8839,
      "Pisgah": 8840,
      "wafers": 8841,
      "vehemently": 8842,
      "deputy": 8843,
      "adoption": 8844,
      "perplexed": 8845,
      "lawyers": 8846,
      "beguiled": 8847,
      "Archite": 8848,
      "Galilæans": 8849,
      "Haggith": 8850,
      "Righteousness": 8851,
      "sinews": 8852,
      "Hattush": 8853,
      "Highest": 8854,
      "Others": 8855,
      "Pathros": 8856,
      "Raamah": 8857,
      "bishop": 8858,
      "dashed": 8859,
      "foul": 8860,
      "swadd": 8861,
      "inventions": 8862,
      "adjure": 8863,
      "Abidan": 8864,
      "Abishua": 8865,
      "dawning": 8866,
      "drowned": 8867,
      "Shethar": 8868,
      "remembereth": 8869,
      "Shilonite": 8870,
      "Zeboim": 8871,
      "Bukki": 8872,
      "embraced": 8873,
      "espoused": 8874,
      "replenished": 8875,
      "Bakbuk": 8876,
      "Glory": 8877,
      "Gemariah": 8878,
      "Hanoch": 8879,
      "Japhia": 8880,
      "Priscilla": 8881,
      "Zuar": 8882,
      "holpen": 8883,
      "abolished": 8884,
      "immortality": 8885,
      "antich": 8886,
      "parlour": 8887,
      "garnished": 8888,
      "furbished": 8889,
      "oliveyards": 8890,
      "sorceries": 8891,
      "Medeba": 8892,
      "Eshtemoa": 8893,
      "Ephesians": 8894,
      "Girgashites": 8895,
      "Pirathonite": 8896,
      "Bahurim": 8897,
      "Bildad": 8898,
      "Chedorla": 8899,
      "Etam": 8900,
      "Grant": 8901,
      "Gaius": 8902,
      "Hitherto": 8903,
      "Kibroth": 8904,
      "Nicodem": 8905,
      "Ocran": 8906,
      "Pamphylia": 8907,
      "Pagiel": 8908,
      "Search": 8909,
      "felt": 8910,
      "mildew": 8911,
      "swarms": 8912,
      "wanton": 8913,
      "thearted": 8914,
      "reputation": 8915,
      "religion": 8916,
      "oftentimes": 8917,
      "especially": 8918,
      "unsearchable": 8919,
      "leaving": 8920,
      "leviathan": 8921,
      "fornica": 8922,
      "estranged": 8923,
      "hattaavah": 8924,
      "whoremong": 8925,
      "overthroweth": 8926,
      "presidents": 8927,
      "Ammishaddai": 8928,
      "passengers": 8929,
      "Aristarchus": 8930,
      "mischievous": 8931,
      "simplicity": 8932,
      "Chedorlaomer": 8933,
      "Nicodemus": 8934,
      "AN": 8935,
      "AR": 8936,
      "Abo": 8937,
      "Ana": 8938,
      "Ang": 8939,
      "App": 8940,
      "Arah": 8941,
      "Ashan": 8942,
      "Aug": 8943,
      "Ch": 8944,
      "Cou": 8945,
      "Cer": 8946,
      "Chis": 8947,
      "Chim": 8948,
      "Cir": 8949,
      "Cho": 8950,
      "Cru": 8951,
      "Chel": 8952,
      "Crea": 8953,
      "Chin": 8954,
      "Da": 8955,
      "Der": 8956,
      "Dumah": 8957,
      "EN": 8958,
      "Eve": 8959,
      "Eld": 8960,
      "Either": 8961,
      "Etham": 8962,
      "Fight": 8963,
      "Fret": 8964,
      "Guni": 8965,
      "Hol": 8966,
      "Hash": 8967,
      "IS": 8968,
      "Ir": 8969,
      "Int": 8970,
      "Jatt": 8971,
      "Japh": 8972,
      "Kore": 8973,
      "Ket": 8974,
      "Kings": 8975,
      "Little": 8976,
      "Mess": 8977,
      "Nis": 8978,
      "Neph": 8979,
      "Ob": 8980,
      "Ome": 8981,
      "Oboth": 8982,
      "Onam": 8983,
      "Pul": 8984,
      "Ponti": 8985,
      "Run": 8986,
      "Rem": 8987,
      "Ref": 8988,
      "Riz": 8989,
      "Rame": 8990,
      "Sard": 8991,
      "Such": 8992,
      "TE": 8993,
      "TO": 8994,
      "Tat": 8995,
      "Til": 8996,
      "Trou": 8997,
      "Try": 8998,
      "Treason": 8999,
      "Tib": 9000,
      "Terrors": 9001,
      "Thars": 9002,
      "Ulam": 9003,
      "VAH": 9004,
      "WS": 9005,
      "You": 9006,
      "Yes": 9007,
      "Zeth": 9008,
      "Ziz": 9009,
      "aah": 9010,
      "apt": 9011,
      "ameth": 9012,
      "ails": 9013,
      "braid": 9014,
      "cin": 9015,
      "cit": 9016,
      "cence": 9017,
      "ds": 9018,
      "dare": 9019,
      "dinner": 9020,
      "ewed": 9021,
      "fes": 9022,
      "flay": 9023,
      "flieth": 9024,
      "freed": 9025,
      "gath": 9026,
      "girt": 9027,
      "ire": 9028,
      "ior": 9029,
      "ja": 9030,
      "jon": 9031,
      "juni": 9032,
      "kath": 9033,
      "kite": 9034,
      "kloth": 9035,
      "koda": 9036,
      "lites": 9037,
      "late": 9038,
      "lentiles": 9039,
      "mart": 9040,
      "mice": 9041,
      "nas": 9042,
      "nut": 9043,
      "nites": 9044,
      "nally": 9045,
      "nels": 9046,
      "oper": 9047,
      "oweth": 9048,
      "pred": 9049,
      "pap": 9050,
      "pains": 9051,
      "pair": 9052,
      "ror": 9053,
      "rist": 9054,
      "sation": 9055,
      "shear": 9056,
      "tite": 9057,
      "tings": 9058,
      "uia": 9059,
      "urah": 9060,
      "vad": 9061,
      "vag": 9062,
      "vites": 9063,
      "vants": 9064,
      "vined": 9065,
      "vult": 9066,
      "waken": 9067,
      "yar": 9068,
      "yok": 9069,
      "zed": 9070,
      "znai": 9071,
      "thelah": 9072,
      "infer": 9073,
      "innah": 9074,
      "incorruption": 9075,
      "incorruptible": 9076,
      "reat": 9077,
      "rear": 9078,
      "reli": 9079,
      "rene": 9080,
      "heg": 9081,
      "hearers": 9082,
      "tore": 9083,
      "toil": 9084,
      "hahi": 9085,
      "haath": 9086,
      "hires": 9087,
      "onaim": 9088,
      "org": 9089,
      "orde": 9090,
      "oracles": 9091,
      "atira": 9092,
      "sely": 9093,
      "selled": 9094,
      "sepher": 9095,
      "eng": 9096,
      "enants": 9097,
      "encourage": 9098,
      "anes": 9099,
      "anch": 9100,
      "ancy": 9101,
      "edged": 9102,
      "edification": 9103,
      "inges": 9104,
      "bewr": 9105,
      "beards": 9106,
      "bells": 9107,
      "ara": 9108,
      "araim": 9109,
      "arrog": 9110,
      "asps": 9111,
      "ascent": 9112,
      "ists": 9113,
      "isled": 9114,
      "isins": 9115,
      "wiped": 9116,
      "mea": 9117,
      "mew": 9118,
      "mend": 9119,
      "melod": 9120,
      "shaiah": 9121,
      "shaved": 9122,
      "shaft": 9123,
      "unat": 9124,
      "unru": 9125,
      "untime": 9126,
      "unholy": 9127,
      "unwise": 9128,
      "unched": 9129,
      "unmarried": 9130,
      "ungodliness": 9131,
      "unfeigned": 9132,
      "lees": 9133,
      "leop": 9134,
      "noised": 9135,
      "noisome": 9136,
      "stalk": 9137,
      "stank": 9138,
      "stump": 9139,
      "vered": 9140,
      "iddim": 9141,
      "forter": 9142,
      "forgiving": 9143,
      "fortieth": 9144,
      "fortified": 9145,
      "web": 9146,
      "weather": 9147,
      "weepeth": 9148,
      "himoth": 9149,
      "withholdeth": 9150,
      "utton": 9151,
      "utenants": 9152,
      "ria": 9153,
      "rabb": 9154,
      "rags": 9155,
      "railing": 9156,
      "rathite": 9157,
      "raisins": 9158,
      "hoary": 9159,
      "hospit": 9160,
      "lim": 9161,
      "licked": 9162,
      "livest": 9163,
      "upha": 9164,
      "upham": 9165,
      "upholdeth": 9166,
      "upbraid": 9167,
      "yellow": 9168,
      "dem": 9169,
      "defer": 9170,
      "alas": 9171,
      "alter": 9172,
      "ality": 9173,
      "owest": 9174,
      "whips": 9175,
      "amond": 9176,
      "amiss": 9177,
      "pegoat": 9178,
      "eluia": 9179,
      "outer": 9180,
      "outmost": 9181,
      "coal": 9182,
      "fron": 9183,
      "estee": 9184,
      "abah": 9185,
      "abase": 9186,
      "abased": 9187,
      "abond": 9188,
      "abzeel": 9189,
      "whet": 9190,
      "adad": 9191,
      "advan": 9192,
      "addeth": 9193,
      "foreign": 9194,
      "mach": 9195,
      "mage": 9196,
      "file": 9197,
      "terous": 9198,
      "yous": 9199,
      "neam": 9200,
      "nephe": 9201,
      "nereth": 9202,
      "nechoh": 9203,
      "lothe": 9204,
      "loath": 9205,
      "lomew": 9206,
      "accompanied": 9207,
      "Israelite": 9208,
      "chide": 9209,
      "hathaim": 9210,
      "spue": 9211,
      "spareth": 9212,
      "sparrows": 9213,
      "sparks": 9214,
      "dol": 9215,
      "launched": 9216,
      "uded": 9217,
      "gia": 9218,
      "earthy": 9219,
      "akan": 9220,
      "print": 9221,
      "const": 9222,
      "conferred": 9223,
      "overturn": 9224,
      "subs": 9225,
      "sustain": 9226,
      "imus": 9227,
      "imprison": 9228,
      "impover": 9229,
      "impotent": 9230,
      "availeth": 9231,
      "proper": 9232,
      "prosely": 9233,
      "athah": 9234,
      "athiel": 9235,
      "moist": 9236,
      "brown": 9237,
      "boznai": 9238,
      "navel": 9239,
      "woven": 9240,
      "artifi": 9241,
      "Believe": 9242,
      "rightly": 9243,
      "olence": 9244,
      "diamond": 9245,
      "prised": 9246,
      "privy": 9247,
      "Jek": 9248,
      "Jezer": 9249,
      "healeth": 9250,
      "performeth": 9251,
      "perazim": 9252,
      "tired": 9253,
      "mbline": 9254,
      "quent": 9255,
      "quails": 9256,
      "commanding": 9257,
      "sentest": 9258,
      "rygia": 9259,
      "twoedged": 9260,
      "Jot": 9261,
      "Abiah": 9262,
      "Abia": 9263,
      "Abarim": 9264,
      "beholdest": 9265,
      "beholdeth": 9266,
      "setters": 9267,
      "cieled": 9268,
      "shorn": 9269,
      "shual": 9270,
      "undersetters": 9271,
      "glutton": 9272,
      "describe": 9273,
      "partic": 9274,
      "partial": 9275,
      "calledst": 9276,
      "trembleth": 9277,
[...]
