{
  "version": "1.0",
  "truncation": null,
  "padding": null,
  "added_tokens": [
    {
      "id": 0,
      "content": "<pad>",
      "single_word": false,
      "lstrip": false,
      "rstrip": false,
      "normalized": false,
      "special": true
    },
    {
      "id": 1,
      "content": "<unk>",
      "single_word": false,
      "lstrip": false,
      "rstrip": false,
      "normalized": false,
      "special": true
    },
    {
      "id": 2,
      "content": "<s>",
      "single_word": false,
      "lstrip": false,
      "rstrip": false,
      "normalized": false,
      "special": true
    },
    {
      "id": 3,
      "content": "</s>",
      "single_word": false,
      "lstrip": false,
      "rstrip": false,
      "normalized": false,
      "special": true
    }
  ],
  "normalizer": null,
  "pre_tokenizer": {
    "type": "Sequence",
    "pretokenizers": [
      {
        "type": "Whitespace"
      },
      {
        "type": "Split",
        "pattern": {
          "Regex": "(?<=[က-႟꤀-꤯])(?=[A-Za-z0-9])|(?<=[A-Za-z0-9])(?=[က-႟꤀-꤯])"
        },
        "behavior": "Isolated",
        "invert": false
      }
    ]
  },
  "post_processor": null,
  "decoder": null,
  "model": {
    "type": "BPE",
    "dropout": null,
    "unk_token": "<unk>",
    "continuing_subword_prefix": null,
    "end_of_word_suffix": null,
    "fuse_unk": false,
    "byte_fallback": false,
    "ignore_merges": false,
    "vocab": {
      "<pad>": 0,
      "<unk>": 1,
      "<s>": 2,
      "</s>": 3,
      "!": 4,
      "(": 5,
      ")": 6,
      ",": 7,
      "-": 8,
      ".": 9,
      "0": 10,
      "1": 11,
      "2": 12,
      "3": 13,
      "4": 14,
      "5": 15,
      "6": 16,
      "8": 17,
      ":": 18,
      ";": 19,
      "?": 20,
      "A": 21,
      "B": 22,
      "C": 23,
      "D": 24,
      "E": 25,
      "F": 26,
      "G": 27,
      "H": 28,
      "I": 29,
      "J": 30,
      "K": 31,
      "L": 32,
      "M": 33,
      "N": 34,
      "O": 35,
      "P": 36,
      "R": 37,
      "S": 38,
      "T": 39,
      "U": 40,
      "V": 41,
      "Z": 42,
      "a": 43,
      "b": 44,
      "c": 45,
      "d": 46,
      "e": 47,
      "f": 48,
      "g": 49,
      "h": 50,
      "i": 51,
      "j": 52,
      "k": 53,
      "l": 54,
      "m": 55,
      "n": 56,
      "o": 57,
      "p": 58,
      "q": 59,
      "r": 60,
      "s": 61,
      "t": 62,
      "u": 63,
      "v": 64,
      "w": 65,
      "x": 66,
      "y": 67,
      "z": 68,
      "ʼ": 69,
      "‘": 70,
      "’": 71,
      "“": 72,
      "”": 73,
      "ng": 74,
      "in": 75,
      "hi": 76,
      "na": 77,
      "ah": 78,
      "ang": 79,
      "te": 80,
      "am": 81,
      "pa": 82,
      "uh": 83,
      "aw": 84,
      "kh": 85,
      "ing": 86,
      "ua": 87,
      "ei": 88,
      "th": 89,
      "ding": 90,
      "ci": 91,
      "ong": 92,
      "ak": 93,
      "ung": 94,
      "ki": 95,
      "an": 96,
      "pi": 97,
      "le": 98,
      "angin": 99,
      "si": 100,
      "at": 101,
      "mi": 102,
      "hong": 103,
      "ka": 104,
      "en": 105,
      "thu": 106,
      "ahi": 107,
      "ai": 108,
      "un": 109,
      "lo": 110,
      "tung": 111,
      "au": 112,
      "awh": 113,
      "um": 114,
      "mah": 115,
      "ciangin": 116,
      "em": 117,
      "Tua": 118,
      "pe": 119,
      "sak": 120,
      "al": 121,
      "kei": 122,
      "ih": 123,
      "opa": 124,
      "om": 125,
      "tawh": 126,
      "Topa": 127,
      "ta": 128,
      "peuh": 129,
      "el": 130,
      "sung": 131,
      "khat": 132,
      "mite": 133,
      "gam": 134,
      "sa": 135,
      "tungah": 136,
      "dingin": 137,
      "aute": 138,
      "khi": 139,
      "tu": 140,
      "sian": 141,
      "khem": 142,
      "Pa": 143,
      "pai": 144,
      "hih": 145,
      "pan": 146,
      "tak": 147,
      "thei": 148,
      "khempeuh": 149,
      "amah": 150,
      "zong": 151,
      "su": 152,
      "li": 153,
      "Pasian": 154,
      "ahih": 155,
      "hiam": 156,
      "leh": 157,
      "pen": 158,
      "ote": 159,
      "man": 160,
      "tua": 161,
      "awl": 162,
      "awm": 163,
      "kiang": 164,
      "ph": 165,
      ",”": 166,
      "amaute": 167,
      "panin": 168,
      "la": 169,
      "ma": 170,
      "gen": 171,
      "bang": 172,
      "kiangah": 173,
      "Je": 174,
      "bangin": 175,
      "ama": 176,
      "kum": 177,
      "lai": 178,
      "bi": 179,
      "khua": 180,
      "ho": 181,
      "ni": 182,
      "cih": 183,
      "uan": 184,
      "hangin": 185,
      "se": 186,
      "nang": 187,
      "uak": 188,
      "uk": 189,
      "ek": 190,
      "sungah": 191,
      "manin": 192,
      "lam": 193,
      "ra": 194,
      "biak": 195,
      "note": 196,
      "hna": 197,
      "inn": 198,
      "nei": 199,
      "bawl": 200,
      "min": 201,
      "Is": 202,
      "lung": 203,
      "pia": 204,
      "kumpi": 205,
      "ut": 206,
      "hang": 207,
      "khia": 208,
      "kong": 209,
      "rael": 210,
      "Israel": 211,
      "lei": 212,
      "dinga": 213,
      "gi": 214,
      "awn": 215,
      "tapa": 216,
      "ui": 217,
      "teʼ": 218,
      "pih": 219,
      "kik": 220,
      "atna": 221,
      "lak": 222,
      "nu": 223,
      "Am": 224,
      "on": 225,
      "sem": 226,
      "mu": 227,
      "lh": 228,
      "mai": 229,
      "sim": 230,
      "eng": 231,
      "nading": 232,
      "takin": 233,
      "theih": 234,
      "zongin": 235,
      "ampi": 236,
      "dang": 237,
      "ri": 238,
      "ku": 239,
      "lian": 240,
      "piak": 241,
      "Topaʼ": 242,
      "he": 243,
      "Amah": 244,
      "tui": 245,
      "za": 246,
      "Bang": 247,
      "sawm": 248,
      "gal": 249,
      "ko": 250,
      "sia": 251,
      "Na": 252,
      "Jesu": 253,
      "sang": 254,
      "awng": 255,
      "kha": 256,
      "Mi": 257,
      "pna": 258,
      "ual": 259,
      "nadingin": 260,
      "mawh": 261,
      "Amaute": 262,
      "Pasianʼ": 263,
      "mahmah": 264,
      "vi": 265,
      "biakna": 266,
      "sh": 267,
      "tang": 268,
      "kham": 269,
      "Jo": 270,
      "khin": 271,
      "Hih": 272,
      "Ka": 273,
      "kumpipa": 274,
      "zo": 275,
      "hun": 276,
      "hing": 277,
      "nih": 278,
      "amau": 279,
      "suak": 280,
      "aih": 281,
      "pha": 282,
      "hu": 283,
      "tna": 284,
      "khuapi": 285,
      "hoih": 286,
      "amna": 287,
      "ne": 288,
      "naw": 289,
      "be": 290,
      "khut": 291,
      "Kh": 292,
      "tho": 293,
      "adingin": 294,
      "zui": 295,
      "loin": 296,
      "hon": 297,
      "dah": 298,
      "nung": 299,
      "van": 300,
      "loh": 301,
      "mei": 302,
      "no": 303,
      "paw": 304,
      "ab": 305,
      "lu": 306,
      "ina": 307,
      "thum": 308,
      "awi": 309,
      "ar": 310,
      "Ahi": 311,
      "to": 312,
      "tawn": 313,
      "mang": 314,
      "zi": 315,
      "Kei": 316,
      "teng": 317,
      "amauʼ": 318,
      "Mo": 319,
      "Si": 320,
      "kam": 321,
      "awk": 322,
      "khawm": 323,
      "khit": 324,
      "dong": 325,
      "uai": 326,
      "di": 327,
      "Jer": 328,
      "Da": 329,
      "nasem": 330,
      "ngah": 331,
      "Ahih": 332,
      "lem": 333,
      "puan": 334,
      "bu": 335,
      "zaw": 336,
      "angtho": 337,
      "bek": 338,
      "muh": 339,
      "va": 340,
      "vid": 341,
      "pawl": 342,
      "David": 343,
      "zah": 344,
      "mun": 345,
      "lim": 346,
      ",’": 347,
      "umpi": 348,
      "Note": 349,
      "miteʼ": 350,
      "ngaih": 351,
      "nawn": 352,
      "nate": 353,
      "kih": 354,
      "minam": 355,
      "tan": 356,
      "khiat": 357,
      "inla": 358,
      "tawntung": 359,
      "lungsim": 360,
      "khu": 361,
      "umei": 362,
      "Ju": 363,
      "do": 364,
      "gim": 365,
      "Nang": 366,
      "nuam": 367,
      "nam": 368,
      "usa": 369,
      "Tu": 370,
      "sawl": 371,
      "nah": 372,
      "kho": 373,
      "gamt": 374,
      "Jerusa": 375,
      "Jerusalem": 376,
      "khak": 377,
      "suan": 378,
      "er": 379,
      "dam": 380,
      "kin": 381,
      "thuak": 382,
      "biakinn": 383,
      "dei": 384,
      "tai": 385,
      "numei": 386,
      "san": 387,
      "ses": 388,
      "sam": 389,
      "suah": 390,
      "Moses": 391,
      "siampi": 392,
      "?”": 393,
      "Judah": 394,
      "sun": 395,
      "koih": 396,
      "that": 397,
      "khen": 398,
      "zu": 399,
      "kim": 400,
      "ba": 401,
      "kap": 402,
      "tampi": 403,
      "nga": 404,
      "kip": 405,
      "tun": 406,
      "heh": 407,
      "keima": 408,
      "ngei": 409,
      "leeng": 410,
      "nangma": 411,
      "Eg": 412,
      "et": 413,
      "awp": 414,
      "suk": 415,
      "hilh": 416,
      "paipih": 417,
      "unla": 418,
      "pt": 419,
      "ypt": 420,
      "Egypt": 421,
      "mawhna": 422,
      "tum": 423,
      "lakah": 424,
      "kici": 425,
      "Ama": 426,
      "kuan": 427,
      "thah": 428,
      "nun": 429,
      "khial": 430,
      "lang": 431,
      "gih": 432,
      "sal": 433,
      "mipa": 434,
      "piang": 435,
      "sep": 436,
      "pu": 437,
      "Thu": 438,
      "gamta": 439,
      "neih": 440,
      "leitung": 441,
      "sagih": 442,
      "aul": 443,
      "ha": 444,
      "nong": 445,
      "elh": 446,
      "ris": 447,
      "vantung": 448,
      "sunga": 449,
      "nuntak": 450,
      "ciang": 451,
      "Khris": 452,
      "suang": 453,
      "nadingun": 454,
      "sing": 455,
      "thugen": 456,
      "sau": 457,
      "tul": 458,
      "sanggam": 459,
      "mual": 460,
      "keimah": 461,
      "pang": 462,
      "Kumpi": 463,
      "buk": 464,
      "kote": 465,
      "teeng": 466,
      "lum": 467,
      "im": 468,
      "gah": 469,
      "kibang": 470,
      "seh": 471,
      "noteʼ": 472,
      "gawp": 473,
      "laitakin": 474,
      "ciah": 475,
      "ciamna": 476,
      "hal": 477,
      "kuang": 478,
      "sum": 479,
      "nai": 480,
      "tuam": 481,
      "it": 482,
      "gan": 483,
      "vang": 484,
      "bangmah": 485,
      "beh": 486,
      "pak": 487,
      "than": 488,
      "pau": 489,
      "leitang": 490,
      "Le": 491,
      "Ab": 492,
      "paʼ": 493,
      "kuamah": 494,
      "siangtho": 495,
      "kua": 496,
      "vak": 497,
      "mon": 498,
      "sat": 499,
      "ve": 500,
      "dangte": 501,
      "khuam": 502,
      "cing": 503,
      "sangin": 504,
      "kai": 505,
      "lamah": 506,
      "nak": 507,
      "ke": 508,
      "thuman": 509,
      "dawng": 510,
      "siatna": 511,
      "tapate": 512,
      "ad": 513,
      "tau": 514,
      "eite": 515,
      "thupiak": 516,
      "lut": 517,
      "zak": 518,
      "zawh": 519,
      "khe": 520,
      "phat": 521,
      "ria": 522,
      "galkap": 523,
      "han": 524,
      "pah": 525,
      "dawn": 526,
      "khang": 527,
      "thute": 528,
      "ze": 529,
      "vei": 530,
      "peuhpeuh": 531,
      "mihing": 532,
      "lah": 533,
      "phawk": 534,
      "zang": 535,
      "tah": 536,
      "sakin": 537,
      "pate": 538,
      "hen": 539,
      "thupha": 540,
      "lna": 541,
      "Siangtho": 542,
      "lungdam": 543,
      "huh": 544,
      "lawm": 545,
      "ob": 546,
      "bei": 547,
      "Be": 548,
      "zan": 549,
      "sakna": 550,
      "pua": 551,
      "ute": 552,
      "ngai": 553,
      "pasal": 554,
      "omna": 555,
      "bawng": 556,
      "gamtat": 557,
      "ganhing": 558,
      "ahʼ": 559,
      "gelh": 560,
      "napi": 561,
      "taw": 562,
      "ciat": 563,
      "liante": 564,
      "gamtatna": 565,
      "ciam": 566,
      "siat": 567,
      "tuate": 568,
      "lohna": 569,
      "ti": 570,
      "amauteʼ": 571,
      "Saul": 572,
      "rah": 573,
      "tal": 574,
      "tahen": 575,
      "ngaihsun": 576,
      "nge": 577,
      "ngaihsu": 578,
      "mihon": 579,
      "lote": 580,
      "gamah": 581,
      "nangmah": 582,
      "deih": 583,
      "de": 584,
      "ngen": 585,
      "damna": 586,
      "lon": 587,
      "pite": 588,
      "kung": 589,
      "sepna": 590,
      "teh": 591,
      "susia": 592,
      "ol": 593,
      "gu": 594,
      "kipan": 595,
      "thuciamna": 596,
      "kiko": 597,
      "thang": 598,
      "kamsang": 599,
      "khialhna": 600,
      "nangawn": 601,
      "nuntakna": 602,
      "huai": 603,
      "pasian": 604,
      "mit": 605,
      "taleh": 606,
      "kulh": 607,
      "ahihleh": 608,
      "munah": 609,
      "nek": 610,
      "kibawl": 611,
      "He": 612,
      "tawm": 613,
      "phual": 614,
      "thau": 615,
      "cip": 616,
      "tate": 617,
      "Eli": 618,
      "leu": 619,
      "nau": 620,
      "gimna": 621,
      "hitaleh": 622,
      "guk": 623,
      "nasep": 624,
      "Gi": 625,
      "zing": 626,
      "Levi": 627,
      "paikhiat": 628,
      "nungta": 629,
      "lampi": 630,
      "gei": 631,
      "liatna": 632,
      "ngeina": 633,
      "tam": 634,
      "En": 635,
      "sate": 636,
      "bia": 637,
      "tawi": 638,
      "peuhmah": 639,
      "So": 640,
      "paikhia": 641,
      "nasemte": 642,
      "khuami": 643,
      "tha": 644,
      "Jak": 645,
      "Bab": 646,
      "ging": 647,
      "kipia": 648,
      "ylon": 649,
      "Babylon": 650,
      "Fi": 651,
      "Jew": 652,
      "Jakob": 653,
      "Lei": 654,
      "mawk": 655,
      "nin": 656,
      "ap": 657,
      "kawi": 658,
      "kis": 659,
      "sih": 660,
      "aron": 661,
      "milim": 662,
      "lau": 663,
      "Fili": 664,
      "aʼ": 665,
      "pihna": 666,
      "masa": 667,
      "Aaron": 668,
      "kumpipaʼ": 669,
      "tunga": 670,
      "innkuan": 671,
      "kah": 672,
      "nakpi": 673,
      "ana": 674,
      "namtui": 675,
      "sik": 676,
      "cin": 677,
      "itna": 678,
      "pumpi": 679,
      "namsau": 680,
      "hihna": 681,
      "taktak": 682,
      "dim": 683,
      "thukham": 684,
      "galte": 685,
      "leenggah": 686,
      "puak": 687,
      "kikho": 688,
      "lel": 689,
      "nungzui": 690,
      "hai": 691,
      "tham": 692,
      "suante": 693,
      "nop": 694,
      "ading": 695,
      "tat": 696,
      "lamdang": 697,
      "dan": 698,
      "lua": 699,
      "nuai": 700,
      "mateng": 701,
      "thuk": 702,
      "Kha": 703,
      "vangliatna": 704,
      "Vang": 705,
      "Mihing": 706,
      "khuapite": 707,
      "tia": 708,
      "or": 709,
      "kizui": 710,
      "khiatna": 711,
      "Vanglian": 712,
      "Ta": 713,
      "stia": 714,
      "vui": 715,
      "dongin": 716,
      "Filistia": 717,
      "lomon": 718,
      "Solomon": 719,
      "Pe": 720,
      "me": 721,
      "ngun": 722,
      "tel": 723,
      "lungdamna": 724,
      "Jeho": 725,
      "gun": 726,
      "luah": 727,
      "muhna": 728,
      "Ni": 729,
      "lhna": 730,
      "mak": 731,
      "zuih": 732,
      "kisai": 733,
      "Re": 734,
      "dai": 735,
      "khuk": 736,
      "val": 737,
      "zua": 738,
      "aro": 739,
      "suahna": 740,
      "As": 741,
      "tanu": 742,
      "Ze": 743,
      "siang": 744,
      "upna": 745,
      "khakte": 746,
      "Abrah": 747,
      "Abraham": 748,
      "hawm": 749,
      "piakna": 750,
      "meihal": 751,
      "zahtak": 752,
      "Ne": 753,
      "Faro": 754,
      "nel": 755,
      "zum": 756,
      "Ki": 757,
      "silh": 758,
      "gamlak": 759,
      "minthan": 760,
      "tuipi": 761,
      "sef": 762,
      "teel": 763,
      "ciahkik": 764,
      "ban": 765,
      "sathau": 766,
      "bawngtal": 767,
      "nusia": 768,
      "minamte": 769,
      "suanle": 770,
      "amin": 771,
      "sihna": 772,
      "bo": 773,
      "Josef": 774,
      "nasepna": 775,
      "auʼ": 776,
      "let": 777,
      "Ba": 778,
      "hehna": 779,
      "suakta": 780,
      "Nangmah": 781,
      "topa": 782,
      "Keimah": 783,
      "Tui": 784,
      "uliante": 785,
      "pil": 786,
      "shua": 787,
      "deihna": 788,
      "khai": 789,
      "cil": 790,
      "migi": 791,
      "pin": 792,
      "Paul": 793,
      "khatpeuh": 794,
      "Kumpipa": 795,
      "ham": 796,
      "luang": 797,
      "kilawm": 798,
      "ngo": 799,
      "nget": 800,
      "het": 801,
      "ngak": 802,
      "zia": 803,
      "kikhopna": 804,
      "nungzuite": 805,
      "etna": 806,
      "hum": 807,
      "giah": 808,
      "bul": 809,
      "sanggamte": 810,
      "zin": 811,
      "genin": 812,
      "nopna": 813,
      "Me": 814,
      "siampite": 815,
      "minthanna": 816,
      "pian": 817,
      "kiz": 818,
      "kigelh": 819,
      "sakol": 820,
      "vantungmi": 821,
      "as": 822,
      "tangin": 823,
      "piangsak": 824,
      "Beth": 825,
      "lawh": 826,
      "beel": 827,
      "ub": 828,
      "tuu": 829,
      "Lai": 830,
      "manun": 831,
      "ram": 832,
      "Gal": 833,
      "She": 834,
      "thahat": 835,
      "eh": 836,
      "nihte": 837,
      "muan": 838,
      "zat": 839,
      "ter": 840,
      "gamte": 841,
      "Thukham": 842,
      "makai": 843,
      "giahphual": 844,
      "Zi": 845,
      "tuan": 846,
      "zar": 847,
      "Kote": 848,
      "thukhen": 849,
      "Davidʼ": 850,
      "sha": 851,
      "pilna": 852,
      "huih": 853,
      "hehpihna": 854,
      "gual": 855,
      "taang": 856,
      "cihna": 857,
      "kongpi": 858,
      "dal": 859,
      "thak": 860,
      "vun": 861,
      "vek": 862,
      "zawng": 863,
      "paknamtui": 864,
      "kan": 865,
      "hileh": 866,
      "siah": 867,
      "limtakin": 868,
      "zeki": 869,
      "Joshua": 870,
      "khawl": 871,
      "ahihna": 872,
      "khinta": 873,
      "kihei": 874,
      "ngaihsutna": 875,
      "Tapa": 876,
      "theihna": 877,
      "khinzo": 878,
      "Keima": 879,
      "zuau": 880,
      "Ben": 881,
      "simin": 882,
      "laitak": 883,
      "leenggahzu": 884,
      "Hong": 885,
      "ite": 886,
      "puk": 887,
      "kika": 888,
      "lungkham": 889,
      "leitungah": 890,
      "Peter": 891,
      "fr": 892,
      "lekhat": 893,
      "bangci": 894,
      "neu": 895,
      "Gam": 896,
      "ngaihsut": 897,
      "Lung": 898,
      "galkapte": 899,
      "Sing": 900,
      "dom": 901,
      "lianpi": 902,
      "hawl": 903,
      "sungin": 904,
      "Amauʼ": 905,
      "Ha": 906,
      "kipanin": 907,
      "mahin": 908,
      "Hihte": 909,
      "vekpi": 910,
      "Ku": 911,
      "khom": 912,
      "tungsak": 913,
      "An": 914,
      "khatlekhat": 915,
      "Nangma": 916,
      "Mual": 917,
      "gel": 918,
      "angte": 919,
      "tawntungin": 920,
      "kilang": 921,
      "tuah": 922,
      "tuak": 923,
      "Sam": 924,
      "teek": 925,
      "kith": 926,
      "phi": 927,
      "kiciam": 928,
      "Moab": 929,
      "hak": 930,
      "king": 931,
      "khauh": 932,
      "kipawl": 933,
      "Jor": 934,
      "Bi": 935,
      "kawm": 936,
      "siam": 937,
      "tual": 938,
      "Jordan": 939,
      "tawl": 940,
      "maisak": 941,
      "dik": 942,
      "Abi": 943,
      "kia": 944,
      "aim": 945,
      "tokhom": 946,
      "suanlekhakte": 947,
      "Van": 948,
      "khuavak": 949,
      "thal": 950,
      "manpha": 951,
      "hot": 952,
      "thugente": 953,
      "mihonte": 954,
      "paisuak": 955,
      "Hi": 956,
      "hilhna": 957,
      "kot": 958,
      "henla": 959,
      "len": 960,
      "sil": 961,
      "hopih": 962,
      "Pai": 963,
      "leuleu": 964,
      "kem": 965,
      "paisak": 966,
      "uel": 967,
      "ukna": 968,
      "don": 969,
      "kial": 970,
      "gui": 971,
      "teen": 972,
      "pawi": 973,
      "thupiakna": 974,
      "mat": 975,
      "kimkot": 976,
      "paikhiatpih": 977,
      "lui": 978,
      "ul": 979,
      "kisam": 980,
      "bawlin": 981,
      "lungkim": 982,
      "jamin": 983,
      "natna": 984,
      "uno": 985,
      "Johan": 986,
      "naupang": 987,
      "ihi": 988,
      "kihta": 989,
      "No": 990,
      "ac": 991,
      "ik": 992,
      "jah": 993,
      "khah": 994,
      "khum": 995,
      "lom": 996,
      "tawnin": 997,
      "neihsa": 998,
      "Benjamin": 999,
      "kithat": 1000,
      "pihte": 1001,
      "sanggampa": 1002,
      "kiph": 1003,
      "kigen": 1004,
      "sila": 1005,
      "khatin": 1006,
      "nial": 1007,
      "giat": 1008,
      "kul": 1009,
      "mel": 1010,
      "ulian": 1011,
      "kipa": 1012,
      "Siampi": 1013,
      "lawn": 1014,
      "midang": 1015,
      "liing": 1016,
      "Leitung": 1017,
      "bal": 1018,
      "ge": 1019,
      "semsem": 1020,
      "hehpih": 1021,
      "mo": 1022,
      "Thuciamna": 1023,
      "lek": 1024,
      "hanga": 1025,
      "takpi": 1026,
      "khan": 1027,
      "maizum": 1028,
      "numeite": 1029,
      "Gen": 1030,
      "puante": 1031,
      "Singkuang": 1032,
      "up": 1033,
      "ngi": 1034,
      "ukte": 1035,
      "mong": 1036,
      "nisuahna": 1037,
      "Sh": 1038,
      "thung": 1039,
      "beek": 1040,
      "Pi": 1041,
      "muang": 1042,
      "neute": 1043,
      "bath": 1044,
      "kikhawm": 1045,
      "Kana": 1046,
      "Mih": 1047,
      "tehna": 1048,
      "gamla": 1049,
      "utal": 1050,
      "siampipa": 1051,
      "Ko": 1052,
      "ron": 1053,
      "thong": 1054,
      "kilem": 1055,
      "bil": 1056,
      "kumpite": 1057,
      "simmawh": 1058,
      "koi": 1059,
      "behte": 1060,
      "baw": 1061,
      "embaw": 1062,
      "gil": 1063,
      "Assi": 1064,
      "vai": 1065,
      "zel": 1066,
      "keel": 1067,
      "Kanaan": 1068,
      "uhna": 1069,
      "Mite": 1070,
      "dot": 1071,
      "Efr": 1072,
      "Sab": 1073,
      "ari": 1074,
      "Amauteʼ": 1075,
      "kaikhawm": 1076,
      "Assiria": 1077,
      "kun": 1078,
      "keiʼ": 1079,
      "tuutal": 1080,
      "mudah": 1081,
      "oth": 1082,
      "teci": 1083,
      "aiah": 1084,
      "omsak": 1085,
      "kikin": 1086,
      "zanin": 1087,
      "go": 1088,
      "suaksak": 1089,
      "Dan": 1090,
      "dawi": 1091,
      "khatte": 1092,
      "Joab": 1093,
      "Khua": 1094,
      "upate": 1095,
      "lopi": 1096,
      "tuamtuam": 1097,
      "anas": 1098,
      "ot": 1099,
      "phatna": 1100,
      "buh": 1101,
      "vat": 1102,
      "anlum": 1103,
      "siate": 1104,
      "keu": 1105,
      "kamsangte": 1106,
      "Sabbath": 1107,
      "Ge": 1108,
      "Manas": 1109,
      "Sy": 1110,
      "delh": 1111,
      "biaknate": 1112,
      "tangval": 1113,
      "puanbuk": 1114,
      "tail": 1115,
      "Gentail": 1116,
      "Manasseh": 1117,
      "Syria": 1118,
      "peek": 1119,
      "Noteʼ": 1120,
      "Samuel": 1121,
      "Shi": 1122,
      "kido": 1123,
      "lead": 1124,
      "koteʼ": 1125,
      "Faroʼ": 1126,
      "sumngo": 1127,
      "Biak": 1128,
      "hunin": 1129,
      "dawngin": 1130,
      "hat": 1131,
      "re": 1132,
      "git": 1133,
      "Jesuʼ": 1134,
      "shek": 1135,
      "bup": 1136,
      "eiteʼ": 1137,
      "kisa": 1138,
      "kimu": 1139,
      "kidim": 1140,
      "maitang": 1141,
      "veve": 1142,
      "Efraim": 1143,
      "paina": 1144,
      "phak": 1145,
      "zahin": 1146,
      "ganhingte": 1147,
      "Kong": 1148,
      "Ma": 1149,
      "khau": 1150,
      "midangte": 1151,
      "thupi": 1152,
      "thuhilhna": 1153,
      "khual": 1154,
      "khol": 1155,
      "tegel": 1156,
      "gamgi": 1157,
      "lat": 1158,
      "teembaw": 1159,
      "sisan": 1160,
      "thuhilh": 1161,
      "damsak": 1162,
      "banah": 1163,
      "leenggui": 1164,
      "khuamial": 1165,
      "kawikawi": 1166,
      "Ar": 1167,
      "guak": 1168,
      "biakpiakna": 1169,
      "nihna": 1170,
      "ath": 1171,
      "taak": 1172,
      "leilak": 1173,
      "sehnel": 1174,
      "dak": 1175,
      "ngam": 1176,
      "ten": 1177,
      "nuʼ": 1178,
      "riah": 1179,
      "Isa": 1180,
      "peeng": 1181,
      "Jona": 1182,
      "thaman": 1183,
      "Isaac": 1184,
      "Min": 1185,
      "Sama": 1186,
      "hei": 1187,
      "oih": 1188,
      "seek": 1189,
      "thumna": 1190,
      "Vantung": 1191,
      "shekel": 1192,
      "Samaria": 1193,
      "leng": 1194,
      "gamh": 1195,
      "kungte": 1196,
      "Hezeki": 1197,
      "kisi": 1198,
      "sut": 1199,
      "seel": 1200,
      "hoihtakin": 1201,
      "guah": 1202,
      "Baal": 1203,
      "mal": 1204,
      "siamna": 1205,
      "laibu": 1206,
      "nitak": 1207,
      "mangngi": 1208,
      "awging": 1209,
      "kal": 1210,
      "elʼ": 1211,
      "maang": 1212,
      "khuai": 1213,
      "hin": 1214,
      "zen": 1215,
      "mahah": 1216,
      "ukpa": 1217,
      "nona": 1218,
      "kampau": 1219,
      "mangngilh": 1220,
      "satna": 1221,
      "thuah": 1222,
      "meii": 1223,
      "khop": 1224,
      "migilote": 1225,
      "!”": 1226,
      "ash": 1227,
      "so": 1228,
      "kiim": 1229,
      "tuuno": 1230,
      "leilu": 1231,
      "zingsang": 1232,
      "laitakun": 1233,
      "vaih": 1234,
      "pek": 1235,
      "elkai": 1236,
      "takna": 1237,
      "baang": 1238,
      "veeng": 1239,
      "vaihawm": 1240,
      "zer": 1241,
      "Ammon": 1242,
      "thukhamte": 1243,
      "pinelkai": 1244,
      "muanhuai": 1245,
      "song": 1246,
      "bawlna": 1247,
      "suksiat": 1248,
      "thahatna": 1249,
      "Heb": 1250,
      "Zion": 1251,
      "Edom": 1252,
      "awt": 1253,
      "lutang": 1254,
      "Jonathan": 1255,
      "Bal": 1256,
      "den": 1257,
      "kaang": 1258,
      "omin": 1259,
      "hoihna": 1260,
      "?’": 1261,
      "she": 1262,
      "ʼn": 1263,
      "thutang": 1264,
      "khempeuhʼ": 1265,
      "gilo": 1266,
      "lup": 1267,
      "tanute": 1268,
      "kipsak": 1269,
      "thungetna": 1270,
      "uaina": 1271,
      "misi": 1272,
      "milimte": 1273,
      "kikalah": 1274,
      "Aha": 1275,
      "Mei": 1276,
      "guh": 1277,
      "gong": 1278,
      "khempeuhte": 1279,
      "laite": 1280,
      "biakbuk": 1281,
      "gik": 1282,
      "tumna": 1283,
      "hotkhiatna": 1284,
      "kipat": 1285,
      "Thum": 1286,
      "iah": 1287,
      "sawltak": 1288,
      "hanciam": 1289,
      "baih": 1290,
      "oam": 1291,
      "ompih": 1292,
      "hangun": 1293,
      "Tuipi": 1294,
      "kang": 1295,
      "po": 1296,
      "sin": 1297,
      "Jehoi": 1298,
      "lecin": 1299,
      "meivak": 1300,
      "kithawi": 1301,
      "gitlohna": 1302,
      "Minam": 1303,
      "Eite": 1304,
      "Tang": 1305,
      "zuak": 1306,
      "citak": 1307,
      "taam": 1308,
      "taklam": 1309,
      "Gilead": 1310,
      "kilemna": 1311,
      "hau": 1312,
      "nom": 1313,
      "theh": 1314,
      "lee": 1315,
      "gamdang": 1316,
      "kumin": 1317,
      "mawhsak": 1318,
      "kinu": 1319,
      "beisak": 1320,
      "Saulʼ": 1321,
      "Esau": 1322,
      "zawhna": 1323,
      "Ah": 1324,
      "dih": 1325,
      "zawl": 1326,
      "kikhen": 1327,
      "sab": 1328,
      "phu": 1329,
      "genna": 1330,
      "tuite": 1331,
      "nungah": 1332,
      "kamtai": 1333,
      "peengkul": 1334,
      "Hezekiah": 1335,
      "Mar": 1336,
      "fat": 1337,
      "huan": 1338,
      "Tuate": 1339,
      "cingte": 1340,
      "Aaronʼ": 1341,
      "Ke": 1342,
      "mizawng": 1343,
      "salom": 1344,
      "Absalom": 1345,
      "dek": 1346,
      "gai": 1347,
      "kilak": 1348,
      "aihsun": 1349,
      "puah": 1350,
      "bangmahin": 1351,
      "Sang": 1352,
      "zon": 1353,
      "zzar": 1354,
      "leitaw": 1355,
      "kini": 1356,
      "lawmte": 1357,
      ".)": 1358,
      "phuak": 1359,
      "lauh": 1360,
      "pawlpi": 1361,
      "samin": 1362,
      "Pawi": 1363,
      "guan": 1364,
      "cik": 1365,
      "sungteng": 1366,
      "tuk": 1367,
      "neite": 1368,
      "meikuang": 1369,
      "Jerob": 1370,
      "ciangkhut": 1371,
      "paktat": 1372,
      "huhna": 1373,
      "teenna": 1374,
      "Jeroboam": 1375,
      "Ja": 1376,
      "bah": 1377,
      "sap": 1378,
      "nungak": 1379,
      "bulh": 1380,
      "kikoih": 1381,
      "lungkhamna": 1382,
      "Ham": 1383,
      "din": 1384,
      "tei": 1385,
      "kicing": 1386,
      "tungtawnin": 1387,
      "vantungah": 1388,
      "thumanna": 1389,
      "Lungdamna": 1390,
      "Bar": 1391,
      "Kam": 1392,
      "tuute": 1393,
      "Thuman": 1394,
      "In": 1395,
      "dingte": 1396,
      "kiseh": 1397,
      "panun": 1398,
      "nilh": 1399,
      "Nebu": 1400,
      "letsong": 1401,
      "az": 1402,
      "sakkik": 1403,
      "onte": 1404,
      "matengin": 1405,
      "Fari": 1406,
      "da": 1407,
      "mipil": 1408,
      "ras": 1409,
      "ere": 1410,
      "kipte": 1411,
      "dea": 1412,
      "Inn": 1413,
      "Farisi": 1414,
      "rʼ": 1415,
      "thi": 1416,
      "sukin": 1417,
      "bawlsak": 1418,
      "huihpi": 1419,
      "kiah": 1420,
      "mihoih": 1421,
      "mipihte": 1422,
      "phe": 1423,
      "phum": 1424,
      "dangteʼ": 1425,
      "kammal": 1426,
      "kihal": 1427,
      "mawkna": 1428,
      "kantan": 1429,
      "Asa": 1430,
      "Zing": 1431,
      "dne": 1432,
      "nan": 1433,
      "pal": 1434,
      "mihai": 1435,
      "paikik": 1436,
      "Job": 1437,
      "lupna": 1438,
      "mangpa": 1439,
      "Gibe": 1440,
      "melek": 1441,
      "thukhenna": 1442,
      "Kua": 1443,
      "kisia": 1444,
      "tacil": 1445,
      "khuadak": 1446,
      "niam": 1447,
      "ziah": 1448,
      "erub": 1449,
      "migilo": 1450,
      "Ezeki": 1451,
      "bel": 1452,
      "sawn": 1453,
      "zuan": 1454,
      "khuaneute": 1455,
      "etin": 1456,
      "humpinelkai": 1457,
      "geel": 1458,
      "Ahab": 1459,
      "Ezekiel": 1460,
      "Gad": 1461,
      "zai": 1462,
      "ungek": 1463,
      "kisik": 1464,
      "tungin": 1465,
      "lehang": 1466,
      "cihnopna": 1467,
      "thupiaknate": 1468,
      "Reub": 1469,
      "Reuben": 1470,
      "anʼ": 1471,
      "kuam": 1472,
      "sawlin": 1473,
      "kinei": 1474,
      "thuakna": 1475,
      "tampite": 1476,
      "thahna": 1477,
      "mihingte": 1478,
      "sabuai": 1479,
      "khal": 1480,
      "kid": 1481,
      "kaih": 1482,
      "kongkhak": 1483,
      "suakin": 1484,
      "dial": 1485,
      "imna": 1486,
      "lungdamin": 1487,
      "kingaihsun": 1488,
      "dung": 1489,
      "lawng": 1490,
      "cimawh": 1491,
      "thupiang": 1492,
      "lehdo": 1493,
      "nitumna": 1494,
      "Ish": 1495,
      "thugenna": 1496,
      "Elijah": 1497,
      "Uz": 1498,
      "hihte": 1499,
      "zite": 1500,
      "Abrahamʼ": 1501,
      "kisial": 1502,
      "Ele": 1503,
      "aana": 1504,
      "dingun": 1505,
      "peem": 1506,
      "omlaite": 1507,
      "tut": 1508,
      "bangun": 1509,
      "Amor": 1510,
      "kihel": 1511,
      "shafat": 1512,
      "Paisan": 1513,
      "Her": 1514,
      "ilee": 1515,
      "umcih": 1516,
      "liam": 1517,
      "lianpen": 1518,
      "khialh": 1519,
      "hauhna": 1520,
      "singkung": 1521,
      "Galilee": 1522,
      "kilam": 1523,
      "tuang": 1524,
      "liv": 1525,
      "shan": 1526,
      "pulak": 1527,
      "Li": 1528,
      "Uk": 1529,
      "kila": 1530,
      "pente": 1531,
      "phel": 1532,
      "gawpin": 1533,
      "Jehoshafat": 1534,
      "kinusia": 1535,
      "Hu": 1536,
      "pangin": 1537,
      "kig": 1538,
      "tuakin": 1539,
      "khadne": 1540,
      "meigong": 1541,
      "thumte": 1542,
      "tanh": 1543,
      "khiatsak": 1544,
      "gimsak": 1545,
      "Ashe": 1546,
      "makaite": 1547,
      "Shem": 1548,
      "Nebukhadne": 1549,
      "Elea": 1550,
      "Nebukhadnezzar": 1551,
      "Numei": 1552,
      "sit": 1553,
      "thunuam": 1554,
      "pelh": 1555,
      "nangʼ": 1556,
      "lamtak": 1557,
      "maimang": 1558,
      "phasak": 1559,
      "kiciamna": 1560,
      "Khuapi": 1561,
      "uhcin": 1562,
      "kiman": 1563,
      "omte": 1564,
      "niloh": 1565,
      "innte": 1566,
      "simna": 1567,
      "Sih": 1568,
      "eth": 1569,
      "fi": 1570,
      "oh": 1571,
      "ok": 1572,
      "kileh": 1573,
      "kibangin": 1574,
      "site": 1575,
      "lametna": 1576,
      "biakpiak": 1577,
      "leivui": 1578,
      "Simon": 1579,
      "kihhuai": 1580,
      "aam": 1581,
      "tatna": 1582,
      "tawng": 1583,
      "nalamdang": 1584,
      "them": 1585,
      "phut": 1586,
      "laizang": 1587,
      "dahna": 1588,
      "gul": 1589,
      "Jakobʼ": 1590,
      "Gun": 1591,
      "dum": 1592,
      "hua": 1593,
      "nem": 1594,
      "thawh": 1595,
      "lamteh": 1596,
      "kiksak": 1597,
      "nawi": 1598,
      "minamteʼ": 1599,
      "mipaʼ": 1600,
      "vanglian": 1601,
      "suanlekhak": 1602,
      "sakolte": 1603,
      "buppi": 1604,
      "es": 1605,
      "gak": 1606,
      "nen": 1607,
      "upa": 1608,
      "naungek": 1609,
      "uhʼ": 1610,
      "aia": 1611,
      "lopa": 1612,
      "banga": 1613,
      "Jehu": 1614,
      "dok": 1615,
      "sanna": 1616,
      "salin": 1617,
      "gamtatnate": 1618,
      "zahtakna": 1619,
      "silngo": 1620,
      "tuamtuamte": 1621,
      "Hebron": 1622,
      "Kum": 1623,
      "Khe": 1624,
      "Ti": 1625,
      "gina": 1626,
      "iel": 1627,
      "zung": 1628,
      "khawh": 1629,
      "utna": 1630,
      "mawhnate": 1631,
      "nopsakna": 1632,
      "Solomonʼ": 1633,
      "La": 1634,
      "gol": 1635,
      "od": 1636,
      "pum": 1637,
      "ngat": 1638,
      "annel": 1639,
      "miah": 1640,
      "late": 1641,
      "lasakna": 1642,
      "lamin": 1643,
      "kol": 1644,
      "vasa": 1645,
      "khuampi": 1646,
      "tunpih": 1647,
      "lauhuai": 1648,
      "Khang": 1649,
      "daw": 1650,
      "kek": 1651,
      "kithei": 1652,
      "kiphat": 1653,
      "kas": 1654,
      "alang": 1655,
      "phetin": 1656,
      "lap": 1657,
      "Jeri": 1658,
      "lukhu": 1659,
      "ciamteh": 1660,
      "Eleazar": 1661,
      "Dawi": 1662,
      "zut": 1663,
      "kipaipih": 1664,
      "mial": 1665,
      "tuamna": 1666,
      "tuikhuk": 1667,
      "lutna": 1668,
      "mihingteʼ": 1669,
      "Zede": 1670,
      "Biakinn": 1671,
      "cina": 1672,
      "shi": 1673,
      "neihna": 1674,
      "galteʼ": 1675,
      "mangbuh": 1676,
      "tanvei": 1677,
      "kikal": 1678,
      "gamlapi": 1679,
      "kiniam": 1680,
      "Ash": 1681,
      "Sha": 1682,
      "bat": 1683,
      "ling": 1684,
      "non": 1685,
      "vawh": 1686,
      "ante": 1687,
      "annek": 1688,
      "ati": 1689,
      "maipha": 1690,
      "siasak": 1691,
      "khawmin": 1692,
      "diah": 1693,
      "bekah": 1694,
      "suahtak": 1695,
      "sagihte": 1696,
      "sanggamnu": 1697,
      "kheel": 1698,
      "zepna": 1699,
      "tawpna": 1700,
      "mizawngte": 1701,
      "tawp": 1702,
      "hiang": 1703,
      "kherub": 1704,
      "kivui": 1705,
      "kala": 1706,
      "lite": 1707,
      "phazah": 1708,
      "nawk": 1709,
      "paipihin": 1710,
      "beisa": 1711,
      "kilangsak": 1712,
      "kitheh": 1713,
      "kawmin": 1714,
      "kalaoh": 1715,
      "hel": 1716,
      "sawh": 1717,
      "nazat": 1718,
      "thawn": 1719,
      "kimang": 1720,
      "toh": 1721,
      "Jere": 1722,
      "munte": 1723,
      "Mosesʼ": 1724,
      "leengte": 1725,
      "Leban": 1726,
      "Bethel": 1727,
      "Shekhem": 1728,
      "gualzo": 1729,
      "Balaam": 1730,
      "Lebanon": 1731,
      "tuh": 1732,
      "kisusia": 1733,
      "thusim": 1734,
      "khatvei": 1735,
      "tuuh": 1736,
      "pihin": 1737,
      "Sia": 1738,
      "Kuamah": 1739,
      "hotkhiat": 1740,
      "kamtaite": 1741,
      "Ukna": 1742,
      "zangin": 1743,
      "hizaw": 1744,
      "pial": 1745,
      "simah": 1746,
      "bangzah": 1747,
      "khiasak": 1748,
      "bekin": 1749,
      "thuaksak": 1750,
      "suaktasak": 1751,
      "Pilat": 1752,
      "Daniel": 1753,
      "khualzin": 1754,
      "taamtak": 1755,
      "Ho": 1756,
      "Th": 1757,
      "ezer": 1758,
      "ihih": 1759,
      "pateʼ": 1760,
      "akhi": 1761,
      "phah": 1762,
      "Midi": 1763,
      "mawhsakna": 1764,
      "zial": 1765,
      "langte": 1766,
      "sagihna": 1767,
      "Khrisʼ": 1768,
      "pualam": 1769,
      "gunkuang": 1770,
      "zuihna": 1771,
      "phiat": 1772,
      "nomau": 1773,
      "Kamsang": 1774,
      "Mah": 1775,
      "sawt": 1776,
      "ther": 1777,
      "kiza": 1778,
      "kikna": 1779,
      "mul": 1780,
      "hoihte": 1781,
      "mittaw": 1782,
      "Josefʼ": 1783,
      "Mary": 1784,
      "Zedekiah": 1785,
      "Dama": 1786,
      "Sar": 1787,
      "kawng": 1788,
      "mut": 1789,
      "oliv": 1790,
      "tom": 1791,
      "inuai": 1792,
      "khitna": 1793,
      "gentehna": 1794,
      "galhiam": 1795,
      "Khat": 1796,
      "Mor": 1797,
      "doni": 1798,
      "nuamin": 1799,
      "singlamteh": 1800,
      "veipi": 1801,
      "pasalte": 1802,
      "aptehna": 1803,
      "Reho": 1804,
      "luanghawm": 1805,
      "siamte": 1806,
      "Abimelek": 1807,
      "veengte": 1808,
      "Sanggamte": 1809,
      "Midian": 1810,
      "Za": 1811,
      "hawk": 1812,
      "lina": 1813,
      "ru": 1814,
      "skas": 1815,
      "ngong": 1816,
      "ine": 1817,
      "liang": 1818,
      "kuama": 1819,
      "khutnuai": 1820,
      "lohin": 1821,
      "Abne": 1822,
      "keʼn": 1823,
      "bok": 1824,
      "kialpi": 1825,
      "Jerikho": 1826,
      "Damaskas": 1827,
      "Ai": 1828,
      "To": 1829,
      "paih": 1830,
      "khuh": 1831,
      "thuh": 1832,
      "kituakin": 1833,
      "ihmu": 1834,
      "gilote": 1835,
      "nuih": 1836,
      "vil": 1837,
      "vasate": 1838,
      "langpangin": 1839,
      "tawina": 1840,
      "kahna": 1841,
      "ngetsak": 1842,
      "kizom": 1843,
      "zawlte": 1844,
      "Lo": 1845,
      "Nah": 1846,
      "Sat": 1847,
      "kat": 1848,
      "sah": 1849,
      "nasia": 1850,
      "kisim": 1851,
      "nisimin": 1852,
      "engen": 1853,
      "muhdah": 1854,
      "phattuamna": 1855,
      "dekai": 1856,
      "kikona": 1857,
      "ngakna": 1858,
      "thaltang": 1859,
      "Siampipa": 1860,
      "Jeremiah": 1861,
      "tuuhonte": 1862,
      "Mordekai": 1863,
      "Hit": 1864,
      "Mawh": 1865,
      "Taia": 1866,
      "Zer": 1867,
      "vel": 1868,
      "anna": 1869,
      "theite": 1870,
      "liim": 1871,
      "gial": 1872,
      "tunsak": 1873,
      "Abram": 1874,
      "topaʼ": 1875,
      "dalna": 1876,
      "Kuam": 1877,
      "teenpih": 1878,
      "Lab": 1879,
      "ngawng": 1880,
      "himawh": 1881,
      "kiho": 1882,
      "khing": 1883,
      "laksak": 1884,
      "galdo": 1885,
      "koihna": 1886,
      "suangtum": 1887,
      "ninsak": 1888,
      "teltakin": 1889,
      "daisak": 1890,
      "Zekha": 1891,
      "maizumna": 1892,
      "sawltakte": 1893,
      "kidawm": 1894,
      "Herod": 1895,
      "Hana": 1896,
      "Mat": 1897,
      "fe": 1898,
      "kual": 1899,
      "mangin": 1900,
      "kiphasak": 1901,
      "minthang": 1902,
      "Isaiah": 1903,
      "kongzing": 1904,
      "semin": 1905,
      "honte": 1906,
      "Bashan": 1907,
      "gualzawhna": 1908,
      "haksa": 1909,
      "Eu": 1910,
      "Nun": 1911,
      "ngit": 1912,
      "hikei": 1913,
      "kil": 1914,
      "ukpi": 1915,
      "bawlsia": 1916,
      "zomah": 1917,
      "tawntungna": 1918,
      "sawlna": 1919,
      "thupiakte": 1920,
      "pahtawina": 1921,
      "khialhnate": 1922,
      "Gil": 1923,
      "meon": 1924,
      "siangsak": 1925,
      "bulpi": 1926,
      "haksatna": 1927,
      "khuaizu": 1928,
      "hikeileh": 1929,
      "bai": 1930,
      "bon": 1931,
      "deng": 1932,
      "hatna": 1933,
      "hisak": 1934,
      "akim": 1935,
      "kikhawl": 1936,
      "kilat": 1937,
      "thukim": 1938,
      "khempeuhteʼ": 1939,
      "lehem": 1940,
      "phot": 1941,
      "nusiat": 1942,
      "mailam": 1943,
      "zol": 1944,
      "hunah": 1945,
      "dimin": 1946,
      "bekbek": 1947,
      "langpang": 1948,
      "satin": 1949,
      "khaici": 1950,
      "Bethlehem": 1951,
      "Koteʼ": 1952,
      "gelhna": 1953,
      "gilkial": 1954,
      "kidona": 1955,
      "kineih": 1956,
      "Ishma": 1957,
      "Es": 1958,
      "Hor": 1959,
      "Lam": 1960,
      "pei": 1961,
      "sawp": 1962,
      "“‘": 1963,
      "khong": 1964,
      "kiu": 1965,
      "kito": 1966,
      "khatʼ": 1967,
      "tuum": 1968,
      "lungsimah": 1969,
      "Amau": 1970,
      "Naf": 1971,
      "diak": 1972,
      "kihem": 1973,
      "numeiʼ": 1974,
      "pangah": 1975,
      "veina": 1976,
      "thakhatin": 1977,
      "frati": 1978,
      "Tangthu": 1979,
      "Eufrati": 1980,
      "Eufratis": 1981,
      "Ara": 1982,
      "Ei": 1983,
      "El": 1984,
      "Su": 1985,
      "gengen": 1986,
      "har": 1987,
      "khaute": 1988,
      "kizang": 1989,
      "kituak": 1990,
      "miʼ": 1991,
      "mahmahna": 1992,
      "vive": 1993,
      "aiha": 1994,
      "huam": 1995,
      "samsiatna": 1996,
      "teengte": 1997,
      "sumte": 1998,
      "nakleh": 1999,
      "hanthawn": 2000,
      "lungdamsak": 2001,
      "kulhpi": 2002,
      "Elisha": 2003,
      "innkuante": 2004,
      "thehthang": 2005,
      "dektak": 2006,
      "kithehthang": 2007,
      "Rehobo": 2008,
      "Abner": 2009,
      "neng": 2010,
      "sel": 2011,
      "shon": 2012,
      "teite": 2013,
      "thote": 2014,
      "kisian": 2015,
      "kipiak": 2016,
      "kiseel": 2017,
      "enin": 2018,
      "savun": 2019,
      "manaw": 2020,
      "galhang": 2021,
      "shai": 2022,
      "khamin": 2023,
      "huang": 2024,
      "nawl": 2025,
      "zawso": 2026,
      "ciahpih": 2027,
      "Beer": 2028,
      "mihonpite": 2029,
      "ngenin": 2030,
      "launa": 2031,
      "silhin": 2032,
      "pinu": 2033,
      "Laibu": 2034,
      "tawlnga": 2035,
      "Kongpi": 2036,
      "ngitnget": 2037,
      "Esther": 2038,
      "Nai": 2039,
      "hawh": 2040,
      "ning": 2041,
      "zal": 2042,
      "zom": 2043,
      "kizo": 2044,
      "kimaisak": 2045,
      "midik": 2046,
      "saknate": 2047,
      "lamdangte": 2048,
      "Amen": 2049,
      "rim": 2050,
      "Kar": 2051,
      "nuamsa": 2052,
      "bas": 2053,
      "ngasa": 2054,
      "lutangte": 2055,
      "pahtawi": 2056,
      "Zebul": 2057,
      "taangko": 2058,
      "zenzen": 2059,
      "Jehoiad": 2060,
      "teipi": 2061,
      "Zadok": 2062,
      "Han": 2063,
      "Sa": 2064,
      "dab": 2065,
      "ip": 2066,
      "ton": 2067,
      "hithi": 2068,
      "tee": 2069,
      "khangin": 2070,
      "phun": 2071,
      "Jes": 2072,
      "lungd": 2073,
      "lunghimawh": 2074,
      "Migilo": 2075,
      "Joash": 2076,
      "Simeon": 2077,
      "dongah": 2078,
      "kihawl": 2079,
      "samsia": 2080,
      "tumin": 2081,
      "hath": 2082,
      "suangmanpha": 2083,
      "bukna": 2084,
      "behlap": 2085,
      "tali": 2086,
      "mihonpi": 2087,
      "siangthote": 2088,
      "beelte": 2089,
      "kiniamkhiat": 2090,
      "zawsop": 2091,
      "imah": 2092,
      "iahʼ": 2093,
      "son": 2094,
      "saiha": 2095,
      "taute": 2096,
      "pipi": 2097,
      "pel": 2098,
      "nupi": 2099,
      "zasak": 2100,
      "hoihin": 2101,
      "Judea": 2102,
      "suangte": 2103,
      "Leeng": 2104,
      "Leinuai": 2105,
      "dikna": 2106,
      "moh": 2107,
      "Kohath": 2108,
      "luppih": 2109,
      "migiloteʼ": 2110,
      "biakpiaknate": 2111,
      "Rehoboam": 2112,
      "Jessi": 2113,
      "Aw": 2114,
      "Bawng": 2115,
      "Sin": 2116,
      "duh": 2117,
      "gaw": 2118,
      "kisak": 2119,
      "kikhai": 2120,
      "phuk": 2121,
      "Jez": 2122,
      "bawlte": 2123,
      "Amalek": 2124,
      "siangthosak": 2125,
      "lahna": 2126,
      "Gide": 2127,
      "Mihingte": 2128,
      "bawngtalte": 2129,
      "bullen": 2130,
      "pianzia": 2131,
      "kiphum": 2132,
      "tangvalte": 2133,
      "sheba": 2134,
      "Zekhariah": 2135,
      "Naftali": 2136,
      "Ad": 2137,
      "Gath": 2138,
      "Rom": 2139,
      "Thei": 2140,
      "paai": 2141,
      "cilna": 2142,
      "kikh": 2143,
      "kiimah": 2144,
      "phung": 2145,
      "nidang": 2146,
      "lungkia": 2147,
      "lungmuang": 2148,
      "kongpite": 2149,
      "Miz": 2150,
      "Sidon": 2151,
      "taii": 2152,
      "koihin": 2153,
      "thatin": 2154,
      "had": 2155,
      "Kumpiteʼ": 2156,
      "keek": 2157,
      "khete": 2158,
      "Samson": 2159,
      "kihtakhuai": 2160,
      "Noah": 2161,
      "Mihai": 2162,
      "reel": 2163,
      "dawnah": 2164,
      "Jezreel": 2165,
      "Aza": 2166,
      "Bo": 2167,
      "Rac": 2168,
      "Sun": 2169,
      "suh": 2170,
      "vut": 2171,
      "ciaptehna": 2172,
      "aksi": 2173,
      "sisak": 2174,
      "kau": 2175,
      "aldea": 2176,
      "taktakin": 2177,
      "mantakin": 2178,
      "tapateʼ": 2179,
      "neh": 2180,
      "Khaldea": 2181,
      "vakhu": 2182,
      "zahko": 2183,
      "singkuang": 2184,
      "ciatah": 2185,
      "mawkmawk": 2186,
      "nasepnate": 2187,
      "khauhsak": 2188,
      "Gibeah": 2189,
      "teitei": 2190,
      "Lau": 2191,
      "Nau": 2192,
      "Pere": 2193,
      "dap": 2194,
      "ro": 2195,
      "vah": 2196,
      "cial": 2197,
      "kisuan": 2198,
      "liah": 2199,
      "Migilote": 2200,
      "kholh": 2201,
      "khopna": 2202,
      "taisan": 2203,
      "nunung": 2204,
      "pute": 2205,
      "kep": 2206,
      "tausang": 2207,
      "gamhluah": 2208,
      "Balak": 2209,
      "Esauʼ": 2210,
      "Jeroboamʼ": 2211,
      "Zebulun": 2212,
      "hithiat": 2213,
      "Gan": 2214,
      "belh": 2215,
      "eu": 2216,
      "hek": 2217,
      "thawl": 2218,
      "kiat": 2219,
      "kikhi": 2220,
      "thuciam": 2221,
      "tupa": 2222,
      "theisak": 2223,
      "Jef": 2224,
      "tapaʼ": 2225,
      "musak": 2226,
      "riʼ": 2227,
      "khinin": 2228,
      "hunsung": 2229,
      "zuite": 2230,
      "namkim": 2231,
      "kholhna": 2232,
      "kapin": 2233,
      "hehnem": 2234,
      "cingtaak": 2235,
      "ciatin": 2236,
      "ngetna": 2237,
      "Sodom": 2238,
      "Filip": 2239,
      "innkuanpihte": 2240,
      "thukkik": 2241,
      "pianna": 2242,
      "Hag": 2243,
      "Shimei": 2244,
      "thuhilhnate": 2245,
      "Hebru": 2246,
      "Ahaz": 2247,
      "guhte": 2248,
      "mihaite": 2249,
      "Lian": 2250,
      "kiphatsakna": 2251,
      "Satan": 2252,
      "Jam": 2253,
      "Sum": 2254,
      "Tim": 2255,
      "hampi": 2256,
      "kawl": 2257,
      "vuk": 2258,
      "hiangte": 2259,
      "talen": 2260,
      "khemna": 2261,
      "leihawm": 2262,
      "mangthang": 2263,
      "nasemteʼ": 2264,
      "Tuu": 2265,
      "pusuak": 2266,
      "suangpi": 2267,
      "mualte": 2268,
      "khuampeek": 2269,
      "mipilte": 2270,
      "Gibeon": 2271,
      "Gideon": 2272,
      "kauphe": 2273,
      "Ga": 2274,
      "Ger": 2275,
      "Pawl": 2276,
      "Per": 2277,
      "das": 2278,
      "gawh": 2279,
      "nuh": 2280,
      "uat": 2281,
      "kimuh": 2282,
      "kigan": 2283,
      "kisat": 2284,
      "thusia": 2285,
      "omngei": 2286,
      "Pasal": 2287,
      "Jebu": 2288,
      "biah": 2289,
      "khap": 2290,
      "buang": 2291,
      "Kumpipaʼ": 2292,
      "itin": 2293,
      "riath": 2294,
      "Nisuahna": 2295,
      "Mera": 2296,
      "thukhente": 2297,
      "nomauʼ": 2298,
      "kantanin": 2299,
      "Laban": 2300,
      "Jebus": 2301,
      "Ci": 2302,
      "Go": 2303,
      "Puan": 2304,
      "Sai": 2305,
      "Tha": 2306,
      "ga": 2307,
      "hah": 2308,
      "met": 2309,
      "vom": 2310,
      "zawk": 2311,
      "naih": 2312,
      "kikhum": 2313,
      "kikaikhawm": 2314,
      "phei": 2315,
      "galsim": 2316,
      "Nathan": 2317,
      "khutte": 2318,
      "mangkhin": 2319,
      "limte": 2320,
      "Tuuno": 2321,
      "biakinnpi": 2322,
      "pupi": 2323,
      "Benai": 2324,
      "nangawnin": 2325,
      "Kiriath": 2326,
      "piansak": 2327,
      "Anlum": 2328,
      "teekteek": 2329,
      "tualpi": 2330,
      "Johanʼ": 2331,
      "Zingsang": 2332,
      "palsat": 2333,
      "sitbaang": 2334,
      "Mizpah": 2335,
      "Perez": 2336,
      "Ak": 2337,
      "Zo": 2338,
      "Zan": 2339,
      "kaw": 2340,
      "luh": 2341,
      "nalamdangte": 2342,
      "kituah": 2343,
      "kiseek": 2344,
      "thutak": 2345,
      "elah": 2346,
      "amath": 2347,
      "liansak": 2348,
      "puanhampi": 2349,
      "Judas": 2350,
      "kinin": 2351,
      "thuakin": 2352,
      "hehsak": 2353,
      "Khristi": 2354,
      "desh": 2355,
      "kamsangteʼ": 2356,
      "kizem": 2357,
      "tuancil": 2358,
      "tawlngakna": 2359,
      "midangteʼ": 2360,
      "Pilna": 2361,
      "kisialh": 2362,
      "Sihna": 2363,
      "Ishmael": 2364,
      "Nail": 2365,
      "Sinai": 2366,
      "James": 2367,
      "Ana": 2368,
      "Had": 2369,
      "Nung": 2370,
      "Ram": 2371,
      "bʼ": 2372,
      "luan": 2373,
      "sai": 2374,
      "kiphawk": 2375,
      "kitam": 2376,
      "tutna": 2377,
      "lasaknate": 2378,
      "gensak": 2379,
      "amar": 2380,
      "khuate": 2381,
      "riahʼ": 2382,
      "meikhuk": 2383,
      "tengah": 2384,
      "limci": 2385,
      "ngana": 2386,
      "ciangun": 2387,
      "singte": 2388,
      "khangsak": 2389,
      "khangham": 2390,
      "lnatna": 2391,
      "zingsangin": 2392,
      "luatna": 2393,
      "phia": 2394,
      "naupangte": 2395,
      "khuampite": 2396,
      "thuhoih": 2397,
      "Tho": 2398,
      "buaina": 2399,
      "uah": 2400,
      "ngimna": 2401,
      "kilo": 2402,
      "kihilh": 2403,
      "siit": 2404,
      "gamkhing": 2405,
      "sakha": 2406,
      "khitui": 2407,
      "tuih": 2408,
      "tuangte": 2409,
      "Paʼ": 2410,
      "theithei": 2411,
      "manna": 2412,
      "gente": 2413,
      "cihte": 2414,
      "Issakha": 2415,
      "lunggu": 2416,
      "tuikulh": 2417,
      "koh": 2418,
      "Kale": 2419,
      "hingkik": 2420,
      "khaktan": 2421,
      "zusak": 2422,
      "itte": 2423,
      "phattuam": 2424,
      "Leitungah": 2425,
      "Nethan": 2426,
      "kiciamteh": 2427,
      "Mihoih": 2428,
      "tangvalpa": 2429,
      "Asherah": 2430,
      "Hanani": 2431,
      "saihadial": 2432,
      "Benaiah": 2433,
      "De": 2434,
      "Hoih": 2435,
      "Hamath": 2436,
      "Lot": 2437,
      "Om": 2438,
      "Sei": 2439,
      "San": 2440,
      "Te": 2441,
      "esh": 2442,
      "thaute": 2443,
      "kisu": 2444,
      "kipak": 2445,
      "aisan": 2446,
      "ausan": 2447,
      "laiza": 2448,
      "laizial": 2449,
      "kongkhakte": 2450,
      "dangah": 2451,
      "Miteʼ": 2452,
      "Mipil": 2453,
      "khamte": 2454,
      "kimlai": 2455,
      "baanna": 2456,
      "haina": 2457,
      "hanan": 2458,
      "gahte": 2459,
      "zakin": 2460,
      "Hesh": 2461,
      "ngeinate": 2462,
      "phial": 2463,
      "Koi": 2464,
      "kigawm": 2465,
      "Asher": 2466,
      "kilehkik": 2467,
      "gulpi": 2468,
      "Mawhna": 2469,
      "Gilgal": 2470,
      "Adoni": 2471,
      "Ez": 2472,
      "Gimna": 2473,
      "Har": 2474,
      "Khi": 2475,
      "Lawm": 2476,
      "Mun": 2477,
      "Sak": 2478,
      "buan": 2479,
      "pam": 2480,
      "pung": 2481,
      "amawh": 2482,
      "thar": 2483,
      "akte": 2484,
      "kihon": 2485,
      "kitan": 2486,
      "kikim": 2487,
      "kitel": 2488,
      "sial": 2489,
      "mili": 2490,
      "mipih": 2491,
      "umle": 2492,
      "tas": 2493,
      "taan": 2494,
      "manlang": 2495,
      "phuh": 2496,
      "bangbang": 2497,
      "ukin": 2498,
      "lungnuam": 2499,
      "lianin": 2500,
      "Mik": 2501,
      "nihin": 2502,
      "nawng": 2503,
      "ngahkik": 2504,
      "thatang": 2505,
      "zanglei": 2506,
      "lausak": 2507,
      "Kikhopna": 2508,
      "Mesh": 2509,
      "Galkap": 2510,
      "kampauna": 2511,
      "sheth": 2512,
      "misite": 2513,
      "Keʼn": 2514,
      "kammalte": 2515,
      "Uzzi": 2516,
      "huaih": 2517,
      "liangko": 2518,
      "Eiteʼ": 2519,
      "Suang": 2520,
      "Issakhar": 2521,
      "Heshbon": 2522,
      "Ethi": 2523,
      "Nu": 2524,
      "Sal": 2525,
      "bung": 2526,
      "dangin": 2527,
      "dup": 2528,
      "opia": 2529,
      "nabas": 2530,
      "kiging": 2531,
      "kisil": 2532,
      "kizepna": 2533,
      "tungnung": 2534,
      "tuangin": 2535,
      "laam": 2536,
      "bawlsiatna": 2537,
      "leimong": 2538,
      "sawmna": 2539,
      "ualte": 2540,
      "tanglai": 2541,
      "hingkiksak": 2542,
      "meima": 2543,
      "sepsak": 2544,
      "pulnatna": 2545,
      "behbeh": 2546,
      "tawlet": 2547,
      "banin": 2548,
      "Shiloh": 2549,
      "Biakna": 2550,
      "maangmuhna": 2551,
      "Jehoiakim": 2552,
      "Haman": 2553,
      "Barnabas": 2554,
      "kimanna": 2555,
      "Dawimangpa": 2556,
      "lungduai": 2557,
      "Rachel": 2558,
      "Persia": 2559,
      "Ethiopia": 2560,
      "Az": 2561,
      "Jah": 2562,
      "Man": 2563,
      "du": 2564,
      "oti": 2565,
      "kheng": 2566,
      "kikum": 2567,
      "phal": 2568,
      "phamawh": 2569,
      "maa": 2570,
      "gensia": 2571,
      "lunghih": 2572,
      "kumpiteʼ": 2573,
      "kongah": 2574,
      "leitawi": 2575,
      "tuikuang": 2576,
      "tuiphum": 2577,
      "Joram": 2578,
      "nawh": 2579,
      "ber": 2580,
      "honpi": 2581,
      "ngahna": 2582,
      "muhin": 2583,
      "suahin": 2584,
      "khangno": 2585,
      "thukpi": 2586,
      "orʼ": 2587,
      "Nege": 2588,
      "hampha": 2589,
      "kizuak": 2590,
      "kipawlna": 2591,
      "kunin": 2592,
      "phuah": 2593,
      "Shemaiah": 2594,
      "Sihon": 2595,
      "nengniam": 2596,
      "manawhin": 2597,
      "kisaktheih": 2598,
      "Ganhing": 2599,
      "Khristian": 2600,
      "Negeb": 2601,
      "Hon": 2602,
      "Ith": 2603,
      "Mal": 2604,
      "Ramah": 2605,
      "Tar": 2606,
      "bual": 2607,
      "dem": 2608,
      "ppa": 2609,
      "ran": 2610,
      "vet": 2611,
      "kitheih": 2612,
      "thumin": 2613,
      "gamsate": 2614,
      "las": 2615,
      "nitakin": 2616,
      "lamet": 2617,
      "giak": 2618,
      "kopin": 2619,
      "Midangte": 2620,
      "Kham": 2621,
      "vante": 2622,
      "dia": 2623,
      "kipah": 2624,
      "langpan": 2625,
      "neihsate": 2626,
      "veh": 2627,
      "mitte": 2628,
      "tawmno": 2629,
      "cipin": 2630,
      "letmat": 2631,
      "muanna": 2632,
      "manphate": 2633,
      "ullam": 2634,
      "vaikhak": 2635,
      "zelzel": 2636,
      "kisapna": 2637,
      "guakin": 2638,
      "meiipi": 2639,
      "Ahabʼ": 2640,
      "nazatte": 2641,
      "Hadad": 2642,
      "Seir": 2643,
      "Bel": 2644,
      "Obe": 2645,
      "Va": 2646,
      "fan": 2647,
      "keng": 2648,
      "saw": 2649,
      "vuan": 2650,
      "cisak": 2651,
      "kikhuk": 2652,
      "gamlum": 2653,
      "lakkhiat": 2654,
      "hunte": 2655,
      "lohpi": 2656,
      "diang": 2657,
      "pawlte": 2658,
      "ngaihno": 2659,
      "kihtak": 2660,
      "sanin": 2661,
      "langah": 2662,
      "Thukhen": 2663,
      "khedap": 2664,
      "ulianteʼ": 2665,
      "Siampite": 2666,
      "Mihonte": 2667,
      "denna": 2668,
      "kipatin": 2669,
      "Asaf": 2670,
      "kitotna": 2671,
      "Naupang": 2672,
      "dupsan": 2673,
      "Abia": 2674,
      "Di": 2675,
      "Makhi": 2676,
      "Shal": 2677,
      "dau": 2678,
      "cithei": 2679,
      "kiam": 2680,
      "kisung": 2681,
      "kihih": 2682,
      "kitat": 2683,
      "lenin": 2684,
      "eman": 2685,
      "sapna": 2686,
      "penin": 2687,
      "hoh": 2688,
      "simtham": 2689,
      "piakte": 2690,
      "Nazar": 2691,
      "khaina": 2692,
      "Sisa": 2693,
      "zahzah": 2694,
      "siampiteʼ": 2695,
      "suksiatna": 2696,
      "piangte": 2697,
      "hauh": 2698,
      "kaisak": 2699,
      "ngakin": 2700,
      "Sheba": 2701,
      "daina": 2702,
      "peemta": 2703,
      "kalaohte": 2704,
      "Sarah": 2705,
      "kineihkhem": 2706,
      "Sakol": 2707,
      "Nazareth": 2708,
      "Hum": 2709,
      "Nong": 2710,
      "dʼ": 2711,
      "gum": 2712,
      "muk": 2713,
      "aksite": 2714,
      "kite": 2715,
      "kikhak": 2716,
      "kiliing": 2717,
      "kikheel": 2718,
      "thumanin": 2719,
      "umte": 2720,
      "siantho": 2721,
      "paii": 2722,
      "panpih": 2723,
      "lik": 2724,
      "tuateʼ": 2725,
      "tuakah": 2726,
      "niamna": 2727,
      "nisuh": 2728,
      "lungtang": 2729,
      "leii": 2730,
      "gilead": 2731,
      "lakna": 2732,
      "piakik": 2733,
      "sawmte": 2734,
      "galmat": 2735,
      "kohna": 2736,
      "sangna": 2737,
      "shem": 2738,
      "beina": 2739,
      "Keiʼ": 2740,
      "pawlin": 2741,
      "kihtakna": 2742,
      "khenin": 2743,
      "tunna": 2744,
      "singkungte": 2745,
      "teengin": 2746,
      "paktatna": 2747,
      "kuate": 2748,
      "rias": 2749,
      "Siangthoʼ": 2750,
      "bawngnawi": 2751,
      "thakhat": 2752,
      "Leilu": 2753,
      "Mihingteʼ": 2754,
      "khukdin": 2755,
      "Kulh": 2756,
      "Gedal": 2757,
      "geelna": 2758,
      "luanna": 2759,
      "behbehin": 2760,
      "Abiathar": 2761,
      "Gom": 2762,
      "Mak": 2763,
      "Se": 2764,
      "Ser": 2765,
      "Sham": 2766,
      "lin": 2767,
      "long": 2768,
      "roth": 2769,
      "ur": 2770,
      "khawi": 2771,
      "uau": 2772,
      "cian": 2773,
      "gamdai": 2774,
      "sanah": 2775,
      "liat": 2776,
      "lailai": 2777,
      "khualna": 2778,
      "lamen": 2779,
      "leiba": 2780,
      "simmawhna": 2781,
      "nekhawm": 2782,
      "vanlai": 2783,
      "meikhu": 2784,
      "ngahsak": 2785,
      "pawlpite": 2786,
      "hilhin": 2787,
      "Amaziah": 2788,
      "ciahsak": 2789,
      "cingin": 2790,
      "hankhuk": 2791,
      "thapai": 2792,
      "mawknapi": 2793,
      "bosheth": 2794,
      "Baa": 2795,
      "huihlak": 2796,
      "kingah": 2797,
      "Hil": 2798,
      "dawite": 2799,
      "Minamte": 2800,
      "belin": 2801,
      "Lib": 2802,
      "nuihsan": 2803,
      "harp": 2804,
      "Leenggah": 2805,
      "Mihaite": 2806,
      "Timoti": 2807,
      "Humpinelkai": 2808,
      "Nam": 2809,
      "buak": 2810,
      "huaina": 2811,
      "jahʼ": 2812,
      "khawng": 2813,
      "eima": 2814,
      "citakin": 2815,
      "cidam": 2816,
      "kisawl": 2817,
      "kipelh": 2818,
      "sakhi": 2819,
      "maangte": 2820,
      "kumpinu": 2821,
      "eko": 2822,
      "utthu": 2823,
      "khate": 2824,
      "mawhnei": 2825,
      "Jonah": 2826,
      "Josiah": 2827,
      "beth": 2828,
      "limbawl": 2829,
      "zukham": 2830,
      "tumsak": 2831,
      "sanggampaʼ": 2832,
      "kuangte": 2833,
      "paubaanna": 2834,
      "tawsaw": 2835,
      "Elish": 2836,
      "thadah": 2837,
      "kikholh": 2838,
      "teelna": 2839,
      "zineu": 2840,
      "Gamlak": 2841,
      "Lungsim": 2842,
      "Mihon": 2843,
      "Korah": 2844,
      "Maak": 2845,
      "khualmi": 2846,
      "Isaacʼ": 2847,
      "kaihkhop": 2848,
      "cimawhte": 2849,
      "Karmel": 2850,
      "Bawngtal": 2851,
      "Azariah": 2852,
      "Jefthah": 2853,
      "kininsak": 2854,
      "lunggulh": 2855,
      "),": 2856,
      "Elam": 2857,
      "Kor": 2858,
      "bab": 2859,
      "dawk": 2860,
      "gin": 2861,
      "nelh": 2862,
      "ino": 2863,
      "naute": 2864,
      "khel": 2865,
      "khek": 2866,
      "kihong": 2867,
      "ancilna": 2868,
      "aisanna": 2869,
      "umin": 2870,
      "lehhek": 2871,
      "bangsak": 2872,
      "Jeshua": 2873,
      "ukpite": 2874,
      "mindaina": 2875,
      "Amnon": 2876,
      "mukik": 2877,
      "Nasem": 2878,
      "Mit": 2879,
      "vial": 2880,
      "Kadesh": 2881,
      "huna": 2882,
      "honpite": 2883,
      "tohna": 2884,
      "samsak": 2885,
      "hanah": 2886,
      "sumbuk": 2887,
      "lutin": 2888,
      "dawnna": 2889,
      "mittang": 2890,
      "nungtasak": 2891,
      "luat": 2892,
      "matengun": 2893,
      "zumhuai": 2894,
      "silhsak": 2895,
      "bot": 2896,
      "both": 2897,
      "Haza": 2898,
      "silate": 2899,
      "kipatna": 2900,
      "golh": 2901,
      "Sangpen": 2902,
      "rasʼ": 2903,
      "liamsak": 2904,
      "mangbuhham": 2905,
      "muhdahhuai": 2906,
      "tuumul": 2907,
      "Boaz": 2908,
      "Merari": 2909,
      "Kaleb": 2910,
      "Ezra": 2911,
      "Eno": 2912,
      "Mu": 2913,
      "Uriah": 2914,
      "eb": 2915,
      "eem": 2916,
      "gawi": 2917,
      "muat": 2918,
      "ven": 2919,
      "kithah": 2920,
      "kihisak": 2921,
      "mitah": 2922,
      "thudon": 2923,
      "tungsiah": 2924,
      "khatna": 2925,
      "sue": 2926,
      "bangbangin": 2927,
      "minphatna": 2928,
      "dangtak": 2929,
      "lianpite": 2930,
      "sangte": 2931,
      "khasiat": 2932,
      "Josi": 2933,
      "Jotham": 2934,
      "Kain": 2935,
      "nawt": 2936,
      "khutme": 2937,
      "thokik": 2938,
      "suanin": 2939,
      "sunin": 2940,
      "badiah": 2941,
      "ngate": 2942,
      "kipua": 2943,
      "vantungte": 2944,
      "dawntuah": 2945,
      "sepnate": 2946,
      "gukna": 2947,
      "Jehoram": 2948,
      "valh": 2949,
      "Benhad": 2950,
      "hawlkhiat": 2951,
      "nialin": 2952,
      "kaikhawmin": 2953,
      "delhin": 2954,
      "Ahasue": 2955,
      "lauhuaina": 2956,
      "Jabe": 2957,
      "kisiansuah": 2958,
      "midikte": 2959,
      "Jehoiadaʼ": 2960,
      "Jessiʼ": 2961,
      "Benhadad": 2962,
      "Ef": 2963,
      "Gri": 2964,
      "Nine": 2965,
      "Pen": 2966,
      "Tah": 2967,
      "beng": 2968,
      "bawk": 2969,
      "vul": 2970,
      "hici": 2971,
      "telna": 2972,
      "cim": 2973,
      "kilawn": 2974,
      "lepa": 2975,
      "enna": 2976,
      "thun": 2977,
      "taina": 2978,
      "tavuan": 2979,
      "tuun": 2980,
      "tulak": 2981,
      "panmun": 2982,
      "lasate": 2983,
      "genkik": 2984,
      "sera": 2985,
      "inntual": 2986,
      "bawlpa": 2987,
      "minin": 2988,
      "lungnopna": 2989,
      "muangin": 2990,
      "tuikhang": 2991,
      "Bangmah": 2992,
      "Mikai": 2993,
      "hunhoih": 2994,
      "nawkin": 2995,
      "dahin": 2996,
      "nungkik": 2997,
      "ziʼ": 2998,
      "Siatna": 2999,
      "khul": 3000,
      "khuang": 3001,
      "erʼ": 3002,
      "baal": 3003,
      "gamtate": 3004,
      "biate": 3005,
      "zumah": 3006,
      "banbanin": 3007,
      "Zik": 3008,
      "ngaihsutnate": 3009,
      "phim": 3010,
      "kiphel": 3011,
      "balnen": 3012,
      "mudahte": 3013,
      "Meihal": 3014,
      "Tangval": 3015,
      "peengkulte": 3016,
      "Baruk": 3017,
      "shish": 3018,
      "thaltangte": 3019,
      "tonpih": 3020,
      "teep": 3021,
      "Lianpen": 3022,
      "Tarshish": 3023,
      "Namsau": 3024,
      "Josiahʼ": 3025,
      "Grik": 3026,
      "Nineveh": 3027,
      "Aram": 3028,
      "Ek": 3029,
      "Esh": 3030,
      "Hak": 3031,
      "Ngai": 3032,
      "Ri": 3033,
      "Tamar": 3034,
      "Zu": 3035,
      "bua": 3036,
      "eino": 3037,
      "meng": 3038,
      "patau": 3039,
      "khawk": 3040,
      "thudang": 3041,
      "lot": 3042,
      "umeino": 3043,
      "pekin": 3044,
      "gamsa": 3045,
      "awmdal": 3046,
      "masak": 3047,
      "bangzahin": 3048,
      "sedoni": 3049,
      "lamlak": 3050,
      "utang": 3051,
      "giatna": 3052,
      "kikem": 3053,
      "vankoihna": 3054,
      "Darias": 3055,
      "bulah": 3056,
      "zahtakin": 3057,
      "khialsak": 3058,
      "suangpek": 3059,
      "kuaʼ": 3060,
      "zakna": 3061,
      "pahpah": 3062,
      "veilam": 3063,
      "Beel": 3064,
      "Ref": 3065,
      "bawngtalno": 3066,
      "Paulʼ": 3067,
      "kizel": 3068,
      "tuucing": 3069,
      "kiheikik": 3070,
      "ngaihsutin": 3071,
      "Anti": 3072,
      "Abishai": 3073,
      "Hiv": 3074,
      "melhoih": 3075,
      "maizumsak": 3076,
      "Manassehʼ": 3077,
      "Biakbuk": 3078,
      "kidimsak": 3079,
      "Masedoni": 3080,
      "Jonathanʼ": 3081,
      "Ahaziah": 3082,
      "Tanglai": 3083,
      "suanlekhakteʼ": 3084,
      "ngatin": 3085,
      "Zerui": 3086,
      "gialpi": 3087,
      "Gershon": 3088,
      "hahkat": 3089,
      "Ramoth": 3090,
      "Adonijah": 3091,
      "Gedaliah": 3092,
      "Mikaiah": 3093,
      "Masedonia": 3094,
      "Efe": 3095,
      "Im": 3096,
      "Lu": 3097,
      "Ngun": 3098,
      "bar": 3099,
      "gaih": 3100,
      "kom": 3101,
      "langin": 3102,
      "zatna": 3103,
      "hiat": 3104,
      "naz": 3105,
      "ingai": 3106,
      "ciin": 3107,
      "kitum": 3108,
      "mihau": 3109,
      "limin": 3110,
      "hopihna": 3111,
      "nipi": 3112,
      "lamsak": 3113,
      "mindai": 3114,
      "galvil": 3115,
      "Mizawng": 3116,
      "luzepna": 3117,
      "tot": 3118,
      "Sisera": 3119,
      "diam": 3120,
      "puankhai": 3121,
      "zahhuai": 3122,
      "numeiteʼ": 3123,
      "ngeite": 3124,
      "paipihkik": 3125,
      "has": 3126,
      "singkha": 3127,
      "singgah": 3128,
      "thaneem": 3129,
      "Leah": 3130,
      "khuamte": 3131,
      "dawnin": 3132,
      "khanglo": 3133,
      "phawkin": 3134,
      "Hez": 3135,
      "phualpi": 3136,
      "gingte": 3137,
      "kikhop": 3138,
      "lelin": 3139,
      "makaih": 3140,
      "Rebekah": 3141,
      "daiah": 3142,
      "migitna": 3143,
      "pukin": 3144,
      "kipawlin": 3145,
      "Hiram": 3146,
      "Arnon": 3147,
      "suksiatsak": 3148,
      "Huih": 3149,
      "dawna": 3150,
      "kawnggak": 3151,
      "luanghawmte": 3152,
      "galdona": 3153,
      "Arabah": 3154,
      "Jehoiada": 3155,
      "kisuanna": 3156,
      "kawlsing": 3157,
      "teekteekin": 3158,
      "Meshullam": 3159,
      "shemesh": 3160,
      "Efesa": 3161,
      "Fine": 3162,
      "Lampi": 3163,
      "Lakhi": 3164,
      "Oho": 3165,
      "Zerub": 3166,
      "ate": 3167,
      "akhin": 3168,
      "ddo": 3169,
      "kuai": 3170,
      "rub": 3171,
      "tote": 3172,
      "unau": 3173,
      "zun": 3174,
      "ahaz": 3175,
      "thawi": 3176,
      "kimin": 3177,
      "kipaikhiat": 3178,
      "kigamla": 3179,
      "thutheihna": 3180,
      "per": 3181,
      "sungpa": 3182,
      "tuin": 3183,
      "pheng": 3184,
      "bangte": 3185,
      "Jeze": 3186,
      "sek": 3187,
      "lamkik": 3188,
      "rath": 3189,
      "Misi": 3190,
      "shʼ": 3191,
      "Johanan": 3192,
      "nihteʼ": 3193,
      "hur": 3194,
      "ziahʼ": 3195,
      "Silas": 3196,
      "erah": 3197,
      "damkik": 3198,
      "kine": 3199,
      "kinai": 3200,
      "samsiat": 3201,
      "suahtakna": 3202,
      "khensak": 3203,
      "kimat": 3204,
      "sukna": 3205,
      "buktual": 3206,
      "paunak": 3207,
      "Abel": 3208,
      "khebai": 3209,
      "dawnsak": 3210,
      "zekai": 3211,
      "phawkkik": 3212,
      "nekna": 3213,
      "kahlei": 3214,
      "meet": 3215,
      "Nebat": 3216,
      "asei": 3217,
      "lawhte": 3218,
      "siahuai": 3219,
      "Abijah": 3220,
      "kemin": 3221,
      "moi": 3222,
      "arim": 3223,
      "Jehoiakhin": 3224,
      "kisikkik": 3225,
      "Uzziah": 3226,
      "Kumpinu": 3227,
      "Migiloteʼ": 3228,
      "Shallum": 3229,
      "tuunote": 3230,
      "Ekron": 3231,
      "Antiok": 3232,
      "Finehas": 3233,
      "Lakhish": 3234,
      "Zerubbab": 3235,
      "Nebatʼ": 3236,
      "Akhi": 3237,
      "Mang": 3238,
      "Pau": 3239,
      "Sho": 3240,
      "bawh": 3241,
      "dawl": 3242,
      "ihihna": 3243,
      "zau": 3244,
      "ngawh": 3245,
      "ini": 3246,
      "nat": 3247,
      "khui": 3248,
      "akna": 3249,
      "kicih": 3250,
      "kiatna": 3251,
      "kisang": 3252,
      "ihu": 3253,
      "tateʼ": 3254,
      "khih": 3255,
      "cihtakna": 3256,
      "lamna": 3257,
      "lamkal": 3258,
      "innkhum": 3259,
      "lunggim": 3260,
      "lakik": 3261,
      "Amo": 3262,
      "semsak": 3263,
      "Nabal": 3264,
      "Nadab": 3265,
      "Mil": 3266,
      "mawhte": 3267,
      "mangte": 3268,
      "mangmat": 3269,
      "dip": 3270,
      "ngahin": 3271,
      "pawlpih": 3272,
      "tansak": 3273,
      "khiatsakin": 3274,
      "tawntungun": 3275,
      "khoi": 3276,
      "khialin": 3277,
      "pusuah": 3278,
      "dawngkik": 3279,
      "bawngte": 3280,
      "ngaihsunin": 3281,
      "thangsak": 3282,
      "cipsak": 3283,
      "orrah": 3284,
      "Jehoahaz": 3285,
      "Tuiphum": 3286,
      "kizut": 3287,
      "khawlin": 3288,
      "zuaugen": 3289,
      "kialin": 3290,
      "lungkimsak": 3291,
      "khansau": 3292,
      "kikhawmin": 3293,
      "peekte": 3294,
      "gitloh": 3295,
      "kisap": 3296,
      "Maasei": 3297,
      "veengpa": 3298,
      "Absalomʼ": 3299,
      "Asaʼ": 3300,
      "Kherub": 3301,
      "Gaza": 3302,
      "Hananiah": 3303,
      "Teembaw": 3304,
      "Mipilte": 3305,
      "Gomorrah": 3306,
      "longal": 3307,
      "Hezron": 3308,
      "kuaitan": 3309,
      "Tuiphumpa": 3310,
      "Adam": 3311,
      "Mai": 3312,
      "Nak": 3313,
      "Susa": 3314,
      "del": 3315,
      "dawm": 3316,
      "eute": 3317,
      "oah": 3318,
      "phong": 3319,
      "peite": 3320,
      "zawn": 3321,
      "natui": 3322,
      "angsak": 3323,
      "kidimin": 3324,
      "leen": 3325,
      "letui": 3326,
      "pet": 3327,
      "ihmut": 3328,
      "hihsak": 3329,
      "panna": 3330,
      "sukham": 3331,
      "bilee": 3332,
      "nite": 3333,
      "nitna": 3334,
      "bawlsiat": 3335,
      "kongcingte": 3336,
      "Israelʼ": 3337,
      "pihkik": 3338,
      "Ammi": 3339,
      "muvanlai": 3340,
      "Nao": 3341,
      "Naboth": 3342,
      "khapna": 3343,
      "zor": 3344,
      "khutin": 3345,
      "vanpi": 3346,
      "dod": 3347,
      "nuamte": 3348,
      "thuaknate": 3349,
      "deite": 3350,
      "khensat": 3351,
      "salsuahna": 3352,
      "neihsun": 3353,
      "halin": 3354,
      "pahtak": 3355,
      "huhpa": 3356,
      "lawmpa": 3357,
      "pasalʼ": 3358,
      "gelhin": 3359,
      "tehte": 3360,
      "guam": 3361,
      "Eliab": 3362,
      "nausuak": 3363,
      "gingin": 3364,
      "Leitaw": 3365,
      "haite": 3366,
      "Nitak": 3367,
      "daitui": 3368,
      "luangsak": 3369,
      "Hezekiahʼ": 3370,
      "misiteʼ": 3371,
      "ciktui": 3372,
      "nungakte": 3373,
      "letsongte": 3374,
      "Tir": 3375,
      "kekin": 3376,
      "Ashdod": 3377,
      "Kamsangte": 3378,
      "tuihualte": 3379,
      "Malkhi": 3380,
      "Hazael": 3381,
      "Zerubbabel": 3382,
      "Gul": 3383,
      "Iz": 3384,
      "Mel": 3385,
      "Mer": 3386,
      "Og": 3387,
      "Oliv": 3388,
      "Ste": 3389,
      "Thong": 3390,
      "Tawl": 3391,
      "The": 3392,
      "Upna": 3393,
      "Zak": 3394,
      "fa": 3395,
      "haute": 3396,
      "oni": 3397,
      "uih": 3398,
      "vok": 3399,
      "yr": 3400,
      "zuk": 3401,
      "thangin": 3402,
      "dingsak": 3403,
      "kigelhna": 3404,
      "kanah": 3405,
      "thumu": 3406,
      "peng": 3407,
      "maing": 3408,
      "khuakhal": 3409,
      "onʼ": 3410,
      "theihtelna": 3411,
      "Naam": 3412,
      "Milim": 3413,
      "shad": 3414,
      "khamna": 3415,
      "suakkik": 3416,
      "Khai": 3417,
      "Khad": 3418,
      "tosak": 3419,
      "tengsak": 3420,
      "vaan": 3421,
      "tanna": 3422,
      "Nangʼ": 3423,
      "taisak": 3424,
      "thatte": 3425,
      "leengpeite": 3426,
      "kuanin": 3427,
      "sauvei": 3428,
      "pangsim": 3429,
      "tuamin": 3430,
      "pauna": 3431,
      "paubaang": 3432,
      "kuana": 3433,
      "tawmin": 3434,
      "phualah": 3435,
      "tawite": 3436,
      "Leitang": 3437,
      "hamphatna": 3438,
      "Media": 3439,
      "hakkol": 3440,
      "kigenna": 3441,
      "Joabʼ": 3442,
      "vaihawmna": 3443,
      "muanhuaite": 3444,
      "Meii": 3445,
      "baihin": 3446,
      "kinusiate": 3447,
      "khualzinna": 3448,
      "bokvak": 3449,
      "Zerah": 3450,
      "Khial": 3451,
      "nawngkaisak": 3452,
      "tuikuangpi": 3453,
      "Hadadezer": 3454,
      "sianthona": 3455,
      "Jabesh": 3456,
      "nipikal": 3457,
      "Stef": 3458,
      "Khadet": 3459,
      "Ap": 3460,
      "Dah": 3461,
      "Ding": 3462,
      "Itna": 3463,
      "Jab": 3464,
      "Jar": 3465,
      "Sawm": 3466,
      "Suk": 3467,
      "Seh": 3468,
      "Zin": 3469,
      "Zab": 3470,
      "Zim": 3471,
      "Zuau": 3472,
      "dr": 3473,
      "dad": 3474,
      "earim": 3475,
      "feth": 3476,
      "jearim": 3477,
      "palh": 3478,
      "akik": 3479,
      "kiteel": 3480,
      "kiliansak": 3481,
      "anletui": 3482,
      "tungsilh": 3483,
      "theikung": 3484,
      "liamna": 3485,
      "phin": 3486,
      "laikhak": 3487,
      "hoi": 3488,
      "nit": 3489,
      "cihtak": 3490,
      "sehna": 3491,
      "ukteʼ": 3492,
      "ekah": 3493,
      "ekte": 3494,
      "gige": 3495,
      "kike": 3496,
      "nute": 3497,
      "semte": 3498,
      "shur": 3499,
      "hingsak": 3500,
      "hoihsak": 3501,
      "thof": 3502,
      "thoth": 3503,
      "Ahikam": 3504,
      "Ahithof": 3505,
      "kipuah": 3506,
      "kicial": 3507,
      "cianga": 3508,
      "sanggamteʼ": 3509,
      "kuangdai": 3510,
      "sumai": 3511,
      "siatnate": 3512,
      "hantho": 3513,
      "dedom": 3514,
      "mitphial": 3515,
      "Leviʼ": 3516,
      "Kithawi": 3517,
      "thahatsak": 3518,
      "siahdong": 3519,
      "khauhual": 3520,
      "tawlngak": 3521,
      "hopihsak": 3522,
      "maizumin": 3523,
      "keeltal": 3524,
      "thuhilhin": 3525,
      "thuhilhte": 3526,
      "guaktangin": 3527,
      "meivakte": 3528,
      "kicingin": 3529,
      "palsatna": 3530,
      "peemtate": 3531,
      "thawhkik": 3532,
      "Laza": 3533,
      "ngongtat": 3534,
      "Mattan": 3535,
      "kiphasakte": 3536,
      "diakin": 3537,
      "bullente": 3538,
      "Anathoth": 3539,
      "umlebeel": 3540,
      "huaiham": 3541,
      "Obededom": 3542,
      "gamlumna": 3543,
      "Sisaria": 3544,
      "Seraiah": 3545,
      "Baasha": 3546,
      "Hilkiah": 3547,
      "Zeruiahʼ": 3548,
      "Akhish": 3549,
      "Nakpi": 3550,
      "Melkhi": 3551,
      "maingat": 3552,
      "Asia": 3553,
      "Anak": 3554,
      "Bere": 3555,
      "Hel": 3556,
      "Ly": 3557,
      "Lim": 3558,
      "Obadiah": 3559,
      "gon": 3560,
      "haih": 3561,
      "ju": 3562,
      "kel": 3563,
      "kawt": 3564,
      "maw": 3565,
      "olak": 3566,
      "odi": 3567,
      "rh": 3568,
      "uam": 3569,
      "palik": 3570,
      "ciing": 3571,
      "kitang": 3572,
      "kisan": 3573,
      "kigo": 3574,
      "kitawng": 3575,
      "pipa": 3576,
      "lelei": 3577,
      "unu": 3578,
      "unin": 3579,
      "tusak": 3580,
      "paite": 3581,
      "suangin": 3582,
      "lip": 3583,
      "nil": 3584,
      "nitaang": 3585,
      "seu": 3586,
      "Mipa": 3587,
      "vilna": 3588,
      "tangtung": 3589,
      "khamtheih": 3590,
      "Joel": 3591,
      "aihsut": 3592,
      "beem": 3593,
      "thumsak": 3594,
      "Sil": 3595,
      "dor": 3596,
      "dotna": 3597,
      "sunte": 3598,
      "koihkik": 3599,
      "bad": 3600,
      "tunkik": 3601,
      "hehne": 3602,
      "kiciang": 3603,
      "kiciamin": 3604,
      "sauna": 3605,
      "lumin": 3606,
      "lumlet": 3607,
      "sumgolh": 3608,
      "veilamah": 3609,
      "phawkna": 3610,
      "thuphate": 3611,
      "taltang": 3612,
      "mihonteʼ": 3613,
      "deihhuai": 3614,
      "thangzak": 3615,
      "danna": 3616,
      "zahtakte": 3617,
      "ziate": 3618,
      "zawngkhal": 3619,
      "kawmte": 3620,
      "kawmun": 3621,
      "lungkimna": 3622,
      "Shelah": 3623,
      "dawivei": 3624,
      "Gera": 3625,
      "sona": 3626,
      "mihoihte": 3627,
      "thupiangte": 3628,
      "Nunʼ": 3629,
      "Nuntakna": 3630,
      "Joashʼ": 3631,
      "Lawmte": 3632,
      "Mikahʼ": 3633,
      "lunghihmawhna": 3634,
      "kipahtawi": 3635,
      "Ahasuerasʼ": 3636,
      "Oholi": 3637,
      "tuinak": 3638,
      "yrrh": 3639,
      "Sehnel": 3640,
      "Lazaras": 3641,
      "Buk": 3642,
      "Do": 3643,
      "Ebe": 3644,
      "Eden": 3645,
      "Git": 3646,
      "Rab": 3647,
      "Rim": 3648,
      "Teman": 3649,
      "Uliante": 3650,
      "Zal": 3651,
      "dawh": 3652,
      "law": 3653,
      "mawl": 3654,
      "numeino": 3655,
      "utut": 3656,
      "zʼ": 3657,
      "pat": 3658,
      "paakte": 3659,
      "khet": 3660,
      "thuai": 3661,
      "kivak": 3662,
      "kiahʼ": 3663,
      "kipiangsak": 3664,
      "kidenna": 3665,
      "mim": 3666,
      "thupalsatna": 3667,
      "lopate": 3668,
      "sakte": 3669,
      "taroth": 3670,
      "tus": 3671,
      "khemin": 3672,
      "paikikin": 3673,
      "liai": 3674,
      "manlangin": 3675,
      "phul": 3676,
      "lath": 3677,
      "Jehi": 3678,
      "biing": 3679,
      "khuaphia": 3680,
      "nidangin": 3681,
      "mindaisak": 3682,
      "lungmuanna": 3683,
      "theihtheih": 3684,
      "kuah": 3685,
      "zap": 3686,
      "kop": 3687,
      "koth": 3688,
      "Midik": 3689,
      "shom": 3690,
      "khamsak": 3691,
      "khamul": 3692,
      "Jok": 3693,
      "Joppa": 3694,
      "nesak": 3695,
      "Ahimelek": 3696,
      "mangpaʼ": 3697,
      "Keilah": 3698,
      "dide": 3699,
      "ngahkhawm": 3700,
      "puansilh": 3701,
      "bupa": 3702,
      "zawte": 3703,
      "nuamsak": 3704,
      "koihnate": 3705,
      "kipuak": 3706,
      "gihna": 3707,
      "thugennate": 3708,
      "tuamcip": 3709,
      "vaksak": 3710,
      "tauna": 3711,
      "khecin": 3712,
      "hanna": 3713,
      "dawnte": 3714,
      "khangsimna": 3715,
      "zedek": 3716,
      "hencip": 3717,
      "obah": 3718,
      "bawnghonte": 3719,
      "siatsak": 3720,
      "guta": 3721,
      "naupaii": 3722,
      "gingsak": 3723,
      "nopsak": 3724,
      "Pele": 3725,
      "Jehoash": 3726,
      "Asah": 3727,
      "teelin": 3728,
      "ciahkikin": 3729,
      "Shef": 3730,
      "thahatte": 3731,
      "muanin": 3732,
      "shazzar": 3733,
      "guallel": 3734,
      "taangsak": 3735,
      "siahna": 3736,
      "puksak": 3737,
      "Hazor": 3738,
      "Abigai": 3739,
      "Vantungah": 3740,
      "kikhawmte": 3741,
      "simmawhin": 3742,
      "mudahin": 3743,
      "sinsona": 3744,
      "cikmah": 3745,
      "paktatte": 3746,
      "phetun": 3747,
      "liamma": 3748,
      "Nebukhadnezzarʼ": 3749,
      "thawhkikna": 3750,
      "khawhlawhte": 3751,
      "nono": 3752,
      "Thah": 3753,
      "tomno": 3754,
      "manawh": 3755,
      "gawpna": 3756,
      "gawina": 3757,
      "Gershom": 3758,
      "Nethanel": 3759,
      "Ompihna": 3760,
      "Haran": 3761,
      "umlebeelte": 3762,
      "galmatin": 3763,
      "Leenggahzu": 3764,
      "Enok": 3765,
      "Refaim": 3766,
      "Naomi": 3767,
      "Tirzah": 3768,
      "Naaman": 3769,
      "Stefen": 3770,
      "Sukkoth": 3771,
      "jubilee": 3772,
      "Rimmon": 3773,
      "Abigail": 3774,
      "Al": 3775,
      "Athal": 3776,
      "Elah": 3777,
      "Khuam": 3778,
      "apna": 3779,
      "buai": 3780,
      "dar": 3781,
      "lawp": 3782,
      "zem": 3783,
      "naum": 3784,
      "citeng": 3785,
      "kiteeng": 3786,
      "kize": 3787,
      "kipiakna": 3788,
      "kikipsak": 3789,
      "kihingkiksak": 3790,
      "anlak": 3791,
      "sis": 3792,
      "sitna": 3793,
      "encik": 3794,
      "thudot": 3795,
      "thulamlak": 3796,
      "taleng": 3797,
      "sungun": 3798,
      "khim": 3799,
      "khiin": 3800,
      "zongte": 3801,
      "lampite": 3802,
      "minad": 3803,
      "kikkik": 3804,
      "Amminad": 3805,
      "riel": 3806,
      "zabad": 3807,
      "mawhpih": 3808,
      "khamval": 3809,
      "Kaper": 3810,
      "hupa": 3811,
      "khutsiamte": 3812,
      "Khual": 3813,
      "honsak": 3814,
      "meiphual": 3815,
      "zahta": 3816,
      "gimnate": 3817,
      "damin": 3818,
      "thuakte": 3819,
      "koihsak": 3820,
      "hehin": 3821,
      "etteh": 3822,
      "kicim": 3823,
      "Amasa": 3824,
      "langsak": 3825,
      "piangsakin": 3826,
      "puteek": 3827,
      "vanging": 3828,
      "khekhap": 3829,
      "mihingʼ": 3830,
      "ganhingteʼ": 3831,
      "kulhpite": 3832,
      "tawmna": 3833,
      "Eliza": 3834,
      "Elias": 3835,
      "Eliezer": 3836,
      "naupa": 3837,
      "gukte": 3838,
      "kisin": 3839,
      "dimsak": 3840,
      "Peeng": 3841,
      "Rekha": 3842,
      "zuat": 3843,
      "Tuili": 3844,
      "Galte": 3845,
      "Ziba": 3846,
      "Kush": 3847,
      "hopihin": 3848,
      "luite": 3849,
      "hehpihhuai": 3850,
      "molh": 3851,
      "bilvang": 3852,
      "puanbukte": 3853,
      "Shim": 3854,
      "Mag": 3855,
      "Vantungte": 3856,
      "mizawngteʼ": 3857,
      "bulhin": 3858,
      "niamkhiat": 3859,
      "umcihin": 3860,
      "khialhsakna": 3861,
      "Eleazarʼ": 3862,
      "cinate": 3863,
      "diahin": 3864,
      "hell": 3865,
      "Balaamʼ": 3866,
      "Thung": 3867,
      "Sarai": 3868,
      "ngongtatna": 3869,
      "kualte": 3870,
      "thukimna": 3871,
      "langpangte": 3872,
      "Horeb": 3873,
      "kikhui": 3874,
      "kikhumna": 3875,
      "Anani": 3876,
      "milip": 3877,
      "milipin": 3878,
      "Asafʼ": 3879,
      "Makhir": 3880,
      "Libnah": 3881,
      "Maakah": 3882,
      "Mittaw": 3883,
      "Mizawngte": 3884,
      "Jezebel": 3885,
      "Maaseiah": 3886,
      "Khaici": 3887,
      "Khialhna": 3888,
      "ututin": 3889,
      "Amminadab": 3890,
      "Kapernaum": 3891,
      "Eliashi": 3892,
      "Fes": 3893,
      "Gu": 3894,
      "Hun": 3895,
      "Pu": 3896,
      "Ru": 3897,
      "Rah": 3898,
      "Shu": 3899,
      "Sad": 3900,
      "Thuh": 3901,
      "ete": 3902,
      "fah": 3903,
      "far": 3904,
      "faz": 3905,
      "fanʼ": 3906,
      "ja": 3907,
      "mom": 3908,
      "myrrh": 3909,
      "oer": 3910,
      "sual": 3911,
      "vot": 3912,
      "zote": 3913,
      "zek": 3914,
      "inung": 3915,
      "khung": 3916,
      "khote": 3917,
      "khuhna": 3918,
      "then": 3919,
      "thai": 3920,
      "thro": 3921,
      "cia": 3922,
      "cithak": 3923,
      "kita": 3924,
      "kilai": 3925,
      "kisem": 3926,
      "kithahna": 3927,
      "ankung": 3928,
      "anpal": 3929,
      "lep": 3930,
      "mihaute": 3931,
      "kalh": 3932,
      "unneh": 3933,
      "peel": 3934,
      "ala": 3935,
      "ihna": 3936,
      "omkik": 3937,
      "sakhat": 3938,
      "lamte": 3939,
      "lamlahna": 3940,
      "radan": 3941,
      "bawlnate": 3942,
      "uite": 3943,
      "nupa": 3944,
      "nupite": 3945,
      "nulepa": 3946,
      "rib": 3947,
      "riam": 3948,
      "zaradan": 3949,
      "galtai": 3950,
      "galsimna": 3951,
      "khaini": 3952,
      "Midang": 3953,
      "Mikha": 3954,
      "Mikhal": 3955,
      "Miriam": 3956,
      "mawhsakin": 3957,
      "phate": 3958,
      "honpa": 3959,
      "Ahijah": 3960,
      "zir": 3961,
      "kamciamna": 3962,
      "khawmsak": 3963,
      "dongun": 3964,
      "puansan": 3965,
      "vanah": 3966,
      "ngaihbaang": 3967,
      "kihawm": 3968,
      "dona": 3969,
      "tampiteʼ": 3970,
      "ngaingai": 3971,
      "hilhkholhna": 3972,
      "salte": 3973,
      "pulh": 3974,
      "pakta": 3975,
      "phatin": 3976,
      "galkapteʼ": 3977,
      "pahin": 3978,
      "deihin": 3979,
      "thuciamnate": 3980,
      "Eliakim": 3981,
      "Giah": 3982,
      "nuaisiah": 3983,
      "bulpite": 3984,
      "thahatin": 3985,
      "daltuah": 3986,
      "thakte": 3987,
      "Gamdang": 3988,
      "teekin": 3989,
      "thalawh": 3990,
      "kiphut": 3991,
      "moth": 3992,
      "ngian": 3993,
      "gilpi": 3994,
      "gilvah": 3995,
      "Geba": 3996,
      "kisathei": 3997,
      "Aroer": 3998,
      "Vantungmi": 3999,
      "kalsuan": 4000,
      "vaihawmsak": 4001,
      "kilakkhiat": 4002,
      "Nebuzaradan": 4003,
      "pheek": 4004,
      "tutphah": 4005,
      "fibosheth": 4006,
      "Titus": 4007,
      "kitheisak": 4008,
      "Ashke": 4009,
      "paihna": 4010,
      "Abramʼ": 4011,
      "Labanʼ": 4012,
      "sawpin": 4013,
      "Elkanah": 4014,
      "kikhih": 4015,
      "Jefunneh": 4016,
      "Hagar": 4017,
      "khuampeekte": 4018,
      "naihin": 4019,
      "Nethaniahʼ": 4020,
      "Suangpi": 4021,
      "dusi": 4022,
      "phalbi": 4023,
      "lunghihmawh": 4024,
      "Honpa": 4025,
      "Elishama": 4026,
      "Mattaniah": 4027,
      "Melkhizedek": 4028,
      "Silngo": 4029,
      "khetphim": 4030,
      "Asahel": 4031,
      "molhtum": 4032,
      "Festas": 4033,
      "Saddusi": 4034,
      "Ag": 4035,
      "Ban": 4036,
      "Cik": 4037,
      "Heman": 4038,
      "It": 4039,
      "Ken": 4040,
      "Nom": 4041,
      "Pal": 4042,
      "Sawl": 4043,
      "Tal": 4044,
      "bak": 4045,
      "daih": 4046,
      "der": 4047,
      "gawm": 4048,
      "ial": 4049,
      "otna": 4050,
      "phih": 4051,
      "vu": 4052,
      "ngim": 4053,
      "hiʼ": 4054,
      "tem": 4055,
      "uainung": 4056,
      "the": 4057,
      "cikin": 4058,
      "kidong": 4059,
      "kituam": 4060,
      "kituh": 4061,
      "piʼ": 4062,
      "leina": 4063,
      "miahʼ": 4064,
      "miphak": 4065,
      "thuthuk": 4066,
      "pekah": 4067,
      "ompihna": 4068,
      "tanau": 4069,
      "tazen": 4070,
      "eli": 4071,
      "gambup": 4072,
      "siansuah": 4073,
      "theigah": 4074,
      "penna": 4075,
      "penpen": 4076,
      "kumkumin": 4077,
      "bir": 4078,
      "khuacingte": 4079,
      "uksak": 4080,
      "lamsang": 4081,
      "rab": 4082,
      "innsung": 4083,
      "bawlkik": 4084,
      "lungkhauh": 4085,
      "laksakin": 4086,
      "Amon": 4087,
      "Naungek": 4088,
      "Mikah": 4089,
      "shen": 4090,
      "beeng": 4091,
      "Jerub": 4092,
      "pawlpawlin": 4093,
      "gimpiakna": 4094,
      "kinawh": 4095,
      "suahkhak": 4096,
      "Judahʼ": 4097,
      "ngasate": 4098,
      "kipin": 4099,
      "ngeisa": 4100,
      "kuansak": 4101,
      "septe": 4102,
      "lumte": 4103,
      "pakan": 4104,
      "khangto": 4105,
      "khangkhangin": 4106,
      "huhin": 4107,
      "zankim": 4108,
      "bawngla": 4109,
      "thangpaihna": 4110,
      "Heh": 4111,
      "Elifaz": 4112,
      "lampial": 4113,
      "tamngai": 4114,
      "sikkawi": 4115,
      "cinna": 4116,
      "puakkik": 4117,
      "Tapaʼ": 4118,
      "meh": 4119,
      "ngunte": 4120,
      "hamtang": 4121,
      "Mefibosheth": 4122,
      "asʼ": 4123,
      "zatui": 4124,
      "shabiah": 4125,
      "khawlsak": 4126,
      "zuaupi": 4127,
      "Hashabiah": 4128,
      "Kuama": 4129,
      "Bil": 4130,
      "lenkip": 4131,
      "thunget": 4132,
      "kaikhawmkik": 4133,
      "Gezer": 4134,
      "Geshur": 4135,
      "teembawte": 4136,
      "tentan": 4137,
      "guahtui": 4138,
      "maangmuh": 4139,
      "veengteʼ": 4140,
      "Ahaziahʼ": 4141,
      "Martha": 4142,
      "Kenaz": 4143,
      "kinial": 4144,
      "kinilh": 4145,
      "Hamanʼ": 4146,
      "Barak": 4147,
      "mipilteʼ": 4148,
      "Zingsangin": 4149,
      "zuanin": 4150,
      "dialkhai": 4151,
      "Ishbosheth": 4152,
      "kilamen": 4153,
      "meigongnu": 4154,
      "pumpeeng": 4155,
      "mialna": 4156,
      "Shafan": 4157,
      "Shafanʼ": 4158,
      "annekna": 4159,
      "Tobiah": 4160,
      "Hannah": 4161,
      "lungduaina": 4162,
      "Leenggui": 4163,
      "Goshen": 4164,
      "Nungak": 4165,
      "Debir": 4166,
      "mipihteʼ": 4167,
      "huaihamna": 4168,
      "kisilin": 4169,
      "kizepnate": 4170,
      "zahhuaisak": 4171,
      "Izhar": 4172,
      "Apol": 4173,
      "Ahikamʼ": 4174,
      "Rabbah": 4175,
      "Athaliah": 4176,
      "Khuamial": 4177,
      "Giahphual": 4178,
      "Bani": 4179,
      "!’": 4180,
      "Gim": 4181,
      "Hua": 4182,
      "Hinn": 4183,
      "Kih": 4184,
      "Men": 4185,
      "Nga": 4186,
      "Neko": 4187,
      "Ngaih": 4188,
      "Or": 4189,
      "Rem": 4190,
      "Shun": 4191,
      "Senna": 4192,
      "Teko": 4193,
      "hem": 4194,
      "hukna": 4195,
      "hutna": 4196,
      "kangte": 4197,
      "op": 4198,
      "wi": 4199,
      "hiah": 4200,
      "nadinga": 4201,
      "amte": 4202,
      "uap": 4203,
      "eiel": 4204,
      "cikik": 4205,
      "aksa": 4206,
      "kipai": 4207,
      "kihe": 4208,
      "kigal": 4209,
      "kisiat": 4210,
      "kikhatin": 4211,
      "kibat": 4212,
      "leinuai": 4213,
      "loth": 4214,
      "lobuang": 4215,
      "tungkik": 4216,
      "emoth": 4217,
      "aliahʼ": 4218,
      "opawi": 4219,
      "khiam": 4220,
      "khiakik": 4221,
      "Pash": 4222,
      "takzak": 4223,
      "sul": 4224,
      "phuai": 4225,
      "phukte": 4226,
      "lag": 4227,
      "maaz": 4228,
      "Jedu": 4229,
      "horon": 4230,
      "nim": 4231,
      "minte": 4232,
      "lungzin": 4233,
      "lungmuangin": 4234,
      "piasak": 4235,
      "utum": 4236,
      "khiate": 4237,
      "leibeel": 4238,
      "leiseek": 4239,
      "nuamna": 4240,
      "Amram": 4241,
      "maisakin": 4242,
      "simte": 4243,
      "dangtakin": 4244,
      "tuiciin": 4245,
      "galvilna": 4246,
      "koʼ": 4247,
      "Nazir": 4248,
      "awngin": 4249,
      "shah": 4250,
      "Kare": 4251,
      "hingin": 4252,
      "neel": 4253,
      "vankhaina": 4254,
      "not": 4255,
      "thumnate": 4256,
      "Ahitu": 4257,
      "Ahimaaz": 4258,
      "Sik": 4259,
      "ngahte": 4260,
      "buah": 4261,
      "muhdahna": 4262,
      "zahpih": 4263,
      "kihhuaina": 4264,
      "dosak": 4265,
      "nahʼ": 4266,
      "kholna": 4267,
      "suanteʼ": 4268,
      "Eglon": 4269,
      "Amariah": 4270,
      "keuh": 4271,
      "khangnote": 4272,
      "bawngpi": 4273,
      "ngenthang": 4274,
      "kulhte": 4275,
      "kibawlna": 4276,
      "Elijahʼ": 4277,
      "sikkhau": 4278,
      "puakin": 4279,
      "thukna": 4280,
      "gunte": 4281,
      "Nisimin": 4282,
      "Nitumna": 4283,
      "nelkai": 4284,
      "letin": 4285,
      "tuucingte": 4286,
      "Joshuaʼ": 4287,
      "kikaih": 4288,
      "Singlamteh": 4289,
      "And": 4290,
      "teeknu": 4291,
      "khauhin": 4292,
      "Bilh": 4293,
      "hilhnate": 4294,
      "bilngong": 4295,
      "leengguite": 4296,
      "Artakzak": 4297,
      "kisikin": 4298,
      "zuakna": 4299,
      "tukna": 4300,
      "tacilte": 4301,
      "Hermon": 4302,
      "kilamdanna": 4303,
      "Hushai": 4304,
      "fir": 4305,
      "Mahli": 4306,
      "galhiamte": 4307,
      "Nahor": 4308,
      "Nahshon": 4309,
      "Satanʼ": 4310,
      "Ishmaelʼ": 4311,
      "Lamek": 4312,
      "kitot": 4313,
      "kizop": 4314,
      "mawkmawkte": 4315,
      "tausangte": 4316,
      "Tuucing": 4317,
      "nuhin": 4318,
      "Puanbuk": 4319,
      "zawkna": 4320,
      "Nungzuite": 4321,
      "Manoah": 4322,
      "kitatsat": 4323,
      "Ziklag": 4324,
      "Tangvalpa": 4325,
      "dipkua": 4326,
      "hanthotna": 4327,
      "haihuai": 4328,
      "palikte": 4329,
      "Peengkul": 4330,
      "Ananias": 4331,
      "Ruth": 4332,
      "Rahab": 4333,
      "Thuhoih": 4334,
      "Jerubbaal": 4335,
      "Apollo": 4336,
      "Hinnom": 4337,
      "Sennakhe": 4338,
      "Tekoa": 4339,
      "Jeduthun": 4340,
      "Kareahʼ": 4341,
      "Artakzaksis": 4342,
      "Ari": 4343,
      "Aga": 4344,
      "Er": 4345,
      "Huan": 4346,
      "Ib": 4347,
      "Jeiel": 4348,
      "Ofir": 4349,
      "Thun": 4350,
      "Tab": 4351,
      "Thal": 4352,
      "Zobah": 4353,
      "bong": 4354,
      "batna": 4355,
      "gad": 4356,
      "hual": 4357,
      "humpi": 4358,
      "ikin": 4359,
      "iim": 4360,
      "iik": 4361,
      "ping": 4362,
      "pras": 4363,
      "tamna": 4364,
      "veng": 4365,
      "ngawn": 4366,
      "nap": 4367,
      "paang": 4368,
      "akin": 4369,
      "kikhem": 4370,
      "kiteng": 4371,
      "kitun": 4372,
      "kizak": 4373,
      "kizahtak": 4374,
      "kisut": 4375,
      "kidalna": 4376,
      "kikhul": 4377,
      "lelh": 4378,
      "lekhe": 4379,
      "miel": 4380,
      "thusitna": 4381,
      "lok": 4382,
      "tungman": 4383,
      "gamtang": 4384,
      "tup": 4385,
      "siansak": 4386,
      "paisakin": 4387,
      "takik": 4388,
      "lapi": 4389,
      "gensiatna": 4390,
      "bangsakkik": 4391,
      "Jedaiah": 4392,
      "Jethro": 4393,
      "nisa": 4394,
      "nisim": 4395,
      "innpi": 4396,
      "bawlsiate": 4397,
      "simsak": 4398,
      "rippa": 4399,
      "piaksak": 4400,
      "piakkhong": 4401,
      "zaina": 4402,
      "siapa": 4403,
      "sangpi": 4404,
      "Joi": 4405,
      "hud": 4406,
      "husanna": 4407,
      "zuisak": 4408,
      "inadab": 4409,
      "tol": 4410,
      "tofah": 4411,
      "awksak": 4412,
      "Jerah": 4413,
      "Dagon": 4414,
      "kihen": 4415,
      "gimpiak": 4416,
      "gimthuak": 4417,
      "suahsak": 4418,
      "sunsun": 4419,
      "baan": 4420,
      "kipsakna": 4421,
      "leengpei": 4422,
      "suksak": 4423,
      "pusuakin": 4424,
      "Thugen": 4425,
      "hazatna": 4426,
      "suanghawm": 4427,
      "mualah": 4428,
      "imcip": 4429,
      "halna": 4430,
      "thany": 4431,
      "paute": 4432,
      "Abihu": 4433,
      "satnen": 4434,
      "cingh": 4435,
      "Bethany": 4436,
      "deuh": 4437,
      "guang": 4438,
      "tamin": 4439,
      "anaim": 4440,
      "siksanin": 4441,
      "danin": 4442,
      "thukan": 4443,
      "Tate": 4444,
      "gunpi": 4445,
      "makpa": 4446,
      "daitakin": 4447,
      "zuazua": 4448,
      "Nebo": 4449,
      "Netofah": 4450,
      "neli": 4451,
      "Kish": 4452,
      "Bath": 4453,
      "Shefat": 4454,
      "thukhennate": 4455,
      "lungkhamsak": 4456,
      "Lungkhamna": 4457,
      "hawlte": 4458,
      "Hazar": 4459,
      "kingaihsut": 4460,
      "lencip": 4461,
      "luitui": 4462,
      "khahsuah": 4463,
      "khumzang": 4464,
      "vatmai": 4465,
      "Geha": 4466,
      "khausai": 4467,
      "seekte": 4468,
      "veengpaʼ": 4469,
      "Marka": 4470,
      "kilaksak": 4471,
      "puahkik": 4472,
      "cikmahin": 4473,
      "Jazer": 4474,
      "zaizai": 4475,
      "maimangsak": 4476,
      "zungbuh": 4477,
      "kiphatsak": 4478,
      "Thutang": 4479,
      "Mahanaim": 4480,
      "kilangin": 4481,
      "diakdiakin": 4482,
      "hanthawnin": 4483,
      "galhangte": 4484,
      "keekin": 4485,
      "kholhnate": 4486,
      "Timnah": 4487,
      "Gog": 4488,
      "Sairas": 4489,
      "Saipras": 4490,
      "Thakhat": 4491,
      "Zorah": 4492,
      "Hoihtakin": 4493,
      "pungsak": 4494,
      "Uzziel": 4495,
      "Nuam": 4496,
      "Sihonʼ": 4497,
      "kipahna": 4498,
      "daupai": 4499,
      "kihihsakna": 4500,
      "linna": 4501,
      "Jehoramʼ": 4502,
      "Rib": 4503,
      "khebaite": 4504,
      "Amozʼ": 4505,
      "Dahna": 4506,
      "Limtakin": 4507,
      "Mikhael": 4508,
      "daltuahte": 4509,
      "Ashkelon": 4510,
      "Jefunnehʼ": 4511,
      "Agrippa": 4512,
      "Sawltak": 4513,
      "vuina": 4514,
      "Remaliahʼ": 4515,
      "Pashhur": 4516,
      "Andru": 4517,
      "Apollos": 4518,
      "Agag": 4519,
      "pingpei": 4520,
      "Shefatiah": 4521,
      "Abe": 4522,
      "Elim": 4523,
      "Eber": 4524,
      "Iddo": 4525,
      "Jai": 4526,
      "Nim": 4527,
      "Nerʼ": 4528,
      "Of": 4529,
      "Tau": 4530,
      "Terah": 4531,
      "Vash": 4532,
      "Zere": 4533,
      "fer": 4534,
      "hut": 4535,
      "helʼ": 4536,
      "llai": 4537,
      "nuainung": 4538,
      "sawk": 4539,
      "utu": 4540,
      "ngek": 4541,
      "naim": 4542,
      "angvan": 4543,
      "tek": 4544,
      "awte": 4545,
      "eiʼ": 4546,
      "thʼ": 4547,
      "citna": 4548,
      "kithu": 4549,
      "kikhia": 4550,
      "kikhah": 4551,
      "kibulh": 4552,
      "kisiangthosak": 4553,
      "aiahʼ": 4554,
      "loteʼ": 4555,
      "lofe": 4556,
      "tungtham": 4557,
      "peh": 4558,
      "ihtansak": 4559,
      "elaiah": 4560,
      "tukhawm": 4561,
      "sup": 4562,
      "phuan": 4563,
      "mash": 4564,
      "genkhiat": 4565,
      "khuan": 4566,
      "ekna": 4567,
      "neikhawm": 4568,
      "bawlteʼ": 4569,
      "leihoih": 4570,
      "giddo": 4571,
      "uiphukte": 4572,
      "kikupna": 4573,
      "lakte": 4574,
      "laktel": 4575,
      "nul": 4576,
      "musan": 4577,
      "piaknate": 4578,
      "zaza": 4579,
      "Bangci": 4580,
      "Midangteʼ": 4581,
      "mawhneite": 4582,
      "tangte": 4583,
      "bet": 4584,
      "thokiksak": 4585,
      "nungsak": 4586,
      "nungngat": 4587,
      "pawite": 4588,
      "thumang": 4589,
      "zim": 4590,
      "zillai": 4591,
      "tengin": 4592,
      "khawmna": 4593,
      "diʼ": 4594,
      "munna": 4595,
      "sante": 4596,
      "etlawm": 4597,
      "sukte": 4598,
      "sukkhak": 4599,
      "kician": 4600,
      "kiciaptehna": 4601,
      "ciangah": 4602,
      "suangcian": 4603,
      "tulin": 4604,
      "Kumpite": 4605,
      "kuaihtansak": 4606,
      "vakvai": 4607,
      "keen": 4608,
      "keutum": 4609,
      "hanciamna": 4610,
      "zangte": 4611,
      "lungdamkohna": 4612,
      "huhau": 4613,
      "deihsak": 4614,
      "pasianʼ": 4615,
      "nasepte": 4616,
      "tambong": 4617,
      "Leihawm": 4618,
      "sihsak": 4619,
      "vuite": 4620,
      "meeng": 4621,
      "khukte": 4622,
      "Zefan": 4623,
      "Zelofe": 4624,
      "hawmguakin": 4625,
      "Barab": 4626,
      "Megiddo": 4627,
      "Galdo": 4628,
      "Shele": 4629,
      "Zil": 4630,
      "dala": 4631,
      "vekin": 4632,
      "paknamtuite": 4633,
      "Hash": 4634,
      "kiciamsak": 4635,
      "haksat": 4636,
      "kingak": 4637,
      "uelʼ": 4638,
      "unok": 4639,
      "naupangʼ": 4640,
      "Noahʼ": 4641,
      "khumcip": 4642,
      "kiphuak": 4643,
      "monu": 4644,
      "ngia": 4645,
      "thungen": 4646,
      "Piangsak": 4647,
      "thongkia": 4648,
      "bilbah": 4649,
      "ariah": 4650,
      "tuutalte": 4651,
      "Samuelʼ": 4652,
      "Shime": 4653,
      "hatte": 4654,
      "hatsak": 4655,
      "reth": 4656,
      "Kongzing": 4657,
      "athʼ": 4658,
      "Jonadab": 4659,
      "kampaunate": 4660,
      "Meivak": 4661,
      "dinna": 4662,
      "Barzillai": 4663,
      "mihoihin": 4664,
      "dnego": 4665,
      "nanʼ": 4666,
      "dungah": 4667,
      "cimawhin": 4668,
      "Jehuʼ": 4669,
      "tunpihkik": 4670,
      "kiniamkhiatna": 4671,
      "Ashtaroth": 4672,
      "Shadr": 4673,
      "gualzosak": 4674,
      "Hoshe": 4675,
      "multe": 4676,
      "khuhcip": 4677,
      "thuhaksa": 4678,
      "sahpi": 4679,
      "suangtumte": 4680,
      "Hanan": 4681,
      "thukimpih": 4682,
      "Beeroth": 4683,
      "Estherʼ": 4684,
      "zalin": 4685,
      "kizopna": 4686,
      "Zadokʼ": 4687,
      "kiniamkhiatin": 4688,
      "Awle": 4689,
      "kikhel": 4690,
      "zahkona": 4691,
      "kikhiin": 4692,
      "Mihoihte": 4693,
      "Meshak": 4694,
      "Ithamar": 4695,
      "Bela": 4696,
      "Dibon": 4697,
      "khukdinin": 4698,
      "Elishaʼ": 4699,
      "delhna": 4700,
      "Zimri": 4701,
      "Ahithofel": 4702,
      "hehnepna": 4703,
      "Zalmunna": 4704,
      "Jehiel": 4705,
      "Midikte": 4706,
      "Elizabeth": 4707,
      "Magdala": 4708,
      "kitasam": 4709,
      "vankhainate": 4710,
      "kikaihkhop": 4711,
      "Sennakherib": 4712,
      "Bathsheba": 4713,
      "Gehazi": 4714,
      "Riblah": 4715,
      "Abednego": 4716,
      "Vashti": 4717,
      "ututun": 4718,
      "Zelofehad": 4719,
      "Barabbas": 4720,
      "Shadrak": 4721,
      "Akhai": 4722,
      "Din": 4723,
      "Ezer": 4724,
      "Ehud": 4725,
      "Guah": 4726,
      "Lopa": 4727,
      "Mam": 4728,
      "Nek": 4729,
      "Sau": 4730,
      "Seth": 4731,
      "Tan": 4732,
      "Tro": 4733,
      "Uri": 4734,
      "bem": 4735,
      "dote": 4736,
      "dron": 4737,
      "ean": 4738,
      "fas": 4739,
      "ia": 4740,
      "ielʼ": 4741,
      "kuak": 4742,
      "kawk": 4743,
      "lan": 4744,
      "mer": 4745,
      "st": 4746,
      "hial": 4747,
      "paat": 4748,
      "eipa": 4749,
      "kiuh": 4750,
      "kima": 4751,
      "kikai": 4752,
      "kivei": 4753,
      "kizan": 4754,
      "kiteh": 4755,
      "kimuhna": 4756,
      "kidamsak": 4757,
      "kithuah": 4758,
      "kiliah": 4759,
      "atin": 4760,
      "kari": 4761,
      "kalhna": 4762,
      "thusel": 4763,
      "thudotna": 4764,
      "lokho": 4765,
      "aukawi": 4766,
      "omsuak": 4767,
      "omas": 4768,
      "tanaute": 4769,
      "sungkuate": 4770,
      "saf": 4771,
      "sathaute": 4772,
      "Pad": 4773,
      "Paran": 4774,
      "paisan": 4775,
      "paipel": 4776,
      "lasak": 4777,
      "laamin": 4778,
      "main": 4779,
      "mave": 4780,
      "masate": 4781,
      "gensiat": 4782,
      "amarʼ": 4783,
      "laih": 4784,
      "laikhakte": 4785,
      "niamin": 4786,
      "cihmawhna": 4787,
      "eknel": 4788,
      "neisak": 4789,
      "minliatna": 4790,
      "Iskari": 4791,
      "lungnuamin": 4792,
      "lakkhiatsak": 4793,
      "nusian": 4794,
      "maih": 4795,
      "tuibuah": 4796,
      "Bangbang": 4797,
      "galvan": 4798,
      "Misite": 4799,
      "tangpi": 4800,
      "tangsak": 4801,
      "hingkhawi": 4802,
      "phasakin": 4803,
      "net": 4804,
      "khutlekhe": 4805,
      "Khem": 4806,
      "Khawl": 4807,
      "lohte": 4808,
      "lohsak": 4809,
      "tok": 4810,
      "Sib": 4811,
      "Sila": 4812,
      "kamciam": 4813,
      "dikin": 4814,
      "diter": 4815,
      "nasemin": 4816,
      "zawt": 4817,
      "munkip": 4818,
      "khiato": 4819,
      "khusak": 4820,
      "nuamtak": 4821,
      "sunteng": 4822,
      "thatsak": 4823,
      "tunin": 4824,
      "leengin": 4825,
      "hilhte": 4826,
      "kuankuanin": 4827,
      "hazat": 4828,
      "suangpeekte": 4829,
      "tuamte": 4830,
      "pakshad": 4831,
      "Abinadab": 4832,
      "keute": 4833,
      "lutsak": 4834,
      "pahtakna": 4835,
      "phawksak": 4836,
      "Bethu": 4837,
      "Betha": 4838,
      "Beorʼ": 4839,
      "puasak": 4840,
      "lohnate": 4841,
      "gutate": 4842,
      "tawmvei": 4843,
      "geihual": 4844,
      "tamlawh": 4845,
      "Leilak": 4846,
      "ninte": 4847,
      "kisawh": 4848,
      "kisawp": 4849,
      "sihpih": 4850,
      "cinatna": 4851,
      "puakkhiat": 4852,
      "luahsak": 4853,
      "Nidang": 4854,
      "Nidangin": 4855,
      "daiʼ": 4856,
      "valin": 4857,
      "tanuʼ": 4858,
      "Zebe": 4859,
      "Zebah": 4860,
      "hawmte": 4861,
      "hawmsak": 4862,
      "Kidron": 4863,
      "pilin": 4864,
      "pilvang": 4865,
      "luangte": 4866,
      "buluh": 4867,
      "Meri": 4868,
      "Mediter": 4869,
      "beelseek": 4870,
      "Galvil": 4871,
      "Sheal": 4872,
      "makaihna": 4873,
      "Zif": 4874,
      "khawlna": 4875,
      "Harim": 4876,
      "phiaukawi": 4877,
      "kinga": 4878,
      "tualsung": 4879,
      "Abiram": 4880,
      "melhoihna": 4881,
      "kipaai": 4882,
      "Siampiteʼ": 4883,
      "lawnin": 4884,
      "liingsak": 4885,
      "ballat": 4886,
      "mongteep": 4887,
      "Shaul": 4888,
      "dawibia": 4889,
      "vatlum": 4890,
      "keuna": 4891,
      "keusak": 4892,
      "Arpakshad": 4893,
      "taaksan": 4894,
      "kisit": 4895,
      "kampaute": 4896,
      "kangsak": 4897,
      "Gileadʼ": 4898,
      "kikhenin": 4899,
      "kikhenna": 4900,
      "sabbath": 4901,
      "Kedar": 4902,
      "Sanggam": 4903,
      "Jafeth": 4904,
      "Jobʼ": 4905,
      "dialpi": 4906,
      "kisialhna": 4907,
      "kilamkik": 4908,
      "Jehoshafatʼ": 4909,
      "Numeite": 4910,
      "khawhna": 4911,
      "lukhute": 4912,
      "lingkungte": 4913,
      "Thomas": 4914,
      "Aija": 4915,
      "Arabia": 4916,
      "midikteʼ": 4917,
      "Hanun": 4918,
      "Sathau": 4919,
      "mohpheng": 4920,
      "Kohathʼ": 4921,
      "Azariahʼ": 4922,
      "Rachelʼ": 4923,
      "Haggai": 4924,
      "vukcip": 4925,
      "Gaal": 4926,
      "Nathanʼ": 4927,
      "Zoar": 4928,
      "kitamzan": 4929,
      "Kalebʼ": 4930,
      "Dedan": 4931,
      "Lotʼ": 4932,
      "Omri": 4933,
      "pammaih": 4934,
      "Mikmash": 4935,
      "Uzziahʼ": 4936,
      "khengin": 4937,
      "tuiphumna": 4938,
      "ranean": 4939,
      "Thukhenna": 4940,
      "galmatte": 4941,
      "mengmeng": 4942,
      "Mangbuh": 4943,
      "zawnna": 4944,
      "onik": 4945,
      "Hadadezerʼ": 4946,
      "siahdongte": 4947,
      "khuaphialep": 4948,
      "kilaii": 4949,
      "khainiang": 4950,
      "khetphimte": 4951,
      "Nomau": 4952,
      "maangmuhnate": 4953,
      "Ngasa": 4954,
      "Shunem": 4955,
      "Mamre": 4956,
      "Iskariot": 4957,
      "Mediterranean": 4958,
      ").": 4959,
      "Af": 4960,
      "Ale": 4961,
      "Dal": 4962,
      "Elna": 4963,
      "Gual": 4964,
      "Has": 4965,
      "Jas": 4966,
      "Kal": 4967,
      "Khu": 4968,
      "Mem": 4969,
      "Ng": 4970,
      "Pah": 4971,
      "Pumpi": 4972,
      "duai": 4973,
      "dana": 4974,
      "enai": 4975,
      "gawl": 4976,
      "mua": 4977,
      "men": 4978,
      "pom": 4979,
      "sen": 4980,
      "tumpi": 4981,
      "xan": 4982,
      "hita": 4983,
      "namin": 4984,
      "nateʼ": 4985,
      "teshazzar": 4986,
      "patna": 4987,
      "thni": 4988,
      "dingah": 4989,
      "kimanin": 4990,
      "kilei": 4991,
      "kikham": 4992,
      "kisiatna": 4993,
      "kilhna": 4994,
      "kisimmawh": 4995,
      "kimangngilh": 4996,
      "kivawh": 4997,
      "kisiangsak": 4998,
      "kibuak": 4999,
      "kiphasakin": 5000,
      "anhuan": 5001,
      "anthawn": 5002,
      "siim": 5003,
      "attu": 5004,
      "thutangin": 5005,
      "ahiah": 5006,
      "aite": 5007,
      "loni": 5008,
      "tungsakin": 5009,
      "umcihna": 5010,
      "emuel": 5011,
      "Tuateʼ": 5012,
      "alpi": 5013,
      "almon": 5014,
      "gammang": 5015,
      "gamdangte": 5016,
      "sar": 5017,
      "sapi": 5018,
      "sanang": 5019,
      "sazi": 5020,
      "saloni": 5021,
      "tute": 5022,
      "hihin": 5023,
      "pannate": 5024,
      "liak": 5025,
      "manlah": 5026,
      "mas": 5027,
      "gensiate": 5028,
      "Jeu": 5029,
      "bit": 5030,
      "khuakulh": 5031,
      "niim": 5032,
      "niliim": 5033,
      "cihmawh": 5034,
      "ser": 5035,
      "seleh": 5036,
      "ukpaʼ": 5037,
      "ekan": 5038,
      "lamenin": 5039,
      "innluah": 5040,
      "innliim": 5041,
      "innkiu": 5042,
      "lungmang": 5043,
      "lungnem": 5044,
      "theihin": 5045,
      "dangka": 5046,
      "lianteʼ": 5047,
      "tuili": 5048,
      "zadak": 5049,
      "galin": 5050,
      "Nasep": 5051,
      "Mig": 5052,
      "mawhnopna": 5053,
      "mawhbaang": 5054,
      "shak": 5055,
      "tangthu": 5056,
      "tangtun": 5057,
      "Joah": 5058,
      "hunhunin": 5059,
      "nihun": 5060,
      "husan": 5061,
      "huging": 5062,
      "nea": 5063,
      "nawm": 5064,
      "nawite": 5065,
      "khutsiam": 5066,
      "vankah": 5067,
      "meimat": 5068,
      "noʼ": 5069,
      "nolh": 5070,
      "pawm": 5071,
      "ziel": 5072,
      "Molek": 5073,
      "kamte": 5074,
      "Dathan": 5075,
      "bute": 5076,
      "muhte": 5077,
      "munin": 5078,
      "kihuh": 5079,
      "kihanthawn": 5080,
      "kineng": 5081,
      "taite": 5082,
      "kimawl": 5083,
      "khialte": 5084,
      "langteʼ": 5085,
      "gamtasak": 5086,
      "suangtumpi": 5087,
      "pangte": 5088,
      "gawpsak": 5089,
      "Leahʼ": 5090,
      "sattan": 5091,
      "thumante": 5092,
      "khanglai": 5093,
      "zangsak": 5094,
      "henhan": 5095,
      "Beza": 5096,
      "gamtatzia": 5097,
      "tawphah": 5098,
      "ciamnuih": 5099,
      "deihsakna": 5100,
      "deu": 5101,
      "lonʼ": 5102,
      "gulh": 5103,
      "thangsiah": 5104,
      "Eliʼ": 5105,
      "Eliel": 5106,
      "guksak": 5107,
      "peuhmahte": 5108,
      "thakhauh": 5109,
      "innkuanteʼ": 5110,
      "sikkol": 5111,
      "luahin": 5112,
      "luahna": 5113,
      "Neriahʼ": 5114,
      "Kir": 5115,
      "Kiu": 5116,
      "bokin": 5117,
      "pilte": 5118,
      "bulphuh": 5119,
      "kizomin": 5120,
      "vantungmiʼ": 5121,
      "beelin": 5122,
      "Zip": 5123,
      "gualzawh": 5124,
      "dalte": 5125,
      "vunte": 5126,
      "kiheikikin": 5127,
      "puknah": 5128,
      "lungkhamin": 5129,
      "Gamtat": 5130,
      "Lungdam": 5131,
      "tuahin": 5132,
      "Vanlelei": 5133,
      "silsak": 5134,
      "naupangnote": 5135,
      "Benjaminʼ": 5136,
      "kipholak": 5137,
      "kigente": 5138,
      "lawnsak": 5139,
      "lawnthal": 5140,
      "liingin": 5141,
      "mothak": 5142,
      "khanlawh": 5143,
      "Shekan": 5144,
      "arib": 5145,
      "Khuavak": 5146,
      "buhtu": 5147,
      "buhkung": 5148,
      "buhlom": 5149,
      "keugaw": 5150,
      "laibute": 5151,
      "awgingte": 5152,
      "songte": 5153,
      "Meigong": 5154,
      "hanciamin": 5155,
      "phula": 5156,
      "phulakna": 5157,
      "Kedesh": 5158,
      "Jaa": 5159,
      "dinkhiat": 5160,
      "Thumanna": 5161,
      "palsatin": 5162,
      "zuankik": 5163,
      "Reubenʼ": 5164,
      "kideng": 5165,
      "Uzza": 5166,
      "tuangsak": 5167,
      "pulakin": 5168,
      "Hur": 5169,
      "kilehkikin": 5170,
      "Gunpi": 5171,
      "upateʼ": 5172,
      "dokkik": 5173,
      "Dawimangpaʼ": 5174,
      "lingte": 5175,
      "Siapa": 5176,
      "phahin": 5177,
      "Mahala": 5178,
      "mulkim": 5179,
      "paihkhiat": 5180,
      "Nahash": 5181,
      "kattum": 5182,
      "Mordekaiʼ": 5183,
      "Zekhariahʼ": 5184,
      "Nuntak": 5185,
      "kilatna": 5186,
      "tuumcip": 5187,
      "Elihu": 5188,
      "samsiatnate": 5189,
      "Adullam": 5190,
      "kikhung": 5191,
      "Boz": 5192,
      "Launa": 5193,
      "Pawlpi": 5194,
      "Merariʼ": 5195,
      "Thakhatin": 5196,
      "vompi": 5197,
      "kikaikhawmin": 5198,
      "kawina": 5199,
      "kituahin": 5200,
      "kilok": 5201,
      "lunggulhna": 5202,
      "Sanballat": 5203,
      "aisante": 5204,
      "Galkapte": 5205,
      "tawlette": 5206,
      "Jehoiakimʼ": 5207,
      "maavang": 5208,
      "phuahtawm": 5209,
      "langpanna": 5210,
      "Naupangte": 5211,
      "Makhirʼ": 5212,
      "kikhaknelh": 5213,
      "Korin": 5214,
      "Korneli": 5215,
      "sumbukte": 5216,
      "Mushi": 5217,
      "Haksatna": 5218,
      "khawkte": 5219,
      "barnea": 5220,
      "komauʼ": 5221,
      "Misiteʼ": 5222,
      "Amos": 5223,
      "Gulpi": 5224,
      "Thesaloni": 5225,
      "shaddaiʼ": 5226,
      "kikep": 5227,
      "Berekhi": 5228,
      "kawtsak": 5229,
      "Ebed": 5230,
      "Shefelah": 5231,
      "zahtakhuai": 5232,
      "kikhuituah": 5233,
      "Mittawte": 5234,
      "kalsuanna": 5235,
      "Jerahme": 5236,
      "Sawltakte": 5237,
      "Tausang": 5238,
      "Akhaia": 5239,
      "Paddana": 5240,
      "maveth": 5241,
      "Shealti": 5242,
      "Aijalon": 5243,
      "Alexan": 5244,
      "almond": 5245,
      "sazian": 5246,
      "Kornelias": 5247,
      "Thesalonika": 5248,
      "Paddanaram": 5249,
      "16": 5250,
      "Ala": 5251,
      "Ber": 5252,
      "Ethan": 5253,
      "Hot": 5254,
      "Kre": 5255,
      "Kaia": 5256,
      "Mas": 5257,
      "Ner": 5258,
      "Put": 5259,
      "Pha": 5260,
      "Timna": 5261,
      "Ui": 5262,
      "Vun": 5263,
      "bum": 5264,
      "bom": 5265,
      "belʼ": 5266,
      "gawng": 5267,
      "kampi": 5268,
      "kbek": 5269,
      "luak": 5270,
      "mutna": 5271,
      "osh": 5272,
      "tim": 5273,
      "hiau": 5274,
      "nas": 5275,
      "nasak": 5276,
      "naunu": 5277,
      "amsiatna": 5278,
      "eih": 5279,
      "thuhna": 5280,
      "akah": 5281,
      "kihi": 5282,
      "kipi": 5283,
      "kitawh": 5284,
      "kikhat": 5285,
      "kilh": 5286,
      "kisep": 5287,
      "kizawh": 5288,
      "kitawi": 5289,
      "kilawh": 5290,
      "kiteen": 5291,
      "kibehlap": 5292,
      "kiliat": 5293,
      "kikimin": 5294,
      "antang": 5295,
      "anne": 5296,
      "antanna": 5297,
      "siangin": 5298,
      "siteʼ": 5299,
      "atte": 5300,
      "mith": 5301,
      "eni": 5302,
      "thuciamteh": 5303,
      "ahite": 5304,
      "awhkiksak": 5305,
      "taal": 5306,
      "ela": 5307,
      "khian": 5308,
      "siansuahna": 5309,
      "Pate": 5310,
      "paipihna": 5311,
      "paizia": 5312,
      "paikawmun": 5313,
      "theikik": 5314,
      "penʼ": 5315,
      "mante": 5316,
      "mantak": 5317,
      "pholak": 5318,
      "laipi": 5319,
      "laigelhna": 5320,
      "bikbek": 5321,
      "niah": 5322,
      "uanna": 5323,
      "lamka": 5324,
      "inncing": 5325,
      "kongvang": 5326,
      "gimin": 5327,
      "semnen": 5328,
      "maisakna": 5329,
      "galpa": 5330,
      "kolh": 5331,
      "sangsak": 5332,
      "Mish": 5333,
      "mahmahte": 5334,
      "shbe": 5335,
      "Jozabad": 5336,
      "Kad": 5337,
      "suaksakin": 5338,
      "hudʼ": 5339,
      "dahsak": 5340,
      "dahhuai": 5341,
      "nungin": 5342,
      "vanlelei": 5343,
      "meidawi": 5344,
      "luzang": 5345,
      "thumteʼ": 5346,
      "arba": 5347,
      "Siam": 5348,
      "puanʼ": 5349,
      "limlang": 5350,
      "kihamsiatna": 5351,
      "minamin": 5352,
      "tanzau": 5353,
      "gimnam": 5354,
      "Tubal": 5355,
      "khakin": 5356,
      "khakna": 5357,
      "kineite": 5358,
      "deidan": 5359,
      "taikhiat": 5360,
      "taitehte": 5361,
      "samte": 5362,
      "samkik": 5363,
      "samul": 5364,
      "khenna": 5365,
      "zulh": 5366,
      "zurʼ": 5367,
      "ngap": 5368,
      "kiphiat": 5369,
      "leengla": 5370,
      "tumte": 5371,
      "Amaziahʼ": 5372,
      "thahsak": 5373,
      "pupite": 5374,
      "sagihin": 5375,
      "singhiang": 5376,
      "saupi": 5377,
      "gawpgawp": 5378,
      "ciahin": 5379,
      "ithiah": 5380,
      "paupau": 5381,
      "kuaʼn": 5382,
      "satkham": 5383,
      "kedah": 5384,
      "ada": 5385,
      "lungdamhuai": 5386,
      "lawmteʼ": 5387,
      "Beriah": 5388,
      "ngeingai": 5389,
      "deihte": 5390,
      "ngente": 5391,
      "ngenngen": 5392,
      "Hefer": 5393,
      "Elife": 5394,
      "tamsak": 5395,
      "ninbu": 5396,
      "kahin": 5397,
      "cinten": 5398,
      "meek": 5399,
      "Nipi": 5400,
      "Niko": 5401,
      "Rezin": 5402,
      "daihna": 5403,
      "zuatna": 5404,
      "Zebadiah": 5405,
      "Nehe": 5406,
      "Kilem": 5407,
      "Kishʼ": 5408,
      "silhsakin": 5409,
      "borah": 5410,
      "Tuikhuk": 5411,
      "cilphih": 5412,
      "hamsiatna": 5413,
      "ngaklah": 5414,
      "giahna": 5415,
      "bulsum": 5416,
      "Meshek": 5417,
      "Methusel": 5418,
      "piancil": 5419,
      "Sheb": 5420,
      "Shelo": 5421,
      "Shere": 5422,
      "puksi": 5423,
      "Peterʼ": 5424,
      "Gamlapi": 5425,
      "tuakun": 5426,
      "kithawhkiksak": 5427,
      "kingakna": 5428,
      "Big": 5429,
      "Bikh": 5430,
      "Abiezer": 5431,
      "kiasak": 5432,
      "Hiah": 5433,
      "kemte": 5434,
      "Nopna": 5435,
      "kithatin": 5436,
      "kiphuk": 5437,
      "kipakin": 5438,
      "balzan": 5439,
      "semsemin": 5440,
      "hehpihin": 5441,
      "mongah": 5442,
      "Shel": 5443,
      "Pis": 5444,
      "thongkiatna": 5445,
      "kunh": 5446,
      "omsakkik": 5447,
      "vatin": 5448,
      "Efraimʼ": 5449,
      "Arau": 5450,
      "sutin": 5451,
      "seelcip": 5452,
      "thutangte": 5453,
      "poina": 5454,
      "sintuamte": 5455,
      "mawhsaknate": 5456,
      "Maresh": 5457,
      "kilaktoh": 5458,
      "zonna": 5459,
      "Jakhin": 5460,
      "Thumanin": 5461,
      "kisehte": 5462,
      "ereth": 5463,
      "mihaiteʼ": 5464,
      "Jobab": 5465,
      "sabuaite": 5466,
      "cimawhteʼ": 5467,
      "Herodi": 5468,
      "phelin": 5469,
      "Huram": 5470,
      "Shemaiahʼ": 5471,
      "fia": 5472,
      "Simonʼ": 5473,
      "upadi": 5474,
      "naungekte": 5475,
      "Khena": 5476,
      "Tig": 5477,
      "ginalo": 5478,
      "Late": 5479,
      "zutin": 5480,
      "mialsak": 5481,
      "kiniamkoih": 5482,
      "lingkung": 5483,
      "vawhpa": 5484,
      "tuhunin": 5485,
      "sawtpi": 5486,
      "mittawte": 5487,
      "Abnerʼ": 5488,
      "Tokhom": 5489,
      "Tofeth": 5490,
      "Mawhnei": 5491,
      "velin": 5492,
      "velval": 5493,
      "kilatsak": 5494,
      "Hormah": 5495,
      "Arab": 5496,
      "kisiansuahna": 5497,
      "nawlnung": 5498,
      "Adar": 5499,
      "kikhihna": 5500,
      "kauphete": 5501,
      "Zanin": 5502,
      "kawmah": 5503,
      "luhin": 5504,
      "Deborah": 5505,
      "Salsuahna": 5506,
      "Ithamarʼ": 5507,
      "Obed": 5508,
      "daupaisak": 5509,
      "simthamin": 5510,
      "kineihkhemte": 5511,
      "Abiatharʼ": 5512,
      "Makkedah": 5513,
      "Hilkiahʼ": 5514,
      "kikholhpihte": 5515,
      "Mihonpite": 5516,
      "Muvanlai": 5517,
      "Ahasueras": 5518,
      "bengte": 5519,
      "Luz": 5520,
      "zune": 5521,
      "Shobal": 5522,
      "Milkah": 5523,
      "Jehoahazʼ": 5524,
      "Thebe": 5525,
      "Zakku": 5526,
      "Jabin": 5527,
      "Jare": 5528,
      "kikeek": 5529,
      "Obededomʼ": 5530,
      "kitangsapna": 5531,
      "Gerar": 5532,
      "Gitlohna": 5533,
      "lawpna": 5534,
      "liailiai": 5535,
      "Peleg": 5536,
      "liammate": 5537,
      "Rekhab": 5538,
      "Amminadabʼ": 5539,
      "Eliashib": 5540,
      "Guta": 5541,
      "hiʼng": 5542,
      "Menzi": 5543,
      "sulzuih": 5544,
      "lungzinna": 5545,
      "Ahitubʼ": 5546,
      "Bilhah": 5547,
      "dipkuathuai": 5548,
      "Thunuam": 5549,
      "Tabor": 5550,
      "kingaknate": 5551,
      "bilbahte": 5552,
      "netniamna": 5553,
      "Meribah": 5554,
      "Khuampi": 5555,
      "Jeush": 5556,
      "nawmvalh": 5557,
      "Bezalel": 5558,
      "Aq": 5559,
      "At": 5560,
      "Adah": 5561,
      "Akhan": 5562,
      "Bu": 5563,
      "Bawl": 5564,
      "Binn": 5565,
      "Dai": 5566,
      "Dawn": 5567,
      "Ebal": 5568,
      "Edr": 5569,
      "Fel": 5570,
      "Gah": 5571,
      "Gai": 5572,
      "Huh": 5573,
      "Hal": 5574,
      "Haro": 5575,
      "Ira": 5576,
      "Kau": 5577,
      "Ling": 5578,
      "Lum": 5579,
      "Mad": 5580,
      "Numeino": 5581,
      "Onan": 5582,
      "Othni": 5583,
      "Pak": 5584,
      "Pel": 5585,
      "Ra": 5586,
      "Sawh": 5587,
      "Tuh": 5588,
      "Tem": 5589,
      "That": 5590,
      "Urim": 5591,
      "ara": 5592,
      "bamah": 5593,
      "fon": 5594,
      "fto": 5595,
      "faia": 5596,
      "gar": 5597,
      "gawt": 5598,
      "hamna": 5599,
      "mui": 5600,
      "mopawi": 5601,
      "nui": 5602,
      "onaim": 5603,
      "tithiah": 5604,
      "ulh": 5605,
      "urim": 5606,
      "vaim": 5607,
      "zam": 5608,
      "ngamna": 5609,
      "amsak": 5610,
      "kher": 5611,
      "thuap": 5612,
      "cipna": 5613,
      "ciap": 5614,
      "kiak": 5615,
      "kibiakna": 5616,
      "kihu": 5617,
      "kisuk": 5618,
      "kising": 5619,
      "kitah": 5620,
      "kicin": 5621,
      "kilamdang": 5622,
      "kicihna": 5623,
      "kitanh": 5624,
      "kidiah": 5625,
      "kizial": 5626,
      "kithokiksak": 5627,
      "anpia": 5628,
      "ankungte": 5629,
      "pile": 5630,
      "siluang": 5631,
      "migina": 5632,
      "mimawhte": 5633,
      "hongin": 5634,
      "kar": 5635,
      "kaat": 5636,
      "thuum": 5637,
      "thutakna": 5638,
      "lomin": 5639,
      "lokhote": 5640,
      "umah": 5641,
      "mahun": 5642,
      "omcip": 5643,
      "tagah": 5644,
      "taol": 5645,
      "khatteʼ": 5646,
      "gamtakik": 5647,
      "saan": 5648,
      "khihna": 5649,
      "khikhe": 5650,
      "tuampi": 5651,
      "tukin": 5652,
      "Par": 5653,
      "paipai": 5654,
      "hihnate": 5655,
      "hiamte": 5656,
      "manmanin": 5657,
      "tuat": 5658,
      "phet": 5659,
      "lapa": 5660,
      "lasa": 5661,
      "genpih": 5662,
      "gennate": 5663,
      "genteh": 5664,
      "Jether": 5665,
      "laita": 5666,
      "laigelh": 5667,
      "nik": 5668,
      "set": 5669,
      "innlak": 5670,
      "minthangin": 5671,
      "kongcing": 5672,
      "gia": 5673,
      "uila": 5674,
      "uilut": 5675,
      "lakin": 5676,
      "kub": 5677,
      "heek": 5678,
      "galbawl": 5679,
      "sias": 5680,
      "Naamah": 5681,
      "khaguh": 5682,
      "khaphuai": 5683,
      "mawhmaisak": 5684,
      "tangtungsak": 5685,
      "khamkhop": 5686,
      "hingteʼ": 5687,
      "suakte": 5688,
      "khuttum": 5689,
      "Khut": 5690,
      "thosak": 5691,
      "meiite": 5692,
      "are": 5693,
      "arai": 5694,
      "Ahijahʼ": 5695,
      "mangsak": 5696,
      "mangmu": 5697,
      "mangpha": 5698,
      "ziau": 5699,
      "donga": 5700,
      "Jeremoth": 5701,
      "bucip": 5702,
      "bupin": 5703,
      "limtak": 5704,
      ",’”": 5705,
      "kihual": 5706,
      "taneute": 5707,
      "sawlpang": 5708,
      "nahem": 5709,
      "khakcip": 5710,
      "kinuh": 5711,
      "kinit": 5712,
      "siampipaʼ": 5713,
      "koihcing": 5714,
      "zur": 5715,
      "kipsakin": 5716,
      "hehluatna": 5717,
      "paipihsak": 5718,
      "puang": 5719,
      "neihzah": 5720,
      "ciangpi": 5721,
      "singluang": 5722,
      "singniim": 5723,
      "sausak": 5724,
      "tultul": 5725,
      "pangsak": 5726,
      "lumsak": 5727,
      "ciahsakkik": 5728,
      "sumkholna": 5729,
      "behteʼ": 5730,
      "paulap": 5731,
      "Abdon": 5732,
      "cingsak": 5733,
      "cingnu": 5734,
      "lutangin": 5735,
      "lutpih": 5736,
      "zaksakna": 5737,
      "gelhsak": 5738,
      "ciamin": 5739,
      "tehin": 5740,
      "Hele": 5741,
      "Heber": 5742,
      "tawmsak": 5743,
      "Elia": 5744,
      "guktaak": 5745,
      "Gir": 5746,
      "Gilopa": 5747,
      "tawisak": 5748,
      "thagol": 5749,
      "nini": 5750,
      "dimtakin": 5751,
      "dimdiam": 5752,
      "lelte": 5753,
      "thukkikna": 5754,
      "Peor": 5755,
      "Jehohanan": 5756,
      "gunei": 5757,
      "luahte": 5758,
      "Rehum": 5759,
      "Asaiah": 5760,
      "boa": 5761,
      "Baash": 5762,
      "deihnate": 5763,
      "zineute": 5764,
      "Menahem": 5765,
      "pianpih": 5766,
      "Galsim": 5767,
      "Shemi": 5768,
      "thahatpa": 5769,
      "makaiteʼ": 5770,
      "Zibe": 5771,
      "zawngin": 5772,
      "kantel": 5773,
      "zuauna": 5774,
      "pukna": 5775,
      "kikalh": 5776,
      "Gamal": 5777,
      "Gamsate": 5778,
      "Lunghimawh": 5779,
      "Hara": 5780,
      "phiah": 5781,
      "siamteʼ": 5782,
      "thalte": 5783,
      "silla": 5784,
      "iks": 5785,
      "khahin": 5786,
      "kiphah": 5787,
      "khansih": 5788,
      "upmawh": 5789,
      "Sharon": 5790,
      "Efron": 5791,
      "Shishak": 5792,
      "kidop": 5793,
      "phakik": 5794,
      "Maang": 5795,
      "Maon": 5796,
      "Arkhi": 5797,
      "guaktang": 5798,
      "heisak": 5799,
      "guahpi": 5800,
      "siamnate": 5801,
      "kalin": 5802,
      "kiimnai": 5803,
      "thehin": 5804,
      "kikhenthang": 5805,
      "Keel": 5806,
      "zonzon": 5807,
      "sapfaia": 5808,
      "nungakna": 5809,
      "kikoihna": 5810,
      "Hamʼ": 5811,
      "Hamor": 5812,
      "teipite": 5813,
      "letsongin": 5814,
      "Kuaʼ": 5815,
      "kinusiacip": 5816,
      "kigawh": 5817,
      "pelhem": 5818,
      "kihhuaite": 5819,
      "gakin": 5820,
      "Khebar": 5821,
      "Khereth": 5822,
      "zungkha": 5823,
      "golpi": 5824,
      "Zedekiahʼ": 5825,
      "Shafat": 5826,
      "vawhin": 5827,
      "suahtaksak": 5828,
      "kithehthangin": 5829,
      "pialin": 5830,
      "khualzinin": 5831,
      "kizasak": 5832,
      "Khatlekhat": 5833,
      "Rehob": 5834,
      "liangkaih": 5835,
      "Tola": 5836,
      "Mattithiah": 5837,
      "haksapi": 5838,
      "kilawi": 5839,
      "Gilboa": 5840,
      "gilkialna": 5841,
      "Horonaim": 5842,
      "kithehthangsak": 5843,
      "kisiansak": 5844,
      "Karmi": 5845,
      "phunsan": 5846,
      "lunghimawhin": 5847,
      "kiniamkhiatte": 5848,
      "pelmawh": 5849,
      "Sunin": 5850,
      "vutte": 5851,
      "thuciamte": 5852,
      "Haggi": 5853,
      "Shimeiʼ": 5854,
      "Sairasʼ": 5855,
      "Thadah": 5856,
      "mettol": 5857,
      "Perezʼ": 5858,
      "Akkub": 5859,
      "phiasak": 5860,
      "tuihual": 5861,
      "pungin": 5862,
      "Azri": 5863,
      "khengakna": 5864,
      "nawhsa": 5865,
      "Belshazzar": 5866,
      "Belteshazzar": 5867,
      "Vasa": 5868,
      "Sisarʼ": 5869,
      "Sefar": 5870,
      "Shammah": 5871,
      "kipelhsak": 5872,
      "Maakath": 5873,
      "mittangte": 5874,
      "kihisakte": 5875,
      "Efrath": 5876,
      "Penuel": 5877,
      "cimtak": 5878,
      "Zikri": 5879,
      "balnenin": 5880,
      "Tangvalte": 5881,
      "Eshtaol": 5882,
      "pataukohna": 5883,
      "tuucingpa": 5884,
      "Lud": 5885,
      "galvilte": 5886,
      "Huihpi": 5887,
      "Nabalʼ": 5888,
      "Ammihudʼ": 5889,
      "Nabothʼ": 5890,
      "Malkhijah": 5891,
      "vokte": 5892,
      "Zabdi": 5893,
      "Zabad": 5894,
      "Ahithofelʼ": 5895,
      "ngongtatte": 5896,
      "maingatin": 5897,
      "Lyst": 5898,
      "Oholibamah": 5899,
      "Buktual": 5900,
      "kuahawm": 5901,
      "Peleth": 5902,
      "puteekte": 5903,
      "Rekhabʼ": 5904,
      "Thungaihsun": 5905,
      "Eliashibʼ": 5906,
      "anpalte": 5907,
      "Ittai": 5908,
      "Hehpihna": 5909,
      "Ngaihno": 5910,
      "nelkaite": 5911,
      "Jeduthunʼ": 5912,
      "suplawh": 5913,
      "musane": 5914,
      "Hoshea": 5915,
      "Troas": 5916,
      "kiuhkeuh": 5917,
      "mainawt": 5918,
      "Khemosh": 5919,
      "Iskariotʼ": 5920,
      "Afek": 5921,
      "hitaseleh": 5922,
      "zadakʼ": 5923,
      "meimatum": 5924,
      "Mahalalel": 5925,
      "mulkimhuai": 5926,
      "Bozrah": 5927,
      "Krete": 5928,
      "kiliatsakna": 5929,
      "Kadmiel": 5930,
      "zulhzau": 5931,
      "Shelomith": 5932,
      "Sherebiah": 5933,
      "Bikhriʼ": 5934,
      "Pisgah": 5935,
      "Mareshah": 5936,
      "Tiglath": 5937,
      "Zakkur": 5938,
      "Aquila": 5939,
      "Binnui": 5940,
      "Edrei": 5941,
      "Feliks": 5942,
      "Gaias": 5943,
      "Paknamtui": 5944,
      "Tuhunin": 5945,
      "pileser": 5946,
      "kinitsak": 5947,
      "Baashaʼ": 5948,
      "Lystra": 5949,
      ");": 5950,
      ".”": 5951,
      "Anah": 5952,
      "Aba": 5953,
      "Aris": 5954,
      "Azel": 5955,
      "Ahin": 5956,
      "Adaiah": 5957,
      "Athen": 5958,
      "Bah": 5959,
      "Dor": 5960,
      "Delaiah": 5961,
      "Ezi": 5962,
      "Elon": 5963,
      "Gab": 5964,
      "Gol": 5965,
      "Hab": 5966,
      "Jamin": 5967,
      "Jash": 5968,
      "Kuan": 5969,
      "Nihna": 5970,
      "Ore": 5971,
      "Pri": 5972,
      "Pekah": 5973,
      "Tom": 5974,
      "Thang": 5975,
      "Tap": 5976,
      "Unau": 5977,
      "Zare": 5978,
      "anak": 5979,
      "bawm": 5980,
      "fo": 5981,
      "glah": 5982,
      "gash": 5983,
      "huk": 5984,
      "hamin": 5985,
      "kui": 5986,
      "katna": 5987,
      "oenai": 5988,
      "psak": 5989,
      "pkhiat": 5990,
      "porʼ": 5991,
      "rin": 5992,
      "saute": 5993,
      "tama": 5994,
      "ug": 5995,
      "ya": 5996,
      "zei": 5997,
      "zomin": 5998,
      "nath": 5999,
      "nautang": 6000,
      "amʼ": 6001,
      "papi": 6002,
      "pata": 6003,
      "thek": 6004,
      "cile": 6005,
      "ciim": 6006,
      "aksak": 6007,
      "kile": 6008,
      "kikhu": 6009,
      "kisuang": 6010,
      "kilah": 6011,
      "kitheihna": 6012,
      "kihilhna": 6013,
      "kihotkhiat": 6014,
      "kituiphum": 6015,
      "kisuksiatsak": 6016,
      "kivuina": 6017,
      "ansal": 6018,
      "anteh": 6019,
      "anlom": 6020,
      "pim": 6021,
      "atsak": 6022,
      "misia": 6023,
      "mimawh": 6024,
      "kath": 6025,
      "thuneihna": 6026,
      "thuvanpi": 6027,
      "lop": 6028,
      "losak": 6029,
      "lokhawhna": 6030,
      "tungte": 6031,
      "pelhna": 6032,
      "penaz": 6033,
      "omom": 6034,
      "khatkhatin": 6035,
      "panhe": 6036,
      "takun": 6037,
      "suam": 6038,
      "sukhamin": 6039,
      "liangin": 6040,
      "lisia": 6041,
      "liik": 6042,
      "manthan": 6043,
      "phelh": 6044,
      "madawk": 6045,
      "bangzia": 6046,
      "bim": 6047,
      "sea": 6048,
      "seng": 6049,
      "lamkikin": 6050,
      "lamdung": 6051,
      "innteek": 6052,
      "neiteʼ": 6053,
      "minsiasak": 6054,
      "Isshi": 6055,
      "lungmuan": 6056,
      "kikan": 6057,
      "muth": 6058,
      "muangte": 6059,
      "maiʼ": 6060,
      "maiman": 6061,
      "maitai": 6062,
      "theihsak": 6063,
      "kuumpi": 6064,
      "lianpa": 6065,
      "Bangmahin": 6066,
      "sawmin": 6067,
      "sangkil": 6068,
      "Misha": 6069,
      "vilah": 6070,
      "tangtakin": 6071,
      "husia": 6072,
      "hoihnate": 6073,
      "nete": 6074,
      "khutpi": 6075,
      "Khinn": 6076,
      "honin": 6077,
      "pawn": 6078,
      "lusu": 6079,
      "tokik": 6080,
      "tonu": 6081,
      "Siah": 6082,
      "Silisia": 6083,
      "kamkei": 6084,
      "bekahʼ": 6085,
      "muhsak": 6086,
      "munmuanhuai": 6087,
      "tanʼ": 6088,
      "dokin": 6089,
      "Tul": 6090,
      "Tulak": 6091,
      "damdam": 6092,
      "damsakin": 6093,
      "thuakpih": 6094,
      "deipi": 6095,
      "samzang": 6096,
      "sunkim": 6097,
      "kimte": 6098,
      "kimet": 6099,
      "kimuanna": 6100,
      "baangte": 6101,
      "etsak": 6102,
      "hilhkholh": 6103,
      "Egyptʼ": 6104,
      "tumpih": 6105,
      "haza": 6106,
      "hagawi": 6107,
      "ciangkang": 6108,
      "suangphah": 6109,
      "sanggamnuʼ": 6110,
      "mualzang": 6111,
      "bukte": 6112,
      "gawpte": 6113,
      "halsak": 6114,
      "sumlei": 6115,
      "vangliante": 6116,
      "pakante": 6117,
      "thaneih": 6118,
      "leitangte": 6119,
      "vakin": 6120,
      "vakna": 6121,
      "phatkik": 6122,
      "zeel": 6123,
      "zebul": 6124,
      "lahtel": 6125,
      "henin": 6126,
      "huhte": 6127,
      "lawmnu": 6128,
      "zaneite": 6129,
      "deihgawh": 6130,
      "deda": 6131,
      "thangling": 6132,
      "mitsak": 6133,
      "kibawlte": 6134,
      "Hena": 6135,
      "tawmte": 6136,
      "thaukhal": 6137,
      "Elioenai": 6138,
      "naubu": 6139,
      "Gib": 6140,
      "tamia": 6141,
      "kawikawina": 6142,
      "namtuite": 6143,
      "cinat": 6144,
      "taktakte": 6145,
      "dimletin": 6146,
      "leenggahkeu": 6147,
      "puakna": 6148,
      "thampek": 6149,
      "nopte": 6150,
      "tatkik": 6151,
      "tatkhiat": 6152,
      "tatsat": 6153,
      "vangliatnate": 6154,
      "Taanak": 6155,
      "Reu": 6156,
      "Rebekahʼ": 6157,
      "zuaut": 6158,
      "Zebo": 6159,
      "hawmpi": 6160,
      "hawmsuak": 6161,
      "Kialpi": 6162,
      "banna": 6163,
      "baniah": 6164,
      "Basem": 6165,
      "Tuiciin": 6166,
      "pilsak": 6167,
      "ngaknate": 6168,
      "ziazua": 6169,
      "zineipa": 6170,
      "Meso": 6171,
      "Meshe": 6172,
      "kizal": 6173,
      "kizelh": 6174,
      "kigelhin": 6175,
      "Bethsai": 6176,
      "lawhta": 6177,
      "Galteʼ": 6178,
      "Galati": 6179,
      "Shebaniah": 6180,
      "tuanna": 6181,
      "kansim": 6182,
      "ngaihsutte": 6183,
      "Singkung": 6184,
      "Hazer": 6185,
      "Havilah": 6186,
      "Anlak": 6187,
      "Annek": 6188,
      "Mualte": 6189,
      "tuahna": 6190,
      "kingai": 6191,
      "siampa": 6192,
      "dikdek": 6193,
      "naupangteʼ": 6194,
      "lomtang": 6195,
      "kiphuh": 6196,
      "kiphatna": 6197,
      "lawnna": 6198,
      "gega": 6199,
      "geber": 6200,
      "upmawhna": 6201,
      "bilte": 6202,
      "keelte": 6203,
      "Efronʼ": 6204,
      "tecite": 6205,
      "Danielʼ": 6206,
      "keucip": 6207,
      "Gedor": 6208,
      "Shil": 6209,
      "Shit": 6210,
      "phakna": 6211,
      "damsakkik": 6212,
      "tenpihna": 6213,
      "sutsak": 6214,
      "kalte": 6215,
      "mangngilhin": 6216,
      "thuahthuah": 6217,
      "Meikuang": 6218,
      "gikpi": 6219,
      "kangtumin": 6220,
      "posak": 6221,
      "potamia": 6222,
      "meivakna": 6223,
      "gitlohnate": 6224,
      "hausak": 6225,
      "phuakin": 6226,
      "tuksak": 6227,
      "nilhin": 6228,
      "datha": 6229,
      "kisiasak": 6230,
      "khuadakin": 6231,
      "sawnsawn": 6232,
      "kidem": 6233,
      "kidawk": 6234,
      "dialkaih": 6235,
      "kisialin": 6236,
      "Hurʼ": 6237,
      "kigawi": 6238,
      "kigengen": 6239,
      "Shemʼ": 6240,
      "sitset": 6241,
      "fis": 6242,
      "themno": 6243,
      "phutin": 6244,
      "gaknate": 6245,
      "Tishbe": 6246,
      "zungte": 6247,
      "Laodi": 6248,
      "kolte": 6249,
      "shiʼ": 6250,
      "Ashpenaz": 6251,
      "kheelkik": 6252,
      "nawksak": 6253,
      "Jeremiahʼ": 6254,
      "tuhin": 6255,
      "tuuhon": 6256,
      "Hori": 6257,
      "Hosea": 6258,
      "phiatin": 6259,
      "Sarahʼ": 6260,
      "mutkhiat": 6261,
      "nuihsat": 6262,
      "sahna": 6263,
      "gialte": 6264,
      "kihona": 6265,
      "Hananel": 6266,
      "ukpipa": 6267,
      "kilatkik": 6268,
      "gilkialte": 6269,
      "khongin": 6270,
      "khongkhai": 6271,
      "kiseelna": 6272,
      "zalzal": 6273,
      "rimmon": 6274,
      "Hanok": 6275,
      "tonkhawm": 6276,
      "mihonpiteʼ": 6277,
      "siangthoteʼ": 6278,
      "hithiatin": 6279,
      "Filippi": 6280,
      "Ahazʼ": 6281,
      "Sairin": 6282,
      "Akb": 6283,
      "Zoan": 6284,
      "kawcik": 6285,
      "kawbiate": 6286,
      "kizemin": 6287,
      "kiphawkna": 6288,
      "khanghamte": 6289,
      "Mihoihteʼ": 6290,
      "kigawmin": 6291,
      "buannawng": 6292,
      "sialin": 6293,
      "Nulepa": 6294,
      "Salmon": 6295,
      "Azekah": 6296,
      "Jahath": 6297,
      "Jahaz": 6298,
      "Manlang": 6299,
      "Manlangin": 6300,
      "Joramʼ": 6301,
      "bualtui": 6302,
      "Vasate": 6303,
      "Dishon": 6304,
      "Seba": 6305,
      "Serug": 6306,
      "gamdaihna": 6307,
      "Baanah": 6308,
      "Libni": 6309,
      "Libya": 6310,
      "Nasemte": 6311,
      "Jothamʼ": 6312,
      "Tahpanhe": 6313,
      "Beelzebul": 6314,
      "Jezebelʼ": 6315,
      "kuaitanin": 6316,
      "Jabbok": 6317,
      "Jarmuth": 6318,
      "Anakʼ": 6319,
      "Berea": 6320,
      "nilkhiat": 6321,
      "hehnep": 6322,
      "mawlpih": 6323,
      "Thahat": 6324,
      "Elahʼ": 6325,
      "thulamlakte": 6326,
      "Shimron": 6327,
      "milipun": 6328,
      "Ariok": 6329,
      "naptui": 6330,
      "Jair": 6331,
      "Ofrah": 6332,
      "Zefaniah": 6333,
      "Zilpah": 6334,
      "Zelofehadʼ": 6335,
      "Dinah": 6336,
      "Bethaven": 6337,
      "Zebediʼ": 6338,
      "Elnathan": 6339,
      "Memfis": 6340,
      "Zipporʼ": 6341,
      "Shekaniah": 6342,
      "kidenglum": 6343,
      "168": 6344,
      "Kaiafas": 6345,
      "Elifelet": 6346,
      "Nehemiah": 6347,
      "Araunah": 6348,
      "Kauphe": 6349,
      "Girgash": 6350,
      "Sefarvaim": 6351,
      "Ahinoam": 6352,
      "Bahurim": 6353,
      "Ezion": 6354,
      "Oreb": 6355,
      "Prisilla": 6356,
      "Tappuah": 6357,
      "cilesa": 6358,
      "Zeboiim": 6359,
      "Mesopotamia": 6360,
      "Bethsaida": 6361,
      "Laodisia": 6362,
      "Tahpanhes": 6363,
      "42": 6364,
      "84": 6365,
      "Ain": 6366,
      "Azar": 6367,
      "Ataroth": 6368,
      "Anahʼ": 6369,
      "Bak": 6370,
      "Dem": 6371,
      "Deli": 6372,
      "Eb": 6373,
      "Epa": 6374,
      "Enge": 6375,
      "Etam": 6376,
      "Fo": 6377,
      "Gem": 6378,
      "Gih": 6379,
      "Hang": 6380,
      "Hau": 6381,
      "Ih": 6382,
      "Iko": 6383,
      "Jan": 6384,
      "Jad": 6385,
      "Kim": 6386,
      "Kit": 6387,
      "Kini": 6388,
      "Lui": 6389,
      "Lutang": 6390,
      "Mopawi": 6391,
      "Nin": 6392,
      "Nob": 6393,
      "Pek": 6394,
      "Pon": 6395,
      "Shur": 6396,
      "Tai": 6397,
      "Tawi": 6398,
      "Ter": 6399,
      "Uriahʼ": 6400,
      "Vok": 6401,
      "Zah": 6402,
      "Zawh": 6403,
      "alo": 6404,
      "avah": 6405,
      "bakte": 6406,
      "dari": 6407,
      "elek": 6408,
      "fath": 6409,
      "guat": 6410,
      "helh": 6411,
      "hualte": 6412,
      "iamte": 6413,
      "kon": 6414,
      "lal": 6415,
      "matna": 6416,
      "muai": 6417,
      "olh": 6418,
      "psakna": 6419,
      "sot": 6420,
      "suat": 6421,
      "tomin": 6422,
      "ud": 6423,
      "us": 6424,
      "nasiasak": 6425,
      "amtak": 6426,
      "pakin": 6427,
      "uhau": 6428,
      "ingei": 6429,
      "cit": 6430,
      "kizong": 6431,
      "kipna": 6432,
      "kiute": 6433,
      "kigu": 6434,
      "kizuih": 6435,
      "kidik": 6436,
      "kihopih": 6437,
      "kimudah": 6438,
      "kikumin": 6439,
      "kiguan": 6440,
      "kitom": 6441,
      "kivel": 6442,
      "kitawphah": 6443,
      "ansi": 6444,
      "ansang": 6445,
      "ankam": 6446,
      "anlate": 6447,
      "lepai": 6448,
      "lesuang": 6449,
      "leteh": 6450,
      "siin": 6451,
      "sisa": 6452,
      "sibup": 6453,
      "siakik": 6454,
      "atawm": 6455,
      "atti": 6456,
      "atiah": 6457,
      "mil": 6458,
      "mipi": 6459,
      "mitna": 6460,
      "ensak": 6461,
      "ensim": 6462,
      "thupuak": 6463,
      "thuneite": 6464,
      "ail": 6465,
      "aioth": 6466,
      "lome": 6467,
      "umna": 6468,
      "pelah": 6469,
      "peor": 6470,
      "ald": 6471,
      "alam": 6472,
      "ihail": 6473,
      "omkim": 6474,
      "tawhtang": 6475,
      "sas": 6476,
      "khip": 6477,
      "khihin": 6478,
      "tur": 6479,
      "tule": 6480,
      "tuuk": 6481,
      "khemte": 6482,
      "Paro": 6483,
      "pano": 6484,
      "theikungte": 6485,
      "theithek": 6486,
      "sutna": 6487,
      "sutan": 6488,
      "sucip": 6489,
      "lia": 6490,
      "liau": 6491,
      "mansuah": 6492,
      "manphatna": 6493,
      "phai": 6494,
      "pheh": 6495,
      "mapai": 6496,
      "masakna": 6497,
      "maban": 6498,
      "genthei": 6499,
      "genthang": 6500,
      "bangbangun": 6501,
      "Jedia": 6502,
      "kumte": 6503,
      "nium": 6504,
      "innlamte": 6505,
      "neikik": 6506,
      "bawlbawl": 6507,
      "mina": 6508,
      "minthuhna": 6509,
      "piate": 6510,
      "leilesuang": 6511,
      "kikawm": 6512,
      "maipuk": 6513,
      "maimom": 6514,
      "simun": 6515,
      "simsiam": 6516,
      "engte": 6517,
      "kuum": 6518,
      "tuisia": 6519,
      "tuipite": 6520,
      "tuibeem": 6521,
      "zaam": 6522,
      "galah": 6523,
      "galdaihna": 6524,
      "awngkek": 6525,
      "khas": 6526,
      "Mib": 6527,
      "viah": 6528,
      "shar": 6529,
      "tangun": 6530,
      "tangtawng": 6531,
      "Kafto": 6532,
      "zop": 6533,
      "hingte": 6534,
      "khuapiʼ": 6535,
      "khuapiteʼ": 6536,
      "honteʼ": 6537,
      "nungzang": 6538,
      "nungtate": 6539,
      "nungkiksak": 6540,
      "nungngatin": 6541,
      "nungdalte": 6542,
      "vanvan": 6543,
      "meisuang": 6544,
      "luangin": 6545,
      "inar": 6546,
      "thumong": 6547,
      "Ahio": 6548,
      "Ahiezer": 6549,
      "top": 6550,
      "zib": 6551,
      "Sisan": 6552,
      "kamsiatna": 6553,
      "kamkaih": 6554,
      "dongsak": 6555,
      "dis": 6556,
      "ngahmun": 6557,
      "puanza": 6558,
      "muhnop": 6559,
      "muhthadah": 6560,
      "pawlteʼ": 6561,
      "zahpihna": 6562,
      "limna": 6563,
      "kiha": 6564,
      "kihuan": 6565,
      "kihut": 6566,
      "kihuhna": 6567,
      "minamkimte": 6568,
      "khup": 6569,
      "khuah": 6570,
      "khute": 6571,
      "dol": 6572,
      "doram": 6573,
      "gimpih": 6574,
      "nuamtuam": 6575,
      "namdang": 6576,
      "khoh": 6577,
      "suankhiat": 6578,
      "damdamin": 6579,
      "kinung": 6580,
      "kinek": 6581,
      "taisim": 6582,
      "samsakin": 6583,
      "khenuai": 6584,
      "khenkhenin": 6585,
      "zukhamin": 6586,
      "kapkap": 6587,
      "kipu": 6588,
      "kipum": 6589,
      "hehsa": 6590,
      "hehsakna": 6591,
      "hilhsak": 6592,
      "kuankuan": 6593,
      "saltang": 6594,
      "sepkhiat": 6595,
      "Thupha": 6596,
      "Thuhilhna": 6597,
      "neihte": 6598,
      "suangkang": 6599,
      "singgahte": 6600,
      "panga": 6601,
      "kibangsak": 6602,
      "sehsak": 6603,
      "sumzuakna": 6604,
      "gancingte": 6605,
      "vangsak": 6606,
      "pakpalh": 6607,
      "thante": 6608,
      "Abihail": 6609,
      "siangthosakin": 6610,
      "satvui": 6611,
      "cingteʼ": 6612,
      "adan": 6613,
      "lutkik": 6614,
      "khep": 6615,
      "khepi": 6616,
      "phatuam": 6617,
      "khanglam": 6618,
      "khangkhawm": 6619,
      "khanglui": 6620,
      "zeh": 6621,
      "zanga": 6622,
      "Bebai": 6623,
      "puate": 6624,
      "ngaihna": 6625,
      "pasalteʼ": 6626,
      "omnasa": 6627,
      "gamtatin": 6628,
      "ngeekte": 6629,
      "kungno": 6630,
      "guangin": 6631,
      "mitsuan": 6632,
      "neksak": 6633,
      "kibawlsia": 6634,
      "Gid": 6635,
      "geivial": 6636,
      "tawitehna": 6637,
      "Leivui": 6638,
      "ninin": 6639,
      "ninthem": 6640,
      "apte": 6641,
      "kisatna": 6642,
      "innkuankuan": 6643,
      "anan": 6644,
      "siklen": 6645,
      "thukhamʼ": 6646,
      "puakte": 6647,
      "noptuam": 6648,
      "tatkhialhna": 6649,
      "lamdangsakna": 6650,
      "thukte": 6651,
      "Taamtak": 6652,
      "Peem": 6653,
      "Pedah": 6654,
      "meetin": 6655,
      "telin": 6656,
      "telsak": 6657,
      "gunva": 6658,
      "makna": 6659,
      "Reuelʼ": 6660,
      "tanuteʼ": 6661,
      "Zeeb": 6662,
      "siangsakin": 6663,
      "Nebai": 6664,
      "zumna": 6665,
      "Kib": 6666,
      "Kishon": 6667,
      "bawngtalteʼ": 6668,
      "letkhiat": 6669,
      "khatpeuhʼ": 6670,
      "bulkip": 6671,
      "zinte": 6672,
      "kizat": 6673,
      "thukhenteʼ": 6674,
      "zawngte": 6675,
      "khawlcip": 6676,
      "kiheikhiat": 6677,
      "puksisak": 6678,
      "lungkhamnate": 6679,
      "domte": 6680,
      "lianpipite": 6681,
      "Hauhna": 6682,
      "kilangkik": 6683,
      "tuaksak": 6684,
      "khauhsakin": 6685,
      "Abib": 6686,
      "Abij": 6687,
      "paisuaksak": 6688,
      "kisamsia": 6689,
      "natnate": 6690,
      "khahkhiat": 6691,
      "kiphu": 6692,
      "nialna": 6693,
      "kultal": 6694,
      "moab": 6695,
      "mongte": 6696,
      "Shinar": 6697,
      "thungenin": 6698,
      "Pil": 6699,
      "Pirath": 6700,
      "Mihau": 6701,
      "Koʼ": 6702,
      "bilteep": 6703,
      "dotsak": 6704,
      "mudahteʼ": 6705,
      "golna": 6706,
      "tuamtuamin": 6707,
      "phatnate": 6708,
      "buhcilna": 6709,
      "vatawt": 6710,
      "delhte": 6711,
      "tangvalteʼ": 6712,
      "Biakpiakna": 6713,
      "res": 6714,
      "Kongkhak": 6715,
      "gamgite": 6716,
      "Arte": 6717,
      "Arpa": 6718,
      "thamanin": 6719,
      "seekin": 6720,
      "kisilna": 6721,
      "guahzu": 6722,
      "hinkikna": 6723,
      "thuahin": 6724,
      "sosak": 6725,
      "shean": 6726,
      "Meikhuk": 6727,
      "Thummim": 6728,
      "ompihin": 6729,
      "kangcip": 6730,
      "sinna": 6731,
      "zuakin": 6732,
      "zuakte": 6733,
      "hausakkik": 6734,
      "mawhsakte": 6735,
      "kikhensak": 6736,
      "phukham": 6737,
      "huanin": 6738,
      "zonsak": 6739,
      "cikze": 6740,
      "Javan": 6741,
      "Hamorʼ": 6742,
      "dinkik": 6743,
      "nilhsak": 6744,
      "ered": 6745,
      "Innlamte": 6746,
      "huihpiʼ": 6747,
      "kihalna": 6748,
      "niamsak": 6749,
      "belte": 6750,
      "geelnate": 6751,
      "geelgeel": 6752,
      "kisikna": 6753,
      "kineihin": 6754,
      "kaihkhiat": 6755,
      "dunga": 6756,
      "khialhsak": 6757,
      "kilaak": 6758,
      "Hushah": 6759,
      "Shema": 6760,
      "themthum": 6761,
      "Gunkuang": 6762,
      "gakcip": 6763,
      "nenniamna": 6764,
      "zungzung": 6765,
      "zunglot": 6766,
      "khawhlawh": 6767,
      "Lauh": 6768,
      "golin": 6769,
      "laplap": 6770,
      "Jerimoth": 6771,
      "ciamtehin": 6772,
      "mialin": 6773,
      "tuikhukte": 6774,
      "Biakinnpi": 6775,
      "Shaal": 6776,
      "kheelsak": 6777,
      "pialsak": 6778,
      "Hof": 6779,
      "Hodiah": 6780,
      "phiatsak": 6781,
      "mulkiatna": 6782,
      "Sardis": 6783,
      "Abimelekʼ": 6784,
      "Lokhote": 6785,
      "Nahorʼ": 6786,
      "Mawhneite": 6787,
      "Zerahʼ": 6788,
      "khingin": 6789,
      "Matthai": 6790,
      "kiluh": 6791,
      "bawlsiateʼ": 6792,
      "Gilkial": 6793,
      "kikhawlin": 6794,
      "Lamdang": 6795,
      "Eima": 6796,
      "thehthangna": 6797,
      "selkeu": 6798,
      "kisiansuahin": 6799,
      "kipiakik": 6800,
      "Naioth": 6801,
      "taangkona": 6802,
      "Sagih": 6803,
      "phunna": 6804,
      "Rehoboamʼ": 6805,
      "phukin": 6806,
      "lungkiasak": 6807,
      "vutluahna": 6808,
      "nehcip": 6809,
      "gamhluahna": 6810,
      "kikhihin": 6811,
      "Sumngo": 6812,
      "Ciang": 6813,
      "Goli": 6814,
      "Thakhauh": 6815,
      "kikhumcip": 6816,
      "Kiriathaim": 6817,
      "Khristiante": 6818,
      "Nungzui": 6819,
      "thuhoihte": 6820,
      "Hananiahʼ": 6821,
      "Omriʼ": 6822,
      "kisuzan": 6823,
      "kisumit": 6824,
      "kipakta": 6825,
      "Mipilteʼ": 6826,
      "pampaih": 6827,
      "lungnuamsak": 6828,
      "Nupi": 6829,
      "meimate": 6830,
      "Jaha": 6831,
      "khengvalin": 6832,
      "phalvak": 6833,
      "nengniamteʼ": 6834,
      "khedapte": 6835,
      "hauhnate": 6836,
      "hauhlawh": 6837,
      "Gedaliahʼ": 6838,
      "Gomer": 6839,
      "Makaite": 6840,
      "Makpelah": 6841,
      "khawngah": 6842,
      "kumpinuʼ": 6843,
      "bethon": 6844,
      "zukhamna": 6845,
      "ginna": 6846,
      "ginat": 6847,
      "nelhin": 6848,
      "khekna": 6849,
      "Boazʼ": 6850,
      "Enosh": 6851,
      "venvan": 6852,
      "nawtin": 6853,
      "khutmete": 6854,
      "kipuaseh": 6855,
      "Tahath": 6856,
      "bengin": 6857,
      "kiphelkhamin": 6858,
      "Eshte": 6859,
      "Eshkol": 6860,
      "Hakko": 6861,
      "Abishaiʼ": 6862,
      "Zeruiah": 6863,
      "Immer": 6864,
      "hiathiat": 6865,
      "luzepnate": 6866,
      "thaneemna": 6867,
      "Hiramʼ": 6868,
      "kimatsak": 6869,
      "Paunak": 6870,
      "khuisatna": 6871,
      "Millo": 6872,
      "Milkom": 6873,
      "Maaseiahʼ": 6874,
      "Hezronʼ": 6875,
      "Mailam": 6876,
      "Meremoth": 6877,
      "Meraioth": 6878,
      "Ogʼ": 6879,
      "Zuauna": 6880,
      "nitsak": 6881,
      "hanthot": 6882,
      "siahdongpa": 6883,
      "Hell": 6884,
      "kelkel": 6885,
      "kisansak": 6886,
      "kiciangtan": 6887,
      "Oholibah": 6888,
      "numeinoʼ": 6889,
      "Gershomʼ": 6890,
      "khamvalte": 6891,
      "Saraiʼ": 6892,
      "Shuah": 6893,
      "etet": 6894,
      "Elishamaʼ": 6895,
      "Itluat": 6896,
      "Pallu": 6897,
      "ngimnate": 6898,
      "Ishboshethʼ": 6899,
      "Ornan": 6900,
      "Lamekʼ": 6901,
      "Jerubbaalʼ": 6902,
      "Elimelek": 6903,
      "Iddoʼ": 6904,
      "thongkiate": 6905,
      "Bethuelʼ": 6906,
      "Pahath": 6907,
      "Migdol": 6908,
      "kinengniam": 6909,
      "gulhgawng": 6910,
      "Berekhiah": 6911,
      "Ebedmelek": 6912,
      "Jerahmeel": 6913,
      "Shealtielʼ": 6914,
      "Alexander": 6915,
      "kipiatawm": 6916,
      "Siampa": 6917,
      "Bigvai": 6918,
      "Herodias": 6919,
      "Thebes": 6920,
      "tuampian": 6921,
      "Eliasaf": 6922,
      "guktaakna": 6923,
      "thagolteʼ": 6924,
      "Maangmuhna": 6925,
      "Azrikam": 6926,
      "Tomno": 6927,
      "kilemin": 6928,
      "Mishael": 6929,
      "Gibbethon": 6930,
      "Hazeroth": 6931,
      "Azarel": 6932,
      "Delilah": 6933,
      "Engedi": 6934,
      "Gihon": 6935,
      "Ikonium": 6936,
      "Kiniam": 6937,
      "darik": 6938,
      "Kaftor": 6939,
      "Pirathon": 6940,
      "34": 6941,
      "Av": 6942,
      "Akho": 6943,
      "Ater": 6944,
      "Buh": 6945,
      "Cing": 6946,
      "Cina": 6947,
      "Der": 6948,
      "Dik": 6949,
      "Elo": 6950,
      "Ekanah": 6951,
      "Elath": 6952,
      "Eder": 6953,
      "Enanʼ": 6954,
      "Hem": 6955,
      "Hattu": 6956,
      "Ital": 6957,
      "Kala": 6958,
      "Let": 6959,
      "Ngia": 6960,
      "Ok": 6961,
      "On": 6962,
      "One": 6963,
      "Ono": 6964,
      "Pam": 6965,
      "Pat": 6966,
      "Pih": 6967,
      "Phu": 6968,
      "Phal": 6969,
      "Phatna": 6970,
      "Poti": 6971,
      "Rek": 6972,
      "Taw": 6973,
      "Tei": 6974,
      "Tung": 6975,
      "Tawm": 6976,
      "Tob": 6977,
      "Um": 6978,
      "Ur": 6979,
      "Uriʼ": 6980,
      "Zua": 6981,
      "Zattu": 6982,
      "af": 6983,
      "aang": 6984,
      "bun": 6985,
      "bui": 6986,
      "dua": 6987,
      "duhna": 6988,
      "eg": 6989,
      "eʼ": 6990,
      "eses": 6991,
      "epel": 6992,
      "fam": 6993,
      "gerah": 6994,
      "jas": 6995,
      "jes": 6996,
      "kangin": 6997,
      "ken": 6998,
      "luai": 6999,
      "mdal": 7000,
      "mukte": 7001,
      "ninn": 7002,
      "odak": 7003,
      "pote": 7004,
      "pina": 7005,
      "ranʼ": 7006,
      "rkhas": 7007,
      "uʼ": 7008,
      "uang": 7009,
      "vuak": 7010,
      "zaih": 7011,
      "zze": 7012,
      "ngal": 7013,
      "ngol": 7014,
      "ngingei": 7015,
      "hikik": 7016,
      "naina": 7017,
      "angsung": 7018,
      "telh": 7019,
      "pas": 7020,
      "papite": 7021,
      "thaim": 7022,
      "thelah": 7023,
      "cici": 7024,
      "ciak": 7025,
      "cisa": 7026,
      "akikin": 7027,
      "kimai": 7028,
      "kikhiat": 7029,
      "kibeh": 7030,
      "kidawng": 7031,
      "kisate": 7032,
      "kithuhilh": 7033,
      "kisuksiat": 7034,
      "kisimna": 7035,
      "kikhawh": 7036,
      "kithuaksak": 7037,
      "kisuksiatna": 7038,
      "kisehna": 7039,
      "kicinna": 7040,
      "kibatna": 7041,
      "ankuang": 7042,
      "ankan": 7043,
      "anlimte": 7044,
      "pik": 7045,
      "piciang": 7046,
      "leam": 7047,
      "lekah": 7048,
      "siak": 7049,
      "mis": 7050,
      "miphate": 7051,
      "kaangin": 7052,
      "thul": 7053,
      "thuzuau": 7054,
      "thuneu": 7055,
      "thuthukpi": 7056,
      "thutanna": 7057,
      "air": 7058,
      "aituam": 7059,
      "unim": 7060,
      "losap": 7061,
      "umsak": 7062,
      "umgui": 7063,
      "emer": 7064,
      "saki": 7065,
      "saklam": 7066,
      "alte": 7067,
      "keising": 7068,
      "ihmutna": 7069,
      "omzah": 7070,
      "omer": 7071,
      "tap": 7072,
      "talecin": 7073,
      "taavah": 7074,
      "tarkhas": 7075,
      "gamsial": 7076,
      "saangin": 7077,
      "sasi": 7078,
      "sateʼ": 7079,
      "khikas": 7080,
      "tukik": 7081,
      "Pagi": 7082,
      "panmunte": 7083,
      "taksing": 7084,
      "theiteʼ": 7085,
      "supna": 7086,
      "lis": 7087,
      "liin": 7088,
      "lehdote": 7089,
      "pho": 7090,
      "phui": 7091,
      "amauteng": 7092,
      "mapekin": 7093,
      "maakah": 7094,
      "gentheihna": 7095,
      "Jekam": 7096,
      "Jeshi": 7097,
      "kumsim": 7098,
      "laikung": 7099,
      "laitaite": 7100,
      "biang": 7101,
      "khuat": 7102,
      "khuapih": 7103,
      "holh": 7104,
      "holah": 7105,
      "nitawp": 7106,
      "seth": 7107,
      "ekin": 7108,
      "razim": 7109,
      "minsia": 7110,
      "miniamte": 7111,
      "lungngai": 7112,
      "lungnop": 7113,
      "lunggimsak": 7114,
      "kongkaw": 7115,
      "leibatna": 7116,
      "gip": 7117,
      "gisuang": 7118,
      "lakkik": 7119,
      "nuamah": 7120,
      "Amonʼ": 7121,
      "muam": 7122,
      "maisiat": 7123,
      "theihte": 7124,
      "dangtakna": 7125,
      "rishaddaiʼ": 7126,
      "kuangin": 7127,
      "piakkik": 7128,
      "piakkhiat": 7129,
      "tuitawi": 7130,
      "tuibeel": 7131,
      "tuithawl": 7132,
      "zaʼ": 7133,
      "zagui": 7134,
      "galdalna": 7135,
      "kos": 7136,
      "siavuan": 7137,
      "Naar": 7138,
      "khapa": 7139,
      "khasak": 7140,
      "khasia": 7141,
      "Miʼ": 7142,
      "Mika": 7143,
      "Milimte": 7144,
      "shub": 7145,
      "shaiah": 7146,
      "tangtunsak": 7147,
      "khamzah": 7148,
      "Jozadakʼ": 7149,
      "Kap": 7150,
      "zolna": 7151,
      "suaktate": 7152,
      "hup": 7153,
      "betna": 7154,
      "Khau": 7155,
      "Khel": 7156,
      "Khaʼ": 7157,
      "thop": 7158,
      "thokang": 7159,
      "honna": 7160,
      "nungkikin": 7161,
      "vanna": 7162,
      "meilah": 7163,
      "ludʼ": 7164,
      "lukhung": 7165,
      "araim": 7166,
      "Ahira": 7167,
      "Ahiludʼ": 7168,
      "Silate": 7169,
      "khawmte": 7170,
      "dongkik": 7171,
      "diel": 7172,
      "ngahmunte": 7173,
      "lemeth": 7174,
      "puanpi": 7175,
      "zawʼ": 7176,
      "zawsak": 7177,
      "bekun": 7178,
      "vapi": 7179,
      "zahun": 7180,
      "zahpihin": 7181,
      "kihai": 7182,
      "doʼ": 7183,
      "gimsakin": 7184,
      "nuammawh": 7185,
      "namsaute": 7186,
      "Tuuh": 7187,
      "Tuute": 7188,
      "sawlte": 7189,
      "sawlkik": 7190,
      "Jerusalemʼ": 7191,
      "kinuai": 7192,
      "kineh": 7193,
      "kinot": 7194,
      "kinawt": 7195,
      "deidanna": 7196,
      "taiina": 7197,
      "taikeek": 7198,
      "sansak": 7199,
      "suahkik": 7200,
      "suahkhiat": 7201,
      "koihte": 7202,
      "koihcip": 7203,
      "khente": 7204,
      "khentel": 7205,
      "khensatna": 7206,
      "zusakin": 7207,
      "kimtakin": 7208,
      "kimciang": 7209,
      "kipuk": 7210,
      "tunsakna": 7211,
      "leenglate": 7212,
      "sukkik": 7213,
      "mawhnaʼ": 7214,
      "kiciah": 7215,
      "kicite": 7216,
      "Amasai": 7217,
      "nunte": 7218,
      "seppih": 7219,
      "sepnop": 7220,
      "pusuaksak": 7221,
      "Thudang": 7222,
      "ciangtan": 7223,
      "ciangduai": 7224,
      "suangtang": 7225,
      "suangngo": 7226,
      "singteh": 7227,
      "mualbo": 7228,
      "mualtungte": 7229,
      "pangpi": 7230,
      "lumlum": 7231,
      "sumkem": 7232,
      "sumkoihna": 7233,
      "sumlepai": 7234,
      "tuamsak": 7235,
      "gannote": 7236,
      "ganhonte": 7237,
      "pakna": 7238,
      "paupih": 7239,
      "paunate": 7240,
      "paulamin": 7241,
      "paubaan": 7242,
      "Lehi": 7243,
      "satsak": 7244,
      "khuamluzepnate": 7245,
      "cingsing": 7246,
      "keh": 7247,
      "kepna": 7248,
      "zakzak": 7249,
      "zawhin": 7250,
      "kheh": 7251,
      "khetul": 7252,
      "phatsak": 7253,
      "hante": 7254,
      "thutelna": 7255,
      "zep": 7256,
      "veivei": 7257,
      "henna": 7258,
      "beisakin": 7259,
      "zaniah": 7260,
      "puanak": 7261,
      "bawngnote": 7262,
      "tawsak": 7263,
      "dep": 7264,
      "deba": 7265,
      "kungnote": 7266,
      "tehpih": 7267,
      "tehtheih": 7268,
      "tehlop": 7269,
      "gupha": 7270,
      "nangawnun": 7271,
      "nektum": 7272,
      "nektawm": 7273,
      "nekkhawmna": 7274,
      "Helonʼ": 7275,
      "Gilo": 7276,
      "tawisuang": 7277,
      "tawikhaina": 7278,
      "thagui": 7279,
      "Leimong": 7280,
      "apin": 7281,
      "kisel": 7282,
      "sihsan": 7283,
      "siksan": 7284,
      "sikleeng": 7285,
      "sikbeel": 7286,
      "sikkhaute": 7287,
      "siklong": 7288,
      "cinte": 7289,
      "puaksak": 7290,
      "haipi": 7291,
      "noptuamna": 7292,
      "nopsaknate": 7293,
      "tatin": 7294,
      "tatsiatna": 7295,
      "luate": 7296,
      "thuktum": 7297,
      "thukpite": 7298,
      "kizuisak": 7299,
      "Tateʼ": 7300,
      "Pedaiah": 7301,
      "medatha": 7302,
      "Jehona": 7303,
      "Refi": 7304,
      "daii": 7305,
      "daiahʼ": 7306,
      "zumhuaina": 7307,
      "Kigin": 7308,
      "silhpa": 7309,
      "teelkhiat": 7310,
      "nusiate": 7311,
      "topaz": 7312,
      "topateʼ": 7313,
      "Tuikhang": 7314,
      "hamte": 7315,
      "hamsia": 7316,
      "hamsiat": 7317,
      "kilawmin": 7318,
      "ngakte": 7319,
      "humcip": 7320,
      "zinna": 7321,
      "zintunna": 7322,
      "Meunim": 7323,
      "Medeba": 7324,
      "pianmapekin": 7325,
      "beelpei": 7326,
      "Laish": 7327,
      "Shesh": 7328,
      "Shethar": 7329,
      "Shedeu": 7330,
      "muanhuaina": 7331,
      "shag": 7332,
      "huihnung": 7333,
      "gualin": 7334,
      "gualnopna": 7335,
      "dalin": 7336,
      "thaksuaksak": 7337,
      "kankan": 7338,
      "theihnate": 7339,
      "leenggahzute": 7340,
      "ngaihsutpi": 7341,
      "Lungnuam": 7342,
      "Lungnopna": 7343,
      "Annas": 7344,
      "tuahsiatna": 7345,
      "phit": 7346,
      "haknaw": 7347,
      "haksate": 7348,
      "kingam": 7349,
      "kingen": 7350,
      "tualte": 7351,
      "tawldamna": 7352,
      "Abidan": 7353,
      "Abishag": 7354,
      "tokhomte": 7355,
      "thallawng": 7356,
      "silin": 7357,
      "silsiang": 7358,
      "kemsak": 7359,
      "pawipuan": 7360,
      "matin": 7361,
      "matsak": 7362,
      "kimkotin": 7363,
      "kiphal": 7364,
      "moa": 7365,
      "khantawnin": 7366,
      "Gentehna": 7367,
      "ngiate": 7368,
      "Piak": 7369,
      "Mihaute": 7370,
      "thongkiat": 7371,
      "simmawhte": 7372,
      "vailam": 7373,
      "gog": 7374,
      "Gebal": 7375,
      "hattaavah": 7376,
      "bupun": 7377,
      "Kongcingte": 7378,
      "Magog": 7379,
      "gamhte": 7380,
      "sutpi": 7381,
      "seelna": 7382,
      "Baalah": 7383,
      "kalun": 7384,
      "vaihawmnate": 7385,
      "kaangma": 7386,
      "thungetnate": 7387,
      "gongah": 7388,
      "Thumu": 7389,
      "hanciamte": 7390,
      "pona": 7391,
      "kithawisak": 7392,
      "Marah": 7393,
      "huanna": 7394,
      "Kenan": 7395,
      "dekdek": 7396,
      "gaiʼ": 7397,
      "pawlpiʼ": 7398,
      "tukkilh": 7399,
      "Jael": 7400,
      "Jafia": 7401,
      "nungakin": 7402,
      "Hammedatha": 7403,
      "kicingsak": 7404,
      "Kamtai": 7405,
      "Kampau": 7406,
      "daang": 7407,
      "daviah": 7408,
      "Inndei": 7409,
      "mihoihteʼ": 7410,
      "kihalin": 7411,
      "nanna": 7412,
      "Kuate": 7413,
      "sawnte": 7414,
      "kisikcip": 7415,
      "kuamte": 7416,
      "kingaihsunin": 7417,
      "lehdona": 7418,
      "Ishvi": 7419,
      "Uzzah": 7420,
      "kihelin": 7421,
      "kilamkikna": 7422,
      "tuangsakin": 7423,
      "kigin": 7424,
      "Asherʼ": 7425,
      "Elealeh": 7426,
      "nilohin": 7427,
      "filia": 7428,
      "kilehhei": 7429,
      "tawngnung": 7430,
      "Guni": 7431,
      "huanah": 7432,
      "nemin": 7433,
      "nawizu": 7434,
      "buppiʼ": 7435,
      "nene": 7436,
      "Khedor": 7437,
      "Tikhikas": 7438,
      "Lasate": 7439,
      "Khanglo": 7440,
      "kiphattawm": 7441,
      "Dawivei": 7442,
      "mangbuhte": 7443,
      "lingnei": 7444,
      "tawpin": 7445,
      "Shekhemʼ": 7446,
      "thusimte": 7447,
      "Hodaviah": 7448,
      "phiatkhiat": 7449,
      "Mahlah": 7450,
      "sawtpekin": 7451,
      "mittawtna": 7452,
      "kawnga": 7453,
      "Toi": 7454,
      "Tobi": 7455,
      "paihsak": 7456,
      "thuhkik": 7457,
      "Nahath": 7458,
      "Mattat": 7459,
      "kilkel": 7460,
      "haksatnate": 7461,
      "baiʼ": 7462,
      "kineihkhemna": 7463,
      "Arad": 7464,
      "kiseelin": 7465,
      "kiseelte": 7466,
      "shaiahʼ": 7467,
      "hawhkik": 7468,
      "iplah": 7469,
      "ipcip": 7470,
      "kihawlkhiat": 7471,
      "mohte": 7472,
      "Awmdal": 7473,
      "duhin": 7474,
      "duhgawh": 7475,
      "kisaktheihna": 7476,
      "Gideoni": 7477,
      "kiphumna": 7478,
      "Admah": 7479,
      "Theih": 7480,
      "Theikung": 7481,
      "keeksak": 7482,
      "liahna": 7483,
      "Balakʼ": 7484,
      "hehnemin": 7485,
      "Hagri": 7486,
      "Sumgolh": 7487,
      "Tuucingte": 7488,
      "gawhna": 7489,
      "Pasalte": 7490,
      "Cidam": 7491,
      "Ciaptehna": 7492,
      "Gozan": 7493,
      "mette": 7494,
      "Aksah": 7495,
      "Zanoah": 7496,
      "kituahna": 7497,
      "kininsakin": 7498,
      "Rameses": 7499,
      "gamkhingin": 7500,
      "tuihup": 7501,
      "kisui": 7502,
      "Uzzielʼ": 7503,
      "Salin": 7504,
      "tungnungte": 7505,
      "Azmaveth": 7506,
      "Ganhingte": 7507,
      "Maluk": 7508,
      "Tarsas": 7509,
      "demas": 7510,
      "Obedʼ": 7511,
      "kengin": 7512,
      "daupaina": 7513,
      "kihihsak": 7514,
      "Sisar": 7515,
      "Sakolte": 7516,
      "kikheelin": 7517,
      "sianthosak": 7518,
      "Shammua": 7519,
      "khawite": 7520,
      "cidamin": 7521,
      "sakhital": 7522,
      "sakhituihup": 7523,
      "thadahte": 7524,
      "Maakahʼ": 7525,
      "Bawngtalno": 7526,
      "Jefthahʼ": 7527,
      "Korahʼ": 7528,
      "vialin": 7529,
      "golhguk": 7530,
      "Munah": 7531,
      "gawizan": 7532,
      "dangtakte": 7533,
      "Efah": 7534,
      "vulin": 7535,
      "kilawnsuk": 7536,
      "Zurishaddaiʼ": 7537,
      "gamsateʼ": 7538,
      "Beelseek": 7539,
      "Refaiah": 7540,
      "hahkatin": 7541,
      "Imnah": 7542,
      "komau": 7543,
      "Oholah": 7544,
      "zunekna": 7545,
      "tuinakte": 7546,
      "sekpi": 7547,
      "samsiatsak": 7548,
      "meetsak": 7549,
      "Shallumʼ": 7550,
      "kisangsak": 7551,
      "Adamʼ": 7552,
      "petin": 7553,
      "Ammishaddaiʼ": 7554,
      "Eliabʼ": 7555,
      "Malkhiel": 7556,
      "zuksak": 7557,
      "dadʼ": 7558,
      "tungsilhte": 7559,
      "lipkhap": 7560,
      "lumletin": 7561,
      "Geraʼ": 7562,
      "Oholiab": 7563,
      "Doeg": 7564,
      "Dodoʼ": 7565,
      "Eberʼ": 7566,
      "lawki": 7567,
      "thupalsatnate": 7568,
      "biingta": 7569,
      "zaptel": 7570,
      "guallelsak": 7571,
      "Alfe": 7572,
      "buaisak": 7573,
      "lawptakin": 7574,
      "kiteengsak": 7575,
      "bilvangte": 7576,
      "niamkhiatin": 7577,
      "Gutate": 7578,
      "Purim": 7579,
      "momai": 7580,
      "khainiangte": 7581,
      "Palti": 7582,
      "Talmon": 7583,
      "miphakte": 7584,
      "Elifazʼ": 7585,
      "Bildad": 7586,
      "Kenazʼ": 7587,
      "Ornanʼ": 7588,
      "kiheek": 7589,
      "kiheina": 7590,
      "Ahitub": 7591,
      "kihhuainate": 7592,
      "Nahshonʼ": 7593,
      "Tuucingpa": 7594,
      "Joiarib": 7595,
      "kiphatsakpih": 7596,
      "Nimshiʼ": 7597,
      "tektek": 7598,
      "kithutuak": 7599,
      "nulsak": 7600,
      "Zefaniahʼ": 7601,
      "Shelemiah": 7602,
      "Hashum": 7603,
      "Jonadabʼ": 7604,
      "Urijah": 7605,
      "kawkbaang": 7606,
      "kizanlai": 7607,
      "kiliahna": 7608,
      "Sibmah": 7609,
      "Dalna": 7610,
      "Hasshub": 7611,
      "Ngaihsun": 7612,
      "meno": 7613,
      "kilhnate": 7614,
      "kihanthawnin": 7615,
      "Hotkhiatna": 7616,
      "Massah": 7617,
      "kihisakin": 7618,
      "Nikodemas": 7619,
      "Kilemna": 7620,
      "Methuselah": 7621,
      "Shebna": 7622,
      "Shelu": 7623,
      "Khenaa": 7624,
      "Jared": 7625,
      "Bawlpa": 7626,
      "Othniel": 7627,
      "Pelatiah": 7628,
      "Raamah": 7629,
      "Tema": 7630,
      "tuatcil": 7631,
      "Zibeonʼ": 7632,
      "Gamaliel": 7633,
      "Harar": 7634,
      "Abarim": 7635,
      "Aristarkhas": 7636,
      "Gabriel": 7637,
      "tamasak": 7638,
      "zeizai": 7639,
      "Isshiah": 7640,
      "Galatia": 7641,
      "Shittim": 7642,
      "tuuhonteʼ": 7643,
      "Akborʼ": 7644,
      "Ihmu": 7645,
      "aloes": 7646,
      "tuletate": 7647,
      "tuukulh": 7648,
      "Parosh": 7649,
      "Peemta": 7650,
      "Pedahzurʼ": 7651,
      "Nebaioth": 7652,
      "Kibroth": 7653,
      "Artemis": 7654,
      "Arpad": 7655,
      "cikzethuai": 7656,
      "Lauhuaina": 7657,
      "Hofni": 7658,
      "Jahaziel": 7659,
      "Eshtemoa": 7660,
      "Kiniamkhiat": 7661,
      "Akhor": 7662,
      "Derbe": 7663,
      "Hattush": 7664,
      "Italy": 7665,
      "Kalaoh": 7666,
      "Letsong": 7667,
      "Okranʼ": 7668,
      "Onesi": 7669,
      "Pamfilia": 7670,
      "Teipi": 7671,
      "Zuarʼ": 7672,
      "jasper": 7673,
      "emerald": 7674,
      "holhthawh": 7675,
      "Refidim": 7676,
      "Shedeurʼ": 7677,
      "Hammedathaʼ": 7678,
      "Khedorla": 7679,
      "Azu": 7680,
      "Are": 7681,
      "Adin": 7682,
      "Ashan": 7683,
      "Alemeth": 7684,
      "Bam": 7685,
      "Bawm": 7686,
      "Buan": 7687,
      "Em": 7688,
      "Ela": 7689,
      "Elh": 7690,
      "Eve": 7691,
      "Etham": 7692,
      "Gar": 7693,
      "Hul": 7694,
      "Hup": 7695,
      "Huhna": 7696,
      "Hati": 7697,
      "If": 7698,
      "Ir": 7699,
      "Jatti": 7700,
      "Jalam": 7701,
      "Kawm": 7702,
      "Kris": 7703,
      "Lod": 7704,
      "Nen": 7705,
      "Nit": 7706,
      "Nemuel": 7707,
      "Onam": 7708,
      "Oboth": 7709,
      "Po": 7710,
      "Phun": 7711,
      "Pute": 7712,
      "Penin": 7713,
      "Ro": 7714,
      "Shuh": 7715,
      "Saiha": 7716,
      "Seni": 7717,
      "Sela": 7718,
      "Thi": 7719,
      "Ten": 7720,
      "Tawn": 7721,
      "Tatte": 7722,
      "Ulam": 7723,
      "Uite": 7724,
      "Ve": 7725,
      "Zat": 7726,
      "Zem": 7727,
      "Zawl": 7728,
      "Zoh": 7729,
      "Zur": 7730,
      "adiah": 7731,
      "bing": 7732,
      "but": 7733,
      "bzeel": 7734,
      "dria": 7735,
      "daʼ": 7736,
      "ddim": 7737,
      "derah": 7738,
      "eina": 7739,
      "enan": 7740,
      "fim": 7741,
      "flet": 7742,
      "gua": 7743,
      "gob": 7744,
      "gas": 7745,
      "hab": 7746,
      "ir": 7747,
      "is": 7748,
      "jair": 7749,
      "kak": 7750,
      "kut": 7751,
      "luk": 7752,
      "lanna": 7753,
      "mau": 7754,
      "mote": 7755,
      "mham": 7756,
      "merʼ": 7757,
      "mekna": 7758,
      "os": 7759,
      "pun": 7760,
      "pem": 7761,
      "pkhaphuai": 7762,
      "rd": 7763,
      "rat": 7764,
      "rod": 7765,
      "sumpi": 7766,
      "sol": 7767,
      "stas": 7768,
      "suau": 7769,
      "tong": 7770,
      "uta": 7771,
      "uuk": 7772,
      "uhiau": 7773,
      "vv": 7774,
      "vum": 7775,
      "vute": 7776,
      "vomte": 7777,
      "yl": 7778,
      "zual": 7779,
      "zpah": 7780,
      "zamin": 7781,
      "zuhau": 7782,
      "ngab": 7783,
      "ngamin": 7784,
      "inak": 7785,
      "inai": 7786,
      "inun": 7787,
      "inoam": 7788,
      "hia": 7789,
      "him": 7790,
      "himoth": 7791,
      "hiuhiau": 7792,
      "navak": 7793,
      "nainai": 7794,
      "amim": 7795,
      "uhnate": 7796,
      "khelh": 7797,
      "thahiah": 7798,
      "dingpi": 7799,
      "cite": 7800,
      "cimang": 7801,
      "cidamna": 7802,
      "cianna": 7803,
      "akan": 7804,
      "kisuah": 7805,
      "kisun": 7806,
      "kigamta": 7807,
      "kitha": 7808,
      "kithuk": 7809,
      "kigual": 7810,
      "kilui": 7811,
      "kibeisak": 7812,
      "kiteenna": 7813,
      "kithukkik": 7814,
      "kituancil": 7815,
      "kibuan": 7816,
      "kikihtakna": 7817,
      "kibot": 7818,
      "kisunin": 7819,
      "kithun": 7820,
      "kisemsak": 7821,
      "kidingsak": 7822,
      "kikhamval": 7823,
      "kibulhin": 7824,
      "kihilhnate": 7825,
      "kimawhsaknate": 7826,
      "kipelhna": 7827,
      "anhai": 7828,
      "ansalte": 7829,
      "piau": 7830,
      "piik": 7831,
      "leel": 7832,
      "lelam": 7833,
      "ledi": 7834,
      "levai": 7835,
      "letas": 7836,
      "sikha": 7837,
      "siik": 7838,
      "sidia": 7839,
      "mish": 7840,
      "mipha": 7841,
      "misiamte": 7842,
      "mipiʼ": 7843,
      "kate": 7844,
      "kauh": 7845,
      "kaai": 7846,
      "enen": 7847,
      "thulang": 7848,
      "thukawi": 7849,
      "thudawnna": 7850,
      "thupina": 7851,
      "ahiroth": 7852,
      "loam": 7853,
      "lotna": 7854,
      "loteng": 7855,
      "lopite": 7856,
      "tungtang": 7857,
      "mahʼ": 7858,
      "pelet": 7859,
      "perazim": 7860,
      "saksak": 7861,
      "alna": 7862,
      "alal": 7863,
      "alteʼ": 7864,
      "keivom": 7865,
      "omsakin": 7866,
      "omkhop": 7867,
      "omkhong": 7868,
      "tapeuh": 7869,
      "tagahte": 7870,
      "sungte": 7871,
      "sungnu": 7872,
      "khataang": 7873,
      "gamʼ": 7874,
      "gamteʼ": 7875,
      "gamdaih": 7876,
      "sasa": 7877,
      "sazang": 7878,
      "sasial": 7879,
      "saledi": 7880,
      "khiakikin": 7881,
      "tupna": 7882,
      "Pase": 7883,
      "paiite": 7884,
      "pailetin": 7885,
      "hihkik": 7886,
      "theigahte": 7887,
      "zongzong": 7888,
      "sui": 7889,
      "suih": 7890,
      "supai": 7891,
      "lion": 7892,
      "lehhei": 7893,
      "mansak": 7894,
      "mancip": 7895,
      "awlin": 7896,
      "phekte": 7897,
      "phop": 7898,
      "ladah": 7899,
      "lapin": 7900,
      "mate": 7901,
      "mapi": 7902,
      "mapite": 7903,
      "mathe": 7904,
      "bangkik": 7905,
      "Jesha": 7906,
      "Jezer": 7907,
      "Jeshaiah": 7908,
      "laidal": 7909,
      "laimal": 7910,
      "khuak": 7911,
      "khuainun": 7912,
      "hol": 7913,
      "nip": 7914,
      "nisat": 7915,
      "cihcih": 7916,
      "cihtheihna": 7917,
      "seuh": 7918,
      "lampai": 7919,
      "lamlah": 7920,
      "lamdangin": 7921,
      "rathah": 7922,
      "rabah": 7923,
      "biakte": 7924,
      "biakpih": 7925,
      "hnate": 7926,
      "innsate": 7927,
      "neiah": 7928,
      "lungno": 7929,
      "lungngaih": 7930,
      "lungzu": 7931,
      "lungmangin": 7932,
      "lungkiatna": 7933,
      "hangte": 7934,
      "khias": 7935,
      "khiasakin": 7936,
      "kongte": 7937,
      "leite": 7938,
      "leipi": 7939,
      "leikang": 7940,
      "giau": 7941,
      "giloin": 7942,
      "kikup": 7943,
      "kikekin": 7944,
      "lakkhial": 7945,
      "onoth": 7946,
      "maimawk": 7947,
      "maigum": 7948,
      "theihkim": 7949,
      "theihnop": 7950,
      "rif": 7951,
      "rith": 7952,
      "rizim": 7953,
      "kuampi": 7954,
      "heuh": 7955,
      "heta": 7956,
      "heina": 7957,
      "heuhna": 7958,
      "heres": 7959,
      "zasakkik": 7960,
      "galphual": 7961,
      "galkah": 7962,
      "galpanna": 7963,
      "siasakin": 7964,
      "siacip": 7965,
      "sangsakin": 7966,
      "awngthawl": 7967,
      "khapi": 7968,
      "khateʼ": 7969,
      "Mis": 7970,
      "Mith": 7971,
      "Mijamin": 7972,
      "mawhmaisakna": 7973,
      "mahmahʼ": 7974,
      "sham": 7975,
      "shual": 7976,
      "tangguak": 7977,
      "tangten": 7978,
      "Jot": 7979,
      "khinkhian": 7980,
      "hingtangin": 7981,
      "suakkhiasak": 7982,
      "aihsutna": 7983,
      "hoihtak": 7984,
      "neuno": 7985,
      "nawine": 7986,
      "beba": 7987,
      "bekai": 7988,
      "berʼ": 7989,
      "tholome": 7990,
      "honhonin": 7991,
      "dahpih": 7992,
      "nungte": 7993,
      "nungzuih": 7994,
      "nungdelh": 7995,
      "nunghei": 7996,
      "vankim": 7997,
      "lohkik": 7998,
      "meite": 7999,
      "nophuai": 8000,
      "lukham": 8001,
      "thumuhna": 8002,
      "Ahiman": 8003,
      "mangman": 8004,
      "tengkik": 8005,
      "Moladah": 8006,
      "Sim": 8007,
      "Siloam": 8008,
      "kamsia": 8009,
      "awkin": 8010,
      "khitin": 8011,
      "dongte": 8012,
      "dongtangsak": 8013,
      "bub": 8014,
      "bupah": 8015,
      "vad": 8016,
      "pawlbawl": 8017,
      "zahval": 8018,
      "limbawlna": 8019,
      "ngaihte": 8020,
      "kihtaktak": 8021,
      "kihuau": 8022,
      "khiatkik": 8023,
      "khupna": 8024,
      "Jubilee": 8025,
      "gimpi": 8026,
      "nuamteʼ": 8027,
      "nambat": 8028,
      "Tuum": 8029,
      "Tuutal": 8030,
      "Tutungin": 8031,
      "Tuinak": 8032,
      "sawlkhiat": 8033,
      "sawlbuk": 8034,
      "nahath": 8035,
      "damsakna": 8036,
      "kinak": 8037,
      "kinamin": 8038,
      "deiah": 8039,
      "samphekte": 8040,
      "suntangpi": 8041,
      "zuah": 8042,
      "zuthawl": 8043,
      "kimatna": 8044,
      "kimawk": 8045,
      "kimkhatte": 8046,
      "baoth": 8047,
      "bazzar": 8048,
      "kapte": 8049,
      "ngateʼ": 8050,
      "kipsuak": 8051,
      "suksuk": 8052,
      "suksakin": 8053,
      "tumkik": 8054,
      "tumsiam": 8055,
      "kicil": 8056,
      "kuanna": 8057,
      "thahnopna": 8058,
      "thahsawmna": 8059,
      "langtangin": 8060,
      "saltanna": 8061,
      "pul": 8062,
      "pusuahna": 8063,
      "Thusia": 8064,
      "Thuhilh": 8065,
      "neihlelam": 8066,
      "hate": 8067,
      "nuntaksak": 8068,
      "ciangkangte": 8069,
      "suangseek": 8070,
      "suangseekte": 8071,
      "suanglotna": 8072,
      "singno": 8073,
      "singnai": 8074,
      "tultulin": 8075,
      "mualin": 8076,
      "bukno": 8077,
      "kibanga": 8078,
      "sehin": 8079,
      "sehkhol": 8080,
      "gawpgawpna": 8081,
      "ciahkhiat": 8082,
      "kuangsak": 8083,
      "sumsan": 8084,
      "ganbuk": 8085,
      "vangte": 8086,
      "behlapin": 8087,
      "pakpak": 8088,
      "thanuam": 8089,
      "paupeeng": 8090,
      "Abinoam": 8091,
      "veva": 8092,
      "nakbah": 8093,
      "adanʼ": 8094,
      "tautau": 8095,
      "tautauna": 8096,
      "zakte": 8097,
      "zaknop": 8098,
      "zawhsak": 8099,
      "zawhthawh": 8100,
      "kheging": 8101,
      "khepek": 8102,
      "hankuang": 8103,
      "dawnkikna": 8104,
      "khangmi": 8105,
      "khangkik": 8106,
      "zenai": 8107,
      "zebub": 8108,
      "peuhpeuhʼ": 8109,
      "peuhpeuhte": 8110,
      "lahʼ": 8111,
      "lahkhiat": 8112,
      "lawmlawm": 8113,
      "beisiang": 8114,
      "Bezer": 8115,
      "Bekher": 8116,
      "zantaam": 8117,
      "puakik": 8118,
      "puatham": 8119,
      "bawngpite": 8120,
      "gamtatte": 8121,
      "ganhingin": 8122,
      "ciampel": 8123,
      "siatkik": 8124,
      "talkolh": 8125,
      "debar": 8126,
      "thuciamnasa": 8127,
      "kikoko": 8128,
      "thangsiahna": 8129,
      "kamsangnu": 8130,
      "mitin": 8131,
      "kibawlin": 8132,
      "kibawlsak": 8133,
      "Heth": 8134,
      "Hehna": 8135,
      "Hegaiʼ": 8136,
      "Heberʼ": 8137,
      "phualte": 8138,
      "Eliada": 8139,
      "Elizur": 8140,
      "nausuah": 8141,
      "naupaʼ": 8142,
      "naudomte": 8143,
      "naupaiite": 8144,
      "tamte": 8145,
      "Enro": 8146,
      "Soko": 8147,
      "Sokoh": 8148,
      "kipiate": 8149,
      "kipiasak": 8150,
      "apkhapna": 8151,
      "sihin": 8152,
      "milimteʼ": 8153,
      "lausakin": 8154,
      "anath": 8155,
      "sikseek": 8156,
      "siktukkilh": 8157,
      "taktakna": 8158,
      "dimna": 8159,
      "leenggahte": 8160,
      "leenggahtui": 8161,
      "kikhol": 8162,
      "lelʼ": 8163,
      "lelsak": 8164,
      "leltak": 8165,
      "tatolh": 8166,
      "lamdangpi": 8167,
      "lamdangsak": 8168,
      "thuksak": 8169,
      "thukante": 8170,
      "Mihingʼ": 8171,
      "tias": 8172,
      "vuisak": 8173,
      "Pethahiah": 8174,
      "meetna": 8175,
      "Jehoad": 8176,
      "Jehozabad": 8177,
      "gunkuam": 8178,
      "Nisim": 8179,
      "Reha": 8180,
      "Reuel": 8181,
      "Reaiah": 8182,
      "Asshur": 8183,
      "Asriel": 8184,
      "hawmna": 8185,
      "hawmguak": 8186,
      "hawmthawh": 8187,
      "zahtakteʼ": 8188,
      "Nefi": 8189,
      "Nefe": 8190,
      "zumte": 8191,
      "Kimanna": 8192,
      "silhte": 8193,
      "minthannate": 8194,
      "sefer": 8195,
      "teelpa": 8196,
      "ciahkiksak": 8197,
      "bansau": 8198,
      "banbulh": 8199,
      "bozenai": 8200,
      "suaktasakin": 8201,
      "Tuite": 8202,
      "cilin": 8203,
      "cilphuan": 8204,
      "ngette": 8205,
      "kikhopnate": 8206,
      "Mehi": 8207,
      "Mefa": 8208,
      "Merib": 8209,
      "Meheta": 8210,
      "kizen": 8211,
      "kizatna": 8212,
      "kizomte": 8213,
      "kizutna": 8214,
      "lawhin": 8215,
      "lawhna": 8216,
      "tuuteʼ": 8217,
      "tuucin": 8218,
      "tuukhawkte": 8219,
      "ramoth": 8220,
      "Sheshan": 8221,
      "muantaak": 8222,
      "huihte": 8223,
      "guallelin": 8224,
      "taangmi": 8225,
      "taangmite": 8226,
      "kanin": 8227,
      "zuaugenna": 8228,
      "Bene": 8229,
      "neusak": 8230,
      "Gamdangte": 8231,
      "Gamdangteʼ": 8232,
      "Lungmuang": 8233,
      "Lungnuamin": 8234,
      "Lungdamin": 8235,
      "Singgah": 8236,
      "Hathak": 8237,
      "Havv": 8238,
      "Kue": 8239,
      "tuahsiat": 8240,
      "Samlah": 8241,
      "teekpa": 8242,
      "Moabʼ": 8243,
      "kingeina": 8244,
      "khauhna": 8245,
      "siamlawng": 8246,
      "tawldam": 8247,
      "Abishua": 8248,
      "thalpi": 8249,
      "thalkhau": 8250,
      "Hikiah": 8251,
      "donin": 8252,
      "matte": 8253,
      "lungkimhuai": 8254,
      "Nopsakna": 8255,
      "ikte": 8256,
      "khahna": 8257,
      "khumna": 8258,
      "lomte": 8259,
      "lompi": 8260,
      "lomlomin": 8261,
      "kiphun": 8262,
      "melhoihin": 8263,
      "kipaih": 8264,
      "kipaaksak": 8265,
      "lawnkhak": 8266,
      "semsemna": 8267,
      "moni": 8268,
      "monah": 8269,
      "Gensiatna": 8270,
      "ngil": 8271,
      "Shar": 8272,
      "thungaihsun": 8273,
      "thungaihsut": 8274,
      "Pisidia": 8275,
      "thonginn": 8276,
      "thongcing": 8277,
      "thongcingte": 8278,
      "kilemsak": 8279,
      "kilemkik": 8280,
      "Assir": 8281,
      "zelin": 8282,
      "keelnote": 8283,
      "kaikhawmte": 8284,
      "suaksakkik": 8285,
      "Khuadak": 8286,
      "Khuaphia": 8287,
      "buhvui": 8288,
      "Geshem": 8289,
      "Geder": 8290,
      "Gederah": 8291,
      "Gerizim": 8292,
      "tangvalpaʼ": 8293,
      "peekpi": 8294,
      "kidok": 8295,
      "kidosak": 8296,
      "rea": 8297,
      "red": 8298,
      "Manahath": 8299,
      "khaukhai": 8300,
      "Ard": 8301,
      "Argob": 8302,
      "Arvad": 8303,
      "taaksak": 8304,
      "dakdak": 8305,
      "tensak": 8306,
      "Minthang": 8307,
      "heitang": 8308,
      "seelin": 8309,
      "seelsim": 8310,
      "hinna": 8311,
      "hinkik": 8312,
      "hinkiksak": 8313,
      "vaihawmin": 8314,
      "vaihawmte": 8315,
      "suksiatsakin": 8316,
      "thahatnate": 8317,
      "luppihin": 8318,
      "polis": 8319,
      "sinkhamna": 8320,
      "sinsen": 8321,
      "zawlta": 8322,
      "huante": 8323,
      "Kedem": 8324,
      "guanin": 8325,
      "ciangkhutte": 8326,
      "paktatteʼ": 8327,
      "Jaflet": 8328,
      "kikoihkik": 8329,
      "Hamul": 8330,
      "Bartholome": 8331,
      "Kamtaite": 8332,
      "Innpi": 8333,
      "kantansak": 8334,
      "niamkoih": 8335,
      "niamkhiatna": 8336,
      "Gadʼ": 8337,
      "Gadara": 8338,
      "kisikkikin": 8339,
      "Eleas": 8340,
      "liamte": 8341,
      "Lipkhaphuai": 8342,
      "Ukpi": 8343,
      "Hushi": 8344,
      "Husham": 8345,
      "kigaih": 8346,
      "meigongte": 8347,
      "Shemariah": 8348,
      "Numeiʼ": 8349,
      "kiciamnasa": 8350,
      "kimante": 8351,
      "firah": 8352,
      "oksak": 8353,
      "kilehngatin": 8354,
      "themte": 8355,
      "themkha": 8356,
      "thawhsakkik": 8357,
      "gakna": 8358,
      "naungekʼ": 8359,
      "Jehudi": 8360,
      "Khefirah": 8361,
      "Tib": 8362,
      "Tibe": 8363,
      "pumtangin": 8364,
      "vasateʼ": 8365,
      "lauhuaite": 8366,
      "kekseu": 8367,
      "kitheithang": 8368,
      "Dawite": 8369,
      "neihnate": 8370,
      "Ashbel": 8371,
      "lingbulsum": 8372,
      "vawhsak": 8373,
      "atira": 8374,
      "kheelin": 8375,
      "tawpun": 8376,
      "hiangpa": 8377,
      "Hoglah": 8378,
      "phiatkhiatsak": 8379,
      "Mahal": 8380,
      "hawkna": 8381,
      "hawkguam": 8382,
      "Aiahʼ": 8383,
      "khuhin": 8384,
      "Lotanʼ": 8385,
      "Lodebar": 8386,
      "kisimmawhna": 8387,
      "liimsun": 8388,
      "gialhek": 8389,
      "Herodʼ": 8390,
      "Matta": 8391,
      "Matthat": 8392,
      "ngitngetna": 8393,
      "kiluan": 8394,
      "khaicite": 8395,
      "Horesh": 8396,
      "Nafath": 8397,
      "Ararat": 8398,
      "Elpa": 8399,
      "Suah": 8400,
      "kithehthangna": 8401,
      "Rehoboth": 8402,
      "nengniamin": 8403,
      "teiteite": 8404,
      "zalh": 8405,
      "Sanang": 8406,
      "Salekah": 8407,
      "hithiatna": 8408,
      "phunnate": 8409,
      "phunsanna": 8410,
      "phunphun": 8411,
      "Simeonʼ": 8412,
      "kihawlkhiatna": 8413,
      "Awging": 8414,
      "kikhaite": 8415,
      "Adram": 8416,
      "kikhuhna": 8417,
      "Samsonʼ": 8418,
      "Azazel": 8419,
      "vutlevai": 8420,
      "ciaptehnate": 8421,
      "cialte": 8422,
      "taisanin": 8423,
      "nunungte": 8424,
      "kepsak": 8425,
      "cingtaakin": 8426,
      "cingtaaksak": 8427,
      "vukkhal": 8428,
      "Gaash": 8429,
      "nuhsak": 8430,
      "Merab": 8431,
      "Tuunoʼ": 8432,
      "Akzib": 8433,
      "Zofar": 8434,
      "Zankim": 8435,
      "kizemte": 8436,
      "Jamesʼ": 8437,
      "kiphawksak": 8438,
      "gentelna": 8439,
      "Nethaniah": 8440,
      "Deuelʼ": 8441,
      "Teci": 8442,
      "kipakna": 8443,
      "Khis": 8444,
      "Khimham": 8445,
      "pungsakin": 8446,
      "kihonsak": 8447,
      "kitanin": 8448,
      "milimin": 8449,
      "taanlawh": 8450,
      "Suangtum": 8451,
      "kisilsiang": 8452,
      "Azgad": 8453,
      "beryl": 8454,
      "honpiteʼ": 8455,
      "Ithri": 8456,
      "bualtuite": 8457,
      "Thukhente": 8458,
      "kikhakcip": 8459,
      "kiliingsak": 8460,
      "Makai": 8461,
      "Shammaiʼ": 8462,
      "Shamir": 8463,
      "Jonahʼ": 8464,
      "thadahpa": 8465,
      "Mitphial": 8466,
      "sumbukteʼ": 8467,
      "Hazaelʼ": 8468,
      "dawntuahin": 8469,
      "Jabez": 8470,
      "Efer": 8471,
      "Efrathah": 8472,
      "Tahumte": 8473,
      "Zikriʼ": 8474,
      "Aramʼ": 8475,
      "Haksat": 8476,
      "Rizpah": 8477,
      "patausak": 8478,
      "kizelin": 8479,
      "kizelthang": 8480,
      "Immerʼ": 8481,
      "Imlahʼ": 8482,
      "Siseraʼ": 8483,
      "puankhaite": 8484,
      "Johananʼ": 8485,
      "kinaipih": 8486,
      "paunakte": 8487,
      "Abelbeth": 8488,
      "Jehoiakhinʼ": 8489,
      "Shobab": 8490,
      "khuisa": 8491,
      "khuituah": 8492,
      "Ammielʼ": 8493,
      "Naomiʼ": 8494,
      "Malkhishua": 8495,
      "Zakkhias": 8496,
      "pengsak": 8497,
      "hamphatnate": 8498,
      "Dahin": 8499,
      "Sawmte": 8500,
      "Zineipa": 8501,
      "palhng": 8502,
      "kiliansakte": 8503,
      "kuangdaite": 8504,
      "Lysias": 8505,
      "lipkhaphuai": 8506,
      "Bukki": 8507,
      "Gitta": 8508,
      "lawkite": 8509,
      "Jehielʼ": 8510,
      "zapsiang": 8511,
      "Joktan": 8512,
      "Ahimelekʼ": 8513,
      "puansilhte": 8514,
      "Jehoashʼ": 8515,
      "guallelhna": 8516,
      "Thahatna": 8517,
      "Enokʼ": 8518,
      "zemin": 8519,
      "kizep": 8520,
      "thudotin": 8521,
      "thudotte": 8522,
      "khimsakin": 8523,
      "Khualmi": 8524,
      "Khualzin": 8525,
      "Elizafan": 8526,
      "Eliezerʼ": 8527,
      "Shimri": 8528,
      "Shimshai": 8529,
      "Thungetna": 8530,
      "moman": 8531,
      "khungin": 8532,
      "kalhsak": 8533,
      "Cikmahin": 8534,
      "Nomauʼ": 8535,
      "Talmai": 8536,
      "temkawi": 8537,
      "kinawhin": 8538,
      "sikkawipi": 8539,
      "Leengguite": 8540,
      "Izharʼ": 8541,
      "Kihei": 8542,
      "Nekoda": 8543,
      "kigalsai": 8544,
      "nelkaiteʼ": 8545,
      "bilngongte": 8546,
      "Hinnomʼ": 8547,
      "Arimathe": 8548,
      "Ibleam": 8549,
      "iikte": 8550,
      "kisutte": 8551,
      "Joiakim": 8552,
      "deuhin": 8553,
      "Hazarenan": 8554,
      "Hazarshual": 8555,
      "zungbuhte": 8556,
      "Nimrod": 8557,
      "Ofel": 8558,
      "Zered": 8559,
      "Zeresh": 8560,
      "sawkin": 8561,
      "Shelemiahʼ": 8562,
      "Shimea": 8563,
      "Shimeahʼ": 8564,
      "Hosheaʼ": 8565,
      "kikhelkik": 8566,
      "kikhiinin": 8567,
      "Sibbekai": 8568,
      "Abinadabʼ": 8569,
      "Bethuel": 8570,
      "Betharabah": 8571,
      "tamlawhna": 8572,
      "Zebedi": 8573,
      "buluhte": 8574,
      "Hanunʼ": 8575,
      "mohphengte": 8576,
      "Mangbuhham": 8577,
      "Jason": 8578,
      "Nget": 8579,
      "muatna": 8580,
      "menzi": 8581,
      "kibuakna": 8582,
      "pawmsak": 8583,
      "deudau": 8584,
      "Jaazaniah": 8585,
      "Nahashʼ": 8586,
      "Berekhiahʼ": 8587,
      "Jerahmeelʼ": 8588,
      "Shealtiel": 8589,
      "Alexandria": 8590,
      "Nergal": 8591,
      "enisia": 8592,
      "Mishma": 8593,
      "Methuselahʼ": 8594,
      "Shebnah": 8595,
      "Shelahʼ": 8596,
      "Jaredʼ": 8597,
      "Menzipa": 8598,
      "Menzipipa": 8599,
      "Attai": 8600,
      "Buz": 8601,
      "Harod": 8602,
      "garmah": 8603,
      "laigelhte": 8604,
      "Helez": 8605,
      "Shemiramoth": 8606,
      "Shishakʼ": 8607,
      "Shafatʼ": 8608,
      "Thadahpa": 8609,
      "Golan": 8610,
      "Jashub": 8611,
      "kuikek": 8612,
      "patauhna": 8613,
      "kikantan": 8614,
      "Khinnereth": 8615,
      "Basemath": 8616,
      "Meshele": 8617,
      "kingaihna": 8618,
      "kidemna": 8619,
      "Foenisia": 8620,
      "Pekahʼ": 8621,
      "Zawhthawh": 8622,
      "kivelsak": 8623,
      "mitnauta": 8624,
      "Jediael": 8625,
      "kihauh": 8626,
      "kipumsil": 8627,
      "kuankuanun": 8628,
      "pakpalhte": 8629,
      "Abihailʼ": 8630,
      "Giddel": 8631,
      "gunvapite": 8632,
      "Abijam": 8633,
      "Ciangkhut": 8634,
      "Eloi": 8635,
      "Hemanʼ": 8636,
      "Pihahiroth": 8637,
      "Phalbi": 8638,
      "Rekem": 8639,
      "jeshimoth": 8640,
      "Pagiel": 8641,
      "Jeshimon": 8642,
      "Tuuhonte": 8643,
      "kinawtngil": 8644,
      "Sheshbazzar": 8645,
      "Mattathi": 8646,
      "Gideoniʼ": 8647,
      "Alfeasʼ": 8648,
      "Shelumiel": 8649,
      "Khenaanahʼ": 8650,
      "Khedorlaomer": 8651,
      "Azubah": 8652,
      "Bamoth": 8653,
      "Elhanan": 8654,
      "Jattir": 8655,
      "Nitawp": 8656,
      "Peninnah": 8657,
      "Senir": 8658,
      "Thiatira": 8659,
      "Tawntung": 8660,
      "Tattenai": 8661,
      "Veeng": 8662,
      "Zohar": 8663,
      "pempam": 8664,
      "piikpeek": 8665,
      "Jeshanah": 8666,
      "galkahsak": 8667,
      "nungdelhsak": 8668,
      "Abinoamʼ": 8669,
      "Enrogel": 8670,
      "Nefeg": 8671,
      "Mefaath": 8672,
      "Meribbaal": 8673,
      "Havvoth": 8674,
      "siamlawngpi": 8675,
      "Kedemoth": 8676,
      "Bartholomew": 8677,
      "Hushim": 8678,
      "Arimathea": 8679,
      "!)": 8680,
      "Ata": 8681,
      "Aho": 8682,
      "Ase": 8683,
      "Ane": 8684,
      "Adi": 8685,
      "Anam": 8686,
      "Arah": 8687,
      "Aine": 8688,
      "Ahoh": 8689,
      "Adoram": 8690,
      "Bun": 8691,
      "Bual": 8692,
      "Bul": 8693,
      "Bine": 8694,
      "Ciah": 8695,
      "Dam": 8696,
      "Dum": 8697,
      "Dar": 8698,
      "Dumah": 8699,
      "Eng": 8700,
      "Eth": 8701,
      "Eri": 8702,
      "Ebia": 8703,
      "Eras": 8704,
      "Emim": 8705,
      "Eloth": 8706,
      "Esar": 8707,
      "Fri": 8708,
      "Guh": 8709,
      "Gat": 8710,
      "Gawh": 8711,
      "Gum": 8712,
      "Ginn": 8713,
      "Hai": 8714,
      "Humpi": 8715,
      "Hob": 8716,
      "Hakhi": 8717,
      "Ij": 8718,
      "Ik": 8719,
      "Iv": 8720,
      "Iy": 8721,
      "Iri": 8722,
      "Igal": 8723,
      "Jarib": 8724,
      "Kin": 8725,
      "Kah": 8726,
      "Kho": 8727,
      "Ker": 8728,
      "Kol": 8729,
      "Klau": 8730,
      "Keli": 8731,
      "Lah": 8732,
      "Lawh": 8733,
      "Luah": 8734,
      "Ladan": 8735,
      "My": 8736,
      "Myrrh": 8737,
      "Mered": 8738,
      "Ngen": 8739,
      "Natna": 8740,
      "Nitna": 8741,
      "Nge": 8742,
      "Nobah": 8743,
      "Nuainung": 8744,
      "Ol": 8745,
      "Oma": 8746,
      "Ode": 8747,
      "Pum": 8748,
      "Puk": 8749,
      "Puah": 8750,
      "Pur": 8751,
      "Pelaiah": 8752,
      "Rak": 8753,
      "Ramath": 8754,
      "Spa": 8755,
      "Shih": 8756,
      "Sek": 8757,
      "Sawt": 8758,
      "Sakhi": 8759,
      "Sered": 8760,
      "Tam": 8761,
      "Tel": 8762,
      "Tote": 8763,
      "Tham": 8764,
      "Teh": 8765,
      "Un": 8766,
      "Ulian": 8767,
      "Upate": 8768,
      "Uriel": 8769,
      "Zang": 8770,
      "Zih": 8771,
      "aga": 8772,
      "blath": 8773,
      "dat": 8774,
      "dawt": 8775,
      "dda": 8776,
      "ep": 8777,
      "eel": 8778,
      "eek": 8779,
      "eseth": 8780,
      "fel": 8781,
      "fras": 8782,
      "fasʼ": 8783,
      "gat": 8784,
      "guai": 8785,
      "gap": 8786,
      "geh": 8787,
      "hawi": 8788,
      "ian": 8789,
      "isak": 8790,
      "iamin": 8791,
      "jakin": 8792,
      "kahʼ": 8793,
      "kcip": 8794,
      "kakin": 8795,
      "lih": 8796,
      "lawt": 8797,
      "mam": 8798,
      "mum": 8799,
      "mek": 8800,
      "osuah": 8801,
      "oahʼ": 8802,
      "ppim": 8803,
      "rak": 8804,
      "rai": 8805,
      "rahiah": 8806,
      "sor": 8807,
      "suhna": 8808,
      "tte": 8809,
      "tomna": 8810,
      "tuhna": 8811,
      "tkikna": 8812,
      "tamar": 8813,
      "ule": 8814,
      "uangsak": 8815,
      "vangin": 8816,
      "vamim": 8817,
      "yst": 8818,
      "ngote": 8819,
      "ngawlin": 8820,
      "innah": 8821,
      "hibuang": 8822,
      "naniah": 8823,
      "nard": 8824,
      "angtan": 8825,
      "angdai": 8826,
      "teem": 8827,
      "tenai": 8828,
      "tekos": 8829,
      "ameth": 8830,
      "palai": 8831,
      "paino": 8832,
      "paaksak": 8833,
      "uhai": 8834,
      "khris": 8835,
      "uapna": 8836,
      "uapin": 8837,
      "eimah": 8838,
      "thon": 8839,
      "theem": 8840,
      "dingteʼ": 8841,
      "dingsakkik": 8842,
      "cidamsak": 8843,
      "cimawhsak": 8844,
      "akʼ": 8845,
      "aktui": 8846,
      "kitung": 8847,
      "kitu": 8848,
      "kise": 8849,
      "kilung": 8850,
      "kihing": 8851,
      "kitai": 8852,
      "kipian": 8853,
      "kidal": 8854,
      "kisiah": 8855,
      "kimuang": 8856,
      "kidelh": 8857,
      "kihotkhiatna": 8858,
      "kitut": 8859,
      "kigimsak": 8860,
      "kitatna": 8861,
      "kizahtakna": 8862,
      "kisuahtak": 8863,
      "kimawhsakna": 8864,
      "kikhuh": 8865,
      "kidaisak": 8866,
      "kisatin": 8867,
      "kilahna": 8868,
      "kihehnem": 8869,
      "kivuk": 8870,
      "kipiansak": 8871,
      "kisawmna": 8872,
      "kisuahin": 8873,
      "kilik": 8874,
      "kikhualna": 8875,
      "kiliamsak": 8876,
      "kibua": 8877,
      "kileina": 8878,
      "kimaisakin": 8879,
      "kikipsakna": 8880,
      "kipeh": 8881,
      "kithosak": 8882,
      "kideidanna": 8883,
      "kikhuak": 8884,
      "antah": 8885,
      "anvai": 8886,
      "anlakna": 8887,
      "annim": 8888,
      "anthul": 8889,
      "lelna": 8890,
      "lephung": 8891,
      "lethai": 8892,
      "sikin": 8893,
      "sipaʼ": 8894,
      "silhna": 8895,
      "siamin": 8896,
      "atkik": 8897,
      "attan": 8898,
      "mimi": 8899,
      "misu": 8900,
      "mipite": 8901,
      "misiate": 8902,
      "mithe": 8903,
      "ene": 8904,
      "entel": 8905,
      "enezer": 8906,
      "thutakin": 8907,
      "thukin": 8908,
      "thuphawk": 8909,
      "thupite": 8910,
      "thukhauh": 8911,
      "thusit": 8912,
      "thutawpna": 8913,
      "thukhualna": 8914,
      "thukihilhna": 8915,
      "airo": 8916,
      "tungzang": 8917,
      "umʼ": 8918,
      "ummawh": 8919,
      "umgah": 8920,
      "Tual": 8921,
      "peu": 8922,
      "opagas": 8923,
      "omerʼ": 8924,
      "tawhna": 8925,
      "tawhkuang": 8926,
      "taʼ": 8927,
      "tasak": 8928,
      "taanna": 8929,
      "tasel": 8930,
      "sungkua": 8931,
      "khituite": 8932,
      "tulh": 8933,
      "tupaʼ": 8934,
      "tutungin": 8935,
      "Pathro": 8936,
      "paitosak": 8937,
      "paikhawmsak": 8938,
      "theisakkik": 8939,
      "theitelsak": 8940,
      "zongsak": 8941,
      "sumit": 8942,
      "lio": 8943,
      "liʼ": 8944,
      "liteʼ": 8945,
      "limun": 8946,
      "liasʼ": 8947,
      "hiamin": 8948,
      "lehpan": 8949,
      "lehkik": 8950,
      "lehpiak": 8951,
      "penes": 8952,
      "manzah": 8953,
      "mannah": 8954,
      "manuel": 8955,
      "awlmawh": 8956,
      "phang": 8957,
      "pheite": 8958,
      "laina": 8959,
      "maangin": 8960,
      "mavan": 8961,
      "masuan": 8962,
      "masal": 8963,
      "genteʼ": 8964,
      "gentham": 8965,
      "genkikin": 8966,
      "bangpi": 8967,
      "Jeko": 8968,
      "Jetur": 8969,
      "kummin": 8970,
      "laim": 8971,
      "laiʼ": 8972,
      "bilah": 8973,
      "khuateʼ": 8974,
      "khuanai": 8975,
      "khuaneu": 8976,
      "hop": 8977,
      "hobe": 8978,
      "hoina": 8979,
      "hoglah": 8980,
      "nia": 8981,
      "nis": 8982,
      "niel": 8983,
      "nisuak": 8984,
      "cihsak": 8985,
      "cihnate": 8986,
      "sed": 8987,
      "seem": 8988,
      "sese": 8989,
      "serah": 8990,
      "ukan": 8991,
      "uksawnte": 8992,
      "eklei": 8993,
      "raʼ": 8994,
      "biaknopna": 8995,
      "innkam": 8996,
      "innkamte": 8997,
      "mindaih": 8998,
      "Ishiʼ": 8999,
      "Isaiahʼ": 9000,
      "lungka": 9001,
      "lunggimna": 9002,
      "lungham": 9003,
      "lunggimin": 9004,
      "utin": 9005,
      "utte": 9006,
      "hangsak": 9007,
      "hangsan": 9008,
      "hangkeu": 9009,
      "leipa": 9010,
      "leikik": 9011,
      "awnsak": 9012,
      "kikui": 9013,
      "kikuangsak": 9014,
      "atnate": 9015,
      "ond": 9016,
      "semkik": 9017,
      "mute": 9018,
      "mukhol": 9019,
      "maim": 9020,
      "maite": 9021,
      "maisuah": 9022,
      "maipuak": 9023,
      "maipukin": 9024,
      "simnate": 9025,
      "simbeng": 9026,
      "theihtheihna": 9027,
      "dangdang": 9028,
      "rion": 9029,
      "risha": 9030,
      "rioth": 9031,
      "kup": 9032,
      "lianpaʼ": 9033,
      "liansakin": 9034,
      "piakzah": 9035,
      "piakkhop": 9036,
      "piakikin": 9037,
      "hep": 9038,
      "hepkhiat": 9039,
      "tuize": 9040,
      "tuikhal": 9041,
      "tuilite": 9042,
      "tuilakna": 9043,
      "tuidawnte": 9044,
      "tuivot": 9045,
      "zaak": 9046,
      "zaai": 9047,
      "gallauna": 9048,
      "galnanna": 9049,
      "siasa": 9050,
      "siateʼ": 9051,
      "siakhawm": 9052,
      "siacipin": 9053,
      "Nasepna": 9054,
      "Nafi": 9055,
      "sanga": 9056,
      "sangun": 9057,
      "sangtosak": 9058,
      "awnghawh": 9059,
      "khasim": 9060,
      "khade": 9061,
      "Mimawhte": 9062,
      "Miletas": 9063,
      "vik": 9064,
      "vim": 9065,
      "shanʼ": 9066,
      "khamkhi": 9067,
      "khamcip": 9068,
      "Jog": 9069,
      "Joelʼ": 9070,
      "khinte": 9071,
      "Kanah": 9072,
      "Kabzeel": 9073,
      "zosak": 9074,
      "hingtangun": 9075,
      "phadiak": 9076,
      "hul": 9077,
      "husa": 9078,
      "hoihlam": 9079,
      "hoihzawkna": 9080,
      "neam": 9081,
      "nesakin": 9082,
      "nehin": 9083,
      "nesar": 9084,
      "berath": 9085,
      "bezek": 9086,
      "khutun": 9087,
      "khuttung": 9088,
      "Khuai": 9089,
      "thosakin": 9090,
      "nungsang": 9091,
      "nungsakin": 9092,
      "nungtakik": 9093,
      "nonate": 9094,
      "pawmin": 9095,
      "abʼ": 9096,
      "abbeth": 9097,
      "luzu": 9098,
      "luguh": 9099,
      "thumthum": 9100,
      "thumuhnate": 9101,
      "Ahisam": 9102,
      "tolh": 9103,
      "toto": 9104,
      "toreth": 9105,
      "tawnna": 9106,
      "zik": 9107,
      "zipi": 9108,
      "Keivom": 9109,
      "Moza": 9110,
      "Mothak": 9111,
      "More": 9112,
      "Siat": 9113,
      "Siddim": 9114,
      "Siene": 9115,
      "Sirion": 9116,
      "awkna": 9117,
      "khawmkik": 9118,
      "did": 9119,
      "diangin": 9120,
      "diamin": 9121,
      "dias": 9122,
      "diik": 9123,
      "diblath": 9124,
      "ditkikna": 9125,
      "Daberath": 9126,
      "buangin": 9127,
      "buel": 9128,
      "busim": 9129,
      "bukiah": 9130,
      "bekʼ": 9131,
      "muhkik": 9132,
      "zahzahin": 9133,
      "ngaihhuai": 9134,
      "kihui": 9135,
      "kihelh": 9136,
      "kihutna": 9137,
      "tanlam": 9138,
      "khiatte": 9139,
      "lungsimʼ": 9140,
      "khusa": 9141,
      "Justas": 9142,
      "namon": 9143,
      "namnamin": 9144,
      "sawltakin": 9145,
      "sawlkikin": 9146,
      "sawlbawk": 9147,
      "khotte": 9148,
      "suanna": 9149,
      "suankik": 9150,
      "eroth": 9151,
      "kinna": 9152,
      "kinim": 9153,
      "kineu": 9154,
      "thuakkhak": 9155,
      "taim": 9156,
      "taipih": 9157,
      "sansan": 9158,
      "sanhuai": 9159,
      "samsiate": 9160,
      "suahsakna": 9161,
      "suahnop": 9162,
      "suahkhiatsak": 9163,
      "siampipihte": 9164,
      "sunʼ": 9165,
      "sunthapai": 9166,
      "sunsunte": 9167,
      "koihpa": 9168,
      "thatteʼ": 9169,
      "khennate": 9170,
      "khenkip": 9171,
      "zukhamte": 9172,
      "kimna": 9173,
      "kimsak": 9174,
      "kimakna": 9175,
      "baangin": 9176,
      "bathah": 9177,
      "kapkik": 9178,
      "tampiʼ": 9179,
      "ngasak": 9180,
      "kiptak": 9181,
      "tunzawh": 9182,
      "hehsakin": 9183,
      "leengtui": 9184,
      "leengkai": 9185,
      "etkik": 9186,
      "etniamna": 9187,
      "etrias": 9188,
      "suktheih": 9189,
      "suknawi": 9190,
      "suktansak": 9191,
[...]
