{
  "version": "1.0",
  "truncation": null,
  "padding": null,
  "added_tokens": [
    {
      "id": 0,
      "content": "<pad>",
      "single_word": false,
      "lstrip": false,
      "rstrip": false,
      "normalized": false,
      "special": true
    },
    {
      "id": 1,
      "content": "<unk>",
      "single_word": false,
      "lstrip": false,
      "rstrip": false,
      "normalized": false,
      "special": true
    },
    {
      "id": 2,
      "content": "<s>",
      "single_word": false,
      "lstrip": false,
      "rstrip": false,
      "normalized": false,
      "special": true
    },
    {
      "id": 3,
      "content": "</s>",
      "single_word": false,
      "lstrip": false,
      "rstrip": false,
      "normalized": false,
      "special": true
    }
  ],
  "normalizer": null,
  "pre_tokenizer": {
    "type": "Sequence",
    "pretokenizers": [
      {
        "type": "Whitespace"
      },
      {
        "type": "Split",
        "pattern": {
          "Regex": "(?<=[ऀ-ॿ஀-௿฀-๿຀-໿က-႟ក-៿一-鿿꤀-꤯])(?=[A-Za-z0-9])|(?<=[A-Za-z0-9])(?=[ऀ-ॿ஀-௿฀-๿຀-໿က-႟ក-៿一-鿿꤀-꤯])"
        },
        "behavior": "Isolated",
        "invert": false
      }
    ]
  },
  "post_processor": null,
  "decoder": null,
  "model": {
    "type": "BPE",
    "dropout": null,
    "unk_token": "<unk>",
    "continuing_subword_prefix": null,
    "end_of_word_suffix": null,
    "fuse_unk": false,
    "byte_fallback": false,
    "ignore_merges": false,
    "vocab": {
      "<pad>": 0,
      "<unk>": 1,
      "<s>": 2,
      "</s>": 3,
      "!": 4,
      "\"": 5,
      "(": 6,
      ")": 7,
      "*": 8,
      ",": 9,
      "-": 10,
      ".": 11,
      "1": 12,
      "2": 13,
      "4": 14,
      ":": 15,
      ";": 16,
      "=": 17,
      ">": 18,
      "?": 19,
      "[": 20,
      "]": 21,
      "|": 22,
      "ँ": 23,
      "ं": 24,
      "ः": 25,
      "अ": 26,
      "आ": 27,
      "इ": 28,
      "ई": 29,
      "उ": 30,
      "ऊ": 31,
      "ऋ": 32,
      "ए": 33,
      "ऐ": 34,
      "ओ": 35,
      "औ": 36,
      "क": 37,
      "ख": 38,
      "ग": 39,
      "घ": 40,
      "च": 41,
      "छ": 42,
      "ज": 43,
      "झ": 44,
      "ञ": 45,
      "ट": 46,
      "ठ": 47,
      "ड": 48,
      "ढ": 49,
      "ण": 50,
      "त": 51,
      "थ": 52,
      "द": 53,
      "ध": 54,
      "न": 55,
      "प": 56,
      "फ": 57,
      "ब": 58,
      "भ": 59,
      "म": 60,
      "य": 61,
      "र": 62,
      "ल": 63,
      "व": 64,
      "श": 65,
      "ष": 66,
      "स": 67,
      "ह": 68,
      "़": 69,
      "ा": 70,
      "ि": 71,
      "ी": 72,
      "ु": 73,
      "ू": 74,
      "ृ": 75,
      "ॅ": 76,
      "े": 77,
      "ै": 78,
      "ॉ": 79,
      "ो": 80,
      "ौ": 81,
      "्": 82,
      "ॠ": 83,
      "।": 84,
      "॥": 85,
      "‌": 86,
      "‘": 87,
      "’": 88,
      "“": 89,
      "”": 90,
      "के": 91,
      "और": 92,
      "ने": 93,
      "ों": 94,
      "मे": 95,
      "से": 96,
      "या": 97,
      "कर": 98,
      "का": 99,
      "है": 100,
      "्र": 101,
      "को": 102,
      "उस": 103,
      "कि": 104,
      "वा": 105,
      "हो": 106,
      "पर": 107,
      "में": 108,
      "की": 109,
      "ता": 110,
      "न्": 111,
      "हा": 112,
      "ना": 113,
      "जा": 114,
      "रा": 115,
      "तु": 116,
      "िय": 117,
      "ते": 118,
      "ड़": 119,
      "रे": 120,
      "सा": 121,
      "्य": 122,
      "गा": 123,
      "ही": 124,
      "दे": 125,
      "ले": 126,
      "अप": 127,
      "मा": 128,
      "र्": 129,
      "दि": 130,
      "जो": 131,
      "हे": 132,
      "वह": 133,
      "हु": 134,
      "मै": 135,
      "ला": 136,
      "स्": 137,
      "पा": 138,
      "उन": 139,
      "प्र": 140,
      "मैं": 141,
      "बा": 142,
      "यहो": 143,
      "री": 144,
      "था": 145,
      "त्र": 146,
      "इस": 147,
      "यहोवा": 148,
      "लिय": 149,
      "अपने": 150,
      "श्": 151,
      "तुम": 152,
      "दा": 153,
      "भी": 154,
      "वि": 155,
      "चा": 156,
      "वे": 157,
      "लिये": 158,
      "क्": 159,
      "तब": 160,
      "तो": 161,
      "नी": 162,
      "यह": 163,
      "हैं": 164,
      "वर": 165,
      "ंग": 166,
      "ूं": 167,
      "मु": 168,
      "लो": 169,
      "्यों": 170,
      "पु": 171,
      "नि": 172,
      "त्": 173,
      "उसके": 174,
      "हीं": 175,
      "जि": 176,
      "ियों": 177,
      "ति": 178,
      "तू": 179,
      "ती": 180,
      "द्": 181,
      "कहा": 182,
      "एक": 183,
      "श्वर": 184,
      "िर": 185,
      "सब": 186,
      "क्यों": 187,
      "परमे": 188,
      "परमेश्वर": 189,
      "नहीं": 190,
      "खा": 191,
      "सी": 192,
      "मि": 193,
      "सु": 194,
      "ढ़": 195,
      "क्योंकि": 196,
      "लि": 197,
      "म्": 198,
      "लोग": 199,
      "कार": 200,
      "ली": 201,
      "मन": 202,
      "ाए": 203,
      "कु": 204,
      "भा": 205,
      "फिर": 206,
      "जाए": 207,
      "कह": 208,
      "न्तु": 209,
      "जब": 210,
      "रह": 211,
      "परन्तु": 212,
      "देश": 213,
      "किया": 214,
      "मेरे": 215,
      "दी": 216,
      "पास": 217,
      "दिया": 218,
      "गया": 219,
      "राजा": 220,
      "थे": 221,
      "हि": 222,
      "झे": 223,
      "क्या": 224,
      "उन्": 225,
      "दो": 226,
      "ुष": 227,
      "तुम्": 228,
      "तेरे": 229,
      "ड़े": 230,
      "तक": 231,
      "रू": 232,
      "ड़ा": 233,
      "पुत्र": 234,
      "उसने": 235,
      "ओं": 236,
      "हों": 237,
      "द्ध": 238,
      "दिन": 239,
      "ंगे": 240,
      "गे": 241,
      "जिस": 242,
      "शा": 243,
      "करे": 244,
      "मान": 245,
      "हम": 246,
      "हुए": 247,
      "अपनी": 248,
      "हें": 249,
      "दू": 250,
      "्राए": 251,
      "इस्राए": 252,
      "शु": 253,
      "देख": 254,
      "सो": 255,
      "ूंगा": 256,
      "पी": 257,
      "तुम्हा": 258,
      "उसे": 259,
      "सम": 260,
      "भे": 261,
      "डा": 262,
      "कोई": 263,
      "ओर": 264,
      "याह": 265,
      "ज्": 266,
      "तर": 267,
      "करने": 268,
      "बी": 269,
      "बु": 270,
      "हूं": 271,
      "हुआ": 272,
      "बे": 273,
      "हां": 274,
      "हाथ": 275,
      "नाम": 276,
      "स्त्र": 277,
      "रहे": 278,
      "पू": 279,
      "मनुष": 280,
      "स्था": 281,
      "नों": 282,
      "्ट": 283,
      "रो": 284,
      "काम": 285,
      "पि": 286,
      "उनके": 287,
      "थी": 288,
      "गए": 289,
      "लोगों": 290,
      "मू": 291,
      "च्": 292,
      "कारण": 293,
      "ठह": 294,
      "गी": 295,
      "कुछ": 296,
      "अन": 297,
      "न्ध": 298,
      "लगा": 299,
      "जी": 300,
      "रख": 301,
      "चार": 302,
      "वर्": 303,
      "गर": 304,
      "मी": 305,
      "मुझे": 306,
      "साथ": 307,
      "करता": 308,
      "उठ": 309,
      "उसका": 310,
      "चे": 311,
      "ज्ञ": 312,
      "वाले": 313,
      "बि": 314,
      "हमा": 315,
      "इसलिये": 316,
      "ऊं": 317,
      "वी": 318,
      "मेरी": 319,
      "छा": 320,
      "उसकी": 321,
      "निक": 322,
      "अर्": 323,
      "सि": 324,
      "वन": 325,
      "बना": 326,
      "ये": 327,
      "यदि": 328,
      "ज्ञा": 329,
      "इस्राएल": 330,
      "होंने": 331,
      "जान": 332,
      "भु": 333,
      "प्रा": 334,
      "उत्": 335,
      "्ड": 336,
      "धि": 337,
      "नगर": 338,
      "मनुष्य": 339,
      "लों": 340,
      "बात": 341,
      "यों": 342,
      "म्ह": 343,
      "विष": 344,
      "सुन": 345,
      "ड़ी": 346,
      "उन्होंने": 347,
      "तुम्हारे": 348,
      "बहु": 349,
      "उसको": 350,
      "साम्ह": 351,
      "ऐसा": 352,
      "अनु": 353,
      "चि": 354,
      "राज": 355,
      "अब": 356,
      "वित्र": 357,
      "यहू": 358,
      "प्रभु": 359,
      "गि": 360,
      "साम्हने": 361,
      "ढ़ा": 362,
      "क्ष": 363,
      "मर": 364,
      "ण्ड": 365,
      "हर": 366,
      "सन्": 367,
      "मो": 368,
      "पहि": 369,
      "सार": 370,
      "पवित्र": 371,
      "अर्था": 372,
      "अर्थात": 373,
      "मुझ": 374,
      "यो": 375,
      "उन्हें": 376,
      "धा": 377,
      "बहुत": 378,
      "छो": 379,
      "वच": 380,
      "तुझे": 381,
      "बै": 382,
      "हुई": 383,
      "आज्ञा": 384,
      "लिया": 385,
      "वास": 386,
      "करते": 387,
      "ल्": 388,
      "ऊद": 389,
      "दाऊद": 390,
      "तेरा": 391,
      "यी": 392,
      "स्थान": 393,
      "समय": 394,
      "रहा": 395,
      "तेरी": 396,
      "पिता": 397,
      "किसी": 398,
      "व्य": 399,
      "वचन": 400,
      "अपना": 401,
      "मेरा": 402,
      "द्वा": 403,
      "पत्": 404,
      "याज": 405,
      "कहता": 406,
      "अधि": 407,
      "हू": 408,
      "गई": 409,
      "अनुसार": 410,
      "बलि": 411,
      "अन्": 412,
      "याजक": 413,
      "तें": 414,
      "यां": 415,
      "बो": 416,
      "आए": 417,
      "मार": 418,
      "यीशु": 419,
      "टी": 420,
      "लियों": 421,
      "वर्ष": 422,
      "टा": 423,
      "हमारे": 424,
      "तुझ": 425,
      "चल": 426,
      "घर": 427,
      "जै": 428,
      "पहु": 429,
      "ईं": 430,
      "बातें": 431,
      "्याह": 432,
      "उसी": 433,
      "भू": 434,
      "पहुं": 435,
      "बीच": 436,
      "ठहरा": 437,
      "होगा": 438,
      "छे": 439,
      "्ठ": 440,
      "मूसा": 441,
      "तियों": 442,
      "यरू": 443,
      "र्थ": 444,
      "दास": 445,
      "नाश": 446,
      "करके": 447,
      "र्म": 448,
      "लेम": 449,
      "जाएगा": 450,
      "जल": 451,
      "वहां": 452,
      "ष्ट": 453,
      "संग": 454,
      "यरूश": 455,
      "भवन": 456,
      "स्तु": 457,
      "न्द": 458,
      "यरूशलेम": 459,
      "दूस": 460,
      "कट": 461,
      "करो": 462,
      "थ्": 463,
      "न्या": 464,
      "स्र": 465,
      "इन": 466,
      "खे": 467,
      "भाग": 468,
      "पृ": 469,
      "पाप": 470,
      "थ्वी": 471,
      "पृथ्वी": 472,
      "ौन": 473,
      "वै": 474,
      "करना": 475,
      "तान": 476,
      "चु": 477,
      "शे": 478,
      "ंह": 479,
      "जन": 480,
      "दृ": 481,
      "राज्य": 482,
      "टे": 483,
      "रूष": 484,
      "लगे": 485,
      "पुरूष": 486,
      "विषय": 487,
      "सौ": 488,
      "ुद्ध": 489,
      "आया": 490,
      "लवा": 491,
      "वाला": 492,
      "यहूदा": 493,
      "प्": 494,
      "मिस्र": 495,
      "भर": 496,
      "कू": 497,
      "चढ़ा": 498,
      "पुर": 499,
      "पड़े": 500,
      "रों": 501,
      "नाईं": 502,
      "दान": 503,
      "पां": 504,
      "बू": 505,
      "काल": 506,
      "उठा": 507,
      "ऊंगा": 508,
      "द्र": 509,
      "न्त": 510,
      "सक": 511,
      "वरन": 512,
      "घा": 513,
      "फा": 514,
      "लौ": 515,
      "प्रजा": 516,
      "जित": 517,
      "्रा": 518,
      "णी": 519,
      "घरा": 520,
      "देता": 521,
      "खो": 522,
      "शुद्ध": 523,
      "ब्": 524,
      "तौ": 525,
      "आप": 526,
      "विश्": 527,
      "शू": 528,
      "होता": 529,
      "जाता": 530,
      "देखा": 531,
      "पीछे": 532,
      "मुंह": 533,
      "छोड़": 534,
      "त्मा": 535,
      "उनकी": 536,
      "डाल": 537,
      "ोन": 538,
      "करूंगा": 539,
      "द्वारा": 540,
      "वस्तु": 541,
      "समान": 542,
      "जिन": 543,
      "एं": 544,
      "विश्वास": 545,
      "जाने": 546,
      "मेत": 547,
      "उत्तर": 548,
      "क्र": 549,
      "शी": 550,
      "र्ग": 551,
      "न्न": 552,
      "पहिले": 553,
      "समेत": 554,
      "चला": 555,
      "उप": 556,
      "चौ": 557,
      "भाई": 558,
      "गो": 559,
      "धर्म": 560,
      "सेना": 561,
      "तों": 562,
      "उनका": 563,
      "सुना": 564,
      "ियां": 565,
      "जाति": 566,
      "दोनों": 567,
      "होने": 568,
      "बल": 569,
      "स्त्री": 570,
      "ंश": 571,
      "प्रकार": 572,
      "सू": 573,
      "मार्ग": 574,
      "आं": 575,
      "तुम्हें": 576,
      "करेगा": 577,
      "ऊपर": 578,
      "भूमि": 579,
      "मुख": 580,
      "तौभी": 581,
      "त्य": 582,
      "राई": 583,
      "मसी": 584,
      "वालों": 585,
      "समझ": 586,
      "दृष्ट": 587,
      "दूंगा": 588,
      "लू": 589,
      "निकल": 590,
      "लड़": 591,
      "बाद": 592,
      "मसीह": 593,
      "पे": 594,
      "भो": 595,
      "विष्य": 596,
      "रहने": 597,
      "वस्था": 598,
      "सारे": 599,
      "आत्मा": 600,
      "करें": 601,
      "पहुंचा": 602,
      "एल": 603,
      "पहा": 604,
      "दूर": 605,
      "दु": 606,
      "दूसरे": 607,
      "चले": 608,
      "सम्": 609,
      "काश": 610,
      "भविष्य": 611,
      "ेर": 612,
      "किए": 613,
      "सात": 614,
      "स्वर्": 615,
      "बैठ": 616,
      "सिर": 617,
      "प्रधा": 618,
      "बान्ध": 619,
      "ंगी": 620,
      "लग": 621,
      "प्राण": 622,
      "भि": 623,
      "ठहरे": 624,
      "एगा": 625,
      "विर": 626,
      "छु": 627,
      "टक": 628,
      "बड़े": 629,
      "कहने": 630,
      "विरुद्ध": 631,
      "पक": 632,
      "ंट": 633,
      "बन": 634,
      "सन्तान": 635,
      "कर्": 636,
      "दुष": 637,
      "आज": 638,
      "आकर": 639,
      "यहां": 640,
      "मिला": 641,
      "धु": 642,
      "दोष": 643,
      "दुष्ट": 644,
      "आगे": 645,
      "सारी": 646,
      "ड़ों": 647,
      "द्धि": 648,
      "वाद": 649,
      "बाल": 650,
      "स्वर्ग": 651,
      "दृष्टि": 652,
      "वत": 653,
      "वही": 654,
      "देखो": 655,
      "न्याय": 656,
      "इयों": 657,
      "पशु": 658,
      "न्य": 659,
      "बुद्धि": 660,
      "आन": 661,
      "महा": 662,
      "दण्ड": 663,
      "रहता": 664,
      "छि": 665,
      "घराने": 666,
      "इस्त्र": 667,
      "इस्राएलियों": 668,
      "धन्य": 669,
      "इस्त्राए": 670,
      "फल": 671,
      "यु": 672,
      "दाख": 673,
      "यही": 674,
      "निर्": 675,
      "जाते": 676,
      "हजा": 677,
      "च्छा": 678,
      "यू": 679,
      "पन्न": 680,
      "डाला": 681,
      "हाय": 682,
      "उत्पन्न": 683,
      "बड़ा": 684,
      "तलवा": 685,
      "दियों": 686,
      "वश": 687,
      "निकाल": 688,
      "आग": 689,
      "व्यवस्था": 690,
      "दिखा": 691,
      "नियों": 692,
      "इकट": 693,
      "कूब": 694,
      "तीन": 695,
      "जैसा": 696,
      "ग्र": 697,
      "णा": 698,
      "सकता": 699,
      "इकट्ठ": 700,
      "ऊल": 701,
      "जाएंगे": 702,
      "रखा": 703,
      "जे": 704,
      "याकूब": 705,
      "चाह": 706,
      "शाऊल": 707,
      "रहेगा": 708,
      "वंश": 709,
      "तलवार": 710,
      "गु": 711,
      "हजार": 712,
      "पड़": 713,
      "बढ़": 714,
      "प्रधान": 715,
      "कै": 716,
      "क्ति": 717,
      "पति": 718,
      "देव": 719,
      "ठी": 720,
      "धी": 721,
      "जीवन": 722,
      "जातियों": 723,
      "सर": 724,
      "हूँ": 725,
      "बातों": 726,
      "चारों": 727,
      "जाएं": 728,
      "निय": 729,
      "वाणी": 730,
      "पर्": 731,
      "प्रे": 732,
      "ट्ट": 733,
      "्या": 734,
      "रीति": 735,
      "खड़ा": 736,
      "आकाश": 737,
      "अन्ध": 738,
      "सं": 739,
      "समा": 740,
      "द्धा": 741,
      "चढ़": 742,
      "चाहे": 743,
      "मनुष्यों": 744,
      "ऐसी": 745,
      "कौन": 746,
      "बचा": 747,
      "परा": 748,
      "अशुद्ध": 749,
      "भला": 750,
      "जानता": 751,
      "ग्रह": 752,
      "न्दि": 753,
      "रहते": 754,
      "अधिक": 755,
      "सके": 756,
      "ित": 757,
      "ची": 758,
      "देने": 759,
      "नती": 760,
      "फाटक": 761,
      "जितने": 762,
      "शि": 763,
      "ंस": 764,
      "डर": 765,
      "तुम्हारा": 766,
      "वेदी": 767,
      "ऐसे": 768,
      "बड़ी": 769,
      "यि": 770,
      "वस्त्र": 771,
      "बार": 772,
      "जैसे": 773,
      "वें": 774,
      "बकर": 775,
      "मण्ड": 776,
      "बता": 777,
      "बच्": 778,
      "सदा": 779,
      "मिल": 780,
      "त्त": 781,
      "भेड़": 782,
      "बन्ध": 783,
      "भय": 784,
      "मत": 785,
      "भेजा": 786,
      "र्व": 787,
      "प्रेम": 788,
      "ंगा": 789,
      "जीवि": 790,
      "गोत्र": 791,
      "लाया": 792,
      "बाहर": 793,
      "त्या": 794,
      "जंग": 795,
      "रून": 796,
      "क्रो": 797,
      "रात": 798,
      "थीं": 799,
      "धन": 800,
      "हारून": 801,
      "जीवित": 802,
      "श्च": 803,
      "दिनों": 804,
      "तुम्हारी": 805,
      "लौट": 806,
      "आब": 807,
      "इसी": 808,
      "वाचा": 809,
      "देगा": 810,
      "द्व": 811,
      "घात": 812,
      "लै": 813,
      "पथ": 814,
      "भविष्यद्व": 815,
      "कभी": 816,
      "मारे": 817,
      "प्रार्थ": 818,
      "प्रार्थना": 819,
      "ताओं": 820,
      "गट": 821,
      "शब्": 822,
      "कारी": 823,
      "भाइयों": 824,
      "डे": 825,
      "हमें": 826,
      "प्रगट": 827,
      "थर": 828,
      "पड़ा": 829,
      "प्रति": 830,
      "पत्ति": 831,
      "शब्द": 832,
      "शो": 833,
      "लेगा": 834,
      "तीस": 835,
      "रहो": 836,
      "समु": 837,
      "स्थ": 838,
      "िया": 839,
      "बर": 840,
      "छुड़ा": 841,
      "उद्धा": 842,
      "लु": 843,
      "शपथ": 844,
      "पूछा": 845,
      "भविष्यद्वक्": 846,
      "उद्धार": 847,
      "धू": 848,
      "कर्म": 849,
      "समुद्र": 850,
      "खड़े": 851,
      "जिसे": 852,
      "भेंट": 853,
      "कामों": 854,
      "किस": 855,
      "पाए": 856,
      "सोने": 857,
      "सेवा": 858,
      "खि": 859,
      "स्वा": 860,
      "त्रु": 861,
      "पुरुष": 862,
      "भों": 863,
      "भीतर": 864,
      "निवास": 865,
      "ऊंचे": 866,
      "योग": 867,
      "एली": 868,
      "पो": 869,
      "दूत": 870,
      "किम": 871,
      "साम": 872,
      "करेंगे": 873,
      "शत्रु": 874,
      "हाकिम": 875,
      "समाचार": 876,
      "ईश्वर": 877,
      "पूरी": 878,
      "क्षा": 879,
      "वाली": 880,
      "लोहू": 881,
      "कुल": 882,
      "रखे": 883,
      "तेल": 884,
      "कित": 885,
      "सुलै": 886,
      "पांव": 887,
      "जंगल": 888,
      "आने": 889,
      "जला": 890,
      "तै": 891,
      "आनन्द": 892,
      "योग्य": 893,
      "दस": 894,
      "महि": 895,
      "होम": 896,
      "रि": 897,
      "माता": 898,
      "जाओ": 899,
      "वैसा": 900,
      "इब": 901,
      "तम्": 902,
      "धर": 903,
      "इस्राएली": 904,
      "रोटी": 905,
      "जहां": 906,
      "महिमा": 907,
      "ढ़ी": 908,
      "्राम": 909,
      "ढा": 910,
      "सुलैमान": 911,
      "लिश्": 912,
      "पलिश्": 913,
      "पार": 914,
      "भेज": 915,
      "बोल": 916,
      "कहे": 917,
      "हट": 918,
      "क्रोध": 919,
      "ट्ठ": 920,
      "च्छ": 921,
      "मरण": 922,
      "निश्च": 923,
      "भोजन": 924,
      "निश्चय": 925,
      "वृ": 926,
      "वैसे": 927,
      "सेनाओं": 928,
      "स्मरण": 929,
      "प्त": 930,
      "होती": 931,
      "दिए": 932,
      "कों": 933,
      "पांच": 934,
      "धो": 935,
      "ल्ला": 936,
      "अन्त": 937,
      "रखता": 938,
      "फि": 939,
      "होते": 940,
      "निकट": 941,
      "कहला": 942,
      "जानते": 943,
      "जिन्": 944,
      "तम्बू": 945,
      "आशी": 946,
      "हमारा": 947,
      "दन": 948,
      "मधु": 949,
      "रियों": 950,
      "खाने": 951,
      "जग": 952,
      "न्दी": 953,
      "होंगे": 954,
      "बद": 955,
      "नीचे": 956,
      "बनाया": 957,
      "ठहराया": 958,
      "वल": 959,
      "होकर": 960,
      "होमबलि": 961,
      "बढ़ा": 962,
      "चिन्": 963,
      "पत्थर": 964,
      "अलग": 965,
      "करू": 966,
      "न्ति": 967,
      "जाती": 968,
      "देना": 969,
      "इस्त्राएलियों": 970,
      "दार": 971,
      "जाना": 972,
      "कहते": 973,
      "अन्न": 974,
      "खी": 975,
      "सच": 976,
      "शान्ति": 977,
      "इब्रा": 978,
      "ढ़े": 979,
      "केवल": 980,
      "अभि": 981,
      "हार": 982,
      "िय़": 983,
      "सन्न": 984,
      "द्वार": 985,
      "खों": 986,
      "अन्य": 987,
      "ट्टी": 988,
      "टु": 989,
      "मही": 990,
      "मेल": 991,
      "होगी": 992,
      "लें": 993,
      "अनुग्रह": 994,
      "स्वामी": 995,
      "पूरा": 996,
      "उत्त": 997,
      "गिर": 998,
      "सच्": 999,
      "राम": 1000,
      "सुफ": 1001,
      "तैया": 1002,
      "र्य": 1003,
      "नगरों": 1004,
      "रही": 1005,
      "सह": 1006,
      "पत्नी": 1007,
      "जय": 1008,
      "य्याह": 1009,
      "िय्य": 1010,
      "यहूदियों": 1011,
      "यूसुफ": 1012,
      "हीम": 1013,
      "र्मी": 1014,
      "पहाड़": 1015,
      "पकड़": 1016,
      "ंप": 1017,
      "युद्ध": 1018,
      "लिए": 1019,
      "इब्राहीम": 1020,
      "सभों": 1021,
      "फिरौन": 1022,
      "बिना": 1023,
      "अधर्म": 1024,
      "ोर": 1025,
      "धर्मी": 1026,
      "फू": 1027,
      "याजकों": 1028,
      "शूर": 1029,
      "हमारी": 1030,
      "प्रसन्न": 1031,
      "क्त": 1032,
      "लगी": 1033,
      "करा": 1034,
      "परि": 1035,
      "फै": 1036,
      "किय्याह": 1037,
      "र्श": 1038,
      "अधिकारी": 1039,
      "ठा": 1040,
      "बाबु": 1041,
      "मरे": 1042,
      "ें": 1043,
      "मिट्टी": 1044,
      "अधिकार": 1045,
      "कब": 1046,
      "कहीं": 1047,
      "बाबुल": 1048,
      "ंति": 1049,
      "झू": 1050,
      "नान": 1051,
      "पूर्व": 1052,
      "खु": 1053,
      "सन": 1054,
      "उत्तम": 1055,
      "आई": 1056,
      "जवा": 1057,
      "तना": 1058,
      "उससे": 1059,
      "यहोशू": 1060,
      "महीने": 1061,
      "पह": 1062,
      "हुओं": 1063,
      "जाएगी": 1064,
      "चर": 1065,
      "देखकर": 1066,
      "बुराई": 1067,
      "ठहर": 1068,
      "तन": 1069,
      "देह": 1070,
      "राजाओं": 1071,
      "बेट": 1072,
      "मन्दि": 1073,
      "ताकि": 1074,
      "इच्छा": 1075,
      "तोड़": 1076,
      "हल": 1077,
      "बारह": 1078,
      "बेटी": 1079,
      "बिनती": 1080,
      "स्थिर": 1081,
      "मृ": 1082,
      "पुत्रों": 1083,
      "चढ़ाई": 1084,
      "चाहता": 1085,
      "पना": 1086,
      "रहें": 1087,
      "वनी": 1088,
      "पुस्": 1089,
      "इकट्ठे": 1090,
      "मन्दिर": 1091,
      "डिय़": 1092,
      "थो": 1093,
      "बन्द": 1094,
      "सेव": 1095,
      "िय्याह": 1096,
      "विश": 1097,
      "चाल": 1098,
      "छू": 1099,
      "तार": 1100,
      "सुनो": 1101,
      "तैयार": 1102,
      "गद": 1103,
      "बुला": 1104,
      "सिवा": 1105,
      "धन्यवाद": 1106,
      "आशा": 1107,
      "देकर": 1108,
      "विपत्ति": 1109,
      "सुनकर": 1110,
      "अच्छा": 1111,
      "वृक्ष": 1112,
      "विश्राम": 1113,
      "अम्": 1114,
      "लेने": 1115,
      "पानी": 1116,
      "दूक": 1117,
      "डाले": 1118,
      "आंखे": 1119,
      "सहाय": 1120,
      "लाल": 1121,
      "भांति": 1122,
      "पुस्तक": 1123,
      "दया": 1124,
      "पाया": 1125,
      "क्षी": 1126,
      "सन्दूक": 1127,
      "त्यु": 1128,
      "पौ": 1129,
      "लता": 1130,
      "ैम": 1131,
      "कान": 1132,
      "मोल": 1133,
      "गवा": 1134,
      "ढूं": 1135,
      "ब्याह": 1136,
      "श्चि": 1137,
      "जिसके": 1138,
      "दृढ़": 1139,
      "धूप": 1140,
      "अबी": 1141,
      "मिले": 1142,
      "जन्": 1143,
      "मांस": 1144,
      "कहां": 1145,
      "भविष्यद्वक्ता": 1146,
      "तरस": 1147,
      "चलते": 1148,
      "परदेश": 1149,
      "टि": 1150,
      "यर": 1151,
      "ज्ञान": 1152,
      "पुरखा": 1153,
      "मृत्यु": 1154,
      "चो": 1155,
      "ठीक": 1156,
      "सच्चा": 1157,
      "लेवी": 1158,
      "लिखा": 1159,
      "न्ना": 1160,
      "मारा": 1161,
      "मूर्": 1162,
      "वस्तुओं": 1163,
      "बीस": 1164,
      "ज़": 1165,
      "लम्": 1166,
      "मूर": 1167,
      "यरदन": 1168,
      "गन्ध": 1169,
      "झु": 1170,
      "विध": 1171,
      "यहूदी": 1172,
      "बैल": 1173,
      "अना": 1174,
      "बरा": 1175,
      "भड़": 1176,
      "दाहि": 1177,
      "पलिश्तियों": 1178,
      "सम्मुख": 1179,
      "एप्र": 1180,
      "दय": 1181,
      "पल": 1182,
      "बह": 1183,
      "भीड़": 1184,
      "चान्दी": 1185,
      "तल": 1186,
      "बने": 1187,
      "दाखमधु": 1188,
      "देवताओं": 1189,
      "अपरा": 1190,
      "गढ़": 1191,
      "दर्श": 1192,
      "स्व": 1193,
      "निज": 1194,
      "बनवा": 1195,
      "मण्डली": 1196,
      "शत्रुओं": 1197,
      "कहकर": 1198,
      "सामर्थ": 1199,
      "दर": 1200,
      "धे": 1201,
      "शै": 1202,
      "हाज": 1203,
      "रहती": 1204,
      "बुरा": 1205,
      "आशीष": 1206,
      "िन": 1207,
      "सारा": 1208,
      "देखते": 1209,
      "तरों": 1210,
      "वियों": 1211,
      "बेटे": 1212,
      "मुख्य": 1213,
      "निर्दोष": 1214,
      "आओ": 1215,
      "पड़ी": 1216,
      "देते": 1217,
      "न्यामी": 1218,
      "ंझ": 1219,
      "पीढ़ी": 1220,
      "चिल्ला": 1221,
      "व्यर्थ": 1222,
      "बैठा": 1223,
      "स्त्रियों": 1224,
      "बिन्यामी": 1225,
      "दिखाई": 1226,
      "खम्": 1227,
      "दल": 1228,
      "फु": 1229,
      "जाकर": 1230,
      "पुकार": 1231,
      "रहेंगे": 1232,
      "स्तुति": 1233,
      "भरो": 1234,
      "हाई": 1235,
      "बछ": 1236,
      "लक": 1237,
      "छावनी": 1238,
      "पर्वत": 1239,
      "दर्शन": 1240,
      "श्र": 1241,
      "निका": 1242,
      "पितरों": 1243,
      "टुक": 1244,
      "रण": 1245,
      "निकला": 1246,
      "मिलाप": 1247,
      "लज्": 1248,
      "देखे": 1249,
      "चेलों": 1250,
      "लड़के": 1251,
      "अश्": 1252,
      "उतर": 1253,
      "घृ": 1254,
      "काट": 1255,
      "निकले": 1256,
      "मोआब": 1257,
      "खेत": 1258,
      "दण्डवत": 1259,
      "ड़ाई": 1260,
      "चर्": 1261,
      "बचे": 1262,
      "बुद्धिमान": 1263,
      "वहीं": 1264,
      "हृ": 1265,
      "घो": 1266,
      "रथ": 1267,
      "स्त": 1268,
      "प्रचार": 1269,
      "व्यभि": 1270,
      "नियम": 1271,
      "लुस": 1272,
      "बनाए": 1273,
      "भरोसा": 1274,
      "गर्": 1275,
      "सभा": 1276,
      "पशुओं": 1277,
      "आधी": 1278,
      "उजा": 1279,
      "दशा": 1280,
      "वासी": 1281,
      "लेवियों": 1282,
      "चित": 1283,
      "न्दित": 1284,
      "गिरा": 1285,
      "बच्चे": 1286,
      "एप्रैम": 1287,
      "अपराध": 1288,
      "घु": 1289,
      "करूं": 1290,
      "लीस": 1291,
      "पट": 1292,
      "चुका": 1293,
      "बन्धु": 1294,
      "जगत": 1295,
      "करूणा": 1296,
      "चम": 1297,
      "तने": 1298,
      "दों": 1299,
      "दक्": 1300,
      "बान": 1301,
      "सिया": 1302,
      "दक्खि": 1303,
      "पं": 1304,
      "खोल": 1305,
      "डेरे": 1306,
      "पौलुस": 1307,
      "आता": 1308,
      "चू": 1309,
      "पचा": 1310,
      "सिय्य": 1311,
      "आनन्दित": 1312,
      "सिय्योन": 1313,
      "आंग": 1314,
      "शरी": 1315,
      "शहर": 1316,
      "रूप": 1317,
      "देखने": 1318,
      "पूछ": 1319,
      "हाकिमों": 1320,
      "पतरस": 1321,
      "दोम": 1322,
      "पीतल": 1323,
      "गिनती": 1324,
      "जिन्हें": 1325,
      "ध्या": 1326,
      "केल": 1327,
      "वश्य": 1328,
      "अन्यजातियों": 1329,
      "नम": 1330,
      "पन": 1331,
      "बच": 1332,
      "लंग": 1333,
      "हन्ना": 1334,
      "चिन्ह": 1335,
      "सहायता": 1336,
      "जू": 1337,
      "माने": 1338,
      "लाए": 1339,
      "पाई": 1340,
      "विचार": 1341,
      "त्तर": 1342,
      "क्षमा": 1343,
      "पड़ेगा": 1344,
      "महान": 1345,
      "शहरपना": 1346,
      "टो": 1347,
      "हानि": 1348,
      "लिख": 1349,
      "मानो": 1350,
      "कठ": 1351,
      "कस": 1352,
      "गड़": 1353,
      "व्या": 1354,
      "न्दा": 1355,
      "मनश्": 1356,
      "सिं": 1357,
      "पहुंच": 1358,
      "शरीर": 1359,
      "गिला": 1360,
      "योना": 1361,
      "वस्तुएं": 1362,
      "परदेशी": 1363,
      "पुरखाओं": 1364,
      "ड्ड": 1365,
      "नदी": 1366,
      "ल्य": 1367,
      "मैदान": 1368,
      "मूएल": 1369,
      "इकट्ठा": 1370,
      "भलाई": 1371,
      "शहरपनाह": 1372,
      "झा": 1373,
      "करती": 1374,
      "उठे": 1375,
      "इन्": 1376,
      "भव": 1377,
      "व्यभिचार": 1378,
      "उजाड़": 1379,
      "मनश्शे": 1380,
      "नर": 1381,
      "तुर": 1382,
      "इसके": 1383,
      "विरो": 1384,
      "जिसने": 1385,
      "योआब": 1386,
      "दूसरी": 1387,
      "भोर": 1388,
      "बं": 1389,
      "कोठ": 1390,
      "्यो": 1391,
      "खाई": 1392,
      "कहना": 1393,
      "मोन": 1394,
      "निमि": 1395,
      "रहूंगा": 1396,
      "अन्नबलि": 1397,
      "सच्चाई": 1398,
      "एंगे": 1399,
      "कल": 1400,
      "कता": 1401,
      "तराई": 1402,
      "चर्चा": 1403,
      "तुच्छ": 1404,
      "पाएगा": 1405,
      "सुनी": 1406,
      "बेल": 1407,
      "र्मयाह": 1408,
      "यिर्मयाह": 1409,
      "बकरियों": 1410,
      "आंखें": 1411,
      "हृदय": 1412,
      "ध्यान": 1413,
      "टू": 1414,
      "पात": 1415,
      "सकते": 1416,
      "आपस": 1417,
      "गवाही": 1418,
      "वेश": 1419,
      "उपदेश": 1420,
      "आधीन": 1421,
      "कपड़े": 1422,
      "बसा": 1423,
      "विला": 1424,
      "रखते": 1425,
      "नो": 1426,
      "शमूएल": 1427,
      "बारी": 1428,
      "भारी": 1429,
      "पुरूषों": 1430,
      "खोज": 1431,
      "आंखों": 1432,
      "पहाड़ों": 1433,
      "पाल": 1434,
      "द्द": 1435,
      "सोना": 1436,
      "निमित्त": 1437,
      "ंच": 1438,
      "कना": 1439,
      "नबू": 1440,
      "पै": 1441,
      "बहि": 1442,
      "मानी": 1443,
      "सुसमाचार": 1444,
      "प्राय": 1445,
      "चलता": 1446,
      "देवता": 1447,
      "ट्टा": 1448,
      "ग्रहण": 1449,
      "परिश्र": 1450,
      "जवान": 1451,
      "ढूंढ़": 1452,
      "लेवीय": 1453,
      "चों": 1454,
      "प्रवेश": 1455,
      "जीव": 1456,
      "लकड़ी": 1457,
      "उपास": 1458,
      "लूट": 1459,
      "चढ़ाए": 1460,
      "शक्ति": 1461,
      "कुश": 1462,
      "समझा": 1463,
      "आंगन": 1464,
      "चट्टा": 1465,
      "षा": 1466,
      "ेल": 1467,
      "हान": 1468,
      "सुन्द": 1469,
      "भेद": 1470,
      "टुकड़े": 1471,
      "अश्शूर": 1472,
      "ंव": 1473,
      "अंग": 1474,
      "टका": 1475,
      "न्याह": 1476,
      "साक्षी": 1477,
      "तीर": 1478,
      "उन्हीं": 1479,
      "आज्ञाओं": 1480,
      "झूठ": 1481,
      "दक्खिन": 1482,
      "अं": 1483,
      "दौ": 1484,
      "वार": 1485,
      "दें": 1486,
      "स्थानों": 1487,
      "ऊंचा": 1488,
      "जन्म": 1489,
      "परिश्रम": 1490,
      "आते": 1491,
      "चान": 1492,
      "खाया": 1493,
      "युग": 1494,
      "अभिष": 1495,
      "गिलाद": 1496,
      "फूं": 1497,
      "ेक": 1498,
      "लेक": 1499,
      "लेंगे": 1500,
      "इसहा": 1501,
      "ठहराए": 1502,
      "यूहन्ना": 1503,
      "ट्ठी": 1504,
      "प्रायश्चि": 1505,
      "अज": 1506,
      "जकिय्याह": 1507,
      "बनी": 1508,
      "ून": 1509,
      "परम": 1510,
      "दोहाई": 1511,
      "लगाए": 1512,
      "वीर": 1513,
      "पहिने": 1514,
      "शेकेल": 1515,
      "ठहरेगा": 1516,
      "इसहाक": 1517,
      "सोच": 1518,
      "दूसरा": 1519,
      "सूर्य": 1520,
      "निवासियों": 1521,
      "बंधु": 1522,
      "उपासना": 1523,
      "वन्त": 1524,
      "माना": 1525,
      "हिजकिय्याह": 1526,
      "अवश्य": 1527,
      "ध्य": 1528,
      "फेर": 1529,
      "बस": 1530,
      "मरो": 1531,
      "कोप": 1532,
      "लेकर": 1533,
      "हाथों": 1534,
      "कटो": 1535,
      "अम्मो": 1536,
      "अही": 1537,
      "घमण्ड": 1538,
      "सुगन्ध": 1539,
      "समस्त": 1540,
      "पहुंचे": 1541,
      "कुशल": 1542,
      "खतना": 1543,
      "सांझ": 1544,
      "सिंह": 1545,
      "छिपा": 1546,
      "ण्": 1547,
      "बर्": 1548,
      "स्म": 1549,
      "लगाया": 1550,
      "पापबलि": 1551,
      "उपज": 1552,
      "बच्चों": 1553,
      "भविष्यद्वक्ताओं": 1554,
      "घू": 1555,
      "ठो": 1556,
      "निन्दा": 1557,
      "पापों": 1558,
      "मेलबलि": 1559,
      "सिंहा": 1560,
      "तुरन्त": 1561,
      "सुन्दर": 1562,
      "मह": 1563,
      "रस": 1564,
      "लोम": 1565,
      "बैर": 1566,
      "चलने": 1567,
      "लौटा": 1568,
      "पड़ता": 1569,
      "आर": 1570,
      "आस": 1571,
      "ज्यो": 1572,
      "हथ": 1573,
      "लेना": 1574,
      "चां": 1575,
      "घरानों": 1576,
      "भविष्यद्वा": 1577,
      "कितने": 1578,
      "प्रायश्चित्त": 1579,
      "घबरा": 1580,
      "फें": 1581,
      "स्कार": 1582,
      "पात्र": 1583,
      "इसका": 1584,
      "सुख": 1585,
      "शाप": 1586,
      "दासों": 1587,
      "चाहते": 1588,
      "डिय़ों": 1589,
      "ठोकर": 1590,
      "छी": 1591,
      "जहाज": 1592,
      "मित्र": 1593,
      "हित": 1594,
      "समी": 1595,
      "बादल": 1596,
      "मूर्ख": 1597,
      "विलाप": 1598,
      "निकली": 1599,
      "चुन": 1600,
      "ज्योति": 1601,
      "भविष्यद्वाणी": 1602,
      "समीप": 1603,
      "अच्छ": 1604,
      "भस्म": 1605,
      "डाली": 1606,
      "पवित्रस्थान": 1607,
      "भूल": 1608,
      "बैठे": 1609,
      "पचास": 1610,
      "चट्टान": 1611,
      "अच्छी": 1612,
      "कने": 1613,
      "सियों": 1614,
      "देशों": 1615,
      "कैसे": 1616,
      "नियु": 1617,
      "सेवक": 1618,
      "विरोध": 1619,
      "सिंहासन": 1620,
      "अति": 1621,
      "अलंग": 1622,
      "ओगे": 1623,
      "ष्ठ": 1624,
      "सत्य": 1625,
      "ूब": 1626,
      "लाभ": 1627,
      "भीत": 1628,
      "भाव": 1629,
      "चुके": 1630,
      "इस्त्राएल": 1631,
      "त्यानाश": 1632,
      "ण्डा": 1633,
      "जों": 1634,
      "सत्यानाश": 1635,
      "देंगे": 1636,
      "खाकर": 1637,
      "बुलवा": 1638,
      "पूरे": 1639,
      "शिक्षा": 1640,
      "चंगा": 1641,
      "तले": 1642,
      "बलवा": 1643,
      "याव": 1644,
      "होना": 1645,
      "रें": 1646,
      "बाम": 1647,
      "रहना": 1648,
      "हियाव": 1649,
      "पहाड़ी": 1650,
      "बदला": 1651,
      "मिलापवाले": 1652,
      "उतार": 1653,
      "सड़": 1654,
      "्रोन": 1655,
      "बाई": 1656,
      "मुक": 1657,
      "खाते": 1658,
      "दूतों": 1659,
      "प्रभुता": 1660,
      "बड़ाई": 1661,
      "कर्मचार": 1662,
      "पांवों": 1663,
      "चरवा": 1664,
      "ंत्र": 1665,
      "आदि": 1666,
      "कली": 1667,
      "रक्षा": 1668,
      "वां": 1669,
      "गांव": 1670,
      "लेता": 1671,
      "लाम": 1672,
      "लाने": 1673,
      "स्सर": 1674,
      "देखता": 1675,
      "पूर्": 1676,
      "लियां": 1677,
      "कूच": 1678,
      "दोषी": 1679,
      "युक्ति": 1680,
      "बिन्यामीन": 1681,
      "प्रकाश": 1682,
      "विधि": 1683,
      "लोथ": 1684,
      "ाएं": 1685,
      "शालोम": 1686,
      "मरने": 1687,
      "आएगा": 1688,
      "डालूंगा": 1689,
      "कहो": 1690,
      "दने": 1691,
      "दूं": 1692,
      "मति": 1693,
      "प्राची": 1694,
      "अबशालोम": 1695,
      "गिने": 1696,
      "लूम": 1697,
      "शोक": 1698,
      "दाहिने": 1699,
      "नियुक्त": 1700,
      "कर्मचारियों": 1701,
      "ंड": 1702,
      "अरा": 1703,
      "पत्र": 1704,
      "सर्": 1705,
      "तुल्य": 1706,
      "प्रिय": 1707,
      "खाए": 1708,
      "खाना": 1709,
      "गीत": 1710,
      "चढ़ाया": 1711,
      "महायाजक": 1712,
      "पर्व": 1713,
      "संसार": 1714,
      "कल्": 1715,
      "सर्व": 1716,
      "यारो": 1717,
      "ड़ना": 1718,
      "दीन": 1719,
      "जिसका": 1720,
      "बलिदान": 1721,
      "त्याग": 1722,
      "बहिन": 1723,
      "हथिया": 1724,
      "कलीसिया": 1725,
      "जड़": 1726,
      "बसे": 1727,
      "मध्य": 1728,
      "पाकर": 1729,
      "कुलों": 1730,
      "पीछा": 1731,
      "भेजे": 1732,
      "पेट": 1733,
      "विधियों": 1734,
      "िये": 1735,
      "चालीस": 1736,
      "क्योंकर": 1737,
      "बुरे": 1738,
      "बालक": 1739,
      "संकट": 1740,
      "कहलाता": 1741,
      "एलिय": 1742,
      "चरा": 1743,
      "बहा": 1744,
      "प्री": 1745,
      "बाट": 1746,
      "लोक": 1747,
      "सींग": 1748,
      "सुनने": 1749,
      "क्रू": 1750,
      "यारोबाम": 1751,
      "कंगा": 1752,
      "पक्ष": 1753,
      "फरी": 1754,
      "मेलेक": 1755,
      "च्छे": 1756,
      "अन्धकार": 1757,
      "पूर्ण": 1758,
      "प्रीति": 1759,
      "गली": 1760,
      "मरा": 1761,
      "हाब": 1762,
      "जाऊंगा": 1763,
      "स्मा": 1764,
      "यहोया": 1765,
      "सुने": 1766,
      "म्भ": 1767,
      "चिट्ठी": 1768,
      "चौक": 1769,
      "पड़ो": 1770,
      "पोता": 1771,
      "जगह": 1772,
      "एलिय्याह": 1773,
      "बपति": 1774,
      "यत्": 1775,
      "मानना": 1776,
      "बान्धी": 1777,
      "जलाहट": 1778,
      "मरोन": 1779,
      "खमी": 1780,
      "नबी": 1781,
      "हड्ड": 1782,
      "स्त्रियां": 1783,
      "बनाने": 1784,
      "सुनते": 1785,
      "छोटे": 1786,
      "प्या": 1787,
      "कब्र": 1788,
      "आरम्भ": 1789,
      "चांदी": 1790,
      "बपतिस्मा": 1791,
      "अत्य": 1792,
      "अराम": 1793,
      "गल": 1794,
      "गृ": 1795,
      "प्रती": 1796,
      "जलजलाहट": 1797,
      "भड़का": 1798,
      "अत्यन्त": 1799,
      "लेते": 1800,
      "दासी": 1801,
      "प्राणी": 1802,
      "बोन": 1803,
      "पेड़": 1804,
      "अन्धेर": 1805,
      "सकेगा": 1806,
      "शोमरोन": 1807,
      "मूरतों": 1808,
      "लज्जित": 1809,
      "कृ": 1810,
      "द्य": 1811,
      "पहर": 1812,
      "हियों": 1813,
      "लाई": 1814,
      "मानने": 1815,
      "रखना": 1816,
      "चुप": 1817,
      "छोड़कर": 1818,
      "सम्मति": 1819,
      "फाटकों": 1820,
      "हथियार": 1821,
      "यत्न": 1822,
      "प्रतीति": 1823,
      "रु": 1824,
      "सता": 1825,
      "ां": 1826,
      "मुच": 1827,
      "मिली": 1828,
      "मानते": 1829,
      "सचमुच": 1830,
      "जयकार": 1831,
      "अह": 1832,
      "कही": 1833,
      "कमर": 1834,
      "जन्तु": 1835,
      "टहल": 1836,
      "रंग": 1837,
      "हरी": 1838,
      "जाएंगी": 1839,
      "रखो": 1840,
      "फूल": 1841,
      "अच्छे": 1842,
      "ग्": 1843,
      "ठे": 1844,
      "वट": 1845,
      "शम": 1846,
      "नेव": 1847,
      "मांग": 1848,
      "लगाकर": 1849,
      "दुष्टों": 1850,
      "पलिश्ती": 1851,
      "स्वप्": 1852,
      "अम": 1853,
      "आसा": 1854,
      "चली": 1855,
      "सामान": 1856,
      "निदान": 1857,
      "त्ता": 1858,
      "रहेगी": 1859,
      "प्राप्त": 1860,
      "सातवें": 1861,
      "खम्भे": 1862,
      "बछड़े": 1863,
      "गृह": 1864,
      "ंसा": 1865,
      "उचित": 1866,
      "णित": 1867,
      "दोन": 1868,
      "अब्": 1869,
      "चढ़ाना": 1870,
      "दुख": 1871,
      "फिरा": 1872,
      "जयजयकार": 1873,
      "शैतान": 1874,
      "सर्वदा": 1875,
      "ंत": 1876,
      "अहाब": 1877,
      "आठ": 1878,
      "आदर": 1879,
      "उल": 1880,
      "कनान": 1881,
      "ठट्ठ": 1882,
      "ुस": 1883,
      "तेज": 1884,
      "दूध": 1885,
      "अनन्त": 1886,
      "ऐसाव": 1887,
      "लड़ने": 1888,
      "स्वर्गदूत": 1889,
      "घृणित": 1890,
      "अम्मोनियों": 1891,
      "फेंक": 1892,
      "आश": 1893,
      "एमो": 1894,
      "एदोम": 1895,
      "हास": 1896,
      "र्वाद": 1897,
      "सुधि": 1898,
      "अधिपति": 1899,
      "शेष": 1900,
      "अभी": 1901,
      "इसे": 1902,
      "कदने": 1903,
      "जु": 1904,
      "टने": 1905,
      "णन": 1906,
      "तृ": 1907,
      "वाई": 1908,
      "जोह": 1909,
      "रूबे": 1910,
      "वर्णन": 1911,
      "जानकर": 1912,
      "डालने": 1913,
      "जिनके": 1914,
      "निकलकर": 1915,
      "तीसरे": 1916,
      "आशीर्वाद": 1917,
      "अभिषेक": 1918,
      "अवस्था": 1919,
      "घिन": 1920,
      "मण": 1921,
      "नेर": 1922,
      "गाय": 1923,
      "प्रेर": 1924,
      "बां": 1925,
      "उठाए": 1926,
      "चेले": 1927,
      "धार": 1928,
      "द्रो": 1929,
      "जितनी": 1930,
      "बकरी": 1931,
      "पलटा": 1932,
      "नबूकदने": 1933,
      "प्राचीन": 1934,
      "पच्": 1935,
      "र्ष": 1936,
      "र्याह": 1937,
      "विवाद": 1938,
      "द्दी": 1939,
      "भाषा": 1940,
      "शान": 1941,
      "बलवन्त": 1942,
      "पूर्वजों": 1943,
      "नबूकदनेस्सर": 1944,
      "उजि": 1945,
      "झग": 1946,
      "विनाश": 1947,
      "चाहा": 1948,
      "सोते": 1949,
      "छाया": 1950,
      "एलीशा": 1951,
      "बोलने": 1952,
      "सिवाने": 1953,
      "सिवाना": 1954,
      "स्वप्न": 1955,
      "उजिया": 1956,
      "अंश": 1957,
      "तरा": 1958,
      "मरी": 1959,
      "ात्मा": 1960,
      "परी": 1961,
      "नित्य": 1962,
      "शापात": 1963,
      "निकम्": 1964,
      "गिरे": 1965,
      "सन्ती": 1966,
      "सौंप": 1967,
      "उपद्र": 1968,
      "प्रधानों": 1969,
      "अन्धे": 1970,
      "करूब": 1971,
      "बेटियां": 1972,
      "विधवा": 1973,
      "पालन": 1974,
      "दौड़": 1975,
      "तृप्त": 1976,
      "कई": 1977,
      "खून": 1978,
      "भजन": 1979,
      "बालों": 1980,
      "खाता": 1981,
      "मिलेगा": 1982,
      "जिसकी": 1983,
      "छोर": 1984,
      "आंख": 1985,
      "बताया": 1986,
      "थोड़े": 1987,
      "क्रूस": 1988,
      "अय": 1989,
      "दम": 1990,
      "नये": 1991,
      "ब्रोन": 1992,
      "नाले": 1993,
      "तुस": 1994,
      "विराज": 1995,
      "बुरी": 1996,
      "वचनों": 1997,
      "आएंगे": 1998,
      "चलन": 1999,
      "दानिय्य": 2000,
      "सूख": 2001,
      "सरदार": 2002,
      "घृणा": 2003,
      "द्दमा": 2004,
      "शमौन": 2005,
      "दानिय्येल": 2006,
      "वाया": 2007,
      "बाबेल": 2008,
      "चारी": 2009,
      "बेच": 2010,
      "मीका": 2011,
      "धारण": 2012,
      "मिस्रियों": 2013,
      "दुष्टात्मा": 2014,
      "इस्त्राएली": 2015,
      "चिन्ता": 2016,
      "घिनौ": 2017,
      "उज्": 2018,
      "गन": 2019,
      "छल": 2020,
      "भरे": 2021,
      "लूंगा": 2022,
      "ताव": 2023,
      "राजभवन": 2024,
      "बढ़कर": 2025,
      "डिय़ां": 2026,
      "कृपा": 2027,
      "ईस": 2028,
      "गद्दी": 2029,
      "घट": 2030,
      "जनों": 2031,
      "पद": 2032,
      "बियों": 2033,
      "बन्दी": 2034,
      "यद्य": 2035,
      "लड़ाई": 2036,
      "शरण": 2037,
      "सरा": 2038,
      "मेढ़े": 2039,
      "अपवित्र": 2040,
      "मालूम": 2041,
      "प्रबल": 2042,
      "लोहे": 2043,
      "द्या": 2044,
      "गिन": 2045,
      "सम्पत्ति": 2046,
      "घोड़ों": 2047,
      "नरसि": 2048,
      "अके": 2049,
      "गहि": 2050,
      "नया": 2051,
      "हत्या": 2052,
      "कीश": 2053,
      "हीन": 2054,
      "हेब्रोन": 2055,
      "प्रता": 2056,
      "पीने": 2057,
      "मूल": 2058,
      "बिहान": 2059,
      "सिद्ध": 2060,
      "पुरनियों": 2061,
      "घास": 2062,
      "छुड़ाने": 2063,
      "टूट": 2064,
      "उड़": 2065,
      "पश्": 2066,
      "मय": 2067,
      "रज": 2068,
      "शमा": 2069,
      "ैन": 2070,
      "किना": 2071,
      "जाग": 2072,
      "लिखे": 2073,
      "बुलाया": 2074,
      "रखने": 2075,
      "पहिलौ": 2076,
      "व्यव": 2077,
      "बान्धे": 2078,
      "गोत्रों": 2079,
      "छीन": 2080,
      "पश्चा": 2081,
      "अधो": 2082,
      "उधर": 2083,
      "बट": 2084,
      "मज": 2085,
      "कियों": 2086,
      "लिखी": 2087,
      "कुट": 2088,
      "छोटा": 2089,
      "बकरियां": 2090,
      "अधोलोक": 2091,
      "अमा": 2092,
      "आधे": 2093,
      "उड़ा": 2094,
      "सवार": 2095,
      "औरों": 2096,
      "रानी": 2097,
      "लेश": 2098,
      "लाकर": 2099,
      "यहोशापात": 2100,
      "लोन": 2101,
      "मूढ़": 2102,
      "चिता": 2103,
      "घराना": 2104,
      "दुष्टता": 2105,
      "बच्चा": 2106,
      "बेटियों": 2107,
      "निकाला": 2108,
      "ख्": 2109,
      "भण्डा": 2110,
      "मगन": 2111,
      "यरी": 2112,
      "सृ": 2113,
      "्री": 2114,
      "हेल": 2115,
      "लाता": 2116,
      "बाप": 2117,
      "चाहि": 2118,
      "सिरे": 2119,
      "चौड़ाई": 2120,
      "एलीआज": 2121,
      "चूर": 2122,
      "नमस्कार": 2123,
      "यद्यपि": 2124,
      "किनारे": 2125,
      "चाहिए": 2126,
      "पण": 2127,
      "पक्षी": 2128,
      "फसह": 2129,
      "मन्न": 2130,
      "हद": 2131,
      "केम": 2132,
      "क्लेश": 2133,
      "बितर": 2134,
      "इनके": 2135,
      "पांति": 2136,
      "कठिन": 2137,
      "परीक्षा": 2138,
      "उपद्रव": 2139,
      "आना": 2140,
      "भरा": 2141,
      "भक्त": 2142,
      "वाह": 2143,
      "नार": 2144,
      "बांट": 2145,
      "दारों": 2146,
      "विदा": 2147,
      "निवासी": 2148,
      "न्यायी": 2149,
      "जाओगे": 2150,
      "ढाल": 2151,
      "घोड़े": 2152,
      "व्यवहार": 2153,
      "ठों": 2154,
      "थरा": 2155,
      "नष्ट": 2156,
      "लबान": 2157,
      "ान्त": 2158,
      "दिशा": 2159,
      "तितर": 2160,
      "सुनाईं": 2161,
      "भार": 2162,
      "पित": 2163,
      "ल्याह": 2164,
      "प्ता": 2165,
      "दृष्टान्त": 2166,
      "रिस": 2167,
      "बदले": 2168,
      "खींच": 2169,
      "फैल": 2170,
      "व्याधि": 2171,
      "चौकसी": 2172,
      "मणि": 2173,
      "खड़ी": 2174,
      "धराई": 2175,
      "वं": 2176,
      "पापी": 2177,
      "दाब": 2178,
      "त्ती": 2179,
      "सीधा": 2180,
      "बेतेल": 2181,
      "नामधराई": 2182,
      "सिद": 2183,
      "मोत": 2184,
      "पहिली": 2185,
      "गईं": 2186,
      "सौं": 2187,
      "पकड़े": 2188,
      "निर्बल": 2189,
      "प्रतिष्ठ": 2190,
      "पुरुषों": 2191,
      "रिद्र": 2192,
      "गदहे": 2193,
      "लम्बाई": 2194,
      "ंद": 2195,
      "घड़ी": 2196,
      "दरिद्र": 2197,
      "मना": 2198,
      "काई": 2199,
      "ताड़ना": 2200,
      "ियम": 2201,
      "देर": 2202,
      "तीनों": 2203,
      "बिलाम": 2204,
      "वीं": 2205,
      "बनाईं": 2206,
      "सुनता": 2207,
      "साम्हना": 2208,
      "मरियम": 2209,
      "बहुतों": 2210,
      "घरों": 2211,
      "धीरज": 2212,
      "धोखा": 2213,
      "दाहिनी": 2214,
      "ंघ": 2215,
      "जेर": 2216,
      "दै": 2217,
      "दबा": 2218,
      "सहित": 2219,
      "मुकुट": 2220,
      "तीं": 2221,
      "मनसा": 2222,
      "मीन": 2223,
      "मोर्": 2224,
      "पत्थ": 2225,
      "सेनापति": 2226,
      "कैसा": 2227,
      "पाएंगे": 2228,
      "वृक्षों": 2229,
      "गड़हे": 2230,
      "घूम": 2231,
      "आहाज": 2232,
      "एल्": 2233,
      "कहें": 2234,
      "तख्": 2235,
      "जाऊं": 2236,
      "तेर": 2237,
      "सान": 2238,
      "मिर्": 2239,
      "डालेगा": 2240,
      "सन्देह": 2241,
      "शोभा": 2242,
      "बुलाकर": 2243,
      "कठोर": 2244,
      "फूंक": 2245,
      "आऊंगा": 2246,
      "इतना": 2247,
      "एपा": 2248,
      "घेर": 2249,
      "झी": 2250,
      "डो": 2251,
      "पढ़": 2252,
      "भरी": 2253,
      "भक्ति": 2254,
      "यक": 2255,
      "ष्": 2256,
      "सत्तर": 2257,
      "कांप": 2258,
      "सीन": 2259,
      "भागी": 2260,
      "जीर": 2261,
      "योद्धा": 2262,
      "जितना": 2263,
      "बान्धकर": 2264,
      "पराक्र": 2265,
      "प्रतिज्ञा": 2266,
      "जिन्होंने": 2267,
      "अबीमेलेक": 2268,
      "खम्भों": 2269,
      "कसदियों": 2270,
      "योनातन": 2271,
      "गलील": 2272,
      "पड़ोसी": 2273,
      "बन्दीगृह": 2274,
      "पश्चात": 2275,
      "लबानोन": 2276,
      "आश्च": 2277,
      "चकित": 2278,
      "नई": 2279,
      "सीधे": 2280,
      "कुं": 2281,
      "कुटि": 2282,
      "सोर": 2283,
      "बेटा": 2284,
      "योआश": 2285,
      "उपवास": 2286,
      "मिलकर": 2287,
      "आश्चर्य": 2288,
      "अर": 2289,
      "जकर": 2290,
      "भले": 2291,
      "भली": 2292,
      "लय": 2293,
      "शोन": 2294,
      "दाम": 2295,
      "क्की": 2296,
      "मिश्": 2297,
      "मिद्या": 2298,
      "म्म": 2299,
      "मानता": 2300,
      "बीज": 2301,
      "बेत": 2302,
      "रखी": 2303,
      "ण्डे": 2304,
      "धारा": 2305,
      "बोझ": 2306,
      "न्द्र": 2307,
      "उपस्थ": 2308,
      "इकट्ठी": 2309,
      "अन्धिया": 2310,
      "थरथरा": 2311,
      "झूठी": 2312,
      "रथों": 2313,
      "पंख": 2314,
      "अय्य": 2315,
      "आती": 2316,
      "जनी": 2317,
      "दकै": 2318,
      "भटक": 2319,
      "यशा": 2320,
      "कीम": 2321,
      "जाल": 2322,
      "सब्": 2323,
      "मिट": 2324,
      "देखी": 2325,
      "बिया": 2326,
      "वीरों": 2327,
      "अर्थ": 2328,
      "सिपा": 2329,
      "धित": 2330,
      "पहिन": 2331,
      "धामिर्": 2332,
      "करोगे": 2333,
      "मिस्री": 2334,
      "फाड़": 2335,
      "ब्या": 2336,
      "विश्वासघात": 2337,
      "क्रोधित": 2338,
      "कितनों": 2339,
      "फिरे": 2340,
      "फूट": 2341,
      "सर्वश": 2342,
      "खमीरी": 2343,
      "एमोरियों": 2344,
      "बटोर": 2345,
      "यरीहो": 2346,
      "अय्यूब": 2347,
      "उदास": 2348,
      "कम": 2349,
      "कमा": 2350,
      "चैन": 2351,
      "धनी": 2352,
      "पतियों": 2353,
      "शकेम": 2354,
      "सरी": 2355,
      "देती": 2356,
      "रहू": 2357,
      "भेड़ों": 2358,
      "रखूंगा": 2359,
      "अर्पण": 2360,
      "बैलों": 2361,
      "कहेंगे": 2362,
      "बछड़ा": 2363,
      "महानद": 2364,
      "मोर्दकै": 2365,
      "यशायाह": 2366,
      "अगु": 2367,
      "घटी": 2368,
      "नोन": 2369,
      "ितों": 2370,
      "माप": 2371,
      "स्वत": 2372,
      "पुका": 2373,
      "दीवट": 2374,
      "पूर": 2375,
      "अब्राम": 2376,
      "छोड़ा": 2377,
      "जैसी": 2378,
      "चढ़ाने": 2379,
      "जातियां": 2380,
      "कहेगा": 2381,
      "झुण्ड": 2382,
      "नियमों": 2383,
      "कोठरी": 2384,
      "कंगाल": 2385,
      "फरीसियों": 2386,
      "सिदकिय्याह": 2387,
      "सब्त": 2388,
      "सर्वशक्ति": 2389,
      "ंक": 2390,
      "अद्": 2391,
      "गले": 2392,
      "चलो": 2393,
      "नु": 2394,
      "यत": 2395,
      "वों": 2396,
      "ेरे": 2397,
      "लाख": 2398,
      "दायक": 2399,
      "क्कार": 2400,
      "मुर्": 2401,
      "कुमार": 2402,
      "कुकर्म": 2403,
      "रोक": 2404,
      "जीभ": 2405,
      "येहू": 2406,
      "बहुता": 2407,
      "पहिचान": 2408,
      "छोटी": 2409,
      "शिम": 2410,
      "मिलता": 2411,
      "बदल": 2412,
      "बेटों": 2413,
      "बराबर": 2414,
      "अब्नेर": 2415,
      "पत्थरों": 2416,
      "धामिर्कता": 2417,
      "उज": 2418,
      "टों": 2419,
      "धना": 2420,
      "शिय्याह": 2421,
      "हं": 2422,
      "र्ती": 2423,
      "पाता": 2424,
      "मिटा": 2425,
      "रखकर": 2426,
      "आएं": 2427,
      "उठाया": 2428,
      "छिप": 2429,
      "छिड़": 2430,
      "धनुष": 2431,
      "लालसा": 2432,
      "बनवाना": 2433,
      "फुर्ती": 2434,
      "कटोरा": 2435,
      "उपस्थित": 2436,
      "बहुतायत": 2437,
      "आमीन": 2438,
      "इति": 2439,
      "दमिश्": 2440,
      "पश्चि": 2441,
      "लह": 2442,
      "हन": 2443,
      "मेम्": 2444,
      "मारी": 2445,
      "मुड़": 2446,
      "भागे": 2447,
      "पीला": 2448,
      "समझे": 2449,
      "ज्ञाएं": 2450,
      "छाती": 2451,
      "प्रान्त": 2452,
      "पहुंचाया": 2453,
      "गुम्म": 2454,
      "छुड़ाया": 2455,
      "कर्मचारी": 2456,
      "चरबी": 2457,
      "मूरत": 2458,
      "गर्भव": 2459,
      "पूछने": 2460,
      "नम्र": 2461,
      "सर्वशक्तिमान": 2462,
      "इतिहास": 2463,
      "गर्भवती": 2464,
      "अच": 2465,
      "इतने": 2466,
      "ज्यों": 2467,
      "सना": 2468,
      "स्सा": 2469,
      "पाओगे": 2470,
      "बांस": 2471,
      "दांत": 2472,
      "लोगे": 2473,
      "दोक": 2474,
      "उठाने": 2475,
      "सुनाता": 2476,
      "प्राणियों": 2477,
      "कर्ता": 2478,
      "मिलने": 2479,
      "फैला": 2480,
      "बंधुआई": 2481,
      "अकेला": 2482,
      "अखमीरी": 2483,
      "इधर": 2484,
      "ईर": 2485,
      "ज्र": 2486,
      "जता": 2487,
      "नू": 2488,
      "लने": 2489,
      "हटा": 2490,
      "नादाब": 2491,
      "साधारण": 2492,
      "र्थी": 2493,
      "स्वर": 2494,
      "श्या": 2495,
      "वेश्या": 2496,
      "जबू": 2497,
      "बीमार": 2498,
      "उठकर": 2499,
      "पहिना": 2500,
      "वर्षा": 2501,
      "चलकर": 2502,
      "शेबा": 2503,
      "सुनाई": 2504,
      "गुप्त": 2505,
      "अभिला": 2506,
      "दमिश्क": 2507,
      "पीलातुस": 2508,
      "दह": 2509,
      "सनी": 2510,
      "काना": 2511,
      "लाबान": 2512,
      "दीं": 2513,
      "अनर्थ": 2514,
      "बनाकर": 2515,
      "गिड़": 2516,
      "मारने": 2517,
      "सकती": 2518,
      "डालकर": 2519,
      "सुनाया": 2520,
      "पकड़ा": 2521,
      "पड़ती": 2522,
      "रहोगे": 2523,
      "सामर्थी": 2524,
      "बोलता": 2525,
      "जवानों": 2526,
      "योनातान": 2527,
      "मुकद्दमा": 2528,
      "गांवों": 2529,
      "ठट्ठा": 2530,
      "एलीआजर": 2531,
      "स्वतंत्र": 2532,
      "अचम्": 2533,
      "मल": 2534,
      "हानान": 2535,
      "सातों": 2536,
      "सादोक": 2537,
      "हेरो": 2538,
      "बाशान": 2539,
      "श्मा": 2540,
      "त्व": 2541,
      "दूरी": 2542,
      "योशिय्याह": 2543,
      "चलना": 2544,
      "चलें": 2545,
      "पश्चिम": 2546,
      "आदम": 2547,
      "एस्": 2548,
      "एपो": 2549,
      "त्यों": 2550,
      "सदै": 2551,
      "यान": 2552,
      "वान": 2553,
      "होन": 2554,
      "नातान": 2555,
      "जाया": 2556,
      "राने": 2557,
      "पाएं": 2558,
      "सुर": 2559,
      "मार्गों": 2560,
      "लड़का": 2561,
      "छुड़": 2562,
      "बालकों": 2563,
      "धूलि": 2564,
      "धरती": 2565,
      "बढ़ाकर": 2566,
      "अजर्याह": 2567,
      "परमप्रधान": 2568,
      "एपोद": 2569,
      "सदैव": 2570,
      "अव": 2571,
      "कड़": 2572,
      "गू": 2573,
      "घ्र": 2574,
      "डु": 2575,
      "नौ": 2576,
      "वली": 2577,
      "गाद": 2578,
      "गाड़": 2579,
      "बाला": 2580,
      "म्मत": 2581,
      "फिरते": 2582,
      "शास्त्र": 2583,
      "पिछ": 2584,
      "अर्घ": 2585,
      "तौल": 2586,
      "डालना": 2587,
      "शीघ्र": 2588,
      "ठहरें": 2589,
      "वस्त्रों": 2590,
      "जिन्हों": 2591,
      "थोड़ा": 2592,
      "थोड़ी": 2593,
      "गर्भ": 2594,
      "अंजीर": 2595,
      "कल्पना": 2596,
      "उलट": 2597,
      "नूह": 2598,
      "एस्तेर": 2599,
      "ंटे": 2600,
      "अकाल": 2601,
      "आल": 2602,
      "इश्मा": 2603,
      "गत": 2604,
      "हौ": 2605,
      "हर्ष": 2606,
      "काले": 2607,
      "हामान": 2608,
      "कहती": 2609,
      "लगातार": 2610,
      "गिड़ा": 2611,
      "मरम्मत": 2612,
      "बैरी": 2613,
      "प्राणों": 2614,
      "गुरू": 2615,
      "बढ़ती": 2616,
      "नियत": 2617,
      "रखें": 2618,
      "ढांप": 2619,
      "ज़ा": 2620,
      "ऊंचाई": 2621,
      "यहोयादा": 2622,
      "उजियाला": 2623,
      "विराजमान": 2624,
      "गिड़गिड़ा": 2625,
      "अस्": 2626,
      "आज्ञाएं": 2627,
      "जर": 2628,
      "जलाया": 2629,
      "तनी": 2630,
      "बलियों": 2631,
      "सै": 2632,
      "सों": 2633,
      "वायु": 2634,
      "तामार": 2635,
      "मां": 2636,
      "निडर": 2637,
      "निष्": 2638,
      "शान्त": 2639,
      "मीं": 2640,
      "उठाई": 2641,
      "ब्ब": 2642,
      "चौदह": 2643,
      "छुटका": 2644,
      "चाहिये": 2645,
      "कैसी": 2646,
      "देवदार": 2647,
      "यिज्र": 2648,
      "मिलती": 2649,
      "सेवकों": 2650,
      "बर्ताव": 2651,
      "प्रताप": 2652,
      "बियाम": 2653,
      "रहूबियाम": 2654,
      "कदा": 2655,
      "रियां": 2656,
      "लटका": 2657,
      "सने": 2658,
      "यात्र": 2659,
      "किक्कार": 2660,
      "न्त्र": 2661,
      "हारा": 2662,
      "राहेल": 2663,
      "हेर": 2664,
      "रहकर": 2665,
      "छोड़े": 2666,
      "अन्या": 2667,
      "जलन": 2668,
      "संगी": 2669,
      "वैसी": 2670,
      "सिरों": 2671,
      "इन्हें": 2672,
      "कटोरे": 2673,
      "अराबा": 2674,
      "पक्षियों": 2675,
      "ंडे": 2676,
      "उघा": 2677,
      "खरे": 2678,
      "दलों": 2679,
      "नप्ता": 2680,
      "पका": 2681,
      "पता": 2682,
      "फे": 2683,
      "मंत्र": 2684,
      "सका": 2685,
      "सदोम": 2686,
      "्व": 2687,
      "मेर": 2688,
      "नाव": 2689,
      "साढ़े": 2690,
      "हेम": 2691,
      "पाने": 2692,
      "दादों": 2693,
      "ाएगा": 2694,
      "कुटु": 2695,
      "च्चा": 2696,
      "चुने": 2697,
      "बचाया": 2698,
      "जंगली": 2699,
      "छूट": 2700,
      "अनाथ": 2701,
      "झगड़ा": 2702,
      "गहिरे": 2703,
      "गुम्मट": 2704,
      "आयु": 2705,
      "झों": 2706,
      "डरो": 2707,
      "बत": 2708,
      "रौ": 2709,
      "किवा": 2710,
      "अपमान": 2711,
      "निर": 2712,
      "दीपक": 2713,
      "गेहूं": 2714,
      "पीट": 2715,
      "रोट": 2716,
      "रोने": 2717,
      "उठी": 2718,
      "वीणा": 2719,
      "गिबा": 2720,
      "ल्हा": 2721,
      "टाट": 2722,
      "स्वर्गदूतों": 2723,
      "जेव": 2724,
      "सरदारों": 2725,
      "दसवां": 2726,
      "सेवकाई": 2727,
      "जन्मा": 2728,
      "पलट": 2729,
      "वंशा": 2730,
      "पुकारा": 2731,
      "जबूलू": 2732,
      "कुटुम्": 2733,
      "ंजनी": 2734,
      "अश": 2735,
      "आरा": 2736,
      "घोर": 2737,
      "टके": 2738,
      "नबियों": 2739,
      "बकरे": 2740,
      "शंसा": 2741,
      "वाना": 2742,
      "सांस": 2743,
      "लाठी": 2744,
      "स्याह": 2745,
      "प्रशंसा": 2746,
      "मिस्": 2747,
      "शास्त्री": 2748,
      "करेगी": 2749,
      "रोग": 2750,
      "उठने": 2751,
      "बनाना": 2752,
      "चित्त": 2753,
      "गिदोन": 2754,
      "धारी": 2755,
      "बैंजनी": 2756,
      "कैसर": 2757,
      "शिमी": 2758,
      "यिशै": 2759,
      "लौटकर": 2760,
      "बढ़ाया": 2761,
      "ठहरता": 2762,
      "निकाले": 2763,
      "बन्धुआई": 2764,
      "रुप": 2765,
      "प्रेरितों": 2766,
      "मन्नत": 2767,
      "झील": 2768,
      "इयो": 2769,
      "ऊर": 2770,
      "ग्या": 2771,
      "डूंगा": 2772,
      "यबू": 2773,
      "लल": 2774,
      "सवा": 2775,
      "कोढ़": 2776,
      "ताम": 2777,
      "हाल": 2778,
      "जांच": 2779,
      "ियो": 2780,
      "भाइयो": 2781,
      "कहूं": 2782,
      "पीड़ा": 2783,
      "बिल": 2784,
      "घाय": 2785,
      "समझता": 2786,
      "महायाजकों": 2787,
      "जेठा": 2788,
      "बरसा": 2789,
      "अभिमान": 2790,
      "शूरवीर": 2791,
      "चालचलन": 2792,
      "सहायक": 2793,
      "टिड्ड": 2794,
      "कोठरियों": 2795,
      "सुखदायक": 2796,
      "घिनौने": 2797,
      "प्रतिष्ठा": 2798,
      "पराक्रम": 2799,
      "अन्धियारे": 2800,
      "अभिलाषा": 2801,
      "ग्यारह": 2802,
      "आशे": 2803,
      "खण्ड": 2804,
      "टल": 2805,
      "पदा": 2806,
      "यहीं": 2807,
      "सफल": 2808,
      "काब": 2809,
      "गाने": 2810,
      "पाते": 2811,
      "नींद": 2812,
      "बेर": 2813,
      "लगाता": 2814,
      "लगाते": 2815,
      "बिछ": 2816,
      "बनायाह": 2817,
      "भुत": 2818,
      "जलपाई": 2819,
      "पड़ेंगे": 2820,
      "डालता": 2821,
      "ठहरेंगे": 2822,
      "दाखलता": 2823,
      "रिब": 2824,
      "पत्थरवाह": 2825,
      "पकड़वा": 2826,
      "कराया": 2827,
      "विश्रामदिन": 2828,
      "अपराधों": 2829,
      "परमपवित्र": 2830,
      "मूर्खता": 2831,
      "चराइयों": 2832,
      "अमस्याह": 2833,
      "जोहते": 2834,
      "रूबेन": 2835,
      "पच्ची": 2836,
      "नरसिंगे": 2837,
      "इश्माएल": 2838,
      "आराधना": 2839,
      "ढेर": 2840,
      "धम": 2841,
      "बली": 2842,
      "मल्": 2843,
      "ोगे": 2844,
      "्म": 2845,
      "मेढ़ा": 2846,
      "कोने": 2847,
      "पराए": 2848,
      "साठ": 2849,
      "देस": 2850,
      "रीम": 2851,
      "नीले": 2852,
      "नित": 2853,
      "निरा": 2854,
      "निगल": 2855,
      "लीं": 2856,
      "रहित": 2857,
      "रूपी": 2858,
      "होंगी": 2859,
      "ज्याह": 2860,
      "पिया": 2861,
      "बहुतेरे": 2862,
      "यहूदिया": 2863,
      "पहिला": 2864,
      "बोला": 2865,
      "वर्षों": 2866,
      "पहुंची": 2867,
      "ष्टि": 2868,
      "शेत": 2869,
      "शीलो": 2870,
      "समझते": 2871,
      "निकलती": 2872,
      "सकें": 2873,
      "कर्मों": 2874,
      "बोलते": 2875,
      "वृद्ध": 2876,
      "शूरवीरों": 2877,
      "अम्मी": 2878,
      "चोखे": 2879,
      "सामर्थ्य": 2880,
      "व्याकुल": 2881,
      "पहुंचकर": 2882,
      "अभिषि": 2883,
      "हदद": 2884,
      "जकर्याह": 2885,
      "सिपाहियों": 2886,
      "हेरोदेस": 2887,
      "अवसर": 2888,
      "बालाक": 2889,
      "जेवनार": 2890,
      "इस्सा": 2891,
      "कपट": 2892,
      "चर्म": 2893,
      "झि": 2894,
      "ढिय़": 2895,
      "तर्": 2896,
      "मछ": 2897,
      "लड़े": 2898,
      "काठ": 2899,
      "ताल": 2900,
      "तारा": 2901,
      "न्दे": 2902,
      "राख": 2903,
      "रामा": 2904,
      "रेंग": 2905,
      "र्यां": 2906,
      "प्रयो": 2907,
      "विवे": 2908,
      "नील": 2909,
      "मिक": 2910,
      "ढ़ों": 2911,
      "बेतले": 2912,
      "अनमोल": 2913,
      "लगाने": 2914,
      "सिखा": 2915,
      "बनाई": 2916,
      "बान्धा": 2917,
      "युगा": 2918,
      "दिखाया": 2919,
      "पर्दे": 2920,
      "चढ़कर": 2921,
      "पकड़कर": 2922,
      "मरेगा": 2923,
      "बिन्यामीनियों": 2924,
      "बन्धुआ": 2925,
      "सड़क": 2926,
      "प्राचीनकाल": 2927,
      "पच्छि": 2928,
      "मजदूरी": 2929,
      "शिमशोन": 2930,
      "नप्ताली": 2931,
      "घायल": 2932,
      "पच्चीस": 2933,
      "प्रयोजन": 2934,
      "विवेक": 2935,
      "अशे": 2936,
      "अठा": 2937,
      "ऊन": 2938,
      "कष्ट": 2939,
      "कन्या": 2940,
      "खलि": 2941,
      "छता": 2942,
      "जने": 2943,
      "फट": 2944,
      "ौर": 2945,
      "याण": 2946,
      "करु": 2947,
      "गाओ": 2948,
      "पान": 2949,
      "विशेष": 2950,
      "वेत": 2951,
      "पुस": 2952,
      "तियां": 2953,
      "लोगो": 2954,
      "दियां": 2955,
      "लगाई": 2956,
      "बनाता": 2957,
      "बैरियों": 2958,
      "वैभव": 2959,
      "टेगा": 2960,
      "बढ़ते": 2961,
      "बन्धा": 2962,
      "उद्धारकर्ता": 2963,
      "भेजने": 2964,
      "फिले": 2965,
      "डालेंगे": 2966,
      "चोटी": 2967,
      "लम्बी": 2968,
      "भड़क": 2969,
      "कल्याण": 2970,
      "शमायाह": 2971,
      "वंशावली": 2972,
      "इतनी": 2973,
      "कबू": 2974,
      "गण": 2975,
      "डूब": 2976,
      "तह": 2977,
      "नदियों": 2978,
      "हरे": 2979,
      "कीं": 2980,
      "दानों": 2981,
      "त्ते": 2982,
      "कुण्ड": 2983,
      "बीतने": 2984,
      "हरों": 2985,
      "चौकस": 2986,
      "सूर": 2987,
      "निकलने": 2988,
      "लड़कों": 2989,
      "दिखाता": 2990,
      "गुफा": 2991,
      "पर्ब्ब": 2992,
      "अशुद्धता": 2993,
      "खिड़": 2994,
      "जलाए": 2995,
      "चिल्लाकर": 2996,
      "इन्कार": 2997,
      "कनानी": 2998,
      "सड़कों": 2999,
      "चरवाहे": 3000,
      "कंगालों": 3001,
      "करूबों": 3002,
      "अमाले": 3003,
      "कमाई": 3004,
      "नुयुग": 3005,
      "हनन्याह": 3006,
      "अन्याय": 3007,
      "बिछौ": 3008,
      "अभिषिक्त": 3009,
      "युगानुयुग": 3010,
      "अहेर": 3011,
      "ओढ़": 3012,
      "चराई": 3013,
      "छत": 3014,
      "धमीं": 3015,
      "पछता": 3016,
      "फो": 3017,
      "वधा": 3018,
      "हना": 3019,
      "मेज": 3020,
      "कानों": 3021,
      "जांघ": 3022,
      "सावधा": 3023,
      "लाओ": 3024,
      "लाते": 3025,
      "लाऊंगा": 3026,
      "क्के": 3027,
      "निया": 3028,
      "ठहरी": 3029,
      "क्ष्म": 3030,
      "खेतों": 3031,
      "खोला": 3032,
      "विश्वासयोग्य": 3033,
      "पहुंचाए": 3034,
      "दुर्": 3035,
      "बकरा": 3036,
      "बन्धन": 3037,
      "तैयारी": 3038,
      "परदेशियों": 3039,
      "सृष्टि": 3040,
      "कुंवा": 3041,
      "अद्भुत": 3042,
      "इस्साकार": 3043,
      "अदो": 3044,
      "एला": 3045,
      "घटा": 3046,
      "नबा": 3047,
      "हक": 3048,
      "हव्य": 3049,
      "मेश": 3050,
      "वालो": 3051,
      "न्तर": 3052,
      "ियुस": 3053,
      "साब": 3054,
      "बाले": 3055,
      "पुराने": 3056,
      "तिहाई": 3057,
      "खाओ": 3058,
      "हित्ती": 3059,
      "हिसाब": 3060,
      "डालें": 3061,
      "मूल्य": 3062,
      "जीत": 3063,
      "बिज": 3064,
      "गिबोन": 3065,
      "व्यक्ति": 3066,
      "चुना": 3067,
      "चुपचा": 3068,
      "प्पुस": 3069,
      "चौथा": 3070,
      "सूक्ष्म": 3071,
      "आंधी": 3072,
      "गुणा": 3073,
      "प्रेमी": 3074,
      "बरबस": 3075,
      "खुल": 3076,
      "मूरतें": 3077,
      "देखेगा": 3078,
      "बचेगा": 3079,
      "अंगू": 3080,
      "मित्रों": 3081,
      "भीतरी": 3082,
      "यहोयाकीम": 3083,
      "हड्डियों": 3084,
      "अहज्याह": 3085,
      "पहिलौठे": 3086,
      "एल्या": 3087,
      "सीनै": 3088,
      "अगुवाई": 3089,
      "जबूलून": 3090,
      "मिस्पा": 3091,
      "रेंगने": 3092,
      "पच्छिम": 3093,
      "चुपचाप": 3094,
      "उंडे": 3095,
      "ककर": 3096,
      "फ़": 3097,
      "फंसा": 3098,
      "भयान": 3099,
      "मदि": 3100,
      "लड़ा": 3101,
      "हरा": 3102,
      "हठी": 3103,
      "कें": 3104,
      "करनी": 3105,
      "किर्य": 3106,
      "होर": 3107,
      "हाम": 3108,
      "नाप": 3109,
      "तेरह": 3110,
      "गाल": 3111,
      "माल": 3112,
      "जोड़": 3113,
      "प्रत्य": 3114,
      "त्मिक": 3115,
      "कियां": 3116,
      "सोता": 3117,
      "डाह": 3118,
      "डालियां": 3119,
      "पूछे": 3120,
      "बिन": 3121,
      "भुजा": 3122,
      "मारते": 3123,
      "पड़ेगी": 3124,
      "खोद": 3125,
      "जिनकी": 3126,
      "भोग": 3127,
      "भिन्न": 3128,
      "निय्याह": 3129,
      "गवाह": 3130,
      "कनानियों": 3131,
      "झूठे": 3132,
      "फरीसी": 3133,
      "अरामियों": 3134,
      "पहरु": 3135,
      "निरन्तर": 3136,
      "आशेर": 3137,
      "भयानक": 3138,
      "मदिरा": 3139,
      "आत्मिक": 3140,
      "उतरा": 3141,
      "एका": 3142,
      "कते": 3143,
      "कन्ध": 3144,
      "गरी": 3145,
      "घेरे": 3146,
      "डी": 3147,
      "यं": 3148,
      "रस्": 3149,
      "शल्": 3150,
      "ैल": 3151,
      "सें": 3152,
      "कोला": 3153,
      "गाऊंगा": 3154,
      "माण": 3155,
      "मैदे": 3156,
      "मैदा": 3157,
      "विस्": 3158,
      "त्कार": 3159,
      "जिलाया": 3160,
      "खाट": 3161,
      "कुसि": 3162,
      "हिल": 3163,
      "समयों": 3164,
      "डांट": 3165,
      "गीय": 3166,
      "रखवाली": 3167,
      "हमात": 3168,
      "गिना": 3169,
      "दाऊदपुर": 3170,
      "हूर": 3171,
      "चुकी": 3172,
      "कूश": 3173,
      "बूझ": 3174,
      "बूढ़ा": 3175,
      "धर्मियों": 3176,
      "चलेगा": 3177,
      "स्वर्गीय": 3178,
      "बैठी": 3179,
      "बनो": 3180,
      "निकालता": 3181,
      "दिखाए": 3182,
      "बढ़ता": 3183,
      "बारियों": 3184,
      "रिक": 3185,
      "भेजता": 3186,
      "ल्लाम": 3187,
      "परिपूर्ण": 3188,
      "ठहरूंगा": 3189,
      "बहती": 3190,
      "रूपया": 3191,
      "अरामी": 3192,
      "खमीर": 3193,
      "पदार्थ": 3194,
      "अशेरा": 3195,
      "अठारह": 3196,
      "खलिहान": 3197,
      "कुसिर्यां": 3198,
      "असा": 3199,
      "इयां": 3200,
      "उत": 3201,
      "उंग": 3202,
      "उखा": 3203,
      "ओस": 3204,
      "डरा": 3205,
      "थम": 3206,
      "सेईर": 3207,
      "मेंह": 3208,
      "लेट": 3209,
      "स्नान": 3210,
      "पारी": 3211,
      "बाहरी": 3212,
      "इसकी": 3213,
      "विलम्": 3214,
      "वेग": 3215,
      "मित": 3216,
      "लिआ": 3217,
      "फिरकर": 3218,
      "फिरता": 3219,
      "कहूंगा": 3220,
      "शापित": 3221,
      "बीत": 3222,
      "बेन्": 3223,
      "राजकुमार": 3224,
      "क्षय": 3225,
      "बोया": 3226,
      "टेंगे": 3227,
      "चौथे": 3228,
      "चौबीस": 3229,
      "लूत": 3230,
      "मण्डल": 3231,
      "कारीगर": 3232,
      "झुका": 3233,
      "स्वयं": 3234,
      "लज्जा": 3235,
      "मानें": 3236,
      "उठेगा": 3237,
      "महंगी": 3238,
      "अचम्भा": 3239,
      "छुटकारा": 3240,
      "रोटियां": 3241,
      "बेतलेहेम": 3242,
      "फिलेप्पुस": 3243,
      "विलम्ब": 3244,
      "अचान": 3245,
      "आड़": 3246,
      "एब्या": 3247,
      "ओसारे": 3248,
      "खू": 3249,
      "छठ": 3250,
      "ढी": 3251,
      "नह": 3252,
      "नति": 3253,
      "पग": 3254,
      "फं": 3255,
      "बटो": 3256,
      "म्री": 3257,
      "रईस": 3258,
      "वध": 3259,
      "सला": 3260,
      "हने": 3261,
      "हूंगा": 3262,
      "िस्": 3263,
      "वारिस": 3264,
      "तालीस": 3265,
      "अप्र": 3266,
      "हेश": 3267,
      "प्रच": 3268,
      "सीहोन": 3269,
      "कार्य": 3270,
      "ड़ें": 3271,
      "सोचा": 3272,
      "पीते": 3273,
      "रहेंगी": 3274,
      "रोगी": 3275,
      "बिता": 3276,
      "बिगाड़": 3277,
      "ऊंट": 3278,
      "राज्यों": 3279,
      "क्षे": 3280,
      "बोले": 3281,
      "ठहराऊंगा": 3282,
      "ठहराएगा": 3283,
      "लगता": 3284,
      "ठहरेगी": 3285,
      "दोषबलि": 3286,
      "परात": 3287,
      "पराये": 3288,
      "सकेंगे": 3289,
      "प्रतिदिन": 3290,
      "रखेगा": 3291,
      "ढां": 3292,
      "देखेंगे": 3293,
      "जूर": 3294,
      "झाड़": 3295,
      "बसाया": 3296,
      "अम्मोनी": 3297,
      "हड्डियां": 3298,
      "द्रोहियों": 3299,
      "उजियाले": 3300,
      "निकम्मा": 3301,
      "दुष्टात्माओं": 3302,
      "यात्रा": 3303,
      "ऊरिय्याह": 3304,
      "करुणा": 3305,
      "सावधान": 3306,
      "कोलाहल": 3307,
      "अचानक": 3308,
      "उजड़": 3309,
      "कड़े": 3310,
      "गवै": 3311,
      "चोर": 3312,
      "छड़ी": 3313,
      "जल्ला": 3314,
      "टह": 3315,
      "तड़": 3316,
      "रब्": 3317,
      "लूं": 3318,
      "सको": 3319,
      "मेज़": 3320,
      "कारे": 3321,
      "कोर": 3322,
      "कोरह": 3323,
      "सागर": 3324,
      "रीरिक": 3325,
      "खाएं": 3326,
      "खाएगा": 3327,
      "शारीरिक": 3328,
      "मानकर": 3329,
      "शुभ": 3330,
      "पीठ": 3331,
      "भेड़ी": 3332,
      "लगाओ": 3333,
      "लगाल": 3334,
      "बनाऊंगा": 3335,
      "गिलगाल": 3336,
      "ण्डों": 3337,
      "ल्ल": 3338,
      "बोर": 3339,
      "तुझी": 3340,
      "कटनी": 3341,
      "जिनका": 3342,
      "गोष्ठ": 3343,
      "निकलते": 3344,
      "यूना": 3345,
      "शिमोन": 3346,
      "चिल्लाहट": 3347,
      "विरोधी": 3348,
      "आसाप": 3349,
      "रूबेनियों": 3350,
      "द्रोह": 3351,
      "नरसिंगा": 3352,
      "भण्डार": 3353,
      "कुटिल": 3354,
      "अस्सी": 3355,
      "किवाड़": 3356,
      "ललकार": 3357,
      "रिबका": 3358,
      "आराधनालय": 3359,
      "कुंवारी": 3360,
      "जल्लादों": 3361,
      "गोष्ठी": 3362,
      "कबर": 3363,
      "णडा": 3364,
      "नंगा": 3365,
      "पटा": 3366,
      "सवे": 3367,
      "सरू": 3368,
      "किन": 3369,
      "वाकर": 3370,
      "होगे": 3371,
      "परख": 3372,
      "सांप": 3373,
      "देन": 3374,
      "प्रभाव": 3375,
      "श्वेत": 3376,
      "वरदान": 3377,
      "मुं": 3378,
      "निर्म": 3379,
      "द्याह": 3380,
      "िर्यों": 3381,
      "भाले": 3382,
      "रहूं": 3383,
      "पूजा": 3384,
      "सिखाने": 3385,
      "सुनना": 3386,
      "हुईं": 3387,
      "बोत": 3388,
      "भूख": 3389,
      "इनकार": 3390,
      "द्रव्य": 3391,
      "खोजी": 3392,
      "कर्मी": 3393,
      "दाखरस": 3394,
      "णाम": 3395,
      "बचाए": 3396,
      "भेजूंगा": 3397,
      "गिरकर": 3398,
      "झूठा": 3399,
      "गदल्याह": 3400,
      "ढूंढ": 3401,
      "धूपदान": 3402,
      "काटने": 3403,
      "बन्धुओं": 3404,
      "चमत्कार": 3405,
      "जूआ": 3406,
      "कोठरियां": 3407,
      "नबूवत": 3408,
      "ढूंढ़ने": 3409,
      "मेम्ने": 3410,
      "कालेब": 3411,
      "मंत्री": 3412,
      "रौं": 3413,
      "प्रत्येक": 3414,
      "विस्मित": 3415,
      "खूनी": 3416,
      "हेशबोन": 3417,
      "आहार": 3418,
      "आवश्य": 3419,
      "उकाब": 3420,
      "ओबे": 3421,
      "कनी": 3422,
      "कपड़ा": 3423,
      "खजूर": 3424,
      "गूं": 3425,
      "घों": 3426,
      "नून": 3427,
      "पों": 3428,
      "पन्द्र": 3429,
      "भ्र": 3430,
      "भणडा": 3431,
      "मढ़": 3432,
      "सेर": 3433,
      "गादियों": 3434,
      "मांगा": 3435,
      "बालू": 3436,
      "तोपे": 3437,
      "मुहर": 3438,
      "नियां": 3439,
      "लित": 3440,
      "मनभा": 3441,
      "हिन": 3442,
      "मानों": 3443,
      "देखें": 3444,
      "पीस": 3445,
      "जानने": 3446,
      "मरवा": 3447,
      "मोटी": 3448,
      "पहिरा": 3449,
      "इनकी": 3450,
      "बूल": 3451,
      "विश्वासी": 3452,
      "पेड़ों": 3453,
      "निर्जल": 3454,
      "यिप्त": 3455,
      "डेरा": 3456,
      "धोए": 3457,
      "लगीं": 3458,
      "कराने": 3459,
      "टिका": 3460,
      "लम्बे": 3461,
      "पंखों": 3462,
      "ढूंढ़ते": 3463,
      "विधियां": 3464,
      "जन्तुओं": 3465,
      "प्रेरित": 3466,
      "गिरेंगे": 3467,
      "बिजली": 3468,
      "बेन्हदद": 3469,
      "क्षयर्ष": 3470,
      "निर्मल": 3471,
      "पन्द्रह": 3472,
      "ंतीस": 3473,
      "उतना": 3474,
      "कंग": 3475,
      "खूं": 3476,
      "गला": 3477,
      "चन्द्र": 3478,
      "ढो": 3479,
      "पूं": 3480,
      "वने": 3481,
      "षण": 3482,
      "हवा": 3483,
      "केगा": 3484,
      "काज": 3485,
      "तारे": 3486,
      "हाजि": 3487,
      "तिर": 3488,
      "खाएंगे": 3489,
      "भाला": 3490,
      "भावी": 3491,
      "शास्त्रियों": 3492,
      "डालो": 3493,
      "रोत": 3494,
      "ठहरो": 3495,
      "लगाऊंगा": 3496,
      "ऊंची": 3497,
      "सुनसान": 3498,
      "पवित्रता": 3499,
      "योराम": 3500,
      "व्यो": 3501,
      "ठहराता": 3502,
      "चढ़ावा": 3503,
      "पुरनिय": 3504,
      "घाव": 3505,
      "लौंड": 3506,
      "लड़की": 3507,
      "संस्कार": 3508,
      "बचाने": 3509,
      "डरता": 3510,
      "डरते": 3511,
      "डेव": 3512,
      "स्थल": 3513,
      "दसवें": 3514,
      "अन्यजाति": 3515,
      "सच्चे": 3516,
      "पहरू": 3517,
      "अम्नोन": 3518,
      "चोट": 3519,
      "चोरी": 3520,
      "मूर्ति": 3521,
      "बनवाई": 3522,
      "घुस": 3523,
      "रूपये": 3524,
      "पूछता": 3525,
      "बांज": 3526,
      "सौंपा": 3527,
      "डोल": 3528,
      "ज़ार": 3529,
      ")।": 3530,
      "अंगी": 3531,
      "एन": 3532,
      "कं": 3533,
      "खराई": 3534,
      "गम": 3535,
      "गति": 3536,
      "गड़े": 3537,
      "गर्व": 3538,
      "दशमा": 3539,
      "फन्दे": 3540,
      "बजाते": 3541,
      "मियों": 3542,
      "यमान": 3543,
      "हज़ार": 3544,
      "करवा": 3545,
      "न्ने": 3546,
      "रामोत": 3547,
      "सां": 3548,
      "प्रस्थान": 3549,
      "दोनो": 3550,
      "गेर्श": 3551,
      "शापान": 3552,
      "डालियों": 3553,
      "बीन": 3554,
      "पिला": 3555,
      "छाप": 3556,
      "येशू": 3557,
      "मोआ": 3558,
      "भूखे": 3559,
      "दासत्व": 3560,
      "संगति": 3561,
      "सौगन्ध": 3562,
      "प्पी": 3563,
      "चौकी": 3564,
      "चलेंगे": 3565,
      "सम्पूर्ण": 3566,
      "पड़ते": 3567,
      "अन्धा": 3568,
      "धूल": 3569,
      "भोजनवस्तु": 3570,
      "खुदी": 3571,
      "जवानी": 3572,
      "पहरे": 3573,
      "बारहों": 3574,
      "बुलाए": 3575,
      "साक्षीपत्र": 3576,
      "मुक़": 3577,
      "चरवाहों": 3578,
      "मीकायाह": 3579,
      "उज्जी": 3580,
      "मूढ़ता": 3581,
      "पूरब": 3582,
      "उजड़े": 3583,
      "सवारों": 3584,
      "बिछौने": 3585,
      "शल्लूम": 3586,
      "एब्यातार": 3587,
      "प्रचण्ड": 3588,
      "सवेरे": 3589,
      "यिप्तह": 3590,
      "पुरनिये": 3591,
      "दशमांश": 3592,
      "गेर्शोन": 3593,
      "अटल": 3594,
      "उताव": 3595,
      "एज": 3596,
      "जव": 3597,
      "दर्": 3598,
      "नहास": 3599,
      "बस्": 3600,
      "बबूल": 3601,
      "मचा": 3602,
      "करी": 3603,
      "कादेश": 3604,
      "कीर": 3605,
      "कीर्": 3606,
      "ताक": 3607,
      "हाँ": 3608,
      "माका": 3609,
      "पाय": 3610,
      "बाकी": 3611,
      "क्को": 3612,
      "तोड़े": 3613,
      "पुण": 3614,
      "निपुण": 3615,
      "त्तियों": 3616,
      "तिर्": 3617,
      "कुर": 3618,
      "कुड़": 3619,
      "रूक": 3620,
      "पुत्रियों": 3621,
      "ज्जा": 3622,
      "पिलाया": 3623,
      "जानती": 3624,
      "बातची": 3625,
      "चितौ": 3626,
      "राजगद्दी": 3627,
      "बोअज": 3628,
      "पापियों": 3629,
      "ौनियों": 3630,
      "शेम": 3631,
      "टें": 3632,
      "चढ़ाकर": 3633,
      "उठाना": 3634,
      "विश्वासघा": 3635,
      "सूबे": 3636,
      "सूखी": 3637,
      "आंसू": 3638,
      "हजारों": 3639,
      "बढ़े": 3640,
      "बरनबा": 3641,
      "पोते": 3642,
      "कराई": 3643,
      "खुद": 3644,
      "पहचान": 3645,
      "छूए": 3646,
      "बहका": 3647,
      "बिन्यामीनी": 3648,
      "फुतीं": 3649,
      "मोआबियों": 3650,
      "गर्दन": 3651,
      "चितौनियों": 3652,
      "दक्खिनी": 3653,
      "इन्होंने": 3654,
      "टूटे": 3655,
      "जीवते": 3656,
      "पर्व्व": 3657,
      "ठट्ठों": 3658,
      "झगड़े": 3659,
      "प्रतापी": 3660,
      "कुटिलता": 3661,
      "पलटन": 3662,
      "क्षेम": 3663,
      "चन्द्रमा": 3664,
      "बातचीत": 3665,
      "आधा": 3666,
      "एजेर": 3667,
      "कन": 3668,
      "धध": 3669,
      "धरा": 3670,
      "फंस": 3671,
      "बक": 3672,
      "मकि": 3673,
      "यज्ञ": 3674,
      "व्": 3675,
      "शत": 3676,
      "सल्": 3677,
      "िणी": 3678,
      "काला": 3679,
      "तुरह": 3680,
      "रेब": 3681,
      "रेगा": 3682,
      "लेखा": 3683,
      "बाशा": 3684,
      "बारूक": 3685,
      "दाई": 3686,
      "नीचा": 3687,
      "तित्तर": 3688,
      "तून": 3689,
      "द्वी": 3690,
      "म्मोन": 3691,
      "भाल": 3692,
      "भागा": 3693,
      "शाल": 3694,
      "पीड़": 3695,
      "रोष": 3696,
      "लगाना": 3697,
      "साथियों": 3698,
      "सियां": 3699,
      "जानो": 3700,
      "अबिय्याह": 3701,
      "योहानान": 3702,
      "अन्दर": 3703,
      "बोशेत": 3704,
      "मारता": 3705,
      "ठहराने": 3706,
      "खेती": 3707,
      "उठाता": 3708,
      "फाड़े": 3709,
      "फारस": 3710,
      "जितनों": 3711,
      "ब्ना": 3712,
      "डालते": 3713,
      "क्री": 3714,
      "सुनाने": 3715,
      "निकलता": 3716,
      "बैठकर": 3717,
      "महासभा": 3718,
      "छिल": 3719,
      "दिखाऊंगा": 3720,
      "जेरह": 3721,
      "बचाता": 3722,
      "बचाएगा": 3723,
      "प्रतिफल": 3724,
      "कितनी": 3725,
      "पांचवें": 3726,
      "ठाना": 3727,
      "गदही": 3728,
      "लालच": 3729,
      "मूर्खों": 3730,
      "इन्हीं": 3731,
      "बंधुओं": 3732,
      "घूस": 3733,
      "बाईस": 3734,
      "चरवाहा": 3735,
      "सुनें": 3736,
      "हड्डी": 3737,
      "आठवें": 3738,
      "निकम्मे": 3739,
      "जागते": 3740,
      "मिद्यानियों": 3741,
      "हंसी": 3742,
      "छुड़ाए": 3743,
      "कदापि": 3744,
      "रुपया": 3745,
      "मुक़द्दमा": 3746,
      "उतावली": 3747,
      "एज्रा": 3748,
      "एलाम": 3749,
      "दमी": 3750,
      "पत": 3751,
      "वत्": 3752,
      "ससुर": 3753,
      "हठ": 3754,
      "सेयाह": 3755,
      "कीला": 3756,
      "हारों": 3757,
      "जाबाद": 3758,
      "र्शेबा": 3759,
      "दिख": 3760,
      "प्रणाम": 3761,
      "वेदियों": 3762,
      "वेदियां": 3763,
      "सुस": 3764,
      "उन्नति": 3765,
      "पीना": 3766,
      "पीनहास": 3767,
      "भेजी": 3768,
      "बें": 3769,
      "बेर्शेबा": 3770,
      "रोए": 3771,
      "रोते": 3772,
      "चेला": 3773,
      "बिगड़": 3774,
      "छांट": 3775,
      "जानना": 3776,
      "सन्देश": 3777,
      "योताम": 3778,
      "हूद": 3779,
      "ठहराई": 3780,
      "लगें": 3781,
      "भरने": 3782,
      "उपमा": 3783,
      "चौड़ा": 3784,
      "लगते": 3785,
      "महापाप": 3786,
      "दण्डवत्": 3787,
      "निर्ण": 3788,
      "निर्बुद्धि": 3789,
      "पड़ने": 3790,
      "आकाशमण्डल": 3791,
      "सकेती": 3792,
      "धनवान": 3793,
      "तीसरा": 3794,
      "जलाने": 3795,
      "ट्ठा": 3796,
      "द्वारपाल": 3797,
      "कराह": 3798,
      "चर्बी": 3799,
      "घुटने": 3800,
      "सिंहों": 3801,
      "पैरों": 3802,
      "आसपास": 3803,
      "कलीसियाओं": 3804,
      "मरारी": 3805,
      "जुबली": 3806,
      "जोहता": 3807,
      "पहिलौठों": 3808,
      "तख्ते": 3809,
      "शोभायमान": 3810,
      "सरीखे": 3811,
      "सनातन": 3812,
      "निष्फल": 3813,
      "उंडेल": 3814,
      "आह": 3815,
      "उभा": 3816,
      "उतने": 3817,
      "उपाय": 3818,
      "तरी": 3819,
      "तरह": 3820,
      "धरे": 3821,
      "पल्": 3822,
      "फी": 3823,
      "बजा": 3824,
      "मन्त्र": 3825,
      "शब": 3826,
      "िण": 3827,
      "ैले": 3828,
      "कोनों": 3829,
      "जाऊ": 3830,
      "तुरही": 3831,
      "लेल": 3832,
      "दित": 3833,
      "दिलाई": 3834,
      "लाकीश": 3835,
      "बाईं": 3836,
      "यहोराम": 3837,
      "क्का": 3838,
      "जिला": 3839,
      "द्दो": 3840,
      "सीधी": 3841,
      "फिरने": 3842,
      "पुत्री": 3843,
      "बुझ": 3844,
      "बित्तर": 3845,
      "सिक": 3846,
      "चिट्ठ": 3847,
      "राजद्रोह": 3848,
      "ढ़ाई": 3849,
      "योत": 3850,
      "अन्तर": 3851,
      "बोली": 3852,
      "टीले": 3853,
      "टाल": 3854,
      "चलूंगा": 3855,
      "लगेगा": 3856,
      "बूढ़े": 3857,
      "उठाकर": 3858,
      "दुल्": 3859,
      "न्यायियों": 3860,
      "दिखाने": 3861,
      "चढ़े": 3862,
      "बताता": 3863,
      "फिरें": 3864,
      "अबीशै": 3865,
      "मिलेगी": 3866,
      "अनाज": 3867,
      "लज्ज़": 3868,
      "चमड़े": 3869,
      "खोलकर": 3870,
      "अलंगों": 3871,
      "सींगों": 3872,
      "एमोरी": 3873,
      "अन्धेरा": 3874,
      "पिछले": 3875,
      "आलसी": 3876,
      "उंगली": 3877,
      "उखाड़": 3878,
      "अंगीकार": 3879,
      "सूबेदार": 3880,
      "बरनबास": 3881,
      "निर्णय": 3882,
      "अत": 3883,
      "आऊं": 3884,
      "उदय": 3885,
      "उधार": 3886,
      "कसा": 3887,
      "चपरा": 3888,
      "थियुस": 3889,
      "नवे": 3890,
      "नबात": 3891,
      "पण्ड": 3892,
      "फलों": 3893,
      "बया": 3894,
      "ब्र": 3895,
      "भग": 3896,
      "।)": 3897,
      "कोम": 3898,
      "नाच": 3899,
      "जां": 3900,
      "रेत": 3901,
      "सामर": 3902,
      "लेगी": 3903,
      "मास": 3904,
      "दिलाने": 3905,
      "लाना": 3906,
      "यहोआहाज": 3907,
      "थाह": 3908,
      "दारा": 3909,
      "दायाह": 3910,
      "चाना": 3911,
      "मुथियुस": 3912,
      "त्तीस": 3913,
      "सीसरा": 3914,
      "मिल्": 3915,
      "म्ना": 3916,
      "कुमारी": 3917,
      "कुत्ते": 3918,
      "देशी": 3919,
      "दोपहर": 3920,
      "करेंगी": 3921,
      "सोलह": 3922,
      "पीकर": 3923,
      "उठते": 3924,
      "अर्नोन": 3925,
      "छेद": 3926,
      "न्दन": 3927,
      "कटि": 3928,
      "चलाने": 3929,
      "पेर": 3930,
      "आत्माओं": 3931,
      "सम्भव": 3932,
      "निर्धन": 3933,
      "कैद": 3934,
      "बारियां": 3935,
      "बकरों": 3936,
      "तीसरी": 3937,
      "पकड़ने": 3938,
      "फैलाए": 3939,
      "ठहरने": 3940,
      "गदहों": 3941,
      "दृढ़ता": 3942,
      "भड़के": 3943,
      "चमक": 3944,
      "आंगनों": 3945,
      "व्यापार": 3946,
      "बुलवाया": 3947,
      "सताने": 3948,
      "मजदूर": 3949,
      "प्रतिष्ठित": 3950,
      "डोरी": 3951,
      "योद्धाओं": 3952,
      "ढिय़ों": 3953,
      "अदोनिय्याह": 3954,
      "ढोने": 3955,
      "व्योपारी": 3956,
      "डेवढ़ी": 3957,
      "मकिदु": 3958,
      "चिट्ठियां": 3959,
      "चपरास": 3960,
      "अमो": 3961,
      "आमो": 3962,
      "आधार": 3963,
      "उण्ड": 3964,
      "उदार": 3965,
      "ओहो": 3966,
      "कच्चा": 3967,
      "खट": 3968,
      "जं": 3969,
      "झो": 3970,
      "डण्डों": 3971,
      "थू": 3972,
      "नत": 3973,
      "फन्दा": 3974,
      "भगा": 3975,
      "मों": 3976,
      "मशु": 3977,
      "महल": 3978,
      "रच": 3979,
      "रन": 3980,
      "सठ": 3981,
      "मेढ़ों": 3982,
      "याबे": 3983,
      "कोड़े": 3984,
      "रास": 3985,
      "रेस": 3986,
      "माथे": 3987,
      "प्रबन्ध": 3988,
      "बारा": 3989,
      "रीब": 3990,
      "तोड़ी": 3991,
      "एक्रोन": 3992,
      "कुएं": 3993,
      "जबल": 3994,
      "जब्": 3995,
      "थें": 3996,
      "बेगा": 3997,
      "रोना": 3998,
      "पिघ": 3999,
      "अनगि": 4000,
      "उठता": 4001,
      "चेत": 4002,
      "यें": 4003,
      "भुजबल": 4004,
      "म्हने": 4005,
      "चिकनी": 4006,
      "योएल": 4007,
      "बैत": 4008,
      "स्तुस": 4009,
      "कूशी": 4010,
      "चढ़ाते": 4011,
      "डालूं": 4012,
      "शीश": 4013,
      "चलाया": 4014,
      "चौड़ी": 4015,
      "गोद": 4016,
      "सुनाते": 4017,
      "भोज": 4018,
      "चलेगी": 4019,
      "बैठने": 4020,
      "बनैले": 4021,
      "देखोगे": 4022,
      "निर्जन": 4023,
      "कैन": 4024,
      "बन्धक": 4025,
      "डेढ़": 4026,
      "पोर": 4027,
      "पोषण": 4028,
      "इब्री": 4029,
      "ढालें": 4030,
      "धोकर": 4031,
      "प्रसन्नता": 4032,
      "पहले": 4033,
      "दयालु": 4034,
      "अनादर": 4035,
      "टुकड़ा": 4036,
      "घुड़": 4037,
      "टोकरी": 4038,
      "बंधुआ": 4039,
      "सुगन्धित": 4040,
      "पत्री": 4041,
      "अहिय्याह": 4042,
      "ग्नि": 4043,
      "शरणस्थान": 4044,
      "गहिरा": 4045,
      "मूलपुरूष": 4046,
      "भण्डारों": 4047,
      "सीधाई": 4048,
      "घूमकर": 4049,
      "धाराएं": 4050,
      "प्रान्तों": 4051,
      "यबूसी": 4052,
      "अमालेकियों": 4053,
      "टहलु": 4054,
      "सरूयाह": 4055,
      "किनकों": 4056,
      "विश्वासघाती": 4057,
      "तुरहियां": 4058,
      "लज्ज़ित": 4059,
      "उण्डेल": 4060,
      "अनगिनित": 4061,
      "अगले": 4062,
      "अग्नि": 4063,
      "आन्ध": 4064,
      "आकीश": 4065,
      "ओग": 4066,
      "ओमी": 4067,
      "कड़ा": 4068,
      "खरा": 4069,
      "खदे": 4070,
      "चंगे": 4071,
      "जिय्याह": 4072,
      "झट": 4073,
      "तथा": 4074,
      "थै": 4075,
      "नुस": 4076,
      "पक्की": 4077,
      "बरी": 4078,
      "मत्त": 4079,
      "शन": 4080,
      "श्रा": 4081,
      "ुर्": 4082,
      "कोढ़ी": 4083,
      "ताली": 4084,
      "हारे": 4085,
      "नाक": 4086,
      "नाबाल": 4087,
      "नाओमी": 4088,
      "तेईस": 4089,
      "साथी": 4090,
      "हीराम": 4091,
      "लेख": 4092,
      "माकीर": 4093,
      "र्त": 4094,
      "हुल्": 4095,
      "प्रलय": 4096,
      "दाग": 4097,
      "नीच": 4098,
      "लोबान": 4099,
      "लोथें": 4100,
      "त्ति": 4101,
      "िरौन": 4102,
      "सीदोन": 4103,
      "सुखा": 4104,
      "ढ़स": 4105,
      "म्हार": 4106,
      "कुम्हार": 4107,
      "हिल्": 4108,
      "दोर": 4109,
      "दोगे": 4110,
      "सिखाता": 4111,
      "बनाएगा": 4112,
      "धारियों": 4113,
      "बोने": 4114,
      "भूखा": 4115,
      "चुरा": 4116,
      "ब्बाबेल": 4117,
      "समझने": 4118,
      "लगती": 4119,
      "लगभग": 4120,
      "बुद्धिमानी": 4121,
      "जेठे": 4122,
      "चाहती": 4123,
      "वंशियों": 4124,
      "डरवै": 4125,
      "धनुर्": 4126,
      "डेरों": 4127,
      "खिलाई": 4128,
      "पोतों": 4129,
      "सामथीं": 4130,
      "बढ़ाऊंगा": 4131,
      "उत्तरी": 4132,
      "खुली": 4133,
      "तोड़ने": 4134,
      "सिवानों": 4135,
      "अपराधी": 4136,
      "बनवाए": 4137,
      "निकाली": 4138,
      "बुद्धिमानों": 4139,
      "पटिया": 4140,
      "उठेंगे": 4141,
      "नोक": 4142,
      "वीरता": 4143,
      "सोचकर": 4144,
      "बसने": 4145,
      "पात्रों": 4146,
      "बुलवाकर": 4147,
      "सर्प": 4148,
      "घिनौनी": 4149,
      "मिद्यान": 4150,
      "मेम्ना": 4151,
      "मुड़कर": 4152,
      "नम्रता": 4153,
      "ज्योंही": 4154,
      "कल्पनाएं": 4155,
      "देवदारु": 4156,
      "फ़िरौन": 4157,
      "उतरे": 4158,
      "तड़के": 4159,
      "भ्रष्ट": 4160,
      "लौंडी": 4161,
      "अमोरा": 4162,
      "मशुल्लाम": 4163,
      "),": 4164,
      "ंटा": 4165,
      "अथ": 4166,
      "आम्हने": 4167,
      "ईतामार": 4168,
      "ओले": 4169,
      "क़": 4170,
      "गहने": 4171,
      "घे": 4172,
      "चतु": 4173,
      "झड़": 4174,
      "डि": 4175,
      "दब": 4176,
      "दरा": 4177,
      "नगरी": 4178,
      "पवन": 4179,
      "बहू": 4180,
      "बटी": 4181,
      "बजाने": 4182,
      "शम्": 4183,
      "सप्ता": 4184,
      "हजाए": 4185,
      "काटा": 4186,
      "नालों": 4187,
      "नाबोत": 4188,
      "तेजो": 4189,
      "साफ": 4190,
      "गाड़ी": 4191,
      "मासेयाह": 4192,
      "प्रश्": 4193,
      "प्रमाण": 4194,
      "बाएं": 4195,
      "भीतों": 4196,
      "पुष्ट": 4197,
      "तीमुथियुस": 4198,
      "कहात": 4199,
      "कहातियों": 4200,
      "मिन": 4201,
      "मिसर": 4202,
      "म्याह": 4203,
      "हिम": 4204,
      "शाली": 4205,
      "पीए": 4206,
      "बीते": 4207,
      "राजदण्ड": 4208,
      "आएगी": 4209,
      "टीलों": 4210,
      "दासियों": 4211,
      "स्रू": 4212,
      "शेमेश": 4213,
      "खोदा": 4214,
      "शूशन": 4215,
      "समझकर": 4216,
      "पेले": 4217,
      "पहाडिय़ों": 4218,
      "बान्धो": 4219,
      "बान्धने": 4220,
      "बताने": 4221,
      "बन्धी": 4222,
      "एलीआब": 4223,
      "ढाढ़स": 4224,
      "कहलाएगा": 4225,
      "सच्ची": 4226,
      "परिज्": 4227,
      "परिवार": 4228,
      "पहिये": 4229,
      "ज़े": 4230,
      "अनार": 4231,
      "बछड़ों": 4232,
      "उतरकर": 4233,
      "उपदेशों": 4234,
      "मुकद्द": 4235,
      "प्राचीनों": 4236,
      "त्यागकर": 4237,
      "निकम्मी": 4238,
      "उज्जिय्याह": 4239,
      "कठोरता": 4240,
      "भक्तिहीन": 4241,
      "पराक्रमी": 4242,
      "छिड़क": 4243,
      "बीमारों": 4244,
      "कदाचित": 4245,
      "हारान": 4246,
      "अशदो": 4247,
      "फंसे": 4248,
      "तोपेल": 4249,
      "पहिरावा": 4250,
      "मोआबी": 4251,
      "कीर्ति": 4252,
      "कोमलता": 4253,
      "आमोस": 4254,
      "अथवा": 4255,
      "हजाएल": 4256,
      "तेजोमय": 4257,
      "--": 4258,
      "अला": 4259,
      "अटा": 4260,
      "आमोन": 4261,
      "इत्र": 4262,
      "इफि": 4263,
      "ईज़े": 4264,
      "ऐसों": 4265,
      "ओब": 4266,
      "कडिय़ां": 4267,
      "जच्चा": 4268,
      "डू": 4269,
      "ढकने": 4270,
      "थक": 4271,
      "नंगी": 4272,
      "बला": 4273,
      "मछिल": 4274,
      "सप": 4275,
      "सेंत": 4276,
      "किसा": 4277,
      "किन्तु": 4278,
      "परे": 4279,
      "कीन": 4280,
      "तारों": 4281,
      "नासरी": 4282,
      "नाहोर": 4283,
      "ड़ने": 4284,
      "सास": 4285,
      "साह": 4286,
      "लेन": 4287,
      "लाठ": 4288,
      "पावन": 4289,
      "थान": 4290,
      "त्रो": 4291,
      "दांव": 4292,
      "विरू": 4293,
      "क्तियों": 4294,
      "नीनवे": 4295,
      "ंगों": 4296,
      "मुर": 4297,
      "मुट्ठी": 4298,
      "तूब": 4299,
      "सीख": 4300,
      "फिरो": 4301,
      "हिना": 4302,
      "हित्तियों": 4303,
      "नामी": 4304,
      "रोन": 4305,
      "लगाएं": 4306,
      "जीरों": 4307,
      "रखती": 4308,
      "वीण": 4309,
      "निकलेगा": 4310,
      "बनाते": 4311,
      "उत्पात": 4312,
      "ढ़ापे": 4313,
      "मोह": 4314,
      "मोड़": 4315,
      "सारंगी": 4316,
      "धाम": 4317,
      "छोडूंगा": 4318,
      "अन्ति": 4319,
      "इनका": 4320,
      "खेदित": 4321,
      "चौरस": 4322,
      "गोग": 4323,
      "समझदार": 4324,
      "बादलों": 4325,
      "धुन": 4326,
      "छिया": 4327,
      "गुण": 4328,
      "बढ़ाए": 4329,
      "संपत्ति": 4330,
      "बताए": 4331,
      "मारेगा": 4332,
      "प्रतिमा": 4333,
      "रखेंगे": 4334,
      "वृत्ता": 4335,
      "पांचवां": 4336,
      "खीं": 4337,
      "फूले": 4338,
      "विपत्तियां": 4339,
      "अनातो": 4340,
      "बनवाया": 4341,
      "खम्भा": 4342,
      "मानेंगे": 4343,
      "लिखता": 4344,
      "कसदी": 4345,
      "गड़हा": 4346,
      "व्यभिचारिणी": 4347,
      "दौड़ा": 4348,
      "अहीकाम": 4349,
      "सुन्दरता": 4350,
      "विरोधियों": 4351,
      "सुनेगा": 4352,
      "प्यासा": 4353,
      "द्रोही": 4354,
      "अन्धेरे": 4355,
      "दौड़कर": 4356,
      "विराजने": 4357,
      "तख्तों": 4358,
      "आश्चर्यकर्मों": 4359,
      "सिपाही": 4360,
      "पिछली": 4361,
      "गिड़गिड़ाहट": 4362,
      "चौदहवें": 4363,
      "बिलकुल": 4364,
      "खण्डहर": 4365,
      "धमिर्यों": 4366,
      "खोदकर": 4367,
      "पगड़ी": 4368,
      "रईसों": 4369,
      "िस्तान": 4370,
      "यूनानी": 4371,
      "ठहरोगे": 4372,
      "चितौनी": 4373,
      "उभारा": 4374,
      "मकिदुनिया": 4375,
      "नतन्याह": 4376,
      "जब्दी": 4377,
      "आन्धी": 4378,
      "हुल्लड़": 4379,
      "चतुराई": 4380,
      "ईज़ेबेल": 4381,
      "ओबद्याह": 4382,
      "विरूद्ध": 4383,
      "वृत्तान्त": 4384,
      "ंतालीस": 4385,
      "अल्": 4386,
      "अस्त": 4387,
      "अज्जा": 4388,
      "आसिया": 4389,
      "आदमी": 4390,
      "कप": 4391,
      "कौर": 4392,
      "गम्": 4393,
      "जल्": 4394,
      "डों": 4395,
      "तट": 4396,
      "तत्": 4397,
      "तमान": 4398,
      "पके": 4399,
      "भटका": 4400,
      "मूं": 4401,
      "शिर": 4402,
      "सरे": 4403,
      "हत": 4404,
      "हनोक": 4405,
      "ूप": 4406,
      "होशे": 4407,
      "परपोता": 4408,
      "मेंत": 4409,
      "हाने": 4410,
      "जार": 4411,
      "गाते": 4412,
      "देदोम": 4413,
      "मांगे": 4414,
      "दिष्ट": 4415,
      "क्तों": 4416,
      "लोहा": 4417,
      "तिन": 4418,
      "सीबा": 4419,
      "सुक्को": 4420,
      "मनों": 4421,
      "कुस्रू": 4422,
      "क्याह": 4423,
      "शाला": 4424,
      "बुझा": 4425,
      "रोती": 4426,
      "पिलाने": 4427,
      "जीते": 4428,
      "वर्तमान": 4429,
      "उठो": 4430,
      "ऊंटों": 4431,
      "बनाओ": 4432,
      "बनाएं": 4433,
      "उत्पत्ति": 4434,
      "बहुमूल्य": 4435,
      "क्षण": 4436,
      "सन्ता": 4437,
      "हूम": 4438,
      "अन्ता": 4439,
      "चलती": 4440,
      "जलते": 4441,
      "स्रोन": 4442,
      "खें": 4443,
      "चुपड़ी": 4444,
      "जनहार": 4445,
      "भरमा": 4446,
      "ब्याज": 4447,
      "पहुंचाई": 4448,
      "बान्धूंगा": 4449,
      "लगवाना": 4450,
      "महाराजा": 4451,
      "संय": 4452,
      "भयं": 4453,
      "गोत्रियों": 4454,
      "लौटने": 4455,
      "बरतन": 4456,
      "स्वादिष्ट": 4457,
      "तम्बु": 4458,
      "चिन्हों": 4459,
      "अभिमानी": 4460,
      "सहभागी": 4461,
      "ठहरते": 4462,
      "गदहा": 4463,
      "झुक": 4464,
      "गढ़ों": 4465,
      "व्यभिचारी": 4466,
      "चूमा": 4467,
      "पूछते": 4468,
      "नमक": 4469,
      "उपदेशक": 4470,
      "चढ़ाएं": 4471,
      "अंत": 4472,
      "अजगर": 4473,
      "अहीतोपेल": 4474,
      "चांद": 4475,
      "बलवान": 4476,
      "लोथों": 4477,
      "बसेरा": 4478,
      "क्रूर": 4479,
      "अनन्तकाल": 4480,
      "घटना": 4481,
      "सरायाह": 4482,
      "एलीआज़": 4483,
      "सौंपे": 4484,
      "एल्काना": 4485,
      "बेतशेमेश": 4486,
      "अन्धियारा": 4487,
      "त्योंही": 4488,
      "सैदा": 4489,
      "झिल": 4490,
      "कबूतरी": 4491,
      "खिड़की": 4492,
      "हठीले": 4493,
      "अप्रसन्न": 4494,
      "खूंटी": 4495,
      "बेंड़े": 4496,
      "कराहते": 4497,
      "दुल्हिन": 4498,
      "याबेश": 4499,
      "अद": 4500,
      "आसन": 4501,
      "कफ": 4502,
      "घरे": 4503,
      "चं": 4504,
      "झगड़": 4505,
      "नंगे": 4506,
      "नमू": 4507,
      "पढ़ा": 4508,
      "पटक": 4509,
      "पटु": 4510,
      "पक्के": 4511,
      "बव": 4512,
      "म्र": 4513,
      "मढ़ा": 4514,
      "मन्ना": 4515,
      "हवन": 4516,
      "हत्तर": 4517,
      "ोहर": 4518,
      "ोमणि": 4519,
      "वाए": 4520,
      "कीड़े": 4521,
      "ताने": 4522,
      "नामान": 4523,
      "ड़बु": 4524,
      "जोखि": 4525,
      "लाद": 4526,
      "स्वे": 4527,
      "प्रफु": 4528,
      "बाव": 4529,
      "बालें": 4530,
      "दाता": 4531,
      "तिम्ना": 4532,
      "तीरों": 4533,
      "खाल": 4534,
      "सीं": 4535,
      "सुधार": 4536,
      "लिब्ना": 4537,
      "लीन": 4538,
      "मनोहर": 4539,
      "कुस": 4540,
      "कुल्हा": 4541,
      "कुन्दन": 4542,
      "पीता": 4543,
      "पीटने": 4544,
      "भेड़ें": 4545,
      "बुढ़ापे": 4546,
      "बुड़बु": 4547,
      "गीद": 4548,
      "गरज": 4549,
      "मीकल": 4550,
      "बिगा": 4551,
      "अनुचित": 4552,
      "क्षत्र": 4553,
      "मरते": 4554,
      "हरिण": 4555,
      "ल्लित": 4556,
      "पत्ते": 4557,
      "अधिपतियों": 4558,
      "भूत": 4559,
      "ठहराकर": 4560,
      "भागने": 4561,
      "भागों": 4562,
      "चुंगी": 4563,
      "शेन": 4564,
      "टेक": 4565,
      "दानियों": 4566,
      "लौटे": 4567,
      "खोदे": 4568,
      "ब्बाल": 4569,
      "विश्वासियों": 4570,
      "समझो": 4571,
      "युक्तियों": 4572,
      "निकालने": 4573,
      "गुर्": 4574,
      "बढ़ाएगा": 4575,
      "पर्दा": 4576,
      "चढ़ने": 4577,
      "भयभीत": 4578,
      "लुढ़": 4579,
      "सामने": 4580,
      "जलाते": 4581,
      "गिरने": 4582,
      "पकड़वाया": 4583,
      "छूआ": 4584,
      "बुलाने": 4585,
      "स्वभाव": 4586,
      "श्रे": 4587,
      "गिराए": 4588,
      "बन्धुए": 4589,
      "चमका": 4590,
      "बचने": 4591,
      "मानोह": 4592,
      "कलंक": 4593,
      "खोजों": 4594,
      "सोचता": 4595,
      "बर्तन": 4596,
      "बहाने": 4597,
      "बहाया": 4598,
      "प्यास": 4599,
      "अमर्याह": 4600,
      "गिरेगा": 4601,
      "ंघन": 4602,
      "फिरेंगे": 4603,
      "स्वरूप": 4604,
      "हौदी": 4605,
      "यिज्रैल": 4606,
      "अनाथों": 4607,
      "कुटुम्बी": 4608,
      "अभिलाषाओं": 4609,
      "ओढ़ना": 4610,
      "असाहेल": 4611,
      "छठवें": 4612,
      "मनभावनी": 4613,
      "पूंछ": 4614,
      "तिर्सा": 4615,
      "शतपतियों": 4616,
      "सामरिया": 4617,
      "ओहोली": 4618,
      "हिल्किय्याह": 4619,
      "अलावा": 4620,
      "अन्तिम": 4621,
      "शिरोमणि": 4622,
      "सुक्कोत": 4623,
      "अन्ताकिया": 4624,
      "भयंकर": 4625,
      "तम्बुओं": 4626,
      "एलीआज़र": 4627,
      "स्वेच्छा": 4628,
      "प्रफुल्लित": 4629,
      "बुड़बुड़ा": 4630,
      "ंठ": 4631,
      "एदो": 4632,
      "एग्": 4633,
      "ओढ़े": 4634,
      "कड़ी": 4635,
      "घि": 4636,
      "चतुर": 4637,
      "चक्की": 4638,
      "जरू": 4639,
      "डफ": 4640,
      "डौ": 4641,
      "दहिना": 4642,
      "पश": 4643,
      "बिर": 4644,
      "बत्तीस": 4645,
      "भक्तों": 4646,
      "रब": 4647,
      "शस्सर": 4648,
      "सचेत": 4649,
      "हंस": 4650,
      "नें": 4651,
      "कराए": 4652,
      "किर": 4653,
      "वाऊंगा": 4654,
      "परो": 4655,
      "परदे": 4656,
      "कीच": 4657,
      "हारी": 4658,
      "हासोर": 4659,
      "देगी": 4660,
      "जोत": 4661,
      "हेर्": 4662,
      "मैल": 4663,
      "लाएं": 4664,
      "स्ता": 4665,
      "पाट": 4666,
      "प्रकोप": 4667,
      "बाब": 4668,
      "बाढ़": 4669,
      "दामा": 4670,
      "चारा": 4671,
      "मुर्ग": 4672,
      "पुरानी": 4673,
      "निश्चि": 4674,
      "एकलौ": 4675,
      "सीदो": 4676,
      "सुखी": 4677,
      "कारियों": 4678,
      "मनभाव": 4679,
      "हिला": 4680,
      "हिलाई": 4681,
      "गेर्": 4682,
      "शांति": 4683,
      "सोतों": 4684,
      "रोम": 4685,
      "रखवाले": 4686,
      "मीरास": 4687,
      "वीकार": 4688,
      "बनावट": 4689,
      "मरता": 4690,
      "सारै": 4691,
      "ल्ली": 4692,
      "जलती": 4693,
      "स्रा": 4694,
      "भरपूर": 4695,
      "पुरवाई": 4696,
      "फां": 4697,
      "खोले": 4698,
      "खोजे": 4699,
      "बान्धना": 4700,
      "कर्त्ता": 4701,
      "धुआं": 4702,
      "वादविवाद": 4703,
      "छिपे": 4704,
      "ग्री": 4705,
      "गुर": 4706,
      "धीन": 4707,
      "अन्धों": 4708,
      "समाज": 4709,
      "डरना": 4710,
      "बताऊंगा": 4711,
      "बताएगा": 4712,
      "त्यारीम": 4713,
      "ियास": 4714,
      "छुड़ाकर": 4715,
      "निवासस्थान": 4716,
      "तैम": 4717,
      "कहलाए": 4718,
      "बढ़ाई": 4719,
      "द्वारपा": 4720,
      "पूर्वकाल": 4721,
      "खुले": 4722,
      "बारहवें": 4723,
      "ढूंढ़े": 4724,
      "लम्बा": 4725,
      "पलंग": 4726,
      "बहते": 4727,
      "स्वपन": 4728,
      "पुकारकर": 4729,
      "टुकड़ों": 4730,
      "अश्शू": 4731,
      "एप्रैमियों": 4732,
      "घुट": 4733,
      "बचपन": 4734,
      "लिखने": 4735,
      "गिलादी": 4736,
      "नबूजर": 4737,
      "पड़ोसियों": 4738,
      "मांगने": 4739,
      "उठाएगा": 4740,
      "अय्या": 4741,
      "बेचने": 4742,
      "अमासा": 4743,
      "चिताया": 4744,
      "मन्नतें": 4745,
      "आश्चर्यकर्म": 4746,
      "थरथराते": 4747,
      "मुर्दों": 4748,
      "छिड़के": 4749,
      "यिज्रेल": 4750,
      "कैसरिया": 4751,
      "अम्मीनादाब": 4752,
      "मछली": 4753,
      "चौथाई": 4754,
      "पहरुए": 4755,
      "रस्सियों": 4756,
      "ढीले": 4757,
      "ओबेदेदोम": 4758,
      "गेर्शोनियों": 4759,
      "अतल्याह": 4760,
      "थैली": 4761,
      "सप्ताह": 4762,
      "नबूजरदान": 4763,
      "अड़": 4764,
      "अबे": 4765,
      "अंगा": 4766,
      "अज्ञान": 4767,
      "आटा": 4768,
      "एश": 4769,
      "ओलों": 4770,
      "ओसारा": 4771,
      "कले": 4772,
      "खड़": 4773,
      "खरी": 4774,
      "खच्": 4775,
      "खतने": 4776,
      "गों": 4777,
      "गता": 4778,
      "गढ़े": 4779,
      "गैल": 4780,
      "घने": 4781,
      "टटो": 4782,
      "डगम": 4783,
      "ढि": 4784,
      "तज": 4785,
      "दशी": 4786,
      "ध्व": 4787,
      "नथ": 4788,
      "बसी": 4789,
      "बची": 4790,
      "मंग": 4791,
      "यपु": 4792,
      "रचा": 4793,
      "लवने": 4794,
      "वहाँ": 4795,
      "शर": 4796,
      "शबा": 4797,
      "षी": 4798,
      "सन्तु": 4799,
      "हश": 4800,
      "हथे": 4801,
      "मेह": 4802,
      "कोमल": 4803,
      "होरेब": 4804,
      "नाना": 4805,
      "नाला": 4806,
      "रान": 4807,
      "रेद": 4808,
      "पाये": 4809,
      "प्रयत्न": 4810,
      "बाना": 4811,
      "बानी": 4812,
      "बागे": 4813,
      "बांझ": 4814,
      "दारू": 4815,
      "नीति": 4816,
      "पुरो": 4817,
      "त्थान": 4818,
      "जिल्": 4819,
      "तीएल": 4820,
      "खाओगे": 4821,
      "सीमा": 4822,
      "मिलें": 4823,
      "कुड़ा": 4824,
      "शाके": 4825,
      "देखना": 4826,
      "रोके": 4827,
      "अनो": 4828,
      "मीठी": 4829,
      "सिख": 4830,
      "सिखाया": 4831,
      "ज्ञानी": 4832,
      "गिरी": 4833,
      "मरना": 4834,
      "भाग्य": 4835,
      "शेलह": 4836,
      "टेढ़ी": 4837,
      "लगेंगे": 4838,
      "खोली": 4839,
      "सूझ": 4840,
      "पेरेस": 4841,
      "ंटों": 4842,
      "निर्वंश": 4843,
      "तलवारें": 4844,
      "बढ़ने": 4845,
      "धीरे": 4846,
      "समाप्त": 4847,
      "बरस": 4848,
      "छुड़ाता": 4849,
      "छुड़ाऊंगा": 4850,
      "आनेवाला": 4851,
      "रिम्मोन": 4852,
      "मेलबलियों": 4853,
      "जयवन्त": 4854,
      "अधिकारियों": 4855,
      "खुर": 4856,
      "खुला": 4857,
      "धूपकाल": 4858,
      "अबीगैल": 4859,
      "झुल": 4860,
      "दाहिना": 4861,
      "बहने": 4862,
      "उतरते": 4863,
      "घोड़ा": 4864,
      "जूए": 4865,
      "भवनों": 4866,
      "विलास": 4867,
      "पैठ": 4868,
      "ढूंढ़ता": 4869,
      "बनीं": 4870,
      "बंधुए": 4871,
      "सुगन्धद्रव्य": 4872,
      "महली": 4873,
      "मरारियों": 4874,
      "नेवता": 4875,
      "अम्राम": 4876,
      "फिराव": 4877,
      "मूलपुरुष": 4878,
      "भण्डारी": 4879,
      "ढालकर": 4880,
      "दरिद्रों": 4881,
      "कांपते": 4882,
      "फाड़कर": 4883,
      "मुर्दे": 4884,
      "तौलकर": 4885,
      "हौद": 4886,
      "झोंप": 4887,
      "पकड़वाने": 4888,
      "बन्धाई": 4889,
      "अमालेकी": 4890,
      "फोड़": 4891,
      "दुर्बल": 4892,
      "एल्याशी": 4893,
      "एकाएक": 4894,
      "कन्धों": 4895,
      "हिलकिय्याह": 4896,
      "ढांपे": 4897,
      "रब्बी": 4898,
      "हाजिर": 4899,
      "उदारता": 4900,
      "रनहूम": 4901,
      "क़ब्र": 4902,
      "डि्ड": 4903,
      "प्रश्न": 4904,
      "अशदोद": 4905,
      "अटारी": 4906,
      "इफिसुस": 4907,
      "किसानों": 4908,
      "अनातोत": 4909,
      "कफरनहूम": 4910,
      "रबशाके": 4911,
      "यपुन्ने": 4912,
      "सन्तुष्ट": 4913,
      "पुरोहित": 4914,
      "अरोए": 4915,
      "अट्ठा": 4916,
      "अढ़ाई": 4917,
      "आईं": 4918,
      "आराम": 4919,
      "उगे": 4920,
      "उतारा": 4921,
      "एबे": 4922,
      "ऐश्वर": 4923,
      "ओम्री": 4924,
      "कौ": 4925,
      "कडिय़ों": 4926,
      "कटीले": 4927,
      "खटके": 4928,
      "गर्म": 4929,
      "घसी": 4930,
      "घड़ा": 4931,
      "चपन": 4932,
      "जियों": 4933,
      "टपक": 4934,
      "ठि": 4935,
      "ठण्डा": 4936,
      "ढे": 4937,
      "तक्षत्र": 4938,
      "दबी": 4939,
      "नतीन": 4940,
      "नैम": 4941,
      "पज": 4942,
      "पिय": 4943,
      "पद्": 4944,
      "मक्": 4945,
      "मलि": 4946,
      "मपी": 4947,
      "मत्ति": 4948,
      "रता": 4949,
      "रपाई": 4950,
      "शद्र": 4951,
      "सल": 4952,
      "सले": 4953,
      "सन्ध": 4954,
      "ुत्थान": 4955,
      "करवाया": 4956,
      "काली": 4957,
      "काठी": 4958,
      "कोख": 4959,
      "कोल": 4960,
      "किये": 4961,
      "परली": 4962,
      "जाये": 4963,
      "्योन": 4964,
      "दिला": 4965,
      "जोड़े": 4966,
      "हेमान": 4967,
      "हेस्रोन": 4968,
      "लाजर": 4969,
      "स्वाद": 4970,
      "पाओ": 4971,
      "प्रसिद्ध": 4972,
      "प्रथम": 4973,
      "प्रवीण": 4974,
      "प्रमेह": 4975,
      "दासियां": 4976,
      "तोन": 4977,
      "तोड़ा": 4978,
      "मुस": 4979,
      "पुनर": 4980,
      "निपटा": 4981,
      "त्याह": 4982,
      "कहावत": 4983,
      "मिस्त्र": 4984,
      "सुधा": 4985,
      "कहके": 4986,
      "दीनार": 4987,
      "हिव्": 4988,
      "उन्हे": 4989,
      "रूत": 4990,
      "गेजेर": 4991,
      "नामों": 4992,
      "रोता": 4993,
      "अनजाने": 4994,
      "गरजने": 4995,
      "मीठा": 4996,
      "बिल्": 4997,
      "अर्तक्षत्र": 4998,
      "सिखाए": 4999,
      "सुनूंगा": 5000,
      "यहूद": 5001,
      "गिल": 5002,
      "ण्डर": 5003,
      "मोहित": 5004,
      "ठहराना": 5005,
      "न्यारे": 5006,
      "भागकर": 5007,
      "शेले": 5008,
      "जनने": 5009,
      "टेढ़े": 5010,
      "चढ़ावे": 5011,
      "छोड़ो": 5012,
      "छोड़ना": 5013,
      "चलाए": 5014,
      "चलाऊंगा": 5015,
      "चौड़े": 5016,
      "भाईबन्धु": 5017,
      "गोशेन": 5018,
      "धर्ममय": 5019,
      "सूत": 5020,
      "सूखे": 5021,
      "मुखिया": 5022,
      "लड़ता": 5023,
      "दुखों": 5024,
      "सातवां": 5025,
      "बान्धता": 5026,
      "कर्म्": 5027,
      "धुं": 5028,
      "महासागर": 5029,
      "छिपी": 5030,
      "गुना": 5031,
      "पराई": 5032,
      "शिमा": 5033,
      "यिस": 5034,
      "लुट": 5035,
      "एलीपज": 5036,
      "जलाना": 5037,
      "भेजकर": 5038,
      "बोलना": 5039,
      "धोने": 5040,
      "दनगो": 5041,
      "सहकर्मी": 5042,
      "सनौ": 5043,
      "पहियों": 5044,
      "तोड़कर": 5045,
      "छूछे": 5046,
      "गवाहों": 5047,
      "गन्धक": 5048,
      "झुंड": 5049,
      "बुराइयों": 5050,
      "पुकारते": 5051,
      "निकलेंगे": 5052,
      "हृष्ट": 5053,
      "बनाएंगे": 5054,
      "खोलने": 5055,
      "चूम": 5056,
      "लिखकर": 5057,
      "बहिनों": 5058,
      "जीवता": 5059,
      "लूटने": 5060,
      "शक्तिमान": 5061,
      "अहीमेलेक": 5062,
      "अहीमास": 5063,
      "अहीतूब": 5064,
      "घबराहट": 5065,
      "सुनेंगे": 5066,
      "कब्रिस्तान": 5067,
      "चुपके": 5068,
      "ग्ग": 5069,
      "आशय": 5070,
      "एलीशामा": 5071,
      "दुष्टात्माएं": 5072,
      "कृपादृष्टि": 5073,
      "अकेले": 5074,
      "सृजनहार": 5075,
      "मनाया": 5076,
      "घूमते": 5077,
      "मिद्यानी": 5078,
      "ब्याही": 5079,
      "नुवाद": 5080,
      "उजले": 5081,
      "स्वतंत्रता": 5082,
      "उघाड़ना": 5083,
      "कुटुम्बियों": 5084,
      "यबूसियों": 5085,
      "टिड्डी": 5086,
      "निराश": 5087,
      "तर्शीश": 5088,
      "तारागण": 5089,
      "मेशक": 5090,
      "गुणानुवाद": 5091,
      "किर्यत्यारीम": 5092,
      "कन्धे": 5093,
      "कारीगरों": 5094,
      "झाड़ियों": 5095,
      "रब्बा": 5096,
      "प्रभावशाली": 5097,
      "आवश्यक": 5098,
      "तिरस्कार": 5099,
      "पहरूए": 5100,
      "कुड़कुड़ा": 5101,
      "द्वीपों": 5102,
      "पीड़ित": 5103,
      "मन्त्री": 5104,
      "झोले": 5105,
      "पिघल": 5106,
      "टहलुए": 5107,
      "दागोन": 5108,
      "डरवैयों": 5109,
      "घरेलू": 5110,
      "बवण्डर": 5111,
      "एदोमी": 5112,
      "हेर्मोन": 5113,
      "निश्चिन्त": 5114,
      "अबेदनगो": 5115,
      "दशीं": 5116,
      "एल्याशीब": 5117,
      "पियक्": 5118,
      "मपीबोशेत": 5119,
      "शद्रक": 5120,
      "पुनरुत्थान": 5121,
      "ंडा": 5122,
      "अक्": 5123,
      "अथाह": 5124,
      "इम्": 5125,
      "इली": 5126,
      "इद्दो": 5127,
      "उगा": 5128,
      "उला": 5129,
      "उदासी": 5130,
      "उल्ल": 5131,
      "ऊरी": 5132,
      "एबेर": 5133,
      "ओर्": 5134,
      "कथा": 5135,
      "कपन": 5136,
      "डरे": 5137,
      "ढल": 5138,
      "ढली": 5139,
      "दिये": 5140,
      "धड़": 5141,
      "नबो": 5142,
      "नतने": 5143,
      "नदियां": 5144,
      "भाए": 5145,
      "मसा": 5146,
      "रम": 5147,
      "रपा": 5148,
      "रक्ष": 5149,
      "लगो": 5150,
      "लहरों": 5151,
      "सही": 5152,
      "सदू": 5153,
      "हर्": 5154,
      "हजी": 5155,
      "हडि्ड": 5156,
      "ैमी": 5157,
      "ौना": 5158,
      "याईर": 5159,
      "काटे": 5160,
      "कांटों": 5161,
      "नारी": 5162,
      "रेश": 5163,
      "साग": 5164,
      "लेती": 5165,
      "लेंगी": 5166,
      "अपके": 5167,
      "मांगी": 5168,
      "र्या": 5169,
      "लाखों": 5170,
      "बाजे": 5171,
      "इसों": 5172,
      "दाक": 5173,
      "विपत्": 5174,
      "चान्द": 5175,
      "मुद्द": 5176,
      "लोप": 5177,
      "लोभ": 5178,
      "पुआल": 5179,
      "त्तों": 5180,
      "जिम्री": 5181,
      "सबेरे": 5182,
      "खाली": 5183,
      "खाऊं": 5184,
      "खालों": 5185,
      "कुप्पी": 5186,
      "दीर्": 5187,
      "हिलाए": 5188,
      "हिलाने": 5189,
      "गेरा": 5190,
      "गेबा": 5191,
      "दूना": 5192,
      "देखूं": 5193,
      "सोचे": 5194,
      "भेंटे": 5195,
      "डाकू": 5196,
      "ज्वाला": 5197,
      "बेला": 5198,
      "नामक": 5199,
      "पूछो": 5200,
      "रोएं": 5201,
      "कामकाज": 5202,
      "पिस": 5203,
      "उठें": 5204,
      "बिछा": 5205,
      "बिलक": 5206,
      "निकलें": 5207,
      "धिराज": 5208,
      "धाई": 5209,
      "पत्नियों": 5210,
      "बलिदानों": 5211,
      "अन्द्र": 5212,
      "बोरे": 5213,
      "मारकर": 5214,
      "मारूंगा": 5215,
      "टापू": 5216,
      "जैतून": 5217,
      "यरूब्बाल": 5218,
      "जलप्रलय": 5219,
      "संगियों": 5220,
      "न्दु": 5221,
      "टेढ़ा": 5222,
      "भरता": 5223,
      "चढ़ाओ": 5224,
      "बूटे": 5225,
      "उठाऊंगा": 5226,
      "घातक": 5227,
      "घाटी": 5228,
      "चौकों": 5229,
      "सुनाए": 5230,
      "सूल": 5231,
      "लूटा": 5232,
      "सम्बन्ध": 5233,
      "प्राणदण्ड": 5234,
      "देवदारू": 5235,
      "सकेगी": 5236,
      "बताओ": 5237,
      "मतवाले": 5238,
      "भविष्यद्ववाणी": 5239,
      "कारीगरी": 5240,
      "होमबलियों": 5241,
      "ट्ठे": 5242,
      "बढ़ाता": 5243,
      "गिरते": 5244,
      "ठाई": 5245,
      "ठान": 5246,
      "खुदे": 5247,
      "पहरा": 5248,
      "बुलाता": 5249,
      "सिवाय": 5250,
      "चोखा": 5251,
      "गन्धरस": 5252,
      "एप्रैमी": 5253,
      "बनें": 5254,
      "बनवाकर": 5255,
      "सभाओं": 5256,
      "पहुंचने": 5257,
      "झांझ": 5258,
      "पैंतालीस": 5259,
      "जीवतों": 5260,
      "समझाया": 5261,
      "समझाता": 5262,
      "चट्टानों": 5263,
      "अंगो": 5264,
      "फूंका": 5265,
      "फूंकी": 5266,
      "सोचने": 5267,
      "सोचते": 5268,
      "खतनाहीन": 5269,
      "खतनारहित": 5270,
      "महनैम": 5271,
      "निकलीं": 5272,
      "चुनकर": 5273,
      "डालीं": 5274,
      "युक्तियां": 5275,
      "प्यादों": 5276,
      "मांगते": 5277,
      "अब्बा": 5278,
      "बांसु": 5279,
      "दृष्टान्तों": 5280,
      "सौंपी": 5281,
      "मुर्झा": 5282,
      "गिड़गिड़ाकर": 5283,
      "छुटकारे": 5284,
      "छोड़ेगा": 5285,
      "दीपकों": 5286,
      "टिड्डियां": 5287,
      "ग्यारहवें": 5288,
      "ढिय़ां": 5289,
      "दुर्दशा": 5290,
      "अंगूर": 5291,
      "पहरुओं": 5292,
      "राजकुमारों": 5293,
      "गवैये": 5294,
      "आवश्यकता": 5295,
      "भणडार": 5296,
      "हाजिरा": 5297,
      "बस्तियों": 5298,
      "टूटेगी": 5299,
      "धधक": 5300,
      "पल्ले": 5301,
      "बयालीस": 5302,
      "बाराक": 5303,
      "मत्तन्याह": 5304,
      "घेरा": 5305,
      "सेंतमेंत": 5306,
      "गम्भी": 5307,
      "जल्दी": 5308,
      "सन्तानों": 5309,
      "लुढ़का": 5310,
      "एग्लोन": 5311,
      "डौल": 5312,
      "पशहूर": 5313,
      "दामाद": 5314,
      "मनभावने": 5315,
      "गेर्शो": 5316,
      "घुटनों": 5317,
      "अज्ञानता": 5318,
      "शरणा": 5319,
      "अरोएर": 5320,
      "ऐश्वर्य": 5321,
      "घसीट": 5322,
      "दबीर": 5323,
      "मक्ख": 5324,
      "शेलेम्याह": 5325,
      "पियक्कड़": 5326,
      "उल्लंघन": 5327,
      "नतनेल": 5328,
      "अधर्मी": 5329,
      "अविनाश": 5330,
      "आहट": 5331,
      "ईश": 5332,
      "उग": 5333,
      "उछल": 5334,
      "उकसा": 5335,
      "ऋतु": 5336,
      "ओन": 5337,
      "कड़ों": 5338,
      "कलोन": 5339,
      "चकना": 5340,
      "तशी": 5341,
      "थके": 5342,
      "नही": 5343,
      "नतो": 5344,
      "पन्": 5345,
      "फटने": 5346,
      "मच": 5347,
      "यदू": 5348,
      "यदायाह": 5349,
      "षि": 5350,
      "िक": 5351,
      "सेल": 5352,
      "करण": 5353,
      "काढ़े": 5354,
      "कांटे": 5355,
      "होद": 5356,
      "जाड़े": 5357,
      "तेमान": 5358,
      "रेकाब": 5359,
      "रेक्याह": 5360,
      "साप": 5361,
      "सांक": 5362,
      "सादाक": 5363,
      "गाकर": 5364,
      "गादी": 5365,
      "गायें": 5366,
      "गांठ": 5367,
      "दिलाते": 5368,
      "हेरीब": 5369,
      "लास": 5370,
      "पाहु": 5371,
      "पाऊंगा": 5372,
      "पागल": 5373,
      "पावों": 5374,
      "बागा": 5375,
      "बांग": 5376,
      "त्रि": 5377,
      "लियो": 5378,
      "विद्या": 5379,
      "विवाह": 5380,
      "तोब": 5381,
      "नीके": 5382,
      "द्दा": 5383,
      "सीलास": 5384,
      "मिथ्": 5385,
      "लिप": 5386,
      "लिथे": 5387,
      "लीक": 5388,
      "कुढ़": 5389,
      "भाता": 5390,
      "फिरना": 5391,
      "हिन्न": 5392,
      "उन्हों": 5393,
      "गेहजी": 5394,
      "जिससे": 5395,
      "सोबा": 5396,
      "सोसन": 5397,
      "पीर": 5398,
      "पीढिय़ों": 5399,
      "भें": 5400,
      "डांटा": 5401,
      "बेथो": 5402,
      "बेखटके": 5403,
      "हाथी": 5404,
      "पूवीं": 5405,
      "रोओ": 5406,
      "रोका": 5407,
      "अनजान": 5408,
      "लगाएगा": 5409,
      "रखूं": 5410,
      "बहुते": 5411,
      "सन्हेरीब": 5412,
      "योया": 5413,
      "ल्लो": 5414,
      "द्वारों": 5415,
      "याजेर": 5416,
      "हूशै": 5417,
      "भूखों": 5418,
      "बीचों": 5419,
      "ठहराते": 5420,
      "जलने": 5421,
      "जलता": 5422,
      "खेद": 5423,
      "प्पा": 5424,
      "भरकर": 5425,
      "पड़ें": 5426,
      "बूढ़ों": 5427,
      "उठाते": 5428,
      "सकूं": 5429,
      "घाट": 5430,
      "घाम": 5431,
      "घायु": 5432,
      "ब्बे": 5433,
      "जानें": 5434,
      "लड़ते": 5435,
      "लड़कपन": 5436,
      "पेटी": 5437,
      "पहुंचाएगा": 5438,
      "लगने": 5439,
      "मिलाकर": 5440,
      "सरक": 5441,
      "सरत": 5442,
      "बचाव": 5443,
      "बन्धनों": 5444,
      "मतवाला": 5445,
      "त्यागी": 5446,
      "छुड़ाना": 5447,
      "रखेलियों": 5448,
      "कहेगी": 5449,
      "कहलाती": 5450,
      "मधुर": 5451,
      "सहज": 5452,
      "सहता": 5453,
      "पकड़ना": 5454,
      "फैले": 5455,
      "हलचल": 5456,
      "डिय़ा": 5457,
      "अबीनादाब": 5458,
      "जन्मे": 5459,
      "झुककर": 5460,
      "पुकारने": 5461,
      "पुकारता": 5462,
      "गर्जन": 5463,
      "घुसे": 5464,
      "घुमा": 5465,
      "करूणामय": 5466,
      "जूती": 5467,
      "उजाड़ने": 5468,
      "नरकट": 5469,
      "टूटा": 5470,
      "बसाए": 5471,
      "द्दै": 5472,
      "पैर": 5473,
      "फूंकने": 5474,
      "महसूल": 5475,
      "पर्वों": 5476,
      "पक्षपात": 5477,
      "प्यासे": 5478,
      "सताया": 5479,
      "अहं": 5480,
      "फिराया": 5481,
      "दौड़ते": 5482,
      "मीकाएल": 5483,
      "घिनौना": 5484,
      "उज्जा": 5485,
      "उड़ने": 5486,
      "उड़ाए": 5487,
      "पहिलौठा": 5488,
      "वंशी": 5489,
      "हंसु": 5490,
      "फैलाऊंगा": 5491,
      "अनर्थकारियों": 5492,
      "गूढ़": 5493,
      "नौवें": 5494,
      "यात्री": 5495,
      "उघाड़े": 5496,
      "पकाने": 5497,
      "फेस्तुस": 5498,
      "रौंद": 5499,
      "धमकी": 5500,
      "फोड़े": 5501,
      "पूछें": 5502,
      "एकान्त": 5503,
      "पदार्थों": 5504,
      "गवैयों": 5505,
      "सकोगे": 5506,
      "कारेह": 5507,
      "परखने": 5508,
      "ओबेद": 5509,
      "मढ़वाया": 5510,
      "मनभाऊ": 5511,
      "पन्द्रहवें": 5512,
      "कंगनी": 5513,
      "उज्जीएल": 5514,
      "पटियाओं": 5515,
      "जरूब्बाबेल": 5516,
      "फांसी": 5517,
      "द्वारपालों": 5518,
      "ध्वनि": 5519,
      "झोंपडिय़ों": 5520,
      "उलाहना": 5521,
      "रमल्याह": 5522,
      "विपत्तियों": 5523,
      "दीर्घायु": 5524,
      "अन्द्रियास": 5525,
      "यदूतून": 5526,
      "मिथ्या": 5527,
      "हिन्नो": 5528,
      "अकारण": 5529,
      "अदु": 5530,
      "अध्य": 5531,
      "अविश्वासी": 5532,
      "आकार": 5533,
      "उजला": 5534,
      "उकता": 5535,
      "उभार": 5536,
      "ऊंगी": 5537,
      "ऋतुम": 5538,
      "एप्रा": 5539,
      "एलियों": 5540,
      "ओढ़ा": 5541,
      "कच": 5542,
      "कम्": 5543,
      "कडु": 5544,
      "गमन": 5545,
      "घूं": 5546,
      "घिर": 5547,
      "चट": 5548,
      "चद्": 5549,
      "चंगी": 5550,
      "झल": 5551,
      "झण्डे": 5552,
      "ढकेल": 5553,
      "थका": 5554,
      "दमा": 5555,
      "नपु": 5556,
      "बहे": 5557,
      "भट्ठे": 5558,
      "मरू": 5559,
      "मगि": 5560,
      "मगद": 5561,
      "यर्": 5562,
      "यरो": 5563,
      "रंगी": 5564,
      "लयों": 5565,
      "वई": 5566,
      "शक": 5567,
      "शलो": 5568,
      "सत्र": 5569,
      "सज्": 5570,
      "सत्ता": 5571,
      "ैतिन": 5572,
      "”।": 5573,
      "केदेश": 5574,
      "केदार": 5575,
      "मेक": 5576,
      "सेस": 5577,
      "कोस": 5578,
      "किधर": 5579,
      "परखे": 5580,
      "तार्थ": 5581,
      "न्नी": 5582,
      "हाग्ग": 5583,
      "नामा": 5584,
      "गाया": 5585,
      "गायों": 5586,
      "हीनों": 5587,
      "देनी": 5588,
      "देजेर": 5589,
      "अपु": 5590,
      "र्मा": 5591,
      "दिलाया": 5592,
      "लायाह": 5593,
      "लाऊं": 5594,
      "स्ति": 5595,
      "स्वीकार": 5596,
      "पाछ": 5597,
      "पाला": 5598,
      "पाऊं": 5599,
      "बाड़ा": 5600,
      "थाम": 5601,
      "लियुस": 5602,
      "दाद": 5603,
      "चारे": 5604,
      "वेदन": 5605,
      "क्कू": 5606,
      "मुड़े": 5607,
      "निवेदन": 5608,
      "जिक्री": 5609,
      "खाऊंगा": 5610,
      "लीला": 5611,
      "कुओं": 5612,
      "कुकर्मी": 5613,
      "दीएल": 5614,
      "हियां": 5615,
      "गें": 5616,
      "हमोर": 5617,
      "भेष": 5618,
      "बीमारी": 5619,
      "बेरी": 5620,
      "बेरेक्याह": 5621,
      "रोया": 5622,
      "रखवा": 5623,
      "गरम": 5624,
      "छातियां": 5625,
      "जानूं": 5626,
      "पहिचाना": 5627,
      "योआह": 5628,
      "वासस्थान": 5629,
      "पत्याह": 5630,
      "हूराम": 5631,
      "बोता": 5632,
      "बोरा": 5633,
      "भरती": 5634,
      "चढ़ाऊंगा": 5635,
      "सकूंगा": 5636,
      "सकतीं": 5637,
      "खोई": 5638,
      "खोदी": 5639,
      "ब्बी": 5640,
      "सेनापतियों": 5641,
      "पेकह": 5642,
      "भित": 5643,
      "बनकर": 5644,
      "छितरा": 5645,
      "युस": 5646,
      "निकालूंगा": 5647,
      "देवदारों": 5648,
      "त्तै": 5649,
      "शोकित": 5650,
      "लुचपन": 5651,
      "खिलाए": 5652,
      "ईश्वरों": 5653,
      "इब्र": 5654,
      "पांचों": 5655,
      "इब्रानी": 5656,
      "अन्यजातियां": 5657,
      "सहते": 5658,
      "फूलों": 5659,
      "फैली": 5660,
      "ठानी": 5661,
      "पहचाना": 5662,
      "ठहरती": 5663,
      "अबीहू": 5664,
      "एप्रोन": 5665,
      "फुस": 5666,
      "काटकर": 5667,
      "पंहु": 5668,
      "लंगड़े": 5669,
      "लंगड़ा": 5670,
      "मानेगा": 5671,
      "टोप": 5672,
      "पहुंचते": 5673,
      "नरक": 5674,
      "बसाऊंगा": 5675,
      "जीवधारियों": 5676,
      "हानून": 5677,
      "सुन्दरी": 5678,
      "अंगरखा": 5679,
      "कटोरों": 5680,
      "पहुंचेगा": 5681,
      "जहाजों": 5682,
      "उतारकर": 5683,
      "चरवाही": 5684,
      "कृतार्थ": 5685,
      "सताता": 5686,
      "एदोमियों": 5687,
      "जुड़": 5688,
      "विधवाओं": 5689,
      "हददेजेर": 5690,
      "फूंकते": 5691,
      "पढ़कर": 5692,
      "बटोरता": 5693,
      "कुमारियां": 5694,
      "आदमियों": 5695,
      "सुरैतिन": 5696,
      "बतशेबा": 5697,
      "टिड्डियों": 5698,
      "निरादर": 5699,
      "झिल्ली": 5700,
      "मछलियां": 5701,
      "लड़ेगा": 5702,
      "खिड़कियां": 5703,
      "अंगूठी": 5704,
      "एल्याकीम": 5705,
      "छठवां": 5706,
      "यूनानियों": 5707,
      "पहरूओं": 5708,
      "जाऊंगी": 5709,
      "सिकलग": 5710,
      "धनुर्धारी": 5711,
      "मछिलयों": 5712,
      "संयम": 5713,
      "गीदड़ों": 5714,
      "गुर्दों": 5715,
      "श्रेष्ट": 5716,
      "ओहोलीबा": 5717,
      "कलेजे": 5718,
      "खच्चर": 5719,
      "हथेली": 5720,
      "अनोखी": 5721,
      "एबेद": 5722,
      "ओर्नान": 5723,
      "भेंटें": 5724,
      "धधकती": 5725,
      "ईशबोशेत": 5726,
      "चकनाचूर": 5727,
      "तशींश": 5728,
      "बहुतेरों": 5729,
      "अध्यक्ष": 5730,
      "ऋतुमती": 5731,
      "चद्दर": 5732,
      "मगदली": 5733,
      "अक": 5734,
      "अग्र": 5735,
      "अत्या": 5736,
      "अरि": 5737,
      "आम": 5738,
      "इस्": 5739,
      "इक्की": 5740,
      "एदेन": 5741,
      "ओट": 5742,
      "ओपीर": 5743,
      "कतर": 5744,
      "क्यो": 5745,
      "खर्": 5746,
      "खटा": 5747,
      "ग्रा": 5748,
      "झण्डा": 5749,
      "टलने": 5750,
      "णों": 5751,
      "तल्": 5752,
      "तन्त्र": 5753,
      "फन": 5754,
      "फटे": 5755,
      "बतू": 5756,
      "बल्ल": 5757,
      "मल्ला": 5758,
      "रसीन": 5759,
      "शपात": 5760,
      "शपत्याह": 5761,
      "सव": 5762,
      "सजा": 5763,
      "सहे": 5764,
      "सलो": 5765,
      "सैन": 5766,
      "हल्": 5767,
      "िप्पा": 5768,
      "ूंगी": 5769,
      "ेली": 5770,
      "नेह": 5771,
      "मेघों": 5772,
      "कारा": 5773,
      "किद्र": 5774,
      "वादी": 5775,
      "होए": 5776,
      "परदा": 5777,
      "हाबिल": 5778,
      "हारीम": 5779,
      "नाई": 5780,
      "रास्": 5781,
      "ियु": 5782,
      "लेमेक": 5783,
      "जोड़ी": 5784,
      "लाएगा": 5785,
      "स्नेह": 5786,
      "पाले": 5787,
      "पाती": 5788,
      "पागुर": 5789,
      "प्रियों": 5790,
      "मैंने": 5791,
      "बाने": 5792,
      "बाड़": 5793,
      "बावन": 5794,
      "बांह": 5795,
      "दाल": 5796,
      "दाने": 5797,
      "दाना": 5798,
      "दादे": 5799,
      "दायी": 5800,
      "चाचा": 5801,
      "चाहें": 5802,
      "चादर": 5803,
      "मुन्ना": 5804,
      "लोभी": 5805,
      "निपट": 5806,
      "जिधर": 5807,
      "तितुस": 5808,
      "खानों": 5809,
      "सींच": 5810,
      "सुहा": 5811,
      "कुर्": 5812,
      "कुत्तों": 5813,
      "फिरती": 5814,
      "दीबोन": 5815,
      "रूपे": 5816,
      "रूएल": 5817,
      "शाखा": 5818,
      "देखूंगा": 5819,
      "पीएंगे": 5820,
      "ज्वर": 5821,
      "बीता": 5822,
      "बेध": 5823,
      "स्त्रा": 5824,
      "रोमी": 5825,
      "लगाम": 5826,
      "जीएल": 5827,
      "गरजे": 5828,
      "मीश": 5829,
      "उठना": 5830,
      "उठती": 5831,
      "बिक": 5832,
      "बिल्हा": 5833,
      "सिप्": 5834,
      "सिद्धि": 5835,
      "वनपशु": 5836,
      "येपे": 5837,
      "चित्ती": 5838,
      "राजगढ़": 5839,
      "क्षित": 5840,
      "मुझी": 5841,
      "धावा": 5842,
      "यीएल": 5843,
      "बोते": 5844,
      "भूसे": 5845,
      "संग्राम": 5846,
      "शेक": 5847,
      "जनता": 5848,
      "भरमाने": 5849,
      "पुरिन": 5850,
      "उठाओ": 5851,
      "फाड़ा": 5852,
      "खोएगा": 5853,
      "छोड़ते": 5854,
      "उपकार": 5855,
      "उपजाऊ": 5856,
      "गोधूलि": 5857,
      "सूइसों": 5858,
      "आंसु": 5859,
      "मुखी": 5860,
      "लड़कियों": 5861,
      "भोले": 5862,
      "पहुंचाकर": 5863,
      "सम्भाल": 5864,
      "बैठते": 5865,
      "छिनाला": 5866,
      "फलवन्त": 5867,
      "फलदाई": 5868,
      "यहीएल": 5869,
      "निकालकर": 5870,
      "व्यवस्थापक": 5871,
      "दिखाएगा": 5872,
      "जेल": 5873,
      "जेबह": 5874,
      "संहार": 5875,
      "संध्या": 5876,
      "चीर": 5877,
      "शिबा": 5878,
      "शिकार": 5879,
      "शिमो": 5880,
      "यित्रो": 5881,
      "मण्डप": 5882,
      "बताई": 5883,
      "मिलना": 5884,
      "भययोग्य": 5885,
      "धनवा": 5886,
      "बरअब्बा": 5887,
      "धूम": 5888,
      "स्वाधीन": 5889,
      "एलीहू": 5890,
      "एलीएल": 5891,
      "पोखरे": 5892,
      "कितना": 5893,
      "सुलैमानी": 5894,
      "दसों": 5895,
      "रिहत": 5896,
      "बढ़ाने": 5897,
      "अनुग्रहकारी": 5898,
      "सहने": 5899,
      "कराऊंगा": 5900,
      "थोमा": 5901,
      "छूने": 5902,
      "छूकर": 5903,
      "ढूंढ़ा": 5904,
      "अबीराम": 5905,
      "अनाक": 5906,
      "गढ़ने": 5907,
      "पुकारूंगा": 5908,
      "घुंड": 5909,
      "चमड़ा": 5910,
      "पंडु": 5911,
      "जूफा": 5912,
      "योनादाब": 5913,
      "झाड़ी": 5914,
      "मनश्शेइयों": 5915,
      "आधीनता": 5916,
      "खोजियों": 5917,
      "पैंतीस": 5918,
      "अंगों": 5919,
      "अंगरखे": 5920,
      "अंध": 5921,
      "अंजीरों": 5922,
      "दौड़े": 5923,
      "आसरा": 5924,
      "हथौ": 5925,
      "सत्यनाश": 5926,
      "दीनता": 5927,
      "बसेंगे": 5928,
      "भेजेगा": 5929,
      "चराइयां": 5930,
      "रुक": 5931,
      "तराइयों": 5932,
      "उपद्रवी": 5933,
      "दौड़ने": 5934,
      "चिताकर": 5935,
      "जकरयाह": 5936,
      "देखीं": 5937,
      "पहिनकर": 5938,
      "छिपकर": 5939,
      "लहरें": 5940,
      "पहिनाया": 5941,
      "छुड़ाएगा": 5942,
      "डुबा": 5943,
      "हर्षित": 5944,
      "सैंतीस": 5945,
      "निष्कलंक": 5946,
      "यिज्रेली": 5947,
      "पीटकर": 5948,
      "रोटियों": 5949,
      "सवारी": 5950,
      "जांचता": 5951,
      "खण्डहरों": 5952,
      "रिबला": 5953,
      "फटते": 5954,
      "कबूतर": 5955,
      "भोगने": 5956,
      "रस्सियां": 5957,
      "नहशोन": 5958,
      "अप्रिय": 5959,
      "मुंड़ा": 5960,
      "दर्शी": 5961,
      "सल्मुन्ना": 5962,
      "पीड़ाएं": 5963,
      "खटखटा": 5964,
      "बैतनिय्याह": 5965,
      "श्राप": 5966,
      "दरार": 5967,
      "पेलेत": 5968,
      "घिरा": 5969,
      "हशब्याह": 5970,
      "अट्ठाईस": 5971,
      "मुद्दई": 5972,
      "अविनाशी": 5973,
      "षिर्त": 5974,
      "हाथीदांत": 5975,
      "हंसुआ": 5976,
      "यरोहाम": 5977,
      "हाग्गै": 5978,
      "अपुल्लो": 5979,
      "मगदलीनी": 5980,
      "अग्रिप्पा": 5981,
      "इक्कीस": 5982,
      "बल्लत": 5983,
      "किद्रोन": 5984,
      "येपेत": 5985,
      "ँगा": 5986,
      "अहो": 5987,
      "अक्ष": 5988,
      "अरों": 5989,
      "अदार": 5990,
      "अदायाह": 5991,
      "आा": 5992,
      "आहा": 5993,
      "आहेर": 5994,
      "उतनी": 5995,
      "उतारे": 5996,
      "उखड़": 5997,
      "एर": 5998,
      "एहूद": 5999,
      "ओहार": 6000,
      "खल": 6001,
      "खित": 6002,
      "गं": 6003,
      "गरा": 6004,
      "गड़ा": 6005,
      "गूंगा": 6006,
      "गढ़ी": 6007,
      "गहरी": 6008,
      "चय": 6009,
      "चन्दु": 6010,
      "छडिय़ों": 6011,
      "ज्य": 6012,
      "ठंडा": 6013,
      "तको": 6014,
      "तराज": 6015,
      "तपावन": 6016,
      "दबोरा": 6017,
      "धरो": 6018,
      "नको": 6019,
      "पहे": 6020,
      "फलेंगे": 6021,
      "फेरे": 6022,
      "बखा": 6023,
      "बजाकर": 6024,
      "भट": 6025,
      "मश": 6026,
      "मला": 6027,
      "यरह": 6028,
      "यब्": 6029,
      "लर": 6030,
      "लताओं": 6031,
      "शद्दै": 6032,
      "सहारे": 6033,
      "हव": 6034,
      "हषिर्त": 6035,
      "ोल": 6036,
      "ोदय": 6037,
      "केंगे": 6038,
      "मेघ": 6039,
      "याफा": 6040,
      "कोन्याह": 6041,
      "किले": 6042,
      "होमेर": 6043,
      "ताबोर": 6044,
      "तारोत": 6045,
      "न्दूर": 6046,
      "हाश": 6047,
      "नासरत": 6048,
      "नाहाश": 6049,
      "जारों": 6050,
      "राह": 6051,
      "साझी": 6052,
      "लेके": 6053,
      "हेबेर": 6054,
      "लाज": 6055,
      "बाजारों": 6056,
      "रीतियों": 6057,
      "त्रा": 6058,
      "श्वास": 6059,
      "दानी": 6060,
      "दातान": 6061,
      "क्स": 6062,
      "क्कर": 6063,
      "तोरेत": 6064,
      "नीएल": 6065,
      "यहत": 6066,
      "निचले": 6067,
      "सीढ़ी": 6068,
      "लिपट": 6069,
      "ाएल": 6070,
      "कुलीन": 6071,
      "भाड़": 6072,
      "दीना": 6073,
      "दीनों": 6074,
      "रूपा": 6075,
      "मानती": 6076,
      "दूरों": 6077,
      "देखती": 6078,
      "सोए": 6079,
      "सोरा": 6080,
      "सोचो": 6081,
      "पीओ": 6082,
      "पीया": 6083,
      "पीऊं": 6084,
      "पीएं": 6085,
      "डाकुओं": 6086,
      "स्थापित": 6087,
      "च्चे": 6088,
      "च्छु": 6089,
      "अनसुनी": 6090,
      "मीम": 6091,
      "उठूंगा": 6092,
      "उठाएं": 6093,
      "बिच्छु": 6094,
      "छावन": 6095,
      "बनाऊं": 6096,
      "जानोगे": 6097,
      "भुगता": 6098,
      "धिया": 6099,
      "मनुष्यत्व": 6100,
      "चिरे": 6101,
      "चित्र": 6102,
      "चिडिय़ा": 6103,
      "राजमार्ग": 6104,
      "गिनी": 6105,
      "हरिया": 6106,
      "मोटा": 6107,
      "सारंग": 6108,
      "योजाबाद": 6109,
      "वासियों": 6110,
      "यीम": 6111,
      "याजकपद": 6112,
      "मारना": 6113,
      "पहुचा": 6114,
      "नाशमान": 6115,
      "भागो": 6116,
      "चुम्": 6117,
      "टेककर": 6118,
      "लगेगी": 6119,
      "चढ़ाता": 6120,
      "घावों": 6121,
      "फाद": 6122,
      "शूने": 6123,
      "छोड़ता": 6124,
      "उत्तरदायी": 6125,
      "चलाई": 6126,
      "चौकोर": 6127,
      "चौखट": 6128,
      "गोफन": 6129,
      "सूअरों": 6130,
      "लूद": 6131,
      "लूटे": 6132,
      "लड़कर": 6133,
      "पहुंचाने": 6134,
      "पहुंचाऊंगा": 6135,
      "सम्बल्लत": 6136,
      "सिरहाने": 6137,
      "कर्ज": 6138,
      "धुन्ध": 6139,
      "छिपाए": 6140,
      "दाखों": 6141,
      "निर्दय": 6142,
      "वशती": 6143,
      "चाहने": 6144,
      "कैफा": 6145,
      "संभा": 6146,
      "संकल्": 6147,
      "संचय": 6148,
      "देनेवाला": 6149,
      "बन्धे": 6150,
      "त्यागा": 6151,
      "तीसों": 6152,
      "रहोब": 6153,
      "बरत": 6154,
      "बरसात": 6155,
      "धूएं": 6156,
      "स्वामियों": 6157,
      "रखेली": 6158,
      "जलाई": 6159,
      "जलाकर": 6160,
      "दनराम": 6161,
      "बढ़ाना": 6162,
      "जातीं": 6163,
      "महीना": 6164,
      "महीनों": 6165,
      "फैलाने": 6166,
      "फैलाता": 6167,
      "मरेंगे": 6168,
      "हलका": 6169,
      "गदहियां": 6170,
      "दयावन्त": 6171,
      "पौधे": 6172,
      "झुंझ": 6173,
      "अनादि": 6174,
      "बहता": 6175,
      "बुराइयां": 6176,
      "चिल्लाते": 6177,
      "बैठाया": 6178,
      "फुन": 6179,
      "फुल": 6180,
      "लज्ज़ा": 6181,
      "लड़केबालों": 6182,
      "अश्कलोन": 6183,
      "उतरने": 6184,
      "हृद": 6185,
      "गिराया": 6186,
      "पटरी": 6187,
      "चमकी": 6188,
      "चूक": 6189,
      "बचकर": 6190,
      "जूतियां": 6191,
      "टोन्": 6192,
      "टोकरे": 6193,
      "मनश्शेई": 6194,
      "नोअम": 6195,
      "बारीम": 6196,
      "खोजने": 6197,
      "ढूंढ़ती": 6198,
      "जीवजन्तु": 6199,
      "समझाने": 6200,
      "समझाते": 6201,
      "जन्मभूमि": 6202,
      "प्रायश्चित": 6203,
      "परमविश्राम": 6204,
      "सूर्योदय": 6205,
      "बर्ने": 6206,
      "महलों": 6207,
      "हथियारों": 6208,
      "यहोयाकीन": 6209,
      "कब्रों": 6210,
      "हथियारबन्द": 6211,
      "सताते": 6212,
      "रूबेनी": 6213,
      "नेरिय्याह": 6214,
      "उठाएंगे": 6215,
      "विधवाएं": 6216,
      "बेचकर": 6217,
      "उड़ते": 6218,
      "अमालेक": 6219,
      "उड़ाया": 6220,
      "दिशाओं": 6221,
      "निर्बलता": 6222,
      "छिड़का": 6223,
      "गुम्मटों": 6224,
      "पहिनाए": 6225,
      "अचम्भे": 6226,
      "अचम्भित": 6227,
      "होनहार": 6228,
      "सुरक्षित": 6229,
      "कड़वा": 6230,
      "डुबो": 6231,
      "किवाड़ों": 6232,
      "अभिमानियों": 6233,
      "अम्मीहूद": 6234,
      "मछलियों": 6235,
      "नीलमणि": 6236,
      "तहत": 6237,
      "गुफाओं": 6238,
      "हनानी": 6239,
      "अदोनी": 6240,
      "नबायोत": 6241,
      "हठीला": 6242,
      "भोगते": 6243,
      "डील": 6244,
      "बटोही": 6245,
      "भणडारों": 6246,
      "तोपेत": 6247,
      "पूंजी": 6248,
      "एनै": 6249,
      "कंधे": 6250,
      "कादेशबर्ने": 6251,
      "कनज": 6252,
      "धधकते": 6253,
      "द्वीप": 6254,
      "शालतीएल": 6255,
      "पण्डितों": 6256,
      "मिल्लो": 6257,
      "झटपट": 6258,
      "बरीआ": 6259,
      "श्रापित": 6260,
      "लेखक": 6261,
      "झड़बेरी": 6262,
      "दरारों": 6263,
      "परिज्जी": 6264,
      "परिज्जियों": 6265,
      "सपन्याह": 6266,
      "कपटी": 6267,
      "अंतडिय़ां": 6268,
      "झिलम": 6269,
      "नमूना": 6270,
      "म्रे": 6271,
      "जोखिम": 6272,
      "बावला": 6273,
      "स्वेच्छाबलि": 6274,
      "एकलौते": 6275,
      "सीदोनियों": 6276,
      "कहलाएगी": 6277,
      "अश्शूरी": 6278,
      "टटोल": 6279,
      "नीतिवचन": 6280,
      "पद्दनराम": 6281,
      "प्रवीणता": 6282,
      "यहूदियो": 6283,
      "यिसहार": 6284,
      "इम्मेर": 6285,
      "रक्षक": 6286,
      "गम्भीर": 6287,
      "गेर्शोम": 6288,
      "सांकलों": 6289,
      "हिन्नोम": 6290,
      "अदुल्लाम": 6291,
      "मगिद्दो": 6292,
      "सत्रह": 6293,
      "इब्रियों": 6294,
      "अत्याचार": 6295,
      "क्योकि": 6296,
      "ग्राहक": 6297,
      "बतूएल": 6298,
      "सलोफाद": 6299,
      "रास्ते": 6300,
      "शिमोनियों": 6301,
      "अपुल्लोस": 6302,
      "तराजू": 6303,
      "छावनियों": 6304,
      "हरियाली": 6305,
      "संकल्प": 6306,
      ");": 6307,
      "अख": 6308,
      "अरी": 6309,
      "अविश्वासियों": 6310,
      "आबेल": 6311,
      "उमण्ड": 6312,
      "उगल": 6313,
      "उण्डे": 6314,
      "उौर": 6315,
      "कत": 6316,
      "कलो": 6317,
      "कमो": 6318,
      "खत्ते": 6319,
      "गती": 6320,
      "गौर": 6321,
      "चकम": 6322,
      "छली": 6323,
      "छहों": 6324,
      "जौ": 6325,
      "जले": 6326,
      "जरु": 6327,
      "झंझ": 6328,
      "झलक": 6329,
      "झपट": 6330,
      "डली": 6331,
      "डराने": 6332,
      "ढंप": 6333,
      "णड": 6334,
      "तशस्सर": 6335,
      "थप्": 6336,
      "थिस्": 6337,
      "दबे": 6338,
      "ददान": 6339,
      "धंस": 6340,
      "नस": 6341,
      "नै": 6342,
      "नशे": 6343,
      "नशी": 6344,
      "नहरों": 6345,
      "नक्का": 6346,
      "फले": 6347,
      "बछिया": 6348,
      "भौ": 6349,
      "मक्के": 6350,
      "यन": 6351,
      "रहीं": 6352,
      "लब": 6353,
      "वती": 6354,
      "शस्त्र": 6355,
      "षियों": 6356,
      "सआ": 6357,
      "सनों": 6358,
      "सहारा": 6359,
      "हसर्": 6360,
      "हण्डे": 6361,
      "ार्थ": 6362,
      "ूएल": 6363,
      "ोक": 6364,
      "ौती": 6365,
      "मेशेक": 6366,
      "सेला": 6367,
      "करियो": 6368,
      "वांग": 6369,
      "होर्मा": 6370,
      "परखा": 6371,
      "कीड़ा": 6372,
      "ताई": 6373,
      "ताओ": 6374,
      "ताप": 6375,
      "नाग": 6376,
      "नालि": 6377,
      "जादू": 6378,
      "रेजेर": 6379,
      "गाए": 6380,
      "गाना": 6381,
      "गावों": 6382,
      "अपा": 6383,
      "मान्": 6384,
      "मापा": 6385,
      "मादा": 6386,
      "मांझ": 6387,
      "मावेत": 6388,
      "दिर": 6389,
      "जोर": 6390,
      "जोड़ा": 6391,
      "हेपेर": 6392,
      "हुल": 6393,
      "लांघ": 6394,
      "पायों": 6395,
      "पारान": 6396,
      "प्रकट": 6397,
      "बाल्": 6398,
      "बाजों": 6399,
      "बादाम": 6400,
      "बाटिका": 6401,
      "थाली": 6402,
      "भीख": 6403,
      "विक": 6404,
      "विपरी": 6405,
      "चाप": 6406,
      "वेन": 6407,
      "तोबि": 6408,
      "मुह": 6409,
      "लोत": 6410,
      "द्दे": 6411,
      "सीखा": 6412,
      "मिटे": 6413,
      "मिस्त्रियों": 6414,
      "सुकुमार": 6415,
      "लिपटा": 6416,
      "लिक्स": 6417,
      "लीएल": 6418,
      "कुम्ह": 6419,
      "कुचले": 6420,
      "कुंड": 6421,
      "भाविक": 6422,
      "फिरोन": 6423,
      "उन्नी": 6424,
      "ड़ाहट": 6425,
      "पुत्रियां": 6426,
      "होंठ": 6427,
      "होंवे": 6428,
      "गेबेर": 6429,
      "शाना": 6430,
      "दूल्हा": 6431,
      "इस्राएलियो": 6432,
      "सोअर": 6433,
      "भेदिए": 6434,
      "डांस": 6435,
      "बेचा": 6436,
      "बेडिय़ों": 6437,
      "पिउ": 6438,
      "पिट": 6439,
      "पिलाए": 6440,
      "मूशी": 6441,
      "जीप": 6442,
      "गरों": 6443,
      "चेहरे": 6444,
      "बिच्छ": 6445,
      "निकलवा": 6446,
      "अर्पक्ष": 6447,
      "सिखाते": 6448,
      "भुला": 6449,
      "प्राप्": 6450,
      "उत्साह": 6451,
      "उत्सव": 6452,
      "धिक्कार": 6453,
      "चिकना": 6454,
      "राजधा": 6455,
      "गिल्": 6456,
      "मरन": 6457,
      "सन्ना": 6458,
      "पहिल": 6459,
      "योक्": 6460,
      "छोड़ी": 6461,
      "बोना": 6462,
      "मारथा": 6463,
      "चलूं": 6464,
      "ईंडोल": 6465,
      "भूसी": 6466,
      "ठहराएं": 6467,
      "दूसरों": 6468,
      "चुगली": 6469,
      "शेला": 6470,
      "प्पू": 6471,
      "भरते": 6472,
      "कूट": 6473,
      "पांजर": 6474,
      "उठाईं": 6475,
      "फाव": 6476,
      "ब्नी": 6477,
      "शूब": 6478,
      "जानेगा": 6479,
      "जानेंगे": 6480,
      "चलाता": 6481,
      "उपजाऊंगा": 6482,
      "चौकियां": 6483,
      "गोल": 6484,
      "सुनाओ": 6485,
      "सुनाऊं": 6486,
      "बलसान": 6487,
      "सूप": 6488,
      "सूना": 6489,
      "सूखा": 6490,
      "सूअर": 6491,
      "मुखिये": 6492,
      "लड़ो": 6493,
      "लड़खड़ा": 6494,
      "दुपह": 6495,
      "सम्भा": 6496,
      "बान्धते": 6497,
      "पकड़ी": 6498,
      "बनते": 6499,
      "कर्मेल": 6500,
      "मिलाया": 6501,
      "महाप्रतापी": 6502,
      "छिनाले": 6503,
      "दाखलताओं": 6504,
      "यूश": 6505,
      "यूनुस": 6506,
      "निकालते": 6507,
      "गुच्छे": 6508,
      "पड़कर": 6509,
      "बचाना": 6510,
      "यिश्": 6511,
      "मिलते": 6512,
      "भेड़शाला": 6513,
      "मतलब": 6514,
      "गोत्री": 6515,
      "प्रार्थनाओं": 6516,
      "शोबाल": 6517,
      "पाएगी": 6518,
      "खिला": 6519,
      "स्वाभाविक": 6520,
      "पोती": 6521,
      "जलाश": 6522,
      "धरने": 6523,
      "ढाया": 6524,
      "धोया": 6525,
      "कहलाते": 6526,
      "बढ़ाते": 6527,
      "करूंगी": 6528,
      "सहस्र": 6529,
      "सहनशी": 6530,
      "फैलाया": 6531,
      "फैलता": 6532,
      "ठहरूं": 6533,
      "गदहियों": 6534,
      "विश्रामदिनों": 6535,
      "पुस्तकों": 6536,
      "लताड़": 6537,
      "ज़ी": 6538,
      "भड़की": 6539,
      "भड़कने": 6540,
      "तलहम": 6541,
      "बनेगा": 6542,
      "स्वच्छ": 6543,
      "निर्दोषों": 6544,
      "फुंक": 6545,
      "निकालेगा": 6546,
      "काटना": 6547,
      "चमकता": 6548,
      "चमकने": 6549,
      "सियाही": 6550,
      "पूछना": 6551,
      "टोना": 6552,
      "लिखना": 6553,
      "उठेगी": 6554,
      "सुनीं": 6555,
      "बेलतशस्सर": 6556,
      "जीवधारी": 6557,
      "अंक": 6558,
      "फूंको": 6559,
      "अज्री": 6560,
      "बसलेल": 6561,
      "मरोगे": 6562,
      "खतनारिहत": 6563,
      "सिंहनी": 6564,
      "बर्छी": 6565,
      "बर्जिल्": 6566,
      "बैठेंगे": 6567,
      "कहोगे": 6568,
      "अराधना": 6569,
      "बहाकर": 6570,
      "गलीली": 6571,
      "मरायोत": 6572,
      "सताए": 6573,
      "मांगो": 6574,
      "उलटा": 6575,
      "बांटा": 6576,
      "मरीबा": 6577,
      "दौड़ता": 6578,
      "दमदमा": 6579,
      "हत्यारे": 6580,
      "हत्यारों": 6581,
      "मजदूरों": 6582,
      "चितावनी": 6583,
      "सृजी": 6584,
      "मन्नतों": 6585,
      "हदरेजेर": 6586,
      "दबाव": 6587,
      "अरौना": 6588,
      "थरथराता": 6589,
      "भटकने": 6590,
      "पहिनने": 6591,
      "बटोरते": 6592,
      "पहिचानता": 6593,
      "बीमारियों": 6594,
      "अभिलाषी": 6595,
      "मलमल": 6596,
      "निष्कपट": 6597,
      "लटकाए": 6598,
      "लटकाया": 6599,
      "फेलिक्स": 6600,
      "पीटना": 6601,
      "जन्माए": 6602,
      "रुपए": 6603,
      "रुपये": 6604,
      "मल्किय्याह": 6605,
      "कपटियों": 6606,
      "झिड़": 6607,
      "तर्क": 6608,
      "लड़ेंगे": 6609,
      "खिड़कियों": 6610,
      "बिछौना": 6611,
      "पछताया": 6612,
      "तेरहवें": 6613,
      "बटोरा": 6614,
      "मुंड़": 6615,
      "मढ़वाना": 6616,
      "चोटियों": 6617,
      "एनग": 6618,
      "मिल्का": 6619,
      "बेगारी": 6620,
      "घुड़की": 6621,
      "खदेड़": 6622,
      "धनुर्धारियों": 6623,
      "शम्मा": 6624,
      "साहस": 6625,
      "कपड़ों": 6626,
      "तत्पश्चात": 6627,
      "महाराजाधिराज": 6628,
      "अंतडिय़ों": 6629,
      "झगड़ने": 6630,
      "अय्यालोन": 6631,
      "ढिठाई": 6632,
      "झुलस": 6633,
      "ठिकाना": 6634,
      "कर्म्मेल": 6635,
      "धुंध": 6636,
      "सनौवर": 6637,
      "इलीशिबा": 6638,
      "मसाला": 6639,
      "सदूकियों": 6640,
      "घातकों": 6641,
      "बांसुली": 6642,
      "शरणागत": 6643,
      "नतोपा": 6644,
      "तोबिय्याह": 6645,
      "एप्राता": 6646,
      "इस्करियो": 6647,
      "पुरिनए": 6648,
      "आंसुओं": 6649,
      "घुंडियां": 6650,
      "गरार": 6651,
      "पहेली": 6652,
      "चुम्बन": 6653,
      "हृदयों": 6654,
      "कलोर": 6655,
      "चकमक": 6656,
      "जरुब्बाबेल": 6657,
      "थप्पड़": 6658,
      "थिस्स": 6659,
      "मक्केदा": 6660,
      "नालिश": 6661,
      "विपरीत": 6662,
      "तोबियाह": 6663,
      "बिच्छू": 6664,
      "अर्पक्षद": 6665,
      "प्राप्ति": 6666,
      "राजधानी": 6667,
      "दुपहरी": 6668,
      "बर्जिल्लै": 6669,
      "इस्करियोती": 6670,
      "ंय": 6671,
      "ंपे": 6672,
      "ंधे": 6673,
      "अहा": 6674,
      "अगा": 6675,
      "अज्": 6676,
      "अविश्वास": 6677,
      "अटक": 6678,
      "अर्य": 6679,
      "अबारीम": 6680,
      "आँ": 6681,
      "आदा": 6682,
      "आदर्श": 6683,
      "ईरा": 6684,
      "ऊँ": 6685,
      "ऋण": 6686,
      "एस": 6687,
      "एबाल": 6688,
      "एलोन": 6689,
      "एताम": 6690,
      "ओत्": 6691,
      "ओप्रा": 6692,
      "ओठों": 6693,
      "औष": 6694,
      "कटी": 6695,
      "कप्": 6696,
      "कबार": 6697,
      "कढ़ाई": 6698,
      "खजाने": 6699,
      "खंड": 6700,
      "गह": 6701,
      "गशूर": 6702,
      "घड़े": 6703,
      "घटे": 6704,
      "घटने": 6705,
      "चरों": 6706,
      "चक्कर": 6707,
      "छट": 6708,
      "जमा": 6709,
      "जड़े": 6710,
      "जक्कू": 6711,
      "झप": 6712,
      "झरो": 6713,
      "टटका": 6714,
      "ठु": 6715,
      "ठवा": 6716,
      "ठूं": 6717,
      "डलवा": 6718,
      "डण्डे": 6719,
      "डरेगा": 6720,
      "तसले": 6721,
      "दक": 6722,
      "दंड": 6723,
      "दलीला": 6724,
      "धने": 6725,
      "धूं": 6726,
      "धिर": 6727,
      "नए": 6728,
      "नहे": 6729,
      "पच": 6730,
      "पपड़ी": 6731,
      "फर्श": 6732,
      "भूं": 6733,
      "भती": 6734,
      "भटके": 6735,
      "मतू": 6736,
      "मंड": 6737,
      "मगरम": 6738,
      "यश": 6739,
      "यहा": 6740,
      "रगड़े": 6741,
      "लकर": 6742,
      "लपे": 6743,
      "वना": 6744,
      "वरी": 6745,
      "शमी": 6746,
      "सट": 6747,
      "सकी": 6748,
      "ोवर": 6749,
      "केर": 6750,
      "केनान": 6751,
      "नेवें": 6752,
      "नेलियुस": 6753,
      "सेगा": 6754,
      "याएल": 6755,
      "याबीन": 6756,
      "कोन": 6757,
      "उसमें": 6758,
      "किश": 6759,
      "किरण": 6760,
      "किसिद": 6761,
      "किसान": 6762,
      "वाटिका": 6763,
      "होरी": 6764,
      "होवे": 6765,
      "मेंढ": 6766,
      "कीय": 6767,
      "हाहा": 6768,
      "जाली": 6769,
      "राग": 6770,
      "राहाब": 6771,
      "िय्या": 6772,
      "रेब्याह": 6773,
      "साई": 6774,
      "गाता": 6775,
      "गाली": 6776,
      "देवी": 6777,
      "देंगी": 6778,
      "लेखे": 6779,
      "लेटे": 6780,
      "अपेक": 6781,
      "मासी": 6782,
      "मादियों": 6783,
      "मादै": 6784,
      "हेले": 6785,
      "हुबल": 6786,
      "लान": 6787,
      "लादान": 6788,
      "लागों": 6789,
      "उनको": 6790,
      "उनतीस": 6791,
      "बाड़े": 6792,
      "बासठ": 6793,
      "बाहुबल": 6794,
      "यहोसादाक": 6795,
      "यहोशपात": 6796,
      "रीछ": 6797,
      "इसलिथे": 6798,
      "विवा": 6799,
      "चाहूं": 6800,
      "तोष": 6801,
      "मुकर": 6802,
      "मुण्ड": 6803,
      "लोट": 6804,
      "निम": 6805,
      "त्म": 6806,
      "त्तू": 6807,
      "जिले": 6808,
      "जिलाता": 6809,
      "खाद": 6810,
      "खालें": 6811,
      "सीम": 6812,
      "सीखे": 6813,
      "सीखो": 6814,
      "मिस": 6815,
      "मिकमा": 6816,
      "लिटा": 6817,
      "कार्यों": 6818,
      "मनहेम": 6819,
      "ाएंगे": 6820,
      "कुप्र": 6821,
      "कुरि": 6822,
      "कुसीं": 6823,
      "भागि": 6824,
      "कहनी": 6825,
      "कहलाया": 6826,
      "जबद्याह": 6827,
      "कियाह": 6828,
      "दीया": 6829,
      "दीवार": 6830,
      "हिब्बी": 6831,
      "उन्ही": 6832,
      "रूधिर": 6833,
      "ंगें": 6834,
      "गेंगे": 6835,
      "शादी": 6836,
      "शारोन": 6837,
      "हुएं": 6838,
      "पीसना": 6839,
      "भेदों": 6840,
      "डां": 6841,
      "करनेवाला": 6842,
      "बुझे": 6843,
      "बुकनी": 6844,
      "हुआं": 6845,
      "बेची": 6846,
      "हांक": 6847,
      "हांफ": 6848,
      "पूज": 6849,
      "स्थापन": 6850,
      "पिसे": 6851,
      "न्धा": 6852,
      "रखवाला": 6853,
      "बिक्री": 6854,
      "सुनती": 6855,
      "बहुओं": 6856,
      "चिकारे": 6857,
      "राजघराने": 6858,
      "गिबो": 6859,
      "गिराई": 6860,
      "मरकुस": 6861,
      "मोटे": 6862,
      "मोलेक": 6863,
      "छोकरे": 6864,
      "छोटों": 6865,
      "बैतलहम": 6866,
      "पत्नियां": 6867,
      "हूशा": 6868,
      "बोरों": 6869,
      "बोस्रा": 6870,
      "पहुनाई": 6871,
      "न्यारा": 6872,
      "खेलने": 6873,
      "भागते": 6874,
      "वैत": 6875,
      "चुक": 6876,
      "शेब्ना": 6877,
      "शेरेब्याह": 6878,
      "कूद": 6879,
      "्रान": 6880,
      "खोजा": 6881,
      "खोलता": 6882,
      "खोपड़ी": 6883,
      "खोलीं": 6884,
      "छोड़ने": 6885,
      "डालती": 6886,
      "समानता": 6887,
      "क्रे": 6888,
      "शीबा": 6889,
      "चौथी": 6890,
      "भाईचारे": 6891,
      "बलवई": 6892,
      "सूजन": 6893,
      "आंचल": 6894,
      "लूज": 6895,
      "भोला": 6896,
      "दुखी": 6897,
      "भविष्यवाणी": 6898,
      "सातवीं": 6899,
      "बालबच्चे": 6900,
      "युक्त": 6901,
      "दिखाऊं": 6902,
      "कैदी": 6903,
      "देवियों": 6904,
      "जीवनलोक": 6905,
      "समाई": 6906,
      "बचाऊंगा": 6907,
      "पराया": 6908,
      "शिल्": 6909,
      "शिनार": 6910,
      "बताते": 6911,
      "इसीलिये": 6912,
      "मारें": 6913,
      "मारेशा": 6914,
      "छुड़ाई": 6915,
      "लुटे": 6916,
      "समुद्रतीर": 6917,
      "धरकर": 6918,
      "बोलूं": 6919,
      "कहेंगी": 6920,
      "वृझ": 6921,
      "धोखे": 6922,
      "फिलि": 6923,
      "होमबलिपशु": 6924,
      "सहच": 6925,
      "सहभागि": 6926,
      "कराता": 6927,
      "परिमाण": 6928,
      "मरें": 6929,
      "कबरें": 6930,
      "पूर्वमुखी": 6931,
      "खुस": 6932,
      "सनोवर": 6933,
      "पहचा": 6934,
      "चरणों": 6935,
      "तोड़ते": 6936,
      "मिलेंगे": 6937,
      "टिक": 6938,
      "टिके": 6939,
      "बीसवें": 6940,
      "चिल्लाने": 6941,
      "चिल्लाती": 6942,
      "लड़केबाले": 6943,
      "निकलेगी": 6944,
      "बचेंगे": 6945,
      "गिराकर": 6946,
      "अपराधियों": 6947,
      "चुकाएगा": 6948,
      "पनूएल": 6949,
      "लंगड़ों": 6950,
      "महानदों": 6951,
      "व्यापारी": 6952,
      "झाऊ": 6953,
      "बेलशस्सर": 6954,
      "टूटी": 6955,
      "समझाकर": 6956,
      "फेंटा": 6957,
      "ज्योतिषियों": 6958,
      "पचासों": 6959,
      "सड़ने": 6960,
      "सड़कें": 6961,
      "प्रकाशित": 6962,
      "सर्वांग": 6963,
      "प्रियो": 6964,
      "पर्वतों": 6965,
      "बसेगा": 6966,
      "चराने": 6967,
      "प्यादे": 6968,
      "भड़काई": 6969,
      "रुका": 6970,
      "ग्ला": 6971,
      "ठेस": 6972,
      "मांगता": 6973,
      "मांगती": 6974,
      "स्वप्नों": 6975,
      "गृहस्थ": 6976,
      "गृहदेवताओं": 6977,
      "गृहदेवता": 6978,
      "अब्दोन": 6979,
      "फिराओ": 6980,
      "दूधपिउ": 6981,
      "मणडली": 6982,
      "उज्ज़": 6983,
      "घटती": 6984,
      "गिनकर": 6985,
      "चिताता": 6986,
      "सृजा": 6987,
      "क्लेशों": 6988,
      "खींचकर": 6989,
      "दबाया": 6990,
      "तख्तियों": 6991,
      "पढ़ने": 6992,
      "फूटकर": 6993,
      "रहूम": 6994,
      "पुकारे": 6995,
      "झुण्डों": 6996,
      "अद्वैत": 6997,
      "कुकर्मियों": 6998,
      "छिपने": 6999,
      "समझेंगे": 7000,
      "हटाकर": 7001,
      "अनर्थकारी": 7002,
      "उघाड़ने": 7003,
      "पकाया": 7004,
      "बतला": 7005,
      "कुटुम्ब": 7006,
      "मल्लू": 7007,
      "तर्बा": 7008,
      "सिखाएगा": 7009,
      "डूबते": 7010,
      "सूरिया": 7011,
      "पछताता": 7012,
      "एलासा": 7013,
      "लड़ाइयों": 7014,
      "पूछेंगे": 7015,
      "सेंहुआं": 7016,
      "कूशियों": 7017,
      "अठारहवें": 7018,
      "असाध्य": 7019,
      "डरावने": 7020,
      "सलाह": 7021,
      "बिताते": 7022,
      "ढांढ़": 7023,
      "अस्सीर": 7024,
      "रौंदा": 7025,
      "घोंसला": 7026,
      "भ्रम": 7027,
      "बीनने": 7028,
      "मोआबिन": 7029,
      "कुरनेलियुस": 7030,
      "चितौनियां": 7031,
      "खुदवा": 7032,
      "व्वा": 7033,
      "छांटकर": 7034,
      "पण्डित": 7035,
      "जांए": 7036,
      "जंजीर": 7037,
      "जंजीरों": 7038,
      "महललेल": 7039,
      "रचने": 7040,
      "मुकद्दमे": 7041,
      "मुकद्दमों": 7042,
      "मछिलयां": 7043,
      "प्रतिमाएं": 7044,
      "डोंगी": 7045,
      "तत्पर": 7046,
      "बुझाने": 7047,
      "चंचल": 7048,
      "पटुके": 7049,
      "पटुका": 7050,
      "जोखिमों": 7051,
      "गरजना": 7052,
      "बिगाड़ा": 7053,
      "अंगारों": 7054,
      "नथनों": 7055,
      "भाग्यवान": 7056,
      "सूझता": 7057,
      "मलिकिसिद": 7058,
      "मत्तित्याह": 7059,
      "रपाईम": 7060,
      "जायेगा": 7061,
      "सुधारो": 7062,
      "हिव्वियों": 7063,
      "हडि्डयां": 7064,
      "पिसगा": 7065,
      "बूटेदार": 7066,
      "मक्खन": 7067,
      "पाहुन": 7068,
      "अहंकार": 7069,
      "घूंघट": 7070,
      "झलका": 7071,
      "शकन्याह": 7072,
      "शलोमी": 7073,
      "सज्जन": 7074,
      "खर्च": 7075,
      "मीशाएल": 7076,
      "धनवानों": 7077,
      "बखान": 7078,
      "बिच्छुओं": 7079,
      "सारंगियां": 7080,
      "बरतनों": 7081,
      "फुनगी": 7082,
      "उण्डेला": 7083,
      "कमोश": 7084,
      "झंझरी": 7085,
      "नक्काशी": 7086,
      "मांझी": 7087,
      "चापलू": 7088,
      "गिल्गाल": 7089,
      "मरनहार": 7090,
      "प्पूह": 7091,
      "जलाशयों": 7092,
      "सहनशीलता": 7093,
      "थिस्सलु": 7094,
      "ओत्नीएल": 7095,
      "ठूंठ": 7096,
      "मगरमच्छ": 7097,
      "हाहाकार": 7098,
      "सहभागिता": 7099,
      "मलिकिसिदक": 7100,
      "ंका": 7101,
      "ंटी": 7102,
      "ंसक": 7103,
      "ंतों": 7104,
      "ंकुश": 7105,
      "अजे": 7106,
      "अधू": 7107,
      "अदन": 7108,
      "अण्डे": 7109,
      "अधमिर्यों": 7110,
      "अठवा": 7111,
      "आभू": 7112,
      "आटे": 7113,
      "आकान": 7114,
      "आसेल": 7115,
      "इफा": 7116,
      "इत्तै": 7117,
      "इलाज": 7118,
      "ईश्": 7119,
      "उपर": 7120,
      "उड़ाई": 7121,
      "उद्य": 7122,
      "ऊस": 7123,
      "ऊरीम": 7124,
      "एरे": 7125,
      "एतान": 7126,
      "एनो": 7127,
      "ओत": 7128,
      "ओनान": 7129,
      "कण": 7130,
      "कसी": 7131,
      "कटा": 7132,
      "कड़ाई": 7133,
      "कदमी": 7134,
      "खं": 7135,
      "गदे": 7136,
      "गशू": 7137,
      "गदोर": 7138,
      "घंटे": 7139,
      "चिर": 7140,
      "चचे": 7141,
      "छत्तीस": 7142,
      "जम": 7143,
      "जरह": 7144,
      "जकड़": 7145,
      "झण": 7146,
      "टटके": 7147,
      "डग": 7148,
      "ढपी": 7149,
      "ढलवा": 7150,
      "ढकना": 7151,
      "तमा": 7152,
      "तंग": 7153,
      "तप्पूह": 7154,
      "दक्ष": 7155,
      "दलायाह": 7156,
      "धरी": 7157,
      "नक": 7158,
      "नकल": 7159,
      "नब्बे": 7160,
      "पले": 7161,
      "फनुस": 7162,
      "बलों": 7163,
      "बंट": 7164,
      "बहाई": 7165,
      "भल": 7166,
      "भट्टी": 7167,
      "मक": 7168,
      "मद": 7169,
      "मशा": 7170,
      "मर्म": 7171,
      "मछु": 7172,
      "मस्सा": 7173,
      "यशी": 7174,
      "यन्त्र": 7175,
      "यशब": 7176,
      "यकोन्याह": 7177,
      "रने": 7178,
      "लहु": 7179,
      "लपेट": 7180,
      "शियों": 7181,
      "शबी": 7182,
      "सद": 7183,
      "सबा": 7184,
      "हता": 7185,
      "हती": 7186,
      "ैत": 7187,
      "केनी": 7188,
      "यामीन": 7189,
      "याकीन": 7190,
      "काटी": 7191,
      "काइफा": 7192,
      "हैल": 7193,
      "किलि": 7194,
      "किन्ने": 7195,
      "होओ": 7196,
      "परस्": 7197,
      "मेंढ़": 7198,
      "कीलों": 7199,
      "तालू": 7200,
      "ताकता": 7201,
      "तानाक": 7202,
      "हानी": 7203,
      "नाके": 7204,
      "नापा": 7205,
      "नाज़ी": 7206,
      "जाय": 7207,
      "जाके": 7208,
      "जानी": 7209,
      "जाड़ा": 7210,
      "राना": 7211,
      "तुर्": 7212,
      "तेली": 7213,
      "साहुल": 7214,
      "गाभि": 7215,
      "लेटा": 7216,
      "अपे": 7217,
      "मादी": 7218,
      "मायाह": 7219,
      "माओन": 7220,
      "र्गा": 7221,
      "हेस": 7222,
      "हेना": 7223,
      "लाठों": 7224,
      "पालता": 7225,
      "प्रिया": 7226,
      "बाड़ों": 7227,
      "बालियां": 7228,
      "यहोहानान": 7229,
      "थामे": 7230,
      "इसलिए": 7231,
      "दावा": 7232,
      "विकल": 7233,
      "तोला": 7234,
      "नीम": 7235,
      "वरदानों": 7236,
      "मुड़ा": 7237,
      "मुण्डे": 7238,
      "लोद": 7239,
      "लोतान": 7240,
      "पुल": 7241,
      "पुलि": 7242,
      "पुराना": 7243,
      "जिलाए": 7244,
      "तूबल": 7245,
      "सबो": 7246,
      "खारे": 7247,
      "सीखें": 7248,
      "सीढिय़ां": 7249,
      "मिनी": 7250,
      "लिवा": 7251,
      "म्मा": 7252,
      "मनमाने": 7253,
      "मनमाना": 7254,
      "कुरे": 7255,
      "कुचल": 7256,
      "कुप्": 7257,
      "कुमार्ग": 7258,
      "कुत्ता": 7259,
      "दीकिया": 7260,
      "दीशोन": 7261,
      "हिता": 7262,
      "तुम्हे": 7263,
      "ड़ेगा": 7264,
      "शार": 7265,
      "शासन": 7266,
      "सोन": 7267,
      "सोया": 7268,
      "सोको": 7269,
      "सोअन": 7270,
      "समू": 7271,
      "भेजो": 7272,
      "डांटे": 7273,
      "बीब": 7274,
      "बुक्की": 7275,
      "बेता": 7276,
      "बेड़े": 7277,
      "बेचे": 7278,
      "पूले": 7279,
      "रोकर": 7280,
      "मूत": 7281,
      "गीतों": 7282,
      "अनदेखी": 7283,
      "लगाएंगे": 7284,
      "चारपाई": 7285,
      "बिदा": 7286,
      "बिछाया": 7287,
      "बिगड़े": 7288,
      "वीर्य": 7289,
      "छाई": 7290,
      "छापा": 7291,
      "सिधाई": 7292,
      "येतेर": 7293,
      "येरेद": 7294,
      "जानवर": 7295,
      "भुईंडोल": 7296,
      "चित्": 7297,
      "चिकने": 7298,
      "राजपुत्र": 7299,
      "राजमुकुट": 7300,
      "राजकीय": 7301,
      "गिद्ध": 7302,
      "गिर्गा": 7303,
      "ढ़ाल": 7304,
      "हरवा": 7305,
      "पवित्रों": 7306,
      "योबाब": 7307,
      "आज्ञाकारी": 7308,
      "ल्हे": 7309,
      "बोक": 7310,
      "बोलेंगे": 7311,
      "आएंगी": 7312,
      "मारपीट": 7313,
      "पहुँ": 7314,
      "पहुंचो": 7315,
      "यरूशलेमियों": 7316,
      "कटवाया": 7317,
      "वैद्य": 7318,
      "दृश": 7319,
      "सौतेली": 7320,
      "कूड़ा": 7321,
      "पांतियों": 7322,
      "बूढ़ी": 7323,
      "द्रव": 7324,
      "द्रह": 7325,
      "लौदीकिया": 7326,
      "शुद्धता": 7327,
      "क्रम": 7328,
      "उपजा": 7329,
      "उपजाया": 7330,
      "चौवन": 7331,
      "गोब": 7332,
      "गोबर": 7333,
      "सुनाना": 7334,
      "सूरज": 7335,
      "आंच": 7336,
      "पेल": 7337,
      "आत्माएं": 7338,
      "एलत": 7339,
      "एलनातान": 7340,
      "सम्पति": 7341,
      "सम्मत्ति": 7342,
      "सिर्यों": 7343,
      "छुट्टी": 7344,
      "बनता": 7345,
      "बालबच्चों": 7346,
      "छिपाया": 7347,
      "निर्बलों": 7348,
      "दिखाकर": 7349,
      "इकट्ट": 7350,
      "बढ़ई": 7351,
      "प्रधानता": 7352,
      "पर्ष": 7353,
      "ट्टे": 7354,
      "समाया": 7355,
      "चढ़ते": 7356,
      "चाहेगा": 7357,
      "सकेत": 7358,
      "भेड़शा": 7359,
      "प्रेमियों": 7360,
      "ंगार": 7361,
      "गोत्रें": 7362,
      "मारेंगे": 7363,
      "प्रतिज्ञाएं": 7364,
      "भेंटों": 7365,
      "स्वामिनी": 7366,
      "एलीएजेर": 7367,
      "सामरी": 7368,
      "सामहने": 7369,
      "सामग्री": 7370,
      "तेलह": 7371,
      "धरता": 7372,
      "ढाई": 7373,
      "बोलती": 7374,
      "बोलूंगा": 7375,
      "बदनाम": 7376,
      "बदनामी": 7377,
      "गिरके": 7378,
      "सहस्त्र": 7379,
      "कराहना": 7380,
      "फैसला": 7381,
      "कबरों": 7382,
      "पूर्वक": 7383,
      "पहली": 7384,
      "मृग": 7385,
      "छूटेगा": 7386,
      "विश्रामस्थान": 7387,
      "पौरूष": 7388,
      "लताड़ा": 7389,
      "अबीशू": 7390,
      "अबीएजेर": 7391,
      "टिकिया": 7392,
      "टिकने": 7393,
      "मूर्तियों": 7394,
      "अनारों": 7395,
      "बहत्तर": 7396,
      "बनवाएगा": 7397,
      "पड़ीं": 7398,
      "बैठाऊंगा": 7399,
      "भरोसे": 7400,
      "निकास": 7401,
      "उतरता": 7402,
      "काटता": 7403,
      "निकलेंगी": 7404,
      "पंजे": 7405,
      "पंद्रह": 7406,
      "चूना": 7407,
      "पूछपाछ": 7408,
      "बचता": 7409,
      "लंगर": 7410,
      "जूते": 7411,
      "मानोगे": 7412,
      "गड़बड़ी": 7413,
      "पहुंचती": 7414,
      "व्यभिचारियों": 7415,
      "निमित": 7416,
      "टूटने": 7417,
      "नोच": 7418,
      "नोप": 7419,
      "पालने": 7420,
      "पैठा": 7421,
      "बहिरे": 7422,
      "लूटकर": 7423,
      "अंकुर": 7424,
      "पहिनेंगे": 7425,
      "मरोड़": 7426,
      "सिंहासनों": 7427,
      "घबराता": 7428,
      "विलापगीत": 7429,
      "चुकें": 7430,
      "पूर्वी": 7431,
      "प्रकाशमान": 7432,
      "चराता": 7433,
      "भड़काता": 7434,
      "फूलते": 7435,
      "दुखदाई": 7436,
      "फिराने": 7437,
      "ठट्ठे": 7438,
      "जुत": 7439,
      "जुओं": 7440,
      "मणियों": 7441,
      "भाषाओं": 7442,
      "विराजे": 7443,
      "घटता": 7444,
      "बान्धेगा": 7445,
      "छीनकर": 7446,
      "बटखरे": 7447,
      "पकड़ेंगे": 7448,
      "मनाने": 7449,
      "दबाए": 7450,
      "घूमने": 7451,
      "कुंवार": 7452,
      "अरब": 7453,
      "बेतशान": 7454,
      "रखीं": 7455,
      "थरथराहट": 7456,
      "सरीखा": 7457,
      "अगुवा": 7458,
      "मापने": 7459,
      "मापकर": 7460,
      "समझें": 7461,
      "वेश्याओं": 7462,
      "छुड़ौती": 7463,
      "गूंगे": 7464,
      "ढांपने": 7465,
      "फेरा": 7466,
      "झोंका": 7467,
      "निरंकुश": 7468,
      "जबूलूनियों": 7469,
      "मिस्पे": 7470,
      "यबूस": 7471,
      "जांचने": 7472,
      "बरसाया": 7473,
      "पदायाह": 7474,
      "मल्कियाह": 7475,
      "कबूतरों": 7476,
      "ओढ़ने": 7477,
      "घटाओं": 7478,
      "अंगूठों": 7479,
      "किर्यतर्बा": 7480,
      "सेंध": 7481,
      "उतरी": 7482,
      "फंदे": 7483,
      "बिगाड़ने": 7484,
      "सांपों": 7485,
      "ढूंढने": 7486,
      "गूंथ": 7487,
      "पोंछ": 7488,
      "खूंटे": 7489,
      "लौंडियों": 7490,
      "बांजवृझ": 7491,
      "करवाने": 7492,
      "प्पीम": 7493,
      "बस्तियां": 7494,
      "मचाते": 7495,
      "बढ़ेंगे": 7496,
      "बहकाने": 7497,
      "बहकाया": 7498,
      "बकवादी": 7499,
      "फीरो": 7500,
      "शबन्याह": 7501,
      "जिलाएगा": 7502,
      "नाचते": 7503,
      "रचना": 7504,
      "बेगार": 7505,
      "बैतसैदा": 7506,
      "शीशक": 7507,
      "उण्डेलूंगा": 7508,
      "पेलेग": 7509,
      "फंसेगा": 7510,
      "डूबा": 7511,
      "लाठियां": 7512,
      "दांवने": 7513,
      "मुरझा": 7514,
      "खींचे": 7515,
      "मूंह": 7516,
      "संयमी": 7517,
      "झगड़ते": 7518,
      "बावले": 7519,
      "कुल्हाड़ी": 7520,
      "भूतसिद्धि": 7521,
      "बुड़बुड़ाते": 7522,
      "सीदोनी": 7523,
      "अंगारे": 7524,
      "जिल्पा": 7525,
      "मलिन": 7526,
      "सन्ध्या": 7527,
      "्योनगेबेर": 7528,
      "हिव्वी": 7529,
      "गिलट": 7530,
      "गिलबो": 7531,
      "हृष्टपुष्ट": 7532,
      "कुड़कुड़ाने": 7533,
      "अक्कूब": 7534,
      "धड़क": 7535,
      "रपाइयों": 7536,
      "पन्थ": 7537,
      "लिपटे": 7538,
      "बेथोरोन": 7539,
      "सरकण्डे": 7540,
      "यर्मूत": 7541,
      "पंहुच": 7542,
      "सिप्पोर": 7543,
      "अंधेर": 7544,
      "अक्षरों": 7545,
      "यब्बोक": 7546,
      "शूनेमिन": 7547,
      "झुंझला": 7548,
      "फुलके": 7549,
      "अखया": 7550,
      "ताओल": 7551,
      "कुम्हला": 7552,
      "उन्नीस": 7553,
      "फुंकवा": 7554,
      "अटकल": 7555,
      "अर्योक": 7556,
      "जक्कूर": 7557,
      "झरोखे": 7558,
      "नहेमायाह": 7559,
      "लपेटा": 7560,
      "त्म्य": 7561,
      "मिकमाश": 7562,
      "कुप्रुस": 7563,
      "कुरिन्": 7564,
      "बुझेगी": 7565,
      "मल्लूक": 7566,
      "चापलूसी": 7567,
      "अजेका": 7568,
      "एनोश": 7569,
      "कण्ठ": 7570,
      "कदमीएल": 7571,
      "जरह्याह": 7572,
      "किलिकिया": 7573,
      "किन्नेरेत": 7574,
      "परस्पर": 7575,
      "नाज़ीर": 7576,
      "गाभिन": 7577,
      "पुलिस": 7578,
      "ंए": 7579,
      "ंपी": 7580,
      "ंजीव": 7581,
      "अध": 7582,
      "अस": 7583,
      "अजा": 7584,
      "अगर": 7585,
      "अद्र": 7586,
      "अभक्ति": 7587,
      "अगम": 7588,
      "आध": 7589,
      "आपत्ति": 7590,
      "इकु": 7591,
      "इंड": 7592,
      "ईडोल": 7593,
      "उम": 7594,
      "उछा": 7595,
      "उबल": 7596,
      "उबार": 7597,
      "उदया": 7598,
      "एग": 7599,
      "एसे": 7600,
      "एले": 7601,
      "एश्": 7602,
      "एद्र": 7603,
      "ऐं": 7604,
      "ओक": 7605,
      "ओछे": 7606,
      "ओमेर": 7607,
      "ओझों": 7608,
      "ओरेब": 7609,
      "औंधे": 7610,
      "कतरा": 7611,
      "गज": 7612,
      "गतों": 7613,
      "गयुस": 7614,
      "घमंड": 7615,
      "चख": 7616,
      "चरे": 7617,
      "च्य": 7618,
      "चखे": 7619,
      "चपड़": 7620,
      "छक": 7621,
      "छड़ें": 7622,
      "जकड़ा": 7623,
      "टकट": 7624,
      "डियों": 7625,
      "डोर": 7626,
      "ढाए": 7627,
      "ढोर": 7628,
      "तली": 7629,
      "तकिया": 7630,
      "तईं": 7631,
      "तन्दूर": 7632,
      "थुस": 7633,
      "दस्ता": 7634,
      "धों": 7635,
      "नहा": 7636,
      "नहर": 7637,
      "नतन": 7638,
      "नकेल": 7639,
      "पला": 7640,
      "पढ़े": 7641,
      "पट्टी": 7642,
      "फलेगा": 7643,
      "बसो": 7644,
      "बजाएंगे": 7645,
      "बटु": 7646,
      "भट्ठी": 7647,
      "मं": 7648,
      "मर्": 7649,
      "मती": 7650,
      "मौन": 7651,
      "मग्": 7652,
      "मशाल": 7653,
      "यरे": 7654,
      "यदीएल": 7655,
      "लदे": 7656,
      "लट्ठा": 7657,
      "ष्य": 7658,
      "समे": 7659,
      "सया": 7660,
      "सहा": 7661,
      "सूं": 7662,
      "सहम": 7663,
      "सत्त": 7664,
      "सजाकर": 7665,
      "सड़ाहट": 7666,
      "सदृश": 7667,
      "हस्": 7668,
      "हश्": 7669,
      "हम्": 7670,
      "हरो": 7671,
      "हवी": 7672,
      "हग्": 7673,
      "हम्म": 7674,
      "ूर": 7675,
      "ेई": 7676,
      "ैलू": 7677,
      "ोनी": 7678,
      "्मेल": 7679,
      "।।": 7680,
      "केनियों": 7681,
      "नेल": 7682,
      "सेप": 7683,
      "सेब": 7684,
      "सेंगे": 7685,
      "सेरोत": 7686,
      "याद": 7687,
      "यारों": 7688,
      "यावान": 7689,
      "कात": 7690,
      "काने": 7691,
      "कालों": 7692,
      "कांच": 7693,
      "काटेगा": 7694,
      "कोच": 7695,
      "कोट": 7696,
      "कोय": 7697,
      "कोष": 7698,
      "कोरे": 7699,
      "कोड़ों": 7700,
      "किला": 7701,
      "कित्तियों": 7702,
      "किर्या": 7703,
      "वालियों": 7704,
      "होसा": 7705,
      "होऊं": 7706,
      "होऊंगा": 7707,
      "होठों": 7708,
      "होशाना": 7709,
      "परखो": 7710,
      "ताया": 7711,
      "ताना": 7712,
      "ताड़": 7713,
      "ताचल": 7714,
      "न्नान": 7715,
      "हारियों": 7716,
      "नाती": 7717,
      "नावों": 7718,
      "जागृ": 7719,
      "रापा": 7720,
      "रातों": 7721,
      "रानियों": 7722,
      "राशि": 7723,
      "तेमानी": 7724,
      "रेल": 7725,
      "साही": 7726,
      "्यता": 7727,
      "गाती": 7728,
      "गाड़े": 7729,
      "गामी": 7730,
      "गाएं": 7731,
      "गामियों": 7732,
      "लेटी": 7733,
      "लेसाई": 7734,
      "अपक्की": 7735,
      "माम": 7736,
      "मालि": 7737,
      "मांश": 7738,
      "माम्रे": 7739,
      "र्दु": 7740,
      "दिलाता": 7741,
      "लाली": 7742,
      "लागे": 7743,
      "स्पा": 7744,
      "प्रण": 7745,
      "प्रसंग": 7746,
      "बासम": 7747,
      "दाढ़ी": 7748,
      "दांतों": 7749,
      "विचारों": 7750,
      "विजय": 7751,
      "विभव": 7752,
      "चाँ": 7753,
      "चाहो": 7754,
      "चाही": 7755,
      "तोर": 7756,
      "नीकु": 7757,
      "नीची": 7758,
      "यहजीएल": 7759,
      "मुँ": 7760,
      "मुड़ना": 7761,
      "लोहार": 7762,
      "पुजा": 7763,
      "पुष्": 7764,
      "निरी": 7765,
      "निहार": 7766,
      "निशान": 7767,
      "निन्नान": 7768,
      "त्से": 7769,
      "त्कारी": 7770,
      "जियाह": 7771,
      "तिया": 7772,
      "तिशबी": 7773,
      "एकत्र": 7774,
      "खारा": 7775,
      "मिब": 7776,
      "मिश": 7777,
      "मिया": 7778,
      "मियान": 7779,
      "मिटेंगे": 7780,
      "सुनाम": 7781,
      "लिऐ": 7782,
      "लिब्नी": 7783,
      "कुसिर्यों": 7784,
      "फिरके": 7785,
      "रहब्याह": 7786,
      "दियास": 7787,
      "हिलाया": 7788,
      "दोल": 7789,
      "दोधारी": 7790,
      "शामी": 7791,
      "करेतियों": 7792,
      "शुतुर्": 7793,
      "देखभाल": 7794,
      "पीसने": 7795,
      "पीटेंगे": 7796,
      "बुद्ध": 7797,
      "बेधा": 7798,
      "बेबै": 7799,
      "बेड़ों": 7800,
      "बेजे": 7801,
      "बेरोत": 7802,
      "रोगा": 7803,
      "रोगे": 7804,
      "रोकने": 7805,
      "रोकेगा": 7806,
      "पिरा": 7807,
      "पितर": 7808,
      "मूठ": 7809,
      "मूत्": 7810,
      "च्छि": 7811,
      "गीहोन": 7812,
      "गींय": 7813,
      "लगाती": 7814,
      "लगाईं": 7815,
      "जीता": 7816,
      "जीएंगे": 7817,
      "मीएल": 7818,
      "मीठे": 7819,
      "ऊंटक": 7820,
      "ऊंटो": 7821,
      "छार": 7822,
      "छाड़": 7823,
      "छातियों": 7824,
      "सिरा": 7825,
      "सिक्": 7826,
      "सिझा": 7827,
      "वनपशुओं": 7828,
      "बनाती": 7829,
      "ज्ञात": 7830,
      "ज्ञानियों": 7831,
      "भुइंड": 7832,
      "बहुमोल": 7833,
      "ऐसावियों": 7834,
      "अनुकरण": 7835,
      "चिम": 7836,
      "चिल्": 7837,
      "चिडिय़ों": 7838,
      "राजवंश": 7839,
      "राजभवनों": 7840,
      "प्रभुओं": 7841,
      "गिब्ब": 7842,
      "ण्डी": 7843,
      "मोर": 7844,
      "मोसा": 7845,
      "मोती": 7846,
      "पहिया": 7847,
      "पहिलों": 7848,
      "छोरों": 7849,
      "ल्लू": 7850,
      "अपनाया": 7851,
      "याजन्याह": 7852,
      "बलिपशु": 7853,
      "बोई": 7854,
      "बोए": 7855,
      "बोलें": 7856,
      "चलवा": 7857,
      "घरैलू": 7858,
      "ईंट": 7859,
      "भूला": 7860,
      "जलकर": 7861,
      "न्दर": 7862,
      "न्दों": 7863,
      "वैं": 7864,
      "जननी": 7865,
      "प्नी": 7866,
      "भरना": 7867,
      "भरपूरी": 7868,
      "कूदने": 7869,
      "पड़ेंगी": 7870,
      "पांए": 7871,
      "लौलीन": 7872,
      "खोदने": 7873,
      "ब्बा": 7874,
      "शूआल": 7875,
      "चलाना": 7876,
      "चलाएगा": 7877,
      "उपजे": 7878,
      "गोमेर": 7879,
      "सुनाकर": 7880,
      "सुनाएं": 7881,
      "सुनाएगा": 7882,
      "होनेवाला": 7883,
      "सूपा": 7884,
      "सूरी": 7885,
      "सूनी": 7886,
      "ऊपरी": 7887,
      "समझी": 7888,
      "समझूं": 7889,
      "समझदारों": 7890,
      "लड़कियां": 7891,
      "पेरा": 7892,
      "पेला": 7893,
      "पहुंचाना": 7894,
      "एल्यो": 7895,
      "दुर्ग": 7896,
      "सम्मान": 7897,
      "सम्भाले": 7898,
      "बैठता": 7899,
      "बैठती": 7900,
      "सिरका": 7901,
      "सिरजा": 7902,
      "लगूं": 7903,
      "लगूंगा": 7904,
      "प्राणप्रिय": 7905,
      "भिगो": 7906,
      "छुआ": 7907,
      "छुए": 7908,
      "बनना": 7909,
      "मिलावट": 7910,
      "धुएं": 7911,
      "महान्": 7912,
      "महाशब्द": 7913,
      "छिद": 7914,
      "युवा": 7915,
      "निर्भय": 7916,
      "निर्लज्": 7917,
      "निर्वाह": 7918,
      "दिखाओ": 7919,
      "जेब": 7920,
      "गुणी": 7921,
      "संयोग": 7922,
      "संकोच": 7923,
      "समाता": 7924,
      "बचाओ": 7925,
      "डरूंगा": 7926,
      "बताना": 7927,
      "बताएं": 7928,
      "बताओगे": 7929,
      "लैश": 7930,
      "पथों": 7931,
      "शब्दों": 7932,
      "ियाँ": 7933,
      "लुस्त्रा": 7934,
      "लुच्चे": 7935,
      "उद्धारकर्त्ता": 7936,
      "खिलाया": 7937,
      "खिलाता": 7938,
      "खिलाऊंगा": 7939,
      "पुरुषार्थ": 7940,
      "भोंक": 7941,
      "एलीम": 7942,
      "एलीमेलेक": 7943,
      "रखेगी": 7944,
      "तैंतीस": 7945,
      "होमवेदी": 7946,
      "महिमायुक्त": 7947,
      "ढाला": 7948,
      "भेजते": 7949,
      "हटता": 7950,
      "हटाए": 7951,
      "अन्तडिय़ां": 7952,
      "फिस": 7953,
      "जगहों": 7954,
      "चिन्हानी": 7955,
      "पहाड़ो": 7956,
      "फूलो": 7957,
      "परिणाम": 7958,
      "खुरों": 7959,
      "चरने": 7960,
      "मन्दिरों": 7961,
      "हलकी": 7962,
      "पुस्त": 7963,
      "बन्दर": 7964,
      "छूना": 7965,
      "छूछी": 7966,
      "सुनोगे": 7967,
      "बुलाएगा": 7968,
      "धन्यवादबलि": 7969,
      "धूपदानों": 7970,
      "अबीहैल": 7971,
      "बराबरी": 7972,
      "भड़केगा": 7973,
      "स्वगींय": 7974,
      "चिल्लाता": 7975,
      "श्रम": 7976,
      "श्री": 7977,
      "प्रचारक": 7978,
      "गिराऊंगा": 7979,
      "चुकाओ": 7980,
      "बन्धुवाई": 7981,
      "चमके": 7982,
      "सियाने": 7983,
      "लिखूंगा": 7984,
      "कसकर": 7985,
      "कोठे": 7986,
      "बसाएगा": 7987,
      "कनात": 7988,
      "पैसे": 7989,
      "पैबन्द": 7990,
      "पैदल": 7991,
      "बहिनें": 7992,
      "ग्रहणयोग्य": 7993,
      "अंगु": 7994,
      "अंधिया": 7995,
      "अजमावेत": 7996,
      "अजरेल": 7997,
      "घमण्डी": 7998,
      "घमण्डियों": 7999,
      "सुगन्धवाला": 8000,
      "पहुंचेगी": 8001,
      "बर्छे": 8002,
      "महत्व": 8003,
      "घबराना": 8004,
      "ज्योतिषी": 8005,
      "भूलना": 8006,
      "भावता": 8007,
      "बलवानों": 8008,
      "त्यागपत्र": 8009,
      "जड़ने": 8010,
      "चराते": 8011,
      "बहाते": 8012,
      "सींगो": 8013,
      "कब्रें": 8014,
      "गलतिया": 8015,
      "मिलीं": 8016,
      "रखोगे": 8017,
      "आदरमान": 8018,
      "उलटी": 8019,
      "उलटे": 8020,
      "जुड़े": 8021,
      "प्रेरणा": 8022,
      "झगड़ों": 8023,
      "क्रूसों": 8024,
      "सराय": 8025,
      "गिनने": 8026,
      "गिनता": 8027,
      "अकेली": 8028,
      "गहिरी": 8029,
      "हेब्रोनियों": 8030,
      "उड़ती": 8031,
      "जागता": 8032,
      "कुटकियां": 8033,
      "अमासै": 8034,
      "उड़ाने": 8035,
      "चिताए": 8036,
      "यरीमोत": 8037,
      "बापदादों": 8038,
      "मोर्चा": 8039,
      "तख्ता": 8040,
      "तख्तियां": 8041,
      "घेरने": 8042,
      "डोरियों": 8043,
      "कांपती": 8044,
      "कुंए": 8045,
      "कुंजी": 8046,
      "अरबी": 8047,
      "धाराओं": 8048,
      "फाड़ने": 8049,
      "फिरेगा": 8050,
      "कमिर्यों": 8051,
      "दीवटों": 8052,
      "बदलकर": 8053,
      "उजली": 8054,
      "पाताल": 8055,
      "मिटाया": 8056,
      "लालसाओं": 8057,
      "मुड़ते": 8058,
      "भागेंगे": 8059,
      "समझेगा": 8060,
      "जताए": 8061,
      "जताया": 8062,
      "जबूल": 8063,
      "हेरोदियास": 8064,
      "गूलर": 8065,
      "गाड़ने": 8066,
      "कल्पनाओं": 8067,
      "आलस": 8068,
      "अस्ताचल": 8069,
      "सोंटा": 8070,
      "छोड़ेंगे": 8071,
      "नप्तालियों": 8072,
      "छूटकर": 8073,
      "झगड़ालू": 8074,
      "झोंक": 8075,
      "उठीं": 8076,
      "वंशाव": 8077,
      "ललकारे": 8078,
      "बरसाएगा": 8079,
      "ग्यारहों": 8080,
      "आशेरियों": 8081,
      "मल्की": 8082,
      "अम्मीएल": 8083,
      "लड़ें": 8084,
      "जनेगी": 8085,
      "बन्धाया": 8086,
      "तहपन्": 8087,
      "ओढ़नी": 8088,
      "ठहरीं": 8089,
      "इस्साकारियों": 8090,
      "एल्यासाप": 8091,
      "फ़ा": 8092,
      "फ़र्श": 8093,
      "जोड़ने": 8094,
      "भुजाओं": 8095,
      "पहरुआ": 8096,
      "डीह": 8097,
      "बूझकर": 8098,
      "असायाह": 8099,
      "उंगलियां": 8100,
      "चौबीसवें": 8101,
      "नहत": 8102,
      "बिताई": 8103,
      "बिगाड़ते": 8104,
      "तड़प": 8105,
      "कुंवारीपन": 8106,
      "सरूग": 8107,
      "रौंदेगा": 8108,
      "रौंदने": 8109,
      "गूंथे": 8110,
      "गूंधा": 8111,
      "पीसते": 8112,
      "तिर्यों": 8113,
      "घुसकर": 8114,
      "पिलाती": 8115,
      "दर्क": 8116,
      "दर्पण": 8117,
      "बस्ती": 8118,
      "कुरते": 8119,
      "कुड़कुड़": 8120,
      "खुदवाई": 8121,
      "कनजी": 8122,
      "धराकर": 8123,
      "छिलके": 8124,
      "पतली": 8125,
      "पल्लू": 8126,
      "मन्त्रियों": 8127,
      "सिकन्दर": 8128,
      "दुल्हे": 8129,
      "नाचती": 8130,
      "सामरियों": 8131,
      "चमकती": 8132,
      "झोली": 8133,
      "रनवास": 8134,
      "शम्मै": 8135,
      "डूबने": 8136,
      "बलात्कारी": 8137,
      "त्रोआस": 8138,
      "छियासठ": 8139,
      "खींची": 8140,
      "पिलानेहारों": 8141,
      "सौंपेंगे": 8142,
      "झिलमिली": 8143,
      "नमूने": 8144,
      "लादकर": 8145,
      "गीदड़": 8146,
      "बिगाड़ना": 8147,
      "गुर्दे": 8148,
      "बुड़बुड़ाना": 8149,
      "किरयां": 8150,
      "परोश": 8151,
      "कीचड़": 8152,
      "स्रापित": 8153,
      "अश्शूरियों": 8154,
      "अड़तीस": 8155,
      "एशताओल": 8156,
      "डगमगा": 8157,
      "सन्धि": 8158,
      "अक्विला": 8159,
      "रपायाह": 8160,
      "हडि्डयों": 8161,
      "मक्खियों": 8162,
      "होदिय्याह": 8163,
      "लिपटी": 8164,
      "बीचोंबीच": 8165,
      "कचहरी": 8166,
      "नपुए": 8167,
      "मरूभूमि": 8168,
      "सत्ताईस": 8169,
      "ओहोलीबामा": 8170,
      "एबेदमेलेक": 8171,
      "अकबोर": 8172,
      "कतरने": 8173,
      "तल्मै": 8174,
      "मल्लाह": 8175,
      "सहेलियों": 8176,
      "गरजेगा": 8177,
      "चित्तीवाले": 8178,
      "खलड़ी": 8179,
      "चन्दुले": 8180,
      "यरह्मेल": 8181,
      "हवनों": 8182,
      "अनादिकाल": 8183,
      "टटोलते": 8184,
      "अरीएल": 8185,
      "डांसों": 8186,
      "योक्तान": 8187,
      "फावडिय़ों": 8188,
      "अज्रीकाम": 8189,
      "अराधनालय": 8190,
      "एनगदी": 8191,
      "धुंधली": 8192,
      "एस्योनगेबेर": 8193,
      "औषधि": 8194,
      "पचहत्तर": 8195,
      "मतूशेलह": 8196,
      "यहावा": 8197,
      "वरीय": 8198,
      "किशमिश": 8199,
      "फिलिप्पी": 8200,
      "सहचरियों": 8201,
      "थिस्सलुनीके": 8202,
      "ईश्वरीय": 8203,
      "उद्यम": 8204,
      "एरेकी": 8205,
      "चिरंजीव": 8206,
      "तमाशा": 8207,
      "मकपेला": 8208,
      "यशीमोन": 8209,
      "पुलट": 8210,
      "कुरेनी": 8211,
      "बेतावेन": 8212,
      "चित्कब": 8213,
      "कुंवारियां": 8214,
      "कुरिन्थुस": 8215,
      "उदयाचल": 8216,
      "एद्रेई": 8217,
      "टकटकी": 8218,
      "दस्तावे": 8219,
      "नतनएल": 8220,
      "सहमत": 8221,
      "हवीला": 8222,
      "किर्यातैम": 8223,
      "जागृत": 8224,
      "बासमत": 8225,
      "पुष्प": 8226,
      "निन्नानवे": 8227,
      "शामीर": 8228,
      "बेजेक": 8229,
      "ऊंटकटा": 8230,
      "भुइंडोल": 8231,
      "चिल्लाया": 8232,
      "गिब्बतोन": 8233,
      "एल्योएनै": 8234,
      "तहपन्हेस": 8235,
      "ंचा": 8236,
      "अल": 8237,
      "अने": 8238,
      "अरे": 8239,
      "अथे": 8240,
      "अरो": 8241,
      "अधी": 8242,
      "अंति": 8243,
      "अशुभ": 8244,
      "अकसा": 8245,
      "अमरता": 8246,
      "आर्": 8247,
      "आये": 8248,
      "आशि": 8249,
      "आबीब": 8250,
      "इप": 8251,
      "इता": 8252,
      "ईधन": 8253,
      "उगाऊंगा": 8254,
      "उमंग": 8255,
      "उल्लू": 8256,
      "एन्": 8257,
      "एदेर": 8258,
      "एसेर": 8259,
      "एशत": 8260,
      "ऐन": 8261,
      "कदो": 8262,
      "कसो": 8263,
      "कच्": 8264,
      "खर": 8265,
      "खौ": 8266,
      "खली": 8267,
      "ख्या": 8268,
      "खड्ड": 8269,
      "गड़ी": 8270,
      "गढ़ा": 8271,
      "गंद": 8272,
      "घड़ों": 8273,
      "चहु": 8274,
      "चचा": 8275,
      "चरि": 8276,
      "चन्दे": 8277,
      "चन्दन": 8278,
      "छज्": 8279,
      "छप्": 8280,
      "छतों": 8281,
      "जहा": 8282,
      "जगाया": 8283,
      "झड़ी": 8284,
      "टोन": 8285,
      "ढब": 8286,
      "तरे": 8287,
      "तपन": 8288,
      "तंत्र": 8289,
      "थों": 8290,
      "दद": 8291,
      "दवा": 8292,
      "द्यों": 8293,
      "दंगा": 8294,
      "धरें": 8295,
      "धक्का": 8296,
      "धन्धा": 8297,
      "नबिया": 8298,
      "नसें": 8299,
      "पने": 8300,
      "पिर": 8301,
      "पली": 8302,
      "पसार": 8303,
      "पदास": 8304,
      "पष्ट": 8305,
      "पट्ट": 8306,
      "फौ": 8307,
      "फों": 8308,
      "फ्र": 8309,
      "फलो": 8310,
      "फलियां": 8311,
      "फटके": 8312,
      "फहरा": 8313,
      "बमा": 8314,
      "बकता": 8315,
      "बवं": 8316,
      "भगो": 8317,
      "मने": 8318,
      "महो": 8319,
      "मजी": 8320,
      "मजन": 8321,
      "मंगा": 8322,
      "मत्ती": 8323,
      "यथा": 8324,
      "यद्द": 8325,
      "रसी": 8326,
      "रपी": 8327,
      "रची": 8328,
      "लही": 8329,
      "लजाएगा": 8330,
      "लजाता": 8331,
      "लटक": 8332,
      "लटें": 8333,
      "वो": 8334,
      "शग": 8335,
      "शदे": 8336,
      "शकु": 8337,
      "शलू": 8338,
      "शपान": 8339,
      "हस": 8340,
      "हमे": 8341,
      "हड़": 8342,
      "हक्": 8343,
      "हल्ला": 8344,
      "हताक": 8345,
      "हक्को": 8346,
      "हस्ता": 8347,
      "हत्तू": 8348,
      "िप": 8349,
      "िस": 8350,
      "िति": 8351,
      "िताई": 8352,
      "ुफनुस": 8353,
      "ूँ": 8354,
      "ूई": 8355,
      "ोत": 8356,
      "केत": 8357,
      "नेवाला": 8358,
      "नेवत": 8359,
      "मेली": 8360,
      "यापी": 8361,
      "यावेश": 8362,
      "याकीम": 8363,
      "यासोन": 8364,
      "करों": 8365,
      "कराएगा": 8366,
      "काजी": 8367,
      "काटेंगे": 8368,
      "किलों": 8369,
      "किरि": 8370,
      "किब्र": 8371,
      "वाएगा": 8372,
      "होके": 8373,
      "होप्नी": 8374,
      "परसों": 8375,
      "परपोतों": 8376,
      "तां": 8377,
      "ताजा": 8378,
      "ताले": 8379,
      "ताला": 8380,
      "हात": 8381,
      "हामा": 8382,
      "हात्म्य": 8383,
      "नाद": 8384,
      "नाल": 8385,
      "नारा": 8386,
      "नागद": 8387,
      "जानों": 8388,
      "जालों": 8389,
      "जालियों": 8390,
      "जामिन": 8391,
      "राल": 8392,
      "रायाह": 8393,
      "रास्ता": 8394,
      "तुखि": 8395,
      "ियें": 8396,
      "तेमा": 8397,
      "ड़वा": 8398,
      "रेका": 8399,
      "रेघा": 8400,
      "रेकेम": 8401,
      "गार": 8402,
      "गाड़ा": 8403,
      "गाएंगे": 8404,
      "हीरा": 8405,
      "देवा": 8406,
      "देमुस": 8407,
      "लेपा": 8408,
      "लेमी": 8409,
      "लेमेत": 8410,
      "अपवाद": 8411,
      "मामा": 8412,
      "माला": 8413,
      "मांसा": 8414,
      "माहात्म्य": 8415,
      "र्तों": 8416,
      "र्लाओ": 8417,
      "जोड़ों": 8418,
      "हेंगे": 8419,
      "हेल्": 8420,
      "हेलोन": 8421,
      "मैने": 8422,
      "लात": 8423,
      "लाहे": 8424,
      "लादा": 8425,
      "लाचार": 8426,
      "स्तन": 8427,
      "स्पष्ट": 8428,
      "पाम": 8429,
      "पासे": 8430,
      "उनसे": 8431,
      "प्रत्यु": 8432,
      "बायां": 8433,
      "बाजू": 8434,
      "बाजुओं": 8435,
      "रीली": 8436,
      "रीतों": 8437,
      "थाल": 8438,
      "थामें": 8439,
      "दारी": 8440,
      "दादा": 8441,
      "विमुख": 8442,
      "विदेशी": 8443,
      "वेष": 8444,
      "क्ता": 8445,
      "तोई": 8446,
      "तोह": 8447,
      "तोडूंगा": 8448,
      "यहस": 8449,
      "ंगु": 8450,
      "मुहाने": 8451,
      "लोज": 8452,
      "पुतली": 8453,
      "निन्दित": 8454,
      "निचली": 8455,
      "त्‌": 8456,
      "त्तान": 8457,
      "जिम्मा": 8458,
      "तूत": 8459,
      "तूर": 8460,
      "द्दोन": 8461,
      "द्वेष": 8462,
      "कहानियों": 8463,
      "खाती": 8464,
      "खाईं": 8465,
      "खांए": 8466,
      "सीएल": 8467,
      "सुध": 8468,
      "सुन्न": 8469,
      "सुफल": 8470,
      "ढ़ो": 8471,
      "म्मेलेक": 8472,
      "मनोर": 8473,
      "कुकमिर्यों": 8474,
      "भाया": 8475,
      "भालू": 8476,
      "दीम": 8477,
      "दीशान": 8478,
      "राजाधिराज": 8479,
      "हिलाकर": 8480,
      "दोनी": 8481,
      "दोदो": 8482,
      "दोएग": 8483,
      "तुम्मीम": 8484,
      "पुत्रहीन": 8485,
      "ओंठ": 8486,
      "गेगा": 8487,
      "शांत": 8488,
      "शाखाएं": 8489,
      "मानु": 8490,
      "दूदा": 8491,
      "दूंगी": 8492,
      "दूल्हे": 8493,
      "पीऊंगा": 8494,
      "समचार": 8495,
      "समथर": 8496,
      "समवाऊंगा": 8497,
      "डाढ़ी": 8498,
      "ज्जी": 8499,
      "तरंगों": 8500,
      "बीती": 8501,
      "बुन": 8502,
      "बेत्": 8503,
      "बेरोती": 8504,
      "बेकेर": 8505,
      "हांसन": 8506,
      "पूत": 8507,
      "पूलियों": 8508,
      "पूजने": 8509,
      "रोएंगे": 8510,
      "कामकाजी": 8511,
      "अनहोना": 8512,
      "अनगिन": 8513,
      "न्धे": 8514,
      "लगाऊं": 8515,
      "जीब": 8516,
      "गरजा": 8517,
      "बिच": 8518,
      "बिन्न": 8519,
      "बिकने": 8520,
      "बिसरा": 8521,
      "निकलो": 8522,
      "अर्गोब": 8523,
      "सिल्ला": 8524,
      "सितार": 8525,
      "सिबोन": 8526,
      "सिक्के": 8527,
      "सिंगार": 8528,
      "सिबमा": 8529,
      "सिहांसन": 8530,
      "जानतीं": 8531,
      "सुनह": 8532,
      "अनुवाद": 8533,
      "राजों": 8534,
      "राजमाता": 8535,
      "राजमन्दिर": 8536,
      "अबिय्या": 8537,
      "गिरें": 8538,
      "गिदोनी": 8539,
      "क्षर": 8540,
      "मरकत": 8541,
      "हरकारे": 8542,
      "हरिणी": 8543,
      "सन्तोष": 8544,
      "मोना": 8545,
      "मोरे": 8546,
      "मोहर": 8547,
      "मोतियों": 8548,
      "पहिचा": 8549,
      "सारिक": 8550,
      "योसादाक": 8551,
      "धाय": 8552,
      "धातु": 8553,
      "धाइयों": 8554,
      "छोकरा": 8555,
      "बैना": 8556,
      "पत्तर": 8557,
      "टांगे": 8558,
      "घरबार": 8559,
      "भूरे": 8560,
      "बीचवाला": 8561,
      "ठहराएंगे": 8562,
      "्ठा": 8563,
      "नाशक": 8564,
      "जलफाटक": 8565,
      "न्द्रा": 8566,
      "खेते": 8567,
      "वैद्यों": 8568,
      "चुनी": 8569,
      "शेमा": 8570,
      "शेशान": 8571,
      "शेकेम": 8572,
      "शेमेर": 8573,
      "टेके": 8574,
      "लवासी": 8575,
      "भरके": 8576,
      "कूल": 8577,
      "कूएं": 8578,
      "रोंआर": 8579,
      "फाड़ी": 8580,
      "लौटेगा": 8581,
      "्राफों": 8582,
      "खोया": 8583,
      "शूही": 8584,
      "शून्य": 8585,
      "शूतेलह": 8586,
      "उपजाती": 8587,
      "चौवाली": 8588,
      "भाईयों": 8589,
      "सुनार": 8590,
      "बलहीन": 8591,
      "सूआर": 8592,
      "मसीही": 8593,
      "समझाए": 8594,
      "लूही": 8595,
      "निकलूंगा": 8596,
      "लड़ूंगा": 8597,
      "भोलों": 8598,
      "पहुंचाएंगे": 8599,
      "एलकाना": 8600,
      "दुला": 8601,
      "सातगुणा": 8602,
      "बैठना": 8603,
      "बैठाए": 8604,
      "सिरके": 8605,
      "ठहरेंगी": 8606,
      "बड़ें": 8607,
      "बनने": 8608,
      "महासमुद्र": 8609,
      "फलता": 8610,
      "युहन्ना": 8611,
      "युवती": 8612,
      "निर्बुद्ध": 8613,
      "तलवारों": 8614,
      "निकालना": 8615,
      "दिखाना": 8616,
      "दिखाएंगे": 8617,
      "जें": 8618,
      "गुल": 8619,
      "बढ़ना": 8620,
      "सर्राफों": 8621,
      "नियो": 8622,
      "आकाशवाणी": 8623,
      "अन्धी": 8624,
      "संवा": 8625,
      "संदेश": 8626,
      "संकेत": 8627,
      "चढ़ी": 8628,
      "चढ़ता": 8629,
      "ितमिस": 8630,
      "चीन्": 8631,
      "शिक्ष": 8632,
      "शित्ती": 8633,
      "ंसठ": 8634,
      "यिम्": 8635,
      "यिशी": 8636,
      "यिम्ना": 8637,
      "यित्रा": 8638,
      "बच्ची": 8639,
      "जंगलों": 8640,
      "क्रोधी": 8641,
      "लौटना": 8642,
      "लौटूंगा": 8643,
      "पड़ाव": 8644,
      "पाएंगी": 8645,
      "खिले": 8646,
      "खिलाकर": 8647,
      "एलीपेलेत": 8648,
      "पोसा": 8649,
      "पूरीम": 8650,
      "आनेवाली": 8651,
      "धरना": 8652,
      "धरते": 8653,
      "ढाले": 8654,
      "भेजना": 8655,
      "भेजूं": 8656,
      "हटकर": 8657,
      "फिरी": 8658,
      "कहलाएंगे": 8659,
      "शान्तिदाता": 8660,
      "ढ़ें": 8661,
      "गिरता": 8662,
      "रामसेस": 8663,
      "पकड़ते": 8664,
      "फूसी": 8665,
      "फूलिया": 8666,
      "फूटा": 8667,
      "फूलें": 8668,
      "मरेमोत": 8669,
      "पहत्": 8670,
      "चरनी": 8671,
      "ठहरकर": 8672,
      "ठहरना": 8673,
      "मृतक": 8674,
      "छूते": 8675,
      "छूटे": 8676,
      "बुलाहट": 8677,
      "लेनेवाला": 8678,
      "सहायकों": 8679,
      "लालची": 8680,
      "पौधा": 8681,
      "अबीदान": 8682,
      "अबीशग": 8683,
      "जन्माने": 8684,
      "टिकेगा": 8685,
      "चोगे": 8686,
      "ज़च्चा": 8687,
      "अनाकियों": 8688,
      "पलत्याह": 8689,
      "बहक": 8690,
      "बनेंगे": 8691,
      "बनवाने": 8692,
      "धेड़": 8693,
      "रहतीं": 8694,
      "चिल्लाए": 8695,
      "बैठाता": 8696,
      "दलदल": 8697,
      "पुकारती": 8698,
      "निकालें": 8699,
      "देखेगी": 8700,
      "अश्तोरेत": 8701,
      "काटते": 8702,
      "उजाला": 8703,
      "उजाड़ा": 8704,
      "गिराने": 8705,
      "पटरियों": 8706,
      "चुकाता": 8707,
      "खोलते": 8708,
      "रूपयों": 8709,
      "टोकर": 8710,
      "टोकिरयां": 8711,
      "कठौ": 8712,
      "पहुंचता": 8713,
      "झाड़ा": 8714,
      "उठेंगी": 8715,
      "बंदी": 8716,
      "बसाई": 8717,
      "बसाने": 8718,
      "बसाएंगे": 8719,
      "नोब": 8720,
      "पालते": 8721,
      "कनाना": 8722,
      "पैंसठ": 8723,
      "ढूंढ़ो": 8724,
      "ढूंढ़ोगे": 8725,
      "आतेर": 8726,
      "फूंकना": 8727,
      "फेरकर": 8728,
      "अहीरा": 8729,
      "अहीलूद": 8730,
      "अहीनोअम": 8731,
      "छिपाता": 8732,
      "बर्फ": 8733,
      "बर्त्ता": 8734,
      "महला": 8735,
      "लोमडिय़ों": 8736,
      "फेंका": 8737,
      "फेंकने": 8738,
      "जहाजियों": 8739,
      "मित्रभाव": 8740,
      "लाभदायक": 8741,
      "चुकेगा": 8742,
      "बलवान्": 8743,
      "रेंड़": 8744,
      "सर्वनाश": 8745,
      "मध्यस्थ": 8746,
      "बहाता": 8747,
      "बहाऊंगा": 8748,
      "प्यारे": 8749,
      "भड़काया": 8750,
      "भड़काऊंगा": 8751,
      "कमरबन्द": 8752,
      "ठेका": 8753,
      "मांगोगे": 8754,
      "त्ताप": 8755,
      "त्तावा": 8756,
      "बांए": 8757,
      "बांटे": 8758,
      "तराश": 8759,
      "उज्जियाह": 8760,
      "यद्यिप": 8761,
      "शरणनगर": 8762,
      "सराहूंगा": 8763,
      "हत्यारा": 8764,
      "कीशोन": 8765,
      "व्यवहारों": 8766,
      "बान्धेंगे": 8767,
      "पश्चात्ताप": 8768,
      "उड़ाकर": 8769,
      "कठिनता": 8770,
      "बांटने": 8771,
      "लबानोनी": 8772,
      "फैलने": 8773,
      "फैलती": 8774,
      "निर्बलताओं": 8775,
      "मनाते": 8776,
      "पत्थरीली": 8777,
      "पढ़ते": 8778,
      "भक्तिहीनों": 8779,
      "अरितमिस": 8780,
      "उपस्थिति": 8781,
      "भटकता": 8782,
      "भटकते": 8783,
      "पहिनते": 8784,
      "बटोरकर": 8785,
      "अगुवों": 8786,
      "स्वतन्त्र": 8787,
      "रोकते": 8788,
      "पहिचानते": 8789,
      "शिम्रोन": 8790,
      "हंडे": 8791,
      "जताता": 8792,
      "वेश्यागमन": 8793,
      "पहिनाता": 8794,
      "पहिनाना": 8795,
      "दहक": 8796,
      "कानाफूसी": 8797,
      "कड़वे": 8798,
      "कड़वी": 8799,
      "गिड़गिड़ाने": 8800,
      "अस्वीकार": 8801,
      "सोंटे": 8802,
      "प्रतापमय": 8803,
      "अन्यायी": 8804,
      "फेन": 8805,
      "मंत्रियों": 8806,
      "बतलाया": 8807,
      "कुटुम्बिन": 8808,
      "धारीवाले": 8809,
      "ललकारा": 8810,
      "पीड़ाओं": 8811,
      "बरसाऊंगा": 8812,
      "खण्डन": 8813,
      "पकड़वाएगा": 8814,
      "आराधनालयों": 8815,
      "अम्मीशद्दै": 8816,
      "चर्महीन": 8817,
      "ओढ़कर": 8818,
      "पछताऊंगा": 8819,
      "जांघिया": 8820,
      "सावधानी": 8821,
      "एलाले": 8822,
      "घटाया": 8823,
      "बिजलियां": 8824,
      "फंसाया": 8825,
      "लड़ाइयां": 8826,
      "हठीली": 8827,
      "नापने": 8828,
      "प्रत्यक्ष": 8829,
      "कन्धा": 8830,
      "डींग": 8831,
      "रस्सी": 8832,
      "माणिक": 8833,
      "डांटता": 8834,
      "बूझने": 8835,
      "उतरेगा": 8836,
      "डरावना": 8837,
      "मेंहदी": 8838,
      "ढीठ": 8839,
      "ढीली": 8840,
      "नतिनी": 8841,
      "बटोहियों": 8842,
      "बिताएं": 8843,
      "पीसकर": 8844,
      "पहिरावन": 8845,
      "कंगन": 8846,
      "कंगू": 8847,
      "कंगनियों": 8848,
      "व्योपार": 8849,
      "मूर्तिपूज": 8850,
      "कंपक": 8851,
      "गमर्याह": 8852,
      "करवाए": 8853,
      "सांढ़": 8854,
      "सांसारिक": 8855,
      "मचाने": 8856,
      "खुदवाए": 8857,
      "जानोह": 8858,
      "फारसियों": 8859,
      "क्रीड़ा": 8860,
      "दिखला": 8861,
      "भेजीं": 8862,
      "सन्देशा": 8863,
      "पल्लों": 8864,
      "बुझने": 8865,
      "जांचा": 8866,
      "ओहोला": 8867,
      "टहलुआ": 8868,
      "खदेड़ा": 8869,
      "खदेड़ने": 8870,
      "थैलियों": 8871,
      "पक्कीएल": 8872,
      "डरवैये": 8873,
      "पटियाएं": 8874,
      "शम्मू": 8875,
      "प्रश्नों": 8876,
      "बीतेगा": 8877,
      "मुकद्दमें": 8878,
      "---": 8879,
      "सपोन": 8880,
      "मुरदे": 8881,
      "वीणाएं": 8882,
      "मोहड़े": 8883,
      "प्रतिमाओं": 8884,
      "खींचा": 8885,
      "अल्प": 8886,
      "गम्लीएल": 8887,
      "जल्द": 8888,
      "सन्ताप": 8889,
      "भरमाए": 8890,
      "घटनाओं": 8891,
      "अदमा": 8892,
      "चंद्र": 8893,
      "सुधारने": 8894,
      "कुल्हाड़ा": 8895,
      "गरजते": 8896,
      "हरिणियों": 8897,
      "श्रेष्ठ": 8898,
      "ओहोलीआब": 8899,
      "हंसता": 8900,
      "किरिया": 8901,
      "जोतकर": 8902,
      "ढिलाई": 8903,
      "मंगवा": 8904,
      "उगेंगे": 8905,
      "कौवे": 8906,
      "टपकने": 8907,
      "टपकता": 8908,
      "ठिकाने": 8909,
      "उगाए": 8910,
      "ऊरीएल": 8911,
      "डरेंगे": 8912,
      "सदूकी": 8913,
      "बिछाकर": 8914,
      "बिलककर": 8915,
      "शरणागतों": 8916,
      "उकसाया": 8917,
      "योयादा": 8918,
      "घुमाकर": 8919,
      "पकानेहारों": 8920,
      "कम्बल": 8921,
      "कडुवा": 8922,
      "न्नीम": 8923,
      "स्तिुफनुस": 8924,
      "तल्मोन": 8925,
      "तन्त्री": 8926,
      "मल्लाहों": 8927,
      "हल्का": 8928,
      "सींचता": 8929,
      "कुर्सी": 8930,
      "शाखाओं": 8931,
      "जेलखाने": 8932,
      "खटखटाता": 8933,
      "अहोही": 8934,
      "भटकी": 8935,
      "मशकों": 8936,
      "कर्जदार": 8937,
      "धुन्धला": 8938,
      "कड़वाहट": 8939,
      "डुबोकर": 8940,
      "बावलापन": 8941,
      "उमण्डने": 8942,
      "गौरै": 8943,
      "जादूगरों": 8944,
      "सन्नाटा": 8945,
      "लड़खड़ाते": 8946,
      "सहस्रपतियों": 8947,
      "तर्कश": 8948,
      "खंडहर": 8949,
      "धनेश": 8950,
      "किरणें": 8951,
      "मेंढक": 8952,
      "विवाहिता": 8953,
      "निमशी": 8954,
      "क्रेते": 8955,
      "लुटेरों": 8956,
      "दूधपिउवा": 8957,
      "उज्ज़वल": 8958,
      "शलोमीत": 8959,
      "गशूरियों": 8960,
      "मछुवे": 8961,
      "अपेक्षा": 8962,
      "सबोयीम": 8963,
      "वीर्य्य": 8964,
      "पैठाव": 8965,
      "विराजेगा": 8966,
      "ओक्रान": 8967,
      "च्यूं": 8968,
      "डोरियां": 8969,
      "यरेमोत": 8970,
      "समेट": 8971,
      "सूंघ": 8972,
      "सत्तरह": 8973,
      "हम्मदाता": 8974,
      "मालिक": 8975,
      "चाँद": 8976,
      "मुँह": 8977,
      "शुतुर्मुर्ग": 8978,
      "वैंम": 8979,
      "सूरीशद्दै": 8980,
      "दुर्गन्ध": 8981,
      "निर्लज्ज": 8982,
      "फिसलने": 8983,
      "पुस्तकें": 8984,
      "अंधियारे": 8985,
      "तख्ताबंदी": 8986,
      "दर्कमोन": 8987,
      "कुड़कुड़ाए": 8988,
      "झिलमिलीदार": 8989,
      "दस्तावेज़": 8990,
      "अनेक": 8991,
      "अधीर": 8992,
      "अंतिम": 8993,
      "इतालिया": 8994,
      "एशतमो": 8995,
      "कदोर्लाओ": 8996,
      "कच्ची": 8997,
      "चरित्र": 8998,
      "पदासूर": 8999,
      "बवंडर": 9000,
      "रपीदीम": 9001,
      "शदेऊर": 9002,
      "शकुन": 9003,
      "शलूमीएल": 9004,
      "हक्कोस": 9005,
      "हस्ताक्षर": 9006,
      "किरिमजी": 9007,
      "किब्रो": 9008,
      "तुखिकुस": 9009,
      "लेपालक": 9010,
      "मांसाहारी": 9011,
      "प्रत्युत्तर": 9012,
      "अनगिनत": 9013,
      "अबिय्याम": 9014,
      "चौवालीस": 9015,
      "शित्तीम": 9016,
      "बर्त्ताव": 9017,
      "कदोर्लाओमेर": 9018,
      "ँट": 9019,
      "ंकी": 9020,
      "ंदूर": 9021,
      "अभ": 9022,
      "अंह": 9023,
      "अघा": 9024,
      "अजू": 9025,
      "अमुक": 9026,
      "अगली": 9027,
      "अधीन": 9028,
      "अतारोत": 9029,
      "आगा": 9030,
      "आदीन": 9031,
      "आकोर": 9032,
      "आजार": 9033,
      "इय": 9034,
      "इु": 9035,
      "इनाम": 9036,
      "इब्": 9037,
      "इत्या": 9038,
      "इन्द्रा": 9039,
      "ईल": 9040,
      "ईन्ध": 9041,
      "उछ": 9042,
      "उने": 9043,
      "उता": 9044,
      "उपरा": 9045,
      "उतराई": 9046,
      "उधेड़": 9047,
      "ऊलाम": 9048,
      "एव": 9049,
      "एनान": 9050,
      "एपेर": 9051,
      "ऐगा": 9052,
      "ओनाम": 9053,
      "ओझा": 9054,
      "ओनो": 9055,
      "ओपेल": 9056,
      "कद": 9057,
      "कसे": 9058,
      "क्य": 9059,
      "कतू": 9060,
      "कलियां": 9061,
      "कच्चे": 9062,
      "कछार": 9063,
      "ख़": 9064,
      "खियों": 9065,
      "खजां": 9066,
      "गठ": 9067,
      "गये": 9068,
      "गभि": 9069,
      "गत्रि": 9070,
      "घंटी": 9071,
      "चकर": 9072,
      "चखा": 9073,
      "चबू": 9074,
      "चन्दा": 9075,
      "चढाई": 9076,
      "छड़": 9077,
      "छाए": 9078,
      "जली": 9079,
      "जटा": 9080,
      "जकड़े": 9081,
      "जहाँ": 9082,
      "झंडे": 9083,
      "ठंड": 9084,
      "डियां": 9085,
      "डंक": 9086,
      "डण्डी": 9087,
      "ढपा": 9088,
      "ढंग": 9089,
      "ढलान": 9090,
      "तभी": 9091,
      "तवे": 9092,
      "तहीं": 9093,
      "तकोई": 9094,
      "तत्त": 9095,
      "तत्व": 9096,
      "तंदूर": 9097,
      "थत्तावा": 9098,
      "दश": 9099,
      "दही": 9100,
      "दंग": 9101,
      "दनों": 9102,
      "दंश": 9103,
      "दस्त": 9104,
      "दियुस": 9105,
      "धब्बे": 9106,
      "नख": 9107,
      "नपी": 9108,
      "नसार": 9109,
      "नवें": 9110,
      "पप": 9111,
      "पनि": 9112,
      "पसी": 9113,
      "पत्रु": 9114,
      "पढ़ी": 9115,
      "पकाना": 9116,
      "पियो": 9117,
      "पतह": 9118,
      "पक्का": 9119,
      "पछाड़": 9120,
      "फई": 9121,
      "फ्रा": 9122,
      "फटक": 9123,
      "फन्दों": 9124,
      "बौ": 9125,
      "बही": 9126,
      "बगी": 9127,
      "बटा": 9128,
      "बजाएगा": 9129,
      "बखे": 9130,
      "बटे": 9131,
      "बजाता": 9132,
      "बत्ती": 9133,
      "बचोगे": 9134,
      "भंग": 9135,
      "भलों": 9136,
      "भगाने": 9137,
      "मौ": 9138,
      "मत्र": 9139,
      "मश्": 9140,
      "मची": 9141,
      "मढ़े": 9142,
      "मत्ता": 9143,
      "मसूर": 9144,
      "मम्रे": 9145,
      "मत्तान": 9146,
      "यिर": 9147,
      "यशू": 9148,
      "यहाँ": 9149,
      "रया": 9150,
      "रसो": 9151,
      "लदा": 9152,
      "लवे": 9153,
      "लपक": 9154,
      "लयुद्ध": 9155,
      "लहल": 9156,
      "लटों": 9157,
      "लवली": 9158,
      "लटके": 9159,
      "लडूंगा": 9160,
      "वटें": 9161,
      "शतर्": 9162,
      "शहना": 9163,
      "षित": 9164,
      "षाएं": 9165,
      "सद्": 9166,
      "सगे": 9167,
      "सफा": 9168,
      "सजाया": 9169,
      "सफे": 9170,
      "सतरह": 9171,
      "हई": 9172,
      "हब": 9173,
      "हही": 9174,
      "हिर": 9175,
      "हदो": 9176,
      "हव्वा": 9177,
      "हसेरोत": 9178,
      "िणा": 9179,
      "ुकी": 9180,
      "ूस": 9181,
      "ैनी": 9182,
      "ोद": 9183,
      "ोस": 9184,
      "ोना": 9185,
      "ौठी": 9186,
      "।”": 9187,
      "”,": 9188,
      "नेर्ग": 9189,
      "नेपे": 9190,
      "मेन": 9191,
      "मेशा": 9192,
      "मेदबा": 9193,
      "सेदे": 9194,
      "यादा": 9195,
      "यालाम": 9196,
      "याशूब": 9197,
      "यात्‌": 9198,
      "करछे": 9199,
      "करिय्य": 9200,
      "कराएं": 9201,
      "कामा": 9202,
      "कालि": 9203,
      "कांटा": 9204,
      "कांपे": 9205,
      "कोत": 9206,
      "कोसता": 9207,
      "किम्": 9208,
      "किर्म": 9209,
      "किसके": 9210,
      "वास्त": 9211,
      "वालियां": 9212,
      "होनी": 9213,
      "होरो": 9214,
      "होरेश": 9215,
      "होग्ला": 9216,
      "परों": 9217,
      "परम्": 9218,
      "परस्त्री": 9219,
      "कील": 9220,
      "ताजे": 9221,
      "ताकने": 9222,
      "ताकते": 9223,
      "न्यो": 9224,
      "हाना": 9225,
      "हाते": 9226,
      "हाड़": 9227,
      "हाशू": 9228,
      "नास": 9229,
      "नाह": 9230,
      "नाता": 9231,
      "नाही": 9232,
      "नाली": 9233,
      "नाचे": 9234,
      "नारों": 9235,
      "नाकों": 9236,
      "नालियां": 9237,
      "नाजीर": 9238,
      "जागा": 9239,
      "जाखि": 9240,
      "राये": 9241,
      "रानियां": 9242,
      "तुल्": 9243,
      "ियोन": 9244,
      "साने": 9245,
      "्यह": 9246,
      "गां": 9247,
      "गाश": 9248,
      "गाडिय़ों": 9249,
      "गाडिय़ां": 9250,
      "देमोत": 9251,
      "लेनी": 9252,
      "लेटने": 9253,
      "लेटेगा": 9254,
      "अपनों": 9255,
      "माक": 9256,
      "मार्": 9257,
      "माथा": 9258,
      "मात्र": 9259,
      "मान्द": 9260,
      "मान्दे": 9261,
      "मागोग": 9262,
      "र्णी": 9263,
      "र्खुस": 9264,
      "दिलाकर": 9265,
      "दिलाऊंगा": 9266,
      "दिबला": 9267,
      "जोता": 9268,
      "जोतने": 9269,
      "हेत": 9270,
      "हेतु": 9271,
      "हेला": 9272,
      "हेश्": 9273,
      "हेगे": 9274,
      "हेमी": 9275,
      "हेरेस": 9276,
      "मैले": 9277,
      "लाग": 9278,
      "लादे": 9279,
      "लाती": 9280,
      "स्या": 9281,
      "स्तान": 9282,
      "पाँ": 9283,
      "पाद": 9284,
      "पाखण्ड": 9285,
      "प्रहार": 9286,
      "प्रदेशों": 9287,
      "बाग": 9288,
      "बास": 9289,
      "बाता": 9290,
      "बासन": 9291,
      "बायें": 9292,
      "बाजार": 9293,
      "बाओत": 9294,
      "यहोअद्": 9295,
      "यहोनातान": 9296,
      "यहोजाबाद": 9297,
      "रीमी": 9298,
      "इस्रा": 9299,
      "लियत": 9300,
      "दाखें": 9301,
      "भीगा": 9302,
      "विवश": 9303,
      "विधी": 9304,
      "विचारा": 9305,
      "विचारे": 9306,
      "चाट": 9307,
      "चारो": 9308,
      "क्लौ": 9309,
      "तोभी": 9310,
      "तोनी": 9311,
      "तोगर्": 9312,
      "नीला": 9313,
      "यहसा": 9314,
      "मुहू": 9315,
      "मुएल": 9316,
      "मुक्त": 9317,
      "मुण्डा": 9318,
      "निधा": 9319,
      "निम्र": 9320,
      "निठु": 9321,
      "निधड़क": 9322,
      "त्पि": 9323,
      "जिब": 9324,
      "जिलाकर": 9325,
      "तिहत्तर": 9326,
      "तिबिर": 9327,
      "तीत": 9328,
      "कहाती": 9329,
      "एकसी": 9330,
      "एकतालीस": 9331,
      "खानि": 9332,
      "मिग्": 9333,
      "सुम": 9334,
      "सुरा": 9335,
      "सुकाल": 9336,
      "सुकर्मी": 9337,
      "ढ़ने": 9338,
      "लिलू": 9339,
      "म्मीम": 9340,
      "लोगी": 9341,
      "कुन्": 9342,
      "कुआं": 9343,
      "कुहरे": 9344,
      "कुडौल": 9345,
      "भाड़े": 9346,
      "फिरोगे": 9347,
      "जाएँ": 9348,
      "कहलवा": 9349,
      "जबड़े": 9350,
      "जबड़ों": 9351,
      "जबूब": 9352,
      "रहब": 9353,
      "रहबाम": 9354,
      "रहितों": 9355,
      "देशें": 9356,
      "हिलाते": 9357,
      "उन्होने": 9358,
      "ड़ेंगे": 9359,
      "रूस": 9360,
      "रूहामा": 9361,
      "गेशेम": 9362,
      "शालेम": 9363,
      "शातैम": 9364,
      "माननी": 9365,
      "मानहत": 9366,
      "दूमा": 9367,
      "दूएल": 9368,
      "सोपर": 9369,
      "सोहर": 9370,
      "सोएगा": 9371,
      "सोहता": 9372,
      "पीटी": 9373,
      "पीएगा": 9374,
      "पीओगे": 9375,
      "पीहही": 9376,
      "समवा": 9377,
      "डालोगे": 9378,
      "तरसुस": 9379,
      "बुझी": 9380,
      "बेन": 9381,
      "बेते": 9382,
      "बेर्श": 9383,
      "बेंत": 9384,
      "बेसै": 9385,
      "बेसेर": 9386,
      "बेसुध": 9387,
      "हांकने": 9388,
      "पूआ": 9389,
      "पूलों": 9390,
      "रोई": 9391,
      "रोश": 9392,
      "रोपे": 9393,
      "रोओगे": 9394,
      "रोमियों": 9395,
      "कामना": 9396,
      "पिछा": 9397,
      "पिण्ड": 9398,
      "पियां": 9399,
      "पित्त": 9400,
      "मूंगे": 9401,
      "गीलो": 9402,
      "जीन": 9403,
      "रखवालों": 9404,
      "गरजता": 9405,
      "बिका": 9406,
      "बिलों": 9407,
      "बिमार": 9408,
      "बिथरा": 9409,
      "बिराने": 9410,
      "अर्बा": 9411,
      "अर्बे": 9412,
      "अर्यात्‌": 9413,
      "अर्पाद": 9414,
      "सिलवा": 9415,
      "सिखाई": 9416,
      "सिखाना": 9417,
      "सिद्दी": 9418,
      "सिब्ब": 9419,
      "सिक्का": 9420,
      "सिन्दूर": 9421,
      "येलेक": 9422,
      "भुजाएं": 9423,
      "विष्ठा": 9424,
      "बहुतेरी": 9425,
      "अनुचरों": 9426,
      "अनुकूल": 9427,
      "चिथ": 9428,
      "चिया": 9429,
      "राजपुत्रों": 9430,
      "राजपद": 9431,
      "राजमिस्त्रियों": 9432,
      "गिया": 9433,
      "मरकर": 9434,
      "मरमर": 9435,
      "ण्डियों": 9436,
      "सन्त": 9437,
      "मोप": 9438,
      "मोम": 9439,
      "मोनी": 9440,
      "मोलादा": 9441,
      "पहिनाईं": 9442,
      "योक्षा": 9443,
      "योसेस": 9444,
      "योसेप": 9445,
      "ल्ले": 9446,
      "व्यतीत": 9447,
      "पत्तों": 9448,
      "अधिकाई": 9449,
      "हूआ": 9450,
      "हूल": 9451,
      "बोओ": 9452,
      "बोलो": 9453,
      "बोजन": 9454,
      "बोलेगा": 9455,
      "मारती": 9456,
      "टाला": 9457,
      "टांग": 9458,
      "टांकी": 9459,
      "चलवाऊंगा": 9460,
      "ईंटों": 9461,
      "ईंटें": 9462,
      "भूसा": 9463,
      "भूले": 9464,
      "भूलता": 9465,
      "ठहराओ": 9466,
      "ठहराती": 9467,
      "ठहराऊं": 9468,
      "छेड़": 9469,
      "संगमर्": 9470,
      "संगमरमर": 9471,
      "यरूशेल": 9472,
      "यरूशलेमी": 9473,
      "कटवा": 9474,
      "कटवाकर": 9475,
      "खेला": 9476,
      "खेलकर": 9477,
      "भागना": 9478,
      "भागोगे": 9479,
      "वैयों": 9480,
      "चुभ": 9481,
      "चुकीं": 9482,
      "शेशब": 9483,
      "टेकें": 9484,
      "लगेंगी": 9485,
      "सौप": 9486,
      "सौपे": 9487,
      "कूआं": 9488,
      "चढ़ाओगे": 9489,
      "उठाऊं": 9490,
      "द्रा": 9491,
      "फाल": 9492,
      "खोलो": 9493,
      "तौला": 9494,
      "आपे": 9495,
      "शूबा": 9496,
      "छोड़ूंगा": 9497,
      "शीम": 9498,
      "शीशे": 9499,
      "शीवाद": 9500,
      "शीमोत": 9501,
      "चलाकर": 9502,
      "उपजाने": 9503,
      "उपजाते": 9504,
      "चौंक": 9505,
      "चौहत्तर": 9506,
      "गोजान": 9507,
      "गोलियत": 9508,
      "सुनाऊंगा": 9509,
      "जातिभाइयों": 9510,
      "बलवे": 9511,
      "बलदान": 9512,
      "सूर्या": 9513,
      "आंखो": 9514,
      "त्यशीमोत": 9515,
      "समझना": 9516,
      "समझोगे": 9517,
      "लूटी": 9518,
      "लूंगी": 9519,
      "लूसिया": 9520,
      "लूटेंगे": 9521,
      "निकलना": 9522,
      "लड़ना": 9523,
      "पहुंचाता": 9524,
      "पहुंचाएं": 9525,
      "पहाडिय़ां": 9526,
      "दुल्हा": 9527,
      "सम्ला": 9528,
      "बैठें": 9529,
      "सिरजनहार": 9530,
      "बान्धें": 9531,
      "लगवा": 9532,
      "लगलग": 9533,
      "छुरी": 9534,
      "पकने": 9535,
      "बनूं": 9536,
      "बनूंगा": 9537,
      "कर्मेली": 9538,
      "आजकल": 9539,
      "मिलाए": 9540,
      "बालपरा": 9541,
      "बालपोर": 9542,
      "बालजबूब": 9543,
      "बुद्धिमान्": 9544,
      "महाराज": 9545,
      "महाजन": 9546,
      "महाजाल": 9547,
      "छिनाल": 9548,
      "इस्राएलियोंने": 9549,
      "फलती": 9550,
      "फलदायक": 9551,
      "युसुफ": 9552,
      "यूनान": 9553,
      "आगमन": 9554,
      "दिखाते": 9555,
      "जेगा": 9556,
      "जेरेद": 9557,
      "जेरेश": 9558,
      "चाहना": 9559,
      "गुच्छा": 9560,
      "पड़ना": 9561,
      "बढ़ी": 9562,
      "बढ़ो": 9563,
      "बढ़इयों": 9564,
      "देवदासी": 9565,
      "ठीकरा": 9566,
      "धीमा": 9567,
      "पर्श": 9568,
      "्यास": 9569,
      "संधि": 9570,
      "संवार": 9571,
      "समाकर": 9572,
      "समाएगा": 9573,
      "चढ़ो": 9574,
      "परायों": 9575,
      "न्दिरया": 9576,
      "चीं": 9577,
      "चीरे": 9578,
      "देनेवाली": 9579,
      "शिकारी": 9580,
      "शिखर": 9581,
      "डरने": 9582,
      "डरकर": 9583,
      "डरती": 9584,
      "यिब": 9585,
      "बताकर": 9586,
      "बताऊं": 9587,
      "मिलूंगा": 9588,
      "मतवाली": 9589,
      "जीविका": 9590,
      "त्याईर": 9591,
      "प्रार्थनाएं": 9592,
      "डें": 9593,
      "प्रतिवर्ष": 9594,
      "प्रतिरूप": 9595,
      "शोबाब": 9596,
      "बरतने": 9597,
      "लुतराई": 9598,
      "खिलाएं": 9599,
      "स्वामिन": 9600,
      "निवासों": 9601,
      "एलीसा": 9602,
      "एलीसूर": 9603,
      "एलीआजार": 9604,
      "पोरा": 9605,
      "शत्रुता": 9606,
      "रखेलियां": 9607,
      "जलाता": 9608,
      "दसवीं": 9609,
      "रिस्पा": 9610,
      "ढाली": 9611,
      "पलिश्तीन": 9612,
      "हटना": 9613,
      "वृष्टि": 9614,
      "धोई": 9615,
      "कहलाने": 9616,
      "कहलाएं": 9617,
      "मधुमक्खियों": 9618,
      "खानेवाला": 9619,
      "बदलता": 9620,
      "चिन्ताओं": 9621,
      "करूँगा": 9622,
      "अभिप्राय": 9623,
      "सहूंगा": 9624,
      "यूसुफियों": 9625,
      "पकड़ता": 9626,
      "फूलता": 9627,
      "कराते": 9628,
      "फैलाई": 9629,
      "खुशी": 9630,
      "खुरच": 9631,
      "तोड़ता": 9632,
      "तोड़ूंगा": 9633,
      "हलफई": 9634,
      "बारहवीं": 9635,
      "छूओ": 9636,
      "छूछा": 9637,
      "छूटा": 9638,
      "छूटने": 9639,
      "बुलाऊंगा": 9640,
      "आशान": 9641,
      "विश्रामवार": 9642,
[...]
