{
  "version": "1.0",
  "truncation": null,
  "padding": null,
  "added_tokens": [
    {
      "id": 0,
      "content": "<pad>",
      "single_word": false,
      "lstrip": false,
      "rstrip": false,
      "normalized": false,
      "special": true
    },
    {
      "id": 1,
      "content": "<unk>",
      "single_word": false,
      "lstrip": false,
      "rstrip": false,
      "normalized": false,
      "special": true
    },
    {
      "id": 2,
      "content": "<s>",
      "single_word": false,
      "lstrip": false,
      "rstrip": false,
      "normalized": false,
      "special": true
    },
    {
      "id": 3,
      "content": "</s>",
      "single_word": false,
      "lstrip": false,
      "rstrip": false,
      "normalized": false,
      "special": true
    }
  ],
  "normalizer": null,
  "pre_tokenizer": {
    "type": "Sequence",
    "pretokenizers": [
      {
        "type": "Whitespace"
      },
      {
        "type": "Split",
        "pattern": {
          "Regex": "(?<=[ऀ-ॿ஀-௿฀-๿຀-໿က-႟ក-៿一-鿿꤀-꤯])(?=[A-Za-z0-9])|(?<=[A-Za-z0-9])(?=[ऀ-ॿ஀-௿฀-๿຀-໿က-႟ក-៿一-鿿꤀-꤯])"
        },
        "behavior": "Isolated",
        "invert": false
      }
    ]
  },
  "post_processor": null,
  "decoder": null,
  "model": {
    "type": "BPE",
    "dropout": null,
    "unk_token": "<unk>",
    "continuing_subword_prefix": null,
    "end_of_word_suffix": null,
    "fuse_unk": false,
    "byte_fallback": false,
    "ignore_merges": false,
    "vocab": {
      "<pad>": 0,
      "<unk>": 1,
      "<s>": 2,
      "</s>": 3,
      "(": 4,
      ")": 5,
      "*": 6,
      ",": 7,
      "-": 8,
      ".": 9,
      "0": 10,
      "1": 11,
      "2": 12,
      "3": 13,
      "4": 14,
      "5": 15,
      "6": 16,
      "7": 17,
      "8": 18,
      "9": 19,
      ":": 20,
      ";": 21,
      "A": 22,
      "B": 23,
      "C": 24,
      "D": 25,
      "E": 26,
      "F": 27,
      "G": 28,
      "H": 29,
      "I": 30,
      "J": 31,
      "K": 32,
      "L": 33,
      "M": 34,
      "N": 35,
      "O": 36,
      "P": 37,
      "Q": 38,
      "R": 39,
      "S": 40,
      "T": 41,
      "U": 42,
      "V": 43,
      "W": 44,
      "Y": 45,
      "[": 46,
      "]": 47,
      "a": 48,
      "b": 49,
      "c": 50,
      "d": 51,
      "e": 52,
      "f": 53,
      "g": 54,
      "h": 55,
      "i": 56,
      "k": 57,
      "l": 58,
      "m": 59,
      "n": 60,
      "o": 61,
      "p": 62,
      "r": 63,
      "s": 64,
      "t": 65,
      "u": 66,
      "v": 67,
      "w": 68,
      "x": 69,
      "y": 70,
      "­": 71,
      "·": 72,
      "â": 73,
      "ʹ": 74,
      "ׁ": 75,
      "ה": 76,
      "ו": 77,
      "י": 78,
      "נ": 79,
      "פ": 80,
      "ש": 81,
      "က": 82,
      "ခ": 83,
      "ဂ": 84,
      "ဃ": 85,
      "င": 86,
      "စ": 87,
      "ဆ": 88,
      "ည": 89,
      "တ": 90,
      "ထ": 91,
      "ဒ": 92,
      "န": 93,
      "ပ": 94,
      "ဖ": 95,
      "ဘ": 96,
      "မ": 97,
      "ယ": 98,
      "ရ": 99,
      "လ": 100,
      "ဝ": 101,
      "သ": 102,
      "ဟ": 103,
      "အ": 104,
      "ဧ": 105,
      "ါ": 106,
      "ာ": 107,
      "ိ": 108,
      "ီ": 109,
      "ု": 110,
      "ူ": 111,
      "ဲ": 112,
      "ံ": 113,
      "့": 114,
      "း": 115,
      "်": 116,
      "ျ": 117,
      "ြ": 118,
      "ွ": 119,
      "ှ": 120,
      "၀": 121,
      "၁": 122,
      "၂": 123,
      "၃": 124,
      "၄": 125,
      "၅": 126,
      "၆": 127,
      "၇": 128,
      "၈": 129,
      "၉": 130,
      "ၠ": 131,
      "ၡ": 132,
      "ၢ": 133,
      "ၣ": 134,
      "ၤ": 135,
      "‏": 136,
      "–": 137,
      "—": 138,
      "‘": 139,
      "’": 140,
      "“": 141,
      "”": 142,
      "ၣ်": 143,
      "ၢ်": 144,
      "ီၤ": 145,
      "့ၣ်": 146,
      "လၢ": 147,
      "တၢ်": 148,
      "ဒီ": 149,
      "လီၤ": 150,
      "ဒီး": 151,
      "ာ်": 152,
      "န့ၣ်": 153,
      "့ၢ်": 154,
      "ဝဲ": 155,
      "ိၣ်": 156,
      "ဘၣ်": 157,
      "ီၣ်": 158,
      "ပှ": 159,
      "ီၢ်": 160,
      "ပှၤ": 161,
      "တဖ": 162,
      "တဖၣ်": 163,
      "ံၤ": 164,
      "မၤ": 165,
      "ံး": 166,
      "န့ၣ်လီၤ": 167,
      "လၢအ": 168,
      "ထီၣ်": 169,
      "စီၤ": 170,
      "ိး": 171,
      "အိၣ်": 172,
      "မ့ၢ်": 173,
      "သး": 174,
      "အဝဲ": 175,
      "့ၤ": 176,
      "သ့ၣ်": 177,
      "ုၢ်": 178,
      "ူၤ": 179,
      "အီၤ": 180,
      "ံၣ်": 181,
      "သု": 182,
      "ဖိ": 183,
      "ွၤ": 184,
      "ယွၤ": 185,
      "ိၤ": 186,
      "ဂၤ": 187,
      "ဒ်": 188,
      "ကွ": 189,
      "ပူၤ": 190,
      "လဲ": 191,
      "ူၣ်": 192,
      "အံၤ": 193,
      "ံာ်": 194,
      "ကစ": 195,
      "ဂီၢ်": 196,
      "အဝဲသ့ၣ်": 197,
      "ိာ်": 198,
      "သိး": 199,
      "တက": 200,
      "မုၢ်": 201,
      "ဖဲ": 202,
      "လၢတၢ်": 203,
      "စံး": 204,
      "ူး": 205,
      "ကတ": 206,
      "အတၢ်": 207,
      "တဂၤ": 208,
      "ခိၣ်": 209,
      "ယၤ": 210,
      "ဒၣ်": 211,
      "ဆူ": 212,
      "ကစၢ်": 213,
      "ဂ့ၤ": 214,
      "ကွံာ်": 215,
      "ုး": 216,
      "ဲး": 217,
      "အသး": 218,
      "အပူၤ": 219,
      "က့ၤ": 220,
      "ဘၣ်တၢ်": 221,
      "ုာ်": 222,
      "ကီၢ်": 223,
      "ပာ်": 224,
      "ကျ": 225,
      "တက့ၢ်": 226,
      "န့ၢ်": 227,
      "ၢၤ": 228,
      "တ့ၢ်": 229,
      "လုၢ်": 230,
      "လီၢ်": 231,
      "အဃ": 232,
      "ဒိၣ်": 233,
      "ုၤ": 234,
      "ဖျ": 235,
      "ခဲ": 236,
      "အဂီၢ်": 237,
      "လး": 238,
      "ုၣ်": 239,
      "အဃိ": 240,
      "ညါ": 241,
      "ဝ့ၢ်": 242,
      "တၢ်အ": 243,
      "ဲၤ": 244,
      "ပၤ": 245,
      "မံၤ": 246,
      "ဟ့ၣ်": 247,
      "လဲၤ": 248,
      "ဆှ": 249,
      "ကစၢ်ယွၤ": 250,
      ".”": 251,
      "ဟဲ": 252,
      "ပျ": 253,
      "လၢာ်": 254,
      "ၢၣ်": 255,
      "ၢၢ်": 256,
      "နၤ": 257,
      "အသိး": 258,
      "လဲၣ်": 259,
      "သံ": 260,
      "ဲာ်": 261,
      "ကိး": 262,
      "ဆၣ်": 263,
      "ဆၢ": 264,
      "ဲၣ်": 265,
      "ဒီးတၢ်": 266,
      "ကမ": 267,
      "ဒုး": 268,
      "သ့": 269,
      "မူ": 270,
      "နီၢ်": 271,
      "ခွ": 272,
      "ဘျ": 273,
      "စီၤပၤ": 274,
      "ခဲလၢာ်": 275,
      "ခီ": 276,
      "ခံ": 277,
      "့လး": 278,
      "ဂ့ၢ်": 279,
      "ဂီၤ": 280,
      "လံ": 281,
      "သူၣ်": 282,
      "ဒီးအ": 283,
      "ခွါ": 284,
      "တုၤ": 285,
      "ဘၣ်ဆၣ်": 286,
      "ဂီၢ်မုၢ်": 287,
      "လၢယ": 288,
      "လိၤ": 289,
      "ဒ်သိး": 290,
      "ပှၤဂီၢ်မုၢ်": 291,
      "ကလ": 292,
      "ထံ": 293,
      "ကွၢ်": 294,
      "ထံၣ်": 295,
      "ဒါ": 296,
      "သီ": 297,
      "ယဲ": 298,
      "ူၢ်": 299,
      "ပှၤအ": 300,
      "လိာ်": 301,
      "ဟး": 302,
      "ံၢ်": 303,
      "စု": 304,
      "ဖိတဖၣ်": 305,
      "ကမၤ": 306,
      "ဖး": 307,
      "စရ": 308,
      "ဒၤ": 309,
      "ဝဲလၢ": 310,
      "တန": 311,
      "နီ": 312,
      "မဲာ်": 313,
      "အအိၣ်": 314,
      "ဖှ": 315,
      "တမံၤ": 316,
      "အီၤလၢ": 317,
      "ဟံၣ်": 318,
      "ကတိၤ": 319,
      "ဒီးပှၤ": 320,
      "စီ": 321,
      "ထီ": 322,
      "ဒဲး": 323,
      "မ့": 324,
      "စီၤအ": 325,
      "ဘါ": 326,
      "ိၢ်": 327,
      "လၢန": 328,
      "စရ့လး": 329,
      "အဂ့ၢ်": 330,
      "ကဲ": 331,
      "အလီၢ်": 332,
      "ံၣ်စရ့လး": 333,
      "သ့ၣ်ညါ": 334,
      "စီၤယ": 335,
      "ပိာ်": 336,
      "လၢ်": 337,
      "ဒံး": 338,
      "မုၣ်": 339,
      "ဖိခွါ": 340,
      "ကဘၣ်": 341,
      "ဟီၣ်": 342,
      "စံးဘၣ်": 343,
      "ဧၢ": 344,
      "အက": 345,
      "ဒိး": 346,
      "တဲ": 347,
      "့ၣ်ၡ": 348,
      "့ၣ်ၡူး": 349,
      "ယဲၢ်": 350,
      "ကန": 351,
      "လၢအဝဲ": 352,
      "စၢၤ": 353,
      "ဝံၤ": 354,
      "အခ": 355,
      "ဧိၤ": 356,
      "မ့ၢ်ဂ့ၤ": 357,
      "ပှၤလၢအ": 358,
      "ကတီၢ်": 359,
      "အါ": 360,
      "တီ": 361,
      "ဆှံ": 362,
      "လၢသု": 363,
      "ယ့ၣ်ၡူး": 364,
      "ကီ": 365,
      "န့ၣ်တက့ၢ်": 366,
      "စံးဝဲ": 367,
      "မ့ၢ်တၢ်": 368,
      "တအိၣ်": 369,
      "အဒ": 370,
      "ဝံ": 371,
      "ကီၢ်အ": 372,
      "နီၣ်": 373,
      "ပတ": 374,
      "နၢ်": 375,
      "ဟီၣ်ခိၣ်": 376,
      "ကတၢၢ်": 377,
      "တၢ်မၤ": 378,
      "ဒ်အံၤ": 379,
      "စိာ်": 380,
      "စီဆှံ": 381,
      "ဖီ": 382,
      "နုၤ": 383,
      "ယက": 384,
      "အကျ": 385,
      "ချ": 386,
      "လၢပှၤ": 387,
      "ဃး": 388,
      "့း": 389,
      "ဘူၣ်": 390,
      "လၢအအိၣ်": 391,
      "တဂ့ၤ": 392,
      "ဆိ": 393,
      "ကယဲၢ်": 394,
      "ဃီ": 395,
      "ဖျါ": 396,
      "ပၢ်": 397,
      "စ့ၢ်": 398,
      "သၣ်": 399,
      "ဘ့ၣ်": 400,
      "သိၣ်": 401,
      "ဟ့ၣ်လီၤ": 402,
      "ဆူၣ်": 403,
      "ကီး": 404,
      "ညီ": 405,
      "ထီၣ်ဝဲ": 406,
      "ဃုာ်": 407,
      "သုး": 408,
      "အိၣ်ဝဲ": 409,
      "ွဲ": 410,
      "ကဲထီၣ်": 411,
      "ၢး": 412,
      "အီၣ်": 413,
      "စ့ၢ်ကီး": 414,
      "ပှဲၤ": 415,
      "န့ၣ်ဒီး": 416,
      "တမ့ၢ်": 417,
      "ဒိ": 418,
      "စံၣ်": 419,
      "တဖၣ်န့ၣ်": 420,
      "နာ်": 421,
      "မိၤ": 422,
      "မ့မ့ၢ်": 423,
      "ဃု": 424,
      "တဖၣ်လၢ": 425,
      "ယူ": 426,
      "ဖျိ": 427,
      "အဲၣ်": 428,
      "ဒီးစီၤ": 429,
      "တၢ်လၢ": 430,
      "ဟးဂီၤ": 431,
      "ဆံ": 432,
      "လၤ": 433,
      "ဘျီ": 434,
      "ဘး": 435,
      "ပှၤတဂၤ": 436,
      "လဲာ်": 437,
      "ဧါ": 438,
      "ဒ်လဲၣ်": 439,
      "ဘိ": 440,
      "ထၢ": 441,
      "ပှၢ်": 442,
      "ကပ": 443,
      "အဖိခွါ": 444,
      "အၢ": 445,
      "ဖှိၣ်": 446,
      "နံၤ": 447,
      "အဂ့ၢ်ဒ်အံၤ": 448,
      "ညီၣ်": 449,
      "ခီၣ်": 450,
      "ခီဖျိ": 451,
      "ဆှၢ": 452,
      "ဘၣ်ဆၣ်ဒီး": 453,
      "မနုၤ": 454,
      "ထဲ": 455,
      "ကမၣ်": 456,
      "စီၤယိၤ": 457,
      "ဟံး": 458,
      "ဒီးမၤ": 459,
      "ကူ": 460,
      "ရူၤ": 461,
      "အသိးန့ၣ်လီၤ": 462,
      "လၢတၢ်န့ၣ်": 463,
      "ပျဲ": 464,
      "ဆိး": 465,
      "အဝဲဒၣ်": 466,
      "မး": 467,
      "ဖးဒိၣ်": 468,
      "ဃ့": 469,
      "ထွဲ": 470,
      "ကဘၣ်တၢ်": 471,
      "ဘၣ်ဃး": 472,
      "ယူဒၤ": 473,
      "ဘီ": 474,
      "ကျဲ": 475,
      "တၢ်လုၢ်": 476,
      "အဂီၢ်န့ၣ်လီၤ": 477,
      "ဟူ": 478,
      "အဖီ": 479,
      "တစု": 480,
      "လ့ၣ်": 481,
      "တရ": 482,
      "ဃာ်": 483,
      "ဆါ": 484,
      "လၢတၢ်န့ၣ်အဃိ": 485,
      "ကူၣ်": 486,
      "လံာ်": 487,
      "တဘျီ": 488,
      "နုာ်": 489,
      "လါ": 490,
      "သွ": 491,
      "မဲာ်ညါ": 492,
      "ပျံၤ": 493,
      "စံးဆၢ": 494,
      "လၢအဝဲသ့ၣ်": 495,
      "အဂၤ": 496,
      "တဖၣ်န့ၣ်လီၤ": 497,
      "အတ": 498,
      "လၢအမ့ၢ်": 499,
      "ဘှ": 500,
      "တဖၣ်ဒီး": 501,
      "အလိၤ": 502,
      "သိ": 503,
      "စီၤအၤ": 504,
      "ဖဲန့ၣ်": 505,
      "ဂံၢ်": 506,
      "လၢပ": 507,
      "အကျါ": 508,
      "ဆိၣ်": 509,
      "မံ": 510,
      "တနံၤ": 511,
      "ကွံာ်အီၤ": 512,
      "ဒီးယ": 513,
      "အီ": 514,
      "အူ": 515,
      "မၤတၢ်": 516,
      "ၢၣ်လီၤ": 517,
      "ဒဲးဘး": 518,
      "ကဒါ": 519,
      "တဖၣ်အံၤ": 520,
      "အပှၤ": 521,
      "လိၣ်": 522,
      "တၢ်သီ": 523,
      "ဒၣ်ဝဲ": 524,
      "ထၢၣ်": 525,
      "လၢၤ": 526,
      "မၢ": 527,
      "ဝံး": 528,
      "ဒၣ်လဲာ်": 529,
      "လၢဝ့ၢ်": 530,
      "ကၤ": 531,
      "ၡ့": 532,
      "တၤ": 533,
      "လံၤ": 534,
      "ပိာ်မုၣ်": 535,
      "ဖျဲး": 536,
      "လၢက": 537,
      "စံၣ်ညီၣ်": 538,
      "ထံး": 539,
      "အပူၤန့ၣ်လီၤ": 540,
      "ပၢ": 541,
      "တဲဘၣ်": 542,
      "ဒၤဝံး": 543,
      "မ်": 544,
      "မၤတ့ၢ်": 545,
      "စၢ်": 546,
      "သူ": 547,
      "ဆၢကတီၢ်": 548,
      "ကလုာ်": 549,
      "ဖံး": 550,
      "တဖၣ်လၢအ": 551,
      "မိၢ်": 552,
      "ခါ": 553,
      "အပှၤဂီၢ်မုၢ်": 554,
      "လိ": 555,
      "ဝၤ": 556,
      "ကွဲး": 557,
      "မၤသံ": 558,
      "နး": 559,
      "အခါ": 560,
      "န့ၣ်ဘၣ်": 561,
      "သကိး": 562,
      "ဒီးအဝဲသ့ၣ်": 563,
      "ခု": 564,
      "တခီ": 565,
      "တူၢ်": 566,
      "ဒု": 567,
      "ဒီးသု": 568,
      "ဝဲလီၤ": 569,
      "စီၤၡ": 570,
      "အခိၣ်": 571,
      "ဟိ": 572,
      "ဒီးန": 573,
      "တၢ်အခိၣ်": 574,
      "ဘၤ": 575,
      "မ့ၣ်": 576,
      "ဘူး": 577,
      "အဒူၣ်": 578,
      "သၢ": 579,
      "အစီၤပၤ": 580,
      "ဖၣ်": 581,
      "ကမိၣ်": 582,
      "စိ": 583,
      "ထံၣ်ဘၣ်": 584,
      "တြ": 585,
      "လီၤတ": 586,
      "လၢယွၤ": 587,
      "စူၢ်": 588,
      "အဂီၢ်လီၤ": 589,
      "ကနၣ်": 590,
      "နံၣ်": 591,
      "ထီၣ်ကွံာ်": 592,
      "စး": 593,
      "ထူ": 594,
      "ဆိကမိၣ်": 595,
      "ကဒါက့ၤ": 596,
      "လီ": 597,
      "ကအိၣ်": 598,
      "ယရူၤ": 599,
      "ကီၢ်အံၣ်စရ့လး": 600,
      "ထီဒါ": 601,
      "မိၤၡ့": 602,
      "ကပီၤ": 603,
      "အဖီခိၣ်": 604,
      "ဂာ်": 605,
      "ထီၣ်တၢ်": 606,
      "လုၢ်တၢ်အခိၣ်": 607,
      "ပှၤအံၣ်စရ့လး": 608,
      "ဆၢထၢၣ်": 609,
      "စီၤဒၤဝံး": 610,
      "နီတဂၤ": 611,
      "စ့": 612,
      "ဝဲဒၣ်": 613,
      "ဃၣ်": 614,
      "ပျၢ်": 615,
      "ဝဲၢ်": 616,
      "နၢ်ဟူ": 617,
      "တဘၣ်": 618,
      "ဟၣ်": 619,
      "တနီၤ": 620,
      "ပှၤက": 621,
      "အမဲာ်ညါ": 622,
      "တီၤ": 623,
      "မ့ၣ်အူ": 624,
      "စိၤ": 625,
      "မါ": 626,
      "တဖျ": 627,
      "အပူၤန့ၣ်": 628,
      "အဃိန့ၣ်လီၤ": 629,
      "စီၤပ": 630,
      "တသ့": 631,
      "ပတူး": 632,
      "ကည": 633,
      "အန့ၣ်": 634,
      "ဒီးအဝဲ": 635,
      "ဲၤကူ": 636,
      "ဟံးန့ၢ်": 637,
      "ဖျါထီၣ်": 638,
      "သံကွၢ်": 639,
      "စုာ်": 640,
      "ရံ": 641,
      "ကစီၣ်": 642,
      "တဖျၢၣ်": 643,
      "ဒုၣ်": 644,
      "ပာ်လီၤ": 645,
      "မ့ၢ်ဝဲ": 646,
      "တဘ့ၣ်": 647,
      "တၢ်ဒီး": 648,
      "ရံာ်": 649,
      "ထီၣ်က့ၤ": 650,
      "အမံၤ": 651,
      "ဲၤကူပတူး": 652,
      "ရၤ": 653,
      "ပုၢ်": 654,
      "ကမီၤ": 655,
      "တဖၣ်လီၤ": 656,
      "သးခု": 657,
      "ဒဲ": 658,
      "မူခိၣ်": 659,
      "လၢ်လၢ်": 660,
      "ဒိကနၣ်": 661,
      "မ့ၢ်ပှၤ": 662,
      "ၡလ့ၣ်": 663,
      "ဆ့": 664,
      "ခရံာ်": 665,
      "သိၣ်တၢ်သီ": 666,
      "လၢအက": 667,
      "ဂဲၤ": 668,
      "တအိၣ်ဘၣ်": 669,
      "အိၣ်မူ": 670,
      "နီၤ": 671,
      "ွံ": 672,
      "ုက": 673,
      "ဆီ": 674,
      "အိၣ်ဒီး": 675,
      "နၢၤ": 676,
      "ကလံၤ": 677,
      "ဒီပုၢ်": 678,
      "သုတ": 679,
      "ကစၢၢ်": 680,
      "အဘ": 681,
      "လူး": 682,
      "ခဲအံၤ": 683,
      "လၢကီၢ်": 684,
      "ဘျုး": 685,
      "ယွၤအတၢ်": 686,
      "ယရူၤၡလ့ၣ်": 687,
      "ွံၢ်": 688,
      "မုာ်": 689,
      "ဒူၣ်": 690,
      "လၢၤဘၣ်": 691,
      "စီၤမိၤၡ့": 692,
      "လၢမုၢ်": 693,
      "စၤ": 694,
      "တၢ်လီၢ်": 695,
      "ဒီးက": 696,
      "ဒီပုၢ်ဝဲၢ်": 697,
      "နါ": 698,
      "ပူၤဖျဲး": 699,
      "တၢ်အံၤ": 700,
      "ထီၣ်အီၤ": 701,
      "ယာ်": 702,
      "အသးလၢ": 703,
      "ယသး": 704,
      "ထိၣ်": 705,
      "ဘူၣ်ထီၣ်": 706,
      "ထူၣ်": 707,
      "မၤလိာ်": 708,
      "ပၢၢ်": 709,
      "မ့တမ့ၢ်": 710,
      "ယတၢ်": 711,
      "လွံၢ်": 712,
      "စူၤ": 713,
      "ဒၢ": 714,
      "ဃီၤ": 715,
      "တၢ်လၢအ": 716,
      "ဒိးန့ၢ်": 717,
      "ဘြ": 718,
      "လၢၢ်": 719,
      "တၢ်ဖ": 720,
      "နီတမံၤ": 721,
      "ဘၣ်တၢ်မၤ": 722,
      "လာ်": 723,
      "ဘူၣ်ထီၣ်ဘါ": 724,
      "မၢ်": 725,
      "လုၢ်ဟံၣ်": 726,
      "ဆံး": 727,
      "ဟိဝၤ": 728,
      "ဘၣ်မနုၤ": 729,
      "အ့လး": 730,
      "အစု": 731,
      "ဂၢၢ်": 732,
      "အလီၢ်ခံ": 733,
      "ဟဲစိာ်": 734,
      "အိၣ်ဒီးတၢ်": 735,
      "ခ့": 736,
      "အၢၣ်လီၤ": 737,
      "စးထီၣ်": 738,
      "ဆူဝ့ၢ်": 739,
      "ပံး": 740,
      "ကိးဂၤ": 741,
      "အဲၣ်ဒိး": 742,
      "ဝဲဒီး": 743,
      "ပှ့ၤ": 744,
      "ြၢး": 745,
      "ဒ်န့ၣ်ဒီး": 746,
      "အပူၤလီၤ": 747,
      "အမုၢ်": 748,
      "စပံး": 749,
      "ဟဲက့ၤ": 750,
      "နတၢ်": 751,
      "နသး": 752,
      "ဆှီ": 753,
      "ပိာ်ခွါ": 754,
      "ပတြ": 755,
      "ကဲၤ": 756,
      "နွံ": 757,
      "ပတြၢၤ": 758,
      "ဖိကီၢ်": 759,
      "စံးဝဲဒၣ်": 760,
      "နက": 761,
      "တ့": 762,
      "စီၤဧ": 763,
      "ဟိဝၤယွၤ": 764,
      "ကိးဂၤဒဲး": 765,
      "အဟံၣ်": 766,
      "ကျၢၤ": 767,
      "ဝံၤဒီး": 768,
      "နီတဂၤဘၣ်": 769,
      "ပၢၤ": 770,
      "အ့ၤ": 771,
      "တၢ်ဒဲးဘး": 772,
      "သွဲၣ်": 773,
      "ထုက": 774,
      "ယတ": 775,
      "အုး": 776,
      "ထုကဖၣ်": 777,
      "ဒူ": 778,
      "က့": 779,
      "သုသး": 780,
      "ခံဂၤ": 781,
      "ကသ့": 782,
      "တဒု": 783,
      "လ့": 784,
      "ဘၣ်ဝဲ": 785,
      "ကီၢ်အဲၤကူပတူး": 786,
      "အီၤန့ၣ်လီၤ": 787,
      "ထီၣ်ပတြၢၤ": 788,
      "ဖှီၣ်": 789,
      "တဂၤန့ၣ်": 790,
      "ပှၤလုၢ်တၢ်အခိၣ်": 791,
      "အဃိလီၤ": 792,
      "နဲ": 793,
      "ဘၣ်ဃးဒီး": 794,
      "ထံကျ": 795,
      "နမ့ၢ်": 796,
      "သုဝဲ": 797,
      "အီလီၤ": 798,
      "ဝး": 799,
      "တၢ်အီၣ်": 800,
      "အကလုၢ်": 801,
      "အပၢ်": 802,
      "ကတီၤ": 803,
      "ပှၤကညီ": 804,
      "ကညီၤ": 805,
      "အီၤလီၤ": 806,
      "ဒ်တၢ်": 807,
      "ဆ့ၣ်": 808,
      "အီၤလၢတၢ်": 809,
      "ဆိၣ်ဂ့ၤ": 810,
      "အုၣ်": 811,
      "ကဒီး": 812,
      "အသးဒီး": 813,
      "သမူ": 814,
      "တၢ်န့ၣ်": 815,
      "လီၤဂာ်": 816,
      "ဃုထၢ": 817,
      "လဲၤဆူ": 818,
      "ယဟိဝၤယွၤ": 819,
      "တရူး": 820,
      "တခါ": 821,
      "ဘၢ": 822,
      "လ့ၤ": 823,
      "ဃုာ်ဒီး": 824,
      "မၤစၢၤ": 825,
      "ဆၣ်ဖိကီၢ်": 826,
      "တဆံ": 827,
      "အကတီၢ်": 828,
      "မၤဝဲ": 829,
      "တ့ၢ်လံ": 830,
      "ကံး": 831,
      "တရံး": 832,
      "ကိာ်": 833,
      "ပာ်ဖှိၣ်": 834,
      "တ့ၢ်ဝဲ": 835,
      "့းတရူး": 836,
      "ဆှၢလီၤ": 837,
      "နဲၣ်": 838,
      "ယံာ်": 839,
      "မၤသး": 840,
      "သ့ၣ်တဖၣ်": 841,
      "သ့ၣ်ဧၢ": 842,
      "အၤ": 843,
      "ဒိၣ်မး": 844,
      "ပက": 845,
      "ဖု": 846,
      "အဆၢကတီၢ်": 847,
      "ံၣ်အံၤ": 848,
      "ပျၢၤ": 849,
      "ဒံးဘၣ်": 850,
      "တၢ်ဘါ": 851,
      "ထံကျိ": 852,
      "သုက": 853,
      "အံၣ်စရ့လး": 854,
      "ဒ်န့ၣ်": 855,
      "အီၤဒီး": 856,
      "ကိၢ်": 857,
      "ဃ့ၢ်": 858,
      "စီၤယၤ": 859,
      "ယိာ်": 860,
      "ဟးထီၣ်": 861,
      "စံးထီၣ်ပတြၢၤ": 862,
      "ဘှီ": 863,
      "ဘူၣ်ထီၣ်ဘါထီၣ်": 864,
      "သီၣ်": 865,
      "အဖိ": 866,
      "သုတၢ်": 867,
      "ကနံၣ်အံၤ": 868,
      "လံာ်စီဆှံ": 869,
      "ပှၤကလုာ်": 870,
      "လၢဟီၣ်ခိၣ်": 871,
      "ဆူတၢ်": 872,
      "ခီၣ်က့ၤ": 873,
      "လၢကစၢ်ယွၤ": 874,
      "တုၤနုၤ": 875,
      "တုၤနုၤတစု": 876,
      "ဒ့ၣ်": 877,
      "ီၣ်လဲၣ်": 878,
      "ဒီးတ": 879,
      "ခဲကနံၣ်အံၤ": 880,
      "မတၤ": 881,
      "ဒုးတၢ်": 882,
      "ဘူၤ": 883,
      "အတၢ်မၤ": 884,
      "တသ့ဘၣ်": 885,
      "အကစၢ်ယွၤ": 886,
      "ကီၢ်ယူဒၤ": 887,
      "ပျီ": 888,
      "လၢအဘၣ်တၢ်": 889,
      "က့ၤခီၣ်က့ၤ": 890,
      "ဝီၤ": 891,
      "ညၣ်": 892,
      "လၢပျၢၤ": 893,
      "ဖံ": 894,
      "တၢ်ပာ်": 895,
      "အခီၣ်": 896,
      "သိၣ်လိ": 897,
      "အဒိၣ်": 898,
      "ကး": 899,
      "ဝံၤအလီၢ်ခံ": 900,
      "လီၤတဲာ်": 901,
      "အိၣ်ဒီးအ": 902,
      "ဝါ": 903,
      "လၤကပီၤ": 904,
      "ယမ့ၢ်": 905,
      "မူၤ": 906,
      "ကတဲာ်": 907,
      "စံးဘၣ်အီၤ": 908,
      "န့ၣ်လဲၣ်": 909,
      "ပျဲၢ်": 910,
      "ဂုာ်": 911,
      "ဘု": 912,
      "ဧၤ": 913,
      "ဒ်သိးက": 914,
      "စံ": 915,
      "ဝဲဆူ": 916,
      "ဖါ": 917,
      "နီတမံၤဘၣ်": 918,
      "ပှၤအံၣ်စရ့လးဖိ": 919,
      "လုၢ်ထီၣ်": 920,
      "ကတဲာ်ကတီၤ": 921,
      "ပူၤန့ၣ်လီၤ": 922,
      "ကလူး": 923,
      "စီၤအၤဘြ": 924,
      "ကထ": 925,
      "ဝံၣ်": 926,
      "ဒီးပ": 927,
      "ဘှံး": 928,
      "အီၤဆူ": 929,
      "စီၤပ့းတရူး": 930,
      "မၤဟးဂီၤ": 931,
      "ချ့": 932,
      "ဖဲအဝဲသ့ၣ်": 933,
      "စီလူး": 934,
      "ယိၤ": 935,
      "အသိးန့ၣ်": 936,
      "အကီၢ်": 937,
      "ဖျၢၣ်": 938,
      "အကစၢ်": 939,
      "ကုၢ်": 940,
      "ူာ်": 941,
      "သ့ၣ်နီၣ်": 942,
      "ခိး": 943,
      "စီၤယိၤသး": 944,
      "ဖၢ": 945,
      "အန့ၣ်ဒီး": 946,
      "ကစံး": 947,
      "ဝ့ၢ်ယရူၤၡလ့ၣ်": 948,
      "တၢ်လီၤ": 949,
      "ဆူး": 950,
      "လၢခံ": 951,
      "တၢ်အၢၣ်လီၤ": 952,
      "ံယၤ": 953,
      "အဂီၢ်န့ၣ်": 954,
      "လဲၤနုာ်": 955,
      "ဆဲး": 956,
      "ထး": 957,
      "ရၣ်": 958,
      "သုးမုၢ်": 959,
      "ယအိၣ်": 960,
      "ကတိၤတၢ်": 961,
      "ဘ့ၤ": 962,
      "လံယၤ": 963,
      "ကူၣ်သ့": 964,
      "ဘၣ်ဒီး": 965,
      "ချၢ": 966,
      "ပှၤအံၣ်စရ့လးဖိတဖၣ်": 967,
      "တဖၣ်က": 968,
      "ဖုး": 969,
      "စီၤဃ": 970,
      "ဂဲၤဆၢထၢၣ်": 971,
      "ထုး": 972,
      "လၢကျဲ": 973,
      "ပှၤတ": 974,
      "ဆၣ်ဖိကီၢ်ဖိ": 975,
      "ကွံာ်ဝဲ": 976,
      "တၢ်အၢ": 977,
      "ယံၤ": 978,
      "ဲးစ": 979,
      "နီတစု": 980,
      "ဖီၣ်": 981,
      "ဖိသၣ်": 982,
      "အဘီၣ်": 983,
      "န့ၢ်ဒံး": 984,
      "သ့တၢ်": 985,
      "သပှၢ်": 986,
      "တဘိ": 987,
      "အဝဲသ့ၣ်က": 988,
      "ပာ်ဖျါထီၣ်": 989,
      "ထီဘိ": 990,
      "မၤသးဒ်န့ၣ်ဒီး": 991,
      "အအိၣ်ဒီး": 992,
      "သးအိၣ်": 993,
      "သးကညီၤ": 994,
      "စိး": 995,
      "ပူ": 996,
      "ပှၤအဂၤ": 997,
      "တိၢ်": 998,
      "ရိၣ်": 999,
      "ပဒိၣ်": 1000,
      "ထိး": 1001,
      "အသီ": 1002,
      "ဘူၣ်တၢ်ဘါ": 1003,
      "လၢအတၢ်": 1004,
      "ပာ်ထီၣ်": 1005,
      "ၡါ": 1006,
      "ယံး": 1007,
      "သါ": 1008,
      "ပျဲၢ်အဘီၣ်": 1009,
      "အပူၤဒီး": 1010,
      "ဒုးကဲထီၣ်": 1011,
      "ထံကီၢ်": 1012,
      "စုာ်စုာ်": 1013,
      "ယၢ်": 1014,
      "ၤဟၣ်": 1015,
      "ချံ": 1016,
      "န့ၣ်မ့ၢ်": 1017,
      "န့ၢ်အီၤ": 1018,
      "ဖှံ": 1019,
      "တဲာ်": 1020,
      "ယွၤဧၢ": 1021,
      "စီၤဘ": 1022,
      "ဖဲအ": 1023,
      "ကယဲၢ်တၢ်": 1024,
      "ခိ": 1025,
      "ချုး": 1026,
      "စီၤအၤဘြၤဟၣ်": 1027,
      "ထူး": 1028,
      "စဲး": 1029,
      "ကိးထီၣ်": 1030,
      "အသွဲၣ်": 1031,
      "ဒီးယွၤ": 1032,
      "စီၤစီလူး": 1033,
      "ဲးစၢး": 1034,
      "ဒုးနဲၣ်": 1035,
      "ကယၤ": 1036,
      "ဃူ": 1037,
      "ပှၤလၢ": 1038,
      "အဝဲက": 1039,
      "ဖဲတၢ်": 1040,
      "ဖဲအံၤ": 1041,
      "နီၢ်နီၢ်": 1042,
      "ဘၣ်မနုၤအဃိ": 1043,
      "မၤအသး": 1044,
      "လ့ၤဝံ": 1045,
      "အကျဲ": 1046,
      "ဒွ": 1047,
      "ကိၣ်": 1048,
      "တဖၣ်အ": 1049,
      "လၣ်": 1050,
      "သန": 1051,
      "ဘၤဘူၤ": 1052,
      "တၢ်ကစီၣ်": 1053,
      "ခူ": 1054,
      "ယကမၤ": 1055,
      "တပူၤ": 1056,
      "တၢ်ဂ့ၢ်": 1057,
      "ဖိဃီ": 1058,
      "ဂီၤဖံး": 1059,
      "တၢ်အဲၣ်": 1060,
      "တီၢ်": 1061,
      "ယူဒၤဖိ": 1062,
      "ၡၤ": 1063,
      "ကျဲးစၢး": 1064,
      "ဘီမုၢ်": 1065,
      "အဂ့ၤ": 1066,
      "ဟးထီၣ်ကွံာ်": 1067,
      "တဂၤလၢအ": 1068,
      "မိၣ်": 1069,
      "သူၣ်ထီၣ်": 1070,
      "ဘၣ်န့ၣ်လီၤ": 1071,
      "အအိၣ်န့ၣ်လီၤ": 1072,
      "စၢၤအသွဲၣ်": 1073,
      "ဘၤဘူၤလိၣ်": 1074,
      "မူၤအ့လး": 1075,
      "မနုၤလဲၣ်": 1076,
      "တနံၤအံၤ": 1077,
      "စှ": 1078,
      "တံၤ": 1079,
      "တူၢ်လိာ်": 1080,
      "လီၤပ": 1081,
      "ယုၢ်": 1082,
      "မၤနၢၤ": 1083,
      "အီၤန့ၣ်": 1084,
      "နီၢ်ကစၢ်": 1085,
      "နီၢ်မၤ": 1086,
      "ဒွဲၣ်": 1087,
      "တကပၤ": 1088,
      "ဝဲန့ၣ်လီၤ": 1089,
      "တဖု": 1090,
      "ကါ": 1091,
      "တၢ်ဂီၤ": 1092,
      "မိၢ်ပၢ်": 1093,
      "ဆး": 1094,
      "အဝဲန့ၣ်": 1095,
      "အံၤမ့ၢ်": 1096,
      "နၤလီၤ": 1097,
      "ရ့": 1098,
      "အခံ": 1099,
      "ၡူ": 1100,
      "ပူၤန့ၣ်": 1101,
      "ဆှး": 1102,
      "ဟ့": 1103,
      "လီၤအသး": 1104,
      "မၤန့ၢ်": 1105,
      "စံးဆၢဝဲ": 1106,
      "တတီၤ": 1107,
      "ဒ်ပှၤ": 1108,
      "သးဝံၣ်": 1109,
      "အခ့": 1110,
      "ဘျၢ": 1111,
      "နၢ": 1112,
      "လဲၤထီၣ်": 1113,
      "တး": 1114,
      "ကစၢ်ယွၤအတၢ်": 1115,
      "အုၣ်က့ၤခီၣ်က့ၤ": 1116,
      "ကလဲာ်": 1117,
      "လူၤ": 1118,
      "ကစံၣ်": 1119,
      "မၤဘၣ်": 1120,
      "ခူသူၣ်": 1121,
      "ဆူယွၤ": 1122,
      "ဝးတရံး": 1123,
      "တချုး": 1124,
      "သုမ့ၢ်": 1125,
      "ကူး": 1126,
      "ဝဲန့ၣ်": 1127,
      "အသိးလီၤ": 1128,
      "စီၤယၤကိာ်": 1129,
      "အိၣ်လၢ": 1130,
      "မုၢ်လၢ်": 1131,
      "ကျါ": 1132,
      "မ့ၢ်လၢ": 1133,
      "ဘါထုကဖၣ်": 1134,
      "နၢ်ပၢၢ်": 1135,
      "ဆ့ၣ်နီၤ": 1136,
      "နီၢ်မၤရံ": 1137,
      "ဘံၣ်": 1138,
      "ဟရိၣ်": 1139,
      "ဖဲယ": 1140,
      "ဒိၣ်ထီၣ်": 1141,
      "ကွၢ်ထွဲ": 1142,
      "ထံၣ်န့ၢ်": 1143,
      "သွံၣ်": 1144,
      "ဒ့": 1145,
      "ပီၣ်လဲၣ်": 1146,
      "ရံၤ": 1147,
      "တၢ်ကတိၤ": 1148,
      "အမဲာ်": 1149,
      "ယၤလီၤ": 1150,
      "နၤဧ": 1151,
      "ဖဲအဝဲ": 1152,
      "စပံးထံ": 1153,
      "ကဝီၤ": 1154,
      "တံၢ်": 1155,
      "သးအုး": 1156,
      "ကၢ်": 1157,
      "ဒုးအိၣ်": 1158,
      "စီၤအၤဟရိၣ်": 1159,
      "ပညီ": 1160,
      "အတၢ်သိၣ်တၢ်သီ": 1161,
      "ဟု": 1162,
      "အဂၤတဖၣ်": 1163,
      "အစၢၤအသွဲၣ်": 1164,
      "တၢ်နာ်": 1165,
      "အံၤန့ၣ်": 1166,
      "လၢယက": 1167,
      "တၢ်သူၣ်": 1168,
      "အဒါ": 1169,
      "အဝဲသ့ၣ်လၢ": 1170,
      "လၢတၢ်လုၢ်": 1171,
      "တနံၣ်": 1172,
      "တၢ်လုၢ်ဟံၣ်": 1173,
      "အ့ၤစ": 1174,
      "အ့": 1175,
      "လီၤဆီ": 1176,
      "ဒီးလဲၤ": 1177,
      "ကဆှီ": 1178,
      "ဖိဃီဖိ": 1179,
      "ပာ်ဖျါ": 1180,
      "ခီပညီ": 1181,
      "ဒ်သိးအက": 1182,
      "သုးဖိ": 1183,
      "စိကမီၤ": 1184,
      "တြီ": 1185,
      "ဧး": 1186,
      "ဟဲထီၣ်": 1187,
      "လိာ်အသး": 1188,
      "မဲာ်ဆှး": 1189,
      "အဖီလာ်": 1190,
      ".’": 1191,
      "ဆီၣ်": 1192,
      "ဝဲလၢအ": 1193,
      "မူး": 1194,
      "သးစၢ်": 1195,
      "သတး": 1196,
      "လီၤဘၣ်": 1197,
      "လီၤကွံာ်": 1198,
      "နၢမူ": 1199,
      "ကစံၣ်ညီၣ်": 1200,
      "အမါ": 1201,
      "ဒီးဝ့ၢ်": 1202,
      "ပူၤလီၤ": 1203,
      "နၢ်တဖၣ်": 1204,
      "တၢ်အၢၣ်လီၤအီလီၤ": 1205,
      "ဟါ": 1206,
      "စီၤန": 1207,
      "တၢ်အီ": 1208,
      "လိၤမိၤ": 1209,
      "ကလီ": 1210,
      "ယွၤအတၢ်လုၢ်ဟံၣ်": 1211,
      "စဲ": 1212,
      "လၢတၢ်လီၢ်": 1213,
      "ရူၤသး": 1214,
      "ဃံ": 1215,
      "အပျဲၢ်အဘီၣ်": 1216,
      "ကွံ": 1217,
      "ဆူညါ": 1218,
      "စီၤၡမူၤအ့လး": 1219,
      "အတၢ်ကတိၤ": 1220,
      "အခီၣ်ထံး": 1221,
      "မံၣ်": 1222,
      "အန့ၣ်ဝံၤဒီး": 1223,
      "ၡသး": 1224,
      "ပၢတၢ်": 1225,
      "သ့တၢ်လၢာ်": 1226,
      "ဖလ့": 1227,
      "ယၤလၢ": 1228,
      "သ့ၣ်တဖၣ်အံၤ": 1229,
      "အး": 1230,
      "တဖၣ်အပူၤ": 1231,
      "ဝံအ့ၤ": 1232,
      "စိတၢ်": 1233,
      "ဖဲဝ့ၢ်": 1234,
      "တၢ်ဖီၣ်": 1235,
      "ဝံအ့ၤလံယၤ": 1236,
      "ခူၣ်": 1237,
      "ဒ်အ": 1238,
      "ဖံဖု": 1239,
      "လၢ်လၢ်လၢအ": 1240,
      "ဖလ့ၡသး": 1241,
      "ယပှၤဂီၢ်မုၢ်": 1242,
      "ဒီဘ့ၣ်": 1243,
      "စီၤဟ": 1244,
      "ဃိ": 1245,
      "ပလီၢ်": 1246,
      "ယိၣ်": 1247,
      "အဝ့ၢ်": 1248,
      "ဘျါ": 1249,
      "ကီၤ": 1250,
      "တလိၤ": 1251,
      "တၢ်ကမၣ်": 1252,
      "ပှၤကိးဂၤဒဲး": 1253,
      "စံးဘၣ်တဲဘၣ်": 1254,
      "အခ့အပှၤ": 1255,
      "လီၤတၢ်": 1256,
      "တ့ၢ်အီၤ": 1257,
      "မဲ": 1258,
      "တၢ်လၢယ": 1259,
      "နာ်က့": 1260,
      "တဂၤဧိၤ": 1261,
      "ပူၤဒီး": 1262,
      "ဖျဲၣ်": 1263,
      "ဝဲလၢတၢ်": 1264,
      "မိၢ်ပၢ်ဖံဖု": 1265,
      "ဒံ": 1266,
      "သုကစၢ်ယွၤ": 1267,
      "မုၢ်နံၤ": 1268,
      "က့ၤကဒါက့ၤ": 1269,
      "လၢပှဲၤ": 1270,
      "မ့ၢ်တၢ်တီ": 1271,
      "ဖီခိၣ်": 1272,
      "ီလူး": 1273,
      "ကမၢ": 1274,
      "စိတၢ်ကမီၤ": 1275,
      "ကသ့ၣ်": 1276,
      "ဂၢၢ်ကျၢၤ": 1277,
      "လ့း": 1278,
      "အါထီၣ်": 1279,
      "ကဟဲ": 1280,
      "အိၣ်ဖှိၣ်": 1281,
      "နီတဘျီ": 1282,
      "ကိ": 1283,
      "တထံၣ်": 1284,
      "လၢကမၤ": 1285,
      "လုၢ်အ": 1286,
      "နီၢ်ခိ": 1287,
      "တီတလိၤ": 1288,
      "တမ့ၢ်ဘၣ်": 1289,
      "ကညီ": 1290,
      "စံာ်": 1291,
      "ပနီၣ်": 1292,
      "သၤ": 1293,
      "ဘၣ်န့ၣ်": 1294,
      "ကနၢ": 1295,
      "တဘျီဃီ": 1296,
      "အ့ၤစတၢ်": 1297,
      "အမိၢ်": 1298,
      "လၢစီၤပၤ": 1299,
      "မံး": 1300,
      "ယီၤ": 1301,
      "ဘဧၤ": 1302,
      "အဝဲသ့ၣ်အတၢ်": 1303,
      "နီၢ်ရူၤသး": 1304,
      "ကထိ": 1305,
      "တဲၤ": 1306,
      "လုာ်": 1307,
      "လီၤတံၢ်": 1308,
      "နၣ်": 1309,
      "တဖၣ်လၢတၢ်": 1310,
      "ဖဲသု": 1311,
      "အဒဲ": 1312,
      "ယၢၤ": 1313,
      "အတီၢ်": 1314,
      "တဖၣ်အဂီၢ်": 1315,
      "ဖဲပှၤ": 1316,
      "ခွဲး": 1317,
      "တၢ်လုၢ်လီၢ်": 1318,
      "ပမ့ၢ်": 1319,
      "ဟံးဃာ်": 1320,
      "သနာ်က့": 1321,
      "လၢညါ": 1322,
      "အဝဲမ့ၢ်": 1323,
      "ဖိထၢ": 1324,
      "ကွီၢ်": 1325,
      "ပသး": 1326,
      "အဂံၢ်": 1327,
      "စီၤယံး": 1328,
      "အၢၣ်လီၤအီလီၤ": 1329,
      "ဘိး": 1330,
      "ပၢဘၣ်တၢ်": 1331,
      "တံာ်": 1332,
      "အနံၣ်": 1333,
      "ကံယၤ": 1334,
      "ဃါ": 1335,
      "တၢ်ခဲလၢာ်": 1336,
      "တဂၤအံၤ": 1337,
      "ကလာ်": 1338,
      "စီၤအဘ": 1339,
      "ဒီးအတၢ်": 1340,
      "ဘျီၣ်": 1341,
      "ဒီးလၢ": 1342,
      "တဂၤဒီး": 1343,
      "ခီဂာ်": 1344,
      "တၢ်အၢတၢ်သီ": 1345,
      "ကရ": 1346,
      "တဖၣ်အကျါ": 1347,
      "သးစူၤ": 1348,
      "တမံၤမံၤ": 1349,
      "ယိၤနါ": 1350,
      "တၢ်ခဲ": 1351,
      "လၢအသး": 1352,
      "ပူၤကွံာ်": 1353,
      "ဒီပုၢ်ဝဲၢ်ခွါ": 1354,
      "ပတၢ်": 1355,
      "န့ၣ်က": 1356,
      "ဘၣ်အီၤ": 1357,
      "ပှၢ်မုၢ်": 1358,
      "ကီၢ်အံၣ်စရ့လးအပှၤဂီၢ်မုၢ်": 1359,
      "တလါ": 1360,
      "တၢ်ဆၢကတီၢ်": 1361,
      "အိၣ်ဘှံး": 1362,
      "အံၤမ့ၢ်တၢ်": 1363,
      "တကလုာ်": 1364,
      "အါအါ": 1365,
      "အနီၣ်": 1366,
      "အိၣ်ဆိး": 1367,
      "ဟဲလီၤ": 1368,
      "ဟးဂီၤကွံာ်": 1369,
      "ခံး": 1370,
      "တစဲး": 1371,
      "ပဝဲ": 1372,
      "ပှီၢ်": 1373,
      "ပာ်သး": 1374,
      "တုၤဒၣ်လဲာ်": 1375,
      "အအိၣ်လီၤ": 1376,
      "တဲၤတဲ": 1377,
      "ကလုၢ်": 1378,
      "ညိ": 1379,
      "တဖၣ်ဆူ": 1380,
      "သပှၢ်ကတၢၢ်": 1381,
      "စၢ": 1382,
      "အခီပညီ": 1383,
      "ဖဲန": 1384,
      "အဒိ": 1385,
      "ဒီးကယဲၢ်": 1386,
      "ခံဆံ": 1387,
      "ယါ": 1388,
      "လုၣ်": 1389,
      "ဝ့ၤ": 1390,
      "အိ": 1391,
      "ဒီးပာ်": 1392,
      "စံးဘၣ်အဝဲသ့ၣ်": 1393,
      "မိၢ်ပၢ်ဖံဖုလၢပျၢၤ": 1394,
      "ပၢဘၣ်တၢ်ခဲလၢာ်": 1395,
      "တသ့ၣ်ညါ": 1396,
      "မ့ၤ": 1397,
      "မဆါ": 1398,
      "လီၣ်": 1399,
      "ဒီးစံးဝဲ": 1400,
      "ဒီးယက": 1401,
      "အီၤဒ်": 1402,
      "တၢ်အုၣ်": 1403,
      "ဟဲဆူ": 1404,
      "ဟဲတုၤ": 1405,
      "အခိၣ်အ": 1406,
      "ဃိး": 1407,
      "ရ့း": 1408,
      "တကး": 1409,
      "လဲၤတၢ်": 1410,
      "ပှၤတဂၤလၢအ": 1411,
      "မၢလီၤ": 1412,
      "တန့ၢ်": 1413,
      "ဒီးယၤ": 1414,
      "ဒီးဒုး": 1415,
      "စံးဝဲလၢ": 1416,
      "ကီတၢ်ခဲ": 1417,
      "စီၤယိၤၡူ": 1418,
      "တၢ်လုၢ်တၢ်ပာ်": 1419,
      "ဒ်န့ၣ်အသိး": 1420,
      "စှၤ": 1421,
      "ပှၢ်မုၢ်ကနၢ": 1422,
      "ကဘျ": 1423,
      "ယီၣ်": 1424,
      "အထံ": 1425,
      "မ့ၢ်န": 1426,
      "အခါန့ၣ်": 1427,
      "အန့ၣ်ဝံၤ": 1428,
      "ကၣ်": 1429,
      "ပသူ": 1430,
      "ဟီၣ်ခိၣ်ဖိ": 1431,
      "ဒ်လဲၣ်န့ၣ်": 1432,
      "ကပာ်": 1433,
      "တမၤ": 1434,
      "ယူး": 1435,
      "အဘါ": 1436,
      "မ့ၢ်မတၤ": 1437,
      "တမံၤဃီ": 1438,
      "လၢမူခိၣ်": 1439,
      "အဂ့ၢ်န့ၣ်လီၤ": 1440,
      "ခီၣ်ထံး": 1441,
      "တိာ်": 1442,
      "သူၣ်ပာ်သး": 1443,
      ".)": 1444,
      "ထီၣ်အသး": 1445,
      "တကဆှီ": 1446,
      "ခီဖျိလၢ": 1447,
      "အဂီၤ": 1448,
      "လီၤမၢ်": 1449,
      "ဘၣ်အၢ": 1450,
      "ကတဲ": 1451,
      "စူၢ်တၢ်နာ်": 1452,
      "ကလံၤစိး": 1453,
      "မနၤ": 1454,
      "ဝဲဒ်": 1455,
      "မ့ၢ်အ": 1456,
      "ယွၤလီၤ": 1457,
      "ဆိကတီၢ်": 1458,
      "ဖံးတၢ်မၤ": 1459,
      "ပီ": 1460,
      "အသိ": 1461,
      "ဝဲဘၣ်": 1462,
      "တဖၣ်လၢအအိၣ်": 1463,
      "သုကဘၣ်": 1464,
      "မိၤအး": 1465,
      "ဂုာ်ကျဲးစၢး": 1466,
      "စိၣ်": 1467,
      "တၢ်ဘၣ်": 1468,
      "ပာ်ကဲ": 1469,
      "ယ့ၣ်ၡူးခရံာ်": 1470,
      "စီၤပီလူး": 1471,
      "ဒုးတၢ်ယၤ": 1472,
      "ဖဲလဲၣ်": 1473,
      "ဒီးပှၤလၢအ": 1474,
      "စီၤအ့": 1475,
      "လီၤပြ": 1476,
      "လဲး": 1477,
      "လၢတၢ်မၤ": 1478,
      "တ့ၢ်တၢ်": 1479,
      "ဟ့ၣ်ကူၣ်": 1480,
      "တၢ်မၤလိာ်": 1481,
      "ကြၢး": 1482,
      "ပပှၢ်": 1483,
      "အချ": 1484,
      "ဒၢး": 1485,
      "ဒၣ်တၢ်": 1486,
      "ဆ့ကၤ": 1487,
      "ဒိၣ်မးလီၤ": 1488,
      "တာ်": 1489,
      "န့": 1490,
      "ပ့ၤ": 1491,
      "အဘီ": 1492,
      "ဒီးအီၤ": 1493,
      "ပှၤယူဒၤဖိ": 1494,
      "ကဲကုၢ်": 1495,
      "အိၣ်ဝဲဆိး": 1496,
      "ကွဲးနီၣ်": 1497,
      "တပ": 1498,
      "ဒး": 1499,
      "အနံၤ": 1500,
      "ကီၢ်ဘၤဘူၤလိၣ်": 1501,
      "ဖျီ": 1502,
      "တနံၤန့ၣ်": 1503,
      "ဒိးန့ၢ်ဘၣ်": 1504,
      "ကိးမံၤ": 1505,
      "ခဲလၢာ်လီၤ": 1506,
      "ခဲလၢာ်န့ၣ်လီၤ": 1507,
      "သုးခိၣ်": 1508,
      "မၤတ့ၢ်ဝဲ": 1509,
      "စီၤဧ့": 1510,
      "အုးသးအုး": 1511,
      "လၢစီၤ": 1512,
      "ဒီးစံး": 1513,
      "န့ၣ်ဧါ": 1514,
      "တဖၣ်အတၢ်": 1515,
      "ကျိာ်": 1516,
      "ပှၤအါ": 1517,
      "အ့ၣ်": 1518,
      "ၤၡ": 1519,
      "တဖၣ်အသိး": 1520,
      "အါဂၤ": 1521,
      "ဒီးမၤသံ": 1522,
      "ကညး": 1523,
      "တၢ်ဖိး": 1524,
      "သဲ": 1525,
      "လီၤက့ၤ": 1526,
      "တဖၣ်ဘၣ်တၢ်": 1527,
      "ကစၢ်ယွၤဧၢ": 1528,
      "ကမူၣ်": 1529,
      "လၢအမ့ၢ်ဝဲ": 1530,
      "ကလံၤထံး": 1531,
      "တၢ်သိၣ်တၢ်သီ": 1532,
      "ထီၣ်ပှဲၤ": 1533,
      "ဘ့း": 1534,
      "လၢကီၢ်အဲၤကူပတူး": 1535,
      "တၢ်ဆါ": 1536,
      "ယွၤစံးဘၣ်": 1537,
      "စံၣ်တဲၤတဲ": 1538,
      "ကဟ့ၣ်": 1539,
      "ပှၤလ့ၤဝံ": 1540,
      "အိၣ်ခိး": 1541,
      "ကိးပသူ": 1542,
      "ဂ့ၢ်လိာ်": 1543,
      "ဝံယိၤနါ": 1544,
      "ဆိၣ်အၢ": 1545,
      "ဘှီထီၣ်": 1546,
      "ဖိထၢဖိ": 1547,
      "တြဲၤ": 1548,
      "ကျဲၤ": 1549,
      "လၢယဂီၢ်": 1550,
      "စီၤၡလိၤမိၤ": 1551,
      "တၢ်ဖုး": 1552,
      "သ့ၣ်နီၣ်ထီၣ်က့ၤ": 1553,
      "ယၢ်ဒ့ၣ်": 1554,
      "တုၤအ": 1555,
      "စီၤယိၤအ": 1556,
      "နီတစုဘၣ်": 1557,
      "က့ၣ်": 1558,
      "ကဒဲ": 1559,
      "မၤဘူၣ်": 1560,
      "ဖိတဂၤ": 1561,
      "ယူာ်": 1562,
      "သတးဒီး": 1563,
      "ဘီၣ်": 1564,
      "အသုးမုၢ်": 1565,
      "လၢတၢ်သူၣ်": 1566,
      "နီၢ်အ့ၤစတၢ်": 1567,
      "ဃံၤ": 1568,
      "ဧ့ၤ": 1569,
      "ဝဲဖဲ": 1570,
      "လၢအဂီၢ်": 1571,
      "ကမၤသံ": 1572,
      "ကွဲးအသး": 1573,
      "ဘ့ၤသ": 1574,
      "ဃူတၢ်ဖိး": 1575,
      "ဘဧၤလး": 1576,
      "မဆါတနံၤအံၤ": 1577,
      "ရဲၣ်": 1578,
      "သံၣ်": 1579,
      "တၢ်ဖှီၣ်": 1580,
      "ဘၣ်လၢ": 1581,
      "လဲၢ်": 1582,
      "ပျံၤတၢ်ဖုး": 1583,
      "ကကဲထီၣ်": 1584,
      "လူၢ်": 1585,
      "ဒီးဖဲ": 1586,
      "သးညီ": 1587,
      "အီၤဘၣ်": 1588,
      "နာ်က့ၤ": 1589,
      "အတြ": 1590,
      "လၢကစၢၢ်": 1591,
      "န့ၣ်တဂ့ၤ": 1592,
      "သ့ၣ်သ့ၣ်": 1593,
      "ယၤတက့ၢ်": 1594,
      "ပဒိၣ်ပပှၢ်": 1595,
      "ပၢဘၣ်တၢ်ခဲလၢာ်ကစၢ်": 1596,
      "ကိၤ": 1597,
      "ဖၤ": 1598,
      "ဘၣ်သး": 1599,
      "အလီၢ်န့ၣ်လီၤ": 1600,
      "စီၤယဟိ": 1601,
      "ပိာ်ထွဲ": 1602,
      "မ့ၢ်တၢ်လၢအ": 1603,
      "ပှၤတဂၤလၢ်လၢ်လၢအ": 1604,
      "အဖိခွါစီၤ": 1605,
      "တခီဘီမုၢ်": 1606,
      "တဲး": 1607,
      "ဒီးကစၢ်ယွၤ": 1608,
      "ဒီးအဝဲဒၣ်": 1609,
      "ကွံာ်ပှၤ": 1610,
      "စီၤယိၤဟၣ်": 1611,
      "အဘီအမုၢ်": 1612,
      "တၢ်တ": 1613,
      "လၢသုက": 1614,
      "ယူးယီၣ်": 1615,
      "ကဟၣ်": 1616,
      "တသီ": 1617,
      "အလုၢ်အ": 1618,
      "က့ၤနာ်က့ၤ": 1619,
      "နၤလၢ": 1620,
      "ဒီးအဖိခွါ": 1621,
      "သၣ်ဝံၤ": 1622,
      "အဒူၣ်ထၢ": 1623,
      "တၢ်အီၣ်တၢ်အီ": 1624,
      "ဟုဧိၤ": 1625,
      "မၣ်": 1626,
      "ရိ": 1627,
      "ဟူး": 1628,
      "သးထီၣ်": 1629,
      "ကျိၤ": 1630,
      "လၢယ့ၣ်ၡူး": 1631,
      "တြီၤ": 1632,
      "ဖှံသးညီ": 1633,
      "ပ့ၤနီၣ်": 1634,
      "တဲးလဲး": 1635,
      "အဒုၣ်": 1636,
      "ဖၢမုၢ်": 1637,
      "ကိးမံၤဒဲး": 1638,
      "ဃၤ": 1639,
      "တဘၣ်တၢ်": 1640,
      "လၢထီၣ်ပှဲၤ": 1641,
      "လီၤဝဲ": 1642,
      "တဖၣ်အလိၤ": 1643,
      "သးဟ့": 1644,
      "ဒၣ်ထဲ": 1645,
      "တုၤလီၤ": 1646,
      "စံးဆၢအီၤ": 1647,
      "ကဲၤထီၣ်": 1648,
      "အဒိၣ်ကတၢၢ်": 1649,
      "အသးသမူ": 1650,
      "လီၤဆဲး": 1651,
      "ဘၣ်သ့ၣ်သ့ၣ်": 1652,
      "တဂၤလီၤ": 1653,
      "ဂ့ၤဂ့ၤ": 1654,
      "လံတၢ်": 1655,
      "ဒီးပှၤလုၢ်တၢ်အခိၣ်": 1656,
      "စူၢ်က့ၤနာ်က့ၤ": 1657,
      "ဘျါက့ၤ": 1658,
      "နိၣ်": 1659,
      "ဧိၤဟုဧိၤ": 1660,
      "ဆိကတၢၢ်": 1661,
      "ခုသးခု": 1662,
      "ဒုၣ်ဒွဲၣ်": 1663,
      "လီၤပှီၢ်": 1664,
      "တနၢ်": 1665,
      "မဲာ်တဲးလဲး": 1666,
      "အဖိမုၣ်": 1667,
      "ဘုၣ်": 1668,
      "တၢ်လၢန": 1669,
      "တဂၤလၢ": 1670,
      "တဂၤဂၤ": 1671,
      "အဒုၣ်အဒါ": 1672,
      "ကံၣ်": 1673,
      "တၢ်တဖၣ်": 1674,
      "ဒီးနီၢ်": 1675,
      "မၤကမၣ်": 1676,
      "ယၤမံၣ်": 1677,
      "လၢအဝဲဒၣ်": 1678,
      "အစုပူၤ": 1679,
      "အဂ့ၤကတၢၢ်": 1680,
      "အိၣ်ဝဲလၢ": 1681,
      "မူဒါ": 1682,
      "လၢနက": 1683,
      "လ့ၣ်ကဟၣ်": 1684,
      "အခါန့ၣ်လီၤ": 1685,
      "ကမၢကမၣ်": 1686,
      "ဃိာ်": 1687,
      "ဆၢၣ်": 1688,
      "စီၤနၤ": 1689,
      "သ့ၣ်စၤ": 1690,
      "အတၢ်လုၢ်ဟံၣ်": 1691,
      "ဟံၣ်ဖိဃီဖိ": 1692,
      "ဘၣ်ဃးဒီးတၢ်": 1693,
      "ထူၣ်ဖျဲး": 1694,
      "တကးဒံးဘၣ်": 1695,
      "ကံၢ်": 1696,
      "ထါ": 1697,
      "ဆူပှၤ": 1698,
      "ကွံာ်အဝဲသ့ၣ်": 1699,
      "ပာ်သူၣ်ပာ်သး": 1700,
      "ဘျး": 1701,
      "ပှၤတဂၤဂၤ": 1702,
      "ဟဲက့ၤကဒါက့ၤ": 1703,
      "ဖိး": 1704,
      "ယၣ်": 1705,
      "ဝီ": 1706,
      "မုၢ်ဆ့ၣ်": 1707,
      "ယၤဒီး": 1708,
      "ဒၣ်ယဲ": 1709,
      "ကဘၣ်တၢ်မၤ": 1710,
      "သန့ၤ": 1711,
      "တံၤသကိး": 1712,
      "ကြ": 1713,
      "ကလး": 1714,
      "နုၢ်": 1715,
      "ဘိၣ်": 1716,
      "ဘၣ်ထွဲ": 1717,
      "ထံကျိယၢ်ဒ့ၣ်": 1718,
      "နၤဧၣ်": 1719,
      "ကပၤ": 1720,
      "ဟီ": 1721,
      "အဝဲတ": 1722,
      "န့ၢ်သါ": 1723,
      "ယဒါ": 1724,
      "ၡဲ": 1725,
      "သးပှၢ်": 1726,
      "အီၤတက့ၢ်": 1727,
      "ကလိ": 1728,
      "အၢအသီ": 1729,
      "ခီဖျိတၢ်": 1730,
      "သ့ၣ်စၤယံး": 1731,
      "ကဘီ": 1732,
      "ခုၣ်": 1733,
      "ထိ": 1734,
      "နတ": 1735,
      "ယိး": 1736,
      "ဂီၤတၢ်ဖီၣ်": 1737,
      "ဒ်သိးအ": 1738,
      "ထူလီၤ": 1739,
      "ဆ့ဆ့": 1740,
      "သးပ့ၤနီၣ်": 1741,
      "တ့ၢ်သု": 1742,
      "လၢာ်လၢာ်": 1743,
      "ကတိၤတၢ်ဒီး": 1744,
      "မၢကဲကုၢ်": 1745,
      "နပှၤ": 1746,
      "မျ": 1747,
      "အိၣ်ဒံး": 1748,
      "အိၣ်ဖျဲၣ်": 1749,
      "အီၤလၢအ": 1750,
      "ယွၤစံးဝဲဒၣ်": 1751,
      "ကွဲ": 1752,
      "အတၢ်ဒဲးဘး": 1753,
      "ဒီးအပှၤ": 1754,
      "တုၤလၢ": 1755,
      "တ့လီၤ": 1756,
      "လၢအဂ့ၤ": 1757,
      "ကမၤစၢၤ": 1758,
      "ဒဲစီဆှံ": 1759,
      "ဘုဧိၤဟုဧိၤ": 1760,
      "မှ": 1761,
      "မဲး": 1762,
      "အနီၢ်ကစၢ်": 1763,
      "လီၤလး": 1764,
      "ပှၤဂၤ": 1765,
      "မုၢ်တနံၤ": 1766,
      "ကစၢ်ဧၢ": 1767,
      "ဒိၣ်န့ၢ်ဒံး": 1768,
      "သွၣ်": 1769,
      "ိအၤ": 1770,
      "ူဒၤ": 1771,
      "လီၤသး": 1772,
      "သံဝဲ": 1773,
      "သူၣ်ဒဲ": 1774,
      "တၤသၣ်": 1775,
      "နးတၢ်ဖှီၣ်": 1776,
      "မီၢ်": 1777,
      "ဒီးဟ့ၣ်": 1778,
      "မၤနး": 1779,
      "အဝဲသ့ၣ်တ": 1780,
      "ဒီးတၢ်သူၣ်": 1781,
      "စီၤအလံၤ": 1782,
      "သၢဂၤ": 1783,
      "ဒီဘ့ၣ်ညါ": 1784,
      "တၢ်တီၤ": 1785,
      "ဒီဒၣ်": 1786,
      "စီၤစ": 1787,
      "တကယၤ": 1788,
      "လၢသုဂီၢ်": 1789,
      "အီၣ်တၢ်": 1790,
      "စ့ၢ်ကီးလီၤ": 1791,
      "မ့မ့ၢ်ဒ်န့ၣ်ဒီး": 1792,
      "ကပြ": 1793,
      "ဃ့ဘါထုကဖၣ်": 1794,
      "စံးဆၢဝဲဒၣ်": 1795,
      "ပိာ်မုၣ်န့ၣ်": 1796,
      "သံကွၢ်အီၤ": 1797,
      "ကိၢ်တၢ်ဂီၤ": 1798,
      "အိၣ်ဒီးအဖိခွါ": 1799,
      "လူ": 1800,
      "ပှိၤ": 1801,
      "ပှၤအၢ": 1802,
      "ဝံသးစူၤ": 1803,
      "နီၤဖး": 1804,
      "စူၤရံ": 1805,
      "ညိကွံာ်": 1806,
      "က့ၢ်": 1807,
      "ကမ့ၢ်": 1808,
      "ယွၤအသး": 1809,
      "တ့ၢ်ယၤ": 1810,
      "အိး": 1811,
      "ဒၣ်နဲ": 1812,
      "ၢၣ်စၢၤ": 1813,
      "အသိးန့ၣ်တက့ၢ်": 1814,
      "အကပၤ": 1815,
      "ရှ": 1816,
      "သဒၢ": 1817,
      "အစိၤ": 1818,
      "ပှၤတဖၣ်လၢအ": 1819,
      "ပှၤဖလ့ၡသး": 1820,
      "ဖိမုၣ်": 1821,
      "အဂီၢ်ဒီး": 1822,
      "သ့ဝဲလီၤ": 1823,
      "သူၣ်ဘၣ်သး": 1824,
      "သုးဖိတဖၣ်": 1825,
      "ဂုၤ": 1826,
      "နံ": 1827,
      "ယသ့ၣ်ညါ": 1828,
      "လွဲ": 1829,
      "အဝဲမၤ": 1830,
      "တဂၤန့ၣ်လီၤ": 1831,
      "ကမၤအသး": 1832,
      "တမံၤလၢ်လၢ်": 1833,
      "စၢဃာ်": 1834,
      "ကဖၢ": 1835,
      "ပှၤပိာ်ခွါ": 1836,
      "တနာ်": 1837,
      "ဃ့ကညး": 1838,
      "လၢကီၢ်ယူဒၤ": 1839,
      "ထူးတၢ်တီၤ": 1840,
      "ရှလ့ၣ်": 1841,
      "စါ": 1842,
      "သက": 1843,
      "အဘျုး": 1844,
      "ဒီးဟ့ၣ်လီၤ": 1845,
      "အတြဲၤ": 1846,
      "ထူလီၤယိာ်": 1847,
      "ရး": 1848,
      "အယိာ်": 1849,
      "ပှၤဟီၣ်ခိၣ်ဖိ": 1850,
      "အတလါ": 1851,
      "အဖီခိၣ်န့ၣ်လီၤ": 1852,
      "ဖီၣ်န့ၢ်": 1853,
      "လၢာ်လၢာ်ဆ့ဆ့": 1854,
      "တၢ်သး": 1855,
      "တၢ်သံ": 1856,
      "ဒီးစီၤပၤ": 1857,
      "လၢအမၤ": 1858,
      "အဂီၢ်တက့ၢ်": 1859,
      "တၢ်မၤအသး": 1860,
      "ထဲလဲၣ်": 1861,
      "ထွ": 1862,
      "ယီၢ်": 1863,
      "ယစံး": 1864,
      "ရံၣ်": 1865,
      "မ့း": 1866,
      "လီတၢ်": 1867,
      "ယရူၤရှလ့ၣ်": 1868,
      "နၢ်ဟူဘၣ်": 1869,
      "ကံးလ": 1870,
      "ပီး": 1871,
      "တၢ်လိၤ": 1872,
      "တၢ်ကွံ": 1873,
      "ဒီခိၣ်": 1874,
      "လီၤပျံၤ": 1875,
      "ဘၣ်အသး": 1876,
      "အဃံ": 1877,
      "ယဲဒၣ်": 1878,
      "ကွံာ်အီၤန့ၣ်လီၤ": 1879,
      "မှံၤ": 1880,
      "လၢထံ": 1881,
      "ပှၤသီ": 1882,
      "မ့ၢ်ပှၤလၢအ": 1883,
      "သူၣ်လီၤ": 1884,
      "လံတၢ်လံ": 1885,
      "နမၤ": 1886,
      "ပစိာ်": 1887,
      "န့ၣ်အဝဲ": 1888,
      "ထီၣ်ဒီး": 1889,
      "ယွၤပၢဘၣ်တၢ်ခဲလၢာ်ကစၢ်": 1890,
      "အဂီၢ်န့ၣ်တက့ၢ်": 1891,
      "ပှ့ၤဒိၣ်": 1892,
      "လီၤဂာ်ဒီး": 1893,
      "မနၤၡ": 1894,
      "ကလဲၤ": 1895,
      "ဒကဲၤ": 1896,
      "အပျၢ်": 1897,
      "ဧ့": 1898,
      "လီၤဖုး": 1899,
      "ထီၣ်ထီ": 1900,
      "တက့ၢ်လီၤ": 1901,
      "လၢဝ့ၢ်ယရူၤၡလ့ၣ်": 1902,
      "မၢ်ဒကဲၤ": 1903,
      "လီၤဂာ်ဒ်": 1904,
      "တိၢ်ဘီ": 1905,
      "စီၤအဘံ": 1906,
      "စိၢ်": 1907,
      "မိး": 1908,
      "လၢအလီၢ်": 1909,
      "လၢအပှဲၤ": 1910,
      "ကူၣ်တၢ်": 1911,
      "အပျဲၢ်အဘီၣ်တဖၣ်": 1912,
      "နီတဘျီဘၣ်": 1913,
      "အလုၢ်အလၢ်": 1914,
      "ဘၣ်လီၤ": 1915,
      "တဖၣ်မ့ၢ်ဂ့ၤ": 1916,
      "မ့ၢ်ဒၣ်": 1917,
      "အဝဲအတၢ်": 1918,
      "ကွီၤ": 1919,
      "လဲၤနုာ်ဆူ": 1920,
      "သွၣ်ခိၣ်": 1921,
      "ပှၤအၢပှၤသီ": 1922,
      "ကံ": 1923,
      "နအိၣ်": 1924,
      "ယပှၤ": 1925,
      "တၢ်ဟ့ၣ်": 1926,
      "တကြၢး": 1927,
      "ပှၤအဲၤကူပတူး": 1928,
      "အါမး": 1929,
      "ကူတၢ်": 1930,
      "မ်ပ": 1931,
      "သၢဆံ": 1932,
      "ဘြံၤ": 1933,
      "လၢဟီၣ်ခိၣ်ချၢ": 1934,
      "ပာ်ထီၣ်ထီ": 1935,
      "စီၤနိအၤ": 1936,
      "လၢအလိၤ": 1937,
      "ဘံၣ်ယၤမံၣ်": 1938,
      "လီၤတံၢ်လီၤဆဲး": 1939,
      "ဟုၣ်": 1940,
      "လၢအသံ": 1941,
      "အသးအိၣ်": 1942,
      "ကတိၤလံတၢ်လံ": 1943,
      "တရီ": 1944,
      "နုာ်လီၤ": 1945,
      "မၤဟးဂီၤကွံာ်": 1946,
      "အစိကမီၤ": 1947,
      "အဝဲသ့ၣ်မၤ": 1948,
      "ကဘၣ်မၤ": 1949,
      "ဃုာ်ဒီးအ": 1950,
      "ထံၣ်ဘၣ်ဝဲ": 1951,
      "မရံ": 1952,
      "ရူၢ်": 1953,
      "မ့ၢ်တ": 1954,
      "မ့ၢ်ယ": 1955,
      "ယွၤအံၤ": 1956,
      "အဝဲသ့ၣ်အ": 1957,
      "ယၤန့ၣ်လီၤ": 1958,
      "အါန့ၢ်": 1959,
      "မၤသံကွံာ်": 1960,
      "အဘၢၣ်စၢၤ": 1961,
      "က့ၤကဒါက့ၤဆူ": 1962,
      "စီၤယိၤအာ်": 1963,
      "ဃီၣ်": 1964,
      "လီၤက": 1965,
      "ဖဲန့ၣ်လီၤ": 1966,
      "အတၢ်လုၢ်": 1967,
      "တဂၤလဲၣ်": 1968,
      "အိၣ်ဝဲဒၣ်": 1969,
      "ၤၡူၢ်": 1970,
      "ယွၤသ့တၢ်လၢာ်": 1971,
      "အံၤစဲး": 1972,
      "ပာ်စီဆှံ": 1973,
      "ဒိၣ်န့ၢ်": 1974,
      "စီၤယိ": 1975,
      "တၢ်မၤစၢၤ": 1976,
      "ထဲတဂၤဧိၤ": 1977,
      "ဝံၤအလီၢ်ခံန့ၣ်": 1978,
      "အချၢ": 1979,
      "မနၤၡ့ၤ": 1980,
      "တဖၣ်တက့ၢ်": 1981,
      "အဃၢၤ": 1982,
      "ယဲၢ်ဆံ": 1983,
      "ကထါ": 1984,
      "လီၣ်ဖျါထီၣ်": 1985,
      "ဃဲ": 1986,
      "သဒၣ်": 1987,
      "ံၤသကိး": 1988,
      "ံးစ": 1989,
      "မ့ၢ်သု": 1990,
      "အတၢ်ကမၣ်": 1991,
      "လဲၤဒီး": 1992,
      "ဘါဆူၣ်": 1993,
      "ဃးနၤ": 1994,
      "ပျံၤတၢ်": 1995,
      "အလိၤန့ၣ်လီၤ": 1996,
      "ဝဲဒၣ်န့ၣ်လီၤ": 1997,
      "ဖှီၣ်ဖိ": 1998,
      "ပာ်ဖျါထီၣ်ဝဲ": 1999,
      "တစိၤ": 2000,
      "ယမၤ": 2001,
      "လုး": 2002,
      "တၢ်အိၣ်": 2003,
      "တၢ်စံၣ်ညီၣ်": 2004,
      "အံၤန့ၣ်လီၤ": 2005,
      "ဂီၢ်ဂီၢ်": 2006,
      "ဖဲပ": 2007,
      "ဒိၣ်ဒိၣ်": 2008,
      "ဖျိး": 2009,
      "မူဝဲ": 2010,
      "ခဲလၢာ်န့ၣ်": 2011,
      "တီတၢ်လိၤ": 2012,
      "နၤဧမံ": 2013,
      "စူး": 2014,
      "ဝ့": 2015,
      "အသ": 2016,
      "အလံၤ": 2017,
      "မ့ၢ်လၢအဝဲ": 2018,
      "ကျၢၢ်": 2019,
      "တၢ်မၤနၢၤ": 2020,
      "ဟ့ၣ်လီၤအကလုၢ်": 2021,
      "ဒီးစီၤမိၤၡ့": 2022,
      "ထိၣ်ဂဲၤ": 2023,
      "အံၣ်စရ့လးအကစၢ်ယွၤ": 2024,
      "ဆူယွၤအအိၣ်": 2025,
      "ခူၣ်လီၤ": 2026,
      "ပြ": 2027,
      "အမူး": 2028,
      "အဆိကတၢၢ်": 2029,
      "ဧၣ်": 2030,
      "လၢအတ": 2031,
      "ဟ့ၣ်အီၤ": 2032,
      "ဟဲဝဲ": 2033,
      "အဒူၣ်ဖိထၢဖိ": 2034,
      "စံာ်ပျီ": 2035,
      "မိၢ်ပၢ်ဖံဖုလၢပျၢၤတဖၣ်": 2036,
      "ပှၤအါဂၤ": 2037,
      "တၢး": 2038,
      "အဝၤ": 2039,
      "လီၤဒိ": 2040,
      "လၢအပူၤ": 2041,
      "တကျ": 2042,
      "ဆူကီၢ်": 2043,
      "တ့ၢ်ပှၤ": 2044,
      "လၢပှၤကညီ": 2045,
      "ကပၢ": 2046,
      "လၢပီၣ်လဲၣ်": 2047,
      "ကသ့ဒ်လဲၣ်": 2048,
      "လၢခံကတၢၢ်": 2049,
      "တဒူၣ်": 2050,
      "ပသ့ၣ်ညါ": 2051,
      "တၢ်ယာ်": 2052,
      "အံၤအဃိ": 2053,
      "ကစီ": 2054,
      "အဝဲသ့ၣ်ခဲလၢာ်": 2055,
      "လၢနဂီၢ်": 2056,
      "လၢတၢ်လုၢ်လီၢ်": 2057,
      "အဂံၢ်အဘါ": 2058,
      "ကယ": 2059,
      "ဃ့ၣ်": 2060,
      "နပှၤဂီၢ်မုၢ်": 2061,
      "တၢ်ဖိ": 2062,
      "တၢ်မၢ": 2063,
      "အဝဲသ့ၣ်မ့ၢ်": 2064,
      "ဒိၣ်ပှ့ၤဒိၣ်": 2065,
      "လဲၤတုၤ": 2066,
      "ဒ်သိးယက": 2067,
      "ဂံၢ်ဆူၣ်": 2068,
      "ဃၣ်ကွံာ်": 2069,
      "ကစၢၢ်ကလိ": 2070,
      "အဆၢကတီၢ်န့ၣ်": 2071,
      "အကျဲစၢၤ": 2072,
      "တယံာ်": 2073,
      "လၢပှၤဂီၢ်မုၢ်": 2074,
      "စီၤမၢ်ဒကဲၤ": 2075,
      "နီၢ်ဃးနၤ": 2076,
      "ထဲသိး": 2077,
      "ကူၣ်ဘၣ်": 2078,
      "စိၤလီၤ": 2079,
      "ဆံးစၢ်": 2080,
      "ဘိးဘၣ်": 2081,
      "ယဖိခွါ": 2082,
      "ဒီးအိၣ်": 2083,
      "ဒီးပှၤဂီၢ်မုၢ်": 2084,
      "တဖၣ်ဒီးတၢ်": 2085,
      "မုၢ်မဆါတနံၤအံၤ": 2086,
      "ခိၣ်ဒူ": 2087,
      "က့ၤဆူ": 2088,
      "ပျၤ": 2089,
      "လံန့ၣ်လီၤ": 2090,
      "ထီၣ်ဝဲလီၤ": 2091,
      "ခ့ယုၢ်": 2092,
      "တပူၤဃီ": 2093,
      "စီၤအလံၤၡါ": 2094,
      "ပှၤမၤ": 2095,
      "ယွၤမၤလိာ်": 2096,
      "အဝဲသ့ၣ်န့ၣ်လီၤ": 2097,
      "ကမဲ": 2098,
      "ဘျ့": 2099,
      "လိာ်သး": 2100,
      "စီၤအ့ၤ": 2101,
      "တီသး": 2102,
      "လွံၢ်ဆံ": 2103,
      "အခိၣ်အနၢ်တဖၣ်": 2104,
      "ဖရဲၣ်": 2105,
      "အအံၤမ့ၢ်တၢ်": 2106,
      "၁၁": 2107,
      "န့ၣ်ဘၣ်တၢ်": 2108,
      "တဖၣ်န့ၣ်တက့ၢ်": 2109,
      "န့ၢ်ပှၤ": 2110,
      "သ့ၣ်ညါဝဲ": 2111,
      "စိာ်မၢကဲကုၢ်": 2112,
      "ခီၣ်ခိၣ်": 2113,
      "နံၣ်တနံၣ်": 2114,
      "နဲဒၣ်": 2115,
      "စံးထီၣ်ပတြၢၤယွၤ": 2116,
      "ၡၤမရံ": 2117,
      "ဖှီၣ်ဖိယာ်": 2118,
      "သတူၢ်": 2119,
      "အထူ": 2120,
      "ၡံ": 2121,
      "လၢကီၢ်အံၣ်စရ့လး": 2122,
      "လီၤအသးလၢ": 2123,
      "လီၤဃံၤ": 2124,
      "သုဘၣ်": 2125,
      "သုအိၣ်": 2126,
      "စီၤၡံ": 2127,
      "လီခီ": 2128,
      "စံၣ်တဲၤတဲလီၤ": 2129,
      "စဲၤ": 2130,
      "လံး": 2131,
      "အံး": 2132,
      "ပှၤတနီၤ": 2133,
      "လၢအဟဲ": 2134,
      "အဝဲကဘၣ်": 2135,
      "ကတူၢ်": 2136,
      "တဂၤအသိး": 2137,
      "နၤသၣ်": 2138,
      "ဒ်သိးအံၤ": 2139,
      "စုလီၢ်": 2140,
      "သိဖါ": 2141,
      "စၤရ": 2142,
      "ချ့ချ့": 2143,
      "ဆူးတၢ်ဆါ": 2144,
      "ဟီထီၣ်ကွံာ်": 2145,
      "သံး": 2146,
      "ထီၣ်အ": 2147,
      "မ့ၢ်လၢအဝဲသ့ၣ်": 2148,
      "သုလၢ": 2149,
      "လၢတၢ်သံ": 2150,
      "ပာ်တ့ၢ်": 2151,
      "ကိးအီၤလၢ": 2152,
      "ဆံးဒိၣ်": 2153,
      "တံာ်တာ်": 2154,
      "ကဒုး": 2155,
      "တၢ်ဆူ": 2156,
      "ဒီးဘၣ်တၢ်": 2157,
      "ဒီးတၢ်အ": 2158,
      "ဘၣ်ဒိ": 2159,
      "ဘၣ်ထံး": 2160,
      "ဘၣ်သူၣ်ဘၣ်သး": 2161,
      "ထီၣ်လၢ": 2162,
      "အိၣ်ပှိၤ": 2163,
      "ဆှုၣ်": 2164,
      "သီတသီ": 2165,
      "ယူဒၤဖိတဖၣ်": 2166,
      "မ်အ": 2167,
      "ပှၤတတီတလိၤ": 2168,
      "နံး": 2169,
      "န့ၣ်တ": 2170,
      "တဖၣ်ဒီးပှၤ": 2171,
      "တကထိ": 2172,
      "ဆူယအိၣ်": 2173,
      "ဟ့ၣ်တၢ်": 2174,
      "နီတစဲး": 2175,
      "လံၤလံၤ": 2176,
      "ဘိးဘၣ်သ့ၣ်ညါ": 2177,
      "အဖၢမုၢ်": 2178,
      "ၡိၣ်": 2179,
      "ဒီးလၢတၢ်": 2180,
      "တဖၣ်အိၣ်": 2181,
      "ိၤဧး": 2182,
      "ကွဲၤ": 2183,
      "အတၢ်နာ်": 2184,
      "တဂၤဂ့ၤ": 2185,
      "ဖှီ": 2186,
      "အကျိာ်": 2187,
      "စ့ၢ်ကီးဧါ": 2188,
      "မံမီၢ်": 2189,
      "ဒၢနုာ်": 2190,
      "ဟဲက့ၤစိာ်": 2191,
      "အဟံၣ်ဖိဃီဖိ": 2192,
      "သမူထီၣ်က့ၤ": 2193,
      "လၢပှဲၤပှဲၤ": 2194,
      "သတူၢ်ကလာ်": 2195,
      "ဆံးဒိၣ်လဲၣ်": 2196,
      "အပူၤတက့ၢ်": 2197,
      "ဟ့ၣ်ယၤ": 2198,
      "ဒီးအီၣ်": 2199,
      "လၢအအိၣ်လၢ": 2200,
      "ဝဲဒၣ်လီၤ": 2201,
      "ထးခိၣ်": 2202,
      "ဧ့ၤဘြံၤ": 2203,
      "အထူၣ်": 2204,
      "ဘၣ်တၢ်မၤသံ": 2205,
      "လံၢ်": 2206,
      "ပှၤအုၣ်": 2207,
      "လၢအအိၣ်ဒီး": 2208,
      "သံကွၢ်ဝဲ": 2209,
      "ကီၤလံၢ်": 2210,
      "ကနၤဧၣ်": 2211,
      "ၡၣ်": 2212,
      "ဒ်န": 2213,
      "ဖှူ": 2214,
      "ဟီၣ်တၢ်": 2215,
      "ထီၣ်ဝဲဒၣ်": 2216,
      "ကဘၣ်တၢ်မၤသံ": 2217,
      "စီၤအၤဃာ်": 2218,
      "အါအါဂီၢ်ဂီၢ်": 2219,
      "လီၤမၢ်ကွံာ်": 2220,
      "သၣ်ဝံၤလီၤဒိ": 2221,
      "ဂၢၤ": 2222,
      "ရၢ": 2223,
      "သဂၢၢ်": 2224,
      "အဝဲသ့ၣ်လဲၤ": 2225,
      "အသးလၢအ": 2226,
      "ပာ်စၢၤ": 2227,
      "နၤဒီး": 2228,
      "သ့ဝဲ": 2229,
      "နီၢ်နၤဧမံ": 2230,
      "လိၤလိၤ": 2231,
      "အလီၢ်န့ၣ်": 2232,
      "မုၣ်ကီၤလံၢ်": 2233,
      "တဲဝဲလၢ": 2234,
      "တီအလိၤ": 2235,
      "ဃ့ထီ": 2236,
      "တခီန့ၣ်လီၤ": 2237,
      "ဒုၣ်ယဒါ": 2238,
      "ဆၣ်ဖိကီၢ်ဖိတဖၣ်": 2239,
      "ဘူၣ်ထီၣ်ဘါထီၣ်ယွၤ": 2240,
      "ဂီၤဖံးဖါ": 2241,
      "စိၤလီၤထီ": 2242,
      "တၢ်ဒိၣ်": 2243,
      "ဒီးတုၤ": 2244,
      "တဖၣ်အအိၣ်": 2245,
      "ခိၣ်ပှၤ": 2246,
      "အသးဆူ": 2247,
      "ဟ့ၣ်လီၤသု": 2248,
      "ဆူၣ်ထီၣ်": 2249,
      "ထၢဖှိၣ်": 2250,
      "ဒိးန့ၢ်ဘၣ်တၢ်": 2251,
      "တၢ်မနုၤလဲၣ်": 2252,
      "သးဒိၣ်": 2253,
      "အဝဲအံၤ": 2254,
      "အီၤဖဲ": 2255,
      "အတဲာ်": 2256,
      "မၢ်သၤ": 2257,
      "ကံးယာ်": 2258,
      "စံယိၣ်": 2259,
      "ကဘျၣ်": 2260,
      "ပှၤလ့ၤဝံဖိတဖၣ်": 2261,
      "သရၣ်": 2262,
      "၁၂": 2263,
      "လၢလာ်": 2264,
      "ဒီးခဲကနံၣ်အံၤ": 2265,
      "တဖၣ်ဒီးအ": 2266,
      "ဖဲယ့ၣ်ၡူး": 2267,
      "အလီၢ်ကဝီၤ": 2268,
      "ယကဟ့ၣ်": 2269,
      "ပှၤတဂၤန့ၣ်": 2270,
      "တဆံခံ": 2271,
      "ံးစကံယၤ": 2272,
      "တနၤ": 2273,
      "သပၢၤ": 2274,
      "အကတၢၢ်": 2275,
      "ဒီးကီၢ်": 2276,
      "ပှၤအိၣ်": 2277,
      "စံးဘျုး": 2278,
      "ဒီးစီၤယၤ": 2279,
      "အနီၢ်ကစၢ်ဒၣ်ဝဲ": 2280,
      "စုလီၢ်ခီၣ်ခိၣ်": 2281,
      "မၤပူၤဖျဲး": 2282,
      "က့ၤအီၤ": 2283,
      "နီၢ်မၢ်သၤ": 2284,
      "့းဘ့း": 2285,
      "တၢ်လၢယွၤ": 2286,
      "အန့ၣ်တစု": 2287,
      "စပံးလီၢ်": 2288,
      "လွဲၢ်": 2289,
      "ယဲဒၣ်အံၤ": 2290,
      "ဟီၣ်တၢ်ယၢၤ": 2291,
      "ဝၢ်": 2292,
      "ဒီးဟီၣ်ခိၣ်": 2293,
      "သးစီဆှံ": 2294,
      "အဝဲသ့ၣ်လၢတၢ်": 2295,
      "အဃိန့ၣ်": 2296,
      "ပှၤအခိၣ်": 2297,
      "မဲာ်ချံ": 2298,
      "စီၤအး": 2299,
      "ကနၢ်": 2300,
      "ပျံၤမၤ": 2301,
      "ဒၣ်လဲာ်န့ၣ်": 2302,
      "တူၢ်ဘၣ်": 2303,
      "အမဲာ်ညါန့ၣ်လီၤ": 2304,
      "ဒုၣ်ဒါ": 2305,
      "မျၢ်": 2306,
      "ကစီဒီ": 2307,
      "တပူ": 2308,
      "နကဘၣ်": 2309,
      "ပကဘၣ်": 2310,
      "အအံၤမ့ၢ်": 2311,
      "ၡး": 2312,
      "သုလီၤ": 2313,
      "ကတုၤ": 2314,
      "အဃၣ်": 2315,
      "ကစၢ်ယွၤလၢအ": 2316,
      "ဒ်သိးသု": 2317,
      "အဂ့ၢ်ဒ်လဲၣ်န့ၣ်": 2318,
      "သ့ၣ်ညါဘၣ်": 2319,
      "မုၣ်ကမဲ": 2320,
      "အါန့ၢ်ဒံး": 2321,
      "လၢပဂီၢ်": 2322,
      "တိၢ်န့ၢ်": 2323,
      "ဧၣ်မိၣ်": 2324,
      "ကသံ": 2325,
      "ကပိာ်": 2326,
      "အထီ": 2327,
      "အလၤကပီၤ": 2328,
      "၁၈": 2329,
      "တၢ်န့ၣ်လီၤ": 2330,
      "မၤလိ": 2331,
      "လၢအမ့ၢ်တၢ်": 2332,
      "သူၣ်ဖှံသးညီ": 2333,
      "စိာ်တၢ်ကစီၣ်": 2334,
      "အဖီခိၣ်လီၤ": 2335,
      "မ့ၣ်အူဒၢ": 2336,
      "တဂၤဒီးတဂၤ": 2337,
      "ယထံၣ်": 2338,
      "တၢ်မ့ၢ်တၢ်တီ": 2339,
      "လၢအဘၣ်": 2340,
      "လဲလိာ်": 2341,
      "ဟ့ၣ်ပလီၢ်": 2342,
      "ဒ်သိးကမၤ": 2343,
      "ကွၢ်သိ": 2344,
      "တမံၤအံၤ": 2345,
      "ကနိး": 2346,
      "အၢမၤနး": 2347,
      "ထွဲကွၢ်ထွဲ": 2348,
      "ဘှီၣ်": 2349,
      "ဆိၣ်ကဲၤ": 2350,
      "ဝဲၢ်ကိ": 2351,
      "သးခုကစီၣ်": 2352,
      "ခ့တၢ်": 2353,
      "အကစၢ်ဒၣ်ဝဲ": 2354,
      "ပာ်ဖျါထီၣ်ဝဲလၢ": 2355,
      "ဘူၣ်တၢ်ဘါအတၢ်သိၣ်တၢ်သီ": 2356,
      "သနၢၣ်": 2357,
      "ပကစၢ်ယွၤ": 2358,
      "အဒီပုၢ်ဝဲၢ်": 2359,
      "ဒီးမ့ၢ်": 2360,
      "ထီၣ်အီၤလၢ": 2361,
      "လၢတၢ်က": 2362,
      "န့ၢ်သု": 2363,
      "တ့ၢ်ဝဲလၢ": 2364,
      "တ့ၢ်အီၤလၢ": 2365,
      "ခွံ": 2366,
      "လၢယမ့ၢ်": 2367,
      "အကူ": 2368,
      "ဆူၣ်ဆူၣ်": 2369,
      "ဆူဝ့ၢ်ယရူၤၡလ့ၣ်": 2370,
      "လီၤပြါ": 2371,
      "တပါ": 2372,
      "လီၤပျံၤလီၤဖုး": 2373,
      "နိာ်": 2374,
      "အဆၢ": 2375,
      "ပှၤလိၤ": 2376,
      "တဖၣ်အဂီၢ်န့ၣ်လီၤ": 2377,
      "သးဒူ": 2378,
      "ယွၤက": 2379,
      "တဂၤဘၣ်": 2380,
      "ကွံာ်အီၤလၢ": 2381,
      "ကျီၢ်": 2382,
      "တၢ်အၢၣ်": 2383,
      "လဲၤဝဲဆူ": 2384,
      "လဲၣ်န့ၣ်": 2385,
      "ခဲလၢာ်လၢ": 2386,
      "သူၣ်ခုသးခု": 2387,
      "ထံၣ်လၢညါ": 2388,
      "ဖးထီ": 2389,
      "ဝံတဖၣ်": 2390,
      "ကီၢ်အံၣ်စရ့လးအစီၤပၤ": 2391,
      "အမုၢ်နံၤ": 2392,
      "သ့ၣ်နီၣ်ထီၣ်": 2393,
      "စီၤဟၤ": 2394,
      "ကသ့ၣ်ယီၤ": 2395,
      "ခွဲးတၢ်ယာ်": 2396,
      "ကိးပသူထီၣ်": 2397,
      "ပျံၤမၤဖုး": 2398,
      "တိၤ": 2399,
      "တမ့ၢ်တၢ်": 2400,
      "ဘူ": 2401,
      "တၢ်ကီတၢ်ခဲ": 2402,
      "ဒီးဖဲန့ၣ်": 2403,
      "ဘၣ်ဧါ": 2404,
      "အဃိဒီး": 2405,
      "သူၣ်အုးသးအုး": 2406,
      "စီၤယူဒၤ": 2407,
      "စီၤအ့ၤလံယၤ": 2408,
      "ံလီၤပြါ": 2409,
      "လၢအစု": 2410,
      "အဝဲသ့ၣ်လီၤ": 2411,
      "ပှၤဂီၢ်မုၢ်တဖၣ်": 2412,
      "ကညီၤသးကညီၤ": 2413,
      "ကီၢ်ယူဒၤအစီၤပၤ": 2414,
      "စီၤဘိၤဧး": 2415,
      "အတီၢ်ပူၤ": 2416,
      "ကူတၢ်သိး": 2417,
      "ဂံၢ်ဆူၣ်ဘါဆူၣ်": 2418,
      "ဘလး": 2419,
      "အကလူး": 2420,
      "တၢ်လၢတၢ်": 2421,
      "ဂၤတဖၣ်": 2422,
      "ဒ်ယ": 2423,
      "ပာ်ကဖၢ": 2424,
      "လဲၤခီဖျိ": 2425,
      "နီၢ်အဘ": 2426,
      "ကီၢ်အဒိၣ်": 2427,
      "သိဖိ": 2428,
      "အကျါန့ၣ်လီၤ": 2429,
      "တရီတပါ": 2430,
      "၁၀": 2431,
      "တၢ်က": 2432,
      "ဒီးယ့ၣ်ၡူး": 2433,
      "ဒီးလၢတၢ်န့ၣ်အဃိ": 2434,
      "န့ၣ်အဝဲသ့ၣ်": 2435,
      "ဝဲၤ": 2436,
      "ဘၣ်ပှၤ": 2437,
      "မၤအီၤ": 2438,
      "ယၤလၢယ": 2439,
      "ဒီးတၢ်လုၢ်": 2440,
      "ကွၢ်လိ": 2441,
      "ကီၢ်အၤၡူၢ်": 2442,
      "လံၤလါ": 2443,
      "အထူအယိာ်": 2444,
      "ဒူး": 2445,
      "ယၢၣ်": 2446,
      "သဘျ့": 2447,
      "၁၇": 2448,
      "မၤဒိး": 2449,
      "မုၢ်ခိၣ်": 2450,
      "ယၤန့ၣ်": 2451,
      "ဘၣ်တၢ်စံၣ်ညီၣ်": 2452,
      "တုၤဃီၤ": 2453,
      "သ့ၣ်ညါဝဲလၢ": 2454,
      "တအိၣ်နီတဂၤဘၣ်": 2455,
      "ဟံးထီၣ်": 2456,
      "ကွံာ်အီၤလီၤ": 2457,
      "ဒူၣ်ထၢ": 2458,
      "တၢ်အဲၣ်တၢ်ကွံ": 2459,
      "ကဘျံး": 2460,
      "ဒီဒၣ်အိၣ်ပှိၤ": 2461,
      "ဘၡါ": 2462,
      "ယူၢ်": 2463,
      "သဝီ": 2464,
      "အဖှိၣ်": 2465,
      "အဒီပုၢ်ဝဲၢ်ခွါ": 2466,
      "အအၢအသီ": 2467,
      "ဒီးနၤ": 2468,
      "တကဲ": 2469,
      "ဒိၣ်ဝဲ": 2470,
      "ဆၢဂ့ၤ": 2471,
      "ကူၣ်ထီၣ်": 2472,
      "ဘူးထီၣ်": 2473,
      "ကးန့": 2474,
      "ဘုၣ်ဂီၤဖံး": 2475,
      "ဘၡါလိၣ်": 2476,
      "န့ၣ်အိၣ်": 2477,
      "စီၤမ": 2478,
      "ယၤဘၣ်": 2479,
      "ပၤမုၣ်": 2480,
      "တီပှၤလိၤ": 2481,
      "လၢအမ့ၢ်ပှၤ": 2482,
      "ကၤလံၤလါ": 2483,
      "လၢမုၢ်နၤ": 2484,
      "ဒီးကိၣ်": 2485,
      "စပံးသၣ်": 2486,
      "ယံးလး": 2487,
      "ရံၤၡဲ": 2488,
      "ဒုးအိၣ်ထီၣ်": 2489,
      "ဖၤရံၤၡဲ": 2490,
      "ကံးလဧး": 2491,
      "့းဘ့းလး": 2492,
      "ထံၣ်လၢညါခီ": 2493,
      "စီၢ်": 2494,
      "၁၄": 2495,
      "တၢ်မနုၤ": 2496,
      "ပှၤတခီဘီမုၢ်": 2497,
      "တဖၣ်လၢသု": 2498,
      "စံးတ့ၢ်ဝဲ": 2499,
      "အတၢ်အိၣ်မူ": 2500,
      "တၢ်အလီၢ်": 2501,
      "ဟဲနုာ်": 2502,
      "ဒီးစီၤၡ": 2503,
      "မံလီၤ": 2504,
      "အမံၤလၢ": 2505,
      "ပၢၤဃာ်": 2506,
      "တန့ၢ်ဘၣ်": 2507,
      "လီၤက့ၤအသး": 2508,
      "သကုၤ": 2509,
      "ဖှီၣ်ဖိယာ်ဖိ": 2510,
      "တလီၢ်": 2511,
      "၁၅": 2512,
      "တၢ်လံၤ": 2513,
      "ပှၤခဲလၢာ်": 2514,
      "စီၤကၤ": 2515,
      "အဂီၢ်ဘၣ်": 2516,
      "မူကပိာ်": 2517,
      "ဘၣ်ဆၣ်ဒီးပှၤ": 2518,
      "အကတီၢ်န့ၣ်": 2519,
      "ပဒိၣ်ဖးဒိၣ်": 2520,
      "ကလီကလီ": 2521,
      "စီၤအးဘၡါလိၣ်": 2522,
      "ခး": 2523,
      "တစူၢ်": 2524,
      "နူၢ်": 2525,
      "အသွံၣ်": 2526,
      "တၢ်ကပီၤ": 2527,
      "ံၤကါ": 2528,
      "မ့ၢ်လၢတၢ်": 2529,
      "မုၢ်ဟါ": 2530,
      "အပူၤန့ၣ်တက့ၢ်": 2531,
      "ဟဲဒီး": 2532,
      "မ့ၢ်ဂ့ၤန့ၣ်ဘၣ်": 2533,
      "ဒိးန့ၢ်ဘၣ်ဝဲ": 2534,
      "အနီၣ်ဂံၢ်": 2535,
      "တကဆှီဘၣ်": 2536,
      "လီၤပြံလီၤပြါ": 2537,
      "ဃၢၤ": 2538,
      "စံၤ": 2539,
      "တတီ": 2540,
      "ယစံးဘၣ်တဲဘၣ်": 2541,
      "ရံး": 2542,
      "သွဲ": 2543,
      "ၡီၤ": 2544,
      "တၢ်ပျၢ်": 2545,
      "တၢ်အိၣ်မူ": 2546,
      "ဒီၣ်": 2547,
      "လီၤသီ": 2548,
      "လီၤထူလီၤယိာ်": 2549,
      "ီၢ်ယၢ်": 2550,
      "စီၤမၤ": 2551,
      "အံၤလီၤ": 2552,
      "အဝဲသ့ၣ်ကဘၣ်": 2553,
      "စံးပာ်": 2554,
      "အတၢ်အိၣ်": 2555,
      "မ့လ့း": 2556,
      "အမဲာ်ညါန့ၣ်": 2557,
      "စးထီၣ်လၢ": 2558,
      "စီၤဃနိာ်": 2559,
      "ဟဲလီၤစၢၤ": 2560,
      "လူလီၤ": 2561,
      "အဃၣ်ဃၣ်": 2562,
      "ံၤကါယံးလး": 2563,
      "ခၢၣ်": 2564,
      "ဆဲၣ်": 2565,
      "တစိၢ်": 2566,
      "ယပၢ်": 2567,
      "ဒီးထံ": 2568,
      "သ့ၣ်ဆှ": 2569,
      "လၢတၢ်လုၢ်ဟံၣ်": 2570,
      "ဆၢတဲာ်": 2571,
      "အဂ့ၢ်န့ၣ်": 2572,
      "ကဲထီၣ်တၢ်": 2573,
      "အဖိခွါတဖၣ်": 2574,
      "ဒၣ်ဝဲန့ၣ်လီၤ": 2575,
      "မ်ယွၤ": 2576,
      "မူခိၣ်ကလူး": 2577,
      "လၢမုၢ်ထီၣ်": 2578,
      "လၢမုၢ်နံၤ": 2579,
      "ပှၤလုၢ်တၢ်အခိၣ်တဖၣ်": 2580,
      "ထုးထီၣ်": 2581,
      "ကဝဲၤ": 2582,
      "တလိၣ်": 2583,
      "ပဲ": 2584,
      "ပရၢ": 2585,
      "ဟုက": 2586,
      "အဘူး": 2587,
      "တၢ်နါ": 2588,
      "သးတီ": 2589,
      "ယွၤန့ၣ်လီၤ": 2590,
      "အသးလီၤ": 2591,
      "ကီၢ်မိၤအး": 2592,
      "ဆှဲး": 2593,
      "ထံၣ်ဘၣ်တၢ်": 2594,
      "တနါ": 2595,
      "အီၤလၢပှၤ": 2596,
      "သ့ၣ်ညါနၢ်ပၢၢ်": 2597,
      "ဟီၣ်ခိၣ်ချၢ": 2598,
      "ဃုာ်ဒီးပှၤ": 2599,
      "လါတလါ": 2600,
      "ခ့နပှၤ": 2601,
      "ဂုာ်န့ၢ်": 2602,
      "ဘ့ၤသလ့": 2603,
      "သ့ၣ်စၤယံးအသိ": 2604,
      "မူကပိာ်လိၤ": 2605,
      "တၢ": 2606,
      "အစိၣ်": 2607,
      "ဧိၣ်": 2608,
      "တၢ်နၢမူ": 2609,
      "မ့ၢ်လၢယ": 2610,
      "သးဂီၤ": 2611,
      "ဖိလၢအ": 2612,
      "လၢတၢ်ဒုး": 2613,
      "အတၢ်အီၣ်": 2614,
      "လဲၤဝဲ": 2615,
      "တအိၣ်လၢၤဘၣ်": 2616,
      "အဒၢး": 2617,
      "ကဲထီၣ်စီၤပၤ": 2618,
      "ဆံဆဲၣ်": 2619,
      "ဟံးထီၣ်ကွံာ်": 2620,
      "ဃ့ၢ်ပူၤဖျဲး": 2621,
      "ဘူၤကးန့": 2622,
      "ဂုာ်ဆူၣ်": 2623,
      "ဂဲၤဆၢထၢၣ်သမူထီၣ်က့ၤ": 2624,
      "အိၣ်ဘှံးနံၤ": 2625,
      "အိၣ်ဖျဲၣ်ထီၣ်": 2626,
      "တၢ်ကွဲးအသး": 2627,
      "ဒီဖျၢၣ်": 2628,
      "တဖၣ်ဘၣ်": 2629,
      "တက့ၤ": 2630,
      "ဟ့ၣ်ဘါ": 2631,
      "လဲၤကပာ်": 2632,
      "ဆၢဝါ": 2633,
      "ပှၤဂီၢ်မုၢ်လၢ": 2634,
      "ကမၤတၢ်": 2635,
      "စီၤယ့ၤ": 2636,
      "အကုၢ်": 2637,
      "တီတီ": 2638,
      "အကျိၤ": 2639,
      "ညီနုၢ်": 2640,
      "အကျါတဂၤ": 2641,
      "နးနး": 2642,
      "ဃၣ်ဃၣ်": 2643,
      "ရ့ဒိၣ်": 2644,
      "ကူးတရံး": 2645,
      "စီၤဟ့းဘ့းလး": 2646,
      "အိၣ်ဝဲဆိးဝဲ": 2647,
      "ဘီၣ်ထီၣ်": 2648,
      "ကူၣ်ဘၣ်ကူၣ်သ့": 2649,
      "နီၢ်အဘံၤကါယံးလး": 2650,
      "ဟုကယာ်": 2651,
      "အု": 2652,
      "အကလုာ်": 2653,
      "၁၉": 2654,
      "န့ၣ်မ့ၢ်တၢ်": 2655,
      "တဖၣ်ဒ်": 2656,
      "ထီၣ်ဖိ": 2657,
      "စီၤအံၤစဲး": 2658,
      "အံၤအပူၤ": 2659,
      "ဖဲတၢ်လီၢ်": 2660,
      "အသိးဒီး": 2661,
      "စီၤပၤဖးဒိၣ်": 2662,
      "ကမၤန့ၢ်": 2663,
      "ကတိၤဒိ": 2664,
      "ကဲထီၣ်ပှၤ": 2665,
      "ဂံၢ်ဟ့ၣ်ဘါ": 2666,
      "မၤတၢ်ဒဲးဘး": 2667,
      "လၢယွၤအတၢ်လုၢ်ဟံၣ်": 2668,
      "ရၤဘၣ်": 2669,
      "ကိၢ်သးဂီၤ": 2670,
      "အဒိအတဲာ်": 2671,
      "တၢးတနါ": 2672,
      "စီၤဟၤမၣ်": 2673,
      "စီၢ်နီၤ": 2674,
      "ဘ့ၤသလ့ဃ့ၣ်": 2675,
      ",”": 2676,
      "လီၤအီၤ": 2677,
      "ပှၤသံ": 2678,
      "သ့ၣ်တဖၣ်န့ၣ်": 2679,
      "မုၢ်နၤ": 2680,
      "လဲၤခီဂာ်": 2681,
      "နီၢ်ပၤမုၣ်": 2682,
      "ခံဘ့ၣ်": 2683,
      "ဘါစၢ်": 2684,
      "ကနီၤ": 2685,
      "ဧိၤန့ၣ်လီၤ": 2686,
      "သိၣ်တၢ်": 2687,
      "စီၤယိၤဘး": 2688,
      "ပျဲယ": 2689,
      "ကအိၣ်မူ": 2690,
      "ပူတပူ": 2691,
      "လုၣ်ဘၢ": 2692,
      "ကဒဲကဒဲ": 2693,
      "လီတၢ်ဝ့ၤ": 2694,
      "ကၢၢ်": 2695,
      "ဂူာ်": 2696,
      "တတီတလိၤ": 2697,
      "ယဒီပုၢ်ဝဲၢ်": 2698,
      "ပှၤသုးဖိ": 2699,
      "ဂ့ၤတၢ်": 2700,
      "က့ၤဝဲ": 2701,
      "ဟဲလၢ": 2702,
      "ကွၢ်ဃီၤ": 2703,
      "စုညါ": 2704,
      "တမံၤဂ့ၤ": 2705,
      "တအိၣ်ဒီးတၢ်": 2706,
      "လၢပှၤကလုာ်": 2707,
      "ဘ့ၣ်ဘၣ်": 2708,
      "ဝ့ၤဝီၤ": 2709,
      "လၢအသံသ့": 2710,
      "ဃဲသဲ": 2711,
      "နဝ့": 2712,
      "သယုၢ်": 2713,
      "အဂၢၤ": 2714,
      "၁၃": 2715,
      "ဒီးစီၤအၤဟရိၣ်": 2716,
      "့ၢ်အဂီၤ": 2717,
      "တဖၣ်မ့ၢ်": 2718,
      "စီၤဒၤ": 2719,
      "အံၤဒီး": 2720,
      "ကွံာ်တၢ်": 2721,
      "ကျိၣ်": 2722,
      "လုၢ်ဒိၣ်ပှ့ၤဒိၣ်": 2723,
      "နၤလၢန": 2724,
      "ကွၢ်ဆၢၣ်": 2725,
      "ကမၤဟးဂီၤ": 2726,
      "တီဝဲ": 2727,
      "ပှဲၤဒီးတၢ်": 2728,
      "နံၤနဝ့": 2729,
      "စိၤအဃၣ်ဃၣ်": 2730,
      "အခိၣ်အနၢ်": 2731,
      "ပှၤဖလ့ၡသးဖိတဖၣ်": 2732,
      "စီၢ်နီၤခိၣ်": 2733,
      "ကွၢ်ဆၢၣ်မဲာ်": 2734,
      "ယစံးဘၣ်": 2735,
      "တၢ်လီ": 2736,
      "မုၢ်ထီၣ်": 2737,
      "လၢတၢ်မၤစၢၤ": 2738,
      "အတၢ်အဲၣ်": 2739,
      "တဂၤလၢ်လၢ်": 2740,
      "ကျီ": 2741,
      "တၢ်အသိး": 2742,
      "လဲၤစိာ်": 2743,
      "သူၣ်ကညီၤသးကညီၤ": 2744,
      "အအိၣ်န့ၣ်": 2745,
      "ပှၤတဂၤအံၤ": 2746,
      "စီၤဧၤ": 2747,
      "စှီၤ": 2748,
      "မုၢ်ဆ့ၣ်ထီၣ်": 2749,
      "ပ့းတရူး": 2750,
      "တၢ်ကူၣ်သ့": 2751,
      "လီၤဆူ": 2752,
      "ဒီးကဘၣ်": 2753,
      "တဖၣ်အဃိ": 2754,
      "လၢအီၤ": 2755,
      "ကစုာ်": 2756,
      "ဂီၤဘုၣ်ဂီၤဖံး": 2757,
      "အိၣ်ဝဲအသိး": 2758,
      "ရူၤဘ့ၣ်": 2759,
      "တၢ်လုၢ်မ့ၣ်အူ": 2760,
      "မၢပှၤ": 2761,
      "ပၢဆှၢ": 2762,
      "မၤတ့ၢ်တၢ်ဒဲးဘး": 2763,
      "ကအိၣ်ဒီးတၢ်": 2764,
      "ပှၤကလုာ်တဖၣ်": 2765,
      "အထံအကီၢ်": 2766,
      "စီၤအ့လ": 2767,
      "ယူာ်ထီၣ်": 2768,
      "အိးထီၣ်": 2769,
      "ကဘျံးကဘျၣ်": 2770,
      "ဝာ်": 2771,
      "အသီၣ်": 2772,
      "န့ၣ်ကဘၣ်": 2773,
      "မၤဖှီၣ်": 2774,
      "အိၣ်ကတဲာ်ကတီၤ": 2775,
      "လၢတၢ်ဂ့ၢ်": 2776,
      "လုၢ်ထီၣ်အီၤ": 2777,
      "ဒိးတ့": 2778,
      "လိၣ်ဘၣ်": 2779,
      "တၢ်ဂီၤတၢ်ဖီၣ်": 2780,
      "တထံၣ်ဃီ": 2781,
      "မဲးမုၢ်ခိၣ်": 2782,
      "စီၤယိနၤသၣ်": 2783,
      "အံးထွဲကွၢ်ထွဲ": 2784,
      "ဆၢဂ့ၤဆၢဝါ": 2785,
      "တၢၢ်": 2786,
      "တထူၣ်": 2787,
      "ယၢၢ်": 2788,
      "လၢယၤ": 2789,
      "တၢ်စိတၢ်ကမီၤ": 2790,
      "န့ၣ်ယ": 2791,
      "အိၣ်လၢတၢ်": 2792,
      "မ့ၢ်လၢန": 2793,
      "အီၤတဖၣ်": 2794,
      "သုတဘၣ်": 2795,
      "ကမျ": 2796,
      "စံးဘၣ်ယၤ": 2797,
      "လံာ်ပရၢ": 2798,
      "အကတီၢ်န့ၣ်လီၤ": 2799,
      "ယိၤဟၣ်": 2800,
      "ပူထီၣ်": 2801,
      "ဃံလၤ": 2802,
      "ခံးတၢ်": 2803,
      "ဒီးစီၤယၤကိာ်": 2804,
      "ဃၢ": 2805,
      "စၣ်": 2806,
      "လိၢ်": 2807,
      "အဘၣ်": 2808,
      "၁၆": 2809,
      "တဖၣ်ဒၣ်လဲာ်": 2810,
      "လၢအခိၣ်": 2811,
      "မ့ၢ်အိၣ်": 2812,
      "ဟ့ၣ်ထီၣ်": 2813,
      "ဘၣ်ဆၣ်ဒီးတၢ်": 2814,
      "ဒ်သိးသုက": 2815,
      "ပှၤဂီၢ်မုၢ်ခဲလၢာ်": 2816,
      "သိၣ်ဃီၣ်": 2817,
      "သိၣ်လီၤသီ": 2818,
      "ဟ့ၣ်လီၤကွံာ်": 2819,
      "ဃုသ့ၣ်ညါ": 2820,
      "ဒီးစီၤဒၤဝံး": 2821,
      "ကဒီးဝဲ": 2822,
      "နီတစဲးဘၣ်": 2823,
      "ဘူၤကးန့စၢ်": 2824,
      "ဃဲသဲမုၣ်": 2825,
      "ကမျၢၢ်": 2826,
      "စ့း": 2827,
      "အၢၣ်": 2828,
      "လၢကယဲၢ်": 2829,
      "လၢမ့ၣ်အူ": 2830,
      "ဘၣ်တ့": 2831,
      "မ့ၢ်လၢအ": 2832,
      "ကစူၢ်": 2833,
      "သ့လီၤ": 2834,
      "စီၤပၤအ": 2835,
      "လိာ်အသးဒီး": 2836,
      "ကမၤဟးဂီၤကွံာ်": 2837,
      "စီၤအလၤ": 2838,
      "ဒံးဆ့": 2839,
      "အက့ၢ်အဂီၤ": 2840,
      "အခိၣ်တ": 2841,
      "ဘူးဒီး": 2842,
      "ထီဒါယၤ": 2843,
      "ဘၣ်တၢ်မၤအီၤလၢ": 2844,
      "ကံးဒ": 2845,
      "တၢ်အုၣ်က့ၤခီၣ်က့ၤ": 2846,
      "ကပြုၢ်": 2847,
      "ထွံၣ်": 2848,
      "ပှၤအဲၤကူပတူးဖိတဖၣ်": 2849,
      "ပှၤအုၣ်အသး": 2850,
      "ကနိးကစုာ်": 2851,
      "သ့ၣ်ဆှိ": 2852,
      "ဘီၣ်ထီၣ်ညီ": 2853,
      ").": 2854,
      "ဂုၢ်": 2855,
      "နသ့ၣ်ညါ": 2856,
      "နခ့နပှၤ": 2857,
      "ယကစံၣ်ညီၣ်": 2858,
      "အူး": 2859,
      "ဧစၢ်": 2860,
      "တၢ်မူ": 2861,
      "တၢ်ဃူတၢ်ဖိး": 2862,
      "တဖၣ်အသိးန့ၣ်လီၤ": 2863,
      "စီၤဧိၤ": 2864,
      "ကစိာ်": 2865,
      "တ့ၢ်အဝဲသ့ၣ်": 2866,
      "တ့ၢ်နၤ": 2867,
      "လီၢ်ပစိာ်": 2868,
      "ကိးထီၣ်ဝဲ": 2869,
      "ကိးဖှိၣ်": 2870,
      "ကွၢ်ကွၢ်": 2871,
      "ဒိးဖျီ": 2872,
      "တဖၣ်န့ၣ်ဘၣ်": 2873,
      "ပှၤတဂၤလၢ်လၢ်": 2874,
      "ကျဲစၢၤ": 2875,
      "ဂံၢ်တၢ်ဘါ": 2876,
      "စံၣ်ညီၣ်ကွီၢ်": 2877,
      "အမဲာ်ညါလီၤ": 2878,
      "ပှၤကညီလၢအသံသ့": 2879,
      "ကစံးထီၣ်ပတြၢၤ": 2880,
      "စီၤဘံး": 2881,
      "အတလါစီဆှံ": 2882,
      "သမှံၤ": 2883,
      "အကမီၤ": 2884,
      "ပှၤလၢတၢ်": 2885,
      "လၢအမဲာ်ညါ": 2886,
      "လၢအခီၣ်ထံး": 2887,
      "အိၣ်လီၤတဲာ်": 2888,
      "မ့ၢ်လၢသု": 2889,
      "သးကွံ": 2890,
      "ပူၤဒဲး": 2891,
      "န့ၢ်ယၤ": 2892,
      "ကမူ": 2893,
      "ဒ်သိးသိး": 2894,
      "သီလိ": 2895,
      "ဆိးကျၢၤ": 2896,
      "အမုၢ်ထီၣ်": 2897,
      "စပံးမုၢ်": 2898,
      "ကစံးဘၣ်": 2899,
      "ဆူးကဲၤ": 2900,
      "ထုးထီၣ်ကွံာ်": 2901,
      "ဘူၣ်တၢ်ဘါအလုၢ်အလၢ်": 2902,
      "တဆီ": 2903,
      "လိး": 2904,
      "အဲး": 2905,
      "အဖိတဖၣ်": 2906,
      "လၢကစၢ်": 2907,
      "လီၤသွဲၣ်": 2908,
      "ဝဲတၢ်": 2909,
      "စီၤဘၤ": 2910,
      "အိၣ်ဝးတရံး": 2911,
      "စံးဖှိၣ်": 2912,
      "အတၢ်ဖံးတၢ်မၤ": 2913,
      "ပာ်လီၤတဲာ်": 2914,
      "လဲၤကိး": 2915,
      "ဆၢက့ၤ": 2916,
      "ဘျဲၣ်": 2917,
      "ထံၣ်အီၤ": 2918,
      "အတံၢ်": 2919,
      "မံသ": 2920,
      "ကွံာ်အီၤဆူ": 2921,
      "ဖံးဃာ်": 2922,
      "ဆိကမိၣ်ဝဲလၢ": 2923,
      "ဘြိၣ်": 2924,
      "ပဒိၣ်ပပှၢ်တဖၣ်": 2925,
      "ရိမ့ၤ": 2926,
      "ပီးတၢ်လီ": 2927,
      "နးနးကလဲာ်": 2928,
      "စီၤအလၤဧစၢ်": 2929,
      "ယး": 2930,
      "ယ့လး": 2931,
      "ဟၤ": 2932,
      "အလွဲၢ်": 2933,
      "းထီၣ်": 2934,
      "လၢလၢပှဲၤပှဲၤ": 2935,
      "ဒီးစံးဝဲဒၣ်": 2936,
      "ပှၤယူဒၤဖိတဖၣ်": 2937,
      "မၤမုာ်": 2938,
      "သးတ": 2939,
      "သုသ့ၣ်ညါ": 2940,
      "ကတြ": 2941,
      "တဂၤစုာ်စုာ်": 2942,
      "ဖျး": 2943,
      "ဲၣ်ဆိး": 2944,
      "ဒုးသ့ၣ်ညါ": 2945,
      "အဲၣ်အီၤ": 2946,
      "စ့လၤ": 2947,
      "လွံၢ်ဂၤ": 2948,
      "ဂၢၢ်ဆိးကျၢၤ": 2949,
      "အကလုၢ်ကထါ": 2950,
      "ပာ်ဖှိၣ်ထီၣ်": 2951,
      "ကတဲဘၣ်": 2952,
      "စီၤဧ့လံၤ": 2953,
      "ကျီၢ်ဖါ": 2954,
      "ဂၢ်": 2955,
      "ဒီးတဲဘၣ်": 2956,
      "ဘၣ်ယိၣ်": 2957,
      "လၢအပူၤကွံာ်": 2958,
      "ထီၣ်ပၢၢ်": 2959,
      "အပူၤဘၣ်": 2960,
      "ပာ်ခူသူၣ်": 2961,
      "ကိးပူၤဒဲး": 2962,
      "ဖးလီၤ": 2963,
      "လၢသုကျါ": 2964,
      "ယကလုၢ်": 2965,
      "ယကဒုး": 2966,
      "ဃုာ်ဒီးတၢ်": 2967,
      "သွါ": 2968,
      "စၢ်ဘါစၢ်": 2969,
      "ကွဲးလီၤ": 2970,
      "တၢ်ဒီးစံးဝဲ": 2971,
      "ကလံၤမုၢ်": 2972,
      "တၢ်အံၤမ့ၢ်တၢ်": 2973,
      "ၡၤဖး": 2974,
      "လဲၤထီၣ်ဆူ": 2975,
      "မၤဘၣ်ဒိ": 2976,
      "အစၢၤအသွဲၣ်တဖၣ်": 2977,
      "ဟူးဝး": 2978,
      "ဘျးသဒၢ": 2979,
      "ဒိၣ်ဒိၣ်ကလဲာ်": 2980,
      "စီၤၡံမိၣ်": 2981,
      "နံးယ့လး": 2982,
      "ကွၢ်လိမၤဒိး": 2983,
      "ပှၤကညီလၢအသံသ့ဧၢ": 2984,
      "ကဲၣ်ဆိး": 2985,
      "ဃိၤ": 2986,
      "၂၀": 2987,
      "တဖၣ်တ": 2988,
      "တဖၣ်အဖီခိၣ်": 2989,
      "သးသမူ": 2990,
      "့ၤရ": 2991,
      "ဒ်ပ": 2992,
      "အသးလၢတၢ်": 2993,
      "န့ၢ်ဘၣ်": 2994,
      "တၢ်အါ": 2995,
      "ဂီၤဂီၤ": 2996,
      "ဒီးအဂၤ": 2997,
      "ကတိၤတၢ်လၢ": 2998,
      "ပိာ်ထီၣ်": 2999,
      "ဒံးဝဲ": 3000,
      "တဲဖျါထီၣ်": 3001,
      "ဒ်လဲၣ်ဂ့ၤ": 3002,
      "သကိးတၢ်": 3003,
      "မ့တမ့ၢ်ဘၣ်": 3004,
      "အစိၤစိၤအဃၣ်ဃၣ်": 3005,
      "ဂ့ၤတၢ်ဝါ": 3006,
      "ဒိးတ့ဒိးဖျီ": 3007,
      "ကဒီးတၢ်": 3008,
      "ကအီၣ်": 3009,
      "ကဒ့ၣ်": 3010,
      "စီၣ်": 3011,
      "နဒါ": 3012,
      "အခဲအံၤ": 3013,
      "ွါ": 3014,
      "ၡမၤ": 3015,
      "လၢလၢၢ်": 3016,
      "တၢ်ဘိ": 3017,
      "တၢ်ဆိး": 3018,
      "ဒီးလၢအ": 3019,
      "ဒီးပျဲ": 3020,
      "ဒီးပာ်လီၤ": 3021,
      "ဒီးစံးဘၣ်အီၤ": 3022,
      "ပှၤသးစၢ်": 3023,
      "တဖၣ်ခဲလၢာ်": 3024,
      "ကလၤ": 3025,
      "စီၤအလံ": 3026,
      "တဲဝဲ": 3027,
      "ပတီၢ်": 3028,
      "တၢ်မၤလိ": 3029,
      "လၢပှၤလုၢ်တၢ်အခိၣ်": 3030,
      "အိၣ်ဝဲလီၤ": 3031,
      "တၢ်လုၢ်မၤဘူၣ်": 3032,
      "တစုန့ၣ်လီၤ": 3033,
      "တူၢ်ဘၣ်တၢ်": 3034,
      "စီၤၡၤ": 3035,
      "အစီၤပၤဖးဒိၣ်": 3036,
      "နံၣ်န့ၣ်လီၤ": 3037,
      "လၢအကလုၢ်": 3038,
      "ဘၣ်မနုၤလၢန": 3039,
      "ခ့ယပှၤ": 3040,
      "ဒုးတၢ်ထီဒါ": 3041,
      "လၢကျဲဒ်လဲၣ်": 3042,
      "ယူးယီၣ်ပာ်ကဲ": 3043,
      "ကံၢ်ပူၤ": 3044,
      "ခ့တၢ်ပှၤ": 3045,
      "့ဖရဲၣ်": 3046,
      "ၡံယၤ": 3047,
      "တၢ်တက့ၢ်": 3048,
      "တၢ်လၢသု": 3049,
      "လီၤဖး": 3050,
      "တဖၣ်ကဘၣ်တၢ်": 3051,
      "မၤပှဲၤ": 3052,
      "ဖဲန့ၣ်ဒီး": 3053,
      "အသးန့ၣ်လီၤ": 3054,
      "လၢအအိၣ်လီၤတဲာ်": 3055,
      "ပျၢ်ကွံာ်": 3056,
      "ထူၣ်စုညါ": 3057,
      "အကတီၢ်ဖဲန့ၣ်": 3058,
      "သိၣ်လိသီလိ": 3059,
      "တဂၤလၢအမံၤ": 3060,
      "လူၤကၣ်": 3061,
      "အတီၢ်ပူၤန့ၣ်": 3062,
      "သုးခိၣ်သုး": 3063,
      "စီၤဧ့ၡီၤ": 3064,
      "စီၤယ့ၤဟူ": 3065,
      "ခံးတၢ်နၤ": 3066,
      "အခိၣ်တလိာ်": 3067,
      "ကသ့ၣ်ညါ": 3068,
      "ၡလိၤမိၤ": 3069,
      "ၢက": 3070,
      "တၢ်ဖှိၣ်": 3071,
      "တၢ်သ့ၣ်တဖၣ်အံၤ": 3072,
      "ထီၣ်ဝဲလၢ": 3073,
      "တကတိၤ": 3074,
      "တၢ်အဂ့ၤ": 3075,
      "နၤလၢတၢ်": 3076,
      "သ့လး": 3077,
      "ဟးဂူာ်": 3078,
      "တမံၤလၢ": 3079,
      "ဟံၣ်ပူၤ": 3080,
      "တၢ်မၤသံ": 3081,
      "ဘူၣ်လဲၤကပာ်": 3082,
      "ဃုထံၣ်": 3083,
      "အလိၤန့ၣ်": 3084,
      "စိအကမီၤ": 3085,
      "တီၤလီၤ": 3086,
      "ဒံးဘၣ်န့ၣ်": 3087,
      "အံၣ်စရ့လးအပှၤဂီၢ်မုၢ်": 3088,
      "တၢ်လီၤလး": 3089,
      "အဒဲစီဆှံ": 3090,
      "ဂ့ၤဂ့ၤဘၣ်": 3091,
      "တၢ်ဒိၣ်ဧၢ": 3092,
      "အကူအသိး": 3093,
      "ယဟ့ၣ်လီၤ": 3094,
      "ယနၢ်ဟူ": 3095,
      "သလၣ်": 3096,
      "တၢ်ညၣ်": 3097,
      "တၢ်ကလုၢ်": 3098,
      "တၢ်ကျိၤ": 3099,
      "န့ၣ်မ့ၢ်ဝဲ": 3100,
      "ံၤမ့လ့း": 3101,
      "သုလၢတၢ်": 3102,
      "စံးဒ": 3103,
      "ဝ့ၢ်အံၤ": 3104,
      "နီၢ်အ": 3105,
      "သူၣ်တီသး": 3106,
      "လၢယတၢ်": 3107,
      "လိာ်သုသး": 3108,
      "တဂ့ၤန့ၣ်လီၤ": 3109,
      "ကယဲၢ်ပှၤ": 3110,
      "အတံၤသကိး": 3111,
      "တဖၣ်လၢအဘၣ်တၢ်": 3112,
      "ဆံးအါ": 3113,
      "ဃ့ၢ်ကွံာ်": 3114,
      "လၢကျဲဒ်အံၤ": 3115,
      "ၡါယၤ": 3116,
      "ဒွဲၣ်အူ": 3117,
      "အ့ရ့း": 3118,
      "ဖုၣ်": 3119,
      "ယဒုၣ်ယဒါ": 3120,
      "သမံသ": 3121,
      "အကစီၣ်": 3122,
      "လၢပှၤအ": 3123,
      "တၢ်ဒုး": 3124,
      "တၢ်ဖိတဖၣ်": 3125,
      "တၢ်လၤ": 3126,
      "တၢ်တဖၣ်အံၤ": 3127,
      "တဖၣ်အပူၤန့ၣ်လီၤ": 3128,
      "စီၤစၤ": 3129,
      "အဝဲစံးဝဲ": 3130,
      "သုဒါ": 3131,
      "မုၢ်တၢ်ဘိ": 3132,
      "စံးတ့ၢ်": 3133,
      "တုၤဆူ": 3134,
      "လိၤန့ၣ်လီၤ": 3135,
      "ကွၢ်မဲာ်": 3136,
      "ဝဲလၢဝ့ၢ်": 3137,
      "ိၢ်န့ၢ်": 3138,
      "ဃ့ဘြိၣ်": 3139,
      "နွံဆံ": 3140,
      "ကစံးဆၢ": 3141,
      "ဘ့ၤသ့လး": 3142,
      "အမဲာ်ချံ": 3143,
      "နၣ်ရံၣ်": 3144,
      "ဒူးကဒ့ၣ်": 3145,
      "အကလုာ်ကလုာ်": 3146,
      "သမံသမိး": 3147,
      "ကအိ": 3148,
      "စၢၢ်": 3149,
      "တူာ်": 3150,
      "ဖ့း": 3151,
      "ယူၤ": 3152,
      "ယကဘၣ်": 3153,
      "အလဲ": 3154,
      "အသုတ": 3155,
      "အဖု": 3156,
      "လၢတ": 3157,
      "တၢ်လၢအဝဲသ့ၣ်": 3158,
      "ံၤလး": 3159,
      "ဖိတၢ်လံၤ": 3160,
      "တၢ်အခါ": 3161,
      "ဘျၣ်": 3162,
      "ခံကယၤ": 3163,
      "ခံကထိ": 3164,
      "ဟးဆှဲး": 3165,
      "ယ့ၣ်ၡူးစံးဆၢ": 3166,
      "ဖျါထီၣ်ဝဲ": 3167,
      "ဆူၣ်အိၣ်": 3168,
      "စ့ၢ်ကီးန့ၣ်လီၤ": 3169,
      "ပှဲၤထီၣ်": 3170,
      "ဘးခီ": 3171,
      "တဘျီန့ၣ်": 3172,
      "တဘျီလၢ်လၢ်": 3173,
      "မံသး": 3174,
      "အပၢ်မ့ၢ်ဝဲ": 3175,
      "ပာ်ဖှိၣ်ထီၣ်အသး": 3176,
      "ကနၢ်ဟူ": 3177,
      "ထု": 3178,
      "နယၤ": 3179,
      "နပၢ်": 3180,
      "ဘံ": 3181,
      "လဘၤ": 3182,
      "အမၤ": 3183,
      "လၢကလံၤစိး": 3184,
      "တၢ်လၤကပီၤ": 3185,
      "တၢ်ဒုးတၢ်ယၤ": 3186,
      "ပှၤစိာ်တၢ်ကစီၣ်": 3187,
      "တဖၣ်လၢန": 3188,
      "ဂၤန့ၣ်လီၤ": 3189,
      "မုၢ်ဂီၤ": 3190,
      "စံးကတိၤ": 3191,
      "အတၢ်မၤလိာ်": 3192,
      "လီၢ်မံ": 3193,
      "နၤဒီးန": 3194,
      "ဒီးအပျဲၢ်အဘီၣ်": 3195,
      "ဒ်သိးပ": 3196,
      "တဲစိၤ": 3197,
      "ဒ်လဲၣ်န့ၣ်လီၤ": 3198,
      "ဒီးမၤန့ၢ်": 3199,
      "ဟူသၣ်": 3200,
      "ကသ့ဝဲ": 3201,
      "ကီၢ်ယူဒၤအပှၤဂီၢ်မုၢ်": 3202,
      "ပှၤအဂၤတဂၤ": 3203,
      "သပှၢ်ကတၢၢ်လီၤ": 3204,
      "လၢထီၣ်ပှဲၤထီၣ်": 3205,
      "တနၢ်ပၢၢ်": 3206,
      "ကပြီၤ": 3207,
      "ယရံၤ": 3208,
      "အမ့ၢ်": 3209,
      "လၢသ့ၣ်": 3210,
      "ဒီးဆူ": 3211,
      "ဒီးစံးဘၣ်": 3212,
      "ဒီးသိ": 3213,
      "ဝဲဒီးတၢ်": 3214,
      "တဖၣ်လၢယ": 3215,
      "အီၤတဂ့ၤ": 3216,
      "ဖိလၢ": 3217,
      "အတၢ်ကပီၤ": 3218,
      "တက့ၢ်န့ၣ်လီၤ": 3219,
      "ကစၢ်ယွၤအအိၣ်": 3220,
      "နၤန့ၣ်": 3221,
      "ဘျဲး": 3222,
      "ပှၤအတီအလိၤ": 3223,
      "မ့မ့ၢ်တၢ်": 3224,
      "ကဲဘျုး": 3225,
      "ဘူၣ်ဘျီၣ်": 3226,
      "ကယဲၢ်ပှၤလၢအ": 3227,
      "မနုၤတမံၤ": 3228,
      "အၢၣ်လီၤတ့ၢ်": 3229,
      "အဘျုးအဖှိၣ်": 3230,
      "တဝာ်": 3231,
      "အဆံး": 3232,
      "ဒီးဆှၢ": 3233,
      "ဒီးခဲအံၤ": 3234,
      "မၤထွဲ": 3235,
      "မၤဆါ": 3236,
      "လၢအဖီခိၣ်": 3237,
      "မ့ၢ်ကစၢ်ယွၤ": 3238,
      "သ့ၣ်ဖး": 3239,
      "သုလၢသု": 3240,
      "ယွၤဟ့ၣ်လီၤ": 3241,
      "ဖဲစီၤပၤ": 3242,
      "အတၢ်သူၣ်": 3243,
      "ကစၢ်စီၤပၤ": 3244,
      "ဟဲကိး": 3245,
      "ကွၢ်တၢ်": 3246,
      "ပှၤအဂ့ၤ": 3247,
      "ပှၤအမိၢ်": 3248,
      "အခၢၣ်": 3249,
      "ပှၤတဂၤလၢ": 3250,
      "ထဲဒၣ်": 3251,
      "ဂံၢ်အဘါ": 3252,
      "ကၤလး": 3253,
      "ပိာ်မုၣ်လၢအ": 3254,
      "နးမး": 3255,
      "ဒုၣ်နဒါ": 3256,
      "အစုပူၤန့ၣ်လီၤ": 3257,
      "ထိးဘၣ်": 3258,
      "သူၣ်ဒဲအလီၢ်": 3259,
      "တၢ်မၢဖိ": 3260,
      "သိၣ်တၢ်ဘျၢ": 3261,
      "စံးဒကံယၤ": 3262,
      "တိ": 3263,
      "တဝ့ၢ်": 3264,
      "တဒိကနၣ်": 3265,
      "တဒၢ": 3266,
      "နိ": 3267,
      "နမံၤ": 3268,
      "ပၣ်": 3269,
      "ပကစၢ်": 3270,
      "အပှ့ၤ": 3271,
      "၂၂": 3272,
      "ဘၣ်ဆိၣ်ဂ့ၤ": 3273,
      "ပှၤလၢန": 3274,
      "ဖဲအဝဲဒၣ်": 3275,
      "ကွံာ်သု": 3276,
      "တၢ်အဂၤ": 3277,
      "မံၤကါ": 3278,
      "ၢၣ်ဒၢ": 3279,
      "ဒ်သိးန": 3280,
      "ဒ်သိးယ": 3281,
      "ကမၤဝဲ": 3282,
      "ဘါထီၣ်": 3283,
      "ဒံးဒၣ်": 3284,
      "စံၣ်စိၤ": 3285,
      "ကမၣ်ခွါ": 3286,
      "ဃ့ထုကဖၣ်": 3287,
      "ဂံၢ်စၢ်ဘါစၢ်": 3288,
      "အကျါန့ၣ်": 3289,
      "ထီဒါယွၤ": 3290,
      "စီၤပံၤလး": 3291,
      "ဆံးယံာ်": 3292,
      "မဲထီၣ်": 3293,
      "စီၤနၤဘလး": 3294,
      "လီၤသးဘၣ်အၢ": 3295,
      "ကူၣ်တၢ်သ့": 3296,
      "ယူၢ်ဃီ": 3297,
      "ကံးဒဧိၣ်": 3298,
      "ယရံၤဃိ": 3299,
      "ကဆူး": 3300,
      "သရ": 3301,
      "သဘှံး": 3302,
      "အဘၣ်တၢ်": 3303,
      "အယာ်": 3304,
      "တၢ်ဂ့ၤ": 3305,
      "တၢ်အိၣ်ဖှိၣ်": 3306,
      "လီၤနသး": 3307,
      "စီၤအဃ": 3308,
      "မ့ၢ်လီၤ": 3309,
      "တကိး": 3310,
      "ယၤလၢတၢ်": 3311,
      "ယၤဆူ": 3312,
      "အသးန့ၣ်": 3313,
      "အဂီၢ်မ့ၢ်ဂ့ၤ": 3314,
      "တၢ်အပှ့ၤ": 3315,
      "လဲၤတၢ်လၢ": 3316,
      "ပှၤလၢအမၤ": 3317,
      "ဖီလာ်": 3318,
      "သုးကွံာ်": 3319,
      "အၢသီ": 3320,
      "လံာ်ထူ": 3321,
      "စံၣ်ညီၣ်တီ": 3322,
      "လၢအကြၢး": 3323,
      "တၢ်အံၤမ့ၢ်": 3324,
      "ဘှီလိာ်": 3325,
      "ဖံဘၣ်": 3326,
      "ကးဘၢ": 3327,
      "နီတစုလၢၤဘၣ်": 3328,
      "ဃူမၤ": 3329,
      "မံးဒ": 3330,
      "စံၣ်တဲၤတဲလီၤတၢ်": 3331,
      "ပျံၤတၢ်တဂ့ၤ": 3332,
      "စံးဘျုးစံးဖှိၣ်": 3333,
      "က့လး": 3334,
      "ပီၢ်ယၢ်": 3335,
      "အလၤ": 3336,
      "လၢစီၤဒၤဝံး": 3337,
      "လီၤစၢၤ": 3338,
      "မၤဖျဲး": 3339,
      "စီၤရ": 3340,
      "စီၤစံ": 3341,
      "ဒ်သု": 3342,
      "အဝဲသ့ၣ်ဆူ": 3343,
      "လဲၤသဒၣ်": 3344,
      "ခံမံၤ": 3345,
      "ပှၤဂီၢ်မုၢ်လၢအ": 3346,
      "ကလိာ်": 3347,
      "ချၢၣ်ဒၢ": 3348,
      "လၢအအိၣ်ဆိး": 3349,
      "ဖဲန့ၣ်အဆၢကတီၢ်": 3350,
      "မၤတၢ်အံၤ": 3351,
      "ပိာ်မုၣ်တဂၤ": 3352,
      "ကွဲးဃါ": 3353,
      "နၢ်ဟူဘၣ်တၢ်": 3354,
      "ဘျုးတၢ်ဖှိၣ်": 3355,
      "မၢ်ကွံာ်": 3356,
      "ဒီးယွၤစံးဘၣ်": 3357,
      "တမ့ၢ်ဘၣ်ဧါ": 3358,
      "ထိၣ်ဂဲၤထီၣ်": 3359,
      "့ၤရိာ်": 3360,
      "ၢကယဲ": 3361,
      "လဘၤနိၣ်": 3362,
      "မံးဒယၣ်": 3363,
      "ကမ့ၢ်တၢ်": 3364,
      "ကအိၣ်ဝဲ": 3365,
      "ဃံး": 3366,
      "တံး": 3367,
      "ပအိၣ်": 3368,
      "ဖရၤ": 3369,
      "ဟိၤ": 3370,
      "အဆ့ကၤ": 3371,
      "တၢ်မျၢ်": 3372,
      "ဘၣ်သု": 3373,
      "ပှၤဝ့ၢ်": 3374,
      "ပှၤဖှီၣ်ဖိယာ်ဖိ": 3375,
      "တဖၣ်လၢအဝဲသ့ၣ်": 3376,
      "တဖၣ်အဂီၢ်လီၤ": 3377,
      "လၢအဂ့ၢ်": 3378,
      "အိၣ်ဆၢထၢၣ်": 3379,
      "ယွၤလၢအ": 3380,
      "အဝဲသ့ၣ်ဘၣ်": 3381,
      "တကလး": 3382,
      "က့ၤစိာ်": 3383,
      "လဲၤဃုာ်": 3384,
      "ပျ့ၤ": 3385,
      "သံကွံာ်": 3386,
      "မူအဒါ": 3387,
      "ပတာ်": 3388,
      "ဆိးက့": 3389,
      "ဒုၣ်သုဒါ": 3390,
      "ဂဲၤဆၢထၢၣ်က့ၤ": 3391,
      "ထိးဘိ": 3392,
      "ကိၣ်ကမူၣ်": 3393,
      "ဆီၣ်လီၤသး": 3394,
      "ခူၣ်လီၤကွံာ်": 3395,
      "အမိၢ်အပၢ်": 3396,
      "ကပြုၢ်ကပြီၤ": 3397,
      "ဆူၣ်အိၣ်ချ့": 3398,
      "ဃူမၤဖိး": 3399,
      "တူး": 3400,
      "နသွဲၣ်": 3401,
      "နဘူၤကးန့စၢ်": 3402,
      "လယၤ": 3403,
      "အဘ့ၣ်": 3404,
      "အခွဲး": 3405,
      "၂၁": 3406,
      "၂၅": 3407,
      "လၢသး": 3408,
      "လၢထံကီၢ်": 3409,
      "လၢပှၢ်မုၢ်ကနၢ": 3410,
      "တၢ်လၢပှၤ": 3411,
      "ဝဲဘၣ်ဝဲ": 3412,
      "လၢအံၣ်စရ့လး": 3413,
      "ဖိဒီးပှၤ": 3414,
      "ဒ်န့ၣ်ဘၣ်": 3415,
      "ပူၤမၤဖျဲး": 3416,
      "ဆူတၢ်လီၢ်": 3417,
      "တၢ်အဒိၣ်": 3418,
      "ဆၣ်အလီၢ်": 3419,
      "ဒီးတၢ်မၤ": 3420,
      "ဒ်သိးအဝဲသ့ၣ်": 3421,
      "မဲာ်ဘျီၣ်": 3422,
      "တမံၤန့ၣ်": 3423,
      "စၢၤနသွဲၣ်": 3424,
      "တဂ့ၤအဂီၢ်န့ၣ်လီၤ": 3425,
      "ဃုဆံ": 3426,
      "သူဝဲ": 3427,
      "မုာ်မုာ်": 3428,
      "ဒူၣ်ဖိထၢဖိ": 3429,
      "ကသ့ဧါ": 3430,
      "တဒုန့ၣ်": 3431,
      "အုၣ်အသး": 3432,
      "သီၣ်ထီၣ်": 3433,
      "ကဝီၤဃာ်": 3434,
      "ဒုးအိၣ်ထီၣ်တၢ်": 3435,
      "တၢ်အုၣ်အသး": 3436,
      "အဒုၣ်အဒါတဖၣ်": 3437,
      "ဒီဖျၢၣ်ညါ": 3438,
      "ဟးဂူာ်ဟးဂီၤ": 3439,
      "ဖ့": 3440,
      "ဟုး": 3441,
      "အဒီခိၣ်": 3442,
      "ြၤ": 3443,
      "တၢ်ဖံး": 3444,
      "လီၤဘှံး": 3445,
      "ဝဲလံ": 3446,
      "ဘၣ်ဖၣ်": 3447,
      "လၢအမံၤ": 3448,
      "စီၤမး": 3449,
      "သးဘၣ်အၢ": 3450,
      "အဝဲစံးဘၣ်": 3451,
      "ယွၤန့ၣ်": 3452,
      "ဖဲယွၤ": 3453,
      "ဘၣ်တၢ်ပာ်": 3454,
      "ဖျီၣ်": 3455,
      "တုၤယ": 3456,
      "ကွၢ်တက့ၢ်": 3457,
      "ထံၣ်ဝဲ": 3458,
      "ဒီးပှၤတဂၤ": 3459,
      "အကိာ်": 3460,
      "မ့ၢ်ဂ့ၤန့ၣ်": 3461,
      "ဒီးစီၤဘ": 3462,
      "လၤအူး": 3463,
      "အၢတၢ်သီ": 3464,
      "လၢပက": 3465,
      "တၤဆှုၣ်": 3466,
      "မၤတ့ၢ်အသး": 3467,
      "ခါဆူညါ": 3468,
      "လီၤတယၢၢ်": 3469,
      "တဖျၢၣ်လၢ": 3470,
      "ပှၤကညီဖိခွါ": 3471,
      "ပျီဆူၣ်": 3472,
      "လီၤကလဲ": 3473,
      "ကယီ": 3474,
      "အဖၢမုၢ်န့ၣ်": 3475,
      "ခိၣ်ပှၤနၢ်": 3476,
      "သိၣ်လီၤသီလီၤ": 3477,
      "ဟူသၣ်ဖျါ": 3478,
      "ဖရၤသး": 3479,
      "စ့ၤ": 3480,
      "စူၣ်": 3481,
      "နစု": 3482,
      "ယံၣ်": 3483,
      "ရယၤ": 3484,
      "အညၣ်": 3485,
      "ဧမၤ": 3486,
      "၂၄": 3487,
      "လၢခရံာ်": 3488,
      "ပှၤတီပှၤလိၤ": 3489,
      "တဖၣ်ဟဲ": 3490,
      "အိၣ်သးအိၣ်": 3491,
      "သ့ၣ်ယီၤ": 3492,
      "တကနၣ်": 3493,
      "အတၢ်အၢၣ်လီၤအီလီၤ": 3494,
      "အသးလၢက": 3495,
      "ကီၢ်တဘ့ၣ်": 3496,
      "လဲၤဆူဝ့ၢ်": 3497,
      "ဆှိး": 3498,
      "ပျုၢ်": 3499,
      "ကိးန့ၢ်": 3500,
      "ဒုးသုး": 3501,
      "ထံပူၤ": 3502,
      "ယဲလီၤ": 3503,
      "ကမၤနၢၤ": 3504,
      "ဒီးပှၤကလုာ်": 3505,
      "အဒု": 3506,
      "အဒ့": 3507,
      "စ့ၢ်ကီးဝဲ": 3508,
      "တမ့ၢ်ထဲ": 3509,
      "ကီၢ်အဲၤကူပတူးအစီၤပၤ": 3510,
      "လ့ၤတက့ၤ": 3511,
      "တဘိယူၢ်ဃီ": 3512,
      "တပူၤလၢ်လၢ်": 3513,
      "အါအါကလဲာ်": 3514,
      "စီၤယဟိၡၤဖး": 3515,
      "ယဒီပုၢ်ဝဲၢ်သ့ၣ်ဧၢ": 3516,
      "ဃံးစကံယၤ": 3517,
      "ဘ့ၢ်": 3518,
      "ယၡါယၤ": 3519,
      "ဟၢ": 3520,
      "အဖံး": 3521,
      "၀၀": 3522,
      "လၢပှၤလၢအ": 3523,
      "ဒီးပိာ်မုၣ်": 3524,
      "အိၣ်ဖဲန့ၣ်": 3525,
      "အိၣ်ဘှီၣ်": 3526,
      "သးဒိၣ်ထီၣ်": 3527,
      "အဝဲအံၤမ့ၢ်": 3528,
      "အီၤအဂီၢ်": 3529,
      "မုၢ်နုာ်": 3530,
      "ဒၣ်သုဝဲ": 3531,
      "က့ၤတၢ်": 3532,
      "အဃိန့ၣ်တက့ၢ်": 3533,
      "ဟ့ၣ်ပှၤ": 3534,
      "နၤဘၣ်": 3535,
      "လဲၣ်န့ၣ်လီၤ": 3536,
      "စီၤပၤၡလိၤမိၤ": 3537,
      "ခံဒု": 3538,
      "အဂ့ၢ်လီၤ": 3539,
      "ဟီၣ်ဝဲ": 3540,
      "ဒိးလဲ": 3541,
      "ဝံၤန့ၣ်": 3542,
      "ဧိၤတာ်": 3543,
      "စိာ်ထီၣ်": 3544,
      "ယကဟ့ၣ်လီၤ": 3545,
      "လၢအအိၣ်ဝဲ": 3546,
      "ပၢတၢ်လၢ": 3547,
      "မၤတ့ၢ်လံ": 3548,
      "ဟံးန့ၢ်ကွံာ်": 3549,
      "ရၤဃ": 3550,
      "လၢမုၢ်နုာ်": 3551,
      "လၢမုၢ်မဆါတနံၤအံၤ": 3552,
      "ဘၣ်တၢ်မၤဟးဂီၤ": 3553,
      "ဘူၣ်ထီၣ်ဘါထီၣ်အီၤ": 3554,
      "လ့ၤဝံဖိတဖၣ်": 3555,
      "လဲၤထီၣ်ဒုး": 3556,
      "ကဆှီထီၣ်": 3557,
      "အါမးလီၤ": 3558,
      "ပာ်ထီၣ်ထီအသး": 3559,
      "တီတီလိၤလိၤ": 3560,
      "တလဲ": 3561,
      "ဒံၣ်": 3562,
      "န့ၤ": 3563,
      "နစၤ": 3564,
      "ပဒါ": 3565,
      "ယကစၢ်": 3566,
      "အလၢအပှဲၤ": 3567,
      "ဒီးလၢန": 3568,
      "ပှၤဟးဂီၤ": 3569,
      "ပှၤတဖၣ်အံၤ": 3570,
      "အိၣ်ထီၣ်": 3571,
      "အဝဲဆှၢလီၤ": 3572,
      "ဖိအ": 3573,
      "ဖိအဒူၣ်": 3574,
      "အတၢ်ထုကဖၣ်": 3575,
      "ဆူအဝဲသ့ၣ်": 3576,
      "လုၢ်လီၢ်": 3577,
      "တုၤအဝဲသ့ၣ်": 3578,
      "လၢယမဲာ်ညါ": 3579,
      "မုၣ်ကမၣ်ခွါ": 3580,
      "ဧိၤကီၢ်": 3581,
      "လၢအအိၣ်ဒီးတၢ်": 3582,
      "တဖၣ်လၢက": 3583,
      "ဖးဒိၣ်လၢပျၢၤ": 3584,
      "ကဘၣ်တၢ်မၤဟးဂီၤ": 3585,
      "အတီၤ": 3586,
      "အလိၤလီၤ": 3587,
      "ဒီးယတ": 3588,
      "ကလုာ်ဒဲး": 3589,
      "သၢသီ": 3590,
      "ယမ့ၢ်ယွၤ": 3591,
      "ပူထီၣ်တၢ်": 3592,
      "ဖိဃီဖိတဖၣ်": 3593,
      "စဲဘူး": 3594,
      "အန့ၣ်ဝံၤဒီးအဝဲ": 3595,
      "ကွဲးနီၣ်ကွဲးဃါ": 3596,
      "တနၢ်ဟူ": 3597,
      "ကျၢၢ်ဘၢ": 3598,
      "စံးထီၣ်ပတြၢၤယွၤတက့ၢ်": 3599,
      "မုၢ်ဟါလီၤ": 3600,
      "တၢ်ဆိးအလီၢ်": 3601,
      "ဘၣ်ဖၣ်လဲ": 3602,
      "ဟၢဖၢ": 3603,
      "ခၣ်": 3604,
      "ထ့ၣ်": 3605,
      "ပပၢ်": 3606,
      "ယုၤ": 3607,
      "တၢ်ဆိၣ်ဂ့ၤ": 3608,
      "ဒီးဒ်": 3609,
      "ပှၤပိာ်မုၣ်": 3610,
      "တဖၣ်ကဘၣ်": 3611,
      "လၢအဘၣ်ဃးဒီး": 3612,
      "အိၣ်သကိး": 3613,
      "သးလီ": 3614,
      "အဝဲလဲၤ": 3615,
      "ကစွါ": 3616,
      "ဟ့ၣ်ဂံၢ်ဟ့ၣ်ဘါ": 3617,
      "ကမှ": 3618,
      "သူၣ်က့": 3619,
      "ဒ်သိးပက": 3620,
      "ပှၤအဒိၣ်": 3621,
      "မဲာ်ထံ": 3622,
      "ဒီးပှၤကညီ": 3623,
      "အကရူၢ်": 3624,
      "ဧိၤလီၤ": 3625,
      "ဟီၣ်ခိၣ်လိၤ": 3626,
      "သၣ်ထီၣ်": 3627,
      "ကူာ်": 3628,
      "ကျဲဒ်လဲၣ်": 3629,
      "န့ၣ်ဘၣ်ဧါ": 3630,
      "နကလုၢ်": 3631,
      "ပၢၤခိၣ်": 3632,
      "စီၤယၤရၤဘၣ်": 3633,
      "လုၢ်ထီၣ်ပာ်ထီၣ်": 3634,
      "စီၤအၤဘြၣ်": 3635,
      "မၤအသးဒ်": 3636,
      "လီၤပလိာ်": 3637,
      "မ့ၢ်အတီ": 3638,
      "ဟ့ၣ်ကူၣ်ဟ့ၣ်": 3639,
      "အနံၤန့ၣ်": 3640,
      "လံးပ": 3641,
      "ပဲတြီ": 3642,
      "စံၣ်စိၤတဲစိၤ": 3643,
      "ဂိာ်": 3644,
      "စုၣ်": 3645,
      "စပၤ": 3646,
      "ဖိၣ်": 3647,
      "ယထံၣ်ဘၣ်": 3648,
      "အသၣ်": 3649,
      "အလီ": 3650,
      "အနီၢ်ခိ": 3651,
      "လၢဟံၣ်": 3652,
      "တၢ်နီတမံၤဘၣ်": 3653,
      "တၢ်ယိး": 3654,
      "တဖၣ်လၢအမ့ၢ်": 3655,
      "တဖၣ်အပူၤန့ၣ်": 3656,
      "အိၣ်ဒီးသု": 3657,
      "မ့ၢ်လၢပှၤ": 3658,
      "သုတအိၣ်": 3659,
      "အတၢ်ဆိကမိၣ်": 3660,
      "ခိၣ်နၢ်": 3661,
      "ဂ့ၤတဂၤဂ့ၤ": 3662,
      "ပာ်တၢ်ကမၣ်": 3663,
      "စီၤပၤအၤ": 3664,
      "ဘၣ်ဆၣ်သနာ်က့": 3665,
      "စုကဝဲၤ": 3666,
      "စရ့": 3667,
      "မ့ၢ်ဂ့ၤန့ၣ်လီၤ": 3668,
      "ယ့ၣ်ၡူးစံးဘၣ်အဝဲသ့ၣ်": 3669,
      "ဒ်အံၤလီၤ": 3670,
      "ဆိပာ်": 3671,
      "အိၣ်ဝဲအသိးန့ၣ်လီၤ": 3672,
      "အီၣ်ဝဲ": 3673,
      "တၢ်လၢပ": 3674,
      "အဂၤတဂၤ": 3675,
      "ဘှ့ၣ်": 3676,
      "အကျါလီၤ": 3677,
      "လၢဝ့ၢ်ပူၤ": 3678,
      "တၤသူ": 3679,
      "ဖၣ်ဆါ": 3680,
      "ကအိၣ်က": 3681,
      "ကအိၣ်ဒီး": 3682,
      "နီတဂၤတဂ့ၤ": 3683,
      "အန့ၣ်ဒၣ်လဲာ်": 3684,
      "ခံဂၤအံၤ": 3685,
      "ဖံလံးပ": 3686,
      "အကီၢ်ပူၤ": 3687,
      "ဝ့ၢ်ယရူၤၡလ့ၣ်အပူၤ": 3688,
      "ဘ့ၤလး": 3689,
      "သပှၢ်ပှၢ်": 3690,
      "ထီဘိလီၤ": 3691,
      "ကရၢ": 3692,
      "ဃိာ်ပူၤ": 3693,
      "ဘီၣ်ထီၣ်ညီထီၣ်": 3694,
      "တဘီ": 3695,
      "ဘယၤ": 3696,
      "ယဟိဝၤ": 3697,
      "ဲၢ်": 3698,
      "၂၃": 3699,
      "ၡဘၤ": 3700,
      "တၢ်သးကညီၤ": 3701,
      "တၢ်နးတၢ်ဖှီၣ်": 3702,
      "ဒီးပှၤအ": 3703,
      "ဝဲအသိး": 3704,
      "ဒ်ယွၤမၤလိာ်": 3705,
      "အံၤဆူ": 3706,
      "အဝဲသ့ၣ်ဘၣ်တၢ်": 3707,
      "နၤန့ၣ်လီၤ": 3708,
      "ကိးကလုာ်ဒဲး": 3709,
      "ခံခီ": 3710,
      "တုၤလၢအ": 3711,
      "ဖိတဖၣ်န့ၣ်လီၤ": 3712,
      "လၢနီၣ်": 3713,
      "ဝံတဂၤ": 3714,
      "ဃီန့ၣ်": 3715,
      "သုးဘူး": 3716,
      "အီၣ်တၢ်အီ": 3717,
      "ဃုကယၤ": 3718,
      "ကူၣ်ကျဲၤ": 3719,
      "စံးဆၢက့ၤ": 3720,
      "ဒီးသုက": 3721,
      "ယသးအိၣ်": 3722,
      "မ့တမ့ၢ်ဘၣ်ဒီး": 3723,
      "ခ့အပှၤ": 3724,
      "နွံသီ": 3725,
      "ဃုထၢထီၣ်": 3726,
      "ပှၤကလုာ်ဂၤ": 3727,
      "စိးပျၤ": 3728,
      "တကပၤန့ၣ်လီၤ": 3729,
      "ကွီၢ်ဘျီၣ်": 3730,
      "ရိဖှိၣ်": 3731,
      "ထါယၢၣ်": 3732,
      "ပှၤတဂၤဂၤမ့ၢ်": 3733,
      "ဒ်သိးအသုတ": 3734,
      "ဂုာ်ဆူၣ်ပျီဆူၣ်": 3735,
      "အုကစွါ": 3736,
      "စီၤဒၤနံးယ့လး": 3737,
      "ဧမၤလ့း": 3738,
      "တသီၣ်": 3739,
      "နၢၣ်": 3740,
      "ယဘၣ်တၢ်": 3741,
      "တၢ်ကိးမံၤဒဲး": 3742,
      "တၢ်ဃိၤ": 3743,
      "လီၤသုသး": 3744,
      "ဒီးစီၤအ": 3745,
      "ဒီးထူ": 3746,
      "ပှီၤ": 3747,
      "ပှၤဆါ": 3748,
      "ပှၤတကလုာ်": 3749,
      "အိၣ်လၢအ": 3750,
      "ဖဲမုၢ်": 3751,
      "လၢတၢ်တ": 3752,
      "ယၤလၢန": 3753,
      "ဆူအအိၣ်": 3754,
      "ကီၢ်စူၤရံ": 3755,
      "ကစၢ်ယွၤက": 3756,
      "သ့း": 3757,
      "ထံၣ်လိာ်": 3758,
      "ဟးဝ့ၤဝီၤ": 3759,
      "ကနဲ": 3760,
      "တအိၣ်နီတမံၤဘၣ်": 3761,
      "သိၣ်က့ၤ": 3762,
      "အီၣ်အီၤ": 3763,
      "လၤဘၣ်": 3764,
      "ပှၤတဂၤဂ့ၤတဂၤဂ့ၤ": 3765,
      "ဂံၢ်ယ": 3766,
      "ဒၣ်လဲာ်န့ၣ်လီၤ": 3767,
      "တဲဘၣ်အီၤ": 3768,
      "နၢ်ဟူတ့ၢ်": 3769,
      "မုာ်လၤ": 3770,
      "ဒူသးဒူ": 3771,
      "ပျီပူၤ": 3772,
      "ညၣ်ထ့ၣ်": 3773,
      "ဒ့ဒီ": 3774,
      "ဒံအါဂၤ": 3775,
      "တိာ်ပာ်": 3776,
      "စီၤယိၤအၣ်": 3777,
      "သံၣ်ဘိ": 3778,
      "ဒီၣ်တဲာ်": 3779,
      "စီၤဘံးလၣ်": 3780,
      "လၢအကလုၢ်ဖးဒိၣ်": 3781,
      "ဟ့ၣ်ကူၣ်ဟ့ၣ်ဖး": 3782,
      "ဃ့ၤ": 3783,
      "ပကမၤ": 3784,
      "ဘုက": 3785,
      "မိ": 3786,
      "မၢး": 3787,
      "ယပာ်လီၤ": 3788,
      "ယအဲၣ်ဒိး": 3789,
      "ရမံ": 3790,
      "လပီ": 3791,
      "အၣ်": 3792,
      "တၢ်သ့": 3793,
      "ဒီးကစၢ်": 3794,
      "ဒီးထိၣ်": 3795,
      "ဒီးစီၤယိၤသး": 3796,
      "မ့ၢ်အဝဲ": 3797,
      "ဒ်အဝဲ": 3798,
      "အဝဲသ့ၣ်စံးဝဲ": 3799,
      "ဝ့ၢ်ယရူၤရှလ့ၣ်": 3800,
      "ကစၢ်ယွၤလီၤ": 3801,
      "ကစၢ်ယွၤအပှၤဂီၢ်မုၢ်": 3802,
      "ဟဲစူၤ": 3803,
      "လၢာ်ကွံာ်": 3804,
      "ကိးဃီၤ": 3805,
      "ခဲလၢာ်လၢအ": 3806,
      "ယဲၢ်ဂၤ": 3807,
      "ယကဒုးကဲထီၣ်": 3808,
      "ကဘၣ်တၢ်စံၣ်ညီၣ်": 3809,
      "အဖီခိၣ်န့ၣ်": 3810,
      "တၢ်လီၢ်တတီၤ": 3811,
      "စီၤဧူး": 3812,
      "ဒူတၢ်ဃိၤ": 3813,
      "စီၤဃံးစကံယၤ": 3814,
      "ဆၣ်ဖိကီၢ်ဖိအမံၤ": 3815,
      "ထူးပှၤ": 3816,
      "ဖဲတၢ်ဆၢကတီၢ်": 3817,
      "ပာ်ဖျါထီၣ်တၢ်": 3818,
      "ဃါဃုာ်": 3819,
      "ကရူၢ်": 3820,
      "မ့းအိၣ်": 3821,
      "စီၤအဘံန့ၢ်": 3822,
      "စၤရါ": 3823,
      "သူၣ်က့သးပှၢ်": 3824,
      "ကဟုကယာ်": 3825,
      "စ့ၣ်": 3826,
      "တံ": 3827,
      "နဖိခွါ": 3828,
      "နတၢ်မၤလိာ်": 3829,
      "ပမၤ": 3830,
      "ယစု": 3831,
      "အဂုၤ": 3832,
      "ၤစ": 3833,
      "တၢ်အဂီၢ်": 3834,
      "တၢ်ဆူးတၢ်ဆါ": 3835,
      "ဒီးကယဲၢ်တၢ်": 3836,
      "သးကဲၤထီၣ်": 3837,
      "ံၣ်ၡိၣ်": 3838,
      "သုန့ၣ်လီၤ": 3839,
      "အံၤဘၣ်တၢ်": 3840,
      "အဝဲသ့ၣ်ဒီး": 3841,
      "တကတီၢ်": 3842,
      "စံးတၢ်ကတိၤ": 3843,
      "ခိၣ်ဖး": 3844,
      "ကစၢ်ယွၤအသး": 3845,
      "တမံၤလီၤ": 3846,
      "မုၣ်ကနီၤ": 3847,
      "ဝံတၢ်ယိး": 3848,
      "နီၣ်ဂံၢ်": 3849,
      "လၢအအိၣ်ဒီးအ": 3850,
      "ကပံာ်": 3851,
      "မံဃုာ်": 3852,
      "သူအီၤလၢတၢ်": 3853,
      "တခီန့ၣ်": 3854,
      "သၢကယၤ": 3855,
      "ထံၣ်ဘၣ်ဝဲလၢ": 3856,
      "ဒုၣ်ပဒါ": 3857,
      "ခ့ခါ": 3858,
      "နွံဂၤ": 3859,
      "ဖိကီၢ်ဖိ": 3860,
      "ပှၤလုၢ်တၢ်အခိၣ်အဒိၣ်": 3861,
      "အခ့အ": 3862,
      "မၤဘၣ်အၢ": 3863,
      "တၢ်သူၣ်အုးသးအုး": 3864,
      "အိၣ်ဝဲဆိးဝဲလၢ": 3865,
      "ကီၢ်ဘၤဘူၤလိၣ်အစီၤပၤ": 3866,
      "ယွၤစံးဘၣ်စီၤမိၤၡ့": 3867,
      "ပှၤလ့ၤဝံဖိ": 3868,
      "လီၤပှီၢ်ကွံာ်": 3869,
      "တ့လီၤပာ်လီၤ": 3870,
      "ပှၤဖလ့ၡသးဖိ": 3871,
      "ခိၣ်ပှၤနၢ်တဖၣ်": 3872,
      "သိၣ်က့ၤသီ": 3873,
      "ကဲာ်": 3874,
      "တလီၤ": 3875,
      "ဒံၤ": 3876,
      "သဖှ": 3877,
      "တၢ်လၢအဝဲ": 3878,
      "ဒီးမၢ": 3879,
      "န့ၣ်ကဘၣ်တၢ်": 3880,
      "ဝဲအသိးန့ၣ်လီၤ": 3881,
      "ဝဲဆူဝ့ၢ်": 3882,
      "ပှၤလၢပ": 3883,
      "ပှၤဖၤရံၤၡဲ": 3884,
      "အိၣ်တ့ၢ်": 3885,
      "သးဘိ": 3886,
      "ဒ်စီၤပၤ": 3887,
      "ဒ်တၢ်လုၢ်": 3888,
      "အံၤတက့ၢ်": 3889,
      "အဝဲသ့ၣ်အသး": 3890,
      "အတၢ်န့ၢ်သါ": 3891,
      "တ့ၢ်လီၤ": 3892,
      "လီၢ်ခံ": 3893,
      "လီၢ်ကဝီၤ": 3894,
      "တၢ်အဖၢမုၢ်": 3895,
      "ပၤရၣ်": 3896,
      "ဟ့ၣ်ကၣ်": 3897,
      "လဲၤသကိး": 3898,
      "လဲၤပူၤကွံာ်": 3899,
      "စီၤပၤဒၤဝံး": 3900,
      "လၢယကမၤ": 3901,
      "ဒ်သိးဒီး": 3902,
      "စရူး": 3903,
      "ကဲထီၣ်ဝဲ": 3904,
      "အလီၢ်ပစိာ်": 3905,
      "အါထီၣ်ဝဲ": 3906,
      "ချံး": 3907,
      "ဆူၣ်မၤ": 3908,
      "ပှဲၤဒီး": 3909,
      "ဃုထံၣ်န့ၢ်": 3910,
      "လါစရူး": 3911,
      "ပၢဘၣ်": 3912,
      "ခါပတာ်": 3913,
      "ဒီးအဝဲသ့ၣ်က": 3914,
      "တခီလီၤ": 3915,
      "တသ့နီတဂၤဘၣ်": 3916,
      "ဒ်တၢ်ဘူၣ်တၢ်ဘါအလုၢ်အလၢ်": 3917,
      "ပှၤအဂၤတဖၣ်": 3918,
      "ယဖိခွါဧၢ": 3919,
      "ဧိၤတာ်ဧိၤ": 3920,
      "ထူးပှၤတီၤ": 3921,
      "ကန့ၢ်": 3922,
      "တုာ်": 3923,
      "တၢ်တဖၣ်န့ၣ်": 3924,
      "တၢ်သးခု": 3925,
      "တၢ်တြီၤ": 3926,
      "ဝဲဒိၣ်မးလီၤ": 3927,
      "အိၣ်ဖျါ": 3928,
      "မ့ၢ်ပ": 3929,
      "သ့ၣ်ခါပတာ်": 3930,
      "အဝဲသ့ၣ်အကစၢ်ယွၤ": 3931,
      "ကီၢ်ပူၤ": 3932,
      "ပာ်တီၢ်": 3933,
      "နၤတက့ၢ်": 3934,
      "ကိးနံၤ": 3935,
      "ကမံ": 3936,
      "လံဧါ": 3937,
      "လၢယူဒၤ": 3938,
      "ကွၢ်လၢ်": 3939,
      "ကွၢ်ဟုၣ်": 3940,
      "အလီၢ်လီၤ": 3941,
      "ဒိးတၢ်": 3942,
      "ဝံအကျိာ်": 3943,
      "အကျၢၤ": 3944,
      "ဘ့ၣ်ဆ့": 3945,
      "ဟ့ၣ်လီၤအီၤ": 3946,
      "မ့မ့ၢ်ပှၤလၢအ": 3947,
      "တၢ်လၢကစၢ်ယွၤ": 3948,
      "ကူသိး": 3949,
      "အတၤ": 3950,
      "အပှၤလုၢ်တၢ်အခိၣ်": 3951,
      "တဘ့ၣ်အံၤ": 3952,
      "နီတမံၤတဂ့ၤ": 3953,
      "ဘၣ်တၢ်မၤနၢၤ": 3954,
      "နသးသမူ": 3955,
      "အကီၢ်ဆၢ": 3956,
      "သ့တၢ်ဘူၣ်တၢ်ဘါအတၢ်သိၣ်တၢ်သီ": 3957,
      "စီၤအဘံၤမ့လ့း": 3958,
      "ယၣ်ဘျးသဒၢ": 3959,
      "ထွးထီၣ်": 3960,
      "ကူၣ်ထီၣ်ဖးလီၤ": 3961,
      "တၢ်ပျၢ်တၢ်ဒဲးဘး": 3962,
      "စှီၤကျိာ်": 3963,
      "ရၤဃ့လး": 3964,
      "ခ့ခါစှီၤကျိာ်": 3965,
      "ကဒု": 3966,
      "ဖံၤ": 3967,
      "သမၢ": 3968,
      "သကွီၤ": 3969,
      "အအံၤ": 3970,
      "အလံာ်": 3971,
      "ၡက့ၣ်": 3972,
      "”—": 3973,
      "တၢ်ကံးယာ်": 3974,
      "ဒီသဒၢ": 3975,
      "ဝဲဒိၣ်မး": 3976,
      "တဖၣ်လၢအဝဲ": 3977,
      "တဖၣ်လၢပှၤ": 3978,
      "တဖၣ်အဃိန့ၣ်လီၤ": 3979,
      "မၤကဒီး": 3980,
      "မၤဃူမၤဖိး": 3981,
      "သးလီၤ": 3982,
      "သးဟးဂီၤ": 3983,
      "အဝဲအ": 3984,
      "အဝဲပာ်လီၤ": 3985,
      "အဝဲစံးဝဲဒၣ်": 3986,
      "ံၣ်စရ့": 3987,
      "စံးတၢ်": 3988,
      "အတၢ်ဟ့ၣ်": 3989,
      "က့ၤကိး": 3990,
      "ဟ့ၣ်နၤ": 3991,
      "အသိးတက့ၢ်": 3992,
      "ဒုးအီ": 3993,
      "ဟးထီၣ်ဝဲ": 3994,
      "အီၤလၢဝ့ၢ်": 3995,
      "အီၤလၢစီၤပၤ": 3996,
      "ဟံၣ်ဆီ": 3997,
      "ဒဲးန့ၣ်": 3998,
      "စီဆှံကတၢၢ်": 3999,
      "ဟ့ၣ်လီၤတ့ၢ်": 4000,
      "ဒၣ်ဝဲလီၤ": 4001,
      "ဘၤၡၣ်": 4002,
      "လီၤတီၤ": 4003,
      "လီၤတိၢ်": 4004,
      "တသ့လၢၤဘၣ်": 4005,
      "အန့ၣ်ဝံၤအလီၢ်ခံ": 4006,
      "ဆီတလဲ": 4007,
      "ယတံၤသကိး": 4008,
      "အဆၢကတီၢ်န့ၣ်လီၤ": 4009,
      "လၢဟီၣ်ခိၣ်လိၤ": 4010,
      "သိၣ်လိနဲၣ်": 4011,
      "လၢခံန့ၣ်": 4012,
      "အမဲာ်သၣ်": 4013,
      "ဖျဲၣ်ထီၣ်": 4014,
      "တၢ်တတၢးတနါ": 4015,
      "ကယၢကယဲ": 4016,
      "ဆံးစၢ်န့ၢ်": 4017,
      "ပျၤထီ": 4018,
      "စိၤလီၤထီလီၤ": 4019,
      "စံၤနါ": 4020,
      "သ့ၣ်ဆှိအ့ရ့း": 4021,
      "ဃဲၤ": 4022,
      "တထံး": 4023,
      "တပျၢ်": 4024,
      "ထဲး": 4025,
      "ယတၢ်မၤလိာ်": 4026,
      "ဒီးထံၣ်": 4027,
      "ဒီးဒုးကဲထီၣ်": 4028,
      "ဒီးဖဲအ": 4029,
      "န့ၣ်တၢ်": 4030,
      "ပှံၢ်": 4031,
      "မၤလၤကပီၤ": 4032,
      "လၢအသးအိၣ်": 4033,
      "စီၤကံးဒဧိၣ်": 4034,
      "အဝဲမ့ၢ်ပှၤ": 4035,
      "အီၤအဂီၢ်န့ၣ်လီၤ": 4036,
      "ဖိတဒု": 4037,
      "ဒ်ယွၤ": 4038,
      "အဝဲသ့ၣ်တဖၣ်": 4039,
      "လၢတၢ်သးခု": 4040,
      "လၢတၢ်အံၤအဃိ": 4041,
      "ကတၢ": 4042,
      "လုၢ်အီၣ်": 4043,
      "ဟ့ၣ်သု": 4044,
      "ဒီးအီ": 4045,
      "အီၤလၢထူ": 4046,
      "အါမံၤ": 4047,
      "အဒၢ": 4048,
      "ကတၢၢ်ကွံာ်": 4049,
      "ချံၣ်": 4050,
      "ပျဲအဝဲသ့ၣ်": 4051,
      "တြူာ်": 4052,
      "ကအိၣ်ဆိး": 4053,
      "ကီၢ်အံၣ်စရ့လးအကစၢ်ယွၤ": 4054,
      "ထီဒါအီၤ": 4055,
      "ပာ်လီၤဆီ": 4056,
      "ဒီပုၢ်ဝဲၢ်မုၣ်": 4057,
      "ဟဲစိာ်န့ၢ်": 4058,
      "တဆံခံဂၤ": 4059,
      "လၢကီၢ်အဲၤကူပတူးအပူၤ": 4060,
      "ဂ့ၢ်လိာ်ဘှီလိာ်": 4061,
      "တုၤလီၤလၢ": 4062,
      "ပီးအလီ": 4063,
      "ဘၣ်ဒိဘၣ်ထံး": 4064,
      "အဘူးအတံၢ်": 4065,
      "တီဝဲလိၤ": 4066,
      "ဂ့ၤဂ့ၤဘၣ်ဘၣ်": 4067,
      "ကပူၤ": 4068,
      "မု": 4069,
      "မဲၣ်": 4070,
      "အ့း": 4071,
      "အဆူၣ်": 4072,
      "လၢထံကျိ": 4073,
      "လၢကလံၤထံး": 4074,
      "ဒီးသ့ၣ်": 4075,
      "ပှၤတက့ၢ်": 4076,
      "မၤတၢ်လၢ": 4077,
      "လၢအလီၤ": 4078,
      "လၢအိၣ်": 4079,
      "စီၤအဃံ": 4080,
      "သးဆး": 4081,
      "အဝဲဘၣ်တၢ်": 4082,
      "အီၤဒ်လဲၣ်": 4083,
      "သုစံး": 4084,
      "ဒ်အဝဲသ့ၣ်": 4085,
      "တဂၤမ့ၢ်": 4086,
      "ယၤအဖိခွါ": 4087,
      "ကီၢ်ဆၢ": 4088,
      "ဖျ့": 4089,
      "အဃိဘၣ်": 4090,
      "စုထွဲ": 4091,
      "စီၤအမၤ": 4092,
      "တီပာ်": 4093,
      "မ့ၢ်တၢ်မနုၤလဲၣ်": 4094,
      "တၢ်မၤဘူၣ်": 4095,
      "နံၤဘၣ်ဖၣ်လဲ": 4096,
      "ဒီးမၤတၢ်": 4097,
      "လါဟ့": 4098,
      "ကွဲးလံာ်": 4099,
      "နၢ်ဟူဘၣ်ဝဲ": 4100,
      "တဖျၢၣ်န့ၣ်": 4101,
      "လွံၢ်ကယၤ": 4102,
      "ပှၤလုၢ်တၢ်အခိၣ်အဒိၣ်ကတၢၢ်": 4103,
      "ပကြၢး": 4104,
      "သပှၢ်တၢၢ်": 4105,
      "စဲအ့ၣ်": 4106,
      "တၢ်ဘၣ်တ့": 4107,
      "ဒီးမၤသံကွံာ်": 4108,
      "မၤနးမၤဖှီၣ်": 4109,
      "ရံးဘ": 4110,
      "ဟဲလီၤစၢၤလီၤသွဲၣ်": 4111,
      "တကနၣ်ဃုာ်": 4112,
      "ဧိၤကီၢ်ဧိၤ": 4113,
      "ကဲာ်ဆိး": 4114,
      "သဖှိ": 4115,
      "ဒၢ်": 4116,
      "နဒုၣ်နဒါ": 4117,
      "ယခ့ယပှၤ": 4118,
      "အဝံ": 4119,
      "အဖျၢၣ်": 4120,
      "တၢ်စူၢ်တၢ်နာ်": 4121,
      "ပှၤဘၣ်": 4122,
      "ပှၤတဖၣ်လၢ": 4123,
      "ပှၤတၢ်ဒဲးဘး": 4124,
      "ပှၤသ့ၣ်တဖၣ်အံၤ": 4125,
      "လၢအခီၣ်": 4126,
      "လၢအယံၤ": 4127,
      "မ့ၢ်လၢပ": 4128,
      "ပူၤကွံာ်ဝဲ": 4129,
      "အံၤလၢ": 4130,
      "မုၢ်သီ": 4131,
      "လၢတၢ်ချၢ": 4132,
      "လၢတၢ်ဒုးတၢ်ယၤ": 4133,
      "အတၢ်ထူးတၢ်တီၤ": 4134,
      "ဆူမူခိၣ်": 4135,
      "ဘၣ်တၢ်ဒုး": 4136,
      "ဟ့ၣ်ဝဲ": 4137,
      "ကွၢ်အီၤ": 4138,
      "တမံၤန့ၣ်လီၤ": 4139,
      "ထီကတၢၢ်": 4140,
      "လၢသုသး": 4141,
      "ဟီၣ်ခိၣ်ဒီဘ့ၣ်": 4142,
      "ကဲထီၣ်အသး": 4143,
      "နာ်န့ၢ်": 4144,
      "အၢမၤ": 4145,
      "ဆှၢထီၣ်": 4146,
      "ဘၣ်ဆၣ်ဒီးအဝဲသ့ၣ်": 4147,
      "ပျံၤဘၣ်": 4148,
      "ပျံၤသကွီၤ": 4149,
      "စီၤအၤဒၣ်": 4150,
      "အခိၣ်ဒူ": 4151,
      "ဒီးနက": 4152,
      "သၢနံၣ်": 4153,
      "တြိာ်": 4154,
      "စူၢ်တနာ်": 4155,
      "တဘၣ်မၤ": 4156,
      "ပှၤကနၤဧၣ်": 4157,
      "အမံၤအပူၤ": 4158,
      "လၢအကဟဲ": 4159,
      "ဆီဟံၣ်ဆီ": 4160,
      "ယွၤအတၢ်အၢၣ်လီၤအီလီၤ": 4161,
      "စူၤမ့းအိၣ်": 4162,
      "ဂၢၢ်အကျၢၤ": 4163,
      "အမုၢ်တနံၤ": 4164,
      "ထံကျါ": 4165,
      "စံဒိၣ်": 4166,
      "စီၤဃၤ": 4167,
      "ဖှံလီၤ": 4168,
      "နီၢ်နီၢ်လီၤ": 4169,
      "စဲပနီၣ်": 4170,
      "ဘံၣ်ယၤမံၣ်အဒူၣ်": 4171,
      "အလံၤခွါ": 4172,
      "ၡံလိၤ": 4173,
      "ဒီးယွၤစံးဘၣ်စီၤမိၤၡ့": 4174,
      "ကအိၣ်ကဆိး": 4175,
      "ကလီၤ": 4176,
      "ကဒူးကဒ့ၣ်": 4177,
      "နတၢ်မၤ": 4178,
      "ပစံး": 4179,
      "ပစီ": 4180,
      "ပထံၣ်ဘၣ်": 4181,
      "ရူာ်": 4182,
      "သကူး": 4183,
      "အၢ်": 4184,
      "အဲၤကူပတူး": 4185,
      "အမ့ၢ်အတီ": 4186,
      "လီၤပှီၤ": 4187,
      "ဒီးစီၤယ": 4188,
      "ဒီးမ့ၣ်အူ": 4189,
      "ဒီးဖဲအဝဲသ့ၣ်": 4190,
      "စီၤက": 4191,
      "သးဖျိး": 4192,
      "ဆူစီၤပၤ": 4193,
      "ခဲလၢာ်ဒီး": 4194,
      "တုၤသု": 4195,
      "တုၤလၢဝ့ၢ်": 4196,
      "အီၤလၢသု": 4197,
      "ဒဲးလီၤ": 4198,
      "အကြၢး": 4199,
      "ဧိၤမံၤ": 4200,
      "ပှၤလၢအဘၣ်တၢ်": 4201,
      "ဃီထၢ": 4202,
      "ပှဲၤဝဲဒီး": 4203,
      "ဒီးစီၤစီလူး": 4204,
      "ဒီးစီၤပ့းတရူး": 4205,
      "မးလီၤ": 4206,
      "မိၢ်ပှၢ်": 4207,
      "သံကွၢ်အဝဲသ့ၣ်": 4208,
      "ခရံာ်ဖိ": 4209,
      "ခဲအံၤန့ၣ်": 4210,
      "အိၣ်ဒီးတၢ်သူၣ်": 4211,
      "ကီၢ်အဲၤကူပတူးအပူၤ": 4212,
      "တခါလီၤ": 4213,
      "သါလီၤ": 4214,
      "တကပၤန့ၣ်": 4215,
      "န့ဆၢၣ်": 4216,
      "ယွၤစံးဘၣ်ယၤ": 4217,
      "ယိးဘိ": 4218,
      "သူၣ်လီၤဖျး": 4219,
      "ဘူလိၣ်": 4220,
      "ဆံးယံာ်လဲၣ်": 4221,
      "ဂံၢ်ယဘါ": 4222,
      "ဃ့ၤသး": 4223,
      "တီပာ်လိၤ": 4224,
      "တပျဲ": 4225,
      "နတၢ်အဲၣ်": 4226,
      "ယမံၤ": 4227,
      "ယဆိၣ်": 4228,
      "သူး": 4229,
      "သတြိာ်": 4230,
      "အသူၣ်": 4231,
      "အလၢၢ်": 4232,
      "ၤဘၣ်": 4233,
      "လၢထံကျိယၢ်ဒ့ၣ်": 4234,
      "ဒီးကွၢ်": 4235,
      "ဒီးဝံ": 4236,
      "ဒီးတမ့ၢ်": 4237,
      "လၢအစံးဝဲ": 4238,
      "လၢအပၢ်": 4239,
      "စီၤမံၤကါ": 4240,
      "အိၣ်ဘူး": 4241,
      "အိၣ်ဖျါထီၣ်": 4242,
      "သးလၢအ": 4243,
      "အဝဲဒုး": 4244,
      "သ့ၣ်တဖၣ်န့ၣ်လီၤ": 4245,
      "အီၤတသ့ဘၣ်": 4246,
      "ယွၤကတိၤတၢ်ဒီး": 4247,
      "ပူၤလီၢ်": 4248,
      "သိးထီၣ်": 4249,
      "တကူာ်": 4250,
      "အတၢ်သံ": 4251,
      "အတၢ်ကစီၣ်": 4252,
      "ဆူဟံၣ်": 4253,
      "ကွံာ်လီၤ": 4254,
      "ဒိၣ်တၢ်": 4255,
      "ဝ့ၢ်ခိၣ်ဒူ": 4256,
      "တၢ်အခီၣ်ထံး": 4257,
      "ဒ်သိးဒၣ်": 4258,
      "ဖးယံာ်": 4259,
      "ဝဲလၢပှၤ": 4260,
      "ယဲၢ်ကယၤ": 4261,
      "လၢအအိၣ်မူ": 4262,
      "အီၣ်ကွံာ်": 4263,
      "စီၤယိၤၡံယၤ": 4264,
      "ဆါအၢ": 4265,
      "ဘှါ": 4266,
      "ခါလီၤ": 4267,
      "မၤသံကွံာ်အီၤ": 4268,
      "စိဒိၣ်": 4269,
      "လီန့ၢ်": 4270,
      "လီသးကွံ": 4271,
      "ဂာ်ဒ်": 4272,
      "တဖျၢၣ်အံၤ": 4273,
      "ဒိကနၣ်လၢ်": 4274,
      "ဒူၣ်ဃီထၢ": 4275,
      "ဘူၣ်ထီၣ်ဘါထီၣ်တၢ်": 4276,
      "စီၤဧး": 4277,
      "ဘၣ်ဝဲဘၣ်": 4278,
      "တၢ်န့ၣ်မ့ၢ်": 4279,
      "အဒိၣ်အမုၢ်": 4280,
      "ဖီၣ်န့ၢ်အီၤ": 4281,
      "ဖိသၣ်ပိာ်ခွါ": 4282,
      "လၢတၢ်လီၢ်ကိးပူၤဒဲး": 4283,
      "ကီၤလၤအူး": 4284,
      "ပှၤတခီဘီမုၢ်ဖိ": 4285,
      "မနုၤတမံၤလဲၣ်": 4286,
      "ဟိၤယါ": 4287,
      "ကမှံ": 4288,
      "သိၣ်က့ၤသီက့ၤ": 4289,
      "ကွၢ်ဟုၣ်ကွၢ်": 4290,
      "စုး": 4291,
      "စဒိၣ်": 4292,
      "စကၤ": 4293,
      "တဘျုး": 4294,
      "နူၤ": 4295,
      "နကစၢ်ယွၤ": 4296,
      "ယိ": 4297,
      "သလုး": 4298,
      "အယွၤ": 4299,
      "တၢ်တမံၤမံၤ": 4300,
      "တၢ်တီတၢ်လိၤ": 4301,
      "ဒီးထံၣ်ဘၣ်": 4302,
      "န့ၣ်ဂ့ၤ": 4303,
      "ပှၤကွၢ်သိ": 4304,
      "တဖၣ်ဒီးမၤ": 4305,
      "စီၤဃ့": 4306,
      "အိၣ်လၢဝ့ၢ်": 4307,
      "သ့ၣ်တဖၣ်လၢအ": 4308,
      "ဒ်တၢ်လုၢ်တၢ်ပာ်": 4309,
      "တကီၢ်": 4310,
      "န့ၢ်ဝဲ": 4311,
      "ဒိၣ်ထီၣ်ဝဲ": 4312,
      "ခဲမုၢ်ဆ့ၣ်": 4313,
      "တၢ်အကတီၢ်": 4314,
      "အသိးန့ၣ်ဘၣ်": 4315,
      "ကမၢ်": 4316,
      "လံန့ၣ်": 4317,
      "ဒ်သိးပှၤ": 4318,
      "ဒ်သိးနက": 4319,
      "ဟးဖး": 4320,
      "ဖိတဖၣ်ဒီး": 4321,
      "ဒၤမ့ၤ": 4322,
      "ကတိၤတ့ၢ်": 4323,
      "ကတိၤဒုၣ်ဒွဲၣ်": 4324,
      "လၢနွံ": 4325,
      "နီၣ်ဧိၤမံၤ": 4326,
      "လၢအဝဲသ့ၣ်အကျါ": 4327,
      "ပိာ်မုၣ်တဖၣ်": 4328,
      "ဝဲဒၣ်လၢ": 4329,
      "ဃၣ်ကဒါက့ၤ": 4330,
      "ပျၢ်ဖျဲး": 4331,
      "ကညီၢ်": 4332,
      "ဒီးအဝဲက": 4333,
      "ဂဲၤကလ": 4334,
      "ဒီးကး": 4335,
      "ယသးလၢ": 4336,
      "ထိၣ်လွံၢ်": 4337,
      "အဟံၣ်ပူၤ": 4338,
      "ကးတံာ်": 4339,
      "ဂဲၤဆၢထၢၣ်ဒီး": 4340,
      "နီၢ်ကစၢ်ဒၣ်ဝဲ": 4341,
      "စီၤအၤဟရိၣ်ဒီးအဖိခွါ": 4342,
      "အခ့အပှၤတဖၣ်": 4343,
      "လၢထီၣ်ပှဲၤထီၣ်ဝဲ": 4344,
      "ကြီ": 4345,
      "နုၢ်ထံ": 4346,
      "တၤသၣ်လီၢ်": 4347,
      "လၢအလီၢ်န့ၣ်လီၤ": 4348,
      "တၢ်မၢဖိတဖၣ်": 4349,
      "ပာ်တ့ၢ်ကွံာ်": 4350,
      "ကစီဒီဧါ": 4351,
      "တိၢ်န့ၢ်ဖံးဃာ်": 4352,
      "ဒီးကိၣ်မံၣ်": 4353,
      "တစိၢ်တလီၢ်": 4354,
      "အၢမၤသီ": 4355,
      "ကဆှ": 4356,
      "နဒုး": 4357,
      "နမၤတၢ်": 4358,
      "ယဃ့ကညး": 4359,
      "သဒံး": 4360,
      "အံၣ်": 4361,
      "အကစၢၢ်": 4362,
      "အရ့ဒိၣ်": 4363,
      "ဧ့လး": 4364,
      "ၡံး": 4365,
      "ဒီးအသး": 4366,
      "ဘၣ်သီ": 4367,
      "ထီၣ်ကွံာ်အီၤ": 4368,
      "စီၤလါစရူး": 4369,
      "အိၣ်ဖဲလဲၣ်": 4370,
      "ူၤၡး": 4371,
      "တကုာ်": 4372,
      "တကရူၢ်": 4373,
      "မုၢ်ဆါ": 4374,
      "လၢတၢ်အၢၣ်": 4375,
      "အတၢ်ပၢ": 4376,
      "အတၢ်စိတၢ်ကမီၤ": 4377,
      "ကီၢ်န့ၣ်": 4378,
      "ဒိၣ်သးဖျိး": 4379,
      "ညါလီၤ": 4380,
      "မံၤဟူသၣ်ဖျါ": 4381,
      "လဲၤလီၤ": 4382,
      "သ့စီ": 4383,
      "ဒီးအမါ": 4384,
      "ဘၣ်ဆၣ်အဝဲ": 4385,
      "စရိၣ်": 4386,
      "အအိၣ်လၢ": 4387,
      "လၢနမဲာ်ညါ": 4388,
      "ဧိၤဖီ": 4389,
      "စိာ်ထီၣ်ကွံာ်": 4390,
      "လၢပှၤယူဒၤဖိ": 4391,
      "ဖျါလၢ": 4392,
      "ဒီးစီၤဧ": 4393,
      "ကူထီၣ်": 4394,
      "ဟူထီၣ်": 4395,
      "တဲဘၣ်အဝဲသ့ၣ်": 4396,
      "စီၤၡံၣ်ၡိၣ်": 4397,
      "ဆိကမိၣ်လၢ": 4398,
      "ကပီၤထီၣ်": 4399,
      "အမံၤပှၢ်": 4400,
      "ယံာ်ယံာ်": 4401,
      "ဆူတၢ်သံ": 4402,
      "လုၢ်ထီၣ်တၢ်လုၢ်တၢ်ပာ်": 4403,
      "သ့တၢ်ဘၣ်": 4404,
      "အအိၣ်ဒီးစံးဝဲ": 4405,
      "လ့ၤဝံဖိ": 4406,
      "ဖလ့ၡသးဖိ": 4407,
      "မံးစပၤ": 4408,
      "ဃၤဘၣ်": 4409,
      "စူၢ်က့ၤနာ်က့ၤတၢ်": 4410,
      "ယီၢ်တံၢ်": 4411,
      "ကတူၢ်လိာ်": 4412,
      "ကျိၣ်စ့": 4413,
      "စီၤအ့လကါ": 4414,
      "ဂိာ်တသီၣ်": 4415,
      "အတၤသၣ်": 4416,
      "စိဒိၣ်ကမီၤ": 4417,
      "ဒၤမ့ၤစ့း": 4418,
      "ဃိၣ်": 4419,
      "ဃိၢ်": 4420,
      "ဘဲ": 4421,
      "မနၤလီၤ": 4422,
      "ယမ့ၢ်ပှၤ": 4423,
      "ယကိးထီၣ်": 4424,
      "ရိၤ": 4425,
      "ရူး": 4426,
      "လူၣ်": 4427,
      "သတြီၤ": 4428,
      "အစီၤ": 4429,
      "အဟဲ": 4430,
      "အဝါ": 4431,
      "အယံၤ": 4432,
      "အကလံၤထံး": 4433,
      "ၡူၢ်": 4434,
      "ၡ့း": 4435,
      "တၢ်ဒ်": 4436,
      "ဒီဖု": 4437,
      "ဒီးဘၣ်": 4438,
      "ဒီးကိး": 4439,
      "ဒီးမ်": 4440,
      "ဒီးဟံးန့ၢ်": 4441,
      "ဒီးပှၤအံၣ်စရ့လးဖိ": 4442,
      "ဒီးစံးဘၣ်အဝဲသ့ၣ်": 4443,
      "ဘၣ်အဝဲသ့ၣ်": 4444,
      "ပှာ်": 4445,
      "ပှၤလီၤ": 4446,
      "ပှၤပၢၤ": 4447,
      "ပှၤခိး": 4448,
      "အိၣ်စ့ၢ်ကီး": 4449,
      "အိၣ်ခူသူၣ်": 4450,
      "သုပၢ်": 4451,
      "ယွၤသုကစၢ်ယွၤ": 4452,
      "အတၢ်အၢၣ်လီၤ": 4453,
      "အတၢ်စုလီၢ်ခီၣ်ခိၣ်": 4454,
      "တဂၤဃီ": 4455,
      "ယၤတဂ့ၤ": 4456,
      "ယၤဒီးယ": 4457,
      "ဆူသုအိၣ်": 4458,
      "ကစၢ်အဂၤတဖၣ်": 4459,
      "အပူၤလီၢ်": 4460,
      "ပာ်အီၤ": 4461,
      "လုၢ်တၢ်ပာ်": 4462,
      "ခဲဆ့": 4463,
      "ကစၢ်ယွၤအဖိခွါ": 4464,
      "ဒီးတၢ်လီၢ်": 4465,
      "နီၢ်သး": 4466,
      "လၢယမၤ": 4467,
      "ကွၢ်လီၤ": 4468,
      "စရၤ": 4469,
      "အီၤလၢက": 4470,
      "ဒီးပှၤကိးဂၤဒဲး": 4471,
      "ဒိးထီၣ်": 4472,
      "ဒိးဘျၢ": 4473,
      "ဒိးကသ့ၣ်": 4474,
      "တအိၣ်လၢၤ": 4475,
      "ကတၢၢ်န့ၣ်လီၤ": 4476,
      "လံာ်တၢ်": 4477,
      "မၢဆူၣ်": 4478,
      "ဆိကမိၣ်ဝဲ": 4479,
      "ရံယၤ": 4480,
      "လၢအကဆှီ": 4481,
      "တအိၣ်ဘၣ်နီတဂၤဘၣ်": 4482,
      "အိၣ်မူဒံး": 4483,
      "ဃီၤဆူ": 4484,
      "နတၢ်သိၣ်တၢ်သီ": 4485,
      "နွံနံၣ်": 4486,
      "စီၤဧ့ၤ": 4487,
      "လ့ပစီ": 4488,
      "ဃုထၢအီၤ": 4489,
      "တခါလၢ": 4490,
      "တ့ၢ်ဝဲန့ၣ်လီၤ": 4491,
      "ဒ်န့ၣ်အသိးလီၤ": 4492,
      "လူၤထွဲ": 4493,
      "တြီဃာ်": 4494,
      "အဖီလာ်န့ၣ်လီၤ": 4495,
      "သၤလံ": 4496,
      "အိပူၤ": 4497,
      "လီၤမၢ်ကွံာ်ဝဲ": 4498,
      "ဆိကတီၢ်ကွံာ်": 4499,
      "သးပ့ၤနီၣ်ကွံာ်": 4500,
      "ဧ့စ့ၢ်": 4501,
      "လုးတကုာ်": 4502,
      "အဒီပုၢ်ဝဲၢ်မုၣ်": 4503,
      "လၢယမ့ၢ်ယွၤန့ၣ်လီၤ": 4504,
      "ထူၣ်စုညါအလိၤ": 4505,
      "သုးခိၣ်သုးနၢ်တဖၣ်": 4506,
      "လ့ၤတက့ၤဘၣ်": 4507,
      "ရမံယၤ": 4508,
      "ဆူၣ်မၤစိး": 4509,
      "ရံးဘကၤ": 4510,
      "စယါ": 4511,
      "ယဘူၣ်": 4512,
      "ယအိၣ်ဒီးတၢ်": 4513,
      "ယတၢ်အဲၣ်": 4514,
      "လကံယၤ": 4515,
      "သလၢ": 4516,
      "အကစၢၢ်ကလိ": 4517,
      "အပဒိၣ်ဖးဒိၣ်": 4518,
      "ံသၣ်": 4519,
      "ၠူၣ်": 4520,
      "တၢ်သ့ၣ်ညါ": 4521,
      "တၢ်တဂ့ၤ": 4522,
      "တၢ်ထံၣ်လၢညါခီ": 4523,
      "ဒီးဃ့": 4524,
      "ဘၣ်အဃိ": 4525,
      "ဘၣ်တနံၤ": 4526,
      "ပှၤလၢယ": 4527,
      "ပှၤတဖၣ်န့ၣ်": 4528,
      "တဖၣ်အခိၣ်": 4529,
      "လၢအဒိၣ်": 4530,
      "လၢအဟံၣ်": 4531,
      "အီၤလံ": 4532,
      "သုမၤ": 4533,
      "သုဒုၣ်သုဒါ": 4534,
      "ယွၤမ့ၢ်": 4535,
      "ဒ်မ့ၣ်အူ": 4536,
      "လၢတၢ်ဒဲးဘး": 4537,
      "စံးအၢ": 4538,
      "ကစၢ်ဒၣ်ဝဲ": 4539,
      "တ့ၢ်မး": 4540,
      "ဟဲဝဲလၢ": 4541,
      "သ့လၢ": 4542,
      "စီၤပၤဃံးစကံယၤ": 4543,
      "ခဲလၢာ်အံၤ": 4544,
      "ခံဖျၢၣ်": 4545,
      "ဘၣ်ဆၣ်အဝဲသ့ၣ်": 4546,
      "လၢယအိၣ်": 4547,
      "လၢယသး": 4548,
      "လၢယပှၤဂီၢ်မုၢ်": 4549,
      "စုဆူၣ်": 4550,
      "ဘါလီၢ်": 4551,
      "လၢအအိၣ်လၢဝ့ၢ်": 4552,
      "ခီၣ်တကး": 4553,
      "ခီဖျိအ": 4554,
      "ဆှၢဃီၤ": 4555,
      "စီၤယိၤနါ": 4556,
      "လါထီၣ်": 4557,
      "အတိာ်": 4558,
      "လိၣ်ဘၣ်ဝဲ": 4559,
      "ဒုၣ်အဒါ": 4560,
      "ဒိကနၣ်တက့ၢ်": 4561,
      "ဂဲၤထၢၣ်": 4562,
      "စီၤမိၤၡ့ဒီးစီၤအၤဟရိၣ်": 4563,
      "ပှၤကညီတဂၤ": 4564,
      "ဒ်တၢ်ကွဲးအသး": 4565,
      "တဆံလွံၢ်": 4566,
      "စုာ်စုာ်န့ၣ်လီၤ": 4567,
      "မၤနၢၤကွံာ်": 4568,
      "ဟဲထီၣ်ဒုး": 4569,
      "တဘျီဃီန့ၣ်": 4570,
      "စီၤယဟိရၣ်": 4571,
      "သီတသီန့ၣ်": 4572,
      "ဝၢ်ဘးခီ": 4573,
      "ယစံးဘၣ်တဲဘၣ်သု": 4574,
      "ကၢၢ်နံၤ": 4575,
      "အတၢ်အဲၣ်ဂၢၢ်ကျၢၤ": 4576,
      "သးတဆး": 4577,
      "မံသးမုာ်": 4578,
      "နစၤရ့း": 4579,
      "တၤသူတၤသၣ်": 4580,
      "ကနဲစီ": 4581,
      "ကယာ်": 4582,
      "ဃၢ်": 4583,
      "တ့ၤ": 4584,
      "တပတီၢ်": 4585,
      "ပီလူး": 4586,
      "ယတၢ်မၤ": 4587,
      "ရုၢ်": 4588,
      "ဟဒး": 4589,
      "အလီၤ": 4590,
      "အဆၣ်": 4591,
      "အစ့": 4592,
      "ီာ်": 4593,
      "၂၆": 4594,
      "လၢထး": 4595,
      "တၢ်ဖး": 4596,
      "တၢ်ဒီးပှၤ": 4597,
      "တၢ်မုၢ်လၢ်": 4598,
      "တၢ်ဖျီ": 4599,
      "တၢ်သၣ်ဝံၤလီၤဒိ": 4600,
      "ဒီးမဲာ်တဲးလဲး": 4601,
      "ပှၤမၤတၢ်": 4602,
      "ပှၤခံဂၤ": 4603,
      "တဖၣ်လဲၣ်": 4604,
      "တဖၣ်အပူၤလီၤ": 4605,
      "လၢအကမၤ": 4606,
      "ထီၣ်သု": 4607,
      "အိၣ်ဒါ": 4608,
      "မ့ၢ်ပှၤအ": 4609,
      "မ့ၢ်လၢယွၤ": 4610,
      "မုၢ်အိၣ်ဘှံးနံၤ": 4611,
      "တဂၤဧၢ": 4612,
      "ယၤဒ်": 4613,
      "အသးဘၣ်": 4614,
      "အသးပှၢ်": 4615,
      "ဘၣ်တၢ်စၢဃာ်": 4616,
      "လုၢ်တၢ်": 4617,
      "လုၢ်ပာ်": 4618,
      "လုၢ်လၢ်": 4619,
      "လးမူး": 4620,
      "နၤဆူ": 4621,
      "မူဒံး": 4622,
      "နီၢ်အ့ၤစ": 4623,
      "ဒီးအုၣ်": 4624,
      "ထီထီၣ်": 4625,
      "ပှၤလၢအမၤတၢ်": 4626,
      "ယ့ၣ်ၡူးစံးဘၣ်အီၤ": 4627,
      "ဒီးမၤစၢၤ": 4628,
      "အလိၤဒီး": 4629,
      "ကၤသး": 4630,
      "လၢကဒုး": 4631,
      "တဲဘၣ်အီၤလၢ": 4632,
      "န့ၣ်ဘၣ်လီၤ": 4633,
      "တဘ့ၣ်လၢ": 4634,
      "ထိၣ်လီၤပှီၤ": 4635,
      "ဘူၣ်ထီၣ်ဘါထီၣ်ဝဲ": 4636,
      "ခ့ရူာ်": 4637,
      "သုဝဲခဲလၢာ်": 4638,
      "တၢ်န့ၣ်မ့ၢ်တၢ်": 4639,
      "ပာ်ဖှိၣ်အသး": 4640,
      "ကလူးန့ၣ်": 4641,
      "ချ့သဒံး": 4642,
      "ကစံးဝဲ": 4643,
      "တချုးလၢ": 4644,
      "ကဆှီထီၣ်က့ၤ": 4645,
      "ဆီၣ်လီၤ": 4646,
      "ဆီၣ်ထွဲ": 4647,
      "စီၤယံးၡမၤ": 4648,
      "ကရံၣ်": 4649,
      "သံၣ်မါ": 4650,
      "အိၣ်ဒံးဝဲ": 4651,
      "ဒီးအပှၤတဖၣ်": 4652,
      "လၢခံကတၢၢ်န့ၣ်": 4653,
      "ကီၢ်အၤၡူၢ်အစီၤပၤဖးဒိၣ်": 4654,
      "တစိၢ်ဖိ": 4655,
      "လၢတၢ်မၤစၢၤအဂီၢ်": 4656,
      "ဘုကၠူၣ်": 4657,
      "ဧိၤဖီဧိၤ": 4658,
      "),": 4659,
      "ဂဲ": 4660,
      "မသ့း": 4661,
      "ယအိၣ်ဒီး": 4662,
      "သက့": 4663,
      "အသံ": 4664,
      "အကလံၤစိး": 4665,
      "အဂၢၢ်အကျၢၤ": 4666,
      "လၢဘၣ်တၢ်": 4667,
      "တၢ်မ့ၢ်": 4668,
      "တၢ်ဒူၣ်": 4669,
      "တၢ်ဘူၣ်တၢ်ဘါ": 4670,
      "လီၤဘၣ်တၢ်": 4671,
      "ဒီးကီၢ်ယူဒၤ": 4672,
      "ပှၤဧၣ်မိၣ်": 4673,
      "ပှၤထူးပှၤတီၤ": 4674,
      "အိၣ်ဒီးပှၤ": 4675,
      "အဝဲအံၤန့ၣ်": 4676,
      "သုကျါ": 4677,
      "ယွၤမၤ": 4678,
      "ယွၤအအိၣ်": 4679,
      "အံၤစ့": 4680,
      "အဝဲသ့ၣ်ညါ": 4681,
      "အဝဲသ့ၣ်မ့ၢ်ပှၤ": 4682,
      "ဖဲကစၢ်ယွၤ": 4683,
      "ဖဲယအိၣ်": 4684,
      "လၢတၢ်အီၣ်": 4685,
      "လၢတၢ်လူၢ်": 4686,
      "အပူၤလၢ": 4687,
      "ပာ်မၤအသး": 4688,
      "ကျး": 4689,
      "တ့ၢ်လၢ": 4690,
      "အဃီ": 4691,
      "ညါအံၤ": 4692,
      "ကမုာ်": 4693,
      "နီၢ်ရၤဃ့လး": 4694,
      "ခံဘျီ": 4695,
      "ခံကလး": 4696,
      "ကွၢ်လၢ": 4697,
      "ပှၤလၢအတၢ်ကမၣ်": 4698,
      "နီၣ်ထီၣ်": 4699,
      "ဟီၣ်ခိၣ်ဒီဘ့ၣ်ညါ": 4700,
      "စိာ်ကွံာ်": 4701,
      "လၢအအိၣ်ဝးတရံး": 4702,
      "ဆိပာ်စၢၤ": 4703,
      "ဒီးမၤနၢၤ": 4704,
      "ဒီးယကမၤ": 4705,
      "အူထီၣ်": 4706,
      "အပှၤတဖၣ်": 4707,
      "မၤတ့ၢ်အီၤ": 4708,
      "လီဝၢ်": 4709,
      "အမဲာ်ညါဒီး": 4710,
      "ရၤလီၤ": 4711,
      "စူၤသးစူၤ": 4712,
      "အလီၢ်ခံန့ၣ်": 4713,
      "အမုၢ်နုာ်": 4714,
      "နွံဒု": 4715,
      "အဖိအလံၤ": 4716,
      "ပှၤကလုာ်ဂၤတဖၣ်": 4717,
      "ဆဲးလီၤ": 4718,
      "ထီဘိန့ၣ်လီၤ": 4719,
      "ယံးစရ့လး": 4720,
      "တံၤမသ့း": 4721,
      "အခံန့ၣ်လီၤ": 4722,
      "ဟုကညီၢ်": 4723,
      "ဒီးလဲၤဝဲဆူ": 4724,
      "ဟါမၢ်ကွံာ်": 4725,
      "စီၤယံးၡဲ": 4726,
      "ဝဲဖဲန့ၣ်လီၤ": 4727,
      "စီၤယဟိယဒါ": 4728,
      "စူၤရံဖိတဖၣ်": 4729,
      "တၢ်စံၣ်ညီၣ်တီ": 4730,
      "မူဝဲတဂၤ": 4731,
      "သိဖါတဒု": 4732,
      "သရၣ်ဧၢ": 4733,
      "ကနၢ်ပၢၢ်": 4734,
      "ခၢၣ်သနၢၣ်": 4735,
      "ဂၢ်လီၤ": 4736,
      "အၢသီသီ": 4737,
      "ဖိၣ်ဃဲ": 4738,
      "ၤစယၤ": 4739,
      "ဆီဟံၣ်ဆီဃီ": 4740,
      "လုၢ်ပာ်ပှ့ၤ": 4741,
      "ကလၢၢ်": 4742,
      "ထၢၤ": 4743,
      "နစံး": 4744,
      "နကစၢ်": 4745,
      "ယတဲဘၣ်": 4746,
      "အနး": 4747,
      "အဖှီၣ်": 4748,
      "လၢပိာ်မုၣ်": 4749,
      "လၢဒဲစီဆှံ": 4750,
      "တၢ်ပနီၣ်": 4751,
      "ဒီးလၢၢ်": 4752,
      "ဒီးဆၣ်ဖိကီၢ်ဖိ": 4753,
      "ဒီးပှၤအဂၤ": 4754,
      "န့ၣ်လံ": 4755,
      "ပှၤအိၣ်ဝဲ": 4756,
      "သးဆူၣ်": 4757,
      "အဝဲဟ့ၣ်လီၤ": 4758,
      "ယွၤစံးဝဲ": 4759,
      "ကွ့ၢ်": 4760,
      "လၢတၢ်စူၢ်တၢ်နာ်": 4761,
      "အပူၤတဖၣ်": 4762,
      "အပူၤအသိးန့ၣ်လီၤ": 4763,
      "တ့ၢ်ယဲ": 4764,
      "ဟဲနုာ်လီၤ": 4765,
      "တုၤမုၢ်ဟါလီၤ": 4766,
      "အီၤလၢလၢၢ်": 4767,
      "တဲဖျါ": 4768,
      "ယ့ၣ်ၡူးစံးဘၣ်": 4769,
      "ပှၤတဂၤမ့ၢ်": 4770,
      "ထဲအံၤ": 4771,
      "ဖဲန့ၣ်အခါ": 4772,
      "အပှၤကလုာ်": 4773,
      "ၡ့ရၤ": 4774,
      "မ်ပက": 4775,
      "သူအီၤ": 4776,
      "လီသီၣ်": 4777,
      "တဘၣ်ဘၣ်": 4778,
      "ရၤမါ": 4779,
      "လၢၤဘၣ်န့ၣ်လီၤ": 4780,
      "ယတၢ်ကတိၤ": 4781,
      "အစုပူၤလီၤ": 4782,
      "ဆ့ၣ်ထီၣ်": 4783,
      "မၤစၢၤအီၤ": 4784,
      "မၤဝဲဒ်": 4785,
      "သုကသ့ၣ်ညါ": 4786,
      "ဂီၤဖံးမိၢ်": 4787,
      "ဘါထုကဖၣ်တၢ်": 4788,
      "ဃံတၢ်လၤ": 4789,
      "ဃါမနၤလီၤ": 4790,
      "အဘၢၣ်စၢၤန့ၣ်လီၤ": 4791,
      "စူးကွံာ်": 4792,
      "မၤလိန့ၢ်": 4793,
      "လဲလိာ်ကွံာ်": 4794,
      "တမံၤဂ့ၤတမံၤဂ့ၤ": 4795,
      "ယစံးဘၣ်သု": 4796,
      "လိးက့ၤ": 4797,
      "သိၣ်လိနဲၣ်ယုၤ": 4798,
      "နီၣ်ဧိၤမံၤဧိၤ": 4799,
      "အံၤစ့ဘ့ၤလး": 4800,
      "ကသ့ၣ်တဖၣ်": 4801,
      "စာ်": 4802,
      "စဘူလိၣ်": 4803,
      "တမျ": 4804,
      "တတၢးတနါ": 4805,
      "နဘၣ်": 4806,
      "နကမၤ": 4807,
      "နယၢၣ်": 4808,
      "ပီၤ": 4809,
      "ပဝး": 4810,
      "ယဆိကမိၣ်": 4811,
      "ရၡိၣ်": 4812,
      "သဘံၣ်": 4813,
      "အလါ": 4814,
      "အသုးခိၣ်": 4815,
      "လီၤလၢ": 4816,
      "လီၤမုၢ်": 4817,
      "ဒီးသူၣ်": 4818,
      "ဒီးစီၤအၤဘြၤဟၣ်": 4819,
      "ဝဲခဲလၢာ်": 4820,
      "ဘၣ်ဒံး": 4821,
      "မၤဘျါက့ၤ": 4822,
      "လၢအဒုး": 4823,
      "ထီၣ်တီၤ": 4824,
      "သးကါ": 4825,
      "သုကစၢ်": 4826,
      "ဒ်ကစၢ်ယွၤ": 4827,
      "အဝဲသ့ၣ်န့ၣ်": 4828,
      "အဝဲသ့ၣ်စံးဆၢဝဲ": 4829,
      "လၢတၢ်ပျံၤတၢ်ဖုး": 4830,
      "ခိၣ်သူ": 4831,
      "ဘၣ်တၢ်စိာ်မၢကဲကုၢ်": 4832,
      "ပာ်ဒိၣ်": 4833,
      "ဟဲဝဲဒီး": 4834,
      "သံဝဲလီၤ": 4835,
      "ဒီးအံၣ်စရ့လး": 4836,
      "ဘၣ်ဆၣ်ဒီးအ": 4837,
      "ဒ်သိးတၢ်": 4838,
      "ကွၢ်ဝဲ": 4839,
      "ပှၤအဒူၣ်": 4840,
      "စုပူၤ": 4841,
      "အီၤလၢမ့ၣ်အူ": 4842,
      "ဟံၣ်ဖိ": 4843,
      "စံးဝဲအသိး": 4844,
      "ကတၢၢ်လီၤ": 4845,
      "ဒ်အံၤန့ၣ်": 4846,
      "တဂ့ၤအဂီၢ်လီၤ": 4847,
      "စ့ၢ်ကီးတၢ်": 4848,
      "ပှဲၤသိး": 4849,
      "ပျဲပှၤ": 4850,
      "မးလဲၣ်": 4851,
      "ဖးဒိၣ်တဖၣ်": 4852,
      "ဃ့တၢ်": 4853,
      "ဘၣ်ဃးဒီးပှၤ": 4854,
      "တဘျီအံၤ": 4855,
      "ကွံာ်အီၤလံ": 4856,
      "မၤတ့ၢ်တၢ်": 4857,
      "သူအီၤလၢ": 4858,
      "တနီၤနီၤ": 4859,
      "မ့ၢ်ပှၤလၢ": 4860,
      "တအိၣ်ဘၣ်ဒီး": 4861,
      "ထိၣ်သတြီၤ": 4862,
      "ဘၣ်တၢ်မၤစၢၤ": 4863,
      "ဟဲစိာ်တၢ်": 4864,
      "ပိာ်ခွါတဖၣ်": 4865,
      "နွံဖျၢၣ်": 4866,
      "နွံကယၤ": 4867,
      "ဃုထၢပာ်လီၤ": 4868,
      "ပှၤကလုာ်ခဲလၢာ်": 4869,
      "ဆူတၢ်ချၢ": 4870,
      "မတၤတဂၤ": 4871,
      "လၢပျၢၤတဖၣ်": 4872,
      "ဘုမု": 4873,
      "ဝ့ၢ်ယရူၤၡလ့ၣ်အပှၤဂီၢ်မုၢ်": 4874,
      "ပှၤတစူၢ်တနာ်": 4875,
      "အအိၣ်ဒီးစံး": 4876,
      "တၢ်ဂ့ၢ်အံၤ": 4877,
      "ရ့နယၢၣ်": 4878,
      "သးဝံၣ်စံးထီၣ်ပတြၢၤ": 4879,
      "မုၢ်နံၤမုၢ်သီ": 4880,
      "ခွဲးအယာ်": 4881,
      "ကကဲထီၣ်တၢ်": 4882,
      "လၢယ့ၣ်ၡူးခရံာ်": 4883,
      "ကံးလကၤလး": 4884,
      "ဃ့ထီကွံာ်": 4885,
      "တကဲထီၣ်": 4886,
      "ဘူးထီၣ်လံ": 4887,
      "စၢၢ်ဆၢ": 4888,
      "က့း": 4889,
      "ကလီၤဘၣ်": 4890,
      "ဃမါ": 4891,
      "မရၤ": 4892,
      "ယဟဲ": 4893,
      "ယခီၣ်": 4894,
      "အခီ": 4895,
      "အနၢ်": 4896,
      "အပဒိၣ်ပပှၢ်": 4897,
      "ုဒု": 4898,
      "လၢပှၤအံၣ်စရ့လးဖိ": 4899,
      "ဒီးလဲၤဆူ": 4900,
      "ဒီးဆူညါ": 4901,
      "တဖၣ်အဃိလီၤ": 4902,
      "မၤတံာ်တာ်": 4903,
      "စီၤက့": 4904,
      "စီၤစံးဒကံယၤ": 4905,
      "မ့ၢ်အဝဲသ့ၣ်": 4906,
      "သးလၢ": 4907,
      "အဝဲကမၤ": 4908,
      "အီၤမ့ၢ်ဂ့ၤ": 4909,
      "အီၤအသိးန့ၣ်လီၤ": 4910,
      "ယွၤအကလုၢ်": 4911,
      "ကစုဒု": 4912,
      "တကတြ": 4913,
      "ဖဲပှၤဂီၢ်မုၢ်": 4914,
      "ဖဲစီၤဒၤဝံး": 4915,
      "ကတိၢ်န့ၢ်": 4916,
      "ဆူနအိၣ်": 4917,
      "ဂ့ၤလံ": 4918,
      "ပာ်လုၢ်ပာ်ပှ့ၤ": 4919,
      "တၢ်အ့ၣ်": 4920,
      "ဟ့ၣ်က့ၤ": 4921,
      "လဲၤတၢ်ဒီး": 4922,
      "ကစၢ်ယွၤအဘီအမုၢ်": 4923,
      "ဟဲဝံ": 4924,
      "ပျီၤ": 4925,
      "နၤဒ်": 4926,
      "သံလီၤ": 4927,
      "စီၤပၤတဖၣ်": 4928,
      "ဒီးအခီၣ်": 4929,
      "ဒီးအသုးမုၢ်": 4930,
      "ထံဧိၤကီၢ်ဧိၤ": 4931,
      "သီတူၢ်": 4932,
      "ဖိတဖၣ်လၢ": 4933,
      "တမံၤအသိး": 4934,
      "အီၤလၢထံ": 4935,
      "ဒဲးန့ၣ်လီၤ": 4936,
      "စီၤအူၤ": 4937,
      "လၢနတၢ်": 4938,
      "အလီၢ်တတီၤ": 4939,
      "ယဲၢ်ပျၢ်": 4940,
      "ကနာ်": 4941,
      "ဧိၤစီၤဧိၤ": 4942,
      "ပှၤလၢအအဲၣ်": 4943,
      "လၢသုမဲာ်ညါ": 4944,
      "တအိၣ်နီ": 4945,
      "တၢ်မၤကမၣ်": 4946,
      "ဟ့ၣ်လီၤအီၤဆူ": 4947,
      "ထီၣ်ဝဲန့ၣ်လီၤ": 4948,
      "နာ်သက့": 4949,
      "ကွံာ်အီၤဒီး": 4950,
      "အီဝဲ": 4951,
      "မၤတၢ်လီၤလး": 4952,
      "ပိာ်မုၣ်ဖိ": 4953,
      "နးသၤလံ": 4954,
      "သကိးတၢ်ဒီး": 4955,
      "ဃၣ်ဃီၤ": 4956,
      "လၢကီၢ်ဘၤဘူၤလိၣ်": 4957,
      "လၢကီၢ်ကနၤဧၣ်": 4958,
      "ယွၤအတၢ်မၤလိာ်": 4959,
      "လၢမုၢ်ဆါ": 4960,
      "ပှ့ၤက့ၤ": 4961,
      "တခါအံၤ": 4962,
      "လံာ်စီဆှံတ": 4963,
      "စီၤဘၢ်": 4964,
      "တၢ်ဂ့ၢ်တၢ်ကျိၤ": 4965,
      "ဟါထၢၤ": 4966,
      "လုၢ်အလၢ်": 4967,
      "မ့ၤလး": 4968,
      "မၢလီၤယၤ": 4969,
      "အလုၢ်အပှ့ၤ": 4970,
      "ပှၤအဲၤကူပတူးဖိ": 4971,
      "ကူတၢ်ကၤ": 4972,
      "မနၤၡ့ၤအဒူၣ်": 4973,
      "ဖှီဝါ": 4974,
      "ထီၣ်ဝဲဒၣ်လီၤ": 4975,
      "ကတြီ": 4976,
      "တဂၤလၢအမံၤမ့ၢ်": 4977,
      "ဒီးအပျဲၢ်အဘီၣ်တဖၣ်": 4978,
      "ကစၢ်စီၤပၤဧၢ": 4979,
      "ဟီၣ်ဝဲယၢၤ": 4980,
      "ဒိၣ်တၢ်မုၢ်": 4981,
      "စီၤအ့လကါနၤ": 4982,
      "ကရံၣ်သူး": 4983,
      "ဘုမုယီၤ": 4984,
      "တကတြူၢ်": 4985,
      "ခံၣ်": 4986,
      "တအဲၣ်ဒိး": 4987,
      "တတူၢ်လိာ်": 4988,
      "နထံၣ်": 4989,
      "နမ့ၢ်ပှၤ": 4990,
      "ပဝဲဒၣ်": 4991,
      "ပဒုၣ်ပဒါ": 4992,
      "ယဒုး": 4993,
      "ရ့ၣ်": 4994,
      "ဝၣ်": 4995,
      "ဟ့ၤရိာ်": 4996,
      "အအါ": 4997,
      "အတီ": 4998,
      "အစိအကမီၤ": 4999,
      "လၢကီၢ်အ": 5000,
      "တၢ်လၢအအိၣ်": 5001,
      "တၢ်ပျံၤတၢ်ဖုး": 5002,
      "တၢ်ဘျုးတၢ်ဖှိၣ်": 5003,
      "လီၤနုာ်": 5004,
      "ဒီးစံၣ်ညီၣ်": 5005,
      "ဒီးစ့": 5006,
      "ဒီးပက": 5007,
      "န့ၣ်အပူၤ": 5008,
      "ီၣ်ကး": 5009,
      "စီၤလိာ်": 5010,
      "စီၤစရ": 5011,
      "စီၤလၤဘၣ်": 5012,
      "အီၤတဂၤ": 5013,
      "အီၤသ့": 5014,
      "သုဒီး": 5015,
      "အတၢ်အိၣ်ဖှိၣ်": 5016,
      "အတၢ်ဂီၤတၢ်ဖီၣ်": 5017,
      "ခိၣ်န့ၣ်လီၤ": 5018,
      "ကစၢ်ယ့ၣ်ၡူး": 5019,
      "အသးတ": 5020,
      "ကျိ": 5021,
      "န့ၢ်ဘၣ်တၢ်": 5022,
      "ဝ့ၢ်ဖိ": 5023,
      "တၢ်အဒိ": 5024,
      "သံဝဲဒီး": 5025,
      "လၢယပၢ်": 5026,
      "ကွၢ်ထံ": 5027,
      "ကွၢ်ကပာ်": 5028,
      "ထံၣ်ကမှံ": 5029,
      "ဖးတၢ်": 5030,
      "အလီၢ်အိၣ်": 5031,
      "လၢပှၤကိးဂၤဒဲး": 5032,
      "နံၤလါ": 5033,
      "အဝဲဒၣ်က": 5034,
      "လၢတၢ်န့ၣ်အဃိအဝဲ": 5035,
      "ထၢၣ်ရ့နယၢၣ်": 5036,
      "လၢကလဲၤ": 5037,
      "သၢဘျီ": 5038,
      "သၢကထိ": 5039,
      "တနီၤန့ၣ်": 5040,
      "လၢကီၢ်ကံးလဧး": 5041,
      "နါပှၢ်": 5042,
      "ခံဂၤလိာ်": 5043,
      "ကီၢ်ယူဒၤဒီး": 5044,
      "အိၣ်လၢမူခိၣ်": 5045,
      "ဒ်အမ့ၢ်": 5046,
      "ဖိထၢဖိတဖၣ်": 5047,
      "ဟဲလီၤလၢမူခိၣ်": 5048,
      "လီၣ်ဖျါ": 5049,
      "ကျိၤထံး": 5050,
      "ထူၣ်ဖျဲးထီၣ်": 5051,
      "မဲးဒံး": 5052,
      "ဖှီယာ်": 5053,
      "ပာ်ကဖၢလၢအသး": 5054,
      "ဆံဆဲၣ်ပူတပူ": 5055,
      "အဖုအဂီၢ်": 5056,
      "ပှၤအမိၢ်ဖိ": 5057,
      "ဒီးပှၤတဂၤလၢ်လၢ်လၢအ": 5058,
      "လၢအအိၣ်ဝဲဆိး": 5059,
      "ဖံလံးပူး": 5060,
      "ကဆှၣ်": 5061,
      "စုဆူၣ်ခီၣ်တကး": 5062,
      "ကအုကစွါ": 5063,
      "တလၢ": 5064,
      "နိး": 5065,
      "ပဘၣ်တၢ်": 5066,
      "ယနာ်": 5067,
      "ယမၤတၢ်": 5068,
      "ရိး": 5069,
      "လ့ၢ်": 5070,
      "ဝံာ်": 5071,
      "သတြီ": 5072,
      "အပဒိၣ်": 5073,
      "အမူအဒါ": 5074,
      "အၡ့ရၤ": 5075,
      "ၡဘိၣ်": 5076,
      "လၢစ့": 5077,
      "ဒီးကတိၤ": 5078,
      "ဒီးကဲထီၣ်": 5079,
      "ဒီးစီၤယိၤဟၣ်": 5080,
      "န့ၣ်ဆူ": 5081,
      "ဘၣ်ဖုး": 5082,
      "ပှၤသ့တၢ်ဘူၣ်တၢ်ဘါအတၢ်သိၣ်တၢ်သီ": 5083,
      "တဖၣ်တဂ့ၤ": 5084,
      "မၤထီၣ်": 5085,
      "လၢအလဲၤ": 5086,
      "လၢအမိၢ်": 5087,
      "သ့ၣ်မုၣ်": 5088,
      "အီၤန့ၣ်တက့ၢ်": 5089,
      "ဒ်လၢလာ်": 5090,
      "အဝဲသ့ၣ်ဒ်": 5091,
      "အဝဲသ့ၣ်တဖၣ်န့ၣ်": 5092,
      "လၢတၢ်ကတိၤ": 5093,
      "အတၢ်ဘူၣ်တၢ်ဘါ": 5094,
      "အတၢ်မုၢ်လၢ်": 5095,
      "ဒိၣ်ဒၣ်တၢ်": 5096,
      "ကစၢ်ယွၤန့ၣ်": 5097,
      "သူၣ်ကိၢ်သးဂီၤ": 5098,
      "ဒီးအဟံၣ်ဖိဃီဖိ": 5099,
      "လိၤဒီး": 5100,
      "ဖးဖီ": 5101,
      "မဲာ်သၣ်": 5102,
      "လၢနမၤ": 5103,
      "ဝံယၡါယၤ": 5104,
      "နီၣ်ယိးဘိ": 5105,
      "လၢပှၤတဂၤ": 5106,
      "အိၣ်ဝဲဖဲန့ၣ်": 5107,
      "ပှဲၤဝဲ": 5108,
      "နာ်ဝဲလၢ": 5109,
      "အဲၣ်ဘၢ": 5110,
      "ကပုာ်": 5111,
      "မးသဲ": 5112,
      "ဃာ်အီၤ": 5113,
      "ဆါလီၤကွံာ်": 5114,
      "သွံ": 5115,
      "ပျံၤလီၤဖုး": 5116,
      "လၢအဝဲသ့ၣ်အဂီၢ်": 5117,
      "တဲဘၣ်အဝဲသ့ၣ်လၢ": 5118,
      "မ်ကစၢ်ယွၤ": 5119,
      "နးမၤဖှီၣ်": 5120,
      "ဘူးဒီးဝ့ၢ်": 5121,
      "ဒုၣ်တၢ်အီၣ်တၢ်အီ": 5122,
      "တၢ်ဒီးစံး": 5123,
      "အိၣ်ဒီးအီၤ": 5124,
      "ယသးသမူ": 5125,
      "ကဒီးအီၤ": 5126,
      "ဃုထၢတ့ၢ်": 5127,
      "လ့ၤအၤ": 5128,
      "နဲၣ်ကျဲ": 5129,
      "အၤမ့ၣ်": 5130,
      "ဒံးဘၣ်န့ၣ်လီၤ": 5131,
      "ဒ်န့ၣ်န့ၣ်": 5132,
      "ဟးထီၣ်လၢဝ့ၢ်": 5133,
      "စံယါ": 5134,
      "လုၢ်ထီၣ်တၢ်လုၢ်": 5135,
      "ဖဲအံၤလီၤ": 5136,
      "နီၢ်ကစၢ်ဒၣ်ယဲ": 5137,
      "ပလီၢ်သုသး": 5138,
      "ယူာ်ဃီ": 5139,
      "လ့ၣ်ကဟၣ်ဒုးသုး": 5140,
      "သကဲာ်": 5141,
      "လၢဝ့ၢ်ယရူၤၡလ့ၣ်အပူၤ": 5142,
      "ပြး": 5143,
      "တကျိၤ": 5144,
      "ယဲဒၣ်အံၤယမ့ၢ်": 5145,
      "စီၤပၤအၤဃာ်": 5146,
      "ဃမါသး": 5147,
      "ကၢ": 5148,
      "ကံၤ": 5149,
      "စ့လး": 5150,
      "ဒယၤ": 5151,
      "ဒၢၣ်": 5152,
      "ယဆၢ": 5153,
      "ယကမၢ": 5154,
      "အအၢ": 5155,
      "ၡ့ၣ်": 5156,
      "တၢ်တမံၤ": 5157,
      "တၢ်သံကွၢ်": 5158,
      "တၢ်ချံ": 5159,
      "တၢ်သွံၣ်": 5160,
      "တၢ်ခွဲးတၢ်ယာ်": 5161,
      "တၢ်သွဲ": 5162,
      "ဒီဒူၣ်": 5163,
      "ဒီးကမၤ": 5164,
      "ဒီးလၢမုၢ်": 5165,
      "ဒီးဟဲစိာ်": 5166,
      "ဒီးစးထီၣ်": 5167,
      "ဒီးဟးထီၣ်ကွံာ်": 5168,
      "န့ၣ်ပှၤ": 5169,
      "ပှၤန့ၣ်လီၤ": 5170,
      "ပှၤဘၤဘူၤလိၣ်": 5171,
      "မၤဝီ": 5172,
      "လၢအတီ": 5173,
      "စီၤမနၤၡ့ၤ": 5174,
      "သုန့ၣ်": 5175,
      "အတၢ်စံးပာ်": 5176,
      "ဒၣ်ဝဲလၢ": 5177,
      "ဒၣ်ကလိာ်": 5178,
      "ဆူကစၢၢ်": 5179,
      "အပူၤလံ": 5180,
      "ကီၢ်ကၤလံၤလါ": 5181,
      "ကျီၤ": 5182,
      "ဝ့ၢ်တဖၣ်": 5183,
      "ဟ့ၣ်တ့ၢ်": 5184,
      "ကစၢ်ယွၤန့ၣ်လီၤ": 5185,
      "ကိးနံၣ်": 5186,
      "ဆၣ်ဧိၤဖီဧိၤ": 5187,
      "ဲၣ်မုၣ်": 5188,
      "နီၢ်အံၤစ့ဘ့ၤလး": 5189,
      "ခဲလၢာ်တက့ၢ်": 5190,
      "ဒီးအပၢ်": 5191,
      "ဒီးအစၢၤအသွဲၣ်": 5192,
      "လိၤလီၤ": 5193,
      "ပှၤဂီၢ်မုၢ်အံၤ": 5194,
      "ဝဲလၢခံ": 5195,
      "နီပူၤ": 5196,
      "တမံၤဒီး": 5197,
      "တမံၤဘၣ်": 5198,
      "အဂ့ၢ်အကျိၤ": 5199,
      "ပိာ်အခံ": 5200,
      "ယဲၢ်ကထိ": 5201,
      "နီၣ်ထိးဘိ": 5202,
      "ကတၢၢ်န့ၣ်": 5203,
      "အိၣ်ဝဲအပျၢ်": 5204,
      "အီၣ်တၢ်အီၣ်": 5205,
      "အဲၣ်တၢ်ကွံ": 5206,
      "ဒ်လဲၣ်အဂ့ၢ်န့ၣ်လီၤ": 5207,
      "ဃ့ၡဘိၣ်": 5208,
      "တစုလီၤ": 5209,
      "စံးဆၢတၢ်ဒီးစံးဝဲ": 5210,
      "လိၣ်ဘၣ်တၢ်": 5211,
      "ဒၣ်ဝဲအပူၤ": 5212,
      "တၤမဲ": 5213,
      "မ်န": 5214,
      "အခိၣ်ထိး": 5215,
      "အဖီခိၣ်ဒီး": 5216,
      "စ့ဒီးထူ": 5217,
      "နၢ်ဟူတၢ်": 5218,
      "နၢ်ဟူတၢ်အံၤ": 5219,
      "တနီၤလၢ": 5220,
      "အမံၤမ့ၢ်": 5221,
      "ဒိကနၣ်ဝဲ": 5222,
      "တအိၣ်ဘၣ်န့ၣ်လီၤ": 5223,
      "ကလံၤအူ": 5224,
      "တၢ်လီၢ်ဖဲ": 5225,
      "နါဘၤ": 5226,
      "ထီၣ်အီၤလၢတၢ်": 5227,
      "မၤလိာ်တ့ၢ်": 5228,
      "ဘၣ်မနုၤလၢသု": 5229,
      "တ့တၢ်ဖျီ": 5230,
      "လဲၤဆူညါ": 5231,
      "ဒ်သိးကလဲၤ": 5232,
      "အကစၢ်တဖၣ်": 5233,
      "ထူးတီၤ": 5234,
      "လီၤပံာ်": 5235,
      "လၢတၢ်လုၢ်မ့ၣ်အူ": 5236,
      "ဖလ့ၡသးဖိတဖၣ်": 5237,
      "ဂၢၢ်ကျၢၤကျၢၤ": 5238,
      "အနီၣ်ထိၣ်": 5239,
      "အချံ": 5240,
      "ဒီးပှၤလုၢ်တၢ်အခိၣ်က": 5241,
      "ခုၣ်ခုၣ်": 5242,
      "သူၣ်ဒဲလီၢ်": 5243,
      "အိၣ်ဒီးအဖိခွါခံဂၤ": 5244,
      "ယွၤသ့တၢ်လၢာ်ကစၢ်": 5245,
      "ဒီးစီၤၡမူၤအ့လး": 5246,
      "မၤဘၣ်ဒိဘၣ်ထံး": 5247,
      "တဂၤလၢအမံၤမ့ၢ်ဝဲ": 5248,
      "လၢကျဲဒ်အံၤန့ၣ်": 5249,
      "ကီၢ်စူၤရံအစီၤပၤ": 5250,
      "အဂုၤအဂၤ": 5251,
      "တၢ်အဖၢမုၢ်န့ၣ်": 5252,
      "စီၤအမၤစယါ": 5253,
      "သကဲာ်ပဝး": 5254,
      "တခီၣ်": 5255,
      "ပတဲ": 5256,
      "ယဘၣ်": 5257,
      "ရၢၢ်": 5258,
      "သၢ်": 5259,
      "အပ": 5260,
      "အသုးဖိ": 5261,
      "အမဲ": 5262,
      "တၢ်ကွဲး": 5263,
      "တၢ်မုာ်": 5264,
      "တၢ်ပူၤဖျဲး": 5265,
      "တၢ်သူၣ်ထီၣ်": 5266,
      "တၢ်ဖံးတၢ်မၤ": 5267,
      "တၢ်လီတၢ်ဝ့ၤ": 5268,
      "ဒီးတဘၣ်": 5269,
      "ဒီးဟဲက့ၤ": 5270,
      "ဝဲအဂီၢ်": 5271,
      "ဘၣ်ဘီ": 5272,
      "ပှၤပၢတၢ်": 5273,
      "မၤဂီၤ": 5274,
      "ထီၣ်တၢ": 5275,
      "စီၤဖံလံးပူး": 5276,
      "အဝဲန့ၣ်လီၤ": 5277,
      "အဝဲအံၤမ့ၢ်တၢ်": 5278,
      "အီၤဒီးတၢ်": 5279,
      "ဖဲစီၤပ့းတရူး": 5280,
      "လၢတၢ်ခဲလၢာ်": 5281,
      "အသးအိၣ်ဝဲ": 5282,
      "အပူၤမ့ၢ်ဂ့ၤ": 5283,
      "တ့ၢ်ဘၣ်": 5284,
      "လုၢ်ထီၣ်ဝဲ": 5285,
      "လဲၤပူၤကွံာ်ဝဲ": 5286,
      "ကစၢ်ယွၤဟ့ၣ်လီၤ": 5287,
      "ဟဲလံ": 5288,
      "သံလံ": 5289,
      "ကိးကပၤ": 5290,
      "ဒုးအီၣ်": 5291,
      "နီၢ်စၤရါ": 5292,
      "နီၢ်ရံးဘကၤ": 5293,
      "ခဲလၢာ်သ့ၣ်ဧၢ": 5294,
      "တုၤန": 5295,
      "ထံၣ်ဝဲလၢ": 5296,
      "ထံၣ်န့ၢ်အီၤ": 5297,
      "ပှၤအၤၡူၢ်": 5298,
      "လိာ်ဆိးက့": 5299,
      "စုသ့": 5300,
      "ဖးယံၤ": 5301,
      "ဟံၣ်ဖိဃီဖိတဖၣ်": 5302,
      "ဒံးတၢ်": 5303,
      "အကၢၢ်": 5304,
      "စၢၤသု": 5305,
      "ဝံၤဒီးအဝဲ": 5306,
      "အါဝဲ": 5307,
      "လၢသုကမၤ": 5308,
      "လၢအအိၣ်လၢတၢ်": 5309,
      "ဘ့ၣ်လီၤကွံာ်": 5310,
      "တဖၣ်လၢကီၢ်": 5311,
      "ဒီးစီၤအံၤစဲး": 5312,
      "လ့ၣ်ဖံဘၣ်": 5313,
      "ပျံၤယွၤ": 5314,
      "စီၤအၤစါ": 5315,
      "ဖဲန့ၣ်န့ၣ်": 5316,
      "ဂံၢ်န": 5317,
      "မ်အဝဲသ့ၣ်": 5318,
      "တဖျၢၣ်ဃီ": 5319,
      "အိၣ်ဒီးအတၢ်": 5320,
      "လၢကီၢ်ပူၤ": 5321,
      "စူၤထံ": 5322,
      "စီၤဧစၤရ": 5323,
      "မတၤလဲၣ်": 5324,
      "တဖၣ်အလံာ်တၢ်": 5325,
      "ဆးဒး": 5326,
      "ရ့လိာ်သး": 5327,
      "ဟုဘံၣ်": 5328,
      "အ့ဖရဲၣ်": 5329,
      "စှၤဂၤ": 5330,
      "တြဲၤဖးဒိၣ်": 5331,
      "ယူာ်ဃီၤ": 5332,
      "လၢအဂီၢ်လီၤ": 5333,
      "လူၢ်တၢ်တြီၤ": 5334,
      "ယစံးယဲ": 5335,
      "သွၣ်ခိၣ်အပူၤ": 5336,
      "ဆူၣ်ဆူၣ်ကလဲာ်": 5337,
      "တဂၤဘၣ်တဂၤ": 5338,
      "ပှၤတခီဘီမုၢ်ဖိတဖၣ်": 5339,
      "ဒီၣ်ဃီၤ": 5340,
      "ဒ်လဲၣ်ဂ့ၤဒ်လဲၣ်ဂ့ၤ": 5341,
      "သူၣ်တီသးရၤ": 5342,
      "လီၤဘှံးလီၤတီၤ": 5343,
      "ကိးနံၤဒဲး": 5344,
      "အ့းဖ့း": 5345,
      "ကယာ်ဘၢ": 5346,
      "ကၠ": 5347,
      "ကလီၢ်": 5348,
      "ကဖး": 5349,
      "ညာ်": 5350,
      "တထံၣ်န့ၢ်": 5351,
      "ဒြ": 5352,
      "နဃၣ်": 5353,
      "ရယး": 5354,
      "အသ့ၣ်": 5355,
      "အဘျဲၣ်": 5356,
      "၂၈": 5357,
      "၂၉": 5358,
      "ၡဲၤ": 5359,
      "ၡက့လး": 5360,
      "တၢ်ကိၢ်တၢ်ဂီၤ": 5361,
      "တၢ်သးခုကစီၣ်": 5362,
      "တၢ်သိၣ်တၢ်ဘျၢ": 5363,
      "ဒီးသံကွၢ်": 5364,
      "ဒီးစပံးထံ": 5365,
      "ပှၤတဖၣ်": 5366,
      "ပှၤသးပှၢ်": 5367,
      "တဖၣ်အပူၤဒီး": 5368,
      "လၢအထီ": 5369,
      "စီၤၡ့": 5370,
      "အိၣ်လီၤ": 5371,
      "မ့ၢ်လၢကစၢ်ယွၤ": 5372,
      "အဝဲစံး": 5373,
      "အဝဲမၤတၢ်": 5374,
      "အီၤအဂီၢ်လီၤ": 5375,
      "သုခိၣ်": 5376,
      "သုကီၢ်": 5377,
      "သုကဘၣ်တၢ်": 5378,
      "ယွၤကမၤ": 5379,
      "ဒ်ထံ": 5380,
      "သိးသုကျါ": 5381,
      "အတၢ်လီၤ": 5382,
      "အတၢ်သးဝံၣ်": 5383,
      "အသးစီဆှံ": 5384,
      "အပူၤန့ၣ်ဘၣ်": 5385,
      "ပာ်အီၤလၢ": 5386,
      "တ့ၢ်အသး": 5387,
      "တ့ၢ်လီၤကွံာ်": 5388,
      "အဃ့": 5389,
      "ညါန့ၣ်လီၤ": 5390,
      "ဝ့ၢ်န့ၣ်": 5391,
      "ဆှု": 5392,
      "ကစၢ်ယွၤလၢ": 5393,
      "ကစၢ်ယွၤမ့ၢ်": 5394,
      "စီၤပၤလၢ": 5395,
      "သူၣ်အိၣ်သးအိၣ်": 5396,
      "ဒီးအဲၣ်": 5397,
      "ဒီးအဖိမုၣ်": 5398,
      "ကလိၣ်": 5399,
      "ကလူၤ": 5400,
      "ထံၣ်တ့ၢ်": 5401,
      "အအိၣ်တက့ၢ်": 5402,
      "အလီၢ်လၢ": 5403,
      "စီၤယဟိၤယါ": 5404,
      "ဒိးဘၣ်တၢ်": 5405,
      "အါထီၣ်တၢ်": 5406,
      "တအိၣ်ဒီး": 5407,
      "ဟီၣ်ခိၣ်ဖိတဖၣ်": 5408,
      "ယကဆှၢလီၤ": 5409,
      "လၢပှၤဂၤ": 5410,
      "စ့ၢ်ကီးဝဲလၢ": 5411,
      "တဖၣ်န့ၣ်မ့ၢ်ဝဲ": 5412,
      "မ့မ့ၢ်ခဲကနံၣ်အံၤ": 5413,
      "ခီၣ်ဆၢ": 5414,
      "ယူဒၤအတၢ်သိၣ်တၢ်သီ": 5415,
      "တဘျီဘျီ": 5416,
      "လၢအဝဲသ့ၣ်အတၢ်": 5417,
      "စီၤအၤမ": 5418,
      "ဒီးယုၢ်": 5419,
      "လၢကိၣ်": 5420,
      "တဲဘၣ်ယၤ": 5421,
      "တူၢ်ဘၣ်ဝဲ": 5422,
      "အစီၤပၤတဖၣ်": 5423,
      "တြၤ": 5424,
      "ပာ်လီၤအသး": 5425,
      "အမံၤမ့ၢ်ဝဲ": 5426,
      "ရၤလီၤအသး": 5427,
      "နီၤလီၤ": 5428,
      "ဂၢၢ်ဂၢၢ်ကျၢၤကျၢၤ": 5429,
      "လီၤဂာ်ဒီးတၢ်": 5430,
      "မၤဝဲဒ်လဲၣ်": 5431,
      "အဖိဝဲၢ်ကိ": 5432,
      "ပျီပူၤန့ၣ်လီၤ": 5433,
      "ဘုစဲၤ": 5434,
      "စီၤဃနၤ": 5435,
      "ပာ်ထီၣ်အစု": 5436,
      "ယုၢ်န့ၢ်": 5437,
      "ဆ့ၣ်နီၤလၢ": 5438,
      "တံၢ်လီၤဆဲး": 5439,
      "ကၢ်ကွံာ်": 5440,
      "ကၢ်မ့ၤလး": 5441,
      "လိာ်အသးတဂၤဒီးတဂၤ": 5442,
      "ဟံးဃာ်ဂၢၢ်ကျၢၤ": 5443,
      "ဟဲဆူယအိၣ်": 5444,
      "ဘှီထီၣ်ကဒါက့ၤ": 5445,
      "တခီဘီမုၢ်ဖိတဖၣ်": 5446,
      "ဘၣ်ဃးဒီးတၢ်ဂ့ၢ်": 5447,
      "ဟဲက့ၤကဒါက့ၤဆူ": 5448,
      "ဘၣ်ထွဲဒီး": 5449,
      "ယီၢ်ဒ့": 5450,
      "အသဟီၣ်": 5451,
      "လံးဘ": 5452,
      "တစူၢ်တနာ်": 5453,
      "အတၢ်အိၣ်တၢ်ဆိးအလီၢ်": 5454,
      "လါတလါထီၣ်": 5455,
      "ဃ့ၢ်ပူၤဖျဲးကွံာ်": 5456,
      "ယူာ်ထီၣ်အစု": 5457,
      "စီၤစၤဒိး": 5458,
      "ယ့ၣ်ၡူးစံးဆၢအဝဲသ့ၣ်": 5459,
      "အခၢၣ်သး": 5460,
      "ပီၢ်ယၢ်လီၤက့ၤအသး": 5461,
      "သူၣ်လီၤဖျးလီၤ": 5462,
      "သဘံၣ်ဘုၣ်": 5463,
      "မဲးဒံးထၢၣ်ရ့နယၢၣ်": 5464,
      "ဟုဘံၣ်ကယာ်ဘၢ": 5465,
      "ကသံၣ်": 5466,
      "စူ": 5467,
      "စံၢ်": 5468,
      "တဟဲ": 5469,
      "နမါ": 5470,
      "ပဂီၢ်": 5471,
      "ပဒီပုၢ်ဝဲၢ်": 5472,
      "ပနံး": 5473,
      "ဘ့လး": 5474,
      "ယကစၢ်ယွၤဧၢ": 5475,
      "ယဘီၣ်": 5476,
      "ရ့ၤ": 5477,
      "ဝ့ၣ်": 5478,
      "၂၇": 5479,
      "ဒီးနီၣ်": 5480,
      "ဒီးဆၢထၢၣ်": 5481,
      "ဒီးဆှၢလီၤ": 5482,
      "န့ၣ်န": 5483,
      "ဝဲသီ": 5484,
      "ဘၣ်ယွၤ": 5485,
      "ဘၣ်ဝဲလၢ": 5486,
      "ပှၤပ": 5487,
      "ပှၤမံးဒယၣ်": 5488,
      "တဖၣ်မၤ": 5489,
      "မၤကဆှီ": 5490,
      "မၤချ့ချ့": 5491,
      "ထီၣ်ဘး": 5492,
      "သးဖုး": 5493,
      "အီၤဒ်သိး": 5494,
      "သုဆူ": 5495,
      "သုဝဲလၢ": 5496,
      "ဖိလီၤ": 5497,
      "ယွၤအပှၤဂီၢ်မုၢ်": 5498,
      "အံၤက": 5499,
      "လၢတၢ်သိၣ်တၢ်သီ": 5500,
      "အတၢ်ပာ်သူၣ်ပာ်သး": 5501,
      "အတၢ်ဖိတၢ်လံၤ": 5502,
      "ခိၣ်သလုး": 5503,
      "ကစၢ်အဂၤ": 5504,
      "ကစၢ်ယ့ၣ်ၡူးခရံာ်": 5505,
      "ဂ့ၤဒိၣ်န့ၢ်ဒံး": 5506,
      "ကွံာ်သံ": 5507,
      "လုၢ်အီ": 5508,
      "အဂီၢ်န့ၣ်ဘၣ်": 5509,
      "ဟ့ၣ်ကမီၤ": 5510,
      "အသိးဘၣ်": 5511,
      "ကိးမုၢ်နံၤ": 5512,
      "စီၤပၤစီၤဒၤဝံး": 5513,
      "ခံခါ": 5514,
      "ခံနံၣ်": 5515,
      "ဒ်သိးအဝဲသ့ၣ်က": 5516,
      "ဒ်သိးအံၤန့ၣ်": 5517,
      "ဟးသဒၣ်": 5518,
      "အီၤလၢကစၢ်ယွၤ": 5519,
      "ဒီးပှၤယူဒၤဖိ": 5520,
      "အဂ့ၢ်မ့ၢ်လၢ": 5521,
      "အလီၢ်တအိၣ်ဘၣ်": 5522,
      "လၢ်ကျါ": 5523,
      "ပှၤလၢအအိၣ်": 5524,
      "ယကပျဲ": 5525,
      "ဃုာ်ဒီးစီၤ": 5526,
      "ကဲထီၣ်လိၣ်": 5527,
      "မ့မ့ၢ်တခီ": 5528,
      "အဲၣ်ယွၤ": 5529,
      "ဆှၢကဒါက့ၤ": 5530,
      "ဒီးမၤဟးဂီၤကွံာ်": 5531,
      "ဆါလီၤ": 5532,
      "ပျံၤသးဖုး": 5533,
      "တနံၤဃီ": 5534,
      "ကွံာ်အီၤန့ၣ်": 5535,
      "ဒီးယဟိဝၤယွၤ": 5536,
      "ဒီးနတၢ်": 5537,
      "လၢယွၤအမဲာ်ညါ": 5538,
      "ထူစီ": 5539,
      "ထီၣ်က့ၤလီၤ": 5540,
      "မူခိၣ်ဒီးဟီၣ်ခိၣ်": 5541,
      "ယွၤအတၢ်မၤ": 5542,
      "မုာ်ထီၣ်က့ၤ": 5543,
      "စီၤမိၤၡ့အတၢ်သိၣ်တၢ်သီ": 5544,
      "နါယၤ": 5545,
      "တၢ်အံၤမၤအသး": 5546,
      "ယသးလၢယ": 5547,
      "ပၢၢ်ထီၣ်": 5548,
      "ယတၢ်ထုကဖၣ်": 5549,
      "တၢ်လၢအဘၣ်": 5550,
      "ဘၣ်တၢ်မၤအီၤ": 5551,
      "အဟံၣ်န့ၣ်လီၤ": 5552,
      "နီတဂၤဘၣ်န့ၣ်လီၤ": 5553,
      "တၢ်န့ၣ်ဝံၤအလီၢ်ခံ": 5554,
      "ကိၢ်မၤဂီၤ": 5555,
      "စံးထီၣ်ပတြၢၤကစၢ်ယွၤ": 5556,
      "ပှၤအံၣ်စရ့လးဖိခဲလၢာ်": 5557,
      "လၢခံတနံၤ": 5558,
      "နီတစုတဂ့ၤ": 5559,
      "ထိးနါ": 5560,
      "အခံလီၤ": 5561,
      "ဆူယွၤအအိၣ်န့ၣ်လီၤ": 5562,
      "သ့တၢ်လၢာ်ကစၢ်": 5563,
      "သ့တၢ်လၢာ်ကစၢ်ယွၤ": 5564,
      "စီၤယံးရမံယၤ": 5565,
      "ခံးသူ": 5566,
      "အခီပညီမ့ၢ်ဝဲ": 5567,
      "ဆ့ကၤဖးထီ": 5568,
      "ကိးပသူထီၣ်ဝဲ": 5569,
      "ယစံးဘျုး": 5570,
      "လီၤကာ်": 5571,
      "အတၢ်လုၢ်လီၢ်": 5572,
      "ဟ့ၣ်အီၤတၢ်": 5573,
      "ဆံးစၢ်ထီၣ်": 5574,
      "တဂၤဂ့ၤတဂၤဂ့ၤ": 5575,
      "ဘူၣ်ထီၣ်ဘါထီၣ်ယွၤအဒဲ": 5576,
      "ကစီဒီလီၤ": 5577,
      "သကုၤဆးဒး": 5578,
      "စၣ်ကၢ်": 5579,
      "အခၢၣ်စး": 5580,
      "ပၣ်ဃုာ်ဒီး": 5581,
      "သရာ်": 5582,
      "ချံးခီၣ်": 5583,
      "ဒိးတၢ်ကူးတရံး": 5584,
      "ပျၤထီအီၤလၢ": 5585,
      "ဂဲၤကလံာ်": 5586,
      "ဒီးအုၣ်က့ၤခီၣ်က့ၤ": 5587,
      "အ့းဖ့းစူး": 5588,
      "ကဟ့ၣ်လီၤ": 5589,
      "စြၤ": 5590,
      "ဆံၣ်": 5591,
      "ဒီၤ": 5592,
      "နမိၢ်": 5593,
      "ဘၢ်": 5594,
      "ယအၢၣ်လီၤ": 5595,
      "ယဂံၢ်ယဘါ": 5596,
      "အထၢ": 5597,
      "အပျံၤ": 5598,
      "အကမူၣ်": 5599,
      "အသုးဖိတဖၣ်": 5600,
      "အလီခီ": 5601,
      "အထးခိၣ်": 5602,
      "အဒံးဆ့": 5603,
      "လၢသိ": 5604,
      "လီၤဘျၢ": 5605,
      "ဒီးက့ၤ": 5606,
      "ဒီးတဲ": 5607,
      "ဝဲသ့ၣ်": 5608,
      "ဝဲအဃိ": 5609,
      "ပှၤဒီး": 5610,
      "ပှၤမိၤအး": 5611,
      "တဖၣ်ဖဲ": 5612,
      "တဖၣ်ကအိၣ်": 5613,
      "တဖၣ်အမဲာ်ညါ": 5614,
      "လၢအသီ": 5615,
      "မ့ၢ်ဘၣ်တၢ်": 5616,
      "မ့ၢ်ဝ့ၢ်": 5617,
      "အဝဲဟံးန့ၢ်": 5618,
      "အဝဲအိၣ်ဒီးတၢ်": 5619,
      "သုဘၣ်တၢ်": 5620,
      "ဖိဒီး": 5621,
      "ယွၤအကလူး": 5622,
      "ဒ်သိ": 5623,
      "ကွံၢ်": 5624,
      "ပူၤဘၣ်": 5625,
      "ပူၤတဖၣ်": 5626,
      "အံၤအပူၤန့ၣ်": 5627,
      "အဝဲသ့ၣ်ကိးဂၤဒဲး": 5628,
      "ဖဲပှၤအံၣ်စရ့လးဖိတဖၣ်": 5629,
      "လၢတၢ်အံၤ": 5630,
      "လၢတၢ်ဟးဂီၤ": 5631,
      "စံးကတိၤတၢ်": 5632,
      "အတၢ်စံၣ်ညီၣ်": 5633,
      "အတၢ်ပာ်ဖှိၣ်": 5634,
      "အတၢ်ပနီၣ်": 5635,
      "အတၢ်တြီၤ": 5636,
      "အတၢ်ကူတၢ်သိး": 5637,
      "အသးစၢ်": 5638,
      "ပာ်ထီၣ်တၢ်": 5639,
      "လီၢ်စီဆှံ": 5640,
      "ညါန့ၣ်": 5641,
      "တၢ်အူ": 5642,
      "တၢ်အကတၢၢ်": 5643,
      "သံန့ၣ်": 5644,
      "ကိးသတြီ": 5645,
      "ဒီးတၢ်ဃူတၢ်ဖိး": 5646,
      "စီၤပၤတဂၤ": 5647,
      "သူၣ်တ": 5648,
      "ဒီးအမိၢ်": 5649,
      "ဒီးအဝၤ": 5650,
      "ပှၤဂီၢ်မုၢ်တဖၣ်အံၤ": 5651,
      "ထံဖိကီၢ်ဖိ": 5652,
      "ထံၣ်တၢ်": 5653,
      "လိာ်ကွီၢ်": 5654,
      "လိာ်ပသး": 5655,
      "တမံၤလၢအ": 5656,
      "အီၤလၢယွၤ": 5657,
      "လၢနကမၤ": 5658,
      "ကဘၣ်အိၣ်": 5659,
      "ပှၤလၢအတ": 5660,
      "အါဒံအါဂၤ": 5661,
      "ဟီၣ်ခိၣ်အံၤ": 5662,
      "တၢ်မၤဟးဂီၤ": 5663,
      "ယကလဲၤ": 5664,
      "လၢအအိၣ်ဒီးအီၤ": 5665,
      "ကယဲၢ်တၢ်လၢအ": 5666,
      "ဘ့ၣ်ဟဒး": 5667,
      "ထီၣ်ဝဲန့ၣ်": 5668,
      "အီၣ်ဘၣ်": 5669,
      "ပှဲၤဝဲဒီးတၢ်": 5670,
      "တၢ်လၢယၤ": 5671,
      "ပှၢ်လၢ်ကျါ": 5672,
      "အၢအၢသီသီ": 5673,
      "ဒီးမၤဟးဂီၤ": 5674,
      "အီစပံးထံ": 5675,
      "မ်တၢ်": 5676,
      "မၤသံအီၤ": 5677,
      "မၤသံတ့ၢ်": 5678,
      "ဖၣ်ကမူၣ်": 5679,
      "ဖၣ်ကပူၤ": 5680,
      "စိဟ့ၣ်ကမီၤ": 5681,
      "လီၤတူာ်": 5682,
      "နီတဂၤလၢၤဘၣ်": 5683,
      "တဘ့ၣ်အပူၤ": 5684,
      "လၢကီၢ်မိၤအး": 5685,
      "မၢ်ကူး": 5686,
      "အပၢ်ဖးဒိၣ်လၢပျၢၤ": 5687,
      "တ့ၢ်လံအီၤ": 5688,
      "တ့ၢ်ဝဲအသိးန့ၣ်လီၤ": 5689,
      "ဆှၢလီၤတၢ်ကစီၣ်": 5690,
      "လံာ်စီဆှံစံးဝဲလၢ": 5691,
      "စီၤဃူ": 5692,
      "လၢအတၢ်ကမၣ်": 5693,
      "ခိတၢ်သွဲ": 5694,
      "ဒီးယွၤစံးဝဲဒၣ်": 5695,
      "ဒုးနဲၣ်နၤ": 5696,
      "ယကမၤဟးဂီၤကွံာ်": 5697,
      "သူၣ်ထီၣ်အဒဲ": 5698,
      "ကါဒိၣ်": 5699,
      "သးဝံၣ်ထီၣ်": 5700,
      "သုမ့ၢ်မၤ": 5701,
      "လီၤဆီဒၣ်တၢ်": 5702,
      "စံာ်ဧိၤ": 5703,
      "ယီၤဃ့": 5704,
      "တဖၣ်အကျါတဂၤ": 5705,
      "ဘၣ်အီၤဘၣ်": 5706,
      "လုၣ်သ့ၣ်ခါပတာ်": 5707,
      "လဲၤတၢ်က့ၤ": 5708,
      "ဖျီအသးဒီး": 5709,
      "က့ၣ်သးကါ": 5710,
      "ဃၤနၣ်": 5711,
      "စီၤနၤသၣ်": 5712,
      "စီၤစကၤ": 5713,
      "ဃ့ဘါထုကဖၣ်တၢ်": 5714,
      "ထဲလဲၣ်န့ၣ်": 5715,
      "ခ့ယုၢ်တဒု": 5716,
      "စီၤၡံမံၤ": 5717,
      "စီၤကၤယံၣ်": 5718,
      "လီၤထူလီၤယိာ်လီၤ": 5719,
      "လၢမုၢ်နံၤအဝဲန့ၣ်": 5720,
      "စီၤဘၤလး": 5721,
      "ဘူၣ်ဘျီၣ်လၢအမ့ၢ်တၢ်": 5722,
      "ကွၢ်ဟုၣ်ကွၢ်စုး": 5723,
      "ဟူထီၣ်သါလီၤ": 5724,
      "ကလီၤမၢ်ကွံာ်": 5725,
      "ညူး": 5726,
      "တမုၢ်": 5727,
      "တဘူၣ်": 5728,
      "တမီၢ်": 5729,
      "တဂိာ်တသီၣ်": 5730,
      "တလးမူး": 5731,
      "ဒာ်": 5732,
      "နမဲာ်": 5733,
      "နဃ့": 5734,
      "နမၤတ့ၢ်": 5735,
      "ပိၢ်": 5736,
      "ဖူ": 5737,
      "ဖ့ၤ": 5738,
      "ယကစၢ်ယွၤ": 5739,
      "ယဟိ": 5740,
      "ယတၢ်အၢၣ်လီၤအီလီၤ": 5741,
      "ရယါ": 5742,
      "လံၣ်": 5743,
      "သဃိး": 5744,
      "သညူး": 5745,
      "အပနီၣ်": 5746,
      "အပဒိၣ်ပပှၢ်တဖၣ်": 5747,
      "ံကၢ်": 5748,
      "၃၀": 5749,
      "လၢကဘၣ်": 5750,
      "တၢ်စံးဆၢ": 5751,
      "ဒီးဃု": 5752,
      "ဒီးဘူၣ်ထီၣ်ဘါထီၣ်": 5753,
      "ဒီးပှၤအံၣ်စရ့လးဖိတဖၣ်": 5754,
      "ဘၣ်ဆူ": 5755,
      "ဘၣ်နၤ": 5756,
      "ဘၣ်ဂီၤ": 5757,
      "ဘၣ်ဒါ": 5758,
      "ပှၤမ့ၢ်": 5759,
      "မၤလီၤ": 5760,
      "လၢအပှၤဂီၢ်မုၢ်": 5761,
      "စီၤက့ၤ": 5762,
      "စီၤစ့": 5763,
      "စီၤကး": 5764,
      "အိၣ်သယုၢ်": 5765,
      "မ့ၢ်စီၤပၤ": 5766,
      "သးဒ့ဒီ": 5767,
      "အဝဲတဲ": 5768,
      "ဖိဝဲၢ်ကိ": 5769,
      "ဒ်ကုၢ်": 5770,
      "လၢတၢ်စံၣ်ညီၣ်": 5771,
      "တဂၤလၢအမ့ၢ်": 5772,
      "ကစၢ်မုၣ်": 5773,
      "ဂ့ၤဝဲ": 5774,
      "က့ၤအသး": 5775,
      "န့ၢ်တၢ်": 5776,
      "န့ၢ်ပှၤလၢ": 5777,
      "တ့ၢ်ဒံး": 5778,
      "နီၢ်ဧ": 5779,
      "နီၢ်ပနံး": 5780,
      "ဒီးအဖိ": 5781,
      "ထံကီၢ်အ": 5782,
      "ကွၢ်စိ": 5783,
      "ကွၢ်ထီၣ်တၢ်": 5784,
      "ဖိတဖၣ်လီၤ": 5785,
      "ဟံၣ်ခိၣ်": 5786,
      "မ့တမ့ၢ်တၢ်": 5787,
      "အက့": 5788,
      "အခၢး": 5789,
      "အါဘျီ": 5790,
      "ဆှံဆှံ": 5791,
      "လၢသုတၢ်": 5792,
      "တအိၣ်မူ": 5793,
      "စီဆှံတဖၣ်": 5794,
      "စ့ၢ်ကီးဘၣ်": 5795,
      "နာ်ဝဲ": 5796,
      "နာ်န့ၢ်အီၤ": 5797,
      "ဒီးစီၤဧ့": 5798,
      "ကပၢၤ": 5799,
      "လၢတၢ်န့ၣ်အလီၢ်": 5800,
      "ထွဲတခီ": 5801,
      "ကဘၣ်တၢ်ပျၢ်": 5802,
      "လံာ်ဧိၤ": 5803,
      "တဘျီဝံၤ": 5804,
      "သိတဖၣ်": 5805,
      "စီၤအၤဃး": 5806,
      "ဆိၣ်ကဲၤထီၣ်": 5807,
      "မံဘၣ်အသး": 5808,
      "လၢဝ့ၢ်ယရူၤရှလ့ၣ်": 5809,
      "စီၤၡ့ၣ်": 5810,
      "စီၤၡမါ": 5811,
      "အခိၣ်သူ": 5812,
      "ဒီးနတ": 5813,
      "သၢပူတပူ": 5814,
      "ဆိကမိၣ်ထီၣ်": 5815,
      "ထီဒါနၤ": 5816,
      "တနီၤလၢအ": 5817,
      "တဖျၢၣ်န့ၣ်လီၤ": 5818,
      "ဒုၣ်တၢ်အီၣ်": 5819,
      "ထိၣ်ဟူး": 5820,
      "ယတၢ်သိၣ်တၢ်သီ": 5821,
      "လၢၢ်တဖျၢၣ်": 5822,
      "နမ့ၢ်မၤ": 5823,
      "အပၢ်န့ၣ်လီၤ": 5824,
      "လီၤဂာ်ဒီးပှၤ": 5825,
      "ဃုာ်ဒီးအီၤ": 5826,
      "ကံးဘိၣ်": 5827,
      "ဟးထီၣ်လၢ": 5828,
      "လံာ်စီဆှံပာ်ဖျါထီၣ်ဝဲလၢ": 5829,
      "မူၤသံး": 5830,
      "ပျဲၢ်ယဘီၣ်": 5831,
      "ဖိသၣ်တဖၣ်": 5832,
      "တဲာ်ကွံာ်": 5833,
      "စီၤဘံၣ်": 5834,
      "ထူးထီၣ်တီၤ": 5835,
      "နီၢ်နီၢ်န့ၣ်": 5836,
      "ၡူၡၣ်": 5837,
      "ကူးဘု": 5838,
      "အဖီလာ်လီၤ": 5839,
      "ပၢတၢ်ပြး": 5840,
      "စီၤဟ့ၤရိာ်": 5841,
      "မုၢ်နံၤအဝဲန့ၣ်": 5842,
      "အိၣ်ဘှံးအနံၤ": 5843,
      "တၢ်တတီတလိၤ": 5844,
      "ကွဲမုာ်": 5845,
      "က့ၢ်ဂီၤ": 5846,
      "ကူၣ်တၢ်ဆး": 5847,
      "မိၢ်ပၢ်ဖံဖုလၢပျၢၤတဖၣ်အကစၢ်ယွၤ": 5848,
      "လၢလာ်တဖၣ်အံၤ": 5849,
      "ယစံးဘၣ်တဲဘၣ်သုတၢ်": 5850,
      "သုးခိၣ်သုးနၢ်": 5851,
      "ဖံဘၣ်ခိၣ်": 5852,
      "စီၤရဃၤဘၣ်": 5853,
      "ကယီကယီ": 5854,
      "ပှၤဟးဂီၤဖိ": 5855,
      "မၤကဒီးတစု": 5856,
      "ကြီကြ": 5857,
      "ၡံးတၤ": 5858,
      "လီဝၢ်ဒံး": 5859,
      "ဖှီဝါကဆှၣ်": 5860,
      "စၢၤသုသွဲၣ်": 5861,
      "ကဆိကမိၣ်": 5862,
      "ကူၤၡး": 5863,
      "တၣ်": 5864,
      "တွံၢ်": 5865,
      "ထဲၣ်": 5866,
      "ဒိၤ": 5867,
      "ဘ့": 5868,
      "ယကွဲး": 5869,
      "သူၤ": 5870,
      "သဆၣ်": 5871,
      "သညိ": 5872,
      "သကွံၢ်": 5873,
      "အသနၢၣ်": 5874,
      "ဧၢ်": 5875,
      "ၡ့ၢ်": 5876,
      "လၢန့ၣ်": 5877,
      "လၢနၤ": 5878,
      "လၢလါ": 5879,
      "လၢကယဲၢ်တၢ်": 5880,
      "တၢ်ဘူၣ်ထီၣ်ဘါထီၣ်": 5881,
      "တၢ်တမံၤလၢ်လၢ်": 5882,
      "တၢ်ဒူတၢ်ဃိၤ": 5883,
      "လီၤစိၤလီၤထီ": 5884,
      "ဒီးခီဖျိ": 5885,
      "ဒီးစူၢ်": 5886,
      "ဘၣ်တဘျီ": 5887,
      "ပှၤတဖၣ်လၢအအိၣ်": 5888,
      "တဖၣ်အိၣ်ဝဲ": 5889,
      "တဖၣ်အသိးလီၤ": 5890,
      "မၤကျၢၤ": 5891,
      "လၢအဃိ": 5892,
      "ထီၣ်ဘၣ်": 5893,
      "စီၤထံ": 5894,
      "အိၣ်လၢန": 5895,
      "အီၤခီဖျိ": 5896,
      "အီၤဆူဝ့ၢ်": 5897,
      "အီၤဆူတၢ်": 5898,
      "ဖိခဲလၢာ်": 5899,
      "ယွၤတ": 5900,
      "ဖဲအအိၣ်": 5901,
      "လၢတၢ်စိာ်မၢကဲကုၢ်": 5902,
      "အတၢ်ဂ့ၢ်": 5903,
      "အတၢ်သးထီၣ်": 5904,
      "ယၤလၢပှၤ": 5905,
      "ဆူကစၢ်ယွၤ": 5906,
      "ဆူပီၣ်လဲၣ်": 5907,
      "အပူၤတဂ့ၤ": 5908,
      "ကီၢ်ကနၤဧၣ်": 5909,
      "လုၢ်ထီၣ်တၢ်": 5910,
      "အဃၢ": 5911,
      "ဒိၣ်နီၢ်": 5912,
      "တၢ်အဘၣ်": 5913,
      "ကစၢ်ယွၤတ": 5914,
      "ဒီးတၢ်သံ": 5915,
      "လံအဃိ": 5916,
      "ဒီးအခိၣ်": 5917,
      "တုၤပှၤ": 5918,
      "ဒ်သိးအဝဲ": 5919,
      "ပှၤဂီၢ်မုၢ်က": 5920,
      "ကလူ": 5921,
      "ထံၣ်ထီၣ်က့ၤ": 5922,
      "ဖိတဖၣ်န့ၣ်": 5923,
      "ကတိၤထီၣ်တၢ်": 5924,
      "လၢနသး": 5925,
      "သ့ၣ်ညါလၢ": 5926,
      "ကနၢၤ": 5927,
      "ဧိၤန့ၣ်": 5928,
      "လၢသုမၤ": 5929,
      "အီၣ်ကိၣ်": 5930,
      "မ့မ့ၢ်ယဲဒၣ်အံၤ": 5931,
      "တဖၣ်လၢယွၤ": 5932,
      "ဒီးစီၤမၤ": 5933,
      "နံၤတနံၤ": 5934,
      "ဆှၢပှၤ": 5935,
      "ဆှၢကမၣ်": 5936,
      "ဆှၢအီၤဆူ": 5937,
      "ဘၣ်ဆၣ်ဒီးအဝဲ": 5938,
      "ဒီးမၤပှဲၤ": 5939,
      "ဒီးမၤပူၤဖျဲး": 5940,
      "ပျဲအ": 5941,
      "ဆိးသီ": 5942,
      "ကျဲမုၢ်": 5943,
      "တနံၤဘၣ်တနံၤ": 5944,
      "မၢအ": 5945,
      "ကၤဒ့ၣ်": 5946,
      "ပိာ်မုၣ်အံၤ": 5947,
      "ဖံးတၢ်ညၣ်": 5948,
      "ဒီးသုကဘၣ်": 5949,
      "ထူစံာ်": 5950,
      "ဆိကမိၣ်တၢ်": 5951,
      "ဂာ်ဒီး": 5952,
      "တနီၤဒီး": 5953,
      "တအိၣ်ဘၣ်ဒီးတၢ်": 5954,
      "သုတမၤ": 5955,
      "ဘၣ်တၢ်မၤမဲာ်ဆှး": 5956,
      "ပိာ်ခွါသးစၢ်": 5957,
      "ကိးဂၤဒဲးလီၤ": 5958,
      "သုဝဲလၢအ": 5959,
      "သုဝဲသ့ၣ်": 5960,
      "တဆံယဲၢ်": 5961,
      "ကံးညာ်": 5962,
      "ယံာ်ဝဲ": 5963,
      "ဒိၣ်မးန့ၣ်လီၤ": 5964,
      "ဖုတဖု": 5965,
      "ထံကျိဖိ": 5966,
      "ထံကျိဖရၤသး": 5967,
      "တသ့ဘၣ်န့ၣ်လီၤ": 5968,
      "လဲၤနုာ်လီၤဆူ": 5969,
      "ပာ်ဖျါထီၣ်န့ၢ်ပှၤ": 5970,
      "စုာ်စုာ်န့ၣ်": 5971,
      "ဘၣ်မနုၤအဃိန": 5972,
      "သန့လး": 5973,
      "သူၣ်ထီၣ်ဝ့ၢ်": 5974,
      "နီၢ်မၤရံဒီးစီၤယိၤသး": 5975,
      "တၢ်သူၣ်ဖှံသးညီ": 5976,
      "လၢကမၤစၢၤ": 5977,
      "သပှၢ်ကတၢၢ်န့ၣ်လီၤ": 5978,
      "မ့ၢ်မတၤတဂၤလဲၣ်": 5979,
      "ကျိာ်ထံ": 5980,
      "ဧ့ၤဒ့ၣ်": 5981,
      "ပိာ်ထွဲထီၣ်": 5982,
      "တခီဘီမုၢ်ဖိ": 5983,
      "ဟ့ၣ်လီၤအကလုၢ်ဆူ": 5984,
      "နံၣ်တနံၣ်အပူၤန့ၣ်": 5985,
      "ဟဲက့ၤစိာ်ကဒါက့ၤ": 5986,
      "နူၢ်ပူၤ": 5987,
      "ဂီၤဂီၤန့ၣ်": 5988,
      "အိၣ်ဝဲလီၤစိၤလီၤထီလီၤ": 5989,
      "သူၣ်တီသးလိၤ": 5990,
      "စူၣ်ပ": 5991,
      "စံၣ်စိၤတဲစိၤအပူၤန့ၣ်လီၤ": 5992,
      "တကီၢ်ခါ": 5993,
      "ချံးခီၣ်တီၤလီၤ": 5994,
      "ကၢၣ်": 5995,
      "ကဒံ": 5996,
      "တဆိ": 5997,
      "နစၢၤနသွဲၣ်": 5998,
      "ပလဲ": 5999,
      "ဖၢၣ်": 6000,
      "ယဂီၢ်": 6001,
      "ယမဲာ်": 6002,
      "လကံ": 6003,
      "အနီၢ်": 6004,
      "အဘီမုၢ်": 6005,
      "အံသၣ်": 6006,
      "ါယၤ": 6007,
      "ြံး": 6008,
      "လၢသူၣ်": 6009,
      "တၢ်ကၤ": 6010,
      "တၢ်ထူးတၢ်တီၤ": 6011,
      "တၢ်ဂံၢ်တၢ်ဘါ": 6012,
      "ဒီးသး": 6013,
      "ဒီးဖဲအဝဲ": 6014,
      "န့ၣ်ပ": 6015,
      "ဘၣ်က့ၤ": 6016,
      "ပှၤခိၣ်ပှၤနၢ်": 6017,
      "မၤဂ့ၤ": 6018,
      "မၤအသးဒီး": 6019,
      "လၢအဂၤ": 6020,
      "လၢအမၤတၢ်": 6021,
      "လၢအလီၤဘၣ်": 6022,
      "လၢအဂံၢ်ဆူၣ်ဘါဆူၣ်": 6023,
      "အိၣ်လၢကီၢ်": 6024,
      "မ့ၢ်တ့ၢ်": 6025,
      "မ့ၢ်ပှၤတဂၤ": 6026,
      "အဝဲစံးဆၢဝဲ": 6027,
      "အဝဲအမိၢ်": 6028,
      "သ့ၣ်တဖၣ်လၢ": 6029,
      "သုဂီၢ်": 6030,
      "ယွၤပၢဘၣ်တၢ်ခဲလၢာ်": 6031,
      "လၢတၢ်မၤသံ": 6032,
      "စံးကဒီးဝဲ": 6033,
      "အတၢ်ဘၣ်အသး": 6034,
      "တဂၤအသိးန့ၣ်လီၤ": 6035,
      "ခိၣ်ပှဲၤ": 6036,
      "ကီၢ်ကံးလဧး": 6037,
      "ဝ့ၢ်နံၤနဝ့": 6038,
      "ဟ့ၣ်အဝဲသ့ၣ်": 6039,
      "ဟ့ၣ်ဘျုး": 6040,
      "လဲၤလီၤဆူ": 6041,
      "ကစၢ်ယွၤအပှၤ": 6042,
      "ဟဲဘူး": 6043,
      "ဟဲလၢကစၢ်ယွၤ": 6044,
      "ကိးဝဲ": 6045,
      "မူထီၣ်က့ၤ": 6046,
      "မူအထူအယိာ်": 6047,
      "စီၤပၤယိၤ": 6048,
      "ခံဘိ": 6049,
      "ဘၣ်ဆၣ်ယတ": 6050,
      "ပှၤဂီၢ်မုၢ်ဖးဒိၣ်": 6051,
      "ဖးထီၣ်": 6052,
      "အအိၣ်ဒီးတၢ်": 6053,
      "ကတိၤဒိၣ်": 6054,
      "အလီၢ်ဒီး": 6055,
      "အလီၢ်လံၤ": 6056,
      "အါလါ": 6057,
      "စိာ်ကွံာ်အီၤ": 6058,
      "လၢပှၤက": 6059,
      "ဖျါဖျါ": 6060,
      "ပၢ်ဧၢ": 6061,
      "ဃုာ်ဒီးအဝဲသ့ၣ်": 6062,
      "ကဲထီၣ်တၢ်မၤစၢၤ": 6063,
      "ဃုဂၤ": 6064,
      "ဒီးစီၤပီလူး": 6065,
      "စီၤယိၤသၣ်": 6066,
      "ဒီးမၤလိာ်": 6067,
      "ကျဲလၢ": 6068,
      "လံာ်ကြီကြ": 6069,
      "တဖၣ်ဒီးသု": 6070,
      "စီၤအၤစာ်": 6071,
      "ဖဲန့ၣ်တဖၣ်": 6072,
      "တူၢ်တၢ်": 6073,
      "ဒီးသုဘၣ်": 6074,
      "ဒီးနီၤ": 6075,
      "ဘူးအလဲ": 6076,
      "ကီၢ်အံၣ်စရ့လးအပှၤ": 6077,
      "ဟံးန့ၢ်မူဒါ": 6078,
      "တဘ့ၣ်န့ၣ်": 6079,
      "စၤလ": 6080,
      "ပူၤဖျဲးဒီးတၢ်": 6081,
      "အသးလၢထံ": 6082,
      "ယတၢ်ဒဲးဘး": 6083,
      "တၢ်လၢအဂ့ၤ": 6084,
      "ဘၣ်မနုၤလဲၣ်": 6085,
      "ဟဲက့ၤတုၤ": 6086,
      "တၢ်ဒဲးဘးတဖၣ်": 6087,
      "သုသးလၢ": 6088,
      "တခါန့ၣ်": 6089,
      "ကီၢ်ယူဒၤအဝ့ၢ်": 6090,
      "ၡါစၢ်": 6091,
      "သူၣ်ထီၣ်ကဒါက့ၤ": 6092,
      "ဘျၢလီၤ": 6093,
      "တၢ်ကတိၤဒိ": 6094,
      "တၢ်သူၣ်ခုသးခု": 6095,
      "အိၣ်ဖှိၣ်ရိဖှိၣ်": 6096,
      "တၢ်လုၢ်လီၢ်တခါ": 6097,
      "အိၣ်ဆိးဝဲ": 6098,
      "ခံးလီၤ": 6099,
      "ဃိးဆံ": 6100,
      "စီၤအ့ဘယၤ": 6101,
      "စီၤဧ့စြၤ": 6102,
      "လၢယဂီၢ်လီၤ": 6103,
      "ကြံး": 6104,
      "အိၣ်ဒီးအဖိခွါသၢဂၤ": 6105,
      "စီၤအဘံၡဲၤ": 6106,
      "တယံာ်ဘၣ်": 6107,
      "လၢကီၢ်အံၣ်စရ့လးအပူၤ": 6108,
      "တၢ်အသိးန့ၣ်လီၤ": 6109,
      "အဆံးကတၢၢ်": 6110,
      "လဲၤဃုာ်တၢ်ဒီး": 6111,
      "အိၣ်ဘှီၣ်ကလာ်": 6112,
      "လီၤတိၢ်လီၤဆီ": 6113,
      "ယွၤအတၢ်အၢၣ်လီၤအီလီၤအတလါစီဆှံ": 6114,
      "ဃ့ၤသးဖိ": 6115,
      "ကမုာ်လၤ": 6116,
      "အူထီၣ်ကွဲၤ": 6117,
      "ဝဲလၢခံတပတီၢ်": 6118,
      "စီၤဧစၤရယၤ": 6119,
      "သညူးသပှၢ်": 6120,
      "တဂီၤ": 6121,
      "နဂီၢ်": 6122,
      "နသိး": 6123,
      "နကဘၣ်တၢ်": 6124,
      "နဒာ်": 6125,
      "ယခံ": 6126,
      "ယမၤတ့ၢ်": 6127,
      "အူၢ်": 6128,
      "အဆိ": 6129,
      "အအဲၣ်": 6130,
      "အမုာ်": 6131,
      "ဧ့ၣ်": 6132,
      "ၡမူၤအ့လး": 6133,
      "လၢလံာ်": 6134,
      "လၢပှၤအံၣ်စရ့လးဖိတဖၣ်": 6135,
      "တၢ်မ့ၢ်ဂ့ၤ": 6136,
      "တၢ်နီၤဖး": 6137,
      "ဒီးဟဲ": 6138,
      "ဒီးသံ": 6139,
      "ဒီးကဘၣ်တၢ်": 6140,
      "ဒီးဒိကနၣ်": 6141,
      "ဒီးနီၢ်မၤရံ": 6142,
      "ဒီးသိဖါ": 6143,
      "ဘၣ်ကသ့ဧါ": 6144,
      "ပှၤကူၣ်ဘၣ်ကူၣ်သ့": 6145,
      "ထီၣ်န့ၣ်": 6146,
      "ိးထီၣ်": 6147,
      "အိၣ်ယံၤ": 6148,
      "အိၣ်ဘ့ၣ်ဆ့": 6149,
      "မ့ၢ်ကစၢ်": 6150,
      "မ့ၢ်တအိၣ်": 6151,
      "မ့ၢ်သုတ": 6152,
      "သုကမၤ": 6153,
      "ဖိသ့ၣ်တဖၣ်": 6154,
      "ဖိသ့ၣ်ဧၢ": 6155,
      "ယွၤအဘီအမုၢ်": 6156,
      "အံၤဘၣ်": 6157,
      "ဖဲဒၣ်": 6158,
      "ဖဲအဆၢကတီၢ်": 6159,
      "လၢတၢ်ကမၤ": 6160,
      "စံးလၢ": 6161,
      "ကတီ": 6162,
      "အတၢ်ဒူၣ်": 6163,
      "ဘၣ်တၢ်ကွဲး": 6164,
      "ဘၣ်တၢ်ခူၣ်လီၤ": 6165,
      "တ့ၢ်အီၤန့ၣ်လီၤ": 6166,
      "ကစၢ်ယွၤအကလုၢ်ကထါ": 6167,
      "သ့ဝဲန့ၣ်လီၤ": 6168,
      "စီၤပၤဟ့ၤရိာ်": 6169,
      "တုၤအဝဲ": 6170,
      "လၢယမံၤ": 6171,
      "လၢယမၤတ့ၢ်": 6172,
      "လၢယဟိဝၤယွၤ": 6173,
      "ထံထီၣ်ပၢၢ်": 6174,
      "ပှၤအအၢအသီ": 6175,
      "ဝဲလၢက": 6176,
      "တနွံ": 6177,
      "မဲာ်နိ": 6178,
      "ဟံၣ်တဖျၢၣ်": 6179,
      "အလီၢ်တဖၣ်": 6180,
      "သ့ၣ်ညါတၢ်": 6181,
      "အခၣ်": 6182,
      "ဧိၤစ့": 6183,
      "ယ့ၣ်ၡူးစံးဆၢဝဲ": 6184,
      "မ့ၢ်တၢ်လၢ": 6185,
      "အဒူ": 6186,
      "ပတူၢ်": 6187,
      "ကယဲၢ်ပှၤဂီၢ်မုၢ်": 6188,
      "သၣ်စ့ၤ": 6189,
      "ဟ့ၣ်လီၤဝဲ": 6190,
      "ဟ့ၣ်လီၤပှၤ": 6191,
      "စ့ၢ်ကီးလၢ": 6192,
      "နံၤတနံၤန့ၣ်": 6193,
      "လၢတၢ်န့ၣ်အဃိအဝဲသ့ၣ်": 6194,
      "အဂၤတဖၣ်န့ၣ်": 6195,
      "ဆိၣ်လီၤအသး": 6196,
      "ဒီးယီၢ်": 6197,
      "လိၣ်ဘၣ်တၢ်မၤစၢၤ": 6198,
      "လၢကဘီ": 6199,
      "မၤတ့ၢ်ဝဲန့ၣ်": 6200,
      "မၤသံတၢ်": 6201,
      "ဒီးသုတ": 6202,
      "အခိၣ်လိၤ": 6203,
      "ထံၣ်ဘၣ်တ့ၢ်": 6204,
      "တနီၤန့ၣ်လီၤ": 6205,
      "တသ့နီတမံၤဘၣ်": 6206,
      "တဘ့ၣ်န့ၣ်လီၤ": 6207,
      "အမံၤန့ၣ်လီၤ": 6208,
      "သးခုအကစီၣ်": 6209,
      "တအိၣ်ဘၣ်ဒီးကိၣ်မံၣ်": 6210,
      "အိၣ်ဒီးယၤ": 6211,
      "ဘျုးအဖှိၣ်": 6212,
      "ယတၢ်အိၣ်မူ": 6213,
      "လွံၢ်နၢၣ်": 6214,
      "အစုကဝဲၤ": 6215,
      "နွံကထိ": 6216,
      "ပာ်ဖှိၣ်က့ၤ": 6217,
      "ပာ်ဖှိၣ်ဃုာ်": 6218,
      "ဆှၢလီၤပှၤစိာ်တၢ်ကစီၣ်": 6219,
      "ယံာ်ဒံး": 6220,
      "အတၢ်မၤန့ၣ်လီၤ": 6221,
      "အဒိၣ်အအါ": 6222,
      "တၢ်လီၤပျံၤလီၤဖုး": 6223,
      "ဆူးပှၤဆါ": 6224,
      "လဲၤနုာ်လီၤ": 6225,
      "ထးသွဲ": 6226,
      "ဆၣ်ဖိကီၢ်ဖိတဒု": 6227,
      "အအိၣ်ဒီးစံးဘၣ်အီၤ": 6228,
      "ဒုးကဲထီၣ်အီၤလၢ": 6229,
      "စီၤဘနါယၤ": 6230,
      "ထူးအတီၤ": 6231,
      "နီၢ်နီၢ်တခီ": 6232,
      "တဖၣ်အဒီခိၣ်": 6233,
      "သးဝံၣ်တၢ်": 6234,
      "အုၣ်က့ၤခီၣ်က့ၤသု": 6235,
      "အဖီလာ်န့ၣ်": 6236,
      "ဆီၣ်လီၤအသး": 6237,
      "အတၢ်ကတိၤတဖၣ်": 6238,
      "ဒ်အမ့ၢ်တၢ်": 6239,
      "စီၤဟိၤ": 6240,
      "တသ့ၣ်ညါဝဲဘၣ်": 6241,
      "စှၤလီၤ": 6242,
      "အဒူၣ်ထၢပူၤန့ၣ်": 6243,
      "မၤကမၣ်တၢ်": 6244,
      "ဘိၣ်ဘံ": 6245,
      "အိးထီၣ်အသး": 6246,
      "ယွၤပၢဘၣ်တၢ်ခဲလၢာ်ကစၢ်စံးဝဲ": 6247,
      "အါန့ၢ်အန့ၣ်": 6248,
      "မ့ၢ်သုဆိကမိၣ်": 6249,
      "ပြံ": 6250,
      "လၢတၢ်လုၢ်လီၢ်အဖီခိၣ်": 6251,
      "တၢ်ဖိတၢ်လံၤ": 6252,
      "နဲဒၣ်အံၤ": 6253,
      "လံၤလံၤန့ၣ်": 6254,
      "ဧ့ၤဘြံၤကျိာ်": 6255,
      "အသးလၢအီၤ": 6256,
      "ယကဟ့ၣ်နၤ": 6257,
      "တနၤကျၢၤ": 6258,
      "သိဖိတဒု": 6259,
      "မုၢ်ဆ့ၣ်ထီၣ်တနံၤန့ၣ်": 6260,
      "ပူထီၣ်ထီဒါ": 6261,
      "လိၢ်လီၤလး": 6262,
      "ကတိၤတၢ်လၢဝံအကျိာ်": 6263,
      "လီၤစၢၤလီၤသွဲၣ်": 6264,
      "မုာ်လၤသးခု": 6265,
      "သးဘိသ့ၣ်ဧၢ": 6266,
      "တုာ်ခိၣ်ပှဲၤ": 6267,
      "တီဝဲလိၤဝဲ": 6268,
      "ကတိၤတ့ၢ်တၢ်ဒီး": 6269,
      "တမျာ်": 6270,
      "စီၤအူၤရံယၤ": 6271,
      "ထီၣ်တၢလီၤ": 6272,
      "စီၤဘံၣ်ယၤမံၣ်": 6273,
      "သကွံၢ်ကညး": 6274,
      "an": 6275,
      "ခ်": 6276,
      "ဂိၢ်": 6277,
      "စတူး": 6278,
      "တအ့": 6279,
      "ဒွံ": 6280,
      "ဒနံ": 6281,
      "နဟ့ၣ်": 6282,
      "နကအိၣ်": 6283,
      "ပဘၣ်": 6284,
      "ဖၠ": 6285,
      "ဖ့ၢ်": 6286,
      "မာ်": 6287,
      "အလုၢ်": 6288,
      "အဖါ": 6289,
      "အတီအလိၤ": 6290,
      "အဘျၣ်": 6291,
      "အဟၢဖၢ": 6292,
      "တၢ်ဘၢ": 6293,
      "ဒီးဆၣ်": 6294,
      "ဒီးလၢအဝဲသ့ၣ်": 6295,
      "ဒီးတုၤအ": 6296,
      "ဘၣ်တဆီ": 6297,
      "ပှီာ်": 6298,
      "ပှၤသၢဂၤ": 6299,
      "ပှၤသုးဖိတဖၣ်": 6300,
      "ပှၤဧမၤလ့း": 6301,
      "မၤသ့": 6302,
      "လၢအဖိခွါ": 6303,
      "လၢအတၢ်ဒဲးဘး": 6304,
      "စီၤစံး": 6305,
      "အိၣ်လံ": 6306,
      "အိၣ်ဒၣ်ထဲ": 6307,
      "မ့ၢ်ယွၤ": 6308,
      "သးန့ၣ်လီၤ": 6309,
      "အဝဲအသး": 6310,
      "ဖိၤ": 6311,
      "အံၤတ": 6312,
      "အံၤအပူၤန့ၣ်လီၤ": 6313,
      "အဝဲသ့ၣ်လၢက": 6314,
      "ဖဲကစၢၢ်": 6315,
      "ဖဲဝံအ့ၤလံယၤ": 6316,
      "ဖဲအသးအိၣ်": 6317,
      "လၢတၢ်လၢအ": 6318,
      "အတၢ်သးကညီၤ": 6319,
      "ဂ့ၤတဲာ်": 6320,
      "ကွံာ်ယၤ": 6321,
      "အသးကံၢ်ပူၤ": 6322,
      "ဘၣ်တၢ်ကွဲးနီၣ်": 6323,
      "ပာ်ဝဲ": 6324,
      "န့ၢ်နၤ": 6325,
      "လီၢ်လံၤ": 6326,
      "အဃၤၡ": 6327,
      "တၢ်အသိ": 6328,
      "တၢ်အဆၢကတီၢ်": 6329,
      "တၢ်အကလုၢ်": 6330,
      "ပျိာ်": 6331,
      "လၢာ်လံ": 6332,
      "ကိးဆၢ": 6333,
      "ကိးကတီၢ်": 6334,
      "ကိးနုာ်": 6335,
      "ကိးဖျၢၣ်": 6336,
      "သ့ထိး": 6337,
      "စီၤပၤစံးဘၣ်": 6338,
      "စီၤပၤနဘူၤကးန့စၢ်": 6339,
      "ဂီၤခီ": 6340,
      "သူၣ်မံသး": 6341,
      "တုၤယ့ၣ်ၡူး": 6342,
      "လၢယလိၤ": 6343,
      "ကလီၣ်": 6344,
      "ပှၤအဆံး": 6345,
      "မဲာ်ဖျၢၣ်": 6346,
      "အအိၣ်န့ၣ်တက့ၢ်": 6347,
      "ဒီးပှၤတဖၣ်လၢအ": 6348,
      "ဒဲးဝ့ၤ": 6349,
      "စီၤအဒိ": 6350,
      "ကဘၣ်မ့ၢ်": 6351,
      "ယဲၢ်နံၣ်": 6352,
      "ဧိၤလံာ်ဧိၤ": 6353,
      "ယ့ၣ်ၡူးအအိၣ်": 6354,
      "ကီၢ်အံၣ်စရ့": 6355,
      "နီၣ်ထိၣ်": 6356,
      "ပတဘၣ်": 6357,
      "လၢအအိၣ်ဖဲ": 6358,
      "ဟ့ၣ်လီၤဆီ": 6359,
      "ထီၣ်ဝဲဒ်": 6360,
      "ဃုာ်တၢ်ဒီး": 6361,
      "ပှဲၤဒီးတၢ်သူၣ်": 6362,
      "မ့မ့ၢ်ပှၤ": 6363,
      "တဖၣ်လၢဝ့ၢ်": 6364,
      "ဒီးစီၤကၤ": 6365,
      "အဖိခွါခံဂၤ": 6366,
      "အဖိခွါဝဲၢ်ကိ": 6367,
      "ခီဖျိတၢ်မၤ": 6368,
      "ပျဲပ": 6369,
      "ဖးဒိၣ်လီၤ": 6370,
      "ဖးဒိၣ်န့ၣ်လီၤ": 6371,
      "ဖးဒိၣ်တဖျၢၣ်": 6372,
      "ဖးဒိၣ်မဲးဒံးထၢၣ်ရ့နယၢၣ်": 6373,
      "ဘီလီၤမုၢ်": 6374,
      "တဘျီတခီၣ်": 6375,
      "လၢအဝဲသ့ၣ်အမဲာ်ညါ": 6376,
      "အဂၤတဆံ": 6377,
      "အဂၤတကလး": 6378,
      "တဖၣ်ဒီးစံးဝဲ": 6379,
      "လၢပသး": 6380,
      "တနံၤညါအံၤ": 6381,
      "မၤတၢ်လၢတၢ်": 6382,
      "စံၣ်ညီၣ်ဃၣ်": 6383,
      "မ်ပှၤလၢအ": 6384,
      "စၢ်လီၤ": 6385,
      "ဖံးခိၣ်": 6386,
      "တူၢ်ဒိၣ်": 6387,
      "ဘူးအတံၢ်": 6388,
      "အဒူၣ်တဖၣ်": 6389,
      "အဒူၣ်အထၢ": 6390,
      "နံၣ်အါလါ": 6391,
      "ကီၢ်အံၣ်စရ့လးဧၢ": 6392,
      "ပှၤကဘီ": 6393,
      "တဘ့ၣ်လီၤ": 6394,
      "ရၤမိး": 6395,
      "ဒိကနၣ်တၢ်": 6396,
      "အဘု": 6397,
      "ယသးလၢယက": 6398,
      "စူၤလီၤ": 6399,
      "အစုထွဲ": 6400,
      "သုသးလၢတၢ်": 6401,
      "မၤဝဲန့ၣ်": 6402,
      "မၤဝဲန့ၣ်လီၤ": 6403,
      "ကိၢ်ဘၣ်ဂီၤ": 6404,
      "ဃ့ၢ်ဝဲ": 6405,
      "ဒ့ၣ်ပာ်": 6406,
      "ဝံၤအလီၢ်ခံန့ၣ်လီၤ": 6407,
      "ဘုလီၢ်": 6408,
      "ဝဲဆူညါ": 6409,
      "ဒီးပီၣ်လဲၣ်": 6410,
      "သ့ၣ်နီၣ်ထီၣ်တၢ်": 6411,
      "သုးမုၢ်သံၣ်ဘိ": 6412,
      "ကွံာ်ဝဲန့ၣ်လီၤ": 6413,
      "ယံၤဝဲ": 6414,
      "ကယဲၢ်တၢ်ခဲလၢာ်": 6415,
      "ဆးသးဆး": 6416,
      "တတီၤန့ၣ်လီၤ": 6417,
      "ဆ့ၣ်နီၤဝဲ": 6418,
      "သုကစၢ်ယွၤန့ၣ်လီၤ": 6419,
      "အဂံၢ်ဆူၣ်": 6420,
      "ကရၢၢ်": 6421,
      "ဘၣ်အၢဘၣ်သီ": 6422,
      "ပှၤအါဒံအါဂၤ": 6423,
      "လၢတၢ်သူၣ်ခုသးခု": 6424,
      "တဖၣ်အလိၤန့ၣ်လီၤ": 6425,
      "တဂၤဂၤဧါ": 6426,
      "မၤကမၣ်မုၣ်ကမၣ်ခွါ": 6427,
      "ကဘၣ်တၢ်မၤမဲာ်ဆှး": 6428,
      "ဂီၤတၢ်ဖီၣ်တဖၣ်": 6429,
      "ဒ်သိးအကမၤ": 6430,
      "အစိၤန့ၣ်": 6431,
      "စါဘ့း": 6432,
      "မ့းၡံ": 6433,
      "စံာ်ပျီပူၤ": 6434,
      "အဂံၢ်အဘါဆူၣ်": 6435,
      "တယံာ်တမီၢ်": 6436,
      "က့ၤဆူဟံၣ်": 6437,
      "တီသးရၤ": 6438,
      "ပှၤတနီၤနီၤ": 6439,
      "ကစၢ်ယွၤလၢအမူဝဲ": 6440,
      "ဒီးတၢ်လုၢ်လီၢ်": 6441,
      "နူၢ်ဧိၤစီၤဧိၤ": 6442,
      "ပဲတရီ": 6443,
      "ဟၤကၢ်": 6444,
      "ချၢၣ်ဒၢသၣ်": 6445,
      "အခွဲးလၢ": 6446,
      "မဲာ်ထံမဲာ်နိ": 6447,
      "စဲပနီၣ်ဃာ်": 6448,
      "က့းဒနံ": 6449,
      "ဟဲဝံဟဲစိာ်": 6450,
      "နီၢ်ပနံးနၤ": 6451,
      "လံာ်ကြီကြာ်": 6452,
      "ဧိၤစ့ဧိၤ": 6453,
      "မ့းၡံအၤ": 6454,
      "es": 6455,
      "ကဖၣ်": 6456,
      "တ့း": 6457,
      "တလ့ၣ်": 6458,
      "တမုာ်": 6459,
      "တယုၢ်": 6460,
      "နဟံၣ်": 6461,
      "နဒီပုၢ်ဝဲၢ်": 6462,
      "ဘၢၣ်": 6463,
      "မီၣ်": 6464,
      "ယဖိ": 6465,
      "ယဟ့ၣ်": 6466,
      "ယအဲၣ်": 6467,
      "ယဖိမုၣ်": 6468,
      "ယကစံးထီၣ်ပတြၢၤ": 6469,
      "ဟူၤ": 6470,
      "အကမၤ": 6471,
      "အစီ": 6472,
      "အန့ၣ်တက့ၢ်": 6473,
      "အမ့ၢ်တၢ်": 6474,
      "အဘျီ": 6475,
      "အမူဒါ": 6476,
      "အဖျီၣ်": 6477,
      "အန့ဆၢၣ်": 6478,
      "တၢ်ခုၣ်": 6479,
      "ဒီဂၤ": 6480,
      "ဒီကီၢ်": 6481,
      "လီၤပျီ": 6482,
      "ဒီးမ့ၢ်ပှၤ": 6483,
      "ဒီးပိာ်ခွါ": 6484,
      "ဒီးဒုးနဲၣ်": 6485,
      "ဒီးဖဲယ": 6486,
      "ဒီးစီၤယိၤၡူ": 6487,
      "ဒီးသ့ၣ်စၤယံးအသိ": 6488,
      "န့ၣ်သု": 6489,
      "ဘၣ်တနံၤန့ၣ်": 6490,
      "စီၤထီၣ်": 6491,
      "စီၤကဒါ": 6492,
      "စီၤစး": 6493,
      "စီၤဖ့": 6494,
      "အိၣ်ဒၣ်": 6495,
      "အိၣ်ဂၢၢ်ဆိးကျၢၤ": 6496,
      "မ့ၢ်သ့": 6497,
      "မ့ၢ်ခရံာ်": 6498,
      "မ့ၢ်နက": 6499,
      "မ့ၢ်မနုၤလဲၣ်": 6500,
      "သးစၢၢ်ဆၢ": 6501,
      "အဝဲၢ်": 6502,
      "အဝဲဘၣ်": 6503,
      "အဝဲဟ့ၣ်": 6504,
      "အီၤအသိး": 6505,
      "သုတၢ်မၤ": 6506,
      "သုမ့ၢ်ပှၤ": 6507,
      "ယွၤဒုး": 6508,
      "ဒ်လာ်": 6509,
      "ပူၤကျဲ": 6510,
      "အဝဲသ့ၣ်စံး": 6511,
      "အဝဲသ့ၣ်မၤတၢ်": 6512,
      "ဖဲဆၢကတီၢ်": 6513,
      "လၢတၢ်သး": 6514,
      "စံးတၢ်အံၤ": 6515,
      "အတၢ်ထံၣ်": 6516,
      "အတၢ်ဆါ": 6517,
      "အတၢ်နၢမူ": 6518,
      "ယၤရၤဘၣ်": 6519,
      "အပူၤဒ်": 6520,
      "ဘၣ်တၢ်ဟ့ၣ်လီၤ": 6521,
      "ပာ်အသး": 6522,
      "ပာ်ထီၣ်အီၤ": 6523,
      "ပာ်တဒၢ": 6524,
      "ပာ်တီပာ်လိၤ": 6525,
      "တ့ၢ်စီၤမိၤၡ့": 6526,
      "လုၢ်တၢ်အဒိၣ်": 6527,
      "အဂီၢ်န့ၣ်လဲၣ်": 6528,
      "ဒီးတၢ်ခဲလၢာ်": 6529,
      "ဒီးအမံၤ": 6530,
      "လၢယကဘၣ်": 6531,
      "လၢယဟ့ၣ်လီၤ": 6532,
      "လၢယမၤလိာ်": 6533,
      "ဒ်သိးယကမၤ": 6534,
      "ထံလၢ": 6535,
      "ထံလီၤ": 6536,
      "ထံဒၢ": 6537,
      "ဖးလဲၢ်": 6538,
      "အအိၣ်ဘၣ်": 6539,
      "ဟံၣ်ဒူၣ်ဃီထၢ": 6540,
      "ဒဲးကံၣ်": 6541,
      "ဘါထီၣ်တၢ်": 6542,
      "လၢနအိၣ်": 6543,
      "လၢနမၤတ့ၢ်": 6544,
      "အကသ့ၣ်ယီၤ": 6545,
      "တဲဘၣ်တၢ်": 6546,
      "လၢအဝဲအတၢ်": 6547,
      "လၢသုဝဲ": 6548,
      "ယ့ၣ်ၡူးစံးဆၢအီၤ": 6549,
      "ဝံတၢ်နါ": 6550,
      "ဟီၣ်ခိၣ်ဒီး": 6551,
      "ဟီၣ်ခိၣ်ညၣ်ထ့ၣ်": 6552,
      "လၢပှၤခဲလၢာ်": 6553,
      "လၢပှၤဟီၣ်ခိၣ်ဖိ": 6554,
      "တဂ့ၤန့ၣ်တက့ၢ်": 6555,
      "ထီၣ်ဝဲဒီး": 6556,
      "တမ့ၢ်ဒ်န့ၣ်ဘၣ်": 6557,
      "အၢဝဲသီ": 6558,
      "ဘၣ်ဆၣ်ဒီးကစၢ်ယွၤ": 6559,
      "ဃ့သွဲ": 6560,
      "ကူၣ်အၢ": 6561,
      "လါအဲး": 6562,
      "အဂၤခဲလၢာ်": 6563,
      "လိၣ်ဘၣ်အီၤ": 6564,
      "ဒၣ်ဝဲန့ၣ်": 6565,
      "တၤဟိ": 6566,
      "လံၤစါဘ့း": 6567,
      "ပိာ်မုၣ်သးစၢ်": 6568,
      "ပၢတ့ၢ်": 6569,
      "တဲဘၣ်သု": 6570,
      "ဒီးနဲ": 6571,
      "အဒူၣ်ဖိထၢဖိတဖၣ်": 6572,
      "ထံၣ်ဘၣ်လၢ": 6573,
      "ဆိကမိၣ်ထံ": 6574,
      "ဆၢထၢၣ်လၢ": 6575,
      "တဖျၢၣ်အပူၤ": 6576,
      "ပာ်လီၤအသးလၢ": 6577,
      "တဘ့ၣ်လၢအ": 6578,
      "ခဲအံၤဒီးဆူညါ": 6579,
      "ဘျုးတအိၣ်ဘၣ်": 6580,
      "လၢမုၢ်ဂီၤ": 6581,
      "လၢမုၢ်ဆ့ၣ်ထီၣ်": 6582,
      "ဒီးကုၢ်": 6583,
      "နီတမံၤလၢၤဘၣ်": 6584,
      "အဟံၣ်ဖိဃီဖိတဖၣ်": 6585,
      "အဟံၣ်အဃီ": 6586,
      "တၢ်အီၣ်ဆၣ်အလီၢ်": 6587,
      "ပှၤကညီအတၢ်": 6588,
      "အသးဒီးအီၤ": 6589,
      "တဆံဃိး": 6590,
      "တ့ၢ်လံဝဲ": 6591,
      "ကံးရယး": 6592,
      "မၤသးဒ်န့ၣ်": 6593,
      "လီၤတဲာ်ကွံာ်": 6594,
      "ဒ်သိးကဒုး": 6595,
      "စံဃိၣ်": 6596,
      "ဒီးပဒိၣ်": 6597,
      "ကတိၤတၢ်ဒီးအဝဲသ့ၣ်": 6598,
      "ထုးန့ၢ်": 6599,
      "ပှၤတမှံၤ": 6600,
      "ဖီၣ်ဃာ်": 6601,
      "ပာ်ထီၣ်အီၤလၢ": 6602,
      "စီၤဘ့": 6603,
      "တၢ်အဲၣ်ဂၢၢ်ကျၢၤ": 6604,
      "တူၢ်လိာ်အီၤ": 6605,
      "ၡူလၣ်": 6606,
      "ကစၢ်ယွၤအတၢ်သိၣ်တၢ်သီ": 6607,
      "လူၤဃု": 6608,
      "တချုးဒံးဘၣ်": 6609,
      "ဆ့ၣ်နီၤဝဲလၢ": 6610,
      "လီၤဆီလိာ်အသး": 6611,
      "ဟါမၢ်": 6612,
      "ကီၤဒိၣ်": 6613,
      "နီတဘျီလၢၤဘၣ်": 6614,
      "လုၢ်အပှ့ၤ": 6615,
      "တဘျီဃီလီၤ": 6616,
      "အတီၢ်ပူၤန့ၣ်လီၤ": 6617,
      "အနံၣ်ခံဆံ": 6618,
      "စီၤအဘံယၤ": 6619,
      "ကရိ": 6620,
      "တဖၣ်အကျါန့ၣ်လီၤ": 6621,
      "ဒီပုၢ်ဝဲၢ်ခွါတဖၣ်": 6622,
      "ပဝဲစ့ၢ်ကီး": 6623,
      "ယါကံၣ်": 6624,
      "တၢ်လုၢ်တၢ်ပာ်တဖၣ်": 6625,
      "အိၣ်ခိးကွၢ်လၢ်": 6626,
      "ကျဲၤလီၤ": 6627,
      "လဲၢ်ဝဲ": 6628,
      "ကြိၣ်": 6629,
      "အတၢ်ဒဲးဘးတဖၣ်": 6630,
      "ဒီးတၢ်သူၣ်ဖှံသးညီ": 6631,
      "လၢသုဂီၢ်လီၤ": 6632,
      "က့ၢ်အဂီၤ": 6633,
      "ယွၤအသးန့ၣ်လီၤ": 6634,
      "အကပၤန့ၣ်လီၤ": 6635,
      "ယွၤပၢဘၣ်တၢ်ခဲလၢာ်ကစၢ်ကတိၤလံတၢ်လံ": 6636,
      "ဝ့ရိၣ်": 6637,
      "အကျဲစၢၤန့ၣ်လီၤ": 6638,
      "ဟီထီၣ်ကွံာ်တၢ်နါ": 6639,
      "တကထိအခိၣ်": 6640,
      "ပှၤအုၣ်က့ၤခီၣ်က့ၤ": 6641,
      "ထီၣ်ဝဲဒၣ်န့ၣ်လီၤ": 6642,
      "ကဲထီၣ်စီၤပၤလၢအလီၢ်န့ၣ်လီၤ": 6643,
      "ထွံၣ်မံၤ": 6644,
      "တဆီဘၣ်တဆီ": 6645,
      "အစိၤစိၤအဃၣ်ဃၣ်လီၤ": 6646,
      "ဘျဲးအီၣ်": 6647,
      "တၤဆှုၣ်တၤမဲ": 6648,
      "ပှၤတဂၤဂ့ၤတဂၤဂ့ၤလၢအ": 6649,
      "တကတီၢ်ဃီ": 6650,
      "စီၤကဃး": 6651,
      "ဂံၢ်နဘါ": 6652,
      "စီၤအၤမနိၣ်": 6653,
      "ဘူၣ်ဘျီၣ်လၢအမ့ၢ်တၢ်ဘါလီၢ်": 6654,
      "တဘျီဝံၤတဘျီ": 6655,
      "စီၤၡမါယၤ": 6656,
      "ဒွံကျိာ်": 6657,
      "ဒ့ၣ်ပာ်ကမၣ်": 6658,
      "ဒဲးကံၣ်ဒဲးဝ့ၤ": 6659,
      "ကကဲ": 6660,
      "ကသူ": 6661,
      "ကအုၣ်က့ၤခီၣ်က့ၤ": 6662,
      "ဂါ": 6663,
      "စ်": 6664,
      "ဆုး": 6665,
      "နအဲၣ်ဒိး": 6666,
      "ပကီၢ်": 6667,
      "ပဲာ်": 6668,
      "ပသီ": 6669,
      "ဘိၤ": 6670,
      "ယလဲၤ": 6671,
      "ယဆိး": 6672,
      "ယဃုထၢ": 6673,
      "ယဆှၢလီၤ": 6674,
      "ယပျဲၢ်ယဘီၣ်": 6675,
      "ဝံၢ်": 6676,
      "အာ်": 6677,
      "အနီ": 6678,
      "အနၢၤ": 6679,
      "အဝံတဖၣ်": 6680,
      "အပီးအလီ": 6681,
      "ဧူး": 6682,
      "ဧိၢ်": 6683,
      "၄၀": 6684,
      "ၣ်ဘျးသဒၢ": 6685,
      "တၢ်တဂၤ": 6686,
      "တၢ်ကျဲၤ": 6687,
      "တၢ်ကမၤအသး": 6688,
      "တၢ်ပီးတၢ်လီ": 6689,
      "တၢ်ခ့တၢ်ပှၤ": 6690,
      "တၢ်မုၢ်တၢ်ဘိ": 6691,
      "ဒီဘိ": 6692,
      "လီၤကမၢကမၣ်": 6693,
      "ဒီးခရံာ်": 6694,
      "ဒီးဃ့ၢ်": 6695,
      "ဒီးလၢခံ": 6696,
      "ဒီးထး": 6697,
      "ဒီးပိာ်မုၣ်န့ၣ်": 6698,
      "န့ၣ်လၢ": 6699,
      "န့ၣ်အိၣ်ဝဲ": 6700,
      "န့ၣ်တမ့ၢ်": 6701,
      "ဘၣ်မး": 6702,
      "ဘၣ်တိၢ်": 6703,
      "ပှၤဘံၣ်ယၤမံၣ်": 6704,
      "ပှၤဧ့ၤဘြံၤ": 6705,
      "ပှၤဃဲသဲမုၣ်": 6706,
      "မၤတၢ်အၢၣ်လီၤအီလီၤ": 6707,
      "မၤတၢ်အၢတၢ်သီ": 6708,
      "မၤအၢမၤနး": 6709,
      "မၤပျံၤမၤဖုး": 6710,
      "မၤက့းဒနံ": 6711,
      "ံးလကံယၤ": 6712,
      "လၢအသ့ၣ်ညါ": 6713,
      "လၢအနံၣ်": 6714,
      "ထီၣ်အသးလၢ": 6715,
      "မ့ၢ်တၢ်အ": 6716,
      "မ့ၢ်စ့ၢ်ကီး": 6717,
      "သးဆၢ": 6718,
      "သးဂဲၤ": 6719,
      "အဝဲမၢ": 6720,
      "အဝဲမၤတ့ၢ်": 6721,
      "အဝဲအဲၣ်ဒိး": 6722,
      "သ့ၣ်ပှၢ်": 6723,
      "သ့ၣ်စူၣ်ပ": 6724,
      "ံၣ်အု": 6725,
      "ယွၤလၢ": 6726,
      "ယွၤကတိၤ": 6727,
      "ဒ်ပှၤလၢအ": 6728,
      "ပူၤတက့ၢ်": 6729,
      "လဲလိာ်အသး": 6730,
      "အဝဲသ့ၣ်မၤသံ": 6731,
      "မုၢ်မုၢ်": 6732,
      "ဖဲစီၤစီလူး": 6733,
      "လၢတၢ်ဟ့ၣ်": 6734,
      "အတၢ်စံးဆၢ": 6735,
      "အတၢ်ထိၣ်": 6736,
      "အတၢ်ပီးတၢ်လီ": 6737,
      "အတၢ်ပၢၤခိၣ်": 6738,
      "ယၤတဂၤဧိၤ": 6739,
      "ဆူဟီၣ်ခိၣ်": 6740,
      "အပူၤအသိး": 6741,
      "ဘၣ်တၢ်ဟ့ၣ်": 6742,
      "ဘၣ်တၢ်စံးထီၣ်ပတြၢၤ": 6743,
      "ပာ်အီၤဒ်": 6744,
      "ကျၣ်": 6745,
      "အဂီၢ်လဲၣ်": 6746,
      "အဃိၢ်": 6747,
      "လဲၤထီၣ်က့ၤလီၤ": 6748,
      "နၤလၢနက": 6749,
      "အသိးအကျါ": 6750,
      "သံတဖၣ်": 6751,
      "ကိးထံၣ်": 6752,
      "နီၢ်ဘၤ": 6753,
      "ဒီးအက": 6754,
      "ဒီးအဂံၢ်အဘါ": 6755,
      "ဒီးအခ့အပှၤ": 6756,
      "လၢယတ": 6757,
      "လၢယပူၤ": 6758,
      "လၢယတၢ်သး": 6759,
      "ထံအကီၢ်": 6760,
      "ထံလုၣ်ဘၢ": 6761,
      "ပှၤအဆိကတၢၢ်": 6762,
      "ပှၤအမၢး": 6763,
      "ဝဲလၢကျဲဒ်လဲၣ်": 6764,
      "ဖှ့": 6765,
      "တမံၤလၢတၢ်": 6766,
      "တမံၤဧိၤ": 6767,
      "ဒီးပှၤမၤ": 6768,
      "စီၤအၣ်": 6769,
      "ဘါၡၤ": 6770,
      "လၢနံၣ်": 6771,
      "အလီၢ်တအိၣ်": 6772,
      "ဒံးဧါ": 6773,
      "ကဘၣ်မၤတၢ်": 6774,
      "အကီ": 6775,
      "တဲနၢ်ပၢၢ်": 6776,
      "ဧိၤတဖၣ်": 6777,
      "တဂ့ၤလီၤ": 6778,
      "ကယဲၢ်တၢ်လၢ": 6779,
      "သုးကျဲၤ": 6780,
      "တမ့ၢ်ဘၣ်တၢ်": 6781,
      "နံၤယၤ": 6782,
      "ခီၣ်ဖံး": 6783,
      "ကျဲတဘိ": 6784,
      "တၢ်လုၢ်ထီၣ်": 6785,
      "အီာ်": 6786,
      "အီထံ": 6787,
      "လၢၤတဂ့ၤ": 6788,
      "တၤမၢ်": 6789,
      "မ်ယ": 6790,
      "အပှၤဂီၢ်မုၢ်လၢ": 6791,
      "မၤသံဘၣ်": 6792,
      "တူၢ်ဘၣ်လၢ": 6793,
      "သၢကလး": 6794,
      "ဃၣ်က့ၤ": 6795,
      "ပျၢ်လၢ်": 6796,
      "မ့ၣ်အူအီၣ်": 6797,
      "ဒီးအဝဲစံးဘၣ်": 6798,
      "အမံၤလၢစီၤ": 6799,
      "ဒိကနၣ်ယၤ": 6800,
      "လၢအကပၤ": 6801,
      "တအိၣ်ဘၣ်နီတမံၤဘၣ်": 6802,
      "ပၢၢ်တုၤ": 6803,
      "လွံၢ်ကထိ": 6804,
      "လာ်ဆှိး": 6805,
      "အ့လးအဖိခွါ": 6806,
      "အလီၢ်ခံန့ၣ်လီၤ": 6807,
      "အီၤလၢတၢ်သံ": 6808,
      "အီၤလၢတၢ်ဒုး": 6809,
      "တခါလၢအ": 6810,
      "လံာ်စီဆှံန့ၣ်": 6811,
      "လၢဟီၣ်ခိၣ်ဒီဘ့ၣ်ညါ": 6812,
      "ဒီးတချုး": 6813,
      "မတၤတဂၤလဲၣ်": 6814,
      "ကတဲာ်ကတီၤအသး": 6815,
      "စီၤဃံးလကံယၤ": 6816,
      "လၢကျဲစၢၤ": 6817,
      "ဒုးနဲၣ်ဖျါထီၣ်": 6818,
      "ဖဲအံၤတက့ၢ်": 6819,
      "ဘၣ်မနုၤအဃိလဲၣ်": 6820,
      "ဒွး": 6821,
      "တၢ်ဂ့ၢ်အဘျဲၣ်": 6822,
      "သူၣ်ထီၣ်တၢ်လုၢ်ဟံၣ်": 6823,
      "တံၤအီာ်": 6824,
      "လဲၤထီၣ်ဒုးတၢ်": 6825,
      "ကစံၣ်တဲၤတဲ": 6826,
      "ဘံၣ်တၢ်ဘၢ": 6827,
      "ဒုးအိၣ်ထီၣ်ဝဲ": 6828,
      "တြီဆၢ": 6829,
      "တၢ်အၢၣ်လီၤအီလီၤအတလါ": 6830,
      "စီၤယံးဖ": 6831,
      "န့ၣ်ကမ့ၢ်": 6832,
      "တစဲးဖိ": 6833,
      "မ့ၢ်မတၤတဂၤ": 6834,
      "တိာ်ဧိၤတာ်ဧိၤ": 6835,
      "လၢတၢ်မၤလၤကပီၤ": 6836,
      "ဒၣ်တၢ်ဒိၣ်": 6837,
      "အနံၤန့ၣ်လီၤ": 6838,
      "အသုးမုၢ်သံၣ်ဘိ": 6839,
      "ဃံၤဝံ": 6840,
      "အတြီၤ": 6841,
      "လၢကစၢၢ်ကလိ": 6842,
      "တကယၤခံဆံ": 6843,
      "အိၣ်ဒီးအဖိခွါလွံၢ်ဂၤ": 6844,
      "နီၤဖးလီၤ": 6845,
      "လၢကီၢ်ယူဒၤအစီၤပၤ": 6846,
      "ဟုၣ်တၢ်": 6847,
      "အတၢ်လုၢ်တၢ်ပာ်": 6848,
      "စီၤယိဃၤနၣ်": 6849,
      "ပသ့ၣ်ညါဘၣ်လၢ": 6850,
      "က့ၤဆူအဟံၣ်": 6851,
      "ယဲဒၣ်အံၤယမ့ၢ်ယွၤ": 6852,
      "မ့ၣ်အူဒၢအလီၢ်": 6853,
      "ခွံဆံ": 6854,
      "ဆူဝ့ၢ်ယရူၤၡလ့ၣ်န့ၣ်လီၤ": 6855,
      "ဘၣ်တၢ်စံၣ်ညီၣ်ဃါမနၤလီၤ": 6856,
      "အဘူးအလဲ": 6857,
      "အတၢ်အီၣ်ဆၣ်အလီၢ်": 6858,
      "ဃ့ၢ်ပူၤဖျဲးအသး": 6859,
      "ရူၤဘ့ၣ်အဒူၣ်": 6860,
      "စီၤဧိၤဘ့း": 6861,
      "နီၢ်အ့း": 6862,
      "နီၢ်အံၣ်အု": 6863,
      "ယဒုၣ်ယဒါတဖၣ်": 6864,
      "ပကစၢ်ယ့ၣ်ၡူးခရံာ်": 6865,
      "ဘၣ်ဆိၣ်ဂ့ၤဝဲလီၤ": 6866,
      "လဲၤတၢ်လၢကျဲ": 6867,
      "ဟုးဆါ": 6868,
      "ဘ့ၢ်ၡဘၤ": 6869,
      "ကွဲးနီၣ်ကွဲးဃါအီၤလၢ": 6870,
      "စီၤဧူးစံယါ": 6871,
      "ဖံၤနဃၣ်": 6872,
      "လုၢ်အီၣ်လုၢ်အီ": 6873,
      "ပစံးဒၣ်ကလိာ်": 6874,
      "စီၤမံၤကါယၤ": 6875,
      "ခါလီၤအကလုၢ်": 6876,
      "နစၤရ့းဖိ": 6877,
      "စီၤဘၢ်နါဘၤ": 6878,
      "ကစၢ်မုၣ်အၡ့ရၤ": 6879,
      "စီၤအ့ဘယၤသၢ်": 6880,
      "er": 6881,
      "ကုာ်": 6882,
      "ကထံၣ်": 6883,
      "ကဆှၢ": 6884,
      "ကဟံးန့ၢ်": 6885,
      "ကပူၤဖျဲး": 6886,
      "ဂဲာ်": 6887,
      "ညွ": 6888,
      "တမ့ၢ်တၢ်လၢအ": 6889,
      "ဒ့း": 6890,
      "ပနာ်": 6891,
      "ပတၢ်နာ်": 6892,
      "မယၤ": 6893,
      "မဲးစ": 6894,
      "ယမိၢ်": 6895,
      "ယမၤလိာ်": 6896,
      "ရာ်": 6897,
      "ရနီၣ်": 6898,
      "လယး": 6899,
      "အမူ": 6900,
      "အဒံး": 6901,
      "အစၢၤ": 6902,
      "အဘိ": 6903,
      "အပျီ": 6904,
      "အစှၤ": 6905,
      "အလဲၢ်": 6906,
      "အဝၢ်ဘးခီ": 6907,
      "အထိးနါ": 6908,
      "လၢခိ": 6909,
      "လၢစီၤပီလူး": 6910,
      "တၢ်ကျဲ": 6911,
      "တၢ်ပှ့ၤ": 6912,
      "တၢ်တမံၤဃီ": 6913,
      "တၢ်ယူးယီၣ်": 6914,
      "ဒီကတီၢ်": 6915,
      "ဒီးတမ့ၢ်ဘၣ်": 6916,
      "န့ၣ်တဘၣ်": 6917,
      "ဝဲတုၤဒၣ်လဲာ်": 6918,
      "ဘၣ်တဂၤ": 6919,
      "ဘၣ်ယၤ": 6920,
      "ဘၣ်တဘၣ်": 6921,
      "ီၣ်ထီၣ်ကွံာ်": 6922,
      "ပှံာ်": 6923,
      "ပှၤသ့": 6924,
      "ပှၤကူၣ်သ့": 6925,
      "ပှၤတၢ်မၢဖိတဖၣ်": 6926,
      "တဖၣ်လံ": 6927,
      "မၤဃၣ်": 6928,
      "မၤပူၤမၤဖျဲး": 6929,
      "လၢအကစၢ်": 6930,
      "လၢအအီၣ်": 6931,
      "လၢအကျါ": 6932,
      "အိၣ်ထီၣ်ဝဲ": 6933,
      "အိၣ်သါ": 6934,
      "မ့ၢ်ပှၤအခိၣ်": 6935,
      "အဝဲသံကွၢ်": 6936,
      "အီၤလၢယ": 6937,
      "အီၤတဖၣ်န့ၣ်လီၤ": 6938,
      "အီၤလၢအက": 6939,
      "ဒ်ပှၤလုၢ်တၢ်အခိၣ်": 6940,
      "အဝဲသ့ၣ်လၢအ": 6941,
      "အဝဲသ့ၣ်ထံၣ်": 6942,
      "အဝဲသ့ၣ်ဟံးန့ၢ်": 6943,
      "လၢတၢ်ဆၢကတီၢ်": 6944,
      "လၢတၢ်မၤနၢၤ": 6945,
      "စံးပတြၢၤ": 6946,
      "အတၢ်စူၢ်တၢ်နာ်": 6947,
      "ခိၣ်ကဲ": 6948,
      "ဆူယွၤအတၢ်လုၢ်ဟံၣ်": 6949,
      "ဆူကစၢ်ယွၤအအိၣ်": 6950,
      "ကစၢ်လၢအ": 6951,
      "ကွံာ်လံ": 6952,
      "ဘၣ်တၢ်သ့ၣ်ညါ": 6953,
      "ကျံး": 6954,
      "န့ၢ်အီၤလၢ": 6955,
      "ဝ့ၢ်စံယိၣ်": 6956,
      "ဝ့ၢ်ယရံၤဃိ": 6957,
      "ဝ့ၢ်ထါယၢၣ်": 6958,
      "တၢ်အခွဲးအယာ်": 6959,
      "ဟ့ၣ်ထီၣ်တၢ်": 6960,
      "ဟ့ၣ်ဆူၣ်ထီၣ်": 6961,
      "ဒီးတၢ်ကတိၤ": 6962,
      "ဒီးတၢ်နၢမူ": 6963,
      "ဒုးဂဲၤဆၢထၢၣ်က့ၤ": 6964,
      "ခံကတၢၢ်": 6965,
      "ဒီးအပှၤဂီၢ်မုၢ်": 6966,
      "ဒီးအစု": 6967,
      "ဒီးအၢၣ်လီၤ": 6968,
      "ဒီးအဒီပုၢ်ဝဲၢ်": 6969,
      "တုၤမုၢ်မဆါတနံၤအံၤ": 6970,
      "ဘၣ်ဆၣ်ခဲအံၤ": 6971,
      "သီတနၤကျၢၤ": 6972,
      "ဟးဖျိး": 6973,
      "ဖိတဖၣ်က": 6974,
      "ဒီးပှၤလၢ": 6975,
      "ဒီးပှၤတဂၤန့ၣ်": 6976,
      "ဒီးပှၤလ့ၤဝံဖိတဖၣ်": 6977,
      "အဂ့ၢ်မ့ၢ်": 6978,
      "ကဘၣ်လဲၤ": 6979,
      "အကံကၢ်": 6980,
      "ကနံၤ": 6981,
      "ဝံၤလံ": 6982,
      "တီဝဲလီၤ": 6983,
      "ယ့ၣ်ၡူးန့ၣ်လီၤ": 6984,
      "မ့ၢ်တၢ်တမံၤဃီ": 6985,
      "တအိၣ်ဝဲ": 6986,
      "တအိၣ်လီၤတဲာ်": 6987,
      "အဒဲၣ်မုၣ်": 6988,
      "ယကဆိၣ်ဂ့ၤ": 6989,
      "့းရနီၣ်": 6990,
      "ဘူၣ်တၢ်": 6991,
      "ကယဲၢ်တၢ်အဂၤ": 6992,
      "ဘ့ၣ်လီၤ": 6993,
      "ဟ့ၣ်လီၤယၤ": 6994,
      "ဒီးစီၤဃ": 6995,
      "ထၢထၢ": 6996,
      "ကပ့းရနီၣ်": 6997,
      "ဘၣ်ဆၣ်ဒီးသု": 6998,
      "အဝဲဒၣ်စံးဘၣ်": 6999,
      "ကူၣ်လိာ်": 7000,
      "အဂၤတဖၣ်လၢ": 7001,
      "လၢပတၢ်": 7002,
      "မံဃုာ်ဒီး": 7003,
      "တဖၣ်အံၤန့ၣ်": 7004,
      "အပှၤဟံၣ်ဖိ": 7005,
      "အပှၤဂီၢ်မုၢ်န့ၣ်လီၤ": 7006,
      "လိန့ၢ်": 7007,
      "ဝဲလီၤထူလီၤယိာ်": 7008,
      "ထံၣ်ဘၣ်အီၤ": 7009,
      "ဆိကမိၣ်ကွၢ်": 7010,
      "ထီဒါအဝဲသ့ၣ်": 7011,
      "ဝဲဒၣ်ဘၣ်": 7012,
      "ပှၤကံး": 7013,
      "ထီၣ်က့ၤဝဲ": 7014,
      "မူခိၣ်ဖီ": 7015,
      "မ့ၢ်ပှၤလုၢ်တၢ်အခိၣ်": 7016,
      "အိၣ်ဒီးနၤ": 7017,
      "ကစၢၢ်စံယိၣ်": 7018,
      "လွံၢ်ဒု": 7019,
      "တၢ်လၢအမၤအသး": 7020,
      "လၢၢ်ဘ့ၣ်ဘၣ်": 7021,
      "အစုပူၤဒီး": 7022,
      "အိၣ်ဒီးတၢ်စိတၢ်ကမီၤ": 7023,
      "ဒူဒူ": 7024,
      "သုသးဒီး": 7025,
      "ခံဂၤလၢာ်": 7026,
      "ဝးဝး": 7027,
      "ဒ်တၢ်ဟ့ၣ်": 7028,
      "အီၤဒီးစံး": 7029,
      "ဘှီထီၣ်က့ၤ": 7030,
      "ဒ့ၣ်စၢၤ": 7031,
      "ဧၤမၣ်": 7032,
      "ဝံၣ်သးဆၢ": 7033,
      "ဆူးကဲၤထီၣ်": 7034,
      "လဲၤနုာ်ဝဲဆူ": 7035,
      "ယအိၣ်ကတဲာ်ကတီၤ": 7036,
      "ကတိၤတၢ်ဒီးပှၤ": 7037,
      "နီတစုဘၣ်န့ၣ်လီၤ": 7038,
      "ထိးဘၣ်တၢ်": 7039,
      "ထံကီၢ်တဘ့ၣ်": 7040,
      "သနံ": 7041,
      "နီၢ်ကစၢ်ဒၣ်သုဝဲ": 7042,
      "ရ့လိာ်": 7043,
      "ဘျၢတၢ်": 7044,
      "တၢ်လုၢ်ဟံၣ်အဂၢၤ": 7045,
      "အခီၣ်ထံးကတၢၢ်": 7046,
      "ကိရ့ၣ်": 7047,
      "မံးလာ်": 7048,
      "ဘိးကဒါ": 7049,
      "ဃါမနၤ": 7050,
      "တၢ်ဆၢကတီၢ်လၢ": 7051,
      "ခံးကျါ": 7052,
      "ဒီးကယဲၢ်ပှၤဂီၢ်မုၢ်ခဲလၢာ်": 7053,
      "အထံထီၣ်ပၢၢ်": 7054,
      "အန့ၣ်ဝံၤဒီးအဝဲသ့ၣ်": 7055,
      "ပှၤအါကလုာ်": 7056,
      "လဲၢ်ထီၣ်": 7057,
      "ပျံၤတၢ်ဖုးတၢ်": 7058,
      "ကိၤရး": 7059,
      "အိၣ်ဖျဲၣ်ထီၣ်ဝဲ": 7060,
      "စီၤစုၤ": 7061,
      "လီၤကဒွံကျိာ်": 7062,
      "အဃၢၤအဃိၢ်": 7063,
      "ဒိၣ်ဒိၣ်မုၢ်မုၢ်": 7064,
      "အဆိကတၢၢ်န့ၣ်": 7065,
      "တဒူၣ်ဘၣ်": 7066,
      "တယံာ်ဘၣ်ဒီး": 7067,
      "တယံာ်ဘၣ်န့ၣ်": 7068,
      "ထၢဖှိၣ်က့ၤ": 7069,
      "လၢပဂီၢ်လီၤ": 7070,
      "စီၤကၤလ့း": 7071,
      "ကွၢ်ဃီၤတၢ်ဆူ": 7072,
      "အလွဲၢ်လုးတကုာ်": 7073,
      "စီၤၡၤလူၣ်": 7074,
      "သမံသမိးကွၢ်": 7075,
      "ပှၤအမိၢ်ဖိတဖၣ်": 7076,
      "ပီၢ်ယၢ်လီၤက့ၤ": 7077,
      "နသးသမူတံၤသကိး": 7078,
      "ထွးထီၣ်ဃ့ၢ်": 7079,
      "ယံာ်ယံာ်ထၢထၢ": 7080,
      "စိဒိၣ်ကမီၤထီ": 7081,
      "ကလၢၢ်ဘၣ်": 7082,
      "တၢ်မၤကမၣ်မုၣ်ကမၣ်ခွါ": 7083,
      "ထံၣ်ကမှံကွၢ်လၢ": 7084,
      "ကိးနံၣ်ဒဲး": 7085,
      "ရယါဝ့ၣ်": 7086,
      "ကမုာ်လၤသးခု": 7087,
      "အဃၤၡဝ့ရိၣ်": 7088,
      "တူၢ်ဒိၣ်ကီၤဒိၣ်": 7089,
      "ဘၢၣ်ဖျိ": 7090,
      "ဂါစၤ": 7091,
      "နီၢ်အ့းလံၤစါဘ့း": 7092,
      "ညွံး": 7093,
      "ဂံာ်": 7094,
      "တလဲၤ": 7095,
      "တပၢၢ်": 7096,
      "တယၢ်": 7097,
      "တမူး": 7098,
      "တယီၣ်": 7099,
      "တထါ": 7100,
      "ပဒၢး": 7101,
      "ဘံၤ": 7102,
      "ဘံယၤ": 7103,
      "ယကွၢ်": 7104,
      "ယတၢ်လုၢ်ဟံၣ်": 7105,
      "ရူ": 7106,
      "သလဲ": 7107,
      "အမၤတၢ်": 7108,
      "အဆၣ်ဖိကီၢ်ဖိ": 7109,
      "အသွၣ်ခိၣ်": 7110,
      "ါဒိၣ်": 7111,
      "၃၃": 7112,
      "လၢစီၤမိၤၡ့": 7113,
      "လၢစီၤစီလူး": 7114,
      "တၢ်ဘၣ်ဃး": 7115,
      "တၢ်လူၢ်": 7116,
      "တၢ်ကူတၢ်သိး": 7117,
      "ဒီးပတ": 7118,
      "ဒီးစိာ်": 7119,
      "ဒီးဒၢနုာ်": 7120,
      "န့ၣ်ယွၤ": 7121,
      "ပှၤဒ်သိး": 7122,
      "ပှၤနီတဂၤ": 7123,
      "ပှၤစူၢ်က့ၤနာ်က့ၤ": 7124,
      "ပှၤစူၤရံဖိတဖၣ်": 7125,
      "ပှၤဖိၣ်ဃဲ": 7126,
      "တဖၣ်ဒ်သိး": 7127,
      "တဖၣ်စ့ၢ်ကီး": 7128,
      "တဖၣ်ဘၣ်တၢ်မၤ": 7129,
      "တဖၣ်အဂီၢ်န့ၣ်": 7130,
      "တဖၣ်ကဘၣ်တၢ်မၤ": 7131,
      "မၤဘျါ": 7132,
      "ံးထွဲကွၢ်ထွဲ": 7133,
      "လၢအသူၣ်": 7134,
      "လၢအကတီၢ်": 7135,
      "လၢအတၢ်မၤ": 7136,
      "လၢအအၢအသီ": 7137,
      "လၢအ့ဖရဲၣ်": 7138,
      "စီၤဟး": 7139,
      "အိၣ်ဘၣ်": 7140,
      "မ့ၢ်အအိၣ်": 7141,
      "မ့ၢ်ယတၢ်": 7142,
      "သးကတၢ": 7143,
      "အဝဲကဘၣ်တၢ်": 7144,
      "သ့ၣ်ဘ့ၣ်ဘၣ်": 7145,
      "အီၤအဃိ": 7146,
      "အီၤဒ်တၢ်": 7147,
      "သုဆိကမိၣ်": 7148,
      "ကွါ": 7149,
      "ကွီၣ်": 7150,
      "ကစဲာ်": 7151,
      "မုၢ်တနံၤအံၤ": 7152,
      "ဖဲလါ": 7153,
      "ဖဲစီၤမိၤၡ့": 7154,
      "လၢတၢ်ဘူၣ်ထီၣ်ဘါထီၣ်": 7155,
      "လၢတၢ်အိၣ်ဖှိၣ်": 7156,
      "လၢတၢ်သးတီ": 7157,
      "အတၢ်ဘၣ်": 7158,
      "အတၢ်န့ၣ်လီၤ": 7159,
      "အတၢ်ကူၣ်သ့": 7160,
      "အတၢ်ဟ့ၣ်ကူၣ်": 7161,
      "ယၤအဂီၢ်": 7162,
      "ဆူတၢ်ဒဲးဘး": 7163,
      "ဆူကီၢ်အဲၤကူပတူး": 7164,
      "အပူၤဖဲ": 7165,
      "အပူၤကွံာ်": 7166,
      "က့ၤက့ၤ": 7167,
      "ဝ့ၢ်တဖျၢၣ်": 7168,
      "ဝ့ၢ်ဘ့ၤသလ့ဃ့ၣ်": 7169,
      "တၢ်အပီးအလီ": 7170,
      "တၢ်အလုၢ်အလၢ်": 7171,
      "နၤမ့ၢ်ဂ့ၤ": 7172,
      "ကိးထီၣ်တၢ်": 7173,
      "ဒီးတၢ်န့ၣ်": 7174,
      "ဒီးတၢ်အိၣ်": 7175,
      "ဒီးတၢ်စံၣ်ညီၣ်": 7176,
      "နီၢ်လ့ၤအၤ": 7177,
      "ခဲလၢာ်အပူၤ": 7178,
      "ခဲလၢာ်လံ": 7179,
      "သူၣ်ဒိၣ်သးဖျိး": 7180,
      "ဒီးအလဲၢ်": 7181,
      "တုၤအိၣ်": 7182,
      "ဘၣ်ဆၣ်ယ": 7183,
      "ဘၣ်ဆၣ်ယွၤ": 7184,
      "ဘၣ်ဆၣ်သုတ": 7185,
      "ထံမူ": 7186,
      "ထံသုကီၢ်": 7187,
      "ထံၣ်လိာ်အသးဒီး": 7188,
      "ဖှၣ်": 7189,
      "တမံၤဆူ": 7190,
      "ကတိၤတရီတပါ": 7191,
      "ဒီးပှၤဖၤရံၤၡဲ": 7192,
      "ကဲခိၣ်ကဲ": 7193,
      "စံးဘၣ်အီၤလၢ": 7194,
      "အကိၣ်": 7195,
      "ကနူၤ": 7196,
      "လၢသုလိၤ": 7197,
      "လၢသုဃိ": 7198,
      "လၢသုသိးသုကျါ": 7199,
      "ယ့ၣ်ၡူးလၢ": 7200,
      "ယ့ၣ်ၡူးစံးဝဲ": 7201,
      "နီၣ်ဘိ": 7202,
      "ပတုာ်": 7203,
      "ကတၢၢ်လၢ": 7204,
      "ဒ်အံၤအဃိ": 7205,
      "ယကဟဲစိာ်": 7206,
      "လၢအအိၣ်ဝဲလၢ": 7207,
      "စ့ၢ်ကီးအီၤလၢ": 7208,
      "ဒိဂ့ၤတဲာ်": 7209,
      "မ့မ့ၢ်သုဝဲ": 7210,
      "ဃုဝဲ": 7211,
      "အဲၣ်ဝဲ": 7212,
      "အဲၣ်ယၤ": 7213,
      "အဲၣ်ဘၣ်အီၤ": 7214,
      "အဖိခွါစီၤယိၤၡူ": 7215,
      "ဃ့ဝဲ": 7216,
      "တၢ်လုၢ်ဒိၣ်ပှ့ၤဒိၣ်": 7217,
      "လၢတၢ်န့ၣ်အဃိယ": 7218,
      "စံးဆၢက့ၤအီၤ": 7219,
      "အဂၤတနီၤ": 7220,
      "ဆိၣ်လီၤ": 7221,
      "ကွံာ်အီၤဒ်": 7222,
      "ဒၣ်လဲာ်ဘၣ်": 7223,
      "ၡ့ဘၤ": 7224,
      "စံၣ်ညီၣ်တဲာ်": 7225,
      "အခါဖဲလဲၣ်": 7226,
      "ဘူးန": 7227,
      "လၢယွၤပၢဘၣ်တၢ်ခဲလၢာ်ကစၢ်": 7228,
      "လီတဲ": 7229,
      "ဃၣ်လိၤ": 7230,
      "ဃၣ်တရံး": 7231,
      "ပျၢ်န့ၣ်လီၤ": 7232,
      "တနီၤလီၤ": 7233,
      "စိၤတစိၤ": 7234,
      "စီၤပီၢ်": 7235,
      "အိၣ်မူဝဲ": 7236,
      "ဆီလီၤ": 7237,
      "ကစၢၢ်စီဆှံ": 7238,
      "ကစၢၢ်ကဆူး": 7239,
      "လၢမုၢ်တနံၤ": 7240,
      "ထီၣ်အီၤဆူ": 7241,
      "ဟဲစိာ်ဝဲ": 7242,
      "ဟဲစိာ်န့ၢ်အီၤ": 7243,
      "အိၣ်ဒီးတၢ်နာ်": 7244,
      "အမုၢ်တနံၤန့ၣ်": 7245,
      "အမုၢ်အိၣ်ဘှံးနံၤ": 7246,
      "နကြၢး": 7247,
      "ပၢၤဃး": 7248,
      "ယတသ့ၣ်ညါဘၣ်": 7249,
      "လ့ကအိ": 7250,
      "တဂၤန့ၣ်လဲၣ်": 7251,
      "နဲလီၤ": 7252,
      "နမ့ၢ်တ": 7253,
      "မၤစၢၤအဝဲသ့ၣ်": 7254,
      "တ့ၢ်လံယၤ": 7255,
      "ယံာ်မၤ": 7256,
      "အၤဃာ်": 7257,
      "အံၣ်စရ့လးအစီၤပၤ": 7258,
      "ကိၢ်ခါ": 7259,
      "ဘှီဂ့ၤ": 7260,
      "လၢဟီၣ်ခိၣ်အံၤ": 7261,
      "လၢအဘၣ်တၢ်ကိး": 7262,
      "အဒိၣ်အယိာ်": 7263,
      "လုၢ်ထီၣ်တၢ်လုၢ်မ့ၣ်အူ": 7264,
      "ခိးကွၢ်": 7265,
      "အန့ၣ်ဒီးအဝဲသ့ၣ်": 7266,
      "ဆဲးဖျိ": 7267,
      "ယံၤထီၣ်": 7268,
      "ဖိသၣ်န့ၣ်": 7269,
      "ပာ်ဖျါထီၣ်န့ၢ်ပှၤလၢ": 7270,
      "န့ၣ်မ့ၢ်ဒၣ်": 7271,
      "တဖၣ်အခံ": 7272,
      "ဒွဲၣ်ဧိၤ": 7273,
      "မၤန့ၢ်ဝဲ": 7274,
      "ကစၢ်ယွၤအတၢ်မၤလိာ်": 7275,
      "မၤဘၣ်တ့ၢ်": 7276,
      "ဘါထုကဖၣ်တၢ်ဆူ": 7277,
      "အ့ဖိး": 7278,
      "သတးဒီးအဝဲသ့ၣ်": 7279,
      "စီၤနဧၤမၣ်": 7280,
      "အခ့အပှၤစီၤမိၤၡ့": 7281,
      "အနံၣ်အလါ": 7282,
      "အနီၣ်ထိးဘိ": 7283,
      "တသ့ၣ်ညါဘၣ်": 7284,
      "ယူးတယီၣ်": 7285,
      "တပံၢ်": 7286,
      "ဆိၣ်အၢတမံၤ": 7287,
      "မူဒါလၢ": 7288,
      "လၢအပှဲၤဒီး": 7289,
      "လၢအပှဲၤဒီးတၢ်": 7290,
      "ပှၤအၢပှၤသီတဖၣ်": 7291,
      "ပာ်စီဆှံထီၣ်": 7292,
      "တစိၤဒၣ်": 7293,
      "ပြါ": 7294,
      "ဒီးအီၣ်ကွံာ်": 7295,
      "ဧ့ၤဘြံၤအကျိာ်": 7296,
      "ဂီၤဖံးဖါတဒု": 7297,
      "ကလီကလီလီၤ": 7298,
      "လဲၤဝဲဆူဝ့ၢ်": 7299,
      "လၢယွၤအတၢ်လုၢ်ဟံၣ်အပူၤ": 7300,
      "ဟဲလၢလဲၣ်": 7301,
      "စီၤဘၤရူး": 7302,
      "ကစံးဆၢဝဲ": 7303,
      "လၢတပှဲၤ": 7304,
      "လၢကလံၤစိးတခီ": 7305,
      "ဖံလံးပံၤ": 7306,
      "ခိၣ်ဖးလာ်ဆှိး": 7307,
      "ပှၤလုၢ်တၢ်အခိၣ်အဒိၣ်တဖၣ်": 7308,
      "မဲၣ်သူ": 7309,
      "စဲအ့ၣ်ဖိတဖၣ်": 7310,
      "ပှၤတၢ်ဒဲးဘးဖိတဖၣ်": 7311,
      "ပှၤကနၤဧၣ်ဖိ": 7312,
      "ယွၤကတိၤတၢ်ဒီးယၤလီၤ": 7313,
      "လါထီၣ်သီ": 7314,
      "စူးကွံာ်ညိကွံာ်": 7315,
      "ပှၤတစူၢ်တနာ်ယွၤအတၢ်": 7316,
      "မရၤရံၤ": 7317,
      "ကၢအိၣ်ခိး": 7318,
      "ပှၤဘၤဘူၤလိၣ်ဖိတဖၣ်": 7319,
      "လီၤတူာ်လီၤကာ်": 7320,
      "စံာ်ဧိၤပှဲၤ": 7321,
      "ကိးဆၢကိးကတီၢ်": 7322,
      "သ့ထိးဖၣ်": 7323,
      "စီၤကဒါလယၤ": 7324,
      "ဖှ့ၡံးတၤ": 7325,
      ",’": 7326,
      "ကဒၣ်": 7327,
      "ကုး": 7328,
      "ကကွၢ်": 7329,
      "ကပျီၤ": 7330,
      "ဃဲး": 7331,
      "ဒူၤ": 7332,
      "နဆိကမိၣ်": 7333,
      "ပအိၣ်မူ": 7334,
      "ပမိၢ်ပၢ်ဖံဖုလၢပျၢၤတဖၣ်": 7335,
      "ယသံကွၢ်": 7336,
      "ရမိၣ်": 7337,
      "အပှၢ်မုၢ်ကနၢ": 7338,
      "ဧ့ၢ်": 7339,
      "့ဖိး": 7340,
      "၃၁": 7341,
      "၃၅": 7342,
      "ၡံၣ်": 7343,
      "လၢစီၤယၤကိာ်": 7344,
      "တၢ်ပူၤ": 7345,
      "တၢ်ဆှံ": 7346,
      "တၢ်အဂီၢ်လီၤ": 7347,
      "တၢ်သုးမုၢ်": 7348,
      "တၢ်စုလီၢ်ခီၣ်ခိၣ်": 7349,
      "တၢ်သ့ၣ်ညါနၢ်ပၢၢ်": 7350,
      "တၢ်ခံးတၢ်နၤ": 7351,
      "တၢ်ထီကတၢၢ်": 7352,
      "တၢ်ယီၤဃ့": 7353,
      "ဒီသိၣ်": 7354,
      "ဒီမှံၤ": 7355,
      "လီၤဘှါ": 7356,
      "ဒီးလၢပှၤ": 7357,
      "ဒီးကအိၣ်": 7358,
      "ဒီးအိၣ်မူ": 7359,
      "ဒီးစံးထီၣ်ပတြၢၤ": 7360,
      "ဒီးကတဲာ်ကတီၤ": 7361,
      "ဒီးကိးထီၣ်": 7362,
      "ဒီးအိၣ်ဆိး": 7363,
      "ဒီးဃ့ဘါထုကဖၣ်": 7364,
      "ဝဲဆှံ": 7365,
      "ပှၤန့ၣ်": 7366,
      "ပှၤမဲာ်ဘျီၣ်": 7367,
      "ပှၤခိၣ်ပှၤနၢ်တဖၣ်": 7368,
      "ပှၤဟီၣ်ခိၣ်ဖိတဖၣ်": 7369,
      "တဖၣ်အအိၣ်န့ၣ်လီၤ": 7370,
      "မၤန့ၣ်": 7371,
      "မၤဘၢ": 7372,
      "လၢအကျဲ": 7373,
      "လၢအဘၣ်တၢ်မၤ": 7374,
      "စီၤလ့ၤဝံ": 7375,
      "စီၤတံၤမသ့း": 7376,
      "အိၣ်ဖဲ": 7377,
      "အိၣ်ကတီၢ်": 7378,
      "အိၣ်ဃုာ်ဒီး": 7379,
      "အိၣ်တၢ်ဆိးအလီၢ်": 7380,
      "မ့ၢ်မး": 7381,
      "မ့ၢ်နတၢ်": 7382,
      "အဝဲတဘၣ်": 7383,
      "အဝဲမၤဝဲ": 7384,
      "သုအိၣ်ဒီး": 7385,
      "သုအဲၣ်ဒိး": 7386,
      "ဖိန့ၣ်လီၤ": 7387,
      "ဖိသု": 7388,
      "ဂီၢ်ပၤ": 7389,
      "အဝဲသ့ၣ်အဂီၢ်လီၤ": 7390,
      "အဝဲသ့ၣ်မၤဝဲ": 7391,
      "မုၢ်တနံၤန့ၣ်": 7392,
      "လၢတၢ်ကိၢ်တၢ်ဂီၤ": 7393,
      "အတၢ်လီၢ်": 7394,
      "အတၢ်ကွဲးနီၣ်": 7395,
      "အတၢ်တူၢ်ဘၣ်": 7396,
      "တဂၤအသိးန့ၣ်": 7397,
      "ကွံာ်ဝဲလီၤ": 7398,
      "အသးခု": 7399,
      "က့ၤကဒီး": 7400,
      "ဘၣ်တၢ်ဒဲးဘး": 7401,
      "အဃၤစယၤ": 7402,
      "အဂီၢ်တဂ့ၤ": 7403,
      "ဝ့ၢ်ဘၤဘူၤလိၣ်": 7404,
      "ဟ့ၣ်စိဟ့ၣ်ကမီၤ": 7405,
      "ကစၢ်ယွၤအမံၤ": 7406,
      "နၤန့ၣ်တက့ၢ်": 7407,
      "သံသတြိာ်": 7408,
      "ကိးဘ့ၣ်": 7409,
      "ဒီးတၢ်လုၢ်ဟံၣ်": 7410,
      "ဒီးတၢ်သွံၣ်": 7411,
      "နီၢ်ခီ": 7412,
      "နီၢ်တၤမၢ်": 7413,
      "စီၤပၤအအိၣ်": 7414,
      "ခဲလၢာ်မ့ၢ်ဝဲ": 7415,
      "ဒီးအလၤကပီၤ": 7416,
      "တုၤတၢ်": 7417,
      "လိၤမၤဘၣ်": 7418,
      "ထံၣ်တၢ်လၢ": 7419,
      "သီသီ": 7420,
      "ဒၤနံးယ့လး": 7421,
      "နီတဘီ": 7422,
      "အီၤလၢကီၢ်": 7423,
      "လၢနး": 7424,
      "လၢနစု": 7425,
      "အဂ့ၢ်မ့ၢ်လၢအဝဲသ့ၣ်": 7426,
      "ဖိခွါတဖၣ်": 7427,
      "စံးဘၣ်သု": 7428,
      "စံးဘၣ်ယ့ၣ်ၡူး": 7429,
      "အကဒု": 7430,
      "တဲအီၤ": 7431,
      "တဲဖျါထီၣ်ဝဲ": 7432,
      "ဝံၤဒီးအဝဲသ့ၣ်": 7433,
      "ဧိၤလ့": 7434,
      "ယ့ၣ်ၡူးသ့ၣ်ညါ": 7435,
      "စံးဝဲန့ၣ်လီၤ": 7436,
      "မ့ၢ်တၢ်လီၢ်": 7437,
      "တအိၣ်လၢ": 7438,
      "ဟီၣ်ခိၣ်လၢ": 7439,
      "တၢ်မၤအသးလၢ": 7440,
      "ယကပာ်": 7441,
      "ယကဒုးနဲၣ်": 7442,
      "ဖျါထီၣ်တၢ်": 7443,
      "ကဲထီၣ်ကီၢ်ယူဒၤအစီၤပၤ": 7444,
      "ဒိဘၣ်ထံး": 7445,
      "ဃုကထိ": 7446,
      "အဲၣ်ဘၣ်": 7447,
      "ဒ်လဲၣ်ဒ်လဲၣ်န့ၣ်": 7448,
      "ဆိးလၢ": 7449,
      "ဃ့ရမိၣ်": 7450,
      "ထွဲဒံး": 7451,
      "ယူဒၤအဒူၣ်": 7452,
      "တစုန့ၣ်": 7453,
      "ဆါဆါ": 7454,
      "တဘျီန့ၣ်လီၤ": 7455,
      "စံးဆၢယၤ": 7456,
      "တဖၣ်ဒီးကယဲၢ်": 7457,
      "သိဆူၣ်": 7458,
      "သိနၢမူ": 7459,
      "ဒီးယထံၣ်": 7460,
      "အီပှဲၤ": 7461,
      "ပိာ်မုၣ်တဂၤလၢအ": 7462,
      "တဲဘၣ်ပှၤ": 7463,
      "ကွဲးကျိာ်ထံ": 7464,
      "သကိးသကိး": 7465,
      "တခီပၤ": 7466,
      "ဒီးသုဝဲ": 7467,
      "ဒီးနပၢ်": 7468,
      "လၢယွၤအဂီၢ်": 7469,
      "စူၢ်ယွၤ": 7470,
      "ကနၣ်တက့ၢ်": 7471,
      "စီၤဒၤဝံးအဖိခွါ": 7472,
      "ဟံးန့ၢ်က့ၤ": 7473,
      "ပာ်လီၤဝဲ": 7474,
      "တဘ့ၣ်ဘၣ်": 7475,
      "မူခိၣ်အဘီအမုၢ်": 7476,
      "တအိၣ်ဘၣ်န့ၣ်": 7477,
      "အိၣ်မူဒံးဝဲ": 7478,
      "အိၣ်မူအိၣ်ဒါ": 7479,
      "ယွၤအတၢ်သိၣ်တၢ်သီ": 7480,
      "ယသးဟ့": 7481,
      "ထိၣ်ဧိၤလံာ်ဧိၤ": 7482,
      "ယတၢ်ကမၣ်": 7483,
      "ဒၢထီၣ်": 7484,
      "ဂၢၢ်မၤကျၢၤ": 7485,
      "ပှ့ၤန့ၢ်": 7486,
      "ကဲၤစါ": 7487,
      "နကိၤ": 7488,
      "အဟံၣ်ဒူၣ်ဃီထၢ": 7489,
      "ဒူသဝီ": 7490,
      "ခံဂၤတဂၤ": 7491,
      "ခံဂၤလၢအမ့ၢ်": 7492,
      "မၤစၢၤယၤ": 7493,
      "တဆံသၢ": 7494,
      "ယိာ်ပူၤ": 7495,
      "သုတၢ်စူၢ်တၢ်နာ်": 7496,
      "လၢကစၢ်ယွၤအမဲာ်ညါ": 7497,
      "ဒီးတိၢ်": 7498,
      "ဒီးတိၢ်န့ၢ်": 7499,
      "ဒ်သိးကကဲထီၣ်": 7500,
      "ဝ့ၢ်ယရူၤၡလ့ၣ်န့ၣ်လီၤ": 7501,
      "ဆူးမၤဆါ": 7502,
      "ထီဘိတထံၣ်ဃီ": 7503,
      "လၢအတၢ်ကတိၤ": 7504,
      "ယံးစၣ်ကၢ်": 7505,
      "ယၢ်ခီ": 7506,
      "တၢ်ကစီၣ်လၢ": 7507,
      "ယကမၤဟးဂီၤ": 7508,
      "တူၢ်လိာ်ဝဲ": 7509,
      "လူၤပိာ်ထွဲ": 7510,
      "ဒ့တၢ်အူ": 7511,
      "တံၢ်တံၢ်": 7512,
      "လီၤဘၣ်လၢ": 7513,
      "ဒီးဝ့ၢ်ယရူၤရှလ့ၣ်": 7514,
      "စီၤနဘူၤကးန့စၢ်": 7515,
      "အတၢ်ကတိၤလၢ": 7516,
      "ယၢၤထီၣ်": 7517,
      "အတီၢ်ပူၤလီၤ": 7518,
      "အဂံၢ်ထံး": 7519,
      "အနံၣ်လွံၢ်ဆံ": 7520,
      "ခီဂာ်ထံကျိယၢ်ဒ့ၣ်": 7521,
      "ပတၢ်အိၣ်မူ": 7522,
      "တလါစီဆှံ": 7523,
      "ပဝဲခဲလၢာ်": 7524,
      "စှၤသီ": 7525,
      "မ့ၢ်နဆိကမိၣ်": 7526,
      "လၢအဂီၢ်ဒၣ်ဝဲ": 7527,
      "လၢကစၢၢ်စံၤနါ": 7528,
      "ဒီးပှၤလုၢ်တၢ်အခိၣ်တဖၣ်": 7529,
      "ဒီးနီၢ်စၤရါ": 7530,
      "ထူၣ်ဖျဲးကွံာ်": 7531,
      "ထူၣ်ဖျဲးထီၣ်ကွံာ်": 7532,
      "တကယၤအခိၣ်": 7533,
      "အဘျုးတအိၣ်ဘၣ်": 7534,
      "အတြဲၤဖးဒိၣ်": 7535,
      "နၢ်ဟူဘၣ်ဝဲလၢ": 7536,
      "ဧ့ကြိၣ်": 7537,
      "အမူးဖးဒိၣ်": 7538,
      "တၢးထီ": 7539,
      "တယံာ်လၢၤဘၣ်": 7540,
      "ထဲသိးဒီး": 7541,
      "သုဘၣ်အဖှီၣ်": 7542,
      "စဲၤလီၤ": 7543,
      "တဖၣ်ဒီးပှၤလ့ၤဝံဖိတဖၣ်": 7544,
      "အတၢ်နာ်န့ၣ်": 7545,
      "ကဘၣ်တၢ်မၤသံကွံာ်အီၤန့ၣ်လီၤ": 7546,
      "တၢ်ဒိၣ်ကစၢ်စီၤပၤဧၢ": 7547,
      "စီၤကၤလယး": 7548,
      "တၢ်ကွဲးအသးစံးဝဲ": 7549,
      "ကျိၣ်ဧိၤစ့ဧိၤ": 7550,
      "နံၤနဝ့ဖိတဖၣ်": 7551,
      "မၤတ့ၢ်တၢ်ဒဲးဘးထီဒါယွၤ": 7552,
      "သမှံၤသပှၢ်": 7553,
      "လဲၤထီၣ်ဆူကစၢၢ်": 7554,
      "ဒိၣ်ဒိၣ်ကလဲာ်လီၤ": 7555,
      "စီၤၡံမိၣ်ပ့းတရူး": 7556,
      "ဒ်ပစံး": 7557,
      "အစိၤစိၤအဃၣ်ဃၣ်န့ၣ်လီၤ": 7558,
      "ဒိးတ့ဒိးဖျီအသး": 7559,
      "နွံသီန့ၣ်လီၤ": 7560,
      "မိရၤ": 7561,
      "ဟဲစူၤလီၤ": 7562,
      "ထွးထီၣ်ဃ့ၢ်ကွံာ်": 7563,
      "ပထံၣ်ဘၣ်လၢ": 7564,
      "အတိာ်ဧိၤတာ်ဧိၤ": 7565,
      "စီၤက့ရၡိၣ်": 7566,
      "တၢ်အဒိအတဲာ်": 7567,
      "နိးဖံး": 7568,
      "ဒိၣ်ဒၣ်တၢ်တက့ၢ်": 7569,
      "ကပုာ်လုး": 7570,
      "နူၢ်ပူၤစီၤ": 7571,
      "ကိးဖျၢၣ်ဒဲး": 7572,
      "ကလီၣ်ဖျါထီၣ်": 7573,
      "ဆုးလီၤ": 7574,
      "စီၤယံးဖသၤ": 7575,
      "တဒူၣ်ဘၣ်တဒူၣ်": 7576,
      "လီတဲစိ": 7577,
      "ကဲၤစါရံၤ": 7578,
      "ကဂ့ၤ": 7579,
      "ဃစံ": 7580,
      "တပာ်": 7581,
      "တၢၤ": 7582,
      "တအၢ": 7583,
      "တပှီာ်": 7584,
      "ဒရ့း": 7585,
      "ဒြၤ": 7586,
      "နဖိ": 7587,
      "နကီၢ်": 7588,
      "နနၢ်": 7589,
      "နကျဲ": 7590,
      "နတၢ်အၢၣ်လီၤ": 7591,
      "ပအဲၣ်ဒိး": 7592,
      "ပတၢ်ဒဲးဘး": 7593,
      "ယတမ့ၢ်": 7594,
      "ယဃ့": 7595,
      "ယသွဲၣ်": 7596,
      "လရာ်": 7597,
      "သမၢ်": 7598,
      "အသု": 7599,
      "အလၣ်": 7600,
      "ဧိး": 7601,
      "ီး": 7602,
      "ြဲၢ်": 7603,
      "၃၂": 7604,
      "ၡၢၣ်": 7605,
      "ၡတံၤ": 7606,
      "တၢ်ကမၤ": 7607,
      "တၢ်ကဘၣ်": 7608,
      "တၢ်စီဆှံ": 7609,
      "တၢ်ဟးဂီၤ": 7610,
      "တၢ်နီတမံၤ": 7611,
      "တၢ်မံမီၢ်": 7612,
      "တၢ်ဆီၣ်လီၤသး": 7613,
      "ဒီဒု": 7614,
      "လီၤယသး": 7615,
      "လီၤစဲၤ": 7616,
      "ဒီးသ့ၣ်ညါ": 7617,
      "ဒီးဆိကမိၣ်": 7618,
      "ဒီးဟးထီၣ်": 7619,
      "ဒီးဟံးဃာ်": 7620,
      "ဒီးဒ်န့ၣ်အသိး": 7621,
      "န့ၣ်မၤ": 7622,
      "ဝဲဖဲန့ၣ်": 7623,
      "ဝဲအဂီၢ်လီၤ": 7624,
      "ဘၣ်အဃိလီၤ": 7625,
      "ပှၤဃိာ်": 7626,
      "ပှၤလၢသုကျါ": 7627,
      "ပှၤကိးကလုာ်ဒဲး": 7628,
      "ပှၤဆူးပှၤဆါ": 7629,
      "တဖၣ်လဲၤ": 7630,
      "တဖၣ်လၢအမ့ၢ်ဝဲ": 7631,
      "တဖၣ်အစုပူၤ": 7632,
      "မၤဝံၤ": 7633,
      "မၤကတၢၢ်": 7634,
      "မၤလၤ": 7635,
      "မၤန့ၢ်အီၤ": 7636,
      "မၤမဲာ်ဆှး": 7637,
      "မၤလၢပှဲၤ": 7638,
      "မၤတရီတပါ": 7639,
      "မၤလီၤပြံလီၤပြါ": 7640,
      "လၢအကတိၤ": 7641,
      "လၢအခီပညီ": 7642,
      "လၢအလီၤဂာ်ဒီး": 7643,
      "လၢအရ့ဒိၣ်": 7644,
      "လၢအဘၣ်တၢ်မၤအီၤလၢ": 7645,
      "လၢအနီၢ်ကစၢ်ဒၣ်ဝဲ": 7646,
      "ထီၣ်န့ၣ်လီၤ": 7647,
      "စီၤတ့": 7648,
      "အိၣ်ထဲ": 7649,
      "အိၣ်ဒီးအဝဲသ့ၣ်": 7650,
      "မ့ၢ်ဒၣ်ထဲ": 7651,
      "သးလဲ": 7652,
      "သ့ၣ်တဖၣ်ဒီး": 7653,
      "ူၤဘၤ": 7654,
      "အီၤတဖၣ်န့ၣ်": 7655,
      "အီၤကသ့": 7656,
      "အီၤဒ်သိးအက": 7657,
      "သုထံၣ်": 7658,
      "သုလၢသုက": 7659,
      "ယွၤဒီး": 7660,
      "ယွၤတဲဘၣ်": 7661,
      "ယွၤအကလုၢ်ကထါ": 7662,
      "ဒ်တၢ်လုၢ်မ့ၣ်အူ": 7663,
      "အံၤအသိးန့ၣ်လီၤ": 7664,
      "ကစးထီၣ်": 7665,
      "အဝဲသ့ၣ်အဂီၢ်": 7666,
      "အဝဲသ့ၣ်မ့ၢ်ဂ့ၤ": 7667,
      "အဝဲသ့ၣ်အပှၤ": 7668,
      "အဝဲသ့ၣ်တနီၤ": 7669,
      "အဝဲသ့ၣ်ဟးထီၣ်ကွံာ်": 7670,
      "တကဝီၤ": 7671,
      "မုၢ်တနၤ": 7672,
      "ဖဲကီၢ်": 7673,
      "လၢတၢ်အိၣ်မူ": 7674,
      "အတၢ်လိၣ်": 7675,
      "အတၢ်ဆိၣ်ဂ့ၤ": 7676,
      "အတၢ်ခွဲးတၢ်ယာ်": 7677,
      "ခိၣ်နၢ်တဖၣ်": 7678,
      "ဒၣ်ပဝဲ": 7679,
      "ကစၢ်တဖၣ်": 7680,
      "က့ၤနုာ်": 7681,
      "ပာ်ဒ့ၣ်ပာ်ကမၣ်": 7682,
      "န့ၢ်မါ": 7683,
      "လုၢ်ထံ": 7684,
      "လီၢ်ဘၣ်": 7685,
      "အဃိတက့ၢ်": 7686,
      "အဃိမ့ၢ်ဂ့ၤ": 7687,
      "အဃိဧါ": 7688,
      "ဝ့ၢ်ဘ့ၤသ": 7689,
      "တၢ်အခ့အပှၤ": 7690,
      "လဲၤဃီၤ": 7691,
      "လဲၤအိၣ်သကိး": 7692,
      "ကစၢ်ယွၤအကလုၢ်": 7693,
      "နၤလံ": 7694,
      "ကိးထီၣ်အီၤ": 7695,
      "ကိးမုၢ်ဂီၤ": 7696,
      "ဒီးတၢ်စိတၢ်ကမီၤ": 7697,
      "ဒုးန့ၢ်": 7698,
      "ဒုးဂဲၤဆၢထၢၣ်": 7699,
      "သ့န့ၣ်": 7700,
      "စီၤပၤအတၢ်": 7701,
      "ခဲလၢာ်က": 7702,
      "ခဲလၢာ်ကဘၣ်တၢ်": 7703,
      "ခံဖု": 7704,
      "လံဒီး": 7705,
      "ဒီးအတံၤသကိး": 7706,
      "ဘၣ်ဆၣ်သု": 7707,
      "ကွၢ်ဆိကမိၣ်": 7708,
      "ကမၤပူၤဖျဲး": 7709,
      "ဝဲလၢကျဲ": 7710,
      "ဟံၣ်န့ၣ်": 7711,
      "ဒီးပှၤတ": 7712,
      "စီတၢ်ဆှံ": 7713,
      "ထီဝဲ": 7714,
      "စီၤအၢ်": 7715,
      "ဘါဒယၤ": 7716,
      "အဂ့ၢ်ဒီး": 7717,
      "အဂ့ၢ်န့ၣ်တက့ၢ်": 7718,
      "ကဲစီၤပၤ": 7719,
      "အလီၢ်စီဆှံ": 7720,
      "ပိာ်ယခံ": 7721,
      "ဒံးယံာ်ဒံး": 7722,
      "မုၣ်တဂၤ": 7723,
      "ကဘၣ်ဟ့ၣ်": 7724,
      "စံးဘၣ်တ့ၢ်": 7725,
      "စံးဘၣ်ပှၤဂီၢ်မုၢ်": 7726,
      "ကနး": 7727,
      "ဧိၤဘၣ်": 7728,
      "ပှၤလၢအသးဟ့": 7729,
      "အါဃး": 7730,
      "လၢသုပူၤ": 7731,
      "လၢသုကဘၣ်": 7732,
      "တအိၣ်နီတဂၤ": 7733,
      "ဝံအတၢ်စံးပာ်": 7734,
      "နီၣ်ထီၣ်ကွံာ်": 7735,
      "တၢ်မၤကွၢ်": 7736,
      "ချီ": 7737,
      "ဃးဖိ": 7738,
      "ကယဲၢ်ပှၤပိာ်ခွါ": 7739,
      "ဟ့ၣ်လီၤအဝဲသ့ၣ်": 7740,
      "သုးအသး": 7741,
      "အိၣ်ဝဲန့ၣ်လီၤ": 7742,
      "ဃုသီ": 7743,
      "အဲၣ်လိာ်": 7744,
      "လၤကံၣ်": 7745,
      "အဖိခွါန့ၣ်လီၤ": 7746,
      "ခီၣ်ဟးဂီၤ": 7747,
      "ခီဖျိသု": 7748,
      "ထဲန့ၣ်": 7749,
      "စီၤယိၤနၤသၣ်": 7750,
      "ဟံးစု": 7751,
      "ကူကၤ": 7752,
      "အဝဲဒၣ်မ့ၢ်": 7753,
      "အဝဲဒၣ်စံးဝဲ": 7754,
      "တၢ်လုၢ်ဘုဧိၤဟုဧိၤ": 7755,
      "ဃာ်ဝဲ": 7756,
      "လၢအဝဲသ့ၣ်အဖီခိၣ်": 7757,
      "သိလၢအ": 7758,
      "ဆိၣ်တမံၤ": 7759,
      "ကွံာ်အီၤတက့ၢ်": 7760,
      "အီဘၣ်": 7761,
      "မၤတၢ်လၢအ": 7762,
      "အပှၤပိာ်ခွါ": 7763,
      "အပှၤကွဲးလံာ်": 7764,
      "ဒၣ်လဲာ်လီၤ": 7765,
      "လံၤတဖၣ်": 7766,
      "မၤတ့ၢ်ဝဲလၢ": 7767,
      "တဖၣ်လၢအဘၣ်ထွဲ": 7768,
      "ကွဲးကူ": 7769,
      "မၤသံကွံာ်ပှၤ": 7770,
      "ဒီးသုလီၤ": 7771,
      "အခိၣ်န့ၣ်လီၤ": 7772,
      "ကအိၣ်ဒံး": 7773,
      "စ့ယၤ": 7774,
      "နၢ်ဟူတၢ်ဂ့ၢ်": 7775,
      "ပှၤကး": 7776,
      "မ့ၣ်အူလၣ်": 7777,
      "ဒီးအဝဲပၢတၢ်လၢ": 7778,
      "ဟံးန့ၢ်တၢ်မၤလိ": 7779,
      "ပာ်လီၤအီၤ": 7780,
      "ကလံၤကျါ": 7781,
      "သုတဘၣ်တၢ်": 7782,
      "တၢ်လီၢ်အံၤ": 7783,
      "မ့တမ့ၢ်ဘၣ်န့ၣ်": 7784,
      "လွံၢ်ကလး": 7785,
      "တၢ်လၢအဘၣ်တၢ်": 7786,
      "ဒိးန့ၢ်ဘၣ်တၢ်မၤ": 7787,
      "ဘၣ်တၢ်မၤအၢမၤနး": 7788,
      "ဟဲစိာ်န့ၢ်ယၤ": 7789,
      "ခ့အ": 7790,
      "စးထီၣ်ဖဲန့ၣ်": 7791,
      "ဆူဝ့ၢ်ပူၤ": 7792,
      "နတၢ်ဒဲးဘး": 7793,
      "တ့ထီၣ်ဝဲ": 7794,
      "ကျၢၤကျၢၤ": 7795,
      "ယတသ့ၣ်ညါ": 7796,
      "သုသးလၢသု": 7797,
      "ဘၣ်ဃးဒီးဟီၣ်ခိၣ်": 7798,
      "ဝးၡတံၤ": 7799,
      "တၢ်အီၣ်လၢ": 7800,
      "အီၤလၢတၢ်လီၢ်": 7801,
      "လဲၤဆူကီၢ်": 7802,
      "မၤစၢၤနၤ": 7803,
      "နဲၣ်လိ": 7804,
      "ထံကျိနံၤလါ": 7805,
      "ဟးထီၣ်ဒီး": 7806,
      "လံာ်စီဆှံစံးဝဲ": 7807,
      "လံာ်စီဆှံအဆၢ": 7808,
      "သုးမုၢ်တဖု": 7809,
      "ဘ့ၤသနံ": 7810,
      "ပှၤတစိၤ": 7811,
      "မၤအသးဒ်လဲၣ်": 7812,
      "မနုၤလဲၣ်န့ၣ်": 7813,
      "တကပၤလီၤ": 7814,
      "ဆးဒဲးကံၣ်ဒဲးဝ့ၤ": 7815,
      "အဝဲန့ၣ်န့ၣ်": 7816,
      "မၤန့ၢ်မၤနၢၤ": 7817,
      "တချုးဒံး": 7818,
      "ဒ့ဒံၣ်": 7819,
      "တၢ်သူၣ်ကိၢ်သးဂီၤ": 7820,
      "ဟဲထီၣ်လၢ": 7821,
      "စဲၢ်": 7822,
      "အခီၣ်ထံးန့ၣ်လီၤ": 7823,
      "ပလီၢ်နသး": 7824,
      "အခ့အပှၤလၢ": 7825,
      "ဖီခိၣ်လီၤ": 7826,
      "လၢကမၤသံ": 7827,
      "န့ၣ်ကကဲထီၣ်": 7828,
      "ကီၢ်အံၣ်စရ့လးအပှၤဂီၢ်မုၢ်သ့ၣ်ဧၢ": 7829,
      "တန့ၢ်လၢၤဘၣ်": 7830,
      "မ့ၢ်မတၤလဲၣ်": 7831,
      "ပှၤယူဒၤဖိအခိၣ်အနၢ်တဖၣ်": 7832,
      "တပိၢ်": 7833,
      "တပယူာ်ဃီ": 7834,
      "သုးခိၣ်ဖးဒိၣ်": 7835,
      "သ့ၣ်နီၣ်ထီၣ်က့ၤလၢ": 7836,
      "ဧ့ၤလၣ်": 7837,
      "ရဲၣ်တၢ်ကျဲၤ": 7838,
      "အဒူၣ်ထၢအကျါ": 7839,
      "မၤကမၣ်ဘၣ်": 7840,
      "ဘျးထီၣ်": 7841,
      "မုၢ်ဆ့ၣ်မုၢ်ဂီၤ": 7842,
      "ကွဲၢ်": 7843,
      "စူၤရံဖိ": 7844,
      "ယသ့ၣ်ညါလၢ": 7845,
      "ကဖၢလၢ": 7846,
      "လၢာ်လၢာ်ဆ့ဆ့လီၤ": 7847,
      "အဃံအလၤ": 7848,
      "လၢဟီၣ်ခိၣ်ချၢအံၤ": 7849,
      "အသးအိၣ်တနံၣ်": 7850,
      "ပှၤမၤကဒါ": 7851,
      "နံၣ်တနံၣ်န့ၣ်": 7852,
      "ဖှီၣ်ဖိယာ်ဖိတဖၣ်": 7853,
      "ဘၣ်တၢ်မၤသံကွံာ်အီၤ": 7854,
      "အါအါဂီၢ်ဂီၢ်န့ၣ်လီၤ": 7855,
      "အဒီပုၢ်ဝဲၢ်ခွါတဖၣ်": 7856,
      "စပံးသၣ်တဖၣ်": 7857,
      "ဆှဲးဆှိး": 7858,
      "တၢထီၣ်တၢလီၤ": 7859,
      "အိၣ်ဝဲဆိးဝဲအဒဲစီဆှံ": 7860,
      "မုၢ်နၤခီ": 7861,
      "စီၤယိၤဘးဧၢ": 7862,
      "ကွၢ်ဆၢၣ်မဲာ်ဘၣ်ဝဲ": 7863,
      "ဟၤရၣ်": 7864,
      "ကျီၢ်ဖါတဒု": 7865,
      "သလၣ်ထီၣ်": 7866,
      "ယ့ၣ်ၡူးစံးဆၢတၢ်ဒီးစံးဝဲ": 7867,
      "မုာ်မုာ်ခုၣ်ခုၣ်": 7868,
      "လီၤကလဲကွံာ်": 7869,
      "အၣ်တံၤအီာ်": 7870,
      "တံတူး": 7871,
      "ပှၤဖၤရံၤၡဲတဖၣ်": 7872,
      "မဲၣ်ဂီၤ": 7873,
      "ဒီဖုညါ": 7874,
      "ရုၢ်ရုၢ်": 7875,
      "စီၤယံးၡမၤဧ့လး": 7876,
      "ပှၤဧၣ်မိၣ်ဖိတဖၣ်": 7877,
      "ပှၤလၢအတၢ်ကမၣ်တအိၣ်": 7878,
      "အကၢၢ်နံၤ": 7879,
      "ယစံးဘၣ်တဲဘၣ်သုတၢ်မ့ၢ်တၢ်တီ": 7880,
      "ကဒံကဒါ": 7881,
      "စီၤပၤယိၤၡံယၤ": 7882,
      "စီၤအဒိနံၤယၤ": 7883,
      "ဘူးနတံၢ်": 7884,
      "တၢ်သုးမုၢ်ဂီၢ်မုၢ်": 7885,
      "ဒ်ပစံးတၢ်အသိး": 7886,
      "ကု": 7887,
      "ကသိၣ်လိ": 7888,
      "ကဟုကညီၢ်": 7889,
      "ကီၣ်ကး": 7890,
      "ဂမိရၤ": 7891,
      "စပတ": 7892,
      "တယၤ": 7893,
      "တပျ": 7894,
      "တဆံး": 7895,
      "နအိၣ်ဒီး": 7896,
      "နံယၤ": 7897,
      "ပအိၣ်ဒီး": 7898,
      "ပယိၤ": 7899,
      "ဘံး": 7900,
      "မၢၤ": 7901,
      "မရၣ်": 7902,
      "ယကတိၤ": 7903,
      "ယတဲ": 7904,
      "ယကတိၤတၢ်": 7905,
      "ယမုၢ်လၢ်": 7906,
      "ယဟ့ၣ်ပလီၢ်": 7907,
      "ယနီၢ်ကစၢ်ဒၣ်ယဲ": 7908,
      "သၡ့ဘၤ": 7909,
      "အခဲ": 7910,
      "အဘူၣ်": 7911,
      "အဘၣ်ဃးဒီး": 7912,
      "အကွီၤ": 7913,
      "အစပံးလီၢ်": 7914,
      "ိဆူၣ်": 7915,
      "ူထီၣ်": 7916,
      "ၡံၤ": 7917,
      "ၤစံ": 7918,
      "လၢကပၢ": 7919,
      "တၢ်ထီဒါ": 7920,
      "တၢ်စံးထီၣ်ပတြၢၤ": 7921,
      "တၢ်နုၢ်ထံ": 7922,
      "ဒီသကိး": 7923,
      "ဒီတဘ့ၣ်": 7924,
      "ဒီတံၤ": 7925,
      "လီၤသ": 7926,
      "လီၤသဘှံး": 7927,
      "ဒီးလါ": 7928,
      "ဒီးကီၢ်အံၣ်စရ့လး": 7929,
      "ဒီးဖဲသု": 7930,
      "ဒီးသူၣ်လီၤ": 7931,
      "န့ၣ်မ့ၢ်ပှၤ": 7932,
      "ပှၤတၢ်မၢဖိ": 7933,
      "ပှၤဃံၤဝံ": 7934,
      "မၤအီၤလၢ": 7935,
      "မၤလီၤတံၢ်": 7936,
      "လၢအဆူၣ်": 7937,
      "လၢအပူၤန့ၣ်လီၤ": 7938,
      "လၢအဒုၣ်အဒါ": 7939,
      "စီၤဟ့": 7940,
      "စီၤစူၤမ့းအိၣ်": 7941,
      "အိၣ်ကျၢၤ": 7942,
      "အိၣ်ဖဲအံၤ": 7943,
      "မ့ၢ်ဘၣ်": 7944,
      "မ့ၢ်အိၣ်ဒီး": 7945,
      "သးမုာ်": 7946,
      "သးက့ၣ်": 7947,
      "အဝဲတဲဘၣ်": 7948,
      "အဝဲဟးထီၣ်": 7949,
      "အဝဲဘှီထီၣ်": 7950,
      "သ့ၣ်ဘၣ်": 7951,
      "အီၤလၢအတၢ်": 7952,
      "သုဒ်": 7953,
      "သုကအိၣ်": 7954,
      "သုတၢ်ဒဲးဘး": 7955,
      "ယွၤစံး": 7956,
      "အံၤကဘၣ်တၢ်": 7957,
      "အဝဲသ့ၣ်ကမၤ": 7958,
      "အဝဲသ့ၣ်အတၢ်မၤ": 7959,
      "အဝဲသ့ၣ်အခံ": 7960,
      "သိးထီၣ်တၢ်": 7961,
      "တကိၢ်": 7962,
      "မုၢ်မဆါ": 7963,
      "မုၢ်လီၤနုာ်": 7964,
      "မုၢ်အိၣ်ဘှံးအနံၤ": 7965,
      "ဖဲန့ၣ်တက့ၢ်": 7966,
      "ဖဲစီၤယိၤသး": 7967,
      "ဖဲစီၤနိအၤ": 7968,
      "လၢတၢ်နါ": 7969,
      "လၢတၢ်ဃူတၢ်ဖိး": 7970,
      "လၢတၢ်ကံးယာ်": 7971,
      "လၢတၢ်အိပူၤ": 7972,
      "အတၢ်သိၣ်လိ": 7973,
      "အတၢ်လဲၤခီဖျိ": 7974,
      "အတၢ်ဂ့ၤတၢ်ဝါ": 7975,
      "အတၢ်ဒိၣ်တၢ်မုၢ်": 7976,
      "ယၤန့ၣ်တက့ၢ်": 7977,
      "ယၤဒ်သိးယက": 7978,
      "ဆူပှၤဂီၢ်မုၢ်": 7979,
      "အသးတဖၣ်": 7980,
      "အပူၤအဂီၢ်န့ၣ်လီၤ": 7981,
      "အပူၤအဃိန့ၣ်လီၤ": 7982,
      "ဘၣ်တၢ်ဘၣ်": 7983,
      "ဘၣ်တၢ်ခူၣ်လီၤကွံာ်": 7984,
      "ကီၢ်ဖိ": 7985,
      "ကျိး": 7986,
      "န့ၢ်ဆီၣ်": 7987,
      "ဒိၣ်တက့ၢ်": 7988,
      "ဒိၣ်တုာ်ခိၣ်ပှဲၤ": 7989,
      "အဃိလဲၣ်": 7990,
      "ဝ့ၢ်အၤ": 7991,
      "ဝ့ၢ်တဝ့ၢ်": 7992,
      "ဝ့ၢ်စဒိၣ်": 7993,
      "တၢ်အဂ့ၢ်": 7994,
      "တၢ်အဒူၣ်": 7995,
      "လဲၤခီ": 7996,
      "လဲၤထီၣ်ဝဲ": 7997,
      "ပျိဆူၣ်": 7998,
      "လၢာ်ကွံာ်ဝဲ": 7999,
      "နၤနံ": 8000,
      "ကိးအီၤ": 8001,
      "ကိးဆၢကတီၢ်": 8002,
      "ဆၢဘၣ်": 8003,
      "ဒုးသ့ၣ်နီၣ်ထီၣ်က့ၤ": 8004,
      "ဒုးဂဲၤဆၢထၢၣ်သမူထီၣ်က့ၤ": 8005,
      "သ့တနံၤ": 8006,
      "စီၤပၤဖိခွါ": 8007,
      "စီၤပၤဧၢ": 8008,
      "ခဲလၢာ်ခဲဆ့": 8009,
      "သူၣ်လီသးကွံ": 8010,
      "တုၤစီၤပၤ": 8011,
      "ဘၣ်ဆၣ်ယ့ၣ်ၡူး": 8012,
      "လၢယဃုထၢ": 8013,
      "လၢယကစံၣ်ညီၣ်": 8014,
      "ပှၤဂီၢ်မုၢ်တဖု": 8015,
      "ထံလၢအ": 8016,
      "ကွၢ်ဃု": 8017,
      "ဒါယၤ": 8018,
      "နီတဖျၢၣ်": 8019,
      "အအိၣ်လဲၣ်": 8020,
      "ဟံၣ်ဃီ": 8021,
      "ကတိၤသွါ": 8022,
      "ဘါလီၤ": 8023,
      "လၢနမ့ၢ်": 8024,
      "လၢနလိၤ": 8025,
      "ဖိခွါတဂၤ": 8026,
      "စံးဘၣ်နၤ": 8027,
      "အကဆူး": 8028,
      "အကထိ": 8029,
      "ဒိးအီၤ": 8030,
      "ယဲၢ်ဖျၢၣ်": 8031,
      "စၢၤယသွဲၣ်": 8032,
      "ဝံၤသၣ်စ့ၤ": 8033,
      "မ့ၢ်ဂ့ၤန့ၣ်တဂ့ၤ": 8034,
      "အါကလုာ်": 8035,
      "အါနံၣ်အါလါ": 8036,
      "လၢသုး": 8037,
      "လၢသုအိၣ်": 8038,
      "ယ့ၣ်ၡူးအခံ": 8039,
      "ကီၢ်အဲၤကူ": 8040,
      "ပတသ့ၣ်ညါဘၣ်": 8041,
      "တၢ်မၤပျံၤမၤဖုး": 8042,
      "လၢပှၤတဂၤဂၤ": 8043,
      "တဂ့ၤအဂီၢ်": 8044,
      "ဆိကမ": 8045,
      "တမ့ၢ်လၢၤ": 8046,
      "ဒီးစီၤစ": 8047,
      "အဖိခွါစီၤအလံ": 8048,
      "ခီဖျိစီၤမိၤၡ့": 8049,
      "ကူဒုး": 8050,
      "ပျဲပူၤ": 8051,
      "အဝဲဒၣ်န့ၣ်": 8052,
      "ဟူာ်": 8053,
      "လၢအမ့ၢ်အတီ": 8054,
      "ဘှဲ": 8055,
      "သိဖိတဖၣ်": 8056,
      "စီၤအၤရ": 8057,
      "မံဝဲ": 8058,
      "ထၢၣ်တၢ်ကံးယာ်": 8059,
      "လၢဝ့ၢ်ဘ့ၤသလ့ဃ့ၣ်": 8060,
      "ကၤဘြံၤ": 8061,
      "မၤတ့ၢ်တၢ်အံၤ": 8062,
      "နးတဘ့ၣ်": 8063,
      "ဝဲလီၤတံၢ်လီၤဆဲး": 8064,
      "အခိၣ်ကိၤ": 8065,
      "သၢလါ": 8066,
      "တြိး": 8067,
      "လၢယွၤသုကစၢ်ယွၤ": 8068,
      "ထူဒီးစ့": 8069,
      "ထူအဲၣ်ယွၤ": 8070,
      "ကဒါက့ၤအီၤ": 8071,
      "စီၤဒၤဝံးအစၢၤအသွဲၣ်": 8072,
      "စီၤဒၤဝံးအဝ့ၢ်": 8073,
      "စ့အဘ့ၣ်": 8074,
      "ပျၢ်တၢ်ဒဲးဘး": 8075,
      "နၢ်ဟူဝဲ": 8076,
      "အန့ၣ်သတးဒီး": 8077,
      "သံကွၢ်ယၤ": 8078,
      "ပာ်လီၤအီၤလၢ": 8079,
      "တဖၣ်လီၤဂာ်ဒ်": 8080,
      "ဒိကနၣ်ယၤတက့ၢ်": 8081,
      "ကစၢၢ်ကၢ်မ့ၤလး": 8082,
      "အဘံ": 8083,
      "တၢ်လီၢ်န့ၣ်": 8084,
      "တၢ်အံၤန့ၣ်": 8085,
      "ထီၣ်အီၤလီၤ": 8086,
      "ဒိးန့ၢ်ဃုာ်": 8087,
      "ဘၣ်မနုၤန": 8088,
      "အ့လးန့ၣ်လီၤ": 8089,
      "ဟဲစိာ်နုာ်": 8090,
      "အၢၣ်လီၤတ့ၢ်ဝဲ": 8091,
      "စးထီၣ်ခဲအံၤဒီးဆူညါ": 8092,
      "နကထံၣ်ဘၣ်": 8093,
      "ကသ့အဂီၢ်": 8094,
      "ပှၤလုၢ်တၢ်အခိၣ်တဖၣ်လၢအ": 8095,
      "နဲဒၣ်တၢ်ဒိၣ်": 8096,
      "ဒ်တၢ်ဆၢကတီၢ်": 8097,
      "ဒ်တၢ်သိၣ်တၢ်သီ": 8098,
      "ဆိၣ်ဂ့ၤဝဲလီၤ": 8099,
      "ကဒီးတဘျီ": 8100,
      "လီၤဂာ်ဒ်တၢ်": 8101,
      "ဃုထၢဝဲ": 8102,
      "မၤသးဒိၣ်ထီၣ်": 8103,
      "သုကုၢ်": 8104,
      "ဟးထီၣ်လၢကီၢ်အဲၤကူပတူး": 8105,
      "ဘှီထီၣ်တၢ်": 8106,
      "ဘှီထီၣ်အီၤ": 8107,
      "ဘူၣ်ထီၣ်ဘါထီၣ်ယၤ": 8108,
      "လံာ်စီဆှံလၢ": 8109,
      "ဆူတၢ်ဒုး": 8110,
      "ဆူတၢ်မူ": 8111,
      "တသ့ဘၣ်န့ၣ်": 8112,
      "တၢ်ပာ်ထီၣ်ထီ": 8113,
      "ကးတံၢ်": 8114,
      "အိၣ်ဒီးအမါ": 8115,
      "စံလၤ": 8116,
      "နီတမံၤဘၣ်န့ၣ်လီၤ": 8117,
      "ကတဲာ်ကတီၤအသးလၢ": 8118,
      "ဖၢၡၢၣ်": 8119,
      "ဝ့ၢ်ယရူၤၡလ့ၣ်ဧၢ": 8120,
      "ထုးကွံာ်": 8121,
      "လၢကျဲတဘိ": 8122,
      "ဆၣ်ဖိကီၢ်ဖိလၢအ": 8123,
      "ထီဘိန့ၣ်": 8124,
      "ဘၣ်မနုၤအဃိသု": 8125,
      "ကိၣ်မံၣ်": 8126,
      "ဟးထီၣ်ကွံာ်လၢ": 8127,
      "သူၣ်ထီၣ်ဘှီထီၣ်": 8128,
      "ကစၢ်ယွၤအတၢ်အၢၣ်လီၤအီလီၤ": 8129,
      "ကူးက့ၤ": 8130,
      "စီၤယၤကိာ်အကစၢ်ယွၤ": 8131,
      "ဒိၣ်ထီၣ်ဒီး": 8132,
      "လၢတၢ်လုၢ်တၢ်ပျၢ်တၢ်ဒဲးဘး": 8133,
      "ယပှၤဂီၢ်မုၢ်သ့ၣ်ဧၢ": 8134,
      "တဂၤဧိၤလီၤ": 8135,
      "နီၢ်ခိအတၢ်": 8136,
      "ဘၣ်န့ၣ်ဧါ": 8137,
      "တဘျီဃီဖဲန့ၣ်": 8138,
      "အဝဲသ့ၣ်အတၢ်ဒဲးဘး": 8139,
      "ပသးလၢ": 8140,
      "ဃါစိၢ်": 8141,
      "လၢအသးသမူ": 8142,
      "လၢအသးကံၢ်ပူၤ": 8143,
      "ပတၢ်သိၣ်တၢ်သီ": 8144,
      "တၢ်အုၣ်သး": 8145,
      "ယွၤလီၤဝဲ": 8146,
      "တၢ်ဘၣ်ယိၣ်": 8147,
      "စီၤအ့လၤ": 8148,
      "ကြၢးဝဲဘၣ်ဝဲ": 8149,
      "အချံၣ်": 8150,
      "လၢတၢ်သူၣ်ဖှံသးညီ": 8151,
      "ကမၤသံကွံာ်": 8152,
      "စီၤယဟိအါဃး": 8153,
      "တဖၣ်အလိၤဒီး": 8154,
      "ဂ့ၤဂ့ၤလီၤ": 8155,
      "ဒုၣ်ဒွဲၣ်စံးအၢ": 8156,
      "မဲာ်တဲးလဲးဖါ": 8157,
      "အဖိမုၣ်နီၢ်": 8158,
      "ဒီးနီၢ်နၤဧမံ": 8159,
      "ကမၢကမၣ်ဝဲ": 8160,
      "ကံၢ်သးလဲ": 8161,
      "ဖိးဟု": 8162,
      "ဟီထီၣ်ကွံာ်အီၤ": 8163,
      "ဒီးဟ့ၣ်အီၤ": 8164,
      "တမံၤလၢ်လၢ်န့ၣ်": 8165,
      "စိၢ်ဘျဲး": 8166,
      "ကံလၤ": 8167,
      "လီၤတံၢ်လီၤဆဲးလီၤ": 8168,
      "ဟုၣ်န့ၢ်": 8169,
      "အချၢဒီး": 8170,
      "ဖျိးထီၣ်": 8171,
      "အသပၢၤ": 8172,
      "ထဲသိးသိး": 8173,
      "အအံၤမ့ၢ်တၢ်ကစီၣ်": 8174,
      "ကတူၢ်ဘၣ်": 8175,
      "ဆူယအိၣ်တက့ၢ်": 8176,
      "လံၤလံၤန့ၣ်လီၤ": 8177,
      "အထူၣ်တဖၣ်": 8178,
      "တဆံခံဒု": 8179,
      "တဆံခံဒူၣ်": 8180,
      "သပၢၤဟီၣ်ခိၣ်": 8181,
      "မဲာ်ချံတဖၣ်": 8182,
      "တူၢ်ဘၣ်ဝဲလၢ": 8183,
      "သ့ၣ်ညါဘၣ်ဝဲလၢ": 8184,
      "ယထံၣ်တ့ၢ်": 8185,
      "ပာ်ကဖၢလၢ": 8186,
      "တကဲဘၣ်": 8187,
      "လၢမုၢ်နၤခီ": 8188,
      "တလီၢ်လီၢ်": 8189,
      "အနီၣ်ဂံၢ်အိၣ်ဝဲ": 8190,
      "ကနီၤဖး": 8191,
      "စီၤအ့လယၤ": 8192,
      "တၢ်မူအထူအယိာ်": 8193,
      "ကျဲစၢၤကျိၤထံး": 8194,
      "စီၤအဃၤစယၤ": 8195,
      "စံၣ်တဲၤတဲလီၤတၢ်သးခုကစီၣ်": 8196,
      "ကူာ်လီၤကွံာ်": 8197,
      "တ့ၢ်လီၤကွံာ်အီၤဆူ": 8198,
      "စီၤဧးမံၤ": 8199,
      "ယဘူၣ်ဖိ": 8200,
      "ဒ်တၢ်ကွဲးအသးစံးဝဲအသိး": 8201,
      "ကွ့ၢ်ကွ့ၢ်": 8202,
      "တုၤမုၢ်ဟါလီၤန့ၣ်လီၤ": 8203,
      "ထဲအံၤညါ": 8204,
      "ယဲဒၣ်အံၤယမ့ၢ်ယွၤလီၤ": 8205,
      "စီၤဃနၤနယၤ": 8206,
      "ပျၤထီအီၤလၢထူၣ်စုညါအလိၤ": 8207,
      "စီၤစကၤရယၤ": 8208,
      "အက့အခီ": 8209,
      "ထိၣ်ဟူးထိၣ်ဂဲၤထီၣ်": 8210,
      "ထူးထီၣ်တီၤထီၣ်": 8211,
      "လၢသူၣ်လၢသး": 8212,
      "အဝဲၢ်ကိ": 8213,
      "ဒီးနဲဒၣ်": 8214,
      "မဲးစ့း": 8215,
      "ကဲခိၣ်ကဲနၢ်": 8216,
      "ကုးအီပှဲၤ": 8217,
      "ူၤဘၤဘ့လး": 8218,
      "စပတၤ": 8219,
      "ဒီတံၤဒီသကိး": 8220,
      "in": 8221,
      "ကလိၤ": 8222,
      "ကဖီ": 8223,
      "ကဆူၣ်": 8224,
      "ကဒိးန့ၢ်ဘၣ်": 8225,
      "စဲၣ်": 8226,
      "တိၣ်": 8227,
      "တမါ": 8228,
      "တယံၤ": 8229,
      "နထံ": 8230,
      "နဟံၣ်ဖိဃီဖိ": 8231,
      "နတံၤသကိး": 8232,
      "ပဒီ": 8233,
      "ပူၣ်": 8234,
      "ပုာ်": 8235,
      "ပတၢ်ကမၣ်": 8236,
      "ပမိၢ်ပၢ်ဖံဖုလၢပျၢၤ": 8237,
      "ဘိၢ်": 8238,
      "ဘၢၣ်စၢၤ": 8239,
      "မရ့": 8240,
      "ယခိၣ်": 8241,
      "ယပာ်": 8242,
      "ယမ့ၢ်တၢ်": 8243,
      "ယဝၤ": 8244,
      "ယကစံး": 8245,
      "လ့လး": 8246,
      "လၡါစၢ်": 8247,
      "သဃီၤ": 8248,
      "သဃဲၤ": 8249,
      "အဲ": 8250,
      "အဆ့": 8251,
      "အနီၢ်ပၤမုၣ်": 8252,
      "အဘးခီ": 8253,
      "ံသမၢ်": 8254,
      "လၢကဘၣ်တၢ်": 8255,
      "လၢဒဲ": 8256,
      "လၢလီၣ်": 8257,
      "လၢစံာ်ပျီ": 8258,
      "တၢ်ကွဲးနီၣ်": 8259,
      "တၢ်သၣ်ဝံၤ": 8260,
      "တၢ်ခ့တၢ်": 8261,
      "လီၤသံး": 8262,
      "ဒီးတဂၤ": 8263,
      "ဒီးအီၤန့ၣ်လီၤ": 8264,
      "ဒီးကတိၤတၢ်": 8265,
      "ဒီးထံကီၢ်": 8266,
      "ဒီးဂီၤဖံး": 8267,
      "ဒီးတူၢ်လိာ်": 8268,
      "ဒီးနၢ်ပၢၢ်": 8269,
      "ဒီးစံးဘၣ်တဲဘၣ်": 8270,
      "ဒီးဟဲက့ၤစိာ်": 8271,
      "ဝဲဆိး": 8272,
      "ဘၣ်ဘျုး": 8273,
      "ဘၣ်ယသး": 8274,
      "ဘၣ်တဖု": 8275,
      "ဘၣ်တစိၤ": 8276,
      "ဘၣ်စီၣ်": 8277,
      "ပှၤပၢ": 8278,
      "ပှၤလၢယွၤ": 8279,
      "ပှၤနီတဂၤဘၣ်": 8280,
      "ပှၤဧၤ": 8281,
      "ပှၤတဖု": 8282,
      "ပှၤကူၣ်တၢ်သ့": 8283,
      "ပှၤစူၢ်က့ၤနာ်က့ၤတၢ်": 8284,
      "ပှၤဃ့သွဲ": 8285,
      "တဖၣ်အလီၢ်": 8286,
      "တဖၣ်မ့ၢ်ဝဲ": 8287,
      "မၤလၢာ်": 8288,
      "မၤကၢ်": 8289,
      "မၤလီၤပှီၢ်ကွံာ်": 8290,
      "လၢအထံၣ်": 8291,
      "လၢအစိာ်": 8292,
      "လၢအပၢတၢ်": 8293,
      "လၢအမူဝဲတဂၤ": 8294,
      "အိၣ်သး": 8295,
      "မ့ၢ်စီၤ": 8296,
      "မ့ၢ်ဒၣ်တၢ်": 8297,
      "အဝဲပာ်": 8298,
      "အဝဲသံ": 8299,
      "အဝဲထိၣ်": 8300,
      "အဝဲန့ၣ်မ့ၢ်": 8301,
      "သုပှၤ": 8302,
      "သုဂံၢ်": 8303,
      "ဖိအကီၢ်": 8304,
      "ယွၤစံးဘၣ်အီၤ": 8305,
      "ယွၤကဟ့ၣ်": 8306,
      "ဒ်ခရံာ်": 8307,
      "ဒ်ယမ့ၢ်": 8308,
      "ဒ်လၢညါ": 8309,
      "အဝဲသ့ၣ်ဟဲစိာ်": 8310,
      "အဝဲသ့ၣ်ကိးထီၣ်": 8311,
      "မုၢ်ကျၢၢ်": 8312,
      "ဖဲတၢ်လုၢ်လီၢ်": 8313,
      "ဖဲနီၢ်အ့ၤစတၢ်": 8314,
      "လၢတၢ်တီတၢ်လိၤ": 8315,
      "အတၢ်ကိးထီၣ်": 8316,
      "အတၢ်တိာ်": 8317,
      "အတၢ်သွၣ်ခိၣ်": 8318,
      "အတၢ်ဆၢဂ့ၤဆၢဝါ": 8319,
      "တဂၤဆူ": 8320,
      "ခိၣ်လီၤ": 8321,
      "ယၤမ့ၢ်ဂ့ၤ": 8322,
      "ယၤကိာ်": 8323,
      "ယၤဖိၤ": 8324,
      "ဒၣ်အဒူၣ်": 8325,
      "ဂ့ၤသး": 8326,
      "ဂ့ၤမး": 8327,
      "အသးဒၣ်ဝဲ": 8328,
      "ကီၢ်အံၤ": 8329,
      "ကီၢ်ဆၣ်": 8330,
      "ပာ်မူ": 8331,
      "န့ၢ်လွဲ": 8332,
      "တ့ၢ်နဲ": 8333,
      "အဃိၤ": 8334,
      "အဃိာ်": 8335,
      "အဂီၢ်ဒ်": 8336,
      "အဂီၢ်လံ": 8337,
      "အဃိအဝဲ": 8338,
      "ဝ့ၢ်ဃ့ဘြိၣ်": 8339,
      "တၢ်အသီၣ်": 8340,
      "ဟ့ၣ်သုတၢ်": 8341,
      "ဟ့ၣ်တၢ်အပှ့ၤ": 8342,
      "လဲၤဘၣ်": 8343,
      "လဲၤထီ": 8344,
      "ဆှဲ": 8345,
      "ကစၢ်ယွၤမၤ": 8346,
      "ဟဲဘၣ်": 8347,
      "ဟဲလၢယွၤ": 8348,
      "ဟဲကဲထီၣ်အသး": 8349,
      "ပျီၢ်": 8350,
      "ဆၢန့ၢ်": 8351,
      "ဒီးတၢ်လၢအ": 8352,
      "ဒီးတၢ်ဆူးတၢ်ဆါ": 8353,
      "ဒီးတၢ်မျၢ်": 8354,
      "ကမူၤ": 8355,
      "သ့န့ၣ်လီၤ": 8356,
      "မူရၣ်": 8357,
      "နီၢ်ဒီ": 8358,
      "နီၢ်ဟၤကၢ်": 8359,
      "စီၤပၤယဟိ": 8360,
      "ခဲလၢာ်ဘၣ်တၢ်": 8361,
      "ဒီးအဖိတဖၣ်": 8362,
      "တုၤလၢတၢ်": 8363,
      "တုၤဒၣ်": 8364,
      "လၢယဂ့ၢ်": 8365,
      "လၢယအဲၣ်": 8366,
      "လိၤဘိ": 8367,
      "ကွၢ်က့ၤ": 8368,
      "ကွၢ်စ့ၢ်ကီး": 8369,
      "ကွၢ်တလီၤ": 8370,
      "ဒါလီၤ": 8371,
      "ပှၤအဖှီၣ်": 8372,
      "ကတိၤသီ": 8373,
      "ကတိၤအၢ": 8374,
      "ဒီးပှၤဂၤ": 8375,
      "ဒီးပှၤတဂၤဂၤ": 8376,
      "ဒီးပှၤလ့ၤဝံဖိ": 8377,
      "စီဝဲဆှံ": 8378,
      "အလီၢ်တပူၤ": 8379,
      "မုၣ်လိၤဘိ": 8380,
      "ကဘၣ်တူၢ်": 8381,
      "စံးဘၣ်စီၤပၤ": 8382,
      "အကနူၤ": 8383,
      "တဲဆိပာ်": 8384,
      "ကနုာ်": 8385,
      "ဝံၤဝဲ": 8386,
      "ပှၤလၢအသံ": 8387,
      "ဝံသဲ": 8388,
      "ဟီၣ်ခိၣ်န့ၣ်": 8389,
      "ယကအိၣ်": 8390,
      "လၢအအိၣ်ဖျဲၣ်": 8391,
      "ပၢ်ကစၢ်ယွၤ": 8392,
      "ဆူၣ်သးဂဲၤ": 8393,
      "အိၣ်ဝဲလၢတၢ်": 8394,
      "အီၣ်သကိး": 8395,
      "နာ်တၢ်": 8396,
      "နာ်ယၤတက့ၢ်": 8397,
      "မ့မ့ၢ်ခဲအံၤ": 8398,
      "တဖၣ်လၢကမၤ": 8399,
      "လၤတၢ်ကပီၤ": 8400,
      "ဆှၢနုာ်": 8401,
      "ဘၣ်ဆၣ်ဒီးသုတ": 8402,
      "ဘၣ်ဆၣ်ဒီးခဲအံၤ": 8403,
      "စီၤယိၤအ့လး": 8404,
      "အဝဲဒၣ်ဘၣ်တၢ်": 8405,
      "ဖးဒိၣ်အပူၤ": 8406,
      "ဖးဒိၣ်တဖု": 8407,
      "ဘၣ်ဃးတၢ်": 8408,
      "ကျဲလၢအ": 8409,
      "ဃာ်အီၤလၢ": 8410,
      "ဆါကွံာ်": 8411,
      "လၢအဝဲသ့ၣ်အလိၤ": 8412,
      "အတူၢ်": 8413,
      "လၢအမ့ၢ်စီၤ": 8414,
      "တဖၣ်ဒီးဒုး": 8415,
      "ဆိၣ်ဝါ": 8416,
      "ဒီးယတၢ်": 8417,
      "အပှၤပၢၤ": 8418,
      "လၢၤအီၤ": 8419,
      "ဒၣ်လဲာ်တ": 8420,
      "လၢဝ့ၢ်ခိၣ်ဒူ": 8421,
      "ၡ့မ့ၣ်": 8422,
      "တၤလၣ်": 8423,
      "မ်ဒ်န့ၣ်ဒီး": 8424,
      "သူအသးလၢထံ": 8425,
      "ကွဲးအသးလၢ": 8426,
      "ဒီးအဝဲသ့ၣ်တ": 8427,
      "တခီဒီး": 8428,
      "တခီထံ": 8429,
      "စီၤၡး": 8430,
      "စီၤၡဘၤ": 8431,
      "ဒီးနၢ": 8432,
      "ဒီးနကဘၣ်": 8433,
      "ဘူးက": 8434,
      "ဘူးတ့ၢ်မး": 8435,
      "စူၢ်အီၤ": 8436,
      "ထီဒါယၤလီၤ": 8437,
      "တသ့ဝဲဘၣ်": 8438,
      "ဒီးအဝဲမ့ၢ်": 8439,
      "ပာ်လီၤတၢ်": 8440,
      "ပာ်လီၤတ့ၢ်": 8441,
      "အမံၤန့ၣ်": 8442,
      "သုတသ့ၣ်ညါ": 8443,
      "လၢကီၢ်ကၤလံၤလါ": 8444,
      "ယွၤအတၢ်လုၢ်": 8445,
      "စီၤမိၤၡ့ဒီး": 8446,
      "လၢမုၢ်အိၣ်ဘှံးနံၤ": 8447,
      "တၢ်လီၢ်လၢ": 8448,
      "တၢ်လီၢ်ကိးပူၤဒဲး": 8449,
      "ဒီးကသ့ၣ်ယီၤ": 8450,
      "တၢ်အံၤမ့ၢ်တၢ်လၢအ": 8451,
      "မၤလိာ်ဝဲ": 8452,
      "ယတၢ်မုၢ်လၢ်": 8453,
      "လွံၢ်ခီ": 8454,
      "တၢ်လၢအမၤတ့ၢ်အသး": 8455,
      "ဂၢၢ်ပာ်": 8456,
      "အလီၢ်ခံဒီး": 8457,
      "နသးလၢ": 8458,
      "နွံဘျီ": 8459,
      "နကုၢ်": 8460,
      "အဟံၣ်လီၤ": 8461,
      "တဒုန့ၣ်လီၤ": 8462,
[...]
