{
  "version": "1.0",
  "truncation": null,
  "padding": null,
  "added_tokens": [
    {
      "id": 0,
      "content": "<pad>",
      "single_word": false,
      "lstrip": false,
      "rstrip": false,
      "normalized": false,
      "special": true
    },
    {
      "id": 1,
      "content": "<unk>",
      "single_word": false,
      "lstrip": false,
      "rstrip": false,
      "normalized": false,
      "special": true
    },
    {
      "id": 2,
      "content": "<s>",
      "single_word": false,
      "lstrip": false,
      "rstrip": false,
      "normalized": false,
      "special": true
    },
    {
      "id": 3,
      "content": "</s>",
      "single_word": false,
      "lstrip": false,
      "rstrip": false,
      "normalized": false,
      "special": true
    }
  ],
  "normalizer": null,
  "pre_tokenizer": {
    "type": "Sequence",
    "pretokenizers": [
      {
        "type": "Whitespace"
      },
      {
        "type": "Split",
        "pattern": {
          "Regex": "(?<=[က-႟꤀-꤯])(?=[A-Za-z0-9])|(?<=[A-Za-z0-9])(?=[က-႟꤀-꤯])"
        },
        "behavior": "Isolated",
        "invert": false
      }
    ]
  },
  "post_processor": null,
  "decoder": null,
  "model": {
    "type": "BPE",
    "dropout": null,
    "unk_token": "<unk>",
    "continuing_subword_prefix": null,
    "end_of_word_suffix": null,
    "fuse_unk": false,
    "byte_fallback": false,
    "ignore_merges": false,
    "vocab": {
      "<pad>": 0,
      "<unk>": 1,
      "<s>": 2,
      "</s>": 3,
      "!": 4,
      "\"": 5,
      "#": 6,
      "$": 7,
      "%": 8,
      "&": 9,
      "'": 10,
      "(": 11,
      ")": 12,
      "*": 13,
      "+": 14,
      ",": 15,
      "-": 16,
      ".": 17,
      "/": 18,
      "0": 19,
      "1": 20,
      "2": 21,
      "3": 22,
      "4": 23,
      "5": 24,
      "6": 25,
      "7": 26,
      "8": 27,
      "9": 28,
      ":": 29,
      ";": 30,
      "=": 31,
      ">": 32,
      "?": 33,
      "@": 34,
      "A": 35,
      "B": 36,
      "C": 37,
      "D": 38,
      "E": 39,
      "F": 40,
      "G": 41,
      "H": 42,
      "I": 43,
      "J": 44,
      "K": 45,
      "L": 46,
      "M": 47,
      "N": 48,
      "O": 49,
      "P": 50,
      "Q": 51,
      "R": 52,
      "S": 53,
      "T": 54,
      "U": 55,
      "V": 56,
      "W": 57,
      "X": 58,
      "Y": 59,
      "Z": 60,
      "[": 61,
      "\\": 62,
      "]": 63,
      "^": 64,
      "_": 65,
      "`": 66,
      "a": 67,
      "b": 68,
      "c": 69,
      "d": 70,
      "e": 71,
      "f": 72,
      "g": 73,
      "h": 74,
      "i": 75,
      "j": 76,
      "k": 77,
      "l": 78,
      "m": 79,
      "n": 80,
      "o": 81,
      "p": 82,
      "q": 83,
      "r": 84,
      "s": 85,
      "t": 86,
      "u": 87,
      "v": 88,
      "w": 89,
      "x": 90,
      "y": 91,
      "z": 92,
      "{": 93,
      "|": 94,
      "}": 95,
      "": 96,
      "¤": 97,
      "©": 98,
      "­": 99,
      "°": 100,
      "·": 101,
      "½": 102,
      "Ó": 103,
      "×": 104,
      "â": 105,
      "æ": 106,
      "ç": 107,
      "é": 108,
      "ó": 109,
      "ʹ": 110,
      "ʻ": 111,
      "ʼ": 112,
      "ʽ": 113,
      "μ": 114,
      "π": 115,
      "ׁ": 116,
      "ה": 117,
      "ו": 118,
      "י": 119,
      "נ": 120,
      "פ": 121,
      "ש": 122,
      "ก": 123,
      "ข": 124,
      "ค": 125,
      "ง": 126,
      "จ": 127,
      "ช": 128,
      "ญ": 129,
      "ฏ": 130,
      "ฐ": 131,
      "ฑ": 132,
      "ฒ": 133,
      "ณ": 134,
      "ด": 135,
      "ต": 136,
      "ถ": 137,
      "ท": 138,
      "ธ": 139,
      "น": 140,
      "บ": 141,
      "ป": 142,
      "ฝ": 143,
      "พ": 144,
      "ภ": 145,
      "ม": 146,
      "ย": 147,
      "ร": 148,
      "ฤ": 149,
      "ล": 150,
      "ว": 151,
      "ศ": 152,
      "ษ": 153,
      "ส": 154,
      "ห": 155,
      "อ": 156,
      "ฮ": 157,
      "ะ": 158,
      "ั": 159,
      "า": 160,
      "ำ": 161,
      "ิ": 162,
      "ี": 163,
      "ึ": 164,
      "ื": 165,
      "ุ": 166,
      "ู": 167,
      "เ": 168,
      "แ": 169,
      "โ": 170,
      "ใ": 171,
      "ไ": 172,
      "็": 173,
      "่": 174,
      "้": 175,
      "๊": 176,
      "๋": 177,
      "์": 178,
      "က": 179,
      "ခ": 180,
      "ဂ": 181,
      "ဃ": 182,
      "င": 183,
      "စ": 184,
      "ဆ": 185,
      "ဇ": 186,
      "ဈ": 187,
      "ဉ": 188,
      "ည": 189,
      "ဋ": 190,
      "ဌ": 191,
      "ဍ": 192,
      "ဎ": 193,
      "ဏ": 194,
      "တ": 195,
      "ထ": 196,
      "ဒ": 197,
      "ဓ": 198,
      "န": 199,
      "ပ": 200,
      "ဖ": 201,
      "ဗ": 202,
      "ဘ": 203,
      "မ": 204,
      "ယ": 205,
      "ရ": 206,
      "လ": 207,
      "ဝ": 208,
      "သ": 209,
      "ဟ": 210,
      "ဠ": 211,
      "အ": 212,
      "ဢ": 213,
      "ဣ": 214,
      "ဤ": 215,
      "ဥ": 216,
      "ဦ": 217,
      "ဧ": 218,
      "ဩ": 219,
      "ဪ": 220,
      "ါ": 221,
      "ာ": 222,
      "ိ": 223,
      "ီ": 224,
      "ု": 225,
      "ူ": 226,
      "ေ": 227,
      "ဲ": 228,
      "ဳ": 229,
      "ဵ": 230,
      "ံ": 231,
      "့": 232,
      "း": 233,
      "္": 234,
      "်": 235,
      "ျ": 236,
      "ြ": 237,
      "ွ": 238,
      "ှ": 239,
      "ဿ": 240,
      "၀": 241,
      "၁": 242,
      "၂": 243,
      "၃": 244,
      "၄": 245,
      "၅": 246,
      "၆": 247,
      "၇": 248,
      "၈": 249,
      "၉": 250,
      "၊": 251,
      "။": 252,
      "၌": 253,
      "၍": 254,
      "၎": 255,
      "၏": 256,
      "ၠ": 257,
      "ၡ": 258,
      "ၢ": 259,
      "ၣ": 260,
      "ၤ": 261,
      "ၥ": 262,
      "ၦ": 263,
      "ၧ": 264,
      "ၨ": 265,
      "ၩ": 266,
      "ၪ": 267,
      "ၫ": 268,
      "ၬ": 269,
      "ၭ": 270,
      "ၱ": 271,
      "ၵ": 272,
      "ၶ": 273,
      "ၷ": 274,
      "ၸ": 275,
      "ၹ": 276,
      "ၺ": 277,
      "ၻ": 278,
      "ၼ": 279,
      "ၽ": 280,
      "ၾ": 281,
      "ၿ": 282,
      "ႁ": 283,
      "ႂ": 284,
      "ႃ": 285,
      "ႄ": 286,
      "ႅ": 287,
      "ႆ": 288,
      "ႇ": 289,
      "ႈ": 290,
      "ႉ": 291,
      "ႊ": 292,
      "ႌ": 293,
      "႐": 294,
      "႑": 295,
      "႒": 296,
      "႓": 297,
      "႔": 298,
      "႕": 299,
      "႖": 300,
      "႘": 301,
      "႙": 302,
      "႞": 303,
      "Ṭ": 304,
      "ṭ": 305,
      "​": 306,
      "‌": 307,
      "‏": 308,
      "–": 309,
      "—": 310,
      "‘": 311,
      "’": 312,
      "‚": 313,
      "“": 314,
      "”": 315,
      "„": 316,
      "•": 317,
      "…": 318,
      "″": 319,
      "›": 320,
      "⁠": 321,
      "−": 322,
      "▸": 323,
      "●": 324,
      "区": 325,
      "厅": 326,
      "商": 327,
      "培": 328,
      "学": 329,
      "寨": 330,
      "工": 331,
      "市": 332,
      "昆": 333,
      "明": 334,
      "板": 335,
      "永": 336,
      "理": 337,
      "生": 338,
      "白": 339,
      "盘": 340,
      "管": 341,
      "训": 342,
      "路": 343,
      "边": 344,
      "院": 345,
      "餐": 346,
      "龙": 347,
      "꤀": 348,
      "꤁": 349,
      "꤂": 350,
      "꤄": 351,
      "꤈": 352,
      "ꤊ": 353,
      "ꤋ": 354,
      "ꤌ": 355,
      "ꤍ": 356,
      "ꤎ": 357,
      "ꤏ": 358,
      "ꤐ": 359,
      "ꤑ": 360,
      "ꤒ": 361,
      "ꤓ": 362,
      "ꤔ": 363,
      "ꤕ": 364,
      "ꤖ": 365,
      "ꤗ": 366,
      "ꤘ": 367,
      "ꤙ": 368,
      "ꤚ": 369,
      "ꤛ": 370,
      "ꤜ": 371,
      "ꤝ": 372,
      "ꤞ": 373,
      "ꤟ": 374,
      "ꤠ": 375,
      "ꤡ": 376,
      "ꤢ": 377,
      "ꤣ": 378,
      "ꤤ": 379,
      "ꤥ": 380,
      "ꤦ": 381,
      "ꤧ": 382,
      "ꤨ": 383,
      "ꤩ": 384,
      "ꤪ": 385,
      "꤫": 386,
      "꤬": 387,
      "꤭": 388,
      "꤮": 389,
      "꤯": 390,
      "ꧠ": 391,
      "ꧣ": 392,
      "ꨁ": 393,
      "ꨅ": 394,
      "꨸": 395,
      "ꩪ": 396,
      "်း": 397,
      "an": 398,
      "င်": 399,
      "ၣ်": 400,
      "ို": 401,
      "in": 402,
      "ၼ်": 403,
      "ah": 404,
      "ၢ်": 405,
      "င်း": 406,
      "ဝ်": 407,
      "aw": 408,
      "na": 409,
      "ng": 410,
      "ih": 411,
      "ိူ": 412,
      "ီး": 413,
      "ang": 414,
      "ာ်": 415,
      "ၼ်း": 416,
      "th": 417,
      "မ်": 418,
      "kh": 419,
      "ႃႈ": 420,
      "လၢ": 421,
      "ီၤ": 422,
      "am": 423,
      "ော": 424,
      "တ်": 425,
      "cu": 426,
      "ꤢꤩ": 427,
      "့ၣ်": 428,
      "င်ႈ": 429,
      "hi": 430,
      "ꤣꤧ": 431,
      "ၵ်": 432,
      "ား": 433,
      "က်": 434,
      "mi": 435,
      "တၢ်": 436,
      "le": 437,
      "te": 438,
      "မ်း": 439,
      "လၧ": 440,
      "si": 441,
      "တီ": 442,
      "pa": 443,
      "ၩ့": 444,
      "ak": 445,
      "ၼႆ": 446,
      "ing": 447,
      "tu": 448,
      "ꤢꤩ꤬": 449,
      "ီၪ": 450,
      "ဝ်း": 451,
      "ႃး": 452,
      "ပ်": 453,
      "ꤢꤧ": 454,
      "မိူ": 455,
      "ka": 456,
      "ၵူ": 457,
      "ယ်": 458,
      "ပြ": 459,
      "uh": 460,
      "ဲ့": 461,
      "ၢႆ": 462,
      "လီၤ": 463,
      "ti": 464,
      "ဆၧ": 465,
      "ai": 466,
      "ႃႇ": 467,
      "တွ": 468,
      "တီႈ": 469,
      "ဒီး": 470,
      "ေး": 471,
      "တ်း": 472,
      "ဝ်ႈ": 473,
      "ဝဲ": 474,
      "ၢၼ်": 475,
      "့ၢ်": 476,
      "kha": 477,
      "ꤢ꤬": 478,
      "ding": 479,
      "ꤣꤧ꤬": 480,
      "န့ၣ်": 481,
      "lo": 482,
      "ei": 483,
      "လူ": 484,
      "လီ": 485,
      "ၪ့": 486,
      "ung": 487,
      "ီၣ်": 488,
      "့ၫ": 489,
      "တေ": 490,
      "ိၣ်": 491,
      "ၼ်ႉ": 492,
      "al": 493,
      "hna": 494,
      "ႂ်": 495,
      "င်ႇ": 496,
      "ကြ": 497,
      "စ်": 498,
      "ၵ်း": 499,
      "ကို": 500,
      "ၫ့": 501,
      "မိူင်း": 502,
      "ဝႃႈ": 503,
      "ၵေ": 504,
      "ဝ့ၫ": 505,
      "န်": 506,
      "မှ": 507,
      "ၵူၼ်း": 508,
      "ႄႈ": 509,
      "ဘၣ်": 510,
      "un": 511,
      "ည်": 512,
      "um": 513,
      "ႆး": 514,
      "လု": 515,
      "ၼႆႉ": 516,
      "ိုင်": 517,
      "ႆႈ": 518,
      "့်": 519,
      "ဲၤ": 520,
      "ပွ": 521,
      "ံး": 522,
      "ၵ်ႈ": 523,
      "ကျ": 524,
      "နီၪ": 525,
      "ႁူ": 526,
      "nak": 527,
      "ပှ": 528,
      "pi": 529,
      "ong": 530,
      "ဵၼ်": 531,
      "တၭ": 532,
      "ချ": 533,
      "nih": 534,
      "ꤢꤨ": 535,
      "ရှ": 536,
      "awl": 537,
      "ံၤ": 538,
      "ယူ": 539,
      "ႃႉ": 540,
      "မိ": 541,
      "ပှၤ": 542,
      "မ်ႇ": 543,
      "ၢင်း": 544,
      "သူ": 545,
      "လွ": 546,
      "ၢင်": 547,
      "hm": 548,
      "ki": 549,
      "ယွ": 550,
      "ဖိ": 551,
      "တူ": 552,
      "တယ်": 553,
      "ံၪ": 554,
      "လႆႈ": 555,
      "ို့": 556,
      "တဖ": 557,
      "ua": 558,
      "ပဵၼ်": 559,
      "ci": 560,
      "မျ": 561,
      "en": 562,
      "လိ": 563,
      "မွ": 564,
      "တဖၣ်": 565,
      "ိုင်ႈ": 566,
      "့ၤ": 567,
      "thi": 568,
      "ူး": 569,
      "လီၫ": 570,
      "မႃး": 571,
      "ၼၼ်ႉ": 572,
      "ႂ်း": 573,
      "သု": 574,
      "ီၢ်": 575,
      "lai": 576,
      "သို": 577,
      "ၼႂ်း": 578,
      "ဒဲ": 579,
      "မီး": 580,
      "ၥံၪ": 581,
      "ၵ်ႇ": 582,
      "တွေ": 583,
      "တ်ႈ": 584,
      "ဵင်း": 585,
      "se": 586,
      "ဝ်ႉ": 587,
      "ၢၼ်ႈ": 588,
      "အဂ": 589,
      "ဖြ": 590,
      "မု": 591,
      "မၤ": 592,
      "ဢၼ်": 593,
      "awi": 594,
      "သေ": 595,
      "ပေ": 596,
      "မူ": 597,
      "ဘဲ": 598,
      "ိး": 599,
      "မ်ႈ": 600,
      "စီၤ": 601,
      "ar": 602,
      "ံၭ": 603,
      "mah": 604,
      "ပူ": 605,
      "ခွ": 606,
      "ပါ": 607,
      "တၢင်း": 608,
      "at": 609,
      "န့ၣ်လီၤ": 610,
      "ဢမ်ႇ": 611,
      "သး": 612,
      "မ်ႉ": 613,
      "ၵၼ်": 614,
      "angin": 615,
      "လၧအ": 616,
      "နေ": 617,
      "အဝဲ": 618,
      "pawl": 619,
      "ꤥ꤬": 620,
      "ထီၣ်": 621,
      "ၼ်ႈ": 622,
      "ꤢꤧ꤭": 623,
      "င့်": 624,
      "ၸိူ": 625,
      "တႆး": 626,
      "nan": 627,
      "အီၪ": 628,
      "အိၣ်": 629,
      "ောင်": 630,
      "မ့ၢ်": 631,
      "el": 632,
      "တဲ့": 633,
      "cun": 634,
      "သိုၵ်း": 635,
      "ဘၪ": 636,
      "ၵႂ": 637,
      "လႄႈ": 638,
      "ꤢꤧ꤬": 639,
      "ဢွ": 640,
      "khat": 641,
      "ၶႃႈ": 642,
      "thu": 643,
      "ႁဵ": 644,
      "pe": 645,
      "ယူႇ": 646,
      "Pa": 647,
      "su": 648,
      "ဝၼ်း": 649,
      "he": 650,
      "ပ်း": 651,
      "hr": 652,
      "20": 653,
      "ဝ်ႇ": 654,
      "ၵေႃႈ": 655,
      "ꤢꤪ": 656,
      "awh": 657,
      "ောက်": 658,
      "သွ": 659,
      "နှ": 660,
      "မၩ": 661,
      "ဝဵင်း": 662,
      "လၢအ": 663,
      "ၵေႃႉ": 664,
      "ဲး": 665,
      "သ့ၣ်": 666,
      "ၢႆး": 667,
      "မွဲ": 668,
      "ၥၭ": 669,
      "bi": 670,
      "ဝႃႈၼႆ": 671,
      "ကွ": 672,
      "ch": 673,
      "့ၪ": 674,
      "ိၭ": 675,
      "ိုး": 676,
      "ောင်း": 677,
      "ဳၤ": 678,
      "ၵ်ႉ": 679,
      "ၵႂႃႇ": 680,
      "အခ": 681,
      "သည်": 682,
      "ရှိ": 683,
      ".-": 684,
      "au": 685,
      "ၵၢၼ်": 686,
      "န်း": 687,
      "ဖြစ်": 688,
      "ထၪ့": 689,
      "လဲ": 690,
      "များ": 691,
      "ၽူ": 692,
      "တ်ႇ": 693,
      "ၱာ်": 694,
      "ႆႉ": 695,
      "လူင်": 696,
      "ၧၩ့": 697,
      "ည်း": 698,
      "တ်ႉ": 699,
      "ဘဲၫ": 700,
      "ꤢ꤭": 701,
      "ꤢꤦ": 702,
      "ံၣ်": 703,
      "ယဝ်ႉ": 704,
      "တို": 705,
      "ပို": 706,
      "awipa": 707,
      "ၸိုင်ႈ": 708,
      "hl": 709,
      "တာ": 710,
      "ၽူႈ": 711,
      "ꤞꤤ": 712,
      "အီၤ": 713,
      "ph": 714,
      "နိုင်": 715,
      "ၸွ": 716,
      "ပူၤ": 717,
      "hong": 718,
      "လို": 719,
      "လိူ": 720,
      "ꤔꤣꤧ꤬": 721,
      "မှာ": 722,
      ",”": 723,
      "Bawipa": 724,
      "sa": 725,
      "ပၢင်": 726,
      "ံၫ": 727,
      "ႁွ": 728,
      "လွင်ႈ": 729,
      "ႁဝ်း": 730,
      "im": 731,
      "င်ႉ": 732,
      "ꤣꤧ꤭": 733,
      "ံာ်": 734,
      "ုမ်း": 735,
      "ိၪ": 736,
      "ပျ": 737,
      "ႂ်ႈ": 738,
      "မြ": 739,
      "ဒ်": 740,
      "ဒီ": 741,
      "kan": 742,
      "ဒု": 743,
      "စီ": 744,
      "ဝႆႉ": 745,
      "ယွၤ": 746,
      "tl": 747,
      "ပ်ႉ": 748,
      "uah": 749,
      "ၸႄႈ": 750,
      "ṭh": 751,
      "တု": 752,
      "တော်": 753,
      "တႄ": 754,
      "ရေး": 755,
      "ႁဵတ်း": 756,
      "ဆို": 757,
      "တင်း": 758,
      "sung": 759,
      "tiah": 760,
      "ꤢꤨ꤭": 761,
      "ra": 762,
      "hn": 763,
      "့ၩ": 764,
      "အဖ": 765,
      "ꤒꤣꤧ꤬": 766,
      "ၼ်ႇ": 767,
      "ဒၪ": 768,
      "angah": 769,
      "sin": 770,
      "ခံ": 771,
      "ဝၢၼ်ႈ": 772,
      "awn": 773,
      "ၸုမ်း": 774,
      "တိ": 775,
      "ပီ": 776,
      "ဖိၪ": 777,
      "ီၩ": 778,
      "ယၢ": 779,
      "ၸဝ်ႈ": 780,
      "Cu": 781,
      "မိူဝ်ႈ": 782,
      "ꤢꤩ꤭": 783,
      "thian": 784,
      "ႅင်း": 785,
      "ၸၢ": 786,
      "ပြီး": 787,
      "ထီး": 788,
      "ၸိူဝ်း": 789,
      "ထု": 790,
      "ႆႇ": 791,
      "ဲာ်": 792,
      "ပ်ႇ": 793,
      "tung": 794,
      "thl": 795,
      "ခဲ့": 796,
      "လၢတ်ႈ": 797,
      "မၼ်း": 798,
      "ꤘꤣ": 799,
      "တဲၤ": 800,
      "ဖျ": 801,
      "လဵ": 802,
      "ထဲ": 803,
      "Je": 804,
      "tuah": 805,
      "ဂၤ": 806,
      "့ၬ": 807,
      "ၵူၼ်းမိူင်း": 808,
      "ri": 809,
      "ꤚꤣꤧ꤬": 810,
      "ၺ်း": 811,
      "ခြ": 812,
      "Pathian": 813,
      "ꤢꤦ꤬": 814,
      "ရာ": 815,
      "အံၤ": 816,
      "amah": 817,
      "အဝဲသ့ၣ်": 818,
      "ru": 819,
      "အက": 820,
      "အဝ့ၫ": 821,
      "ိုၼ်း": 822,
      "ꤔꤢꤧ": 823,
      "awm": 824,
      "ca": 825,
      "လဖ": 826,
      "em": 827,
      "နဲ့": 828,
      "ၸႂ်": 829,
      "ꤒꤢꤩ꤬": 830,
      "မၢၼ်ႈ": 831,
      "kah": 832,
      "အစ": 833,
      "ႁူမ်ႈ": 834,
      "ၧၫ့": 835,
      "ၶၢ": 836,
      "sak": 837,
      "ၢႆႇ": 838,
      "ၵွ": 839,
      "kei": 840,
      "li": 841,
      "on": 842,
      "သင်": 843,
      "ပၼ်": 844,
      "ယိ": 845,
      "တႄႉ": 846,
      "ter": 847,
      "ပြော": 848,
      "awng": 849,
      "ko": 850,
      "ဆူ": 851,
      "လၩ့": 852,
      "khua": 853,
      "ta": 854,
      "ၶဝ်": 855,
      "ၼိုင်ႈ": 856,
      "eih": 857,
      "သီ": 858,
      "လး": 859,
      "သံ": 860,
      "ၶူ": 861,
      "တက": 862,
      "မှု": 863,
      "ၶဝ်ႈ": 864,
      "ယီၩ": 865,
      "ၼမ်ႉ": 866,
      "ၥိၭ": 867,
      "ဝၼ်းတီႈ": 868,
      "ram": 869,
      "လုပ်": 870,
      "သိ": 871,
      "ꤖꤚ": 872,
      "ꤥ꤭": 873,
      "တစ်": 874,
      "lung": 875,
      "ꤞꤤ꤭": 876,
      "ciangin": 877,
      "ကစ": 878,
      "man": 879,
      "တႃႇ": 880,
      "lei": 881,
      "လဖၪ": 882,
      "ပၢႆ": 883,
      "ၸႄႈဝဵင်း": 884,
      "ထား": 885,
      "om": 886,
      "ၾၢႆႇ": 887,
      "နဳၤ": 888,
      "pah": 889,
      "vi": 890,
      "ၸၢႆး": 891,
      "ၶွ": 892,
      "fa": 893,
      "inn": 894,
      "ဝ်ႊ": 895,
      "khan": 896,
      "ႁူဝ်": 897,
      "ထႅ": 898,
      "ော်": 899,
      "Tua": 900,
      "ီၩ့": 901,
      "မၢ": 902,
      "ꤣ꤬": 903,
      "စု": 904,
      "က့ၤ": 905,
      "သိး": 906,
      "ပေး": 907,
      "ဢဝ်": 908,
      "ၽွ": 909,
      "ဒါ": 910,
      "uan": 911,
      "lak": 912,
      "ထိုင်": 913,
      "ဖဲ": 914,
      "Is": 915,
      "စံး": 916,
      "မုၢ်": 917,
      "စိ": 918,
      "လၢတၢ်": 919,
      "ꤟꤢꤩ꤬": 920,
      "ႁႂ်ႈ": 921,
      "ပု": 922,
      "ဒဳ": 923,
      "လံ": 924,
      "ဂၩ": 925,
      "thei": 926,
      "နၥံၪ": 927,
      "zong": 928,
      "ယၤ": 929,
      "အတၢ်": 930,
      "ၵၢင်": 931,
      "တဂၤ": 932,
      "ꤖꤚꤢꤩ꤬": 933,
      "ယဟ": 934,
      "ni": 935,
      "စံၭ": 936,
      "အၥၭ": 937,
      "ၼင်ႇ": 938,
      "ရား": 939,
      "လာ": 940,
      "ယု": 941,
      "ve": 942,
      "khi": 943,
      "rang": 944,
      "rael": 945,
      "Israel": 946,
      "tak": 947,
      "စာ": 948,
      "ဒၣ်": 949,
      "ut": 950,
      "ဟု": 951,
      "အဲ": 952,
      "ဢွၵ်ႇ": 953,
      "uk": 954,
      "ပွင်": 955,
      "ည့်": 956,
      "lam": 957,
      "ႁႅင်း": 958,
      "ပေႃး": 959,
      "opa": 960,
      "dah": 961,
      "ေႃႈ": 962,
      "အမ": 963,
      "ꤒꤣꤧ꤬ꤟꤢꤩ꤬": 964,
      "ပြည်": 965,
      "ယၢမ်း": 966,
      "ထူ": 967,
      "tawh": 968,
      "ꤤ꤬": 969,
      "ပိူ": 970,
      "zi": 971,
      "pek": 972,
      "ၼွ": 973,
      "တႅ": 974,
      "ဘု": 975,
      "chung": 976,
      "et": 977,
      "ၸွမ်း": 978,
      "zo": 979,
      "လို့": 980,
      "လိၵ်ႈ": 981,
      "ႁဝ်းၶႃႈ": 982,
      "သၢ": 983,
      "ော့": 984,
      "nu": 985,
      "chi": 986,
      "Topa": 987,
      "ယဟိ": 988,
      "ၵူၺ်း": 989,
      "လၧဆၧ": 990,
      "ႂ်ႇ": 991,
      "ahi": 992,
      "ꤒꤣ꤬": 993,
      "ခြင်း": 994,
      "အၪ့": 995,
      "ဦး": 996,
      "ံၬ": 997,
      "peuh": 998,
      "19": 999,
      "ရွ": 1000,
      "လဵဝ်": 1001,
      "ခဲ": 1002,
      "ကြီး": 1003,
      "dingin": 1004,
      "ရဲ့": 1005,
      "tikah": 1006,
      "အတွ": 1007,
      "ꤟꤢꤩ": 1008,
      "ကြောင်း": 1009,
      "တို့": 1010,
      "တၢ": 1011,
      "အီၣ်": 1012,
      "ကွံာ်": 1013,
      "mite": 1014,
      "ၶိူ": 1015,
      "ကၱာ်": 1016,
      "လည်း": 1017,
      "꤫ꤢꤦ꤬": 1018,
      "ႁၢ": 1019,
      "ခီ": 1020,
      "ပာ်": 1021,
      "ီၪ့": 1022,
      "နဲ": 1023,
      "va": 1024,
      "la": 1025,
      "꤫ꤢꤩ꤬": 1026,
      "အသး": 1027,
      "ဝၩ": 1028,
      "nga": 1029,
      "လှ": 1030,
      "seh": 1031,
      "ဖၧၩ့": 1032,
      "ူၣ်": 1033,
      "အပူၤ": 1034,
      "min": 1035,
      "စား": 1036,
      "ဟာ": 1037,
      "ပွတ်း": 1038,
      "caah": 1039,
      "ပေါ": 1040,
      "bang": 1041,
      "ၵျ": 1042,
      "ul": 1043,
      "angpah": 1044,
      "angpahrang": 1045,
      "hih": 1046,
      "ကစၢ်": 1047,
      "ဘိ": 1048,
      "ကဲ": 1049,
      "awk": 1050,
      "ဘၣ်တၢ်": 1051,
      "kum": 1052,
      "tuk": 1053,
      "လီၢ်": 1054,
      "န့": 1055,
      "za": 1056,
      "တော့": 1057,
      "ဘူး": 1058,
      "ꤗꤢꤩ꤬": 1059,
      "ချက်": 1060,
      "ၸိုင်ႈတႆး": 1061,
      ".”": 1062,
      "ယၫ": 1063,
      "မံ": 1064,
      "ဳး": 1065,
      "ဂ့ၤ": 1066,
      "ၸိူဝ်းၼႆႉ": 1067,
      "tungah": 1068,
      "ꤢꤨ꤬": 1069,
      "gam": 1070,
      "တ့ၢ်": 1071,
      "ရ့": 1072,
      "hman": 1073,
      "ၧၩ": 1074,
      "ꤛꤢꤩ꤬": 1075,
      "aute": 1076,
      "ပ်ႈ": 1077,
      "လၢႆး": 1078,
      "ႁိူ": 1079,
      "စီာ်": 1080,
      "တူဝ်": 1081,
      "ယဲ": 1082,
      "တက့ၢ်": 1083,
      "ခု": 1084,
      "န့ၢ်": 1085,
      "ခိၣ်": 1086,
      "တွင်": 1087,
      "ၶိုၼ်း": 1088,
      "ral": 1089,
      "စဲာ်": 1090,
      "leh": 1091,
      "ထွ": 1092,
      "လႅ": 1093,
      "pakhat": 1094,
      "ကဲၤ": 1095,
      "Mi": 1096,
      "နံၤ": 1097,
      "သား": 1098,
      "ကီၢ်": 1099,
      "Cun": 1100,
      "ယဟိဝၩ": 1101,
      "ခွံၬ": 1102,
      "ဟဲ": 1103,
      "ပြု": 1104,
      "ံၪ့": 1105,
      "biak": 1106,
      "khem": 1107,
      "တေႃႇ": 1108,
      "ထိ": 1109,
      "SS": 1110,
      "ထီ": 1111,
      "လုၢ်": 1112,
      "pai": 1113,
      "nang": 1114,
      "sian": 1115,
      "ဘာ": 1116,
      "ယို": 1117,
      "es": 1118,
      "Ka": 1119,
      "ရု": 1120,
      "ၼႃႈ": 1121,
      "့ၭ": 1122,
      "pan": 1123,
      "ကိ": 1124,
      "hiam": 1125,
      "အဃ": 1126,
      "ၢၤ": 1127,
      "ဒိၣ်": 1128,
      "hnen": 1129,
      "လူင်ပွင်": 1130,
      "ၵု": 1131,
      "မာ": 1132,
      "ပႃႇ": 1133,
      "င့်": 1134,
      "hmuah": 1135,
      "Na": 1136,
      "သွား": 1137,
      "ပိ": 1138,
      "သမ်ႉ": 1139,
      "bangin": 1140,
      "dang": 1141,
      "အဆၧ": 1142,
      "တွေကို": 1143,
      "တပ်ႉ": 1144,
      "ခိၪ": 1145,
      "လူင်ပွင်ၸိုင်ႈ": 1146,
      "bia": 1147,
      "ဘုရား": 1148,
      "ꤟꤣꤧ": 1149,
      "ဎွ": 1150,
      "ꤠꤢꤧ꤭": 1151,
      "အဂီၢ်": 1152,
      "hnak": 1153,
      "cung": 1154,
      "ရင်": 1155,
      "ယူႇတီႈ": 1156,
      "ႁိူၼ်း": 1157,
      "လၤ": 1158,
      "အန": 1159,
      "khempeuh": 1160,
      "ထံ": 1161,
      "ၼမ်": 1162,
      "ထႅင်ႈ": 1163,
      "ဆု": 1164,
      "ဝိ": 1165,
      "sim": 1166,
      "ထဲၩ့": 1167,
      "အကျ": 1168,
      "ဖို့": 1169,
      "အ့ၬ": 1170,
      "လူၬ": 1171,
      "သက်": 1172,
      "အဝ့ၫၥံၪ": 1173,
      "တီႇ": 1174,
      "rak": 1175,
      "Pasian": 1176,
      "pen": 1177,
      "နှစ်": 1178,
      "အဂဲး": 1179,
      "ဒေ": 1180,
      "လၢႆ": 1181,
      "thil": 1182,
      "ꤜꤢꤪ": 1183,
      "ပၤ": 1184,
      "ထႆး": 1185,
      "ဘျ": 1186,
      "သဵ": 1187,
      "alte": 1188,
      "ဝၤ": 1189,
      "ဢွၼ်": 1190,
      "ိူဝ်": 1191,
      "ပွၵ်ႈ": 1192,
      "fapa": 1193,
      "ဆောင်": 1194,
      "ahih": 1195,
      "ႁူင်း": 1196,
      "ကျမ်း": 1197,
      "ho": 1198,
      "duh": 1199,
      "အဃိ": 1200,
      "siangpahrang": 1201,
      "ညါ": 1202,
      "ma": 1203,
      "တိုၵ်း": 1204,
      "ုပ်": 1205,
      "ဝ့ၢ်": 1206,
      "ဘဲာ်": 1207,
      "ပၢ": 1208,
      "အဖၧၩ့": 1209,
      "စရ့": 1210,
      "ၡၩ": 1211,
      "လဲၤ": 1212,
      "ꤗꤢ꤬": 1213,
      "ui": 1214,
      "လက်": 1215,
      "ၸဵ": 1216,
      "sungah": 1217,
      "လဂၩ": 1218,
      "ဂ့ၩ": 1219,
      "ခွါ": 1220,
      "ရိ": 1221,
      "မံၤ": 1222,
      "ပဲ": 1223,
      "အတွက်": 1224,
      "ထၢ": 1225,
      "er": 1226,
      "ṭha": 1227,
      "ၺ်": 1228,
      "ၶိူဝ်း": 1229,
      "eh": 1230,
      "ꤢ꤬ꤋ": 1231,
      "ဆိ": 1232,
      "Jo": 1233,
      "မျိုး": 1234,
      "ꤡꤢꤪ": 1235,
      "theih": 1236,
      "ဆှ": 1237,
      "ဂဲ": 1238,
      "အၥိၭ": 1239,
      "လိူၼ်": 1240,
      "ိၼ်": 1241,
      "ငံ": 1242,
      "ၶႅ": 1243,
      "no": 1244,
      "လၢ်": 1245,
      "ကိုယ်": 1246,
      "ခင်": 1247,
      "နိုင်ငံ": 1248,
      "တၢႆ": 1249,
      "The": 1250,
      "လုၵ်ႈ": 1251,
      "hnenah": 1252,
      "ယႃ": 1253,
      "နၤ": 1254,
      "ꤊꤣꤧ꤬": 1255,
      "ruangah": 1256,
      "လၢာ်": 1257,
      "ပါတယ်": 1258,
      "ွန်": 1259,
      "လါ": 1260,
      "mar": 1261,
      "နု": 1262,
      "ဆံၭ": 1263,
      "မယ်": 1264,
      "အသိး": 1265,
      "ၵႃႈ": 1266,
      "Tim": 1267,
      "khal": 1268,
      "ပႃႇတီႇ": 1269,
      "ဟ့ၣ်": 1270,
      "အား": 1271,
      "ောင့်": 1272,
      "My": 1273,
      "ဒီးတၢ်": 1274,
      "ပၢႆႈ": 1275,
      "ကမ": 1276,
      "ꤟꤢꤨ": 1277,
      "Myan": 1278,
      "မို": 1279,
      "ဂီၢ်": 1280,
      "00": 1281,
      "ဝင်": 1282,
      "ၼႄ": 1283,
      "Myanmar": 1284,
      "ၥ့ၪ": 1285,
      "လဲၣ်": 1286,
      "ယွၩ": 1287,
      "sehl": 1288,
      "လူင်း": 1289,
      "နာ": 1290,
      "နီး": 1291,
      "ၶၢဝ်း": 1292,
      "လၭ": 1293,
      "nei": 1294,
      "အ့ၪ": 1295,
      "ပႃး": 1296,
      "ek": 1297,
      "လၧၦ": 1298,
      "cang": 1299,
      "ṭhe": 1300,
      "ယေ": 1301,
      "ညီ": 1302,
      "ၸတ်း": 1303,
      "သိုၵ်းမၢၼ်ႈ": 1304,
      "ဘဲၫယီၩ": 1305,
      "ဆၢ": 1306,
      "ၵဵ": 1307,
      "တွၼ်ႈ": 1308,
      "amaute": 1309,
      "ꤊ꤫ꤢꤦ꤬": 1310,
      "Times": 1311,
      "ꤝꤢ": 1312,
      "ိမ်": 1313,
      "ံၩ": 1314,
      "inak": 1315,
      "တဲ": 1316,
      "꤫ꤢꤧ꤬": 1317,
      "panin": 1318,
      "စေ": 1319,
      "လွှ": 1320,
      "ကစၢ်ယွၤ": 1321,
      "ꤒꤥ꤬": 1322,
      "ဒိ": 1323,
      "ဝ့ၫဒၪ": 1324,
      "တင်ႈ": 1325,
      "လၧယ": 1326,
      "21": 1327,
      "ဝန်": 1328,
      "An": 1329,
      "တၢင်းပဵၼ်": 1330,
      "လေး": 1331,
      "maw": 1332,
      "မၱာ်": 1333,
      "မၢႆ": 1334,
      "ချိ": 1335,
      "ၼၢင်း": 1336,
      "ၺႃး": 1337,
      "gen": 1338,
      "ကိး": 1339,
      "ဆၣ်": 1340,
      "ၵမ်း": 1341,
      "ၵူၼ်းဝၢၼ်ႈ": 1342,
      "Si": 1343,
      "ရူ": 1344,
      "sal": 1345,
      "မေ": 1346,
      "kiangah": 1347,
      "ahcun": 1348,
      "ပြန်": 1349,
      "ban": 1350,
      "မည်": 1351,
      "manh": 1352,
      "တွႆႇ": 1353,
      "ဆံ": 1354,
      "ꤙꤢꤩ꤬": 1355,
      "ဆါ": 1356,
      "ငိုၼ်း": 1357,
      "ၵူႈ": 1358,
      "အၫ": 1359,
      "လၧန": 1360,
      "ကျွန်": 1361,
      "ꤛꤢꤩ꤬ꤞꤤ꤭": 1362,
      "ထောင်": 1363,
      "chim": 1364,
      "ယွၼ်ႉ": 1365,
      "vialte": 1366,
      "kal": 1367,
      "သီႇ": 1368,
      "သ့": 1369,
      "လ့ၩ": 1370,
      "ထီးအ": 1371,
      "သာ": 1372,
      "ၸိူဝ်ႉ": 1373,
      "tua": 1374,
      "သႅ": 1375,
      "ꤤ꤭": 1376,
      "နှင့်": 1377,
      "ႁွၵ်ႈ": 1378,
      "ၶို": 1379,
      "လိၼ်": 1380,
      "ပၠ": 1381,
      "တင်": 1382,
      "ama": 1383,
      "201": 1384,
      "စိတ်": 1385,
      "ံၢ်": 1386,
      "ၽူႈတွႆႇ": 1387,
      "ၶူဝ်ႊ": 1388,
      "လျ": 1389,
      "ꤛꤢꤧ꤭": 1390,
      "ႁို": 1391,
      "ser": 1392,
      "လီၩ့": 1393,
      "မၢၵ်ႇ": 1394,
      "ဢု": 1395,
      "ပိုၼ်ႉ": 1396,
      "ီႈ": 1397,
      "ရန်": 1398,
      "ဒုၭ": 1399,
      "ႁဵၼ်း": 1400,
      "ampi": 1401,
      "ပၠၤ": 1402,
      "မူတ်း": 1403,
      "ၽွင်း": 1404,
      "ထာ်": 1405,
      "di": 1406,
      "ဢိူ": 1407,
      "ၼု": 1408,
      "ဒုး": 1409,
      "ခွၫ": 1410,
      "ၽူႈတွႆႇႁွၵ်ႈ": 1411,
      "လၢတ်ႈတီႈ": 1412,
      "လိုက်": 1413,
      "အီၪက": 1414,
      "ꤊꤣꤧ꤬ꤛꤢꤧ꤭": 1415,
      "မဲၤ": 1416,
      "aa": 1417,
      "ႁူႉ": 1418,
      "ၶမ်း": 1419,
      "သော": 1420,
      "ၽၢ": 1421,
      "ၵဵင်း": 1422,
      "တိူ": 1423,
      "hng": 1424,
      "or": 1425,
      "sh": 1426,
      "ၵႃး": 1427,
      "sual": 1428,
      "꤫ꤥ꤬": 1429,
      "pei": 1430,
      "စီၤပၤ": 1431,
      "အောင်": 1432,
      "ကျမ်းစာ": 1433,
      "ꤜꤢꤨ꤭": 1434,
      "ဆ့": 1435,
      "အဖိၪ": 1436,
      "ပႆႇ": 1437,
      "ꤒꤣ꤬ꤖꤚꤢꤩ꤬": 1438,
      "kong": 1439,
      "eng": 1440,
      "ကယဲ": 1441,
      "ဒီၣ်": 1442,
      "hmuh": 1443,
      "ၸေ": 1444,
      "စွ": 1445,
      "ပွဲၤ": 1446,
      "ႁိုဝ်": 1447,
      "ယက": 1448,
      "Da": 1449,
      "လိူဝ်": 1450,
      "ၽေး": 1451,
      "ချဲ": 1452,
      "thum": 1453,
      "လွှတ်": 1454,
      "ထတ်း": 1455,
      "phun": 1456,
      "လၢတ်ႈဝႃႈ": 1457,
      "ဝိတ်ႉ": 1458,
      "ꤢꤪ꤬": 1459,
      "cih": 1460,
      "zei": 1461,
      "သုံး": 1462,
      "ပိုၼ်": 1463,
      "ခဲလၢာ်": 1464,
      "စဲ": 1465,
      "Jes": 1466,
      "ၸွႆႈ": 1467,
      "tho": 1468,
      "နီၪလီၫ": 1469,
      "uai": 1470,
      "ၵျွ": 1471,
      "ယ့ၣ်": 1472,
      "ဂဲၫ": 1473,
      "တုမ်": 1474,
      "piak": 1475,
      "nung": 1476,
      "ကူ": 1477,
      "par": 1478,
      "နီၢ်": 1479,
      "ꤖꤢꤨ": 1480,
      "hin": 1481,
      "ဉ်": 1482,
      "Ju": 1483,
      "van": 1484,
      "မိူင်းတႆး": 1485,
      "ဝါ": 1486,
      "ႄး": 1487,
      "ၵၢ": 1488,
      "ꤚꤢꤧ꤬": 1489,
      "ဆုံး": 1490,
      "do": 1491,
      "တႃႈ": 1492,
      "ူၪ": 1493,
      "lem": 1494,
      "loin": 1495,
      "အဂး": 1496,
      "ၶူဝ်ႊဝိတ်ႉ": 1497,
      "ဢိူင်ႇ": 1498,
      "leng": 1499,
      "အဲဒီ": 1500,
      "ၶၢဝ်ႇ": 1501,
      "sawm": 1502,
      "တုၤ": 1503,
      "သူၣ်": 1504,
      "Jesuh": 1505,
      "လိၤ": 1506,
      "Hi": 1507,
      "ႁႃ": 1508,
      "ဢေႃႈ": 1509,
      "ကြောင့်": 1510,
      "ကောင်း": 1511,
      "ၶႄ": 1512,
      "ၽၢဝ်ႇ": 1513,
      "ꤗꤣꤧ꤬": 1514,
      "sang": 1515,
      "နီ": 1516,
      "အဂဲးဘဲၫယီၩ": 1517,
      "ꤡꤢꤪꤗꤣꤧ꤬": 1518,
      "ꤡꤢꤪꤗꤣꤧ꤬ꤚꤢꤧ꤬": 1519,
      "လေ": 1520,
      "hangin": 1521,
      "ယူၭ": 1522,
      "dingah": 1523,
      "ၵို": 1524,
      "ၼုမ်ႇ": 1525,
      "ဢူ": 1526,
      "မူင်း": 1527,
      "အံာ်": 1528,
      "ဘၣ်ဆၣ်": 1529,
      "ꤕꤢꤩ꤬": 1530,
      "kap": 1531,
      "ihsin": 1532,
      "ပိုၼ်ၽၢဝ်ႇ": 1533,
      "ဂီၢ်မုၢ်": 1534,
      "ကြား": 1535,
      "ိၤ": 1536,
      "နး": 1537,
      "hmun": 1538,
      "Mo": 1539,
      "အခါ": 1540,
      "ၸိူင်ႉ": 1541,
      "ရက်": 1542,
      "ၽူႈတွႆႇႁွၵ်ႈဝႃႈ": 1543,
      "ိုက်": 1544,
      "sinah": 1545,
      "ွဲ့": 1546,
      "ထႅမ်": 1547,
      "ႁွင်ႇ": 1548,
      "Amah": 1549,
      "မိူၼ်": 1550,
      "hmai": 1551,
      "မဲ": 1552,
      "bantuk": 1553,
      "ကု": 1554,
      "ႁၼ်": 1555,
      "lh": 1556,
      "teʼ": 1557,
      "လ့ၤ": 1558,
      "2020": 1559,
      "ၢၣ်": 1560,
      "ဒ်သိး": 1561,
      "ဂီၤ": 1562,
      "lawng": 1563,
      "tin": 1564,
      "ပှၤဂီၢ်မုၢ်": 1565,
      "vid": 1566,
      "ရေ": 1567,
      "ၱး": 1568,
      "ဒၤ": 1569,
      "မွၵ်ႈ": 1570,
      "thin": 1571,
      "ပၢႆး": 1572,
      "လူႉ": 1573,
      "ဖော်": 1574,
      "Judah": 1575,
      "ကွၢ်": 1576,
      "ယိုဝ်း": 1577,
      "အထ": 1578,
      "ꤊꤢꤧ꤭": 1579,
      "တႅၼ်း": 1580,
      "ၵေႃႉၼိုင်ႈ": 1581,
      "ဘယ်": 1582,
      "ummi": 1583,
      "လုံး": 1584,
      "သိုပ်ႇ": 1585,
      "ꤛꤢ꤭": 1586,
      "tein": 1587,
      "ဘုရားသ": 1588,
      "ၶိုၼ်ႈ": 1589,
      "မႄး": 1590,
      "ိမ်း": 1591,
      "ွေ": 1592,
      "တိုင်း": 1593,
      "David": 1594,
      "ဢုပ်ႇ": 1595,
      "ထီးအလူၬ": 1596,
      "ဢိ": 1597,
      "မံၩ့": 1598,
      "ၥု": 1599,
      "သွင်": 1600,
      "ၶၢႆ": 1601,
      "dih": 1602,
      "ၵိၼ်": 1603,
      "ဘဲၫၥိၭ": 1604,
      "တူၵ်း": 1605,
      "လိူၵ်ႈ": 1606,
      "ပၢင်တိုၵ်း": 1607,
      "ချဲၩ့": 1608,
      "ual": 1609,
      "ထံၣ်": 1610,
      "lang": 1611,
      "သည့်": 1612,
      "10": 1613,
      "CSS": 1614,
      "စာ်": 1615,
      "ရှု": 1616,
      "ချိန်": 1617,
      "လိာ်": 1618,
      "ယၢမ်းလဵဝ်": 1619,
      "ၸပ်း": 1620,
      "ဃု": 1621,
      "Am": 1622,
      "ဝဲလၢ": 1623,
      "ဎွၩ": 1624,
      "သူ့": 1625,
      "ab": 1626,
      "mei": 1627,
      "ဟုတ်": 1628,
      "ပိူင်": 1629,
      "ဖး": 1630,
      "ၼၼ်": 1631,
      "ၶေႃႈ": 1632,
      "ihmanh": 1633,
      "အီၪက့ၪ": 1634,
      "de": 1635,
      "အု": 1636,
      "sehlaw": 1637,
      "ဟး": 1638,
      "ယႃႈ": 1639,
      "ihmanhsehlaw": 1640,
      "ွေး": 1641,
      ",’": 1642,
      "အတ": 1643,
      "ဝံ": 1644,
      "nun": 1645,
      "ႁူမ်ႈၵၼ်": 1646,
      "လွႆ": 1647,
      "ၸၢဝ်း": 1648,
      "manin": 1649,
      "ဒိၪ": 1650,
      "ဝူ": 1651,
      "hang": 1652,
      "ၸၢင်ႈ": 1653,
      "ꤟꤢꤧ꤭": 1654,
      "မၧၫ့": 1655,
      "hun": 1656,
      "လွှတ်တော်": 1657,
      "suah": 1658,
      "ကတိ": 1659,
      "ဝတ်ႉ": 1660,
      "ဒီးပှၤ": 1661,
      "မူႇ": 1662,
      "ၸိုင်ႈတႆးပွတ်း": 1663,
      "ၼွင်ႉ": 1664,
      "့း": 1665,
      "ဆက်": 1666,
      "ဘါ": 1667,
      "ယမိ": 1668,
      "ꤔꤢꤧ꤬": 1669,
      "ဆီ": 1670,
      "bawi": 1671,
      "kho": 1672,
      "သမ": 1673,
      "တီႉ": 1674,
      "မဟုတ်": 1675,
      "ဆိုတာ": 1676,
      "ႁူမ်ႈတုမ်": 1677,
      "ro": 1678,
      "လၧစ": 1679,
      "ၸတ်းႁဵတ်း": 1680,
      "2021": 1681,
      "ၵူတ်ႇ": 1682,
      "တပ်ႉသိုၵ်း": 1683,
      "pia": 1684,
      "ကာ": 1685,
      "ဢွၼ်ၵၼ်": 1686,
      "ၵူၼ်းၼုမ်ႇ": 1687,
      "suak": 1688,
      "uang": 1689,
      "ပီႈ": 1690,
      "RCSS": 1691,
      "hlah": 1692,
      "ဖိတဖၣ်": 1693,
      "ဘၪဆၧ": 1694,
      "ၦလၧအ": 1695,
      "လမ်း": 1696,
      "အလး": 1697,
      "ပလိၵ်ႈ": 1698,
      "ꤕꤢ꤭": 1699,
      "sia": 1700,
      "tang": 1701,
      "kam": 1702,
      "law": 1703,
      "bawl": 1704,
      "ꤜꤢꤪ꤭": 1705,
      "နယ်": 1706,
      "ရွက်": 1707,
      "ယာ": 1708,
      "ီႊ": 1709,
      "ꤓꤢꤧ꤬": 1710,
      "ṭuan": 1711,
      "မဲ့": 1712,
      "ꤜꤢ꤭": 1713,
      "အီၤလၢ": 1714,
      "hmuahhmuah": 1715,
      "လႂ်": 1716,
      "တီၢ်": 1717,
      "ပေါ်": 1718,
      "ၵႅ": 1719,
      "ၶႄႇ": 1720,
      "မ်ႊ": 1721,
      "တႄႇ": 1722,
      "pih": 1723,
      "ၵုမ်": 1724,
      "ပုံ": 1725,
      "kham": 1726,
      "ႁပ်ႉ": 1727,
      "mang": 1728,
      "သၽ": 1729,
      "သၢင်ႈ": 1730,
      "kumpi": 1731,
      "nau": 1732,
      "tlang": 1733,
      "ၵွင်ႈ": 1734,
      "သူင်ႇ": 1735,
      "ယၧၩ": 1736,
      "အကၠ": 1737,
      "အအိၣ်": 1738,
      "မှတ်": 1739,
      "?”": 1740,
      "ရောက်": 1741,
      "နံၩ": 1742,
      "Jeru": 1743,
      "အဝ့ၫဒၪ": 1744,
      "ဒဳၣ်": 1745,
      "နှင့်": 1746,
      "chungah": 1747,
      "မ့": 1748,
      "ṭheh": 1749,
      "တၢ်လၢ": 1750,
      "သို့": 1751,
      "နည်း": 1752,
      "ဖျိ": 1753,
      "ဒဲး": 1754,
      "ထဲၢ်": 1755,
      "ဥပ": 1756,
      "တြ": 1757,
      "mai": 1758,
      "ညာ": 1759,
      "တင်းမူတ်း": 1760,
      "ꤛꤢꤨ": 1761,
      "tla": 1762,
      "အမိ": 1763,
      "ၵူတ်ႇထတ်း": 1764,
      "ဢမ်ႇမီး": 1765,
      "တမံၤ": 1766,
      "salem": 1767,
      "Jerusalem": 1768,
      "လၢတ်ႈတီႈၽူႈတွႆႇႁွၵ်ႈဝႃႈ": 1769,
      "ပြင်": 1770,
      "ၶႂ်ႈ": 1771,
      "ၵဵဝ်ႇ": 1772,
      "ၼိူဝ်": 1773,
      "ဖု": 1774,
      "တၢင်ႇ": 1775,
      "ကား": 1776,
      "bu": 1777,
      "keimah": 1778,
      "Nan": 1779,
      "to": 1780,
      "ဘုရားသခင်": 1781,
      "တိုၵ်ႉ": 1782,
      "မႄႈ": 1783,
      "ꤑꤢꤩ꤭": 1784,
      "ပိုၼ်ႉတီႈ": 1785,
      "thiam": 1786,
      "ၥံၫ": 1787,
      "feh": 1788,
      "သင့်": 1789,
      "ꤡꤝꤢ": 1790,
      "ၼႂ်းၸႄႈဝဵင်း": 1791,
      "ခဳး": 1792,
      "ခး": 1793,
      "မိူဝ်ႈၼႆႉ": 1794,
      "thaw": 1795,
      "ၵဝ်ႇ": 1796,
      "ၼႃး": 1797,
      "re": 1798,
      "khia": 1799,
      "မႂ်ႇ": 1800,
      "ပၢႆႈၽေး": 1801,
      "ses": 1802,
      "အါ": 1803,
      "2018": 1804,
      "ၵပ်း": 1805,
      "ပြောသည်": 1806,
      "puan": 1807,
      "ီႇ": 1808,
      "ဵၼ်ႈ": 1809,
      "ဟံၣ်": 1810,
      "ဘူၣ်": 1811,
      "အဂ့ၢ်": 1812,
      "nangmah": 1813,
      "siat": 1814,
      "siseh": 1815,
      "ၵမ်": 1816,
      "tum": 1817,
      "Moses": 1818,
      "dinga": 1819,
      "တေလႆႈ": 1820,
      "နောက်": 1821,
      "အံၣ်": 1822,
      "ပူၼ်ႉ": 1823,
      "so": 1824,
      "အိမ်": 1825,
      "ꤝꤢ꤭": 1826,
      "ၺ်ႈ": 1827,
      "အလီၢ်": 1828,
      "awkah": 1829,
      "ယ့်": 1830,
      "hngal": 1831,
      "Th": 1832,
      "ရှင်": 1833,
      "ၵၢင်ၸႂ်": 1834,
      "င်းက": 1835,
      "မိူင်းႁူမ်ႈတုမ်": 1836,
      "ဝ့ၫလၧ": 1837,
      "ဖှ": 1838,
      "kut": 1839,
      "khaw": 1840,
      "zet": 1841,
      "tampi": 1842,
      "ဘၱာ်": 1843,
      "မြို့": 1844,
      "စ္": 1845,
      "uat": 1846,
      "တွေ့": 1847,
      "ဆောင်ရွက်": 1848,
      "သၽႃး": 1849,
      "အဖိၪခွၫ": 1850,
      "ယဵၼ်": 1851,
      "hmanh": 1852,
      "cungah": 1853,
      "ၽႂ်": 1854,
      "လိူၵ်ႈတင်ႈ": 1855,
      "စရ့လး": 1856,
      "န့်": 1857,
      "Kei": 1858,
      "thla": 1859,
      "တူၺ်း": 1860,
      "lian": 1861,
      "ကတိၤ": 1862,
      "လင်": 1863,
      "ၵူၺ်းၵႃႈ": 1864,
      "ဆဲ": 1865,
      "လၫ့": 1866,
      "ဧ့": 1867,
      "ပီႈၼွင်ႉ": 1868,
      "စီၤအ": 1869,
      "ချုပ်": 1870,
      "ဌာ": 1871,
      "တရား": 1872,
      "ain": 1873,
      "bik": 1874,
      "ၸွမ်": 1875,
      "note": 1876,
      "ၵိုတ်း": 1877,
      "ၸဵမ်": 1878,
      "tapa": 1879,
      "လ်": 1880,
      "vek": 1881,
      "သႂ်ႇ": 1882,
      "လဲၪ": 1883,
      "ပိာ်": 1884,
      "awt": 1885,
      "ခီၫ": 1886,
      "မႆႈ": 1887,
      "ꤊꤜ": 1888,
      "ဖဳး": 1889,
      "ꤋꤢꤨ꤭": 1890,
      "san": 1891,
      "မိူဝ်ႈဝၼ်းတီႈ": 1892,
      "dam": 1893,
      "ꤊꤣꤧ꤭": 1894,
      "ꤡꤣꤧ": 1895,
      "တူၼ်ႈ": 1896,
      "ခရ": 1897,
      "꤫ꤢ꤬": 1898,
      "thah": 1899,
      "ၸၼ်ႉ": 1900,
      "ဖ့ၪ": 1901,
      "ပီၢ်": 1902,
      "ht": 1903,
      "ngei": 1904,
      "သ့ၣ်ညါ": 1905,
      "စစ်": 1906,
      "အံၫ": 1907,
      "ၸင်ႇ": 1908,
      "အခြ": 1909,
      "ၧး": 1910,
      "မိုဝ်း": 1911,
      "ၼင်ႇၼႆ": 1912,
      "ruah": 1913,
      "ၾႆး": 1914,
      "ꤕ꤫ꤢꤩ꤬": 1915,
      "အူ": 1916,
      "ဓဳၤ": 1917,
      "အဒ": 1918,
      "ꤓꤥ꤭": 1919,
      "ဢွင်ႇ": 1920,
      "ၸၢဝ်းၶိူဝ်း": 1921,
      "ၤၡ": 1922,
      "ၶူဝ်း": 1923,
      "Zi": 1924,
      "ngai": 1925,
      "ciam": 1926,
      "ṭhat": 1927,
      "ယဳၤ": 1928,
      "အဖိ": 1929,
      "ထုၵ်ႇ": 1930,
      "ပေမဲ့": 1931,
      "ၶႃႈဢေႃႈ": 1932,
      "ဆိုင်": 1933,
      "ၸေႊ": 1934,
      "အံၣ်စရ့လး": 1935,
      "ယောက်": 1936,
      "မုၣ်": 1937,
      "ႁွင်ႈ": 1938,
      "ယၢမ်းၵၢင်": 1939,
      "သိူဝ်": 1940,
      "နေ့": 1941,
      "ꤙꤣꤧ": 1942,
      "sinain": 1943,
      "သွၼ်": 1944,
      "2019": 1945,
      "မျၧး": 1946,
      "ႁႅ": 1947,
      "pt": 1948,
      "ပေႃႉ": 1949,
      "စရ့လၭ": 1950,
      "အီ": 1951,
      "ꤘꤢꤦ꤬": 1952,
      "ခဲ့တယ်": 1953,
      "အရ": 1954,
      "ဒၫ": 1955,
      "ခေ": 1956,
      "ၾႃႉ": 1957,
      "့ၬယၫ": 1958,
      "ထူပ်း": 1959,
      "လား": 1960,
      "upa": 1961,
      "အနေ": 1962,
      "ယွၼ်း": 1963,
      "ဘၭ": 1964,
      "minung": 1965,
      "ၼႃႇ": 1966,
      "ႃႊ": 1967,
      "ꤚꤣꤧ": 1968,
      "ဧၢ": 1969,
      "စံးဘၣ်": 1970,
      "ဟီၣ်": 1971,
      "oh": 1972,
      "ကမၤ": 1973,
      "ၶူး": 1974,
      "ခမျၧး": 1975,
      "ꤋꤚ": 1976,
      "များကို": 1977,
      "ဒိး": 1978,
      "ght": 1979,
      "ပိူဝ်ႈ": 1980,
      "ထံၫ": 1981,
      "နီၪတၭ": 1982,
      "ဒံး": 1983,
      "ၡူး": 1984,
      "ၵျွၵ်ႉ": 1985,
      "အကြောင်း": 1986,
      "ဖျါ": 1987,
      "ယ့ၣ်ၡူး": 1988,
      "ဖၭ": 1989,
      "လႃႈ": 1990,
      "da": 1991,
      "ၸူ": 1992,
      "လဵၵ်း": 1993,
      "မရှိ": 1994,
      "တရ": 1995,
      "ကြတယ်": 1996,
      "ႁိမ်း": 1997,
      "ꤖꤢꤧ": 1998,
      "မၪ": 1999,
      "nawn": 2000,
      "ꤕꤜ": 2001,
      "အကြ": 2002,
      "လၢန": 2003,
      "ba": 2004,
      "sem": 2005,
      "right": 2006,
      "ပညာ": 2007,
      "TheMyanmar": 2008,
      "TheMyanmarTimes": 2009,
      "ဟော": 2010,
      "ပၢင်ၵုမ်": 2011,
      "ယႂ်ႇ": 2012,
      "chuah": 2013,
      "ႁႅင်းၵၢၼ်": 2014,
      "ဝံၤ": 2015,
      "ၽို": 2016,
      "cah": 2017,
      "NL": 2018,
      "ဢွၼ်ႇ": 2019,
      "co": 2020,
      "hai": 2021,
      "thawh": 2022,
      "khin": 2023,
      "thawinak": 2024,
      "ႁၢင်ႈ": 2025,
      "hrim": 2026,
      ",-": 2027,
      "အ့": 2028,
      "အဆ": 2029,
      "ကန": 2030,
      "”-": 2031,
      "kim": 2032,
      "thiang": 2033,
      "thang": 2034,
      "thawn": 2035,
      "ႁၢၼ်": 2036,
      "ၶီႈ": 2037,
      "ꤊꤢꤨ꤭": 2038,
      "ၵျွၵ်ႉမႄး": 2039,
      "ꤘꤣꤧ": 2040,
      "တီး": 2041,
      "ူၤ": 2042,
      "ဝၢႆး": 2043,
      "ကျဲ": 2044,
      "ကိၭ": 2045,
      "စည်း": 2046,
      "ၶွင်": 2047,
      "dong": 2048,
      "မၩအၥၭ": 2049,
      "ဧိၤ": 2050,
      "သၢႆ": 2051,
      "sun": 2052,
      "ကၠ": 2053,
      "ႁူပ်ႉ": 2054,
      "ပႅ": 2055,
      "မ့ၢ်ဂ့ၤ": 2056,
      "nading": 2057,
      "ကဲၪ": 2058,
      "ပတ်": 2059,
      "ur": 2060,
      "zongin": 2061,
      "ကဘၣ်": 2062,
      "Cule": 2063,
      "တိတ်း": 2064,
      "မူႇၸေႊ": 2065,
      "ရင်း": 2066,
      "takin": 2067,
      "pum": 2068,
      "ziang": 2069,
      "မှန်": 2070,
      "အခိၣ်": 2071,
      "ဌာန": 2072,
      "uak": 2073,
      "lomi": 2074,
      "ဆၧၫ့": 2075,
      "နၧၩ": 2076,
      "ဥပဒေ": 2077,
      "ရော": 2078,
      "ၶဵ": 2079,
      "rawl": 2080,
      "Kan": 2081,
      "လံၤ": 2082,
      "ံ့": 2083,
      "ၸႂ်ႉ": 2084,
      "ပွဲ": 2085,
      "uam": 2086,
      "ꤒꤢꤩ꤭": 2087,
      "ပွႆး": 2088,
      "ဆံၫ့": 2089,
      "zoh": 2090,
      "꤫ꤤ꤬": 2091,
      "ring": 2092,
      "သဵၼ်ႈ": 2093,
      "ခါ": 2094,
      "ning": 2095,
      "အာ": 2096,
      "ဢမ်ႇလႆႈ": 2097,
      "ပိုတ်ႇ": 2098,
      "နါ": 2099,
      "ဖော်ပြ": 2100,
      "နၫ့": 2101,
      "မြင်": 2102,
      "ဆှံ": 2103,
      "Khr": 2104,
      "ၡါ": 2105,
      "သူတို့": 2106,
      "Kh": 2107,
      "ၶွမ်ႊ": 2108,
      "လၢပှၤ": 2109,
      "11": 2110,
      "လုၵ်ႉ": 2111,
      "လူး": 2112,
      "ol": 2113,
      "ဝှ": 2114,
      "zum": 2115,
      "ငွေ": 2116,
      "ngaih": 2117,
      "ၸွႆႈထႅမ်": 2118,
      "စကား": 2119,
      "ၢမ်း": 2120,
      "သဵဝ်ႈ": 2121,
      "လုမ်း": 2122,
      "that": 2123,
      "ယင်း": 2124,
      "ဝန်ကြီး": 2125,
      "ကြည့်": 2126,
      "ထုတ်": 2127,
      "ꤢꤪ꤭": 2128,
      "lakah": 2129,
      "စီး": 2130,
      "ကြည်": 2131,
      "“​": 2132,
      "ꤞꤢꤧ": 2133,
      "ၼႆယဝ်ႉ": 2134,
      "စံၭဝ့ၫဒၪ": 2135,
      "မုၪ": 2136,
      "il": 2137,
      "kik": 2138,
      "ဢႃ": 2139,
      "လည်": 2140,
      "ၸၢတ်ႈ": 2141,
      "ꤏꤛꤢꤨ": 2142,
      "ꤛꤢꤩ꤬ꤏꤛꤢꤨ": 2143,
      "ပိုင်း": 2144,
      "ႁၢဝ်ႈ": 2145,
      "ꤛ꤫ꤢꤦ꤬": 2146,
      "တူင်ႉ": 2147,
      "tuahmi": 2148,
      "hram": 2149,
      "ဆိုရင်": 2150,
      "ၶၢဝ်းတၢင်း": 2151,
      "န့ၣ်တက့ၢ်": 2152,
      "အကၠီၩ့": 2153,
      "န္": 2154,
      "အခြေ": 2155,
      "ယိင်း": 2156,
      "အချိန်": 2157,
      "လႃႈသဵဝ်ႈ": 2158,
      "သၢၼ်": 2159,
      "Nang": 2160,
      "နေပြည်": 2161,
      "အၢ": 2162,
      "ရှင်း": 2163,
      "တၢၢ်": 2164,
      "နၢ်": 2165,
      "anh": 2166,
      "12": 2167,
      "ဢႃယု": 2168,
      "စံးဝဲ": 2169,
      "စၢ်": 2170,
      "ဘီ": 2171,
      "ပှၤလၢအ": 2172,
      "ဆၧအ": 2173,
      "lon": 2174,
      "ၸၢၼ်း": 2175,
      "တီၩ": 2176,
      "၂၀": 2177,
      "မ့ၢ်တၢ်": 2178,
      "တအိၣ်": 2179,
      "ꤔ꤫ꤤ꤬": 2180,
      "ဖ့ၪလၫ့": 2181,
      "ꤟꤢꤨꤔꤣꤧ꤬": 2182,
      "တဵ": 2183,
      "မႅင်း": 2184,
      "တွေက": 2185,
      "ဂၪ့": 2186,
      "စံ": 2187,
      "ဘး": 2188,
      "သုၼ်ႇ": 2189,
      "ႁဵတ်းၵၢၼ်": 2190,
      "Topaʼ": 2191,
      "အဖွဲ့": 2192,
      "တႃႈၶီႈ": 2193,
      "အီၪဝ့ၫ": 2194,
      "နေပြည်တော်": 2195,
      "သႅၼ်": 2196,
      "ရဲ": 2197,
      "ၵူၼ်းပၢႆႈၽေး": 2198,
      "ၶု": 2199,
      "ဢၼ်ဝႃႈ": 2200,
      "ꤗꤢꤧ": 2201,
      "ngah": 2202,
      "ꤋꤢꤧ꤭": 2203,
      "tui": 2204,
      "Bang": 2205,
      "ဧါ": 2206,
      "မိူင်းထႆး": 2207,
      "len": 2208,
      "ဆေး": 2209,
      "လၢယ": 2210,
      "ၶတ်း": 2211,
      "ၢၼ်ႇ": 2212,
      "Bi": 2213,
      "ဒီးစီၤ": 2214,
      "ႁၢဝ်ႈႁႅင်း": 2215,
      "ယော": 2216,
      "ၽူႈတႅၼ်း": 2217,
      "လူင်ပွင်ၸိုင်ႈမၢၼ်ႈ": 2218,
      "မေႃ": 2219,
      "ဟီၣ်ခိၣ်": 2220,
      "ခဲ့သည်": 2221,
      "အတွင်း": 2222,
      "ၺွ": 2223,
      "ၼိုင်": 2224,
      "ၢၢ်": 2225,
      "လၢသု": 2226,
      "တဲ့အခါ": 2227,
      "တႃႈၶီႈလဵၵ်း": 2228,
      "ꤢ꤬ꤋꤛꤢ꤭": 2229,
      "ပၢ်": 2230,
      "အမျိုး": 2231,
      "အဲၣ်": 2232,
      "မြန်": 2233,
      "ကီ": 2234,
      "ꤣꤧ꤭ꤔꤣꤧ꤬": 2235,
      "ႁူင်းယႃ": 2236,
      "thawng": 2237,
      "ကျွန်တော်": 2238,
      "နီၣ်": 2239,
      "ၵွပ်ႈ": 2240,
      "ꤜꤢ꤭ꤋꤢꤧ꤭": 2241,
      "နား": 2242,
      "ငမ်း": 2243,
      "အသ": 2244,
      "ၼႃႈတီႈ": 2245,
      "ulh": 2246,
      "တီၤ": 2247,
      "တၢ်မၤ": 2248,
      "စီဆှံ": 2249,
      "အၪ": 2250,
      "ဒ်အံၤ": 2251,
      "ၪ့ထၪ့": 2252,
      "mu": 2253,
      "hmu": 2254,
      "နုၤ": 2255,
      "က္": 2256,
      "စၢၤ": 2257,
      "mit": 2258,
      "စိာ်": 2259,
      "ယၢပ်ႇ": 2260,
      "ပင်": 2261,
      "လဖၪနီၪ": 2262,
      "နံၫ": 2263,
      "ခြား": 2264,
      "လိူဝ်ၼၼ်ႉ": 2265,
      "တောင်": 2266,
      "ဖြင့်": 2267,
      "လူႉတၢႆ": 2268,
      "လၧနၥံၪ": 2269,
      "ခွင့်": 2270,
      "lu": 2271,
      "ပွၵ်ႉ": 2272,
      "ၸႄႈတွၼ်ႈ": 2273,
      "ၼႂ်": 2274,
      "ၵမ်ႈ": 2275,
      "ဖြစ်တယ်": 2276,
      "ꤢꤦ꤭": 2277,
      "atna": 2278,
      "ပေါင်း": 2279,
      "ဢူဝ်း": 2280,
      "အဂၤ": 2281,
      "သီႇပေႃႉ": 2282,
      "ကလေး": 2283,
      "သဵင်": 2284,
      "တပ်": 2285,
      "ံၩ့": 2286,
      "Cucaah": 2287,
      "ဖါ": 2288,
      "တစ်ခု": 2289,
      "တေႃႇထိုင်": 2290,
      "ဒဲၦ": 2291,
      "မြေ": 2292,
      "ne": 2293,
      "သိၣ်": 2294,
      "ၸို": 2295,
      "zah": 2296,
      "ဖက်": 2297,
      "ꤗ꤫ꤢ꤬": 2298,
      "parah": 2299,
      "ရပ်": 2300,
      "ꤢ꤬ꤚ": 2301,
      "မွဲအ": 2302,
      "ဃး": 2303,
      "khawh": 2304,
      "Ab": 2305,
      "ၵေႃ": 2306,
      "လဂ့ၩ": 2307,
      "ꤝꤢ꤬": 2308,
      "ယေး": 2309,
      "ꤞꤣꤧ꤭": 2310,
      "Jesu": 2311,
      "တူင်ႉၼိုင်": 2312,
      "ṭhan": 2313,
      "ဒဲစ": 2314,
      "tlak": 2315,
      "ယေရှု": 2316,
      "ၽွၼ်း": 2317,
      "မး": 2318,
      "အၡၩ": 2319,
      "ဒဲဆၧ": 2320,
      "tiang": 2321,
      "မ့်": 2322,
      "ၥၪ": 2323,
      "ၢၼ်း": 2324,
      "ဂု": 2325,
      "သူၼ်": 2326,
      "ဒိၩ့": 2327,
      "မေး": 2328,
      "အဖိခွါ": 2329,
      "ေႃ": 2330,
      "သလဲ": 2331,
      "ၺွပ်း": 2332,
      "လျှ": 2333,
      "တၢင်းပဵၼ်ၶူဝ်ႊဝိတ်ႉ": 2334,
      "ၶဝ်ႈႁူမ်ႈ": 2335,
      "ralkap": 2336,
      "ၸဵပ်း": 2337,
      "မႆႇ": 2338,
      "nawl": 2339,
      "tawn": 2340,
      "တၤ": 2341,
      "ယေဟော": 2342,
      "ယေဟောဝါ": 2343,
      "လႅၼ်": 2344,
      "thlah": 2345,
      "ထောင်စု": 2346,
      "ၵေႃႇ": 2347,
      "ႁွင်ႉ": 2348,
      "khawm": 2349,
      "hung": 2350,
      "tah": 2351,
      "နိုင်တယ်": 2352,
      "ထုၪ့": 2353,
      "deuh": 2354,
      "လၢအအိၣ်": 2355,
      "တိူဝ်ႉ": 2356,
      "Hih": 2357,
      "ကတၢၢ်": 2358,
      "tan": 2359,
      "ဆး": 2360,
      "တဂ့ၤ": 2361,
      "မျှ": 2362,
      "ယႃႈမ": 2363,
      "အ့ၪမွဲ": 2364,
      "အံၫစရ့လၭ": 2365,
      "တုင်": 2366,
      "sar": 2367,
      "မၢတ်ႇ": 2368,
      "ကယဲၢ်": 2369,
      "be": 2370,
      "နီၤ": 2371,
      "လခီၫ": 2372,
      "dan": 2373,
      "ဃီ": 2374,
      "မဲာ်": 2375,
      "ၼွင်": 2376,
      "ဖြစ်သည်": 2377,
      "ပျဲ": 2378,
      "လွင်ႈၼႆႉ": 2379,
      "ချင်": 2380,
      "hngalh": 2381,
      "လႅင်း": 2382,
      "ယိၤ": 2383,
      "တေႃႈ": 2384,
      "ဖွ": 2385,
      "ၢင်ႉ": 2386,
      "နဲၪ့": 2387,
      "စ့ၢ်": 2388,
      "ဝ့ၫတၭ": 2389,
      "တိတ်းၸပ်း": 2390,
      "ဘ့ၣ်": 2391,
      "pna": 2392,
      "ဘ့": 2393,
      "hlan": 2394,
      "အကျၩ": 2395,
      "တူၼ်ႈတီး": 2396,
      "''": 2397,
      "စဉ်": 2398,
      "တဖၣ်လၢ": 2399,
      "ကီး": 2400,
      "ဝႆႉတီႈ": 2401,
      "ke": 2402,
      "ၥ့ၪယၫ": 2403,
      "ငန်း": 2404,
      "lawm": 2405,
      "ထိး": 2406,
      "ရၫ့": 2407,
      "လူၺ်ႈ": 2408,
      "Asinain": 2409,
      "ဉ်း": 2410,
      "ဝႃး": 2411,
      "အရေး": 2412,
      "ၱၢ်": 2413,
      "nam": 2414,
      "ၸိူဝ်ႉၸၢတ်ႈ": 2415,
      "နာ်": 2416,
      "ဝ်းၵမ်": 2417,
      "နွ": 2418,
      "ihnak": 2419,
      "ါ်": 2420,
      "ၵွၼ်း": 2421,
      "လုပ်ငန်း": 2422,
      "ဆူၣ်": 2423,
      "nadingin": 2424,
      "Le": 2425,
      "cam": 2426,
      "ခီၣ်": 2427,
      "ngan": 2428,
      "ၸႂ်ႈ": 2429,
      "သမ္": 2430,
      "Sihmanhsehlaw": 2431,
      "အပ်": 2432,
      "ၵဵင်းတုင်": 2433,
      "ꤊꤢꤩ꤬": 2434,
      "caan": 2435,
      "pekmi": 2436,
      "ငဝ်ႈ": 2437,
      "Amaute": 2438,
      "သၣ်": 2439,
      "khuapi": 2440,
      "ပြည်ထောင်စု": 2441,
      "ဘော": 2442,
      "ၼေ": 2443,
      "Pasianʼ": 2444,
      "ရူတ်ႉ": 2445,
      "mahmah": 2446,
      "ထီၣ်ဝဲ": 2447,
      "ပြီ": 2448,
      "ၵႂၢမ်း": 2449,
      "သင်ၶ": 2450,
      "ပုၼ်ႈ": 2451,
      "သီး": 2452,
      "ၼွၵ်ႈ": 2453,
      "mun": 2454,
      "ဢူး": 2455,
      "rh": 2456,
      "သဝ်း": 2457,
      "ဃုာ်": 2458,
      "biakna": 2459,
      "ၼၼ်ႉၵေႃႈ": 2460,
      "gi": 2461,
      "ၶိူင်ႈ": 2462,
      "တတ်": 2463,
      "ထမ်း": 2464,
      "မိူၼ်ၼင်ႇ": 2465,
      "ၥုၭ": 2466,
      "ၵဵင်းမႆႇ": 2467,
      "အံ": 2468,
      "လုင်း": 2469,
      "ိုင်း": 2470,
      "သုး": 2471,
      "ရၤ": 2472,
      "မိူဝ်း": 2473,
      "ပှၤက": 2474,
      "လၩ": 2475,
      "ဂျ": 2476,
      "လဲာ်": 2477,
      "အိၣ်ဝဲ": 2478,
      "မွဲဂ့ၩ": 2479,
      "တႅၵ်ႇ": 2480,
      "pha": 2481,
      "ဆံၫ": 2482,
      "ဝ့ၫလီၫ": 2483,
      "ထားတယ်": 2484,
      "ꤜꤥ꤭": 2485,
      "စ့ၢ်ကီး": 2486,
      "ပှဲၤ": 2487,
      "ပဵၼ်ပၢင်တိုၵ်း": 2488,
      "ကဲထီၣ်": 2489,
      "တည်": 2490,
      "ပဝ်ႈ": 2491,
      "ထံၭ": 2492,
      "awlei": 2493,
      "Izi": 2494,
      "အဝ": 2495,
      "ၦၡၩ": 2496,
      "bo": 2497,
      "ယွမ်း": 2498,
      "Izipt": 2499,
      "ပၵ်း": 2500,
      "တမ်း": 2501,
      "kumpipa": 2502,
      "ꤡꤢꤩ꤬": 2503,
      "bangtuk": 2504,
      "tlun": 2505,
      "hmaiah": 2506,
      "har": 2507,
      "တဖၣ်န့ၣ်": 2508,
      "rah": 2509,
      "fi": 2510,
      "ငါ": 2511,
      "ူၢ်": 2512,
      "ယူႇလီ": 2513,
      "သဲ": 2514,
      "ဆိး": 2515,
      "သူတွေ": 2516,
      "မတီ": 2517,
      "loh": 2518,
      "ၥုၪ့": 2519,
      "ၶမ်ႈ": 2520,
      "neih": 2521,
      "ဟူ": 2522,
      "amau": 2523,
      "ပျႃး": 2524,
      "miphun": 2525,
      "hnuah": 2526,
      "PP": 2527,
      "gal": 2528,
      "thlun": 2529,
      "ၵႄႈ": 2530,
      "ဎွ့ၩ": 2531,
      "ၽိူ": 2532,
      "mon": 2533,
      "တၭစ": 2534,
      "ဘယ်လို": 2535,
      "ꤕꤜꤢꤪ": 2536,
      "hrangah": 2537,
      "လောက်": 2538,
      "အမ့ၬယၫ": 2539,
      "ခိ": 2540,
      "တမ့ၢ်": 2541,
      "ခိုင်": 2542,
      "ယုံ": 2543,
      "30": 2544,
      "စံၣ်": 2545,
      "သည့်": 2546,
      "SSA": 2547,
      "လၧမု": 2548,
      "ပၢၵ်ႇ": 2549,
      "ၸိူဝ်ႉမႅင်း": 2550,
      "ကနေ": 2551,
      "မြန်မာ": 2552,
      "Ahi": 2553,
      "ၾိ": 2554,
      "ၵဵဝ်ႇၵပ်း": 2555,
      "ၸိုင်": 2556,
      "ကတီၢ်": 2557,
      "ကိုယ်စား": 2558,
      "ဂၪ့ခိၪ": 2559,
      "ၸိုဝ်ႈ": 2560,
      "mipa": 2561,
      "ဟ့ၣ်လီၤ": 2562,
      "မ့မ့ၢ်": 2563,
      "ချင်း": 2564,
      "တေမီး": 2565,
      "မၤတၢ်": 2566,
      "တောင်း": 2567,
      "ꤒꤢ꤭": 2568,
      "ိုးရ": 2569,
      "sehla": 2570,
      "ယိပ်း": 2571,
      "dai": 2572,
      "လူဝ်ႇ": 2573,
      "pahnih": 2574,
      "sualnak": 2575,
      "ၸိုင်ႈတႆးပွတ်းႁွင်ႇ": 2576,
      "ထၱး": 2577,
      "ႁၢႆ": 2578,
      "လှယ်": 2579,
      "မၢတ်ႇၸဵပ်း": 2580,
      "Siangpahrang": 2581,
      "khen": 2582,
      "အဂံၪ့": 2583,
      "မၩန့": 2584,
      "ဟးဂီၤ": 2585,
      "pang": 2586,
      "ꤙꤢꤧ꤬": 2587,
      "annih": 2588,
      "တ္": 2589,
      "hrin": 2590,
      "အလုပ်": 2591,
      "ပှၤတဂၤ": 2592,
      "bantukin": 2593,
      "zan": 2594,
      "န့ၣ်ဒီး": 2595,
      "လိၬ": 2596,
      "sau": 2597,
      "အဝဲဒၣ်": 2598,
      "ႁူဝ်ပဝ်ႈ": 2599,
      "။“": 2600,
      "အသက်": 2601,
      "than": 2602,
      "တစ်ယောက်": 2603,
      "စိုက်": 2604,
      "ူၫ": 2605,
      "ၸဝ်ႈၼႃႈတီႈ": 2606,
      "ဘျီ": 2607,
      "ဢုပ်ႇဢူဝ်း": 2608,
      "ၽႅ": 2609,
      "Be": 2610,
      "Cuih": 2611,
      "ရတယ်": 2612,
      "ဒါပေမဲ့": 2613,
      "မၩဆၧ": 2614,
      "တချ": 2615,
      "rian": 2616,
      "ကဲၪထၪ့": 2617,
      "အိ": 2618,
      "꤫ꤢꤪ꤬": 2619,
      "ယူဒၤ": 2620,
      "ဧၪ": 2621,
      "ငယ်": 2622,
      "ဒ်လဲၣ်": 2623,
      "တီႉၺွပ်း": 2624,
      "sam": 2625,
      "ဂီၩ့": 2626,
      "Zei": 2627,
      "Ba": 2628,
      "တေႃႈလဵဝ်": 2629,
      "bal": 2630,
      "ပါး": 2631,
      "ꤢ꤬ꤋꤢꤩ꤭": 2632,
      "Maw": 2633,
      "တႃႉ": 2634,
      "ကျော်": 2635,
      "ထီးနီၪ": 2636,
      "တွင်း": 2637,
      "ပှၢ်": 2638,
      "hoih": 2639,
      "ꤙꤢꤧ꤬ꤡꤢꤩ꤬": 2640,
      "ꤘꤢꤨ꤬": 2641,
      "zing": 2642,
      "ပွႆႇ": 2643,
      "ဏ်": 2644,
      "ယၢၼ်": 2645,
      "မိူင်းၶႄႇ": 2646,
      "ထွက်": 2647,
      "ဂၭ": 2648,
      "အိၣ်ဒီး": 2649,
      "လ့ၣ်": 2650,
      "ဎံၪ": 2651,
      "ဝႂ်": 2652,
      "အဖြစ်": 2653,
      "ၥၫ့": 2654,
      "ၽိ": 2655,
      "လုၢ်တၢ်": 2656,
      "sen": 2657,
      "sihmanhsehlaw": 2658,
      "No": 2659,
      "လၢက": 2660,
      "ႁူင်းႁဵၼ်း": 2661,
      "ႁွင်ႈၵၢၼ်": 2662,
      "rel": 2663,
      "ဒၩ": 2664,
      "ပႂ်": 2665,
      "kip": 2666,
      "ဒေသ": 2667,
      "ယဝ်ႉၵေႃႈ": 2668,
      "စ့ၩ": 2669,
      "ကိာ်": 2670,
      "ရှူး": 2671,
      "ꤒꤣꤧ꤬ꤟꤢꤩ꤬ꤔꤣꤧ꤬": 2672,
      "ha": 2673,
      "လႅၼ်လိၼ်": 2674,
      "ဆိုင်ရာ": 2675,
      "kai": 2676,
      "ယိုတ်း": 2677,
      "ပႂ်ႉ": 2678,
      "ပြောဆို": 2679,
      "Tu": 2680,
      "ထက်": 2681,
      "Cuti": 2682,
      "တက်": 2683,
      "ပူၼ်ႉမႃး": 2684,
      "ဖီၩ့": 2685,
      "အဂ့ၢ်ဒ်အံၤ": 2686,
      "mih": 2687,
      "tile": 2688,
      "khut": 2689,
      "ပေႃႈ": 2690,
      "စါ": 2691,
      "ညီၣ်": 2692,
      "ၢး": 2693,
      "လါနၫ့": 2694,
      "ၼႄၵၢင်ၸႂ်": 2695,
      "tuu": 2696,
      "ငြ": 2697,
      "ဆွေး": 2698,
      "ေ့": 2699,
      "ဢေ": 2700,
      "ယိခွါ": 2701,
      "ပွတ်းႁွင်ႇ": 2702,
      "ၸႄႈမိူင်း": 2703,
      "မွဲဆၧ": 2704,
      "ခီဖျိ": 2705,
      "adingin": 2706,
      "အဖၫ့": 2707,
      "အစူၪ": 2708,
      "ၶူင်း": 2709,
      "ဘၣ်ဆၣ်ဒီး": 2710,
      "biakinn": 2711,
      "ဆှၢ": 2712,
      "စွာ": 2713,
      "vo": 2714,
      "ပၢင်လိူၵ်ႈတင်ႈ": 2715,
      "15": 2716,
      "တဖၣ်ဒီး": 2717,
      "ဒံၭ": 2718,
      "နၩ့": 2719,
      "ꤋꤢꤨ꤬": 2720,
      "kir": 2721,
      "အိမ်ထောင်": 2722,
      "မနုၤ": 2723,
      "zar": 2724,
      "လၧယဟိဝၩ": 2725,
      "ၸိူဝ်းၼၼ်ႉ": 2726,
      "zui": 2727,
      "tai": 2728,
      "ဆီး": 2729,
      "တူင်ႇ": 2730,
      "ဘိၩ့": 2731,
      "ကိုယ်စားလှယ်": 2732,
      "ၵၢတ်ႇ": 2733,
      "ယုံကြည်": 2734,
      "ဃ့": 2735,
      "ၼ်ႊ": 2736,
      "ingai": 2737,
      "အသိးန့ၣ်လီၤ": 2738,
      "kih": 2739,
      "Curuangah": 2740,
      "ꤝꤤ꤭": 2741,
      "တဲ့အ": 2742,
      "လၢႆလၢႆ": 2743,
      "ၵျွင်း": 2744,
      "ပတ်သက်": 2745,
      "သဘော": 2746,
      "ကိုယ့်": 2747,
      "ယႃႈမဝ်းၵမ်": 2748,
      "ဖြေ": 2749,
      "ngaingai": 2750,
      "ပိူၼ်ႈ": 2751,
      "ယၢမ်းၵၢင်ၼႂ်": 2752,
      "Khrih": 2753,
      "ꤟꤢꤩꤚꤣꤧ꤬": 2754,
      "ကမၣ်": 2755,
      "ဘံၪ့": 2756,
      "aul": 2757,
      "ကုန်": 2758,
      "teng": 2759,
      "ႁႄ": 2760,
      "အုပ်": 2761,
      "လီၩ": 2762,
      "တူၼ်": 2763,
      "ၵုမ်း": 2764,
      "lut": 2765,
      "tam": 2766,
      "ဆဲၫ့": 2767,
      "နွေး": 2768,
      "ဖှိၣ်": 2769,
      "ၽႄႈ": 2770,
      "ၶွင်ႇ": 2771,
      "လၢတၢ်န့ၣ်": 2772,
      "ငဝ်း": 2773,
      "လနံၩ": 2774,
      "ၸု": 2775,
      "ကော်": 2776,
      "လၬ": 2777,
      "စဎွၩ": 2778,
      "ဝ့ၤ": 2779,
      "ွဲ": 2780,
      "ကျွန်မ": 2781,
      "တဲာ်": 2782,
      "ဖွဲ့": 2783,
      "ꤔꤤ": 2784,
      "paoh": 2785,
      "lonak": 2786,
      "န့ၤ": 2787,
      "အၢၣ်": 2788,
      "ခံစား": 2789,
      "လေ့": 2790,
      "ꤒꤢꤩ꤬ꤞ": 2791,
      "တာကို": 2792,
      "ဟံး": 2793,
      "အဖီ": 2794,
      "run": 2795,
      "ရီ": 2796,
      "လမံၩ့": 2797,
      "သတ်": 2798,
      "ပၢႆးယူႇလီ": 2799,
      "han": 2800,
      "thing": 2801,
      "နိုင်ငံတော်": 2802,
      "Saul": 2803,
      "as": 2804,
      "muh": 2805,
      "fah": 2806,
      "ၱၤ": 2807,
      "꤫ꤣꤧ꤬": 2808,
      "rat": 2809,
      "လုာ်": 2810,
      "အီၪလၧ": 2811,
      "ကမ္": 2812,
      "nunnak": 2813,
      "13": 2814,
      "တႃႇတေ": 2815,
      "စံၭဝ့ၫ": 2816,
      "ဖးဒိၣ်": 2817,
      "ကါ": 2818,
      "ထွဲ": 2819,
      "စူၪ": 2820,
      "အပှၤ": 2821,
      "vawlei": 2822,
      "အၭ": 2823,
      "ဘၣ်ဃး": 2824,
      "ၼႂ်းမိူင်းတႆး": 2825,
      "ၵူၼ်းပၢႆႈၽေးသိုၵ်း": 2826,
      "ထံး": 2827,
      "အဂီၢ်န့ၣ်လီၤ": 2828,
      "zaw": 2829,
      "အၧၩ့": 2830,
      "ဆံၫ့ဎံၪ": 2831,
      "နှု": 2832,
      "ပႅတ်ႈ": 2833,
      "တိုက်": 2834,
      "ၾိင်ႈ": 2835,
      "မၩအၥၭဘဲၫ": 2836,
      "cuih": 2837,
      "မွၵ်ႇ": 2838,
      "ဢႃႇ": 2839,
      "Co": 2840,
      "ဆိၪ": 2841,
      "ပြောင်း": 2842,
      "timi": 2843,
      "umnak": 2844,
      "ဘၣ်တၢ်မၤ": 2845,
      "zung": 2846,
      "che": 2847,
      "လံာ်": 2848,
      "hma": 2849,
      "မၼ်းၸၢႆး": 2850,
      "ဆိၬ": 2851,
      "ၶႅပ်း": 2852,
      "ၵမ်ႉ": 2853,
      "သုတ်း": 2854,
      "ႁူဝ်သိူဝ်": 2855,
      "vekin": 2856,
      "ကမ္ဘာ": 2857,
      "တ်ႊ": 2858,
      "ဝဲၢ်": 2859,
      "အစည်း": 2860,
      "ပါဘူး": 2861,
      "ိၼ်း": 2862,
      "dawt": 2863,
      "တစု": 2864,
      "ဆွေးနွေး": 2865,
      "ဆင်": 2866,
      "hne": 2867,
      "it": 2868,
      "ၼင်ႇႁိုဝ်": 2869,
      "နဲၢ်": 2870,
      "ပီၤ": 2871,
      "မၫ": 2872,
      "kiang": 2873,
      "ꤚꤣꤧꤘꤢꤦ꤬": 2874,
      "ထီၫ": 2875,
      "ီၫ": 2876,
      "နၭ": 2877,
      "ယိူ": 2878,
      "နုာ်": 2879,
      "ဢၼ်မီး": 2880,
      "Keimah": 2881,
      "္ဂ": 2882,
      "ṭhen": 2883,
      "အဆို": 2884,
      "တီႈဝဵင်း": 2885,
      "နမိ": 2886,
      "ဢၼ်ဝႃႈၼၼ်ႉ": 2887,
      "အၥိၭနီၪ": 2888,
      "၁၉": 2889,
      "ဆင်း": 2890,
      "ကျွန်တော်တို့": 2891,
      "မီႈ": 2892,
      "လုၵ်ႈဢွၼ်ႇ": 2893,
      "ယူတ်း": 2894,
      "khit": 2895,
      "အမဲာ်": 2896,
      "မႅ": 2897,
      "thluh": 2898,
      "လၢတ်ႈၼႄ": 2899,
      "ထီၣ်တၢ်": 2900,
      "ရှိတယ်": 2901,
      "ဃာ်": 2902,
      "လႃး": 2903,
      "သဵင်ႈ": 2904,
      "လၢတၢ်န့ၣ်အဃိ": 2905,
      "ၵၢၼ်မိူင်း": 2906,
      "ၶွင်ႇသီႇ": 2907,
      "ina": 2908,
      "မှူး": 2909,
      "လၫ": 2910,
      "လၢကီၢ်": 2911,
      "နေရာ": 2912,
      "nuam": 2913,
      "ရုံ": 2914,
      "ili": 2915,
      "ၥၧၫ့": 2916,
      "တူႈ": 2917,
      "zu": 2918,
      "တဘျီ": 2919,
      "ၽၵ်း": 2920,
      "ၵႂႃႇမႃး": 2921,
      "တိုင်": 2922,
      "ဘြ": 2923,
      "သေတႃႉ": 2924,
      "တႅမ်ႈ": 2925,
      "ဝူင်း": 2926,
      "Eli": 2927,
      "ṭih": 2928,
      "anmah": 2929,
      "ꤢ꤬ꤋꤝꤢ꤬": 2930,
      "ꤢ꤬ꤋꤝꤢ꤬ꤢ꤬ꤋꤛꤢ꤭": 2931,
      "အလီၩ့": 2932,
      "ဖြစ်ကြောင်း": 2933,
      "ခိၭ": 2934,
      "သပ်": 2935,
      "အစိုးရ": 2936,
      "Biak": 2937,
      "Al": 2938,
      "ရံ": 2939,
      "နဲၩ့": 2940,
      "ပုၼ်ႈၽွၼ်း": 2941,
      "ꤔ꤫ꤢꤩ꤬": 2942,
      "ပျံၤ": 2943,
      "angahtile": 2944,
      "သၢမ်": 2945,
      "ရွေး": 2946,
      "နုၬ": 2947,
      "ဳာ်": 2948,
      "အအီၪ": 2949,
      "thleng": 2950,
      "စ္စ": 2951,
      "ၽူႈတႅၼ်းသၽႃး": 2952,
      "ထီၩ့": 2953,
      "တင်းၼမ်": 2954,
      "တိယ": 2955,
      "စံးဆၢ": 2956,
      "ၼမ်း": 2957,
      "Thu": 2958,
      "ႁိူၼ်းယေး": 2959,
      "ယူတ်းယႃ": 2960,
      "nupi": 2961,
      "zal": 2962,
      "ထၬ": 2963,
      "ုၼ်း": 2964,
      "ဂံၪ့": 2965,
      "ညွ": 2966,
      "sarih": 2967,
      "တဖၣ်န့ၣ်လီၤ": 2968,
      "မၢႆမီႈ": 2969,
      "So": 2970,
      "ṭong": 2971,
      "သႅင်": 2972,
      "lim": 2973,
      "အလိၤ": 2974,
      "လၵ်း": 2975,
      "ၼမ်ႉၶမ်း": 2976,
      "ꤕꤜꤢꤪ꤬": 2977,
      "ထင်": 2978,
      "ပဵၼ်ၵူၼ်း": 2979,
      "ꤔꤣꤧ꤬ꤒꤣꤧ꤬ꤟꤢꤩ꤬": 2980,
      "ုံ": 2981,
      "eet": 2982,
      "သၱာ်": 2983,
      "tat": 2984,
      "လၧအဝ့ၫ": 2985,
      "သေး": 2986,
      "အဘ": 2987,
      "ပွဲး": 2988,
      "အခိၪ": 2989,
      "ၽွင်ႈ": 2990,
      "ၢႆႈ": 2991,
      "တိုၼ်း": 2992,
      "လုၵ်ႈႁဵၼ်း": 2993,
      "riah": 2994,
      "လၢအမ့ၢ်": 2995,
      "cahtiah": 2996,
      "iah": 2997,
      "sungih": 2998,
      "ad": 2999,
      "ဘှ": 3000,
      "ၶၼ်": 3001,
      "တွေဟာ": 3002,
      "ၵၢင်ႇ": 3003,
      "ႁဵတ်းႁႂ်ႈ": 3004,
      "ၽူႈၵွၼ်း": 3005,
      "အကျါ": 3006,
      "ဖၫ": 3007,
      "ၸိ": 3008,
      "ဒၪဘၪ": 3009,
      "zaang": 3010,
      "mawh": 3011,
      "ဆီၪ့": 3012,
      "နစ်": 3013,
      "by": 3014,
      "ဖဲန့ၣ်": 3015,
      "hnenih": 3016,
      "တူၢ်": 3017,
      "ထိၬ": 3018,
      "နိ": 3019,
      "သတင်း": 3020,
      "ဢၼ်လႆႈ": 3021,
      "ယ့ၫ": 3022,
      "ကွယ်": 3023,
      "သင်ၶၸဝ်ႈ": 3024,
      "ဒီးမၤ": 3025,
      "ထၢမ်": 3026,
      "chimh": 3027,
      "ꤢ꤬ꤖꤢꤨ": 3028,
      "sut": 3029,
      "ထး": 3030,
      "ၸမ်": 3031,
      "ဝံး": 3032,
      "ၶူဝ်": 3033,
      "ၵဵပ်း": 3034,
      "တနံၤ": 3035,
      "SSPP": 3036,
      "ollo": 3037,
      "fim": 3038,
      "ၨၩ": 3039,
      "amauʼ": 3040,
      "ကၤ": 3041,
      "လိၣ်": 3042,
      "ၸူး": 3043,
      "NLA": 3044,
      "ဘီၪ": 3045,
      "လၧၫ့": 3046,
      "ငမ်းယဵၼ်": 3047,
      "fet": 3048,
      "ုး": 3049,
      "လၢပ": 3050,
      "ၵူဝ်": 3051,
      "မူၤ": 3052,
      "တဲဘၣ်": 3053,
      "ၽိုတ်ႇ": 3054,
      "ဝန်ကြီးဌာန": 3055,
      "ၸႅ": 3056,
      "လိုအပ်": 3057,
      "kung": 3058,
      "ဒုၪ": 3059,
      "၁၀": 3060,
      "ထုင်ႉ": 3061,
      "ပြောကြား": 3062,
      "ꤟꤢꤩꤏ": 3063,
      "ဆိၩ": 3064,
      "All": 3065,
      "ဆိၣ်": 3066,
      "မၢင်": 3067,
      "ၼင်ႈ": 3068,
      "khang": 3069,
      "သူများ": 3070,
      "စီၤအၤ": 3071,
      "လင်း": 3072,
      "ၼမ်ႉတူႈ": 3073,
      "ob": 3074,
      "စက်": 3075,
      "ꤒꤥ꤭": 3076,
      "ပၢင်ႇ": 3077,
      "လၢမ်း": 3078,
      "မၪလူၬ": 3079,
      "Levi": 3080,
      "14": 3081,
      "py": 3082,
      "atu": 3083,
      "သဵၼ်ႈတၢင်း": 3084,
      "ရရှိ": 3085,
      "ၥိၪ": 3086,
      "caw": 3087,
      "ꤓꤝꤢ꤭": 3088,
      "ဒဲးဘး": 3089,
      "ꤞꤤꤑꤢꤩ꤭": 3090,
      "ꤒꤣꤧ꤬ꤚ": 3091,
      "rofet": 3092,
      "Tw": 3093,
      "တည်း": 3094,
      "ၼူ": 3095,
      "လဳ": 3096,
      "လိမ့်": 3097,
      "ဘၪဆဲၫ့": 3098,
      "Copy": 3099,
      "eb": 3100,
      "ကဒါ": 3101,
      "ကွံာ်အီၤ": 3102,
      "ၶႅင်ႇ": 3103,
      "ႁၢၼ်ႉ": 3104,
      "ollow": 3105,
      "ႁူဝ်ၵူၼ်း": 3106,
      "ved": 3107,
      "served": 3108,
      "reserved": 3109,
      "Follow": 3110,
      "angtho": 3111,
      "ခွဲ": 3112,
      "rights": 3113,
      "မယ့်": 3114,
      "ꤢ꤬ꤜ": 3115,
      "TimesTw": 3116,
      "ၵွင်ႈၵၢင်ႇ": 3117,
      "TheMyanmarTimesFollow": 3118,
      "eets": 3119,
      "Copyright": 3120,
      "TimesTweets": 3121,
      "ကဆါ": 3122,
      "၁၁": 3123,
      "တဖၣ်အံၤ": 3124,
      "ၼပ်ႉ": 3125,
      "တူး": 3126,
      "ငဝ်းလၢႆး": 3127,
      "သိမ်း": 3128,
      "hal": 3129,
      "Cutikah": 3130,
      "မိူဝ်ႈဝႃး": 3131,
      "ဘဲၫၥိၭအမိ": 3132,
      "ပၼ်ႁႃ": 3133,
      "ဝှါ": 3134,
      "TNLA": 3135,
      "ႁူမ်ႇ": 3136,
      "လၢင်း": 3137,
      "လဖၧၫ့": 3138,
      "တၢ်သီ": 3139,
      "ပြစ်": 3140,
      "ကောက်": 3141,
      "ဆၧလၧ": 3142,
      "Nangmah": 3143,
      "သၢင်ႇ": 3144,
      "ပဵၼ်ပၢင်တိုၵ်းၵၼ်": 3145,
      "နှုန်း": 3146,
      "ရုံး": 3147,
      "အၢၣ်လီၤ": 3148,
      "Ahih": 3149,
      "ဖျဲး": 3150,
      "ႁႄႉ": 3151,
      "ဟၣ်": 3152,
      "arau": 3153,
      "chan": 3154,
      "ထၢၣ်": 3155,
      "ယၢပ်ႇၽိုတ်ႇ": 3156,
      "လၢၤ": 3157,
      "တာဝန်": 3158,
      "000": 3159,
      "ero": 3160,
      "မ့ၪ": 3161,
      "ပၢင်ပွႆး": 3162,
      "ကိစ္စ": 3163,
      "ယုဒၫ": 3164,
      "ဒၣ်ဝဲ": 3165,
      "ကျမ်းစာမှာ": 3166,
      "သၢၼ်ၶတ်း": 3167,
      "ဝံၭ": 3168,
      "nasem": 3169,
      "မီၢ်": 3170,
      "ဖြတ်": 3171,
      "bawm": 3172,
      "၁၇": 3173,
      "မီးၵူၼ်း": 3174,
      "ပဵင်း": 3175,
      "ၶျ": 3176,
      "တေဢမ်ႇ": 3177,
      "ဒၣ်လဲာ်": 3178,
      "ကူၣ်": 3179,
      "လၢဝ့ၢ်": 3180,
      "ပၼ်ႇ": 3181,
      "၁၂": 3182,
      "ၺ်ႇ": 3183,
      "အဲး": 3184,
      "ကြိုး": 3185,
      "ံၫ့": 3186,
      "hla": 3187,
      "ႁေႃ": 3188,
      "ပွင်ႇ": 3189,
      "လၧအအီၪ": 3190,
      "ရှိနေ": 3191,
      "ၸိုင်ႈမိူင်း": 3192,
      "unau": 3193,
      "ဘံၭ": 3194,
      "Thi": 3195,
      "ria": 3196,
      "vancung": 3197,
      "ယၢင်း": 3198,
      "တချို့": 3199,
      "သုင်": 3200,
      "အၪ့မၧၫ့": 3201,
      "မ့ၬ": 3202,
      "aho": 3203,
      "ပိာ်မုၣ်": 3204,
      "နၪ": 3205,
      "၁၅": 3206,
      "အပှၤဂီၢ်မုၢ်": 3207,
      "꤯”": 3208,
      "hmin": 3209,
      "zak": 3210,
      "စရာ": 3211,
      "ၽု": 3212,
      "hni": 3213,
      "sat": 3214,
      "ၽဵ": 3215,
      "ၽွမ်ႉ": 3216,
      "ၵိူ": 3217,
      "nannih": 3218,
      "ဖျိၪ့": 3219,
      "အပူၤန့ၣ်လီၤ": 3220,
      "ၸဵမ်ၸိူဝ်းၼႆႉ": 3221,
      "Jak": 3222,
      "She": 3223,
      "sawn": 3224,
      "ꤞꤤꤕꤜꤢꤪ꤬": 3225,
      "ပၢင်လူင်": 3226,
      "သင်ႇ": 3227,
      "ဢၢၼ်း": 3228,
      "ꤥ꤬ꤔ": 3229,
      "ဆိုတဲ့": 3230,
      "ဒၤဝံး": 3231,
      "Ni": 3232,
      "စံၣ်ညီၣ်": 3233,
      "တူင်ႇဝူင်း": 3234,
      "ဂါ": 3235,
      "တန်": 3236,
      "သမီး": 3237,
      "ဢိင်": 3238,
      "ႁႅၼ်း": 3239,
      "hrimhrim": 3240,
      "zin": 3241,
      "ꤠꤤ꤭": 3242,
      "ဘာသာ": 3243,
      "nate": 3244,
      "ထၧၫ့": 3245,
      "tha": 3246,
      "ဆၢကတီၢ်": 3247,
      "ꤘꤢꤧ꤬": 3248,
      "ၸွမ်းၼင်ႇ": 3249,
      "လၢႆးမိုဝ်း": 3250,
      "khalsehla": 3251,
      "ꤕꤢ꤬": 3252,
      "အဒူၣ်": 3253,
      "ꤗꤢ꤬ꤔꤢꤧ": 3254,
      "သႃ": 3255,
      "let": 3256,
      "ပႃႇတီႇႁူဝ်သိူဝ်": 3257,
      "မန်": 3258,
      "တုၵ်း": 3259,
      "အမျိုးသား": 3260,
      "၁၃": 3261,
      "Jakob": 3262,
      "ႁု": 3263,
      "တွေနဲ့": 3264,
      "ဒီလို": 3265,
      "thangṭhat": 3266,
      "ၧၫ": 3267,
      "ꤔꤣꤧ꤬ꤗꤢ꤬": 3268,
      "ၽိတ်း": 3269,
      "တွပ်ႇ": 3270,
      "ႁဵင်": 3271,
      "တာက": 3272,
      "သင်ဝႃႈ": 3273,
      "မၤတ့ၢ်": 3274,
      "ဒုတိယ": 3275,
      "အသုံး": 3276,
      "ꤜꤢꤧ꤬": 3277,
      "မုၬ": 3278,
      "me": 3279,
      "မဵ": 3280,
      "uar": 3281,
      "မီးလွင်ႈ": 3282,
      "ယႃႇ": 3283,
      "ရတဲ့": 3284,
      "သိုၵ်းလူင်ပွင်ၸိုင်ႈမၢၼ်ႈ": 3285,
      "ထၫ့": 3286,
      "hilh": 3287,
      "းထီၣ်": 3288,
      "aron": 3289,
      "လိၵ်ႈလၢႆး": 3290,
      "ꤝꤤ": 3291,
      "ထီၫ့": 3292,
      "Aaron": 3293,
      "Sam": 3294,
      "အဖၫ့ခိၪ": 3295,
      "ကွဲး": 3296,
      "ဝႆႉဝႃႈ": 3297,
      "ꤗꤢꤩ꤬ꤒꤢꤩ꤭": 3298,
      "asi": 3299,
      "စ့": 3300,
      "ရွှ": 3301,
      "Biakinn": 3302,
      "Fili": 3303,
      "ိုလ်": 3304,
      "စုံ": 3305,
      "သုၼ်ႇလႆႈ": 3306,
      "nanmah": 3307,
      "uithiam": 3308,
      "ဂၭဂီၩ့": 3309,
      "ꤗꤢ꤬ꤔꤢꤧꤚꤣꤧ꤬": 3310,
      "၁၄": 3311,
      "ရှာ": 3312,
      "hruai": 3313,
      "တိုး": 3314,
      "ṭi": 3315,
      "ꤍ꤫ꤥ꤬": 3316,
      "bek": 3317,
      "ဂၧၫ့": 3318,
      "န့ၣ်ဘၣ်": 3319,
      "miteʼ": 3320,
      "ဢွၼ်ႁူဝ်": 3321,
      "စဲၪ့ထၪ့": 3322,
      "သျ": 3323,
      "ူၭ": 3324,
      "ၵႃႇ": 3325,
      "ၸိူင်ႉၼႆ": 3326,
      "တဵမ်": 3327,
      "လူမ်ႈ": 3328,
      "စီၤၡ": 3329,
      "Far": 3330,
      "ၶႂ": 3331,
      "ꤛꤢ": 3332,
      "suan": 3333,
      "ꤢ꤬ꤋꤢꤩ꤭ꤔꤣꤧ꤬": 3334,
      "ṭhi": 3335,
      "awla": 3336,
      "ဖၭဒိၪ": 3337,
      "hnih": 3338,
      "ပရ": 3339,
      "thlen": 3340,
      "din": 3341,
      "မႆႉ": 3342,
      "တဖၣ်လၢအ": 3343,
      "တခီ": 3344,
      "ၵေႃႈမီး": 3345,
      "ဢႃႇၼႃႇ": 3346,
      "ꤔꤢꤪ꤭": 3347,
      "အများ": 3348,
      "ခုနှစ်": 3349,
      "ႁၢမ်ႈ": 3350,
      "တုၵ်းယွၼ်း": 3351,
      "suk": 3352,
      "ထားတဲ့": 3353,
      "အစဎွၩ": 3354,
      "တစ်ဦး": 3355,
      "ဒါကြောင့်": 3356,
      "ku": 3357,
      "ၵိုင်": 3358,
      "တၼ်း": 3359,
      "စ့ၩရၫ့": 3360,
      "စိုး": 3361,
      "သကိး": 3362,
      "hlei": 3363,
      "rai": 3364,
      "sih": 3365,
      "Ti": 3366,
      "ꤊꤢꤨ": 3367,
      "မီ": 3368,
      "အားလုံး": 3369,
      "ဝဲလီၤ": 3370,
      "ၾူ": 3371,
      "ဒီးအဝဲသ့ၣ်": 3372,
      "ဒုၣ်": 3373,
      "ဖြင့်": 3374,
      "chuak": 3375,
      "ၶႃႈယဝ်ႉ": 3376,
      "eihmanh": 3377,
      "Kum": 3378,
      "fan": 3379,
      "ဖံး": 3380,
      "ဘၤ": 3381,
      "ကိၪ့": 3382,
      "elh": 3383,
      "ပိၵ်ႉ": 3384,
      "pu": 3385,
      "နံၣ်": 3386,
      "kuang": 3387,
      "သွင်း": 3388,
      "ဒၫဝံၭ": 3389,
      "ႁူပ်ႉထူပ်း": 3390,
      "အထိ": 3391,
      "khuam": 3392,
      "ၼၢင်းယိင်း": 3393,
      "ꤜꤣꤧ꤬": 3394,
      "minam": 3395,
      "ကူး": 3396,
      "မဲၪ": 3397,
      "လူင်းလၢႆးမိုဝ်း": 3398,
      "khawpi": 3399,
      "သုတ": 3400,
      "ပြုလုပ်": 3401,
      "အဂီၢ်လီၤ": 3402,
      "ဆၨၩ": 3403,
      "khiat": 3404,
      "တႄႇဢဝ်": 3405,
      "Ama": 3406,
      "၁၈": 3407,
      "ၸႄႈဝဵင်းမိူင်း": 3408,
      "lio": 3409,
      "chiah": 3410,
      "လုၢ်ဟံၣ်": 3411,
      "အစီၤပၤ": 3412,
      "ꤋꤛꤢ꤭": 3413,
      "တႃ": 3414,
      "ညွှ": 3415,
      "ဖၩ့": 3416,
      "heh": 3417,
      "ၽူႈမီး": 3418,
      "NLD": 3419,
      "ၵင်ႈ": 3420,
      "Re": 3421,
      "တခြား": 3422,
      "ဝၢင်း": 3423,
      "khar": 3424,
      "လွတ်ႈ": 3425,
      "မူး": 3426,
      "ယၥၭ": 3427,
      "ꤡ꤫ꤢꤧ꤬": 3428,
      "hlim": 3429,
      "ထောက်": 3430,
      "လံၩ": 3431,
      "ႁူမ်ႇလူမ်ႈ": 3432,
      "ဲၣ်": 3433,
      "inla": 3434,
      "ပြည်သူ့": 3435,
      "မ့ၣ်": 3436,
      "ဢမ်ႇၸႂ်ႈ": 3437,
      "ꤋꤚꤤ": 3438,
      "အင်": 3439,
      "ရွယ်": 3440,
      "ꤓꤢꤩ꤬": 3441,
      "ဒီးက": 3442,
      "tawntung": 3443,
      "lungsim": 3444,
      "sui": 3445,
      "ṭheng": 3446,
      "hei": 3447,
      "တော": 3448,
      "အရာ": 3449,
      "ꤖꤢꤩ꤭": 3450,
      "200": 3451,
      "ကူညီ": 3452,
      "zungzal": 3453,
      "17": 3454,
      "ယဲၤ": 3455,
      "ၼီႊ": 3456,
      "ꤔꤣꤧ꤭": 3457,
      "NC": 3458,
      "ꤒ꤫ꤢꤧ꤬": 3459,
      "လၢအဝဲသ့ၣ်": 3460,
      "umei": 3461,
      "မွဲၦ": 3462,
      "မိူဝ်ႈပီ": 3463,
      "ၵွၼ်ႇ": 3464,
      "ကမိၣ်": 3465,
      "gim": 3466,
      "ပူး": 3467,
      "cio": 3468,
      "မႆႈၸႂ်": 3469,
      "profet": 3470,
      "ထူး": 3471,
      "tun": 3472,
      "ထုၼ်း": 3473,
      "hnga": 3474,
      "zeihmanh": 3475,
      "ဏ္": 3476,
      "ၵမ်ႈၼမ်": 3477,
      "မ္": 3478,
      "ုၬ": 3479,
      "ngun": 3480,
      "ခံရ": 3481,
      "တႄႉတႄႉ": 3482,
      "ထိုင်မႃး": 3483,
      "ကၠၪ": 3484,
      "ဂ့ၢ်": 3485,
      "tel": 3486,
      "ꤗꤢꤧꤓ": 3487,
      "ဒီးအ": 3488,
      "မ့ၢ်ပှၤ": 3489,
      "cheu": 3490,
      "ia": 3491,
      "koih": 3492,
      "chungin": 3493,
      "huh": 3494,
      "vang": 3495,
      "ခ့": 3496,
      "ဖၣ်": 3497,
      "ပေႉ": 3498,
      "chia": 3499,
      "ကတော့": 3500,
      "ဆာ": 3501,
      "ဓိ": 3502,
      "လုမ်ႈ": 3503,
      "ဖန်": 3504,
      "ပြန်လည်": 3505,
      "၁၆": 3506,
      "ကြာ": 3507,
      "ဢူၺ်း": 3508,
      "is": 3509,
      "ပျက်": 3510,
      "ယိပ်းၵွင်ႈၵၢင်ႇ": 3511,
      "အုၣ်": 3512,
      "ပျီႇ": 3513,
      "မြို့နယ်": 3514,
      "ꤗꤢꤧꤓ꤫ꤣꤧ꤬": 3515,
      "kul": 3516,
      "မတော်": 3517,
      "ကနၣ်": 3518,
      "sum": 3519,
      "ngeih": 3520,
      "ိၼ်ႊ": 3521,
      "သူး": 3522,
      "ဆိုပြီး": 3523,
      "sawl": 3524,
      "စူၢ်": 3525,
      "ꤊꤢ꤬": 3526,
      "Jeho": 3527,
      "uhla": 3528,
      "အဝေး": 3529,
      "ယရူ": 3530,
      "တၭး": 3531,
      "ဆိကမိၣ်": 3532,
      "အခြေခံ": 3533,
      "အဖီခိၣ်": 3534,
      "ꤜꤣ": 3535,
      "ကျေး": 3536,
      "ကဒါက့ၤ": 3537,
      "လွန်": 3538,
      "tik": 3539,
      "အကစၢ်": 3540,
      "ဢိၵ်ႇ": 3541,
      "ယတၢ်": 3542,
      "ထံၣ်ဘၣ်": 3543,
      "မိမၩ": 3544,
      "ဒၪဝ့ၫ": 3545,
      "ဆၫ": 3546,
      "အၥ": 3547,
      "သတိ": 3548,
      "လဂၩနီၪ": 3549,
      "Sikhalsehla": 3550,
      "ၤၡ့": 3551,
      "16": 3552,
      "မိၤၡ့": 3553,
      "ဘိၪ့": 3554,
      "ထီဒါ": 3555,
      "ဒ့ၭ": 3556,
      "လာ်": 3557,
      "hter": 3558,
      "ရည်": 3559,
      "တုမ်ႉ": 3560,
      "ၸဝ်ႈၶူး": 3561,
      "hu": 3562,
      "မှုကို": 3563,
      "ပီၼႆႉ": 3564,
      "kua": 3565,
      "ဝၱၤ": 3566,
      "ဂာ်": 3567,
      "khak": 3568,
      "စီၤယိၤ": 3569,
      "ဒေါ": 3570,
      "လုၢ်တၢ်အခိၣ်": 3571,
      "ကပီၤ": 3572,
      "ဓာ": 3573,
      "ကျိ": 3574,
      "နေတဲ့": 3575,
      "ထူၼ်ႈ": 3576,
      "နက်": 3577,
      "ဝေ": 3578,
      "ကျၩ": 3579,
      "hrem": 3580,
      "tluk": 3581,
      "အခြေအနေ": 3582,
      "lamah": 3583,
      "လၧပ": 3584,
      "ယွၤအတၢ်": 3585,
      "Ne": 3586,
      "ရှိတဲ့": 3587,
      "dik": 3588,
      "ဖျ့ၭ": 3589,
      "ပာ်လီၤ": 3590,
      "dihlak": 3591,
      "ခေါ်": 3592,
      "ဘက်": 3593,
      "lomon": 3594,
      "အခု": 3595,
      "လာတယ်": 3596,
      "ၸိူင်ႉႁိုဝ်": 3597,
      "နၢ်ဟူ": 3598,
      "Solomon": 3599,
      "ruat": 3600,
      "လဵင်ႉ": 3601,
      "စဲး": 3602,
      "As": 3603,
      "ၼႂ်းပိုၼ်ႉတီႈ": 3604,
      "အီၪလၧအ": 3605,
      "ကြည့်ပါ": 3606,
      "ꤛ꤫ꤢꤦ꤬ꤢꤩ꤬": 3607,
      "လုဆၧ": 3608,
      "ပွား": 3609,
      "ap": 3610,
      "မဳၤ": 3611,
      "မှား": 3612,
      "အပေါ်": 3613,
      "ꤗꤥ꤬": 3614,
      "ဒဲၩ": 3615,
      "ဆၢထၢၣ်": 3616,
      "ႁႆႈ": 3617,
      "nakh": 3618,
      "လုမ်ႈၾႃႉ": 3619,
      "အသွ": 3620,
      "ဖုဝဲ": 3621,
      "ꤡꤣ꤬": 3622,
      "နီတဂၤ": 3623,
      "တၭၦ": 3624,
      "biakṭheng": 3625,
      "awp": 3626,
      "ze": 3627,
      "phan": 3628,
      "မိူဝ်ႈလဵဝ်": 3629,
      "အမံၩ့": 3630,
      "စီၤဒၤဝံး": 3631,
      "င်းပ": 3632,
      "ကျောင်း": 3633,
      "မူၭ": 3634,
      "ၸုမ်းၶၢဝ်ႇ": 3635,
      "ၵွင်း": 3636,
      "zaangfah": 3637,
      "Gi": 3638,
      "can": 3639,
      "တေႃႉ": 3640,
      "သော်": 3641,
      "အတိုင်း": 3642,
      "တၢ်ဒီး": 3643,
      "န်းက": 3644,
      "အကျိုး": 3645,
      "ဆၧမၩ": 3646,
      "ဝဲဒၣ်": 3647,
      "ပါတီ": 3648,
      "ဃၣ်": 3649,
      "ကွဲ": 3650,
      "kuan": 3651,
      "နက": 3652,
      "မြောက်": 3653,
      "Note": 3654,
      "မါ": 3655,
      "thuak": 3656,
      "ပျၢ်": 3657,
      "တြႃး": 3658,
      "တီႈဝတ်ႉ": 3659,
      "အချ": 3660,
      "ီႉ": 3661,
      "ꤒ꤫ꤥ꤬": 3662,
      "taktak": 3663,
      "ပွၵ်ႈၵမ်း": 3664,
      "လိမ့်မယ်": 3665,
      "ဢၢင်း": 3666,
      "တူဝ်ႈ": 3667,
      "ဖြစ်ပြီး": 3668,
      "ꤣꤧ꤭ꤒꤣꤧ꤬ꤟꤢꤩ꤬": 3669,
      "ထိန်း": 3670,
      "လၧအဝ့ၫၥံၪ": 3671,
      "ret": 3672,
      "လယ်": 3673,
      "ပေါ့": 3674,
      "သစ်": 3675,
      "စွမ်း": 3676,
      "အောက်": 3677,
      "ဢို": 3678,
      "ျၢၣ်": 3679,
      "ꤊꤢꤨ꤬": 3680,
      "ဢွၵ်ႇမႃး": 3681,
      "numei": 3682,
      "ငိၼ်း": 3683,
      "ဆိုး": 3684,
      "ထၪ့ခွံၬ": 3685,
      "Filis": 3686,
      "ဎီး": 3687,
      "အန့ၣ်": 3688,
      "အလူ": 3689,
      "ၽိူၵ်ႇ": 3690,
      "ဏ္ဍ": 3691,
      "apa": 3692,
      "rem": 3693,
      "”—": 3694,
      "ထီးနီၪလဖၧၫ့": 3695,
      "25": 3696,
      "ပတ်း": 3697,
      "ပၢၼ်": 3698,
      "အဓိ": 3699,
      "ထဲမှာ": 3700,
      "lengmang": 3701,
      "နတၢ်": 3702,
      "ဖိး": 3703,
      "သမ္မာ": 3704,
      "လ့ၬ": 3705,
      "ဝၼ်းမိူဝ်ႈၼႆႉ": 3706,
      "sef": 3707,
      "အမဲာ်ညါ": 3708,
      "တနီၤ": 3709,
      "အဲဒီလို": 3710,
      "ꤜ꤫ꤢꤩ꤬": 3711,
      "ဝ့ၫလၧအ": 3712,
      "နေတယ်": 3713,
      "အိၣ်မူ": 3714,
      "18": 3715,
      "kil": 3716,
      "ဎး": 3717,
      "ထီၣ်ကွံာ်": 3718,
      "မျက်": 3719,
      "သိုဝ်ႇ": 3720,
      "ringring": 3721,
      "simi": 3722,
      "ချမ်း": 3723,
      "ႁွတ်ႈ": 3724,
      "Josef": 3725,
      "ယေဟောဝါဘုရား": 3726,
      "မႅၼ်ႈ": 3727,
      "လော": 3728,
      "leeng": 3729,
      "ဝဲၩ": 3730,
      "ထပ်": 3731,
      "luat": 3732,
      "ဝ့ၫနီၪ": 3733,
      "nakhnga": 3734,
      "ဋ္": 3735,
      "အချက်": 3736,
      "thong": 3737,
      "စ့ၭ": 3738,
      "ပိုင်": 3739,
      "ce": 3740,
      "ယဵ": 3741,
      "siampi": 3742,
      "တံ": 3743,
      "ၼႂ်းမိူင်း": 3744,
      "မၩအၥၭဘဲၫနီၪတၭ": 3745,
      "မၬ": 3746,
      "tuam": 3747,
      "ဝၢၼ်ႈမိူင်း": 3748,
      "Abrah": 3749,
      "Abraham": 3750,
      "buk": 3751,
      "tal": 3752,
      "အစု": 3753,
      "ꤊ꤫ꤢꤩ꤬": 3754,
      "ကိုင်": 3755,
      "ꤞꤣꤧ꤭ꤖꤚꤢꤩ꤬": 3756,
      "အပူၤန့ၣ်": 3757,
      "mawhna": 3758,
      "ပျဲၢ်": 3759,
      "ၼၢႆး": 3760,
      "ဆောက်": 3761,
      "နံၪ့": 3762,
      "midang": 3763,
      "လျက်": 3764,
      "အိၣ်ဒီးတၢ်": 3765,
      "ၽူႈၼမ်း": 3766,
      "လႅၵ်ႈ": 3767,
      "ၽႂ်မၼ်း": 3768,
      "စပ": 3769,
      "ထိုင်တီႈ": 3770,
      "ဒီၪ့": 3771,
      "ိူဝ်ႊ": 3772,
      "ၸိုင်ႈထႆး": 3773,
      "လႅင်": 3774,
      "က္ခ": 3775,
      "ꤟꤥ꤭": 3776,
      "ၼႂ်းဝဵင်း": 3777,
      "အဃိန့ၣ်လီၤ": 3778,
      "thinlung": 3779,
      "tlangbawi": 3780,
      "hon": 3781,
      "ပ္": 3782,
      "အဲၤ": 3783,
      "ကွက်": 3784,
      "ဢၼ်ပဵၼ်": 3785,
      "ဒုၩ": 3786,
      "ႁၢႆႉ": 3787,
      "အမံၤ": 3788,
      "ဝၢႆးဝၼ်း": 3789,
      "rin": 3790,
      "မံၫ": 3791,
      "ူၬ": 3792,
      "ပါဝင်": 3793,
      "ꤗꤢꤩ꤬ꤒꤢꤩ꤭ꤟꤢꤩꤚꤣꤧ꤬": 3794,
      "ဝီ": 3795,
      "ၶႆႈ": 3796,
      "မ့ၣ်အူ": 3797,
      "ဂ္ဂ": 3798,
      "သ်": 3799,
      "အဲၪ": 3800,
      "စဲၪ့": 3801,
      "leilung": 3802,
      "ပတူး": 3803,
      "မင်း": 3804,
      "ပြည်နယ်": 3805,
      "တတ်း": 3806,
      "တဢၢင်း": 3807,
      "ပၧၩ": 3808,
      "ရမယ်": 3809,
      "ၵ်ႊ": 3810,
      "ဖၧၩ့တၭ": 3811,
      "ကည": 3812,
      "Lei": 3813,
      "မိသား": 3814,
      "အီၪကီၪ့": 3815,
      "ၵႅတ်ႇ": 3816,
      "Eg": 3817,
      "ၵေး": 3818,
      "ကျပ်": 3819,
      "တဖျၢၣ်": 3820,
      "လွှတ်တော်ကိုယ်စားလှယ်": 3821,
      "Annih": 3822,
      "န္ဒ": 3823,
      "က့": 3824,
      "ယိူင်း": 3825,
      "မိသားစု": 3826,
      "ၫဖိၪ": 3827,
      "မၼ်ႈ": 3828,
      "လံၫ့": 3829,
      "စဉ်း": 3830,
      "deih": 3831,
      "ꤞꤝꤢ": 3832,
      "ၼႆသေ": 3833,
      "တွတ်ႈ": 3834,
      "မိဘ": 3835,
      "လႆႈႁူႉ": 3836,
      "ၸူဝ်ႈ": 3837,
      "NCA": 3838,
      "လွံၢ်": 3839,
      "မြန်မာနိုင်ငံ": 3840,
      "စအၫ": 3841,
      "အၣ်": 3842,
      "ဒီးအဝဲ": 3843,
      "ၼႂ်းဢိူင်ႇ": 3844,
      "လုပ်ဆောင်": 3845,
      "ခရစ်": 3846,
      "ton": 3847,
      "သံကွၢ်": 3848,
      "တပ်မတော်": 3849,
      "လီၩဘၪ": 3850,
      "ဆ့လီၫ": 3851,
      "မ့ၬယၫ": 3852,
      "ꤓꤣꤧ꤭": 3853,
      "thih": 3854,
      "ၽွင်းလူင်": 3855,
      "တသ့": 3856,
      "ခဲ့ခြင်း": 3857,
      "အစား": 3858,
      "ဒိၭ": 3859,
      "ဖီ": 3860,
      "ဒီးယ": 3861,
      "တေပဵၼ်": 3862,
      "ၸုမ်းယိပ်းၵွင်ႈၵၢင်ႇ": 3863,
      "စုာ်": 3864,
      "တဲၩ": 3865,
      "ဖျါထီၣ်": 3866,
      "ဢိုတ်း": 3867,
      "တီႈလိၼ်": 3868,
      "အခဲ": 3869,
      "keima": 3870,
      "zianghman": 3871,
      "စၤ": 3872,
      "ၾင်ႇ": 3873,
      "ꤔ꤫ꤢꤧ꤬": 3874,
      "thlam": 3875,
      "ၵႆ": 3876,
      "မ့ၢ်ဝဲ": 3877,
      "ကူပတူး": 3878,
      "တွၼ်ႈတႃႇ": 3879,
      "ပြောပြ": 3880,
      "တဘ့ၣ်": 3881,
      "dingih": 3882,
      "phung": 3883,
      "ဆူတၢ်": 3884,
      "bawipa": 3885,
      "ဢွၵ်ႇၶူင်း": 3886,
      "aan": 3887,
      "အယွၩ": 3888,
      "စဉ်းစား": 3889,
      "Thl": 3890,
      "vun": 3891,
      "ၶၢင်": 3892,
      "မှုများ": 3893,
      "အပြင်": 3894,
      "မိစ့ၭ": 3895,
      "hmang": 3896,
      "အကူ": 3897,
      "sha": 3898,
      "shua": 3899,
      "cing": 3900,
      "ၥီၪ့": 3901,
      "hri": 3902,
      "လိူင်ႈ": 3903,
      "ဒ်တၢ်": 3904,
      "hihi": 3905,
      "တဖၣ်လီၤ": 3906,
      "ယိုၼ်ႈ": 3907,
      "ၸိုင်ႈတႆးပွတ်းၸၢၼ်း": 3908,
      "Ze": 3909,
      "လူႇ": 3910,
      "50": 3911,
      "ပြည့်": 3912,
      "ဒီးသု": 3913,
      "tlan": 3914,
      "ၶဝ်ႈမႃး": 3915,
      "chiat": 3916,
      "ဒိကနၣ်": 3917,
      "ဟံးန့ၢ်": 3918,
      "dingmi": 3919,
      "ꤒꤣꤧ꤬ꤔ": 3920,
      "မၢဝ်း": 3921,
      "Pe": 3922,
      "ရသည်": 3923,
      "ပူၵ်း": 3924,
      "nangma": 3925,
      "ရောဂါ": 3926,
      "ဒဲၩဘၭ": 3927,
      "သမ္မ": 3928,
      "ပၵ်းပိူင်": 3929,
      "ပၼီႊ": 3930,
      "pak": 3931,
      "ၵၼ်သေ": 3932,
      "ပုၢ်": 3933,
      "ဢိင်ၼိူဝ်": 3934,
      "vak": 3935,
      "ဝႃႉ": 3936,
      "တွေရဲ့": 3937,
      "ၵိုတ်းတိုၵ်း": 3938,
      "တဘၣ်": 3939,
      "သန်း": 3940,
      "zeitin": 3941,
      "fanu": 3942,
      "ညွှန်": 3943,
      "ကဘၣ်တၢ်": 3944,
      "ၫအ": 3945,
      "မိဘၪ": 3946,
      "lungdam": 3947,
      "တၢၼ်း": 3948,
      "ဆန္ဒ": 3949,
      "ၡၪ့": 3950,
      "လုံ": 3951,
      "ခဲၫ့": 3952,
      "paipih": 3953,
      "အၥိၭနီၪလီၫ": 3954,
      "မိုး": 3955,
      "tefa": 3956,
      "သးခု": 3957,
      "နါဂၧၫ့": 3958,
      "ၽုၵ်ႇ": 3959,
      "မၢ်": 3960,
      "Ziang": 3961,
      "ဝတ်": 3962,
      "တီႉလႆႈ": 3963,
      "ခိုက်": 3964,
      "ဆၧနီၪ": 3965,
      "nai": 3966,
      "hrang": 3967,
      "ဆဲး": 3968,
      "ꤊꤜꤢꤪ": 3969,
      "Beth": 3970,
      "ဘီၩ့": 3971,
      "မူခိၣ်": 3972,
      "suang": 3973,
      "လၢ်လၢ်": 3974,
      "ပတ်းပိုၼ်ႉ": 3975,
      "အဲၤကူပတူး": 3976,
      "ထီၣ်က့ၤ": 3977,
      "ၵမ်ႈၽွင်ႈ": 3978,
      "မွဲဘၪ": 3979,
      "ဢူၺ်းလီ": 3980,
      ")၊": 3981,
      "siah": 3982,
      "ဖၧၩ့လီၫ": 3983,
      "ချစ်": 3984,
      "ၸိူင်ႉၼၼ်": 3985,
      "ၶူဝ်းၶွင်": 3986,
      "ဂး": 3987,
      "မွေး": 3988,
      "မဲး": 3989,
      "ဟိ": 3990,
      "ခဲ့တဲ့": 3991,
      "ဒူ": 3992,
      "အညီ": 3993,
      "ေႃႇ": 3994,
      "မုာ်": 3995,
      "ဢမ်ႇယွမ်း": 3996,
      "ꤣꤧ꤭ꤒꤣ꤬ꤖꤚꤢꤩ꤬": 3997,
      "ခရံာ်": 3998,
      "သိၣ်တၢ်သီ": 3999,
      "unla": 4000,
      "ယုၵ်ႉ": 4001,
      "တီႈမိူင်း": 4002,
      "သူၼ်း": 4003,
      "hnu": 4004,
      "Van": 4005,
      "luh": 4006,
      "နံ": 4007,
      "ngak": 4008,
      "ၾၢႆႇၼိုင်ႈ": 4009,
      "ကော်မတီ": 4010,
      "ypt": 4011,
      "ꤕ꤫ꤥ꤬": 4012,
      "ၶွမ်ႊပၼီႊ": 4013,
      "ၶုၼ်": 4014,
      "Egypt": 4015,
      "puithiam": 4016,
      "ဢၼ်တေ": 4017,
      "စလံၫ့": 4018,
      "ဝၢ": 4019,
      "ဆၧလၧအ": 4020,
      "ꤢ꤬ꤑꤢꤩ꤭": 4021,
      "အမ့ၬ": 4022,
      "ꤢ꤬ꤊꤢꤨ꤭": 4023,
      "တအိၣ်ဘၣ်": 4024,
      "လေ့လာ": 4025,
      "chin": 4026,
      "ကီၢ်အံၣ်စရ့လး": 4027,
      "ၸေႈ": 4028,
      "23": 4029,
      "kaa": 4030,
      "အစည်းအဝေး": 4031,
      "thau": 4032,
      "ကြိုးစား": 4033,
      "dawi": 4034,
      "အစီ": 4035,
      "လၢယွၤ": 4036,
      "ကျင်းပ": 4037,
      "ဢမ်ႇႁူႉ": 4038,
      "ၥၭမဲၪ": 4039,
      "dung": 4040,
      "မီၤ": 4041,
      "မၤသံ": 4042,
      "ဖြစ်ပါတယ်": 4043,
      "အကြံ": 4044,
      "khuami": 4045,
      "ဇံၭ": 4046,
      "သြ": 4047,
      "zang": 4048,
      "ႁိၼ်": 4049,
      "ꤓꤥ꤭ꤚꤣꤧ꤬": 4050,
      "ပ့း": 4051,
      "ၵႅမ်": 4052,
      "ၼေႃႇ": 4053,
      "ပတ်သက်ပြီး": 4054,
      "တီႈၼင်ႈ": 4055,
      "ခိၭနၪ": 4056,
      "kulh": 4057,
      "ၦခမျၧး": 4058,
      "ၽႃႇ": 4059,
      "ႁိုင်": 4060,
      "လၢအက": 4061,
      "ကျင်": 4062,
      "အမြ": 4063,
      "Paul": 4064,
      "စွဲ": 4065,
      "မဟုတ်ဘူး": 4066,
      "ကောင်": 4067,
      "ဂဲၤ": 4068,
      "ဟန်": 4069,
      "ကဲာ်": 4070,
      "ဂံၢ်": 4071,
      "ငုၼ်း": 4072,
      "နၥၭ": 4073,
      "26": 4074,
      "တိၵ်း": 4075,
      "zia": 4076,
      "dar": 4077,
      "꤮꤯": 4078,
      "piang": 4079,
      "Mah": 4080,
      "ရှေ့": 4081,
      "ထူၣ်": 4082,
      "ကျန်း": 4083,
      "ဆိုသည်": 4084,
      "ၤၡလ့ၣ်": 4085,
      "ဗျ": 4086,
      "မႃးၼႆႉ": 4087,
      "အဂ့ၤ": 4088,
      "အခိး": 4089,
      "ခန်း": 4090,
      "မရ": 4091,
      "မလဲ": 4092,
      "၂၁": 4093,
      "ဒီပုၢ်": 4094,
      "တိူင်း": 4095,
      "mual": 4096,
      "rawn": 4097,
      "ၼႂ်းၵႄႈ": 4098,
      "အဖၧၩ့နီၪ": 4099,
      "Khris": 4100,
      "ꤡ꤫ꤢꤩ꤬": 4101,
      "leu": 4102,
      "သိုၵ်းလူင်": 4103,
      "ၶၢဝ်းယၢမ်း": 4104,
      "zat": 4105,
      "ပြင်ဆင်": 4106,
      "ဖွဲ့စည်း": 4107,
      "24": 4108,
      "ထို": 4109,
      "ꤚꤤ꤬": 4110,
      "အဂးလီၫ": 4111,
      "ၵွပ်ႈပိူဝ်ႈ": 4112,
      "ယႃႉ": 4113,
      "က္က": 4114,
      "gih": 4115,
      "ဆၧတၭ": 4116,
      "khial": 4117,
      "ꤒꤣ꤬ꤖ": 4118,
      "ၵေႃႇသၢင်ႈ": 4119,
      "sing": 4120,
      "ပို့": 4121,
      "ၶၢၼ်": 4122,
      "ကျဲး": 4123,
      "ကစီၣ်": 4124,
      "ဘျုး": 4125,
      "ꤞꤤꤛ꤫ꤢꤦ꤬": 4126,
      "ယရူၤၡလ့ၣ်": 4127,
      "ဘဝ": 4128,
      "မွဲပ": 4129,
      "ငဝ်ႈငုၼ်း": 4130,
      "တႂ်ႈ": 4131,
      "sep": 4132,
      "တရု": 4133,
      "ကွ့ၭ": 4134,
      "စီမံ": 4135,
      "ၶႅၼ်း": 4136,
      "လုင်းၸၢႆး": 4137,
      "ဆူး": 4138,
      "ꤞꤢꤧꤟꤢꤨ": 4139,
      "လၢၤဘၣ်": 4140,
      "Ral": 4141,
      "ဖၪ": 4142,
      "heng": 4143,
      "အသးလၢ": 4144,
      "အသိ": 4145,
      "ဘဲၫနီၪ": 4146,
      "ပြောတယ်": 4147,
      "တမန်": 4148,
      "အပြစ်": 4149,
      "မောင်": 4150,
      "ၡံ": 4151,
      "ၵူၼ်းတိတ်းၸပ်း": 4152,
      "တကယ်": 4153,
      "လဲၢ်": 4154,
      "မိူင်းမၢၼ်ႈ": 4155,
      "သိုဝ်ႇၶၢဝ်ႇ": 4156,
      "don": 4157,
      "ဝႃႇ": 4158,
      "မၩၥံၫ": 4159,
      "Babi": 4160,
      "တုမ်ႉတိူဝ်ႉ": 4161,
      "လၢႆးၶႃႈ": 4162,
      "ရုစလံၫ့": 4163,
      "သော်လည်း": 4164,
      "ဒီပုၢ်ဝဲၢ်": 4165,
      "dom": 4166,
      "kin": 4167,
      "အဆိုပါ": 4168,
      "တီႈဝၢၼ်ႈ": 4169,
      "kiah": 4170,
      "ကော": 4171,
      "အၤ": 4172,
      "လၢမုၢ်": 4173,
      "စီၤမိၤၡ့": 4174,
      "ပူၤဖျဲး": 4175,
      "uktu": 4176,
      "Tlang": 4177,
      "ဢွင်ႈ": 4178,
      "မွဲလါနၫ့": 4179,
      "ၵူၼ်းမိူင်းတႆး": 4180,
      "28": 4181,
      "ချီ": 4182,
      "တူင်ႇဝူင်းၵူၼ်း": 4183,
      "ယသး": 4184,
      "lek": 4185,
      "တ်ႉထ": 4186,
      "gamta": 4187,
      "မၼ်းပဵၼ်": 4188,
      "သွင်ၾၢႆႇ": 4189,
      "ယာ်": 4190,
      "ဝႆး": 4191,
      "ၧၭ": 4192,
      "မၼ်းၼၢင်း": 4193,
      "တင်ပြ": 4194,
      "daan": 4195,
      "lum": 4196,
      "zul": 4197,
      "သလို": 4198,
      "အူး": 4199,
      "ṭil": 4200,
      "leitung": 4201,
      "ဒံ": 4202,
      "လမ်": 4203,
      "ောင့်": 4204,
      "sur": 4205,
      "sagih": 4206,
      "ၼင်ႇၵဝ်ႇ": 4207,
      "ႁေႃႈ": 4208,
      "ယိုဝ်းၵၼ်": 4209,
      "ဆွေ": 4210,
      "ꤒꤣ꤬ꤡꤣ꤬": 4211,
      "ဂဲထုၪ့": 4212,
      "ကင်": 4213,
      "စူၤ": 4214,
      "သမ္မတ": 4215,
      "Babilon": 4216,
      "nong": 4217,
      "ၶုတ်း": 4218,
      "ꤗ꤫ꤢ꤬ꤒꤥ꤬": 4219,
      "ကန်": 4220,
      "zeicahtiah": 4221,
      "သလား": 4222,
      "ṭhiam": 4223,
      "တၢ်အံၤ": 4224,
      "ပၢၢ်": 4225,
      "amnak": 4226,
      "သိုဝ်ႉ": 4227,
      "ဖြိုး": 4228,
      "ထုၬ": 4229,
      "ကမီၤ": 4230,
      "စီၪ့": 4231,
      "မိၤ": 4232,
      "ဢမ်ႇၸၢင်ႈ": 4233,
      "cawn": 4234,
      "rih": 4235,
      "ဖီၣ်": 4236,
      "လွင်ႈငမ်းယဵၼ်": 4237,
      "Johan": 4238,
      "ဘူၣ်ထီၣ်": 4239,
      "လၢင်းၶိူဝ်း": 4240,
      "Faro": 4241,
      "အဒိၣ်": 4242,
      "ပေါက်": 4243,
      "လၵ်ႉ": 4244,
      "ꤛ꤫ꤢꤧ꤬": 4245,
      "မယ်ဆိုရင်": 4246,
      "ၵဵဝ်ႇၵပ်းလွင်ႈၼႆႉ": 4247,
      "Ha": 4248,
      "သုမ်း": 4249,
      "မၤလိာ်": 4250,
      "ထူမ်ႈ": 4251,
      "pil": 4252,
      "ကာကွယ်": 4253,
      "ꤛꤢꤨꤘ": 4254,
      "ၶႅပ်းၵၢင်ၸႂ်": 4255,
      "ကျန်းမာ": 4256,
      "တၢင်": 4257,
      "ဝဲဒီး": 4258,
      "ထိၣ်": 4259,
      "နၢၤ": 4260,
      "ၵႆႉ": 4261,
      "ပျိုး": 4262,
      "ထံၩ": 4263,
      "လူၫ": 4264,
      "ဒေါ်": 4265,
      "နွ့ၫ": 4266,
      "ယၢၼ်မိူင်း": 4267,
      "ꤥ꤬ꤔꤢꤧ꤭": 4268,
      "ရှား": 4269,
      "tawk": 4270,
      "duhmi": 4271,
      "ṭhalo": 4272,
      "vantung": 4273,
      "အဖါ": 4274,
      "ႁႂ်ႈလႆႈ": 4275,
      "မ့တမ့ၢ်": 4276,
      "cin": 4277,
      "ꤕꤝꤢ꤭": 4278,
      "တဲ့အတွက်": 4279,
      "asinain": 4280,
      "ဃီၤ": 4281,
      "hnaṭuan": 4282,
      "ထီၣ်အီၤ": 4283,
      "ဝႆႉယူႇ": 4284,
      "ဆုတောင်း": 4285,
      "ၵူၼ်းၼုမ်ႇတႆး": 4286,
      "တင်းမူတ်းမီး": 4287,
      "ꤟꤢꤩꤏꤥ꤬": 4288,
      "ၵေးသီး": 4289,
      "ဆွဲ": 4290,
      "ဒၢ": 4291,
      "လ်း": 4292,
      "ၼႆႉသေ": 4293,
      "ဆန်း": 4294,
      "။''": 4295,
      "ꤞꤢꤩ꤬": 4296,
      "လၢၢ်": 4297,
      "ဢမ်ႇၵႃး": 4298,
      "ဖၧၩ့နီၪ": 4299,
      "ကူၭ": 4300,
      "နီတမံၤ": 4301,
      "him": 4302,
      "ပေးနိုင်": 4303,
      "ꤙꤢꤩ꤬ꤙꤢꤩ꤬": 4304,
      "နွံ": 4305,
      "rero": 4306,
      "ciang": 4307,
      "လံၬ": 4308,
      "ပွင်ၵၢၼ်": 4309,
      "ꤕꤜꤤ꤭": 4310,
      "ႁၢင်ႈႁႅၼ်း": 4311,
      "ငႄႈ": 4312,
      "tuar": 4313,
      "Joshua": 4314,
      "အဲၣ်ဒိး": 4315,
      "ၩ့လၩ့": 4316,
      "tiva": 4317,
      "sunga": 4318,
      "အဖၧၩ့လီၫ": 4319,
      "ငြိမ်း": 4320,
      "ဒူၣ်": 4321,
      "ၵႃႉ": 4322,
      "ဢမ်ႇၼၼ်": 4323,
      "ယာဉ်": 4324,
      "In": 4325,
      "the": 4326,
      "ၵူတ်ႉ": 4327,
      "တွေမှာ": 4328,
      "စိၤ": 4329,
      "တပ်ႉသိုၵ်းၸိုင်ႈတႆး": 4330,
      "ဒိးန့ၢ်": 4331,
      "လိး": 4332,
      "nuntak": 4333,
      "ၵေႃလိၵ်ႈလၢႆး": 4334,
      "ဘူၣ်ထီၣ်ဘါ": 4335,
      "parih": 4336,
      "tong": 4337,
      "ဘၩ့": 4338,
      "သွၼ်ႈ": 4339,
      "ၵဵဝ်ႇလူၺ်ႈ": 4340,
      "မူၭခိၪ": 4341,
      "Ben": 4342,
      "ၵိ": 4343,
      "tul": 4344,
      "အလီၢ်ခံ": 4345,
      "ၵိူတ်ႇ": 4346,
      "ပ္ပ": 4347,
      "ꤋꤢꤩ꤭": 4348,
      "thli": 4349,
      "လိူၼ်ၵျ": 4350,
      "ciamna": 4351,
      "hmi": 4352,
      "ယဟိဝၤ": 4353,
      "thilri": 4354,
      "nadingun": 4355,
      "ငါး": 4356,
      "လ့": 4357,
      "မှန်း": 4358,
      "ဘၣ်မနုၤ": 4359,
      "ပှၤအံၣ်စရ့လး": 4360,
      "ဒါမှ": 4361,
      "အ့လး": 4362,
      "ahohmanh": 4363,
      "စဲၪ့ထၪ့ခွံၬ": 4364,
      "လျက်ရှိ": 4365,
      "တ့": 4366,
      "ၸၼ်ႉၸွမ်": 4367,
      "ၼႆၵေႃႈ": 4368,
      "thugen": 4369,
      "siatsuah": 4370,
      "dawtnak": 4371,
      "ႁႄႉၵင်ႈ": 4372,
      "ṭial": 4373,
      "စးထီၣ်": 4374,
      "ယံး": 4375,
      "ပျဳာ်": 4376,
      "စပ်": 4377,
      ".)": 4378,
      "ón": 4379,
      "ယႅ": 4380,
      "၄င်းက": 4381,
      "dir": 4382,
      "sanggam": 4383,
      "တန်း": 4384,
      "တီႈႁူင်းယႃ": 4385,
      "ၶွတ်ႇ": 4386,
      "ၾႆးမႆႈ": 4387,
      "gah": 4388,
      "pal": 4389,
      "ciah": 4390,
      "မုၼ်": 4391,
      "ruk": 4392,
      "ချက်ကို": 4393,
      "လၢတ်ႈၼႄၼင်ႇၼႆ": 4394,
      "ဆူဝ့ၢ်": 4395,
      "သွားမည်": 4396,
      "ဝႅ": 4397,
      "ၽႃ": 4398,
      "hlawh": 4399,
      "22": 4400,
      "နၫ": 4401,
      "ခေတ်": 4402,
      "ဘိၩ့နဲၪ့": 4403,
      "ရၱာ်": 4404,
      "အခၪ့": 4405,
      "ကိးဂၤ": 4406,
      "jah": 4407,
      "ဢႅ": 4408,
      "ွံၪ": 4409,
      "ꤛꤢ꤬": 4410,
      "လၧခး": 4411,
      "ရုပ်": 4412,
      "မေႊ": 4413,
      "နသး": 4414,
      "ဖတ်": 4415,
      "လအီၪ": 4416,
      "နေတာ": 4417,
      "ၾႅ": 4418,
      "ꤓꤥ꤭ꤟꤣꤧ": 4419,
      "စောင့်": 4420,
      "ၥံၪ့": 4421,
      "ဢဝ်ၶိုၼ်း": 4422,
      "တႅပ်း": 4423,
      "ဢွင်ႈတီႈ": 4424,
      "သွားတယ်": 4425,
      "သမား": 4426,
      "ခေါ": 4427,
      "ဢေႊ": 4428,
      "ပှ့ၤ": 4429,
      "ပျော်": 4430,
      "chimmi": 4431,
      "မဿ": 4432,
      "အတူ": 4433,
      "ပိုၼ်း": 4434,
      "ကစၢၢ်": 4435,
      "တၢမ်ႇ": 4436,
      "စစ်ဆေး": 4437,
      "ၽူႈမီးပုၼ်ႈၽွၼ်း": 4438,
      "မဿဲ": 4439,
      "bei": 4440,
      "vel": 4441,
      "အမုၢ်": 4442,
      "amin": 4443,
      "ပေႃႈမႄႈ": 4444,
      "Cuticun": 4445,
      "ၾိင်ႈငႄႈ": 4446,
      "အ့ၤ": 4447,
      "အပူၤလီၤ": 4448,
      "Kumpi": 4449,
      "ထဳ": 4450,
      "နှံ": 4451,
      "လၧဂၪ့ခိၪ": 4452,
      "ၼႆ့": 4453,
      "ၼႆလႄႈ": 4454,
      "ထီၣ်ပ": 4455,
      "သတ်မှတ်": 4456,
      "ꤗꤢꤪ": 4457,
      "ဒဲအ": 4458,
      "အူၭ": 4459,
      "dawn": 4460,
      "ဖံ": 4461,
      "ချဲၩ့ဆၧ": 4462,
      "တၵ်ႉ": 4463,
      "သွမ်ႈ": 4464,
      "ႁဵတ်းသၢင်ႈ": 4465,
      "သါ": 4466,
      "လၢအဝဲ": 4467,
      "ၽူႈၸၢႆး": 4468,
      "ၵွင်": 4469,
      "ယိူင်းဢၢၼ်း": 4470,
      "မော": 4471,
      "ၶဵတ်ႇ": 4472,
      "ဖၫ့": 4473,
      "ီၫ့": 4474,
      "teeng": 4475,
      "မိအီၪ": 4476,
      "ခဲ့ပြီး": 4477,
      "ပုဂ္ဂ": 4478,
      "အၪ့ဎ": 4479,
      "ဟဲစိာ်": 4480,
      "ၶဝ်ႈဢွၵ်ႇ": 4481,
      "ခဲအံၤ": 4482,
      "ၶႂ်ႈႁႂ်ႈ": 4483,
      "မည့်": 4484,
      "သိူ": 4485,
      "ဖိၪၥံၪ": 4486,
      "လက်ခံ": 4487,
      "ကလည်း": 4488,
      "စနစ်": 4489,
      "လူတ်ႉ": 4490,
      "မတီႊ": 4491,
      "ၶိုင်": 4492,
      "မြင့်": 4493,
      "ဝင်း": 4494,
      "kibang": 4495,
      "ယၢမ်ႈ": 4496,
      "လက်ရှိ": 4497,
      "ဝ့ၫဒၪယီၩ": 4498,
      "!”": 4499,
      "tlai": 4500,
      "အမှု": 4501,
      "pasal": 4502,
      "ဢၼ်ၼႆႉ": 4503,
      "chanh": 4504,
      "ိာ်": 4505,
      "ယဲၢ်": 4506,
      "ဖၱး": 4507,
      "ꤔꤥ꤭": 4508,
      "လၢၼ်ႉ": 4509,
      "က်တာ": 4510,
      "siangtho": 4511,
      "မုး": 4512,
      "နေရ": 4513,
      "သိန်း": 4514,
      "တြၢၤ": 4515,
      "ဖုး": 4516,
      "ရူတ်ႉၵႃး": 4517,
      "thai": 4518,
      "tim": 4519,
      "ဆယ်": 4520,
      "rual": 4521,
      "နဲၩ့ထံၭ": 4522,
      "ပထ": 4523,
      "ဥက္က": 4524,
      "ကြမ်း": 4525,
      "ကြေး": 4526,
      "ထၪ့ဆၧ": 4527,
      "နဲၩ": 4528,
      "noteʼ": 4529,
      "ၶွမ်ႊမတီႊ": 4530,
      "gawp": 4531,
      "ပၢၤ": 4532,
      "ဒီးန": 4533,
      "ခွင့်": 4534,
      "thlang": 4535,
      "ပြောင်းလဲ": 4536,
      "ထိူ": 4537,
      "ဟဲး": 4538,
      "ꤟꤢꤩꤙꤢꤩ꤬": 4539,
      "ပိာ်ခွါ": 4540,
      "ၼိ": 4541,
      "ၼႃ": 4542,
      "ala": 4543,
      "ႁူၺ်ႈ": 4544,
      "orh": 4545,
      "neh": 4546,
      "ဝယ်": 4547,
      "ꤏꤢ": 4548,
      "khe": 4549,
      "tlung": 4550,
      "27": 4551,
      "ဟေ": 4552,
      "ဆှီ": 4553,
      "2017": 4554,
      "ၵမ်ႉထႅမ်": 4555,
      "ကဖၣ်": 4556,
      "ယူႇသဝ်း": 4557,
      "ထၪ့ဝ့ၫ": 4558,
      "ပီႈၼွင်ႉတႆး": 4559,
      "He": 4560,
      "ၶိုင်ႈ": 4561,
      "ကိုလည်း": 4562,
      "မိၢ်": 4563,
      "လိၪ": 4564,
      "ziangahtile": 4565,
      "cawnpiak": 4566,
      "စျ": 4567,
      "အဟံၣ်": 4568,
      "ꤗ꤫ꤢꤪ꤬": 4569,
      "naón": 4570,
      "chungkhar": 4571,
      "ပိူဝ်ႈတႃႇ": 4572,
      "စူး": 4573,
      "ဇၤ": 4574,
      "ဖိကီၢ်": 4575,
      "laitakin": 4576,
      "ဟဲက့ၤ": 4577,
      "ၶိုၼ်ႈမႃး": 4578,
      "ခၪ့": 4579,
      "ꤡꤢ꤭": 4580,
      "လၧယွၩ": 4581,
      "လွင်း": 4582,
      "ဢၼ်မႃး": 4583,
      "ဖိၪခွၫ": 4584,
      "Jor": 4585,
      "ဥပမာ": 4586,
      "ဒါမှမဟုတ်": 4587,
      "စျေး": 4588,
      "tiin": 4589,
      "ဖၧၩ့ၥၭ": 4590,
      "ခိၪလီၩ့": 4591,
      "စံးဝဲဒၣ်": 4592,
      "she": 4593,
      "နၧၫ့": 4594,
      "ယတ": 4595,
      "ꤛꤥ꤬": 4596,
      "zohman": 4597,
      "ဇနီး": 4598,
      "။\"": 4599,
      "ကျၢၤ": 4600,
      "ၶွၵ်ႈ": 4601,
      "esh": 4602,
      "ကၫ": 4603,
      "မြှ": 4604,
      "သိရသည်": 4605,
      "ၶတ်းၸႂ်": 4606,
      "pupa": 4607,
      "zulh": 4608,
      "Ef": 4609,
      "စဒၫဝံၭ": 4610,
      "မတ်": 4611,
      "ၶေႃ": 4612,
      "tham": 4613,
      "ဒ်န့ၣ်ဒီး": 4614,
      "ၽၵ်းတူ": 4615,
      "Abi": 4616,
      "လဘံၪ့": 4617,
      "အမှန်": 4618,
      "တၢ်လၢအ": 4619,
      "အကလုၢ်": 4620,
      "ၵၢင်ႉ": 4621,
      "ဆက်လက်": 4622,
      "ယၩ": 4623,
      "ၵုင်း": 4624,
      "hotu": 4625,
      "ရက်နေ့": 4626,
      "ဘိၩ့နဲၪ့ယီၩ": 4627,
      "ꤖꤢꤨꤡ꤫ꤢꤩ꤬": 4628,
      "နးဂၩ": 4629,
      "ႁႅင်းၵၢၼ်ယၢၼ်မိူင်း": 4630,
      "ၽႅၼ်": 4631,
      "vancungmi": 4632,
      "Jordan": 4633,
      "ပ့ၤ": 4634,
      "မီၪ": 4635,
      "ယီ": 4636,
      "သိုပ်ႇလၢတ်ႈဝႃႈ": 4637,
      "အ့လၭ": 4638,
      "ယဟိဝၤယွၤ": 4639,
      "မၵ်း": 4640,
      "ṭhawn": 4641,
      "ကောင်းကင်": 4642,
      "အုး": 4643,
      "ကိးဂၤဒဲး": 4644,
      "ဂၢၢ်": 4645,
      "မိတ်": 4646,
      "ဖြစ်စေ": 4647,
      "လိုက်တယ်": 4648,
      "fawn": 4649,
      "ၶၵ်ႉ": 4650,
      "ၾၢႆ": 4651,
      "ယၢမ်းဝၢႆးဝၼ်း": 4652,
      "ယောဟန်": 4653,
      "ron": 4654,
      "ပႃႈ": 4655,
      "ပဵၼ်တၢင်း": 4656,
      "လဵပ်ႈ": 4657,
      "အကတီၢ်": 4658,
      "Khua": 4659,
      "အသုံးပြု": 4660,
      "နီတဂၤဘၣ်": 4661,
      "29": 4662,
      "တပ်ႉမ": 4663,
      "သုံးသပ်": 4664,
      "ကာလ": 4665,
      "ꤊꤢꤨ꤬ꤊꤜꤢꤪ": 4666,
      "ကြၢး": 4667,
      "ꤒꤢꤩ꤬ꤗꤢꤩ꤬": 4668,
      "Ziangahtile": 4669,
      "ꤢ꤬ꤔ꤫ꤢꤩ꤬": 4670,
      "ၼၼ်ႉသေ": 4671,
      "ၶွပ်ႈ": 4672,
      "ဦးစီး": 4673,
      "စိုက်ပျိုး": 4674,
      "ယခု": 4675,
      "သုက": 4676,
      "ၵျေႃႇ": 4677,
      "upat": 4678,
      "pumpi": 4679,
      "ပှၤကညီ": 4680,
      "အခီၣ်": 4681,
      "ထုကဖၣ်": 4682,
      "ၼႃႈလိၼ်": 4683,
      "သုသး": 4684,
      "အနေနဲ့": 4685,
      "ဝံၤဒီး": 4686,
      "ၶဵဝ်": 4687,
      "ႁင်း": 4688,
      "ပက": 4689,
      "ရီႊ": 4690,
      "၂၄": 4691,
      "zumh": 4692,
      "ၵူတ်ႉၶၢႆ": 4693,
      "ယၢၼ်း": 4694,
      "bangmah": 4695,
      "ၶႅင်": 4696,
      "ဃုာ်ဒီး": 4697,
      "မှး": 4698,
      "ခံဂၤ": 4699,
      "ၸၢမ်": 4700,
      "ဋ္ဌ": 4701,
      "hen": 4702,
      "sawng": 4703,
      "တဒု": 4704,
      "နဲၤ": 4705,
      "ဘဲၫၥ့ၪ": 4706,
      "ၸိတ်ႉ": 4707,
      "တၱၢ်": 4708,
      "ႁၢႆး": 4709,
      "ꤋꤥ꤭": 4710,
      "ဆၧအၧၩ့": 4711,
      "01": 4712,
      "ဖံၭ": 4713,
      "သႃႇ": 4714,
      "ပျီၩ": 4715,
      "ဆ့ဧၪ": 4716,
      "nawlbia": 4717,
      "ꤛꤢꤨꤘꤢ꤬ꤖꤢꤨ": 4718,
      "Man": 4719,
      "ꤖꤛꤢ": 4720,
      "thim": 4721,
      "ၽွတ်ႈ": 4722,
      "စပံး": 4723,
      "ကသ့": 4724,
      "တၢ်လီၢ်": 4725,
      "တေႁဵတ်း": 4726,
      "leitang": 4727,
      "thuman": 4728,
      "Khi": 4729,
      "men": 4730,
      "ၵူၼ်းပိုၼ်ႉတီႈ": 4731,
      "အဖျ": 4732,
      "ခန့်": 4733,
      "ပစ္": 4734,
      "သုတၢ်": 4735,
      "ယဝ်ႉၶႃႈ": 4736,
      "မြတ်": 4737,
      "သီႊ": 4738,
      "Moab": 4739,
      "100": 4740,
      "ဒေါက်တာ": 4741,
      "ႄႇ": 4742,
      "ꤙꤢꤩ꤭": 4743,
      "အီၤန့ၣ်လီၤ": 4744,
      "ဓာတ်": 4745,
      "လဖျိၪ့": 4746,
      "၂၂": 4747,
      "ꤋꤢꤧ": 4748,
      "မွပ်ႈ": 4749,
      "ဒဲလၧ": 4750,
      "ပြီးတော့": 4751,
      "သႅၼ်ဝီ": 4752,
      "Thlarau": 4753,
      "ꤖꤚꤢꤩ꤬ꤋꤢꤨ꤭": 4754,
      "ရွာ": 4755,
      "ယွၼ်ႉဝႃႈ": 4756,
      "ၽွင်းငမ်း": 4757,
      "kuamah": 4758,
      "ခိး": 4759,
      "သန်": 4760,
      "မဵတ်ႉ": 4761,
      "ထီၣ်ပတြၢၤ": 4762,
      "ဝး": 4763,
      "လူမ်း": 4764,
      "chun": 4765,
      "phak": 4766,
      "dil": 4767,
      "အီလီၤ": 4768,
      "ကျန်းမာရေး": 4769,
      "fang": 4770,
      "ဝဝ": 4771,
      "နီၪဆံၭ": 4772,
      "ဘာကြောင့်": 4773,
      "ရွေးကောက်": 4774,
      "ပစ္စည်း": 4775,
      "ဿနာ": 4776,
      "ꤘꤢꤦ": 4777,
      "hawi": 4778,
      "chang": 4779,
      "ၵႂႃႇတၢင်း": 4780,
      "လ့ၩနုၬ": 4781,
      "ဢိတ်း": 4782,
      "ငၢႆႈ": 4783,
      "thar": 4784,
      "pau": 4785,
      "ပှၤလုၢ်တၢ်အခိၣ်": 4786,
      "ပေႃးဝႃႈ": 4787,
      "လႅဝ်း": 4788,
      "Atu": 4789,
      "val": 4790,
      "ပြဿနာ": 4791,
      "တဂၤန့ၣ်": 4792,
      "အဃိလီၤ": 4793,
      "ဝန်ထမ်း": 4794,
      "တူၵ်းလူင်း": 4795,
      "ၾူၼ်": 4796,
      "ဘၣ်ဝဲ": 4797,
      "ဘျၪ": 4798,
      "lah": 4799,
      "sangin": 4800,
      "ဇော်": 4801,
      "ထဝ်ႈ": 4802,
      "ဢဵၼ်": 4803,
      "၂၃": 4804,
      "ရူၤ": 4805,
      "Nannih": 4806,
      "ခၧၫ့": 4807,
      "ဆံး": 4808,
      "ဒ့": 4809,
      "ထၢင်ႇ": 4810,
      "အီၤလီၤ": 4811,
      "ၽဵဝ်ႈ": 4812,
      "ယဆၧ": 4813,
      "ရံၬ": 4814,
      "ဘၣ်ဃးဒီး": 4815,
      "ဖန်ဆင်း": 4816,
      "တံၢ်": 4817,
      "မၤစၢၤ": 4818,
      "အ့ၬး": 4819,
      "Lung": 4820,
      "Mih": 4821,
      "hawl": 4822,
      "ကဒီး": 4823,
      "ဘေး": 4824,
      "အပၢ်": 4825,
      "တေႃး": 4826,
      "ပဵၼ်မႃး": 4827,
      "ဢမ်ႇပၼ်": 4828,
      "လှူၣ်": 4829,
      "ၵမ်းၼႆႉ": 4830,
      "ၽႅဝ်": 4831,
      "taw": 4832,
      "ဖိခွါ": 4833,
      "ဒဲန": 4834,
      "တိူဝ်ႊ": 4835,
      "senpi": 4836,
      "ဎရံၬ": 4837,
      "သုဝဲ": 4838,
      "ၼႂ်းဝၢၼ်ႈ": 4839,
      "နိုင်တဲ့": 4840,
      "ဢုပ်ႇၵၼ်": 4841,
      "kun": 4842,
      "ႁတ်း": 4843,
      "paʼ": 4844,
      "ကြို": 4845,
      "ထူပ်းႁၼ်": 4846,
      "Filistin": 4847,
      "သမ္မာကျမ်းစာ": 4848,
      "fak": 4849,
      "နၥံၪမိ": 4850,
      "ချဲၫ့": 4851,
      "လႅမ်": 4852,
      "ၶၢႆႉ": 4853,
      "ူၫဂၩ": 4854,
      "ပထမ": 4855,
      "နမ့ၢ်": 4856,
      "ဘၫ": 4857,
      "ruang": 4858,
      "langhter": 4859,
      "Ram": 4860,
      "rung": 4861,
      "ထိုး": 4862,
      "တၭဆၧ": 4863,
      "ၵေႃႉၼၼ်ႉ": 4864,
      "တဲၩ့": 4865,
      "ဆုံးဖြတ်": 4866,
      "ၽိုၼ်": 4867,
      "ꤒꤣꤧ꤬ꤚꤣꤧ꤭": 4868,
      "တော့်": 4869,
      "hum": 4870,
      "မၼ်းၸဝ်ႈ": 4871,
      "uel": 4872,
      "khuh": 4873,
      "ပဵၼ်ဢၼ်": 4874,
      "တဖၣ်က": 4875,
      "မေႃယႃ": 4876,
      "ၶွင်ႇသီႇဢဝ်ၶိုၼ်း": 4877,
      "ကညီၤ": 4878,
      "Lo": 4879,
      "po": 4880,
      "ခ့ၫ": 4881,
      "လွတ်": 4882,
      "beh": 4883,
      "ထဵ": 4884,
      "ဘီၣ်": 4885,
      "အမှတ်": 4886,
      "မုနံၩ": 4887,
      "နိုင်ပါတယ်": 4888,
      "သၢၼ်း": 4889,
      "အရေးကြီး": 4890,
      "နူၤ": 4891,
      "တၢင်းပွတ်း": 4892,
      "အသးဒီး": 4893,
      "ဝူင်ႈ": 4894,
      "ၥုၭမု": 4895,
      "ဥက္ကဋ္ဌ": 4896,
      "Zo": 4897,
      "dawng": 4898,
      "ၵေႃႉလႄႈ": 4899,
      "အီၤလၢတၢ်": 4900,
      "ဆူၭ": 4901,
      "pakhatkhat": 4902,
      "ယွၼ်ႉပိူဝ်ႈ": 4903,
      "ကံ": 4904,
      "ၸႄႈဝဵင်းသီႇပေႃႉ": 4905,
      "လႅပ်ႈ": 4906,
      "သမူ": 4907,
      "teh": 4908,
      "သူတွေကို": 4909,
      "အံၫစရ့လၭဖိၪ": 4910,
      "tei": 4911,
      "ၵ်ႉယု": 4912,
      "riat": 4913,
      "စ္စာ": 4914,
      "ၼေႇ": 4915,
      "ဂဲး": 4916,
      "hran": 4917,
      "bit": 4918,
      "ပၢင်ၵုမ်လူင်": 4919,
      "မျှော်": 4920,
      "tau": 4921,
      "ပန်း": 4922,
      "eite": 4923,
      "ပါလိမ့်မယ်": 4924,
      "အဆၧမၩ": 4925,
      "tapate": 4926,
      "ဆိၣ်ဂ့ၤ": 4927,
      "vui": 4928,
      "ကမ်း": 4929,
      "ငၢၼ်း": 4930,
      "ကယဲဆၧ": 4931,
      "အိမ်ထောင်ဖက်": 4932,
      "jamin": 4933,
      "မိမိ": 4934,
      "ဖြစ်လာ": 4935,
      "လိူဝ်ႇ": 4936,
      "taang": 4937,
      "thawngin": 4938,
      "ဆရာ": 4939,
      "ယၢ်": 4940,
      "ၼ့်": 4941,
      "လီၤဂာ်": 4942,
      "sungin": 4943,
      "ၸုမ်းဢူၺ်းလီ": 4944,
      "ခရီး": 4945,
      "zam": 4946,
      "ဝၬ": 4947,
      "ꤊꤢ꤬ꤋꤛꤢ꤭": 4948,
      "သူၺ်ႇ": 4949,
      "နဲၪ": 4950,
      "ၵမ်းၼိုင်ႈ": 4951,
      "ဃုထၢ": 4952,
      "ꤙꤣꤧꤔꤣꤧ꤬": 4953,
      "ဝၢတ်ႇ": 4954,
      "ၶၢၼ်ပၢၵ်ႇ": 4955,
      "mak": 4956,
      "sawh": 4957,
      "ဆ့ၣ်": 4958,
      "ꤙꤢꤩ": 4959,
      "ယွတ်ႈ": 4960,
      "ruahnak": 4961,
      "အၢၣ်လီၤအီလီၤ": 4962,
      "hle": 4963,
      "တခါ": 4964,
      "အထီ": 4965,
      "ယွင်ႈ": 4966,
      "လႄႈသင်": 4967,
      "thupiak": 4968,
      "nunau": 4969,
      "ရူး": 4970,
      "လႃႇ": 4971,
      "တရူး": 4972,
      "ꤟꤢꤨꤔꤣꤧ꤬ꤚꤣꤧ꤬": 4973,
      "ဘၢ": 4974,
      "အဆၢကတီၢ်": 4975,
      "ၥၫ": 4976,
      "ꤗ꤫ꤢꤧ꤬": 4977,
      "လႆႈငိၼ်း": 4978,
      "ꤗ꤫ꤥ꤬": 4979,
      "တၢ်န့ၣ်": 4980,
      "မၤဝဲ": 4981,
      "ထိခိုက်": 4982,
      "ဢွၼ်တၢင်း": 4983,
      "Fapa": 4984,
      "hlo": 4985,
      "vung": 4986,
      "ညှ": 4987,
      "ေႃး": 4988,
      "ၼႂ်းဝၼ်းတီႈ": 4989,
      "ပှၤကလုာ်": 4990,
      "ၦမုၪ": 4991,
      "nge": 4992,
      "ၸၢၵ်ႈ": 4993,
      "ဖျက်": 4994,
      "Thiang": 4995,
      "ရွေးကောက်ပွဲ": 4996,
      "ဝီၩ": 4997,
      "ဧၤ": 4998,
      "phat": 4999,
      "ဖြေရှင်း": 5000,
      "ခင့်": 5001,
      "တဆံ": 5002,
      "တယ်လို့": 5003,
      "ၼႂ်းၼၼ်ႉ": 5004,
      "ဆၣ်ဖိကီၢ်": 5005,
      "khangh": 5006,
      "ကး": 5007,
      "ၵတ်း": 5008,
      "ကြောင့်": 5009,
      "တ့ၢ်လံ": 5010,
      "ꤒꤢꤩ꤬ꤞꤢꤦ": 5011,
      "Benjamin": 5012,
      "ၡုၬ": 5013,
      "ၻီႊ": 5014,
      "ꤚꤢꤧ": 5015,
      "ဒ်န့ၣ်": 5016,
      "လွႆလႅမ်": 5017,
      "လျှောက်": 5018,
      "သျိၼ်ႊ": 5019,
      "အၪ့ဎၬ": 5020,
      "ကံး": 5021,
      "ရၫ": 5022,
      "ကိုး": 5023,
      "khatte": 5024,
      "nuai": 5025,
      "တရံး": 5026,
      "ပညာရှင်": 5027,
      "ပူၵ်းပွင်": 5028,
      "ငြိမ်းချမ်း": 5029,
      "theinak": 5030,
      "ဟၫ": 5031,
      "ႄႊ": 5032,
      "ချယ်": 5033,
      "lamzin": 5034,
      "နဲၣ်": 5035,
      "ကိၢ်": 5036,
      "ဎွံၪ": 5037,
      "ပၢႆႈၽေးသိုၵ်း": 5038,
      "hnik": 5039,
      "ကူညီပေး": 5040,
      "အၫ့": 5041,
      "ꤗꤢꤪ꤬": 5042,
      "ꤟꤤ꤬": 5043,
      "zatein": 5044,
      "ပိုၼ်ၽၢဝ်ႇဝႃႈ": 5045,
      "Ki": 5046,
      "လူၤ": 5047,
      "ချာ": 5048,
      "သေႇ": 5049,
      "ဝႆႉၼၼ်ႉ": 5050,
      "အၪ့အူၭ": 5051,
      "galkap": 5052,
      "ထၫ့ဒၩ": 5053,
      "ဘဲၫၥ့ၪလဲၪ": 5054,
      "tawi": 5055,
      "ထိၪ": 5056,
      "လဲး": 5057,
      "ꤏꤢꤪ꤭": 5058,
      "မွင်ႇ": 5059,
      "ၽူႈၶၢၼ်ပၢၵ်ႇ": 5060,
      "ယူတ်းယႃတူဝ်": 5061,
      "ꤓꤝꤢ꤭ꤓꤢꤧ꤬": 5062,
      "pawng": 5063,
      "မဖြစ်": 5064,
      "ချိၫ့": 5065,
      "fai": 5066,
      "ပာ်ဖှိၣ်": 5067,
      "မၢၵ်ႇတႅၵ်ႇ": 5068,
      "tatna": 5069,
      "စင်": 5070,
      "မိၼ်": 5071,
      "မွၼ်း": 5072,
      "thuk": 5073,
      "မှာပဲ": 5074,
      "ၶွၼ်ႈ": 5075,
      "အီၣ်တၢ်": 5076,
      "ဘိၩ": 5077,
      "အဖၧၩ့တၭ": 5078,
      "အကြိမ်": 5079,
      "ၶဵင်ႈ": 5080,
      "ꤒꤣꤧ꤬ꤔꤢꤩ꤬": 5081,
      "thlai": 5082,
      "မၤသး": 5083,
      "hrawh": 5084,
      "ၵွႆ": 5085,
      "tertu": 5086,
      "ဆှၢလီၤ": 5087,
      "ပ့းတရူး": 5088,
      "ꤏꤢꤩ꤭": 5089,
      "ꤜꤤ꤬": 5090,
      "napi": 5091,
      "လၢစီၤ": 5092,
      "tiangin": 5093,
      "ကျင့်": 5094,
      "အီၤဒီး": 5095,
      "sinin": 5096,
      "thlarau": 5097,
      "ပွတ်းၸၢၼ်း": 5098,
      "ၶွမ်ႊမ": 5099,
      "03": 5100,
      "keng": 5101,
      "ဇာ": 5102,
      "ယံာ်": 5103,
      "၂၅": 5104,
      "ၼႆႉမႃး": 5105,
      "ရှည်": 5106,
      "နာမည်": 5107,
      "ၸႅင်ႈ": 5108,
      "Cung": 5109,
      "nel": 5110,
      "vut": 5111,
      "နၩ": 5112,
      "ဗြ": 5113,
      "ရောင်း": 5114,
      "ႁၵ်ႉ": 5115,
      "သ့ၣ်ဧၢ": 5116,
      "asile": 5117,
      "ဖိုး": 5118,
      "ယါ": 5119,
      "laksawng": 5120,
      "ခွံၬဝ့ၫ": 5121,
      "ဒ်သိးက": 5122,
      "ၸတ်းႁဵတ်းပၢင်": 5123,
      "ၾၢင်ႉ": 5124,
      "ချႃ": 5125,
      "ထၪ့ထီၫ": 5126,
      "တိၢ်": 5127,
      "tlaih": 5128,
      "ဆၧၫ့ထုၪ့": 5129,
      "ကတီၤ": 5130,
      "ရၣ်": 5131,
      "ဲၫ": 5132,
      "ၸီႉ": 5133,
      "ကျန်": 5134,
      "ဖိၪဆၧ": 5135,
      "ဒိၣ်မး": 5136,
      "ပုဂ္ဂိုလ်": 5137,
      "vei": 5138,
      "သိပ်း": 5139,
      "မႂ်ႇသုင်": 5140,
      "siatna": 5141,
      "ဏာ": 5142,
      "တၢ်ဒဲးဘး": 5143,
      "လႆႈႁပ်ႉ": 5144,
      "နှီး": 5145,
      "တ့ၢ်ဝဲ": 5146,
      "အဖိၪခွၫစ": 5147,
      "ဖွံ့": 5148,
      "လၧၩ့": 5149,
      "ဖျီၪ": 5150,
      "ပေႃးတေ": 5151,
      "ဘုရားသခင့်": 5152,
      "ထုၵ်ႇလီ": 5153,
      "တည်ဆောက်": 5154,
      "oih": 5155,
      "ယား": 5156,
      "ဖှီၣ်": 5157,
      "zetin": 5158,
      "ခီး": 5159,
      "ဂၬ": 5160,
      "꤫ꤣ꤬": 5161,
      "nat": 5162,
      "thute": 5163,
      "မွဲန": 5164,
      "များနှင့်": 5165,
      "ပျၢၤ": 5166,
      "အဝ့ၫနီၪ": 5167,
      "doh": 5168,
      "သူ့ကို": 5169,
      "ၥၭထိၬ": 5170,
      "ၸၢမ်ႇ": 5171,
      "ပြုချက်": 5172,
      "ပၢႆးပ": 5173,
      "ဂုး": 5174,
      "ဢဵၼ်ႁႅင်း": 5175,
      "Ng": 5176,
      "dal": 5177,
      "ꤗꤢꤩ꤭": 5178,
      "phawk": 5179,
      "ႁဝ်းၶႃႈၼႆႉ": 5180,
      "peuhpeuh": 5181,
      "မာရိ": 5182,
      "duhnak": 5183,
      "လၢတ်ႈတီႈၸုမ်းၶၢဝ်ႇ": 5184,
      "ၽွမ်ႉႁူမ်ႈ": 5185,
      "လအီၪဘၪ": 5186,
      "ယမ်": 5187,
      "ꤗꤝꤤ꤭": 5188,
      "ꤟꤢꤩ꤬ꤋꤢꤨ꤬": 5189,
      "ထံကျိ": 5190,
      "ဒံးဘၣ်": 5191,
      "mihing": 5192,
      "ႁႃႉ": 5193,
      "ꤊꤝꤤ꤭": 5194,
      "လွဲ": 5195,
      "Kanaan": 5196,
      "လဵၼ်ႈ": 5197,
      "khu": 5198,
      "ႁွမ်း": 5199,
      "ဒီၭ": 5200,
      "ၶွင်ႇသီႇဢဝ်ၶိုၼ်းၸိုင်ႈတႆး": 5201,
      "ယၪ": 5202,
      "thihnak": 5203,
      "ံၣ်အံၤ": 5204,
      "အဝဲသ့ၣ်က": 5205,
      "ၼွၼ်း": 5206,
      "အထူး": 5207,
      "တၢ်ဘါ": 5208,
      "ဝဲၤ": 5209,
      "thukham": 5210,
      "အဲဒါ": 5211,
      "ယၢမ်းၵၢင်ၶမ်ႈ": 5212,
      "far": 5213,
      "အေး": 5214,
      "ၵတ်ႉ": 5215,
      "ပေတရု": 5216,
      "ꤒꤣꤧ꤬ꤘꤢꤦ": 5217,
      "zapi": 5218,
      "ꤛ꤫ꤢꤧ꤬ꤛꤥ꤬": 5219,
      "ꤒꤣꤧ꤬ꤘꤢꤦꤚꤣꤧ꤬": 5220,
      "၀၀": 5221,
      "ၶီႇ": 5222,
      "ဖွင့်": 5223,
      "ꤒ꤫ꤢꤧ꤬ꤗꤢꤩ꤬": 5224,
      "ဆာလံ": 5225,
      "zaangfahnak": 5226,
      "ဗိုလ်": 5227,
      "လၢယက": 5228,
      "ခွန်": 5229,
      "ၵူႈၵေႃႉ": 5230,
      "ဒဏ်": 5231,
      "တူဝ်တႅၼ်း": 5232,
      "ၶဵတ်ႇလိူၵ်ႈတင်ႈ": 5233,
      "ဖွံ့ဖြိုး": 5234,
      "cucu": 5235,
      "cucaah": 5236,
      "တၢင်းၵိၼ်": 5237,
      "kannih": 5238,
      "မိုၼ်ႇ": 5239,
      "ၵမ်းလဵဝ်": 5240,
      "သႂ်": 5241,
      "ဟၫ့": 5242,
      "ဢၼ်ၶဝ်": 5243,
      "ꤔ꤫ꤤ꤬ꤙꤢꤩ꤬": 5244,
      "နားလည်": 5245,
      "Me": 5246,
      "ဒ့ၣ်": 5247,
      "ဘၩ": 5248,
      "ဝမ်း": 5249,
      "ꤗꤢꤨ꤬": 5250,
      "ဝ့ၫလၧဆၧ": 5251,
      "ၵူၼ်းၸပ်း": 5252,
      "ၼၼ်ႉတႄႉ": 5253,
      "ပါက": 5254,
      "ရူတ်ႉၶိူင်ႈ": 5255,
      "ဃ့ၢ်": 5256,
      "siar": 5257,
      "ကြုံ": 5258,
      "ၶၢမ်ႈ": 5259,
      "sakin": 5260,
      "ယိာ်": 5261,
      "ꤊꤜꤢꤩ꤭": 5262,
      "Min": 5263,
      "ၽဝ်": 5264,
      "ဂဲၫထဲၩ့": 5265,
      "ကုၢ်": 5266,
      "cuti": 5267,
      "thupha": 5268,
      "ဆက်ဆံ": 5269,
      "ၸင်ႇလႆႈ": 5270,
      "05": 5271,
      "လိတ်ႈ": 5272,
      "နၥံၪအၥၭ": 5273,
      "အၪ့က": 5274,
      "khamh": 5275,
      "thianghlim": 5276,
      "anhing": 5277,
      "ခိၬ": 5278,
      "ၺႃ": 5279,
      "ꤘꤥ꤬ꤔꤢꤧ꤭": 5280,
      "kote": 5281,
      "စံးထီၣ်ပတြၢၤ": 5282,
      "Siangtho": 5283,
      "Assi": 5284,
      "သစ္စာ": 5285,
      "ဟ့": 5286,
      "လုၢ်လီၢ်": 5287,
      "စတင်": 5288,
      "ပန်": 5289,
      "ဢၢႆႈ": 5290,
      "တင်ႈတႄႇ": 5291,
      "လၧစဎွၩ": 5292,
      "ၸူမ်း": 5293,
      "ဘူၤ": 5294,
      "ရး": 5295,
      "ꤜꤥ꤬": 5296,
      "ဢမ်ႇပေႃး": 5297,
      "မၢၵ်ႈ": 5298,
      "လိၵ်ႈတႆး": 5299,
      "ၵုင်ႈ": 5300,
      "ꤡꤢꤪꤙꤢꤩ꤭": 5301,
      "တပ်ႉသိုၵ်းလူင်ပွင်ၸိုင်ႈမၢၼ်ႈ": 5302,
      "ဘူၣ်ထီၣ်ဘါထီၣ်": 5303,
      "မၩဂၭဂီၩ့": 5304,
      "tangka": 5305,
      "fial": 5306,
      "အုၣ်က့ၤ": 5307,
      "လၧထံၫ": 5308,
      "စာရင်း": 5309,
      "တို့ကို": 5310,
      "ကနံၣ်အံၤ": 5311,
      "လံာ်စီဆှံ": 5312,
      "ကမ္ဘာဦး": 5313,
      "ꤒꤥ꤭ꤙꤢꤩ꤬": 5314,
      "ၶွတ်ႇၽွတ်ႈ": 5315,
      "ကၢ်": 5316,
      "ဖိၬ": 5317,
      "မူၺ်": 5318,
      "လၧအမိ": 5319,
      "ၶႃႈႁဝ်း": 5320,
      "ပိုတ်း": 5321,
      "ရေးအတွက်": 5322,
      "ဒေသကြီး": 5323,
      "ath": 5324,
      "ထါ": 5325,
      "လၢဟီၣ်ခိၣ်": 5326,
      "ၼႂ်းမိူင်းႁူမ်ႈတုမ်": 5327,
      "နေထိုင်": 5328,
      "များတွင်": 5329,
      "လှီ": 5330,
      "ခီၣ်က့ၤ": 5331,
      "ၶွင်ႇသီႇသိုၵ်းမၢၼ်ႈ": 5332,
      "ပစ်": 5333,
      "ပ်ႊ": 5334,
      "laiah": 5335,
      "ဆိုတာကို": 5336,
      "မၵ်းမၼ်ႈ": 5337,
      "အီၩ": 5338,
      "သူက": 5339,
      "တူႉ": 5340,
      "ဆုၬ": 5341,
      "kalpi": 5342,
      "တုၤနုၤ": 5343,
      "ဖော်ပြထားတယ်": 5344,
      "lioah": 5345,
      "ယမ့ၢ်": 5346,
      "ꤗꤢꤨ": 5347,
      "ထီးဒၪ": 5348,
      "အစဉ်": 5349,
      "ၵုၼ်": 5350,
      "ပႅၼ်": 5351,
      "ꤕꤣꤧ": 5352,
      "thuh": 5353,
      "သွယ်": 5354,
      "တုၤနုၤတစု": 5355,
      "ယၱၢ်": 5356,
      "ီၣ်လဲၣ်": 5357,
      "တပ်ႉမတေႃႇ": 5358,
      "bawng": 5359,
      "luang": 5360,
      "ꤒ꤫ꤣ꤬": 5361,
      "တွၼ်း": 5362,
      "ဟးထီၣ်": 5363,
      "ႁွင်ႈၵၢၼ်ၾၢႆႇ": 5364,
      "ceih": 5365,
      "phi": 5366,
      "မတၤ": 5367,
      "ဧလိ": 5368,
      "ၦလ": 5369,
      "လၢကစၢ်ယွၤ": 5370,
      "သ့ၣ်တဖၣ်": 5371,
      "လၩ့ထး": 5372,
      "ဢမ်ႇမီးလွင်ႈ": 5373,
      "Zeicahtiah": 5374,
      "Assiria": 5375,
      "hau": 5376,
      "ဟီ": 5377,
      "ꤏꤢꤦ꤬": 5378,
      "lote": 5379,
      "ပျီ": 5380,
      "ခဲကနံၣ်အံၤ": 5381,
      "လဲၤဆူ": 5382,
      "ဝူၼ်ႉ": 5383,
      "ကယ်": 5384,
      "ဘံ": 5385,
      "ၶိ": 5386,
      "ႁၢပ်ႇ": 5387,
      "တိုးတက်": 5388,
      "ၶဵင်ႈၶႅင်": 5389,
      "ဆၧမိ": 5390,
      "ၼႆႉၵေႃႈ": 5391,
      "သေယဝ်ႉ": 5392,
      "ခွန်း": 5393,
      "ထားသည်": 5394,
      "အ့ၪလ": 5395,
      "ၶေႃႈမု": 5396,
      "ထုတ်ပြန်": 5397,
      "ယိုတ်းဢႃႇၼႃႇ": 5398,
      "ခေါင်း": 5399,
      "Dan": 5400,
      "ေလ": 5401,
      "ဢမ်ႇပဵၼ်": 5402,
      "hrih": 5403,
      "ၵေႃႉပဵၼ်": 5404,
      "ကီၢ်ယူဒၤ": 5405,
      "သႅၼ်ပျႃး": 5406,
      "တ္တာ": 5407,
      "zawh": 5408,
      "ဘူၭ": 5409,
      "သီၣ်": 5410,
      "ပါပဲ": 5411,
      "thlua": 5412,
      "ciamco": 5413,
      "harnak": 5414,
      "ဘှီ": 5415,
      "ၸၼ်": 5416,
      "အဓိက": 5417,
      "ကြိမ်": 5418,
      "thlak": 5419,
      "သၢတ်ႇ": 5420,
      "ဒုးတၢ်": 5421,
      "bath": 5422,
      "ယောသပ်": 5423,
      "ဘြၤ": 5424,
      "ခူ": 5425,
      "ဝီၤ": 5426,
      "အတၢ်မၤ": 5427,
      "ဂဲၫဆိၬ": 5428,
      "cahdah": 5429,
      "khual": 5430,
      "ဲ့သို့": 5431,
      "sakna": 5432,
      "ၼမ်ႉလ": 5433,
      "ပွၵ်ႈမိူဝ်း": 5434,
      "ညၣ်": 5435,
      "သမ်း": 5436,
      "ၶရေ": 5437,
      "pathum": 5438,
      "လူမျိုး": 5439,
      "hrek": 5440,
      "ၵႄႈလိတ်ႈ": 5441,
      "ပြောဆိုသည်": 5442,
      "တွတ်ႈၶႅပ်းၵၢင်ၸႂ်": 5443,
      "cem": 5444,
      "မရှင်": 5445,
      "ရၶႅင်ႇ": 5446,
      "ngen": 5447,
      "လၢပျၢၤ": 5448,
      "ၵူၼ်းလူင်": 5449,
      "အဝဲက": 5450,
      "ပွၵ်ႈၶိုၼ်း": 5451,
      "ၵူႈဝၼ်း": 5452,
      "လုၵ်ႉတၢင်း": 5453,
      "တသ့ဘၣ်": 5454,
      "တၵ်ႉၵႃႇ": 5455,
      "ပဵၼ်တၢင်းၵၢၼ်": 5456,
      "အုၣ်က့ၤခီၣ်က့ၤ": 5457,
      "ထို့": 5458,
      "ဟို": 5459,
      "hring": 5460,
      "လ့ၩထၪ့": 5461,
      "တႃႈၵုင်ႈ": 5462,
      "ယီၫ": 5463,
      "ဟံ": 5464,
      "ၼႂ်းဝၼ်း": 5465,
      "hril": 5466,
      "ṭhawng": 5467,
      "omna": 5468,
      "ṭhatnak": 5469,
      "ဝံၤအလီၢ်ခံ": 5470,
      "သိၣ်လိ": 5471,
      "hlanah": 5472,
      "boam": 5473,
      "တႅပ်းတတ်း": 5474,
      "tate": 5475,
      "dangte": 5476,
      "Heb": 5477,
      "ခဳ": 5478,
      "ၽႃႈ": 5479,
      "ႁိ": 5480,
      "ႁၢင်": 5481,
      "tidai": 5482,
      "sinak": 5483,
      "ဖဲတၢ်": 5484,
      "ꤤ꤬ꤞꤝꤢ": 5485,
      "ဆင့်": 5486,
      "ၼႅ": 5487,
      "နှိုင်း": 5488,
      "ၶဝ်ၵေႃႈ": 5489,
      "gamtat": 5490,
      "နးမံၩ့": 5491,
      "ဢွင်ႇပေႉ": 5492,
      "ꤢ꤬ꤚꤤ꤬": 5493,
      "ထၧၫ့ဖုဝဲ": 5494,
      "တမန်တော်": 5495,
      "aih": 5496,
      "sik": 5497,
      "လၧအံၫ": 5498,
      "sinfa": 5499,
      "kumkhua": 5500,
      "န့ဘၪ": 5501,
      "တိုင်းဒေသကြီး": 5502,
      "နံၢ်": 5503,
      "pathian": 5504,
      "kig": 5505,
      "တူတ်ႈ": 5506,
      "လၤကပီၤ": 5507,
      "ပႆ": 5508,
      "္စ": 5509,
      "ဖိၪၥၪ": 5510,
      "ဖျဲ": 5511,
      "ꤖꤚꤥ꤬": 5512,
      "အန္": 5513,
      "စီးပွား": 5514,
      "ၽႄႈလၢမ်း": 5515,
      "ganhing": 5516,
      "စမိစ့ၭ": 5517,
      "ၦဒိၪ": 5518,
      "cia": 5519,
      "ၼႂ်းၶၢဝ်းတၢင်း": 5520,
      "ၶွမ်ႊမသျိၼ်ႊ": 5521,
      ".’": 5522,
      "mui": 5523,
      "put": 5524,
      "ꤞꤢꤪ꤬": 5525,
      "ပူင်": 5526,
      "cak": 5527,
      "န့ၣ်လဲၣ်": 5528,
      "လွယ်": 5529,
      "စီၤယၤ": 5530,
      "ခွံ": 5531,
      "sabit": 5532,
      "စံၭထၪ့": 5533,
      "ၺႃးယိုဝ်း": 5534,
      "ၾႆးၾႃႉ": 5535,
      "ꤋꤛꤢ꤭ꤞꤢꤧ": 5536,
      "ate": 5537,
      "မံၭ": 5538,
      "tesinfa": 5539,
      "တွင်ႉ": 5540,
      "cik": 5541,
      "ciar": 5542,
      "ဒီမို": 5543,
      "ဢုပ်ႇဢူဝ်းၵၼ်": 5544,
      "hrangih": 5545,
      "ဘ့ၤ": 5546,
      "သဘာ": 5547,
      "တၢင်းၾၢႆႇ": 5548,
      "thukam": 5549,
      "စေတယ်": 5550,
      "ႁၼ်ထိုင်": 5551,
      "အမိၢ်": 5552,
      "thluntu": 5553,
      "ၸဝ်ႈၵဝ်ႇ": 5554,
      "thotho": 5555,
      "ပူၼ်ႉပႅၼ်": 5556,
      "စံးဘၣ်အီၤ": 5557,
      "40": 5558,
      "ilh": 5559,
      "rim": 5560,
      "တံၤ": 5561,
      "ꤘꤢ꤭": 5562,
      "များက": 5563,
      "ၸဝ်ႈၾႃႉ": 5564,
      "ႁူဝ်ပၢၵ်ႇ": 5565,
      "ꤔꤢꤧ꤬ꤡꤣꤧ": 5566,
      "သောက်": 5567,
      "ꤏꤝꤢ꤬": 5568,
      "မူၼ်ႉ": 5569,
      "မၩဝ့ၫ": 5570,
      "လၢအဘၣ်တၢ်": 5571,
      "အခ့ၫ": 5572,
      "ပၢင်သွၼ်": 5573,
      "ciami": 5574,
      "ပူးပေါင်း": 5575,
      "Cungnung": 5576,
      "En": 5577,
      "ciat": 5578,
      "မီးယူႇ": 5579,
      "ၸုမ်းလႂ်": 5580,
      "kot": 5581,
      "ဗျာ": 5582,
      "ꤒꤣ꤬ꤖꤥ": 5583,
      "သဘာဝ": 5584,
      "kawh": 5585,
      "နဆၧ": 5586,
      "လွၵ်း": 5587,
      "ခြေ": 5588,
      "innchungkhar": 5589,
      "ဝူဝ်း": 5590,
      "အဆင့်": 5591,
      "tlunah": 5592,
      "asseh": 5593,
      "Manasseh": 5594,
      "ꤕꤣꤧꤞꤢꤩ꤬": 5595,
      "ဝန်း": 5596,
      "အရွယ်": 5597,
      "ꤜꤢꤨ꤬": 5598,
      "ဖြစ်နေ": 5599,
      "ပီမႂ်ႇ": 5600,
      "ၵုၼ်ႇ": 5601,
      "ရိမ်": 5602,
      "Joab": 5603,
      "အထက်": 5604,
      "ယင်းပႆႇ": 5605,
      "ပႂ်ႉတူၺ်း": 5606,
      "အဝင်": 5607,
      "လိူဝ်ႊ": 5608,
      "ပိၩ့": 5609,
      "liante": 5610,
      "အံဇံၭ": 5611,
      "ၾိင်ႈငႄႈတႆး": 5612,
      "ကိၪ": 5613,
      "တဵင်း": 5614,
      "nakin": 5615,
      "ၼႂ်းမိူင်းထႆး": 5616,
      "phah": 5617,
      "ကော်မရှင်": 5618,
      "ခဲ့ခြင်းဖြစ်သည်": 5619,
      "မိတ်ဆွေ": 5620,
      "ရံၤ": 5621,
      "န့်": 5622,
      "ၸိူဝ်းၼႆႉၵေႃႈ": 5623,
      "gamtatna": 5624,
      "အ့ၬဧၪ": 5625,
      "ၸိုင်ႈတႆးပွတ်းဢွၵ်ႇၶူင်း": 5626,
      "တွေ့ရှိ": 5627,
      "ၵုမ်းၵမ်": 5628,
      "တဲာ်ကတီၤ": 5629,
      "ပဳၤ": 5630,
      "မလုပ်": 5631,
      "mith": 5632,
      "aiah": 5633,
      "ꤢ꤬ꤍ꤫ꤥ꤬": 5634,
      "တေၸၢင်ႈ": 5635,
      "ၶိုၵ်ႉ": 5636,
      "ဘုရားသခင်က": 5637,
      "နီတမံၤဘၣ်": 5638,
      "Ko": 5639,
      "ၥံၪဧ့": 5640,
      "peng": 5641,
      "ခဲ့ကြ": 5642,
      "tuate": 5643,
      "ၸွမ်သိုၵ်းလူင်": 5644,
      "hnipuan": 5645,
      "60": 5646,
      "ကင်း": 5647,
      "lohna": 5648,
      "phang": 5649,
      "fale": 5650,
      "biakamnak": 5651,
      "အမျိုးသမီး": 5652,
      "မိူဝ်းၼႃႈ": 5653,
      "daw": 5654,
      "ထၢၼ်ႇ": 5655,
      "မီၪ့": 5656,
      "ဝုၼ်း": 5657,
      "thisen": 5658,
      "အကီၢ်": 5659,
      "awknak": 5660,
      "သက်သေ": 5661,
      "fimnak": 5662,
      "ဒီမိုက": 5663,
      "Sa": 5664,
      "sai": 5665,
      "စယိ": 5666,
      "ဈေး": 5667,
      "တေဢဝ်": 5668,
      "အစ္စ": 5669,
      "ႁႅင်းသိုၵ်း": 5670,
      "amauteʼ": 5671,
      "ဆ့အ့ၬ": 5672,
      "SNLD": 5673,
      "hlon": 5674,
      "တၢင်ႉ": 5675,
      "ပူၤန့ၣ်လီၤ": 5676,
      "hnawh": 5677,
      "ထားပြီး": 5678,
      "ၸဵင်ႇ": 5679,
      "လျှင်": 5680,
      "မၢၵ်ႈမီး": 5681,
      "ဒၫ့": 5682,
      "လႆႈၸႂ်": 5683,
      "biaknak": 5684,
      "ၺ်ၺႃ": 5685,
      "သွင်ၵေႃႉ": 5686,
      "ႃႊလိူဝ်ႊ": 5687,
      "ၸႅၵ်ႇ": 5688,
      "Samuel": 5689,
      "မျှော်လ": 5690,
      "Cungnungbik": 5691,
      "misenpi": 5692,
      "လူတွေ": 5693,
      "ၵၢၼ်သိုၵ်း": 5694,
      "လၩ့အၥၭ": 5695,
      "အဖွဲ့အစည်း": 5696,
      "အုပ်ချုပ်": 5697,
      "Peter": 5698,
      "အၪ့ကံၩ့": 5699,
      "ထဳး": 5700,
      "မသိ": 5701,
      "ရိၣ်": 5702,
      "သၢႆး": 5703,
      "tling": 5704,
      "ရေးဝန်ကြီးဌာန": 5705,
      "ဝိၼ်း": 5706,
      "ꤟꤢꤩꤏꤢꤦ꤬": 5707,
      "သွၵ်ႈ": 5708,
      "လၢအတၢ်": 5709,
      "phar": 5710,
      "တော့ဘူး": 5711,
      "သူ့ရဲ့": 5712,
      "ပလိၵ်ႈမၢၼ်ႈ": 5713,
      "လႅၼ်လိၼ်တႆး": 5714,
      "ဘှံး": 5715,
      "အကစၢ်ယွၤ": 5716,
      "07": 5717,
      "မိၣ်": 5718,
      "ၾၢင်": 5719,
      "လူ့": 5720,
      "ဘၣ်ဒီး": 5721,
      "ခြုံ": 5722,
      "အသိးန့ၣ်": 5723,
      "tahen": 5724,
      "02": 5725,
      "မူၼ်း": 5726,
      "ngaihsun": 5727,
      "စိုးရိမ်": 5728,
      ")။": 5729,
      "08": 5730,
      "မခံ": 5731,
      "ချံ": 5732,
      "tlawm": 5733,
      "အကူအညီ": 5734,
      "La": 5735,
      "စီလူး": 5736,
      "လှိ": 5737,
      "သိူဝ်ၽိူၵ်ႇ": 5738,
      "ရွှင်": 5739,
      "ဉာ": 5740,
      "ဝၭ": 5741,
      "တီႈႁိမ်း": 5742,
      "မုင်ႈ": 5743,
      "ႁွမ်": 5744,
      "တင်းသဵင်ႈ": 5745,
      "တရၫ့": 5746,
      "လနံၩနီၪ": 5747,
      "ယ့ၫၡုၬ": 5748,
      "အစ္စရေး": 5749,
      "lan": 5750,
      "တး": 5751,
      "ihnih": 5752,
      "tual": 5753,
      "ဝဲဆူ": 5754,
      "ၸွင်ႇ": 5755,
      "ꤋꤚꤝꤢ꤭": 5756,
      "အဘိၩ့": 5757,
      "မၤဟးဂီၤ": 5758,
      "ဢွၵ်ႇဝႆႉ": 5759,
      "ထွၼ်": 5760,
      "ၸိူဝ်ႉၶိူဝ်း": 5761,
      "သဵင်ၵွင်ႈ": 5762,
      "31": 5763,
      "အပ": 5764,
      "ခဲ့သည့်": 5765,
      "အုၩ့လၩ့": 5766,
      "mihon": 5767,
      "ၽဵင်ႇ": 5768,
      "puai": 5769,
      "စည်": 5770,
      "ရမည်": 5771,
      "ချ့": 5772,
      "kici": 5773,
      "တိုဝ်း": 5774,
      "ထားပါတယ်": 5775,
      "ခဲၩ": 5776,
      "လိူဝ်သေ": 5777,
      "gamah": 5778,
      "hiti": 5779,
      "အဂီၢ်န့ၣ်": 5780,
      "လေႃႇ": 5781,
      "fung": 5782,
      "ၢၵ်ႈ": 5783,
      "ၵႃ": 5784,
      "ရှူၬ": 5785,
      "သူႈ": 5786,
      "ဘဲၫဆၧ": 5787,
      "ပွၵ်ႈမႃး": 5788,
      "ရက်က": 5789,
      "ရေစီ": 5790,
      "ၼွၵ်ႈမိူင်း": 5791,
      "တၢင်ႉယၢၼ်း": 5792,
      "ယၫ့": 5793,
      "ဝံၣ်": 5794,
      "ꤒꤢꤧ꤭": 5795,
      "သ့ၣ်နီၣ်": 5796,
      "ဘုရင်": 5797,
      "ထံကီၢ်": 5798,
      "khenh": 5799,
      "လ့ၢ်": 5800,
      "ၥူၪ": 5801,
      "ṭheu": 5802,
      "ဢွင်ႇသၢၼ်း": 5803,
      "fek": 5804,
      "လဒုၩ": 5805,
      "အဂံၢ်": 5806,
      "ရာတွင်": 5807,
      "သီရိ": 5808,
      "တီႈႁူင်း": 5809,
      "ဖဲအဝဲသ့ၣ်": 5810,
      "ဝ့ၢ်ယရူၤၡလ့ၣ်": 5811,
      "ၵပ်းသိုပ်ႇ": 5812,
      "ညွှန်ကြား": 5813,
      "ꤗꤢꤨꤗ꤫ꤢꤧ꤬": 5814,
      "ကီၪ့": 5815,
      "လၢႆႈ": 5816,
      "တၢ်လီၤ": 5817,
      "ကိန်း": 5818,
      "lawnglawng": 5819,
      "ꤢ꤬ꤚꤢꤨ": 5820,
      "ၼူၵ်ႉယု": 5821,
      "တရာ": 5822,
      "ꤜꤢ꤬": 5823,
      "ဢၼ်ႁဝ်းၶႃႈ": 5824,
      "အီၤဆူ": 5825,
      "တပ်ႉသိုၵ်းမၢၼ်ႈ": 5826,
      "simmi": 5827,
      "ကျွန်တော့်": 5828,
      "တေႃႇထိုင်ယၢမ်းလဵဝ်": 5829,
      "တူႉၸိတ်ႉ": 5830,
      "auh": 5831,
      "မုၵ်ႉ": 5832,
      "ꤖꤚꤢꤩ꤬ꤗꤢꤪ꤬": 5833,
      "လၧယရုစလံၫ့": 5834,
      "raim": 5835,
      "ဎါ": 5836,
      "ဝေး": 5837,
      "အပါ": 5838,
      "ခဲ့ကြောင်း": 5839,
      "သႅၼ်း": 5840,
      "ဆီၫ့": 5841,
      "dim": 5842,
      "ယံၤ": 5843,
      "လၢခံ": 5844,
      "လိုဝ်ႈ": 5845,
      "လဲၤနုာ်": 5846,
      "voi": 5847,
      "လဳၢ်": 5848,
      "tawkah": 5849,
      "ngam": 5850,
      "khah": 5851,
      "ကစံး": 5852,
      "အပူၤဒီး": 5853,
      "ယဟိဝၩစံၭ": 5854,
      "hmuhmi": 5855,
      "ရက်တွင်": 5856,
      "ၼၼ်လႄႈ": 5857,
      "သုးမုၢ်": 5858,
      "ၵွင်းမူး": 5859,
      "ꤗꤢꤪꤋꤢꤨ꤬": 5860,
      "ute": 5861,
      "အသီ": 5862,
      "သိုဝ်ႈ": 5863,
      "ပြီးနောက်": 5864,
      "ၸႄႈဝဵင်းၵျွၵ်ႉမႄး": 5865,
      "ထားတာ": 5866,
      "lampi": 5867,
      "pekchanh": 5868,
      "ဂုာ်": 5869,
      "ဏ္ဍာ": 5870,
      "vai": 5871,
      "ꤖꤢ": 5872,
      "hnakin": 5873,
      "အထၧၫ့": 5874,
      "နယ်မြေ": 5875,
      "အဂၤတဖၣ်": 5876,
      "အမှား": 5877,
      "တွင်ႈ": 5878,
      "khaan": 5879,
      "ၵူၼ်းပဵၼ်": 5880,
      "မူဝ်ႊ": 5881,
      "ၵၼ်မႃး": 5882,
      "ၵၼ်တင်း": 5883,
      "ပၢႆႉ": 5884,
      "zirh": 5885,
      "sermi": 5886,
      "ပုံစံ": 5887,
      "အအိၣ်ဒီး": 5888,
      "မှတ်တမ်း": 5889,
      "Efraim": 5890,
      "ṭhawnnak": 5891,
      "ၼမ်ႉလၼ်ႈ": 5892,
      "မူၼ်ႉမႄး": 5893,
      "ၼူၵ်ႉယုင်း": 5894,
      "09": 5895,
      "ခက်": 5896,
      "ဢၢ": 5897,
      "lom": 5898,
      "စီၤပ့းတရူး": 5899,
      "ရေးမှူး": 5900,
      "လံယၤ": 5901,
      "ခြင်းကို": 5902,
      "zeidah": 5903,
      "မူင်းၶိုင်ႈ": 5904,
      "ဝတ်ပြု": 5905,
      "zawn": 5906,
      "ဃူ": 5907,
      "စမ်း": 5908,
      "ထည့်": 5909,
      "sepna": 5910,
      "သိုၵ်းတႆး": 5911,
      "ဒီမိုကရေစီ": 5912,
      "ရ်": 5913,
      "ဟၭ": 5914,
      "ꤜꤢꤨ": 5915,
      "cip": 5916,
      "ချိၬ": 5917,
      "ၵူႈပီ": 5918,
      "ႁႅမ်": 5919,
      "လဵပ်ႈႁဵၼ်း": 5920,
      "06": 5921,
      "တၩ့": 5922,
      "ချၢ": 5923,
      "လၧအလး": 5924,
      "hra": 5925,
      "ဖြစ်တဲ့": 5926,
      "ကျွန်ုပ်": 5927,
      "suahnak": 5928,
      "မႄႈသၢႆ": 5929,
      "thlacam": 5930,
      "ရှင်းလင်း": 5931,
      "ꤊꤢꤨꤔ꤫ꤢꤧ꤬": 5932,
      "Sim": 5933,
      "ငူ": 5934,
      "နဘၪ": 5935,
      "လၧအဂ": 5936,
      "ဒီးပ": 5937,
      "susia": 5938,
      "ယာန်": 5939,
      "ၸွမ်ၸိုင်ႈ": 5940,
      "တူၢ်လိာ်": 5941,
      "ၵႅတ်ႇၶႄ": 5942,
      "အမြဲ": 5943,
      "lawh": 5944,
      "nem": 5945,
      "နၡၩ": 5946,
      "ယး": 5947,
      "ရတာ": 5948,
      "လၢကျဲ": 5949,
      "တေမႃး": 5950,
      "လၧအၥၭ": 5951,
      "များစွာ": 5952,
      "ၸိူဝ်းဢၼ်": 5953,
      "ကွံာ်ဝဲ": 5954,
      "ထီးအလူၬနီၪ": 5955,
      "ခရစ်ယာန်": 5956,
      "လူႇတၢၼ်း": 5957,
      "ဆၣ်ဖိကီၢ်ဖိ": 5958,
      "Ma": 5959,
      "ကျောက်": 5960,
      "အခံ": 5961,
      "အခက်": 5962,
      "ပၢင်သဝ်း": 5963,
      "စီၩ့": 5964,
      "ziah": 5965,
      "khawzing": 5966,
      "ကယဲၢ်တၢ်": 5967,
      "ဉာဏ်": 5968,
      "nek": 5969,
      "ꤗꤤ꤬": 5970,
      "lead": 5971,
      "ဖြစ်ပေါ်": 5972,
      "lungthin": 5973,
      "ယုမ်ႇ": 5974,
      "ထၢတ်ႈ": 5975,
      "အထောက်": 5976,
      "ngaihsut": 5977,
      "အချိန်မှာ": 5978,
      "ပြည်သူ့လွှတ်တော်": 5979,
      "ၶေႃႈမုလ်း": 5980,
      "Gal": 5981,
      "kawl": 5982,
      "ၡံး": 5983,
      "ပှၤတ": 5984,
      "တဲ့သူ": 5985,
      "အခ့": 5986,
      "သင်္": 5987,
      "khalah": 5988,
      "ပႆႇၸၢင်ႈ": 5989,
      "အတည်": 5990,
      "အကၠီၪ့": 5991,
      "ရင်းနှီး": 5992,
      "ဢႅဝ်ႇ": 5993,
      "ထဲး": 5994,
      "သဲာ်": 5995,
      "ṭul": 5996,
      "လၢၼ်ႇ": 5997,
      "တေႃႊလိူဝ်ႊ": 5998,
      "kipan": 5999,
      "entai": 6000,
      "ဒဲမၩ": 6001,
      "ပုဒ်": 6002,
      "သ့တၢ်": 6003,
      "နီတစု": 6004,
      "အဘီၣ်": 6005,
      "Edom": 6006,
      "အလ": 6007,
      "siam": 6008,
      "မိကဲၪထၪ့": 6009,
      "ၼႂ်းပီ": 6010,
      "မၼ်းဢမ်ႇ": 6011,
      "ဝ်ႊရီႊ": 6012,
      "မယ်လို့": 6013,
      "လူင်းပိုၼ်ႉတီႈ": 6014,
      "Zion": 6015,
      "ရွေးချယ်": 6016,
      "ၽုၵ်ႇသွမ်ႈ": 6017,
      "ꤋꤥ꤭ꤖꤢꤨꤡ꤫ꤢꤩ꤬": 6018,
      "entail": 6019,
      "ben": 6020,
      "ကလုာ်": 6021,
      "၂၈": 6022,
      "၃၀": 6023,
      "ၶႃ": 6024,
      "꤫ꤢꤨ꤬": 6025,
      "khuk": 6026,
      "milai": 6027,
      "ကျါ": 6028,
      "ပေးတယ်": 6029,
      "န့ၢ်ဒံး": 6030,
      "Jona": 6031,
      "လါလါ": 6032,
      "အတၩ": 6033,
      "အၪ့မၧၫ့လၩ့": 6034,
      "ꤢ꤬ꤑꤢꤩ꤭ꤔꤣꤧ꤬": 6035,
      "တူတ်ႈတၢမ်ႇ": 6036,
      "Mar": 6037,
      "သပှၢ်": 6038,
      "လူတ်း": 6039,
      "ဖိသၣ်": 6040,
      "အီၪဝ့ၫလၧ": 6041,
      "ၵႂႃႇယဝ်ႉ": 6042,
      "အမါ": 6043,
      "ၼႂ်းၸႄႈဝဵင်းမိူင်း": 6044,
      "huai": 6045,
      "စၪ့": 6046,
      "တၭအဝ့ၫၥံၪ": 6047,
      "ရေးနှင့်": 6048,
      "လံဝဲ": 6049,
      "မေတ္တာ": 6050,
      "ဂဲၫထၪ့": 6051,
      "ပြည်ထောင်စုလွှတ်တော်": 6052,
      "လွတ်ႈလႅဝ်း": 6053,
      "တရာယ်": 6054,
      "Ar": 6055,
      "တဘိ": 6056,
      "ယံ": 6057,
      "ပြား": 6058,
      "aria": 6059,
      "rami": 6060,
      "ထီဘိ": 6061,
      "ၺႃးမၢၵ်ႇ": 6062,
      "ကောင်စီ": 6063,
      "ဂဲၤဆၢထၢၣ်": 6064,
      "အန္တရာယ်": 6065,
      "cawh": 6066,
      "ham": 6067,
      "ပၧၩ့": 6068,
      "ယအိၣ်": 6069,
      "လစီၪ့": 6070,
      "သန့်": 6071,
      "ဆၧမၩအၥၭ": 6072,
      "ꤢ꤬ꤊꤢꤧ꤭": 6073,
      "တေၵႂႃႇ": 6074,
      "piin": 6075,
      "vivo": 6076,
      "ပာ်ထီၣ်": 6077,
      "အကၠီၩ့နီၪ": 6078,
      "US": 6079,
      "khum": 6080,
      "သးကညီၤ": 6081,
      "ပာ်ဖျါထီၣ်": 6082,
      "အားဖြင့်": 6083,
      "kamsang": 6084,
      "အာရုံ": 6085,
      "တန်ဖိုး": 6086,
      "ပျီႇတေႃႇ": 6087,
      "ၽူႈၼမ်းၼႂ်း": 6088,
      "khialhna": 6089,
      "galte": 6090,
      "ိၫ့": 6091,
      "ၦလုဆၧ": 6092,
      "တီႈယူႇ": 6093,
      "phaw": 6094,
      "ၶိူဝ်ႊ": 6095,
      "nangawn": 6096,
      "ꤜꤢꤨ꤭ꤒꤢꤧ꤭": 6097,
      "fiang": 6098,
      "Samaria": 6099,
      "စံၭထၪ့အၪ့အူၭ": 6100,
      "မျှော်လင့်": 6101,
      "pua": 6102,
      "ရၧၫ့": 6103,
      "အံၤမ့ၢ်": 6104,
      "ပၢႆႈမႃး": 6105,
      "အသင်း": 6106,
      "မေးခွန်း": 6107,
      "nuntakna": 6108,
      "လၢတ်ႈတီႈၸုမ်းၶၢဝ်ႇၽူႈတွႆႇႁွၵ်ႈဝႃႈ": 6109,
      "lau": 6110,
      "oth": 6111,
      "န့ၣ်က": 6112,
      "ရှေး": 6113,
      "သးအိၣ်": 6114,
      "သည်ဟု": 6115,
      "ၶွင်ႈ": 6116,
      "အစီအစဉ်": 6117,
      "ကဲ့သို့": 6118,
      "ထံၪ": 6119,
      "ꤋꤝꤤ": 6120,
      "ကစား": 6121,
      "ၵႅဝ်ႈ": 6122,
      "နၢ်ပၢၢ်": 6123,
      "အဖိခွါစီၤ": 6124,
      "hehpih": 6125,
      "အခ့ၫအၡၩ": 6126,
      "အပါအဝင်": 6127,
      "န့ၫ": 6128,
      "ၦလဂၩ": 6129,
      "pasian": 6130,
      "မှဲး": 6131,
      "မၤန့ၢ်": 6132,
      "taleh": 6133,
      "ဆုံ": 6134,
      "meisa": 6135,
      "ဘူၣ်တၢ်ဘါ": 6136,
      "သဘောတူ": 6137,
      "ကလံၤ": 6138,
      "စိး": 6139,
      "ဆန်": 6140,
      "ထ့ၬ": 6141,
      "သပ်း": 6142,
      "အဆိၩ": 6143,
      "ဆၧၩ့": 6144,
      "ဆၧၥၫ့": 6145,
      "ဖျၢၣ်": 6146,
      "ဢွၵ်ႇလိၵ်ႈ": 6147,
      "နံၫဂၩ": 6148,
      "tahrat": 6149,
      "ဆိၪဂ့ၩ": 6150,
      "ပြောကြားသည်": 6151,
      "ႁၢၼ်ႉၶၢႆ": 6152,
      "AA": 6153,
      "ND": 6154,
      "fing": 6155,
      "ꤡꤝ": 6156,
      "tuak": 6157,
      "kar": 6158,
      "နီၪမွဲ": 6159,
      "ပူတ်း": 6160,
      "ခဲ့တာ": 6161,
      "zeitintiah": 6162,
      "လၧအံၫစရ့လၭ": 6163,
      "dum": 6164,
      "ပမိ": 6165,
      "ပိုး": 6166,
      "တီႊ": 6167,
      "အနား": 6168,
      "အကျဲ": 6169,
      "ကိုယ်တော်": 6170,
      "တား": 6171,
      "သတ်ႉထ": 6172,
      "ဆၧအၪ့": 6173,
      "တီႈလုမ်း": 6174,
      "ၵွၵ်ႇ": 6175,
      "ahihleh": 6176,
      "munah": 6177,
      "Baal": 6178,
      "hmasa": 6179,
      "ပျဲၢ်အဘီၣ်": 6180,
      "ၵေႃလိၵ်ႈလၢႆးလႄႈ": 6181,
      "ၼႆႉတႄႉ": 6182,
      "pite": 6183,
      "ပှၤလၢ": 6184,
      "တစ်ခါ": 6185,
      "ဒုးကဲထီၣ်": 6186,
      "ဆၧၫ့နၩ့": 6187,
      "ယွၤအတၢ်လုၢ်ဟံၣ်": 6188,
      "ok": 6189,
      "up": 6190,
      "ဘိး": 6191,
      "ရအၫ": 6192,
      "လႃႉ": 6193,
      "လဒီၪ့": 6194,
      "ဝႆ": 6195,
      "သမျှ": 6196,
      "kibawl": 6197,
      "ပဵၼ်လႆႈ": 6198,
      "thuciamna": 6199,
      "ထၪ့န": 6200,
      "ၸိူဝ်ႉမႅင်းၶူဝ်ႊဝိတ်ႉ": 6201,
      "မွဲပလၫ": 6202,
      "Puan": 6203,
      "ဝတ်း": 6204,
      "ꤞꤥ꤭": 6205,
      "လူငယ်": 6206,
      "သေချာ": 6207,
      "ဝ့ၫဒၪလီၫ": 6208,
      "Kha": 6209,
      "ꤔ꤫ꤤ꤬ꤟꤥ꤭": 6210,
      "စုာ်စုာ်": 6211,
      "ဘြၤဟၣ်": 6212,
      "Ca": 6213,
      "Shi": 6214,
      "kang": 6215,
      "tawm": 6216,
      "စၪ": 6217,
      "ၡၫ": 6218,
      "ꤏꤛ": 6219,
      "ther": 6220,
      "cil": 6221,
      "ယူႇတီႈၸုမ်း": 6222,
      "ဒ်သိးအက": 6223,
      "အရည်": 6224,
      "ꤞꤢꤧꤔꤢꤧ": 6225,
      "ခံး": 6226,
      "ၼႆႉၵူၺ်း": 6227,
      "တႃႇသေႇ": 6228,
      "လၧဆၧလု": 6229,
      "အဖၧၩ့ၥၭ": 6230,
      "ပႃးၸဵမ်": 6231,
      "စစီ": 6232,
      "ꤓꤢꤪ꤬": 6233,
      "ပြေး": 6234,
      "န့ၣ်မ့ၢ်": 6235,
      "လႆႈၵႂႃႇ": 6236,
      "ပူႇ": 6237,
      "herh": 6238,
      "ယွၤဧၢ": 6239,
      "ပေးဖို့": 6240,
      "khika": 6241,
      "တိုင်းရင်း": 6242,
      "ဖှံ": 6243,
      "ၶူဝ်လမ်": 6244,
      "ငြိမ်းချမ်းရေး": 6245,
      "Har": 6246,
      "zuam": 6247,
      "ဂံ": 6248,
      "စၢး": 6249,
      "အေ": 6250,
      "အယီၩ": 6251,
      "၂၆": 6252,
      "꤮,": 6253,
      "khai": 6254,
      "ၼေႇပျီႇတေႃႇ": 6255,
      "မူၺ်ႉ": 6256,
      "..": 6257,
      "လႆႈသူင်ႇ": 6258,
      "လှူ": 6259,
      "ၶႂၢင်ႉ": 6260,
      "tikcu": 6261,
      "အလၩ": 6262,
      "တီႈၼႂ်း": 6263,
      "တေၸတ်းႁဵတ်း": 6264,
      "ဢၼ်ၺႃး": 6265,
      "စီၤအၤဘြၤဟၣ်": 6266,
      "အများကြီး": 6267,
      "ဘဏ္ဍာ": 6268,
      "အန့ၣ်ဒီး": 6269,
      "ꤕꤣꤧ꤬": 6270,
      "khuai": 6271,
      "ချီး": 6272,
      "ယုၢ်": 6273,
      "လဂၩလဲၪ": 6274,
      "ꤊꤣꤧ꤬ꤓꤢꤪ꤬": 6275,
      "ꤋꤚꤢꤦ꤭": 6276,
      "၂ဝ": 6277,
      "ပြေ": 6278,
      "နီၪး": 6279,
      "သေဆုံး": 6280,
      "အကောင်": 6281,
      "ၶွၼ်ႇ": 6282,
      "ၽိုၼ်ႉ": 6283,
      "zultu": 6284,
      "ခၫ့": 6285,
      "လၣ်": 6286,
      "ၿိူဝ်ႊ": 6287,
      "ဒီးယွၤ": 6288,
      "ၵၼ်ယူႇ": 6289,
      "phual": 6290,
      "အသွဲၣ်": 6291,
      "ၵႃႉၶၢႆ": 6292,
      "အလဲ": 6293,
      "ၸၢင်": 6294,
      "lel": 6295,
      "ꤢ꤬ꤙ": 6296,
      "ၸဝ်ႈတူၼ်": 6297,
      "ၾၢႆႇပၢႆးယူႇလီ": 6298,
      "ဒုးနဲၣ်": 6299,
      "ဝါရီ": 6300,
      "ꤓꤥ꤭ꤒꤥ꤬": 6301,
      "zawng": 6302,
      "ꤞꤢꤩ": 6303,
      "nain": 6304,
      "ချေး": 6305,
      "ဘဲၫနီၪတၭ": 6306,
      "အစၢၤ": 6307,
      "ယမိဒုၭ": 6308,
      "zekiah": 6309,
      "Hezekiah": 6310,
      "ဖူး": 6311,
      "ami": 6312,
      "ရှံၣ်": 6313,
      "သူငယ်": 6314,
      "daihnak": 6315,
      "ꤜꤥ꤭ꤔ": 6316,
      "ဖီၩ့ဖျ့ၭ": 6317,
      "gimna": 6318,
      "စီမံကိန်း": 6319,
      "ၼၵ်း": 6320,
      "thawk": 6321,
      "hitaleh": 6322,
      "pali": 6323,
      "tia": 6324,
      "သွန်": 6325,
      "ယဝ်ႉလႄႈ": 6326,
      "phum": 6327,
      "ဢဝ်ၵႂႃႇ": 6328,
      "ဖဲအံၤ": 6329,
      "masa": 6330,
      "ကိုယ်ကိုယ်": 6331,
      "ꤝꤢꤒꤢꤩ꤬ꤞ": 6332,
      "rori": 6333,
      "ꤒꤢꤩ꤬ꤞꤝꤢꤒꤢꤩ꤬ꤞ": 6334,
      "Thil": 6335,
      "ကျဲးစၢး": 6336,
      "ဘၣ်မနုၤအဃိ": 6337,
      "ꤒꤢꤩ꤬ꤞꤝꤢꤒꤢꤩ꤬ꤞꤢꤧ꤬": 6338,
      "kawi": 6339,
      "luah": 6340,
      "sah": 6341,
      "ယီၤ": 6342,
      "၂၉": 6343,
      "ၼႆၸိုင်": 6344,
      "ပျာ်": 6345,
      "ကိးထီၣ်": 6346,
      "လ့ၤဝံ": 6347,
      "ကတိၤတၢ်": 6348,
      "ကယၤ": 6349,
      "ၡၤ": 6350,
      "nasep": 6351,
      "ဒဲယ": 6352,
      "မၤအသး": 6353,
      "လၧအဆၧ": 6354,
      "နှဲး": 6355,
      "ဒ်ပှၤ": 6356,
      "ခံၫ့": 6357,
      "ရာခိုင်": 6358,
      "mitsur": 6359,
      "ၥုၭမုခမျၧး": 6360,
      "မုၵ်ႉၸုမ်း": 6361,
      "guk": 6362,
      "ကပ်": 6363,
      "သၢင်": 6364,
      "အရင်": 6365,
      "kheng": 6366,
      "အခး": 6367,
      "လိုၼ်း": 6368,
      "အဖိၪမုၪ": 6369,
      "အခြား": 6370,
      "ကူၣ်သ့": 6371,
      "အထၧၫ့ဖုဝဲ": 6372,
      "04": 6373,
      "Bar": 6374,
      "ကၱ": 6375,
      "ာယ်": 6376,
      "ၶမ်": 6377,
      "ခဲ့ကြတယ်": 6378,
      "ruak": 6379,
      "လၢႆႊ": 6380,
      "အဖိၪခွၫၥံၪ": 6381,
      "လုမ်းလႃး": 6382,
      "ပ္ပာယ်": 6383,
      "တၡါ": 6384,
      "nungmi": 6385,
      "ႁိမ်းႁွမ်း": 6386,
      "ကိၭဂၩ": 6387,
      "ဘၤဘူၤ": 6388,
      "ဟေရှာ": 6389,
      "ၵတ်းယဵၼ်": 6390,
      "သူႇ": 6391,
      "နိုင်ဖို့": 6392,
      "ṭhut": 6393,
      "သိပ်": 6394,
      "အမၫ": 6395,
      "ယဵပ်ႇ": 6396,
      "ဢေႊၶိူဝ်ႊ": 6397,
      "တၵ်း": 6398,
      "မနား": 6399,
      "ယှ": 6400,
      "ၡၭ": 6401,
      "ကျိုး": 6402,
      "ꤥ꤬ꤞꤣꤧ꤭ꤖꤚꤢꤩ꤬": 6403,
      "နှး": 6404,
      "ထုပ်ႉ": 6405,
      "ခြောက်": 6406,
      "zongah": 6407,
      "သားသမီး": 6408,
      "ထဲၩ့ထဲၩ့": 6409,
      "နီၢ်နီၢ်": 6410,
      "အုၭ": 6411,
      "ꤕꤜꤢꤩ": 6412,
      "ၽဵင်ႇပဵင်း": 6413,
      "zer": 6414,
      "တပူၤ": 6415,
      "ဒွ": 6416,
      "တၢ်ကစီၣ်": 6417,
      "နိုင်ရန်": 6418,
      "နှစ်ယောက်": 6419,
      "ၾူၼ်း": 6420,
      "မၤသးဒ်န့ၣ်ဒီး": 6421,
      "deng": 6422,
      "ဎုၬ": 6423,
      "ဒီးတ": 6424,
      "lole": 6425,
      "ဖိဃီ": 6426,
      "ꤒꤢꤩ꤬ꤞꤤ": 6427,
      "အစိ": 6428,
      "န့ၥၫ": 6429,
      "paikhiat": 6430,
      "လိၬအၥၭ": 6431,
      "ၾႅတ်ႊ": 6432,
      "ထိူၼ်ႇ": 6433,
      "တၩ့ထဲၩ့": 6434,
      "Jonathan": 6435,
      "လႆ": 6436,
      "miah": 6437,
      "တၢ်ဂ့ၢ်": 6438,
      "လီၤတဲာ်": 6439,
      "လၧအမၩ": 6440,
      "khiah": 6441,
      "nungta": 6442,
      "ယူဒၤဖိ": 6443,
      "လုံခြုံ": 6444,
      "ယုၵ်ႉယွင်ႈ": 6445,
      "နၪ့ထၪ့": 6446,
      "ရမှာ": 6447,
      "Ammon": 6448,
      "beel": 6449,
      "hleihnih": 6450,
      "Li": 6451,
      "ထမ်ႈ": 6452,
      "ဖီၪ့": 6453,
      "ႊသီႊ": 6454,
      "တၭအဝ့ၫဒၪ": 6455,
      "မူဝ်": 6456,
      "thupekmi": 6457,
      "တော်မူ": 6458,
      "liatna": 6459,
      "ၼႄး": 6460,
      "ဒိတ်": 6461,
      "ၵဵဝ်ႇၶွင်ႈ": 6462,
      "ဘီမုၢ်": 6463,
      "ရည်ရွယ်": 6464,
      "ngeina": 6465,
      "Thianghlim": 6466,
      "ပုဒ်မ": 6467,
      "Bai": 6468,
      "ကိၣ်": 6469,
      "ထိၭ": 6470,
      "မ့ၤ": 6471,
      "တီႈၼိုင်ႈ": 6472,
      "ennak": 6473,
      "မွင်း": 6474,
      "မုၼ်း": 6475,
      "ယၢဝ်း": 6476,
      "တႃႇၶၢဝ်းတၢင်း": 6477,
      "လၧၦၡၩ": 6478,
      "ၸႂ်ႈၶႃႈဢေႃႈ": 6479,
      "တိၵ်းတိၵ်း": 6480,
      "ပျော်ရွှင်": 6481,
      "ꤞꤢꤩ꤭": 6482,
      "တွဲ": 6483,
      "လွမ်ႉ": 6484,
      "ဘၪနီၪ": 6485,
      "ၼင်ႇၵၼ်": 6486,
      "အထည်": 6487,
      "သဘောထား": 6488,
      "ပျီႇတူႉၸိတ်ႉ": 6489,
      "ဗျာဒိတ်": 6490,
      "Aho": 6491,
      "mer": 6492,
      "ရိုး": 6493,
      "ၥိၫ့": 6494,
      "ṭap": 6495,
      "ရှိပါတယ်": 6496,
      "ꤣꤧ꤭ꤒꤣꤧ꤬ꤟꤢꤩ꤬ꤔꤣꤧ꤬": 6497,
      "lungawi": 6498,
      "လုၢ်ထီၣ်": 6499,
      "ယောဘ": 6500,
      "ၵ်ႊတိူဝ်ႊ": 6501,
      "zeitindah": 6502,
      "ရာခိုင်နှုန်း": 6503,
      "Bab": 6504,
      "Zoh": 6505,
      "ဝၩ့": 6506,
      "milem": 6507,
      "pate": 6508,
      "ꤣꤧ꤭ꤒꤣ꤬": 6509,
      "peuhmah": 6510,
      "မဲာ်ညါ": 6511,
      "ပိၵ်ႉဢိုတ်း": 6512,
      "အဓိပ္ပာယ်": 6513,
      "ၸဝ်ႈတူၼ်ၶူး": 6514,
      "Baibal": 6515,
      "ဂီၩ": 6516,
      "ဒၧၩ့": 6517,
      "၂၇": 6518,
      "လၢဝ်": 6519,
      "လူသား": 6520,
      "ပျဉ်း": 6521,
      "နဲ့ပတ်သက်ပြီး": 6522,
      "ပြည်သူ": 6523,
      "ထူင်": 6524,
      "ႁဝ်းၶႃႈၵေႃႈ": 6525,
      "paikhia": 6526,
      "ဟးထီၣ်ကွံာ်": 6527,
      "အိပ်": 6528,
      "nasemte": 6529,
      "ဟေရှာယ": 6530,
      "ဇၫ": 6531,
      "လဆံၫ": 6532,
      "siang": 6533,
      "ပြိုင်": 6534,
      "ပဵၼ်တီႈ": 6535,
      "ဝဵင်းမိူင်း": 6536,
      "မၼ်းၵေႃႈ": 6537,
      "လဵၵ်ႉ": 6538,
      "lakih": 6539,
      "ဢိူင်ႇမိူင်း": 6540,
      "ထံၣ်န့ၢ်": 6541,
      "အအိၣ်န့ၣ်လီၤ": 6542,
      "မူၤအ့လး": 6543,
      "စီၤယိၤသး": 6544,
      "အခီၣ်ထံး": 6545,
      "သတ်ႉထႃး": 6546,
      "kaih": 6547,
      "ကြေ": 6548,
      "လိူတ်ႈ": 6549,
      "tuahtu": 6550,
      "သိလ်": 6551,
      "ပျဉ်းမနား": 6552,
      "ပ့": 6553,
      "ဘၣ်န့ၣ်လီၤ": 6554,
      "လႆႈႁၼ်": 6555,
      "ႁွႆး": 6556,
      "ၵႃႈၶၼ်": 6557,
      "နားထောင်": 6558,
      "တချုး": 6559,
      "ညှိ": 6560,
      "ဘၤဘူၤလိၣ်": 6561,
      "ဘံၣ်": 6562,
      "anih": 6563,
      "လီလီ": 6564,
      "ယူဆ": 6565,
      "sul": 6566,
      "Jew": 6567,
      "ႁူဝ်ၶမ်ႈ": 6568,
      "ကိုယ်တိုင်": 6569,
      "ၵိုၵ်း": 6570,
      "ဢေႇ": 6571,
      "သုၼ်ႇလႆႈၵူၼ်း": 6572,
      "Baby": 6573,
      "Ra": 6574,
      "den": 6575,
      "ik": 6576,
      "ဢေး": 6577,
      "ၽႄ": 6578,
      "ꤗꤣꤧ꤭": 6579,
      "kipia": 6580,
      "လိၼ်း": 6581,
      "ထီးန့": 6582,
      "မေႃး": 6583,
      "ထိးထဲၩ့": 6584,
      "ꤓꤢꤩ꤬ꤡꤝꤢ": 6585,
      "အခက်အခဲ": 6586,
      "Sab": 6587,
      "gei": 6588,
      "ကတဲာ်ကတီၤ": 6589,
      "ဧး": 6590,
      "ꤜꤢꤩ꤭": 6591,
      "ဒုက္ခ": 6592,
      "တြီ": 6593,
      "ရောမ": 6594,
      "အကၠီၩ့လီၫ": 6595,
      "မနုၤလဲၣ်": 6596,
      "Babylon": 6597,
      "Lam": 6598,
      "ကၥ့ၪ": 6599,
      "ဇဳၤ": 6600,
      "သဳ": 6601,
      "ြႃး": 6602,
      "ꤘꤢꤧ": 6603,
      "milim": 6604,
      "ၵႂႃႇၼၼ်ႉ": 6605,
      "ၶၢပ်ႈ": 6606,
      "ဘယ်လောက်": 6607,
      "ႁူမ်ႈၵၼ်သေ": 6608,
      "အကၠၪ": 6609,
      "အသက်ရှင်": 6610,
      "တိုင်းရင်းသား": 6611,
      "mawk": 6612,
      "ပည": 6613,
      "မိဘၪဆၧ": 6614,
      "မၤနၢၤ": 6615,
      "ဢၼ်ၼိုင်ႈ": 6616,
      "သွမ်း": 6617,
      "auk": 6618,
      "မြင့်": 6619,
      "တဂၤလၢအ": 6620,
      "ပိူဝ်ႊ": 6621,
      "ဂီၤဖံး": 6622,
      "ယမိမၩ": 6623,
      "ꤘꤣꤧꤟ": 6624,
      "fel": 6625,
      "ကအိၣ်": 6626,
      "အဒိၩ့": 6627,
      "ꤕꤢꤩ꤭": 6628,
      "ꤚꤢꤩ꤭": 6629,
      "လၢဝ်း": 6630,
      "တဖု": 6631,
      "sate": 6632,
      "မှုတွေ": 6633,
      "ချက်တွေကို": 6634,
      "ခင်ပွ": 6635,
      "ထီးအလူၬလီၫ": 6636,
      "ဒုၪဒၩ": 6637,
      "ၶွပ်ႈတဵမ်": 6638,
      "ၸီႉသင်ႇ": 6639,
      "thluachuah": 6640,
      "သွန်သင်": 6641,
      "ꤘꤣꤧꤟꤣꤧ꤭": 6642,
      "philh": 6643,
      "zai": 6644,
      "ဂၩ့": 6645,
      "ဒွဲ": 6646,
      "မလား": 6647,
      "ႁႆး": 6648,
      "ꤟꤤ": 6649,
      "လၩ့ဘၪ": 6650,
      "langter": 6651,
      "မဟုတ်ပါဘူး": 6652,
      "ပလိၵ်ႈထႆး": 6653,
      "အခိးအတၩ": 6654,
      "ႁၢပ်ႇၵၢၼ်": 6655,
      "ဆမံၭ": 6656,
      "အခွင့်": 6657,
      "ပဵၼ်ဝၼ်း": 6658,
      "kanmah": 6659,
      "တုန်းက": 6660,
      "ဢဝ်လိူင်ႈ": 6661,
      "အောင်မြင်": 6662,
      "ပၢႆးမၢၵ်ႈမီး": 6663,
      "ပြောကြားခဲ့သည်": 6664,
      "Leilung": 6665,
      "ṭhiamṭhiam": 6666,
      "?’": 6667,
      "လုကာ": 6668,
      "နေကြ": 6669,
      "မၩဖျ့ၭ": 6670,
      "faate": 6671,
      "နီၢ်မၤ": 6672,
      "ၸဵမ်မိူဝ်ႈ": 6673,
      "သူတို့ရဲ့": 6674,
      "ကိုယ့်ကိုယ်ကိုယ်": 6675,
      "cuticun": 6676,
      "အစၢၤအသွဲၣ်": 6677,
      "ဒွဲၣ်": 6678,
      "buai": 6679,
      "ip": 6680,
      "မႃႉ": 6681,
      "ၼႂ်းလိူၼ်": 6682,
      "တကပၤ": 6683,
      "လေႃႉ": 6684,
      "လုၵ်ႉၽိုၼ်ႉ": 6685,
      "khawl": 6686,
      "ဘဲၫၦ": 6687,
      "ၵၢင်ၼႂ်": 6688,
      "နၤလီၤ": 6689,
      "Daan": 6690,
      "chuahpi": 6691,
      "tlunter": 6692,
      "တနံၤအံၤ": 6693,
      "nin": 6694,
      "စၫ": 6695,
      "ဇံ": 6696,
      "ဝ့်": 6697,
      "တၢ်ဂီၤ": 6698,
      "ဆၧလု": 6699,
      "ဒီးဖဲ": 6700,
      "ပါတဲ့": 6701,
      "နှာ": 6702,
      "အီၤန့ၣ်": 6703,
      "ပၼ်ႁႅင်း": 6704,
      "ၸႄႈဝဵင်းတႃႈၶီႈလဵၵ်း": 6705,
      "ၵျီႇ": 6706,
      "အဆၧၫ့": 6707,
      "အနံၪ့": 6708,
      "ပႃႇတီႇသိူဝ်ၽိူၵ်ႇ": 6709,
      "ယုံကြည်ခြင်း": 6710,
      "လႅၵ်ႈငိုၼ်း": 6711,
      "ဖိၪဆၧဎါ": 6712,
      "puak": 6713,
      "ဖမ်း": 6714,
      "အဲ့": 6715,
      "sil": 6716,
      "pasarih": 6717,
      "မၤဘၣ်": 6718,
      "chih": 6719,
      "နၥံၪဝ့ၫ": 6720,
      "ႁၢမ်း": 6721,
      "အဂဲးအကၠီၪ့": 6722,
      "အကြံပြုချက်": 6723,
      "အခ့အပှၤ": 6724,
      "Ah": 6725,
      "Mat": 6726,
      "အထား": 6727,
      "ၶင်": 6728,
      "ႊလၢႆႊ": 6729,
      "ꤓꤢꤨ꤬": 6730,
      "ꤙꤢꤧ": 6731,
      "လႆႈလူႉတၢႆ": 6732,
      "စီၤစီလူး": 6733,
      "ၽူႈယႂ်ႇ": 6734,
      "taan": 6735,
      "ဆှး": 6736,
      "ဒုၭနဲၪ": 6737,
      "အါဂၤ": 6738,
      "ꤥ꤬ꤔꤢꤩ꤬": 6739,
      "Gilead": 6740,
      "လႅၵ်ႈလၢႆႈ": 6741,
      "တတီၤ": 6742,
      "ဒသမ": 6743,
      "ဖောက်": 6744,
      "မႃးတူၺ်း": 6745,
      "စီၤဃ": 6746,
      "ဝဵင်းတူၼ်ႈတီး": 6747,
      "ပၼ်ၶိုၼ်း": 6748,
      "ယၫကူၭ": 6749,
      "ပွၵ်ႈၼႆႉ": 6750,
      "အရေးယူ": 6751,
      "ၽိူဝ်ႇ": 6752,
      "ၾၢႆႇၼိုင်ႈၵေႃႈ": 6753,
      "ဖျဲၪ": 6754,
      "ထၢၼ်ႇႁိၼ်": 6755,
      "-“": 6756,
      "နော": 6757,
      "ၺႃႇ": 6758,
      "ဝဲန့ၣ်လီၤ": 6759,
      "မွဲယ": 6760,
      "ၶဝ်ႈပႃး": 6761,
      "ပၢတၢ်": 6762,
      "ယႃႈမႃႉ": 6763,
      "လနံၩယီၩ": 6764,
      "စီးပွားရေး": 6765,
      "hua": 6766,
      "tleu": 6767,
      "ငိူ": 6768,
      "ရိုက်": 6769,
      "thal": 6770,
      "nakpi": 6771,
      "saang": 6772,
      "ၶဝ်ႈၼမ်ႉ": 6773,
      "မဟုတ်ဘဲ": 6774,
      "ရောက်လာ": 6775,
      "kumpipaʼ": 6776,
      "စံးဆၢဝဲ": 6777,
      "သွၼ်ႈဝႆႉတီႈ": 6778,
      "မကြာ": 6779,
      "ꤒꤢꤦ": 6780,
      "ꤜꤤ꤭": 6781,
      "သေဢမ်ႇၵႃး": 6782,
      "ပူၤန့ၣ်": 6783,
      "မြစ်": 6784,
      "tunga": 6785,
      "hmanah": 6786,
      "ကီၢ်အဲၤကူပတူး": 6787,
      "မိုင်း": 6788,
      "ꤒꤣ꤬ꤖꤚꤢꤩ꤬ꤖꤚꤢꤩ꤬": 6789,
      "မိူၼ်ၵၼ်": 6790,
      "ဢုပ်ႇၵုမ်": 6791,
      "တပ်ဖွဲ့": 6792,
      "Inn": 6793,
      "ကျွန်ုပ်တို့": 6794,
      "အတည်ပြု": 6795,
      "500": 6796,
      "zzar": 6797,
      "နၢ": 6798,
      "မကောင်း": 6799,
      "လီၤအသး": 6800,
      "hmui": 6801,
      "innkuan": 6802,
      "ႁိူဝ်း": 6803,
      "လူႉသုမ်း": 6804,
      "ပျံၤတၢ်": 6805,
      "ဦးစီးဌာန": 6806,
      "ပူင်သွၼ်": 6807,
      "Aha": 6808,
      "ကလီ": 6809,
      "ငှ": 6810,
      "စပါး": 6811,
      "လ့ၭ": 6812,
      "ဢမေႊ": 6813,
      "ယွင်း": 6814,
      "သးဝံၣ်": 6815,
      "ꤢꤪꤜꤢꤨ": 6816,
      "စာအုပ်": 6817,
      "ၼႃႈၵၢၼ်": 6818,
      "စိတ်ချ": 6819,
      "thinhun": 6820,
      "လိူၼ်ၵျု": 6821,
      "ကိၭဂၩဒ့ၭ": 6822,
      "နပ်": 6823,
      "အလို": 6824,
      "ၨၭ": 6825,
      "ဆၧလီၩ့": 6826,
      "တႆးႁဝ်း": 6827,
      "အခန်း": 6828,
      "ရှိပြီး": 6829,
      "ဘျၢ": 6830,
      "လူႉၵွႆ": 6831,
      "ၸႂ်ႉတိုဝ်း": 6832,
      "ၵေႃႇတင်ႈ": 6833,
      "Elijah": 6834,
      "raithawinak": 6835,
      "မိၼ်း": 6836,
      "များအား": 6837,
      "လဲၤထီၣ်": 6838,
      "အသိးလီၤ": 6839,
      "တင်သွင်း": 6840,
      "ကယဲၦ": 6841,
      "မေႃသွၼ်": 6842,
      "လျှော့": 6843,
      "namtui": 6844,
      "namsau": 6845,
      "ဆင်းရဲ": 6846,
      "မ္မာ": 6847,
      "ပြောပြတယ်": 6848,
      "hak": 6849,
      "tar": 6850,
      "ṭah": 6851,
      "ꤋꤥ": 6852,
      "ရှောက်": 6853,
      "အဝဲန့ၣ်": 6854,
      "သွေး": 6855,
      "saṭil": 6856,
      "အဂဲးဘဲၫ": 6857,
      "ရိတ်": 6858,
      "ရိန္": 6859,
      "Anmah": 6860,
      "ဝါး": 6861,
      "ချိန်မှာ": 6862,
      "huham": 6863,
      "ကောရိန္": 6864,
      "ကောရိန္သု": 6865,
      "300": 6866,
      "ဖၤ": 6867,
      "ရခိုင်": 6868,
      "umter": 6869,
      "ဖျီ": 6870,
      "kom": 6871,
      "ကစၢ်ယွၤအတၢ်": 6872,
      "လမ်းညွှန်": 6873,
      "ꤛꤢꤩ꤬ꤏꤛꤢꤨꤋꤚꤤ": 6874,
      "နိၭ": 6875,
      "လနံၪ့": 6876,
      "ွမ်း": 6877,
      "ꤏꤣꤧ": 6878,
      "ပြင်း": 6879,
      "ဒီးယက": 6880,
      "ၼႂ်းသၽႃး": 6881,
      "တၢင်းႁူႉ": 6882,
      "ထၪ့ထဲၩ့": 6883,
      "ရေးဆွဲ": 6884,
      "ဝၢၼ်ႈၼႃး": 6885,
      "ၸႄႈဝဵင်းမူႇၸေႊ": 6886,
      "လှဲး": 6887,
      "ချဲၩ့ဆၧၫ့": 6888,
      "itna": 6889,
      "အၥီၫ့": 6890,
      "နးဂၩအ့ၬ": 6891,
      "ၽႅၼ်ၵၢၼ်": 6892,
      "ၶဵတ်ႇလိူၵ်ႈတင်ႈမၢႆ": 6893,
      "ကလဲာ်": 6894,
      "လႆႈမႃး": 6895,
      "Jero": 6896,
      "ထူၬ": 6897,
      "အၥိၭတၭ": 6898,
      "ကိၪ့ၥ့ၪ": 6899,
      "မွဲလါနၫ့ဘိၩ": 6900,
      "Sabbath": 6901,
      "ash": 6902,
      "ခၠ": 6903,
      "ၪ့လၩ့": 6904,
      "မ့ၢ်လၢ": 6905,
      "တိၤ": 6906,
      "khuaruah": 6907,
      "တူဝ်ၵဝ်ႇ": 6908,
      "ၶေႃႈၵႂၢမ်း": 6909,
      "နောက်ပိုင်း": 6910,
      "ကၠံၢ်": 6911,
      "ၽူႈတႅၼ်းသၽႃးၸႄႈမိူင်း": 6912,
      "တဲၩ့ဝဲၩ": 6913,
      "ခူသူၣ်": 6914,
      "ခၣ်": 6915,
      "ရႄႊ": 6916,
      "ꤚꤢ꤭": 6917,
      "pian": 6918,
      "ခွဲး": 6919,
      "ၸႄႈမိူင်းတႆး": 6920,
      "အဖၩ့": 6921,
      "ဆူယွၤ": 6922,
      "ၼမ်ႉၸၢင်": 6923,
      "အနၢ်": 6924,
      "အားပေး": 6925,
      "2015": 6926,
      "ႁႃၵိၼ်": 6927,
      "မူင်းပၢႆ": 6928,
      "ဝးတရံး": 6929,
      "ဗိုလ်ချုပ်": 6930,
      "ပညတ်": 6931,
      "အနဲၩ့ထံၭ": 6932,
      "ꤟꤢ꤬": 6933,
      "တၢ်သူၣ်": 6934,
      "ၼွင်း": 6935,
      "ရူဝ်ႊ": 6936,
      "အလးခဲၫ့": 6937,
      "ထုတ်လုပ်": 6938,
      "နိုင်ငံတော်သမ္မတ": 6939,
      "NU": 6940,
      "zua": 6941,
      "ငၢမ်း": 6942,
      "နၣ်": 6943,
      "alh": 6944,
      "ပဵၼ်ၸုမ်း": 6945,
      "မၩဘိၪ့": 6946,
      "ၥၭလိၪ": 6947,
      "reu": 6948,
      "ကၠီၩ့": 6949,
      "တူဝ်ႈမိူင်း": 6950,
      "အခဲၫ့": 6951,
      "ဖွဲ့စည်းပုံ": 6952,
      "Ge": 6953,
      "RP": 6954,
      "bah": 6955,
      "kuat": 6956,
      "ဃိ": 6957,
      "ၽြႃး": 6958,
      "cuka": 6959,
      "မွဲစ": 6960,
      "မုၢ်လၢ်": 6961,
      "ၵႃႈႁိုဝ်": 6962,
      "ꤟꤢꤨꤒꤢꤩ꤭": 6963,
      "ၶိုၼ်ႈယႂ်ႇ": 6964,
      "ပှၤအံၣ်စရ့လးဖိတဖၣ်": 6965,
      "မဵတ်ႉတႃႇ": 6966,
      "ꤢ꤬ꤚꤤ꤬ꤢ꤬ꤊꤢꤧ꤭": 6967,
      "oli": 6968,
      "စှ": 6969,
      "ပါနဲ့": 6970,
      "အိၣ်လၢ": 6971,
      "ꤖꤚꤢꤩ꤬ꤜꤢꤨ꤬": 6972,
      "ယႃႈယႃ": 6973,
      "ꤊꤜꤢꤧ": 6974,
      "leenggah": 6975,
      "သြႃႇ": 6976,
      "ဆီၫ့မီၪ့": 6977,
      "ဎူၫ": 6978,
      "တဝ်": 6979,
      "အိး": 6980,
      "ꤔꤢꤪ": 6981,
      "kikho": 6982,
      "လိင်": 6983,
      "peh": 6984,
      "ၵေႃႉယဝ်ႉ": 6985,
      "ကစံၣ်": 6986,
      "leiah": 6987,
      "တူဝ်တၢႆ": 6988,
      "တိုၵ်းသူၼ်း": 6989,
      "ရိၫ": 6990,
      "စေရန်": 6991,
      "သာယာ": 6992,
      "အောင်ဆန်း": 6993,
      "nungzui": 6994,
      "ဘါထုကဖၣ်": 6995,
      "thiamnak": 6996,
      "ပင်ခံ": 6997,
      "မၫဆမံၭ": 6998,
      "ၸူဝ်ႈၶၢဝ်း": 6999,
      "ading": 7000,
      "kel": 7001,
      "thawi": 7002,
      "လၧအံ": 7003,
      "ဘၪဝ့ၫ": 7004,
      "ၶႃႈႁႅမ်": 7005,
      "ႁဝ်းၵေႃႈ": 7006,
      "tuahnak": 7007,
      "သင်ယူ": 7008,
      "လဖၪလီၫ": 7009,
      "ယၤလီၤ": 7010,
      "ချက်တွေ": 7011,
      "လက်မှတ်": 7012,
      "အတိုင်": 7013,
      "ထိန်းသိမ်း": 7014,
      "ခင်ပွန်း": 7015,
      "နီၢ်မၤရံ": 7016,
      "ဟရိၣ်": 7017,
      "ၻွ": 7018,
      "ပြတ်": 7019,
      "တေဢမ်ႇလႆႈ": 7020,
      "thir": 7021,
      "လၧအစူၪ": 7022,
      "salom": 7023,
      "ထွန်း": 7024,
      "ဘုရားသခင်ကို": 7025,
      "ꤊꤣꤧ꤭ꤢꤨ꤭": 7026,
      "မရှိဘူး": 7027,
      "ꤘꤣꤧꤡꤢ꤭": 7028,
      "Absalom": 7029,
      "Nebu": 7030,
      "အကောင်အထည်": 7031,
      "70": 7032,
      "ging": 7033,
      "ဘလၧၫ့": 7034,
      "ၵႄႇ": 7035,
      "ၸႃႇ": 7036,
      "လၧမူၭခိၪ": 7037,
      "တၭယ": 7038,
      "ၼၼ်ႉယဝ်ႉ": 7039,
      "သုမ့ၢ်": 7040,
      "petu": 7041,
      "lamdang": 7042,
      "တေႃႇၵၼ်": 7043,
      "နာရီ": 7044,
      "ကွၢ်ထွဲ": 7045,
      "နောက်ဆုံး": 7046,
      "zohkhenh": 7047,
      "အကၠီၩ့တၭ": 7048,
      "ၼွၵ်ႈလိူဝ်ၼၼ်ႉ": 7049,
      "ချႃၭ": 7050,
      "ၡီၩ့": 7051,
      "ၼၢ": 7052,
      "ကွာ": 7053,
      "လွင်ႈတၢင်း": 7054,
      "ril": 7055,
      "ႁဝ်းၶႃႈတႄႉ": 7056,
      "ꤜꤢꤪ꤭ꤕꤜꤤ꤭": 7057,
      "ဥပဒေကြမ်း": 7058,
      "Khaw": 7059,
      "ယောန": 7060,
      "ခဲ့သည့်": 7061,
      "လုၢ်တၢ်ပာ်": 7062,
      "sullam": 7063,
      "ဂရု": 7064,
      "ပံၤ": 7065,
      "သၢင်း": 7066,
      "အတော်": 7067,
      "ၵၵ်း": 7068,
      "ꤢ꤬ꤒꤢꤩ꤬": 7069,
      "ဒိၣ်ထီၣ်": 7070,
      "အနီၢ်": 7071,
      "ဢိူဝ်ႈ": 7072,
      "ယ့ၫရှူၬ": 7073,
      "ရွှေ": 7074,
      "ကီၩ့": 7075,
      "သဳး": 7076,
      "ဒဲအဆၧ": 7077,
      "thup": 7078,
      "မၩမၪ": 7079,
      "ဒီနေ့": 7080,
      "ႁူမ်ႈသၢင်ႈ": 7081,
      "ၶၢဝ်": 7082,
      "ၶဝ်ႈၵႂႃႇ": 7083,
      "အာဏာ": 7084,
      "ဝုၼ်းၸု": 7085,
      "Pi": 7086,
      "mawi": 7087,
      "နယွၩ": 7088,
      "မတ်ႉ": 7089,
      "လပ်": 7090,
      "ꤛꤢꤪ꤬": 7091,
      "naa": 7092,
      "lee": 7093,
      "တွန်း": 7094,
      "ဝဲန့ၣ်": 7095,
      "ၼၼ်ႉၵူၺ်း": 7096,
      "ရေးနှင့်": 7097,
      "အကောင်း": 7098,
      "ၶူပ်ႇ": 7099,
      "ပာ်ဖျါ": 7100,
      "ထွေ": 7101,
      "တိူၵ်ႈ": 7102,
      "ဌာန်း": 7103,
      "ယၢမ်းၵၢင်ဝၼ်း": 7104,
      "တဵၵ်း": 7105,
      "suante": 7106,
      "ပှၤအံၣ်စရ့လးဖိ": 7107,
      "ယၫ့ၥၭ": 7108,
      "pin": 7109,
      "သဖြင့်": 7110,
      "အလံၩ": 7111,
      "တၢ်ကတိၤ": 7112,
      "ရှောင်": 7113,
      "မွန်": 7114,
      "ṭhu": 7115,
      "စံၭအဝ့ၫ": 7116,
      "ပုံမှန်": 7117,
      "အနေဖြင့်": 7118,
      "ṭilva": 7119,
      "ယုမ်ႇယမ်": 7120,
      "Ahab": 7121,
      "Esau": 7122,
      "Za": 7123,
      "bul": 7124,
      "fe": 7125,
      "ခိုး": 7126,
      "ၼၼ်ႈ": 7127,
      "nget": 7128,
      "လႆႈယူႇ": 7129,
      "အီၪလၧဆၧ": 7130,
      "လိုတယ်": 7131,
      "သီႈ": 7132,
      "innsang": 7133,
      "nop": 7134,
      "နၤဧ": 7135,
      "ႁႅၵ်ႈ": 7136,
      "ထင်တီႈ": 7137,
      "ဝၬဖီၩ့": 7138,
      "အတိုင်ပင်ခံ": 7139,
      "Han": 7140,
      "လၧအဖၧၩ့": 7141,
      "မွဲမၬ": 7142,
      "rangleng": 7143,
      "အီၪက့ၪလၩ့": 7144,
      "ထၫ့ဒုၪဒၩ": 7145,
      "လဵင်ႉတွင်ႉ": 7146,
      "ၽဵဝ်ႈမူၺ်ႉ": 7147,
      "မော်": 7148,
      "ကျဳၤ": 7149,
      "မွဲနၥံၪ": 7150,
      "အခီ": 7151,
      "ရှိသူ": 7152,
      "ဆိုတော့": 7153,
      "thlaw": 7154,
      "ထဲက": 7155,
      "စံၭအဝ့ၫၥံၪ": 7156,
      "ထီႉ": 7157,
      "တူၵ်းၸႂ်": 7158,
      "အဒီၪ့": 7159,
      "ၶၼ်လႅၵ်ႈငိုၼ်း": 7160,
      "ဆ့ၣ်နီၤ": 7161,
      "ယွတ်ႈသိုၵ်း": 7162,
      "ငူပ်ႉ": 7163,
      "42": 7164,
      "rei": 7165,
      "ပီၣ်လဲၣ်": 7166,
      "လိုင်": 7167,
      "ၸၢႆႇ": 7168,
      "မၢၵ်ႇလူင်": 7169,
      "ဒုးအိၣ်": 7170,
      "ထတ်းသၢင်": 7171,
      "ငြိမ်": 7172,
      "ဘာသာပြန်": 7173,
      "ဇူး": 7174,
      "ဗစ်": 7175,
      "အပိုင်း": 7176,
      "ၼင်": 7177,
      "ꤞꤢꤦ": 7178,
      "သးအုး": 7179,
      "ဝဵင်းလိူဝ်ႇ": 7180,
      "ပျောက်": 7181,
      "လက်နက်": 7182,
      "ပႃႇတီႇမႂ်ႇသုင်": 7183,
      "orhl": 7184,
      "ၶေႃႈပိုၼ်ၽၢဝ်ႇ": 7185,
      "ဖီၩ့မၩဖျ့ၭ": 7186,
      "အစူၪဖၧၩ့": 7187,
      "မဵဝ်း": 7188,
      "ကျေးဇူး": 7189,
      "rinsan": 7190,
      "ကဝီၤ": 7191,
      "တပ": 7192,
      "အလွန်": 7193,
      "ၼႃႊ": 7194,
      "သိုလ်": 7195,
      "လွင်ႈႁူမ်ႇလူမ်ႈ": 7196,
      "ၵပ်းသၢၼ်": 7197,
      "ꤔ꤫ꤤ꤬ꤘꤢ꤭": 7198,
      "ralkapbu": 7199,
      "စီၤအၤဟရိၣ်": 7200,
      "satnak": 7201,
      "အသွေး": 7202,
      "Jeroboam": 7203,
      "ṭam": 7204,
      "tiih": 7205,
      "nihin": 7206,
      "မီးဝႆႉ": 7207,
      "ဢမ်ႇဝႃႈ": 7208,
      "ပိုမို": 7209,
      "hlang": 7210,
      "phu": 7211,
      "ၸၢၵ်ႇ": 7212,
      "ဘုၪ": 7213,
      "ဦးဝင်း": 7214,
      "ခွင့်ပြု": 7215,
      "lawmhnak": 7216,
      "အလုပ်သမား": 7217,
      "ဘၣ်တၢ်မၤသံ": 7218,
      "Filistia": 7219,
      "ngakchia": 7220,
      "nelrawn": 7221,
      "ပီမႂ်ႇတႆး": 7222,
      "ၾႅတ်ႊၻ": 7223,
      "ပညီ": 7224,
      "အး": 7225,
      "kau": 7226,
      "အဂ့ၩ": 7227,
      "ဢမ်ႇတၼ်း": 7228,
      "များသည်": 7229,
      "veve": 7230,
      "ဢွၵ်ႇဝႆႉဝႃႈ": 7231,
      "ယဟိဝၩစံၭဝ့ၫဒၪ": 7232,
      "ပိတ်": 7233,
      "ဘျီၣ်": 7234,
      "mateng": 7235,
      "ꤟꤢꤨꤣꤧ꤭": 7236,
      "မည့်": 7237,
      "2008": 7238,
      "ꤚꤤ꤬ꤡ꤫ꤢꤧ꤬": 7239,
      "ပၢႆးပၺ်ၺႃ": 7240,
      "ကီၤ": 7241,
      "တနံၣ်": 7242,
      "သေၵမ်း": 7243,
      "theitu": 7244,
      "မူင်းၼၼ်ႉ": 7245,
      "ပေႃႉထုပ်ႉ": 7246,
      "တၵ်ႉၵႃႇသတ်ႉထႃး": 7247,
      "လမ်ႇ": 7248,
      "တၢ်နာ်": 7249,
      "ဒီးလဲၤ": 7250,
      "ꤢ꤬ꤛ꤫ꤢꤧ꤬ꤛꤥ꤬": 7251,
      "တၢင်းၾင်ႇ": 7252,
      "eihal": 7253,
      "lungkim": 7254,
      "ႁိူၼ်းၵူၼ်းဝၢၼ်ႈ": 7255,
      "ကုသ": 7256,
      "ꤣꤧ꤭ꤔꤣꤧ꤬ꤗꤢ꤬": 7257,
      "ခွင့်လွှတ်": 7258,
      "ထာ": 7259,
      "အီး": 7260,
      "ꤓꤢꤩ꤭": 7261,
      "thun": 7262,
      "များနှင့်": 7263,
      "တာနဲ့": 7264,
      "rili": 7265,
      "ရှုံး": 7266,
      "phunglam": 7267,
      "ဘွ": 7268,
      "ဘ့ၪ": 7269,
      "လမၧၫ့": 7270,
      "လၱၢ်": 7271,
      "အဒါ": 7272,
      "္က": 7273,
      "ꤙꤢ꤭": 7274,
      "သွံၣ်": 7275,
      "လဲၩ": 7276,
      "အတၢ်သိၣ်တၢ်သီ": 7277,
      "ခြင်းဖြစ်သည်": 7278,
      "hihna": 7279,
      "ထွမ်ႇ": 7280,
      "သၢင်ႇသီႈ": 7281,
      "vangliatna": 7282,
      "47": 7283,
      "Vang": 7284,
      "nah": 7285,
      "ဂူၬ": 7286,
      "နဝ့ၫ": 7287,
      "ၶဵၼ်": 7288,
      "‘​": 7289,
      "ဆၧလီၫ": 7290,
      "ကျေ": 7291,
      "kiko": 7292,
      "တိုဝ်းၵမ်": 7293,
      "အံၤန့ၣ်": 7294,
      "ဒုၭအီၪ": 7295,
      "ၵဵဝ်ႇၵပ်းလွင်ႈ": 7296,
      "Zeitin": 7297,
      "ꤜꤣꤧ꤬ꤕꤜꤢꤩ": 7298,
      "အ့ၤစ": 7299,
      "Mihing": 7300,
      "စည်ပင်": 7301,
      "cek": 7302,
      "လၧခိၪလီၩ့": 7303,
      "ပွင်ႈ": 7304,
      "ပဵၼ်ၵူၼ်းဝၢၼ်ႈ": 7305,
      "မိူဝ်ႈၽွင်း": 7306,
      "အဂးနီၪ": 7307,
      "မဲဆန္ဒ": 7308,
      "ngeimi": 7309,
      "အသစ်": 7310,
      "khuapite": 7311,
      "အဖီလာ်": 7312,
      "Reu": 7313,
      "တၢင်တူဝ်": 7314,
      "ထိးထဲၩ့တၩ့ထဲၩ့": 7315,
      "Ho": 7316,
      "dawh": 7317,
      "စအံ": 7318,
      "အပျဲၢ်အဘီၣ်": 7319,
      "ၡဲ": 7320,
      "ႁႃႈ": 7321,
      "လီၤဆီ": 7322,
      "ည့်": 7323,
      "kizui": 7324,
      "ယူႇၼႂ်း": 7325,
      "တက္က": 7326,
      "khiatna": 7327,
      "vain": 7328,
      "duhdawtnak": 7329,
      "hmaisa": 7330,
      "ဆက်သွယ်": 7331,
      "ၶူးသွၼ်": 7332,
      "အၢတၢ်သီ": 7333,
      "အမ့ၬယၫလီၫ": 7334,
      "ceu": 7335,
      "ဖိဃီဖိ": 7336,
      "Vanglian": 7337,
      "ruh": 7338,
      "ခူၣ်": 7339,
      "တာ်": 7340,
      "ဟါ": 7341,
      "ṭung": 7342,
      "လီၤကွံာ်": 7343,
      "လူမှု": 7344,
      "ချဳ": 7345,
      "ရာဇ": 7346,
      "ramri": 7347,
      "ၶႅမ်ႉ": 7348,
      "သုးဖိ": 7349,
      "ဂံၪ့ဖိၪ": 7350,
      "မျက်နှာ": 7351,
      "ၽွင်းလူင်ၾၢႆႇ": 7352,
      "စပံးထံ": 7353,
      "ꤡꤝ꤫ꤢ꤬": 7354,
      "Sal": 7355,
      "ရယူ": 7356,
      "အလက်": 7357,
      "ေႉ": 7358,
      "လီၤတၢ်": 7359,
      "တၢင်းယၢပ်ႇၽိုတ်ႇ": 7360,
      "ကၠး": 7361,
      "တည်းက": 7362,
      "ဘၩ့မုး": 7363,
      "ညှိနှိုင်း": 7364,
      "ST": 7365,
      "tih": 7366,
      "နို": 7367,
      "tuan": 7368,
      "tion": 7369,
      "တူင်ႈ": 7370,
      "သိုၵ်းသိူဝ်": 7371,
      "Jere": 7372,
      "ဒါဝိ": 7373,
      "လိူဝ်ႁႅင်း": 7374,
      "thinheng": 7375,
      "လိာ်အသး": 7376,
      "ꤋꤢꤨ꤭ꤕ": 7377,
      "Ziangah": 7378,
      "dongin": 7379,
      "မဲာ်ဆှး": 7380,
      "လါနၫ့တၭ": 7381,
      "ယႃႇပေ": 7382,
      "ဒါဝိဒ်": 7383,
      "မက": 7384,
      "လၧဒိၩ့": 7385,
      "ဝ့ၫၥံၪ": 7386,
      "သးစၢ်": 7387,
      "ၽူႈတူင်ႉၼိုင်": 7388,
      "ယိၤၡ": 7389,
      "တစ်ပါး": 7390,
      "ပြုပြင်": 7391,
      "ယေႃး": 7392,
      "တဲၢ်": 7393,
      "သုံးစွဲ": 7394,
      "ယာက": 7395,
      "ဆၨၩလဖၪ": 7396,
      "upatnak": 7397,
      "ဃံ": 7398,
      "စဘံၭ": 7399,
      "ပဢူဝ်း": 7400,
      "အလိ": 7401,
      "awinak": 7402,
      "ဝၼ်းၼႆႉ": 7403,
      "sathau": 7404,
      "ပေးပါ": 7405,
      "အမၩ့": 7406,
      "minthan": 7407,
      "လုၵ်ႉတီႈ": 7408,
      "ကျေးရွာ": 7409,
      "ငူပ်ႉင": 7410,
      "စး": 7411,
      "သတး": 7412,
      "အဒဲ": 7413,
      "ၶႃႇ": 7414,
      "ၸႃႉ": 7415,
      "ၵူဝ်ႇ": 7416,
      "မႃးၶဝ်ႈႁူမ်ႈ": 7417,
      "ယူႇဝႆႉ": 7418,
      "ကွံ": 7419,
      "ရာစု": 7420,
      "သင်တို့": 7421,
      "parnak": 7422,
      "kutka": 7423,
      "တွေ့ဆုံ": 7424,
      "သဵၼ်ႈမၢႆ": 7425,
      "ၵေႃ့": 7426,
      "thingkung": 7427,
      "တေႃႉသူင်ႇ": 7428,
      "ယႅမ်ႉ": 7429,
      "စီၤယၤကိာ်": 7430,
      "နၢမူ": 7431,
      "ခၠၱး": 7432,
      "တက္ကသိုလ်": 7433,
      "vainam": 7434,
      "Jeremiah": 7435,
      "Ham": 7436,
      "ramah": 7437,
      "tawng": 7438,
      "ဇိၤ": 7439,
      "လီၤဘၣ်": 7440,
      "ꤔꤣꤧ꤬ꤒꤣ꤬ꤖꤚꤢꤩ꤬": 7441,
      "ၸုမ်းသိုၵ်း": 7442,
      "ဟဲထီၣ်": 7443,
      "တီၩဆၧလီၩ့": 7444,
      "ꤔꤤꤔꤢꤧ꤬": 7445,
      "ဘဲၫနီၪၥိၭ": 7446,
      "ꤋꤢꤨ꤭ꤕꤢꤪꤜꤢꤨ": 7447,
      "ဂူၫဂၩ": 7448,
      "ပင်း": 7449,
      "ၶႃး": 7450,
      "ဆၧချဲၩ့": 7451,
      "ပူၤလီၤ": 7452,
      "မှာရှိတဲ့": 7453,
      "tlin": 7454,
      "တကာ": 7455,
      "လွႆတႆး": 7456,
      "ၸူၼ်": 7457,
      "lungdamna": 7458,
      "ၾႅတ်ႊၻရႄႊ": 7459,
      "ကဆှီ": 7460,
      "ဟောင်း": 7461,
      "ၡၫဖိၪ": 7462,
      "ၶပ်း": 7463,
      "ၼၼ့်": 7464,
      "tuih": 7465,
      "ကြွ": 7466,
      "ကျူး": 7467,
      "တွေအတွက်": 7468,
      "ဖဲပှၤ": 7469,
      "ၵူႈလွင်ႈ": 7470,
      "ꤜꤢ꤭ꤟꤤ": 7471,
      "မူဝ်ႊၶရေ": 7472,
      "လိူၼ်ၵျုၼ်ႊ": 7473,
      "ထာဝ": 7474,
      "KI": 7475,
      "zuar": 7476,
      "ဆီၣ်": 7477,
      "အကြီး": 7478,
      "ၾို": 7479,
      "ဒီးဝ့ၢ်": 7480,
      "တေသိုပ်ႇ": 7481,
      "ၼႆႉသမ်ႉ": 7482,
      "မီးမႃး": 7483,
      "ႁဵတ်းသင်": 7484,
      "တိမော": 7485,
      "ၵူႈပွၵ်ႈ": 7486,
      "ပိူင်လူင်": 7487,
      "တဲ့အရာ": 7488,
      "တႅမ်ႈလိၵ်ႈ": 7489,
      "တိမောသေ": 7490,
      "ခတ်": 7491,
      "theh": 7492,
      "kisai": 7493,
      "ၸဝ်ႈၶွင်": 7494,
      "ႁူမ်ႈမိုဝ်း": 7495,
      "ၶဝ်မႃး": 7496,
      "ပုင်ႇ": 7497,
      "စံၭဆၧၫ့": 7498,
      "အမေ": 7499,
      "ၸွမ်းၵၼ်": 7500,
      "ခီၫ့": 7501,
      "ကျမ်းစာက": 7502,
      "လိၤမိၤ": 7503,
      "ၼႂ်းၸႄႈဝဵင်းၵျွၵ်ႉမႄး": 7504,
      "zuih": 7505,
      "ယ့ၫရ": 7506,
      "မ္မ": 7507,
      "dungthluntu": 7508,
      "ကလူး": 7509,
      "ဖလံ": 7510,
      "မံၣ်": 7511,
      "၃၁": 7512,
      "ယူႇၶႃႈ": 7513,
      "ၸုမ်းၸွႆႈထႅမ်": 7514,
      "ၶၢတ်ႇ": 7515,
      "လၢတၢ်လီၢ်": 7516,
      "မံၫ့": 7517,
      "အနီၣ်": 7518,
      "ၸၢဝ်းၶိူဝ်းတႆး": 7519,
      "ခံစားရ": 7520,
      "remnak": 7521,
      "ၵိင်ႇ": 7522,
      "Minung": 7523,
      "35": 7524,
      "Mes": 7525,
      "pawi": 7526,
      "မတူ": 7527,
      "ယၬ": 7528,
      "ယပှၤဂီၢ်မုၢ်": 7529,
      "အိၭ": 7530,
      "ယဟ့ၣ်": 7531,
      "န့ၢ်အီၤ": 7532,
      "ဒုၭၥုၭ": 7533,
      "သူၣ်ထီၣ်": 7534,
      "အတရၫ့": 7535,
      "ခးၥံၪ": 7536,
      "တတ်တယ်": 7537,
      "ၵႅမ်ႁူဝ်ပဝ်ႈ": 7538,
      "ရူၤသး": 7539,
      "ကစံၣ်ညီၣ်": 7540,
      "ပံ့": 7541,
      "ဘ့ၭ": 7542,
      "ဧဲၤ": 7543,
      "ၵမ်ႇ": 7544,
      "teel": 7545,
      "တီႈပွၵ်ႉ": 7546,
      "hruk": 7547,
      "ၽူဝ်": 7548,
      "ရေးကို": 7549,
      "ဆူညါ": 7550,
      "ၶဝ်ႈၶႅင်ႇ": 7551,
      "ၸႄႈဝဵင်းလႃႈသဵဝ်ႈ": 7552,
      "ႁၢရ်": 7553,
      "ရ့း": 7554,
      "suahna": 7555,
      "ဝၢႆးလင်": 7556,
      "Zeicahdah": 7557,
      "Gibe": 7558,
      "ဝမ်းနည်း": 7559,
      "ပိုတ်းယိုဝ်းၵၼ်": 7560,
      "ꤗꤢꤨꤗ꤫ꤢꤧ꤬ꤚꤤ꤬ꤡ꤫ꤢꤧ꤬": 7561,
      "Lai": 7562,
      "TY": 7563,
      "ၡ့": 7564,
      "ṭan": 7565,
      "ၵူၼ်းၸိူဝ်း": 7566,
      "အစာ": 7567,
      "သိပ္ပ": 7568,
      "ဖဲအဝဲ": 7569,
      "dangdang": 7570,
      "အနံၩ": 7571,
      "ဝၢႆးသေ": 7572,
      "ဢမေႊရိ": 7573,
      "သိပ္ပံ": 7574,
      "fat": 7575,
      "ထၭ": 7576,
      "ဝၢ်": 7577,
      "သၼ်": 7578,
      "ရှမွ": 7579,
      "လႆႈဢဝ်": 7580,
      "လၧအလီၩ့": 7581,
      "တိာ်": 7582,
      "ပေးရန်": 7583,
      "အတၢ်ကတိၤ": 7584,
      "ရွံ": 7585,
      "Miphun": 7586,
      "ယေးငိုၼ်း": 7587,
      "အဘိၩ့ဘၭ": 7588,
      "တွင်ႈထၢမ်": 7589,
      "ရှမွေလ": 7590,
      "45": 7591,
      "Ele": 7592,
      "တဝ်ႈ": 7593,
      "တလေး": 7594,
      "ၡသး": 7595,
      "ꤘꤥ꤭": 7596,
      "ၼႆႉပဵၼ်": 7597,
      "လၧအလ": 7598,
      "လဖၪတၭ": 7599,
      "ႁူဝ်လိူၼ်": 7600,
      "အနက်": 7601,
      "sunparnak": 7602,
      "tanu": 7603,
      "စီၤၡမူၤအ့လး": 7604,
      "သ့တၢ်လၢာ်": 7605,
      "အရည်အသွေး": 7606,
      "Vawlei": 7607,
      "ken": 7608,
      "က့ၪ": 7609,
      "ဒံၩ့": 7610,
      "ဖလ့": 7611,
      "မပြော": 7612,
      "ၥွံၪ": 7613,
      "khur": 7614,
      "raldo": 7615,
      "လၧယၧၩ": 7616,
      "Siria": 7617,
      "awtnak": 7618,
      "ꤢ꤬ꤚꤥ꤬": 7619,
      "ꤒ꤫ꤣ꤬ꤊꤣꤧ꤭": 7620,
      "upna": 7621,
      "မဝင်": 7622,
      "ယၡၩ": 7623,
      "ꤏꤥ꤭": 7624,
      "ꤙꤢ꤬": 7625,
      "ဝဵင်းလႃႈသဵဝ်ႈ": 7626,
      "သ့ၣ်တဖၣ်အံၤ": 7627,
      "စုကြည်": 7628,
      "လှုပ်": 7629,
      "အၥိၭလီၫ": 7630,
      "ရန်ကုန်": 7631,
      "ပြည်ထောင်စုဝန်ကြီး": 7632,
      "melek": 7633,
      "ၽူႈယႂ်ႇၵူၼ်းလူင်": 7634,
      "အကောင်အထည်ဖော်": 7635,
      "လမ်ႇလွင်ႈ": 7636,
      "aʼ": 7637,
      "စအံၫ": 7638,
      "ṭum": 7639,
      "ꤚꤢ꤬": 7640,
      "nasa": 7641,
      "သူပ်း": 7642,
      "သင့်": 7643,
      "ပၼ်ၵူၼ်းမိူင်း": 7644,
      "ၸၢႆးသႅင်": 7645,
      "စိတၢ်": 7646,
      "ပေႃးပဵၼ်": 7647,
      "zate": 7648,
      "ၸတ်းပၢင်": 7649,
      "မည်ဖြစ်ကြောင်း": 7650,
      "လ့ၩဆၧ": 7651,
      "zetmi": 7652,
      "လင်ႁိူၼ်း": 7653,
      "muhna": 7654,
      "ၵိူဝ်း": 7655,
      "hruaitu": 7656,
      "khakte": 7657,
      "Vancung": 7658,
      "အ့ၤစတၢ်": 7659,
      "Gad": 7660,
      "စောင်": 7661,
      "ပတၢ်": 7662,
      "ၡိၭ": 7663,
      "မိူင်းၵွၵ်ႇ": 7664,
      "ပွင့်": 7665,
      "တယ်ဆိုတာ": 7666,
      "လႆႈဢွၼ်ၵၼ်": 7667,
      "ဢၼ်ထုၵ်ႇ": 7668,
      "chaw": 7669,
      "chiti": 7670,
      "သက်ဆိုင်ရာ": 7671,
      "ပွၵ်ႈႁိူၼ်း": 7672,
      "ဝံအ့ၤ": 7673,
      "တူၼ်ႈမႆႉ": 7674,
      "အန့ၣ်ဝံၤဒီး": 7675,
      "Ralkap": 7676,
      "အခၪ့ထံၭ": 7677,
      "ဝုၼ်းၸုမ်ႉ": 7678,
      "cat": 7679,
      "meihal": 7680,
      "နတ": 7681,
      "ပပ်ႉ": 7682,
      "အချင်း": 7683,
      "thuam": 7684,
      "ဝႆႉယဝ်ႉ": 7685,
      "မႄႈၼမ်ႉ": 7686,
      "ꤊꤜꤣꤧ꤭": 7687,
      "zahtak": 7688,
      "အအီၪတၭ": 7689,
      "ႁေႃၶမ်း": 7690,
      "ဖၫ့ခိၪ": 7691,
      "ဒွ့ၪ": 7692,
      "ဓမ္မ": 7693,
      "မံး": 7694,
      "အဝ့ၢ်": 7695,
      "အံ့": 7696,
      "ṭhang": 7697,
      "ပၢႆယဝ်ႉ": 7698,
      "Milai": 7699,
      "piakna": 7700,
      "Puanthlam": 7701,
      "ဝံအ့ၤလံယၤ": 7702,
      "ဎၩ့": 7703,
      "မား": 7704,
      "ၦအ": 7705,
      "ၵိုၼ်း": 7706,
      "လၢကမၤ": 7707,
      "တၢ်ဖီၣ်": 7708,
      "တဖၣ်အပူၤ": 7709,
      "နှိ": 7710,
      "ဖဲဝ့ၢ်": 7711,
      "zumhnak": 7712,
      "ထံၩဖါ": 7713,
      "စိုက်ပျိုးရေး": 7714,
      "ဝတ်းဝႂ်": 7715,
      "ပီး": 7716,
      "မက်": 7717,
      "ယိၣ်": 7718,
      "ꤗꤢꤦ꤭": 7719,
      "ၼႆႈ": 7720,
      "ကြင်": 7721,
      "လိုင်း": 7722,
      "nitlak": 7723,
      "gamlak": 7724,
      "လၧနၧၩ": 7725,
      "ဝှ့း": 7726,
      "tuipi": 7727,
      "ဆိၪဖၪ": 7728,
      "စောင့်ရှောက်": 7729,
      "ဖံဖု": 7730,
      "ငူပ်ႉငီႉ": 7731,
      "Asa": 7732,
      "Isa": 7733,
      "cawk": 7734,
      "fih": 7735,
      "topa": 7736,
      "ဗဟို": 7737,
      "လလီၩ့": 7738,
      "မိအၪ့": 7739,
      "တဖၣ်လၢတၢ်": 7740,
      "ၵႂၢ": 7741,
      "မွဲအ့ၬဧၪ": 7742,
      "နိုင်ဘူး": 7743,
      "ခဲ့သလဲ": 7744,
      "လူင်ပွင်ၸိုင်ႈမိူင်းတႆး": 7745,
      "မၢၵ်ႇၵွင်ႈ": 7746,
      "ရောင်းချ": 7747,
      "Reuben": 7748,
      "mel": 7749,
      "လ့း": 7750,
      "သတ္": 7751,
      "တီႈႁိူၼ်း": 7752,
      "မိူင်းလႃး": 7753,
      "လိပ်": 7754,
      "ၵၢၼ်လိူၵ်ႈတင်ႈ": 7755,
      "မှာလည်း": 7756,
      "မေႃႇ": 7757,
      "အနေဖြင့်": 7758,
      "ငွေကြေး": 7759,
      "bawmh": 7760,
      "ciahkik": 7761,
      "ခန့်": 7762,
      "သၤ": 7763,
      "အလုၢ်": 7764,
      "မိူဝ်ႈပူၼ်ႉမႃး": 7765,
      "ramlak": 7766,
      "ၵူၺ်းၶႃႈ": 7767,
      "Nanmah": 7768,
      "ၸင်ႇတေ": 7769,
      "ꤗ꤫ꤢ꤬ꤟꤣꤧ": 7770,
      "လူဝ်ႇလႆႈ": 7771,
      "ပှၤတဂၤလၢ်လၢ်": 7772,
      "ကျွန်မတို့": 7773,
      "သူၼ်းတုမ်": 7774,
      "ၵဵဝ်ႇလူၺ်ႈလွင်ႈ": 7775,
      "ၶဝ်ႈၼမ်ႉတၢင်းၵိၼ်": 7776,
      "ဖလ့ၡသး": 7777,
      "tawl": 7778,
      "ဖၱ": 7779,
      "ဝႄႈ": 7780,
      "သၼ်ႇ": 7781,
      "ꤜ꤫ꤥ꤬": 7782,
      "သုတ္": 7783,
      "ဝဵင်းလူင်": 7784,
      "ဒီဘ့ၣ်": 7785,
      "ၸဝ်ႈသူၼ်": 7786,
      "Cumi": 7787,
      "လၩ့မါ": 7788,
      "nusia": 7789,
      "ၼမ်လိူဝ်": 7790,
      "shan": 7791,
      "Elisha": 7792,
      "သႃသ": 7793,
      "suanle": 7794,
      "minamte": 7795,
      "ပျက်စီး": 7796,
      "ၥီၪ့ဆၧၥၫ့": 7797,
      "ဒေါ်အောင်ဆန်း": 7798,
      "ပႃႇတီႇမႂ်ႇသုင်ၸိုင်ႈတႆး": 7799,
      "သုတ္တံ": 7800,
      "ရို": 7801,
      "ေႃႉ": 7802,
      "ၼိမ်": 7803,
      "လၢႆႇ": 7804,
      "ꤔꤣꤧ꤬ꤒꤣ꤬": 7805,
      "စီစဉ်": 7806,
      "fate": 7807,
      "hngilh": 7808,
      "ႁပ်ႉတွၼ်ႈ": 7809,
      "ဖုန်း": 7810,
      "တေလႆႈဝႃႈ": 7811,
      "nezzar": 7812,
      "ၸိုၼ်ႈ": 7813,
      "ꤗ꤫ꤢ꤬ꤔꤤꤔꤢꤧ꤬": 7814,
      "အခီပညီ": 7815,
      "လွႆတႆးလႅင်း": 7816,
      "Zan": 7817,
      "iel": 7818,
      "တလိၤ": 7819,
      "ၾင်": 7820,
      "အကု": 7821,
      "လာတဲ့": 7822,
      "uknak": 7823,
      "ဘျါ": 7824,
      "Job": 7825,
      "လၧၦခမျၧး": 7826,
      "sihna": 7827,
      "နၪ့ထၪ့ထဲၩ့": 7828,
      "ṭang": 7829,
      "nasepna": 7830,
      "မိူင်းၵိုင်": 7831,
      "ဖိၭ": 7832,
      "auʼ": 7833,
      "လှၱ": 7834,
      "ဝိႁၢရ်": 7835,
      "လိုက်နာ": 7836,
      "သောကြောင့်": 7837,
      "နံၫဆံၫ": 7838,
      "ယုံကြည်စိတ်ချ": 7839,
      "လီၩလၩ့": 7840,
      "Thukham": 7841,
      "ṭhit": 7842,
      "အားလုံးကို": 7843,
      "မိူဝ်ႈလဵဝ်ၼႆႉ": 7844,
      "mithmuh": 7845,
      "thlacamnak": 7846,
      "ယာကုပ်": 7847,
      "ir": 7848,
      "ဆည်း": 7849,
      "မင်": 7850,
      "thuhla": 7851,
      "mithi": 7852,
      "ဝဲလၢတၢ်": 7853,
      "များအတွက်": 7854,
      "ပူၤဒီး": 7855,
      "sinum": 7856,
      "အနါ": 7857,
      "ငိုၼ်းထႆး": 7858,
      "ကယဲၦလၧအ": 7859,
      "ꤘꤣꤧꤜꤥ꤭": 7860,
      "ႁွင်ႉဝႃႈ": 7861,
      "ဖွယ်": 7862,
      "ထီၩ့လၧ": 7863,
      "လံဝဲၫဖိၪ": 7864,
      "ꤜꤥ꤭ꤔꤢꤩ": 7865,
      "Uz": 7866,
      "gun": 7867,
      "ဒး": 7868,
      "ဗာ": 7869,
      "မပြု": 7870,
      "ꤡꤢꤦ꤬": 7871,
      "naih": 7872,
      "ihmui": 7873,
      "tehna": 7874,
      "hehna": 7875,
      "ၸုမ်းၼိုင်ႈ": 7876,
      "199": 7877,
      "ဝင်ရောက်": 7878,
      "ꤊ꤫ꤢꤦ꤬ꤚꤢꤩ꤭": 7879,
      "စံးဘၣ်တဲဘၣ်": 7880,
      "ပၢ်ဖံဖု": 7881,
      "ၽွၼ်းလီ": 7882,
      "ၵမ်ႉၸွႆႈ": 7883,
      "ꤢ꤬ꤖꤢꤨꤖꤚꤢꤩ꤬ꤋꤢꤨ꤭": 7884,
      "Tui": 7885,
      "ၬထၪ့": 7886,
      "ၵူၼ်းသိုၵ်း": 7887,
      "ၼႂ်းၸိုင်ႈတႆး": 7888,
      "her": 7889,
      "ဒၪန့": 7890,
      "အၪ့လီၫ": 7891,
      "suakta": 7892,
      "နာ်က့": 7893,
      "ဎွ့ၩထၪ့": 7894,
      "ၶျ်": 7895,
      "အချက်အလက်": 7896,
      "ပၵ်းပိူင်မၢႆမီႈ": 7897,
      "ဝန်းကျင်": 7898,
      "ၵၵ်းတူဝ်": 7899,
      "ခံၭ": 7900,
      "မႃႇ": 7901,
      "ဆၧလ": 7902,
      "ၥၭထၪ့": 7903,
      "လၩ့ခွံၬ": 7904,
      "တဂၤဧိၤ": 7905,
      "အၥၭတၭ": 7906,
      "အနည်း": 7907,
      "အနံၣ်": 7908,
      "ၵဵတ်ႉ": 7909,
      "တၢ်လၢယ": 7910,
      "ဘုရားသခင်ရဲ့": 7911,
      "ၾိုၵ်း": 7912,
      "Puithiam": 7913,
      "az": 7914,
      "tna": 7915,
      "ငို": 7916,
      "ပလီၢ်": 7917,
      "ၵူၼ်းႁဵတ်းၵၢၼ်": 7918,
      "ႁူမ်": 7919,
      "ꤒꤢꤩ꤬ꤖꤢꤨ": 7920,
      "ယၤလၢ": 7921,
      "ပွတ်းဢွၵ်ႇၶူင်း": 7922,
      "thok": 7923,
      "ယေရှုရဲ့": 7924,
      "ၶူင်းၵၢၼ်": 7925,
      "တိူင်းသိုၵ်း": 7926,
      "ခၫ့ဂၬ": 7927,
      "Pil": 7928,
      "lin": 7929,
      "puk": 7930,
      "uliante": 7931,
      "ခဏ": 7932,
      "ခိုင်း": 7933,
      "သောင်း": 7934,
      "အလှ": 7935,
      "ngo": 7936,
      "လၢပှဲၤ": 7937,
      "ဝဲလၢအ": 7938,
      "chawn": 7939,
      "ၵႂႃႇႁဵတ်းၵၢၼ်": 7940,
      "ဖျဲၣ်": 7941,
      "ၼမ်ႉထူမ်ႈ": 7942,
      "က့ၤကဒါက့ၤ": 7943,
      "ယုၵ်း": 7944,
      "နိုင်ငံရေး": 7945,
      "မည်ဟု": 7946,
      "sangka": 7947,
      "တိူဝ်ႉၺႃး": 7948,
      "မျှတ": 7949,
      "hmaan": 7950,
      "သူငယ်ချင်း": 7951,
      "ၦအံၫစရ့လၭဖိၪ": 7952,
      "ၵူၼ်းႁၢႆႉ": 7953,
      "ၼႂ်းပၢင်": 7954,
      "ၥံၪခးၥံၪ": 7955,
      "အိၣ်ဆိး": 7956,
      "ဘၪလိၬ": 7957,
      "het": 7958,
      "မွဲယဟိဝၩ": 7959,
      "တိုဝ်ႉ": 7960,
      "ၽူႈဢွၼ်ႁူဝ်": 7961,
      "ၸုမ်းတူင်ႉၼိုင်": 7962,
      "ဖျိၭ": 7963,
      "holh": 7964,
      "ယၢမ်းလဵဝ်ၼႆႉ": 7965,
      "ပေါ်မှာ": 7966,
      "rianṭuan": 7967,
      "အခြေခံဥပဒေ": 7968,
      "thukamnak": 7969,
      "thinhunnak": 7970,
      "HR": 7971,
      "baw": 7972,
      "dei": 7973,
      "ကတည်းက": 7974,
      "ခ်": 7975,
      "စူ": 7976,
      "hil": 7977,
      "ပှၤကိးဂၤဒဲး": 7978,
      "ပဵၼ်လုၵ်ႈ": 7979,
      "အဂီၤ": 7980,
      "တင်းသွင်ၾၢႆႇ": 7981,
      "န့း": 7982,
      "ၵၢပ်ႇ": 7983,
      "ႁႃသဵင်": 7984,
      "လမ်းၼိုင်ႈ": 7985,
      "နေပြည်တော်ကောင်စီ": 7986,
      "အကျၩနီၪ": 7987,
      "thlenter": 7988,
      "chunhnak": 7989,
      "အီၣ်တၢ်အီ": 7990,
      "သိလ်ထမ်း": 7991,
      "ဒေါ်အောင်ဆန်းစုကြည်": 7992,
      "poh": 7993,
      "ဆ့ၭ": 7994,
      "ရယ်": 7995,
      "အဒိ": 7996,
      "အမြင်": 7997,
      "migi": 7998,
      "မိူင်းယၢင်း": 7999,
      "သုကစၢ်ယွၤ": 8000,
      "အဝဲသ့ၣ်အတၢ်": 8001,
      "ramih": 8002,
      "ခွံၬၡိၭ": 8003,
      "မၢႆတွင်း": 8004,
      "မူတ်းယဝ်ႉ": 8005,
      "နည်းပညာ": 8006,
      "မြေကြီး": 8007,
      "မၢင်ၵေႃႉ": 8008,
      "cawtum": 8009,
      "ဧလိယ": 8010,
      "ilee": 8011,
      "ကမူ": 8012,
      "ဆၧဒဲၩဘၭ": 8013,
      "ထၪ့ဖိၪ": 8014,
      "မြဲ": 8015,
      "Isaiah": 8016,
      "ၵၢင်ဝဵင်း": 8017,
      "တ့ၢ်အီၤ": 8018,
      "သ့း": 8019,
      "ပႆႇလႆႈ": 8020,
      "ဘၭဘလၧၫ့": 8021,
      "စကားလုံး": 8022,
      "မ့ၢ်တၢ်တီ": 8023,
      "hrekkhat": 8024,
      "Galilee": 8025,
      "oi": 8026,
      "ပယ်": 8027,
      "မၩလၩ့": 8028,
      "ရှိကြောင်း": 8029,
      "မုၢ်နံၤ": 8030,
      "ꤟꤢꤩꤔꤣꤧ꤬": 8031,
      "လက်တွေ့": 8032,
      "လေးစား": 8033,
      "ၵူၼ်းဝၢၼ်ႈၵူၼ်းမိူင်း": 8034,
      "အဂးတၭ": 8035,
      "ၼပ်ႉႁူဝ်": 8036,
      "စိတၢ်ကမီၤ": 8037,
      "Tai": 8038,
      "Uk": 8039,
      "ပသး": 8040,
      "လောင်း": 8041,
      "အ့ၣ်": 8042,
      "ꤓꤢꤨ꤭": 8043,
      "ဘၪတၭ": 8044,
      "နိုင်သလဲ": 8045,
      "ramdang": 8046,
      "ṭhek": 8047,
      "လျော့": 8048,
      "အဖိၪအလံၩ": 8049,
      "Amor": 8050,
      "ဢမ်ႇလႆႈႁူႉ": 8051,
      "ၵေႃႁူမ်ႈသၢင်ႈ": 8052,
      "ငါ့": 8053,
      "ႁွတ်ႈၽႅဝ်": 8054,
      "ပြည့်စုံ": 8055,
      "ႁေႃႈၵႃး": 8056,
      "ၸုမ်းဢူၺ်းလီပွတ်းႁွင်ႇ": 8057,
      "ကိုးကွယ်": 8058,
      "သပ်းလႅင်း": 8059,
      "36": 8060,
      "Asi": 8061,
      "ran": 8062,
      "zel": 8063,
      "ဧက": 8064,
      "ၵူဝ်း": 8065,
      "လႆႈပၢႆႈ": 8066,
      "မႃးယဝ်ႉ": 8067,
      "ꤥ꤬ꤗ": 8068,
      "khatpeuh": 8069,
      "ၥၭၡါ": 8070,
      "ၸဝ်ႈၵႃး": 8071,
      "ၸဝ်ႈၼႃး": 8072,
      "မၢလီၤ": 8073,
      "လှဲ": 8074,
      "ပဲၢ်": 8075,
      "dip": 8076,
      "ဘယ်သူ": 8077,
      "အကြမ်း": 8078,
      "ၼွင်ၶဵဝ်": 8079,
      "ထိးအၥၭ": 8080,
      "Cutiih": 8081,
      "hremnak": 8082,
      "Kumpipa": 8083,
      "lawn": 8084,
      "muan": 8085,
      "ဂၫ": 8086,
      "စရိတ်": 8087,
      "တံာ်": 8088,
      "ဘဧၤ": 8089,
      "ယဝ့ၫဒၪယီၩ": 8090,
      "ၵဝ်ႈ": 8091,
      "မိူၵ်ႈ": 8092,
      "မိူင်းၼၢႆး": 8093,
      "အိၣ်ဖှိၣ်": 8094,
      "phur": 8095,
      "ပီလူး": 8096,
      "veng": 8097,
      "အနၫ့": 8098,
      "ၶႅၵ်ႇ": 8099,
      "နီတဘျီ": 8100,
      "ꤕꤜꤝꤢ꤭": 8101,
      "PPST": 8102,
      "Tuu": 8103,
      "ပွင်ႇၶၢဝ်ႇ": 8104,
      "changreu": 8105,
      "ဖျီၪထၪ့": 8106,
      "kotka": 8107,
      "ယှဉ်": 8108,
      "ညစ်": 8109,
      "တီတလိၤ": 8110,
      "kilawm": 8111,
      "ၵေႃႉၼႆႉ": 8112,
      "ရှိလာ": 8113,
      "ရေးကော်မတီ": 8114,
      "ခဲ့ရ": 8115,
      "ခြင်းက": 8116,
      "အဝ့ၫၥံၪမိ": 8117,
      "ပႃႇတီႇၼူၵ်ႉယုင်း": 8118,
      "deihna": 8119,
      "အလိမ္မာ": 8120,
      "king": 8121,
      "ကသ့ၣ်": 8122,
      "တထံၣ်": 8123,
      "ၵီႊ": 8124,
      "ꤞꤢ": 8125,
      "ꤠ꤫ꤢꤧ꤬": 8126,
      "cuang": 8127,
      "ယူး": 8128,
      "ဒဲလၧအ": 8129,
      "phuan": 8130,
      "ဆိုတယ်": 8131,
      "ၶၢမ်ႇ": 8132,
      "ၸၢႆးဢွင်ႇ": 8133,
      "လိၵ်ႈႁူမ်ႈ": 8134,
      "ယဲၩ့": 8135,
      "အနီး": 8136,
      "ပိူင်ငဝ်ႈ": 8137,
      "ယ့ၣ်ၡူးခရံာ်": 8138,
      "ကနၢ": 8139,
      "ရဲတပ်ဖွဲ့": 8140,
      "တဘျီဃီ": 8141,
      "ၸေႈဝဵင်း": 8142,
      "အဖျဲ": 8143,
      "zihmui": 8144,
      "ီးယား": 8145,
      "လၢစီၤပၤ": 8146,
      "လၧမ့ၪ": 8147,
      "လီႈ": 8148,
      "ပွံၭ": 8149,
      "ႁူး": 8150,
      "ari": 8151,
      "သွၼ်း": 8152,
      "ၸွႆး": 8153,
      "မြန်း": 8154,
      "ၼမ်ႉၵတ်ႉ": 8155,
      "ပုတ်ႉထ": 8156,
      "ၵၢင်ၶမ်ႈ": 8157,
      "ꤖꤚꤢꤩ꤬ꤛ꤫ꤢꤦ꤬ꤢꤩ꤬": 8158,
      "phunphun": 8159,
      "အါအါ": 8160,
      "ꤊꤜ꤫ꤢꤪ꤬": 8161,
      "giah": 8162,
      "ၸုမ်ႈ": 8163,
      "ၶၼ်ငိုၼ်း": 8164,
      "ဒုၪဒွ့ၪ": 8165,
      "လၢမ်းၽႄႈ": 8166,
      "ၶၢပ်ႈတူဝ်": 8167,
      "rawk": 8168,
      "ရၢင်း": 8169,
      "လဳၤ": 8170,
      "ဧ့ၤ": 8171,
      "တွေး": 8172,
      "ႁဵတ်းၸွမ်း": 8173,
      "လၢတ်ႈၼင်ႇၼႆ": 8174,
      "ပြောခဲ့တယ်": 8175,
      "ၶဝ်တေ": 8176,
      "မှုနဲ့": 8177,
      "ထားပါ": 8178,
      "omnak": 8179,
      "ႁႂ်ႈပေႃး": 8180,
      "တႅၵ်ႈ": 8181,
      "ရ့ၭ": 8182,
      "မံၩ့လၬ": 8183,
      "ကိၭၡၭ": 8184,
      "riahhmun": 8185,
      "ထောက်ခံ": 8186,
      "ဆၫလနံၩယီၩ": 8187,
      "ႁႆႈၼႃး": 8188,
      "ယဵပ်ႇၺႃးမၢၵ်ႇ": 8189,
      "kikhopna": 8190,
      "nungzuite": 8191,
      "Mor": 8192,
      "ဃါ": 8193,
      "နဝ့ၫဒၪ": 8194,
      "ဖ့ၬ": 8195,
      "အထီး": 8196,
      "ၵၼ်ႉ": 8197,
      "မ်မ": 8198,
      "နေပြီ": 8199,
      "hem": 8200,
      "အီၤဘၣ်": 8201,
      "lungto": 8202,
      "တဂၤဒီး": 8203,
      "ဢွၵ်ႇၼႄၵၢင်ၸႂ်": 8204,
      "ယဟိဝၩဧ့": 8205,
      "မိူၼ်ၸိူင်ႉ": 8206,
      "လူႉသဵင်ႈ": 8207,
      "တုၵ်းယွၼ်းႁႂ်ႈ": 8208,
      "sanggamte": 8209,
      "သႃသၼႃ": 8210,
      "tangin": 8211,
      "ဆောင်း": 8212,
      "အတဲၩ": 8213,
      "ၽဵင်း": 8214,
      "aite": 8215,
      "တွေလည်း": 8216,
      "နှီ": 8217,
      "ၵႂႃႇထႅင်ႈ": 8218,
      "ထုၭ": 8219,
      "အဝဲသ့ၣ်လၢ": 8220,
      "ၸႄႈဝဵင်းၼမ်ႉတူႈ": 8221,
      "ႁူဝ်ၼႃႈ": 8222,
      "စုပေါင်း": 8223,
      "ꤤ꤬ꤏꤢꤩ꤭": 8224,
      "အၪ့စၪ့": 8225,
      "အကျင့်": 8226,
      "နီၢ်ရူၤသး": 8227,
      "နေပြည်တော်တွင်": 8228,
      "zahnak": 8229,
      "bochan": 8230,
      "တမ့ၢ်ဘၣ်": 8231,
      "ꤒꤢ꤭ꤒꤢꤩ꤬": 8232,
      "ratpi": 8233,
      "shafat": 8234,
      "ၾၢင်ႁၢင်ႈ": 8235,
      "hat": 8236,
      "ဒၩ့": 8237,
      "သဳာ်": 8238,
      "ꤎꤢ꤬": 8239,
      "ꤏꤢꤩ꤬": 8240,
      "ꤚꤤ": 8241,
      "တၢ်က": 8242,
      "loah": 8243,
      "ပဵၼ်လွင်ႈ": 8244,
      "ယၢၤ": 8245,
      "ယၢမ်းႁူဝ်ၶမ်ႈ": 8246,
      "ကွံာ်ပှၤ": 8247,
      "genin": 8248,
      "serh": 8249,
      "ကိၭထၪ့": 8250,
      "ၶွၼ်ႈတုမ်": 8251,
      "ၼႅတ်ႈ": 8252,
      "သွၵ်ႈတဝ်": 8253,
      "Elea": 8254,
      "zon": 8255,
      "ဒၧၫ့": 8256,
      "ယၼ်": 8257,
      "ယစ်": 8258,
      "ဝလ်း": 8259,
      "ဢၢၼ်ႇ": 8260,
      "ဧသ": 8261,
      "တီႈလႂ်": 8262,
      "မိၡါ": 8263,
      "မၼ်းတေ": 8264,
      "ၸႄႈဝဵင်းၵဵင်းတုင်": 8265,
      "အနာ": 8266,
      "ပၢဘၣ်တၢ်": 8267,
      "nopna": 8268,
      "ပႆႇႁူႉ": 8269,
      "lengah": 8270,
      "အါထီၣ်": 8271,
      "ပညာအလိမ္မာ": 8272,
      "အၪထၪ့": 8273,
      "ပူၼ်ႉမႃးၼႆႉ": 8274,
      "လၢကီၢ်အဲၤကူပတူး": 8275,
      "ꤢ꤬ꤜ꤫ꤢꤩ꤬": 8276,
      "ဖီခိၣ်": 8277,
      "ဟိဝၩ": 8278,
      "timh": 8279,
      "သန့်ရှင်း": 8280,
      "fin": 8281,
      "ပၥၭ": 8282,
      "အတီၢ်": 8283,
      "ꤢ꤬ꤞꤢꤧꤔꤢꤧ": 8284,
      "လူၢ်": 8285,
      "နီၪမိ": 8286,
      "ဖျံၩ": 8287,
      "ၶူဝ်ႊရူဝ်ႊ": 8288,
      "ပႆႇမီး": 8289,
      "lawinak": 8290,
      "tlangval": 8291,
      "damter": 8292,
      "တီၩလလီၩ့": 8293,
      "siampite": 8294,
      "ဂၢၢ်ကျၢၤ": 8295,
      "ၾူၼ်တူၵ်း": 8296,
      "Zohhmanh": 8297,
      "minthanna": 8298,
      "စမ": 8299,
      "ယနေ့": 8300,
      "ꤘꤥ꤬": 8301,
      "လူဝ်ႊ": 8302,
      "မိူင်းပၼ်ႇ": 8303,
      "လွမ်": 8304,
      "တဖၣ်အဂီၢ်": 8305,
      "bil": 8306,
      "ပၼ်တူတ်ႈတၢမ်ႇ": 8307,
      "ယိလါ": 8308,
      "စိတ်ဝင်": 8309,
      "ၼိူဝ်သဵၼ်ႈတၢင်း": 8310,
      "စကားကို": 8311,
      "အင်အား": 8312,
      "hriam": 8313,
      "ဝႅတ်ႉ": 8314,
      "လၧဂၪ့ခိၪချိၫ့": 8315,
      "ပျီၩပျီၩ": 8316,
      "နးမံၩ့အ့ၬ": 8317,
      "စအ": 8318,
      "တလါ": 8319,
      "ဓူ": 8320,
      "ဘ့း": 8321,
      "အထူ": 8322,
      "ꤕ꤫ꤢꤦ꤬": 8323,
      "thak": 8324,
      "cule": 8325,
      "ဒီးလၢ": 8326,
      "ရှံ": 8327,
      "ဢမ်ႇၶႂ်ႈ": 8328,
      "ဢွၵ်ႊ": 8329,
      "အခမ်း": 8330,
      "ဖြစ်သူ": 8331,
      "ဖြစ်စဉ်": 8332,
      "တာမျိုး": 8333,
      "ခဲ့ရတယ်": 8334,
      "ဖျီး": 8335,
      "etna": 8336,
      "kaltu": 8337,
      "ꤊꤜꤥ꤭": 8338,
      "ဂုဏ်": 8339,
      "တမ်းဝၢင်း": 8340,
      "ပွင်ႇဝႃႈ": 8341,
      "လယ်ယာ": 8342,
      "Per": 8343,
      "lua": 8344,
      "otu": 8345,
      "rum": 8346,
      "သနာ်က့": 8347,
      "ၼီႈ": 8348,
      "မိၼ်ႉ": 8349,
      "ဖိထၢ": 8350,
      "ကွီၢ်": 8351,
      "ၸဝ်ႈႁႆႈ": 8352,
      "taksa": 8353,
      "လူင်းႁူင်းယႃ": 8354,
      "စည်းကမ်း": 8355,
      "ယိၤနါ": 8356,
      "bok": 8357,
      "ႁဵတ်းႁႂ်ႈၵူၼ်းမိူင်း": 8358,
      "Jehoshafat": 8359,
      "နၧၫ့မၧၫ့": 8360,
      "အထက်ပါ": 8361,
      "လိၵ်ႈႁူမ်ႈမၢႆ": 8362,
      "vam": 8363,
      "တကျ": 8364,
      "လနၩ့": 8365,
      "awhnak": 8366,
      "lotu": 8367,
      "မူလ": 8368,
      "စီၤဟ": 8369,
      "atak": 8370,
      "sungkhat": 8371,
      "sakol": 8372,
      "သက်သာ": 8373,
      "ဆံၭး": 8374,
      "လၢနက": 8375,
      "ဆေးဝါး": 8376,
      "လုပ်ငန်းစဉ်": 8377,
      "vantungmi": 8378,
      "ꤕꤣꤧꤞꤢꤩ꤬ꤑꤢꤩ꤭": 8379,
      "မုင်ႈမွင်း": 8380,
      "ၻွၵ်ႊတိူဝ်ႊ": 8381,
      "အဆိ": 8382,
      "ၽျ": 8383,
      "လၢညါ": 8384,
      "ၼႆၼၼ်ႉ": 8385,
      "မိူင်းသၢတ်ႇ": 8386,
      "ဒဲလၧဆၧ": 8387,
      "phuang": 8388,
      "လိူင်ႇ": 8389,
      "စီရင်": 8390,
      "ၸုမ်းၵူၼ်းၼုမ်ႇတႆး": 8391,
      "ၸဝ်ႈႁၢၼ်": 8392,
      "rit": 8393,
      "လုပ်ကိုင်": 8394,
      "ဖဲယ": 8395,
      "စိစစ်": 8396,
      "တ့ၢ်တၢ်": 8397,
      "တိူဝ်း": 8398,
      "တႅၼ်းၽွင်း": 8399,
      "ၵႅၼ်ႇ": 8400,
      "khawhnak": 8401,
      "ပိုင်းမိူင်း": 8402,
      "မူးယစ်": 8403,
      "piangsak": 8404,
      "farah": 8405,
      "ဘၩဆိၪဖၪ": 8406,
      "tlawmpal": 8407,
      "လူတ်းယွမ်း": 8408,
      "အိၭလိၬ": 8409,
      "Gam": 8410,
      "ကန့်": 8411,
      "ယခင်": 8412,
      "ၡိ": 8413,
      "ꤘꤤ꤭": 8414,
      "လီၣ်": 8415,
      "ၵူၼ်းထဝ်ႈ": 8416,
      "လၢအသး": 8417,
      "kaltak": 8418,
      "ningin": 8419,
      "စကားပြော": 8420,
      "ဖၫရိၫ": 8421,
      "shekel": 8422,
      "ၶၵ်ႉၵၢၼ်": 8423,
      "ၵူႈလွင်ႈလွင်ႈ": 8424,
      "ဖလံၡၫဖိၪ": 8425,
      "ကလာ်": 8426,
      "တၧၫ": 8427,
      "အဖြေ": 8428,
      "အမုနံၩ": 8429,
      "ူာ်": 8430,
      "tiam": 8431,
      "လုၣ်": 8432,
      "biah": 8433,
      "ခြံ": 8434,
      "စာချုပ်": 8435,
      "ဟဲလီၤ": 8436,
      "လျင်": 8437,
      "chuahlei": 8438,
      "ၸိုဝ်ႈသဵင်": 8439,
      "ဟံးဃာ်": 8440,
      "Tiva": 8441,
      "ဋ္ဌာန်း": 8442,
      "လေႃႇတိုၵ်း": 8443,
      "KIA": 8444,
      "Sar": 8445,
      "lih": 8446,
      "အသံ": 8447,
      "တၢ်ကမၣ်": 8448,
      "ဆၧအီၪ": 8449,
      "တဖၣ်အကျါ": 8450,
      "ၼႂ်းပွၵ်ႉ": 8451,
      "အိၣ်ဘှံး": 8452,
      "hruang": 8453,
      "ၵေႃႈယဝ်ႉ": 8454,
      "ၵႂႃႇၸွမ်း": 8455,
      "ꤒꤣꤧ꤬ꤡ": 8456,
      "ꤒꤣꤧ꤬ꤘꤢꤦ꤬": 8457,
      "liam": 8458,
      "ဆူပှၤ": 8459,
      "ကိၤ": 8460,
      "အခါန့ၣ်": 8461,
      "လုံးဝ": 8462,
      "ယၧၩတၭ": 8463,
      "အရမ်း": 8464,
      "pumh": 8465,
      "အဖွဲ့ဝင်": 8466,
      "ယၢၼ်ၵႆ": 8467,
      "လမံၩ့လဲၪ": 8468,
      "အဂ့ၤကတၢၢ်": 8469,
      "ဂရုစိုက်": 8470,
      "ကထိ": 8471,
      "စအၭ": 8472,
      "စယီ": 8473,
      "ဒၭ": 8474,
      "ပမ့ၢ်": 8475,
      "ဖယ်": 8476,
      "ယောင်": 8477,
      "angki": 8478,
      "ဒီးအတၢ်": 8479,
      "lopi": 8480,
      "ႁူဝ်ႉ": 8481,
      "pial": 8482,
      "တဲ့သူတွေ": 8483,
      "သိုၵ်းတဢၢင်း": 8484,
      "ႁဝ်းၼႆႉ": 8485,
      "manun": 8486,
      "ထားသည့်": 8487,
      "တဂၤအံၤ": 8488,
      "ꤗꤢꤩ꤬ꤞꤣꤧ꤭": 8489,
      "ချက်များ": 8490,
      "Mipa": 8491,
      "ငိုၼ်းၶႄႇ": 8492,
      "ယွၼ်ႉၼၼ်": 8493,
      "ၼႂ်းၸႄႈဝဵင်းသီႇပေႃႉ": 8494,
      "ဖော်ပြတယ်": 8495,
      "တောင်းဆို": 8496,
      "kiangkap": 8497,
      "သိူဝ်း": 8498,
      "ꤊꤢꤨꤔ꤫ꤢꤧ꤬ꤣꤧ꤭": 8499,
      "ꤜꤣꤧ꤬ꤕꤜꤢꤩꤊꤢ꤬": 8500,
      "ck": 8501,
      "ပရော": 8502,
      "ဖၢ": 8503,
      "အလေး": 8504,
      "ွၪ": 8505,
      "ꤔꤢꤧ꤭": 8506,
      "silh": 8507,
      "ပြဋ္ဌာန်း": 8508,
      "ဆၧနၭ": 8509,
      "သးစူၤ": 8510,
      "အဝဲမ့ၢ်": 8511,
      "အီၤဒ်": 8512,
      "ပေႃးထိုင်မႃး": 8513,
      "ခီဂာ်": 8514,
      "ပြုစု": 8515,
      "သွားမှာ": 8516,
      "ၶိုတ်း": 8517,
      "တမံၤမံၤ": 8518,
      "bur": 8519,
      "မွၵ်ႇလၢတ်ႈ": 8520,
      "ꤟꤢꤩꤏꤥ꤬ꤘꤥ꤬ꤔꤢꤧ꤭": 8521,
      "ရၢင်းဝလ်း": 8522,
      "ၶူဝ်ႊရူဝ်ႊၼႃႊ": 8523,
      "လထံၪ": 8524,
      "အၥၪ": 8525,
      "အထံၩ": 8526,
      "ꤚ꤫ꤥ꤬": 8527,
      "တၢ်ခဲ": 8528,
      "ကိုပဲ": 8529,
      "ပူၤကွံာ်": 8530,
      "hnuai": 8531,
      "Jehu": 8532,
      "စံးဝဲလၢ": 8533,
      "ꤖꤚꤢꤩ꤬ꤖꤚꤥ꤬": 8534,
      "မိုတ်ႈ": 8535,
      "thahat": 8536,
      "sunlawinak": 8537,
      "ၽိူမ်ႉ": 8538,
      "panga": 8539,
      "ဒေါသ": 8540,
      "အချို့": 8541,
      "ဒီပုၢ်ဝဲၢ်ခွါ": 8542,
      "ꤟꤢꤩꤏꤥ꤬ꤜꤥ꤭": 8543,
      "လႆႈငိၼ်းဝႃႈ": 8544,
      "kigelh": 8545,
      "အခမ်းအနား": 8546,
      "IC": 8547,
      "Mei": 8548,
      "Tapa": 8549,
      "ဏီ": 8550,
      "ပဝဲ": 8551,
      "အၦဒိၪ": 8552,
      "ၦလၧ": 8553,
      "ကြပ်": 8554,
      "ဘၣ်န့ၣ်": 8555,
      "လုပ်ႇ": 8556,
      "nihte": 8557,
      "ခြင်": 8558,
      "အဆၧချဲၩ့": 8559,
      "ၵူႈတီႈ": 8560,
      "အဖိၪခွၫလဖၪ": 8561,
      "အမျိုးမျိုး": 8562,
      "ပှၢ်မုၢ်": 8563,
      "သေတႃႉၵေႃႈ": 8564,
      "ကံယၤ": 8565,
      "မဲဆန္ဒနယ်": 8566,
      "ႁူမ်ၸူမ်း": 8567,
      "kawm": 8568,
      "တစဲး": 8569,
      "ယႆ": 8570,
      "အထံ": 8571,
      "ꤢꤩꤖꤢꤨ": 8572,
      "နိုင်အောင်": 8573,
      "ၼိုင်ႈၵေႃႉ": 8574,
      "တကလုာ်": 8575,
      "gamte": 8576,
      "သူတို့ကို": 8577,
      "ၸႄႈတွၼ်ႈလွႆလႅမ်": 8578,
      "တေႃႇထိုင်ဝၼ်းမိူဝ်ႈၼႆႉ": 8579,
      "လၢအအိၣ်ဒီး": 8580,
      "ထောက်ပံ့": 8581,
      "ပြည်သူ့လွှတ်တော်ကိုယ်စားလှယ်": 8582,
      "Daniel": 8583,
      "Hebron": 8584,
      "ကြေညာ": 8585,
      "ဆၭ": 8586,
      "နတ်": 8587,
      "ယႂ": 8588,
      "ယံၬ": 8589,
      "ယဝ့်": 8590,
      "လော့": 8591,
      "ၨၪ": 8592,
      "င်ႊ": 8593,
      "လႆႈမၢတ်ႇၸဵပ်း": 8594,
      "မႃးယူႇ": 8595,
      "မၤလီၤ": 8596,
      "ၵၼ်ဝႆႉ": 8597,
      "တာတွေ": 8598,
      "hnawm": 8599,
      "မှုရှိ": 8600,
      "ၶဝ်ႈၵၢပ်ႇ": 8601,
      "ဟုပြောသည်": 8602,
      "လှစ်": 8603,
      "ဟဲတုၤ": 8604,
      "ၵမ်းထူၼ်ႈ": 8605,
      "အဖိမုၣ်": 8606,
      "အခိၣ်အနၢ်": 8607,
      "zohhmanh": 8608,
      "အာဗြ": 8609,
      "zumnak": 8610,
      "န္ဓာ": 8611,
      "လျှပ်": 8612,
      "အဖၫ့လၬ": 8613,
      "ဘြဟၫ့": 8614,
      "zakip": 8615,
      "Simon": 8616,
      "Ke": 8617,
      "Sat": 8618,
      "စခန်း": 8619,
      "ပံ": 8620,
      "ၥီၫ": 8621,
      "ၵိၼ်း": 8622,
      "တၢ်ဆၢကတီၢ်": 8623,
      "ၩ့အ": 8624,
      "လူတွေကို": 8625,
      "တူမ်း": 8626,
      "ၼႂ်းၸုမ်း": 8627,
      "လၧအဝ့ၫဒၪ": 8628,
      "ကွံၩ": 8629,
      "ဖြစ်နိုင်တယ်": 8630,
      "ၸဝ်ႈသၢင်ႇ": 8631,
      "ၶဝ်ႈမိူင်း": 8632,
      "ပာ်သး": 8633,
      "ၼႃႈႁိူၼ်း": 8634,
      "ပၢၼ်း": 8635,
      "လဲၤတၢ်": 8636,
      "ၼၢင်းမူဝ်": 8637,
      "ဝံထၪ့န": 8638,
      "အအိၣ်လီၤ": 8639,
      "ရှင်းပြ": 8640,
      "တောင်သူ": 8641,
      "တက်ရောက်": 8642,
      "luatter": 8643,
      "ၵူၼ်းၸပ်းတၢင်းပဵၼ်": 8644,
      "ပၢ်ဖံဖုလၢပျၢၤ": 8645,
      "400": 8646,
      "ကဘျ": 8647,
      "ညိ": 8648,
      "တသ့ၣ်ညါ": 8649,
      "ရမယ့်": 8650,
      "၃၃": 8651,
      "ၬဘံၭ": 8652,
      "ꤒꤢ꤬ꤚꤢꤨ": 8653,
      "khul": 8654,
      "ပှီၢ်": 8655,
      "မႃးၼၼ်ႉ": 8656,
      "laitak": 8657,
      "မြူ": 8658,
      "တဲၤတဲ": 8659,
      "ပာ်ကဲ": 8660,
      "cangmi": 8661,
      "ၼုင်ႈ": 8662,
      "တုၤဒၣ်လဲာ်": 8663,
      "lawngah": 8664,
      "တူၵ်းသႂ်ႇ": 8665,
      "ၶဵင်ႇ": 8666,
      "တဵင်": 8667,
      "paohpaoh": 8668,
      "ကြိုတင်": 8669,
      "ႁႃၵိၼ်လဵင်ႉတွင်ႉ": 8670,
      "ယင်ႉ": 8671,
      "ရအောင်": 8672,
      "ၼိူ": 8673,
      "ကျံၩ": 8674,
      "ပါပြီ": 8675,
      "ဢမ်ႇႁၼ်": 8676,
      "thukhen": 8677,
      "နိုင်စွမ်း": 8678,
      "ၸဝ်ႈသိုၵ်း": 8679,
      "ဖဲသု": 8680,
      "ပြည်သူများ": 8681,
      "လဂၩဂၩ": 8682,
      "ယေႃ": 8683,
      "စေချင်": 8684,
      "ဢုပ်ႇၶႆႈ": 8685,
      "တူၵ်းၶွၵ်ႈ": 8686,
      "ꤕꤢ꤭ꤔꤣꤧ꤬": 8687,
      "အကျၩလီၫ": 8688,
      "ၵုမ်းတူဝ်": 8689,
      "ၵုမ်းၶင်": 8690,
      "သပှၢ်ကတၢၢ်": 8691,
      "ငိူင်ႉ": 8692,
      "ရွံန့": 8693,
      "giahphual": 8694,
      "Va": 8695,
      "စၭ": 8696,
      "ဓဳ": 8697,
      "ယဝ့ၫ": 8698,
      "ယရုစလံၫ့": 8699,
      "khung": 8700,
      "လၢင်ႉ": 8701,
      "ကြၨၭ": 8702,
      "ၵၼ်ၵႂႃႇ": 8703,
      "သင်တန်း": 8704,
      "လၩ့ဆိၩ": 8705,
      "ပိၼ်ႇ": 8706,
      "ꤕꤢꤩ꤬ꤒꤢ꤬ꤚꤢꤨ": 8707,
      "Davidʼ": 8708,
      "ၶူဝ်းၵုၼ်ႇ": 8709,
      "Bia": 8710,
      "လဂ့ၩး": 8711,
      "keel": 8712,
      "နမိဘၪ": 8713,
      "အများစု": 8714,
      "ၸႄႈဝဵင်းမိူင်းၵိုင်": 8715,
      "တခြားသူတွေ": 8716,
      "ꤒꤣ꤬ꤖꤥ꤬": 8717,
      "ကာကွယ်ရေး": 8718,
      "ပိူင်ငဝ်ႈပိုင်းမိူင်း": 8719,
      "Eleazar": 8720,
      "ပၢဘၣ်တၢ်ခဲလၢာ်": 8721,
      "ၽျၢၵ်ႈ": 8722,
      "ပရောဖက်": 8723,
      "kem": 8724,
      "zuk": 8725,
      "ကဏ္ဍ": 8726,
      "အမူ": 8727,
      "တီႈၼၼ်ႈ": 8728,
      "ၵူၼ်းတၢႆ": 8729,
      "ဢၼ်ႁဝ်း": 8730,
      "ရေးသား": 8731,
      "ခံဆံ": 8732,
      "riak": 8733,
      "လုပ်ရပ်": 8734,
      "ၸၢႆးထုၼ်း": 8735,
      "ၸွမ်းလႅၼ်လိၼ်": 8736,
      "ထွေး": 8737,
      "ဟဲဆူ": 8738,
      "ယွၼ်ႉတၢင်းပဵၼ်ၶူဝ်ႊဝိတ်ႉ": 8739,
      "စံးဘၣ်အဝဲသ့ၣ်": 8740,
      "အကြောင်းရင်း": 8741,
      "လၢသုက": 8742,
      "ဘၪဆဲၫ့လၧ": 8743,
      "အန့ၣ်ဝံၤ": 8744,
      "ဖမ်းဆီး": 8745,
      "ယိၤၡူ": 8746,
      "ၵီႊလူဝ်ႊ": 8747,
      "Satan": 8748,
      "DF": 8749,
      "က့ၭ": 8750,
      "စၢ": 8751,
      "နမၩ": 8752,
      "မဟာ": 8753,
      "သူႉ": 8754,
      "ထုးထီၣ်": 8755,
      "ခဲ့သော": 8756,
      "ၵုမ်ႇ": 8757,
      "dia": 8758,
      "အၪလ့ၬ": 8759,
      "အမျိုးသားလွှတ်တော်": 8760,
      "သမ္မာကျမ်းစာမှာ": 8761,
      "တိုဝ်ႉတၢင်း": 8762,
      "ကၣ်": 8763,
      "ခန္ဓာ": 8764,
      "ငေႃႉ": 8765,
      "ဓဲ": 8766,
      "နောင်": 8767,
      "မဆါ": 8768,
      "အဳ": 8769,
      "၃၅": 8770,
      "ၼေႃႈ": 8771,
      "ဒီးဒုး": 8772,
      "ၥံၪလီၫ": 8773,
      "per": 8774,
      "လၩ့ကၠၪ": 8775,
      "လၩ့ထံၩဖါ": 8776,
      "Himi": 8777,
      "အဂ့ၢ်န့ၣ်လီၤ": 8778,
      "ဝႆႉတီႈႁူင်းယႃ": 8779,
      "haotu": 8780,
      "တိုက်တွန်း": 8781,
      "pilna": 8782,
      "အလုၢ်အ": 8783,
      "အကြမ်းဖက်": 8784,
      "အနၫ့ဆါ": 8785,
      "Kor": 8786,
      "WS": 8787,
      "hing": 8788,
      "ဃိး": 8789,
      "ဌေး": 8790,
      "ပသူ": 8791,
      "ပဏီ": 8792,
      "ဖေ": 8793,
      "ဖၩ": 8794,
      "အလူၬ": 8795,
      "ꤕꤢꤨ꤭": 8796,
      "ဒီးကယဲၢ်": 8797,
      "မီးသုၼ်ႇ": 8798,
      "hlat": 8799,
      "တင်းသွင်": 8800,
      "တကး": 8801,
      "ယူႇတီႈၾၢႆႇ": 8802,
      "အနိၭ": 8803,
      "လိူၼ်ၼႆႉ": 8804,
      "ယႃၶႅၼ်း": 8805,
      "kongpi": 8806,
      "cihna": 8807,
      "ၸိူဝ်ႉၸၢတ်ႈတႆး": 8808,
      "neihmi": 8809,
      "ၸိုဝ်ႈႁွင်ႉ": 8810,
      "ယိူဝ်ႊ": 8811,
      "kulhnak": 8812,
      "huih": 8813,
      "ဂုးခၧၫ့": 8814,
      "ဆုၬဆုၬ": 8815,
      "hehpihna": 8816,
      "မတ်ႉတႃ": 8817,
      "ၵိူဝ်းၵုမ်": 8818,
      "ge": 8819,
      "hawm": 8820,
      "ၸဝ်ႉ": 8821,
      "ꤜ꤫ꤢꤪ꤬": 8822,
      "င်းၵ": 8823,
      "တၢ်ခဲလၢာ်": 8824,
      "မူဝ်း": 8825,
      "ယဝ်ႉတူဝ်ႈ": 8826,
      "တော်တော်": 8827,
      "ထုး": 8828,
      "rial": 8829,
      "ၶူၼ်ႉ": 8830,
      "ပေးခြင်း": 8831,
      "မၢၵ်ႇၶေႃ": 8832,
      "ကုမ္": 8833,
      "ၸတ်းႁဵတ်းတီႈ": 8834,
      "ꤗꤢꤧꤕꤢꤨ꤭": 8835,
      "ကီတၢ်ခဲ": 8836,
      "တေႃႈလဵဝ်ၼႆႉ": 8837,
      "ṭhenkhat": 8838,
      "dinnak": 8839,
      "မီဒီ": 8840,
      "ꤕ꤫ꤥ꤬ꤠ꤫ꤢꤧ꤬": 8841,
      "ကွ့ၭအၥၭ": 8842,
      "ဒ်န့ၣ်အသိး": 8843,
      "အကောင်းဆုံး": 8844,
      "ဘွၩ": 8845,
      "ပှၢ်မုၢ်ကနၢ": 8846,
      "ကုမ္ပဏီ": 8847,
      "der": 8848,
      "စံၫ": 8849,
      "တန့ၢ်": 8850,
      "ဖွေ": 8851,
      "ယီၣ်": 8852,
      "လဘီၩ့": 8853,
      "ၵႅင်း": 8854,
      "ꤛꤥ꤭": 8855,
      "ၵူၼ်ႇ": 8856,
      "ဒီးစံးဝဲ": 8857,
      "kiciam": 8858,
      "ၼၼ်ႉသမ်ႉ": 8859,
      "သုၼ်": 8860,
      "သုကဘၣ်": 8861,
      "တၢင်းၽိတ်း": 8862,
      "dot": 8863,
      "khol": 8864,
      "အၪဂၩ": 8865,
      "paknamtui": 8866,
      "Sing": 8867,
      "zual": 8868,
      "ထမ်မ": 8869,
      "ဘၱ": 8870,
      "မလို": 8871,
      "အဘၭ": 8872,
      "ꤗꤢ": 8873,
      "hileh": 8874,
      "ကြောက်": 8875,
      "hmel": 8876,
      "သွဲၣ်": 8877,
      "ၼမ်ႉမၼ်း": 8878,
      "ပေးတဲ့": 8879,
      "ပြည်တွင်း": 8880,
      "နှစ်ဦး": 8881,
      "နိုင်ငံတကာ": 8882,
      "လွှာ": 8883,
      "ၸေႃႇ": 8884,
      "ကုန်း": 8885,
      "ၵူတ်ႇထတ်းႁၼ်": 8886,
      "ဟီၣ်ခိၣ်ဖိ": 8887,
      "nganmi": 8888,
      "ပှၤတဂၤလၢအ": 8889,
      "အိၫ့": 8890,
      "ဒ်လဲၣ်န့ၣ်": 8891,
      "limtakin": 8892,
      "ကျိာ်": 8893,
      "thaizing": 8894,
      "cikcek": 8895,
      "ṭhutdan": 8896,
      "မူဝ်ႊၶရေႊသီႊ": 8897,
      "UWS": 8898,
      "gual": 8899,
      "အပြီး": 8900,
      "အနံၤ": 8901,
      "အဘါ": 8902,
      "ဢိၼ်ႊ": 8903,
      "။၎": 8904,
      "တုံ့": 8905,
      "ꤗꤢꤩ꤬ꤡꤝ꤫ꤢ꤬": 8906,
      "ထွ့ၪ": 8907,
      "လိူၼ်မေႊ": 8908,
      "နီၢ်အ့ၤစတၢ်": 8909,
      "တၢ်လၢန": 8910,
      "တမံၤဃီ": 8911,
      "ႁႅင်ႈ": 8912,
      "ziangtin": 8913,
      "Kannih": 8914,
      "ကလေးကို": 8915,
      "ခီဖျိလၢ": 8916,
      "လၵ်းမိူင်း": 8917,
      "မ့ၬၥၪ": 8918,
      "ကောင်းကင်တမန်": 8919,
      "tahratin": 8920,
      "38": 8921,
      "Nun": 8922,
      "mal": 8923,
      "နအ့ၪ": 8924,
      "ယစံၭ": 8925,
      "ၶၢႆး": 8926,
      "ၶေႃး": 8927,
      "ဝဲဖဲ": 8928,
      "ကျွမ်း": 8929,
      "hmuan": 8930,
      "ပဵၼ်ၽူႈ": 8931,
      "ဘဲၫအ": 8932,
      "ပၢင်ၼႄၵၢင်ၸႂ်": 8933,
      "ꤒꤣꤧ꤬ꤜ": 8934,
      "လဵတ်ႈ": 8935,
      "saknak": 8936,
      "ahihna": 8937,
      "siatnak": 8938,
      "cahnak": 8939,
      "khinta": 8940,
      "မှန်ကန်": 8941,
      "ၽႅၼ်ႇ": 8942,
      "Cutiin": 8943,
      "ထုင်ႉမၢဝ်း": 8944,
      "ရှာဖွေ": 8945,
      "ဒုၣ်အဒါ": 8946,
      "ၵႅတ်ႇၵင်ႈ": 8947,
      "ဒိၭနဲၩ့": 8948,
      "အတိုင်ပင်ခံပုဂ္ဂိုလ်": 8949,
      "ၵၼ်ႉၸၼ်": 8950,
      "gel": 8951,
      "ပဝ်ႇ": 8952,
      "ပနီၣ်": 8953,
      "ဖူ": 8954,
      "အို": 8955,
      "ဢီႈ": 8956,
      "ၵဝ်ႉ": 8957,
      "လၢမူခိၣ်": 8958,
      "မ့ၢ်မတၤ": 8959,
      "ဒၪလ့ၬ": 8960,
      "အဲၫ": 8961,
      "zir": 8962,
      "ꤟꤢꤩꤔꤣꤧ꤬ꤗꤢ꤬": 8963,
      "awktlak": 8964,
      "ယူႇတီႈလူင်ပွင်ၸိုင်ႈ": 8965,
      "ထႅမ်ႁႅင်းသိုၵ်း": 8966,
      "Keima": 8967,
      "khinzo": 8968,
      "donghnak": 8969,
      "တစ်ခုကို": 8970,
      "ၸမ်ၸႂ်": 8971,
      "လၧၫ့ထၪ့": 8972,
      "cawcang": 8973,
      "ဘာသာစကား": 8974,
      "ထိန်းချုပ်": 8975,
      "Bethel": 8976,
      "ခ့ၫနၡၩ": 8977,
      "ꤊꤝꤤ꤭ꤡꤢꤪꤙꤢꤩ꤭": 8978,
      "zuau": 8979,
      "နိုဝင်": 8980,
      "မီဒီယာ": 8981,
      "Hero": 8982,
      "lawi": 8983,
      "တမၤ": 8984,
      "ၵႃႊ": 8985,
      "ꤎꤢꤧ": 8986,
      "simin": 8987,
      "ဝဲဘၣ်": 8988,
      "ဝ့ၫလၧၦ": 8989,
      "ဢၼ်ယူႇ": 8990,
      "ဢၼ်ပၵ်း": 8991,
      "ဢမ်ႇလီ": 8992,
      "လၧအမ့ၬယၫ": 8993,
      "ဖြစ်ပွား": 8994,
      "တကဆှီ": 8995,
      "တႅတ်ႈ": 8996,
      "အၪ့ယၫ": 8997,
      "သူၣ်ပာ်သး": 8998,
      "kihei": 8999,
      "သင်ၶၸဝ်ႈလႄႈ": 9000,
      "ႁဵင်ပၢႆ": 9001,
      "တရုတ်": 9002,
      "ထိူမ်": 9003,
      "လွတ်လပ်": 9004,
      "bawngtal": 9005,
      "ၸွႆးတြႃး": 9006,
      "Hong": 9007,
      "tinak": 9008,
      "ကဳာ်": 9009,
      "လမွဲဘၪ": 9010,
      "ဘၣ်အၢ": 9011,
      "ရှေ": 9012,
      "အီၪဖျဲၪ": 9013,
      "ၵေႃႈလီ": 9014,
      "မွဲအမိ": 9015,
      "ယွၤလီၤ": 9016,
      "ꤒꤣꤧ꤬ꤖ": 9017,
      "ထားကြောင်း": 9018,
      "ပၢႆးမိူင်း": 9019,
      "ဆၧအီၩ": 9020,
      "အုၣ်အသး": 9021,
      "စူၢ်တၢ်နာ်": 9022,
      "Jehoia": 9023,
      "ကီၢ်အံၣ်စရ့လးအပှၤဂီၢ်မုၢ်": 9024,
      "စစီလူၫ": 9025,
      "ꤓꤢꤨ꤬ꤞꤢꤩ": 9026,
      "leenggahzu": 9027,
      "Phung": 9028,
      "dor": 9029,
      "ခၫ": 9030,
      "ဘဏ်": 9031,
      "မနၤ": 9032,
      "ဝင်းက": 9033,
      "ၡၫ့": 9034,
      "mifim": 9035,
      "ၩ့ထၪ့": 9036,
      "ကွင်း": 9037,
      "ကွန်": 9038,
      "တာလဲ": 9039,
      "နိုင်ရေး": 9040,
      "thluk": 9041,
      "ၶဝ်ဢမ်ႇ": 9042,
      "လဵဝ်ၵၼ်": 9043,
      "နိုင်ငံခြား": 9044,
      "ပႃႇတီႇသၢင်ႇသီႈ": 9045,
      "ပိုၼ်ႉႁူႉ": 9046,
      "ၽွင်းၶၢဝ်း": 9047,
      "စ္ဆာ": 9048,
      "အၡၩဂံၪ့ဖိၪ": 9049,
      "အဂံၪ့ဖၧၩ့": 9050,
      "ဖံးတၢ်မၤ": 9051,
      "ꤜ꤫ꤢꤩ꤬ꤥ꤬": 9052,
      "ယဵမ်ႈ": 9053,
      "ဒိးန့ၢ်ဘၣ်": 9054,
      "ဒုးတၢ်ယၤ": 9055,
      "ဖီၪ့ထၬ": 9056,
      "လျှပ်စစ်": 9057,
      "malte": 9058,
      "zom": 9059,
      "ဇီၤ": 9060,
      "ထပ်း": 9061,
      "ဘတ်": 9062,
      "သန": 9063,
      "အရေ": 9064,
      "၄၀": 9065,
      "ဒီးပာ်": 9066,
      "ꤢ꤬ꤊꤜꤢꤩ꤭": 9067,
      "ကြဘူး": 9068,
      "pipi": 9069,
      "ꤞꤤꤛꤢꤪ꤬": 9070,
      "တော်ကို": 9071,
      "ၶၢတ်ႈ": 9072,
      "သိင်ႇ": 9073,
      "lungkham": 9074,
      "leitungah": 9075,
      "ရုသ": 9076,
      "တပ်ႉသိုၵ်းတဢၢင်း": 9077,
      "နည်းနဲ့": 9078,
      "အဒၩ": 9079,
      "ꤢ꤬ꤚꤢꤧ": 9080,
      "မိၤအး": 9081,
      "သုံးသပ်ကြည့်ပါ": 9082,
      "natna": 9083,
      "ဃူတၢ်": 9084,
      "လၧအဂဲၫ": 9085,
      "ၵေႃလိၵ်ႈလၢႆးလႄႈၾိင်ႈငႄႈတႆး": 9086,
      "ရခိုင်ပြည်နယ်": 9087,
      "Piter": 9088,
      "37": 9089,
      "huat": 9090,
      "lekhat": 9091,
      "ဝဲဒ်": 9092,
      "မႃးသေ": 9093,
      "ဒဲနၥံၪ": 9094,
      "ဒဲၦလၧအ": 9095,
      "hnin": 9096,
      "ꤒꤢꤩ꤬ꤛ꤫ꤢꤦ꤬": 9097,
      "ၶဝ်ဝႃႈ": 9098,
      "လဖၪယီၩ": 9099,
      "လာပြီး": 9100,
      "ꤒꤣꤧ꤬ꤟꤢꤩ꤬ꤟꤢꤩ꤬": 9101,
      "ကဲအၫ": 9102,
      "ဘာမှ": 9103,
      "ဘုရားရဲ့": 9104,
      "ရင်ဆိုင်": 9105,
      "ဆိကတီၢ်": 9106,
      "theihna": 9107,
      "ပႃးတင်း": 9108,
      "ရူၢ်": 9109,
      "ပိုၼ်ၽၢဝ်ႇဝႆႉဝႃႈ": 9110,
      "သိုပ်ႇလၢတ်ႈၼႄၼင်ႇၼႆ": 9111,
      "ၥံၫကျံၩ": 9112,
      "lianpi": 9113,
      "ပွႆႇပၼ်": 9114,
      "လၬလၩ့": 9115,
      "တိုက်ခိုက်": 9116,
      "မွေးမြူ": 9117,
      "င်းၵလဵတ်ႈ": 9118,
      "ကညီ": 9119,
      "စံာ်": 9120,
      "ထၢၼ်": 9121,
      "ၵ့်": 9122,
      "thlei": 9123,
      "kas": 9124,
      "ဆၧဖၩ့": 9125,
      "လႆႈပဵၼ်ပၢင်တိုၵ်းၵၼ်": 9126,
      "ထီၣ်အသး": 9127,
      "တိရ": 9128,
      "ပေးခဲ့တယ်": 9129,
      "ဒဳး": 9130,
      "ဦးစား": 9131,
      "bangci": 9132,
      "လႅၼ်ႈ": 9133,
      "စေ့": 9134,
      "နီၫ": 9135,
      "တြီၤ": 9136,
      "ဆောင်ရွက်နေ": 9137,
      "စီၤအ့": 9138,
      "thawhter": 9139,
      "လူးၵွၼ်ႇ": 9140,
      "သီးနှံ": 9141,
      "အခိးမွဲ": 9142,
      "ပေႃႈမႄႈၵူၼ်းမိူင်း": 9143,
      "ခဲၩထၪ့": 9144,
      "fihnung": 9145,
      "vampang": 9146,
      "Rawl": 9147,
      "ဒၪ့": 9148,
      "ပဒိၣ်": 9149,
      "ယမၩ": 9150,
      "အဘီ": 9151,
      "ႁဵင်း": 9152,
      "ꤞꤢꤧ꤬": 9153,
      "လီၤမၢ်": 9154,
      "တီႈမူႇၸေႊ": 9155,
      "လီငၢမ်း": 9156,
      "လွန်း": 9157,
      "ပဵၼ်ၶၢဝ်း": 9158,
      "အဂူၫဂၩ": 9159,
      "တိုၼ်ႇ": 9160,
      "hlawt": 9161,
      "ဒၣ်တၢ်": 9162,
      "ပေႃးဢမ်ႇ": 9163,
      "ဘာလ": 9164,
      "ဢွၼ်ၵၼ်ၵႂႃႇ": 9165,
      "siasal": 9166,
      "မ်ႊၿိူဝ်ႊ": 9167,
      "လင်ၼိုင်ႈ": 9168,
      "တၢ်မၤလိာ်": 9169,
      "ႁွင်ႈၵၢၼ်ပၢႆးယူႇလီ": 9170,
      "လိမ့်မည်": 9171,
      "မီးၵူၼ်းတိတ်းၸပ်း": 9172,
      "ၺ်ႇၺႃႇ": 9173,
      "ngeihmi": 9174,
      "ကွဲၪ": 9175,
      "ꤒꤣꤧ꤬ꤔꤢꤩꤖꤢꤨ": 9176,
      "ချီဖၫ": 9177,
      "ꤗ꤫ꤢꤪ꤬ꤔꤣꤧ꤭": 9178,
      "galkapte": 9179,
      "karlak": 9180,
      "လုံခြုံရေး": 9181,
      "Pilat": 9182,
      "ၽဵင်းၵႂၢမ်း": 9183,
      "Nu": 9184,
      "nawh": 9185,
      "ပပှၢ်": 9186,
      "ကိုက်": 9187,
      "ဖြစ်လို့": 9188,
      "ပိုပြီး": 9189,
      "မှာတော့": 9190,
      "ပျၤ": 9191,
      "ဝႆႉၼႂ်း": 9192,
      "ထားခြင်း": 9193,
      "စုစုပေါင်း": 9194,
      "သက်တမ်း": 9195,
      "hngan": 9196,
      "dok": 9197,
      "ဢိင်းၵလဵတ်ႈ": 9198,
      "dekiah": 9199,
      "နေပြည်တော်ရှိ": 9200,
      "ၼူဝ်ႊ": 9201,
      "Zedekiah": 9202,
      "changvut": 9203,
      "ဘ့ၤသ": 9204,
      "chawnh": 9205,
      "Fa": 9206,
      "Mual": 9207,
      "နမူ": 9208,
      "ဘၧၩ့": 9209,
      "ꤙꤝꤤ": 9210,
      "misual": 9211,
      "thupi": 9212,
      "ဒီဇ": 9213,
      "Jez": 9214,
      "လၧဆၧနီၪ": 9215,
      "ဆ့ကၤ": 9216,
      "Amauʼ": 9217,
      "နၫ့ထၪ့ခွံၬ": 9218,
      "ၡါမု": 9219,
      "အိၣ်ဝဲဆိး": 9220,
      "ဒံၭလီၫ": 9221,
      "တဲ့အတိုင်း": 9222,
      "asiloah": 9223,
      "တွတ်ႈၶႅပ်း": 9224,
      "ဒိၣ်မးလီၤ": 9225,
      "ၶိၼ်ႇ": 9226,
      "ဢၢင်ႈ": 9227,
      "တၫ": 9228,
      "ပႃ": 9229,
      "လတ်း": 9230,
      "သဝ်": 9231,
      "အတီ": 9232,
      "ꤚ꤫ꤣꤧ꤬": 9233,
      "khom": 9234,
      "ကိုဗစ်": 9235,
      "လွၵ်ႇ": 9236,
      "သုတေ": 9237,
      "ဖြည့်": 9238,
      "mahin": 9239,
      "ၵေႃႈၼမ်": 9240,
      "chum": 9241,
      "လွင်ႈယၢပ်ႇၽိုတ်ႇ": 9242,
      "ṭhing": 9243,
      "ꤒꤣꤧ꤬ꤕꤜ": 9244,
      "မိူဝ်ႈၵူႈပွၵ်ႈ": 9245,
      "လၩ့လၭ": 9246,
      "ီၩ့ဆီ": 9247,
      "ကဲကုၢ်": 9248,
      "ဘျံၭ": 9249,
      "duhdawt": 9250,
      "ခဲလၢာ်လီၤ": 9251,
      "CSSU": 9252,
      "တရားမဝင်": 9253,
      "ဎွ့ၩန့": 9254,
      "ṭihnung": 9255,
      "ကွဲးနီၣ်": 9256,
      "ၼေႃႇၽူႈတႅၼ်း": 9257,
      "ထၢင်ႇထိူမ်": 9258,
      "ကျေနပ်": 9259,
      "စ္ဆာန်": 9260,
      "Puai": 9261,
      "cawng": 9262,
      "vah": 9263,
      "ဃၤ": 9264,
      "မႂ်ႈ": 9265,
      "ၥူၫ": 9266,
      "တၢ်အီၣ်": 9267,
      "teek": 9268,
      "ဆၧအလး": 9269,
      "ႃႇဝ": 9270,
      "ကြိုက်": 9271,
      "kipanin": 9272,
      "မျႃႉ": 9273,
      "ၵၼ်ႊ": 9274,
      "ၵေႃႈလႆႈ": 9275,
      "လဲၪ့": 9276,
      "ramsa": 9277,
      "လဵဝ်ၵူၺ်း": 9278,
      "ralring": 9279,
      "ကီၢ်ဘၤဘူၤလိၣ်": 9280,
      "မည်ဖြစ်သည်": 9281,
      "အထး": 9282,
      "vekpi": 9283,
      "အဆင့်": 9284,
      "Hihte": 9285,
      "တချို့က": 9286,
      "သွားမည်ဖြစ်ကြောင်း": 9287,
      "Bala": 9288,
      "Ja": 9289,
      "mul": 9290,
      "စလုံး": 9291,
      "ဟူး": 9292,
      "ꤕ꤫ꤢꤪ꤬": 9293,
      "ချံၫ": 9294,
      "ဖြး": 9295,
      "တၢင်းမိူင်းၶႄႇ": 9296,
      "အီၪအ့ၬ": 9297,
      "thuṭhen": 9298,
      "pho": 9299,
      "tungsak": 9300,
      "Jeri": 9301,
      "ကွံာ်အဝဲသ့ၣ်": 9302,
      "hopih": 9303,
      "ဟ့ၣ်ကူၣ်": 9304,
      "တင်ႈဢဝ်": 9305,
      "လၧနၭ": 9306,
      "ဝါဒ": 9307,
      "ႁိမ်းဝၢၼ်ႈ": 9308,
      "neu": 9309,
      "သုးခိၣ်": 9310,
      "ဂျူး": 9311,
      "harsatnak": 9312,
      "ṭongkam": 9313,
      "ယႅၼ်ႉ": 9314,
      "လၧအံဇံၭ": 9315,
      "ၶပ်းၶိုင်": 9316,
      "စိတ်ဝင်စား": 9317,
      "တုံ့ပြန်": 9318,
      "ခမ": 9319,
      "ရံၣ်": 9320,
      "၃၄": 9321,
      "ၦယုဒၫ": 9322,
      "khun": 9323,
      "တီႈဢၼ်": 9324,
      "တီႈၼႆႈ": 9325,
      "ဒီးစံး": 9326,
      "တဖၣ်အတၢ်": 9327,
      "khatlekhat": 9328,
      "ဝဵင်းၵျွၵ်ႉမႄး": 9329,
      "saal": 9330,
      "lungawinak": 9331,
      ".”—": 9332,
      "ႁူင်းပလိၵ်ႈ": 9333,
      "လုၵ်ႈၼိုင်ႈ": 9334,
      "ကိးမံၤ": 9335,
      "dian": 9336,
      "ခဲလၢာ်န့ၣ်လီၤ": 9337,
      "Nangma": 9338,
      "အဖွဲ့ချုပ်": 9339,
      "Bik": 9340,
      "ၵွပ်ႈၼႆလႄႈ": 9341,
      "ၥုၭဖိၪ": 9342,
      "မၩဆၧၩ့": 9343,
      "လၢကလံၤ": 9344,
      "အစည်းအဝေးတွင်": 9345,
      "နၧၫ့ဖၫ": 9346,
      "အုးသးအုး": 9347,
      "မိူၵ်ႈမႂ်ႈ": 9348,
      "တိရစ္ဆာန်": 9349,
      "Se": 9350,
      "ယီၢ်": 9351,
      "၃၇": 9352,
      "ႁေႃး": 9353,
      "မိန်း": 9354,
      "မူဝ်ႇ": 9355,
      "အိၣ်ခိး": 9356,
      "နဲ့အတူ": 9357,
      "ၸႄႈဝဵင်းၼမ်ႉၶမ်း": 9358,
      "က့ၤတၢ်": 9359,
      "လၢတၢ်မၤ": 9360,
      "ဎွံၫ": 9361,
      "ဆိၫ": 9362,
      "လၧနမ့ၬယၫ": 9363,
      "လိုက်တာ": 9364,
      "ၵိၼ်ယႅမ်ႉ": 9365,
      "အဆင်": 9366,
      "ၵွပ်ႈၼၼ်": 9367,
      "Leban": 9368,
      "တနံၤန့ၣ်": 9369,
      "ဒုတိယဝန်ကြီး": 9370,
      "tawntungin": 9371,
      "ခို": 9372,
      "ဇန်": 9373,
      "တဲး": 9374,
      "မၭ": 9375,
      "လၢၼ်": 9376,
      "တၢ်လုၢ်": 9377,
      "လၧအဂး": 9378,
      "န့ၣ်ဧါ": 9379,
      "ပှၤအဂၤ": 9380,
      "သူဟာ": 9381,
      "kilang": 9382,
      "ဖိလိ": 9383,
      "တဖၣ်ဆူ": 9384,
      "တၢင်းၸွႆႈထႅမ်": 9385,
      "ꤢꤨ꤭ꤕꤢꤩ꤭": 9386,
      "ယၢင်ႇ": 9387,
      "အကီၩ့": 9388,
      "ထားသော": 9389,
      "ဖဲလဲၣ်": 9390,
      "zik": 9391,
      "biaceih": 9392,
      "ပႃႇတီႇၵၢၼ်မိူင်း": 9393,
      "စွန့်": 9394,
      "တရားရုံး": 9395,
      "ꤋꤢꤨ꤭ꤕꤢꤩ꤬ꤒꤢ꤬ꤚꤢꤨ": 9396,
      "ဖျါခွံၬ": 9397,
      "saram": 9398,
      "chuakmi": 9399,
      "ဎီးအၡၩ": 9400,
      "ꤣꤧ꤭ꤒꤣ꤬ꤖꤚꤢꤩ꤬ꤔꤣꤧ꤬": 9401,
      "ထာဝရ": 9402,
      ").": 9403,
      "ဇူ": 9404,
      "လယ": 9405,
      "ꤖꤥ": 9406,
      "ꤡꤢꤦ꤭": 9407,
      "thung": 9408,
      "khawi": 9409,
      "လီၤက့ၤ": 9410,
      "ဒီးယၤ": 9411,
      "တဖၣ်အသိး": 9412,
      "ၼႂ်းလိၵ်ႈ": 9413,
      "မီးၶၢဝ်းတၢင်း": 9414,
      "ၵူၼ်းမိူင်းႁဝ်း": 9415,
      "သိရှိ": 9416,
      "ကစၢ်ယွၤဧၢ": 9417,
      "dea": 9418,
      "အတြ": 9419,
      "အမ့ၬယၫတၭ": 9420,
      "Shekhem": 9421,
      "ႁုပ်ႈ": 9422,
      "တဵမ်ထူၼ်ႈ": 9423,
      "kiltu": 9424,
      "ကညး": 9425,
      "ၫအ့ၫ": 9426,
      "မွဲဘၪလဲၪ": 9427,
      "လူတ်ႉၵႃး": 9428,
      "ခၪ့ထံၭ": 9429,
      "ꤗꤝꤤ꤭ꤜꤢ꤬": 9430,
      "ခက်ခဲ": 9431,
      "ꤒꤢꤩ꤬ꤞꤤꤋꤚꤢꤦ꤭": 9432,
      "Dr": 9433,
      "ကၭ": 9434,
      "ယ့": 9435,
      "အနီၪ": 9436,
      "ၵၢႆ": 9437,
      "ၽတ်ႉ": 9438,
      "တွက်": 9439,
      "ၵူၼ်းမၢတ်ႇၸဵပ်း": 9440,
      "ပှၤယူဒၤဖိ": 9441,
      "ပါစေ": 9442,
      "ထီၣ်ပှဲၤ": 9443,
      "ယွၤစံးဘၣ်": 9444,
      "ၸုမ်းၸၢဝ်းၶိူဝ်း": 9445,
      "rub": 9446,
      "ၼမ်ႉၸႂ်": 9447,
      "လံၢ်": 9448,
      "ကစၢ်ဒၣ်ဝဲ": 9449,
      "ယဟိဝၩအလူ": 9450,
      "ယကမၤ": 9451,
      "ယိုဝ်းသႂ်ႇ": 9452,
      "ဒီးပှၤလၢအ": 9453,
      "သို့မဟုတ်": 9454,
      "အသေး": 9455,
      "စံၣ်တဲၤတဲ": 9456,
      "လၢအမ့ၢ်ဝဲ": 9457,
      "Farasi": 9458,
      "အဒိၣ်ကတၢၢ်": 9459,
      "ၽိုၼ်လိၵ်ႈ": 9460,
      "Pai": 9461,
      "cawm": 9462,
      "တနာ": 9463,
      "မႁႃ": 9464,
      "ရောင်": 9465,
      "ꤢ꤬ꤞꤤꤕꤜꤢꤪ꤬": 9466,
      "ကျတော့": 9467,
      "မိခင်": 9468,
      "ဝၼ်းဢွၵ်ႇ": 9469,
      "အဖေ": 9470,
      "တိၼ်": 9471,
      "ထုင်း": 9472,
      "မှုတွေကို": 9473,
      "ralbawi": 9474,
      "သွားပြီး": 9475,
      "ၶႅၼ်ႇ": 9476,
      "တၢင်းပဵၼ်ၼႆႉ": 9477,
      "fehpi": 9478,
      "အီၪဝ့ၫလၧအ": 9479,
      "ၸိူဝ်ႉၸၢတ်ႈၸိုင်ႈတႆး": 9480,
      "fir": 9481,
      "တီႉၺွပ်းလႆႈ": 9482,
      "ဒီးမၤသံ": 9483,
      "စက်တင်": 9484,
      "အဖၫ့ခိၪလီၫ": 9485,
      "အရာရှိ": 9486,
      "ထည့်သွင်း": 9487,
      "ဝႅတ်ႉလွမ်ႉ": 9488,
      "ကလ": 9489,
[...]
