{
  "version": "1.0",
  "truncation": null,
  "padding": null,
  "added_tokens": [
    {
      "id": 0,
      "content": "<pad>",
      "single_word": false,
      "lstrip": false,
      "rstrip": false,
      "normalized": false,
      "special": true
    },
    {
      "id": 1,
      "content": "<unk>",
      "single_word": false,
      "lstrip": false,
      "rstrip": false,
      "normalized": false,
      "special": true
    },
    {
      "id": 2,
      "content": "<s>",
      "single_word": false,
      "lstrip": false,
      "rstrip": false,
      "normalized": false,
      "special": true
    },
    {
      "id": 3,
      "content": "</s>",
      "single_word": false,
      "lstrip": false,
      "rstrip": false,
      "normalized": false,
      "special": true
    }
  ],
  "normalizer": null,
  "pre_tokenizer": {
    "type": "Sequence",
    "pretokenizers": [
      {
        "type": "Whitespace"
      },
      {
        "type": "Split",
        "pattern": {
          "Regex": "(?<=[ऀ-ॿ஀-௿฀-๿຀-໿က-႟ក-៿一-鿿꤀-꤯])(?=[A-Za-z0-9])|(?<=[A-Za-z0-9])(?=[ऀ-ॿ஀-௿฀-๿຀-໿က-႟ក-៿一-鿿꤀-꤯])"
        },
        "behavior": "Isolated",
        "invert": false
      }
    ]
  },
  "post_processor": null,
  "decoder": null,
  "model": {
    "type": "BPE",
    "dropout": null,
    "unk_token": "<unk>",
    "continuing_subword_prefix": null,
    "end_of_word_suffix": null,
    "fuse_unk": false,
    "byte_fallback": false,
    "ignore_merges": false,
    "vocab": {
      "<pad>": 0,
      "<unk>": 1,
      "<s>": 2,
      "</s>": 3,
      "!": 4,
      "\"": 5,
      "&": 6,
      "'": 7,
      "(": 8,
      ")": 9,
      "*": 10,
      "+": 11,
      ",": 12,
      "-": 13,
      ".": 14,
      "/": 15,
      "0": 16,
      "1": 17,
      "2": 18,
      "3": 19,
      "4": 20,
      "5": 21,
      "6": 22,
      "7": 23,
      "8": 24,
      "9": 25,
      ":": 26,
      ";": 27,
      ">": 28,
      "@": 29,
      "A": 30,
      "B": 31,
      "C": 32,
      "D": 33,
      "E": 34,
      "F": 35,
      "G": 36,
      "H": 37,
      "I": 38,
      "J": 39,
      "K": 40,
      "L": 41,
      "M": 42,
      "N": 43,
      "O": 44,
      "P": 45,
      "Q": 46,
      "R": 47,
      "S": 48,
      "T": 49,
      "U": 50,
      "V": 51,
      "W": 52,
      "X": 53,
      "Y": 54,
      "Z": 55,
      "[": 56,
      "\\": 57,
      "]": 58,
      "^": 59,
      "`": 60,
      "a": 61,
      "b": 62,
      "c": 63,
      "d": 64,
      "e": 65,
      "f": 66,
      "g": 67,
      "h": 68,
      "i": 69,
      "j": 70,
      "k": 71,
      "l": 72,
      "m": 73,
      "n": 74,
      "o": 75,
      "p": 76,
      "q": 77,
      "r": 78,
      "s": 79,
      "t": 80,
      "u": 81,
      "v": 82,
      "w": 83,
      "x": 84,
      "y": 85,
      "z": 86,
      "|": 87,
      "}": 88,
      "¤": 89,
      "©": 90,
      "­": 91,
      "°": 92,
      "·": 93,
      "Ó": 94,
      "×": 95,
      "æ": 96,
      "ç": 97,
      "ʹ": 98,
      "ʻ": 99,
      "ʼ": 100,
      "μ": 101,
      "π": 102,
      "ה": 103,
      "ו": 104,
      "י": 105,
      "က": 106,
      "ခ": 107,
      "ဂ": 108,
      "ဃ": 109,
      "င": 110,
      "စ": 111,
      "ဆ": 112,
      "ဇ": 113,
      "ဈ": 114,
      "ဉ": 115,
      "ည": 116,
      "ဋ": 117,
      "ဌ": 118,
      "ဍ": 119,
      "ဏ": 120,
      "တ": 121,
      "ထ": 122,
      "ဒ": 123,
      "ဓ": 124,
      "န": 125,
      "ပ": 126,
      "ဖ": 127,
      "ဗ": 128,
      "ဘ": 129,
      "မ": 130,
      "ယ": 131,
      "ရ": 132,
      "လ": 133,
      "ဝ": 134,
      "သ": 135,
      "ဟ": 136,
      "ဠ": 137,
      "အ": 138,
      "ဣ": 139,
      "ဤ": 140,
      "ဥ": 141,
      "ဦ": 142,
      "ဧ": 143,
      "ဩ": 144,
      "ဪ": 145,
      "ါ": 146,
      "ာ": 147,
      "ိ": 148,
      "ီ": 149,
      "ု": 150,
      "ူ": 151,
      "ေ": 152,
      "ဲ": 153,
      "ံ": 154,
      "့": 155,
      "း": 156,
      "္": 157,
      "်": 158,
      "ျ": 159,
      "ြ": 160,
      "ွ": 161,
      "ှ": 162,
      "ဿ": 163,
      "၀": 164,
      "၁": 165,
      "၂": 166,
      "၃": 167,
      "၄": 168,
      "၅": 169,
      "၆": 170,
      "၇": 171,
      "၈": 172,
      "၉": 173,
      "၊": 174,
      "။": 175,
      "၌": 176,
      "၍": 177,
      "၎": 178,
      "၏": 179,
      "ၡ": 180,
      "ၣ": 181,
      "ၤ": 182,
      "ႌ": 183,
      "႑": 184,
      "႔": 185,
      "‌": 186,
      "–": 187,
      "—": 188,
      "‘": 189,
      "’": 190,
      "‚": 191,
      "“": 192,
      "”": 193,
      "„": 194,
      "•": 195,
      "›": 196,
      "−": 197,
      "▸": 198,
      "●": 199,
      "ို": 200,
      "င်": 201,
      "ော": 202,
      "ား": 203,
      "က်": 204,
      "ယ်": 205,
      "ဲ့": 206,
      "ပြ": 207,
      "န်": 208,
      "င်း": 209,
      "ည်": 210,
      "ေး": 211,
      "စ်": 212,
      "ကို": 213,
      "ကြ": 214,
      "တွ": 215,
      "မှ": 216,
      "့်": 217,
      "တ်": 218,
      "ရှ": 219,
      "ပ်": 220,
      "တယ်": 221,
      "ို့": 222,
      "ီး": 223,
      "တော": 224,
      "ချ": 225,
      "တွေ": 226,
      "မျ": 227,
      "ကျ": 228,
      "ဖြ": 229,
      "ိုင်": 230,
      "မ်": 231,
      "ုံ": 232,
      "ပါ": 233,
      "နေ": 234,
      "င့်": 235,
      "တဲ့": 236,
      "ောက်": 237,
      "ောင်": 238,
      "မ်း": 239,
      "ိုး": 240,
      "သည်": 241,
      "နှ": 242,
      "ရှိ": 243,
      "ဖြစ်": 244,
      "န်း": 245,
      "များ": 246,
      "သူ": 247,
      "ုပ်": 248,
      "ောင်း": 249,
      "ည်း": 250,
      "တာ": 251,
      "နိုင်": 252,
      "မှာ": 253,
      "မြ": 254,
      "ခြ": 255,
      "တော်": 256,
      "ဆို": 257,
      "ရေး": 258,
      "လို": 259,
      "ုံး": 260,
      "ပြီး": 261,
      "ခဲ့": 262,
      "ရာ": 263,
      "နဲ့": 264,
      "ူး": 265,
      "ပြော": 266,
      "ပေ": 267,
      "ော်": 268,
      "မှု": 269,
      "လုပ်": 270,
      "တစ်": 271,
      "ထား": 272,
      "ပေး": 273,
      "ဒီ": 274,
      "သွ": 275,
      "စာ": 276,
      "ရား": 277,
      "လာ": 278,
      "စား": 279,
      "ခံ": 280,
      "ည့်": 281,
      "ပြည်": 282,
      "လို့": 283,
      "ခြင်း": 284,
      "ဦး": 285,
      "ရဲ့": 286,
      "ဟု": 287,
      "ကြီး": 288,
      "အတွ": 289,
      "ကြောင်း": 290,
      "လွ": 291,
      "တို့": 292,
      "လည်း": 293,
      "ိုင်း": 294,
      "ရွ": 295,
      "ဟာ": 296,
      "ပေါ": 297,
      "သိ": 298,
      "ိတ်": 299,
      "တော့": 300,
      "ချက်": 301,
      "ဘု": 302,
      "တွင်": 303,
      "င့်": 304,
      "သား": 305,
      "ဘာ": 306,
      "ပြု": 307,
      "မာ": 308,
      "ွန်": 309,
      "သွား": 310,
      "တွေကို": 311,
      "es": 312,
      "ဘုရား": 313,
      "အခ": 314,
      "ဒါ": 315,
      "ရင်": 316,
      "ဖို့": 317,
      "လူ": 318,
      "သက်": 319,
      "ဘူး": 320,
      "နှစ်": 321,
      "ဉ်": 322,
      "ဒေ": 323,
      "ဖွ": 324,
      "မိ": 325,
      "ဆောင်": 326,
      "ကျမ်း": 327,
      "အစ": 328,
      "လက်": 329,
      "အတွက်": 330,
      "ိုက်": 331,
      "မျိုး": 332,
      "ွဲ": 333,
      "ငံ": 334,
      "ကိုယ်": 335,
      "ခင်": 336,
      "နိုင်ငံ": 337,
      "နာ": 338,
      "an": 339,
      "စု": 340,
      "ပါတယ်": 341,
      "ိမ်": 342,
      "မယ်": 343,
      "ar": 344,
      "ခု": 345,
      "အား": 346,
      "he": 347,
      "ဝင်": 348,
      "ောင့်": 349,
      "လဲ": 350,
      "The": 351,
      "mar": 352,
      "My": 353,
      "anmar": 354,
      "Myanmar": 355,
      "im": 356,
      "Tim": 357,
      "ပဲ": 358,
      "Times": 359,
      "မည်": 360,
      "စေ": 361,
      "လွှ": 362,
      "ဝန်": 363,
      "အဲ": 364,
      "ပြန်": 365,
      "ကျွန်": 366,
      "ွေး": 367,
      "ထောင်": 368,
      "သာ": 369,
      "လေး": 370,
      "နှင့်": 371,
      "သမ": 372,
      "လှ": 373,
      "စိတ်": 374,
      "တင်": 375,
      "ရန်": 376,
      "လျ": 377,
      "တိ": 378,
      "လိုက်": 379,
      "သော": 380,
      "ယေ": 381,
      "အောင်": 382,
      "ကျမ်းစာ": 383,
      "ကောင်း": 384,
      "ွေ": 385,
      "လွှတ်": 386,
      "သုံး": 387,
      "ယူ": 388,
      "ပျ": 389,
      "ဆုံး": 390,
      "အဲဒီ": 391,
      "ိန်": 392,
      "သင်": 393,
      "ကြောင့်": 394,
      "ုတ်": 395,
      "အထ": 396,
      "ကြား": 397,
      "ရက်": 398,
      "ဖော်": 399,
      "ကာ": 400,
      "ဖွဲ့": 401,
      "ဘယ်": 402,
      "ဘုရားသ": 403,
      "လုံး": 404,
      "အတ": 405,
      "သည့်": 406,
      "ချိန်": 407,
      "ဟုတ်": 408,
      "သူ့": 409,
      "နည်း": 410,
      "လွှတ်တော်": 411,
      "ဆက်": 412,
      "မဟုတ်": 413,
      "ဆိုတာ": 414,
      "ဝါ": 415,
      "ရွက်": 416,
      "ခွ": 417,
      "ယာ": 418,
      "လိ": 419,
      "မဲ့": 420,
      "ပေါ်": 421,
      "ညီ": 422,
      "နယ်": 423,
      "စွ": 424,
      "ပုံ": 425,
      "ဥပ": 426,
      "ကွ": 427,
      "မှတ်": 428,
      "ရောက်": 429,
      "နှင့်": 430,
      "သို့": 431,
      "ေ့": 432,
      "ညာ": 433,
      "ပြင်": 434,
      "ကား": 435,
      "စီ": 436,
      "ဘုရားသခင်": 437,
      "နောက်": 438,
      "သင့်": 439,
      "သေ": 440,
      "ပြောသည်": 441,
      "မတ": 442,
      "ယ့်": 443,
      "အိမ်": 444,
      "ရေ": 445,
      "ရှင်": 446,
      "ကု": 447,
      "စ္": 448,
      "တွေ့": 449,
      "ဆောင်ရွက်": 450,
      "မြို့": 451,
      "န့်": 452,
      "စဉ်": 453,
      "မူ": 454,
      "ဌာ": 455,
      "န္": 456,
      "င်းက": 457,
      "ချုပ်": 458,
      "ခြေ": 459,
      "စစ်": 460,
      "ပေမဲ့": 461,
      "ရှု": 462,
      "ယောက်": 463,
      "ဆိုင်": 464,
      "နေ့": 465,
      "တရား": 466,
      "ခဲ့တယ်": 467,
      "ခေ": 468,
      "လား": 469,
      "အနေ": 470,
      "အရ": 471,
      "ri": 472,
      "များကို": 473,
      "ll": 474,
      "အခါ": 475,
      "ုန်း": 476,
      "နား": 477,
      "အကြောင်း": 478,
      "မရှိ": 479,
      "gh": 480,
      "ကြတယ်": 481,
      "ght": 482,
      "ဟော": 483,
      "TheMyanmar": 484,
      "right": 485,
      "TheMyanmarTimes": 486,
      "ပညာ": 487,
      "မ္": 488,
      "ခြား": 489,
      "က္": 490,
      "ထိ": 491,
      "ရိ": 492,
      "အကြ": 493,
      "စည်း": 494,
      "ပတ်": 495,
      "ထွ": 496,
      "မှန်": 497,
      "ရော": 498,
      "ဌာန": 499,
      "ရင်း": 500,
      "ဥပဒေ": 501,
      "ဖော်ပြ": 502,
      "မြင်": 503,
      "သူတို့": 504,
      "အာ": 505,
      "စကား": 506,
      "ငွေ": 507,
      "ကြည့်": 508,
      "တိုင်း": 509,
      "ထုတ်": 510,
      "ကြည်": 511,
      "ဝန်ကြီး": 512,
      "လည်": 513,
      "ဆိုရင်": 514,
      "အချိန်": 515,
      "နေပြည်": 516,
      "ရှင်း": 517,
      "အခြေ": 518,
      "ကူ": 519,
      "တွေက": 520,
      "နေပြည်တော်": 521,
      "ပို": 522,
      "ိုးရ": 523,
      "အဖွဲ့": 524,
      "စီး": 525,
      "ယော": 526,
      "ခဲ့သည်": 527,
      "အတွင်း": 528,
      "တဲ့အခါ": 529,
      "ဆေး": 530,
      "လ်": 531,
      "ကျွန်တော်": 532,
      "၂၀": 533,
      "အမျိုး": 534,
      "မြန်": 535,
      "ဖြင့်": 536,
      "ဖြစ်တယ်": 537,
      "တောင်": 538,
      "ကလေး": 539,
      "ဖက်": 540,
      "တစ်ခု": 541,
      "ပေါင်း": 542,
      "ပိုင်း": 543,
      "ရပ်": 544,
      "ပင်": 545,
      "အကျ": 546,
      "ပွဲ": 547,
      "ံ့": 548,
      "ယေရှု": 549,
      "တပ်": 550,
      "မြေ": 551,
      "ထဲ": 552,
      "လျှ": 553,
      "ယေဟော": 554,
      "ယေဟောဝါ": 555,
      "သလဲ": 556,
      "နိုင်တယ်": 557,
      "ထောင်စု": 558,
      "မျှ": 559,
      "ဖြစ်သည်": 560,
      "ချင်": 561,
      "''": 562,
      "ငန်း": 563,
      "အရေး": 564,
      "ါ်": 565,
      "လုပ်ငန်း": 566,
      "သမ္": 567,
      "ပွ": 568,
      "အပ်": 569,
      "ဘော": 570,
      "လမ်း": 571,
      "ပြီ": 572,
      "ပြည်ထောင်စု": 573,
      "အသ": 574,
      "ခရ": 575,
      "ကိ": 576,
      "ဂျ": 577,
      "ထားတယ်": 578,
      "မ့်": 579,
      "တတ်": 580,
      "သူတွေ": 581,
      "ငါ": 582,
      "ဒု": 583,
      "ဘယ်လို": 584,
      "လောက်": 585,
      "ကနေ": 586,
      "ယုံ": 587,
      "ခိုင်": 588,
      "သည့်": 589,
      "ကိုယ်စား": 590,
      "တည်": 591,
      "တောင်း": 592,
      "ချင်း": 593,
      "မြန်မာ": 594,
      "ခွင့်": 595,
      "လှယ်": 596,
      "တင်း": 597,
      "ရု": 598,
      "အလုပ်": 599,
      "တ္": 600,
      "ကုန်": 601,
      "စိုက်": 602,
      "အသက်": 603,
      "တစ်ယောက်": 604,
      "ဆင်": 605,
      "ရတယ်": 606,
      "ဒါပေမဲ့": 607,
      "ငယ်": 608,
      "ဏ်": 609,
      "ဘဲ": 610,
      "ပါး": 611,
      "ကျော်": 612,
      "ရဲ": 613,
      "အဖြစ်": 614,
      "ဒေသ": 615,
      "ပြောဆို": 616,
      "ထက်": 617,
      "ဆိုင်ရာ": 618,
      "ထွက်": 619,
      "ဆွေး": 620,
      "ငြ": 621,
      "ပု": 622,
      "ချို့": 623,
      "စွာ": 624,
      "er": 625,
      "အိမ်ထောင်": 626,
      "ကိုယ်စားလှယ်": 627,
      "တက်": 628,
      "ယုံကြည်": 629,
      "တီ": 630,
      "ပတ်သက်": 631,
      "ကိုယ့်": 632,
      "ဖြေ": 633,
      "သဘော": 634,
      "ဝေး": 635,
      "နွေး": 636,
      "ိုလ်": 637,
      "ကျွန်မ": 638,
      "ကော်": 639,
      "ခံစား": 640,
      "လေ့": 641,
      "အုပ်": 642,
      "တာကို": 643,
      "နိုင်ငံတော်": 644,
      "ကမ္": 645,
      "ဆီ": 646,
      "သတ်": 647,
      "ပြောင်း": 648,
      "အစည်း": 649,
      "ကမ္ဘာ": 650,
      "ပါဘူး": 651,
      "ဆွေးနွေး": 652,
      "ဆင်း": 653,
      "အဆို": 654,
      "Co": 655,
      "္ဂ": 656,
      "ကျွန်တော်တို့": 657,
      "အရာ": 658,
      "ရှိတယ်": 659,
      "နေရာ": 660,
      "ကယ်": 661,
      "ရုံ": 662,
      "ဖြစ်ကြောင်း": 663,
      "သပ်": 664,
      "စ္စ": 665,
      "တူ": 666,
      "အစိုးရ": 667,
      "နီး": 668,
      "တိုက်": 669,
      "ရွေး": 670,
      "ve": 671,
      "နစ်": 672,
      "တိယ": 673,
      "နက်": 674,
      "တွေဟာ": 675,
      "မေး": 676,
      "et": 677,
      "ရီ": 678,
      "ွှ": 679,
      "လေ": 680,
      "ကွယ်": 681,
      "ow": 682,
      "အဆ": 683,
      "ကောက်": 684,
      "၁၉": 685,
      "လိုအပ်": 686,
      "Fo": 687,
      "သတင်း": 688,
      "ပြောကြား": 689,
      "ဝန်ကြီးဌာန": 690,
      "သူများ": 691,
      "ရရှိ": 692,
      "ကောင်": 693,
      "ိမ်း": 694,
      "20": 695,
      "မေ": 696,
      "စက်": 697,
      "ဆိုတဲ့": 698,
      "llow": 699,
      "py": 700,
      "res": 701,
      "လိမ့်": 702,
      "All": 703,
      "by": 704,
      "တည်း": 705,
      "erve": 706,
      "eet": 707,
      "reserve": 708,
      "reserved": 709,
      "21": 710,
      "Tw": 711,
      "မယ့်": 712,
      "TimesTw": 713,
      "rights": 714,
      "TheMyanmarTimesFo": 715,
      "Copy": 716,
      "2021": 717,
      "eets": 718,
      "TimesTweets": 719,
      "TheMyanmarTimesFollow": 720,
      "Copyright": 721,
      "ပြစ်": 722,
      "ထားတဲ့": 723,
      "နှုန်း": 724,
      "တာဝန်": 725,
      "ရတဲ့": 726,
      "ကျမ်းစာမှာ": 727,
      "လင်း": 728,
      "အတိုင်း": 729,
      "သေး": 730,
      "ဖြတ်": 731,
      "လော": 732,
      "ကြိုး": 733,
      "ရှိနေ": 734,
      "အထိ": 735,
      "တချို့": 736,
      "ရုံး": 737,
      "ကိစ္စ": 738,
      "တိုင်": 739,
      "စရာ": 740,
      "တမ်း": 741,
      "သမီး": 742,
      "ဘာသာ": 743,
      "က္က": 744,
      "အသုံး": 745,
      "တွေနဲ့": 746,
      "ဒီလို": 747,
      "ခွဲ": 748,
      "မန်": 749,
      "ဒုတိယ": 750,
      "တာက": 751,
      "၁၀": 752,
      "အမျိုးသား": 753,
      "စုံ": 754,
      "မဲ": 755,
      "ရှာ": 756,
      "စံ": 757,
      "ခုနှစ်": 758,
      "အများ": 759,
      "ဒ်": 760,
      "တစ်ဦး": 761,
      "ဒါကြောင့်": 762,
      "တိုး": 763,
      "၁၅": 764,
      "၁၇": 765,
      "အားလုံး": 766,
      "ဖြင့်": 767,
      "မံ": 768,
      "၁၂": 769,
      "သု": 770,
      "တန်": 771,
      "ပြုလုပ်": 772,
      "က္ခ": 773,
      "၁၃": 774,
      "ညွှ": 775,
      "တခြား": 776,
      "အင်": 777,
      "ထောက်": 778,
      "အပြင်": 779,
      "ရွယ်": 780,
      "ပြည်သူ့": 781,
      "ကတော့": 782,
      "မှူး": 783,
      "၁၁": 784,
      "ဏ္": 785,
      "နေတဲ့": 786,
      "ရှိတဲ့": 787,
      "ခံရ": 788,
      "ရွှ": 789,
      "ဖန်": 790,
      "ဆာ": 791,
      "ကြာ": 792,
      "ပြန်လည်": 793,
      "ပျက်": 794,
      "ဓိ": 795,
      "သွင်း": 796,
      "အချက်": 797,
      "ဆိုပြီး": 798,
      "မတော်": 799,
      "ကူညီ": 800,
      "မြို့နယ်": 801,
      "အဝေး": 802,
      "လွန်": 803,
      "၁၄": 804,
      "ရည်": 805,
      "မှုကို": 806,
      "အပေါ်": 807,
      "ဘက်": 808,
      "သိမ်း": 809,
      "ဖျ": 810,
      "အခြေအနေ": 811,
      "မတီ": 812,
      "အခြေခံ": 813,
      "ခေါ်": 814,
      "ဓာ": 815,
      "လာတယ်": 816,
      "ဒေါ": 817,
      "န္ဒ": 818,
      "အခု": 819,
      "ကြည့်ပါ": 820,
      "မှား": 821,
      "ဂါ": 822,
      "ပွား": 823,
      "ကျေး": 824,
      "သီ": 825,
      "သော်": 826,
      "အကျိုး": 827,
      "လု": 828,
      "ဝတ်": 829,
      "ထိန်း": 830,
      "မြောက်": 831,
      "အဓိ": 832,
      "ဖြစ်ပြီး": 833,
      "လိမ့်မယ်": 834,
      "လယ်": 835,
      "ပေါ့": 836,
      "အောက်": 837,
      "ဆိုး": 838,
      "ပါတီ": 839,
      "စွမ်း": 840,
      "င်းပ": 841,
      "ကျောင်း": 842,
      "သစ်": 843,
      "သမ္မာ": 844,
      "၁၈": 845,
      "ဏ္ဍ": 846,
      "အဲဒီလို": 847,
      "ဆု": 848,
      "နေတယ်": 849,
      "ဉ်း": 850,
      "ခါ": 851,
      "မျက်": 852,
      "၁၆": 853,
      "ယေဟောဝါဘုရား": 854,
      "ထပ်": 855,
      "ဋ္": 856,
      "းစား": 857,
      "ချမ်း": 858,
      "ထမ်း": 859,
      "ကိုင်": 860,
      "ဆောက်": 861,
      "လျက်": 862,
      "ထင်": 863,
      "သန်း": 864,
      "ပ္": 865,
      "ပါဝင်": 866,
      "ဂ္ဂ": 867,
      "ထဲမှာ": 868,
      "ရမယ်": 869,
      "ပိုင်": 870,
      "မိသား": 871,
      "ခဲ့တဲ့": 872,
      "လွှတ်တော်ကိုယ်စားလှယ်": 873,
      "ချစ်": 874,
      "မိသားစု": 875,
      "ကွက်": 876,
      "ကျပ်": 877,
      "ပ္ပ": 878,
      "”—": 879,
      "လုပ်ဆောင်": 880,
      "ခရစ်": 881,
      "မြန်မာနိုင်ငံ": 882,
      "မိုး": 883,
      "အစား": 884,
      "ခဲ့ခြင်း": 885,
      "မို": 886,
      "ပြည်နယ်": 887,
      "တပ်မတော်": 888,
      "ပြောပြ": 889,
      "စဉ်းစား": 890,
      "မှုများ": 891,
      "ရသည်": 892,
      "ဝေ": 893,
      "ပြည့်": 894,
      "တွေရဲ့": 895,
      "လုံ": 896,
      "သီး": 897,
      "ရောဂါ": 898,
      "သမ္မတ": 899,
      "ဆန္ဒ": 900,
      "ညွှန်": 901,
      "မိဘ": 902,
      "ခိုက်": 903,
      "အပြစ်": 904,
      "ော့": 905,
      "မွေး": 906,
      "ကျင်းပ": 907,
      "မီ": 908,
      "လေ့လာ": 909,
      "ကော်မတီ": 910,
      "ဖြစ်ပါတယ်": 911,
      "အစည်းအဝေး": 912,
      "ကြိုးစား": 913,
      "အကြံ": 914,
      "ပတ်သက်ပြီး": 915,
      "ကျင်": 916,
      "မဟုတ်ဘူး": 917,
      "မင်း": 918,
      "အမြ": 919,
      "အညီ": 920,
      "ဟန်": 921,
      "ခန်း": 922,
      "စွဲ": 923,
      "ကန်": 924,
      "ကျန်း": 925,
      "ဆိုသည်": 926,
      "ဗျ": 927,
      "နိုင်တဲ့": 928,
      "ပြင်ဆင်": 929,
      "ဖွဲ့စည်း": 930,
      "ဘဝ": 931,
      "ရှေ့": 932,
      "ပို့": 933,
      "မလဲ": 934,
      "ိပ်": 935,
      "ပြောတယ်": 936,
      "တမန်": 937,
      "တကယ်": 938,
      "ကော": 939,
      "စီမံ": 940,
      "သော်လည်း": 941,
      "အဆိုပါ": 942,
      "တင်ပြ": 943,
      "သလို": 944,
      "မောင်": 945,
      "ဆွေ": 946,
      "ကင်": 947,
      "သလား": 948,
      "ောင့်": 949,
      "သတိ": 950,
      "ဖြိုး": 951,
      "မယ်ဆိုရင်": 952,
      "ကျန်းမာ": 953,
      "ဆန်း": 954,
      "ဒေါ်": 955,
      "ရှား": 956,
      "ပေါက်": 957,
      "ပျိုး": 958,
      "ကာကွယ်": 959,
      "ဆုတောင်း": 960,
      "။''": 961,
      "ဆွဲ": 962,
      "၂၁": 963,
      "ယာဉ်": 964,
      "တွေမှာ": 965,
      "ကူညီပေး": 966,
      "သိန်း": 967,
      "ဖတ်": 968,
      "မှန်း": 969,
      "ဒါမှ": 970,
      "ငြိမ်း": 971,
      "လျက်ရှိ": 972,
      "ငါး": 973,
      "ပူး": 974,
      "န္တ": 975,
      "တံ": 976,
      "ကလည်း": 977,
      "ဝယ်": 978,
      "လံ": 979,
      "၄င်းက": 980,
      "စပ်": 981,
      "သွားမည်": 982,
      "လီ": 983,
      "ကိုလည်း": 984,
      "ခေတ်": 985,
      "တန်း": 986,
      "မတ်": 987,
      "နေတာ": 988,
      "ပူ": 989,
      "အကူ": 990,
      "စောင့်": 991,
      "ထိုင်": 992,
      "သွားတယ်": 993,
      "သမား": 994,
      "ပျော်": 995,
      "မဿ": 996,
      "စစ်ဆေး": 997,
      "မဿဲ": 998,
      "အတူ": 999,
      "တဲ့အတွက်": 1000,
      "ဆီး": 1001,
      "ခေါ": 1002,
      "စနစ်": 1003,
      "နှံ": 1004,
      "သတ်မှတ်": 1005,
      "မော": 1006,
      "အမှု": 1007,
      "ရုပ်": 1008,
      "ခဲ့ပြီး": 1009,
      "နိုင်ပါတယ်": 1010,
      "မည့်": 1011,
      "သွေး": 1012,
      "လက်ခံ": 1013,
      "ပုဂ္ဂ": 1014,
      "မြင့်": 1015,
      "လက်ရှိ": 1016,
      "ယင်း": 1017,
      "က်တာ": 1018,
      "ဆယ်": 1019,
      "ကြေး": 1020,
      "နေရ": 1021,
      "ဥက္က": 1022,
      "ပြောင်းလဲ": 1023,
      "ဟေ": 1024,
      "ကြမ်း": 1025,
      "စျ": 1026,
      "ဥပမာ": 1027,
      "ဒါမှမဟုတ်": 1028,
      "စျေး": 1029,
      "ဆံ": 1030,
      "ဇနီး": 1031,
      "။\"": 1032,
      "သိရသည်": 1033,
      "မြှ": 1034,
      "အမှန်": 1035,
      "ဆက်လက်": 1036,
      "ရက်နေ့": 1037,
      "မိတ်": 1038,
      "ချက်ကို": 1039,
      "ကောင်းကင်": 1040,
      "ဖြစ်စေ": 1041,
      "လိုက်တယ်": 1042,
      "ဝင်း": 1043,
      "ယောဟန်": 1044,
      "စိုက်ပျိုး": 1045,
      "တု": 1046,
      "ထို": 1047,
      "အသုံးပြု": 1048,
      "ကူး": 1049,
      "သုံးသပ်": 1050,
      "ဦးစီး": 1051,
      "အနေနဲ့": 1052,
      "ကာလ": 1053,
      "ယခု": 1054,
      "ဋ္ဌ": 1055,
      "ချာ": 1056,
      "ဖိုး": 1057,
      "ပစ္": 1058,
      "မြတ်": 1059,
      "ခန့်": 1060,
      "မရ": 1061,
      "အစီ": 1062,
      "တွင်း": 1063,
      "ပြီးတော့": 1064,
      "ဒေါက်တာ": 1065,
      "ဝဝ": 1066,
      "ဘာကြောင့်": 1067,
      "ဓာတ်": 1068,
      "ကျန်းမာရေး": 1069,
      "ပစ္စည်း": 1070,
      "ရွေးကောက်": 1071,
      "သန်": 1072,
      "ဿနာ": 1073,
      "ပြဿနာ": 1074,
      "သံ": 1075,
      "ဇော်": 1076,
      "ဖိ": 1077,
      "ဖန်ဆင်း": 1078,
      "ပထ": 1079,
      "ဝန်ထမ်း": 1080,
      "ဘေး": 1081,
      "တော့်": 1082,
      "သမ္မာကျမ်းစာ": 1083,
      "စိုး": 1084,
      "အမှတ်": 1085,
      "ွမ်း": 1086,
      "ဆုံးဖြတ်": 1087,
      "ထိုး": 1088,
      "ပန်း": 1089,
      "ကြို": 1090,
      "အရေးကြီး": 1091,
      "ဥက္ကဋ္ဌ": 1092,
      "သူတွေကို": 1093,
      "စ္စာ": 1094,
      "ဖြစ်လာ": 1095,
      "လွတ်": 1096,
      "မျှော်": 1097,
      "ပါလိမ့်မယ်": 1098,
      "အိမ်ထောင်ဖက်": 1099,
      "အခွ": 1100,
      "ရွာ": 1101,
      "မိမိ": 1102,
      "ပထမ": 1103,
      "ခရီး": 1104,
      "တုန်း": 1105,
      "ထိခိုက်": 1106,
      "ဖျက်": 1107,
      "ကမ်း": 1108,
      "ညှ": 1109,
      "ခင့်": 1110,
      "တယ်လို့": 1111,
      "ဖြေရှင်း": 1112,
      "ရွေးကောက်ပွဲ": 1113,
      "ကြောင့်": 1114,
      "လျှောက်": 1115,
      "ဆရာ": 1116,
      "၂၄": 1117,
      "ပညာရှင်": 1118,
      "ငြိမ်းချမ်း": 1119,
      "မဖြစ်": 1120,
      "ချယ်": 1121,
      "မှာပဲ": 1122,
      "အကြိမ်": 1123,
      "ရှည်": 1124,
      "ကျင့်": 1125,
      "နာမည်": 1126,
      "စင်": 1127,
      "ရောင်း": 1128,
      "ဇာ": 1129,
      "၂၃": 1130,
      "ကျန်": 1131,
      "ပုဂ္ဂိုလ်": 1132,
      "ဝိ": 1133,
      "ဖွံ့": 1134,
      "ဘုရားသခင့်": 1135,
      "ယား": 1136,
      "သူ့ကို": 1137,
      "များနှင့်": 1138,
      "ပြုချက်": 1139,
      "ဖွင့်": 1140,
      "ဝန်း": 1141,
      "မာရိ": 1142,
      "တည်ဆောက်": 1143,
      "၂၂": 1144,
      "ဏာ": 1145,
      "အဲဒါ": 1146,
      "တရု": 1147,
      "ပေတရု": 1148,
      "ဆာလံ": 1149,
      "နှီး": 1150,
      "ဒဏ်": 1151,
      "ဗိုလ်": 1152,
      "သွယ်": 1153,
      "အေး": 1154,
      "ဖွံ့ဖြိုး": 1155,
      "စတင်": 1156,
      "ပါက": 1157,
      "နားလည်": 1158,
      "ဗြ": 1159,
      "ဝမ်း": 1160,
      "ကြုံ": 1161,
      "ထွန်း": 1162,
      "ဆက်ဆံ": 1163,
      "သစ္စာ": 1164,
      "ကွဲ": 1165,
      "တို့ကို": 1166,
      "ကမ္ဘာဦး": 1167,
      "ပန်": 1168,
      "ရေးအတွက်": 1169,
      "ဒေသကြီး": 1170,
      "အဓိက": 1171,
      "နေထိုင်": 1172,
      "များတွင်": 1173,
      "ကိုး": 1174,
      "ဆိုတာကို": 1175,
      "ပစ်": 1176,
      "ဖော်ပြထားတယ်": 1177,
      "အစဉ်": 1178,
      "အထူး": 1179,
      "စာရင်း": 1180,
      "ဧလိ": 1181,
      "အသိ": 1182,
      "သူက": 1183,
      "ခွန်း": 1184,
      "ထားသည်": 1185,
      "ထုတ်ပြန်": 1186,
      "ခေါင်း": 1187,
      "ပါပဲ": 1188,
      "တိုးတက်": 1189,
      "တ္တာ": 1190,
      "ကြိမ်": 1191,
      "ယောသပ်": 1192,
      "ဲ့သို့": 1193,
      "ပြောဆိုသည်": 1194,
      "ထို့": 1195,
      "မရှင်": 1196,
      "လူမျိုး": 1197,
      "ဆင့်": 1198,
      "စီးပွား": 1199,
      "တမန်တော်": 1200,
      "စိ": 1201,
      "တိုင်းဒေသကြီး": 1202,
      "နှိုင်း": 1203,
      "္စ": 1204,
      "လွယ်": 1205,
      "သဘာ": 1206,
      "စေတယ်": 1207,
      "ကတိ": 1208,
      "ဟို": 1209,
      "အရွယ်": 1210,
      "များက": 1211,
      "မွေ": 1212,
      "သောက်": 1213,
      "ခွင့်": 1214,
      "၂၅": 1215,
      "ဗျာ": 1216,
      "သဘာဝ": 1217,
      "ကင်း": 1218,
      "အဆင့်": 1219,
      "အဝင်": 1220,
      "ဒီမို": 1221,
      "ပူးပေါင်း": 1222,
      "ဆဲ": 1223,
      "ဖြစ်နေ": 1224,
      "ခဲ့ခြင်းဖြစ်သည်": 1225,
      "မိတ်ဆွေ": 1226,
      "မလုပ်": 1227,
      "အထက်": 1228,
      "ကော်မရှင်": 1229,
      "ဘုရားသခင်က": 1230,
      "ခဲ့ကြ": 1231,
      "တွေ့ရှိ": 1232,
      "ပေးနိုင်": 1233,
      "သက်သေ": 1234,
      "အမျိုးသမီး": 1235,
      "အစ္စ": 1236,
      "ထားပြီး": 1237,
      "လျှင်": 1238,
      "ဈေး": 1239,
      "မျှော်လ": 1240,
      "မီး": 1241,
      "န့်": 1242,
      "လူတွေ": 1243,
      "ကျွန်ုပ်": 1244,
      "အဖွဲ့အစည်း": 1245,
      "ဒီမိုက": 1246,
      "စိုးရ": 1247,
      "မသိ": 1248,
      "တော့ဘူး": 1249,
      "သူ့ရဲ့": 1250,
      "၀၀": 1251,
      "ဖြစ်တဲ့": 1252,
      "လင်": 1253,
      "ရေးဝန်ကြီးဌာန": 1254,
      "စိုးရိမ်": 1255,
      "အကူအညီ": 1256,
      "ထူး": 1257,
      "ရွှင်": 1258,
      "ခြုံ": 1259,
      "အစ္စရေး": 1260,
      "တို": 1261,
      "ဉာ": 1262,
      "မခံ": 1263,
      "ခဲ့သည့်": 1264,
      "ရမည်": 1265,
      "ထားပါတယ်": 1266,
      "ရက်က": 1267,
      "အုပ်ချုပ်": 1268,
      "အမှား": 1269,
      "ဘုရင်": 1270,
      "ဖေ": 1271,
      "ရာတွင်": 1272,
      "စည်": 1273,
      "ရေစီ": 1274,
      "ကျွန်တော့်": 1275,
      "ညွှန်ကြား": 1276,
      "ခဲ့ကြောင်း": 1277,
      "ကိန်း": 1278,
      "အပါ": 1279,
      "ရက်တွင်": 1280,
      "ပြီးနောက်": 1281,
      "ထားတာ": 1282,
      "ဏ္ဍာ": 1283,
      "ခက်": 1284,
      "ရတာ": 1285,
      "ခြင်းကို": 1286,
      "မှတ်တမ်း": 1287,
      "ဝတ်ပြု": 1288,
      "ထည့်": 1289,
      "စမ်း": 1290,
      "ရှင်းလင်း": 1291,
      "တရ": 1292,
      "အန္တ": 1293,
      "ရေးမှူး": 1294,
      "ယာန်": 1295,
      "အမြဲ": 1296,
      "ဒီမိုကရေစီ": 1297,
      "သြ": 1298,
      "များစွာ": 1299,
      "ခရစ်ယာန်": 1300,
      "အခက်": 1301,
      "ဉာဏ်": 1302,
      "ဖြစ်ပေါ်": 1303,
      "ရာယ်": 1304,
      "နယ်မြေ": 1305,
      "အချိန်မှာ": 1306,
      "ပြည်သူ့လွှတ်တော်": 1307,
      "အထောက်": 1308,
      "အတည်": 1309,
      "ရင်းနှီး": 1310,
      "သင်္": 1311,
      "ရွေးချယ်": 1312,
      "ပေးတယ်": 1313,
      "မယ်လို့": 1314,
      "တဲ့သူ": 1315,
      "ကျောက်": 1316,
      "အစီအစဉ်": 1317,
      "ရေးနှင့်": 1318,
      "အန္တရာယ်": 1319,
      "ပြည်ထောင်စုလွှတ်တော်": 1320,
      "မေးခွန်း": 1321,
      "မေတ္တာ": 1322,
      "သန့်": 1323,
      "ပြား": 1324,
      "အားဖြင့်": 1325,
      "အာရုံ": 1326,
      "တန်ဖိုး": 1327,
      "မျှော်လင့်": 1328,
      "ကဲ့သို့": 1329,
      "ထံ": 1330,
      "ပုံစံ": 1331,
      "ကောင်စီ": 1332,
      "နီ": 1333,
      "ရှေး": 1334,
      "သည်ဟု": 1335,
      "အပါအဝင်": 1336,
      "ကစား": 1337,
      "ပုဒ်": 1338,
      "ကဲ": 1339,
      "ပြောကြားသည်": 1340,
      "ဆန်": 1341,
      "ပိုး": 1342,
      "ခဲ့တာ": 1343,
      "ဆုံ": 1344,
      "အနား": 1345,
      "ကိုယ်တော်": 1346,
      "သဘောတူ": 1347,
      "တစ်ခါ": 1348,
      "သမျှ": 1349,
      "အကောင်": 1350,
      "လူငယ်": 1351,
      "သေချာ": 1352,
      "အရည်": 1353,
      "ပြေး": 1354,
      "ပေးဖို့": 1355,
      "အေ": 1356,
      "အများကြီး": 1357,
      "ငြိမ်းချမ်းရေး": 1358,
      "ဘဏ္ဍာ": 1359,
      "အခန်း": 1360,
      "၂ဝ": 1361,
      "သေဆုံး": 1362,
      "ပြေ": 1363,
      "ဝါရီ": 1364,
      "ကပ်": 1365,
      "ချေး": 1366,
      "ချီး": 1367,
      "နိ": 1368,
      "၃၀": 1369,
      "သူငယ်": 1370,
      "ခြောက်": 1371,
      "ကိုယ်ကိုယ်": 1372,
      "တိုင်းရင်း": 1373,
      "သွန်": 1374,
      "အရင်": 1375,
      "ရာခိုင်": 1376,
      "စီမံကိန်း": 1377,
      "အခြား": 1378,
      "တား": 1379,
      "ာယ်": 1380,
      "ခဲ့ကြတယ်": 1381,
      "အဓိပ္ပ": 1382,
      "အဓိပ္ပာယ်": 1383,
      "နိုင်ဖို့": 1384,
      "ဟေရှာ": 1385,
      "၂၈": 1386,
      "သိပ်": 1387,
      "မနား": 1388,
      "ယှ": 1389,
      "သားသမီး": 1390,
      "အသင်း": 1391,
      "..": 1392,
      "ကျိုး": 1393,
      "နိုင်ရန်": 1394,
      "လူ့": 1395,
      "နှစ်ယောက်": 1396,
      "ရမှာ": 1397,
      "လှူ": 1398,
      "ဟေရှာယ": 1399,
      "ဒိတ်": 1400,
      "တော်မူ": 1401,
      "ရည်ရွယ်": 1402,
      "ပျော်ရွှင်": 1403,
      "မိန့်": 1404,
      "အထည်": 1405,
      "သဘောထား": 1406,
      "လုံခြုံ": 1407,
      "ဗျာဒိတ်": 1408,
      "တွဲ": 1409,
      "ရှိပါတယ်": 1410,
      "ယောဘ": 1411,
      "ရာခိုင်နှုန်း": 1412,
      "အခဲ": 1413,
      "ရိုး": 1414,
      "အိပ်": 1415,
      "ပါတဲ့": 1416,
      "နဲ့ပတ်သက်ပြီး": 1417,
      "ပြည်သူ": 1418,
      "လူသား": 1419,
      "ပျဉ်း": 1420,
      "အရည်အ": 1421,
      "ပြိုင်": 1422,
      "ကြေ": 1423,
      "ပွန်း": 1424,
      "ဒုက္ခ": 1425,
      "နိုင်ငံတော်သမ္မတ": 1426,
      "ပျဉ်းမနား": 1427,
      "ထု": 1428,
      "။“": 1429,
      "နားထောင်": 1430,
      "ညှိ": 1431,
      "ကိုယ်တိုင်": 1432,
      "ယူဆ": 1433,
      "အခွင့်": 1434,
      "ဘီ": 1435,
      "အခက်အခဲ": 1436,
      "ဖမ်း": 1437,
      "လွဲ": 1438,
      "ဘယ်လောက်": 1439,
      "ရောမ": 1440,
      "အသက်ရှင်": 1441,
      "မက": 1442,
      "မြင့်": 1443,
      "ခင်ပွန်း": 1444,
      "သွန်သင်": 1445,
      "မလား": 1446,
      "မှုတွေ": 1447,
      "မဟုတ်ပါဘူး": 1448,
      "အောင်မြင်": 1449,
      "ပြောကြားခဲ့သည်": 1450,
      "ပုဒ်မ": 1451,
      "နေကြ": 1452,
      "သူတို့ရဲ့": 1453,
      "ကိုယ့်ကိုယ်ကိုယ်": 1454,
      "လုကာ": 1455,
      "နံ": 1456,
      "နှာ": 1457,
      "ယုံကြည်ခြင်း": 1458,
      "စီးပွားရေး": 1459,
      "တိုင်းရင်းသား": 1460,
      "အဲ့": 1461,
      "ကျေ": 1462,
      "ချက်တွေကို": 1463,
      "အကြံပြုချက်": 1464,
      "အထား": 1465,
      "ဒသမ": 1466,
      "နော": 1467,
      "ဖောက်": 1468,
      "၂၉": 1469,
      "မဟုတ်ဘဲ": 1470,
      "အရေးယူ": 1471,
      "ဧလိယ": 1472,
      "ကျွန်ုပ်တို့": 1473,
      "ရိုက်": 1474,
      "၂၆": 1475,
      "စာအုပ်": 1476,
      "ရောက်လာ": 1477,
      "မကြာ": 1478,
      "သီရိ": 1479,
      "အတည်ပြု": 1480,
      "စပါး": 1481,
      "မကောင်း": 1482,
      "နောက်ပိုင်း": 1483,
      "ဦးစီးဌာန": 1484,
      "မြစ်": 1485,
      "စိတ်ချ": 1486,
      "တုန်းက": 1487,
      "ငှ": 1488,
      "နပ်": 1489,
      "အလို": 1490,
      "ုံ့": 1491,
      "ရှိပြီး": 1492,
      "ဆင်းရဲ": 1493,
      "များအား": 1494,
      "အားပေး": 1495,
      "တင်သွင်း": 1496,
      "ပြောပြတယ်": 1497,
      "ချိန်မှာ": 1498,
      "န္သု": 1499,
      "ရိန္သု": 1500,
      "တပ်ဖွဲ့": 1501,
      "လျှော့": 1502,
      "ကောရိန္သု": 1503,
      "ရခိုင်": 1504,
      "အပိုင်း": 1505,
      "ရှောက်": 1506,
      "ဝါး": 1507,
      "မ္မာ": 1508,
      "လမ်းညွှန်": 1509,
      "ရိတ်": 1510,
      "ပြင်း": 1511,
      "ရေးဆွဲ": 1512,
      "ပည": 1513,
      "ဖူး": 1514,
      "ရို": 1515,
      "အီ": 1516,
      "အောင်ဆန်း": 1517,
      "ဗိုလ်ချုပ်": 1518,
      "ပညတ်": 1519,
      "ထုတ်လုပ်": 1520,
      "၂၇": 1521,
      "ပါနဲ့": 1522,
      "စေရန်": 1523,
      "လောင်း": 1524,
      "ိုင်ပင်": 1525,
      "လက်မှတ်": 1526,
      "သင်ယူ": 1527,
      "ထိန်းသိမ်း": 1528,
      "ပြတ်": 1529,
      "တွန်း": 1530,
      "လိင်": 1531,
      "ဘုရားသခင်ကို": 1532,
      "မရှိဘူး": 1533,
      "ယောန": 1534,
      "ဖွဲ့စည်းပုံ": 1535,
      "အကောင်အထည်": 1536,
      "ဗေ": 1537,
      "နာရီ": 1538,
      "နောက်ဆုံး": 1539,
      "ခဲ": 1540,
      "ကွာ": 1541,
      "ဥပဒေကြမ်း": 1542,
      "ခဲ့သည့်": 1543,
      "အတော်": 1544,
      "ဂရု": 1545,
      "ဒီနေ့": 1546,
      "သာယာ": 1547,
      "အကောင်း": 1548,
      "ရေးနှင့်": 1549,
      "လပ်": 1550,
      "သဖြင့်": 1551,
      "အနေဖြင့်": 1552,
      "ခိုး": 1553,
      "ပံ့": 1554,
      "လိုတယ်": 1555,
      "ပုံမှန်": 1556,
      "ရှောင်": 1557,
      "ရှိသူ": 1558,
      "ဆိုတော့": 1559,
      "အတိုင်ပင်": 1560,
      "ကုသ": 1561,
      "အာဏာ": 1562,
      "အတိုင်ပင်ခံ": 1563,
      "မော်": 1564,
      "ဌာန်း": 1565,
      "ငြိမ်": 1566,
      "ဘာသာပြန်": 1567,
      "ဇူး": 1568,
      "ဗစ်": 1569,
      "မွန်": 1570,
      "လိုင်": 1571,
      "ပျောက်": 1572,
      "ကျေးဇူး": 1573,
      "အလွန်": 1574,
      "ွတ်": 1575,
      "လက်နက်": 1576,
      "ဦးဝင်း": 1577,
      "ပိုမို": 1578,
      "ခွင့်ပြု": 1579,
      "အလုပ်သမား": 1580,
      "များသည်": 1581,
      "မည့်": 1582,
      "ချက်တွေ": 1583,
      "ခွင့်လွှတ်": 1584,
      "ထာ": 1585,
      "ရှုံး": 1586,
      "များနှင့်": 1587,
      "တာနဲ့": 1588,
      "ပိတ်": 1589,
      "ခြင်းဖြစ်သည်": 1590,
      "ည့်": 1591,
      "မဲဆန္ဒ": 1592,
      "အသစ်": 1593,
      "တည်းက": 1594,
      "ရာဇ": 1595,
      "ထဲက": 1596,
      "မျက်နှာ": 1597,
      "ခွန်": 1598,
      "ရယူ": 1599,
      "အလက်": 1600,
      "လာတဲ့": 1601,
      "စည်ပင်": 1602,
      "ညှိနှိုင်း": 1603,
      "ဒါဝိ": 1604,
      "ဒါဝိဒ်": 1605,
      "တက္က": 1606,
      "ွင်း": 1607,
      "တစ်ပါး": 1608,
      "ပြုပြင်": 1609,
      "သုံးစွဲ": 1610,
      "ဆက်သွယ်": 1611,
      "ယာက": 1612,
      "နို": 1613,
      "ပေးပါ": 1614,
      "သိုလ်": 1615,
      "ရာစု": 1616,
      "သင်တို့": 1617,
      "တွေ့ဆုံ": 1618,
      "တကာ": 1619,
      "မှာရှိတဲ့": 1620,
      "တွေအတွက်": 1621,
      "ကျူး": 1622,
      "ရွှေ": 1623,
      "ထာဝ": 1624,
      "အကြီး": 1625,
      "တိမော": 1626,
      "တက္ကသိုလ်": 1627,
      "တိမောသေ": 1628,
      "ယံ": 1629,
      "ဟောင်း": 1630,
      "အမေ": 1631,
      "ကျမ်းစာက": 1632,
      "ခတ်": 1633,
      "အမြင်": 1634,
      "တတ်တယ်": 1635,
      "ရေးကို": 1636,
      "မတူ": 1637,
      "ခံစားရ": 1638,
      "ဝမ်းနည်း": 1639,
      "နိုင်သလဲ": 1640,
      "ွယ်": 1641,
      "ရှမွေ": 1642,
      "ပေးရန်": 1643,
      "လူမှု": 1644,
      "ရှမွေလ": 1645,
      "အနက်": 1646,
      "အရည်အသွေး": 1647,
      "မပြော": 1648,
      "မဝင်": 1649,
      "အစာ": 1650,
      "သိပ္ပ": 1651,
      "သိပ္ပံ": 1652,
      "စုကြည်": 1653,
      "လှုပ်": 1654,
      "ရန်ကုန်": 1655,
      "မ္မ": 1656,
      "ပြည်ထောင်စုဝန်ကြီး": 1657,
      "အကောင်အထည်ဖော်": 1658,
      "မည်ဖြစ်ကြောင်း": 1659,
      "စောင်": 1660,
      "တယ်ဆိုတာ": 1661,
      "သက်ဆိုင်ရာ": 1662,
      "တေ": 1663,
      "အံ့": 1664,
      "လိမ္မာ": 1665,
      "မား": 1666,
      "ကြင်": 1667,
      "ပွင့်": 1668,
      "စောင့်ရှောက်": 1669,
      "ပယ်": 1670,
      "မက်": 1671,
      "နိုင်ဘူး": 1672,
      "ခဲ့သလဲ": 1673,
      "လိပ်": 1674,
      "ရောင်းချ": 1675,
      "ကဏ္ဍ": 1676,
      "ကတည်းက": 1677,
      "သတ္": 1678,
      "မှာလည်း": 1679,
      "အနေဖြင့်": 1680,
      "ငွေကြေး": 1681,
      "စိုက်ပျိုးရေး": 1682,
      "ခန့်": 1683,
      "ဖုန်း": 1684,
      "ကျွန်မတို့": 1685,
      "မူး": 1686,
      "တ္တံ": 1687,
      "သုတ္တံ": 1688,
      "ပျက်စီး": 1689,
      "ဒေါ်အောင်ဆန်း": 1690,
      "ဓမ္မ": 1691,
      "စီစဉ်": 1692,
      "ကန့်": 1693,
      "တီး": 1694,
      "အချက်အလက်": 1695,
      "လိုက်နာ": 1696,
      "သောကြောင့်": 1697,
      "ယုံကြည်စိတ်ချ": 1698,
      "အားလုံးကို": 1699,
      "ယာကုပ်": 1700,
      "ဆည်း": 1701,
      "ဗဟို": 1702,
      "များအတွက်": 1703,
      "ဖွယ်": 1704,
      "ဗာ": 1705,
      "မပြု": 1706,
      "၃၁": 1707,
      "ရယ်": 1708,
      "ဝင်ရောက်": 1709,
      "ဝန်းကျင်": 1710,
      "အနည်း": 1711,
      "ဘုရားသခင်ရဲ့": 1712,
      "ပေးတဲ့": 1713,
      "ယေရှုရဲ့": 1714,
      "ကျေးရွာ": 1715,
      "ခဏ": 1716,
      "ခိုင်း": 1717,
      "ီးယား": 1718,
      "မည်ဟု": 1719,
      "မျှတ": 1720,
      "သူငယ်ချင်း": 1721,
      "သောင်း": 1722,
      "နိုင်ငံရေး": 1723,
      "အခြေခံဥပဒေ": 1724,
      "နေပြည်တော်ကောင်စီ": 1725,
      "ဒေါ်အောင်ဆန်းစုကြည်": 1726,
      "မြေကြီး": 1727,
      "ဂု": 1728,
      "အလှ": 1729,
      "ဧက": 1730,
      "စကားလုံး": 1731,
      "ရှိကြောင်း": 1732,
      "လက်တွေ့": 1733,
      "လေးစား": 1734,
      "မြဲ": 1735,
      "လျော့": 1736,
      "ငါ့": 1737,
      "ပြည့်စုံ": 1738,
      "ကိုးကွယ်": 1739,
      "ဘယ်သူ": 1740,
      "နည်းပညာ": 1741,
      "စရိတ်": 1742,
      "ညစ်": 1743,
      "ဒံ": 1744,
      "ပညာအ": 1745,
      "အကြမ်း": 1746,
      "ယှဉ်": 1747,
      "in": 1748,
      "ခြင်းက": 1749,
      "အဖြေ": 1750,
      "ဆိုတယ်": 1751,
      "ရှိလာ": 1752,
      "မြန်း": 1753,
      "ရေးကော်မတီ": 1754,
      "တွေး": 1755,
      "ခဲ့ရ": 1756,
      "ပြောခဲ့တယ်": 1757,
      "မှုနဲ့": 1758,
      "ထားပါ": 1759,
      "ပေါ်မှာ": 1760,
      "နေပြီ": 1761,
      "ဆောင်း": 1762,
      "သင့်": 1763,
      "တွေလည်း": 1764,
      "စုပေါင်း": 1765,
      "နေပြည်တော်တွင်": 1766,
      "အကျင့်": 1767,
      "ရဲတပ်ဖွဲ့": 1768,
      "ထောက်ခံ": 1769,
      "အနာ": 1770,
      "ဧသ": 1771,
      "သန့်ရှင်း": 1772,
      "ပညာအလိမ္မာ": 1773,
      "ယစ်": 1774,
      "ချီ": 1775,
      "စိတ်ဝင်": 1776,
      "အင်အား": 1777,
      "ယနေ့": 1778,
      "လိုင်း": 1779,
      "စကားကို": 1780,
      "မု": 1781,
      "ဖြစ်သူ": 1782,
      "ဖြစ်စဉ်": 1783,
      "ခဲ့ရတယ်": 1784,
      "အခမ်း": 1785,
      "လယ်ယာ": 1786,
      "စခန်း": 1787,
      "စည်းကမ်း": 1788,
      "အထက်ပါ": 1789,
      "တာမျိုး": 1790,
      "သက်သာ": 1791,
      "စိစစ်": 1792,
      "ဖြည်း": 1793,
      "လုပ်ကိုင်": 1794,
      "ဆေးဝါး": 1795,
      "လုပ်ငန်းစဉ်": 1796,
      "ယခင်": 1797,
      "စကားပြော": 1798,
      "မူးယစ်": 1799,
      "ဋ္ဌာန်း": 1800,
      "ဂုဏ်": 1801,
      "ပရော": 1802,
      "လုံးဝ": 1803,
      "စီရင်": 1804,
      "အရမ်း": 1805,
      "အဖွဲ့ဝင်": 1806,
      "ဂရုစိုက်": 1807,
      "ယောင်": 1808,
      "ထားသည့်": 1809,
      "ချက်များ": 1810,
      "စေတဲ့": 1811,
      "လျင်": 1812,
      "ဖော်ပြတယ်": 1813,
      "ဖယ်": 1814,
      "အလေး": 1815,
      "ပြဋ္ဌာန်း": 1816,
      "ပြုစု": 1817,
      "သွားမှာ": 1818,
      "အချို့": 1819,
      "ကိုပဲ": 1820,
      "ခြံ": 1821,
      "တောင်းဆို": 1822,
      "ဒေါသ": 1823,
      "အခမ်းအနား": 1824,
      "ကြပ်": 1825,
      "တဲ့သူတွေ": 1826,
      "ခြင်": 1827,
      "အမျိုးမျိုး": 1828,
      "လော့": 1829,
      "မဲဆန္ဒနယ်": 1830,
      "နတ်": 1831,
      "နိုင်အောင်": 1832,
      "စာချုပ်": 1833,
      "သူတို့ကို": 1834,
      "ထောက်ပံ့": 1835,
      "ပြည်သူ့လွှတ်တော်ကိုယ်စားလှယ်": 1836,
      "ကြေညာ": 1837,
      "နိုင်စွမ်း": 1838,
      "မှုရှိ": 1839,
      "ဟုပြောသည်": 1840,
      "လှစ်": 1841,
      "သင်တန်း": 1842,
      "န္ဓာ": 1843,
      "အာဗြ": 1844,
      "မင်": 1845,
      "ဖြစ်နိုင်တယ်": 1846,
      "တာတွေ": 1847,
      "လူတွေကို": 1848,
      "ရှင်းပြ": 1849,
      "တောင်သူ": 1850,
      "ရမယ့်": 1851,
      "မြူ": 1852,
      "လျှပ်": 1853,
      "တက်ရောက်": 1854,
      "ကြိုတင်": 1855,
      "ဏီ": 1856,
      "ရအောင်": 1857,
      "ပါပြီ": 1858,
      "ပြည်သူများ": 1859,
      "စေချင်": 1860,
      "ထူ": 1861,
      "အများစု": 1862,
      "တခြားသူတွေ": 1863,
      "ပရောဖက်": 1864,
      "ရေးသား": 1865,
      "လုပ်ရပ်": 1866,
      "အကြောင်းရင်း": 1867,
      "ဖမ်းဆီး": 1868,
      "ခဲ့သော": 1869,
      "သမ္မာကျမ်းစာမှာ": 1870,
      "ခန္ဓာ": 1871,
      "on": 1872,
      "အမျိုးသားလွှတ်တော်": 1873,
      "အကြမ်းဖက်": 1874,
      "ဌေး": 1875,
      "တော်တော်": 1876,
      "ပေးခြင်း": 1877,
      "မီဒီ": 1878,
      "ကာကွယ်ရေး": 1879,
      "အကောင်းဆုံး": 1880,
      "မလို": 1881,
      "ပဏီ": 1882,
      "မဟာ": 1883,
      "ကြောက်": 1884,
      "နှစ်ဦး": 1885,
      "နိုင်ငံတကာ": 1886,
      "ကောင်းကင်တမန်": 1887,
      "အပြီး": 1888,
      "။၎": 1889,
      "ဖွေ": 1890,
      "ကုမ္": 1891,
      "ကလေးကို": 1892,
      "ကုမ္ပဏီ": 1893,
      "ရူး": 1894,
      "ကျွမ်း": 1895,
      "မှန်ကန်": 1896,
      "တိုက်တွန်း": 1897,
      "အတိုင်ပင်ခံပုဂ္ဂိုလ်": 1898,
      "နိုဝင်": 1899,
      "တစ်ခုကို": 1900,
      "ဘာသာစကား": 1901,
      "ထိန်းချုပ်": 1902,
      "မီဒီယာ": 1903,
      "အရေ": 1904,
      "ဖြစ်ပွား": 1905,
      "ပြည်တွင်း": 1906,
      "ရှာဖွေ": 1907,
      "တရုတ်": 1908,
      "ဝင်းက": 1909,
      "အို": 1910,
      "ရှေ": 1911,
      "ထားကြောင်း": 1912,
      "လွှာ": 1913,
      "မူလ": 1914,
      "ရုသ": 1915,
      "လွတ်လပ်": 1916,
      "နောင်": 1917,
      "နိုင်ရေး": 1918,
      "နိုင်ငံခြား": 1919,
      "စ္ဆာ": 1920,
      "ဘတ်": 1921,
      "ကြဘူး": 1922,
      "တော်ကို": 1923,
      "ဖွင့်": 1924,
      "နည်းနဲ့": 1925,
      "သုံးသပ်ကြည့်ပါ": 1926,
      "ရခိုင်ပြည်နယ်": 1927,
      "ထွေး": 1928,
      "တာလဲ": 1929,
      "လာပြီး": 1930,
      "ဘာမှ": 1931,
      "ဘုရားရဲ့": 1932,
      "ရင်ဆိုင်": 1933,
      "မွေးမြူ": 1934,
      "လျှပ်စစ်": 1935,
      "ဝိုင်း": 1936,
      "ပေးခဲ့တယ်": 1937,
      "ဦးစား": 1938,
      "လွန်း": 1939,
      "စုစုပေါင်း": 1940,
      "ကွင်း": 1941,
      "ကုန်း": 1942,
      "သီးနှံ": 1943,
      "နိုဝင်ဘာ": 1944,
      "ကွန်": 1945,
      "ဆောင်ရွက်နေ": 1946,
      "တိုက်ခိုက်": 1947,
      "လိမ့်မည်": 1948,
      "ကိုက်": 1949,
      "ဖြစ်လို့": 1950,
      "မှာတော့": 1951,
      "ထားခြင်း": 1952,
      "သက်တမ်း": 1953,
      "စေ့": 1954,
      "တိရ": 1955,
      "နေပြည်တော်ရှိ": 1956,
      "ပိုပြီး": 1957,
      "အချင်း": 1958,
      "ဒီဇ": 1959,
      "၃၃": 1960,
      "ကိုဗစ်": 1961,
      "ဖြည့်": 1962,
      "တရားမဝင်": 1963,
      "သုတေ": 1964,
      "ကျေနပ်": 1965,
      "စ္ဆာန်": 1966,
      "ဘဏ်": 1967,
      "မည်ဖြစ်သည်": 1968,
      "အဆင့်": 1969,
      "တချို့က": 1970,
      "သွားမည်ဖြစ်ကြောင်း": 1971,
      "လုံခြုံရေး": 1972,
      "ုံ့ပြန်": 1973,
      "စိတ်ဝင်စား": 1974,
      "ခ်": 1975,
      "စလုံး": 1976,
      "ကြိုက်": 1977,
      "လောက": 1978,
      "တိရစ္ဆာန်": 1979,
      "မပေး": 1980,
      "ဟီ": 1981,
      "ဝါဒ": 1982,
      "ဂျူး": 1983,
      "အစည်းအဝေးတွင်": 1984,
      "ခမ": 1985,
      "ယို": 1986,
      "အဆင်": 1987,
      "နဲ့အတူ": 1988,
      "မိန်း": 1989,
      "လိုက်တာ": 1990,
      "ဒုတိယဝန်ကြီး": 1991,
      "ဇန်": 1992,
      "၃၅": 1993,
      "သူဟာ": 1994,
      "ထားသော": 1995,
      "စွန့်": 1996,
      "ထာဝရ": 1997,
      "ဇူ": 1998,
      "သိရှိ": 1999,
      "တရားရုံး": 2000,
      "ခက်ခဲ": 2001,
      "ခို": 2002,
      "တွက်": 2003,
      "ပါစေ": 2004,
      "ဦးက": 2005,
      "ဖွား": 2006,
      "ကောင်းတဲ့": 2007,
      "သို့မဟုတ်": 2008,
      "မူနာ": 2009,
      "အဖွဲ့ချုပ်": 2010,
      "ဖိလိ": 2011,
      "အဖေ": 2012,
      "ကျတော့": 2013,
      "မှုတွေကို": 2014,
      "သွားပြီး": 2015,
      "အခွန်": 2016,
      "အသေး": 2017,
      "အရာရှိ": 2018,
      "စက်တင်": 2019,
      "ထည့်သွင်း": 2020,
      "နမူနာ": 2021,
      "ချမှတ်": 2022,
      "တိကျ": 2023,
      "လိုက်ပါ": 2024,
      "သင့်အိမ်ထောင်ဖက်": 2025,
      "မဆို": 2026,
      "အစ်": 2027,
      "များများ": 2028,
      "ခဲ့ရာ": 2029,
      "မိခင်": 2030,
      "မေးမြန်း": 2031,
      "ရက်နေ့က": 2032,
      "ရောင်": 2033,
      "ဇူလိုင်": 2034,
      "တနာ": 2035,
      "ထုံး": 2036,
      "ယွင်း": 2037,
      "၃၇": 2038,
      "ခဲ့ပါတယ်": 2039,
      "ရာသီ": 2040,
      "လက်ထက်": 2041,
      "တိုင်ကြား": 2042,
      "စက်တင်ဘာ": 2043,
      "ခပ်": 2044,
      "ဒနာ": 2045,
      "ွန်း": 2046,
      "ကြင်နာ": 2047,
      "ဖခင်": 2048,
      "ဦးဆောင်": 2049,
      "ကောင်းကောင်း": 2050,
      "ရွှေ့": 2051,
      "ဝယ်ယူ": 2052,
      "ဖွံ့ဖြိုးတိုးတက်": 2053,
      "မှုမရှိ": 2054,
      "တစ်ဦးက": 2055,
      "တုံ့ပြန်": 2056,
      "နှလုံး": 2057,
      "တစ်ဖက်": 2058,
      "ဘာလုပ်": 2059,
      "အားနည်း": 2060,
      "နည်းလမ်း": 2061,
      "တာဝန်ရှိ": 2062,
      "ဂုတ်": 2063,
      "အနီး": 2064,
      "လာရောက်": 2065,
      "ဦးရေ": 2066,
      "ဒါနဲ့": 2067,
      "လူနာ": 2068,
      "ငြင်း": 2069,
      "ဆောက်လုပ်": 2070,
      "ဝေဒနာ": 2071,
      "ရဖို့": 2072,
      "သဲ": 2073,
      "၄၀": 2074,
      "နှစ်သက်": 2075,
      "ဆုံးရှုံး": 2076,
      "ပင်လယ်": 2077,
      "ကယ်တင်": 2078,
      "လက်နက်ကိုင်": 2079,
      "မောင်း": 2080,
      "ဖြစ်နိုင်": 2081,
      "များမှ": 2082,
      "တစ်ဆင့်": 2083,
      "လွှမ်း": 2084,
      "သမိုင်း": 2085,
      "ညာဉ်": 2086,
      "ပတ်သက်တဲ့": 2087,
      "တန်ခိုး": 2088,
      "မြှင့်": 2089,
      "ဖေဖော်": 2090,
      "အယူ": 2091,
      "၃၄": 2092,
      "သွားလာ": 2093,
      "ခုနစ်": 2094,
      "ဟေဗြ": 2095,
      "အထောက်အထား": 2096,
      "နောဧ": 2097,
      "စာပေ": 2098,
      "ဘုရားသခင်ဟာ": 2099,
      "ထိရောက်": 2100,
      "ဆီကနေ": 2101,
      "ထပ်မံ": 2102,
      "ရည်ရွယ်ချက်": 2103,
      "အခွင့်အရေး": 2104,
      "နဝါရီ": 2105,
      "တာပေါ့": 2106,
      "သောသူ": 2107,
      "တွေ့ရ": 2108,
      "ယေရှုကို": 2109,
      "ဒုတိယအကြိမ်": 2110,
      "ဖိစီး": 2111,
      "ဇန်နဝါရီ": 2112,
      "တစ်နှစ်": 2113,
      "လှည့်": 2114,
      "အောင်က": 2115,
      "ဆေးရုံ": 2116,
      "ဂတ်": 2117,
      "မသန်": 2118,
      "ဧဖက်": 2119,
      "အားကစား": 2120,
      "အရင်း": 2121,
      "ကမ္ဘာ့": 2122,
      "ဖတ်ပါ": 2123,
      "လိုပဲ": 2124,
      "ပြည်ပ": 2125,
      "သိမ့်": 2126,
      "ဘူးလို့": 2127,
      "ပွဲတွင်": 2128,
      "ဂျေ": 2129,
      "ပူးပေါင်းဆောင်ရွက်": 2130,
      "ဖေဖော်ဝါရီ": 2131,
      "စိန်": 2132,
      "ချို": 2133,
      "နိုင်မှာ": 2134,
      "ပေါလု": 2135,
      "တရားဝင်": 2136,
      "အာမခံ": 2137,
      "နေရာမှာ": 2138,
      "ဆယ်ကျော်": 2139,
      "သင်္ဘော": 2140,
      "ဟေဗြဲ": 2141,
      "ခင်း": 2142,
      "မန္တ": 2143,
      "အမည်": 2144,
      "အကြား": 2145,
      "လွှဲ": 2146,
      "လှမ်း": 2147,
      "သင့်ကို": 2148,
      "ဗီ": 2149,
      "စံနှုန်း": 2150,
      "သြဂုတ်": 2151,
      "ဆယ်ကျော်သက်": 2152,
      "မနေ": 2153,
      "ကျယ်": 2154,
      "ဖြစ်သွား": 2155,
      "ချက်ချင်း": 2156,
      "အသံ": 2157,
      "ခုနှစ်တွင်": 2158,
      "သစ္စာရှိ": 2159,
      "အချင်းချင်း": 2160,
      "မန္တလေး": 2161,
      "စတဲ့": 2162,
      "ဟူ": 2163,
      "ကြွ": 2164,
      "တွယ်": 2165,
      "တစ်ရပ်": 2166,
      "ခုကို": 2167,
      "ပတ်ဝန်းကျင်": 2168,
      "တပ်မတော်သား": 2169,
      "သတိပေး": 2170,
      "ထွန်းက": 2171,
      "ညွှန်ကြားရေးမှူး": 2172,
      "ချေးငွေ": 2173,
      "သီရိမြို့နယ်": 2174,
      "ဆည်": 2175,
      "ရစ်": 2176,
      "ဧပြီ": 2177,
      "တောက်": 2178,
      "ဘာတွေ": 2179,
      "နှစ်သိမ့်": 2180,
      "ဖော်ထုတ်": 2181,
      "အတု": 2182,
      "ဒေသခံ": 2183,
      "အခြေခံမူ": 2184,
      "ဆန်းစစ်": 2185,
      "ဖျက်ဆီး": 2186,
      "...": 2187,
      "ဆန့်": 2188,
      "ထန်": 2189,
      "ဦးဇော်": 2190,
      "ဒါက": 2191,
      "မယ်ဆိုတာ": 2192,
      "ဥပဒေကို": 2193,
      "အင်္ဂ": 2194,
      "တိုဘာ": 2195,
      "စည်ပင်သာယာ": 2196,
      "တကျ": 2197,
      "ပိုက်": 2198,
      "ယဉ်": 2199,
      "အမြန်": 2200,
      "ခြင်းမရှိ": 2201,
      "သွားတဲ့": 2202,
      "မှူးကြီး": 2203,
      "မျက်စိ": 2204,
      "အာရုံစိုက်": 2205,
      "လျှော့ချ": 2206,
      "en": 2207,
      "စိမ်း": 2208,
      "ကောင်းမွန်": 2209,
      "ဖော်ပြထား": 2210,
      "လုပ်ငန်းများ": 2211,
      "သေးတယ်": 2212,
      "အမှန်တရား": 2213,
      "ဖွံ့ဖြိုးရေး": 2214,
      "၅၀": 2215,
      "တစ်မျိုး": 2216,
      "စိတ်ဓာတ်": 2217,
      "ယေရှုက": 2218,
      "အောက်တိုဘာ": 2219,
      "ကာလအတွင်း": 2220,
      "ခေါင်းဆောင်": 2221,
      "လှုပ်ရှား": 2222,
      "ti": 2223,
      "ထိုက်": 2224,
      "ဘုရားကို": 2225,
      "ဒါန်း": 2226,
      "ရှုမြင်": 2227,
      "ပညာရေး": 2228,
      "မေ့": 2229,
      "သဖြင့်": 2230,
      "၃၂": 2231,
      "နေကြတယ်": 2232,
      "လုပ်ဖို့": 2233,
      "ခြင်းနှင့်": 2234,
      "အသီး": 2235,
      "သေးဘူး": 2236,
      "မောင်နှံ": 2237,
      "ထွေ": 2238,
      "ချေ": 2239,
      "နှုတ်": 2240,
      "သက်ရှိ": 2241,
      "န္န": 2242,
      "ဒေသနာ": 2243,
      "တာဝန်ယူ": 2244,
      "သွားမည်ဟု": 2245,
      "အခွင့်": 2246,
      "ထည့်": 2247,
      "တစ်ချိန်": 2248,
      "အိုင်": 2249,
      "နိုင်ကြောင်း": 2250,
      "မှုကြောင့်": 2251,
      "ခံယူ": 2252,
      "တွေကိုလည်း": 2253,
      "အကြွေး": 2254,
      "မှန်တဲ့": 2255,
      "ယေရှုဟာ": 2256,
      "လေ့ကျင့်": 2257,
      "ဖွဲ့စည်းပုံအခြေခံဥပဒေ": 2258,
      "ဘာသာပြန်ကျမ်း": 2259,
      "တလေ": 2260,
      "ဆုံးမ": 2261,
      "ဆက်စပ်": 2262,
      "ဆက်ဆံရေး": 2263,
      "တစ်ခါတလေ": 2264,
      "ယက": 2265,
      "အက်": 2266,
      "အပျက်": 2267,
      "ိန်း": 2268,
      "ချိုး": 2269,
      "ချောင်း": 2270,
      "ရှိသည်": 2271,
      "ခဲ့ဘူး": 2272,
      "လာတဲ့အခါ": 2273,
      "သေခြင်း": 2274,
      "ယေဟောဝါသက်သေ": 2275,
      "တတ်တဲ့": 2276,
      "ဖြေကြား": 2277,
      "အထောက်အကူ": 2278,
      "ယု": 2279,
      "အလိုက်": 2280,
      "လုပ်ပေး": 2281,
      "တစ်နိုင်ငံ": 2282,
      "ဝင်ငွေ": 2283,
      "ဦးစီးချုပ်": 2284,
      "အနာဂတ်": 2285,
      "ဇွန်": 2286,
      "ဖာ": 2287,
      "ရေးထိုး": 2288,
      "ဦးအောင်": 2289,
      "မြန်မာ့": 2290,
      "တစ်ယောက်က": 2291,
      "အစိုးရအဖွဲ့": 2292,
      "မောရှေ": 2293,
      "တာတွေကို": 2294,
      "လာအောင်": 2295,
      "ပြည့်": 2296,
      "များကိုလည်း": 2297,
      "ရိယာ": 2298,
      "အိမ်ထောင်ရေး": 2299,
      "ညစ်ည": 2300,
      "မသန်စွမ်း": 2301,
      "ဂေ": 2302,
      "အပြည့်": 2303,
      "သူကို": 2304,
      "ခဲ့သော်လည်း": 2305,
      "ပေးပြီး": 2306,
      "သင့်ရဲ့": 2307,
      "ဂျစ်": 2308,
      "တတ်ကြတယ်": 2309,
      "ဆင်ခြင်": 2310,
      "ကိစ္စရပ်": 2311,
      "ချမ်းသာ": 2312,
      "သဘောတူညီ": 2313,
      "ဂရိ": 2314,
      "အဆုံး": 2315,
      "အမိန့်": 2316,
      "ဖြစ်အောင်": 2317,
      "ပေးပို့": 2318,
      "မာဏ": 2319,
      "ရင်တောင်": 2320,
      "ပူဇော်": 2321,
      "ဖြစ်သော": 2322,
      "တို့သည်": 2323,
      "ခွာ": 2324,
      "ကြည့်": 2325,
      "တောင်သူများ": 2326,
      "ပူပန်": 2327,
      "ကူးစက်": 2328,
      "လှူဒါန်း": 2329,
      "ပျဉ်းမနားမြို့": 2330,
      "ငှက်": 2331,
      "နေတာကို": 2332,
      "မတရား": 2333,
      "ရပ်ကွက်": 2334,
      "ချင်တဲ့": 2335,
      "ဘက်က": 2336,
      "ခဲ့ကြသည်": 2337,
      "ရာဇဝင်": 2338,
      "ပမာဏ": 2339,
      "ဝှ": 2340,
      "ောက်အ": 2341,
      "ဖြစ်သည့်": 2342,
      "များသို့": 2343,
      "တာပါ": 2344,
      "မှာပါ": 2345,
      "ဆိုင်း": 2346,
      "ပုံကို": 2347,
      "ညွှန်း": 2348,
      "ကြိုဟော": 2349,
      "ကျူးလွန်": 2350,
      "ရမိ": 2351,
      "အဘ": 2352,
      "င်ဘာ": 2353,
      "ရှော": 2354,
      "တွေကြောင့်": 2355,
      "နေသည့်": 2356,
      "နေရတဲ့": 2357,
      "သားတွေ": 2358,
      "နာခံ": 2359,
      "ဝေဖန်": 2360,
      "အကြံပြု": 2361,
      "မြှင့်": 2362,
      "ရက်နေ့တွင်": 2363,
      "ပထမဆုံး": 2364,
      "ဒီမိုကရေစီအဖွဲ့ချုပ်": 2365,
      "မွမ်း": 2366,
      "ယျ": 2367,
      "လို့ခေါ်": 2368,
      "တော့မှ": 2369,
      "နိုင်ငံက": 2370,
      "ရန်အတွက်": 2371,
      "ကလေးတွေ": 2372,
      "ပိုင်ဆိုင်": 2373,
      "ဝဝဝ": 2374,
      "ဧသတာ": 2375,
      "ကြံ": 2376,
      "တယ်ဆိုရင်": 2377,
      "ရေးရာ": 2378,
      "စစ်မှန်တဲ့": 2379,
      "ဂျက်": 2380,
      "ကိုယ့်ရဲ့": 2381,
      "မယ့်အစား": 2382,
      "တခြားသူတွေကို": 2383,
      "ဗေဒ": 2384,
      "ဘရူး": 2385,
      "ကြံ့": 2386,
      "ဖြောင့်": 2387,
      "သိမြင်": 2388,
      "ဆောင်ရွက်ပေး": 2389,
      "ဖျား": 2390,
      "မလဲဆိုတာ": 2391,
      "ထူးခြား": 2392,
      "သကဲ့သို့": 2393,
      "အန": 2394,
      "အဖ": 2395,
      "၏”": 2396,
      "င်းတို့": 2397,
      "၂၀၂၀": 2398,
      "သူတွေဟာ": 2399,
      "တချို့ကို": 2400,
      "က္ခာ": 2401,
      "မြောက်ရာ": 2402,
      "မျှော်လင့်ချက်": 2403,
      "ဌေးက": 2404,
      "ညွတ်": 2405,
      "ဧည့်": 2406,
      "နေခြင်း": 2407,
      "ဖြစ်ဖြစ်": 2408,
      "ရင်ခံ": 2409,
      "လျော်": 2410,
      "ကျွန်မရဲ့": 2411,
      "စွမ်းအား": 2412,
      "ဆိပ်": 2413,
      "မမြင်": 2414,
      "ရှစ်": 2415,
      "နေပါတယ်": 2416,
      "နေရတယ်": 2417,
      "ပေးအပ်": 2418,
      "မူဝါဒ": 2419,
      "ဖော်ပြထားတဲ့": 2420,
      "ထွက်မြောက်ရာ": 2421,
      "ဆီက": 2422,
      "ဉာဏ်ပညာ": 2423,
      "လွှမ်းမိုး": 2424,
      "မဏ္ဍ": 2425,
      "လည်းကောင်း": 2426,
      "ခိုင်မြဲ": 2427,
      "အုပ်စု": 2428,
      "အဆောက်အ": 2429,
      "ဘာသာရေး": 2430,
      "ဖယ်ရှား": 2431,
      "ရီးယား": 2432,
      "အိ": 2433,
      "သုံးပြီး": 2434,
      "ခရိုင်": 2435,
      "ဒီဇင်ဘာ": 2436,
      "အရက်": 2437,
      "ိမ့်": 2438,
      "နေပြီး": 2439,
      "မှုများကို": 2440,
      "သွားတဲ့အခါ": 2441,
      "နာကျင်": 2442,
      "သလဲဆိုတာ": 2443,
      "ဂျပန်": 2444,
      "တစ်ယောက်ကို": 2445,
      "သတင်းစာ": 2446,
      "တံတား": 2447,
      "အစီရင်ခံ": 2448,
      "ဆဲလ်": 2449,
      "ကြပါ": 2450,
      "တစ်နေ့": 2451,
      "လူထု": 2452,
      "သင့်ကလေး": 2453,
      "ရှေ့နေ": 2454,
      "သတိရ": 2455,
      "ဟီဘရူး": 2456,
      "ဆန့်ကျင်": 2457,
      "အကုန်": 2458,
      "ထားသည့်": 2459,
      "မိတယ်": 2460,
      "တရားမျှတ": 2461,
      "အကျယ်": 2462,
      "အုံ": 2463,
      "ဆိုလို": 2464,
      "လာတာ": 2465,
      "ဦးကျော်": 2466,
      "ဂျင်": 2467,
      "အရာတွေကို": 2468,
      "မိဘတွေ": 2469,
      "မြှုပ်": 2470,
      "ထည့်သွင်း": 2471,
      "ပမ်း": 2472,
      "အရှင်": 2473,
      "မှသာ": 2474,
      "ရေးအဖွဲ့": 2475,
      "နိုင်ငံသား": 2476,
      "စေဖို့": 2477,
      "ကောင်းချီး": 2478,
      "မိမိတို့": 2479,
      "ညစ်ညမ်း": 2480,
      "၊”": 2481,
      "ကြယ်": 2482,
      "ချထား": 2483,
      "လွင်": 2484,
      "တို့က": 2485,
      "နာယက": 2486,
      "သင့်တယ်": 2487,
      "ယေဟောဝါဘုရားက": 2488,
      "စိုးရိမ်ပူပန်": 2489,
      "မကြာခင်": 2490,
      "al": 2491,
      "ဖိတ်": 2492,
      "ရတနာ": 2493,
      "သိုး": 2494,
      "ဦးဆုံး": 2495,
      "တော့မှာ": 2496,
      "ထမ်းဆောင်": 2497,
      "ဝိညာဉ်": 2498,
      "အဲဒါက": 2499,
      "အမေရိ": 2500,
      "အကြောင်းကို": 2501,
      "လုပ်ငန်းရှင်": 2502,
      "ကောက်ခံ": 2503,
      "ထင်ရှား": 2504,
      "ပ္ပိ": 2505,
      "အသိအမှတ်": 2506,
      "ဖိလိပ္ပိ": 2507,
      "တပ": 2508,
      "ရပါတယ်": 2509,
      "လတ်": 2510,
      "ဟင်": 2511,
      "အဝ": 2512,
      "မြောင်း": 2513,
      "ပြီးခဲ့သည့်": 2514,
      "နဲ့ပတ်သက်တဲ့": 2515,
      "ဒါကို": 2516,
      "ကျမ်းစာကို": 2517,
      "နေ့စဉ်": 2518,
      "ဖြစ်တယ်လို့": 2519,
      "တကယ်တော့": 2520,
      "တတိယ": 2521,
      "မိုင်း": 2522,
      "ရာကို": 2523,
      "ကြီးကြပ်": 2524,
      "တော့တယ်": 2525,
      "စိတ်ရှည်": 2526,
      "လျံ": 2527,
      "ဆောင်ရွက်လျက်ရှိ": 2528,
      "စုံစမ်း": 2529,
      "မွေးဖွား": 2530,
      "အမှုဆောင်": 2531,
      "ခရီးသွား": 2532,
      "မူးယစ်ဆေးဝါး": 2533,
      "တပည့်": 2534,
      "လိမ်": 2535,
      "ဟံ": 2536,
      "အနိုင်": 2537,
      "တာပဲ": 2538,
      "အာဒံ": 2539,
      "ခါး": 2540,
      "အီဂျစ်": 2541,
      "ဆပ်": 2542,
      "ဆလင်": 2543,
      "မထား": 2544,
      "အော်": 2545,
      "အရှေ့": 2546,
      "ဖြူ": 2547,
      "နှိမ့်": 2548,
      "တစ်အုပ်": 2549,
      "ပျံ": 2550,
      "ရိပ်": 2551,
      "ယေဟောဝါရဲ့": 2552,
      "မြန်မာတိုင်း": 2553,
      "ကျေးဇူးတင်": 2554,
      "ကိုဖတ်ပါ": 2555,
      "လိုပါတယ်": 2556,
      "တော့မယ်": 2557,
      "မူတည်": 2558,
      "ဆွေးနွေးပွဲ": 2559,
      "စနစ်တကျ": 2560,
      "အမြဲတမ်း": 2561,
      "အာဗြဟံ": 2562,
      "နှိမ့်ချ": 2563,
      "စောင့်": 2564,
      "အဂ": 2565,
      "သူတွေက": 2566,
      "ခြင်းသည်": 2567,
      "လှိုင်": 2568,
      "လုံးကို": 2569,
      "ဆောင်ရွက်ရန်": 2570,
      "အနေအထား": 2571,
      "ပညာရှိ": 2572,
      "လောက်ပဲ": 2573,
      "တစ်ယောက်ယောက်": 2574,
      "ကျောင်းသား": 2575,
      "ဖွင့်လှစ်": 2576,
      "သဘာဝဘေး": 2577,
      "သမျှကို": 2578,
      "ဘဏ္ဍာနှစ်": 2579,
      "ချီးမွမ်း": 2580,
      "လက်တွေ့ကျ": 2581,
      "ဆောင်းပါး": 2582,
      "or": 2583,
      "ကဘ": 2584,
      "အနှ": 2585,
      "၀န်": 2586,
      "တွင်လည်း": 2587,
      "အထွေ": 2588,
      "ယေဟောဝါဘုရားရဲ့": 2589,
      "ဗု": 2590,
      "ဘာလဲ": 2591,
      "တောင်းခံ": 2592,
      "ရွေးကောက်ပွဲကော်မရှင်": 2593,
      "နောက်ပိုင်းမှာ": 2594,
      "ယောနသန်": 2595,
      "အသား": 2596,
      "အလား": 2597,
      "တစ်ကြိမ်": 2598,
      "နားမ": 2599,
      "အတွင်းရှိ": 2600,
      "အမှန်တကယ်": 2601,
      "ဒီနေ့ခေတ်": 2602,
      "အစီရင်ခံစာ": 2603,
      "အဂတိ": 2604,
      "စပြီး": 2605,
      "မွှ": 2606,
      "အပြန်": 2607,
      "ျား": 2608,
      "စားသောက်": 2609,
      "သက်ဆိုင်": 2610,
      "ယောက်ျား": 2611,
      "အရပ်": 2612,
      "ရုဆလင်": 2613,
      "ကုန်သွယ်": 2614,
      "ယေဟောဝါဘုရားကို": 2615,
      "ဆရာဝန်": 2616,
      "ပွင့်လင်း": 2617,
      "ဂျေရုဆလင်": 2618,
      "အထွေထွေ": 2619,
      "ရိုင်း": 2620,
      "ပြောထားတယ်": 2621,
      "ယေလ": 2622,
      "မူကြမ်း": 2623,
      "င်းကော်": 2624,
      "၂၀၁၈": 2625,
      "ခိုင်မာ": 2626,
      "ကြိုးပမ်း": 2627,
      "စံနမူနာ": 2628,
      "ရုပ်ပုံ": 2629,
      "သံသ": 2630,
      "အရေးကြီးတဲ့": 2631,
      "နံနက်": 2632,
      "လက်မှတ်ရေးထိုး": 2633,
      "အနည်းငယ်": 2634,
      "ယျာ": 2635,
      "အသိအမှတ်ပြု": 2636,
      "ရံ": 2637,
      "နေသော": 2638,
      "နှိပ်": 2639,
      "ရာမှာ": 2640,
      "လူတွေဟာ": 2641,
      "တောင်းပန်": 2642,
      "သတိပြု": 2643,
      "ဆုံးဖြတ်ချက်": 2644,
      "အဆောက်အအုံ": 2645,
      "့အပြင်": 2646,
      "နေကြောင်း": 2647,
      "သူတစ်ပါး": 2648,
      "သွားရောက်": 2649,
      "တရားဟော": 2650,
      "ယေရှုခရစ်": 2651,
      "အရာကို": 2652,
      "အမျိုးသားဒီမိုကရေစီအဖွဲ့ချုပ်": 2653,
      "သိမ်းဆည်း": 2654,
      "မရဘူး": 2655,
      "စိုးက": 2656,
      "ပညာရှင်တွေ": 2657,
      "ဦးစားပေး": 2658,
      "ခ်ျ": 2659,
      "နိုး": 2660,
      "အတိ": 2661,
      "၄၅": 2662,
      "မျဉ်း": 2663,
      "တို့တွင်": 2664,
      "ကိုယ်တော့်": 2665,
      "စေနိုင်တယ်": 2666,
      "လိုက်စား": 2667,
      "နောက်ထပ်": 2668,
      "ငွေကို": 2669,
      "ရမယ်လို့": 2670,
      "ကိုက်ညီ": 2671,
      "စည်ပင်သာယာရေးကော်မတီ": 2672,
      "မှာဖြစ်တယ်": 2673,
      "ချက်က": 2674,
      "နှစ်ခု": 2675,
      "ဘယ်တော့မှ": 2676,
      "တွေကနေ": 2677,
      "၂၀၁၉": 2678,
      "ရှိတယ်လို့": 2679,
      "ယခုလ": 2680,
      "ထို့ပြင်": 2681,
      "ဟိုတယ်": 2682,
      "ကာကွယ်ရေးဦးစီးချုပ်": 2683,
      "တစ်နိုင်ငံလုံး": 2684,
      "အမေရိကန်": 2685,
      "ုန်": 2686,
      "ရှုပ်": 2687,
      "ဖြစ်လာတယ်": 2688,
      "သူကြီး": 2689,
      "အတွေး": 2690,
      "သိထား": 2691,
      "ကိုယ်ပိုင်": 2692,
      "သာမက": 2693,
      "ပေါ်လာ": 2694,
      "ညီညွတ်": 2695,
      "မြင်ယောင်": 2696,
      "အခြေအနေကို": 2697,
      "ဓာတ်အား": 2698,
      "ခရီးသည်": 2699,
      "နာမည်ကို": 2700,
      "နောမိ": 2701,
      "ဖြောင့်မတ်": 2702,
      "င်းကော်မတီ": 2703,
      "နော်": 2704,
      "ရှိသော": 2705,
      "စာမူ": 2706,
      "လာခံ": 2707,
      "သွားပြီ": 2708,
      "နှစ်ပေါင်း": 2709,
      "ညီလာခံ": 2710,
      "စက်ရုံ": 2711,
      "၀၀၀": 2712,
      "သေချာတယ်": 2713,
      "ဗေလ": 2714,
      "ဘတ်ဂျက်": 2715,
      "မိုင်": 2716,
      "ရခြင်း": 2717,
      "လဒ်": 2718,
      "သနာ": 2719,
      "ဦးသိန်း": 2720,
      "ကြီးမား": 2721,
      "နည်းနည်း": 2722,
      "သို့သော်": 2723,
      "နီးပါး": 2724,
      "လောသဲ": 2725,
      "ကျပ်သိန်း": 2726,
      "ကောလောသဲ": 2727,
      "အဲဒါကို": 2728,
      "ငှား": 2729,
      "ထမြောက်": 2730,
      "လန်": 2731,
      "အရှိ": 2732,
      "အပြောင်း": 2733,
      "ဖြစ်တဲ့အတွက်": 2734,
      "စွက်": 2735,
      "ပိုင်းမှာ": 2736,
      "အဖြစ်အပျက်": 2737,
      "ဝန်ထမ်းများ": 2738,
      "ဦးဇော်ဌေးက": 2739,
      "ရှောလု": 2740,
      "တရားဟောရာ": 2741,
      "တက": 2742,
      "ဗော": 2743,
      "ဟန္န": 2744,
      "င်္ဂ": 2745,
      "ပါသလဲ": 2746,
      "ပြီးတဲ့": 2747,
      "ဦးကို": 2748,
      "သွားနိုင်တယ်": 2749,
      "ကျမ်းစာအကြံပြုချက်": 2750,
      "တည်ငြိမ်": 2751,
      "စက်မှု": 2752,
      "အထူးသဖြင့်": 2753,
      "ပီ": 2754,
      "သခင်": 2755,
      "အပြု": 2756,
      "အလဲ": 2757,
      "မှီ": 2758,
      "ချဲ့": 2759,
      "ပါသလား": 2760,
      "သူနဲ့": 2761,
      "တစ်စုံ": 2762,
      "ထားရှိ": 2763,
      "လာမည့်": 2764,
      "ရင်တော့": 2765,
      "လက်မခံ": 2766,
      "စေနိုင်": 2767,
      "စိတ်ကို": 2768,
      "အိမ်ရာ": 2769,
      "တရားစွဲ": 2770,
      "မရှိပါဘူး": 2771,
      "စဉ်းစားကြည့်ပါ": 2772,
      "လွယ်ကူ": 2773,
      "ခွင့်ပြု": 2774,
      "ကန့်ကွက်": 2775,
      "ကျွမ်းကျင်": 2776,
      "အရေအတွက်": 2777,
      "အစ်ကို": 2778,
      "ဂျေရုဆလင်မြို့": 2779,
      "ကိုင်း": 2780,
      "ပါ့": 2781,
      "ချက်အရ": 2782,
      "မာသ": 2783,
      "ဖို့အတွက်": 2784,
      "သင်ပေး": 2785,
      "လယ်ယာမြေ": 2786,
      "အခွင့်အရေး": 2787,
      "ကြံ့ခိုင်": 2788,
      "နွ": 2789,
      "စာရာ": 2790,
      "ခင်ဗျ": 2791,
      "လေးတွေ": 2792,
      "မြို့တော်": 2793,
      "အသုံးစရိတ်": 2794,
      "ပိုင်ခွင့်": 2795,
      "မော်တော်": 2796,
      "အဆင်ပြေ": 2797,
      "လစ်": 2798,
      "ပါမယ်": 2799,
      "သူများကို": 2800,
      "လိုက်ရ": 2801,
      "ယူမှတ်": 2802,
      "တရားသူကြီး": 2803,
      "ထုတ်ဖော်": 2804,
      "၂၀၁၇": 2805,
      "ကိစ္စကို": 2806,
      "ကပြောသည်": 2807,
      "ဘွ": 2808,
      "ဟင်း": 2809,
      "အပေါင်း": 2810,
      "အပင်": 2811,
      "ကြော": 2812,
      "တစ်ကိုယ်": 2813,
      "ကြီးကို": 2814,
      "ဒါ့အပြင်": 2815,
      "နစ်နာ": 2816,
      "ဖြည်းဖြည်း": 2817,
      "မန်း": 2818,
      "သင်း": 2819,
      "အဘယ်": 2820,
      "၃၈": 2821,
      "တဲ့အထိ": 2822,
      "သည်း": 2823,
      "သည်ကို": 2824,
      "နိုင်ရေးအတွက်": 2825,
      "လို့လည်း": 2826,
      "လူတိုင်း": 2827,
      "လက်ရေး": 2828,
      "ပြန်ဆို": 2829,
      "ခွင်": 2830,
      "ဟောပြော": 2831,
      "ဖော်ပြထားပါတယ်": 2832,
      "ရပ်စ": 2833,
      "သတ္တ": 2834,
      "တာဝန်ရှိသူများ": 2835,
      "စော": 2836,
      "သန": 2837,
      "ဠာ": 2838,
      "၁ကောရိန္သု": 2839,
      "ကြလော့": 2840,
      "စာနာ": 2841,
      "ပြည်ခိုင်": 2842,
      "သိချင်": 2843,
      "လူတစ်ယောက်": 2844,
      "သက်ရောက်": 2845,
      "မျိုးကို": 2846,
      "တရားစီရင်": 2847,
      "ဒေါ်လာ": 2848,
      "မှတ်တမ်းတင်": 2849,
      "လျော့နည်း": 2850,
      "ယဉ်ကျေး": 2851,
      "အသီးသီး": 2852,
      "သံသယ": 2853,
      "အတိအကျ": 2854,
      "နန်း": 2855,
      "မုန်း": 2856,
      "ခြင်းများ": 2857,
      "ခြင်းအားဖြင့်": 2858,
      "သွားတာ": 2859,
      "သွားဖို့": 2860,
      "တင်ပို့": 2861,
      "လိုက်တဲ့": 2862,
      "ပုံရတယ်": 2863,
      "သတင်းမီဒီယာ": 2864,
      "အောက်ပါ": 2865,
      "ပါတီဝင်": 2866,
      "ဇနီးမောင်နှံ": 2867,
      "သမ္မာကျမ်းစာက": 2868,
      "ဆင်းရဲဒုက္ခ": 2869,
      "အလှန်": 2870,
      "အနှစ်": 2871,
      "တစ်ဆ": 2872,
      "သာမန်": 2873,
      "ပြောဆိုရာ": 2874,
      "ခွဲခြား": 2875,
      "ဖန်တီး": 2876,
      "ဆည်မြောင်း": 2877,
      "မြှုပ်နှံ": 2878,
      "တကယ့်": 2879,
      "ခင်ဗျား": 2880,
      "ic": 2881,
      "မနက်": 2882,
      "ရင့်": 2883,
      "ဝက်": 2884,
      "ဟပ်": 2885,
      "အသင့်": 2886,
      "အတွေ့": 2887,
      "နိုင်မလဲ": 2888,
      "မှုက": 2889,
      "လို့ပဲ": 2890,
      "အဲဒီအချိန်": 2891,
      "စွပ်": 2892,
      "မရှိဘဲ": 2893,
      "မိသားစုဝင်": 2894,
      "လက်ရှိတွင်": 2895,
      "ထိုသို့": 2896,
      "ကျင့်သုံး": 2897,
      "ကြုံတွေ့": 2898,
      "ပြင်းထန်": 2899,
      "ဦးဝင်းမြင့်": 2900,
      "ပြည်ခိုင်ဖြိုး": 2901,
      "မပါ": 2902,
      "ရ်": 2903,
      "ရလဒ်": 2904,
      "လာမယ်": 2905,
      "နှစ်အရွယ်": 2906,
      "စိတ်ပိုင်း": 2907,
      "သင်ခန်း": 2908,
      "တဲ့အခါမှာ": 2909,
      "ခန့်ခွဲ": 2910,
      "ဖန်ဆင်းရှင်": 2911,
      "နှိုင်းယှဉ်": 2912,
      "ငြိမ်သက်": 2913,
      "သတ္တိ": 2914,
      "လို့ခေါ်တဲ့": 2915,
      "တစ်လျှောက်": 2916,
      "ပေါင်းကော်မတီ": 2917,
      "သင်ကြား": 2918,
      "အတတ်": 2919,
      "နည်းကို": 2920,
      "စည်းမျဉ်း": 2921,
      "ပိုင်းက": 2922,
      "ကျွန်တော်တို့ရဲ့": 2923,
      "ပြစ်ဒဏ်": 2924,
      "လယ်ဝေး": 2925,
      "ကျွန်တော့်ကို": 2926,
      "ထံမှ": 2927,
      "တားဆီး": 2928,
      "အသေးစိတ်": 2929,
      "အပြန်အလှန်": 2930,
      "တဖြည်းဖြည်း": 2931,
      "ရေးလုပ်ငန်း": 2932,
      "အစော": 2933,
      "မည်ဖြစ်ပြီး": 2934,
      "ရန်ပုံ": 2935,
      "လျဉ်း": 2936,
      "ပေါ်ပေါက်": 2937,
      "မတိုင်": 2938,
      "အတွင်းရေးမှူး": 2939,
      "မဲပေး": 2940,
      "ကိုင်တွယ်": 2941,
      "ပို့ဆောင်": 2942,
      "သွားမည်ဖြစ်သည်": 2943,
      "အသိပညာ": 2944,
      "ဆင့်ကဲ": 2945,
      "ရှေးခေတ်": 2946,
      "အနည်းဆုံး": 2947,
      "၄၁": 2948,
      "ဖြစ်နေတယ်": 2949,
      "အဲဒီအခါ": 2950,
      "ဂျီ": 2951,
      "အစိုးရလက်ထက်": 2952,
      "ဒုတိယသမ္မတ": 2953,
      "ကျေးလက်": 2954,
      "စီမံခန့်ခွဲ": 2955,
      "ဘာကြောင့်လဲ": 2956,
      "ဇာတ": 2957,
      "ဒဏ်ရာ": 2958,
      "ခွန်အား": 2959,
      "သုတေသန": 2960,
      "အပြောင်းအလဲ": 2961,
      "အယ်": 2962,
      "အဝတ်": 2963,
      "၃၆": 2964,
      "ရှ်": 2965,
      "ရှမ်း": 2966,
      "စာတန်": 2967,
      "စိတ်ပျက်": 2968,
      "တစ်ခုခု": 2969,
      "တစ်ယောက်တည်း": 2970,
      "ကျွန်မကို": 2971,
      "ယှက်": 2972,
      "ဘီလျံ": 2973,
      "အဂတိလိုက်စား": 2974,
      "မပြတ်": 2975,
      "၄၂": 2976,
      "မာကု": 2977,
      "သည့်အတွက်": 2978,
      "မှတ်ချက်": 2979,
      "ဘုရားသခင်နဲ့": 2980,
      "မူရင်း": 2981,
      "ချင်တယ်": 2982,
      "တစ်ယောက်နဲ့": 2983,
      "သဘောပေါက်": 2984,
      "ပျဉ်းမနားမြို့နယ်": 2985,
      "ပြုပြင်ပြောင်းလဲ": 2986,
      "ဓမ္မရာဇဝင်": 2987,
      "၁ဝ": 2988,
      "ပြောတဲ့": 2989,
      "စိတ်နှလုံး": 2990,
      "သင်ဟာ": 2991,
      "ရက်မှ": 2992,
      "အတွင်းမှာ": 2993,
      "တစ်ခုက": 2994,
      "အလုပ်လုပ်": 2995,
      "တိုက်ရိုက်": 2996,
      "လိုအပ်တဲ့": 2997,
      "သေးကြောင်း": 2998,
      "အစားအစာ": 2999,
      "ပူးပေါင်းကော်မတီ": 3000,
      "မော်တော်ယာဉ်": 3001,
      "ဝ၀": 3002,
      "ပြန်ရှင်": 3003,
      "ခရစ်တော်": 3004,
      "ရန်ပုံငွေ": 3005,
      "it": 3006,
      "အသေ": 3007,
      "လာကြတယ်": 3008,
      "ခံ့": 3009,
      "ချက်များကို": 3010,
      "သမဂ္ဂ": 3011,
      "လှောင်": 3012,
      "အထင်": 3013,
      "ကွပ်": 3014,
      "သို့သော်လည်း": 3015,
      "ခဲ့သည်ဟု": 3016,
      "ကလေးတွေကို": 3017,
      "ခံစားနေရ": 3018,
      "ကျွန်တော်တို့က": 3019,
      "တိုးချဲ့": 3020,
      "ရည်ညွှန်း": 3021,
      "ဘဝကို": 3022,
      "ပြီးတဲ့နောက်": 3023,
      "သင်ခန်းစာ": 3024,
      "စသည့်": 3025,
      "တင့်": 3026,
      "လက္ခ": 3027,
      "အံ": 3028,
      "အလှူ": 3029,
      "၃၉": 3030,
      "ရာရောက်": 3031,
      "စိတ်ဖိစီး": 3032,
      "လိုက်တဲ့အခါ": 3033,
      "လိက": 3034,
      "ပွဲကို": 3035,
      "ကမ္ဘာမြေ": 3036,
      "အကျိုးရှိ": 3037,
      "ရောဂါပိုး": 3038,
      "အမြစ်": 3039,
      "ညွှန်ကြားရေးမှူးချုပ်": 3040,
      "19": 3041,
      "ဆွ": 3042,
      "ဆိတ်": 3043,
      "ဒ္": 3044,
      "ရှိရင်": 3045,
      "တို့ရဲ့": 3046,
      "လျာ": 3047,
      "လိုက်ရင်": 3048,
      "အင်တာ": 3049,
      "အခုလို": 3050,
      "ဆွေက": 3051,
      "စပ်လျဉ်း": 3052,
      "စောင့်ကြည့်": 3053,
      "လွတ်မြောက်": 3054,
      "ရှေးဟောင်း": 3055,
      "အံ့သြ": 3056,
      "ယှဉ်ပြိုင်": 3057,
      "CA": 3058,
      "တဲ": 3059,
      "မကျ": 3060,
      "အလယ်": 3061,
      "ရှက်": 3062,
      "တာဟာ": 3063,
      "ခုလို": 3064,
      "ကျမ်းစာမူ": 3065,
      "အဲဒီနောက်": 3066,
      "လမ်းကြောင်း": 3067,
      "ပြောကြားခဲ့ခြင်းဖြစ်သည်": 3068,
      "အများဆုံး": 3069,
      "ပြုလုပ်သည့်": 3070,
      "အောက်မှာ": 3071,
      "ကန့်": 3072,
      "လျက်ရှိသည်": 3073,
      "နေပြည်တော်ကောင်စီနယ်မြေ": 3074,
      "ဒံယေလ": 3075,
      "tion": 3076,
      "သတင်းစာရှင်းလင်း": 3077,
      "ဋိ": 3078,
      "မိုက်": 3079,
      "အလင်း": 3080,
      "ကြသည်": 3081,
      "နေတုန်း": 3082,
      "ရေးဆိုင်ရာ": 3083,
      "လုပ်သား": 3084,
      "အစု": 3085,
      "ကိုယ်ခန္ဓာ": 3086,
      "ခင်မောင်": 3087,
      "လိုက်သည်": 3088,
      "ယေဇ": 3089,
      "မဟုတ်လား": 3090,
      "နယ်စပ်": 3091,
      "အကြောင်းအရာ": 3092,
      "အကြုံ": 3093,
      "တိုင်ပင်": 3094,
      "မာရိဟာ": 3095,
      "စမ်းသပ်": 3096,
      "အကြီးအကျယ်": 3097,
      "ဒေါ်အောင်ဆန်းစုကြည်က": 3098,
      "ဘွဲ့": 3099,
      "လက္ခဏာ": 3100,
      "နွေ": 3101,
      "မရောက်": 3102,
      "လောင်": 3103,
      "သယံ": 3104,
      "၀င်": 3105,
      "နှောင်": 3106,
      "ရှိဖို့": 3107,
      "လက်ထပ်": 3108,
      "ပြန်ကြား": 3109,
      "အကြာ": 3110,
      "အသက်ပြန်ရှင်": 3111,
      "ခံစားရတယ်": 3112,
      "အဆိုကို": 3113,
      "ကျွန်တော်တို့ကို": 3114,
      "အချက်ကို": 3115,
      "သစ်တော": 3116,
      "ရုပ်သိမ်း": 3117,
      "ရင်းနှီးမြှုပ်နှံ": 3118,
      "အဲ့ဒီ": 3119,
      "ပယ်ဖျက်": 3120,
      "အတုယူ": 3121,
      "ဇုန်": 3122,
      "ညနေ": 3123,
      "တူး": 3124,
      "ထီး": 3125,
      "တစ်ရက်": 3126,
      "ပြည်ထဲ": 3127,
      "စေပြီး": 3128,
      "နောက်လိုက်": 3129,
      "တွေ့မြင်": 3130,
      "မရှိတော့": 3131,
      "ဆေးလိပ်": 3132,
      "ဖြစ်သည်ဟု": 3133,
      "တ္တ": 3134,
      "အိမ်ထောင်ပြု": 3135,
      "တိုက်ဖျက်": 3136,
      "အသုံးအ": 3137,
      "ပြုလုပ်သည့်": 3138,
      "စွမ်းအင်": 3139,
      "အစားထိုး": 3140,
      "ဗျူ": 3141,
      "ခေါင်": 3142,
      "ပုဂ္ဂလိက": 3143,
      "ကြုံရ": 3144,
      "အုပ်ချုပ်ရေး": 3145,
      "ပြည်သူလူထု": 3146,
      "အတော်များများ": 3147,
      "မုန်": 3148,
      "ခန္ဓာကိုယ်": 3149,
      "၀န်ကြီး": 3150,
      "ထိုင်း": 3151,
      "ဒရယ်": 3152,
      "ဖုံး": 3153,
      "ဘင်္ဂ": 3154,
      "၄၄": 3155,
      "ချိန်း": 3156,
      "ဖြစ်ဖို့": 3157,
      "လိုချင်": 3158,
      "ပြောတာ": 3159,
      "လူတွေရဲ့": 3160,
      "မည်ဖြစ်": 3161,
      "ဘုရားသခင်ဆီ": 3162,
      "တွေကလည်း": 3163,
      "ခိုင်ခံ့": 3164,
      "ပြောဆိုခဲ့သည်": 3165,
      "ထွက်လာ": 3166,
      "အကြံပေး": 3167,
      "လျှောက်ထား": 3168,
      "ကြိမ်မြောက်": 3169,
      "မွေ့": 3170,
      "ဦးဝင်းမြင့်": 3171,
      "သုတေသီ": 3172,
      "စွမ်းအားတော်": 3173,
      "အင်တာနက်": 3174,
      "ဂဲ": 3175,
      "ငို": 3176,
      "ပဋိ": 3177,
      "မယား": 3178,
      "အိတ်": 3179,
      "အုတ်": 3180,
      "အမူ": 3181,
      "တွေထဲမှာ": 3182,
      "ဖြစ်ရပ်": 3183,
      "ဦးစိုး": 3184,
      "လူကြီး": 3185,
      "နှစ်စဉ်": 3186,
      "ဝန်ဆောင်": 3187,
      "လွှတ်တော်သို့": 3188,
      "အသောက်": 3189,
      "ငါတို့": 3190,
      "ဝန်ကြီးဌာနက": 3191,
      "မြန်မာနိုင်ငံတွင်": 3192,
      "ရှေ့မှာ": 3193,
      "ဈေးကွက်": 3194,
      "ဖြစ်ပေါ်လာ": 3195,
      "ဗာလ": 3196,
      "အပြည့်အဝ": 3197,
      "is": 3198,
      "လန်း": 3199,
      "အမျှ": 3200,
      "ကြရန်": 3201,
      "ဘာကို": 3202,
      "ကြည့်ပြီး": 3203,
      "တွေကတော့": 3204,
      "ရပ်တည်": 3205,
      "ခံစားချက်ကို": 3206,
      "ပြောင်းရွှေ့": 3207,
      "နေရာချထား": 3208,
      "အစိုးရက": 3209,
      "က္ခိ": 3210,
      "လုပ်ဆောင်နိုင်": 3211,
      "ဘဝမှာ": 3212,
      "ထို့ကြောင့်": 3213,
      "ကြေကွဲ": 3214,
      "မဏ္ဍပ်": 3215,
      "လက်ရေးစာမူ": 3216,
      "အတွေ့အကြုံ": 3217,
      "စွပ်စွဲ": 3218,
      "သယံဇာတ": 3219,
      "နွယ်": 3220,
      "ပက်": 3221,
      "ဝဠာ": 3222,
      "အကဲ": 3223,
      "တွေအကြောင်း": 3224,
      "နဲ့ချီ": 3225,
      "ဦးမျိုး": 3226,
      "ဘူးဆိုရင်": 3227,
      "လေးကို": 3228,
      "ကျမ်းစာအဆို": 3229,
      "ဆောင်ရွက်နိုင်": 3230,
      "စစ်ကိုင်း": 3231,
      "စကားတွေ": 3232,
      "အကျဉ်း": 3233,
      "ခရစ်ဝင်": 3234,
      "အစားအသောက်": 3235,
      "နိမ့်": 3236,
      "မိန့်မှာ": 3237,
      "စာအုပ်တစ်အုပ်": 3238,
      "ထူထောင်": 3239,
      "ယုဒ": 3240,
      "စို့": 3241,
      "ယခုနှစ်": 3242,
      "ရမည့်": 3243,
      "ဝတီ": 3244,
      "မည်ဆို": 3245,
      "မည်သို့": 3246,
      "အထီး": 3247,
      "ကြည့်ရှု": 3248,
      "အိမ်ထောင်သည်": 3249,
      "အင်န်": 3250,
      "မှားယွင်း": 3251,
      "လယ်သမား": 3252,
      "ပြောပြပါ": 3253,
      "မြှောက်": 3254,
      "အေးချမ်း": 3255,
      "ဝတ်ပြုရာ": 3256,
      "အရင်က": 3257,
      "ဖောက်ပြန်": 3258,
      "ine": 3259,
      "အထက်ပါအတိုင်း": 3260,
      "ခရစ်ဝင်ကျမ်း": 3261,
      "ကေ": 3262,
      "နုတ်": 3263,
      "ဗူ": 3264,
      "ယီ": 3265,
      "အဆက်": 3266,
      "အငြင်း": 3267,
      "ကြွေး": 3268,
      "သိလာ": 3269,
      "အစိတ်": 3270,
      "ပျံ့": 3271,
      "မူကား": 3272,
      "အာဟပ်": 3273,
      "ဖက်ဒရယ်": 3274,
      "ဆန္ဒပြ": 3275,
      "မောင်မောင်": 3276,
      "ရုပ်တု": 3277,
      "အသိပေး": 3278,
      "လိုင်စင်": 3279,
      "အာဗြံ": 3280,
      "မိန်းမ": 3281,
      "အလားတူ": 3282,
      "ရှုပ်ထွေး": 3283,
      ")၊": 3284,
      "NCA": 3285,
      "ဒေး": 3286,
      "မကြီး": 3287,
      "ကျရောက်": 3288,
      "သည်လည်း": 3289,
      "ရှိပါ": 3290,
      "နဲ့အညီ": 3291,
      "စိတ်နဲ့": 3292,
      "မြို့မှာ": 3293,
      "ဘယ်လိုလုပ်": 3294,
      "တည်ထောင်": 3295,
      "ခံစားချက်": 3296,
      "ဆိုးကျိုး": 3297,
      "ဗျူဟာ": 3298,
      "ဒက္ခိ": 3299,
      "သနား": 3300,
      "အကိုင်": 3301,
      "ကြွယ်": 3302,
      "ချိတ်": 3303,
      "တာလား": 3304,
      "မှာပါတဲ့": 3305,
      "ပြောရ": 3306,
      "လာရင်": 3307,
      "ခံထား": 3308,
      "နာဗ": 3309,
      "မြို့ကို": 3310,
      "အမျိုးအစား": 3311,
      "ကလေးက": 3312,
      "ဒီလိုပြောပြတယ်": 3313,
      "လွှတ်တော်ကိုယ်စားလှယ်များ": 3314,
      "တံဆိပ်": 3315,
      "ခန့်အပ်": 3316,
      "အဖွဲ့အစည်းများ": 3317,
      "ပြုစုစောင့်ရှောက်": 3318,
      "ဒက္ခိဏ": 3319,
      "ခုံ": 3320,
      "ဇမ္": 3321,
      "မို့": 3322,
      "မဖော်ပြထား": 3323,
      "လိုကြောင်း": 3324,
      "မာရ်": 3325,
      "ဒါဆိုရင်": 3326,
      "စေလွှတ်": 3327,
      "လိုက်ရတယ်": 3328,
      "ထွင်": 3329,
      "စကားတွေကို": 3330,
      "အသက်ကို": 3331,
      "လိုအပ်ကြောင်း": 3332,
      "အခုတော့": 3333,
      "စနစ်ကို": 3334,
      "ပစ်ခတ်": 3335,
      "ကွာရှင်း": 3336,
      "မြှင့်တင်": 3337,
      "အဘိ": 3338,
      "စကြ": 3339,
      "အပြည်": 3340,
      "ပြောကြတယ်": 3341,
      "နှစ်နှစ်": 3342,
      "မိနစ်": 3343,
      "သင့်တဲ့": 3344,
      "ရေရှည်": 3345,
      "ဖော်ပြထားသည်": 3346,
      "သူတို့ဟာ": 3347,
      "သူတွေရဲ့": 3348,
      "အလုပ်ကို": 3349,
      "အလုပ်အကိုင်": 3350,
      "တိုက်ပွဲ": 3351,
      "အတိုင်းအ": 3352,
      "အသုံးချ": 3353,
      "ခေါ်ယူ": 3354,
      "ထိန်းကျောင်း": 3355,
      "ခဲ့ခြင်းဖြစ်ပြီး": 3356,
      "ဖတ်ရှု": 3357,
      "စိုးမိုး": 3358,
      "ထို့အပြင်": 3359,
      "ကျောက်မျက်": 3360,
      "ဖွင့်လှစ်": 3361,
      "လွှဲပြောင်း": 3362,
      "အစိတ်အပိုင်း": 3363,
      "မာရ်နတ်": 3364,
      "စကြဝဠာ": 3365,
      "ဲလ်": 3366,
      "ကြန်": 3367,
      "များလည်း": 3368,
      "များပြား": 3369,
      "ဆိုထားတယ်": 3370,
      "လိုမျိုး": 3371,
      "နဲ့ပဲ": 3372,
      "ခံနိုင်": 3373,
      "မျိုးစေ့": 3374,
      "မရှိကြောင်း": 3375,
      "တိုင်းပြည်": 3376,
      "ပိုကောင်း": 3377,
      "ပိုင်းတွင်": 3378,
      "တတ်အောင်": 3379,
      "ကောက်ချက်": 3380,
      "လုန်": 3381,
      "ပြင်ဆင်ရေး": 3382,
      "လီယံ": 3383,
      "ဘုရားသခင့်နိုင်ငံတော်": 3384,
      "နိုင်ငံတော်သမ္မတရုံး": 3385,
      "တကွ": 3386,
      "ယင်းက": 3387,
      "ကျဆင်း": 3388,
      "နှင်": 3389,
      "ခြင်းနှင့်": 3390,
      "သွားရန်": 3391,
      "သာသနာ": 3392,
      "စိတ်ကျ": 3393,
      "ဆက်ပြီး": 3394,
      "သင့်တော်": 3395,
      "ရှင်ပြန်": 3396,
      "တွေ့ရတယ်": 3397,
      "သူတို့က": 3398,
      "ရှိတယ်ဆိုတာ": 3399,
      "မေလ": 3400,
      "ချစ်ခင်": 3401,
      "လုံလောက်": 3402,
      "ချယ်ရီ": 3403,
      "သင်္ကြန်": 3404,
      "ပြေးဆွဲ": 3405,
      "ပုံမှန်အစည်းအဝေး": 3406,
      "ဒေါသထွက်": 3407,
      "ဇမ္ဗူ": 3408,
      "ဘီး": 3409,
      "ပြို": 3410,
      "နှောက်": 3411,
      "ဖြစ်ပျက်": 3412,
      "ပြည်ဆိုင်ရာ": 3413,
      "လို့ပြော": 3414,
      "လက်ဆောင်": 3415,
      "နည်းဥပဒေ": 3416,
      "ယာယီ": 3417,
      "တရားလွှတ်တော်": 3418,
      "လည်ပတ်": 3419,
      "ရုဏာ": 3420,
      "တူတယ်": 3421,
      "စရာတွေ": 3422,
      "အပေါ်မှာ": 3423,
      "ယင်းသို့": 3424,
      "ဘီလီယံ": 3425,
      "ထာဝစဉ်": 3426,
      "ပွင့်ပွင့်လင်း": 3427,
      "အင်္ဂါ": 3428,
      "အထောက်အကူပြု": 3429,
      "ရှင်ပြန်ထမြောက်": 3430,
      "ပွင့်ပွင့်လင်းလင်း": 3431,
      "စိုင်း": 3432,
      "ညို": 3433,
      "ရုတ်": 3434,
      "ကျက်": 3435,
      "ရှိသည့်": 3436,
      "တာထက်": 3437,
      "ရာထူး": 3438,
      "ဦးမင်း": 3439,
      "ဘုရားက": 3440,
      "ဖို့လိုတယ်": 3441,
      "ဘူးဆိုတာ": 3442,
      "နှစ်ခြင်း": 3443,
      "စေရေး": 3444,
      "ယေရမိ": 3445,
      "ခွံ": 3446,
      "တ္တရ": 3447,
      "နေရာကို": 3448,
      "ကယ်ဆယ်": 3449,
      "အဝေးပြေး": 3450,
      "ပြဿနာကို": 3451,
      "သမ္မာကျမ်းစာကို": 3452,
      "ရိုသေ": 3453,
      "ဘယ်သူမှ": 3454,
      "ခမည်း": 3455,
      "ပိုက်ဆံ": 3456,
      "စိတ်ဓာတ်ကျ": 3457,
      "ဖျားနာ": 3458,
      "NL": 3459,
      "ကန": 3460,
      "ကရုဏာ": 3461,
      "ဖ်": 3462,
      "ဗိ": 3463,
      "သလောက်": 3464,
      "အမှုကို": 3465,
      "ဧရာ": 3466,
      "၆၆": 3467,
      "နေသည့်": 3468,
      "ရှိရှိ": 3469,
      "ခဲ့ဖူး": 3470,
      "မှုနှင့်": 3471,
      "ပေးကမ်း": 3472,
      "မယ့်": 3473,
      "ရက်အထိ": 3474,
      "အိမ်မှာ": 3475,
      "မရှိတဲ့": 3476,
      "စည်းရုံး": 3477,
      "ထောက်ပြ": 3478,
      "စီမံချက်": 3479,
      "ယခုကဲ့သို့": 3480,
      "ရောင်းဝယ်": 3481,
      "ဒုက္ခရောက်": 3482,
      "ညစ်ညမ်းရုပ်ပုံ": 3483,
      "ဂလာ": 3484,
      "ငလျင်": 3485,
      "တည့်": 3486,
      "ဒကဲ": 3487,
      "မစိုက်": 3488,
      "မဂ္ဂ": 3489,
      "ဥတု": 3490,
      "ကြပါတယ်": 3491,
      "ဖြန့်": 3492,
      "ပြီးမှ": 3493,
      "မာန်": 3494,
      "ရင်ဖွင့်": 3495,
      "ဥပဒေအရ": 3496,
      "မေးပါ": 3497,
      "နေတယ်လို့": 3498,
      "လျက်ရှိကြောင်း": 3499,
      "အေးက": 3500,
      "ကတိသစ္စာ": 3501,
      "ရတာလဲ": 3502,
      "ဆက်သွယ်ရေး": 3503,
      "ကန့်သတ်": 3504,
      "ရပ်စဲ": 3505,
      "ဂလာတိ": 3506,
      "ရမလဲ": 3507,
      "လအတွင်း": 3508,
      "အလျ": 3509,
      "့ံ": 3510,
      "ပြန့်": 3511,
      "နိုင်ပြီး": 3512,
      "တစ်ရာ": 3513,
      "ခံရတဲ့": 3514,
      "ပြုမူ": 3515,
      "ကျမ်းစောင်": 3516,
      "အစွမ်း": 3517,
      "ပျို": 3518,
      "အချိန်တွင်": 3519,
      "၂၀၁၆": 3520,
      "ဂျာ": 3521,
      "ဒီလိုပြောတယ်": 3522,
      "စုံလင်": 3523,
      "တပ်မတော်ကာကွယ်ရေးဦးစီးချုပ်": 3524,
      "သီးခြား": 3525,
      "အစ္စရေးလူမျိုး": 3526,
      "မော်ဒကဲ": 3527,
      "အံ့ဖွယ်": 3528,
      "ဗာဗု": 3529,
      "ing": 3530,
      "ent": 3531,
      "ပါ့မလား": 3532,
      "အပြည်ပြည်ဆိုင်ရာ": 3533,
      "ဗာဗုလုန်": 3534,
      "ဆော်": 3535,
      "ဇီ": 3536,
      "နင်း": 3537,
      "ရိုးရ": 3538,
      "ကျင့်": 3539,
      "နိုင်ဆုံး": 3540,
      "ပြောရေး": 3541,
      "မှုနှင့်": 3542,
      "ပေးတာ": 3543,
      "လာမည့်": 3544,
      "သားကို": 3545,
      "သွားကြတယ်": 3546,
      "မိနိုင်တယ်": 3547,
      "စိတ်ထိခိုက်": 3548,
      "ကျမ်းစာထဲမှာ": 3549,
      "အဖွဲ့က": 3550,
      "အရေးပေါ်": 3551,
      "သူတွေအတွက်": 3552,
      "ကုန်ကျ": 3553,
      "္ဂလာ": 3554,
      "ဝမ်းသာ": 3555,
      "မင်္ဂလာ": 3556,
      "ရာသီဥတု": 3557,
      "အမြန်ဆုံး": 3558,
      "ရိုးရိုး": 3559,
      "ရမ်း": 3560,
      "အန်": 3561,
      "၄၈": 3562,
      "ချွန်": 3563,
      "နှင်း": 3564,
      "များရှိ": 3565,
      "ရာခပ်": 3566,
      "ဦးခင်မောင်": 3567,
      "ဦးနှောက်": 3568,
      "ကြီးက": 3569,
      "ဘုန်း": 3570,
      "သွားအောင်": 3571,
      "လူတွေက": 3572,
      "မိရိ": 3573,
      "နိုင်ငံ့": 3574,
      "လှပ": 3575,
      "တင်စား": 3576,
      "ယူပြီး": 3577,
      "ထုတ်ဝေ": 3578,
      "ကိရိယာ": 3579,
      "တီထွင်": 3580,
      "ဆီကို": 3581,
      "လေ့လာမှု": 3582,
      "ပူဆွေး": 3583,
      "ပြဿနာတွေကို": 3584,
      "မိမိရဲ့": 3585,
      "စမ်းကြည့်ပါ": 3586,
      "ပြိုင်ပွဲ": 3587,
      "ယူဆချက်": 3588,
      "အလိုတော်": 3589,
      "ကုသမှု": 3590,
      "အထီးကျန်": 3591,
      "မိရိအံ": 3592,
      "at": 3593,
      "ခွေး": 3594,
      "ပဲ့": 3595,
      "ဥယျာ": 3596,
      "ပေးမယ်": 3597,
      "ဒီယို": 3598,
      "ခြင်းနဲ့": 3599,
      "ဟာရ": 3600,
      "သိတယ်": 3601,
      "ဒါဟာ": 3602,
      "နှစ်နိုင်ငံ": 3603,
      "မျိုးစုံ": 3604,
      "သင်သည်": 3605,
      "ကြားမှာ": 3606,
      "လွှတ်တော်တွင်": 3607,
      "ပင်လုံ": 3608,
      "သတင်းထောက်": 3609,
      "ရှိနေကြောင်း": 3610,
      "အမျိုးသားလွှတ်တော်ကိုယ်စားလှယ်": 3611,
      "မီတာ": 3612,
      "အမြတ်": 3613,
      "မြတ်နိုး": 3614,
      "ပထမအကြိမ်": 3615,
      "အုပ်ချုပ်ရေးမှူး": 3616,
      "အသင်းတော်": 3617,
      "သန့်ရှင်းသော": 3618,
      "ဟူသော": 3619,
      "အရှိန်": 3620,
      "ဘင်္ဂလား": 3621,
      "ဥယျာဉ်": 3622,
      "id": 3623,
      "မထွက်": 3624,
      "လန့်": 3625,
      "ဝပ်": 3626,
      "၆၅": 3627,
      "ကျူ": 3628,
      "နိုင်သည့်": 3629,
      "လုပ်ပါ": 3630,
      "သိအောင်": 3631,
      "လူဦးရေ": 3632,
      "မတန်": 3633,
      "ငွေကျပ်": 3634,
      "ခံစားချက်တွေကို": 3635,
      "တာဝန်ထမ်းဆောင်": 3636,
      "အဲဒီလိုလုပ်": 3637,
      "အကြံဉာဏ်": 3638,
      "အတတ်နိုင်ဆုံး": 3639,
      "အဂတိလိုက်စားမှု": 3640,
      "အသုံးအနှုန်း": 3641,
      "ခမည်းတော်": 3642,
      "တုံး": 3643,
      "ပံ": 3644,
      "သယ်": 3645,
      "ချော": 3646,
      "နေလို့": 3647,
      "ပြီးစီး": 3648,
      "ခြင်းတို့": 3649,
      "ဦးတင်": 3650,
      "သူတို့သည်": 3651,
      "အချိန်ကို": 3652,
      "တစ်ခုတည်း": 3653,
      "ပေါင်းသင်း": 3654,
      "ကိုယ်စားလှယ်များ": 3655,
      "ရရှိရန်": 3656,
      "ရှိနေပြီး": 3657,
      "ကျင်းပသည့်": 3658,
      "ကြိုးစားပါ": 3659,
      "ဇနီးသည်": 3660,
      "ဘဏ္ဍာရေး": 3661,
      "နှစ်ယောက်စလုံး": 3662,
      "စတု": 3663,
      "လစာ": 3664,
      "အင်း": 3665,
      "အယှက်": 3666,
      "၄၆": 3667,
      "ခဲ့သူ": 3668,
      "တစ်နည်း": 3669,
      "သိရ": 3670,
      "စေပါ": 3671,
      "စိတ်ကူး": 3672,
      "စစ်သည်": 3673,
      "တရားခံ": 3674,
      "တရားဥပဒေ": 3675,
      "ကြည့်ရအောင်": 3676,
      "ထုတ်ပေး": 3677,
      "ရှင်းရှင်းလင်း": 3678,
      "တစ်ခုလုံး": 3679,
      "ကိုယ့်ကို": 3680,
      "ခုနှစ်မှာ": 3681,
      "အကျိုးကျေးဇူး": 3682,
      "တံခါး": 3683,
      "ယင်းအပြင်": 3684,
      "ဘဏ္ဍာငွေ": 3685,
      "သားသမီးတွေကို": 3686,
      "လူသားတွေ": 3687,
      "ဖြည့်ဆည်း": 3688,
      "ဝှက်": 3689,
      "ဒိုင်": 3690,
      "နု": 3691,
      "နွမ်း": 3692,
      "၅၅": 3693,
      "ပါတ်": 3694,
      "ရှိတာ": 3695,
      "ရှိသမျှ": 3696,
      "သိရတယ်": 3697,
      "သက်ကြီး": 3698,
      "နှစ်ဖက်": 3699,
      "မည်သည့်": 3700,
      "က္ကာ": 3701,
      "ထဲကနေ": 3702,
      "လမ်းလျှောက်": 3703,
      "လေ့ရှိတယ်": 3704,
      "သတင်းထုတ်ပြန်": 3705,
      "လောလော": 3706,
      "ဓာတု": 3707,
      "ဆွေမျိုး": 3708,
      "မတ်လ": 3709,
      "အလိုလို": 3710,
      "အတော်ကြာ": 3711,
      "နွား": 3712,
      "ပြောရေးဆို": 3713,
      "ရှင်းရှင်းလင်းလင်း": 3714,
      "IC": 3715,
      "တိုးရ": 3716,
      "အိုး": 3717,
      "ဧဝ": 3718,
      "ကြတဲ့": 3719,
      "ကျွန်း": 3720,
      "ရှိယ": 3721,
      "နိုင်တော့ဘူး": 3722,
      "လုပ်မိ": 3723,
      "ခြင်းကြောင့်": 3724,
      "ကျမ်းချက်": 3725,
      "ကိုယ်ကျင့်": 3726,
      "စိတ်ရင်း": 3727,
      "နေ့က": 3728,
      "အရောင်း": 3729,
      "ယေဟောဝါကို": 3730,
      "မေရှိယ": 3731,
      "တာဝန်ကို": 3732,
      "တစ်ဦးကို": 3733,
      "ငါးနှစ်": 3734,
      "တုပ": 3735,
      "ပစ္စည်းများ": 3736,
      "အိမ်ထောင်ဖက်ကို": 3737,
      "ထားသည်ဟု": 3738,
      "ရေးဝန်ကြီးဌာနက": 3739,
      "သားသမီးတွေ": 3740,
      "တိုင်းရင်းသားလက်နက်ကိုင်": 3741,
      "ထုံးစံ": 3742,
      "မြန်မာတိုင်းမ်": 3743,
      "တရားစွဲဆို": 3744,
      "ယဉ်ကျေးမှု": 3745,
      "ကိုယ်ကျင့်တရား": 3746,
      "ဖီ": 3747,
      "ဘုံ": 3748,
      "ဝီ": 3749,
      "လိုလို": 3750,
      "ထားဖို့": 3751,
      "ရွား": 3752,
      "ရွံ့": 3753,
      "လူအများ": 3754,
      "စေတီ": 3755,
      "လွှတ်တော်က": 3756,
      "ရေဗ": 3757,
      "ထိပ်": 3758,
      "ပိုများ": 3759,
      "တပ်ဆင်": 3760,
      "ပွင့်": 3761,
      "ထွက်ပြေး": 3762,
      "အရာတွေ": 3763,
      "အင်ဂျင်": 3764,
      "မိသားစုကို": 3765,
      "မိုးက": 3766,
      "ပျော်ရွှင်မှု": 3767,
      "အိပ်မက်": 3768,
      "တွက်ချက်": 3769,
      "အယူအဆ": 3770,
      "နှစ်သိမ့်မှု": 3771,
      "နားမလည်": 3772,
      "စိတ်ကျဝေဒနာ": 3773,
      "ကီ": 3774,
      "ဂို": 3775,
      "ဗ္": 3776,
      "မတွေ့": 3777,
      "ယက်": 3778,
      "ရပြီး": 3779,
      "ကြပြီး": 3780,
      "ပြီးခဲ့သည့်": 3781,
      "တစ်ဝန်း": 3782,
      "ခြင်းဟာ": 3783,
      "ခြင်းဖြစ်ကြောင်း": 3784,
      "ဘာဖြစ်လို့": 3785,
      "ွန့်": 3786,
      "နှစ်က": 3787,
      "အားထုတ်": 3788,
      "လှေ": 3789,
      "အဲဒီအပြင်": 3790,
      "အရိုး": 3791,
      "အာဗေလ": 3792,
      "စကားနဲ့": 3793,
      "ကလေးသူငယ်": 3794,
      "လမ်းစဉ်": 3795,
      "တပ်မတော်က": 3796,
      "ယာဉ်လိုင်း": 3797,
      "ပူးတွဲ": 3798,
      "ခန့်မှန်း": 3799,
      "တမန်တော်ပေါလု": 3800,
      "သက်သေခံ": 3801,
      "အနားယူ": 3802,
      "သဘောတူစာချုပ်": 3803,
      "ဖြည့်စွက်": 3804,
      "ထာဝရဘုရား": 3805,
      "ဗီဒီယို": 3806,
      "တိုက်ဖျက်ရေး": 3807,
      "ညစ်ညမ်းရုပ်ပုံစာပေ": 3808,
      "လောလောဆယ်": 3809,
      "ကက်": 3810,
      "စိမ်": 3811,
      "ဇ်": 3812,
      "ထည်": 3813,
      "ပိန်": 3814,
      "အလမ်း": 3815,
      "့ရှ်": 3816,
      "ချရေး": 3817,
      "နေရင်": 3818,
      "နေဆဲ": 3819,
      "မှာဖြစ်ပါတယ်": 3820,
      "ပေးနိုင်တယ်": 3821,
      "စာမျက်နှာ": 3822,
      "ကျမ်းကို": 3823,
      "သုံးယောက်": 3824,
      "အဲဒီအစား": 3825,
      "ပြင်ပ": 3826,
      "စီက": 3827,
      "သင့်မြတ်": 3828,
      "မရှိသေး": 3829,
      "ဥပဒေမူကြမ်း": 3830,
      "တပ်ကုန်း": 3831,
      "ပြီဆိုရင်": 3832,
      "ရဲစခန်း": 3833,
      "အားလုံးက": 3834,
      "အတူတူ": 3835,
      "ဗိုလ်မှူး": 3836,
      "ခင်ပွန်းသည်": 3837,
      "နံပါတ်": 3838,
      "ခြံု": 3839,
      "မဲဆန္ဒနယ်မှ": 3840,
      "မဟာဗျူဟာ": 3841,
      "အီဂျစ်ပြည်": 3842,
      "မွှေး": 3843,
      "ပြည်ခိုင်ဖြိုးပါတီ": 3844,
      "ဧရာဝတီ": 3845,
      "ID": 3846,
      "le": 3847,
      "om": 3848,
      "ကချင်": 3849,
      "ယမန်": 3850,
      "ရင်းက": 3851,
      "ပြသ": 3852,
      "ကြော်": 3853,
      "နှံ့": 3854,
      "မှာမဟုတ်ဘူး": 3855,
      "တော်ကြီး": 3856,
      "ပေမယ့်": 3857,
      "တစ်လုံး": 3858,
      "ထားကြတယ်": 3859,
      "သွင်": 3860,
      "စာရေး": 3861,
      "ကြီးပြင်း": 3862,
      "သိမ်": 3863,
      "ဘာလို့": 3864,
      "အခိုင်": 3865,
      "လှန်": 3866,
      "စိတ်ဆိုး": 3867,
      "လိုက်ပြီး": 3868,
      "ုတ်ချ": 3869,
      "ရက်စက်": 3870,
      "ကုလ": 3871,
      "အကြိုက်": 3872,
      "ဝန်ကြီးချုပ်": 3873,
      "ကိုယ်စားပြု": 3874,
      "တာကတော့": 3875,
      "မဲရုံ": 3876,
      "ဝတ်ပြုကိုးကွယ်": 3877,
      "ထိန်းသိမ်းရေး": 3878,
      "ဗစ်တိုးရ": 3879,
      "တရုတ်နိုင်ငံ": 3880,
      "စိန်ခေါ်": 3881,
      "ဗစ်တိုးရီးယား": 3882,
      "as": 3883,
      "တရက်": 3884,
      "နိတ်": 3885,
      "မပြေ": 3886,
      "ိယ": 3887,
      "ပြဌာန်း": 3888,
      "ရှိသည်ဟု": 3889,
      "ဦးသန်း": 3890,
      "ကျမ်းမှာ": 3891,
      "လက်အောက်": 3892,
      "ပဲဖြစ်ဖြစ်": 3893,
      "လွှတ်တော်အစည်းအဝေး": 3894,
      "အကြောင်းကြား": 3895,
      "ပတ်လည်": 3896,
      "ဥပဒေပုဒ်မ": 3897,
      "ငွေ့": 3898,
      "ပိုဒ်": 3899,
      "ပေါင်းစုံ": 3900,
      "ရပ်နား": 3901,
      "ချင်စိတ်": 3902,
      "ကျော်က": 3903,
      "ယုံကြည်ခြင်းကို": 3904,
      "ဆင်းသက်": 3905,
      "မေတ္": 3906,
      "စရာကောင်း": 3907,
      "ဒုတိယဥက္ကဋ္ဌ": 3908,
      "လွန်ခဲ့တဲ့": 3909,
      "ပိုင်ရှင်": 3910,
      "ပြည့်ဝ": 3911,
      "မိဘတွေကို": 3912,
      "သွားမည်ဖြစ်ပြီး": 3913,
      "စျေးနှုန်း": 3914,
      "စျေးကွက်": 3915,
      "မွေးမြူရေးနှင့်": 3916,
      "အိန္ဒ": 3917,
      "အနှောင့်": 3918,
      "ဆည်မြောင်းဝန်ကြီးဌာန": 3919,
      "အစောပိုင်း": 3920,
      "တကူ": 3921,
      "ထောင့်": 3922,
      "ပရ": 3923,
      "ပပျောက်": 3924,
      "ဧရိယာ": 3925,
      "ကိုသာ": 3926,
      "ပါမော": 3927,
      "နေရင်း": 3928,
      "သူရဲ့": 3929,
      "စားသုံး": 3930,
      "သွားမယ်": 3931,
      "ဒေ့ရှ်": 3932,
      "အထဲ": 3933,
      "မှတ်ပုံ": 3934,
      "ရောက်ရှိ": 3935,
      "သင့်ဘူး": 3936,
      "ရေလွှမ်းမိုး": 3937,
      "ကလေးငယ်": 3938,
      "တပ်မက်": 3939,
      "ဂျော်": 3940,
      "ကုန်သည်": 3941,
      "အစိုးရသစ်": 3942,
      "ထားတဲ့အတွက်": 3943,
      "ရှိနေတဲ့": 3944,
      "တချို့ဟာ": 3945,
      "ကြေးရုပ်": 3946,
      "ပစ္စည်းတွေ": 3947,
      "ခရီးစဉ်": 3948,
      "ဆရာမ": 3949,
      "ယောသပ်ကို": 3950,
      "အေအေ": 3951,
      "အခန်းကြီး": 3952,
      "လူမှုဝန်ထမ်း": 3953,
      "ထူးခြားတဲ့": 3954,
      "မူတည်ပြီး": 3955,
      "အပြုအမူ": 3956,
      "သတ္တဝါ": 3957,
      "ကန့်ကွက်": 3958,
      "၀န်ကြီးဌာန": 3959,
      "အငြင်းပွား": 3960,
      "ကြွယ်ဝ": 3961,
      "ရုတ်တရက်": 3962,
      "NLD": 3963,
      "ကနဦး": 3964,
      "အနှောင့်အယှက်": 3965,
      "ပါမောက္ခ": 3966,
      "of": 3967,
      "ဒဲလ်": 3968,
      "ရဦး": 3969,
      "သနည်း": 3970,
      "အီး": 3971,
      "အမာ": 3972,
      "ဥတ္တရ": 3973,
      "၁ယောဟန်": 3974,
      "၃ဝ": 3975,
      "၆၀": 3976,
      "’—": 3977,
      "ပြာ": 3978,
      "တာကြောင့်": 3979,
      "ခြည်": 3980,
      "တစ်ပတ်": 3981,
      "ဒီကိစ္စ": 3982,
      "လို့ရတယ်": 3983,
      "ဦးထွန်း": 3984,
      "ဟုဆို": 3985,
      "အခေ": 3986,
      "ရင်လည်း": 3987,
      "ကျမ်းရေး": 3988,
      "လှိုင်း": 3989,
      "နေ့တွင်": 3990,
      "နားခံ": 3991,
      "သူတွေနဲ့": 3992,
      "မြို့နယ်မှ": 3993,
      "နားလည်မှု": 3994,
      "ရမည်ဖြစ်ကြောင်း": 3995,
      "အရည်အချင်း": 3996,
      "ထိရောက်စွာ": 3997,
      "သဘောတူညီချက်": 3998,
      "ဗောဇ": 3999,
      "မတိုင်ခင်": 4000,
      "အယ်လ်": 4001,
      "ation": 4002,
      "re": 4003,
      "ဓလေ့": 4004,
      "ပရို": 4005,
      "ဖောင်": 4006,
      "မင်းက": 4007,
      "မမှန်": 4008,
      "ဟိတ်": 4009,
      "အွန်": 4010,
      "အဖိုး": 4011,
      "အလွယ်": 4012,
      "ဤသို့": 4013,
      "၄င်း": 4014,
      "ကြည်း": 4015,
      "နေချိန်မှာ": 4016,
      "ရှိပြီ": 4017,
      "များတဲ့": 4018,
      "ပြောတာကို": 4019,
      "ကောင်းတွေ": 4020,
      "အဲဒီမှာ": 4021,
      "သေတ္တာ": 4022,
      "စည်းလုံး": 4023,
      "ဖော်ပြခဲ့တယ်": 4024,
      "ဖြစ်သည့်": 4025,
      "နေရာတွင်": 4026,
      "လေယာဉ်": 4027,
      "ကောက်ယူ": 4028,
      "တာဝန်ခံ": 4029,
      "ဆန္ဒထုတ်ဖော်": 4030,
      "ကူးယူ": 4031,
      "သိပ္ပံပညာရှင်": 4032,
      "နိုင်ငံရေးပါတီ": 4033,
      "သောသူသည်": 4034,
      "ဖိတ်ခေါ်": 4035,
      "ဂဲလ": 4036,
      "အဘိဂဲလ": 4037,
      "အိန္ဒိယ": 4038,
      "CO": 4039,
      "ဇေ": 4040,
      "တန": 4041,
      "မကြိုက်": 4042,
      "ရထား": 4043,
      "သုတ်": 4044,
      "အကို": 4045,
      "အငြိမ်း": 4046,
      "အလောင်း": 4047,
      "ကိုတော့": 4048,
      "တွေဆီ": 4049,
      "နေဖို့": 4050,
      "များမှာ": 4051,
      "များဖြင့်": 4052,
      "နိုင်ခြင်း": 4053,
      "မှာလဲ": 4054,
      "ခြမ်း": 4055,
      "ပေမည်": 4056,
      "မှုအပေါ်": 4057,
      "တစ်ကောင်": 4058,
      "ထားရာ": 4059,
      "ပေါင်": 4060,
      "ဘာက": 4061,
      "ဘာဒဲလ်": 4062,
      "ant": 4063,
      "နှင့်ပတ်သက်": 4064,
      "တိတိကျ": 4065,
      "ဘယ်အချိန်မှာ": 4066,
      "သင့်ကြောင်း": 4067,
      "မြို့က": 4068,
      "ထိတွေ့": 4069,
      "အာဆီ": 4070,
      "ပိုဆိုး": 4071,
      "၂၀၀": 4072,
      "ပြည်ထောင်စုနယ်မြေ": 4073,
      "ပြည်ထောင်စုရွေးကောက်ပွဲကော်မရှင်": 4074,
      "ခွင့်ရှိသူ": 4075,
      "အဆိုး": 4076,
      "ရရှိရေး": 4077,
      "လုံခြံု": 4078,
      "ကာကွယ်ပေး": 4079,
      "ပန်းတိုင်": 4080,
      "ညှဉ်း": 4081,
      "သဘာဝပတ်ဝန်းကျင်": 4082,
      "အေဒီ": 4083,
      "အခက်အခဲတွေ": 4084,
      "တောင်သူလယ်သမား": 4085,
      "စေချင်တယ်": 4086,
      "နှောင်ကြိုး": 4087,
      "လုပ်ဆောင်နိုင်ရာ": 4088,
      "ကောက်ချက်ချ": 4089,
      "မှတ်ပုံတင်": 4090,
      "ဂိမ်း": 4091,
      "အပြော": 4092,
      "မှုအတွက်": 4093,
      "လုပ်တဲ့": 4094,
      "လို့မရ": 4095,
      "ဦးလှ": 4096,
      "ရဲ့လား": 4097,
      "သားတွေကို": 4098,
      "လူဝင်": 4099,
      "ကျမ်းပညာရှင်": 4100,
      "ဝန်ခံ": 4101,
      "အဲဒါကြောင့်": 4102,
      "စိတ်သက်သာ": 4103,
      "သောက": 4104,
      "ဖော်ဆောင်": 4105,
      "ကုလား": 4106,
      "နေ့မှာ": 4107,
      "နေ့ရက်": 4108,
      "နေ့တိုင်း": 4109,
      "ယေဟောဝါဟာ": 4110,
      "ပြီလို့": 4111,
      "အသတ်": 4112,
      "အသနားခံ": 4113,
      "လေထု": 4114,
      "ပြစ်တင်": 4115,
      "သေးတဲ့": 4116,
      "ရှိနေသည်": 4117,
      "အားလုံးဟာ": 4118,
      "ပြန်လည်နေရာချထား": 4119,
      "ဘက်သ": 4120,
      "သတိထား": 4121,
      "ကတိပေး": 4122,
      "ကျောက်စိမ်း": 4123,
      "ဗိုလ်ချုပ်မှူးကြီး": 4124,
      "အတော်များ": 4125,
      "ပရောဖက်ပြုချက်": 4126,
      "တိုက်ခိုက်မှု": 4127,
      "ပူဇော်သ": 4128,
      "ပျံ့နှံ့": 4129,
      "ကုလသမဂ္ဂ": 4130,
      "ဖောင်ဒေး": 4131,
      "အငြိမ်းစား": 4132,
      "တိတိကျကျ": 4133,
      "ညံ့": 4134,
      "နူး": 4135,
      "ဖို": 4136,
      "ဗန်": 4137,
      "မွန်း": 4138,
      "အကာ": 4139,
      "အဝိုင်း": 4140,
      "ရှဲ": 4141,
      "နေအိမ်": 4142,
      "ဖြစ်ပေမဲ့": 4143,
      "နိုင်ခဲ့တယ်": 4144,
      "ပြီးရင်": 4145,
      "ပေးလိုက်": 4146,
      "and": 4147,
      "စိတ်မ": 4148,
      "လျော": 4149,
      "ကောင်းကျိုး": 4150,
      "ညီအစ်ကို": 4151,
      "နောက်ခံ": 4152,
      "မရှိတော့ဘူး": 4153,
      "ရောဟိတ်": 4154,
      "ကြည့်ရင်": 4155,
      "၂၀ဝ": 4156,
      "ကလေးရဲ့": 4157,
      "ပုရောဟိတ်": 4158,
      "စရာကောင်းတဲ့": 4159,
      "အောက်ခြေ": 4160,
      "အဲဒီလိုပဲ": 4161,
      "ချစ်ခြင်း": 4162,
      "ပြည့်နှစ်": 4163,
      "အမြင့်": 4164,
      "ခန်းမ": 4165,
      "သလိုပဲ": 4166,
      "၂ဝ၁၆": 4167,
      "အခြားသော": 4168,
      "သိပ္ပံပညာ": 4169,
      "ကြောက်ရွံ့": 4170,
      "စုံစမ်းစစ်ဆေး": 4171,
      "အတိုင်းအတာ": 4172,
      "ခံနိုင်ရည်": 4173,
      "ဇီဝ": 4174,
      "ယူဆချက်အမှား": 4175,
      "အခေါ်": 4176,
      "အလွယ်တကူ": 4177,
      "စပိန်": 4178,
      "ရသူ": 4179,
      "အပူ": 4180,
      "အချာ": 4181,
      "ကြတာ": 4182,
      "ကြပေမဲ့": 4183,
      "နိုင်မယ့်": 4184,
      "ရွေ့": 4185,
      "သိနိုင်တယ်": 4186,
      "စိတ်မကောင်း": 4187,
      "စစ်ပွဲ": 4188,
      "အာဟာရ": 4189,
      "ဖြစ်တယ်ဆိုတာ": 4190,
      "တောင်ပံ": 4191,
      "ပေါင်းများစွာ": 4192,
      "ကမ္ဘာပေါ်": 4193,
      "ဆွေးနွေးရန်": 4194,
      "အတိုင်းပဲ": 4195,
      "ခံရသူ": 4196,
      "တကယ်လို့": 4197,
      "ဆုတောင်းချက်": 4198,
      "ကူညီပေးတယ်": 4199,
      "ခေတ်က": 4200,
      "ဆက်လက်ဆောင်ရွက်": 4201,
      "ငြိမ်းချမ်းစွာ": 4202,
      "မကြာခဏ": 4203,
      "အကြီးအကဲ": 4204,
      "ချိုးဖောက်": 4205,
      "ဂေါ": 4206,
      "မည်ဆိုပါက": 4207,
      "ဗိမာန်": 4208,
      "ဘင်္ဂလားဒေ့ရှ်": 4209,
      "တရားဥပဒေစိုးမိုး": 4210,
      "အခိုင်အမာ": 4211,
      "အွန်လိုင်း": 4212,
      "အာဆီယံ": 4213,
      "uar": 4214,
      "ဇယား": 4215,
      "ကြက်": 4216,
      "ဖြစ်သော်လည်း": 4217,
      "များအရ": 4218,
      "နိုင်ပါဘူး": 4219,
      "လိုတဲ့": 4220,
      "မှုသည်": 4221,
      "မှုဟာ": 4222,
      "ခြင်းဆိုင်ရာ": 4223,
      "ဦးမောင်မောင်": 4224,
      "အတွဲ": 4225,
      "တို့ဟာ": 4226,
      "သားသား": 4227,
      "ဘုရားနဲ့": 4228,
      "ကိုယ်ကျိုး": 4229,
      "အားကိုး": 4230,
      "မည်မဟုတ်": 4231,
      "လွှား": 4232,
      "နှင့်အညီ": 4233,
      "တင်ဒါ": 4234,
      "ကာယ": 4235,
      "စွယ်": 4236,
      "မတည်": 4237,
      "ရိက္ခာ": 4238,
      "စည်းစိမ်": 4239,
      "အာရှ": 4240,
      "ထင်ပါသလဲ": 4241,
      "မောင်က": 4242,
      "ဥက္ကဌ": 4243,
      "ပေတရုဟာ": 4244,
      "ကွဲလွဲ": 4245,
      "အဆင့်ဆင့်": 4246,
      "မသိဘူး": 4247,
      "နီယာ": 4248,
      "လိင်ခြား": 4249,
      "မျက်နှာသာ": 4250,
      "အံ့ဩ": 4251,
      "ယခင်က": 4252,
      "မဲဆန္ဒနယ်အမှတ်": 4253,
      "ဇန်နဝါရီလ": 4254,
      "မြှင့်တင်": 4255,
      "သတိရပါ": 4256,
      "ရှမ်းပြည်နယ်": 4257,
      "ဂိတ်": 4258,
      "မသွား": 4259,
      "အမှ": 4260,
      "အနောက်": 4261,
      "၁ဝဝ": 4262,
      "ကိုအောင်": 4263,
      "ကြဖို့": 4264,
      "တွေပါ": 4265,
      "နေသူ": 4266,
      "တဲ့အချိန်": 4267,
      "ဆိုလိုတယ်": 4268,
      "ပြီးသား": 4269,
      "တစ်လ": 4270,
      "ခံရတယ်": 4271,
      "သုံးနှစ်": 4272,
      "ပျား": 4273,
      "ဆိုရင်တော့": 4274,
      "အတွင်းဝန်": 4275,
      "ပေါင်းစပ်": 4276,
      "ပြည်ထောင်စုကြံ့ခိုင်": 4277,
      "တ္ထ": 4278,
      "ပုဗ္": 4279,
      "တာဝန်ရှိသူ": 4280,
      "အကျိုးဆက်": 4281,
      "ပျိုးထောင်": 4282,
      "ထိုကဲ့သို့": 4283,
      "သန့်": 4284,
      "ဇာတ်": 4285,
      "အရင်ဆုံး": 4286,
      "နိုင်ရန်အတွက်": 4287,
      "ဝမ်းနည်းပူဆွေး": 4288,
      "အများစုက": 4289,
      "ဘာသာစကားနဲ့": 4290,
      "တိကျမှန်ကန်": 4291,
      "ကိစ္စရပ်များ": 4292,
      "သတင်းစာရှင်းလင်းပွဲတွင်": 4293,
      "နာဗလ": 4294,
      "အလျောက်": 4295,
      "VID": 4296,
      "ce": 4297,
      "ဂူ": 4298,
      "စသည်": 4299,
      "ဖု": 4300,
      "မထ": 4301,
      "မထင်": 4302,
      "လင်းက": 4303,
      "သမာ": 4304,
      "သလော": 4305,
      "သပြေ": 4306,
      "အလာ": 4307,
      "နိုင်သော": 4308,
      "နိုင်မလား": 4309,
      "ခဲ့ပေမဲ့": 4310,
      "ရာက": 4311,
      "ခံခဲ့ရ": 4312,
      "ခြင်းဖြစ်ပြီး": 4313,
      "ခြင်းမပြု": 4314,
      "သားတော်": 4315,
      "ဒါကြောင့်": 4316,
      "မိန့်": 4317,
      "စုဆောင်း": 4318,
      "စေမယ့်": 4319,
      "ပျူ": 4320,
      "အဲဒီအချိန်မှာ": 4321,
      "အတား": 4322,
      "အိမ်တော်": 4323,
      "ထွား": 4324,
      "မြန်မြန်": 4325,
      "ပေါင်းလောင်း": 4326,
      "အကျိုးရ": 4327,
      "လုပ်ငန်းများကို": 4328,
      "ဘောလုံး": 4329,
      "အလုပ်ရှင်": 4330,
      "ငြင်းပ": 4331,
      "ပုန်": 4332,
      "ကမ္ဘာသစ်": 4333,
      "လောနိတ်": 4334,
      "ပေါ့နော်": 4335,
      "မြန်မာနိုင်ငံရဲတပ်ဖွဲ့": 4336,
      "မိဘကို": 4337,
      "မိဘတွေက": 4338,
      "ယာဉ်မောင်း": 4339,
      "ဒေါက်တာမျိုး": 4340,
      "ဝတ်ပြုရေး": 4341,
      "ခြောက်လ": 4342,
      "တားမြစ်": 4343,
      "ငါ့ကို": 4344,
      "သက်သာလောနိတ်": 4345,
      "တဲ့သူတွေဟာ": 4346,
      "နတ်ဆိုး": 4347,
      "မသန်စွမ်းသူများ": 4348,
      "မှီခို": 4349,
      "ငြင်းပယ်": 4350,
      "ဗင်": 4351,
      "ယဇ်": 4352,
      "အပန်း": 4353,
      "ဧနောက်": 4354,
      "၄၇": 4355,
      "ကိုကို": 4356,
      "ကြောင်": 4357,
      "ရှုတ်ချ": 4358,
      "များအပေါ်": 4359,
      "နိုင်သည်": 4360,
      "ရေးခဲ့တယ်": 4361,
      "လုပ်တာ": 4362,
      "လုပ်ထုံး": 4363,
      "ပြည်သူတွေ": 4364,
      "လို့ပါ": 4365,
      "ဦးတည်": 4366,
      "အတွင်းက": 4367,
      "သိက္ခာ": 4368,
      "ဖို့လည်း": 4369,
      "စိတ်က": 4370,
      "လျူ": 4371,
      "လျစ်": 4372,
      "ကျမ်းစာအခြေခံမူ": 4373,
      "အိမ်ကို": 4374,
      "ခေလ": 4375,
      "ဌာနဆိုင်ရာ": 4376,
      "နေပြည်တော်စည်ပင်သာယာရေးကော်မတီ": 4377,
      "ပိုင်းဆိုင်ရာ": 4378,
      "လောက်မှာ": 4379,
      "အသက်အရွယ်": 4380,
      "ကျော်ကို": 4381,
      "ဆီမှာ": 4382,
      "လေပဲ": 4383,
      "ရည်မှန်း": 4384,
      "လီဟင်": 4385,
      "သွေးဆောင်": 4386,
      "ကောင်းကင်မှာ": 4387,
      "အစီအစဉ်ကို": 4388,
      "တန်ဖိုးထား": 4389,
      "အလေးအနက်": 4390,
      "အင်္ဂလိပ်": 4391,
      "COVID": 4392,
      "antine": 4393,
      "uarantine": 4394,
      "ထုပ်": 4395,
      "ဓား": 4396,
      "သို": 4397,
      "၁ပေတရု": 4398,
      "ချည်း": 4399,
      "ကျွေး": 4400,
      "များတယ်": 4401,
      "နိုင်တာ": 4402,
      "ဆိုက်": 4403,
      "ပြောနေတာ": 4404,
      "ကြီးလေး": 4405,
      "ချက်တွေက": 4406,
      "မျိုးမှာ": 4407,
      "မယ်ဆိုတဲ့": 4408,
      "လိုက်လျှောက်": 4409,
      "သူ့မှာ": 4410,
      "နိုင်တယ်လို့": 4411,
      "အရေးပါ": 4412,
      "တည်းခို": 4413,
      "ပြစ်မှု": 4414,
      "တိုးမြှင့်": 4415,
      "ရွယ်တူ": 4416,
      "အချက်တွေကို": 4417,
      "မြောက်ပိုင်း": 4418,
      "နေတယ်ဆိုတာ": 4419,
      "သီးသန့်": 4420,
      "ကြမ်းတမ်း": 4421,
      "ဓာတ်ပုံ": 4422,
      "ကွဲပြား": 4423,
      "အခွင့်အာဏာ": 4424,
      "မကောင်းတဲ့": 4425,
      "ကွာခြား": 4426,
      "ကျူးကျော်": 4427,
      "မိန်းကလေး": 4428,
      "ခပ်သိမ်း": 4429,
      "ကြွက်": 4430,
      "ဆင့်ကဲဖြစ်စဉ်": 4431,
      "ကွပ်ကဲ": 4432,
      "အပန်းဖြေ": 4433,
      "တဆ": 4434,
      "ပိ": 4435,
      "ဘိ": 4436,
      "မနာ": 4437,
      "ယန်": 4438,
      "၂ဝဝ": 4439,
      "၇၀": 4440,
      "ကြလိမ့်မည်": 4441,
      "တဲ့သူတွေကို": 4442,
      "နှေး": 4443,
      "ရှိသည့်": 4444,
      "ဖြစ်သွားတယ်": 4445,
      "နိုင်တော့": 4446,
      "ရေးဝန်ကြီး": 4447,
      "ခဲ့ပါဘူး": 4448,
      "မှုကြီးကြပ်": 4449,
      "လုပ်ပြီး": 4450,
      "တစ်ချက်": 4451,
      "တစ်ဧက": 4452,
      "လက်မ": 4453,
      "အတွက်လည်း": 4454,
      "ကိုယ်က": 4455,
      "ောင့်ရဲ": 4456,
      "ရက်ရော": 4457,
      "ပုံက": 4458,
      "နောက်ကျ": 4459,
      "အိမ်ထောင်စု": 4460,
      "ဆောင်ရွက်ရာတွင်": 4461,
      "ချင်လို့": 4462,
      "ထက်ပို": 4463,
      "ကျမ်းစာမှာပါတဲ့": 4464,
      "ရမယ်ဆိုတာ": 4465,
      "ကော်မတီဝင်": 4466,
      "ဟန်ချက်": 4467,
      "ပေါက်ကွဲ": 4468,
      "ခေတ်မှာ": 4469,
      "ဆက်လက်ပြောဆိုသည်": 4470,
      "ဆက်လက်ပြောကြားသည်": 4471,
      "ဖြစ်စေတယ်": 4472,
      "ပစ္စည်းတွေကို": 4473,
      "ဖန်ဆင်းခြင်း": 4474,
      "သမ္မာကျမ်းစာပြောဆိုရာ": 4475,
      "မျှော်မှန်း": 4476,
      "မဖြစ်နိုင်ဘူး": 4477,
      "အေးအေး": 4478,
      "ပြည်သူ့လွှတ်တော်ဥက္ကဋ္ဌ": 4479,
      "မေးခွန်းကို": 4480,
      "အီစီက": 4481,
      "သင်ယူနိုင်သလဲ": 4482,
      "အလေးထား": 4483,
      "ရွှေ့ပြောင်း": 4484,
      "လှည့်လည်": 4485,
      "ဇမ္ဗူသီရိမြို့နယ်": 4486,
      "ဘက်သလီဟင်": 4487,
      "လုပ်ထုံးလုပ်": 4488,
      "အီစီကလီ": 4489,
      "ay": 4490,
      "ed": 4491,
      "ဂဏ": 4492,
      "ဆွယ်": 4493,
      "မသုံး": 4494,
      "မဖြစ်စေ": 4495,
      "ဥစ္စာ": 4496,
      "ပြပွဲ": 4497,
      "ဖြည့်": 4498,
      "ဖြစ်မယ်": 4499,
      "နိုင်ပေမဲ့": 4500,
      "မြည်": 4501,
      "ခဲ့ရတဲ့": 4502,
      "ကြီးတဲ့": 4503,
      "သွားပါ": 4504,
      "အားဖြင့်": 4505,
      "ဝင်ရောက်လာ": 4506,
      "လေးတွေကို": 4507,
      "နှင့်အတူ": 4508,
      "လိုက်လျော": 4509,
      "အတိုး": 4510,
      "အကြောင်းပြ": 4511,
      "မြင်သာ": 4512,
      "ပိုင်းခြား": 4513,
      "မြေကွက်": 4514,
      "အပ်နှံ": 4515,
      "ကျွန်တော်တို့လည်း": 4516,
      "ရှိနေတယ်": 4517,
      "ခုနှစ်က": 4518,
      "တစ်ဦးဖြစ်သူ": 4519,
      "ကျင်းပသည့်": 4520,
      "ဒေါ်ခင်": 4521,
      "ဒေါက်တာဝင်း": 4522,
      "အဓိကအချက်": 4523,
      "ထို့ကြောင့်": 4524,
      "ညွှန်ကြားချက်": 4525,
      "ကပ်ရောဂါ": 4526,
      "လူမှုရေး": 4527,
      "တော်တော်လေး": 4528,
      "ကြင်နာမှု": 4529,
      "ဇွန်လ": 4530,
      "ရိပ်သာ": 4531,
      "မှားယွင်းတဲ့": 4532,
      "ချိတ်ဆက်": 4533,
      "ပုဗ္ဗ": 4534,
      "em": 4535,
      "ကပါ": 4536,
      "ဘောင်": 4537,
      "မညီ": 4538,
      "မရရှိ": 4539,
      "ယမ": 4540,
      "ရမ်": 4541,
      "ရဘူး": 4542,
      "အမျက်": 4543,
      "အသွင်": 4544,
      "ဥရော": 4545,
      "နေမယ်ဆိုရင်": 4546,
      "တာလည်း": 4547,
      "မြင်း": 4548,
      "ပေးသွင်း": 4549,
      "လာဖို့": 4550,
      "ဦးမြင့်": 4551,
      "သိသာ": 4552,
      "သိထားတယ်": 4553,
      "သားရဲ": 4554,
      "ဖို့ဆိုတာ": 4555,
      "အစပြု": 4556,
      "နိုင်ငံမှာ": 4557,
      "ဝင်လာ": 4558,
      "ကျမ်းစာမှတ်တမ်း": 4559,
      "သူ့အလိုလို": 4560,
      "ဆိုင်တဲ့": 4561,
      "လျှံ": 4562,
      "နိုင်တယ်ဆိုတာ": 4563,
      "ကျော်လွန်": 4564,
      "ကိုယ့်အိမ်ထောင်ဖက်": 4565,
      "သတ်ဖြတ်": 4566,
      "ရုံးက": 4567,
      "အင်မတန်": 4568,
      "ပိုင်ခွင့်": 4569,
      "မိဘတွေရဲ့": 4570,
      "မင်းအောင်": 4571,
      "စနစ်ဖြင့်": 4572,
      "ကျန်တဲ့": 4573,
      "ထို့နောက်": 4574,
      "သြဇာ": 4575,
      "ဗိုလ်ချုပ်ကြေးရုပ်": 4576,
      "အကြီးဆုံး": 4577,
      "လွန်းလို့": 4578,
      "အားကစားဝန်ကြီးဌာန": 4579,
      "မဏ္ဍိုင်": 4580,
      "ပျံသန်း": 4581,
      "နားမထောင်": 4582,
      "ဆွာ": 4583,
      "တူးဖော်": 4584,
      "ပြောရရင်": 4585,
      "ကက်သ": 4586,
      "လူဝင်မှုကြီးကြပ်": 4587,
      "St": 4588,
      "ol": 4589,
      "ဆုတ်": 4590,
      "တလော": 4591,
      "ထိတ်": 4592,
      "မချ": 4593,
      "မလေး": 4594,
      "မယူ": 4595,
      "ရသည့်": 4596,
      "ရောင့်ရဲ": 4597,
      "သရ": 4598,
      "၄၃": 4599,
      "ပေးလိုက်တယ်": 4600,
      "စာသား": 4601,
      "စာရွက်": 4602,
      "လာကြ": 4603,
      "ဦးရဲ": 4604,
      "ဟာမန်": 4605,
      "သွားလို့": 4606,
      "သွားရင်": 4607,
      "လူသိ": 4608,
      "ခင်မင်": 4609,
      "နိုင်ငံများ": 4610,
      "လှုံ့": 4611,
      "လိုက်တော့": 4612,
      "ဆိုတာက": 4613,
      "ခဲ့တယ်လို့": 4614,
      "ခဲ့တယ်ဆိုတာ": 4615,
      "ပညာပေး": 4616,
      "ဌာနချုပ်": 4617,
      "တစ်ခုမှာ": 4618,
      "ပြည်ထောင်စုအစိုးရအဖွဲ့": 4619,
      "ခိုင်လုံ": 4620,
      "တူညီ": 4621,
      "ကိစ္စတွေ": 4622,
      "အကျိုးကို": 4623,
      "စွမ်းရည်": 4624,
      "ချစ်မြတ်နိုး": 4625,
      "ပြဿနာတွေ": 4626,
      "မဖြစ်မနေ": 4627,
      "ထံသို့": 4628,
      "ဦးစီးဌာနမှ": 4629,
      "ပြည်ထောင်စုဝန်ကြီးက": 4630,
      "မြေကြီးပေါ်": 4631,
      "လျှပ်စစ်ဓာတ်အား": 4632,
      "လေ့ကျင့်ခန်း": 4633,
      "မြင်ယောင်ကြည့်": 4634,
      "တစ်ဆင့်": 4635,
      "အသေအချာ": 4636,
      "အင်ဂျင်နီယာ": 4637,
      "ဥရောပ": 4638,
      "လှုံ့ဆော်": 4639,
      "ခူး": 4640,
      "ငုံ": 4641,
      "စင်း": 4642,
      "ဒန်": 4643,
      "မယုံ": 4644,
      "မရွေး": 4645,
      "ရသော": 4646,
      "ဝိုင်": 4647,
      "ဝတ္": 4648,
      "အမွေ": 4649,
      "၄၉": 4650,
      "ိုဟ": 4651,
      "ို့ဝှက်": 4652,
      "ချပ်": 4653,
      "သူသည်": 4654,
      "မှုမှာ": 4655,
      "ဒီမှာ": 4656,
      "ဒီလောက်": 4657,
      "လေးမြတ်": 4658,
      "သောအခါ": 4659,
      "ဘယ်သူ့ကို": 4660,
      "ဆိုင်ကယ်": 4661,
      "စကားများ": 4662,
      "လျှို့ဝှက်": 4663,
      "ငါသည်": 4664,
      "ဘယ်လိုနည်းနဲ့": 4665,
      "တည်ရှိ": 4666,
      "ရုံနဲ့": 4667,
      "လိုအပ်ချက်": 4668,
      "ခွဲစိတ်": 4669,
      "တိုးမြှင့်": 4670,
      "ဘက်မှာ": 4671,
      "ပါဝင်တယ်": 4672,
      "တင်ပြခဲ့သည်": 4673,
      "စျေးသည်": 4674,
      "ဇနီးကို": 4675,
      "ကူးသန်း": 4676,
      "ဗိုလ်မှူးကြီး": 4677,
      "ထုတ်ပြန်ချက်": 4678,
      "ရာဇဝတ်": 4679,
      "ဓမ္မသစ်": 4680,
      "တခြားသူတွေရဲ့": 4681,
      "နောင်တရ": 4682,
      "နိုဝင်ဘာလ": 4683,
      "ကွန်ပျူ": 4684,
      "ယိုယွင်း": 4685,
      "အစ်မ": 4686,
      "ကယ်တင်ခြင်း": 4687,
      "အမြဲတမ်းအတွင်းဝန်": 4688,
      "လှိုင်က": 4689,
      "သတိပြုမိ": 4690,
      "အစုအဖွဲ့": 4691,
      "ပြည်ထဲရေးဝန်ကြီးဌာန": 4692,
      "နုတ်ထွက်": 4693,
      "တရားလွှတ်တော်ချုပ်": 4694,
      "ရေဗက္က": 4695,
      "လျစ်လျူ": 4696,
      "ou": 4697,
      "စရိုက်": 4698,
      "ပက္ခ": 4699,
      "ဘ်": 4700,
      "ယုတ်": 4701,
      "ရကြောင်း": 4702,
      "ဟိ": 4703,
      "ဟစ်": 4704,
      "ွက်": 4705,
      "တယ်ဆိုတဲ့": 4706,
      "ကျတဲ့": 4707,
      "နေသလဲ": 4708,
      "နေသည်ဟု": 4709,
      "များအနက်": 4710,
      "တာရှည်": 4711,
      "ခဲ့လို့": 4712,
      "ခြင်းဖြင့်": 4713,
      "ဦးထင်": 4714,
      "မိဖု": 4715,
      "နှင့်ပတ်သက်": 4716,
      "ချုပ်ဆို": 4717,
      "က္ကူ": 4718,
      "အာမ": 4719,
      "ဝန်ကြီးက": 4720,
      "အခြေပြု": 4721,
      "တောင်ပေါ်": 4722,
      "ပင်ပန်း": 4723,
      "လမ်းခွဲ": 4724,
      "ထွက်ခွာ": 4725,
      "တက်လာ": 4726,
      "ယုံကြည်ချက်": 4727,
      "ခွဲဝေ": 4728,
      "ရှာတွေ့": 4729,
      "အကျိုးပြု": 4730,
      "ခါနီး": 4731,
      "ချစ်ရတဲ့": 4732,
      "စဉ်းစားပါ": 4733,
      "လျက်ရှိရာ": 4734,
      "မြင့်မား": 4735,
      "ဖြစ်စေတဲ့": 4736,
      "ကျန်းမာရေးနှင့်": 4737,
      "ဖြေရှင်းနည်း": 4738,
      "ကျွန်ုပ်တို့ကို": 4739,
      "ရိုးသား": 4740,
      "အဲ့ဒါ": 4741,
      "လောင်းကစား": 4742,
      "မရှိဘူးလို့": 4743,
      "ဝမ်းနည်းကြေကွဲ": 4744,
      "ရန်ကုန်တိုင်းဒေသကြီး": 4745,
      "တွေးတော": 4746,
      "မန္တလေးတိုင်းဒေသကြီး": 4747,
      "ဖာရော": 4748,
      "တရားမျှတမှု": 4749,
      "မြင်ယောင်ကြည့်ပါ": 4750,
      "တကယ့်ကို": 4751,
      "စီမံခန့်ခွဲမှု": 4752,
      "ထိုင်းနိုင်ငံ": 4753,
      "မဖော်ပြထားဘူး": 4754,
      "ရပ်စဲရေး": 4755,
      "ဗိုလ်မှူးချုပ်": 4756,
      "ကချင်ပြည်နယ်": 4757,
      "ပုန်ကန်": 4758,
      "ဂဏန်း": 4759,
      "မိဖုရား": 4760,
      ")၏": 4761,
      "Quarantine": 4762,
      "ညင်": 4763,
      "တံ့": 4764,
      "နက္ခ": 4765,
      "ပုံး": 4766,
      "မစား": 4767,
      "မစဉ်းစား": 4768,
      "ရခဲ့တယ်": 4769,
      "ရုန်း": 4770,
      "အပျို": 4771,
      "နိုင်မယ်": 4772,
      "ပြောချင်": 4773,
      "လုပ်တယ်": 4774,
      "သွန်း": 4775,
      "ဒေဗော": 4776,
      "အစပိုင်းမှာ": 4777,
      "လဲဆိုတာ": 4778,
      "စေတနာ": 4779,
      "တင်မြှောက်": 4780,
      "ရန်သူ": 4781,
      "လိုက်ပြီ": 4782,
      "သုံးဦး": 4783,
      "သင်လည်း": 4784,
      "အတန်း": 4785,
      "ဘုရားသခင်သည်": 4786,
      "အကြွင်း": 4787,
      "ဖော်ပြခဲ့တဲ့": 4788,
      "မြင်တွေ့": 4789,
      "အချိန်ယူ": 4790,
      "အချိန်အထိ": 4791,
      "တောင်မှ": 4792,
      "ထဲကို": 4793,
      "ရဲမှူးကြီး": 4794,
      "ငြာ": 4795,
      "အိမ်ထောင်ကို": 4796,
      "ဆွေးနွေးပါ": 4797,
      "လိုအပ်ပါတယ်": 4798,
      "ထားတဲ့အတိုင်း": 4799,
      "ဖျော်": 4800,
      "အကျိုးစီးပွား": 4801,
      "အပြစ်တင်": 4802,
      "မဟုတ်ဘူးလို့": 4803,
      "ခေါင်းစဉ်": 4804,
      "ရမည်ဟု": 4805,
      "ရင်းနှီးတဲ့": 4806,
      "မကွေး": 4807,
      "အပိုင်းအစ": 4808,
      "လက်မှတ်ထိုး": 4809,
      "ခြင်းဖြစ်သည်ဟု": 4810,
      "အရင်းအမြစ်": 4811,
      "အောက်တိုဘာလ": 4812,
      "စောင့်ကြည့်": 4813,
      "အထွေထွေရွေးကောက်ပွဲ": 4814,
      "အမေရိကန်ဒေါ်လာ": 4815,
      "စိတ်ရင်းမှန်": 4816,
      "ct": 4817,
      "ဒလ": 4818,
      "နဲ": 4819,
      "မလာ": 4820,
      "ယခုနှစ်တွင်": 4821,
      "၁တိမောသေ": 4822,
      "တောလည်": 4823,
      "တွေထက်": 4824,
      "ပါသည်": 4825,
      "ပါ၀င်": 4826,
      "နိုင်ပုံ": 4827,
      "နိုင်ကြတယ်": 4828,
      "နိုင်သည့်": 4829,
      "ရာတွေကို": 4830,
      "တော့ဘဲ": 4831,
      "လူကို": 4832,
      "စုဝေး": 4833,
      "လဲဆိုတော့": 4834,
      "စိတ်ဆင်းရဲ": 4835,
      "အထိမ်း": 4836,
      "ကြားဖြတ်": 4837,
      "အတင်း": 4838,
      "အတိတ်": 4839,
      "မှတ်သား": 4840,
      "မြို့မ": 4841,
      "ငွေစာရင်း": 4842,
      "ကြည့်တဲ့အခါ": 4843,
      "အချိန်အခါ": 4844,
      "နေပြည်တော်သို့": 4845,
      "လောက်အောင်": 4846,
      "တည်တံ့": 4847,
      "၁၉၉": 4848,
      "ပြောကြားလိုက်သည်": 4849,
      "ရတဲ့အတွက်": 4850,
      "မဲခွဲ": 4851,
      "ထောက်မ": 4852,
      "ပြည်သူ့အင်အား": 4853,
      "ဘက်မှ": 4854,
      "သီချင်း": 4855,
      "လွှတ်တော်ကိုယ်စားလှယ်များက": 4856,
      "သံဃ": 4857,
      "အရေးကြီးတယ်": 4858,
      "မိတ်ဆွေတွေ": 4859,
      "အုပ်ချုပ်မှု": 4860,
      "တစ်ခါမှ": 4861,
      "ဘီစီ": 4862,
      "ဧလိယကို": 4863,
      "ပံ့ပိုး": 4864,
      "ဗဟိုဌာန": 4865,
      "သွားမှာဖြစ်ပါတယ်": 4866,
      "သင်တန်းကျောင်း": 4867,
      "ရှာဖွေတွေ့ရှိ": 4868,
      "ရင်ဆိုင်ဖြေရှင်း": 4869,
      "အဆင်မပြေ": 4870,
      "လတ်တလော": 4871,
      "လယ်ဝေးမြို့နယ်": 4872,
      "ဝ၀ဝ": 4873,
      "စိတ်ဖိစီးမှု": 4874,
      "ဝန်ဆောင်မှု": 4875,
      "တည့်မတ်": 4876,
      "ကျူစာ": 4877,
      "ပြောရေးဆိုခွင့်ရှိသူ": 4878,
      "ဟန်ချက်ညီ": 4879,
      "လုပ်ထုံးလုပ်နည်း": 4880,
      "အကြွင်းမဲ့": 4881,
      "တောလည်ရာ": 4882,
      "op": 4883,
      "si": 4884,
      "တင့်": 4885,
      "မစ္စ": 4886,
      "ကျတယ်": 4887,
      "နေပါပြီ": 4888,
      "ရှိတော့": 4889,
      "ရှိစေ": 4890,
      "ရှိပေမဲ့": 4891,
      "ဖြစ်ကာ": 4892,
      "မှာပေါ့": 4893,
      "ခြိမ်း": 4894,
      "မှုဖြင့်": 4895,
      "မှုကြောင့်": 4896,
      "တစ်စီး": 4897,
      "ဒီက": 4898,
      "ဒီဆောင်းပါး": 4899,
      "ဒီနည်းကို": 4900,
      "လာပါလိမ့်မယ်": 4901,
      "ဘုရင့်": 4902,
      "ဘာသင်ယူနိုင်သလဲ": 4903,
      "ပြန်လာ": 4904,
      "လှဲ": 4905,
      "စိတ်အနှောင့်အယှက်": 4906,
      "သင်နဲ့": 4907,
      "ခွက်": 4908,
      "မတတ်": 4909,
      "စစ်တပ်": 4910,
      "ပတ်သတ်": 4911,
      "မြေယာ": 4912,
      "ယေဟောဝါက": 4913,
      "လုပ်ငန်းခွင်": 4914,
      "ဒေသတွင်း": 4915,
      "ဖြတ်တောက်": 4916,
      "ဆိုးညစ်": 4917,
      "ဉ်းကပ်": 4918,
      "စဉ်းစားဆင်ခြင်": 4919,
      "ရှေ့ဆက်": 4920,
      "ကူညီပေးပါ": 4921,
      "အတူတကွ": 4922,
      "ခဲ့ပြီးနောက်": 4923,
      "ကျန်းမာရေးကို": 4924,
      "ကင်းရှင်း": 4925,
      "ငြိမ်းချမ်းရေးလုပ်ငန်းစဉ်": 4926,
      "နိမိတ်": 4927,
      "အိပ်ရာ": 4928,
      "ပုဒ်မခွဲ": 4929,
      "ခဏခဏ": 4930,
      "အပြီးသတ်": 4931,
      "စက်တင်ဘာလ": 4932,
      "တစ်ချိန်လုံး": 4933,
      "တစ်ချိန်တည်း": 4934,
      "ခိုင်မြဲတဲ့": 4935,
      "တတိယအကြိမ်": 4936,
      "မေတ္တာကို": 4937,
      "ကြီးလေးတဲ့": 4938,
      "ိုဟ်": 4939,
      "ဒေဗောရ": 4940,
      "စူး": 4941,
      "ဌ်": 4942,
      "တမင်": 4943,
      "ဒိုင်း": 4944,
      "မလွယ်": 4945,
      "အချစ်": 4946,
      "အမတ်": 4947,
      "ကိုရီးယား": 4948,
      "နေတာက": 4949,
      "တဲ့အပြင်": 4950,
      "နှိမ်": 4951,
      "ရှိသလဲ": 4952,
      "ရှိသမျှကို": 4953,
      "ဖြစ်နေတဲ့": 4954,
      "နိုင်ကြ": 4955,
      "ခဲ့ရင်": 4956,
      "လို့ရှိရင်": 4957,
      "လူအုပ်": 4958,
      "လူတွေနဲ့": 4959,
      "ဖွဲ": 4960,
      "ပဲခူး": 4961,
      "ပျစ်": 4962,
      "ချိန်တွင်": 4963,
      "သေလွန်": 4964,
      "ပညာရေးဝန်ကြီးဌာန": 4965,
      "၂၀၁၅": 4966,
      "လုပ်ငန်းကို": 4967,
      "အသိုင်း": 4968,
      "တတ်ဖို့": 4969,
      "အလုပ်အမှုဆောင်": 4970,
      "ကုန်ကူး": 4971,
      "ငယ်ငယ်": 4972,
      "ဖြတ်သန်း": 4973,
      "ဘာသာတရား": 4974,
      "မတော်တဆ": 4975,
      "ဖျောက်": 4976,
      "မြင့်က": 4977,
      "ကြေးငွေ": 4978,
      "မြတ်တဲ့": 4979,
      "ဖိအားပေး": 4980,
      "ကင်းလွတ်": 4981,
      "အဆင့်မြင့်": 4982,
      "ရွှင်လန်း": 4983,
      "တဲ့သူဟာ": 4984,
      "၂ဝ၁၅": 4985,
      "ရမှာပေါ့": 4986,
      "ရွှေမန်း": 4987,
      "သိပ္ပံပညာရှင်တွေ": 4988,
      "ထွေးက": 4989,
      "ကွန်ရက်": 4990,
      "ဇူလိုင်လ": 4991,
      "နှုတ်ကပါ": 4992,
      "မောရှေပညတ်": 4993,
      "ကြိုဟောချက်": 4994,
      "မြို့တော်ဝန်": 4995,
      "သည်းခံ": 4996,
      "မုန်တိုင်း": 4997,
      "ပဋိပက္ခ": 4998,
      "ယင်းကဲ့သို့": 4999,
      "နှစ်ခြင်းခံ": 5000,
      "စတုတ္ထ": 5001,
      "သိမ်မွေ့": 5002,
      "ဇေယျာ": 5003,
      "စွယ်စုံ": 5004,
      "ကက်သလစ်": 5005,
      "နှုတ်ကပါဌ်": 5006,
      "စသည့်": 5007,
      "ဗိုက်": 5008,
      "ရူ": 5009,
      "ရခက်": 5010,
      "ြိုဟ်": 5011,
      "၂ကောရိန္သု": 5012,
      "တယ်ဆိုတာကို": 5013,
      "ချဉ်းကပ်": 5014,
      "မျာ": 5015,
      "ဖြစ်ချင်": 5016,
      "ဖြစ်မှန်း": 5017,
      "များအတွင်း": 5018,
      "ရေးကိစ္စ": 5019,
      "ပြောပြီး": 5020,
      "ပြောလိုက်တယ်": 5021,
      "တစ်နေရာ": 5022,
      "စာမေး": 5023,
      "စာတမ်း": 5024,
      "ဦးတီ": 5025,
      "သားရဲ့": 5026,
      "သွားခဲ့သည်": 5027,
      "ဒါပေမယ့်": 5028,
      "မည်သူ": 5029,
      "လိုက်တာက": 5030,
      "နှင့်အညီ": 5031,
      "သင့်တယ်လို့": 5032,
      "တရားလို": 5033,
      "ပတ်အတွင်း": 5034,
      "ကလေးတွေဟာ": 5035,
      "ယေရှုနဲ့": 5036,
      "ကမ္ဘာကြီး": 5037,
      "မဲစာရင်း": 5038,
      "လိမ့်မယ်လို့": 5039,
      "ဆိုးရွား": 5040,
      "မိသားစုနဲ့": 5041,
      "မှုများပြုလုပ်": 5042,
      "လေ့လာကြည့်ပါ": 5043,
      "ဆုတောင်းပါ": 5044,
      "သိန်းက": 5045,
      "ကောင်းကင်ဘုံ": 5046,
      "သုံးသပ်ကြည့်ရအောင်": 5047,
      "ပြီးတော့မှ": 5048,
      "အကြိမ်ကြိမ်": 5049,
      "မာရိကို": 5050,
      "သစ္စာဖောက်": 5051,
      "သောက်သုံး": 5052,
      "တဲ့သူကို": 5053,
      "အာရုံခံ": 5054,
      "ဥပဒေကြမ်းကို": 5055,
      "ရာစုပင်လုံ": 5056,
      "အချက်အလက်တွေကို": 5057,
      "ခိုင်းတယ်": 5058,
      "ဂုဏ်တင်": 5059,
      "သွားမှာပါ": 5060,
      "အကြမ်းဖက်မှု": 5061,
      "လွတ်လပ်စွာ": 5062,
      "ဖိလိတိ": 5063,
      "ဂျပန်နိုင်ငံ": 5064,
      "အော်ဟစ်": 5065,
      "စောင့်ရှောက်": 5066,
      "အတွေးအခေါ်": 5067,
      "ဆေးလိပ်သောက်": 5068,
      "ကုန်ကျစရိတ်": 5069,
      "il": 5070,
      "ကော့": 5071,
      "ကယား": 5072,
      "တြ": 5073,
      "သ်": 5074,
      "အယောင်": 5075,
      "အလျင်": 5076,
      "ိတိ": 5077,
      "်က": 5078,
      "၄င်းတို့": 5079,
      "တောင့်": 5080,
      "နိုင်က": 5081,
      "လိုစိတ်": 5082,
      "ပြောခဲ့တဲ့": 5083,
      "လာပြီ": 5084,
      "ကြီးတွေ": 5085,
      "ကြောင်းလည်း": 5086,
      "သွားကြ": 5087,
      "လူကုန်ကူး": 5088,
      "လက်တင်": 5089,
      "မျိုးနွယ်": 5090,
      "လေးက": 5091,
      "လှတဲ့": 5092,
      "လိုက်ကြတယ်": 5093,
      "သင့်ပါတယ်": 5094,
      "သင့်အကြောင်း": 5095,
      "သင့်လျော်": 5096,
      "အိမ်နီး": 5097,
      "မှန်ပါတယ်": 5098,
      "ဥပဒေနဲ့": 5099,
      "အချိန်ကာလ": 5100,
      "အလုပ်ရုံ": 5101,
      "ဆွေးနွေးမှု": 5102,
      "မေးကြည့်ပါ": 5103,
      "ဏ္ဏ": 5104,
      "အခြေခံထားပါတယ်": 5105,
      "အကျိုးသင့်အကြောင်း": 5106,
      "ရမယ်ဆိုတဲ့": 5107,
      "အပြစ်ကို": 5108,
      "အသုံးပြုပြီး": 5109,
      "ဇော်က": 5110,
      "စတင်ကာ": 5111,
      "ဗြိတိ": 5112,
      "ယောသပ်ဟာ": 5113,
      "ကတိပြု": 5114,
      "အကူအညီကို": 5115,
      "ပြည်ထောင်စုလွှတ်တော်က": 5116,
      "သန့်စင်": 5117,
      "ကိုယ်တော်ရဲ့": 5118,
      "ဧလိယဟာ": 5119,
      "ခွန်မြတ်": 5120,
      "ပြဋ္ဌာန်းချက်": 5121,
      "အကြောင်းရင်းကို": 5122,
      "နိုင်ငံခြားသား": 5123,
      "သြဂုတ်လ": 5124,
      "ဧပြီလ": 5125,
      "ဧည့်သည်": 5126,
      "မွှား": 5127,
      "နှိပ်စက်": 5128,
      "အမျိုးသားဒီမိုကရေစီအဖွဲ့ချုပ်ပါတီ": 5129,
      "ကေတ": 5130,
      "နွမ်းပါး": 5131,
      "အထိမ်းအမှတ်": 5132,
      "အကျိုးသင့်အကြောင်းသင့်": 5133,
      "nt": 5134,
      "ငရဲ": 5135,
      "စန်း": 5136,
      "ဇရု": 5137,
      "တေး": 5138,
      "နို့": 5139,
      "ပွန်": 5140,
      "မမျှော်လင့်": 5141,
      "အဝန်း": 5142,
      "ချင့်": 5143,
      "တွေထဲက": 5144,
      "ကျော": 5145,
      "နေပါ": 5146,
      "နေသည်": 5147,
      "တဲ့အနေနဲ့": 5148,
      "ရှိလို့": 5149,
      "များအဖြစ်": 5150,
      "မှာကြား": 5151,
      "ပြောပါ": 5152,
      "ပြောတဲ့အခါ": 5153,
      "မှုး": 5154,
      "တစ်ဖန်": 5155,
      "တစ်သောင်း": 5156,
      "လာသော": 5157,
      "လာနိုင်တယ်": 5158,
      "လာဇရု": 5159,
      "ခံခဲ့ရတယ်": 5160,
      "ခြင်းရဲ့": 5161,
      "ကြီးများ": 5162,
      "တွင်မူ": 5163,
      "ပြုကျင့်": 5164,
      "လူတစ်ဦး": 5165,
      "နှစ်ခုကို": 5166,
      "နာန်": 5167,
      "နာကြည်း": 5168,
      "ပဲလို့": 5169,
      "ရောက်ရှိနေ": 5170,
      "ရောက်ရှိလာ": 5171,
      "နောက်ပြီး": 5172,
      "ထွဋ": 5173,
      "ထွင်း": 5174,
      "အဖွဲ့များ": 5175,
      "မျှင်": 5176,
      "တတ်သူ": 5177,
      "ခွင့်ပြုချက်": 5178,
      "အိမ်ထောင်မှာ": 5179,
      "အိမ်ထောင်သက်": 5180,
      "တာဝန်ပေး": 5181,
      "ကျေးကျွန်": 5182,
      "စွမ်းဆောင်": 5183,
      "သန်းက": 5184,
      "ပြင်ဆင်သည့်": 5185,
      "လျက်ရှိသော": 5186,
      "ဆယ်ဖို့": 5187,
      "နေရောင်": 5188,
      "ဖိအား": 5189,
      "မိမိကို": 5190,
      "တိုင်းဒေသကြီးနှင့်": 5191,
      "သေဆုံးသွား": 5192,
      "ကျွန်ုပ်တို့ရဲ့": 5193,
      "ဗိုလ်ချုပ်အောင်ဆန်း": 5194,
      "အာဏာပိုင်": 5195,
      "ပျောက်ဆုံး": 5196,
      "မုဒ": 5197,
      "ဂုဏ်ပြု": 5198,
      "နောင်တ": 5199,
      "စေ့စပ်": 5200,
      "အမှန်တရားကို": 5201,
      "ဖွံ့ဖြိုးရေးပါတီ": 5202,
      "ငှားရမ်း": 5203,
      "အပြုသဘော": 5204,
      "တစ်စုံတစ်ဦးက": 5205,
      "စိတ်ပိုင်းဆိုင်ရာ": 5206,
      "ကျေးလက်ဒေသ": 5207,
      "ဘာကြောင့်လဲဆိုတော့": 5208,
      "လျာထား": 5209,
      "ရင်းနှီးမြှုပ်နှံမှု": 5210,
      "ရေလွှမ်းမိုးဘေး": 5211,
      "ကူးယူပါ": 5212,
      "ညှဉ်းဆဲ": 5213,
      "စိတ်သက်သာရာ": 5214,
      "ဖောင်ဒေးရှင်း": 5215,
      "ချစ်ခြင်းမေတ္တာ": 5216,
      "လျစ်လျူရှု": 5217,
      "တိမ်": 5218,
      "ပုတ်": 5219,
      "ပ့ံ": 5220,
      "မဝယ်": 5221,
      "ရမလဲဆိုတာ": 5222,
      "အချုပ်": 5223,
      "အုန်း": 5224,
      "ဩဇာ": 5225,
      "ပြဖို့": 5226,
      "တွေအပေါ်": 5227,
      "နေမှာ": 5228,
      "ရှိမရှိ": 5229,
      "ခဲ့သလို": 5230,
      "မှုဆိုင်ရာ": 5231,
      "ပေးမယ့်": 5232,
      "လာသည့်": 5233,
      "သိဖို့": 5234,
      "လူဆိုး": 5235,
      "ကိုယ်နဲ့": 5236,
      "မည်မျှ": 5237,
      "စေရေးအတွက်": 5238,
      "ကောင်းတယ်": 5239,
      "သုံးခု": 5240,
      "သူ့မိသားစု": 5241,
      "နည်းပါး": 5242,
      "လွှတ်တော်သက်တမ်း": 5243,
      "သူတို့နဲ့": 5244,
      "ကလေးတွေက": 5245,
      "တတ်နိုင်": 5246,
      "ကျော်လွှား": 5247,
      "ပတ်သက်လို့": 5248,
      "ပြစ်မှား": 5249,
      "သေးပါဘူး": 5250,
      "လောဘ": 5251,
      "၁၀၀": 5252,
      "မဲဆွယ်": 5253,
      "သစ်ပင်": 5254,
      "မျက်လုံး": 5255,
      "ကြိုးစားအားထုတ်": 5256,
      "ဒေါက်တာအောင်": 5257,
      "ဇော်မင်း": 5258,
      "ဝန်ထမ်းအိမ်ရာ": 5259,
      "ထိခိုက်စေ": 5260,
      "အမှားကို": 5261,
      "ခရစ်ယာန်တွေ": 5262,
      "သင်္ကေတ": 5263,
      "ဆန်ဆန်": 5264,
      "အခန်းငယ်": 5265,
      "ချေးယူ": 5266,
      "ဦးစီးဌာနက": 5267,
      "မပြောဘဲ": 5268,
      "ခန့်ခွဲ": 5269,
      "အချက်အလက်များ": 5270,
      "စကားလုံးကို": 5271,
      "ဝိုင်းဝန်း": 5272,
      "ဖွံ့ဖြိုးတိုးတက်ရေး": 5273,
      "ကျယ်ကျယ်": 5274,
      "အက်ဖ်": 5275,
      "ဖိတ်ကြား": 5276,
      "သိုးထိန်း": 5277,
      "လိမ့်": 5278,
      "နှစ်ပေါင်းများစွာ": 5279,
      "တာဝန်ရှိသူများက": 5280,
      "ဦးဝင်းမြင့်က": 5281,
      "စည်းမျဉ်းစည်းကမ်း": 5282,
      "ပဋိညာဉ်": 5283,
      "ကျောက်မျက်ရတနာ": 5284,
      "ဘဏ္ဍာရေးနှစ်": 5285,
      "ကြော်ငြာ": 5286,
      "ကွန်ပျူတာ": 5287,
      "အသိုင်းအဝိုင်း": 5288,
      "ဦးတီခွန်မြတ်": 5289,
      "ဆင့်": 5290,
      "တိတ်": 5291,
      "ပသ": 5292,
      "မပေးနိုင်": 5293,
      "သန္": 5294,
      "အကောက်": 5295,
      "ါဝပ်": 5296,
      "၅၃": 5297,
      "ပြပါ": 5298,
      "ကိုးစား": 5299,
      "နေမှန်း": 5300,
      "တဲ့အချိန်မှာ": 5301,
      "ဖြစ်ကြ": 5302,
      "ဖြစ်နေတာ": 5303,
      "သူလည်း": 5304,
      "မြေး": 5305,
      "ခဲ့ပြီ": 5306,
      "တစ်ဖို့": 5307,
      "ဒီနှစ်": 5308,
      "စာချွန်": 5309,
      "မာဂ": 5310,
      "ဖို့လို": 5311,
      "မျိုးဆက်": 5312,
      "ကိုယ်ဝန်": 5313,
      "နိုင်ငံရဲ့": 5314,
      "အားရှိ": 5315,
      "စိတ်ထဲမှာ": 5316,
      "သော့": 5317,
      "ကျမ်းစာလေ့လာ": 5318,
      "ဥပု": 5319,
      "ချုပ်တည်း": 5320,
      "ခြေထောက်": 5321,
      "ဖော်ပြပါ": 5322,
      "ကြည့်ဖို့": 5323,
      "ချင်ဘူး": 5324,
      "လောက်က": 5325,
      "ကုန်စည်": 5326,
      "တစ်ယောက်ရဲ့": 5327,
      "ပြောဆိုခြင်းဖြစ်သည်": 5328,
      "ထက်မက": 5329,
      "သူများသည်": 5330,
      "အမျိုးသားပြန်လည်": 5331,
      "ထင်တယ်": 5332,
      "ချစ်ကြည်": 5333,
      "ကျန်းမာရေးနဲ့": 5334,
      "ဆက်ဆံရေးကို": 5335,
      "မျှော်လင့်": 5336,
      "မေတ္တာနဲ့": 5337,
      "အခန်းကဏ္ဍ": 5338,
      "၂ဝ၁၇": 5339,
      "လူ့အခွင့်အရေး": 5340,
      "ပညတ်တော်": 5341,
      "ပျောက်ကွယ်": 5342,
      "ရှင်းပြသည်": 5343,
      "မလိုပါဘူး": 5344,
      "ဒီဇိုင်း": 5345,
      "စွန့်လွှတ်": 5346,
      "လုပ်ငန်းရှင်များ": 5347,
      "ဟင်းရွက်": 5348,
      "တရားစီရင်ရေး": 5349,
      "ယေဇဗေလ": 5350,
      "နူးညံ့": 5351,
      "နှုတ်ကပါဌ်တော်": 5352,
      "ဆယ်ဖို့တစ်ဖို့": 5353,
      "ကလ": 5354,
      "စော်": 5355,
      "စက္ကူ": 5356,
      "ဆို့": 5357,
      "ဒိ": 5358,
      "နဝေ": 5359,
      "ဖား": 5360,
      "မပြီး": 5361,
      "မလွှတ်": 5362,
      "မသေ": 5363,
      "အကွယ်": 5364,
      "၅၆": 5365,
      "၈၀": 5366,
      "စ်က": 5367,
      "ဖြန်": 5368,
      "တဲ့အတိုင်း": 5369,
      "တဲ့အရှင်": 5370,
      "ဖြစ်ရာ": 5371,
      "သူတစ်ဦး": 5372,
      "နိုင်သလား": 5373,
      "ပြောဖို့": 5374,
      "တစ်စု": 5375,
      "တစ်ထောင်": 5376,
      "ပေးမှာ": 5377,
      "စာကို": 5378,
      "လာမှာ": 5379,
      "ခြင်းကြောင့်": 5380,
      "ဟုန်": 5381,
      "မာန": 5382,
      "အခမဲ့": 5383,
      "လူများစွာ": 5384,
      "အားရ": 5385,
      "ထောင်ဒဏ်": 5386,
      "စိတ်အာရုံ": 5387,
      "မဟုတ်ပေမဲ့": 5388,
      "ကွမ်း": 5389,
      "မြို့တွင်": 5390,
      "ဌာန်": 5391,
      "င်းကပြောသည်": 5392,
      "ရိက": 5393,
      "အကျပ်": 5394,
      "အသက်တာ": 5395,
      "ဘဲနဲ့": 5396,
      "ခံစားခဲ့ရတယ်": 5397,
      "လေ့ရှိ": 5398,
      "ရွေးဖိုး": 5399,
      "ဝန်ကြီးဌာနများ": 5400,
      "တွေနဲ့အတူ": 5401,
      "ပြုလုပ်ခဲ့သည်": 5402,
      "ရွယ်အို": 5403,
      "ပြန်လည်လက်ခံ": 5404,
      "ပြန်လည်စိစစ်": 5405,
      "ပါဝင်သော": 5406,
      "ခဲ့တဲ့အတွက်": 5407,
      "စီမံခန့်ခွဲ": 5408,
      "ဆုတောင်းချက်တွေကို": 5409,
      "ကူညီပေးနိုင်ပါတယ်": 5410,
      "လျက်ရှိပြီး": 5411,
      "ဆယ်ပါး": 5412,
      "ချာ့": 5413,
      "မာရိရဲ့": 5414,
      "ပေတရုကို": 5415,
      "ယောသပ်ရဲ့": 5416,
      "ပြည်ထောင်စုလွှတ်တော်နာယက": 5417,
      "သေချာချာ": 5418,
      "နိနဝေ": 5419,
      "ဒုက္ခသည်": 5420,
      "စေရန်အတွက်": 5421,
      "အခမ်းအနားတွင်": 5422,
      "ဖမ်းဆီးရမိ": 5423,
      "ဆောက်လုပ်ရေးဝန်ကြီးဌာန": 5424,
      "ဖေဖော်ဝါရီလ": 5425,
      "ဆယ်ကျော်သက်အရွယ်": 5426,
      "ခရိုင်တရားရုံး": 5427,
      "အနိုင်ကျင့်": 5428,
      "အာဒံနဲ့": 5429,
      "ဟင်းသီး": 5430,
      "ဦးဝင်းမြင့်က": 5431,
      "စစ်ကိုင်းတိုင်းဒေသကြီး": 5432,
      "ပစ်ခတ်တိုက်ခိုက်မှု": 5433,
      "ပြိုကွဲ": 5434,
      "မဂ္ဂါဝပ်": 5435,
      "သက်ကြီးရွယ်အို": 5436,
      "အဖိုးတန်": 5437,
      "အိမ်နီးချင်း": 5438,
      "ဥပုသ်": 5439,
      "ပညတ်တော်ဆယ်ပါး": 5440,
      "စော်ကား": 5441,
      "vid": 5442,
      "စို": 5443,
      "တကြီး": 5444,
      "ထရီ": 5445,
      "ပင်း": 5446,
      "ပုန်း": 5447,
      "မည်း": 5448,
      "မလိုက်": 5449,
      "မပါဘူး": 5450,
      "မသီ": 5451,
      "မမီ": 5452,
      "လခ": 5453,
      "အဝယ်": 5454,
      "အနှီး": 5455,
      "အပစ်": 5456,
      "၅၁": 5457,
      "ချိုင်း": 5458,
      "တွေအနေနဲ့": 5459,
      "ကျား": 5460,
      "နေစရာ": 5461,
      "နေမှာပဲ": 5462,
      "ရှိနိုင်တယ်": 5463,
      "ရေးကော်မရှင်": 5464,
      "ပြီးခဲ့တဲ့": 5465,
      "ခဲ့ရသည်": 5466,
      "တစ်သိန်း": 5467,
      "ဒီလေ့လာမှု": 5468,
      "လာတာကို": 5469,
      "ဦးသောင်း": 5470,
      "သွားတာကို": 5471,
      "ခင်က": 5472,
      "စေခဲ့တယ်": 5473,
      "ပြန်တယ်": 5474,
      "လေးနဲ့": 5475,
      "သမဝါ": 5476,
      "စိတ်ထဲ": 5477,
      "ကျမ်းစာစောင်": 5478,
      "သေသေချာချာ": 5479,
      "ရေနံ": 5480,
      "ခေတ္တ": 5481,
      "အာဖ": 5482,
      "ကြည့်ကြ": 5483,
      "တိုင်းမှာ": 5484,
      "အဖွဲ့ခွဲ": 5485,
      "တစ်ခုအဖြစ်": 5486,
      "မြေငလျင်": 5487,
      "ချင်ကြတယ်": 5488,
      "ဖြေဆို": 5489,
      "နိုင်ငံတော်က": 5490,
      "အဆီး": 5491,
      "သတင်းမှား": 5492,
      "အများပြည်သူ": 5493,
      "နေတဲ့အတွက်": 5494,
      "ဘက်ကို": 5495,
      "အခြေခံပညာ": 5496,
      "အကျိုးခံစား": 5497,
      "ကျောင်းသူ": 5498,
      "နေတယ်ဆိုရင်": 5499,
      "ကျင်းပမည့်": 5500,
      "ကော်မတီက": 5501,
      "ပြင်ဆင်ချက်": 5502,
      "ကူညီပေးဖို့": 5503,
      "အမှုဖွင့်": 5504,
      "အမှတ်ရ": 5505,
      "ဆရာတော်": 5506,
      "ကျွန်တော့်ဇနီး": 5507,
      "မေးခွန်းတွေကို": 5508,
      "သွန်သင်ချက်": 5509,
      "သွန်သင်ရာက": 5510,
      "လမ်းညွှန်ချက်": 5511,
      "အကောင်းမြင်": 5512,
      "မဲဆန္ဒရှင်": 5513,
      "ဒါဝိဒ်ကို": 5514,
      "ဝင်ရောက်ယှဉ်ပြိုင်": 5515,
      "မြေကြီးကို": 5516,
      "ဂုဏ်သိက္ခာ": 5517,
      "ဆောင်ရွက်နေကြောင်း": 5518,
      "အားကစားကွင်း": 5519,
      "တပည့်တွေကို": 5520,
      "အနှံ့": 5521,
      "အမှိုက်": 5522,
      "ထိတ်လန့်": 5523,
      "ကူးသန်းရောင်းဝယ်": 5524,
      "စိတ်ရင်းမှန်နဲ့": 5525,
      "ခြိမ်းခြောက်": 5526,
      "ဇော်မင်းထွန်းက": 5527,
      "ag": 5528,
      "am": 5529,
      "us": 5530,
      "ကစပြီး": 5531,
      "ဆူ": 5532,
      "နရီ": 5533,
      "မလိုအပ်": 5534,
      "မတွေ့ရ": 5535,
      "မမေ့": 5536,
      "မချယ်ရီ": 5537,
      "ရပေမဲ့": 5538,
      "လ္": 5539,
      "လူး": 5540,
      "အက္ခ": 5541,
      "၅ဝ": 5542,
      "တွေပဲ": 5543,
      "ကျရင်": 5544,
      "ပါလား": 5545,
      "ရေးဌာန": 5546,
      "ပေးထား": 5547,
      "ပေးမယ်လို့": 5548,
      "သွမ်း": 5549,
      "လို့တောင်": 5550,
      "လို့ပြောတယ်": 5551,
      "လို့မရဘူး": 5552,
      "သိလာတယ်": 5553,
      "သိကျွမ်း": 5554,
      "သိလိုက်ရ": 5555,
      "မျိုးနဲ့": 5556,
      "စေပါတယ်": 5557,
      "ယူရို": 5558,
      "အဲဒီတော့": 5559,
      "သင်ပေးပါ": 5560,
      "လုံးလုံး": 5561,
      "သူ့အတွက်": 5562,
      "ဆက်လုပ်": 5563,
      "ပုံရိပ်": 5564,
      "နှင့်ပတ်သက်ပြီး": 5565,
      "သင့်အတွက်": 5566,
      "ဆောင်ရွက်သွားမည်ဖြစ်ကြောင်း": 5567,
      "ဥပဒေရေးရာ": 5568,
      "ဖော်ပြတဲ့": 5569,
      "စကားက": 5570,
      "စကားတွေက": 5571,
      "တိုင်းကို": 5572,
      "နေပြည်တော်မှာ": 5573,
      "ကလေးလုပ်သား": 5574,
      "လုပ်ငန်းတွေ": 5575,
      "အသက်ကြီး": 5576,
      "ကမ္ဘာတစ်ဝန်း": 5577,
      "ရှိနေပြီ": 5578,
      "ဘာသာရပ်": 5579,
      "အများအားဖြင့်": 5580,
      "ပြန်လည်ဖြေကြား": 5581,
      "ဆိုးသွမ်း": 5582,
      "ခါနာန်": 5583,
      "မိုးရွာ": 5584,
      "လီကျူး": 5585,
      "ခေါက်": 5586,
      "အမှုဖွင့်": 5587,
      "ဆယ်စု": 5588,
      "ကူးရေး": 5589,
      "ကျန်ရှိနေ": 5590,
      "ရမည့်": 5591,
      "သင်္ချိုင်း": 5592,
      "နိုင်ဖို့အတွက်": 5593,
      "ရိုးရှင်း": 5594,
      "ကျေလ": 5595,
      "ဗိုလ်ချုပ်ကြီး": 5596,
      "ရှောင်ပါ": 5597,
      "မော်လီကျူး": 5598,
      "မျက်နှာပြင်": 5599,
      "တွေ့ဆုံဆွေးနွေး": 5600,
      "ကြင်ဖော်": 5601,
      "သတ္တု": 5602,
      "ပြုစုပျိုးထောင်": 5603,
      "တန်ခိုးရှင်": 5604,
      "ထိုက်တဲ့": 5605,
      "ရာဇဝင်ချုပ်": 5606,
      "ဒီဇင်ဘာလ": 5607,
      "သဘာဝဘေးအန္တရာယ်": 5608,
      "ယေဇကျေလ": 5609,
      "မဂ္ဂဇ": 5610,
      "ပွင့်လင်း": 5611,
      "လက်အောက်ခံ": 5612,
      "ပူဇော်သက္ကာ": 5613,
      "အကာအကွယ်": 5614,
      "စာမေးပွဲ": 5615,
      "ဗြိတိန်": 5616,
      "မုဒိမ်း": 5617,
      "ကူးယူပါဒီလေ့လာမှု": 5618,
      "အာဖရိက": 5619,
      "ကတ်": 5620,
      "စောင်း": 5621,
      "ဗက်": 5622,
      "ဘိုး": 5623,
      "မခံရ": 5624,
      "ရတဲ့အခါ": 5625,
      "အပြ": 5626,
      "အလုံး": 5627,
      "ကိုမူ": 5628,
      "ကြဲ": 5629,
      "ကြူး": 5630,
      "ကျိန်": 5631,
      "ဖြူး": 5632,
      "ဖြန့်": 5633,
      "မ်ဝိညာဉ်": 5634,
      "နေတဲ့အခါ": 5635,
      "နေသလား": 5636,
      "တော်မှာ": 5637,
      "မှုခင်း": 5638,
      "လုပ်တာက": 5639,
      "တစ်စောင်": 5640,
      "ထားသော်လည်း": 5641,
      "ပေးပါတယ်": 5642,
      "ခံရပ်": 5643,
      "ဦးမြင့်": 5644,
      "ရွံ": 5645,
      "လူတချို့": 5646,
      "နှစ်မှာ": 5647,
      "ကိုယ်ကို": 5648,
      "နာမ်ဝိညာဉ်": 5649,
      "ခုတ်": 5650,
      "စေခြင်း": 5651,
      "နှင့်ပတ်သက်ပြီး": 5652,
      "စိတ်လှုပ်ရှား": 5653,
      "ကျမ်းစာရဲ့": 5654,
      "ကောင်းစွာ": 5655,
      "အဲဒီအတိုင်း": 5656,
      "ဘယ်သူက": 5657,
      "ဆက်ပြောသည်": 5658,
      "မဟုတ်တဲ့": 5659,
      "နယ်ပယ်": 5660,
      "သင့်ကလေးကို": 5661,
      "သေခြင်းကို": 5662,
      "ဆောင်ရွက်သွား": 5663,
      "မြို့သား": 5664,
      "တရားကို": 5665,
      "ထုတ်ချေး": 5666,
      "ကလေးတွေရဲ့": 5667,
      "တစ်ခုနဲ့": 5668,
      "တစ်ခုခုကို": 5669,
      "တပ်ရင်း": 5670,
      "လမ်းမကြီး": 5671,
      "ချင်းပြည်နယ်": 5672,
      "ယုံကြည်ကြတယ်": 5673,
      "လိုအပ်သည့်": 5674,
      "သတင်းကောင်း": 5675,
      "သူများအတွက်": 5676,
      "ကောင်ပေါက်": 5677,
      "ဒီလိုဖော်ပြထားတယ်": 5678,
      "ဒါကြောင့်လည်း": 5679,
      "ခံရပြီး": 5680,
      "အခြေအနေအရ": 5681,
      "ပြင်ဆင်ရန်": 5682,
      "နေတာပဲ": 5683,
      "နေတာဖြစ်တယ်": 5684,
      "စောင့်သိ": 5685,
      "ဆီးရီးယား": 5686,
      "ဒေါက်တာဇော်": 5687,
      "ဘေးကင်း": 5688,
      "အရေးကြီးဆုံး": 5689,
      "ဖြစ်လာတာလား": 5690,
      "ပထမရာစု": 5691,
      "ထိခိုက်နစ်နာ": 5692,
      "ပြေလည်": 5693,
      "လူသားတွေကို": 5694,
      "နံရံ": 5695,
      "ရိုက်တာ": 5696,
      "မကြာသေး": 5697,
      "ပိတ်ဆို့": 5698,
      "ရာစုနှစ်": 5699,
      "အလှကုန်": 5700,
      "အဖြေကို": 5701,
      "အခွင့်အလမ်း": 5702,
      "ဟင်နရီ": 5703,
      "တစ်ယောက်ယောက်ကို": 5704,
      "နွံ": 5705,
      "အသိပညာပေး": 5706,
      "အစိုးရလက်ထက်တွင်": 5707,
      "ကျင့်သုံး": 5708,
      "ပရိုတင်း": 5709,
      "ပသခါ": 5710,
      "မာဂဒလ": 5711,
      "ဟင်းသီးဟင်းရွက်": 5712,
      "ကူးယူပါဒီလေ့လာမှုလမ်းညွှန်": 5713,
      "စပျစ်": 5714,
      "ဆော": 5715,
      "ရတာက": 5716,
      "ဝိုက်": 5717,
      "အခံ": 5718,
      "အရှက်": 5719,
      "ွံ": 5720,
      "၅ဝဝ": 5721,
      "၆၉": 5722,
      "ကိုပါ": 5723,
      "တောရိုင်း": 5724,
      "နေပေမဲ့": 5725,
      "တဲ့နေရာ": 5726,
      "ရှိတာကို": 5727,
      "နိုင်ပါ": 5728,
      "မြီး": 5729,
      "ဆိုသည့်": 5730,
      "ခဲ့သလား": 5731,
      "နဲ့တူ": 5732,
      "မှုတွင်": 5733,
      "လာမယ့်": 5734,
      "ဦးအုန်း": 5735,
      "တို့အား": 5736,
      "တော့မယ့်": 5737,
      "ဘုရားပေး": 5738,
      "လူသေ": 5739,
      "နိုင်ငံတွင်": 5740,
      "ပြန်မ": 5741,
      "သာလွန်": 5742,
      "အထွက်": 5743,
      "ပေါ်တွင်": 5744,
      "စွန်း": 5745,
      "ရောက်တော့": 5746,
      "နောက်ဆက်": 5747,
      "မတက်": 5748,
      "စဉ်က": 5749,
      "စည်းရိုး": 5750,
      "မှန်သမျှကို": 5751,
      "တိုင်းတာ": 5752,
      "အချိန်မီ": 5753,
      "အခြေစိုက်": 5754,
      "ယောရှု": 5755,
      "ယောက္ခ": 5756,
      "ကျွန်တော်က": 5757,
      "မြေနေရာ": 5758,
      "လမ်းပြ": 5759,
      "ခွင့်ရ": 5760,
      "ခွင့်မလွှတ်": 5761,
      "တ္တိ": 5762,
      "ကိုယ်စားလှယ်လောင်း": 5763,
      "ကျွန်မက": 5764,
      "ခံစားချက်တွေ": 5765,
      "ခံစားနေရတဲ့": 5766,
      "အုပ်စိုး": 5767,
      "နိုင်ငံတော်အတိုင်ပင်ခံ": 5768,
      "ရုံသာမက": 5769,
      "အစိုးရကို": 5770,
      "လိုအပ်တယ်": 5771,
      "ခုနှစ်အတွင်း": 5772,
      "အခြေအနေမျိုး": 5773,
      "အခုဆိုရင်": 5774,
      "ခဲ့ခြင်းဖြစ်ကြောင်း": 5775,
      "သမ္မတရုံး": 5776,
      "နိုင်တဲ့အတွက်": 5777,
      "တကယ်တမ်း": 5778,
      "မတ်ပဲ": 5779,
      "သံကို": 5780,
      "အရွယ်ရောက်": 5781,
      "ကင်းစင်": 5782,
      "မီးလောင်": 5783,
      "အထောက်အ": 5784,
      "တော်မူသော": 5785,
      "ရိတ်သိမ်း": 5786,
      "ခန့်မှန်း": 5787,
      "ယုံကြည်စိတ်ချမှု": 5788,
      "ကြေညာခဲ့သည်": 5789,
      "တော်တော်များများ": 5790,
      "ထာဝရအသက်": 5791,
      "အဖေက": 5792,
      "အယူဝါဒ": 5793,
      "ဗေဒင်": 5794,
      "တစ်ယောက်ကိုတစ်ယောက်": 5795,
      "တစ်ယောက်ယောက်က": 5796,
      "ဦးသိန်းဆွေက": 5797,
      "ကြီးမားတဲ့": 5798,
      "တစ်ကိုယ်ကောင်း": 5799,
      "တစ်ကိုယ်တည်း": 5800,
      "မန်းဝင်း": 5801,
      "မတိုင်မီ": 5802,
      "အဝတ်အစား": 5803,
      "ity": 5804,
      "ဂျော်ဂျီ": 5805,
      "ကျွေးမွေး": 5806,
      "ဖျော်ဖြေ": 5807,
      "မစ္စတာ": 5808,
      "သမဝါယမ": 5809,
      "the": 5810,
      "ကေး": 5811,
      "ကရင်": 5812,
      "စုပ်": 5813,
      "စတာ": 5814,
      "ဒို": 5815,
      "မဖော်ပြ": 5816,
      "ရိုင်": 5817,
      "ဝုန်း": 5818,
      "ဝဏ္ဏ": 5819,
      "သေ့": 5820,
      "အကွာ": 5821,
      "၅၉": 5822,
      "မှစ": 5823,
      "ဖြုတ်": 5824,
      "ရှိသေး": 5825,
      "ဖြစ်ပါ": 5826,
      "ရေးနဲ့": 5827,
      "လိုလား": 5828,
      "လုပ်ချင်": 5829,
      "လုပ်ကြံ": 5830,
      "တစ်ပြိုင်": 5831,
      "ဒီဟာ": 5832,
      "ဒီအချက်ကို": 5833,
      "စားပါ": 5834,
      "စားချေ": 5835,
      "ခံနေရ": 5836,
      "ကြီးထွား": 5837,
      "တို့အတွက်": 5838,
      "သွားနိုင်": 5839,
      "လူချင်း": 5840,
      "ကျမ်းစာဟာ": 5841,
      "အဲဒီအကြောင်း": 5842,
      "ရက်ပိုင်း": 5843,
      "ရက်မြောက်": 5844,
      "ကာအိ": 5845,
      "ဘယ်နေရာမှာ": 5846,
      "ပေါ်က": 5847,
      "ရောက်တဲ့အခါ": 5848,
      "ရောက်လာတယ်": 5849,
      "စီကို": 5850,
      "သင့်သလဲ": 5851,
      "ရှင်သန်": 5852,
      "မှန်သမျှ": 5853,
      "ငွေနဲ့": 5854,
      "အချိန်နဲ့": 5855,
      "နေပြည်တော်စည်ပင်": 5856,
      "ဆေးကုသ": 5857,
      "ပင်ကို": 5858,
      "တည်ဆဲ": 5859,
      "စိုက်ခင်း": 5860,
      "အသက်အန္တရာယ်": 5861,
      "ရဲမှူး": 5862,
      "အဖြစ်မှန်": 5863,
      "ထွက်ပေါ်": 5864,
      "ယုံကြည်ကိုးစား": 5865,
      "နိုင်ငံတော်ရဲ့": 5866,
      "ကမ္ဘာပေါ်မှာ": 5867,
      "တိုက်ခတ်": 5868,
      "ဝန်ကြီးဌာနမှ": 5869,
      "သူများက": 5870,
      "သူများအား": 5871,
      "အားလုံးအတွက်": 5872,
      "အချက်တွေ": 5873,
      "သစ်သီး": 5874,
      "ပြောပြဖို့": 5875,
      "ကျင်းပခဲ့သည့်": 5876,
      "ပို့ကုန်": 5877,
      "လျက်ရှိသည်ဟု": 5878,
      "ငါးသိန်း": 5879,
      "ဒေါက်တာလှ": 5880,
      "ဘေးအန္တရာယ်": 5881,
      "ခရီးသွားလာ": 5882,
      "ကိုးကား": 5883,
      "ဈေးနှုန်း": 5884,
      "အရင်တုန်းက": 5885,
      "သွန်သင်ပေး": 5886,
      "ကျေပွန်": 5887,
      "ကျေးရွာအုပ်စု": 5888,
      "အခမ်းအနားကို": 5889,
      "အမျိုးမျိုးကို": 5890,
      "စွန့်ပစ်": 5891,
      "တွေ့ရပါတယ်": 5892,
      "ရစ်ခ်ျ": 5893,
      "လန်နိုင်ငံ": 5894,
      "အပေါင်းအသင်း": 5895,
      "နေတုန်းပဲ": 5896,
      "သင့်တော်တဲ့": 5897,
      "ပဲ့ပြင်": 5898,
      "စေတီတော်": 5899,
      "ဦးထွန်းထွန်း": 5900,
      "ဓလေ့ထုံးစံ": 5901,
      "မွန်းလွဲ": 5902,
      "လိင်ခြားသူ": 5903,
      "သပြေကုန်း": 5904,
      "ဓမ္မသစ်ကျမ်း": 5905,
      "ဦးထင်ကျော်": 5906,
      "စွယ်စုံကျမ်း": 5907,
      "ချာ့ခ်ျ": 5908,
      "ဆယ်စုနှစ်": 5909,
      "ဂျော်ဂျီယာ": 5910,
      "ကာအိန": 5911,
      "ch": 5912,
      "ဆေ့": 5913,
      "ဒြ": 5914,
      "နန်": 5915,
      "ဖူ": 5916,
      "မပြ": 5917,
      "ဝဲ": 5918,
      "အလွှာ": 5919,
      "အမေ့": 5920,
      "အမိန့်": 5921,
      "အဖွဲ": 5922,
      "၆၇": 5923,
      "ၡုံး": 5924,
      "မှောင်": 5925,
      "ကျမှ": 5926,
      "တဲ့စိတ်": 5927,
      "သည်ထက်": 5928,
      "ဖြစ်ခဲ့တယ်": 5929,
      "ဖြစ်မယ်ဆိုရင်": 5930,
      "တာဖြစ်ပါတယ်": 5931,
      "နိုင်မည့်": 5932,
      "ရေးထားတယ်": 5933,
      "တစ်သား": 5934,
      "တစ်ဖွဲ့": 5935,
      "ပေးထားတယ်": 5936,
      "လာတဲ့အတွက်": 5937,
      "ပြည်မှာ": 5938,
      "ဦးစိုင်း": 5939,
      "တွေကိုပဲ": 5940,
      "လှိုက်": 5941,
      "ပျင်း": 5942,
      "ပျော့": 5943,
      "ပုံဖော်": 5944,
      "အိမ်ပြန်": 5945,
      "ဆောင်ရွက်ဖို့": 5946,
      "မြို့ပြ": 5947,
      "ပညာရပ်": 5948,
      "စည်းဝေး": 5949,
      "အာဇာ": 5950,
      "ထုတ်ယူ": 5951,
      "အချိန်ထိ": 5952,
      "ဆေးဆေး": 5953,
      "ရပ်ဆိုင်း": 5954,
      "မြေပြင်": 5955,
      "ခွင့်မပြု": 5956,
      "အိမ်ထောင်ရေးကို": 5957,
      "ကျွန်မခင်ပွန်း": 5958,
      "သတင်းကို": 5959,
      "သေးငယ်": 5960,
      "စရာပဲ": 5961,
      "တွေနဲ့ပတ်သက်ပြီး": 5962,
      "ဒီလိုနဲ့": 5963,
      "သန်းကျော်": 5964,
      "လုပ်ဆောင်ပါ": 5965,
      "ကျင်းပသော": 5966,
      "ဆုတောင်းဖို့": 5967,
      "တန်းတူ": 5968,
      "မဖြစ်အောင်": 5969,
      "ပုဂ္ဂိုလ်တွေ": 5970,
      "ဘုရင်များ": 5971,
      "ကျွန်တော့်ရဲ့": 5972,
      "ထားတာလား": 5973,
      "ခရစ်ယာန်တွေဟာ": 5974,
      "ခဲ့တာလဲ": 5975,
      "ကျိုးကြောင်း": 5976,
      "အိပ်ရေး": 5977,
      "အခက်အခဲတွေကို": 5978,
      "လွဲသုံး": 5979,
      "ရောက်လာတဲ့အခါ": 5980,
      "ဆင်းရဲနွမ်းပါး": 5981,
      "ထုတ်လုပ်မှု": 5982,
      "ရှုံးနိမ့်": 5983,
      "တစ်ပါးတည်း": 5984,
      "မက်ဆေ့": 5985,
      "မြေကြီးပေါ်မှာ": 5986,
      "ဘယ်သူလဲ": 5987,
      "မူးယစ်ဆေး": 5988,
      "အရေခွံ": 5989,
      "လှည့်စား": 5990,
      "ချိုင့်": 5991,
      "ဆန်းစစ်ပါ": 5992,
      "tive": 5993,
      "အိုင်ရစ်ခ်ျ": 5994,
      "အရက်သောက်": 5995,
      "မကြာခင်မှာပဲ": 5996,
      "မိုင်းအန္တရာယ်": 5997,
      "သူတစ်ပါးကို": 5998,
      "အလှူငွေ": 5999,
      "နွေစပါး": 6000,
      "လှပတဲ့": 6001,
      "အယ်လ်ဒီ": 6002,
      "သိုလှောင်": 6003,
      "အေးအေးဆေးဆေး": 6004,
      "ဝတ္ထု": 6005,
      "ဟိတ": 6006,
      "နက္ခတ်": 6007,
      "နှိမ်နင်း": 6008,
      "ချင့်ချိန်": 6009,
      "မဂ္ဂဇင်း": 6010,
      "ကူးယူပါဒီလေ့လာမှုလမ်းညွှန်က": 6011,
      "မြီးကောင်ပေါက်": 6012,
      "နောက်ဆက်တွဲ": 6013,
      "ယောက္ခမ": 6014,
      "ကရ": 6015,
      "ခမ်း": 6016,
      "တစိုက်": 6017,
      "နွှ": 6018,
      "မတင်": 6019,
      "မကျန်": 6020,
      "မကျေနပ်": 6021,
      "ယင်": 6022,
      "ယပ်": 6023,
      "အဆောင်": 6024,
      "အရှုံး": 6025,
      "ဥရ": 6026,
      "၈၈": 6027,
      "၉၀": 6028,
      "“‘": 6029,
      "ပြောင်": 6030,
      "ပြခဲ့တယ်": 6031,
      "ရှူ": 6032,
      "ချောက်": 6033,
      "တဲ့နေရာမှာ": 6034,
      "နှိုး": 6035,
      "ရှိသလား": 6036,
      "ရှိတော့မှာ": 6037,
      "ဖြစ်တာ": 6038,
      "မြွေ": 6039,
      "ဆိုကြတယ်": 6040,
      "လုပ်မယ်": 6041,
      "လုပ်ပိုင်ခွင့်": 6042,
      "ဒီကျမ်း": 6043,
      "ဒီအချက်": 6044,
      "စာသင်": 6045,
      "ဦးဟင်နရီ": 6046,
      "ရွတ်": 6047,
      "သွားပါလိမ့်မယ်": 6048,
      "ဒါတွေကို": 6049,
      "နှစ်ဆ": 6050,
      "အစွန်း": 6051,
      "မျိုးစိတ်": 6052,
      "နာမတော်": 6053,
      "နာတာရှည်": 6054,
      "ခုန်": 6055,
      "စေမယ်": 6056,
      "တိမ်း": 6057,
      "လိုက်လို့": 6058,
      "လုံးမှာ": 6059,
      "မဟုတ်ကြောင်း": 6060,
      "စီတန်း": 6061,
      "စီအေ": 6062,
      "ဘုရားသခင်အကြောင်း": 6063,
      "နောက်တစ်ခါ": 6064,
      "အရောင်": 6065,
      "မှန်မှန်": 6066,
      "အချိန်က": 6067,
      "ကနေတစ်ဆင့်": 6068,
      "ဒေသမှာ": 6069,
      "ရှိတယ်ဆိုတဲ့": 6070,
      "လေလံ": 6071,
      "လေပြင်း": 6072,
      "ရုံးချိန်း": 6073,
      "တန်ဆာ": 6074,
      "တခြားသူ": 6075,
      "ဆိုပြီးတော့": 6076,
      "လာတယ်လို့": 6077,
      "မျက်ရည်": 6078,
      "ရမယ့်": 6079,
      "ရမယ်ဆိုရင်": 6080,
      "ဆန္ဒမဲ": 6081,
      "ကျင်းပခဲ့သော": 6082,
      "အမြော်": 6083,
      "ရှေ့နောက်": 6084,
      "သလိုမျိုး": 6085,
      "ငါးလုပ်ငန်း": 6086,
      "ဖန်ဆင်းရာ": 6087,
      "ဆုံးဖြတ်လိုက်တယ်": 6088,
      "ဖျက်သိမ်း": 6089,
      "ဖြေရှင်းဖို့": 6090,
      "စင်ကြယ်": 6091,
      "အဲဒါတွေကို": 6092,
      "ဧလိရှဲ": 6093,
      "လင်မယား": 6094,
      "အကူအညီတောင်း": 6095,
      "အမှားအမှန်": 6096,
      "ရင်းနှီးမှု": 6097,
      "အာရုံမစိုက်": 6098,
      "ဘဏ္ဍာရေးဝန်ကြီးဌာန": 6099,
      "စီမံကိန်းနှင့်": 6100,
      "ရမှာဖြစ်တယ်": 6101,
      "ယောဘကို": 6102,
      "ယူဆကြတယ်": 6103,
      "လွဲလို့": 6104,
      "ဘယ်လောက်တောင်": 6105,
      "မြင့်က": 6106,
      "နှာခေါင်း": 6107,
      "အဲ့တော့": 6108,
      "ဂရုမစိုက်": 6109,
      "အလွန်အ": 6110,
      "တီးရီးယား": 6111,
      "ခြံစည်းရိုး": 6112,
      "မွေးမြူရေးနှင့်": 6113,
      "သင့်အိမ်ထောင်ဖက်ကို": 6114,
      "ဦးအောင်ကြည်": 6115,
      "ဖြစ်သည့်အတွက်": 6116,
      "အနံ့": 6117,
      "လွင်က": 6118,
      "ဆောင်ရွက်လျက်ရှိကြောင်း": 6119,
      "ခရီးသွားလုပ်ငန်း": 6120,
      "အလားအလာ": 6121,
      "စားသောက်ဆိုင်": 6122,
      "ထီးယူ": 6123,
      "သုတေသီတွေ": 6124,
      "အင်န်အယ်လ်ဒီ": 6125,
      "ဦးမင်းသူက": 6126,
      "ချရေးပါ": 6127,
      "ဦးသန်းစိုး": 6128,
      "မဲခွဲဆုံးဖြတ်": 6129,
      "ကယားပြည်နယ်": 6130,
      "မန်းဝင်းခိုင်": 6131,
      "AA": 6132,
      "Ne": 6133,
      "PD": 6134,
      "od": 6135,
      "ဂီ": 6136,
      "ဆံ့": 6137,
      "ညွ": 6138,
      "ထန်း": 6139,
      "နည်": 6140,
      "ပင့်": 6141,
      "ပလ္": 6142,
      "မစိုးရိမ်": 6143,
      "မသေချာ": 6144,
      "မအောင်မြင်": 6145,
      "ယန္": 6146,
      "ရပါမယ်": 6147,
      "အချိုး": 6148,
      "၄ဝ": 6149,
      "၆ဝ": 6150,
      "ကြသလဲ": 6151,
      "ကြရတယ်": 6152,
      "တွေရှိတယ်": 6153,
      "ကျင်း": 6154,
      "နေကျ": 6155,
      "နေသူတွေကို": 6156,
      "နှိုက်": 6157,
      "ဖြစ်သလို": 6158,
      "သူရဦး": 6159,
      "တာကာလအတွင်း": 6160,
      "ုံးဝင်": 6161,
      "ခဲ့ကာ": 6162,
      "ခဲ့မှာပဲ": 6163,
      "လုပ်နိုင်": 6164,
      "လုပ်လို့": 6165,
      "ထားလို့": 6166,
      "ပေးဆောင်": 6167,
      "ပေးခဲ့တဲ့": 6168,
      "ပေးနိုင်တဲ့": 6169,
      "ခြင်းလုပ်ငန်း": 6170,
      "ဦးနှင့်": 6171,
      "မည်ကို": 6172,
      "တင်ယာဉ်": 6173,
      "အောင်နိုင်ရေး": 6174,
      "ွေ့": 6175,
      "သုံးပါး": 6176,
      "ရက်စွဲ": 6177,
      "ပုံပေါက်": 6178,
      "တွေ့ရတဲ့": 6179,
      "တွေ့ကြုံ": 6180,
      "မြို့ဖ": 6181,
      "စစ်တမ်း": 6182,
      "ပညာသင်": 6183,
      "မှန်ပေမဲ့": 6184,
      "ဌာနမှ": 6185,
      "မြင်ရ": 6186,
      "သူတို့အတွက်": 6187,
      "တစ်ခုကတော့": 6188,
      "ချင်မှ": 6189,
      "အရေးပါတဲ့": 6190,
      "ပြည်ထောင်စုငြိမ်းချမ်းရေး": 6191,
      "ဘယ်လိုထင်ပါသလဲ": 6192,
      "သည့်အတွက်": 6193,
      "တစ်ယောက်ဟာ": 6194,
      "ကျွန်မတို့ကို": 6195,
      "သတ်သတ်မှတ်": 6196,
      "Covid": 6197,
      "နှုန်းထား": 6198,
      "စရာပါပဲ": 6199,
      "ခံရဖို့": 6200,
      "အချက်များ": 6201,
      "ဘက်ကနေ": 6202,
      "အခြေခံပြီး": 6203,
      "ကျောင်းမှာ": 6204,
      "ယေဟောဝါဘုရားနဲ့": 6205,
      "လေ့လာတွေ့ရှိ": 6206,
      "မင်းကို": 6207,
      "တကယ်ပဲ": 6208,
      "၄င်းကပြောသည်": 6209,
      "ကြေးနီ": 6210,
      "အမှန်အတိုင်း": 6211,
      "ကာလမှာ": 6212,
      "ဓာတ်ခွဲ": 6213,
      "သံအမတ်": 6214,
      "ဖြစ်လာမယ့်": 6215,
      "စင်တာ": 6216,
      "များတွင်လည်း": 6217,
      "မလုပ်ပါနဲ့": 6218,
      "ခြုံငုံ": 6219,
      "သေချာပါတယ်": 6220,
      "ရမှာဖြစ်ပါတယ်": 6221,
      "သဘောထားကို": 6222,
      "လွဲမှား": 6223,
      "ဘယ်လောက်ပဲ": 6224,
      "ဘယ်လောက်ကြာ": 6225,
      "မကောင်းဘူး": 6226,
      "ပြတ်ပြတ်": 6227,
      "တွန်းလှန်": 6228,
      "လိင်ဆက်ဆံ": 6229,
      "ကွာရန်": 6230,
      "ရန်ကုန်မြို့": 6231,
      "ဗဟိုဘဏ်": 6232,
      "ဗဟိုအလုပ်အမှုဆောင်": 6233,
      "သင့်ကြောင်း": 6234,
      "စိစစ်ရေး": 6235,
      "ဟီလီ": 6236,
      "အသေးစား": 6237,
      "စံနှုန်းတွေကို": 6238,
      "ကြံစည်": 6239,
      "အနန္တ": 6240,
      "ဗုဒ္": 6241,
      "ကုန်သွယ်ရေး": 6242,
      "ရင့်ကျက်": 6243,
      "မပါဘဲ": 6244,
      "သတင်းစာရှင်းလင်းပွဲ": 6245,
      "ကိုယ်ခန္ဓာကို": 6246,
      "အင်န်စီအေ": 6247,
      "အရှိန်အ": 6248,
      "မြန်မာတိုင်းမ်သို့": 6249,
      "ပရဟိတ": 6250,
      "အထဲမှာ": 6251,
      "အစိုးရသစ်လက်ထက်": 6252,
      "ဗန်ထီးယူ": 6253,
      "ဆွာဟီလီ": 6254,
      "ခိုင်လုံတဲ့": 6255,
      "တမင်တကာ": 6256,
      "ဒေါက်တာအောင်သူက": 6257,
      "ဦးတီခွန်မြတ်က": 6258,
      "ဗေဒင်ဆရာ": 6259,
      "အာဇာနည်": 6260,
      "အလွန်အမင်း": 6261,
      "ညွန့်": 6262,
      "ပလ္လင်": 6263,
      "သတ်သတ်မှတ်မှတ်": 6264,
      "ဗုဒ္ဓ": 6265,
      "Bi": 6266,
      "MIC": 6267,
      "ad": 6268,
      "ခမျာ": 6269,
      "စေး": 6270,
      "ဒဏ္ဍာ": 6271,
      "ဘို": 6272,
      "မရတဲ့": 6273,
      "ရသလဲ": 6274,
      "ဝံ": 6275,
      "သဏ္": 6276,
      "အန္": 6277,
      "အပတ်": 6278,
      "၅၀၀": 6279,
      "မှတစ်ဆင့်": 6280,
      "ချွတ်": 6281,
      "နှက်": 6282,
      "ရှိသေးတယ်": 6283,
      "ဖြစ်ရမယ်": 6284,
      "ဖြစ်နိုင်ပါတယ်": 6285,
      "များဆိုင်ရာ": 6286,
      "များဖြင့်": 6287,
      "နိုင်ပါလိမ့်မယ်": 6288,
      "ခဲ့တာကို": 6289,
      "ပြောတာက": 6290,
      "မှုန့်": 6291,
      "ထားမယ်ဆိုရင်": 6292,
      "ပေးရေး": 6293,
      "စာတွေ": 6294,
      "လာစေရန်": 6295,
      "ပြည်ကို": 6296,
      "ခြင်းတို့ကို": 6297,
      "သားလေး": 6298,
      "ပြုတ်": 6299,
      "သွားပါတယ်": 6300,
      "လူပုဂ္ဂိုလ်": 6301,
      "ပြန်ဖြေ": 6302,
      "လေးလေးစား": 6303,
      "သုံးခုကို": 6304,
      "သင်က": 6305,
      "သင်္ဂ": 6306,
      "မှတ်မိ": 6307,
      "မတိုက်": 6308,
      "ရေကို": 6309,
      "တွေ့ရသည်": 6310,
      "ဆောင်ရွက်ခြင်း": 6311,
      "န္နက်": 6312,
      "တရားမဲ့": 6313,
      "အချိန်ပေး": 6314,
      "အလုပ်များ": 6315,
      "စိုက်ထူ": 6316,
      "အဖြစ်ဆိုး": 6317,
      "ထက်သန်": 6318,
      "ခံစားရတဲ့": 6319,
      "ဆွေးနွေးခဲ့သည်": 6320,
      "ကျွန်တော်တို့အတွက်": 6321,
      "ရုံမက": 6322,
      "ကိစ္စတွေကို": 6323,
      "ထောက်ထား": 6324,
      "အခြေအနေတွေ": 6325,
      "အခြေအနေတွေကို": 6326,
      "အကျိုးတူ": 6327,
      "ဝတ်ရုံ": 6328,
      "ခါစ": 6329,
      "ဆန္ဒကို": 6330,
      "လေ့လာပါ": 6331,
      "လေ့လာဆန်းစစ်": 6332,
      "ပို့ချ": 6333,
      "ရှားပါး": 6334,
      "စစ်ဆေးမှု": 6335,
      "ပြောင်းလဲမှု": 6336,
      "တုန်": 6337,
      "ယခုအခါ": 6338,
      "အရေးကြီးပါတယ်": 6339,
      "အိမ်ထောင်ဖက်ရဲ့": 6340,
      "ညှိုး": 6341,
      "ကျန်ရစ်": 6342,
      "ဘုရားသခင့်နာမည်ကို": 6343,
      "လွယ်လွယ်": 6344,
      "သက်သေထူ": 6345,
      "အမျိုးသမီးများ": 6346,
      "အစ္စရေးတွေကို": 6347,
      "အစ္စရေးဘုရင်": 6348,
      "ရမည်ဖြစ်သည်": 6349,
      "ရမည်ဖြစ်ပြီး": 6350,
      "ခရစ်ယာန်တွေကို": 6351,
      "နားထောင်ပေး": 6352,
      "နေကြတာ": 6353,
      "မကြာမီ": 6354,
      "နာရီခွဲ": 6355,
      "အလုပ်သမားများ": 6356,
      "ဒါဝိဒ်ဟာ": 6357,
      "သင်တို့ရဲ့": 6358,
      "မတူဘူး": 6359,
      "အစာရှောင်": 6360,
      "သူငယ်ချင်းတွေ": 6361,
      "လေးစားမှု": 6362,
      "တွေးမိ": 6363,
      "သန့်ရှင်းတဲ့": 6364,
      "အခမ်းအနားသို့": 6365,
      "ရှင်းပြတယ်": 6366,
      "အပြီးတွင်": 6367,
      "ရုသဟာ": 6368,
      "လောကကို": 6369,
      "ဒုတိယဝန်ကြီးက": 6370,
      "အခွန်အကောက်": 6371,
      "ထုံးတမ်း": 6372,
      "ဖွံ့ဖြိုးတိုးတက်မှု": 6373,
      "အားနည်းချက်": 6374,
      "တစ်ရပ်ကို": 6375,
      "အနာဂတ်မှာ": 6376,
      "ဝှေ့": 6377,
      "အဖေ့": 6378,
      "ပျံကျ": 6379,
      "ဟိုတယ်ဇုန်": 6380,
      "တစ်စုံတစ်ရာ": 6381,
      "သက်ရောက်မှု": 6382,
      "သံသယဝင်": 6383,
      "တစ်ဆူ": 6384,
      "စိတ်ပိုင်းဖြတ်": 6385,
      "ကွပ်မျက်": 6386,
      "ရာရောက်တယ်": 6387,
      "ခုံရုံး": 6388,
      "ဧရာဝတီတိုင်းဒေသကြီး": 6389,
      "၂၀ဝ၈": 6390,
      "အတိုးနှုန်း": 6391,
      "မင်းအောင်လှိုင်": 6392,
      "အပျိုစင်": 6393,
      "နိနဝေမြို့": 6394,
      "ဒြပ်": 6395,
      "နက္ခတ်ဗေဒင်ဆရာ": 6396,
      "အမြော်အမြင်": 6397,
      "ယန္တရား": 6398,
      "သူရဦးရွှေမန်း": 6399,
      "ဒဏ္ဍာရီ": 6400,
      "သဏ္ဌာန်": 6401,
      "လေးလေးစားစား": 6402,
      "*—": 6403,
      "EC": 6404,
      "Re": 6405,
      "ထိန်": 6406,
      "ရဟ": 6407,
      "ရတာကို": 6408,
      "ရလိမ့်မယ်": 6409,
      "၅၈": 6410,
      "င်္": 6411,
      "ပါလို့": 6412,
      "တဲ့အကြောင်း": 6413,
      "ရှိမယ်": 6414,
      "ရှိခဲ့တယ်": 6415,
      "ဖြစ်ထွန်း": 6416,
      "သူအဖြစ်": 6417,
      "တာဖြစ်တယ်": 6418,
      "ရေးဦးစီးဌာန": 6419,
      "ပြီးဆုံး": 6420,
      "ပြီးပြည့်စုံ": 6421,
      "ပြောပါတယ်": 6422,
      "ပေးခဲ့ပြီး": 6423,
      "လာပါက": 6424,
      "ခြင်းဖြစ်": 6425,
      "ဟုလည်း": 6426,
      "သိက်": 6427,
      "သိသရ": 6428,
      "လူစု": 6429,
      "နှစ်ကြိမ်": 6430,
      "နှစ်သောင်း": 6431,
      "အစစ်": 6432,
      "ကိုယ့်": 6433,
      "အားသာ": 6434,
      "ပြန့်": 6435,
      "လေးထောင့်": 6436,
      "စိတ်ထား": 6437,
      "သောအရာ": 6438,
      "အဲဒီအတွက်": 6439,
      "ကာပူ": 6440,
      "လွှတ်တော်ဥက္ကဋ္ဌ": 6441,
      "ဆက်မပြတ်": 6442,
      "ပေါ်လာတယ်": 6443,
      "ဘုရားသခင်ဆီက": 6444,
      "မြို့မိ": 6445,
      "စစ်ရေး": 6446,
      "ပေမဲ့လည်း": 6447,
      "လားလား": 6448,
      "အကြောင်းကတော့": 6449,
      "ရိယ": 6450,
      "အကြေး": 6451,
      "ဥပဒေပြု": 6452,
      "ထုတ်ကုန်": 6453,
      "ပိုပြီးတော့": 6454,
      "အကျုံးဝင်": 6455,
      "တည်မြဲ": 6456,
      "မြန်မာနိုင်ငံတော်": 6457,
      "အလုပ်တွေ": 6458,
      "ထွက်သွား": 6459,
      "ယုံကြည်မှု": 6460,
      "ယုံကြည်ကြောင်း": 6461,
      "အဆိုပြု": 6462,
      "အရာခပ်သိမ်း": 6463,
      "သတင်းမှန်": 6464,
      "ရုံးတွင်": 6465,
      "ဒီလိုမျိုး": 6466,
      "တစ်ဦးလျှင်": 6467,
      "တခြားသူကို": 6468,
      "အခြေအနေများ": 6469,
      "ခေါ်တယ်": 6470,
      "ဝတ်ဆင်": 6471,
      "ယေဟောဝါဘုရားဟာ": 6472,
      "ပါဝင်ပတ်သက်": 6473,
      "မြန်မာနိုင်ငံသည်": 6474,
      "မိုးစပါး": 6475,
      "ဝေါ": 6476,
      "မိဘတွေဟာ": 6477,
      "အပြစ်တွေကို": 6478,
      "ကြိုးစားကြည့်ပါ": 6479,
      "ဆုတောင်းခဲ့တယ်": 6480,
      "ဆုတောင်းတဲ့အခါ": 6481,
      "လီယာ": 6482,
      "ဇာတိ": 6483,
      "တည်ဆောက်ရေး": 6484,
      "နားလည်အောင်": 6485,
      "အဓိကထား": 6486,
      "ယောသပ်နဲ့": 6487,
      "ပူးပေါင်းပြီး": 6488,
      "ပေးနိုင်ရေး": 6489,
      "မှတ်တမ်းက": 6490,
      "ပြည်ထောင်စုလွှတ်တော်သို့": 6491,
      "ကောင်စီနယ်မြေ": 6492,
      "ခဲ့တာဖြစ်တယ်": 6493,
      "သဘောထားကွဲလွဲ": 6494,
      "နေကြပါတယ်": 6495,
      "ဂရုတစိုက်": 6496,
      "သင်တို့သည်": 6497,
      "အမေက": 6498,
      "အမြင်ကို": 6499,
      "မတူညီ": 6500,
      "ခံစားရနိုင်တယ်": 6501,
      "ရှမွေလရဲ့": 6502,
      "ဖုန်းနဲ့": 6503,
      "ဗဟိုကော်မတီ": 6504,
      "လျော့ကျ": 6505,
      "အကျင့်ပျက်": 6506,
      "ရဲတပ်ဖွဲ့ဝင်": 6507,
      "မုန့်": 6508,
      "ကြိုတင်မဲ": 6509,
      "မလိုဘူး": 6510,
      "ရုသကို": 6511,
      "ကွင်းဆင်း": 6512,
      "မဆိုလို": 6513,
      "အမည်စာရင်း": 6514,
      "ဗီဇ": 6515,
      "ဝှမ်း": 6516,
      "ဧသတာဟာ": 6517,
      "သတင်းမီဒီယာများအား": 6518,
      "သတင်းမီဒီယာများသို့": 6519,
      "ထီးတော်": 6520,
      "မို့လို့": 6521,
      "ဖြန့်ဝေ": 6522,
      "အစ္စရေးလူမျိုးကို": 6523,
      "ွန့်ခွာ": 6524,
      "စာရေးဆရာ": 6525,
      "ဥတ္တရသီရိမြို့နယ်": 6526,
      "လုံခြံုရေး": 6527,
      "ဘိသိက်": 6528,
      "ဒေါက်တာဝင်းမြတ်": 6529,
      "ညင်သာ": 6530,
      "နူးညံ့သိမ်မွေ့": 6531,
      "အနန္တတန်ခိုးရှင်": 6532,
      "အရှိန်အဟုန်": 6533,
      "JC": 6534,
      "SS": 6535,
      "UPD": 6536,
      "oc": 6537,
      "ငတ်": 6538,
      "စတြ": 6539,
      "ထစ်": 6540,
      "ထွန်": 6541,
      "ထမင်း": 6542,
      "ဗ်": 6543,
      "ဘော်": 6544,
      "အချ": 6545,
      "အဖြတ်": 6546,
      "ွီ": 6547,
      "၅၂": 6548,
      "၈၅": 6549,
      "ပြတယ်": 6550,
      "ချည်": 6551,
      "တွေလို": 6552,
      "ပါကြောင်း": 6553,
      "နှမ": 6554,
      "နှောင့်": 6555,
      "များလာ": 6556,
      "သူကတော့": 6557,
      "နိုင်မည်": 6558,
      "လုပ်မယ်ဆိုရင်": 6559,
      "လုပ်ရမယ့်": 6560,
      "ထားတာက": 6561,
      "စာစောင်": 6562,
      "ခြင်းခံရ": 6563,
      "တို့မှ": 6564,
      "တော့ပါဘူး": 6565,
      "သားက": 6566,
      "မာလခ": 6567,
      "သွားသည်": 6568,
      "လူအပေါင်း": 6569,
      "သက်သက်": 6570,
      "နှစ်သိန်း": 6571,
      "အစေ": 6572,
      "လက်ရာ": 6573,
      "နိုင်ငံသို့": 6574,
      "စေနိုင်တဲ့": 6575,
      "အဲလို": 6576,
      "သာရှိ": 6577,
      "အောင်ပွဲ": 6578,
      "ကောင်းပါတယ်": 6579,
      "သည့်အပြင်": 6580,
      "ဆောင်ရွက်ချက်": 6581,
      "ဆောင်ရွက်သွားမည်ဟု": 6582,
      "နားမှာ": 6583,
      "ထိထိရောက်": 6584,
      "တစ်ခုလုံးကို": 6585,
      "ခွင့်ပေး": 6586,
      "အလုပ်မှာ": 6587,
      "တက်ရောက်လာ": 6588,
      "ကိုယ့်ဘာသာ": 6589,
      "သဘောကျ": 6590,
      "ကွယ်လွန်": 6591,
      "တာဝန်မှ": 6592,
      "လောတ": 6593,
      "တချို့မှာ": 6594,
      "ရုံးမှ": 6595,
      "ဒီလိုပြောခဲ့တယ်": 6596,
      "စံပြ": 6597,
      "ထောက်ကူ": 6598,
      "ခံရတဲ့အခါ": 6599,
      "ခေါ်ဆောင်": 6600,
      "မျက်မမြင်": 6601,
      "ပါဝင်သည်": 6602,
      "လုပ်ဆောင်ဖို့": 6603,
      "ဘဝပုံစံ": 6604,
      "ခေတ်သုံး": 6605,
      "ခေတ်မီ": 6606,
      "စောင့်ဆိုင်း": 6607,
      "သတ်မှတ်ချက်": 6608,
      "မြင့်မောင်က": 6609,
      "ပြောင်းလဲသွား": 6610,
      "ဆက်လက်ပြောကြားခဲ့သည်": 6611,
      "အိမ်ထောင်ဖက်က": 6612,
      "ထုတ်ပြန်ခဲ့သည်": 6613,
      "တိုးတက်ကောင်းမွန်": 6614,
      "မိတ်ဆွေကောင်း": 6615,
      "စိုးရိမ်စရာ": 6616,
      "စီမံကိန်းကို": 6617,
      "အခွင့်အလမ်း": 6618,
      "ဧလိယရဲ့": 6619,
      "ငှာ": 6620,
      "ရခိုင်အမျိုးသား": 6621,
      "လိင်ဆိုင်ရာ": 6622,
      "အရည်အသွေးတွေကို": 6623,
      "အရည်အသွေးကောင်း": 6624,
      "ကျွန်မတို့ရဲ့": 6625,
      "အချက်အလက်တွေ": 6626,
      "အကျင့်ဆိုး": 6627,
      "လျင်မြန်": 6628,
      "တိုက်တွန်းကြောင်း": 6629,
      "မောင်းနှင်": 6630,
      "အရင်းအနှီး": 6631,
      "စိတ်ရှည်ရှည်": 6632,
      "အနိုင်ရ": 6633,
      "အရှေ့တောင်": 6634,
      "လက်တွေ့ကျကျ": 6635,
      "လက်တွေ့ကျတဲ့": 6636,
      "နံနက်ပိုင်းက": 6637,
      "မနက်ဖြန်": 6638,
      "တစ်ယောက်နဲ့တစ်ယောက်": 6639,
      "အကြာမှာ": 6640,
      "များပြားလာ": 6641,
      "ဂျာနယ်": 6642,
      "အရောင်းအဝယ်": 6643,
      "လိုလိုလားလား": 6644,
      "ကျမ်းရေးသူ": 6645,
      "အတော်များများကို": 6646,
      "အောက်ခြေမှတ်ချက်": 6647,
      "ဦးမောင်မောင်ဝင်းက": 6648,
      "ပြည်ထောင်စုကြံ့ခိုင်ရေးနှင့်": 6649,
      "ကမ္ဘာသစ်ဘာသာပြန်ကျမ်း": 6650,
      "မနာလို": 6651,
      "ပြတ်ပြတ်သားသား": 6652,
      "UPDJC": 6653,
      "မာလခိ": 6654,
      "ia": 6655,
      "st": 6656,
      "ဇိ": 6657,
      "တန့်": 6658,
      "တမံ": 6659,
      "ဓေ": 6660,
      "မကြည့်": 6661,
      "မပို": 6662,
      "ဝဏ်": 6663,
      "အငယ်": 6664,
      "ဧည့်": 6665,
      "်း": 6666,
      "၆၁": 6667,
      "ကြုတ်": 6668,
      "ချန်": 6669,
      "နေမှု": 6670,
      "နေတော့": 6671,
      "နေစဉ်": 6672,
      "တဲ့အရာ": 6673,
      "ရှိကြတယ်": 6674,
      "ည်းစား": 6675,
      "တာတော့": 6676,
      "နိုင်ခဲ့ပြီး": 6677,
      "ပြောလို့": 6678,
      "မှုန်း": 6679,
      "လုပ်စရာ": 6680,
      "ပေးခဲ့": 6681,
      "သွက်": 6682,
      "စာပို့": 6683,
      "စားဖို့": 6684,
      "ခြင်းကနေ": 6685,
      "တို့မှာ": 6686,
      "ဖို့နဲ့": 6687,
      "လူစား": 6688,
      "လူတန်း": 6689,
      "နှစ်ပါး": 6690,
      "မိအောင်": 6691,
      "အစေ့": 6692,
      "နာဇ": 6693,
      "ကျမ်းစာပါ": 6694,
      "ေ့စ်": 6695,
      "ရေတွက်": 6696,
      "မူကြို": 6697,
      "ဆိုင်ခန်း": 6698,
      "မရှိပေ": 6699,
      "မရှိသေးကြောင်း": 6700,
      "အချိန်တန်": 6701,
      "ရပ်ခံ": 6702,
      "အကျွံ": 6703,
      "ပွဲသို့": 6704,
      "လျှော်": 6705,
      "အပ်နှင်း": 6706,
      "ပြီလား": 6707,
      "အသင့်": 6708,
      "ဂျဲ": 6709,
      "ဂျို": 6710,
      "ထားတယ်လို့": 6711,
      "အလုပ်နဲ့": 6712,
      "ers": 6713,
      "မေးတယ်": 6714,
      "မေးလ်": 6715,
      "တချို့ကျတော့": 6716,
      "၁၅၀": 6717,
      "အခုအချိန်မှာ": 6718,
      "ထင်မြင်": 6719,
      "မိသားစုလိုက်": 6720,
      "လုပ်ဆောင်မှု": 6721,
      "မှုများလည်း": 6722,
      "ကျင်းပပြုလုပ်": 6723,
      "ဆုတောင်းချက်ကို": 6724,
      "ဆီးချို": 6725,
      "ပစ္စည်းဥစ္စာ": 6726,
      "ပန်းချီ": 6727,
      "ရွေးကောက်ပွဲတွင်": 6728,
      "လျှောက်လွှာ": 6729,
      "တည်ဆောက်ရန်": 6730,
      "ဖွံ့ဖြိုးမှု": 6731,
      "သစ္စာစောင့်သိ": 6732,
      "လူမျိုးကို": 6733,
      "ပူးပေါင်းလုပ်ဆောင်": 6734,
      "ပေးနိုင်ရန်": 6735,
      "မီးအိုင်": 6736,
      "ခရစ်ယာန်ဂရိ": 6737,
      "မေးခွန်းတွေ": 6738,
      "ခဲ့တာပါ": 6739,
      "စီမံကိန်းနှင့်": 6740,
      "ကျိုးနွံ": 6741,
      "တွဲဖက်": 6742,
      "ကိုယ်တိုင်နဲ့": 6743,
      "အခွင့်ထူး": 6744,
      "မြင့်မား": 6745,
      "အောင်မြင်မှု": 6746,
      "မွန်ပြည်နယ်": 6747,
      "ဒါဝိဒ်ရဲ့": 6748,
      "ကြင်ကြင်နာ": 6749,
      "စကားလုံးက": 6750,
      "ကြပ်မတ်": 6751,
      "ကြေညာချက်": 6752,
      "ခက်ခဲတဲ့": 6753,
      "အသေးအဖွဲ": 6754,
      "ရောင်ခြည်": 6755,
      "ပူးပေါင်းဆောင်ရွက်ရေး": 6756,
      "ဖြစ်သွားနိုင်တယ်": 6757,
      "တပ်မတော်သားလွှတ်တော်ကိုယ်စားလှယ်": 6758,
      "လှုပ်ရှားမှု": 6759,
      "အဆုံးတိုင်": 6760,
      "ဗေဒပညာရှင်": 6761,
      "ကိုယ်တော့်ကို": 6762,
      "အဘယ်ကြောင့်": 6763,
      "အလှူရှင်": 6764,
      "အလင်းရောင်": 6765,
      "အကြာကြီး": 6766,
      "အကျဉ်းသား": 6767,
      "ဘုရားသခင့်နိုင်ငံတော်က": 6768,
      "ရှင်ပြန်ထမြောက်ခြင်း": 6769,
      "နိုင်ငံ့ဝန်ထမ်း": 6770,
      "ကြီးပြင်းလာ": 6771,
      "ဖိုရမ်": 6772,
      "ချည်းပဲ": 6773,
      "မြင်ယောင်ကြည့်လိုက်ပါ": 6774,
      "ဘ်ဆိုက်": 6775,
      "မဲဆွယ်စည်းရုံး": 6776,
      "ဦးသောင်းအေးက": 6777,
      "အက္ခရာ": 6778,
      "ဦးသန်းစိုးအောင်က": 6779,
      "ကွာရန်တင်း": 6780,
      "ထိထိရောက်ရောက်": 6781,
      "ကြင်ကြင်နာနာ": 6782,
      "por": 6783,
      "ခရိ": 6784,
      "ညည်း": 6785,
      "တုတ်": 6786,
      "ဗွီ": 6787,
      "ဘွတ်": 6788,
      "မုတ်": 6789,
      "မမှား": 6790,
      "မနှစ်သက်": 6791,
      "ရည်းစား": 6792,
      "ဝံ့": 6793,
      "သရွေ့": 6794,
      "အလေ့": 6795,
      "အပြား": 6796,
      "၁၂၀": 6797,
      "၂ပေတရု": 6798,
      "၅၇": 6799,
      "၇၃": 6800,
      "ရှယ်": 6801,
      "ဖြုန်း": 6802,
      "ဖြစ်သောကြောင့်": 6803,
      "တာတို့": 6804,
      "နိုင်သေး": 6805,
      "ဆိုပါ": 6806,
      "ရေးသမား": 6807,
      "ပြီးပါက": 6808,
      "နဲ့လည်း": 6809,
      "မှုကိစ္စ": 6810,
      "ပေးခဲ့သည်": 6811,
      "စာကြည့်": 6812,
      "ခြင်းများကို": 6813,
      "ဦးအေး": 6814,
      "ကြီးရဲ့": 6815,
      "ကြီးဟာ": 6816,
      "ဒါကတော့": 6817,
      "နှစ်မျိုး": 6818,
      "အစပိုင်း": 6819,
      "လက်ပန်း": 6820,
      "မျိုးရိုး": 6821,
      "စိတ်တွေ": 6822,
      "ရန်လိုအပ်": 6823,
      "သုံးကြိမ်": 6824,
      "ဆက်ကပ်": 6825,
      "ပုံသဏ္ဌာန်": 6826,
      "တွေ့တဲ့အခါ": 6827,
      "င်းကပြောဆိုသည်": 6828,
      "ခြေကုန်": 6829,
      "ဌာနက": 6830,
      "ရင်းမြစ်": 6831,
      "သူတို့မှာ": 6832,
      "အခြေချ": 6833,
      "၂၀၁၄": 6834,
      "မျှမျှတ": 6835,
      "ချင်ရင်": 6836,
      "ပြည်ထောင်စုအစိုးရ": 6837,
      "ပြည်ထောင်စုတရားလွှတ်တော်ချုပ်": 6838,
      "တတ်ဘူး": 6839,
      "ရုဒ်": 6840,
      "အလုပ်ကြိုးစား": 6841,
      "ယုံကြည်သူ": 6842,
      "ကမ္ဘာမြေကြီး": 6843,
      "အဆိုတင်သွင်း": 6844,
      "စရာအကြောင်း": 6845,
      "အသုံးဝင်": 6846,
      "စံချိန်": 6847,
      "သုခ": 6848,
      "ခံရတာ": 6849,
      "အခုခေတ်": 6850,
      "သီအို": 6851,
      "အကျိုးအတွက်": 6852,
      "ပါဝင်လာ": 6853,
      "မိသားစုမှာ": 6854,
      "ကွက်ကို": 6855,
      "မြန်မာနိုင်ငံဆိုင်ရာ": 6856,
      "မောင်နှမ": 6857,
      "ဆွဲဆောင်": 6858,
      "တွေမှာလည်း": 6859,
      "စနစ်က": 6860,
      "သတ်မှတ်ထားတဲ့": 6861,
      "ဟေရုဒ်": 6862,
      "ပစ္စည်းများကို": 6863,
      "ဖိနှိပ်": 6864,
      "ဖြစ်လာမယ်": 6865,
      "ညှို": 6866,
      "လျှောက်လှမ်း": 6867,
      "မာရိနဲ့": 6868,
      "သစ္စာရှိတဲ့": 6869,
      "အထူးကိစ္စရပ်များ": 6870,
      "ပြီးနောက်မှာ": 6871,
      "အတည်ပြုချက်": 6872,
      "ကိုယ်တော်က": 6873,
      "လူသားချင်း": 6874,
      "ခင်ပွန်းကို": 6875,
      "ယုံကြည်ခြင်းက": 6876,
      "အတည်ပြုခဲ့သည်": 6877,
      "အလိုအလျောက်": 6878,
      "ဖူးသလား": 6879,
      "ပညတ်ကို": 6880,
      "နောက်ဆုံးတော့": 6881,
      "ကွာဟ": 6882,
      "ဒီနေ့အချိန်မှာ": 6883,
      "အလွန်အကျွံ": 6884,
      "ပိတ်ပင်": 6885,
      "ပယ်ချ": 6886,
      "ဧသတာကို": 6887,
      "ရေးသားခဲ့တယ်": 6888,
      "လောကမှာ": 6889,
      "တာဝန်ရှိသူက": 6890,
      "ဆောက်လုပ်ရေး": 6891,
      "ရည်ရွယ်ချက်က": 6892,
      "စည်ပင်သာယာရေး": 6893,
      "အကုန်လုံး": 6894,
      "ဘဏ္ဍာနှစ်တွင်": 6895,
      "ရပ်စွန့်ခွာ": 6896,
      "လူတစ်ယောက်ရဲ့": 6897,
      "ဝက်ဘ်ဆိုက်": 6898,
      "ကြုံတွေ့နေရ": 6899,
      "ငြိမ်သက်ခြင်း": 6900,
      "စိတ်နှလုံးကို": 6901,
      "ငိုကြွေး": 6902,
      "ဒက္ခိဏသီရိ": 6903,
      "ရိုးရိုးသားသား": 6904,
      "ဇာတ်လမ်း": 6905,
      "သမာဓိ": 6906,
      "အတားအဆီး": 6907,
      "လူဝင်မှုကြီးကြပ်ရေးနှင့်": 6908,
      "ဘယ်လိုနည်းနဲ့လဲ": 6909,
      "တစ်ချိန်တည်းမှာ": 6910,
      "သန္ဓေ": 6911,
      "မက်ဆေ့ခ်ျ": 6912,
      "အရာခပ်သိမ်းကို": 6913,
      "ခြေကုန်လက်ပန်း": 6914,
      "Ch": 6915,
      "ကံ": 6916,
      "ကသာ": 6917,
      "ငုတ်": 6918,
      "ဇက်": 6919,
      "ပလီ": 6920,
      "မရာ": 6921,
      "မပြောင်းလဲ": 6922,
      "မွတ်": 6923,
      "မနာခံ": 6924,
      "ရလို့": 6925,
      "ရနိုင်တယ်": 6926,
      "လမုန်": 6927,
      "ဝသ": 6928,
      "အမွေး": 6929,
      "အကန့်": 6930,
      "အလွဲသုံး": 6931,
      "ွား": 6932,
      "၇၈": 6933,
      "ေးလျ": 6934,
      "မှောက်": 6935,
      "ရှီ": 6936,
      "ချဉ်": 6937,
      "ပါတော့မယ်": 6938,
      "နေရပ်": 6939,
      "နေရပ်စွန့်ခွာ": 6940,
      "နိုင်ခြေ": 6941,
      "နိုင်ခဲ့ကြောင်း": 6942,
      "နိုင်မယ်လို့": 6943,
      "မှာကို": 6944,
      "ရေးစခန်း": 6945,
      "ရာမှ": 6946,
      "ရာခေလ": 6947,
      "မှုတို့": 6948,
      "လုပ်နိုင်တဲ့": 6949,
      "လုပ်ပိုင်ခွင့်": 6950,
      "တစ်သက်": 6951,
      "တစ်ကမ္ဘာ": 6952,
      "ထားသူ": 6953,
      "ခြင်းဆိုတာ": 6954,
      "ခြင်းထက်": 6955,
      "ဦးနေ": 6956,
      "ဦးခေါင်း": 6957,
      "မိက္": 6958,
      "အစီး": 6959,
      "အစမှာ": 6960,
      "လက်ထ": 6961,
      "လက်ကျန်": 6962,
      "လက်လှမ်း": 6963,
      "မျိုးပွား": 6964,
      "နိုင်ငံအတွက်": 6965,
      "အားကောင်း": 6966,
      "အားပေးတယ်": 6967,
      "ဝင်ခွင့်": 6968,
      "အဲန်": 6969,
      "လှည့်": 6970,
      "ရန်လည်း": 6971,
      "ရန်နှင့်": 6972,
      "လိုက်ပါတယ်": 6973,
      "လိုက်တာနဲ့": 6974,
      "သောကြောင့်": 6975,
      "သင်ပေးတယ်": 6976,
      "ကြားနာ": 6977,
      "ရက်တစ်": 6978,
      "သူ့ကိုယ်": 6979,
      "ဆက်ပြောတယ်": 6980,
      "မဟုတ်တော့ဘူး": 6981,
      "ပေါ်ထွန်း": 6982,
      "ညီမျှ": 6983,
      "နှင့်ဇနီး": 6984,
      "နောက်မှ": 6985,
      "မတည့်": 6986,
      "အိမ်တွင်း": 6987,
      "စဉ်ဆက်မပြတ်": 6988,
      "အရိပ်": 6989,
      "အကြောင်းမူကား": 6990,
      "မှန်မှန်ကန်": 6991,
      "ဖော်ပြသလဲ": 6992,
      "လည်ပင်း": 6993,
      "သလဲဆိုတာကို": 6994,
      "ချင်တယ်ဆိုရင်": 6995,
      "လမ်းမ": 6996,
      "ဂျိမ်း": 6997,
      "ထားတယ်ဆိုတာ": 6998,
      "ဘယ်လိုပဲ": 6999,
      "ချင်းတွေ": 7000,
      "ဏ်း": 7001,
      "အဖြစ်ကို": 7002,
      "ပြောဆိုခဲ့ခြင်းဖြစ်သည်": 7003,
      "ပြောဆိုဆက်သွယ်": 7004,
      "ပတ်သက်သည့်": 7005,
      "ခံစားခဲ့ရ": 7006,
      "နိုင်ငံတော်အစိုးရ": 7007,
      "လိုအပ်သလို": 7008,
      "တစ်ဦးချင်း": 7009,
      "ပြုလုပ်သော": 7010,
      "ပြုလုပ်ဖန်ဆင်း": 7011,
      "အောက်မေ့": 7012,
      "ပါတီမှ": 7013,
      "သန်းခေါင်": 7014,
      "ကျပ်သန်း": 7015,
      "လုပ်ဆောင်ပေး": 7016,
      "မိုးလေ": 7017,
      "ရောဂါနဲ့": 7018,
      "အစည်းအဝေးကို": 7019,
      "ပြင်ဆင်သည့်": 7020,
      "ဖတ်ရတယ်": 7021,
      "မြင့်တက်": 7022,
      "ဒေါက်တာထွန်း": 7023,
      "တိုးတက်လာ": 7024,
      "အထက်မှာ": 7025,
      "မသိရ": 7026,
      "ထူးဆန်း": 7027,
      "အမှားတွေ": 7028,
      "မေတ္တာရပ်ခံ": 7029,
      "ကိုယ်တော်သည်": 7030,
      "အောင်မြင်စွာ": 7031,
      "ဖောက်ဖျက်": 7032,
      "ပြင်းပြ": 7033,
      "အီလက်ထ": 7034,
      "တာနဲ့အမျှ": 7035,
      "ဖုန်းကို": 7036,
      "အချို့ကို": 7037,
      "နတ်ဘုရား": 7038,
      "တခြားသူတွေနဲ့": 7039,
      "ကောင်းကင်တမန်တွေ": 7040,
      "မှန်ကန်တဲ့": 7041,
      "နိုင်ငံခြားရေးဝန်ကြီး": 7042,
      "စလုံးက": 7043,
      "စွန့်ခွာ": 7044,
      "သင့်အိမ်ထောင်ဖက်က": 7045,
      "ပြည်ပသို့": 7046,
      "စံနှုန်းတွေ": 7047,
      "ဆယ်ကျော်သက်ကလေး": 7048,
      "သစ္စာရှိရှိ": 7049,
      "တောက်ပ": 7050,
      "အတုအယောင်": 7051,
      "ယုတ္တိ": 7052,
      "အဘိုး": 7053,
      "ဧသတာရဲ့": 7054,
      "အကုန်အကျ": 7055,
      "မကြာခင်မှာ": 7056,
      "ကျောင်းသားများ": 7057,
      "တည်ငြိမ်အေးချမ်း": 7058,
      "ဂျေရုဆလင်မြို့ကို": 7059,
      "ဂျေရုဆလင်မြို့သစ်": 7060,
      "သတ္တိရှိရှိ": 7061,
      "ပြောတဲ့အတိုင်း": 7062,
      "တင့်က": 7063,
      "ဖုံးကွယ်": 7064,
      "အရင်ကထက်": 7065,
      "ကတိသစ္စာပြု": 7066,
      "စုံလင်တဲ့": 7067,
      "တပ်ကုန်းမြို့နယ်": 7068,
      "ဥတ္တရသီရိ": 7069,
      "ပြန်လည်နေရာချထားရေးဝန်ကြီးဌာန": 7070,
      "အတော်များများက": 7071,
      "မြန်မြန်ဆန်ဆန်": 7072,
      "အမျက်ထွက်": 7073,
      "အတင်းအကျပ်": 7074,
      "မသီတာ": 7075,
      "ဖူလုံ": 7076,
      "ဦးဟင်နရီဗန်ထီးယူ": 7077,
      "စတြေးလျ": 7078,
      "လူတန်းစား": 7079,
      "ပလီကေး": 7080,
      "အကန့်အသတ်": 7081,
      "မိက္ခေလ": 7082,
      "မှန်မှန်ကန်ကန်": 7083,
      "Mo": 7084,
      "Tr": 7085,
      "UN": 7086,
      "to": 7087,
      "စမတ်": 7088,
      "ညမှာ": 7089,
      "ဒင်": 7090,
      "မကြောက်": 7091,
      "မလုံလောက်": 7092,
      "ရသည့်": 7093,
      "ဝလံ": 7094,
      "သကြား": 7095,
      "ဟိုး": 7096,
      "အလျှော့": 7097,
      "၇၅": 7098,
      "ကြမယ်": 7099,
      "မှိတ်": 7100,
      "မ်းမျှ": 7101,
      "သည်အထိ": 7102,
      "ရှိအောင်": 7103,
      "ရှိမယ်ဆိုရင်": 7104,
      "ရှိစေတယ်": 7105,
      "ဖြစ်တော်မူ": 7106,
      "များရဲ့": 7107,
      "များအကြား": 7108,
      "သူစိမ်း": 7109,
      "နိုင်ပြီ": 7110,
      "နိုင်လောက်အောင်": 7111,
      "လိုချင်တဲ့": 7112,
      "ရာနှုန်း": 7113,
      "ဒီထက်": 7114,
      "စားနပ်": 7115,
      "ခံပြီး": 7116,
      "လို့ရ": 7117,
      "ခြင်းမှာ": 7118,
      "ရဲ့သား": 7119,
      "ကြီးနဲ့": 7120,
      "တော့လည်း": 7121,
      "ချက်မှာ": 7122,
      "မာရီ": 7123,
      "သွားမယ့်": 7124,
      "လူကောင်း": 7125,
      "နှစ်တွင်": 7126,
      "နှစ်တိုင်း": 7127,
      "မိက္ခာ": 7128,
      "အစည်": 7129,
      "လက်ထဲ": 7130,
      "လက်ထောက်": 7131,
      "လက်တွဲ": 7132,
      "နိုင်ငံမှ": 7133,
      "နိုင်ငံသူ": 7134,
      "နာမ": 7135,
      "စုစည်း": 7136,
      "လဲလှယ်": 7137,
      "မည်သည့်": 7138,
      "ဝန်ထုပ်": 7139,
      "ကျမ်းစာကနေ": 7140,
      "အဲဒီထဲမှာ": 7141,
      "သည့်အခါ": 7142,
      "နည်းတူ": 7143,
      "ဘုရားသခင်မှာ": 7144,
      "သေဒဏ်": 7145,
      "အိမ်အကူ": 7146,
      "မြို့ဟာ": 7147,
      "နေပြည်တော်တိုင်း": 7148,
      "အတွင်းသို့": 7149,
      "ထဲမှ": 7150,
      "ဂျူ": 7151,
      "အလုပ်တွေကို": 7152,
      "ထွက်ဆို": 7153,
      "ထွက်ပေါ်လာ": 7154,
      "တက်ကြွ": 7155,
      "ကော်ဖီ": 7156,
      "သတ်ပစ်": 7157,
      "ရှိတယ်ဆိုရင်": 7158,
      "လိုအပ်ရာ": 7159,
      "လိုအပ်သော": 7160,
      "ဘာသာကို": 7161,
      "တိုးပွား": 7162,
      "တန်ချိန်": 7163,
      "သွင်းကုန်": 7164,
      "ခေါ်ဆို": 7165,
      "ထပ်တူ": 7166,
      "ထဲမှာပဲ": 7167,
      "မြန်မာနိုင်ငံကို": 7168,
      "ပြည်နယ်နှင့်": 7169,
      "မှုများရှိ": 7170,
      "ဘဝနဲ့": 7171,
      "ကူညီပေးနိုင်တယ်": 7172,
      "ကူညီပေးနိုင်သလဲ": 7173,
      "လျက်ရှိသည့်": 7174,
      "လက်ခံဖို့": 7175,
      "ရက်နေ့မှ": 7176,
      "မိတ်ဆက်": 7177,
      "ပထမဦးဆုံး": 7178,
      "ဖြေရှင်းပေး": 7179,
      "နာမည်ကြီး": 7180,
      "ပေတရုရဲ့": 7181,
      "ဧလိဟု": 7182,
      "ထို့အတူ": 7183,
      "တိုင်းဒေသကြီးနှင့်": 7184,
      "ခွင့်ရှိသူ": 7185,
      "မလုပ်ဘူး": 7186,
      "အစ္စရေးတွေ": 7187,
      "ပုံစံနဲ့": 7188,
      "ကိုယ်တော်ဟာ": 7189,
      "၂ဝ၁၄": 7190,
      "နားထောင်ပြီး": 7191,
      "ကျွန်ုပ်တို့ဟာ": 7192,
      "လမ်းညွှန်မှုနဲ့": 7193,
      "လိင်အကြောင်း": 7194,
      "ရှောင်ရှား": 7195,
      "အာဏာကို": 7196,
      "ယုံကြည်စိတ်ချရတဲ့": 7197,
      "နေပြည်တော်ကောင်စီဝင်": 7198,
      "လုပ်ငန်းစဉ်များ": 7199,
      "အရေပြား": 7200,
      "မူလတန်း": 7201,
      "ရင်ဆိုင်နေရ": 7202,
      "တိရစ္ဆာန်တွေကို": 7203,
      "မပေးဘဲ": 7204,
      "ဘာလုပ်ခဲ့သလဲ": 7205,
      "နောဧနဲ့": 7206,
      "နောဧဟာ": 7207,
      "ချိုက": 7208,
      "အဆုံးအဖြတ်": 7209,
      "ဖြစ်သောကြောင့်": 7210,
      "ရှောလမုန်": 7211,
      "ပထမဆုံးအကြိမ်": 7212,
      "တစ်ယောက်ယောက်နဲ့": 7213,
      "ကုန်သွယ်မှု": 7214,
      "စံနမူနာကို": 7215,
      "အဘယ်အရာ": 7216,
      "ခင်ဗျားတို့": 7217,
      "ဒ္ဒ": 7218,
      "ကြည့်ရှုစောင့်ရှောက်": 7219,
      "ကယ်ဆယ်ရေးနှင့်": 7220,
      "အီးမေးလ်": 7221,
      "အမြင့်ဆုံး": 7222,
      "ပုဗ္ဗသီရိမြို့နယ်": 7223,
      "တွေးတောဆင်ခြင်": 7224,
      "ပဲခူးတိုင်းဒေသကြီး": 7225,
      "စာချွန်လွှာ": 7226,
      "သစ်သီးဝလံ": 7227,
      "တစ်သားတစ်ကိုယ်တည်း": 7228,
      "နာတာရှည်ရောဂါ": 7229,
      "MICC": 7230,
      "ကိုယ့်ဘာသာကိုယ်": 7231,
      "နာဇရက်": 7232,
      "မျှမျှတတ": 7233,
      "ညှိုနှိုင်း": 7234,
      "ခြေကုန်လက်ပန်းကျ": 7235,
      "မိုးလေဝသ": 7236,
      "ment": 7237,
      "ကဲ့": 7238,
      "ကတစ်ဆင့်": 7239,
      "ဂုံး": 7240,
      "ဂြိုဟ်": 7241,
      "စတီ": 7242,
      "ဆတ်": 7243,
      "ဆူး": 7244,
      "ဉီး": 7245,
      "နိုင်း": 7246,
      "နံ့": 7247,
      "မရှာ": 7248,
      "မပျော်": 7249,
      "ရစေတယ်": 7250,
      "အမ်": 7251,
      "အဖော်": 7252,
      "အငြ": 7253,
      "အကယ်": 7254,
      "အကျွန်ုပ်": 7255,
      "အပိုဒ်": 7256,
      "၆၂": 7257,
      "မှပဲ": 7258,
      "ကျည်": 7259,
      "နေတတ်တယ်": 7260,
      "ရှိသူတွေ": 7261,
      "ရှိလာတယ်": 7262,
      "သူပြောတယ်": 7263,
      "နိုင်ရင်": 7264,
      "မြက်": 7265,
      "ရေးတဲ့": 7266,
      "ခဲ့မှာ": 7267,
      "ခဲ့ရာတွင်": 7268,
      "မှုနည်း": 7269,
      "မှုနှုန်း": 7270,
      "တစ်ပိုင်း": 7271,
      "ထားရင်": 7272,
      "ထားခြင်းဖြစ်သည်": 7273,
      "ပေးတာက": 7274,
      "ပေးထားပါတယ်": 7275,
      "ဒီကိစ္စကို": 7276,
      "လာသည့်": 7277,
      "ခြင်းအတွက်": 7278,
      "ဦးစိန်": 7279,
      "ဘာပဲဖြစ်ဖြစ်": 7280,
      "သွားမှာပဲ": 7281,
      "နှစ်လ": 7282,
      "လက်သမား": 7283,
      "အတွက်တော့": 7284,
      "ခင်မှာ": 7285,
      "ခုတင်": 7286,
      "ပြန်ကောင်း": 7287,
      "စိတ်နှိမ့်ချ": 7288,
      "စိတ်ငြိမ်သက်": 7289,
      "တိတု": 7290,
      "လိုက်ကြောင်း": 7291,
      "လိုက်ပါနဲ့": 7292,
      "ကျမ်းစာပြောတယ်": 7293,
      "ဆုံးပါး": 7294,
      "သင်ကော": 7295,
      "အတ္": 7296,
      "အတိုက်": 7297,
      "ဝါသနာ": 7298,
      "ညီအစ်မ": 7299,
      "နယ်နိမိတ်": 7300,
      "ပုံတွေ": 7301,
      "ပုံအပ်": 7302,
      "သင့်ရာ": 7303,
      "ရေကြီး": 7304,
      "ဆောင်ရွက်နိုင်ရန်": 7305,
      "န္တာ": 7306,
      "စစ်ဌာနချုပ်": 7307,
      "အကြောင်းရင်းက": 7308,
      "မရှိလို့": 7309,
      "ဥပဒေများ": 7310,
      "ဥပဒေနှင့်": 7311,
      "ဖော်ပြချက်": 7312,
      "ငွေစက္ကူ": 7313,
      "ကြည်ညို": 7314,
      "ပိုရင်းနှီး": 7315,
      "တဲ့အခါမှာလည်း": 7316,
      "ပွဲစား": 7317,
      "လုပ်ငန်းပေါင်းစုံ": 7318,
      "ပြည်ထောင်စုအဆင့်": 7319,
      "အသရေ": 7320,
      "ငါဟာ": 7321,
      "တင်းမာ": 7322,
      "အဖြစ်မျိုး": 7323,
      "ချို့တဲ့": 7324,
      "သဘောမတူ": 7325,
      "လေ့ရှိသည်": 7326,
      "ဆွေးနွေးခဲ့ကြသည်": 7327,
      "အရာရာကို": 7328,
      "ရှိတယ်ဆိုတာကို": 7329,
      "လိုအပ်သည့်": 7330,
      "စက်ရုပ်": 7331,
      "စက်ဘီး": 7332,
      "အားလုံးရဲ့": 7333,
      "ထောက်ပ့ံ": 7334,
      "ကြာပြီးနောက်": 7335,
      "ပျက်ပြား": 7336,
      "အခုချိန်မှာ": 7337,
      "ပါဝင်တဲ့": 7338,
      "ပါဝင်ပြီး": 7339,
      "ရောဂါလက္ခဏာ": 7340,
      "သမ္မတက": 7341,
      "မွေးကင်း": 7342,
      "လေ့လာသုံးသပ်": 7343,
      "မဟုတ်ဘူးဆိုတာ": 7344,
      "ဘဝဟာ": 7345,
      "နေတာလဲ": 7346,
      "လက်ရှိအချိန်တွင်": 7347,
      "ကြမ်းကြုတ်": 7348,
      "ဆက်လက်ပြောသည်": 7349,
      "ကောင်းကင်ကနေ": 7350,
      "ဒေါက်တာမြတ်": 7351,
      "ကျန်းမာရေးနှင့်": 7352,
      "စိုးလျှပ်စစ်": 7353,
      "ဆုံးဖြတ်ချက်တွေ": 7354,
      "ဥက္ကဋ္ဌအဖြစ်": 7355,
      "ကမ်းလှမ်း": 7356,
      "ဝန်းရံ": 7357,
      "ကြုံတွေ့ရ": 7358,
      "ဆိုတာကိုတော့": 7359,
      "ကော်မရှင်က": 7360,
      "တွေ့ရှိခဲ့ကြတယ်": 7361,
      "မီးသတ်": 7362,
      "အကူအညီနဲ့": 7363,
      "ပြည်သူ့လွှတ်တော်တွင်": 7364,
      "နိဂုံး": 7365,
      "လူ့အဖွဲ့အစည်း": 7366,
      "နှစ်ယောက်က": 7367,
      "ယောဘရဲ့": 7368,
      "အိပ်ပျော်": 7369,
      "နိုင်ငံတော်သမ္မတက": 7370,
      "ယုံကြည်ခြင်းနဲ့": 7371,
      "လမ်းညွှန်ချက်တွေ": 7372,
      "ယောနကို": 7373,
      "ခွင့်လွှတ်ဖို့": 7374,
      "နိုဆော": 7375,
      "သင်တို့နှစ်ယောက်": 7376,
      "လူမှုကွန်ရက်": 7377,
      "နည်းပညာကို": 7378,
      "သင့်မြတ်": 7379,
      "အနာတရ": 7380,
      "မုဆိုး": 7381,
      "ချက်များအရ": 7382,
      "အချို့က": 7383,
      "ဒေါသကို": 7384,
      "ကြိုတင်ပြင်ဆင်": 7385,
      "လုပ်ရပ်တွေကို": 7386,
      "ဖမ်းဆီးအရေးယူ": 7387,
      "တော်တော်များ": 7388,
      "ပြည်တွင်းပြည်ပ": 7389,
      "သီးနှံများ": 7390,
      "အယူမှား": 7391,
      "နိုင်မှာလဲ": 7392,
      "ဖွံ့ဖြိုးရေးဘဏ်": 7393,
      "ဖွဲ့စည်းပုံအခြေခံဥပဒေပြင်ဆင်ရေး": 7394,
      "အက်ပလီကေး": 7395,
      "ယေဟောဝါသက်သေတွေ": 7396,
      "အလိုက်သင့်": 7397,
      "ဂေဟာ": 7398,
      "ချမ်းသာကြွယ်ဝ": 7399,
      "အဆုံးသတ်": 7400,
      "ဆိုင်းငံ": 7401,
      "အကြံပြုချက်ကို": 7402,
      "လျော်ကြေး": 7403,
      "နေ့စဉ်သို့": 7404,
      "ရခြင်းဖြစ်ကြောင်း": 7405,
      "စွက်ဖက်": 7406,
      "ပြင်းထန်တဲ့": 7407,
      "နေပြည်တော်ကောင်စီနယ်မြေအတွင်း": 7408,
      "နွေရာသီ": 7409,
      "ယုဒသန်": 7410,
      "အဂတိလိုက်စားမှုတိုက်ဖျက်ရေး": 7411,
      "စိတ်ကူးယဉ်": 7412,
      "ဒိုင်နိုဆော": 7413,
      "အလောင်းကို": 7414,
      "ကုလားအုတ်": 7415,
      "ပြစ်တင်ရှုတ်ချ": 7416,
      "အတိုင်းအတာတစ်ခု": 7417,
      "ဘောလုံးအသင်း": 7418,
      "ပိုင်းခြားသိမြင်": 7419,
      "ဦးရဲမင်း": 7420,
      "sion": 7421,
      "နေရောင်ခြည်": 7422,
      "ချစ်ကြည်ရေး": 7423,
      "ကြည့်ကြစို့": 7424,
      "တစ်ခုနဲ့တစ်ခု": 7425,
      "ပသခါပွဲ": 7426,
      "တောရိုင်းတိရစ္ဆာန်": 7427,
      "ဝုန်းဒိုင်း": 7428,
      "ပင့်ကူ": 7429,
      "အန္တိ": 7430,
      "အစေ့ထုတ်": 7431,
      "စာကြည့်တိုက်": 7432,
      "သီအိုရီ": 7433,
      "သူ့ကိုယ်သူ": 7434,
      "စားနပ်ရိက္ခာ": 7435,
      "မွေးကင်းစ": 7436,
      "--": 7437,
      "En": 7438,
      "PC": 7439,
      "Pr": 7440,
      "og": 7441,
      "ကဗျာ": 7442,
      "စဥ": 7443,
      "ဆော့": 7444,
      "တစား": 7445,
      "တလွဲ": 7446,
      "ဖောင်း": 7447,
      "ဘေ": 7448,
      "မပြုလုပ်": 7449,
      "မခံစားရ": 7450,
      "ရလိမ့်မည်": 7451,
      "သလောက်ပဲ": 7452,
      "သဝဏ်": 7453,
      "အဆီ": 7454,
      "အမိုး": 7455,
      "အမှုများ": 7456,
      "အမှီ": 7457,
      "အသည်း": 7458,
      "၂တိမောသေ": 7459,
      "ကြနှင့်": 7460,
      "ရှို့": 7461,
      "ချွေး": 7462,
      "သည်ဖြစ်စေ": 7463,
      "ဖြစ်ကြတယ်": 7464,
      "ဖြစ်ရတဲ့": 7465,
      "မြုပ်": 7466,
      "ခဲ့ပုံ": 7467,
      "ပေနိ": 7468,
      "မှုမှ": 7469,
      "မှုအားနည်း": 7470,
      "တစ်ဝက်": 7471,
      "ပေးရတယ်": 7472,
      "ဒီတော့": 7473,
      "စာရင်းက": 7474,
      "ခြင်းအကြောင်း": 7475,
      "ခြင်းဖြစ်ပါတယ်": 7476,
      "လွင့်": 7477,
      "သိပါတယ်": 7478,
      "သိလိုက်ရတယ်": 7479,
      "ဘာဖြစ်": 7480,
      "ဖို့ဆိုရင်": 7481,
      "လူဟာ": 7482,
      "ကိုယ်လက်": 7483,
      "ang": 7484,
      "လျတ်": 7485,
      "လိုက်တဲ့အတွက်": 7486,
      "ကျမ်းစာအုပ်": 7487,
      "ပျမ်းမျှ": 7488,
      "အဲဒီကျမ်း": 7489,
      "အဲဒီနေ့": 7490,
      "ကာဗ": 7491,
      "ကာရံ": 7492,
      "ဘယ်သူ့": 7493,
      "ညီထွေ": 7494,
      "ပြင်သစ်": 7495,
      "သင့်မှာ": 7496,
      "သင့်သလား": 7497,
      "ဆောင်ရွက်မှု": 7498,
      "ခြေလှမ်း": 7499,
      "အကြို": 7500,
      "ဥပဒေတွင်": 7501,
      "ဖော်ပြသည်": 7502,
      "စကားပြောဆို": 7503,
      "ငွေရေး": 7504,
      "ဆိုရင်လည်း": 7505,
      "အချိန်ကုန်": 7506,
      "ရှင်းရှင်း": 7507,
      "လုပ်ငန်းခွန်": 7508,
      "ခရု": 7509,
      "လောက်သာ": 7510,
      "ခွင့်ရရှိ": 7511,
      "တစ်ယောက်အနေနဲ့": 7512,
      "ရဲစွမ်း": 7513,
      "ကိုယ့်အတွက်": 7514,
      "ဝေးတဲ့": 7515,
      "ဆွေးနွေးခဲ့ကြ": 7516,
      "အဆိပ်": 7517,
      "သတင်းများ": 7518,
      "ရရှိအောင်": 7519,
      "ကိစ္စများ": 7520,
      "ဒုတိယဗိုလ်ချုပ်ကြီး": 7521,
      "၁၀ဝ": 7522,
      "စံမြန်း": 7523,
      "ကြာရှည်": 7524,
      "ဘက်ကလည်း": 7525,
      "ထပ်ပြီး": 7526,
      "သန်းနဲ့ချီ": 7527,
      "ပါဝင်သည့်": 7528,
      "မွေးနေ့": 7529,
      "ကြိုးစားတယ်": 7530,
      "မင်းရဲ့": 7531,
      "ပြင်ဆင်ရေးဆွဲ": 7532,
      "ဘဝက": 7533,
      "ရှေ့တွင်": 7534,
      "ငါးဖမ်း": 7535,
      "သွေးကြော": 7536,
      "လက်ခံပြီး": 7537,
      "ရက်နေ့မှာ": 7538,
      "ဓာတ်မတည့်": 7539,
      "သံတမန်": 7540,
      "လွတ်ကင်း": 7541,
      "တုန်းပဲ": 7542,
      "ထိခိုက်ဒဏ်ရာ": 7543,
      "နေထိုင်တဲ့": 7544,
      "နေထိုင်ဖို့": 7545,
      "အထူးသဖြင့်": 7546,
      "အသိဉာဏ်": 7547,
      "ထုတ်ပြန်ထားသည်": 7548,
      "ယောသပ်က": 7549,
      "အရွယ်မှာ": 7550,
      "သောက်ကြူး": 7551,
      "ဖြစ်နေကြောင်း": 7552,
      "မိတ်ဆွေတွေကို": 7553,
      "မလုပ်နိုင်": 7554,
      "အခက်တွေ့": 7555,
      "တဲ့သူတွေက": 7556,
      "တန်ဖိုးနည်း": 7557,
      "ဆန်စက်": 7558,
      "အေဂျင်": 7559,
      "အများကြီးရှိတယ်": 7560,
      "နှစ်ယောက်ကို": 7561,
      "ပျော်ရွှင်တဲ့": 7562,
      "မိန့်ဆို": 7563,
      "ရိုးရာ": 7564,
      "နေကြတဲ့": 7565,
      "စာအုပ်မှာ": 7566,
      "အလိုတော်ကို": 7567,
      "တပ်ဖွဲ့ဝင်": 7568,
      "ဖူးတယ်": 7569,
      "ထိန်းသိမ်းရေးကော်မတီ": 7570,
      "ပြတ်တောက်": 7571,
      "ဖွဲ့စည်းပုံအခြေခံ": 7572,
      "အတော်လေး": 7573,
      "ဦးဝင်းဆွေက": 7574,
      "အမြင်မှာ": 7575,
      "မတူကြဘူး": 7576,
      "လိပ်ပြာ": 7577,
      "အကျင့်ကို": 7578,
      "ယခင်နှစ်": 7579,
      "အလေးချိန်": 7580,
      "တဲ့သူတွေနဲ့": 7581,
      "မှုရှိရှိ": 7582,
      "သင်တန်းသား": 7583,
      "ရှင်းပြပါ": 7584,
      "အများစုဟာ": 7585,
      "အဆင့်ဆင့်": 7586,
      "ထာဝရငြိမ်းချမ်းရေး": 7587,
      "ကယ်တင်ခံရ": 7588,
      "နောဧကို": 7589,
      "ဖိစီးမှု": 7590,
      "တွယ်ကပ်": 7591,
      "ခေါင်းဆောင်များ": 7592,
      "မောင်နှံစုံ": 7593,
      "ကူးစက်ခံရ": 7594,
      "အနု": 7595,
      "ကောက်ခံရန်": 7596,
      "ထင်ရှားပါတယ်": 7597,
      "လိမ်လည်": 7598,
      "ပွင့်လင်းမြင်သာ": 7599,
      "စံနမူနာကောင်း": 7600,
      "ဦးသိန်းစိန်": 7601,
      "စာရာဟာ": 7602,
      "ရေးလုပ်ငန်းများကို": 7603,
      "ပို့ဆောင်ရေး": 7604,
      "အသေခံ": 7605,
      "ကမ္ဘာမြေကို": 7606,
      "မိုက်မဲ": 7607,
      "အုတ်မြစ်": 7608,
      "ချယ်ရီပန်း": 7609,
      "ဇမ္ဗူသီရိ": 7610,
      "ထာဝစဉ်အသက်ရှင်": 7611,
      "ဦးခင်မောင်ဇော်က": 7612,
      "သယ်ဆောင်": 7613,
      "ဝီရိယ": 7614,
      "ထိပ်သီး": 7615,
      "ထာဝရဘုရားသည်": 7616,
      "သေတ္တာတော်": 7617,
      "အပူချိန်": 7618,
      "ဂေါလျတ်": 7619,
      "တာဝန်ရှိသူတစ်ဦးက": 7620,
      "မြည်တမ်း": 7621,
      "စာရွက်စာတမ်း": 7622,
      "ဘယ်သူ့ကိုမှ": 7623,
      "သံဃာ": 7624,
      "စဉ်းစားဆင်ခြင်နိုင်စွမ်း": 7625,
      "ထွဋ်": 7626,
      "လိမ့်မယ်": 7627,
      "ဘိုးဘေး": 7628,
      "အထောက်အပံ့": 7629,
      "မန်းဝင်းခိုင်သန်းက": 7630,
      "အနာတရဖြစ်အောင်": 7631,
      "ဆိုင်းငံ့": 7632,
      "ဝုန်းဒိုင်းကြဲ": 7633,
      "အစေ့ထုတ်ပြောင်း": 7634,
      "သဝဏ်လွှာ": 7635,
      "ပေနိန္န": 7636,
      "ab": 7637,
      "ကန္တာ": 7638,
      "စတာတွေကို": 7639,
      "ဆုပ်": 7640,
      "ထီ": 7641,
      "ဓါ": 7642,
      "မောက်": 7643,
      "မနည်း": 7644,
      "မနေ့": 7645,
      "ယိမ်း": 7646,
      "ဟမိ": 7647,
      "အရောက်": 7648,
      "အလုံ": 7649,
      "အသွေး": 7650,
      "အရှည်": 7651,
      "အဘယ်သူ": 7652,
      "္သေ့": 7653,
      "၃ဝဝ": 7654,
      "၆၃": 7655,
      "၇၂": 7656,
      "၉၉": 7657,
      "၊’": 7658,
      "“[": 7659,
      "ကြပြီ": 7660,
      "တယ်ဆိုပြီး": 7661,
      "ချ်": 7662,
      "မျို": 7663,
      "နေဟမိ": 7664,
      "ဖြစ်ပါစေ": 7665,
      "များသော": 7666,
      "များအပါအဝင်": 7667,
      "တော်က": 7668,
      "မှုရှိတဲ့": 7669,
      "လုပ်ခဲ့တဲ့": 7670,
      "တစ်စင်း": 7671,
      "ထားသလို": 7672,
      "ပေးရမယ်": 7673,
      "ပေးနိုင်ပါတယ်": 7674,
      "ဒီအတိုင်း": 7675,
      "ဒီအဲန်": 7676,
      "စားလှယ်": 7677,
      "စားဝတ်": 7678,
      "ခြင်းလည်း": 7679,
      "ပေါတိ": 7680,
      "သိမှတ်": 7681,
      "သိသိသာ": 7682,
      "သားများ": 7683,
      "သားဦး": 7684,
      "ဘာပြော": 7685,
      "ပြုလျှင်": 7686,
      "သွားဖုံး": 7687,
      "ဘုရားအကြောင်း": 7688,
      "အခင်း": 7689,
      "အခတ်": 7690,
      "လူက": 7691,
      "လူလူချင်း": 7692,
      "နှစ်အတော်ကြာ": 7693,
      "မျိုးကွဲ": 7694,
      "နိုင်ငံပိုင်": 7695,
      "ခုခံ": 7696,
      "စေလို": 7697,
      "ပြန်ပြီး": 7698,
      "လေးဦး": 7699,
      "သင်ပေးခဲ့တယ်": 7700,
      "ကြားက": 7701,
      "အတန်": 7702,
      "လွှတ်တော်နာယက": 7703,
      "ဆက်တိုက်": 7704,
      "လိလဲ": 7705,
      "ပုံနဲ့": 7706,
      "နောက်တစ်": 7707,
      "တွေ့တယ်": 7708,
      "ဆောင်ရွက်ခဲ့": 7709,
      "ချုပ်ရုံး": 7710,
      "များကိုသာ": 7711,
      "မြင်တယ်": 7712,
      "ပိုကောင်းတဲ့": 7713,
      "မြေကို": 7714,
      "မြေဧက": 7715,
      "လျှို": 7716,
      "သူတွေလည်း": 7717,
      "အသက်တာကို": 7718,
      "ဒေသန္တ": 7719,
      "ခံစားရတာ": 7720,
      "ခံစားနေရတယ်": 7721,
      "အရာရာ": 7722,
      "နေရာများ": 7723,
      "ရုံပဲ": 7724,
      "အစိုးရနှင့်": 7725,
      "အစိုးရအဖွဲ့ဝင်": 7726,
      "လေအာ": 7727,
      "ပြောကြားထားသည်": 7728,
      "တည်းဖြတ်": 7729,
      "မယ့်အကြောင်း": 7730,
      "သေးသည့်": 7731,
      "ရှာတယ်": 7732,
      "တစ်ဦးတည်း": 7733,
      "ပျက်ကွက်": 7734,
      "အခြေအနေက": 7735,
      "အခုထိ": 7736,
      "ဂါလိလဲ": 7737,
      "အဲဒီလိုမျိုး": 7738,
      "သန်းပေါင်းများစွာ": 7739,
      "ချစ်တဲ့": 7740,
      "ခရစ်နှစ်": 7741,
      "တပ်မတော်ကာကွယ်ရေး": 7742,
      "မိဘက": 7743,
      "ကျင်းပရန်": 7744,
      "ကော်မတီကို": 7745,
      "ကူညီပေးနိုင်": 7746,
      "လျက်ရှိပါတယ်": 7747,
      "ငါးခု": 7748,
      "မောဘ": 7749,
      "ရက်နေ့အထိ": 7750,
      "ကူးပြောင်း": 7751,
      "သုံးသပ်ပါ": 7752,
      "ကျန်းမာရေးပြဿနာ": 7753,
      "သမ္မာကျမ်းစာထဲမှာ": 7754,
      "ထိခိုက်နိုင်တယ်": 7755,
      "မဖြစ်ပေါ်": 7756,
      "စင်ကာပူ": 7757,
      "ပုဂ္ဂိုလ်တစ်ပါး": 7758,
      "ဒဏ်ကို": 7759,
      "တိုးတက်မှု": 7760,
      "ဖြစ်နေပြီ": 7761,
      "ခဲ့ခြင်းဖြစ်သည်ဟု": 7762,
      "အထက်တန်း": 7763,
      "ခဲ့ကြတဲ့": 7764,
      "မီးရှို့": 7765,
      "စည်ကား": 7766,
      "ပြီးနောက်ပိုင်း": 7767,
      "ဒီမိုကရေစီဖက်ဒရယ်": 7768,
      "အစီအစဉ်တွေ": 7769,
      "မေးခွန်းမေးမြန်း": 7770,
      "ဆန်စပါး": 7771,
      "ပိုးတွေ့": 7772,
      "အနားမှာ": 7773,
      "ချီးမြှင့်": 7774,
      "အဓိပ္ပာယ်က": 7775,
      "မြင့်တက်": 7776,
      "လမ်းညွှန်မှု": 7777,
      "ဗိုလ်ချုပ်အောင်": 7778,
      "ပညတ်တရား": 7779,
      "ကျေးဇူးသိ": 7780,
      "ရာဇ်": 7781,
      "သုံးစွဲမှု": 7782,
      "ရှမွေလဟာ": 7783,
      "လှုပ်ခတ်": 7784,
      "အလေးပေး": 7785,
      "ခြင်္သေ့": 7786,
      "လွတ်လပ်ရေး": 7787,
      "ဂျူးတွေ": 7788,
      "အဖေနဲ့": 7789,
      "တစ်ဖက်သတ်": 7790,
      "အသံထွက်": 7791,
      "နှစ်သိမ့်ပေး": 7792,
      "ခြင်းမရှိဘဲ": 7793,
      "ဖွဲ့စည်းပုံအခြေခံဥပဒေကို": 7794,
      "ပမာဏကို": 7795,
      "အသားကို": 7796,
      "ဒီနေ့ခေတ်မှာ": 7797,
      "အဖြစ်အပျက်ကို": 7798,
      "ပီပြင်": 7799,
      "စောစော": 7800,
      "နန်းတော်": 7801,
      "မုန်းတီး": 7802,
      "တစ်လျှောက်မှာ": 7803,
      "ကိုင်တွယ်ဖြေရှင်း": 7804,
      "အဝတ်စ": 7805,
      "ပြိုကျ": 7806,
      "ကယ်ဆယ်ရေးနှင့်": 7807,
      "အမြတ်ထုတ်": 7808,
      "သန့်ရှင်းသောစွမ်းအားတော်": 7809,
      "စေတီတော်ကြီး": 7810,
      "ဂိုဏ်း": 7811,
      "ome": 7812,
      "ဗစ်တိုးရီးယားအမှု": 7813,
      "တနင်္": 7814,
      "ကုလားထိုင်": 7815,
      "တရားဥပဒေစိုးမိုးရေး": 7816,
      "ကိုအောင်ကြီး": 7817,
      "ပြည်ထောင်စုကြံ့ခိုင်ရေးနှင့်": 7818,
      "ကွပ်ကဲမှု": 7819,
      "လိုက်လျောညီထွေ": 7820,
      "ပြည်သူ့အင်အားဝန်ကြီးဌာန": 7821,
      "ဒီကနေ့": 7822,
      "ဇေယျာသီရိမြို့နယ်": 7823,
      "သင်္ချိုင်းဂူ": 7824,
      "ဒေါက်တာလှမိုးက": 7825,
      "ဒေါက်တာဝင်းမြတ်အေးက": 7826,
      "အက်ပလီကေးရှင်း": 7827,
      "ငွေရေးကြေး": 7828,
      "ရဲစွမ်းသတ္တိ": 7829,
      "ဒီအဲန်အေ": 7830,
      "စားဝတ်နေ": 7831,
      "ပေါတိဖာ": 7832,
      "သိသိသာသာ": 7833,
      "Mr": 7834,
      "un": 7835,
      "စက္က": 7836,
      "ဓမ္မာ": 7837,
      "ပုပ်": 7838,
      "ဖဲ": 7839,
      "ဗုံး": 7840,
      "မပြည့်": 7841,
      "မစင်": 7842,
      "မကိုက်ညီ": 7843,
      "အူ": 7844,
      "အဦး": 7845,
      "အဓမ္မ": 7846,
      "၅၄": 7847,
      "၆၀၀": 7848,
      "၏’": 7849,
      "ပြပြီး": 7850,
      "ပြတိုက်": 7851,
      "န်က": 7852,
      "ကြလို့": 7853,
      "ကြတဲ့အတွက်": 7854,
      "ရှိုင်း": 7855,
      "တွေအရ": 7856,
      "ကျကျ": 7857,
      "ကျဆုံး": 7858,
      "ဖြား": 7859,
      "ပါယာ": 7860,
      "ရှိခဲ့ကြောင်း": 7861,
      "ရှိတာပေါ့": 7862,
      "များအနေဖြင့်": 7863,
      "သူလို့": 7864,
      "နိုင်ခဲ့သည်": 7865,
      "နိုင်သလို": 7866,
      "နိုင်မည်ဟု": 7867,
      "နိုင်သေးဘူး": 7868,
      "နိုင်ပါ့မလား": 7869,
      "မြား": 7870,
      "ခြယ်": 7871,
      "တော်ကိုယ်စားလှယ်": 7872,
      "ဆိုကာ": 7873,
      "ဆိုလျှင်": 7874,
      "လိုသော": 7875,
      "နဲ့သူ": 7876,
      "ပြောထားပါတယ်": 7877,
      "မှုဖြစ်ပွား": 7878,
      "လုပ်အား": 7879,
      "လုပ်တတ်": 7880,
      "လုပ်နေတဲ့": 7881,
      "လုပ်ကွက်": 7882,
      "တစ်ခွန်း": 7883,
      "တစ်ပုဒ်": 7884,
      "တစ်ဝိုက်": 7885,
      "ထားတာကို": 7886,
      "ပေးကြတယ်": 7887,
      "ပေးထားတဲ့": 7888,
      "သွေ့": 7889,
      "လာလို့": 7890,
      "လာမယ်လို့": 7891,
      "စားစရာ": 7892,
      "လို့ရတဲ့": 7893,
      "ခြင်းဖြစ်တယ်": 7894,
      "ဟာက": 7895,
      "သိနားလည်": 7896,
      "သားတွေဟာ": 7897,
      "မာ့": 7898,
      "သွားတော့": 7899,
      "အခုံ": 7900,
      "ဖို့က": 7901,
      "လူအတော်များများ": 7902,
      "ကျမ်းပိုဒ်": 7903,
      "နာက": 7904,
      "ပြန်စဉ်းစား": 7905,
      "ထောင်နဲ့ချီ": 7906,
      "စိတ်ကြောင့်": 7907,
      "စိတ်ကျေနပ်": 7908,
      "ရန်လို": 7909,
      "ကျမ်းစာသွန်သင်": 7910,
      "ကျမ်းစာဘာသာပြန်": 7911,
      "သုံးပါ": 7912,
      "အဲဒီလောက်": 7913,
      "အဲဒီတုန်းက": 7914,
      "ကြားတဲ့အခါ": 7915,
      "ရက်မှာ": 7916,
      "လုံးက": 7917,
      "ချိန်အထိ": 7918,
      "ဆက်သ": 7919,
      "လိမ်း": 7920,
      "သင့်ကိုယ်": 7921,
      "သေနတ်": 7922,
      "မြို့တွင်း": 7923,
      "ရောနစ်": 7924,
      "ရောဘတ်": 7925,
      "၂၀၁၂": 7926,
      "တစ်ခုပဲ": 7927,
      "ရပ်ကျေး": 7928,
      "အကျဆုံး": 7929,
      "ထဲဝင်": 7930,
      "အရေးကိစ္စ": 7931,
      "လုပ်ငန်းများအတွက်": 7932,
      "လမ်းသွား": 7933,
      "ခရစ္စ": 7934,
      "ဂျတ်": 7935,
      "ဒုန်": 7936,
      "ရုရှား": 7937,
      "အသက်မွေး": 7938,
      "ဆွေးနွေးမှုများ": 7939,
      "ဆွေးနွေးညှိနှိုင်း": 7940,
      "ဆွေးနွေးပွဲတွင်": 7941,
      "Com": 7942,
      "နီးစပ်": 7943,
      "ရရှိခဲ့ပြီး": 7944,
      "လင်းအောင်က": 7945,
      "ဘာသာစကားကို": 7946,
      "ဒီလိုဆိုတယ်": 7947,
      "အင်ပါယာ": 7948,
      "ပြန်လည်သုံးသပ်": 7949,
      "အချက်များကို": 7950,
      "ဘက်တီးရီးယား": 7951,
      "ဖျန်း": 7952,
      "ခေါ်ပြီး": 7953,
      "အောက်ရှိ": 7954,
      "အောက်တွင်": 7955,
      "ထပ်ခါ": 7956,
      "ချစ်တယ်": 7957,
      "မိသားစုက": 7958,
      "ကျပ်ငွေ": 7959,
      "စဉ်းစားစရာ": 7960,
      "အပြစ်နဲ့": 7961,
      "အပြစ်ကြောင့်": 7962,
      "လေ့လာခဲ့တယ်": 7963,
      "မယ်ဆိုရင်တော့": 7964,
      "ကာကွယ်စောင့်ရှောက်": 7965,
      "လီလီ": 7966,
      "ကိုလည်းကောင်း": 7967,
      "အမှုပေါင်း": 7968,
      "ကောင်းကင်ဖခင်": 7969,
      "ဖြစ်စေရန်": 7970,
      "အသုံးပြုတဲ့": 7971,
      "မရိုး": 7972,
      "စိုးလို့": 7973,
      "ဆုံးဖြတ်ချက်ကို": 7974,
      "အဲဒါကတော့": 7975,
      "ဒဏ်ခတ်": 7976,
      "တမန်တော်တွေ": 7977,
      "ကင်းမဲ့": 7978,
      "မိတ်ဆွေဖွဲ့": 7979,
      "အုပ်ချုပ်မှုကို": 7980,
      "ညွှန်ကြားမှု": 7981,
      "ဖြစ်ပေါ်စေ": 7982,
      "ရွေးချယ်တင်မြှောက်": 7983,
      "ပြည်ထောင်စုလွှတ်တော်တွင်": 7984,
      "ပြည်ထောင်စုလွှတ်တော်အစည်းအဝေး": 7985,
      "ပုံစံမျိုး": 7986,
      "လူငယ်များ": 7987,
      "လူငယ်လေး": 7988,
      "သဘောထားမှတ်ချက်": 7989,
      "ရာခိုင်နှုန်းကို": 7990,
      "ဧလိယက": 7991,
      "ရောက်လာတဲ့": 7992,
      "အတည်ပြုလူနာ": 7993,
      "လမ်းညွှန်ချက်တွေကို": 7994,
      "ပိတ်သိမ်း": 7995,
      "သက်ဆိုင်ရာဝန်ကြီးဌာန": 7996,
      "ငွေကြေးကိစ္စ": 7997,
      "ပျက်စီးဆုံးရှုံး": 7998,
      "ကိုးကွယ်တဲ့": 7999,
      "တွေးခေါ်": 8000,
      "ရဲတပ်ဖွဲ့မှူး": 8001,
      "ထောက်ခံချက်": 8002,
      "ဂုဏ်ယူ": 8003,
      "အမျိုးမျိုးနဲ့": 8004,
      "သင်တန်းများ": 8005,
      "ကျေနပ်ရောင့်ရဲ": 8006,
      "တိရစ္ဆာန်တွေ": 8007,
      "တိုင်ကြားစာ": 8008,
      "တုံ့ပြန်ခဲ့သလဲ": 8009,
      "သမိုင်းပညာရှင်": 8010,
      "ရည်ရွယ်ချက်နဲ့": 8011,
      "ဦးဇော်ဌေး": 8012,
      "အာရုံစိုက်ပါ": 8013,
      "ဖွံ့ဖြိုးရေးပါတီဝင်": 8014,
      "အိမ်ထောင်ရေးဖောက်ပြန်": 8015,
      "ကျူးလွန်သူ": 8016,
      "အဘွား": 8017,
      "ဧည့်စာရင်း": 8018,
      "ဉာဏ်ပညာကို": 8019,
      "ဦးကျော်မြင့်": 8020,
      "ထင်ရှားတယ်": 8021,
      "အာဗြဟံကို": 8022,
      "ရိုင်းစိုင်း": 8023,
      "ဆင်းရဲဒုက္ခတွေ": 8024,
      "တဖြည်းဖြည်းနဲ့": 8025,
      "ခရစ်တော်ရဲ့": 8026,
      "အစုလိုက်": 8027,
      "နောက်လိုက်တွေကို": 8028,
      "ဦးမျိုးဇော်": 8029,
      "အငြင်းအခုံ": 8030,
      "ပိုကောင်းတယ်": 8031,
      "အံ့ဖွယ်အမှု": 8032,
      "တစ်နည်းအားဖြင့်": 8033,
      "ကီလို": 8034,
      "ပူဇော်သကာ": 8035,
      "မထသ": 8036,
      "ပုဗ္ဗသီရိ": 8037,
      "ရာစုပင်လုံညီလာခံ": 8038,
      "လူကုန်ကူးမှု": 8039,
      "စွမ်းဆောင်ရည်": 8040,
      "ကလဲ့": 8041,
      "ပစ်ခတ်တိုက်ခိုက်မှုရပ်စဲရေး": 8042,
      "အပစ်အခတ်": 8043,
      "သံအမတ်ကြီး": 8044,
      "Bib": 8045,
      "အစေခံ": 8046,
      "အရှေ့တောင်အာရှ": 8047,
      "ဆိုပါစို့": 8048,
      "အီလက်ထရောနစ်": 8049,
      "အငြိုး": 8050,
      "အတိုက်အခံ": 8051,
      "ဒေသန္တရ": 8052,
      "In": 8053,
      "Le": 8054,
      "NR": 8055,
      "ur": 8056,
      "ure": 8057,
      "စတိ": 8058,
      "ဇ္": 8059,
      "ဇိမ်": 8060,
      "ညောင်း": 8061,
      "တင်းက": 8062,
      "နဂို": 8063,
      "ပကတိ": 8064,
      "ဖေ့စ်": 8065,
      "မသင့်": 8066,
      "မဖြေရှင်း": 8067,
      "မလိုက်နာ": 8068,
      "ရစေ": 8069,
      "ရနိုင်ပါတယ်": 8070,
      "ရကျိုး": 8071,
      "ရတော့မယ်": 8072,
      "လစဉ်": 8073,
      "သင်းက": 8074,
      "သက္က": 8075,
      "သရုပ်": 8076,
      "ဟန့်": 8077,
      "အခြ": 8078,
      "ဤအရာကို": 8079,
      "ုင်": 8080,
      "၃၀၀": 8081,
      "”*": 8082,
      "ကိုတောင်": 8083,
      "ကြိုင်": 8084,
      "ကြပါဘူး": 8085,
      "ကျိန်း": 8086,
      "ုံလိုက်": 8087,
      "နေချိန်": 8088,
      "နေမယ့်အစား": 8089,
      "ရှိမှာ": 8090,
      "ရှိခဲ့သည်": 8091,
      "ရှိခဲ့ပြီး": 8092,
      "များကြောင့်": 8093,
      "နိုင်မည့်": 8094,
      "ခဲ့ပုံရတယ်": 8095,
      "မှုပုံစံ": 8096,
      "လုပ်ခ": 8097,
      "လုပ်ရင်": 8098,
      "လုပ်တာကို": 8099,
      "လုပ်နေတာ": 8100,
      "တစ်ပုံ": 8101,
      "တစ်သီး": 8102,
      "ပေးပါလိမ့်မယ်": 8103,
      "စာတင်": 8104,
      "လာတော့": 8105,
      "ဦးဝှေ့": 8106,
      "ရွေ": 8107,
      "ချက်နဲ့": 8108,
      "သားတွေက": 8109,
      "ဘုရားဆီ": 8110,
      "ဘုရားဆီက": 8111,
      "လူသတ်": 8112,
      "လူတစ်ယောက်ကို": 8113,
      "နှစ်အတွင်း": 8114,
      "မျိုးက": 8115,
      "နိုင်ငံကို": 8116,
      "ပြန်ပြောပြတယ်": 8117,
      "ပြန်ဆပ်": 8118,
      "လေးခု": 8119,
      "စိတ်ပူ": 8120,
      "စိတ်ချမ်းသာ": 8121,
      "လျား": 8122,
      "ကျမ်းစာဖတ်": 8123,
      "သုံးလ": 8124,
      "အဲဒီအချက်": 8125,
      "သင်ထင်": 8126,
      "ကြောင့်ပဲ": 8127,
      "ရွက်ကြီး": 8128,
      "ပေါ်လွင်": 8129,
      "နောက်တစ်ကြိမ်": 8130,
      "ရေဆင်း": 8131,
      "ရေကစား": 8132,
      "မူဘောင်": 8133,
      "အရအသုံး": 8134,
      "အကြောင်းတွေကို": 8135,
      "ဥပဒေပါ": 8136,
      "ကြည့်တယ်": 8137,
      "ထုတ်လွှတ်": 8138,
      "စီးခ": 8139,
      "ဆေးပညာ": 8140,
      "ဆေးရွက်ကြီး": 8141,
      "ကျွန်တော်ဟာ": 8142,
      "တပ်မှူး": 8143,
      "တပ်ကုလားထိုင်": 8144,
      "မြေပုံ": 8145,
      "မြေမှုန့်": 8146,
      "လျှာ": 8147,
      "ယေဟောဝါဘုရားသခင်": 8148,
      "ဘောဂ": 8149,
      "ခရမ်း": 8150,
      "တည်ရှိနေ": 8151,
      "တင်းကျပ်": 8152,
      "တစ်ယောက်မှ": 8153,
      "ထွက်လာတယ်": 8154,
      "ထွက်သွားတယ်": 8155,
      "ယုံကြည်ချက်ကို": 8156,
      "ဆီမွှေး": 8157,
      "အဆိုအရ": 8158,
      "ကျွန်တော်တို့ဟာ": 8159,
      "အစိုးရနှင့်": 8160,
      "အဆန်း": 8161,
      "ရရှိတဲ့": 8162,
      "ဖြတ်ကျော်": 8163,
      "တိုင်အောင်": 8164,
      "အမျိုးသားအဆင့်": 8165,
      "ခုနှစ်မှ": 8166,
      "တိုးများ": 8167,
      "ရှိတဲ့အတွက်": 8168,
      "ခံရမယ်": 8169,
      "ပြန်လည်ဝင်ရောက်လာ": 8170,
      "ခေါ်တဲ့": 8171,
      "အကျိုးသက်ရောက်": 8172,
      "မိသားစုအတွက်": 8173,
      "မိုးခေါင်": 8174,
      "ရသည်ဟု": 8175,
      "အပြစ်ပေး": 8176,
      "ကန်ထ": 8177,
      "ကာကွယ်ဆေး": 8178,
      "ကာကွယ်ထိန်းချုပ်": 8179,
      "ကူညီပေးခဲ့တယ်": 8180,
      "စောင့်ထိန်း": 8181,
      "မည့်အစား": 8182,
      "အသုံးပြုခဲ့တယ်": 8183,
      "သုံးသပ်ရေးကော်မရှင်": 8184,
      "ဘေးဆိုး": 8185,
      "အိမ်ထောင်ဖက်နဲ့": 8186,
      "ထိခိုက်နာကျင်": 8187,
      "ကမ်းရိုး": 8188,
      "ဇာခရိ": 8189,
      "ကြုံနေရ": 8190,
      "နေထိုင်ရာ": 8191,
      "အဆင့်မြှင့်တင်": 8192,
      "ကော်မရှင်ကို": 8193,
      "သက်သေအထောက်အထား": 8194,
      "အမျိုးသမီးတစ်ဦး": 8195,
      "ထားပြီးဖြစ်ကြောင်း": 8196,
      "အဖွဲ့အစည်းများနှင့်": 8197,
      "အဖွဲ့အစည်းများက": 8198,
      "အဖွဲ့အစည်းများနှင့်": 8199,
      "ခက်တယ်": 8200,
      "ဖြစ်ပေါ်လာတယ်": 8201,
      "ပြည်သူ့လွှတ်တော်က": 8202,
      "ရွေးချယ်ပိုင်ခွင့်": 8203,
      "ပြည်ထောင်စုလွှတ်တော်အစည်းအဝေးတွင်": 8204,
      "ပုံစံပြု": 8205,
      "သေဆုံးသူ": 8206,
      "ချေးငှား": 8207,
      "အဓိပ္ပာယ်ကို": 8208,
      "တော်မူလိမ့်မည်": 8209,
      "ဗျာဒိတ်ကျမ်း": 8210,
      "နားထောင်ပါ": 8211,
      "ယူဆတယ်": 8212,
      "တိုင်းရင်းသားလူမျိုး": 8213,
      "အကြံပြုချက်များ": 8214,
      "စပါးစျေး": 8215,
      "အလိုဆန္ဒ": 8216,
      "ခိုးယူ": 8217,
      "ခွင့်လွှတ်မှု": 8218,
      "တာနဲ့ပဲ": 8219,
      "အကြီးစား": 8220,
      "အရည်အသွေးတွေ": 8221,
      "လိုက်နာပါ": 8222,
      "ဗာရက်": 8223,
      "မျှတတဲ့": 8224,
      "အလှည့်": 8225,
      "ခဲ့ရကြောင်း": 8226,
      "အချို့သည်": 8227,
      "အမျိုးသားလွှတ်တော်အစည်းအဝေးတွင်": 8228,
      "နှစ်ဦးစလုံး": 8229,
      "အတိုင်ပင်ခံပုဂ္ဂိုလ်က": 8230,
      "ရခိုင်ပြည်နယ်အတွင်း": 8231,
      "လွန်းတဲ့": 8232,
      "သက်တမ်းတိုး": 8233,
      "ကြိုက်တဲ့": 8234,
      "မပေးဘူး": 8235,
      "လိုက်တာဖြစ်တယ်": 8236,
      "ပါစေနဲ့": 8237,
      "ခုနစ်ကာလ": 8238,
      "ပြည့်စုံ": 8239,
      "မမြင်နိုင်တဲ့": 8240,
      "ဖယ်ရှားပစ်": 8241,
      "ဆန့်ကျင်ဘက်": 8242,
      "ဘဏ္ဍာနှစ်အတွင်း": 8243,
      "ကုန်သွယ်လုပ်ငန်းခွန်": 8244,
      "ယေရှုခရစ်ရဲ့": 8245,
      "တစ်ကိုယ်ရေ": 8246,
      "ဒ္ဓိ": 8247,
      "ရှေးဟောင်းသုတေသန": 8248,
      "ခုလိုပြောတယ်": 8249,
      "ပြန်ကြားရေးအဖွဲ့": 8250,
      "သယံဇာတနှင့်": 8251,
      "အဆက်ဆက်": 8252,
      "အဆက်မပြတ်": 8253,
      "ရှိပါသေးတယ်": 8254,
      "သနားကြင်နာ": 8255,
      "ဘီးတပ်ကုလားထိုင်": 8256,
      "ပပျောက်ရေး": 8257,
      "ကတိပေးထားတယ်": 8258,
      "ဗိမာန်တော်": 8259,
      "ကာယပိုင်း": 8260,
      "edia": 8261,
      "ဒေါ်ခင်စန်း": 8262,
      "ရာဇဝတ်မှု": 8263,
      "မည်သူမျှ": 8264,
      "အပြုံလိုက်": 8265,
      "ယင်ကောင်": 8266,
      "ဘယ်လောက်ကြာကြာ": 8267,
      "ရဟန်း": 8268,
      "ဥပဒေပြုရေး": 8269,
      "port": 8270,
      "စမတ်ဖုန်း": 8271,
      "အေဂျင်စီ": 8272,
      "သင့်ကိုယ်သင်": 8273,
      "အစုလိုက်အပြုံလိုက်": 8274,
      "ကလဲ့စားချေ": 8275,
      "NRPC": 8276,
      "Cent": 8277,
      "EA": 8278,
      "el": 8279,
      "lop": 8280,
      "pl": 8281,
      "ကွေ့": 8282,
      "ဂယ်": 8283,
      "စူ": 8284,
      "စလို": 8285,
      "ညွန့်": 8286,
      "ပန္နက်": 8287,
      "ဘိုင်း": 8288,
      "မပါဝင်": 8289,
      "မပေါက်": 8290,
      "ရန်း": 8291,
      "ရမှန်း": 8292,
      "လကာ": 8293,
      "သငယ်": 8294,
      "အပျော်": 8295,
      "အသွယ်": 8296,
      "အပြည့်": 8297,
      "ိစ္စ": 8298,
      "ကြဉ်": 8299,
      "ကြမလဲ": 8300,
      "ရှန်": 8301,
      "ရှင်းက": 8302,
      "ချွေ": 8303,
      "တွေအဖြစ်": 8304,
      "တွေဖြစ်တဲ့": 8305,
      "နေခြင်းဖြစ်သည်": 8306,
      "ရှိခဲ့": 8307,
      "ရှိမှန်း": 8308,
      "ဖြစ်ခြင်း": 8309,
      "သူပြော": 8310,
      "သူကိုယ်တိုင်": 8311,
      "မြီ": 8312,
      "မြေ့": 8313,
      "လုပ်ကြတယ်": 8314,
      "တစ်နာရီ": 8315,
      "ထားရန်": 8316,
      "လာပါတယ်": 8317,
      "လာတာနဲ့အမျှ": 8318,
      "လို့ပြောခဲ့တယ်": 8319,
      "ဦးမောင်": 8320,
      "ကြီးစွာ": 8321,
      "ပြုခြင်း": 8322,
      "သွားလိမ့်မယ်": 8323,
      "သွားပါပြီ": 8324,
      "ဘုရားနိုင်ငံတော်": 8325,
      "ဖို့ပဲ": 8326,
      "သက်ဝင်": 8327,
      "နှစ်တွေ": 8328,
      "မိတဲ့": 8329,
      "နိုင်ငံတွေမှာ": 8330,
      "ိမ့်": 8331,
      "မည်နည်း": 8332,
      "စေလိုကြောင်း": 8333,
      "သာဖြစ်ပြီး": 8334,
      "ရန်နှင့်": 8335,
      "သုံးသိန်း": 8336,
      "အဲဒီအကြောင်းကို": 8337,
      "လွှတ်တော်အစည်းအဝေးတွင်": 8338,
      "ဆိုတာကိုလည်း": 8339,
      "ရွက်ဆိတ်": 8340,
      "ပုံပြင်": 8341,
      "နှင့်အတူ": 8342,
      "စီစီ": 8343,
      "သင့်ကြင်ဖော်": 8344,
      "ရေယာဉ်": 8345,
      "ဆောင်ရွက်မည်": 8346,
      "မြို့ကနေ": 8347,
      "တရားစကား": 8348,
      "အနေနှင့်": 8349,
      "အကြောင်းအမျိုးမျိုး": 8350,
      "မရှိတဲ့အတွက်": 8351,
      "ကြတယ်လို့": 8352,
      "ဥပဒေဆိုင်ရာ": 8353,
      "ဥပဒေနဲ့အညီ": 8354,
      "ဖော်ပြနေတယ်": 8355,
      "မြင်ကွင်း": 8356,
      "တိုင်းနိုင်ငံ": 8357,
      "ပိုအရေးကြီးတဲ့": 8358,
      "ဆေးကြော": 8359,
      "ဆေးကုသမှု": 8360,
      "ကလေးများ": 8361,
      "ပေါင်းစည်း": 8362,
      "ပွဲတော်": 8363,
      "ယေရှုဆီ": 8364,
      "မြေများ": 8365,
      "အရေးမကြီး": 8366,
      "ပွတ်": 8367,
      "အသင်းက": 8368,
      "ဂျိုး": 8369,
      "တတ်လာတယ်": 8370,
      "ကနေပြီးတော့": 8371,
      "တည်ကြည်": 8372,
      "ကုန်ဆုံး": 8373,
      "တစ်ယောက်လို": 8374,
      "ပါးစပ်": 8375,
      "ပါးနပ်": 8376,
      "ကျော်ကျော်": 8377,
      "ရဲတပ်": 8378,
      "ဒေသက": 8379,
      "ထွက်ပြီး": 8380,
      "ပုရွက်ဆိတ်": 8381,
      "အိမ်ထောင်မပြု": 8382,
      "ကိုယ်စားလှယ်များက": 8383,
      "တီဗွီ": 8384,
      "ဖြေလျှော့": 8385,
      "Con": 8386,
      "အရာအားလုံးကို": 8387,
      "ဖြစ်ကြောင်းလည်း": 8388,
      "သူများနှင့်": 8389,
      "ဒီလိုနည်းနဲ့": 8390,
      "အမျိုးသားစီမံကိန်း": 8391,
      "စံညွှန်း": 8392,
      "နေတဲ့အချိန်မှာ": 8393,
      "ခံရမှု": 8394,
      "ကြာပြီ": 8395,
      "ပြန်လည်ရှင်းလင်း": 8396,
      "ပြန်လည်ထူထောင်": 8397,
      "၁၄၄": 8398,
      "အကျိုးရှိတယ်": 8399,
      "အကျိုးအမြတ်": 8400,
      "ပါတီစုံ": 8401,
      "သစ်တိုင်": 8402,
      "ဆုချ": 8403,
      "ယေဟောဝါဘုရားဆီ": 8404,
      "မြန်မာနိုင်ငံက": 8405,
      "မိုဘိုင်း": 8406,
      "မှုများနှင့်": 8407,
      "သမ္မတအိမ်တော်": 8408,
      "ကျင်းပတဲ့": 8409,
      "လေ့လာတဲ့အခါ": 8410,
      "အကြံအစည်": 8411,
      "မင်းတို့": 8412,
      "ဟန့်": 8413,
      "ဖတ်ကြား": 8414,
      "ငါးရဲ့": 8415,
      "သွားတယ်လို့": 8416,
      "သတ်မှတ်ပြီး": 8417,
      "ခဲ့ပြီးဖြစ်သည်": 8418,
      "မရပါဘူး": 8419,
      "ဒေါက်တာသန်း": 8420,
      "ဖန်ဆင်းထားတဲ့": 8421,
      "လွတ်လွတ်လပ်": 8422,
      "များနှင့်အညီ": 8423,
      "ဝမ်းမြောက်": 8424,
      "ကတိတော်": 8425,
      "မိတ်ဆွေစစ်": 8426,
      "အမျိုးသမီးတွေ": 8427,
      "ထူးချွန်": 8428,
      "သင်္ချာ": 8429,
      "မျှော်လင့်ချက်ကို": 8430,
      "ရမှာပါ": 8431,
      "ရည်ရွယ်ချက်ကို": 8432,
      "လုံခြုံမှု": 8433,
      "ယောဘဟာ": 8434,
      "စီးပွားရေးနှင့်": 8435,
      "စီးပွားရေးလုပ်ငန်း": 8436,
      "တိုင်းရင်းသားများ": 8437,
      "အားပေးထားတယ်": 8438,
      "နောက်ဆုံးမှာ": 8439,
      "ဥပဒေကြမ်းကော်မတီ": 8440,
      "ဒါဝိဒ်က": 8441,
      "တက္ကသိုလ်က": 8442,
      "ဝမ်းနည်းစရာ": 8443,
      "မပြောဘူး": 8444,
      "အကျင့်ယိုယွင်း": 8445,
      "ထောက်ပံ့ပေး": 8446,
      "နိုင်စွမ်းကို": 8447,
      "မလိုလား": 8448,
      "ရုသရဲ့": 8449,
      "ဘတ်ဂျတ်": 8450,
      "ဝိုင်းကူ": 8451,
      "ကွန်ဗ": 8452,
      "တရားရုံးက": 8453,
      "ဝေဒနာကို": 8454,
      "ဆေးရုံကြီး": 8455,
      "ဆန်းစစ်ကြည့်ပါ": 8456,
      "၅၀ဝ": 8457,
      "ဆက်ဆံရေးကောင်း": 8458,
      "ယေဟောဝါသက်သေတွေဟာ": 8459,
      "ဂေဟင်": 8460,
      "အပြည့်နဲ့": 8461,
      "ဂျစ်တယ်": 8462,
      "သဘောတူညီမှု": 8463,
      "ဂရိစကားလုံး": 8464,
      "ကူးစက်မှု": 8465,
      "အကျယ်အဝန်း": 8466,
      "သိုးသငယ်": 8467,
      "အော်ဂဲ": 8468,
      "ကျေးဇူးတင်ကြောင်း": 8469,
      "ပညာရှိတို့": 8470,
      "စားသောက်ကုန်": 8471,
      "သက်ဆိုင်သည့်": 8472,
      "အထွေထွေအုပ်ချုပ်ရေး": 8473,
      "သိထားသင့်ရာ": 8474,
      "ရှောလုရဲ့": 8475,
      "ရည်ညွှန်းတယ်": 8476,
      "ပြန်ကြားရေးဝန်ကြီးဌာန": 8477,
      "စွမ်းအင်ဝန်ကြီးဌာန": 8478,
      "အဆက်အသွယ်": 8479,
      "ဆိုးကျိုးတွေ": 8480,
      "ရေရှည်တည်တံ့": 8481,
      "နိုင်ငံတော်သမ္မတရုံးက": 8482,
      "ပြုမူပြောဆို": 8483,
      "ရိုးရိုးလေး": 8484,
      "လမ်းစဉ်ကို": 8485,
      "စိန်ခေါ်မှု": 8486,
      "ရှိပြီဖြစ်တဲ့": 8487,
      "သတိထားမိ": 8488,
      "ဖြည့်ဆည်း": 8489,
      "ထုတ်ပြန်ချက်တွင်": 8490,
      "ဗိုလ်မှူးချုပ်ဇော်မင်းထွန်းက": 8491,
      "မကွေးတိုင်းဒေသကြီး": 8492,
      "မြို့မစျေး": 8493,
      "ပတ်သတ်ပြီး": 8494,
      "အလျင်စလို": 8495,
      "သိလိုက်ရတဲ့အခါ": 8496,
      "ဒေါက်တာဇော်မြင့်မောင်က": 8497,
      "ဦးအုန်းဝင်းက": 8498,
      "ဝဏ္ဏစိုးက": 8499,
      "တစ်ပြိုင်တည်း": 8500,
      "ကျိုးကြောင်းဆင်ခြင်": 8501,
      "လူစားမျိုး": 8502,
      "အလွဲသုံးစား": 8503,
      "ကဲ့ရဲ့": 8504,
      "နံ့သာ": 8505,
      "စက္ကန့်": 8506,
      "ဇ္ဇာ": 8507,
      "ဖေ့စ်ဘွတ်": 8508,
      "ဦးဝှေ့တင်း": 8509,
      "ကန်ထရိုက်": 8510,
      "လွတ်လွတ်လပ်လပ်": 8511,
      "ဂေဟင်နာ": 8512,
      "Pl": 8513,
      "ative": 8514,
      "dom": 8515,
      "ကန်း": 8516,
      "ကွေး": 8517,
      "စတစ်": 8518,
      "ဇင်": 8519,
      "နိုးရ": 8520,
      "ဖိုင်": 8521,
      "မင": 8522,
      "မပြန်": 8523,
      "မသာ": 8524,
      "မပေါ်": 8525,
      "မတောင်း": 8526,
      "မထိန်း": 8527,
      "မသွန်သင်": 8528,
      "မကျေ": 8529,
      "မစုံလင်": 8530,
      "ရပါလိမ့်မယ်": 8531,
      "သရက်": 8532,
      "ဟိန်": 8533,
      "အယုံ": 8534,
      "အငှား": 8535,
      "၈၉": 8536,
      "ပြဠာ": 8537,
      "ကြန့်": 8538,
      "ကျစ်": 8539,
      "နေနိုင်တယ်": 8540,
      "နေတတ်": 8541,
      "နေသလို": 8542,
      "ရှိလော": 8543,
      "ဖြစ်မှာ": 8544,
      "များအနေဖြင့်": 8545,
      "တာတွေက": 8546,
      "နိုင်မည်ဖြစ်ကြောင်း": 8547,
      "နိုင်မည်ဖြစ်သည်": 8548,
      "ရေးထားတဲ့": 8549,
      "နဲ့ဆိုင်တဲ့": 8550,
      "ပြောလိုက်": 8551,
      "ပြောသွားခဲ့သည်": 8552,
      "တစ်ခွင်": 8553,
      "ပေးရင်": 8554,
      "လာရတယ်": 8555,
      "လို့လား": 8556,
      "ကြောင်းကို": 8557,
      "တို့လို": 8558,
      "သိရှိလာ": 8559,
      "သိရပါတယ်": 8560,
      "သိဒ္ဓိ": 8561,
      "သားနဲ့": 8562,
      "ဘာပဲ": 8563,
      "တွေကိုတော့": 8564,
      "ဒါဆို": 8565,
      "သက်ငယ်": 8566,
      "နှစ်မှ": 8567,
      "နှစ်ရပ်": 8568,
      "လက်မဲ့": 8569,
      "ကိုယ်အင်္ဂါ": 8570,
      "ard": 8571,
      "ဝင်ကြေး": 8572,
      "စေတယ်လို့": 8573,
      "ပြန်ပေး": 8574,
      "ထောင်ချီ": 8575,
      "လှုံ": 8576,
      "စိတ်သဘောထား": 8577,
      "စိတ်မဝင်": 8578,
      "သောစိတ်": 8579,
      "သောစကား": 8580,
      "အောင်လုပ်": 8581,
      "ကျမ်းစာနဲ့": 8582,
      "ကျမ်းစာအကြောင်း": 8583,
      "ကောင်းများ": 8584,
      "ပျော": 8585,
      "ဆုံးၡုံး": 8586,
      "အဲဒီကနေ": 8587,
      "ရက်သတ္တ": 8588,
      "သူ့အကြောင်း": 8589,
      "ပေါ်ထွက်လာ": 8590,
      "ပုံသက်သေ": 8591,
      "ရောက်သွားတယ်": 8592,
      "သို့ပြုလျှင်": 8593,
      "စီစစ်": 8594,
      "သေသွား": 8595,
      "အိမ်ခန်း": 8596,
[...]
