{
  "version": "1.0",
  "truncation": null,
  "padding": null,
  "added_tokens": [
    {
      "id": 0,
      "content": "<pad>",
      "single_word": false,
      "lstrip": false,
      "rstrip": false,
      "normalized": false,
      "special": true
    },
    {
      "id": 1,
      "content": "<unk>",
      "single_word": false,
      "lstrip": false,
      "rstrip": false,
      "normalized": false,
      "special": true
    },
    {
      "id": 2,
      "content": "<s>",
      "single_word": false,
      "lstrip": false,
      "rstrip": false,
      "normalized": false,
      "special": true
    },
    {
      "id": 3,
      "content": "</s>",
      "single_word": false,
      "lstrip": false,
      "rstrip": false,
      "normalized": false,
      "special": true
    }
  ],
  "normalizer": null,
  "pre_tokenizer": {
    "type": "Sequence",
    "pretokenizers": [
      {
        "type": "Whitespace"
      },
      {
        "type": "Split",
        "pattern": {
          "Regex": "(?<=[ऀ-ॿ஀-௿฀-๿຀-໿က-႟ក-៿一-鿿꤀-꤯])(?=[A-Za-z0-9])|(?<=[A-Za-z0-9])(?=[ऀ-ॿ஀-௿฀-๿຀-໿က-႟ក-៿一-鿿꤀-꤯])"
        },
        "behavior": "Isolated",
        "invert": false
      }
    ]
  },
  "post_processor": null,
  "decoder": null,
  "model": {
    "type": "BPE",
    "dropout": null,
    "unk_token": "<unk>",
    "continuing_subword_prefix": null,
    "end_of_word_suffix": null,
    "fuse_unk": false,
    "byte_fallback": false,
    "ignore_merges": false,
    "vocab": {
      "<pad>": 0,
      "<unk>": 1,
      "<s>": 2,
      "</s>": 3,
      "-": 4,
      "·": 5,
      "—": 6,
      "‘": 7,
      "’": 8,
      "“": 9,
      "”": 10,
      "…": 11,
      "、": 12,
      "。": 13,
      "《": 14,
      "》": 15,
      "䍁": 16,
      "一": 17,
      "丁": 18,
      "七": 19,
      "万": 20,
      "丈": 21,
      "三": 22,
      "上": 23,
      "下": 24,
      "不": 25,
      "与": 26,
      "丐": 27,
      "丑": 28,
      "专": 29,
      "且": 30,
      "世": 31,
      "丘": 32,
      "业": 33,
      "丛": 34,
      "东": 35,
      "丝": 36,
      "丢": 37,
      "两": 38,
      "严": 39,
      "丧": 40,
      "个": 41,
      "中": 42,
      "丰": 43,
      "串": 44,
      "临": 45,
      "丸": 46,
      "丹": 47,
      "为": 48,
      "主": 49,
      "丽": 50,
      "举": 51,
      "乃": 52,
      "久": 53,
      "么": 54,
      "义": 55,
      "之": 56,
      "乌": 57,
      "乎": 58,
      "乏": 59,
      "乐": 60,
      "乔": 61,
      "乖": 62,
      "乘": 63,
      "九": 64,
      "乞": 65,
      "也": 66,
      "习": 67,
      "乡": 68,
      "书": 69,
      "买": 70,
      "乱": 71,
      "乳": 72,
      "了": 73,
      "予": 74,
      "争": 75,
      "事": 76,
      "二": 77,
      "于": 78,
      "亏": 79,
      "云": 80,
      "互": 81,
      "五": 82,
      "井": 83,
      "亘": 84,
      "亚": 85,
      "些": 86,
      "亡": 87,
      "亢": 88,
      "交": 89,
      "亥": 90,
      "产": 91,
      "亨": 92,
      "亩": 93,
      "享": 94,
      "京": 95,
      "亭": 96,
      "亮": 97,
      "亲": 98,
      "亵": 99,
      "人": 100,
      "亿": 101,
      "什": 102,
      "仁": 103,
      "仃": 104,
      "仅": 105,
      "仆": 106,
      "仇": 107,
      "今": 108,
      "介": 109,
      "仍": 110,
      "从": 111,
      "仑": 112,
      "仓": 113,
      "仔": 114,
      "他": 115,
      "仗": 116,
      "付": 117,
      "仙": 118,
      "代": 119,
      "令": 120,
      "以": 121,
      "仪": 122,
      "们": 123,
      "仰": 124,
      "仲": 125,
      "件": 126,
      "价": 127,
      "任": 128,
      "份": 129,
      "仿": 130,
      "企": 131,
      "伊": 132,
      "伍": 133,
      "伏": 134,
      "伐": 135,
      "休": 136,
      "众": 137,
      "优": 138,
      "伙": 139,
      "会": 140,
      "伟": 141,
      "传": 142,
      "伤": 143,
      "伦": 144,
      "伪": 145,
      "伯": 146,
      "估": 147,
      "伴": 148,
      "伶": 149,
      "伸": 150,
      "伺": 151,
      "似": 152,
      "伽": 153,
      "佃": 154,
      "但": 155,
      "位": 156,
      "低": 157,
      "住": 158,
      "佐": 159,
      "体": 160,
      "何": 161,
      "余": 162,
      "佛": 163,
      "作": 164,
      "你": 165,
      "佣": 166,
      "佩": 167,
      "佳": 168,
      "使": 169,
      "侄": 170,
      "侈": 171,
      "例": 172,
      "侍": 173,
      "侏": 174,
      "供": 175,
      "依": 176,
      "侣": 177,
      "侦": 178,
      "侧": 179,
      "侨": 180,
      "侮": 181,
      "侵": 182,
      "便": 183,
      "促": 184,
      "俄": 185,
      "俊": 186,
      "俏": 187,
      "俗": 188,
      "俘": 189,
      "保": 190,
      "信": 191,
      "俩": 192,
      "修": 193,
      "俯": 194,
      "俱": 195,
      "俸": 196,
      "倍": 197,
      "倒": 198,
      "候": 199,
      "倚": 200,
      "借": 201,
      "倡": 202,
      "倦": 203,
      "债": 204,
      "值": 205,
      "倾": 206,
      "假": 207,
      "偎": 208,
      "偏": 209,
      "做": 210,
      "停": 211,
      "健": 212,
      "偶": 213,
      "偷": 214,
      "偿": 215,
      "傅": 216,
      "傍": 217,
      "储": 218,
      "催": 219,
      "傲": 220,
      "像": 221,
      "僚": 222,
      "僭": 223,
      "僵": 224,
      "僻": 225,
      "儒": 226,
      "儿": 227,
      "允": 228,
      "元": 229,
      "兄": 230,
      "充": 231,
      "兆": 232,
      "先": 233,
      "光": 234,
      "克": 235,
      "免": 236,
      "兑": 237,
      "兔": 238,
      "党": 239,
      "兜": 240,
      "兢": 241,
      "入": 242,
      "全": 243,
      "八": 244,
      "公": 245,
      "六": 246,
      "兰": 247,
      "共": 248,
      "关": 249,
      "兴": 250,
      "兵": 251,
      "其": 252,
      "具": 253,
      "典": 254,
      "兹": 255,
      "养": 256,
      "兼": 257,
      "兽": 258,
      "内": 259,
      "冈": 260,
      "册": 261,
      "再": 262,
      "冒": 263,
      "冕": 264,
      "写": 265,
      "军": 266,
      "农": 267,
      "冠": 268,
      "冤": 269,
      "冥": 270,
      "冬": 271,
      "冰": 272,
      "冲": 273,
      "决": 274,
      "况": 275,
      "冶": 276,
      "冷": 277,
      "冻": 278,
      "净": 279,
      "凄": 280,
      "准": 281,
      "凉": 282,
      "凋": 283,
      "凌": 284,
      "减": 285,
      "凝": 286,
      "几": 287,
      "凡": 288,
      "凤": 289,
      "凭": 290,
      "凯": 291,
      "凳": 292,
      "凶": 293,
      "凸": 294,
      "出": 295,
      "击": 296,
      "函": 297,
      "凿": 298,
      "刀": 299,
      "刃": 300,
      "分": 301,
      "切": 302,
      "刍": 303,
      "刑": 304,
      "划": 305,
      "列": 306,
      "则": 307,
      "刚": 308,
      "创": 309,
      "初": 310,
      "删": 311,
      "判": 312,
      "刨": 313,
      "利": 314,
      "别": 315,
      "刮": 316,
      "到": 317,
      "制": 318,
      "刷": 319,
      "刹": 320,
      "刺": 321,
      "刻": 322,
      "刽": 323,
      "剃": 324,
      "削": 325,
      "前": 326,
      "剐": 327,
      "剑": 328,
      "剔": 329,
      "剖": 330,
      "剜": 331,
      "剥": 332,
      "剧": 333,
      "剩": 334,
      "剪": 335,
      "副": 336,
      "割": 337,
      "劈": 338,
      "力": 339,
      "劝": 340,
      "办": 341,
      "功": 342,
      "加": 343,
      "务": 344,
      "劣": 345,
      "动": 346,
      "助": 347,
      "努": 348,
      "劫": 349,
      "励": 350,
      "劳": 351,
      "势": 352,
      "勃": 353,
      "勇": 354,
      "勉": 355,
      "勒": 356,
      "募": 357,
      "勤": 358,
      "勺": 359,
      "勾": 360,
      "匀": 361,
      "包": 362,
      "匆": 363,
      "匏": 364,
      "化": 365,
      "北": 366,
      "匙": 367,
      "匠": 368,
      "匪": 369,
      "匹": 370,
      "区": 371,
      "医": 372,
      "匿": 373,
      "十": 374,
      "千": 375,
      "升": 376,
      "午": 377,
      "半": 378,
      "华": 379,
      "协": 380,
      "卑": 381,
      "卒": 382,
      "卓": 383,
      "单": 384,
      "卖": 385,
      "南": 386,
      "博": 387,
      "卜": 388,
      "占": 389,
      "卡": 390,
      "卢": 391,
      "卧": 392,
      "卫": 393,
      "印": 394,
      "危": 395,
      "即": 396,
      "却": 397,
      "卷": 398,
      "卸": 399,
      "厅": 400,
      "历": 401,
      "厉": 402,
      "压": 403,
      "厌": 404,
      "厕": 405,
      "厚": 406,
      "原": 407,
      "厢": 408,
      "厨": 409,
      "厩": 410,
      "去": 411,
      "叁": 412,
      "参": 413,
      "又": 414,
      "叉": 415,
      "及": 416,
      "友": 417,
      "双": 418,
      "反": 419,
      "发": 420,
      "叔": 421,
      "取": 422,
      "受": 423,
      "变": 424,
      "叙": 425,
      "叛": 426,
      "叠": 427,
      "口": 428,
      "古": 429,
      "句": 430,
      "另": 431,
      "叩": 432,
      "只": 433,
      "叫": 434,
      "召": 435,
      "叮": 436,
      "可": 437,
      "台": 438,
      "叱": 439,
      "史": 440,
      "右": 441,
      "叶": 442,
      "号": 443,
      "司": 444,
      "叹": 445,
      "叼": 446,
      "吁": 447,
      "吃": 448,
      "各": 449,
      "吆": 450,
      "合": 451,
      "吉": 452,
      "吊": 453,
      "同": 454,
      "名": 455,
      "后": 456,
      "吏": 457,
      "吐": 458,
      "向": 459,
      "吓": 460,
      "吕": 461,
      "吗": 462,
      "君": 463,
      "吝": 464,
      "吞": 465,
      "吟": 466,
      "吠": 467,
      "否": 468,
      "吧": 469,
      "吩": 470,
      "含": 471,
      "听": 472,
      "吮": 473,
      "启": 474,
      "吴": 475,
      "吵": 476,
      "吸": 477,
      "吹": 478,
      "吻": 479,
      "吼": 480,
      "吾": 481,
      "呀": 482,
      "呆": 483,
      "呈": 484,
      "告": 485,
      "呐": 486,
      "呕": 487,
      "员": 488,
      "呢": 489,
      "周": 490,
      "味": 491,
      "呵": 492,
      "呻": 493,
      "呼": 494,
      "命": 495,
      "咆": 496,
      "和": 497,
      "咐": 498,
      "咒": 499,
      "咖": 500,
      "咙": 501,
      "咬": 502,
      "咳": 503,
      "咸": 504,
      "咽": 505,
      "哀": 506,
      "品": 507,
      "哄": 508,
      "哇": 509,
      "哈": 510,
      "哉": 511,
      "响": 512,
      "哑": 513,
      "哒": 514,
      "哗": 515,
      "哥": 516,
      "哦": 517,
      "哨": 518,
      "哪": 519,
      "哭": 520,
      "哮": 521,
      "哲": 522,
      "哺": 523,
      "哼": 524,
      "唁": 525,
      "唆": 526,
      "唇": 527,
      "唉": 528,
      "唤": 529,
      "售": 530,
      "唯": 531,
      "唱": 532,
      "唾": 533,
      "啃": 534,
      "啄": 535,
      "商": 536,
      "啊": 537,
      "啕": 538,
      "啬": 539,
      "啸": 540,
      "啼": 541,
      "喀": 542,
      "喂": 543,
      "喃": 544,
      "善": 545,
      "喉": 546,
      "喊": 547,
      "喘": 548,
      "喜": 549,
      "喝": 550,
      "喧": 551,
      "喷": 552,
      "喻": 553,
      "嗅": 554,
      "嗉": 555,
      "嗐": 556,
      "嗒": 557,
      "嗜": 558,
      "嗡": 559,
      "嗣": 560,
      "嗤": 561,
      "嘈": 562,
      "嘘": 563,
      "嘱": 564,
      "嘲": 565,
      "嘴": 566,
      "嘶": 567,
      "嘹": 568,
      "器": 569,
      "噩": 570,
      "噬": 571,
      "嚎": 572,
      "嚏": 573,
      "嚣": 574,
      "嚷": 575,
      "嚼": 576,
      "囊": 577,
      "囚": 578,
      "四": 579,
      "回": 580,
      "因": 581,
      "团": 582,
      "囫": 583,
      "园": 584,
      "困": 585,
      "围": 586,
      "囵": 587,
      "固": 588,
      "国": 589,
      "图": 590,
      "圃": 591,
      "圆": 592,
      "圈": 593,
      "土": 594,
      "圣": 595,
      "在": 596,
      "地": 597,
      "场": 598,
      "圾": 599,
      "均": 600,
      "坍": 601,
      "坎": 602,
      "坏": 603,
      "坐": 604,
      "坑": 605,
      "块": 606,
      "坚": 607,
      "坛": 608,
      "坟": 609,
      "坠": 610,
      "坡": 611,
      "坦": 612,
      "垂": 613,
      "垃": 614,
      "型": 615,
      "垒": 616,
      "垛": 617,
      "垣": 618,
      "垦": 619,
      "垫": 620,
      "垮": 621,
      "埃": 622,
      "埋": 623,
      "城": 624,
      "域": 625,
      "培": 626,
      "基": 627,
      "堂": 628,
      "堆": 629,
      "堕": 630,
      "堡": 631,
      "堤": 632,
      "堪": 633,
      "堵": 634,
      "塌": 635,
      "塑": 636,
      "塔": 637,
      "塘": 638,
      "塞": 639,
      "填": 640,
      "境": 641,
      "墓": 642,
      "墙": 643,
      "增": 644,
      "墟": 645,
      "墨": 646,
      "墩": 647,
      "壁": 648,
      "壤": 649,
      "士": 650,
      "壮": 651,
      "声": 652,
      "壳": 653,
      "壶": 654,
      "处": 655,
      "备": 656,
      "复": 657,
      "夏": 658,
      "外": 659,
      "多": 660,
      "夜": 661,
      "够": 662,
      "大": 663,
      "天": 664,
      "太": 665,
      "夫": 666,
      "夭": 667,
      "央": 668,
      "失": 669,
      "头": 670,
      "夷": 671,
      "夸": 672,
      "夹": 673,
      "夺": 674,
      "奇": 675,
      "奈": 676,
      "奉": 677,
      "奋": 678,
      "奎": 679,
      "奏": 680,
      "契": 681,
      "奔": 682,
      "奕": 683,
      "奖": 684,
      "套": 685,
      "奠": 686,
      "奢": 687,
      "奥": 688,
      "女": 689,
      "奴": 690,
      "奶": 691,
      "奸": 692,
      "她": 693,
      "好": 694,
      "如": 695,
      "妃": 696,
      "妄": 697,
      "妆": 698,
      "妇": 699,
      "妈": 700,
      "妒": 701,
      "妓": 702,
      "妙": 703,
      "妥": 704,
      "妨": 705,
      "妮": 706,
      "妲": 707,
      "妹": 708,
      "妻": 709,
      "妾": 710,
      "姆": 711,
      "始": 712,
      "姐": 713,
      "姑": 714,
      "姓": 715,
      "委": 716,
      "姨": 717,
      "姻": 718,
      "姿": 719,
      "威": 720,
      "娃": 721,
      "娅": 722,
      "娇": 723,
      "娈": 724,
      "娘": 725,
      "娜": 726,
      "娢": 727,
      "娥": 728,
      "娩": 729,
      "娱": 730,
      "娶": 731,
      "娼": 732,
      "婆": 733,
      "婚": 734,
      "婢": 735,
      "婪": 736,
      "婴": 737,
      "婿": 738,
      "媚": 739,
      "媳": 740,
      "嫁": 741,
      "嫂": 742,
      "嫉": 743,
      "嫌": 744,
      "嫔": 745,
      "嫩": 746,
      "孀": 747,
      "子": 748,
      "孔": 749,
      "孕": 750,
      "字": 751,
      "存": 752,
      "孙": 753,
      "孝": 754,
      "季": 755,
      "孤": 756,
      "学": 757,
      "孩": 758,
      "孵": 759,
      "孽": 760,
      "宁": 761,
      "它": 762,
      "宅": 763,
      "宇": 764,
      "守": 765,
      "安": 766,
      "完": 767,
      "宏": 768,
      "宗": 769,
      "官": 770,
      "宙": 771,
      "定": 772,
      "宜": 773,
      "宝": 774,
      "实": 775,
      "宠": 776,
      "审": 777,
      "客": 778,
      "宣": 779,
      "室": 780,
      "宫": 781,
      "宰": 782,
      "害": 783,
      "宴": 784,
      "家": 785,
      "容": 786,
      "宽": 787,
      "宾": 788,
      "宿": 789,
      "寂": 790,
      "寄": 791,
      "密": 792,
      "富": 793,
      "寒": 794,
      "寓": 795,
      "寝": 796,
      "察": 797,
      "寡": 798,
      "寥": 799,
      "寨": 800,
      "寸": 801,
      "对": 802,
      "寻": 803,
      "导": 804,
      "寿": 805,
      "封": 806,
      "射": 807,
      "将": 808,
      "尊": 809,
      "小": 810,
      "少": 811,
      "尔": 812,
      "尖": 813,
      "尘": 814,
      "尚": 815,
      "尝": 816,
      "尤": 817,
      "尬": 818,
      "就": 819,
      "尴": 820,
      "尸": 821,
      "尺": 822,
      "尼": 823,
      "尽": 824,
      "尾": 825,
      "尿": 826,
      "局": 827,
      "层": 828,
      "居": 829,
      "屈": 830,
      "屋": 831,
      "屏": 832,
      "屑": 833,
      "展": 834,
      "属": 835,
      "屠": 836,
      "屡": 837,
      "履": 838,
      "屯": 839,
      "山": 840,
      "屹": 841,
      "岁": 842,
      "岂": 843,
      "岔": 844,
      "岖": 845,
      "岗": 846,
      "岛": 847,
      "岩": 848,
      "岬": 849,
      "岭": 850,
      "岳": 851,
      "岸": 852,
      "峙": 853,
      "峭": 854,
      "峰": 855,
      "峻": 856,
      "崇": 857,
      "崎": 858,
      "崖": 859,
      "崩": 860,
      "崭": 861,
      "嵌": 862,
      "巅": 863,
      "巡": 864,
      "巢": 865,
      "工": 866,
      "左": 867,
      "巧": 868,
      "巨": 869,
      "巩": 870,
      "巫": 871,
      "差": 872,
      "己": 873,
      "已": 874,
      "巴": 875,
      "巷": 876,
      "巾": 877,
      "币": 878,
      "市": 879,
      "布": 880,
      "帅": 881,
      "帆": 882,
      "师": 883,
      "希": 884,
      "帐": 885,
      "帕": 886,
      "帖": 887,
      "帘": 888,
      "帚": 889,
      "帜": 890,
      "帝": 891,
      "带": 892,
      "席": 893,
      "帮": 894,
      "帷": 895,
      "常": 896,
      "幅": 897,
      "幔": 898,
      "幕": 899,
      "干": 900,
      "平": 901,
      "年": 902,
      "并": 903,
      "幸": 904,
      "幻": 905,
      "幼": 906,
      "幽": 907,
      "广": 908,
      "庄": 909,
      "庆": 910,
      "庇": 911,
      "床": 912,
      "序": 913,
      "库": 914,
      "应": 915,
      "底": 916,
      "店": 917,
      "庙": 918,
      "府": 919,
      "庞": 920,
      "废": 921,
      "度": 922,
      "座": 923,
      "庭": 924,
      "康": 925,
      "廉": 926,
      "廊": 927,
      "廓": 928,
      "延": 929,
      "廷": 930,
      "建": 931,
      "开": 932,
      "异": 933,
      "弃": 934,
      "弄": 935,
      "式": 936,
      "弑": 937,
      "弓": 938,
      "引": 939,
      "弗": 940,
      "弛": 941,
      "弟": 942,
      "张": 943,
      "弥": 944,
      "弦": 945,
      "弯": 946,
      "弱": 947,
      "弹": 948,
      "强": 949,
      "归": 950,
      "当": 951,
      "录": 952,
      "形": 953,
      "彩": 954,
      "彰": 955,
      "影": 956,
      "役": 957,
      "彻": 958,
      "彼": 959,
      "往": 960,
      "征": 961,
      "径": 962,
      "待": 963,
      "徇": 964,
      "很": 965,
      "徉": 966,
      "徊": 967,
      "律": 968,
      "徐": 969,
      "徒": 970,
      "得": 971,
      "徘": 972,
      "徙": 973,
      "徜": 974,
      "御": 975,
      "循": 976,
      "微": 977,
      "德": 978,
      "心": 979,
      "必": 980,
      "忆": 981,
      "忌": 982,
      "忍": 983,
      "志": 984,
      "忘": 985,
      "忙": 986,
      "忠": 987,
      "忡": 988,
      "忤": 989,
      "忧": 990,
      "快": 991,
      "念": 992,
      "忽": 993,
      "怀": 994,
      "态": 995,
      "怂": 996,
      "怎": 997,
      "怒": 998,
      "怕": 999,
      "怖": 1000,
      "怜": 1001,
      "思": 1002,
      "怠": 1003,
      "急": 1004,
      "性": 1005,
      "怨": 1006,
      "怪": 1007,
      "怯": 1008,
      "总": 1009,
      "恋": 1010,
      "恐": 1011,
      "恒": 1012,
      "恕": 1013,
      "恙": 1014,
      "恢": 1015,
      "恤": 1016,
      "恨": 1017,
      "恩": 1018,
      "恭": 1019,
      "息": 1020,
      "恰": 1021,
      "恳": 1022,
      "恶": 1023,
      "恸": 1024,
      "恼": 1025,
      "恿": 1026,
      "悄": 1027,
      "悉": 1028,
      "悍": 1029,
      "悔": 1030,
      "悖": 1031,
      "悟": 1032,
      "悠": 1033,
      "患": 1034,
      "悦": 1035,
      "您": 1036,
      "悬": 1037,
      "悯": 1038,
      "悲": 1039,
      "悴": 1040,
      "悼": 1041,
      "情": 1042,
      "惊": 1043,
      "惑": 1044,
      "惕": 1045,
      "惜": 1046,
      "惠": 1047,
      "惧": 1048,
      "惨": 1049,
      "惩": 1050,
      "惫": 1051,
      "惬": 1052,
      "惭": 1053,
      "惮": 1054,
      "惯": 1055,
      "惰": 1056,
      "想": 1057,
      "惶": 1058,
      "惹": 1059,
      "愁": 1060,
      "愆": 1061,
      "愈": 1062,
      "愉": 1063,
      "意": 1064,
      "愕": 1065,
      "愚": 1066,
      "感": 1067,
      "愤": 1068,
      "愧": 1069,
      "愿": 1070,
      "慈": 1071,
      "慌": 1072,
      "慎": 1073,
      "慕": 1074,
      "慢": 1075,
      "慧": 1076,
      "慨": 1077,
      "慰": 1078,
      "慷": 1079,
      "憎": 1080,
      "憔": 1081,
      "懂": 1082,
      "懈": 1083,
      "懊": 1084,
      "懒": 1085,
      "戈": 1086,
      "戏": 1087,
      "成": 1088,
      "我": 1089,
      "戒": 1090,
      "或": 1091,
      "战": 1092,
      "戚": 1093,
      "截": 1094,
      "戮": 1095,
      "戴": 1096,
      "户": 1097,
      "房": 1098,
      "所": 1099,
      "扁": 1100,
      "扇": 1101,
      "手": 1102,
      "才": 1103,
      "扎": 1104,
      "扑": 1105,
      "打": 1106,
      "扔": 1107,
      "托": 1108,
      "扛": 1109,
      "扣": 1110,
      "执": 1111,
      "扩": 1112,
      "扪": 1113,
      "扫": 1114,
      "扬": 1115,
      "扭": 1116,
      "扮": 1117,
      "扯": 1118,
      "扰": 1119,
      "扶": 1120,
      "批": 1121,
      "找": 1122,
      "承": 1123,
      "技": 1124,
      "抄": 1125,
      "抉": 1126,
      "把": 1127,
      "抑": 1128,
      "抓": 1129,
      "投": 1130,
      "抖": 1131,
      "抗": 1132,
      "折": 1133,
      "抚": 1134,
      "抛": 1135,
      "抟": 1136,
      "抡": 1137,
      "抢": 1138,
      "护": 1139,
      "报": 1140,
      "披": 1141,
      "抬": 1142,
      "抱": 1143,
      "抵": 1144,
      "抹": 1145,
      "押": 1146,
      "抽": 1147,
      "抿": 1148,
      "拃": 1149,
      "拄": 1150,
      "担": 1151,
      "拆": 1152,
      "拇": 1153,
      "拉": 1154,
      "拌": 1155,
      "拍": 1156,
      "拐": 1157,
      "拒": 1158,
      "拓": 1159,
      "拔": 1160,
      "拖": 1161,
      "拘": 1162,
      "拙": 1163,
      "招": 1164,
      "拜": 1165,
      "拢": 1166,
      "拣": 1167,
      "拥": 1168,
      "拦": 1169,
      "拧": 1170,
      "拨": 1171,
      "择": 1172,
      "括": 1173,
      "拯": 1174,
      "拳": 1175,
      "拴": 1176,
      "拷": 1177,
      "拼": 1178,
      "拽": 1179,
      "拾": 1180,
      "拿": 1181,
      "持": 1182,
      "挂": 1183,
      "指": 1184,
      "按": 1185,
      "挑": 1186,
      "挖": 1187,
      "挠": 1188,
      "挡": 1189,
      "挣": 1190,
      "挤": 1191,
      "挥": 1192,
      "挨": 1193,
      "挪": 1194,
      "挫": 1195,
      "振": 1196,
      "挺": 1197,
      "挽": 1198,
      "捂": 1199,
      "捆": 1200,
      "捉": 1201,
      "捏": 1202,
      "捐": 1203,
      "捕": 1204,
      "捞": 1205,
      "损": 1206,
      "捡": 1207,
      "换": 1208,
      "捣": 1209,
      "捧": 1210,
      "据": 1211,
      "捶": 1212,
      "捷": 1213,
      "捺": 1214,
      "捻": 1215,
      "掀": 1216,
      "授": 1217,
      "掉": 1218,
      "掌": 1219,
      "掏": 1220,
      "掐": 1221,
      "排": 1222,
      "掘": 1223,
      "掠": 1224,
      "探": 1225,
      "接": 1226,
      "控": 1227,
      "推": 1228,
      "掩": 1229,
      "措": 1230,
      "掰": 1231,
      "掳": 1232,
      "掷": 1233,
      "掺": 1234,
      "揉": 1235,
      "描": 1236,
      "提": 1237,
      "插": 1238,
      "握": 1239,
      "揪": 1240,
      "揭": 1241,
      "揲": 1242,
      "援": 1243,
      "搀": 1244,
      "搁": 1245,
      "搂": 1246,
      "搅": 1247,
      "搏": 1248,
      "搓": 1249,
      "搜": 1250,
      "搡": 1251,
      "搧": 1252,
      "搬": 1253,
      "搭": 1254,
      "摆": 1255,
      "摇": 1256,
      "摊": 1257,
      "摔": 1258,
      "摘": 1259,
      "摧": 1260,
      "摩": 1261,
      "摸": 1262,
      "撇": 1263,
      "撑": 1264,
      "撒": 1265,
      "撕": 1266,
      "撞": 1267,
      "撤": 1268,
      "撬": 1269,
      "播": 1270,
      "撼": 1271,
      "擅": 1272,
      "操": 1273,
      "擛": 1274,
      "擦": 1275,
      "攥": 1276,
      "支": 1277,
      "收": 1278,
      "改": 1279,
      "攻": 1280,
      "放": 1281,
      "政": 1282,
      "故": 1283,
      "效": 1284,
      "敌": 1285,
      "敏": 1286,
      "救": 1287,
      "教": 1288,
      "敛": 1289,
      "敝": 1290,
      "敞": 1291,
      "敢": 1292,
      "散": 1293,
      "敦": 1294,
      "敬": 1295,
      "数": 1296,
      "敲": 1297,
      "整": 1298,
      "敷": 1299,
      "文": 1300,
      "斐": 1301,
      "斑": 1302,
      "斓": 1303,
      "斗": 1304,
      "料": 1305,
      "斜": 1306,
      "斤": 1307,
      "斥": 1308,
      "斧": 1309,
      "斩": 1310,
      "断": 1311,
      "斯": 1312,
      "新": 1313,
      "方": 1314,
      "施": 1315,
      "旁": 1316,
      "旅": 1317,
      "旋": 1318,
      "旌": 1319,
      "族": 1320,
      "旗": 1321,
      "无": 1322,
      "既": 1323,
      "日": 1324,
      "旦": 1325,
      "旧": 1326,
      "旨": 1327,
      "早": 1328,
      "旬": 1329,
      "旱": 1330,
      "时": 1331,
      "旷": 1332,
      "旺": 1333,
      "昂": 1334,
      "昆": 1335,
      "昌": 1336,
      "明": 1337,
      "昏": 1338,
      "易": 1339,
      "昔": 1340,
      "星": 1341,
      "映": 1342,
      "春": 1343,
      "昧": 1344,
      "昨": 1345,
      "昭": 1346,
      "是": 1347,
      "昴": 1348,
      "昼": 1349,
      "显": 1350,
      "晃": 1351,
      "晒": 1352,
      "晓": 1353,
      "晕": 1354,
      "晖": 1355,
      "晚": 1356,
      "晨": 1357,
      "普": 1358,
      "景": 1359,
      "晴": 1360,
      "晶": 1361,
      "晷": 1362,
      "智": 1363,
      "暂": 1364,
      "暑": 1365,
      "暖": 1366,
      "暗": 1367,
      "暮": 1368,
      "暴": 1369,
      "曙": 1370,
      "曲": 1371,
      "更": 1372,
      "曼": 1373,
      "曾": 1374,
      "替": 1375,
      "最": 1376,
      "月": 1377,
      "有": 1378,
      "朋": 1379,
      "服": 1380,
      "朔": 1381,
      "朗": 1382,
      "望": 1383,
      "朝": 1384,
      "期": 1385,
      "木": 1386,
      "未": 1387,
      "末": 1388,
      "本": 1389,
      "术": 1390,
      "朱": 1391,
      "朴": 1392,
      "朵": 1393,
      "机": 1394,
      "朽": 1395,
      "杀": 1396,
      "杂": 1397,
      "权": 1398,
      "杆": 1399,
      "杈": 1400,
      "杉": 1401,
      "李": 1402,
      "杏": 1403,
      "材": 1404,
      "村": 1405,
      "杖": 1406,
      "杜": 1407,
      "束": 1408,
      "杠": 1409,
      "条": 1410,
      "来": 1411,
      "杨": 1412,
      "杯": 1413,
      "杰": 1414,
      "杵": 1415,
      "松": 1416,
      "板": 1417,
      "极": 1418,
      "构": 1419,
      "枉": 1420,
      "枕": 1421,
      "林": 1422,
      "果": 1423,
      "枝": 1424,
      "枣": 1425,
      "枪": 1426,
      "枫": 1427,
      "枯": 1428,
      "架": 1429,
      "枷": 1430,
      "柄": 1431,
      "柏": 1432,
      "某": 1433,
      "染": 1434,
      "柔": 1435,
      "柜": 1436,
      "查": 1437,
      "柯": 1438,
      "柱": 1439,
      "柳": 1440,
      "柴": 1441,
      "柽": 1442,
      "标": 1443,
      "栋": 1444,
      "栏": 1445,
      "树": 1446,
      "栖": 1447,
      "栗": 1448,
      "株": 1449,
      "样": 1450,
      "核": 1451,
      "根": 1452,
      "格": 1453,
      "栽": 1454,
      "桂": 1455,
      "桃": 1456,
      "桅": 1457,
      "框": 1458,
      "案": 1459,
      "桌": 1460,
      "桐": 1461,
      "桑": 1462,
      "档": 1463,
      "桨": 1464,
      "桩": 1465,
      "桶": 1466,
      "梁": 1467,
      "梅": 1468,
      "梗": 1469,
      "梢": 1470,
      "梦": 1471,
      "梭": 1472,
      "梯": 1473,
      "械": 1474,
      "梳": 1475,
      "检": 1476,
      "棍": 1477,
      "棒": 1478,
      "棕": 1479,
      "棘": 1480,
      "棚": 1481,
      "森": 1482,
      "棱": 1483,
      "棵": 1484,
      "棺": 1485,
      "椅": 1486,
      "植": 1487,
      "椽": 1488,
      "楚": 1489,
      "楠": 1490,
      "楣": 1491,
      "楼": 1492,
      "概": 1493,
      "榄": 1494,
      "榈": 1495,
      "榜": 1496,
      "榨": 1497,
      "榫": 1498,
      "榴": 1499,
      "榻": 1500,
      "槁": 1501,
      "槛": 1502,
      "槽": 1503,
      "模": 1504,
      "横": 1505,
      "橄": 1506,
      "橛": 1507,
      "橡": 1508,
      "檀": 1509,
      "檐": 1510,
      "檩": 1511,
      "欠": 1512,
      "次": 1513,
      "欢": 1514,
      "欣": 1515,
      "欧": 1516,
      "欲": 1517,
      "欺": 1518,
      "款": 1519,
      "歇": 1520,
      "歉": 1521,
      "歌": 1522,
      "止": 1523,
      "正": 1524,
      "此": 1525,
      "步": 1526,
      "武": 1527,
      "歧": 1528,
      "歪": 1529,
      "歹": 1530,
      "死": 1531,
      "殃": 1532,
      "殊": 1533,
      "残": 1534,
      "殓": 1535,
      "殖": 1536,
      "殴": 1537,
      "段": 1538,
      "殷": 1539,
      "殿": 1540,
      "毁": 1541,
      "毂": 1542,
      "毅": 1543,
      "母": 1544,
      "每": 1545,
      "毒": 1546,
      "比": 1547,
      "毕": 1548,
      "毗": 1549,
      "毙": 1550,
      "毛": 1551,
      "毫": 1552,
      "毯": 1553,
      "民": 1554,
      "氓": 1555,
      "气": 1556,
      "水": 1557,
      "永": 1558,
      "汁": 1559,
      "求": 1560,
      "汇": 1561,
      "汉": 1562,
      "汊": 1563,
      "汗": 1564,
      "汛": 1565,
      "江": 1566,
      "池": 1567,
      "污": 1568,
      "汤": 1569,
      "汪": 1570,
      "汲": 1571,
      "汹": 1572,
      "沃": 1573,
      "沉": 1574,
      "沌": 1575,
      "沙": 1576,
      "沛": 1577,
      "沟": 1578,
      "没": 1579,
      "沥": 1580,
      "沦": 1581,
      "沫": 1582,
      "沮": 1583,
      "河": 1584,
      "沸": 1585,
      "油": 1586,
      "治": 1587,
      "沼": 1588,
      "沾": 1589,
      "沿": 1590,
      "泄": 1591,
      "泉": 1592,
      "泊": 1593,
      "法": 1594,
      "泛": 1595,
      "泞": 1596,
      "泡": 1597,
      "波": 1598,
      "泣": 1599,
      "泥": 1600,
      "注": 1601,
      "泪": 1602,
      "泯": 1603,
      "泰": 1604,
      "泳": 1605,
      "泻": 1606,
      "泼": 1607,
      "泽": 1608,
      "洁": 1609,
      "洋": 1610,
      "洒": 1611,
      "洗": 1612,
      "洛": 1613,
      "洞": 1614,
      "津": 1615,
      "洪": 1616,
      "洲": 1617,
      "活": 1618,
      "洼": 1619,
      "派": 1620,
      "流": 1621,
      "浅": 1622,
      "浆": 1623,
      "浇": 1624,
      "浊": 1625,
      "测": 1626,
      "济": 1627,
      "浑": 1628,
      "浓": 1629,
      "浦": 1630,
      "浩": 1631,
      "浪": 1632,
      "浮": 1633,
      "海": 1634,
      "浸": 1635,
      "涂": 1636,
      "消": 1637,
      "涉": 1638,
      "涌": 1639,
      "涎": 1640,
      "涕": 1641,
      "涛": 1642,
      "涤": 1643,
      "润": 1644,
      "涨": 1645,
      "涩": 1646,
      "涯": 1647,
      "液": 1648,
      "涸": 1649,
      "淌": 1650,
      "淑": 1651,
      "淡": 1652,
      "淤": 1653,
      "淫": 1654,
      "深": 1655,
      "混": 1656,
      "淹": 1657,
      "添": 1658,
      "清": 1659,
      "渊": 1660,
      "渍": 1661,
      "渎": 1662,
      "渐": 1663,
      "渔": 1664,
      "渗": 1665,
      "渠": 1666,
      "渡": 1667,
      "渣": 1668,
      "温": 1669,
      "港": 1670,
      "渴": 1671,
      "游": 1672,
      "湃": 1673,
      "湍": 1674,
      "湎": 1675,
      "湖": 1676,
      "湾": 1677,
      "湿": 1678,
      "溃": 1679,
      "溅": 1680,
      "溉": 1681,
      "源": 1682,
      "溜": 1683,
      "溢": 1684,
      "溪": 1685,
      "溺": 1686,
      "滋": 1687,
      "滑": 1688,
      "滓": 1689,
      "滔": 1690,
      "滚": 1691,
      "滞": 1692,
      "满": 1693,
      "滤": 1694,
      "滥": 1695,
      "滩": 1696,
      "滴": 1697,
      "漂": 1698,
      "漆": 1699,
      "漏": 1700,
      "演": 1701,
      "漠": 1702,
      "漫": 1703,
      "潘": 1704,
      "潜": 1705,
      "潮": 1706,
      "澄": 1707,
      "澈": 1708,
      "澎": 1709,
      "澡": 1710,
      "激": 1711,
      "濯": 1712,
      "瀑": 1713,
      "灌": 1714,
      "火": 1715,
      "灭": 1716,
      "灯": 1717,
      "灰": 1718,
      "灵": 1719,
      "灶": 1720,
      "灼": 1721,
      "灾": 1722,
      "灿": 1723,
      "炉": 1724,
      "炎": 1725,
      "炒": 1726,
      "炙": 1727,
      "炫": 1728,
      "炭": 1729,
      "点": 1730,
      "炼": 1731,
      "炽": 1732,
      "烁": 1733,
      "烂": 1734,
      "烈": 1735,
      "烘": 1736,
      "烙": 1737,
      "烟": 1738,
      "烤": 1739,
      "烦": 1740,
      "烧": 1741,
      "烫": 1742,
      "烬": 1743,
      "热": 1744,
      "烽": 1745,
      "焊": 1746,
      "焕": 1747,
      "焙": 1748,
      "焚": 1749,
      "焦": 1750,
      "焰": 1751,
      "然": 1752,
      "煌": 1753,
      "煎": 1754,
      "煞": 1755,
      "煤": 1756,
      "照": 1757,
      "煮": 1758,
      "煽": 1759,
      "熄": 1760,
      "熊": 1761,
      "熏": 1762,
      "熔": 1763,
      "熟": 1764,
      "熠": 1765,
      "熬": 1766,
      "燃": 1767,
      "燔": 1768,
      "燕": 1769,
      "燥": 1770,
      "燧": 1771,
      "爆": 1772,
      "爪": 1773,
      "爬": 1774,
      "爱": 1775,
      "父": 1776,
      "爸": 1777,
      "爽": 1778,
      "片": 1779,
      "版": 1780,
      "牌": 1781,
      "牙": 1782,
      "牛": 1783,
      "牝": 1784,
      "牢": 1785,
      "牧": 1786,
      "物": 1787,
      "牲": 1788,
      "牵": 1789,
      "特": 1790,
      "牺": 1791,
      "犁": 1792,
      "犄": 1793,
      "犊": 1794,
      "犬": 1795,
      "犯": 1796,
      "状": 1797,
      "犹": 1798,
      "狂": 1799,
      "狄": 1800,
      "狈": 1801,
      "狍": 1802,
      "狐": 1803,
      "狗": 1804,
      "狠": 1805,
      "狡": 1806,
      "独": 1807,
      "狭": 1808,
      "狮": 1809,
      "狱": 1810,
      "狸": 1811,
      "狼": 1812,
      "猎": 1813,
      "猛": 1814,
      "猜": 1815,
      "猪": 1816,
      "猫": 1817,
      "献": 1818,
      "猴": 1819,
      "猾": 1820,
      "猿": 1821,
      "獠": 1822,
      "玄": 1823,
      "率": 1824,
      "玉": 1825,
      "王": 1826,
      "玛": 1827,
      "玩": 1828,
      "玫": 1829,
      "环": 1830,
      "现": 1831,
      "玷": 1832,
      "玺": 1833,
      "玻": 1834,
      "珀": 1835,
      "珉": 1836,
      "珊": 1837,
      "珍": 1838,
      "珠": 1839,
      "珥": 1840,
      "班": 1841,
      "球": 1842,
      "琅": 1843,
      "理": 1844,
      "琉": 1845,
      "琐": 1846,
      "琢": 1847,
      "琥": 1848,
      "琳": 1849,
      "琴": 1850,
      "琶": 1851,
      "瑕": 1852,
      "瑙": 1853,
      "瑚": 1854,
      "瑞": 1855,
      "瑟": 1856,
      "瑰": 1857,
      "瑾": 1858,
      "璃": 1859,
      "璧": 1860,
      "瓜": 1861,
      "瓣": 1862,
      "瓦": 1863,
      "瓶": 1864,
      "甘": 1865,
      "甚": 1866,
      "甜": 1867,
      "生": 1868,
      "甥": 1869,
      "用": 1870,
      "甩": 1871,
      "田": 1872,
      "由": 1873,
      "甲": 1874,
      "申": 1875,
      "电": 1876,
      "男": 1877,
      "甸": 1878,
      "画": 1879,
      "畅": 1880,
      "界": 1881,
      "畏": 1882,
      "畔": 1883,
      "留": 1884,
      "畜": 1885,
      "略": 1886,
      "畦": 1887,
      "番": 1888,
      "畸": 1889,
      "疆": 1890,
      "疏": 1891,
      "疑": 1892,
      "疗": 1893,
      "疚": 1894,
      "疤": 1895,
      "疥": 1896,
      "疫": 1897,
      "疮": 1898,
      "疯": 1899,
      "疲": 1900,
      "疵": 1901,
      "疹": 1902,
      "疼": 1903,
      "疾": 1904,
      "病": 1905,
      "症": 1906,
      "痊": 1907,
      "痒": 1908,
      "痕": 1909,
      "痛": 1910,
      "痢": 1911,
      "痨": 1912,
      "痪": 1913,
      "痫": 1914,
      "瘀": 1915,
      "瘟": 1916,
      "瘠": 1917,
      "瘤": 1918,
      "瘦": 1919,
      "瘪": 1920,
      "瘫": 1921,
      "瘸": 1922,
      "癞": 1923,
      "癣": 1924,
      "癫": 1925,
      "登": 1926,
      "白": 1927,
      "百": 1928,
      "皂": 1929,
      "的": 1930,
      "皇": 1931,
      "皎": 1932,
      "皮": 1933,
      "皱": 1934,
      "皿": 1935,
      "盆": 1936,
      "盈": 1937,
      "益": 1938,
      "盏": 1939,
      "盐": 1940,
      "监": 1941,
      "盒": 1942,
      "盔": 1943,
      "盖": 1944,
      "盗": 1945,
      "盘": 1946,
      "盛": 1947,
      "盟": 1948,
      "目": 1949,
      "盯": 1950,
      "盲": 1951,
      "直": 1952,
      "相": 1953,
      "盹": 1954,
      "盼": 1955,
      "盾": 1956,
      "省": 1957,
      "眉": 1958,
      "看": 1959,
      "真": 1960,
      "眠": 1961,
      "眨": 1962,
      "眯": 1963,
      "眷": 1964,
      "眸": 1965,
      "眼": 1966,
      "着": 1967,
      "睁": 1968,
      "睚": 1969,
      "睛": 1970,
      "睡": 1971,
      "督": 1972,
      "睦": 1973,
      "睬": 1974,
      "睹": 1975,
      "睾": 1976,
      "瞄": 1977,
      "瞎": 1978,
      "瞒": 1979,
      "瞥": 1980,
      "瞩": 1981,
      "瞪": 1982,
      "瞬": 1983,
      "瞳": 1984,
      "矛": 1985,
      "矢": 1986,
      "知": 1987,
      "矩": 1988,
      "矫": 1989,
      "短": 1990,
      "矮": 1991,
      "石": 1992,
      "矶": 1993,
      "矿": 1994,
      "码": 1995,
      "砌": 1996,
      "砍": 1997,
      "研": 1998,
      "砖": 1999,
      "砝": 2000,
      "砣": 2001,
      "砧": 2002,
      "破": 2003,
      "砸": 2004,
      "砺": 2005,
      "础": 2006,
      "硕": 2007,
      "硝": 2008,
      "硫": 2009,
      "硬": 2010,
      "确": 2011,
      "碌": 2012,
      "碍": 2013,
      "碎": 2014,
      "碑": 2015,
      "碗": 2016,
      "碟": 2017,
      "碧": 2018,
      "碰": 2019,
      "碱": 2020,
      "碾": 2021,
      "磐": 2022,
      "磙": 2023,
      "磨": 2024,
      "磴": 2025,
      "磺": 2026,
      "礁": 2027,
      "示": 2028,
      "礼": 2029,
      "祀": 2030,
      "祈": 2031,
      "祖": 2032,
      "祝": 2033,
      "神": 2034,
      "票": 2035,
      "祭": 2036,
      "祷": 2037,
      "祸": 2038,
      "禀": 2039,
      "禁": 2040,
      "禄": 2041,
      "福": 2042,
      "禧": 2043,
      "离": 2044,
      "禽": 2045,
      "禾": 2046,
      "秀": 2047,
      "私": 2048,
      "秃": 2049,
      "秆": 2050,
      "秉": 2051,
      "秋": 2052,
      "种": 2053,
      "科": 2054,
      "秕": 2055,
      "秘": 2056,
      "租": 2057,
      "秤": 2058,
      "秧": 2059,
      "秩": 2060,
      "积": 2061,
      "称": 2062,
      "秸": 2063,
      "移": 2064,
      "秽": 2065,
      "稀": 2066,
      "程": 2067,
      "稍": 2068,
      "税": 2069,
      "稗": 2070,
      "稣": 2071,
      "稳": 2072,
      "稻": 2073,
      "稼": 2074,
      "穆": 2075,
      "穑": 2076,
      "穗": 2077,
      "穴": 2078,
      "究": 2079,
      "穷": 2080,
      "穹": 2081,
      "空": 2082,
      "穿": 2083,
      "突": 2084,
      "窃": 2085,
      "窄": 2086,
      "窍": 2087,
      "窑": 2088,
      "窒": 2089,
      "窖": 2090,
      "窗": 2091,
      "窘": 2092,
      "窜": 2093,
      "窝": 2094,
      "窥": 2095,
      "立": 2096,
      "竖": 2097,
      "站": 2098,
      "竞": 2099,
      "竟": 2100,
      "章": 2101,
      "童": 2102,
      "竭": 2103,
      "端": 2104,
      "竿": 2105,
      "笆": 2106,
      "笑": 2107,
      "笔": 2108,
      "笛": 2109,
      "符": 2110,
      "笨": 2111,
      "第": 2112,
      "笼": 2113,
      "等": 2114,
      "筋": 2115,
      "筏": 2116,
      "筐": 2117,
      "筑": 2118,
      "筒": 2119,
      "答": 2120,
      "策": 2121,
      "筛": 2122,
      "筵": 2123,
      "筹": 2124,
      "签": 2125,
      "简": 2126,
      "箍": 2127,
      "箕": 2128,
      "算": 2129,
      "管": 2130,
      "箭": 2131,
      "箱": 2132,
      "箴": 2133,
      "篇": 2134,
      "篝": 2135,
      "篡": 2136,
      "篮": 2137,
      "篱": 2138,
      "篷": 2139,
      "簸": 2140,
      "籍": 2141,
      "米": 2142,
      "类": 2143,
      "籽": 2144,
      "粉": 2145,
      "粒": 2146,
      "粗": 2147,
      "粘": 2148,
      "粟": 2149,
      "粪": 2150,
      "粮": 2151,
      "精": 2152,
      "糊": 2153,
      "糟": 2154,
      "糠": 2155,
      "系": 2156,
      "素": 2157,
      "索": 2158,
      "紧": 2159,
      "紫": 2160,
      "累": 2161,
      "絮": 2162,
      "繁": 2163,
      "纠": 2164,
      "红": 2165,
      "纣": 2166,
      "约": 2167,
      "级": 2168,
      "纪": 2169,
      "纬": 2170,
      "纯": 2171,
      "纱": 2172,
      "纳": 2173,
      "纵": 2174,
      "纷": 2175,
      "纸": 2176,
      "纹": 2177,
      "纺": 2178,
      "线": 2179,
      "练": 2180,
      "组": 2181,
      "细": 2182,
      "织": 2183,
      "终": 2184,
      "绊": 2185,
      "经": 2186,
      "绑": 2187,
      "结": 2188,
      "绕": 2189,
      "绘": 2190,
      "给": 2191,
      "络": 2192,
      "绝": 2193,
      "绞": 2194,
      "统": 2195,
      "绣": 2196,
      "继": 2197,
      "绩": 2198,
      "绪": 2199,
      "续": 2200,
      "绳": 2201,
      "维": 2202,
      "绵": 2203,
      "绷": 2204,
      "绸": 2205,
      "绺": 2206,
      "绽": 2207,
      "绿": 2208,
      "缀": 2209,
      "缄": 2210,
      "缅": 2211,
      "缆": 2212,
      "缎": 2213,
      "缒": 2214,
      "缓": 2215,
      "缔": 2216,
      "编": 2217,
      "缘": 2218,
      "缚": 2219,
      "缝": 2220,
      "缠": 2221,
      "缤": 2222,
      "缦": 2223,
      "缨": 2224,
      "缩": 2225,
      "缮": 2226,
      "缸": 2227,
      "缺": 2228,
      "罐": 2229,
      "网": 2230,
      "罕": 2231,
      "罗": 2232,
      "罚": 2233,
      "罢": 2234,
      "罩": 2235,
      "罪": 2236,
      "置": 2237,
      "署": 2238,
      "羊": 2239,
      "美": 2240,
      "羔": 2241,
      "羚": 2242,
      "羞": 2243,
      "羡": 2244,
      "群": 2245,
      "羱": 2246,
      "羽": 2247,
      "翁": 2248,
      "翅": 2249,
      "翎": 2250,
      "翔": 2251,
      "翠": 2252,
      "翡": 2253,
      "翰": 2254,
      "翱": 2255,
      "翻": 2256,
      "翼": 2257,
      "耀": 2258,
      "老": 2259,
      "考": 2260,
      "者": 2261,
      "而": 2262,
      "耍": 2263,
      "耐": 2264,
      "耕": 2265,
      "耗": 2266,
      "耘": 2267,
      "耙": 2268,
      "耳": 2269,
      "耶": 2270,
      "耸": 2271,
      "耻": 2272,
      "耽": 2273,
      "聂": 2274,
      "聆": 2275,
      "聋": 2276,
      "职": 2277,
      "联": 2278,
      "聘": 2279,
      "聚": 2280,
      "聪": 2281,
      "肃": 2282,
      "肆": 2283,
      "肉": 2284,
      "肋": 2285,
      "肌": 2286,
      "肘": 2287,
      "肚": 2288,
      "肝": 2289,
      "肠": 2290,
      "股": 2291,
      "肢": 2292,
      "肤": 2293,
      "肥": 2294,
      "肩": 2295,
      "肪": 2296,
      "肮": 2297,
      "肯": 2298,
      "育": 2299,
      "肺": 2300,
      "肾": 2301,
      "肿": 2302,
      "胀": 2303,
      "胁": 2304,
      "胃": 2305,
      "胆": 2306,
      "背": 2307,
      "胎": 2308,
      "胖": 2309,
      "胛": 2310,
      "胜": 2311,
      "胞": 2312,
      "胡": 2313,
      "胫": 2314,
      "胯": 2315,
      "胳": 2316,
      "胶": 2317,
      "胸": 2318,
      "能": 2319,
      "脂": 2320,
      "脆": 2321,
      "脊": 2322,
      "脏": 2323,
      "脐": 2324,
      "脑": 2325,
      "脓": 2326,
      "脖": 2327,
      "脚": 2328,
      "脱": 2329,
      "脸": 2330,
      "腊": 2331,
      "腋": 2332,
      "腌": 2333,
      "腐": 2334,
      "腑": 2335,
      "腓": 2336,
      "腔": 2337,
      "腕": 2338,
      "腮": 2339,
      "腰": 2340,
      "腱": 2341,
      "腹": 2342,
      "腻": 2343,
      "腾": 2344,
      "腿": 2345,
      "膀": 2346,
      "膊": 2347,
      "膏": 2348,
      "膛": 2349,
      "膜": 2350,
      "膝": 2351,
      "膨": 2352,
      "膳": 2353,
      "膺": 2354,
      "臀": 2355,
      "臂": 2356,
      "臣": 2357,
      "自": 2358,
      "臭": 2359,
      "至": 2360,
      "致": 2361,
      "臼": 2362,
      "舀": 2363,
      "舅": 2364,
      "舌": 2365,
      "舍": 2366,
      "舒": 2367,
      "舔": 2368,
      "舞": 2369,
      "舟": 2370,
      "航": 2371,
      "般": 2372,
      "舰": 2373,
      "舱": 2374,
      "舵": 2375,
      "船": 2376,
      "艇": 2377,
      "艘": 2378,
      "良": 2379,
      "艰": 2380,
      "色": 2381,
      "艳": 2382,
      "艺": 2383,
      "艾": 2384,
      "节": 2385,
      "芒": 2386,
      "芜": 2387,
      "芥": 2388,
      "芦": 2389,
      "芫": 2390,
      "芬": 2391,
      "芭": 2392,
      "芯": 2393,
      "花": 2394,
      "芳": 2395,
      "芸": 2396,
      "芹": 2397,
      "芽": 2398,
      "苇": 2399,
      "苍": 2400,
      "苏": 2401,
      "苗": 2402,
      "苛": 2403,
      "苞": 2404,
      "若": 2405,
      "苦": 2406,
      "英": 2407,
      "苹": 2408,
      "茁": 2409,
      "茂": 2410,
      "范": 2411,
      "茄": 2412,
      "茅": 2413,
      "茉": 2414,
      "茎": 2415,
      "茜": 2416,
      "茨": 2417,
      "茫": 2418,
      "茬": 2419,
      "茴": 2420,
      "茹": 2421,
      "荆": 2422,
      "草": 2423,
      "荐": 2424,
      "荒": 2425,
      "荚": 2426,
      "荡": 2427,
      "荣": 2428,
      "荫": 2429,
      "药": 2430,
      "荷": 2431,
      "荻": 2432,
      "荽": 2433,
      "莉": 2434,
      "莎": 2435,
      "莫": 2436,
      "莱": 2437,
      "莲": 2438,
      "莳": 2439,
      "获": 2440,
      "莽": 2441,
      "菌": 2442,
      "菖": 2443,
      "菜": 2444,
      "菲": 2445,
      "萃": 2446,
      "萄": 2447,
      "萌": 2448,
      "萍": 2449,
      "萎": 2450,
      "萝": 2451,
      "营": 2452,
      "萨": 2453,
      "萼": 2454,
      "落": 2455,
      "著": 2456,
      "葡": 2457,
      "葬": 2458,
      "葱": 2459,
      "蒂": 2460,
      "蒙": 2461,
      "蒜": 2462,
      "蒲": 2463,
      "蒸": 2464,
      "蒺": 2465,
      "蓄": 2466,
      "蓖": 2467,
      "蓝": 2468,
      "蔑": 2469,
      "蔓": 2470,
      "蔬": 2471,
      "蔽": 2472,
      "蕴": 2473,
      "蕾": 2474,
      "薄": 2475,
      "薛": 2476,
      "薰": 2477,
      "藉": 2478,
      "藏": 2479,
      "藐": 2480,
      "藜": 2481,
      "藤": 2482,
      "蘸": 2483,
      "虎": 2484,
      "虏": 2485,
      "虐": 2486,
      "虑": 2487,
      "虔": 2488,
      "虚": 2489,
      "虫": 2490,
      "虹": 2491,
      "虺": 2492,
      "虻": 2493,
      "虽": 2494,
      "蚀": 2495,
      "蚁": 2496,
      "蚂": 2497,
      "蚋": 2498,
      "蚤": 2499,
      "蚱": 2500,
      "蛀": 2501,
      "蛆": 2502,
      "蛇": 2503,
      "蛋": 2504,
      "蛙": 2505,
      "蛛": 2506,
      "蛮": 2507,
      "蜂": 2508,
      "蜒": 2509,
      "蜓": 2510,
      "蜗": 2511,
      "蜘": 2512,
      "蜚": 2513,
      "蜜": 2514,
      "蜡": 2515,
      "蜢": 2516,
      "蜥": 2517,
      "蜴": 2518,
      "蜷": 2519,
      "蜿": 2520,
      "蝇": 2521,
      "蝎": 2522,
      "蝗": 2523,
      "蝘": 2524,
      "蝙": 2525,
      "蝠": 2526,
      "蝮": 2527,
      "蝰": 2528,
      "蝻": 2529,
      "融": 2530,
      "螫": 2531,
      "螺": 2532,
      "蟀": 2533,
      "蟋": 2534,
      "蟥": 2535,
      "蠓": 2536,
      "蠢": 2537,
      "蠹": 2538,
      "血": 2539,
      "衅": 2540,
      "行": 2541,
      "衍": 2542,
      "衔": 2543,
      "街": 2544,
      "衡": 2545,
      "衣": 2546,
      "补": 2547,
      "表": 2548,
      "衫": 2549,
      "衮": 2550,
      "衰": 2551,
      "衲": 2552,
      "袋": 2553,
      "袍": 2554,
      "袒": 2555,
      "袖": 2556,
      "被": 2557,
      "袭": 2558,
      "裁": 2559,
      "裂": 2560,
      "装": 2561,
      "裔": 2562,
      "裕": 2563,
      "裙": 2564,
      "裤": 2565,
      "裳": 2566,
      "裸": 2567,
      "裹": 2568,
      "褓": 2569,
      "褶": 2570,
      "襁": 2571,
      "襟": 2572,
      "西": 2573,
      "要": 2574,
      "覆": 2575,
      "见": 2576,
      "观": 2577,
      "规": 2578,
      "觅": 2579,
      "视": 2580,
      "觉": 2581,
      "觐": 2582,
      "角": 2583,
      "解": 2584,
      "触": 2585,
      "言": 2586,
      "誓": 2587,
      "警": 2588,
      "计": 2589,
      "订": 2590,
      "认": 2591,
      "讥": 2592,
      "讨": 2593,
      "让": 2594,
      "训": 2595,
      "议": 2596,
      "讯": 2597,
      "记": 2598,
      "讲": 2599,
      "讶": 2600,
      "讷": 2601,
      "许": 2602,
      "论": 2603,
      "讼": 2604,
      "讽": 2605,
      "设": 2606,
      "访": 2607,
      "诀": 2608,
      "证": 2609,
      "评": 2610,
      "诅": 2611,
      "识": 2612,
      "诈": 2613,
      "诉": 2614,
      "诋": 2615,
      "词": 2616,
      "诏": 2617,
      "译": 2618,
      "试": 2619,
      "诗": 2620,
      "诚": 2621,
      "话": 2622,
      "诞": 2623,
      "诡": 2624,
      "询": 2625,
      "该": 2626,
      "详": 2627,
      "诧": 2628,
      "诫": 2629,
      "诬": 2630,
      "语": 2631,
      "诮": 2632,
      "误": 2633,
      "诱": 2634,
      "诲": 2635,
      "说": 2636,
      "诵": 2637,
      "请": 2638,
      "诸": 2639,
      "诺": 2640,
      "读": 2641,
      "诽": 2642,
      "诿": 2643,
      "谁": 2644,
      "调": 2645,
      "谄": 2646,
      "谅": 2647,
      "谈": 2648,
      "谋": 2649,
      "谎": 2650,
      "谏": 2651,
      "谐": 2652,
      "谓": 2653,
      "谕": 2654,
      "谗": 2655,
      "谚": 2656,
      "谜": 2657,
      "谢": 2658,
      "谣": 2659,
      "谤": 2660,
      "谦": 2661,
      "谨": 2662,
      "谬": 2663,
      "谱": 2664,
      "谴": 2665,
      "谷": 2666,
      "豁": 2667,
      "豆": 2668,
      "象": 2669,
      "豪": 2670,
      "豫": 2671,
      "豹": 2672,
      "豺": 2673,
      "貌": 2674,
      "贝": 2675,
      "贞": 2676,
      "负": 2677,
      "贡": 2678,
      "财": 2679,
      "责": 2680,
      "贤": 2681,
      "败": 2682,
      "账": 2683,
      "货": 2684,
      "质": 2685,
      "贩": 2686,
      "贪": 2687,
      "贫": 2688,
      "贬": 2689,
      "购": 2690,
      "贯": 2691,
      "贱": 2692,
      "贴": 2693,
      "贵": 2694,
      "贷": 2695,
      "贸": 2696,
      "费": 2697,
      "贺": 2698,
      "贼": 2699,
      "贿": 2700,
      "赂": 2701,
      "赃": 2702,
      "资": 2703,
      "赉": 2704,
      "赋": 2705,
      "赌": 2706,
      "赎": 2707,
      "赏": 2708,
      "赐": 2709,
      "赔": 2710,
      "赖": 2711,
      "赚": 2712,
      "赛": 2713,
      "赞": 2714,
      "赠": 2715,
      "赢": 2716,
      "赤": 2717,
      "赦": 2718,
      "赫": 2719,
      "走": 2720,
      "赴": 2721,
      "赶": 2722,
      "起": 2723,
      "趁": 2724,
      "超": 2725,
      "越": 2726,
      "趟": 2727,
      "足": 2728,
      "趴": 2729,
      "趾": 2730,
      "跃": 2731,
      "跄": 2732,
      "跌": 2733,
      "跑": 2734,
      "跚": 2735,
      "距": 2736,
      "跟": 2737,
      "跤": 2738,
      "跨": 2739,
      "跪": 2740,
      "路": 2741,
      "跳": 2742,
      "践": 2743,
      "跺": 2744,
      "踉": 2745,
      "踊": 2746,
      "踏": 2747,
      "踝": 2748,
      "踞": 2749,
      "踢": 2750,
      "踩": 2751,
      "踪": 2752,
      "踹": 2753,
      "蹄": 2754,
      "蹈": 2755,
      "蹋": 2756,
      "蹒": 2757,
      "蹚": 2758,
      "蹦": 2759,
      "蹲": 2760,
      "躁": 2761,
      "身": 2762,
      "躬": 2763,
      "躯": 2764,
      "躲": 2765,
      "躺": 2766,
      "车": 2767,
      "轧": 2768,
      "轨": 2769,
      "转": 2770,
      "轭": 2771,
      "轮": 2772,
      "软": 2773,
      "轰": 2774,
      "轴": 2775,
      "轻": 2776,
      "载": 2777,
      "轿": 2778,
      "较": 2779,
      "辅": 2780,
      "辆": 2781,
      "辈": 2782,
      "辉": 2783,
      "辎": 2784,
      "辐": 2785,
      "辔": 2786,
      "辖": 2787,
      "辗": 2788,
      "辘": 2789,
      "辛": 2790,
      "辜": 2791,
      "辞": 2792,
      "辟": 2793,
      "辨": 2794,
      "辩": 2795,
      "辫": 2796,
      "辰": 2797,
      "辱": 2798,
      "边": 2799,
      "辽": 2800,
      "达": 2801,
      "迁": 2802,
      "迅": 2803,
      "过": 2804,
      "迈": 2805,
      "迎": 2806,
      "运": 2807,
      "近": 2808,
      "返": 2809,
      "还": 2810,
      "这": 2811,
      "进": 2812,
      "远": 2813,
      "违": 2814,
      "连": 2815,
      "迟": 2816,
      "迦": 2817,
      "迪": 2818,
      "迫": 2819,
      "述": 2820,
      "迷": 2821,
      "迸": 2822,
      "迹": 2823,
      "追": 2824,
      "退": 2825,
      "送": 2826,
      "适": 2827,
      "逃": 2828,
      "逆": 2829,
      "选": 2830,
      "逊": 2831,
      "透": 2832,
      "逐": 2833,
      "递": 2834,
      "途": 2835,
      "通": 2836,
      "逝": 2837,
      "逞": 2838,
      "速": 2839,
      "造": 2840,
      "逢": 2841,
      "逮": 2842,
      "逸": 2843,
      "逼": 2844,
      "逾": 2845,
      "遁": 2846,
      "遇": 2847,
      "遍": 2848,
      "道": 2849,
      "遗": 2850,
      "遣": 2851,
      "遥": 2852,
      "遭": 2853,
      "遮": 2854,
      "遵": 2855,
      "避": 2856,
      "邀": 2857,
      "邑": 2858,
      "那": 2859,
      "邦": 2860,
      "邪": 2861,
      "邻": 2862,
      "郊": 2863,
      "郎": 2864,
      "郑": 2865,
      "部": 2866,
      "都": 2867,
      "鄙": 2868,
      "酊": 2869,
      "配": 2870,
      "酒": 2871,
      "酗": 2872,
      "酝": 2873,
      "酣": 2874,
      "酩": 2875,
      "酪": 2876,
      "酬": 2877,
      "酵": 2878,
      "酷": 2879,
      "酸": 2880,
      "酿": 2881,
      "醇": 2882,
      "醉": 2883,
      "醋": 2884,
      "醒": 2885,
      "采": 2886,
      "释": 2887,
      "里": 2888,
      "重": 2889,
      "野": 2890,
      "量": 2891,
      "金": 2892,
      "釜": 2893,
      "鉴": 2894,
      "针": 2895,
      "钉": 2896,
      "钓": 2897,
      "钝": 2898,
      "钟": 2899,
      "钥": 2900,
      "钩": 2901,
      "钱": 2902,
      "钳": 2903,
      "钵": 2904,
      "钹": 2905,
      "钻": 2906,
      "铁": 2907,
      "铃": 2908,
      "铅": 2909,
      "铐": 2910,
      "铛": 2911,
      "铜": 2912,
      "铠": 2913,
      "铭": 2914,
      "铮": 2915,
      "铰": 2916,
      "铲": 2917,
      "银": 2918,
      "铸": 2919,
      "铺": 2920,
      "链": 2921,
      "销": 2922,
      "锁": 2923,
      "锄": 2924,
      "锅": 2925,
      "锆": 2926,
      "锈": 2927,
      "锋": 2928,
      "锐": 2929,
      "错": 2930,
      "锚": 2931,
      "锡": 2932,
      "锣": 2933,
      "锤": 2934,
      "锥": 2935,
      "锨": 2936,
      "锭": 2937,
      "锯": 2938,
      "镀": 2939,
      "镇": 2940,
      "镌": 2941,
      "镐": 2942,
      "镖": 2943,
      "镜": 2944,
      "镣": 2945,
      "镯": 2946,
      "镰": 2947,
      "镶": 2948,
      "长": 2949,
      "门": 2950,
      "闩": 2951,
      "闪": 2952,
      "闭": 2953,
      "问": 2954,
      "闯": 2955,
      "闲": 2956,
      "间": 2957,
      "闷": 2958,
      "闸": 2959,
      "闹": 2960,
      "闺": 2961,
      "闻": 2962,
      "阁": 2963,
      "阅": 2964,
      "阉": 2965,
      "阐": 2966,
      "阔": 2967,
      "队": 2968,
      "阱": 2969,
      "防": 2970,
      "阳": 2971,
      "阴": 2972,
      "阵": 2973,
      "阶": 2974,
      "阻": 2975,
      "阿": 2976,
      "陀": 2977,
      "附": 2978,
      "际": 2979,
      "陆": 2980,
      "陈": 2981,
      "陋": 2982,
      "陌": 2983,
      "降": 2984,
      "限": 2985,
      "陛": 2986,
      "院": 2987,
      "除": 2988,
      "险": 2989,
      "陪": 2990,
      "陵": 2991,
      "陶": 2992,
      "陷": 2993,
      "隆": 2994,
      "随": 2995,
      "隐": 2996,
      "隔": 2997,
      "隘": 2998,
      "隙": 2999,
      "障": 3000,
      "隶": 3001,
      "隼": 3002,
      "难": 3003,
      "雀": 3004,
      "雄": 3005,
      "雅": 3006,
      "集": 3007,
      "雇": 3008,
      "雌": 3009,
      "雏": 3010,
      "雕": 3011,
      "雨": 3012,
      "雪": 3013,
      "零": 3014,
      "雷": 3015,
      "雹": 3016,
      "雾": 3017,
      "需": 3018,
      "霄": 3019,
      "霆": 3020,
      "震": 3021,
      "霉": 3022,
      "霍": 3023,
      "霖": 3024,
      "霜": 3025,
      "霪": 3026,
      "露": 3027,
      "青": 3028,
      "静": 3029,
      "非": 3030,
      "靠": 3031,
      "靡": 3032,
      "面": 3033,
      "革": 3034,
      "靴": 3035,
      "靶": 3036,
      "鞋": 3037,
      "鞍": 3038,
      "鞘": 3039,
      "鞭": 3040,
      "韦": 3041,
      "韭": 3042,
      "音": 3043,
      "页": 3044,
      "顶": 3045,
      "顷": 3046,
      "项": 3047,
      "顺": 3048,
      "须": 3049,
      "顽": 3050,
      "顾": 3051,
      "顿": 3052,
      "颁": 3053,
      "颂": 3054,
      "预": 3055,
      "颅": 3056,
      "领": 3057,
      "颈": 3058,
      "颊": 3059,
      "颗": 3060,
      "题": 3061,
      "颚": 3062,
      "颜": 3063,
      "额": 3064,
      "颠": 3065,
      "颤": 3066,
      "风": 3067,
      "飓": 3068,
      "飘": 3069,
      "飞": 3070,
      "食": 3071,
      "餐": 3072,
      "饥": 3073,
      "饭": 3074,
      "饮": 3075,
      "饰": 3076,
      "饱": 3077,
      "饲": 3078,
      "饵": 3079,
      "饶": 3080,
      "饷": 3081,
      "饼": 3082,
      "饿": 3083,
      "馆": 3084,
      "馐": 3085,
      "首": 3086,
      "香": 3087,
      "馨": 3088,
      "马": 3089,
      "驭": 3090,
      "驮": 3091,
      "驯": 3092,
      "驰": 3093,
      "驱": 3094,
      "驳": 3095,
      "驴": 3096,
      "驶": 3097,
      "驹": 3098,
      "驻": 3099,
      "驼": 3100,
      "驾": 3101,
      "驿": 3102,
      "骂": 3103,
      "骄": 3104,
      "骆": 3105,
      "骇": 3106,
      "骈": 3107,
      "骋": 3108,
      "验": 3109,
      "骏": 3110,
      "骑": 3111,
      "骗": 3112,
      "骚": 3113,
      "骟": 3114,
      "骡": 3115,
      "骨": 3116,
      "骷": 3117,
      "骸": 3118,
      "髅": 3119,
      "髓": 3120,
      "高": 3121,
      "鬃": 3122,
      "鬓": 3123,
      "鬼": 3124,
      "魂": 3125,
      "魄": 3126,
      "魔": 3127,
      "鱼": 3128,
      "鲁": 3129,
      "鲜": 3130,
      "鳍": 3131,
      "鳞": 3132,
      "鸟": 3133,
      "鸠": 3134,
      "鸡": 3135,
      "鸢": 3136,
      "鸣": 3137,
      "鸥": 3138,
      "鸦": 3139,
      "鸪": 3140,
      "鸬": 3141,
      "鸮": 3142,
      "鸵": 3143,
      "鸶": 3144,
      "鸽": 3145,
      "鸿": 3146,
      "鹈": 3147,
      "鹌": 3148,
      "鹑": 3149,
      "鹕": 3150,
      "鹗": 3151,
      "鹚": 3152,
      "鹞": 3153,
      "鹤": 3154,
      "鹧": 3155,
      "鹫": 3156,
      "鹭": 3157,
      "鹰": 3158,
      "鹳": 3159,
      "鹿": 3160,
      "麦": 3161,
      "麻": 3162,
      "黄": 3163,
      "黎": 3164,
      "黑": 3165,
      "默": 3166,
      "黜": 3167,
      "黝": 3168,
      "黯": 3169,
      "鼓": 3170,
      "鼠": 3171,
      "鼹": 3172,
      "鼻": 3173,
      "齐": 3174,
      "齿": 3175,
      "龄": 3176,
      "龙": 3177,
      "龛": 3178,
      "！": 3179,
      "（": 3180,
      "）": 3181,
      "，": 3182,
      "：": 3183,
      "；": 3184,
      "？": 3185,
      "他们": 3186,
      "你们": 3187,
      "和华": 3188,
      "耶和华": 3189,
      "我们": 3190,
      "：“": 3191,
      "。”": 3192,
      "你的": 3193,
      "的人": 3194,
      "我的": 3195,
      "因为": 3196,
      "他的": 3197,
      "以色": 3198,
      "以色列": 3199,
      "自己": 3200,
      "儿子": 3201,
      "没有": 3202,
      "耶稣": 3203,
      "一个": 3204,
      "那里": 3205,
      "的儿子": 3206,
      "人的": 3207,
      "耶和华的": 3208,
      "所有": 3209,
      "一切": 3210,
      "就是": 3211,
      "他们的": 3212,
      "如果": 3213,
      "那些": 3214,
      "时候": 3215,
      "面前": 3216,
      "什么": 3217,
      "这些": 3218,
      "这样": 3219,
      "自己的": 3220,
      "知道": 3221,
      "大卫": 3222,
      "看哪": 3223,
      "我要": 3224,
      "子孙": 3225,
      "的时候": 3226,
      "你们的": 3227,
      "！”": 3228,
      "不要": 3229,
      "祭司": 3230,
      "于是": 3231,
      "犹大": 3232,
      "摩西": 3233,
      "你要": 3234,
      "——": 3235,
      "不可": 3236,
      "子民": 3237,
      "？”": 3238,
      "已经": 3239,
      "的事": 3240,
      "不是": 3241,
      "这是": 3242,
      "耶路": 3243,
      "撒冷": 3244,
      "耶路撒冷": 3245,
      "以及": 3246,
      "看见": 3247,
      "直到": 3248,
      "出来": 3249,
      "埃及": 3250,
      "上的": 3251,
      "起来": 3252,
      "的神": 3253,
      "然后": 3254,
      "你们要": 3255,
      "如此": 3256,
      "日子": 3257,
      "吩咐": 3258,
      "来到": 3259,
      "：‘": 3260,
      "照着": 3261,
      "现在": 3262,
      "话语": 3263,
      "那时": 3264,
      "一起": 3265,
      "所有的": 3266,
      "以利": 3267,
      "基督": 3268,
      "告诉": 3269,
      "求你": 3270,
      "。’": 3271,
      "父亲": 3272,
      "藉着": 3273,
      "中的": 3274,
      "不能": 3275,
      "宣告": 3276,
      "地方": 3277,
      "它们": 3278,
      "不会": 3279,
      "我们的": 3280,
      "他们说": 3281,
      "他说": 3282,
      "临到": 3283,
      "仆人": 3284,
      "并且": 3285,
      "在那里": 3286,
      "民众": 3287,
      "所以": 3288,
      "的一切": 3289,
      "难道": 3290,
      "赐给": 3291,
      "成为": 3292,
      "先知": 3293,
      "那样": 3294,
      "地上": 3295,
      "都是": 3296,
      "到了": 3297,
      "在你": 3298,
      "一位": 3299,
      "这里": 3300,
      "永远": 3301,
      "雅各": 3302,
      "如此说": 3303,
      "扫罗": 3304,
      "祭坛": 3305,
      "个人": 3306,
      "的那": 3307,
      "因此": 3308,
      "住在": 3309,
      "有人": 3310,
      "可以": 3311,
      "手中": 3312,
      "荣耀": 3313,
      "任何": 3314,
      "我必": 3315,
      "回答": 3316,
      "怎样": 3317,
      "兄弟": 3318,
      "智慧": 3319,
      "的子孙": 3320,
      "洁净": 3321,
      "支派": 3322,
      "身上": 3323,
      "离开": 3324,
      "也不": 3325,
      "服事": 3326,
      "首领": 3327,
      "在我": 3328,
      "对他们说": 3329,
      "他就": 3330,
      "在他": 3331,
      "中间": 3332,
      "把他": 3333,
      "利未": 3334,
      "的日子": 3335,
      "还有": 3336,
      "耶和华如此说": 3337,
      "妻子": 3338,
      "全体": 3339,
      "律法": 3340,
      "之地": 3341,
      "亚伯": 3342,
      "神的": 3343,
      "亚伦": 3344,
      "我是": 3345,
      "我就": 3346,
      "出去": 3347,
      "他们就": 3348,
      "对他说": 3349,
      "为什么": 3350,
      "来的": 3351,
      "声音": 3352,
      "一同": 3353,
      "女儿": 3354,
      "所罗": 3355,
      "一样": 3356,
      "犹太": 3357,
      "公义": 3358,
      "平安": 3359,
      "许多": 3360,
      "耶和华啊": 3361,
      "儿女": 3362,
      "的话": 3363,
      "门徒": 3364,
      "约瑟": 3365,
      "我说": 3366,
      "指示": 3367,
      "进入": 3368,
      "巴比": 3369,
      "巴比伦": 3370,
      "地的": 3371,
      "家族": 3372,
      "有一": 3373,
      "听见": 3374,
      "孩子": 3375,
      "弟兄": 3376,
      "心里": 3377,
      "我在": 3378,
      "它的": 3379,
      "王的": 3380,
      "里面": 3381,
      "所罗门": 3382,
      "有一个": 3383,
      "审判": 3384,
      "旷野": 3385,
      "耶和华的宣告": 3386,
      "为了": 3387,
      "利亚": 3388,
      "在耶和华": 3389,
      "把他们": 3390,
      "和他的": 3391,
      "无论": 3392,
      "死了": 3393,
      "两个": 3394,
      "所做": 3395,
      "祝福": 3396,
      "法老": 3397,
      "仇敌": 3398,
      "利士": 3399,
      "她的": 3400,
      "就像": 3401,
      "非利士": 3402,
      "下来": 3403,
      "使他们": 3404,
      "做了": 3405,
      "听从": 3406,
      "建造": 3407,
      "祖先": 3408,
      "都要": 3409,
      "生命": 3410,
      "燔祭": 3411,
      "至于": 3412,
      "万军": 3413,
      "就要": 3414,
      "你的神": 3415,
      "带到": 3416,
      "万军之": 3417,
      "攻击": 3418,
      "站在": 3419,
      "去了": 3420,
      "列国": 3421,
      "我所": 3422,
      "献上": 3423,
      "因为他": 3424,
      "见证": 3425,
      "书亚": 3426,
      "作为": 3427,
      "大的": 3428,
      "衣服": 3429,
      "拉罕": 3430,
      "亚伯拉罕": 3431,
      "放在": 3432,
      "的地方": 3433,
      "祷告": 3434,
      "哪里": 3435,
      "将要": 3436,
      "起誓": 3437,
      "女人": 3438,
      "不再": 3439,
      "二十": 3440,
      "葡萄": 3441,
      "居民": 3442,
      "今天": 3443,
      "怎么": 3444,
      "脱离": 3445,
      "了一": 3446,
      "还是": 3447,
      "他在": 3448,
      "刀剑": 3449,
      "如同": 3450,
      "拯救": 3451,
      "你们当": 3452,
      "在他们": 3453,
      "继业": 3454,
      "以利亚": 3455,
      "生了": 3456,
      "杀了": 3457,
      "道路": 3458,
      "十二": 3459,
      "安息": 3460,
      "这事": 3461,
      "之后": 3462,
      "好让": 3463,
      "带来": 3464,
      "而是": 3465,
      "亚比": 3466,
      "他是": 3467,
      "后裔": 3468,
      "不过": 3469,
      "为要": 3470,
      "耶利": 3471,
      "人和": 3472,
      "你是": 3473,
      "圣所": 3474,
      "就会": 3475,
      "属于": 3476,
      "也是": 3477,
      "这地": 3478,
      "人们": 3479,
      "然而": 3480,
      "因为他们": 3481,
      "保罗": 3482,
      "因为我": 3483,
      "石头": 3484,
      "银子": 3485,
      "上来": 3486,
      "约书亚": 3487,
      "欢喜": 3488,
      "也没有": 3489,
      "亚哈": 3490,
      "使我": 3491,
      "免得": 3492,
      "回来": 3493,
      "说的": 3494,
      "以后": 3495,
      "在你们": 3496,
      "天使": 3497,
      "敬畏": 3498,
      "了我": 3499,
      "罪孽": 3500,
      "工作": 3501,
      "会众": 3502,
      "给他": 3503,
      "里的": 3504,
      "一只": 3505,
      "与你": 3506,
      "教导": 3507,
      "的城": 3508,
      "天上": 3509,
      "派遣": 3510,
      "为圣": 3511,
      "他必": 3512,
      "这一切": 3513,
      "大地": 3514,
      "门徒们": 3515,
      "母亲": 3516,
      "赎罪": 3517,
      "要把": 3518,
      "耶和华所": 3519,
      "以法": 3520,
      "彼此": 3521,
      "缘故": 3522,
      "这些事": 3523,
      "认识": 3524,
      "为自己": 3525,
      "牲畜": 3526,
      "主人": 3527,
      "你所": 3528,
      "圣灵": 3529,
      "奴仆": 3530,
      "明白": 3531,
      "说话": 3532,
      "女子": 3533,
      "带着": 3534,
      "恶人": 3535,
      "看到": 3536,
      "使者": 3537,
      "殿宇": 3538,
      "摩押": 3539,
      "其中": 3540,
      "祭物": 3541,
      "使你们": 3542,
      "我也": 3543,
      "臣仆": 3544,
      "一些": 3545,
      "分别": 3546,
      "可是": 3547,
      "君王": 3548,
      "眼中": 3549,
      "那地": 3550,
      "预备": 3551,
      "回应": 3552,
      "好的": 3553,
      "耶和华对": 3554,
      "回到": 3555,
      "圣殿": 3556,
      "慈爱": 3557,
      "食物": 3558,
      "这是耶和华的宣告": 3559,
      "坐在": 3560,
      "外邦": 3561,
      "以致": 3562,
      "四围": 3563,
      "彼得": 3564,
      "必须": 3565,
      "聚集": 3566,
      "雅悯": 3567,
      "既然": 3568,
      "交给": 3569,
      "使你": 3570,
      "长老": 3571,
      "基列": 3572,
      "民族": 3573,
      "献给": 3574,
      "约旦": 3575,
      "遵行": 3576,
      "使他": 3577,
      "在耶和华面前": 3578,
      "与他": 3579,
      "之间": 3580,
      "没有人": 3581,
      "耶和华的话语": 3582,
      "却不": 3583,
      "正如": 3584,
      "偶像": 3585,
      "！’": 3586,
      "她们": 3587,
      "以法莲": 3588,
      "绵羊": 3589,
      "为我": 3590,
      "向耶和华": 3591,
      "他们在": 3592,
      "开始": 3593,
      "羊群": 3594,
      "不洁净": 3595,
      "人子": 3596,
      "公牛": 3597,
      "看为": 3598,
      "第二": 3599,
      "诫命": 3600,
      "生的": 3601,
      "确实": 3602,
      "便雅悯": 3603,
      "前来": 3604,
      "名叫": 3605,
      "就在": 3606,
      "毁灭": 3607,
      "虽然": 3608,
      "主啊": 3609,
      "作王": 3610,
      "约柜": 3611,
      "眼睛": 3612,
      "行事": 3613,
      "一直": 3614,
      "凡是": 3615,
      "丈夫": 3616,
      "上去": 3617,
      "了他": 3618,
      "的那一位": 3619,
      "会幕": 3620,
      "全地": 3621,
      "怜悯": 3622,
      "拿单": 3623,
      "那人": 3624,
      "经过": 3625,
      "诅咒": 3626,
      "怒气": 3627,
      "施行": 3628,
      "行为": 3629,
      "亚兰": 3630,
      "按着": 3631,
      "那么": 3632,
      "附属": 3633,
      "前面": 3634,
      "律例": 3635,
      "把我": 3636,
      "锡安": 3637,
      "那里去": 3638,
      "军兵": 3639,
      "同在": 3640,
      "帐篷": 3641,
      "指着": 3642,
      "波安": 3643,
      "罗波安": 3644,
      "这城": 3645,
      "告诉你们": 3646,
      "眼前": 3647,
      "性命": 3648,
      "成了": 3649,
      "把它": 3650,
      "约翰": 3651,
      "亚述": 3652,
      "你就": 3653,
      "迦勒": 3654,
      "一天": 3655,
      "归于": 3656,
      "当中": 3657,
      "的声音": 3658,
      "因为你": 3659,
      "的儿子是": 3660,
      "向你": 3661,
      "复活": 3662,
      "。’”": 3663,
      "对待": 3664,
      "要在": 3665,
      "身体": 3666,
      "帮助": 3667,
      "玛拿": 3668,
      "的是": 3669,
      "迦南": 3670,
      "附属的": 3671,
      "三十": 3672,
      "妇人": 3673,
      "房屋": 3674,
      "的心": 3675,
      "一个人": 3676,
      "世界": 3677,
      "充满": 3678,
      "约押": 3679,
      "不知道": 3680,
      "以撒": 3681,
      "是我": 3682,
      "派人": 3683,
      "谨守": 3684,
      "我的子民": 3685,
      "分别为圣": 3686,
      "向他": 3687,
      "居住": 3688,
      "山羊": 3689,
      "极其": 3690,
      "你们的神": 3691,
      "耶利米": 3692,
      "接受": 3693,
      "留在": 3694,
      "统治": 3695,
      "让我们": 3696,
      "赞美": 3697,
      "黑暗": 3698,
      "如果有人": 3699,
      "公绵羊": 3700,
      "其实": 3701,
      "在这": 3702,
      "就说": 3703,
      "称为": 3704,
      "玛拿西": 3705,
      "呼求": 3706,
      "帐幕": 3707,
      "福音": 3708,
      "安息日": 3709,
      "亚撒": 3710,
      "克尔": 3711,
      "存活": 3712,
      "希伯": 3713,
      "百姓": 3714,
      "给我": 3715,
      "而且": 3716,
      "解救": 3717,
      "下的": 3718,
      "义人": 3719,
      "也要": 3720,
      "亚希": 3721,
      "你必": 3722,
      "头上": 3723,
      "撒母": 3724,
      "以利沙": 3725,
      "撒母耳": 3726,
      "其余": 3727,
      "向我": 3728,
      "死亡": 3729,
      "的名": 3730,
      "大能": 3731,
      "过去": 3732,
      "’，": 3733,
      "向他们": 3734,
      "宝座": 3735,
      "应当": 3736,
      "来了": 3737,
      "这些人": 3738,
      "全体民众": 3739,
      "为他": 3740,
      "和他": 3741,
      "成就": 3742,
      "的王": 3743,
      "如果你": 3744,
      "我是耶和华": 3745,
      "与他们": 3746,
      "土地": 3747,
      "在一起": 3748,
      "对你": 3749,
      "旁边": 3750,
      "田野": 3751,
      "神哪": 3752,
      "者的": 3753,
      "要知道": 3754,
      "记念": 3755,
      "一百": 3756,
      "与我": 3757,
      "之前": 3758,
      "五十": 3759,
      "城门": 3760,
      "寻求": 3761,
      "巴力": 3762,
      "素祭": 3763,
      "西加": 3764,
      "观看": 3765,
      "跟随": 3766,
      "亚玛": 3767,
      "众人": 3768,
      "听说": 3769,
      "山上": 3770,
      "拣选": 3771,
      "遵守": 3772,
      "世代": 3773,
      "公正": 3774,
      "分之": 3775,
      "寄居": 3776,
      "得以": 3777,
      "果实": 3778,
      "灵魂": 3779,
      "的话语": 3780,
      "相信": 3781,
      "东西": 3782,
      "以东": 3783,
      "地上的": 3784,
      "将被": 3785,
      "恩典": 3786,
      "给他们": 3787,
      "因为你们": 3788,
      "下拜": 3789,
      "发出": 3790,
      "战车": 3791,
      "的人都": 3792,
      "万民": 3793,
      "之人的": 3794,
      "到那": 3795,
      "把你": 3796,
      "的首领": 3797,
      "这话": 3798,
      "眼中看为": 3799,
      "谢克尔": 3800,
      "儿子们": 3801,
      "击杀": 3802,
      "勇士": 3803,
      "各人": 3804,
      "喜悦": 3805,
      "对我说": 3806,
      "希西加": 3807,
      "割礼": 3808,
      "可憎": 3809,
      "攻打": 3810,
      "七天": 3811,
      "如今": 3812,
      "子的": 3813,
      "父家": 3814,
      "离弃": 3815,
      "边界": 3816,
      "你们就": 3817,
      "耶稣基督": 3818,
      "弟兄们": 3819,
      "原来": 3820,
      "各样": 3821,
      "后来": 3822,
      "害怕": 3823,
      "应许": 3824,
      "谁能": 3825,
      "什么呢": 3826,
      "所做的": 3827,
      "不到": 3828,
      "倒在": 3829,
      "和附属的": 3830,
      "家里": 3831,
      "扎营": 3832,
      "竟然": 3833,
      "领袖": 3834,
      "我们的神": 3835,
      "争战": 3836,
      "交在": 3837,
      "从我": 3838,
      "全都": 3839,
      "对我": 3840,
      "整个": 3841,
      "有什么": 3842,
      "犯罪": 3843,
      "给你们": 3844,
      "这个人": 3845,
      "邪恶": 3846,
      "就把": 3847,
      "我已经": 3848,
      "撒玛": 3849,
      "数点": 3850,
      "的居民": 3851,
      "让我": 3852,
      "撒玛利亚": 3853,
      "喜乐": 3854,
      "大家": 3855,
      "就对": 3856,
      "年轻": 3857,
      "显明": 3858,
      "给你": 3859,
      "了你": 3860,
      "信仰": 3861,
      "剪除": 3862,
      "有关": 3863,
      "事奉": 3864,
      "发生": 3865,
      "只是": 3866,
      "应该": 3867,
      "的女儿": 3868,
      "看见了": 3869,
      "赎罪祭": 3870,
      "外邦人": 3871,
      "之物": 3872,
      "亚扪": 3873,
      "他所": 3874,
      "使徒": 3875,
      "依靠": 3876,
      "出于": 3877,
      "惩罚": 3878,
      "拥有": 3879,
      "救恩": 3880,
      "祸患": 3881,
      "耶和华说": 3882,
      "与你们": 3883,
      "从你": 3884,
      "吞噬": 3885,
      "甚至": 3886,
      "了他们": 3887,
      "先前": 3888,
      "愿意": 3889,
      "有些": 3890,
      "但是": 3891,
      "你在": 3892,
      "垂听": 3893,
      "一切的": 3894,
      "葡萄园": 3895,
      "命令": 3896,
      "惧怕": 3897,
      "玷污": 3898,
      "真理": 3899,
      "约拿单": 3900,
      "蒙福": 3901,
      "这人": 3902,
      "耶和华指示": 3903,
      "他把": 3904,
      "他要": 3905,
      "只有": 3906,
      "在他的": 3907,
      "得了": 3908,
      "必被": 3909,
      "灭亡": 3910,
      "我要使": 3911,
      "主耶和华如此说": 3912,
      "以下": 3913,
      "以外": 3914,
      "去吧": 3915,
      "是的": 3916,
      "显现": 3917,
      "死人": 3918,
      "法规": 3919,
      "预言": 3920,
      "分之一": 3921,
      "也不可": 3922,
      "亵渎": 3923,
      "力量": 3924,
      "对面": 3925,
      "患难": 3926,
      "第三": 3927,
      "回答说": 3928,
      "在哪里": 3929,
      "天上的": 3930,
      "羊羔": 3931,
      "让他": 3932,
      "都会": 3933,
      "主的": 3934,
      "让他们": 3935,
      "过来": 3936,
      "还要": 3937,
      "人就": 3938,
      "四十": 3939,
      "我不": 3940,
      "继续": 3941,
      "为你": 3942,
      "从前": 3943,
      "你的仆人": 3944,
      "上了": 3945,
      "使人": 3946,
      "招聚": 3947,
      "知识": 3948,
      "耶和华是": 3949,
      "下到": 3950,
      "以扫": 3951,
      "听到": 3952,
      "实在": 3953,
      "献的": 3954,
      "米勒": 3955,
      "追赶": 3956,
      "利雅": 3957,
      "发现": 3958,
      "在地上": 3959,
      "夫长": 3960,
      "安慰": 3961,
      "的罪": 3962,
      "的路": 3963,
      "耶稣说": 3964,
      "军队": 3965,
      "增多": 3966,
      "尼布": 3967,
      "按照": 3968,
      "的缘故": 3969,
      "那城": 3970,
      "他们必": 3971,
      "直到永远": 3972,
      "”，": 3973,
      "一点": 3974,
      "异象": 3975,
      "无人": 3976,
      "正在": 3977,
      "沙龙": 3978,
      "营地": 3979,
      "除灭": 3980,
      "押沙龙": 3981,
      "男人": 3982,
      "留下": 3983,
      "粮食": 3984,
      "诸天": 3985,
      "长老们": 3986,
      "你为什么": 3987,
      "即使": 3988,
      "去做": 3989,
      "因着": 3990,
      "处死": 3991,
      "把你们": 3992,
      "教会": 3993,
      "的各": 3994,
      "过了": 3995,
      "过犯": 3996,
      "耶和华必": 3997,
      "他的儿子": 3998,
      "恶事": 3999,
      "牧野": 4000,
      "耶罗波安": 4001,
      "走了": 4002,
      "颂赞": 4003,
      "这里来": 4004,
      "在那": 4005,
      "好像": 4006,
      "正直": 4007,
      "满了": 4008,
      "痊愈": 4009,
      "的手": 4010,
      "边的": 4011,
      "都必": 4012,
      "因为耶和华": 4013,
      "如果你们": 4014,
      "这些话": 4015,
      "之下": 4016,
      "也必": 4017,
      "人说": 4018,
      "你当": 4019,
      "供物": 4020,
      "信实": 4021,
      "和你的": 4022,
      "在我们": 4023,
      "城中": 4024,
      "城镇": 4025,
      "得到": 4026,
      "极大的": 4027,
      "献祭": 4028,
      "的血": 4029,
      "继承": 4030,
      "不义": 4031,
      "受的": 4032,
      "王说": 4033,
      "这个": 4034,
      "进去": 4035,
      "除了": 4036,
      "？’": 4037,
      "所做的一切": 4038,
      "一定": 4039,
      "亚摩": 4040,
      "到我": 4041,
      "城墙": 4042,
      "对你们": 4043,
      "想要": 4044,
      "抓住": 4045,
      "敌人": 4046,
      "的一": 4047,
      "蒙羞": 4048,
      "赦免": 4049,
      "关于": 4050,
      "兴起": 4051,
      "受了": 4052,
      "沙法": 4053,
      "灭绝": 4054,
      "的家": 4055,
      "能力": 4056,
      "行走": 4057,
      "子孙的": 4058,
      "下去": 4059,
      "名为": 4060,
      "早晨": 4061,
      "狮子": 4062,
      "肉体": 4063,
      "造的": 4064,
      "他们是": 4065,
      "耶和华的殿": 4066,
      "你的神耶和华": 4067,
      "为你们": 4068,
      "之事": 4069,
      "也不要": 4070,
      "基路": 4071,
      "当时": 4072,
      "快乐": 4073,
      "无法": 4074,
      "请你": 4075,
      "从天上": 4076,
      "以斯": 4077,
      "分给": 4078,
      "同样": 4079,
      "愿你": 4080,
      "是谁": 4081,
      "细麻": 4082,
      "远离": 4083,
      "饥荒": 4084,
      "亚达": 4085,
      "使我们": 4086,
      "名字": 4087,
      "哥哥": 4088,
      "利赛": 4089,
      "却没有": 4090,
      "完全": 4091,
      "定的": 4092,
      "怒火": 4093,
      "恳求": 4094,
      "的妻子": 4095,
      "而来": 4096,
      "长们": 4097,
      "他们把": 4098,
      "我要把": 4099,
      "无论是": 4100,
      "基路伯": 4101,
      "七个": 4102,
      "中有": 4103,
      "伸出": 4104,
      "子里": 4105,
      "尼撒": 4106,
      "曾经": 4107,
      "法利赛": 4108,
      "照样": 4109,
      "这是主": 4110,
      "许多人": 4111,
      "上面": 4112,
      "从他": 4113,
      "从那里": 4114,
      "发怒": 4115,
      "很多": 4116,
      "言语": 4117,
      "任何人": 4118,
      "以弗": 4119,
      "作恶": 4120,
      "在旷野": 4121,
      "地区": 4122,
      "寻找": 4123,
      "愚昧": 4124,
      "接着": 4125,
      "殿的": 4126,
      "约沙法": 4127,
      "经文": 4128,
      "绝不": 4129,
      "那天": 4130,
      "迦勒底": 4131,
      "产业": 4132,
      "又说": 4133,
      "找到": 4134,
      "拿着": 4135,
      "永生": 4136,
      "甲尼撒": 4137,
      "羞辱": 4138,
      "还没有": 4139,
      "都有": 4140,
      "除掉": 4141,
      "的人哪": 4142,
      "我的名": 4143,
      "尼布甲尼撒": 4144,
      "上所": 4145,
      "世人": 4146,
      "众多": 4147,
      "傍晚": 4148,
      "到底": 4149,
      "去见": 4150,
      "听了": 4151,
      "喜爱": 4152,
      "得的": 4153,
      "等候": 4154,
      "这就是": 4155,
      "这样的": 4156,
      "在我面前": 4157,
      "到那日": 4158,
      "也会": 4159,
      "入口": 4160,
      "再次": 4161,
      "器皿": 4162,
      "头公牛": 4163,
      "忘记": 4164,
      "的国": 4165,
      "的那些": 4166,
      "磐石": 4167,
      "荒凉": 4168,
      "迦得": 4169,
      "他们将": 4170,
      "他们要": 4171,
      "在你面前": 4172,
      "献给耶和华": 4173,
      "也不会": 4174,
      "书卷": 4175,
      "今日": 4176,
      "悖逆": 4177,
      "把这": 4178,
      "来临": 4179,
      "柱子": 4180,
      "田地": 4181,
      "财富": 4182,
      "长子": 4183,
      "基督耶稣": 4184,
      "祭坛上": 4185,
      "人子啊": 4186,
      "以下是": 4187,
      "人在": 4188,
      "他的人": 4189,
      "以上": 4190,
      "夸耀": 4191,
      "对付": 4192,
      "开了": 4193,
      "我主": 4194,
      "拆毁": 4195,
      "求问": 4196,
      "鲁本": 4197,
      "你们所": 4198,
      "这样做": 4199,
      "首领们": 4200,
      "公山羊": 4201,
      "号角": 4202,
      "外面": 4203,
      "尘土": 4204,
      "尸体": 4205,
      "是你": 4206,
      "替他": 4207,
      "朋友": 4208,
      "百人": 4209,
      "盼望": 4210,
      "走兽": 4211,
      "起行": 4212,
      "你的名": 4213,
      "弟弟": 4214,
      "恶人的": 4215,
      "把它们": 4216,
      "活着": 4217,
      "礼物": 4218,
      "立刻": 4219,
      "进了": 4220,
      "金子": 4221,
      "和附属的牧野": 4222,
      "也都": 4223,
      "千人": 4224,
      "救赎": 4225,
      "有祸": 4226,
      "犯了": 4227,
      "神圣": 4228,
      "罪恶": 4229,
      "起名为": 4230,
      "逃跑": 4231,
      "祭司们": 4232,
      "有祸了": 4233,
      "困苦": 4234,
      "有的": 4235,
      "权柄": 4236,
      "玛利": 4237,
      "耶户": 4238,
      "亚摩利": 4239,
      "变为": 4240,
      "夜间": 4241,
      "家的": 4242,
      "杀人": 4243,
      "至高": 4244,
      "鬼魔": 4245,
      "什么时候": 4246,
      "万军之耶和华": 4247,
      "为此": 4248,
      "亲自": 4249,
      "以理": 4250,
      "叁孙": 4251,
      "圣洁": 4252,
      "撒拉": 4253,
      "欢呼": 4254,
      "的所有": 4255,
      "站立": 4256,
      "管教": 4257,
      "隐藏": 4258,
      "高坛": 4259,
      "我的心": 4260,
      "他们的神": 4261,
      "永远的": 4262,
      "但以理": 4263,
      "先祖": 4264,
      "全军": 4265,
      "受割礼": 4266,
      "口中": 4267,
      "另一个": 4268,
      "召来": 4269,
      "吃饭": 4270,
      "奉献": 4271,
      "她说": 4272,
      "寡妇": 4273,
      "必有": 4274,
      "我把": 4275,
      "火烧": 4276,
      "的门": 4277,
      "立的": 4278,
      "管理": 4279,
      "绝不会": 4280,
      "翅膀": 4281,
      "起身": 4282,
      "你们中间": 4283,
      "耶稣对他们说": 4284,
      "兄弟们": 4285,
      "这是主耶和华的宣告": 4286,
      "人都": 4287,
      "十字": 4288,
      "取了": 4289,
      "呼喊": 4290,
      "污秽": 4291,
      "活物": 4292,
      "称谢": 4293,
      "都不可": 4294,
      "临到我": 4295,
      "与他的": 4296,
      "两个人": 4297,
      "作战": 4298,
      "或者": 4299,
      "提尔": 4300,
      "溪谷": 4301,
      "父母": 4302,
      "穷人": 4303,
      "藐视": 4304,
      "行的": 4305,
      "被杀": 4306,
      "问他": 4307,
      "你们在": 4308,
      "我们就": 4309,
      "的日子里": 4310,
      "十字架": 4311,
      "变得": 4312,
      "右手": 4313,
      "四个": 4314,
      "尼珥": 4315,
      "底座": 4316,
      "座城": 4317,
      "悟性": 4318,
      "感到": 4319,
      "我没有": 4320,
      "收割": 4321,
      "祈求": 4322,
      "被称为": 4323,
      "跟着": 4324,
      "与我们": 4325,
      "为我们": 4326,
      "以实": 4327,
      "但如果": 4328,
      "另一": 4329,
      "坟墓": 4330,
      "尼雅": 4331,
      "巴兰": 4332,
      "感谢": 4333,
      "挪亚": 4334,
      "有智慧": 4335,
      "王宫": 4336,
      "的水": 4337,
      "羔羊": 4338,
      "逾越": 4339,
      "面粉": 4340,
      "三个": 4341,
      "了这": 4342,
      "利利": 4343,
      "加利利": 4344,
      "回转": 4345,
      "大祭司": 4346,
      "太阳": 4347,
      "我知道": 4348,
      "我指着": 4349,
      "是为了": 4350,
      "来自": 4351,
      "穿上": 4352,
      "约阿": 4353,
      "舌头": 4354,
      "西亚": 4355,
      "记在": 4356,
      "你们不要": 4357,
      "耶和华的名": 4358,
      "平安祭": 4359,
      "逾越节": 4360,
      "约阿施": 4361,
      "七十": 4362,
      "他父亲": 4363,
      "你不可": 4364,
      "安置": 4365,
      "所说": 4366,
      "摧毁": 4367,
      "根基": 4368,
      "殿中": 4369,
      "比亚": 4370,
      "灾祸": 4371,
      "盾牌": 4372,
      "美善": 4373,
      "责备": 4374,
      "赐予": 4375,
      "释放": 4376,
      "飞鸟": 4377,
      "以利亚撒": 4378,
      "了一个": 4379,
      "前往": 4380,
      "回去": 4381,
      "国家": 4382,
      "在那些": 4383,
      "敬拜": 4384,
      "是在": 4385,
      "立约": 4386,
      "胜过": 4387,
      "西门": 4388,
      "那个": 4389,
      "领悟": 4390,
      "了他的": 4391,
      "他又": 4392,
      "伯特": 4393,
      "余剩": 4394,
      "别人": 4395,
      "哀哭": 4396,
      "在你的": 4397,
      "孙子": 4398,
      "灯台": 4399,
      "膀臂": 4400,
      "被掳": 4401,
      "部分": 4402,
      "金银": 4403,
      "靠近": 4404,
      "耶稣的": 4405,
      "事上": 4406,
      "他不": 4407,
      "使你的": 4408,
      "召唤": 4409,
      "大大": 4410,
      "对岸": 4411,
      "尼亚": 4412,
      "心中": 4413,
      "恶的事": 4414,
      "所吩咐": 4415,
      "把你的": 4416,
      "论到": 4417,
      "逃脱": 4418,
      "都不": 4419,
      "阴间": 4420,
      "香柏": 4421,
      "耶和华眼中看为": 4422,
      "所有的人": 4423,
      "仆人们": 4424,
      "全体会众": 4425,
      "为他们": 4426,
      "之子": 4427,
      "从他们": 4428,
      "他为": 4429,
      "住了": 4430,
      "做的": 4431,
      "劳苦": 4432,
      "吃了": 4433,
      "意思": 4434,
      "接替他": 4435,
      "每个": 4436,
      "还在": 4437,
      "随后": 4438,
      "高举": 4439,
      "一人": 4440,
      "他将": 4441,
      "传道": 4442,
      "你不要": 4443,
      "到你们": 4444,
      "居所": 4445,
      "有了": 4446,
      "欺压": 4447,
      "示剑": 4448,
      "都在": 4449,
      "问候": 4450,
      "耶和华面前": 4451,
      "我的神": 4452,
      "万军之耶和华如此说": 4453,
      "第二天": 4454,
      "万国": 4455,
      "之处": 4456,
      "周围": 4457,
      "多么": 4458,
      "大声": 4459,
      "奇妙": 4460,
      "妇女": 4461,
      "用的": 4462,
      "的灵": 4463,
      "细拉": 4464,
      "群山": 4465,
      "节期": 4466,
      "伯特利": 4467,
      "主耶稣基督": 4468,
      "到你": 4469,
      "各自": 4470,
      "向你们": 4471,
      "器具": 4472,
      "地告诉你们": 4473,
      "宝石": 4474,
      "巴嫩": 4475,
      "报应": 4476,
      "无花": 4477,
      "犄角": 4478,
      "禁食": 4479,
      "财物": 4480,
      "黎巴嫩": 4481,
      "耶和华在": 4482,
      "因为我们": 4483,
      "支派中": 4484,
      "蒙福的": 4485,
      "经文士": 4486,
      "无花果": 4487,
      "一次": 4488,
      "一生": 4489,
      "以前": 4490,
      "会堂": 4491,
      "公羊羔": 4492,
      "别的神": 4493,
      "反而": 4494,
      "嘴唇": 4495,
      "回归": 4496,
      "坚固": 4497,
      "希望": 4498,
      "愚妄": 4499,
      "我会": 4500,
      "控告": 4501,
      "是从": 4502,
      "有两": 4503,
      "消息": 4504,
      "瘟疫": 4505,
      "路上": 4506,
      "它们的": 4507,
      "亚伯兰": 4508,
      "人之地": 4509,
      "使我的": 4510,
      "全家": 4511,
      "全能": 4512,
      "城里": 4513,
      "就不": 4514,
      "我确实": 4515,
      "把我的": 4516,
      "撒迦": 4517,
      "族兄弟": 4518,
      "栽种": 4519,
      "每个人": 4520,
      "的儿女": 4521,
      "益处": 4522,
      "约伯": 4523,
      "赎回": 4524,
      "赛亚": 4525,
      "队伍": 4526,
      "领出来": 4527,
      "麻风": 4528,
      "你们为什么": 4529,
      "亚比米勒": 4530,
      "臣仆们": 4531,
      "他从": 4532,
      "保守": 4533,
      "妹妹": 4534,
      "山地": 4535,
      "并没有": 4536,
      "恶行": 4537,
      "悔改": 4538,
      "我的人": 4539,
      "指派": 4540,
      "米甸": 4541,
      "美好的": 4542,
      "被数点": 4543,
      "不要让": 4544,
      "祭司要": 4545,
      "于是他们": 4546,
      "公义的": 4547,
      "不听从": 4548,
      "了我的": 4549,
      "你这": 4550,
      "做工": 4551,
      "其他": 4552,
      "击杀了": 4553,
      "后面": 4554,
      "天空": 4555,
      "平原": 4556,
      "彼拉": 4557,
      "得救": 4558,
      "恨恶": 4559,
      "永恒": 4560,
      "的后裔": 4561,
      "的孙子": 4562,
      "神明": 4563,
      "行了": 4564,
      "都将": 4565,
      "长存": 4566,
      "父亲的": 4567,
      "难道不是": 4568,
      "赐给你": 4569,
      "不洁净的": 4570,
      "彼拉多": 4571,
      "一块": 4572,
      "之上": 4573,
      "之民": 4574,
      "北方": 4575,
      "呼唤": 4576,
      "回自己的": 4577,
      "因你": 4578,
      "在位": 4579,
      "在自己的": 4580,
      "基甸": 4581,
      "尽管": 4582,
      "差派": 4583,
      "带领": 4584,
      "底加": 4585,
      "悦纳": 4586,
      "把他的": 4587,
      "末迪": 4588,
      "淫乱": 4589,
      "神迹": 4590,
      "约雅": 4591,
      "给了": 4592,
      "西拉": 4593,
      "西底加": 4594,
      "践踏": 4595,
      "转离": 4596,
      "辱骂": 4597,
      "遮盖": 4598,
      "需要": 4599,
      "你们也": 4600,
      "如果我": 4601,
      "末迪凯": 4602,
      "从这": 4603,
      "其上": 4604,
      "制作": 4605,
      "右边": 4606,
      "在我的": 4607,
      "婢女": 4608,
      "尊荣": 4609,
      "就算": 4610,
      "所说的": 4611,
      "找不到": 4612,
      "拉班": 4613,
      "王就": 4614,
      "的火": 4615,
      "的祭司": 4616,
      "示巴": 4617,
      "管辖": 4618,
      "你们是": 4619,
      "在他面前": 4620,
      "年轻人": 4621,
      "不肯": 4622,
      "件事": 4623,
      "使它": 4624,
      "圣徒": 4625,
      "圣物": 4626,
      "坚立": 4627,
      "应验": 4628,
      "把那": 4629,
      "数目": 4630,
      "焚烧": 4631,
      "王和": 4632,
      "玛丽": 4633,
      "痛苦": 4634,
      "米拉": 4635,
      "耶赫": 4636,
      "自由": 4637,
      "负责": 4638,
      "赶出": 4639,
      "软弱": 4640,
      "重建": 4641,
      "降下": 4642,
      "我们在": 4643,
      "基督的": 4644,
      "葡萄树": 4645,
      "犯了罪": 4646,
      "接替他作王": 4647,
      "撒迦利亚": 4648,
      "不断": 4649,
      "也不能": 4650,
      "别的": 4651,
      "到他": 4652,
      "圣者": 4653,
      "对他们": 4654,
      "就被": 4655,
      "当受": 4656,
      "木板": 4657,
      "果子": 4658,
      "橄榄": 4659,
      "瑕疵": 4660,
      "瞎眼": 4661,
      "约兰": 4662,
      "非常": 4663,
      "有些人": 4664,
      "玛丽亚": 4665,
      "一年": 4666,
      "六十": 4667,
      "又把": 4668,
      "只要": 4669,
      "堡垒": 4670,
      "怎能": 4671,
      "战兢": 4672,
      "持守": 4673,
      "明天": 4674,
      "是要": 4675,
      "毫无": 4676,
      "烈火": 4677,
      "神人": 4678,
      "苦难": 4679,
      "葬在": 4680,
      "设立": 4681,
      "这子民": 4682,
      "门口": 4683,
      "有一个人": 4684,
      "耶利哥": 4685,
      "上到": 4686,
      "东边": 4687,
      "以为": 4688,
      "列祖": 4689,
      "厌弃": 4690,
      "吃喝": 4691,
      "地面": 4692,
      "塔玛": 4693,
      "就从": 4694,
      "恩待": 4695,
      "愿耶和华": 4696,
      "打击": 4697,
      "护卫": 4698,
      "押尼珥": 4699,
      "抽签": 4700,
      "留心": 4701,
      "看守": 4702,
      "西雅": 4703,
      "迎接": 4704,
      "那一位": 4705,
      "我们要": 4706,
      "我的话": 4707,
      "祭司长们": 4708,
      "燔祭和": 4709,
      "希伯仑": 4710,
      "上有": 4711,
      "中被": 4712,
      "于地": 4713,
      "偏离": 4714,
      "各种": 4715,
      "哭泣": 4716,
      "士革": 4717,
      "大马": 4718,
      "我儿": 4719,
      "我看见": 4720,
      "我今天": 4721,
      "战士": 4722,
      "死的": 4723,
      "烧香": 4724,
      "爱的": 4725,
      "约西亚": 4726,
      "荆棘": 4727,
      "赫提": 4728,
      "选择": 4729,
      "邻人": 4730,
      "骆驼": 4731,
      "一个儿子": 4732,
      "支派的": 4733,
      "城门口": 4734,
      "塔玛尔": 4735,
      "大马士革": 4736,
      "七年": 4737,
      "不信": 4738,
      "不认识": 4739,
      "他会": 4740,
      "全心": 4741,
      "处置": 4742,
      "安居": 4743,
      "宰杀": 4744,
      "巴珊": 4745,
      "报告": 4746,
      "族长": 4747,
      "是个": 4748,
      "是我的": 4749,
      "是蒙福的": 4750,
      "清晨": 4751,
      "用来": 4752,
      "的子民": 4753,
      "纯金": 4754,
      "绊倒": 4755,
      "跟从": 4756,
      "造了": 4757,
      "酒祭": 4758,
      "他的名": 4759,
      "听见了": 4760,
      "以实玛利": 4761,
      "一千": 4762,
      "三天": 4763,
      "上前来": 4764,
      "与她": 4765,
      "为妻": 4766,
      "他对": 4767,
      "以赛亚": 4768,
      "你看": 4769,
      "做耶和华眼中看为": 4770,
      "出产": 4771,
      "却是": 4772,
      "和你": 4773,
      "在一": 4774,
      "宫殿": 4775,
      "少年": 4776,
      "开口": 4777,
      "必定": 4778,
      "或是": 4779,
      "旨意": 4780,
      "最后": 4781,
      "消灭": 4782,
      "红色": 4783,
      "约哈": 4784,
      "罪责": 4785,
      "虚空": 4786,
      "诸王": 4787,
      "过的": 4788,
      "你们不可": 4789,
      "智慧人": 4790,
      "派人去": 4791,
      "世世代": 4792,
      "也在": 4793,
      "也将": 4794,
      "其中的": 4795,
      "包括": 4796,
      "受到": 4797,
      "场上": 4798,
      "实际": 4799,
      "尊贵": 4800,
      "巴勒": 4801,
      "成的": 4802,
      "战争": 4803,
      "打碎": 4804,
      "拉巴": 4805,
      "收取": 4806,
      "效法": 4807,
      "族人": 4808,
      "树木": 4809,
      "桌子": 4810,
      "满足": 4811,
      "纯全": 4812,
      "长矛": 4813,
      "阿们": 4814,
      "骨头": 4815,
      "耶和华你的神": 4816,
      "你的子民": 4817,
      "那些人": 4818,
      "日子里": 4819,
      "和他的儿子们": 4820,
      "与他一起": 4821,
      "在哪里呢": 4822,
      "永生起誓": 4823,
      "耶赫亚达": 4824,
      "世世代代": 4825,
      "”。": 4826,
      "下令": 4827,
      "了那": 4828,
      "伯利": 4829,
      "击败": 4830,
      "动物": 4831,
      "卑微": 4832,
      "占有": 4833,
      "又有": 4834,
      "各城": 4835,
      "哀号": 4836,
      "在这里": 4837,
      "她就": 4838,
      "完了": 4839,
      "忍耐": 4840,
      "我就是": 4841,
      "把我们": 4842,
      "拿起": 4843,
      "掳民": 4844,
      "撒督": 4845,
      "撕裂": 4846,
      "村庄": 4847,
      "比喻": 4848,
      "流血": 4849,
      "海洋": 4850,
      "牧人": 4851,
      "王面前": 4852,
      "老师": 4853,
      "西布": 4854,
      "讲述": 4855,
      "转身": 4856,
      "违背": 4857,
      "耶和华已经": 4858,
      "耶和华的约柜": 4859,
      "列国中": 4860,
      "上所记": 4861,
      "实际上": 4862,
      "一根": 4863,
      "云彩": 4864,
      "仍然": 4865,
      "他使": 4866,
      "兵器": 4867,
      "哈曼": 4868,
      "因你的": 4869,
      "境内": 4870,
      "外人": 4871,
      "岩石": 4872,
      "希律": 4873,
      "弗他": 4874,
      "忧伤": 4875,
      "是什么": 4876,
      "歌唱": 4877,
      "父系": 4878,
      "的边界": 4879,
      "眼目": 4880,
      "美的": 4881,
      "耶西": 4882,
      "脸伏": 4883,
      "虚假": 4884,
      "要用": 4885,
      "他们都": 4886,
      "他们来到": 4887,
      "的人说": 4888,
      "我的灵魂": 4889,
      "耶稣就": 4890,
      "耶和华的使者": 4891,
      "死人中": 4892,
      "神圣的": 4893,
      "被数点的": 4894,
      "两千": 4895,
      "两百": 4896,
      "丰盛": 4897,
      "了我们": 4898,
      "五个": 4899,
      "出的": 4900,
      "回报": 4901,
      "坚强": 4902,
      "对他的": 4903,
      "意念": 4904,
      "报复": 4905,
      "斯列": 4906,
      "来吧": 4907,
      "牛犊": 4908,
      "的这": 4909,
      "第十": 4910,
      "网罗": 4911,
      "脂肪": 4912,
      "要到": 4913,
      "起了": 4914,
      "震怒": 4915,
      "马匹": 4916,
      "我们是": 4917,
      "以斯帖": 4918,
      "也有": 4919,
      "人哪": 4920,
      "你去": 4921,
      "十分之一": 4922,
      "双手": 4923,
      "头发": 4924,
      "娶了": 4925,
      "对着": 4926,
      "幔帐": 4927,
      "我来": 4928,
      "我父亲": 4929,
      "打开": 4930,
      "承担": 4931,
      "承认": 4932,
      "把自己的": 4933,
      "拿弗他": 4934,
      "是否": 4935,
      "杀戮": 4936,
      "此后": 4937,
      "的头": 4938,
      "的荣耀": 4939,
      "确立": 4940,
      "示玛": 4941,
      "而来的": 4942,
      "落在": 4943,
      "西缅": 4944,
      "这时候": 4945,
      "那位": 4946,
      "那地方": 4947,
      "都记在": 4948,
      "先知们": 4949,
      "在你们中间": 4950,
      "统治了": 4951,
      "亚撒利雅": 4952,
      "田野的": 4953,
      "寄居者": 4954,
      "拿弗他利": 4955,
      "临近": 4956,
      "以来": 4957,
      "伸手": 4958,
      "俯伏": 4959,
      "另外": 4960,
      "否则": 4961,
      "哈达": 4962,
      "因他": 4963,
      "存在": 4964,
      "存留": 4965,
      "底亚": 4966,
      "强盛": 4967,
      "撒旦": 4968,
      "歌颂": 4969,
      "每天": 4970,
      "灵里": 4971,
      "用刀": 4972,
      "的道路": 4973,
      "看看": 4974,
      "而不": 4975,
      "耳朵": 4976,
      "膏油": 4977,
      "被处死": 4978,
      "你们这些": 4979,
      "你要吩咐": 4980,
      "直到今日": 4981,
      "赐给他们": 4982,
      "赐给你们": 4983,
      "十二人": 4984,
      "耶和华所指示": 4985,
      "亚玛力": 4986,
      "伯利恒": 4987,
      "从来": 4988,
      "冠冕": 4989,
      "却要": 4990,
      "对她说": 4991,
      "布斯": 4992,
      "库实": 4993,
      "愤怒": 4994,
      "我王": 4995,
      "我告诉你们": 4996,
      "拉结": 4997,
      "掌权": 4998,
      "来见": 4999,
      "比利": 5000,
      "火祭": 5001,
      "烧献": 5002,
      "班组": 5003,
      "男子": 5004,
      "米斯": 5005,
      "缺乏": 5006,
      "罪人": 5007,
      "美好": 5008,
      "还能": 5009,
      "都没有": 5010,
      "针对": 5011,
      "耶和华就": 5012,
      "我的仆人": 5013,
      "一个是": 5014,
      "审判官": 5015,
      "听说了": 5016,
      "一座": 5017,
      "万有": 5018,
      "下体": 5019,
      "众先知": 5020,
      "你说": 5021,
      "侍立": 5022,
      "做什么": 5023,
      "光明": 5024,
      "只公绵羊": 5025,
      "吹响": 5026,
      "岁的": 5027,
      "年日": 5028,
      "愿你的": 5029,
      "我脱离": 5030,
      "或许": 5031,
      "所生的": 5032,
      "无知": 5033,
      "无瑕疵": 5034,
      "村镇": 5035,
      "河对岸": 5036,
      "波斯": 5037,
      "燃烧": 5038,
      "的长老们": 5039,
      "细面粉": 5040,
      "耶弗": 5041,
      "进来": 5042,
      "迷惑": 5043,
      "遇见": 5044,
      "顶上": 5045,
      "馨香": 5046,
      "如果不": 5047,
      "这样说": 5048,
      "出来的": 5049,
      "的神明": 5050,
      "离开了": 5051,
      "祖先的": 5052,
      "怎么能": 5053,
      "你们当中": 5054,
      "宝座上": 5055,
      "对你说": 5056,
      "可憎之事": 5057,
      "第三天": 5058,
      "到我这里来": 5059,
      "余剩之民": 5060,
      "西布伦": 5061,
      "他连": 5062,
      "以免": 5063,
      "伟大": 5064,
      "作赎罪祭": 5065,
      "出现": 5066,
      "前行": 5067,
      "十个": 5068,
      "各位": 5069,
      "女仆": 5070,
      "好了": 5071,
      "如下": 5072,
      "就有": 5073,
      "并不是": 5074,
      "当我": 5075,
      "心的": 5076,
      "拒绝": 5077,
      "比拉": 5078,
      "气息": 5079,
      "测量": 5080,
      "百夫长": 5081,
      "的生命": 5082,
      "示每": 5083,
      "示罗": 5084,
      "约拿": 5085,
      "经上": 5086,
      "给你们的": 5087,
      "美丽": 5088,
      "行淫": 5089,
      "认为": 5090,
      "试探": 5091,
      "走遍": 5092,
      "迦特": 5093,
      "那是": 5094,
      "那地的": 5095,
      "陷入": 5096,
      "你们不": 5097,
      "永远长存": 5098,
      "见证人": 5099,
      "所说的话": 5100,
      "天空的": 5101,
      "下了": 5102,
      "举目": 5103,
      "事实": 5104,
      "从死人中": 5105,
      "你和你的": 5106,
      "压迫": 5107,
      "反对": 5108,
      "受诅咒": 5109,
      "同献的": 5110,
      "在各": 5111,
      "在祭坛上": 5112,
      "大群": 5113,
      "姆利": 5114,
      "宴席": 5115,
      "对于": 5116,
      "底下": 5117,
      "把他们的": 5118,
      "早起来": 5119,
      "枯干": 5120,
      "死在": 5121,
      "种子": 5122,
      "终日": 5123,
      "给我们": 5124,
      "而死": 5125,
      "西顿": 5126,
      "躺卧": 5127,
      "迷失": 5128,
      "通奸": 5129,
      "饱足": 5130,
      "马兵": 5131,
      "子孙中": 5132,
      "所做的事": 5133,
      "敬畏耶和华": 5134,
      "应许的": 5135,
      "无花果树": 5136,
      "事实上": 5137,
      "义人的": 5138,
      "他也": 5139,
      "伊法": 5140,
      "出战": 5141,
      "取来": 5142,
      "和平": 5143,
      "哥辖": 5144,
      "唯独": 5145,
      "地界": 5146,
      "多玛": 5147,
      "好使": 5148,
      "安排": 5149,
      "定了": 5150,
      "并不": 5151,
      "引导": 5152,
      "所多玛": 5153,
      "手里": 5154,
      "把这些": 5155,
      "按手": 5156,
      "敌对": 5157,
      "时的": 5158,
      "有许多": 5159,
      "烈的": 5160,
      "用水": 5161,
      "监狱": 5162,
      "称赞": 5163,
      "竖琴": 5164,
      "而要": 5165,
      "耶斯列": 5166,
      "蓝色": 5167,
      "警诫": 5168,
      "诡诈": 5169,
      "那时候": 5170,
      "重的": 5171,
      "驱散": 5172,
      "他们却": 5173,
      "你们必": 5174,
      "我的神哪": 5175,
      "自己所": 5176,
      "的事迹": 5177,
      "亚哈斯": 5178,
      "谨守遵行": 5179,
      "不得": 5180,
      "人必": 5181,
      "从你们": 5182,
      "代替": 5183,
      "基比亚": 5184,
      "增添": 5185,
      "嫉妒": 5186,
      "守望": 5187,
      "将来": 5188,
      "库房": 5189,
      "惊奇": 5190,
      "我将": 5191,
      "所立的": 5192,
      "拉玛": 5193,
      "拿来": 5194,
      "新酒": 5195,
      "无酵": 5196,
      "时期": 5197,
      "消亡": 5198,
      "白天": 5199,
      "紫色": 5200,
      "耶布斯": 5201,
      "蒙恩": 5202,
      "被人": 5203,
      "该亚": 5204,
      "谦卑": 5205,
      "转向": 5206,
      "那个人": 5207,
      "隐秘": 5208,
      "驱逐": 5209,
      "耶稣对他说": 5210,
      "就是在": 5211,
      "祭司和": 5212,
      "求你不要": 5213,
      "祭坛的": 5214,
      "希伯来": 5215,
      "我确实地告诉你们": 5216,
      "脸伏于地": 5217,
      "他连得": 5218,
      "他用": 5219,
      "使他的": 5220,
      "凯撒": 5221,
      "受膏": 5222,
      "土地上": 5223,
      "在自己": 5224,
      "地极": 5225,
      "城里的": 5226,
      "基遍": 5227,
      "奇事": 5228,
      "归属": 5229,
      "得住": 5230,
      "憎恶": 5231,
      "才能": 5232,
      "牧养": 5233,
      "的父亲": 5234,
      "的女子": 5235,
      "真的": 5236,
      "结局": 5237,
      "虚妄": 5238,
      "要从": 5239,
      "顾惜": 5240,
      "他们所": 5241,
      "你的人": 5242,
      "我的手": 5243,
      "人的手": 5244,
      "这样的人": 5245,
      "神的约柜": 5246,
      "律例和": 5247,
      "充满了": 5248,
      "各样的": 5249,
      "米斯巴": 5250,
      "乐意": 5251,
      "事情": 5252,
      "亚设": 5253,
      "令人": 5254,
      "以谢": 5255,
      "传扬": 5256,
      "你也": 5257,
      "你知道": 5258,
      "使自己": 5259,
      "做见证": 5260,
      "千夫长": 5261,
      "头生的": 5262,
      "少女": 5263,
      "支为": 5264,
      "是他": 5265,
      "有谁": 5266,
      "有悟性": 5267,
      "服从": 5268,
      "枝子": 5269,
      "油的": 5270,
      "的大": 5271,
      "的肉": 5272,
      "福份": 5273,
      "罗得": 5274,
      "败坏": 5275,
      "超过": 5276,
      "这地方": 5277,
      "逃到": 5278,
      "震动": 5279,
      "领受": 5280,
      "香料": 5281,
      "驴子": 5282,
      "他们从": 5283,
      "你们应当": 5284,
      "因为这": 5285,
      "耶稣回答": 5286,
      "的儿子们": 5287,
      "难道不": 5288,
      "石头砸": 5289,
      "的名字": 5290,
      "与他的列祖": 5291,
      "一条": 5292,
      "不住": 5293,
      "也不是": 5294,
      "五千": 5295,
      "五肘": 5296,
      "传讲": 5297,
      "你将": 5298,
      "击打": 5299,
      "十四": 5300,
      "同胞": 5301,
      "奥秘": 5302,
      "小的": 5303,
      "希勒": 5304,
      "带上来": 5305,
      "得胜": 5306,
      "手所": 5307,
      "手中的": 5308,
      "投靠": 5309,
      "日光": 5310,
      "未曾": 5311,
      "来说": 5312,
      "查看": 5313,
      "比纳": 5314,
      "沿着": 5315,
      "的和": 5316,
      "真实": 5317,
      "米迦": 5318,
      "触碰": 5319,
      "语言": 5320,
      "说了": 5321,
      "贫穷": 5322,
      "连同": 5323,
      "那一天": 5324,
      "部下": 5325,
      "阿斯": 5326,
      "随着": 5327,
      "革顺": 5328,
      "颈项": 5329,
      "饶恕": 5330,
      "我们所": 5331,
      "他的门徒们": 5332,
      "他的慈爱": 5333,
      "告诉你": 5334,
      "告诉我": 5335,
      "赐给你的": 5336,
      "荣耀的": 5337,
      "生命的": 5338,
      "施行审判": 5339,
      "按着他们的": 5340,
      "亚玛谢": 5341,
      "的首领们": 5342,
      "杀人流血": 5343,
      "从死人中复活": 5344,
      "比纳雅": 5345,
      "一岁的": 5346,
      "三百": 5347,
      "下手": 5348,
      "亚米": 5349,
      "他一": 5350,
      "以萨": 5351,
      "作祭司": 5352,
      "你为": 5353,
      "初熟": 5354,
      "去的": 5355,
      "又像": 5356,
      "吃的": 5357,
      "听我的": 5358,
      "因我": 5359,
      "国度": 5360,
      "在安息日": 5361,
      "大约": 5362,
      "好使你们": 5363,
      "姐妹": 5364,
      "威严": 5365,
      "孤儿": 5366,
      "安然": 5367,
      "尼罗": 5368,
      "带走": 5369,
      "忽然": 5370,
      "怀着": 5371,
      "恐惧": 5372,
      "正是": 5373,
      "永永远": 5374,
      "活了": 5375,
      "消逝": 5376,
      "王后": 5377,
      "血肉": 5378,
      "让你": 5379,
      "说谎": 5380,
      "说过": 5381,
      "请求": 5382,
      "谨慎": 5383,
      "逼迫": 5384,
      "长眠": 5385,
      "阿拉": 5386,
      "顺从": 5387,
      "驱赶": 5388,
      "他们不": 5389,
      "因为这是": 5390,
      "这些是": 5391,
      "我要在": 5392,
      "来到了": 5393,
      "亚哈谢": 5394,
      "没有人能": 5395,
      "全能者": 5396,
      "当受颂赞": 5397,
      "天空的飞鸟": 5398,
      "以萨迦": 5399,
      "永永远远": 5400,
      "三年": 5401,
      "上方": 5402,
      "不忠": 5403,
      "不见": 5404,
      "为义": 5405,
      "主耶稣": 5406,
      "之人": 5407,
      "了吗": 5408,
      "五谷": 5409,
      "人也": 5410,
      "他没有": 5411,
      "何况": 5412,
      "你父亲": 5413,
      "全部": 5414,
      "利品": 5415,
      "喊叫": 5416,
      "埋葬": 5417,
      "多的": 5418,
      "家中": 5419,
      "察看": 5420,
      "对他": 5421,
      "将领": 5422,
      "尊重": 5423,
      "就必": 5424,
      "工艺": 5425,
      "废墟": 5426,
      "当你": 5427,
      "心意": 5428,
      "恐怖": 5429,
      "惹怒": 5430,
      "我又": 5431,
      "战利品": 5432,
      "房间": 5433,
      "收回": 5434,
      "斥责": 5435,
      "牛群": 5436,
      "的女人": 5437,
      "离去": 5438,
      "结果": 5439,
      "计划": 5440,
      "那女人": 5441,
      "阿实": 5442,
      "随从": 5443,
      "雕像": 5444,
      "你们将": 5445,
      "法老的": 5446,
      "的城镇": 5447,
      "君王们": 5448,
      "耶和华的话语临到": 5449,
      "使徒们": 5450,
      "示玛雅": 5451,
      "一万": 5452,
      "不在": 5453,
      "亚多": 5454,
      "亲吻": 5455,
      "人从": 5456,
      "你却": 5457,
      "倾泻": 5458,
      "到他们": 5459,
      "发了": 5460,
      "发作": 5461,
      "口中的": 5462,
      "和所有": 5463,
      "和他们的": 5464,
      "围困": 5465,
      "坐着": 5466,
      "大量": 5467,
      "实行": 5468,
      "寻索": 5469,
      "愿他们": 5470,
      "我不是": 5471,
      "找到了": 5472,
      "抢夺": 5473,
      "有四": 5474,
      "比尔": 5475,
      "站着": 5476,
      "膏抹": 5477,
      "记录": 5478,
      "赐下": 5479,
      "赶快": 5480,
      "返回": 5481,
      "都被": 5482,
      "问他们": 5483,
      "饥饿": 5484,
      "你们去": 5485,
      "你要把": 5486,
      "直到傍晚": 5487,
      "你们要听": 5488,
      "一起去": 5489,
      "告诉了": 5490,
      "临到你们": 5491,
      "赐给他": 5492,
      "孩子们": 5493,
      "与你同在": 5494,
      "什么时候呢": 5495,
      "我儿啊": 5496,
      "做耶和华眼中看为恶的事": 5497,
      "从来没有": 5498,
      "当受颂赞的": 5499,
      "一日": 5500,
      "不致": 5501,
      "乌利亚": 5502,
      "仆倒": 5503,
      "仰望": 5504,
      "众水": 5505,
      "但如今": 5506,
      "你不": 5507,
      "供应": 5508,
      "保持": 5509,
      "修建": 5510,
      "又在": 5511,
      "叫来": 5512,
      "可畏": 5513,
      "哈纳": 5514,
      "商议": 5515,
      "居住在": 5516,
      "巴尔": 5517,
      "巴拿": 5518,
      "当天": 5519,
      "当他们": 5520,
      "彻底": 5521,
      "我从": 5522,
      "把自己": 5523,
      "拔出": 5524,
      "掠夺": 5525,
      "掳走": 5526,
      "改变": 5527,
      "施恩": 5528,
      "有一位": 5529,
      "木柴": 5530,
      "朱红色": 5531,
      "杀害": 5532,
      "杀死": 5533,
      "条例": 5534,
      "标准": 5535,
      "泉源": 5536,
      "法度": 5537,
      "火焰": 5538,
      "王那里": 5539,
      "用手": 5540,
      "百加": 5541,
      "的偶像": 5542,
      "祭牲": 5543,
      "第七天": 5544,
      "给耶和华": 5545,
      "荒废": 5546,
      "莉百加": 5547,
      "走吧": 5548,
      "赶出去": 5549,
      "附近": 5550,
      "院子": 5551,
      "除去": 5552,
      "雕刻": 5553,
      "雨水": 5554,
      "高傲": 5555,
      "这样的事": 5556,
      "临到你": 5557,
      "可以吃": 5558,
      "在他身上": 5559,
      "神的殿": 5560,
      "至于我": 5561,
      "十二个": 5562,
      "其余的事迹": 5563,
      "以上是": 5564,
      "麻风病": 5565,
      "约雅敬": 5566,
      "米拉利": 5567,
      "他的慈爱永远长存": 5568,
      "不让": 5569,
      "为继业": 5570,
      "书记": 5571,
      "了耶和华": 5572,
      "亚舍": 5573,
      "亲眼": 5574,
      "低斯": 5575,
      "刀下": 5576,
      "占卜": 5577,
      "吉甲": 5578,
      "塔尔": 5579,
      "就照着": 5580,
      "带回": 5581,
      "年间": 5582,
      "必成为": 5583,
      "恩惠": 5584,
      "想起": 5585,
      "我父": 5586,
      "打断": 5587,
      "打谷": 5588,
      "施洗": 5589,
      "时间": 5590,
      "是一个": 5591,
      "母牛": 5592,
      "烈怒": 5593,
      "玛塔": 5594,
      "的奴仆": 5595,
      "省长": 5596,
      "西宏": 5597,
      "躲藏": 5598,
      "这边": 5599,
      "门廊": 5600,
      "骸骨": 5601,
      "高处": 5602,
      "他们也": 5603,
      "他们对": 5604,
      "你们如果": 5605,
      "他的妻子": 5606,
      "一切有": 5607,
      "如果是": 5608,
      "你要对": 5609,
      "祖先的神": 5610,
      "不过是": 5611,
      "派遣使者": 5612,
      "彼此相": 5613,
      "眼前蒙恩": 5614,
      "其余的": 5615,
      "万民中": 5616,
      "回转归": 5617,
      "瞎眼的": 5618,
      "无瑕疵的": 5619,
      "亚舍拉": 5620,
      "不仅": 5621,
      "主里": 5622,
      "举起": 5623,
      "了他们的": 5624,
      "争讼": 5625,
      "亚萨": 5626,
      "你从": 5627,
      "做什么呢": 5628,
      "六百": 5629,
      "冰雹": 5630,
      "创造": 5631,
      "厌恶": 5632,
      "又对": 5633,
      "可拉": 5634,
      "同寝": 5635,
      "哈马": 5636,
      "围绕": 5637,
      "士兵": 5638,
      "天国": 5639,
      "守护": 5640,
      "尊崇": 5641,
      "就不会": 5642,
      "带进": 5643,
      "幽暗": 5644,
      "废除": 5645,
      "当你们": 5646,
      "总督": 5647,
      "我对": 5648,
      "我绝不": 5649,
      "所得": 5650,
      "所定的": 5651,
      "断绝": 5652,
      "星辰": 5653,
      "末后": 5654,
      "沙勒": 5655,
      "清早起来": 5656,
      "由于": 5657,
      "的祭坛": 5658,
      "的果实": 5659,
      "着他": 5660,
      "结出": 5661,
      "血债": 5662,
      "西奈": 5663,
      "西珥": 5664,
      "西边": 5665,
      "过夜": 5666,
      "那边": 5667,
      "问耶稣": 5668,
      "降卑": 5669,
      "随同": 5670,
      "靠着": 5671,
      "鼓励": 5672,
      "那些在": 5673,
      "子民的": 5674,
      "攻击你": 5675,
      "回应说": 5676,
      "耶和华的话语临到我": 5677,
      "作王的时候": 5678,
      "四十年": 5679,
      "以弗得": 5680,
      "我主我王": 5681,
      "一头公牛": 5682,
      "三分之一": 5683,
      "五百": 5684,
      "人面前": 5685,
      "代志": 5686,
      "伊施": 5687,
      "你还": 5688,
      "你可以": 5689,
      "侧耳": 5690,
      "全都是": 5691,
      "准备": 5692,
      "出卖": 5693,
      "剩下的": 5694,
      "反叛": 5695,
      "发拉": 5696,
      "同伴": 5697,
      "向我们": 5698,
      "埋伏": 5699,
      "城的": 5700,
      "基大": 5701,
      "外袍": 5702,
      "妓女": 5703,
      "实本": 5704,
      "巴录": 5705,
      "希实本": 5706,
      "年代志": 5707,
      "幼发拉": 5708,
      "恩赐": 5709,
      "攻取": 5710,
      "显出": 5711,
      "本于": 5712,
      "欢乐": 5713,
      "残暴": 5714,
      "每一个": 5715,
      "犯的罪": 5716,
      "玛迦": 5717,
      "甘心": 5718,
      "纯洁": 5719,
      "而出": 5720,
      "职责": 5721,
      "英勇": 5722,
      "裸露": 5723,
      "身边": 5724,
      "邻人的": 5725,
      "长久": 5726,
      "颤抖": 5727,
      "魔鬼": 5728,
      "麻布": 5729,
      "他的子民": 5730,
      "就是那": 5731,
      "以及他": 5732,
      "然后把": 5733,
      "我们的祖先": 5734,
      "洁净了": 5735,
      "在我里面": 5736,
      "两个儿子": 5737,
      "圣所的": 5738,
      "一些人": 5739,
      "献给耶和华的": 5740,
      "得以存活": 5741,
      "香柏木": 5742,
      "到你们那里去": 5743,
      "烧献为": 5744,
      "希勒加": 5745,
      "一岁的公羊羔": 5746,
      "巴拿巴": 5747,
      "幼发拉底": 5748,
      "一边": 5749,
      "上前": 5750,
      "上吗": 5751,
      "两万": 5752,
      "主人的": 5753,
      "了解": 5754,
      "交托": 5755,
      "人那里": 5756,
      "作燔祭": 5757,
      "你曾": 5758,
      "使他们的": 5759,
      "做为": 5760,
      "召集": 5761,
      "吞灭": 5762,
      "在他们的": 5763,
      "大地的": 5764,
      "安稳": 5765,
      "就去": 5766,
      "山谷": 5767,
      "巴拉": 5768,
      "带上": 5769,
      "引诱": 5770,
      "怀孕": 5771,
      "我都": 5772,
      "我将要": 5773,
      "所行的": 5774,
      "撇弃": 5775,
      "有罪": 5776,
      "江河": 5777,
      "波阿斯": 5778,
      "渴望": 5779,
      "猛烈的": 5780,
      "王权": 5781,
      "的恩典": 5782,
      "相反": 5783,
      "看顾": 5784,
      "神说": 5785,
      "米利": 5786,
      "纷争": 5787,
      "统管": 5788,
      "莉亚": 5789,
      "袍子": 5790,
      "要为": 5791,
      "训诲": 5792,
      "谢巴": 5793,
      "贫弱": 5794,
      "赤身": 5795,
      "起的": 5796,
      "身穿": 5797,
      "这世代": 5798,
      "通往": 5799,
      "门卫": 5800,
      "他们的人": 5801,
      "耶和华藉着": 5802,
      "你的手": 5803,
      "我的儿子": 5804,
      "因为那": 5805,
      "他的神": 5806,
      "他的母亲": 5807,
      "这是耶和华": 5808,
      "服事工作": 5809,
      "家族的": 5810,
      "有一些": 5811,
      "把他们从": 5812,
      "了一座": 5813,
      "带来了": 5814,
      "对面的": 5815,
      "要到什么时候呢": 5816,
      "吹响号角": 5817,
      "无酵饼": 5818,
      "不出": 5819,
      "严厉": 5820,
      "丧胆": 5821,
      "为自己的": 5822,
      "之家": 5823,
      "也怎样": 5824,
      "人中": 5825,
      "人群": 5826,
      "人手中": 5827,
      "他对我说": 5828,
      "但我": 5829,
      "停止": 5830,
      "制伏": 5831,
      "南地": 5832,
      "妃嫔": 5833,
      "就没有": 5834,
      "得享": 5835,
      "恐怕": 5836,
      "愿他": 5837,
      "我和": 5838,
      "所生": 5839,
      "承受": 5840,
      "攻取了": 5841,
      "日期": 5842,
      "沉默": 5843,
      "深渊": 5844,
      "王啊": 5845,
      "的愿": 5846,
      "的仆人": 5847,
      "的异象": 5848,
      "皮肤": 5849,
      "看到了": 5850,
      "第四": 5851,
      "给你的": 5852,
      "羊毛": 5853,
      "腰带": 5854,
      "被赐予": 5855,
      "让你们": 5856,
      "记住": 5857,
      "记着": 5858,
      "请你们": 5859,
      "路得": 5860,
      "迎战": 5861,
      "里拉": 5862,
      "你们却": 5863,
      "耶和华会": 5864,
      "你的话语": 5865,
      "他的手": 5866,
      "人的心": 5867,
      "所有在": 5868,
      "我要用": 5869,
      "在我身上": 5870,
      "把他带到": 5871,
      "哪里去": 5872,
      "起誓说": 5873,
      "的城墙": 5874,
      "我也要": 5875,
      "你们就知道": 5876,
      "和附属的村镇": 5877,
      "愚昧人": 5878,
      "站立得住": 5879,
      "耶弗塔": 5880,
      "所立的约": 5881,
      "朱红色线": 5882,
      "一半": 5883,
      "上十字架": 5884,
      "两只": 5885,
      "亚特": 5886,
      "像是": 5887,
      "势力": 5888,
      "却不能": 5889,
      "喝酒": 5890,
      "在于": 5891,
      "外衣": 5892,
      "大海": 5893,
      "大麦": 5894,
      "尚且": 5895,
      "年人": 5896,
      "年的": 5897,
      "忠信": 5898,
      "总是": 5899,
      "惶恐": 5900,
      "我曾": 5901,
      "我吩咐": 5902,
      "扔进": 5903,
      "把她": 5904,
      "撒勒": 5905,
      "放火烧": 5906,
      "方舟": 5907,
      "晚上": 5908,
      "月亮": 5909,
      "死去": 5910,
      "毁坏": 5911,
      "法勒": 5912,
      "的众": 5913,
      "的吗": 5914,
      "而去": 5915,
      "脖子": 5916,
      "膏立": 5917,
      "钉上十字架": 5918,
      "银币": 5919,
      "长出": 5920,
      "他们会": 5921,
      "我的脚": 5922,
      "因为你是": 5923,
      "耶稣那里": 5924,
      "人的王": 5925,
      "不要怕": 5926,
      "已经被": 5927,
      "的事上": 5928,
      "然后他": 5929,
      "在你手中": 5930,
      "洁净的": 5931,
      "有一天": 5932,
      "建造殿宇": 5933,
      "至于你": 5934,
      "生了一个儿子": 5935,
      "教导人": 5936,
      "聚集起来": 5937,
      "发生的事": 5938,
      "玷污了": 5939,
      "圣洁的": 5940,
      "感到惊奇": 5941,
      "永恒的生命": 5942,
      "律例和法规": 5943,
      "七百": 5944,
      "亲手": 5945,
      "他还": 5946,
      "伊勒": 5947,
      "伤害": 5948,
      "其他的": 5949,
      "准许": 5950,
      "出生": 5951,
      "列邦": 5952,
      "医治": 5953,
      "又用": 5954,
      "句话": 5955,
      "后代": 5956,
      "呼叫": 5957,
      "哀求": 5958,
      "嘲笑": 5959,
      "因自己的": 5960,
      "国中": 5961,
      "在其上": 5962,
      "在列国中": 5963,
      "基利": 5964,
      "太监": 5965,
      "孩童": 5966,
      "富有": 5967,
      "就应当": 5968,
      "年幼": 5969,
      "床上": 5970,
      "快要": 5971,
      "思想": 5972,
      "我还": 5973,
      "方向": 5974,
      "暗嫩": 5975,
      "有时": 5976,
      "棕榈": 5977,
      "橡树": 5978,
      "欲望": 5979,
      "法令": 5980,
      "海岛": 5981,
      "深处": 5982,
      "独自": 5983,
      "王国": 5984,
      "神言": 5985,
      "聪明": 5986,
      "背信": 5987,
      "要求": 5988,
      "谋略": 5989,
      "赎愆": 5990,
      "进到": 5991,
      "远方": 5992,
      "述说": 5993,
      "邀请": 5994,
      "重地": 5995,
      "闪电": 5996,
      "耶和华使": 5997,
      "耶和华宣告": 5998,
      "耶和华我们的神": 5999,
      "我的仇敌": 6000,
      "我的性命": 6001,
      "耶和华的永生起誓": 6002,
      "如果有": 6003,
      "难道你": 6004,
      "难道你们": 6005,
      "祝福你": 6006,
      "了一些": 6007,
      "耶和华对我说": 6008,
      "聚集到": 6009,
      "拥有的": 6010,
      "香柏树": 6011,
      "护卫长": 6012,
      "诸王年代志": 6013,
      "烧献为烟": 6014,
      "一肘": 6015,
      "两块": 6016,
      "为耶和华": 6017,
      "之外": 6018,
      "乌西雅": 6019,
      "书信": 6020,
      "了自己的": 6021,
      "仆人的": 6022,
      "从耶和华": 6023,
      "他来到": 6024,
      "住在那里": 6025,
      "六个": 6026,
      "凭着": 6027,
      "剩下": 6028,
      "又从": 6029,
      "因耶和华": 6030,
      "士师": 6031,
      "天天": 6032,
      "失去": 6033,
      "守卫": 6034,
      "宰杀了": 6035,
      "家人": 6036,
      "希兰": 6037,
      "希腊": 6038,
      "幔子": 6039,
      "并要": 6040,
      "建立": 6041,
      "建议": 6042,
      "归向": 6043,
      "我吧": 6044,
      "手下": 6045,
      "打发": 6046,
      "捡拾": 6047,
      "掉了": 6048,
      "数算": 6049,
      "未受割礼": 6050,
      "歌手": 6051,
      "比雅": 6052,
      "波设": 6053,
      "热心": 6054,
      "牛羊": 6055,
      "王对": 6056,
      "疾病": 6057,
      "的口": 6058,
      "的天使": 6059,
      "的工作": 6060,
      "的使者": 6061,
      "眷顾": 6062,
      "石榴": 6063,
      "硬着": 6064,
      "神像": 6065,
      "突然": 6066,
      "结束": 6067,
      "羞耻": 6068,
      "聪慧": 6069,
      "见过": 6070,
      "评断": 6071,
      "谁呢": 6072,
      "调了": 6073,
      "还不": 6074,
      "这时": 6075,
      "这地的": 6076,
      "这世界": 6077,
      "追随": 6078,
      "阻止": 6079,
      "阿尔": 6080,
      "鸽子": 6081,
      "你们说": 6082,
      "你们都": 6083,
      "你们知道": 6084,
      "我们也": 6085,
      "你的一切": 6086,
      "因为在": 6087,
      "耶和华的话": 6088,
      "如果他": 6089,
      "你要用": 6090,
      "不是都记在": 6091,
      "以及所有": 6092,
      "出来了": 6093,
      "的神耶和华如此说": 6094,
      "临到他们": 6095,
      "二十岁": 6096,
      "好让我": 6097,
      "亚比雅": 6098,
      "一只公绵羊": 6099,
      "这些事以后": 6100,
      "！’”": 6101,
      "会幕入口": 6102,
      "我是耶和华你们的神": 6103,
      "安置在": 6104,
      "祭司长们和": 6105,
      "约哈南": 6106,
      "丰盛的": 6107,
      "用水洗": 6108,
      "真实的": 6109,
      "基大利": 6110,
      "一份": 6111,
      "三次": 6112,
      "主耶和华": 6113,
      "主耶和华啊": 6114,
      "了你们": 6115,
      "亚拉巴": 6116,
      "从地上": 6117,
      "他回答": 6118,
      "位天使": 6119,
      "何必": 6120,
      "净尽": 6121,
      "出发": 6122,
      "动摇": 6123,
      "变成": 6124,
      "听到了": 6125,
      "在地": 6126,
      "在一切": 6127,
      "在基督": 6128,
      "墓穴": 6129,
      "好过": 6130,
      "家啊": 6131,
      "对我们": 6132,
      "对耶稣说": 6133,
      "对王说": 6134,
      "将成为": 6135,
      "幸存": 6136,
      "往来": 6137,
      "必不": 6138,
      "恩慈": 6139,
      "恼怒": 6140,
      "我与你": 6141,
      "户珥": 6142,
      "所受的": 6143,
      "手上": 6144,
      "才是": 6145,
      "抵挡": 6146,
      "捉住": 6147,
      "收获": 6148,
      "日落": 6149,
      "有声音": 6150,
      "沙番": 6151,
      "治理": 6152,
      "洞穴": 6153,
      "王位": 6154,
      "王在": 6155,
      "的都": 6156,
      "的先知": 6157,
      "的任何": 6158,
      "的衣服": 6159,
      "的食物": 6160,
      "的战士": 6161,
      "究竟": 6162,
      "荒场": 6163,
      "蜂蜜": 6164,
      "败亡": 6165,
      "贫穷人": 6166,
      "起初": 6167,
      "追求": 6168,
      "避难": 6169,
      "那妇人": 6170,
      "长大": 6171,
      "阴坑": 6172,
      "附身": 6173,
      "随鲁": 6174,
      "雅比": 6175,
      "面的": 6176,
      "预先": 6177,
      "我们知道": 6178,
      "因为她": 6179,
      "没有一个": 6180,
      "耶稣在": 6181,
      "那里的": 6182,
      "耶和华的吩咐": 6183,
      "什么事": 6184,
      "的那地": 6185,
      "心里说": 6186,
      "旷野的": 6187,
      "起誓要": 6188,
      "在他们中间": 6189,
      "亚哈随鲁": 6190,
      "不洁净直到傍晚": 6191,
      "倒在刀下": 6192,
      "基督耶稣里": 6193,
      "经文士们": 6194,
      "父系的首领": 6195,
      "同献的素祭": 6196,
      "与他的列祖长眠": 6197,
      "手所造的": 6198,
      "亚多尼雅": 6199,
      "侧耳听": 6200,
      "一头": 6201,
      "万族": 6202,
      "不敬": 6203,
      "为王": 6204,
      "乌基": 6205,
      "了出来": 6206,
      "交战": 6207,
      "享用": 6208,
      "传来": 6209,
      "作了": 6210,
      "你来": 6211,
      "元帅": 6212,
      "其类": 6213,
      "制造": 6214,
      "加拿": 6215,
      "十五": 6216,
      "危难": 6217,
      "原处": 6218,
      "各省": 6219,
      "各人的": 6220,
      "同房": 6221,
      "启示": 6222,
      "和你们": 6223,
      "和那些": 6224,
      "哈利": 6225,
      "因他们的": 6226,
      "在路上": 6227,
      "地业": 6228,
      "城堡": 6229,
      "夺取": 6230,
      "好比": 6231,
      "娅比": 6232,
      "官长": 6233,
      "宣读": 6234,
      "少壮": 6235,
      "就起来": 6236,
      "工程": 6237,
      "带回来": 6238,
      "常常": 6239,
      "常献的": 6240,
      "庄稼": 6241,
      "当做": 6242,
      "得着": 6243,
      "我与": 6244,
      "我还要": 6245,
      "所行": 6246,
      "折断": 6247,
      "拿达": 6248,
      "拿撒勒": 6249,
      "按家族": 6250,
      "捆住": 6251,
      "捆绑": 6252,
      "掠物": 6253,
      "是照着": 6254,
      "更多": 6255,
      "本哈达": 6256,
      "标记": 6257,
      "正的事": 6258,
      "此外": 6259,
      "每当": 6260,
      "沉睡": 6261,
      "照亮": 6262,
      "牧场": 6263,
      "王子": 6264,
      "玛哈": 6265,
      "的大能": 6266,
      "看不见": 6267,
      "神耶和华所": 6268,
      "第八": 6269,
      "第一个": 6270,
      "绝不能": 6271,
      "绳索": 6272,
      "羞愧": 6273,
      "而欢喜": 6274,
      "胸牌": 6275,
      "行动": 6276,
      "行善": 6277,
      "裁决": 6278,
      "认出": 6279,
      "议会": 6280,
      "说预言": 6281,
      "轮子": 6282,
      "轻视": 6283,
      "这么": 6284,
      "这殿宇": 6285,
      "逃避": 6286,
      "道上": 6287,
      "释义": 6288,
      "顾念": 6289,
      "首先": 6290,
      "他们用": 6291,
      "你的心": 6292,
      "耶和华的荣耀": 6293,
      "不要害怕": 6294,
      "所有的居民": 6295,
      "告诉他们": 6296,
      "怎样对待": 6297,
      "也不再": 6298,
      "律法的": 6299,
      "他们就知道": 6300,
      "列国的": 6301,
      "亚比亚特": 6302,
      "预备好": 6303,
      "四围的": 6304,
      "成就了": 6305,
      "跟随他": 6306,
      "困苦人": 6307,
      "至高者": 6308,
      "称谢你": 6309,
      "石头砸死": 6310,
      "沙勒姆": 6311,
      "调了油的": 6312,
      "一件": 6313,
      "世上": 6314,
      "两条": 6315,
      "两根": 6316,
      "丰富": 6317,
      "为人": 6318,
      "之内": 6319,
      "之心": 6320,
      "也能": 6321,
      "他就是": 6322,
      "伊拉": 6323,
      "你会": 6324,
      "保全": 6325,
      "光辉": 6326,
      "农夫": 6327,
      "刚硬": 6328,
      "南方": 6329,
      "同去": 6330,
      "和公义": 6331,
      "咒骂": 6332,
      "哈薛": 6333,
      "回家": 6334,
      "坐席": 6335,
      "块石头": 6336,
      "基拉": 6337,
      "多如": 6338,
      "大河": 6339,
      "娜娥": 6340,
      "将到": 6341,
      "就知道": 6342,
      "带出来": 6343,
      "帷幔": 6344,
      "平静": 6345,
      "强大": 6346,
      "心上": 6347,
      "愚拙": 6348,
      "成全": 6349,
      "我却": 6350,
      "我听见": 6351,
      "接近": 6352,
      "摆设": 6353,
      "播种": 6354,
      "放声": 6355,
      "是不": 6356,
      "更何况": 6357,
      "有三": 6358,
      "期盼": 6359,
      "木头": 6360,
      "束上": 6361,
      "森林": 6362,
      "止息": 6363,
      "死后": 6364,
      "灵的": 6365,
      "用于": 6366,
      "田间": 6367,
      "的形": 6368,
      "的酒": 6369,
      "的耶和华": 6370,
      "的领袖": 6371,
      "的膀臂": 6372,
      "的圣者": 6373,
      "的男子": 6374,
      "相比": 6375,
      "穿着": 6376,
      "约坦": 6377,
      "经上所记": 6378,
      "罪过": 6379,
      "考验": 6380,
      "而行": 6381,
      "背叛": 6382,
      "腹中": 6383,
      "良心": 6384,
      "苦役": 6385,
      "蒙爱": 6386,
      "虚谎": 6387,
      "蝗虫": 6388,
      "规定": 6389,
      "说神言": 6390,
      "谈论": 6391,
      "谢拉": 6392,
      "身上的": 6393,
      "躲避": 6394,
      "迦密": 6395,
      "醒来": 6396,
      "长的": 6397,
      "陷阱": 6398,
      "雅哈": 6399,
      "黑夜": 6400,
      "默示": 6401,
      "他们又": 6402,
      "耶和华殿的": 6403,
      "你的慈爱": 6404,
      "耶稣回答说": 6405,
      "子孙和": 6406,
      "你们的祖先": 6407,
      "的神迹": 6408,
      "的神万军之耶和华如此说": 6409,
      "吩咐他们": 6410,
      "一位天使": 6411,
      "把他杀了": 6412,
      "律法书": 6413,
      "有一大群": 6414,
      "建造了": 6415,
      "攻击我": 6416,
      "我所吩咐": 6417,
      "在他们身上": 6418,
      "圣殿里": 6419,
      "必须被处死": 6420,
      "跟随他的": 6421,
      "击杀他们": 6422,
      "可憎之物": 6423,
      "一定要": 6424,
      "以斯拉": 6425,
      "哥哥们": 6426,
      "逾越节的": 6427,
      "在那些日子": 6428,
      "留心听": 6429,
      "受膏者": 6430,
      "巴录克": 6431,
      "起的誓": 6432,
      "里拉琴": 6433,
      "娜娥米": 6434,
      "七次": 6435,
      "不被": 6436,
      "不明白": 6437,
      "丘陵": 6438,
      "之中": 6439,
      "也被": 6440,
      "乳香": 6441,
      "亲近": 6442,
      "他那里": 6443,
      "以拦": 6444,
      "修筑": 6445,
      "做先知": 6446,
      "全然": 6447,
      "全身": 6448,
      "共有": 6449,
      "危险": 6450,
      "叹息": 6451,
      "呼救": 6452,
      "和所有的": 6453,
      "喝了": 6454,
      "喝水": 6455,
      "因这": 6456,
      "天下": 6457,
      "委任": 6458,
      "安放在": 6459,
      "完成": 6460,
      "宝贵": 6461,
      "将会": 6462,
      "小孩子": 6463,
      "就如": 6464,
      "就对他们说": 6465,
      "尺寸": 6466,
      "尼哈": 6467,
      "工匠": 6468,
      "巴沙": 6469,
      "弃绝": 6470,
      "当他": 6471,
      "当作": 6472,
      "心灵": 6473,
      "情况": 6474,
      "我现在": 6475,
      "指定": 6476,
      "撒巴": 6477,
      "旗帜": 6478,
      "昼夜": 6479,
      "更加": 6480,
      "有两个": 6481,
      "样子": 6482,
      "流亡": 6483,
      "火中": 6484,
      "灰烬": 6485,
      "环绕": 6486,
      "生活": 6487,
      "的权": 6488,
      "的爱": 6489,
      "的银子": 6490,
      "的母亲": 6491,
      "的脂肪": 6492,
      "盛怒": 6493,
      "站起来": 6494,
      "米该亚": 6495,
      "给她": 6496,
      "给他的": 6497,
      "耶书亚": 6498,
      "芦苇": 6499,
      "警醒": 6500,
      "许的愿": 6501,
      "谋划": 6502,
      "责打": 6503,
      "跟从我": 6504,
      "铜海": 6505,
      "集会": 6506,
      "非尼哈": 6507,
      "高抬": 6508,
      "他们中间": 6509,
      "你们自己": 6510,
      "我的灵": 6511,
      "因为神": 6512,
      "耶稣又": 6513,
      "如果我们": 6514,
      "你要在": 6515,
      "以及你": 6516,
      "藉着他": 6517,
      "因此我": 6518,
      "我必使": 6519,
      "女儿们": 6520,
      "给他起名为": 6521,
      "这一切事": 6522,
      "会幕的": 6523,
      "派人到": 6524,
      "大能的手": 6525,
      "五十人": 6526,
      "拣选的": 6527,
      "大家都": 6528,
      "实在是": 6529,
      "把你们从": 6530,
      "颂赞耶和华": 6531,
      "被杀的人": 6532,
      "撕裂衣服": 6533,
      "日光之下": 6534,
      "哈纳尼雅": 6535,
      "一旦": 6536,
      "七月": 6537,
      "万人": 6538,
      "不像": 6539,
      "东方": 6540,
      "五只": 6541,
      "交出去": 6542,
      "仆役": 6543,
      "从他的": 6544,
      "他自己": 6545,
      "估价": 6546,
      "你能": 6547,
      "你竟然": 6548,
      "偷窃": 6549,
      "傲慢": 6550,
      "先见": 6551,
      "军官": 6552,
      "几个": 6553,
      "判定": 6554,
      "加低斯": 6555,
      "十八": 6556,
      "半支派": 6557,
      "即将": 6558,
      "合欢": 6559,
      "吞吃": 6560,
      "否认": 6561,
      "哀声": 6562,
      "唯有": 6563,
      "四百": 6564,
      "在它": 6565,
      "在天上": 6566,
      "地和": 6567,
      "坚定": 6568,
      "小麦": 6569,
      "就问": 6570,
      "年老": 6571,
      "庙宇": 6572,
      "延伸": 6573,
      "必像": 6574,
      "忧虑": 6575,
      "恢复": 6576,
      "悲恸": 6577,
      "我也不": 6578,
      "所得的": 6579,
      "报偿": 6580,
      "无辜": 6581,
      "是这样的": 6582,
      "更大的": 6583,
      "最好的": 6584,
      "欺骗": 6585,
      "残留": 6586,
      "河流": 6587,
      "洗礼": 6588,
      "洗鲁": 6589,
      "狂傲": 6590,
      "生育": 6591,
      "的一个": 6592,
      "的主人": 6593,
      "的帐篷": 6594,
      "的房屋": 6595,
      "的福音": 6596,
      "神面前": 6597,
      "纳达": 6598,
      "职份": 6599,
      "脚下": 6600,
      "脚前": 6601,
      "舍弃": 6602,
      "苦待": 6603,
      "衣袍": 6604,
      "被摧毁": 6605,
      "装饰": 6606,
      "西西拉": 6607,
      "要与": 6608,
      "要有": 6609,
      "见到": 6610,
      "讲话": 6611,
      "请让我": 6612,
      "逃走": 6613,
      "遭遇": 6614,
      "金合欢": 6615,
      "降临": 6616,
      "骄傲": 6617,
      "我们主耶稣基督": 6618,
      "你的儿子": 6619,
      "的人就": 6620,
      "一切都": 6621,
      "就是他": 6622,
      "直到永永远远": 6623,
      "来到你": 6624,
      "求你照着": 6625,
      "的子孙中": 6626,
      "在他里面": 6627,
      "十二使徒": 6628,
      "一只公山羊": 6629,
      "第二次": 6630,
      "你们的神耶和华": 6631,
      "赞美他": 6632,
      "帐幕的": 6633,
      "与他们一起": 6634,
      "五十个": 6635,
      "邪恶的": 6636,
      "坟墓里": 6637,
      "在位第": 6638,
      "圣徒们": 6639,
      "不断地": 6640,
      "恩待我": 6641,
      "田野的走兽": 6642,
      "临近了": 6643,
      "按着他们的家族": 6644,
      "施恩座": 6645,
      "塔尔施": 6646,
      "英勇的战士": 6647,
      "猛烈的怒气": 6648,
      "棕榈树": 6649,
      "做先知传道": 6650,
      "’。": 6651,
      "万四": 6652,
      "三人": 6653,
      "临产": 6654,
      "书兰": 6655,
      "了起来": 6656,
      "二人": 6657,
      "仆婢": 6658,
      "他曾": 6659,
      "仿佛": 6660,
      "你到": 6661,
      "你用": 6662,
      "倒下": 6663,
      "倒塌": 6664,
      "倾覆": 6665,
      "其顿": 6666,
      "又如": 6667,
      "取出": 6668,
      "各支派": 6669,
      "各父系的首领": 6670,
      "向着": 6671,
      "和他们": 6672,
      "和一切": 6673,
      "园子": 6674,
      "处女": 6675,
      "夺去": 6676,
      "奴役": 6677,
      "就在那里": 6678,
      "左边": 6679,
      "希斯": 6680,
      "怀中": 6681,
      "愿我的": 6682,
      "我为": 6683,
      "我主啊": 6684,
      "所宣告": 6685,
      "扶持": 6686,
      "把那些": 6687,
      "抛弃": 6688,
      "披上": 6689,
      "抹掉": 6690,
      "拉撒": 6691,
      "拿走": 6692,
      "拿兵器": 6693,
      "指责": 6694,
      "提摩": 6695,
      "本来": 6696,
      "永久": 6697,
      "污灵": 6698,
      "洪水": 6699,
      "海里": 6700,
      "特罗": 6701,
      "男女": 6702,
      "的份": 6703,
      "的呢": 6704,
      "的有": 6705,
      "的兄弟": 6706,
      "的头上": 6707,
      "的勇士": 6708,
      "的军队": 6709,
      "真正": 6710,
      "示麦": 6711,
      "算为": 6712,
      "米沙": 6713,
      "米书兰": 6714,
      "绊脚": 6715,
      "绳子": 6716,
      "脚步": 6717,
      "虚无": 6718,
      "讥讽": 6719,
      "说出": 6720,
      "路亚": 6721,
      "辖制": 6722,
      "追讨": 6723,
      "送到": 6724,
      "遥远": 6725,
      "静默": 6726,
      "顺利": 6727,
      "风吹": 6728,
      "马其顿": 6729,
      "他们没有": 6730,
      "耶和华殿": 6731,
      "耶和华的手": 6732,
      "耶和华的怒气": 6733,
      "就是你": 6734,
      "这些都是": 6735,
      "祭司就要": 6736,
      "以利加拿": 6737,
      "的一切器具": 6738,
      "智慧和": 6739,
      "他就会": 6740,
      "在耶和华殿中": 6741,
      "建造的": 6742,
      "在他们面前": 6743,
      "殿宇的": 6744,
      "先前的": 6745,
      "无人居住": 6746,
      "信实的": 6747,
      "的一段": 6748,
      "血肉的": 6749,
      "打谷场": 6750,
      "赎愆祭": 6751,
      "哈利路亚": 6752,
      "洗鲁雅": 6753,
      "金合欢木": 6754,
      "提摩太": 6755,
      "”；": 6756,
      "一无": 6757,
      "不属于": 6758,
      "为她": 6759,
      "人所": 6760,
      "人把": 6761,
      "他却": 6762,
      "他向": 6763,
      "以自己的": 6764,
      "任凭": 6765,
      "伊利": 6766,
      "住处": 6767,
      "何利": 6768,
      "你自己": 6769,
      "你已经": 6770,
      "使它们": 6771,
      "俘虏": 6772,
      "做成": 6773,
      "停留在": 6774,
      "偿还": 6775,
      "免于": 6776,
      "共四": 6777,
      "出入": 6778,
      "到永远": 6779,
      "古时": 6780,
      "各个": 6781,
      "合宜": 6782,
      "向它们": 6783,
      "听过": 6784,
      "和她的": 6785,
      "哈西": 6786,
      "四散": 6787,
      "在其中": 6788,
      "在主里": 6789,
      "坑里": 6790,
      "塔楼": 6791,
      "大有": 6792,
      "子和": 6793,
      "审断": 6794,
      "容忍": 6795,
      "对那": 6796,
      "对那些": 6797,
      "将有": 6798,
      "尼尼": 6799,
      "展开": 6800,
      "巴伯": 6801,
      "广场上": 6802,
      "床榻": 6803,
      "归入": 6804,
      "德拉": 6805,
      "怜恤": 6806,
      "总管": 6807,
      "悲哀": 6808,
      "惊吓": 6809,
      "惊讶": 6810,
      "愿神": 6811,
      "所指示": 6812,
      "才会": 6813,
      "报信": 6814,
      "拉末": 6815,
      "拿去": 6816,
      "指教": 6817,
      "指明": 6818,
      "指望": 6819,
      "新月": 6820,
      "新郎": 6821,
      "是你的": 6822,
      "是因为": 6823,
      "更大": 6824,
      "枝干": 6825,
      "梅尔": 6826,
      "殊言": 6827,
      "毁掉": 6828,
      "洗衣服": 6829,
      "清楚": 6830,
      "火焚烧": 6831,
      "熄灭": 6832,
      "献上的": 6833,
      "玛西雅": 6834,
      "瘸腿": 6835,
      "的燔祭": 6836,
      "真是": 6837,
      "石版": 6838,
      "稳固": 6839,
      "竖立": 6840,
      "红海": 6841,
      "绝不再": 6842,
      "者和": 6843,
      "耻辱": 6844,
      "聚会": 6845,
      "自以为": 6846,
      "色的": 6847,
      "菌斑": 6848,
      "蒺藜": 6849,
      "被剪除": 6850,
      "讲说": 6851,
      "试验": 6852,
      "财宝": 6853,
      "贿赂": 6854,
      "达到": 6855,
      "这话语": 6856,
      "这也是": 6857,
      "送给": 6858,
      "除尽": 6859,
      "领他们": 6860,
      "香炉": 6861,
      "他们却不": 6862,
      "你的诫命": 6863,
      "的人和": 6864,
      "我的律例": 6865,
      "他的仆人": 6866,
      "没有一个人": 6867,
      "你们的一切": 6868,
      "于是他": 6869,
      "不可以": 6870,
      "这是为要": 6871,
      "看见他": 6872,
      "临到他": 6873,
      "临到我们": 6874,
      "所以看哪": 6875,
      "的一切事": 6876,
      "成为一个": 6877,
      "服事耶和华": 6878,
      "所罗巴伯": 6879,
      "道路上": 6880,
      "好让我们": 6881,
      "亚比筛": 6882,
      "上来攻打": 6883,
      "门徒们说": 6884,
      "回应我": 6885,
      "会幕中": 6886,
      "怒气中": 6887,
      "死亡的": 6888,
      "从你面前": 6889,
      "一定会": 6890,
      "灭绝净尽": 6891,
      "今日这样": 6892,
      "变得荒凉": 6893,
      "奇妙作为": 6894,
      "会堂里": 6895,
      "驱散到": 6896,
      "隐秘处": 6897,
      "安然居住": 6898,
      "他的母亲名叫": 6899,
      "避难所": 6900,
      "尼尼微": 6901,
      "一月": 6902,
      "不洁": 6903,
      "严重": 6904,
      "为大": 6905,
      "主说": 6906,
      "了耶稣": 6907,
      "亚嫩": 6908,
      "亚纳": 6909,
      "人吗": 6910,
      "从北方": 6911,
      "以革": 6912,
      "传福音": 6913,
      "伪善": 6914,
      "但在": 6915,
      "你呢": 6916,
      "你没有": 6917,
      "保护": 6918,
      "儿媳": 6919,
      "内殿": 6920,
      "内院": 6921,
      "分散": 6922,
      "动身": 6923,
      "升起": 6924,
      "卑劣": 6925,
      "南边": 6926,
      "发预言": 6927,
      "受苦": 6928,
      "同睡": 6929,
      "同行": 6930,
      "向王": 6931,
      "和你们的": 6932,
      "囚犯": 6933,
      "圣名": 6934,
      "在大": 6935,
      "夏甲": 6936,
      "夜里": 6937,
      "大军": 6938,
      "大流": 6939,
      "天亮": 6940,
      "夺走": 6941,
      "她丈夫": 6942,
      "安葬": 6943,
      "就请": 6944,
      "尼八": 6945,
      "居鲁": 6946,
      "岳父": 6947,
      "希未": 6948,
      "幅幔帐": 6949,
      "征兆": 6950,
      "很快": 6951,
      "必在": 6952,
      "怨言": 6953,
      "悲伤": 6954,
      "我去": 6955,
      "我呢": 6956,
      "我确": 6957,
      "所犯的罪": 6958,
      "拦阻": 6959,
      "拿伯": 6960,
      "按圣所的": 6961,
      "是耶和华": 6962,
      "有福": 6963,
      "样式": 6964,
      "梦的": 6965,
      "注视": 6966,
      "洗净": 6967,
      "渐渐": 6968,
      "灭尽": 6969,
      "王法老": 6970,
      "玛吉": 6971,
      "生出": 6972,
      "的主": 6973,
      "的祭物": 6974,
      "的妇人": 6975,
      "的土地": 6976,
      "细亚": 6977,
      "美食": 6978,
      "耳中": 6979,
      "肾脏": 6980,
      "背弃": 6981,
      "脂油": 6982,
      "膜拜": 6983,
      "自夸": 6984,
      "良人": 6985,
      "荒芜": 6986,
      "蒙祝福": 6987,
      "行政": 6988,
      "讲论": 6989,
      "谁就": 6990,
      "谁是": 6991,
      "谋士": 6992,
      "过失": 6993,
      "迦巴": 6994,
      "邪灵": 6995,
      "野兽": 6996,
      "除非": 6997,
      "鞭打": 6998,
      "顺着": 6999,
      "他们当中": 7000,
      "你的律法": 7001,
      "我的一切": 7002,
      "就是说": 7003,
      "自己的性命": 7004,
      "知道的": 7005,
      "不是出于": 7006,
      "你们要把": 7007,
      "有人告诉": 7008,
      "把他们交在": 7009,
      "分别出来": 7010,
      "预备了": 7011,
      "耶和华的话语又": 7012,
      "她们的": 7013,
      "羊群中": 7014,
      "确实实": 7015,
      "亚希雅": 7016,
      "与我一同": 7017,
      "与你们同在": 7018,
      "约哈斯": 7019,
      "手里拿着": 7020,
      "这是耶和华说的": 7021,
      "娅比盖": 7022,
      "少壮狮子": 7023,
      "希斯伦": 7024,
      "大流士": 7025,
      "居鲁士": 7026,
      "我确确实实": 7027,
      "按圣所的谢克尔": 7028,
      "一下": 7029,
      "上腾": 7030,
      "为奴": 7031,
      "举手": 7032,
      "争论": 7033,
      "互相": 7034,
      "亚拿": 7035,
      "亚斯": 7036,
      "他被": 7037,
      "众海岛": 7038,
      "伯示麦": 7039,
      "但那": 7040,
      "你如果": 7041,
      "你仆人": 7042,
      "信徒": 7043,
      "倾听": 7044,
      "做的事": 7045,
      "允许": 7046,
      "六年": 7047,
      "分开": 7048,
      "发生了": 7049,
      "叫做": 7050,
      "各民族": 7051,
      "名声": 7052,
      "和祭司": 7053,
      "和它的": 7054,
      "和族兄弟": 7055,
      "哀歌": 7056,
      "哀鸣": 7057,
      "哈南": 7058,
      "地领出来": 7059,
      "坐下": 7060,
      "城外": 7061,
      "基士": 7062,
      "外族人": 7063,
      "奈曼": 7064,
      "就向": 7065,
      "就对他说": 7066,
      "山顶": 7067,
      "山地的": 7068,
      "平息": 7069,
      "平平安": 7070,
      "并在": 7071,
      "建筑": 7072,
      "归到": 7073,
      "归给": 7074,
      "得荣耀": 7075,
      "急忙": 7076,
      "恼火": 7077,
      "患了": 7078,
      "惊骇": 7079,
      "懒惰": 7080,
      "我一": 7081,
      "我向你": 7082,
      "所杀": 7083,
      "扩散": 7084,
      "扭曲": 7085,
      "折磨": 7086,
      "拉吉": 7087,
      "挂在": 7088,
      "挑选": 7089,
      "掌管": 7090,
      "掳掠": 7091,
      "断了": 7092,
      "方面": 7093,
      "旋风": 7094,
      "无可": 7095,
      "无故": 7096,
      "明达": 7097,
      "是一": 7098,
      "是用": 7099,
      "是多么": 7100,
      "显露": 7101,
      "本族": 7102,
      "杀掉": 7103,
      "极多的": 7104,
      "欧革": 7105,
      "毁了": 7106,
      "每年": 7107,
      "比我": 7108,
      "河边": 7109,
      "海中的": 7110,
      "淹没": 7111,
      "烧掉": 7112,
      "疲乏": 7113,
      "的面": 7114,
      "的石头": 7115,
      "的臣仆": 7116,
      "的磐石": 7117,
      "的工艺": 7118,
      "真诚": 7119,
      "神殿的": 7120,
      "称呼": 7121,
      "策划": 7122,
      "管家": 7123,
      "米尔": 7124,
      "约珥": 7125,
      "罐子": 7126,
      "而活": 7127,
      "自我": 7128,
      "至圣": 7129,
      "良善": 7130,
      "莱雅": 7131,
      "西莱雅": 7132,
      "要像": 7133,
      "让她": 7134,
      "训诫": 7135,
      "说什么": 7136,
      "说的话": 7137,
      "谱系": 7138,
      "走在": 7139,
      "过身": 7140,
      "这一点": 7141,
      "远处": 7142,
      "远远": 7143,
      "追上": 7144,
      "追逼": 7145,
      "重要": 7146,
      "耶和华殿中": 7147,
      "我的眼睛": 7148,
      "我的永生起誓": 7149,
      "因为他们的": 7150,
      "因为我是": 7151,
      "儿子的": 7152,
      "一个银": 7153,
      "耶和华的灵": 7154,
      "就是那些": 7155,
      "于是我": 7156,
      "于是耶稣": 7157,
      "看见的": 7158,
      "日子将到": 7159,
      "宣告说": 7160,
      "并且会": 7161,
      "在你那里": 7162,
      "的那天": 7163,
      "出去到": 7164,
      "我说话": 7165,
      "仇敌的": 7166,
      "做了什么": 7167,
      "放在心上": 7168,
      "二十肘": 7169,
      "回来了": 7170,
      "圣灵的": 7171,
      "使者们": 7172,
      "向耶和华呼求": 7173,
      "与我一起": 7174,
      "五十肘": 7175,
      "子孙的领袖": 7176,
      "称谢耶和华": 7177,
      "一生的日子": 7178,
      "到他那里": 7179,
      "地面上": 7180,
      "瘸腿的": 7181,
      "以革伦": 7182,
      "平平安安": 7183,
      "万象": 7184,
      "三千": 7185,
      "上好的": 7186,
      "下面": 7187,
      "临门": 7188,
      "亚吉": 7189,
      "人数": 7190,
      "从今": 7191,
      "从哪里": 7192,
      "任意": 7193,
      "会儿": 7194,
      "会有": 7195,
      "传遍": 7196,
      "你以": 7197,
      "你向": 7198,
      "俄巴": 7199,
      "做这事": 7200,
      "停留": 7201,
      "像他": 7202,
      "光秃": 7203,
      "八十": 7204,
      "六天": 7205,
      "共十二人": 7206,
      "分辨": 7207,
      "创伤": 7208,
      "到达": 7209,
      "加沙": 7210,
      "十分": 7211,
      "各地": 7212,
      "同心": 7213,
      "名单": 7214,
      "呐喊": 7215,
      "咆哮": 7216,
      "和我": 7217,
      "和祭坛": 7218,
      "和地上的": 7219,
      "哈佐": 7220,
      "哈兰": 7221,
      "善待": 7222,
      "喜欢": 7223,
      "喧嚷": 7224,
      "圣职": 7225,
      "在她": 7226,
      "基哈西": 7227,
      "复存在": 7228,
      "多少": 7229,
      "大事": 7230,
      "好消息": 7231,
      "如何": 7232,
      "定罪": 7233,
      "就能": 7234,
      "左右": 7235,
      "干旱": 7236,
      "应允": 7237,
      "弓箭": 7238,
      "必得": 7239,
      "惊慌": 7240,
      "我该": 7241,
      "所在": 7242,
      "手掌": 7243,
      "手的": 7244,
      "抢掠": 7245,
      "提雅": 7246,
      "摆阵": 7247,
      "摩拉": 7248,
      "无意": 7249,
      "是为": 7250,
      "是藉着": 7251,
      "暗中": 7252,
      "权能": 7253,
      "来攻击": 7254,
      "格摩拉": 7255,
      "榨酒": 7256,
      "欢唱": 7257,
      "欺诈": 7258,
      "武装": 7259,
      "水泉": 7260,
      "注意": 7261,
      "洒在": 7262,
      "洗别": 7263,
      "浇奠": 7264,
      "狮子的": 7265,
      "王室": 7266,
      "王吩咐": 7267,
      "的树": 7268,
      "的确": 7269,
      "禧年": 7270,
      "积蓄": 7271,
      "税吏": 7272,
      "穗子": 7273,
      "米底亚": 7274,
      "繁衍": 7275,
      "纳巴尔": 7276,
      "罪罚": 7277,
      "耶洗别": 7278,
      "背道": 7279,
      "至今": 7280,
      "获得": 7281,
      "蒙召": 7282,
      "蒙悦纳": 7283,
      "被丢": 7284,
      "装备": 7285,
      "要被": 7286,
      "让人": 7287,
      "诡计": 7288,
      "该隐": 7289,
      "贵族": 7290,
      "赔偿": 7291,
      "躺在": 7292,
      "辩论": 7293,
      "边上": 7294,
      "这不是": 7295,
      "进城": 7296,
      "那在": 7297,
      "配得": 7298,
      "里亚": 7299,
      "重量": 7300,
      "院子里": 7301,
      "陶匠": 7302,
      "露水": 7303,
      "面上": 7304,
      "饼和": 7305,
      "马的": 7306,
      "黄金": 7307,
      "你们看": 7308,
      "耶和华吩咐": 7309,
      "我们吧": 7310,
      "你的公义": 7311,
      "我的口": 7312,
      "我的约": 7313,
      "他的话": 7314,
      "一个名叫": 7315,
      "那里有": 7316,
      "人的血": 7317,
      "那些被": 7318,
      "你们的缘故": 7319,
      "已经在": 7320,
      "的神耶和华": 7321,
      "那时你们就知道": 7322,
      "那时他们就知道": 7323,
      "求你记念": 7324,
      "所以我": 7325,
      "住在其中": 7326,
      "的子孙中有": 7327,
      "服事他": 7328,
      "把他从": 7329,
      "还有附属的": 7330,
      "心里的": 7331,
      "无论谁": 7332,
      "祝福了": 7333,
      "就像今日这样": 7334,
      "他在一起": 7335,
      "好让他们": 7336,
      "也没有人": 7337,
      "慈爱和": 7338,
      "外邦人的": 7339,
      "与他同在": 7340,
      "帮助我": 7341,
      "世界的": 7342,
      "寻求耶和华": 7343,
      "公正和公义": 7344,
      "战车和": 7345,
      "把你从": 7346,
      "喜悦的": 7347,
      "除灭了": 7348,
      "因着信": 7349,
      "的各城": 7350,
      "细麻布": 7351,
      "号角声": 7352,
      "都不可做": 7353,
      "我指着我的永生起誓": 7354,
      "西拉斯": 7355,
      "橄榄树": 7356,
      "是什么意思": 7357,
      "比利洗": 7358,
      "经上记着": 7359,
      "阿实突": 7360,
      "一切有血肉的": 7361,
      "了一座祭坛": 7362,
      "被赐予了": 7363,
      "朱红色线和": 7364,
      "法勒斯": 7365,
      "幸存者": 7366,
      "调了油的细面粉": 7367,
      "蒙爱的人哪": 7368,
      "纳达布": 7369,
      "拉撒路": 7370,
      "耶和华的话语又临到我": 7371,
      "榨酒池": 7372,
      "一队": 7373,
      "上加": 7374,
      "下来的": 7375,
      "不但": 7376,
      "不用": 7377,
      "不相信": 7378,
      "之日": 7379,
      "也与": 7380,
      "也知道": 7381,
      "亚当": 7382,
      "亚门": 7383,
      "人与": 7384,
      "人争战": 7385,
      "仁慈": 7386,
      "仆倒在": 7387,
      "他与": 7388,
      "传到": 7389,
      "但他": 7390,
      "但是我": 7391,
      "你现在": 7392,
      "做这些事": 7393,
      "公平": 7394,
      "内心": 7395,
      "内脏": 7396,
      "决意": 7397,
      "分得": 7398,
      "分裂": 7399,
      "别人的": 7400,
      "北边": 7401,
      "压碎": 7402,
      "受惩罚": 7403,
      "只管": 7404,
      "只能": 7405,
      "叶子": 7406,
      "同一个": 7407,
      "名的人": 7408,
      "君王的": 7409,
      "哈娜": 7410,
      "哪个": 7411,
      "哪一个": 7412,
      "国民": 7413,
      "图谋": 7414,
      "在王面前": 7415,
      "地里": 7416,
      "城市": 7417,
      "基立": 7418,
      "墙柱": 7419,
      "大腿": 7420,
      "大臣": 7421,
      "女孩": 7422,
      "奸恶": 7423,
      "安提": 7424,
      "安静": 7425,
      "完成了": 7426,
      "容易": 7427,
      "对耶和华": 7428,
      "对你的": 7429,
      "导致": 7430,
      "封印": 7431,
      "就这样": 7432,
      "岁时": 7433,
      "干渴": 7434,
      "强壮": 7435,
      "强大的": 7436,
      "当着": 7437,
      "往哪里去": 7438,
      "必不再": 7439,
      "患病": 7440,
      "惊恐": 7441,
      "愿恩典": 7442,
      "我到": 7443,
      "我能": 7444,
      "所赐给": 7445,
      "所起的誓": 7446,
      "托比亚": 7447,
      "报仇": 7448,
      "撒种": 7449,
      "新娘": 7450,
      "是这样": 7451,
      "是出于": 7452,
      "更好": 7453,
      "有许多人": 7454,
      "条路": 7455,
      "果然": 7456,
      "民中": 7457,
      "水的": 7458,
      "求的": 7459,
      "物的": 7460,
      "特斯": 7461,
      "率领": 7462,
      "玛基": 7463,
      "理性": 7464,
      "田里": 7465,
      "的山": 7466,
      "的民": 7467,
      "的律法": 7468,
      "的礼物": 7469,
      "神殿": 7470,
      "算什么": 7471,
      "紧紧": 7472,
      "罗马": 7473,
      "苏萨": 7474,
      "荒漠": 7475,
      "蒙了": 7476,
      "西纳": 7477,
      "要塞": 7478,
      "要让": 7479,
      "要照着": 7480,
      "记得": 7481,
      "试炼": 7482,
      "诚实": 7483,
      "请听": 7484,
      "谎言": 7485,
      "负担": 7486,
      "走过": 7487,
      "跌倒": 7488,
      "跳舞": 7489,
      "转过身": 7490,
      "这件事": 7491,
      "都从": 7492,
      "陈设": 7493,
      "面向": 7494,
      "领受的": 7495,
      "香坛": 7496,
      "高过": 7497,
      "麦子": 7498,
      "黄昏": 7499,
      "他们为": 7500,
      "他们被": 7501,
      "他们都是": 7502,
      "你们里面": 7503,
      "耶和华神": 7504,
      "我们脱离": 7505,
      "你的话": 7506,
      "你的后裔": 7507,
      "因为它": 7508,
      "他的心": 7509,
      "耶和华的仆人": 7510,
      "就是从": 7511,
      "就是我": 7512,
      "就是你们": 7513,
      "你们的心": 7514,
      "这是因为": 7515,
      "以及他的儿子": 7516,
      "现在我": 7517,
      "以利押": 7518,
      "并且要": 7519,
      "赐给我": 7520,
      "在你身上": 7521,
      "在你眼前蒙恩": 7522,
      "我必把": 7523,
      "许多日子": 7524,
      "我在这里": 7525,
      "做了一个": 7526,
      "万军之耶和华的宣告": 7527,
      "也是如此": 7528,
      "在你们那里": 7529,
      "彼此说": 7530,
      "认识他": 7531,
      "牲畜的": 7532,
      "说话的时候": 7533,
      "与他一同": 7534,
      "向耶和华献上": 7535,
      "归于耶和华": 7536,
      "复活了": 7537,
      "赞美耶和华": 7538,
      "黑暗中": 7539,
      "全体民众都": 7540,
      "一百三十": 7541,
      "拣选了": 7542,
      "拥有的一切": 7543,
      "玷污自己": 7544,
      "你的仆人们": 7545,
      "营地外": 7546,
      "肉体的": 7547,
      "怒火中": 7548,
      "永远的律例": 7549,
      "美善的": 7550,
      "馨香之": 7551,
      "发了话": 7552,
      "大量的": 7553,
      "其余的事迹和他": 7554,
      "新月节": 7555,
      "俄巴底亚": 7556,
      "以及他的儿子和族兄弟": 7557,
      "一处": 7558,
      "一棵": 7559,
      "七只": 7560,
      "七日": 7561,
      "与蜜": 7562,
      "与我在": 7563,
      "东边的": 7564,
      "乐器": 7565,
      "也死了": 7566,
      "交在你手中": 7567,
      "从自己的": 7568,
      "以拉": 7569,
      "以塔玛尔": 7570,
      "你使": 7571,
      "依赖": 7572,
      "俄别": 7573,
      "全境": 7574,
      "写信": 7575,
      "决定": 7576,
      "几天": 7577,
      "利斯": 7578,
      "勇气": 7579,
      "勺子": 7580,
      "却在": 7581,
      "却找不到": 7582,
      "受尊崇": 7583,
      "口的": 7584,
      "号筒": 7585,
      "向神": 7586,
      "和好": 7587,
      "和其中的": 7588,
      "哈大": 7589,
      "哈沙": 7590,
      "外院": 7591,
      "女人的": 7592,
      "奶与蜜": 7593,
      "好使我们": 7594,
      "安逸": 7595,
      "宝物": 7596,
      "容貌": 7597,
      "密谋": 7598,
      "察验": 7599,
      "就将": 7600,
      "就用": 7601,
      "就不能": 7602,
      "岁月": 7603,
      "工人": 7604,
      "干涸": 7605,
      "干草": 7606,
      "底谢": 7607,
      "引领": 7608,
      "当地": 7609,
      "当心": 7610,
      "往前": 7611,
      "得不到": 7612,
      "心中的": 7613,
      "快到了": 7614,
      "总共": 7615,
      "愿你们": 7616,
      "我不能": 7617,
      "我这里": 7618,
      "我可以": 7619,
      "房子": 7620,
      "所预备": 7621,
      "所应许的": 7622,
      "所发生的事": 7623,
      "扶助": 7624,
      "抵押": 7625,
      "拿鹤": 7626,
      "捻成的": 7627,
      "收成": 7628,
      "放进": 7629,
      "旁的": 7630,
      "无力": 7631,
      "曾孙": 7632,
      "最小的": 7633,
      "有耳": 7634,
      "机会": 7635,
      "橛子": 7636,
      "残疾": 7637,
      "水喝": 7638,
      "河水": 7639,
      "活到": 7640,
      "流奶与蜜": 7641,
      "淫妇": 7642,
      "火吞噬": 7643,
      "灾害": 7644,
      "烈酒": 7645,
      "爬虫": 7646,
      "猎物": 7647,
      "用火烧": 7648,
      "的民众": 7649,
      "的旷野": 7650,
      "的民族": 7651,
      "的命令": 7652,
      "的柱子": 7653,
      "的弟弟": 7654,
      "的旨意": 7655,
      "的外人": 7656,
      "的恩赐": 7657,
      "的曾孙": 7658,
      "监督": 7659,
      "睡觉": 7660,
      "窗户": 7661,
      "立定": 7662,
      "筑了一座祭坛": 7663,
      "约束": 7664,
      "终生": 7665,
      "绝对": 7666,
      "编织": 7667,
      "缺少": 7668,
      "而不是": 7669,
      "背负": 7670,
      "脱下": 7671,
      "荣光": 7672,
      "要使": 7673,
      "解开": 7674,
      "请问候": 7675,
      "转回": 7676,
      "近前来": 7677,
      "迪亚": 7678,
      "那一": 7679,
      "那块": 7680,
      "酬报": 7681,
      "重担": 7682,
      "革拉": 7683,
      "领土": 7684,
      "高大": 7685,
      "麦基": 7686,
      "你们做": 7687,
      "你们世世代代": 7688,
      "我的法规": 7689,
      "他们的心": 7690,
      "如果他们": 7691,
      "如果你的": 7692,
      "自己的家": 7693,
      "知道了": 7694,
      "我要使他们": 7695,
      "祭司的": 7696,
      "已经死了": 7697,
      "临到了": 7698,
      "所以你们要": 7699,
      "因此主耶和华如此说": 7700,
      "回答他": 7701,
      "许多民族": 7702,
      "和他的部下": 7703,
      "至于你们": 7704,
      "你的神耶和华所": 7705,
      "万军之神": 7706,
      "万军之耶和华说": 7707,
      "因为他是": 7708,
      "见证柜": 7709,
      "怎么说": 7710,
      "十二年": 7711,
      "你是我的": 7712,
      "圣殿的": 7713,
      "正如经上所记": 7714,
      "第二个": 7715,
      "继承人": 7716,
      "远离我": 7717,
      "饥荒和": 7718,
      "基路伯的": 7719,
      "以弗所": 7720,
      "愚昧人的": 7721,
      "夸耀的": 7722,
      "求问耶和华": 7723,
      "鬼魔附身": 7724,
      "呼喊说": 7725,
      "回自己的家": 7726,
      "护卫兵": 7727,
      "迎接他": 7728,
      "掌权者": 7729,
      "举目观看": 7730,
      "受诅咒的": 7731,
      "在祭坛上烧献为烟": 7732,
      "年幼时": 7733,
      "用水洗身": 7734,
      "第八天": 7735,
      "梦的释义": 7736,
      "陈设饼": 7737,
      "馨香之气": 7738,
      "哈大底谢": 7739,
      "一体": 7740,
      "一起来": 7741,
      "一件事": 7742,
      "万代": 7743,
      "不安": 7744,
      "不起": 7745,
      "之徒": 7746,
      "之祖": 7747,
      "也把": 7748,
      "五年": 7749,
      "亘古": 7750,
      "亚细亚": 7751,
      "从我们": 7752,
      "他来": 7753,
      "伊甸": 7754,
      "众支派": 7755,
      "伟大的": 7756,
      "但如果有人": 7757,
      "你和": 7758,
      "你把": 7759,
      "你竟": 7760,
      "你不是": 7761,
      "你起来": 7762,
      "你既然": 7763,
      "俄斐": 7764,
      "保障": 7765,
      "全灵": 7766,
      "六百人": 7767,
      "出自": 7768,
      "切切": 7769,
      "到处": 7770,
      "刺透": 7771,
      "剩余": 7772,
      "却说": 7773,
      "受洗": 7774,
      "吃掉": 7775,
      "各国": 7776,
      "吼叫": 7777,
      "呼声": 7778,
      "和我们的": 7779,
      "四处": 7780,
      "坦亚": 7781,
      "处理": 7782,
      "夏天": 7783,
      "多弗": 7784,
      "大哭": 7785,
      "夺取了": 7786,
      "好使他们": 7787,
      "官长们": 7788,
      "家谱": 7789,
      "将军": 7790,
      "就都": 7791,
      "就可以": 7792,
      "尼坦亚": 7793,
      "座位": 7794,
      "归回": 7795,
      "归还": 7796,
      "形象": 7797,
      "得洁净": 7798,
      "心智": 7799,
      "忠心": 7800,
      "忠诚": 7801,
      "情面": 7802,
      "惊惶": 7803,
      "意愿": 7804,
      "愚顽": 7805,
      "我有": 7806,
      "我不会": 7807,
      "我不知道": 7808,
      "扬声": 7809,
      "把耶稣": 7810,
      "担当": 7811,
      "拿了": 7812,
      "拿旦": 7813,
      "接纳": 7814,
      "救主": 7815,
      "施慈爱": 7816,
      "日夜": 7817,
      "是有": 7818,
      "晚餐": 7819,
      "月的": 7820,
      "朝东": 7821,
      "极大": 7822,
      "死于": 7823,
      "毁谤": 7824,
      "毫不": 7825,
      "水中": 7826,
      "永不": 7827,
      "派我来": 7828,
      "流出": 7829,
      "消失": 7830,
      "淫行": 7831,
      "漏症": 7832,
      "父啊": 7833,
      "物件": 7834,
      "牵来": 7835,
      "生子": 7836,
      "留到": 7837,
      "留意": 7838,
      "的金": 7839,
      "的高": 7840,
      "的手中": 7841,
      "的男人": 7842,
      "的妹妹": 7843,
      "的掳民": 7844,
      "的下体": 7845,
      "皮肉": 7846,
      "砍倒": 7847,
      "穹苍": 7848,
      "笑柄": 7849,
      "等到": 7850,
      "筵席": 7851,
      "米甲": 7852,
      "经历": 7853,
      "统领": 7854,
      "老了": 7855,
      "耶琳": 7856,
      "脸上": 7857,
      "臣服": 7858,
      "苦害": 7859,
      "要献": 7860,
      "要说": 7861,
      "见识": 7862,
      "规矩": 7863,
      "讥笑": 7864,
      "财产": 7865,
      "赐的": 7866,
      "躺下": 7867,
      "转消": 7868,
      "辩护": 7869,
      "这一位": 7870,
      "逃往": 7871,
      "遗体": 7872,
      "钩子": 7873,
      "问题": 7874,
      "阿姆": 7875,
      "阿纳": 7876,
      "院子的": 7877,
      "青翠": 7878,
      "青年人": 7879,
      "领受了": 7880,
      "高兴": 7881,
      "他们脱离": 7882,
      "你们怎么": 7883,
      "你们却不": 7884,
      "你们各人": 7885,
      "你们竟然": 7886,
      "耶和华曾": 7887,
      "我们不": 7888,
      "我们没有": 7889,
      "你的罪孽": 7890,
      "你的律例": 7891,
      "的人是蒙福的": 7892,
      "他的话语": 7893,
      "他的声音": 7894,
      "自己在": 7895,
      "没有被": 7896,
      "没有留下": 7897,
      "所有头生的": 7898,
      "就是他们": 7899,
      "我要使你": 7900,
      "祭司要把": 7901,
      "你要对他们说": 7902,
      "直到他": 7903,
      "然后在": 7904,
      "藉着圣灵": 7905,
      "中的一个": 7906,
      "我们的父": 7907,
      "民众说": 7908,
      "民众都": 7909,
      "赐给他们的": 7910,
      "的那个人": 7911,
      "怎样做": 7912,
      "离开你": 7913,
      "服事它们": 7914,
      "我就会": 7915,
      "拯救者": 7916,
      "在他们眼前": 7917,
      "人们把他": 7918,
      "在你们面前": 7919,
      "天使们": 7920,
      "预备好了": 7921,
      "圣殿中": 7922,
      "交给了": 7923,
      "之间的": 7924,
      "帐篷里": 7925,
      "亚撒晖": 7926,
      "亚希甘": 7927,
      "亚希多弗": 7928,
      "勇士们": 7929,
      "与你们在一起": 7930,
      "耶和华是当受颂赞的": 7931,
      "细麻线": 7932,
      "细麻衣": 7933,
      "作恶的人": 7934,
      "都不可吃": 7935,
      "被称为义": 7936,
      "在那些日子里": 7937,
      "西门彼得": 7938,
      "所吩咐的": 7939,
      "坚固的城": 7940,
      "回自己的帐篷": 7941,
      "纯金的": 7942,
      "玛塔尼亚": 7943,
      "末后的": 7944,
      "得享安息": 7945,
      "向它们下拜": 7946,
      "我确确实实地告诉你们": 7947,
      "平平安安地": 7948,
      "与我在一起": 7949,
      "捻成的细麻线": 7950,
      "拿旦业": 7951,
      "一支": 7952,
      "七千": 7953,
      "上升": 7954,
      "不好": 7955,
      "不至于": 7956,
      "与他在一起": 7957,
      "为每": 7958,
      "为你的": 7959,
      "为我的": 7960,
      "之神": 7961,
      "乏音": 7962,
      "也就是": 7963,
      "了你的": 7964,
      "五人": 7965,
      "从其中": 7966,
      "他已经": 7967,
      "以上的": 7968,
      "何西": 7969,
      "你心里": 7970,
      "你也要": 7971,
      "俯看": 7972,
      "倍的": 7973,
      "像我": 7974,
      "内室": 7975,
      "冈陵": 7976,
      "出征": 7977,
      "分享": 7978,
      "利乏音": 7979,
      "前头": 7980,
      "加上": 7981,
      "十分之": 7982,
      "发光": 7983,
      "取一些": 7984,
      "台阶": 7985,
      "司提": 7986,
      "各教会": 7987,
      "名号": 7988,
      "和酒祭": 7989,
      "四方": 7990,
      "围攻": 7991,
      "国土": 7992,
      "坏的": 7993,
      "基尼": 7994,
      "增加": 7995,
      "大而": 7996,
      "奠定": 7997,
      "奴隶": 7998,
      "她所": 7999,
      "守逾越节": 8000,
      "安宁": 8001,
      "安放": 8002,
      "宣讲": 8003,
      "就当": 8004,
      "屈身": 8005,
      "幼童": 8006,
      "庇护": 8007,
      "强横": 8008,
      "当灭": 8009,
      "形的": 8010,
      "心思": 8011,
      "必从": 8012,
      "愿那些": 8013,
      "成群": 8014,
      "我作": 8015,
      "我向": 8016,
      "所为": 8017,
      "把你们的": 8018,
      "指证": 8019,
      "接续": 8020,
      "提供": 8021,
      "提幔": 8022,
      "搭救": 8023,
      "撒莱": 8024,
      "放牧": 8025,
      "敌人的": 8026,
      "整夜": 8027,
      "是因": 8028,
      "是当受颂赞的": 8029,
      "曾在": 8030,
      "服苦役": 8031,
      "极力": 8032,
      "柱子的": 8033,
      "案件": 8034,
      "欧姆利": 8035,
      "泽克": 8036,
      "洗巴": 8037,
      "派了": 8038,
      "浇灌": 8039,
      "海水": 8040,
      "深信": 8041,
      "混乱": 8042,
      "点是": 8043,
      "牙齿": 8044,
      "牧人们": 8045,
      "献祭物": 8046,
      "王所": 8047,
      "用这些": 8048,
      "男丁": 8049,
      "疏割": 8050,
      "的也": 8051,
      "的家族": 8052,
      "的两个": 8053,
      "的罪孽": 8054,
      "的信仰": 8055,
      "的余剩之民": 8056,
      "皮袋": 8057,
      "监管": 8058,
      "睡着": 8059,
      "祈祷": 8060,
      "祸哉": 8061,
      "称颂": 8062,
      "穿过": 8063,
      "窥探": 8064,
      "立拿": 8065,
      "答应": 8066,
      "米亚": 8067,
      "给了他们": 8068,
      "翻译": 8069,
      "耶希": 8070,
      "胡须": 8071,
      "腓利": 8072,
      "自高": 8073,
      "至圣所": 8074,
      "营中": 8075,
      "表明": 8076,
      "被囚": 8077,
      "被接": 8078,
      "西弗": 8079,
      "要向": 8080,
      "覆盖": 8081,
      "言词": 8082,
      "誓约": 8083,
      "购买": 8084,
      "贵重的": 8085,
      "赎价": 8086,
      "起程": 8087,
      "跑去": 8088,
      "跳跃": 8089,
      "轻易": 8090,
      "辛苦": 8091,
      "这两": 8092,
      "这位": 8093,
      "这孩子": 8094,
      "这妇人": 8095,
      "退了": 8096,
      "造就": 8097,
      "遭受": 8098,
      "遮蔽": 8099,
      "那被": 8100,
      "铜的": 8101,
      "门的": 8102,
      "阿兹": 8103,
      "顽固": 8104,
      "默想": 8105,
      "他们因": 8106,
      "他们全都": 8107,
      "耶和华把": 8108,
      "我的弟兄们": 8109,
      "他的家": 8110,
      "他的一切": 8111,
      "自己的衣服": 8112,
      "自己的道路": 8113,
      "直到今天": 8114,
      "你们要从": 8115,
      "照着自己的": 8116,
      "照着他所": 8117,
      "的那一天": 8118,
      "手中了": 8119,
      "智慧人的": 8120,
      "的子孙是": 8121,
      "离开我": 8122,
      "离开那里": 8123,
      "我就要": 8124,
      "有一次": 8125,
      "审判者": 8126,
      "仇敌面前": 8127,
      "听从我": 8128,
      "攻击他": 8129,
      "祷告的时候": 8130,
      "不再有": 8131,
      "而是要": 8132,
      "免得他": 8133,
      "这一切话语": 8134,
      "看到的": 8135,
      "圣殿仆役": 8136,
      "偶像的": 8137,
      "按着家族": 8138,
      "解救我脱离": 8139,
      "你必定": 8140,
      "一百二十": 8141,
      "亚玛撒": 8142,
      "亚玛利雅": 8143,
      "众人都": 8144,
      "寄居的": 8145,
      "我们的神耶和华": 8146,
      "依靠耶和华": 8147,
      "的路程": 8148,
      "在那日": 8149,
      "痊愈了": 8150,
      "从天上降下": 8151,
      "在旷野中": 8152,
      "那天起": 8153,
      "书卷上": 8154,
      "问候你们": 8155,
      "赎回权": 8156,
      "燔祭和平安祭": 8157,
      "按手在": 8158,
      "令人惊骇": 8159,
      "士兵们": 8160,
      "贫弱者": 8161,
      "脖子上": 8162,
      "在基督里": 8163,
      "有一大群人": 8164,
      "延伸到": 8165,
      "按圣所的谢克尔标准": 8166,
      "慈爱和信实": 8167,
      "安提阿": 8168,
      "西纳基立": 8169,
      "其余的事迹和他所做的一切": 8170,
      "流奶与蜜之地": 8171,
      "何西阿": 8172,
      "当灭之物": 8173,
      "一的": 8174,
      "七人": 8175,
      "万岁": 8176,
      "不该": 8177,
      "与你的": 8178,
      "与耶稣": 8179,
      "与基督": 8180,
      "两年": 8181,
      "为那些": 8182,
      "为产业": 8183,
      "之父": 8184,
      "了她": 8185,
      "了自己": 8186,
      "了那些": 8187,
      "云雾": 8188,
      "亚衲": 8189,
      "人有": 8190,
      "人要": 8191,
      "人间": 8192,
      "人耶稣": 8193,
      "人那样": 8194,
      "从天": 8195,
      "从其类": 8196,
      "他到": 8197,
      "他儿子": 8198,
      "他又说": 8199,
      "以恩慈": 8200,
      "位置": 8201,
      "作我的子民": 8202,
      "作素祭": 8203,
      "作平安祭": 8204,
      "你作": 8205,
      "使你们的": 8206,
      "信了": 8207,
      "信靠": 8208,
      "做事": 8209,
      "做得": 8210,
      "做王": 8211,
      "全是": 8212,
      "关上": 8213,
      "其上的": 8214,
      "内臣": 8215,
      "写下": 8216,
      "写的": 8217,
      "出了": 8218,
      "击碎": 8219,
      "分配": 8220,
      "判断": 8221,
      "利甲": 8222,
      "前的": 8223,
      "动了": 8224,
      "十三": 8225,
      "吃这": 8226,
      "各从其类": 8227,
      "同住": 8228,
      "名的": 8229,
      "名下的": 8230,
      "命定": 8231,
      "和全体": 8232,
      "和其中": 8233,
      "和跟随他的": 8234,
      "哀叫": 8235,
      "唾沫": 8236,
      "四角": 8237,
      "回复": 8238,
      "圣衣": 8239,
      "在水": 8240,
      "在基督耶稣里": 8241,
      "基伊拉": 8242,
      "够了": 8243,
      "天平": 8244,
      "姐姐": 8245,
      "安装": 8246,
      "对我的": 8247,
      "小山羊": 8248,
      "就成为": 8249,
      "就出去": 8250,
      "尽头": 8251,
      "屈枉": 8252,
      "屋顶上": 8253,
      "属灵的": 8254,
      "巴尼": 8255,
      "希幔": 8256,
      "应得的": 8257,
      "很久": 8258,
      "得见": 8259,
      "心志": 8260,
      "悄悄": 8261,
      "愿王": 8262,
      "成功": 8263,
      "我子民": 8264,
      "我怎样": 8265,
      "我观看": 8266,
      "战场": 8267,
      "战马": 8268,
      "所需": 8269,
      "手所做的": 8270,
      "拿出": 8271,
      "按名单": 8272,
      "探察": 8273,
      "掳去": 8274,
      "撇下": 8275,
      "教师": 8276,
      "新油": 8277,
      "是被": 8278,
      "是受诅咒的": 8279,
      "有个": 8280,
      "期间": 8281,
      "柱头": 8282,
      "树下": 8283,
      "树枝": 8284,
      "样貌": 8285,
      "次子": 8286,
      "欢笑": 8287,
      "武器": 8288,
      "死荫": 8289,
      "殷勤": 8290,
      "毒蛇": 8291,
      "沙撒": 8292,
      "没药": 8293,
      "洁白": 8294,
      "海中": 8295,
      "消融": 8296,
      "清除": 8297,
      "溪水": 8298,
      "漫过": 8299,
      "然无": 8300,
      "玛赫": 8301,
      "玛挪亚": 8302,
      "甘愿": 8303,
      "男仆": 8304,
      "畏惧": 8305,
      "疾患": 8306,
      "的约": 8307,
      "的羊": 8308,
      "的长子": 8309,
      "的舌头": 8310,
      "盛满了": 8311,
      "看做": 8312,
      "看着": 8313,
      "睡了": 8314,
      "禀告": 8315,
      "禾捆": 8316,
      "站住": 8317,
      "笼罩": 8318,
      "米迦勒": 8319,
      "结果实": 8320,
      "给他们的": 8321,
      "美物": 8322,
      "羚羊": 8323,
      "群体": 8324,
      "聚拢": 8325,
      "肉身": 8326,
      "自从": 8327,
      "蒙耶和华": 8328,
      "衰竭": 8329,
      "西罗": 8330,
      "要去": 8331,
      "要来": 8332,
      "观望": 8333,
      "这民": 8334,
      "进监狱": 8335,
      "迟延": 8336,
      "逃亡": 8337,
      "逃城": 8338,
      "通道": 8339,
      "那女子": 8340,
      "那少年": 8341,
      "邻居": 8342,
      "郑重地": 8343,
      "都将被": 8344,
      "金环": 8345,
      "钉十字架": 8346,
      "银的": 8347,
      "铸像": 8348,
      "雇工": 8349,
      "顽梗": 8350,
      "鼻孔": 8351,
      "他们到": 8352,
      "他们回答": 8353,
      "他们将要": 8354,
      "他们回答说": 8355,
      "你们会": 8356,
      "你们可以": 8357,
      "你们都要": 8358,
      "我们既然": 8359,
      "你的脸": 8360,
      "你的信实": 8361,
      "你的法度": 8362,
      "你的训诫": 8363,
      "的人也": 8364,
      "我的话语": 8365,
      "因为没有": 8366,
      "他们的罪孽": 8367,
      "这些城": 8368,
      "你要把这": 8369,
      "不可吃": 8370,
      "子民面前": 8371,
      "直到我": 8372,
      "上的话": 8373,
      "然后他们": 8374,
      "你们要在": 8375,
      "藉着他的": 8376,
      "不会再": 8377,
      "我们的主": 8378,
      "并且生了": 8379,
      "的一切话": 8380,
      "赐给我们": 8381,
      "在你中间": 8382,
      "在你前面": 8383,
      "服事别的神": 8384,
      "他就要": 8385,
      "在他之后": 8386,
      "妻子的": 8387,
      "有一万": 8388,
      "听见的": 8389,
      "里面有": 8390,
      "无论男女": 8391,
      "法老说": 8392,
      "至于那些": 8393,
      "怎么会": 8394,
      "拯救我": 8395,
      "免得你们": 8396,
      "工作都不可做": 8397,
      "正如耶和华所": 8398,
      "上去攻打": 8399,
      "三十个": 8400,
      "谨守我的": 8401,
      "亚希突": 8402,
      "亚希米勒": 8403,
      "以利沙玛": 8404,
      "听说过": 8405,
      "眼中看为好": 8406,
      "离弃我": 8407,
      "邪恶的道路": 8408,
      "的居民哪": 8409,
      "患难中": 8410,
      "追赶他们": 8411,
      "对你们说": 8412,
      "灭绝他们": 8413,
      "拆毁了": 8414,
      "提尔撒": 8415,
      "四个活物": 8416,
      "释放了": 8417,
      "应验了": 8418,
      "中被剪除": 8419,
      "击败了": 8420,
      "把我们从": 8421,
      "同献的酒祭": 8422,
      "谦卑下来": 8423,
      "耶稣回答他们": 8424,
      "亚米拿达": 8425,
      "阿拉伯": 8426,
      "驱赶鬼魔": 8427,
      "保持沉默": 8428,
      "改变心意": 8429,
      "难道你们不知道": 8430,
      "二十岁以上": 8431,
      "在一切事上": 8432,
      "乌基业": 8433,
      "伪善的人": 8434,
      "无可指责": 8435,
      "还有附属的村庄": 8436,
      "玛基雅": 8437,
      "哈沙比雅": 8438,
      "一夜": 8439,
      "一家": 8440,
      "一把": 8441,
      "一群": 8442,
      "一直到": 8443,
      "一句话": 8444,
      "一会儿": 8445,
      "万两千": 8446,
      "下阴坑": 8447,
      "不已": 8448,
      "东风": 8449,
      "两端": 8450,
      "两头公牛": 8451,
      "中所": 8452,
      "为止": 8453,
      "为这": 8454,
      "之道": 8455,
      "乌撒": 8456,
      "九年": 8457,
      "也照样": 8458,
      "事呢": 8459,
      "亚罗": 8460,
      "人身上": 8461,
      "从你们中间": 8462,
      "从起初": 8463,
      "他有": 8464,
      "他测量": 8465,
      "他做耶和华眼中看为恶的事": 8466,
      "代表": 8467,
      "以公义": 8468,
      "伸冤": 8469,
      "伸开": 8470,
      "但如果你们": 8471,
      "何烈": 8472,
      "何等": 8473,
      "作食物": 8474,
      "作所为": 8475,
      "你都要": 8476,
      "使她": 8477,
      "信息": 8478,
      "修缮": 8479,
      "全地的": 8480,
      "八年": 8481,
      "六千": 8482,
      "再过": 8483,
      "写在": 8484,
      "凡事": 8485,
      "利息": 8486,
      "剃掉": 8487,
      "努力": 8488,
      "包上": 8489,
      "十一": 8490,
      "十谢克尔": 8491,
      "卑贱": 8492,
      "又为": 8493,
      "又活了": 8494,
      "双脚": 8495,
      "发话": 8496,
      "发软": 8497,
      "取下": 8498,
      "口里": 8499,
      "另一位": 8500,
      "吃得": 8501,
      "同工": 8502,
      "吗哪": 8503,
      "和那": 8504,
      "和荣耀": 8505,
      "和律例": 8506,
      "和长老们": 8507,
      "和王宫": 8508,
      "哀悼": 8509,
      "因信": 8510,
      "因他们": 8511,
      "围墙": 8512,
      "在世": 8513,
      "在街": 8514,
      "在这地": 8515,
      "在田野": 8516,
      "坐下来": 8517,
      "块木板": 8518,
      "塑造": 8519,
      "塔拉": 8520,
      "塔利雅": 8521,
      "备好": 8522,
      "多次": 8523,
      "好处": 8524,
      "婆婆": 8525,
      "将在": 8526,
      "就来": 8527,
      "就已经": 8528,
      "就欢喜": 8529,
      "张开": 8530,
      "归耶和华": 8531,
      "忠实": 8532,
      "憎恨": 8533,
      "我好": 8534,
      "我里面": 8535,
      "我主人": 8536,
      "我这里来": 8537,
      "所定": 8538,
      "所作所为": 8539,
      "打水": 8540,
      "抬起": 8541,
      "捆锁": 8542,
      "提克": 8543,
      "提到": 8544,
      "提多": 8545,
      "支搭": 8546,
      "收聚": 8547,
      "收集": 8548,
      "救我脱离": 8549,
      "敞开": 8550,
      "斯特斯": 8551,
      "日后": 8552,
      "时刻": 8553,
      "是神": 8554,
      "是你们": 8555,
      "是你们的": 8556,
      "期待": 8557,
      "木材": 8558,
      "本城": 8559,
      "杯子": 8560,
      "枝条": 8561,
      "枯萎": 8562,
      "正午": 8563,
      "死人的": 8564,
      "比勒": 8565,
      "求什么": 8566,
      "河岸": 8567,
      "河里": 8568,
      "洞察": 8569,
      "深深": 8570,
      "温柔": 8571,
      "滋润": 8572,
      "爱你": 8573,
      "爱我": 8574,
      "狂风": 8575,
      "玛瑙": 8576,
      "理会": 8577,
      "用石头砸死": 8578,
      "男孩": 8579,
      "症状": 8580,
      "的杖": 8581,
      "的脚": 8582,
      "的素祭": 8583,
      "的器皿": 8584,
      "的妇女": 8585,
      "的士师": 8586,
      "看了": 8587,
      "看出": 8588,
      "神使": 8589,
      "神耶和华的": 8590,
      "称义": 8591,
      "米克": 8592,
      "米列": 8593,
      "米雅": 8594,
      "精巧": 8595,
      "给孩子": 8596,
      "翻腾": 8597,
      "耕耘": 8598,
      "肩上": 8599,
      "胎儿": 8600,
      "腓力": 8601,
      "至圣物": 8602,
      "芭示巴": 8603,
      "菲斯特斯": 8604,
      "薛西": 8605,
      "行在": 8606,
      "议论": 8607,
      "设计": 8608,
      "证明": 8609,
      "请不要": 8610,
      "贡物": 8611,
      "货物": 8612,
      "越过": 8613,
      "路斯": 8614,
      "身材": 8615,
      "过于": 8616,
      "还活着": 8617,
      "这约": 8618,
      "送来": 8619,
      "通达": 8620,
      "那孩子": 8621,
      "醉酒": 8622,
      "重新": 8623,
      "门槛": 8624,
      "香液": 8625,
      "驴驹": 8626,
      "你们脱离": 8627,
      "你们就会": 8628,
      "你们既然": 8629,
      "耶和华与": 8630,
      "你的眼睛": 8631,
      "因为我的": 8632,
      "自己也": 8633,
      "没有在": 8634,
      "耶稣问他们": 8635,
      "所有人": 8636,
      "所有能": 8637,
      "如果一个": 8638,
      "如果不是": 8639,
      "我要向": 8640,
      "你要听": 8641,
      "你要说": 8642,
      "这是万军之耶和华的宣告": 8643,
      "以及他们的": 8644,
      "以利以谢": 8645,
      "告诉我们": 8646,
      "求你垂听": 8647,
      "不能再": 8648,
      "不能生育": 8649,
      "我们的罪孽": 8650,
      "祭坛前": 8651,
      "手中拿着": 8652,
      "荣耀和": 8653,
      "离开他": 8654,
      "地的出产": 8655,
      "万军之耶和华的": 8656,
      "作为摇": 8657,
      "祷告和": 8658,
      "二十四": 8659,
      "怎么样": 8660,
      "刀剑和": 8661,
      "以利亚实": 8662,
      "圣所中": 8663,
      "免得他们": 8664,
      "回来的时候": 8665,
      "敬畏神": 8666,
      "里的水": 8667,
      "赎罪礼": 8668,
      "认识我": 8669,
      "牲畜和": 8670,
      "奴仆们": 8671,
      "却不知道": 8672,
      "向耶和华祷告": 8673,
      "毁灭者": 8674,
      "前面的": 8675,
      "接受了": 8676,
      "在这地方": 8677,
      "其余的人": 8678,
      "全体民众说": 8679,
      "和他儿子": 8680,
      "从我面前": 8681,
      "天上的神": 8682,
      "献祭的": 8683,
      "不义的": 8684,
      "城墙上": 8685,
      "同样的": 8686,
      "亚达薛西": 8687,
      "伸出手": 8688,
      "以弗得的": 8689,
      "尘土中": 8690,
      "站立不住": 8691,
      "他们的神明": 8692,
      "跟着他": 8693,
      "三个月": 8694,
      "约雅斤": 8695,
      "做耶和华眼中看为正的事": 8696,
      "少年人": 8697,
      "卑微人": 8698,
      "神圣的聚会": 8699,
      "起了誓": 8700,
      "各位蒙爱的人哪": 8701,
      "约拿达": 8702,
      "从你们面前": 8703,
      "守望者": 8704,
      "凯撒里亚": 8705,
      "憎恶的": 8706,
      "五千肘": 8707,
      "十四日": 8708,
      "所定的日期": 8709,
      "作王的时候二十": 8710,
      "伊施波设": 8711,
      "甘心祭": 8712,
      "其他的儿女": 8713,
      "硬着颈项": 8714,
      "万四千人": 8715,
      "拿兵器的": 8716,
      "绊脚石": 8717,
      "远远地": 8718,
      "并且会不洁净直到傍晚": 8719,
      "饥荒和瘟疫": 8720,
      "并且生了其他的儿女": 8721,
      "亚罗珥": 8722,
      "一向": 8723,
      "上一": 8724,
      "上路": 8725,
      "上达": 8726,
      "不同": 8727,
      "不愿意": 8728,
      "与那些": 8729,
      "与平安": 8730,
      "两边": 8731,
      "中午": 8732,
      "丰足": 8733,
      "举行": 8734,
      "之城": 8735,
      "之灵": 8736,
      "之首": 8737,
      "之上的": 8738,
      "九十": 8739,
      "习俗": 8740,
      "亏负": 8741,
      "云柱": 8742,
      "五岁": 8743,
      "亲口": 8744,
      "人是": 8745,
      "人当中": 8746,
      "从东边": 8747,
      "他正": 8748,
      "他都": 8749,
      "他所有的": 8750,
      "会说": 8751,
      "但他们": 8752,
      "但你们": 8753,
      "作见证": 8754,
      "你所有的": 8755,
      "你就要": 8756,
      "你就会": 8757,
      "你母亲": 8758,
      "你一切的": 8759,
      "使自己的": 8760,
      "做好": 8761,
      "像你": 8762,
      "克达": 8763,
      "全城": 8764,
      "减少": 8765,
      "几乎": 8766,
      "凶手": 8767,
      "判决": 8768,
      "利克": 8769,
      "劝诫": 8770,
      "劳役": 8771,
      "包围": 8772,
      "受患难": 8773,
      "另一只": 8774,
      "可怕": 8775,
      "可怜": 8776,
      "名的缘故": 8777,
      "后悔": 8778,
      "后退": 8779,
      "哈莫": 8780,
      "哈萨": 8781,
      "在耶和华的": 8782,
      "在你们的": 8783,
      "在法老": 8784,
      "在信仰": 8785,
      "在日光之下": 8786,
      "地狱": 8787,
      "地说": 8788,
      "基纳": 8789,
      "基色": 8790,
      "大水": 8791,
      "天地": 8792,
      "奉耶和华的名": 8793,
      "契合": 8794,
      "奔跑": 8795,
      "嫁给": 8796,
      "宗族": 8797,
      "密云": 8798,
      "富足": 8799,
      "对神": 8800,
      "就出来": 8801,
      "就住在": 8802,
      "山坡": 8803,
      "带了": 8804,
      "带给": 8805,
      "年数": 8806,
      "并把": 8807,
      "庆祝": 8808,
      "开门": 8809,
      "强盗": 8810,
      "当耶稣": 8811,
      "心怀": 8812,
      "必然": 8813,
      "愁苦": 8814,
      "成熟": 8815,
      "我已": 8816,
      "我耶和华": 8817,
      "我愿意": 8818,
      "或在": 8819,
      "所住": 8820,
      "所见": 8821,
      "扔到": 8822,
      "扬起": 8823,
      "投降": 8824,
      "抬上来": 8825,
      "抱愧": 8826,
      "拉比": 8827,
      "掩盖": 8828,
      "搅扰": 8829,
      "放弃": 8830,
      "明亮": 8831,
      "是他们": 8832,
      "是信实的": 8833,
      "有份": 8834,
      "有能力": 8835,
      "本土": 8836,
      "本地": 8837,
      "本族人": 8838,
      "术士": 8839,
      "树林": 8840,
      "梅珥": 8841,
      "梦中": 8842,
      "欢庆": 8843,
      "武力": 8844,
      "民中被剪除": 8845,
      "沙拉": 8846,
      "法术": 8847,
      "派出": 8848,
      "点燃": 8849,
      "爱情": 8850,
      "牧草": 8851,
      "献燔祭": 8852,
      "王如此说": 8853,
      "玛妲": 8854,
      "玛斯": 8855,
      "理由": 8856,
      "瓦器": 8857,
      "用刀剑": 8858,
      "申辩": 8859,
      "留在那里": 8860,
      "瘫痪": 8861,
      "百农": 8862,
      "的船": 8863,
      "的刀剑": 8864,
      "的长老": 8865,
      "的羊群": 8866,
      "的东西": 8867,
      "的整个": 8868,
      "的高坛": 8869,
      "的嘴唇": 8870,
      "的全家": 8871,
      "的数目": 8872,
      "的条例": 8873,
      "的橡树": 8874,
      "盛满": 8875,
      "省的": 8876,
      "眼泪": 8877,
      "石堆": 8878,
      "示法": 8879,
      "神就": 8880,
      "离俗": 8881,
      "称量": 8882,
      "窗格": 8883,
      "立他为": 8884,
      "筑起": 8885,
      "篮子": 8886,
      "米非": 8887,
      "紧贴": 8888,
      "终点是": 8889,
      "绊跌": 8890,
      "给人": 8891,
      "罪的": 8892,
      "羞惭": 8893,
      "群羊": 8894,
      "胡德": 8895,
      "脸色": 8896,
      "芬芳": 8897,
      "花萼": 8898,
      "莉拉": 8899,
      "衰残": 8900,
      "被刀剑": 8901,
      "被交在": 8902,
      "被除灭": 8903,
      "被高举": 8904,
      "见我": 8905,
      "誓言": 8906,
      "计谋": 8907,
      "记起": 8908,
      "设下": 8909,
      "诵读": 8910,
      "谷物": 8911,
      "豺狗": 8912,
      "败在": 8913,
      "贪图": 8914,
      "达莉拉": 8915,
      "迎见": 8916,
      "近了": 8917,
      "还愿": 8918,
      "还说": 8919,
      "这要": 8920,
      "迦百农": 8921,
      "追击": 8922,
      "遗弃": 8923,
      "遭难": 8924,
      "那与": 8925,
      "那日": 8926,
      "都能": 8927,
      "金器": 8928,
      "锁链": 8929,
      "镶嵌": 8930,
      "长官": 8931,
      "问安": 8932,
      "降下来": 8933,
      "隐瞒": 8934,
      "面对": 8935,
      "顶罩": 8936,
      "领了出来": 8937,
      "骚乱": 8938,
      "高贵": 8939,
      "高大的": 8940,
      "麦秸": 8941,
      "麦穗": 8942,
      "黑门": 8943,
      "他们与": 8944,
      "他们还": 8945,
      "你们的人": 8946,
      "耶和华我的神哪": 8947,
      "我们已经": 8948,
      "你的儿女": 8949,
      "你的仇敌": 8950,
      "你的道路": 8951,
      "你的性命": 8952,
      "的人中": 8953,
      "的人吗": 8954,
      "的人呢": 8955,
      "的人必": 8956,
      "的人手中": 8957,
      "我的圣所": 8958,
      "我的力量": 8959,
      "因为这些": 8960,
      "他的名字": 8961,
      "自己的儿子": 8962,
      "没有听从": 8963,
      "一个地方": 8964,
      "那里的人": 8965,
      "那些先知": 8966,
      "自己的子民": 8967,
      "自己的身体": 8968,
      "你要向": 8969,
      "不是你": 8970,
      "以及他的": 8971,
      "看见他们": 8972,
      "看见耶稣": 8973,
      "的神哪": 8974,
      "来到他那里": 8975,
      "告诉他": 8976,
      "难道我们": 8977,
      "一位先知": 8978,
      "怎样好": 8979,
      "洁净的人": 8980,
      "服事你": 8981,
      "神的名": 8982,
      "神的灵": 8983,
      "他们就把": 8984,
      "有一百": 8985,
      "有一个名叫": 8986,
      "把他们交": 8987,
      "和他的子孙": 8988,
      "就要从": 8989,
      "将要在": 8990,
      "了一千": 8991,
      "拯救你": 8992,
      "以利亚敬": 8993,
      "好让你们": 8994,
      "属于我": 8995,
      "欢喜快乐": 8996,
      "他必定": 8997,
      "凡是有耳": 8998,
      "分别为圣了": 8999,
      "希伯伦": 9000,
      "一百肘": 9001,
      "五十夫长": 9002,
      "公正的": 9003,
      "我已经把": 9004,
      "救恩的": 9005,
      "祸患临到": 9006,
      "诸天和": 9007,
      "继承那地": 9008,
      "不义的人": 9009,
      "分给了": 9010,
      "伸出的膀臂": 9011,
      "器皿都": 9012,
      "基督耶稣里的": 9013,
      "变为黑暗": 9014,
      "我指着耶和华的永生起誓": 9015,
      "余剩者": 9016,
      "奇妙的事": 9017,
      "队伍的": 9018,
      "因你而": 9019,
      "堡垒城": 9020,
      "处置我": 9021,
      "上所记的": 9022,
      "每天早晨": 9023,
      "耶弗尼": 9024,
      "监狱里": 9025,
      "新酒和": 9026,
      "语言群体": 9027,
      "惹怒我": 9028,
      "阿实基": 9029,
      "回转归向耶和华": 9030,
      "巴拉克": 9031,
      "忠信者": 9032,
      "就应当听": 9033,
      "放声大哭": 9034,
      "来到你这里": 9035,
      "讥讽者": 9036,
      "调了油的细面粉作素祭": 9037,
      "密谋反叛": 9038,
      "阿姆兰": 9039,
      "司提反": 9040,
      "庇护所": 9041,
      "成群的": 9042,
      "米非波设": 9043,
      "一摇": 9044,
      "三个人": 9045,
      "上来的": 9046,
      "下午": 9047,
      "不听": 9048,
      "不复存在": 9049,
      "世上的": 9050,
      "两人": 9051,
      "为何": 9052,
      "之久": 9053,
      "九百": 9054,
      "也说": 9055,
      "争执": 9056,
      "争辩": 9057,
      "五百人": 9058,
      "享受": 9059,
      "亭拿": 9060,
      "亲爱的": 9061,
      "仇恨": 9062,
      "从她": 9063,
      "仔细": 9064,
      "他像": 9065,
      "他里面": 9066,
      "们哪": 9067,
      "们都": 9068,
      "伏在": 9069,
      "众首领": 9070,
      "伯贺": 9071,
      "但耶和华": 9072,
      "但没有": 9073,
      "你都": 9074,
      "你不会": 9075,
      "你看见了": 9076,
      "使女": 9077,
      "供地": 9078,
      "俄备": 9079,
      "信从": 9080,
      "信使": 9081,
      "信心": 9082,
      "假誓": 9083,
      "做奴仆": 9084,
      "八人": 9085,
      "关系": 9086,
      "兹莱": 9087,
      "写了": 9088,
      "出生的": 9089,
      "创世": 9090,
      "创造了": 9091,
      "到西边": 9092,
      "劳碌": 9093,
      "十肘": 9094,
      "厢房": 9095,
      "发怨言": 9096,
      "古以来": 9097,
      "只可": 9098,
      "可能": 9099,
      "吃奶": 9100,
      "合花": 9101,
      "向天": 9102,
      "向她": 9103,
      "向别的神": 9104,
      "吹号": 9105,
      "和奇事": 9106,
      "哈尔": 9107,
      "哈拉": 9108,
      "哈特": 9109,
      "嗤笑": 9110,
      "四百人": 9111,
      "回去吧": 9112,
      "因我的": 9113,
      "在山": 9114,
      "在这些": 9115,
      "基述": 9116,
      "多了": 9117,
      "大城": 9118,
      "天和": 9119,
      "奉我的名": 9120,
      "威吓": 9121,
      "娅塔利雅": 9122,
      "子上": 9123,
      "学习": 9124,
      "它就": 9125,
      "尊卑": 9126,
      "尤其": 9127,
      "就让": 9128,
      "就来到": 9129,
      "就开始": 9130,
      "就应该": 9131,
      "就撕裂衣服": 9132,
      "尼哥": 9133,
      "尼斯": 9134,
      "尽了": 9135,
      "尾巴": 9136,
      "山岭": 9137,
      "干净": 9138,
      "废弃": 9139,
      "座山": 9140,
      "影子": 9141,
      "征服": 9142,
      "得赦免": 9143,
      "心所": 9144,
      "怀了": 9145,
      "恶意": 9146,
      "慷慨": 9147,
      "我不再": 9148,
      "我看到": 9149,
      "我并没有": 9150,
      "戴在": 9151,
      "所传": 9152,
      "打开了": 9153,
      "把这事": 9154,
      "招魂": 9155,
      "按时": 9156,
      "探查": 9157,
      "提说": 9158,
      "提起": 9159,
      "摇动": 9160,
      "摇一摇": 9161,
      "收拾": 9162,
      "文字": 9163,
      "斑点": 9164,
      "斑鸠": 9165,
      "方式": 9166,
      "施怜悯": 9167,
      "无偿": 9168,
      "无有": 9169,
      "日常": 9170,
      "早已": 9171,
      "是真实的": 9172,
      "有力": 9173,
      "权利": 9174,
      "权势": 9175,
      "来越": 9176,
      "来的人": 9177,
      "果园": 9178,
      "横闩": 9179,
      "歌珊": 9180,
      "歌革": 9181,
      "死者": 9182,
      "死在那里": 9183,
      "母腹中": 9184,
      "毗珥": 9185,
      "水窖": 9186,
      "沉重": 9187,
      "沙德拉": 9188,
      "法则": 9189,
      "泽姆利": 9190,
      "洗革拉": 9191,
      "活人之地": 9192,
      "海上": 9193,
      "激起": 9194,
      "灾难": 9195,
      "燃起": 9196,
      "爱中": 9197,
      "爱他": 9198,
      "特尔": 9199,
      "特拉": 9200,
      "王又": 9201,
      "琐巴": 9202,
      "生下": 9203,
      "用你的": 9204,
      "用大能的手": 9205,
      "由此": 9206,
      "界限": 9207,
      "疆界": 9208,
      "痛哭": 9209,
      "百合花": 9210,
      "的义": 9211,
      "的或": 9212,
      "的花": 9213,
      "的那样": 9214,
      "的智慧": 9215,
      "的奥秘": 9216,
      "看来": 9217,
      "眼看": 9218,
      "着我": 9219,
      "瞬间": 9220,
      "砍伐": 9221,
      "破碎": 9222,
      "硫磺": 9223,
      "示拉": 9224,
      "神耶和华": 9225,
      "福乐": 9226,
      "立了": 9227,
      "第一天": 9228,
      "约帕": 9229,
      "约有": 9230,
      "纯净": 9231,
      "经常": 9232,
      "结婚": 9233,
      "给王": 9234,
      "统计": 9235,
      "罗迪": 9236,
      "而你": 9237,
      "耕种": 9238,
      "耶罗": 9239,
      "背后": 9240,
      "胎胞": 9241,
      "能够": 9242,
      "脱去": 9243,
      "草场": 9244,
      "藏在": 9245,
      "衣物": 9246,
      "被带到": 9247,
      "被钉十字架": 9248,
      "许愿": 9249,
      "证实": 9250,
      "请王": 9251,
      "诽谤": 9252,
      "谁会": 9253,
      "起假誓": 9254,
      "越来越": 9255,
      "路径": 9256,
      "转到": 9257,
      "迁移": 9258,
      "过路": 9259,
      "这不": 9260,
      "这书卷": 9261,
      "逃离": 9262,
      "遍满": 9263,
      "遣散": 9264,
      "那仆人": 9265,
      "都该": 9266,
      "重重地": 9267,
      "量斗": 9268,
      "铃鼓": 9269,
      "银器": 9270,
      "镰刀": 9271,
      "门闩": 9272,
      "阵痛": 9273,
      "阿波": 9274,
      "雅弗": 9275,
      "雷声": 9276,
      "青蛙": 9277,
      "面的边界": 9278,
      "领到": 9279,
      "骡子": 9280,
      "黎明": 9281,
      "他们像": 9282,
      "他们听了": 9283,
      "你们了": 9284,
      "你们把": 9285,
      "你们没有": 9286,
      "你们就是": 9287,
      "耶和华为": 9288,
      "耶和华从": 9289,
      "耶和华将": 9290,
      "耶和华你们的神": 9291,
      "我们这里": 9292,
      "我们应该": 9293,
      "你的妻子": 9294,
      "的人在": 9295,
      "我的良人": 9296,
      "因为你们的": 9297,
      "他的作为": 9298,
      "没有别的": 9299,
      "耶稣面前": 9300,
      "一个月": 9301,
      "人的口": 9302,
      "所有的人都": 9303,
      "一切仇敌": 9304,
      "他们的一切": 9305,
      "他们的父亲": 9306,
      "那些恨": 9307,
      "什么都不": 9308,
      "这样就": 9309,
      "这样对待": 9310,
      "自己的地方": 9311,
      "不要再": 9312,
      "祭司查看": 9313,
      "已经把": 9314,
      "以及他们": 9315,
      "直到如今": 9316,
      "照着他": 9317,
      "以利法": 9318,
      "求你使我": 9319,
      "藉着我们的": 9320,
      "藉着先知": 9321,
      "中的一切": 9322,
      "并且在": 9323,
      "并且把": 9324,
      "民众的": 9325,
      "的那位": 9326,
      "服事我": 9327,
      "在他头上": 9328,
      "律法的人": 9329,
      "亚伯尼哥": 9330,
      "神的殿中": 9331,
      "我就说": 9332,
      "一样的": 9333,
      "公义和": 9334,
      "家族神像": 9335,
      "有一只": 9336,
      "把他们带到": 9337,
      "无论尊卑": 9338,
      "祝福他们": 9339,
      "燔祭牲": 9340,
      "的地方去": 9341,
      "因为我知道": 9342,
      "使我存活": 9343,
      "免得我": 9344,
      "与你一同": 9345,
      "派遣他们": 9346,
      "大地和": 9347,
      "带着他的": 9348,
      "坐在我的": 9349,
      "绵羊羔": 9350,
      "约柜的": 9351,
      "行事为人": 9352,
      "施行报复": 9353,
      "充满的": 9354,
      "派人去见": 9355,
      "居住的地方": 9356,
      "亚希玛斯": 9357,
      "如果你不": 9358,
      "记念我": 9359,
      "拣选的人": 9360,
      "得以完全": 9361,
      "显明出来": 9362,
      "事奉他": 9363,
      "事奉我": 9364,
      "吞噬了": 9365,
      "尼布撒拉": 9366,
      "亚摩斯": 9367,
      "的一半": 9368,
      "耶和华的殿中": 9369,
      "是谁呢": 9370,
      "从他那里": 9371,
      "救赎主": 9372,
      "奉献礼": 9373,
      "另一边": 9374,
      "你不要害怕": 9375,
      "有两万四千人": 9376,
      "宫殿里": 9377,
      "云彩中": 9378,
      "统治了十": 9379,
      "用刀杀了": 9380,
      "口中的言语": 9381,
      "孩子们哪": 9382,
      "巴尔兹莱": 9383,
      "占卜者": 9384,
      "上前去": 9385,
      "两万五千肘": 9386,
      "米利暗": 9387,
      "两块石版": 9388,
      "阿尔巴": 9389,
      "洞穴里": 9390,
      "不敬虔": 9391,
      "高抬自己": 9392,
      "判定他为": 9393,
      "米沙克": 9394,
      "耶和华殿中的": 9395,
      "免于罪罚": 9396,
      "亚纳图": 9397,
      "至圣的": 9398,
      "被丢进": 9399,
      "黄昏的时候": 9400,
      "往前走": 9401,
      "臣服于": 9402,
      "翻译出来": 9403,
      "二十岁以上所有能": 9404,
      "归耶和华为圣": 9405,
      "伯贺仑": 9406,
      "俄备得": 9407,
      "沙德拉克": 9408,
      "尼布撒拉旦": 9409,
      "二十岁以上所有能出战": 9410,
      "’；": 9411,
      "一对": 9412,
      "一大群": 9413,
      "上船": 9414,
      "不愿": 9415,
      "不认": 9416,
      "不离开": 9417,
      "不接受": 9418,
      "与王": 9419,
      "世人的": 9420,
      "严酷": 9421,
      "丧命": 9422,
      "为一": 9423,
      "为那": 9424,
      "为祭物": 9425,
      "主我王": 9426,
      "之主": 9427,
      "之王": 9428,
      "之所以": 9429,
      "买卖": 9430,
      "了什么": 9431,
      "了下来": 9432,
      "亚利": 9433,
      "亮光": 9434,
      "人人": 9435,
      "人口": 9436,
      "人对": 9437,
      "人类": 9438,
      "今夜": 9439,
      "他吩咐": 9440,
      "他做了": 9441,
      "他把我": 9442,
      "以诺": 9443,
      "以胡德": 9444,
      "伊矶": 9445,
      "伊示": 9446,
      "传统": 9447,
      "伯大": 9448,
      "但那些": 9449,
      "但不要": 9450,
      "作对": 9451,
      "作证": 9452,
      "作他的": 9453,
      "你了": 9454,
      "你有祸了": 9455,
      "使这": 9456,
      "保留": 9457,
      "倒毙": 9458,
      "催促": 9459,
      "关在": 9460,
      "兴盛": 9461,
      "再三": 9462,
      "再也": 9463,
      "写着": 9464,
      "凄凉": 9465,
      "到来": 9466,
      "刺绣": 9467,
      "加害": 9468,
      "加略": 9469,
      "加利亚": 9470,
      "勇敢": 9471,
      "半夜": 9472,
      "卖掉": 9473,
      "压制": 9474,
      "又使": 9475,
      "发芽": 9476,
      "只剩下": 9477,
      "吃饱": 9478,
      "各家族": 9479,
      "同时": 9480,
      "吐唾沫": 9481,
      "告知": 9482,
      "告诫": 9483,
      "和水": 9484,
      "哑巴": 9485,
      "回去了": 9486,
      "因你们": 9487,
      "因他的": 9488,
      "圈套": 9489,
      "圣山": 9490,
      "在全": 9491,
      "在它们": 9492,
      "在任何": 9493,
      "在它的": 9494,
      "在山上": 9495,
      "在神面前": 9496,
      "基比": 9497,
      "墙上": 9498,
      "大道": 9499,
      "太初": 9500,
      "奉你的名": 9501,
      "女婿": 9502,
      "好人": 9503,
      "好使他": 9504,
      "威荣": 9505,
      "婴孩": 9506,
      "嫉愤": 9507,
      "孙女": 9508,
      "季节": 9509,
      "守这": 9510,
      "安得": 9511,
      "家和": 9512,
      "宽一肘": 9513,
      "对她": 9514,
      "对抗": 9515,
      "对这": 9516,
      "寿数": 9517,
      "封信": 9518,
      "尊敬": 9519,
      "就临到": 9520,
      "就把他": 9521,
      "就把它": 9522,
      "就俯伏": 9523,
      "就脸伏于地": 9524,
      "尼托": 9525,
      "尼波": 9526,
      "屋顶": 9527,
      "巡行": 9528,
      "巨大的": 9529,
      "差役": 9530,
      "希雅": 9531,
      "帕示": 9532,
      "带来的": 9533,
      "带走了": 9534,
      "年少": 9535,
      "年纪": 9536,
      "并有": 9537,
      "幼仔": 9538,
      "开凿": 9539,
      "弗拉": 9540,
      "形状": 9541,
      "彰显": 9542,
      "徒然": 9543,
      "得来的": 9544,
      "得痊愈": 9545,
      "心存": 9546,
      "必因": 9547,
      "恐吓": 9548,
      "恶待": 9549,
      "恶的": 9550,
      "患者": 9551,
      "我用": 9552,
      "我以外": 9553,
      "战战兢": 9554,
      "战场上": 9555,
      "戴上": 9556,
      "戴着": 9557,
      "户筛": 9558,
      "扬散": 9559,
      "报血": 9560,
      "抵达": 9561,
      "拿顺": 9562,
      "持续": 9563,
      "指控": 9564,
      "掳到": 9565,
      "撒都该": 9566,
      "撕碎": 9567,
      "撤回": 9568,
      "攻城": 9569,
      "故意": 9570,
      "敌对我": 9571,
      "施舍": 9572,
      "时代": 9573,
      "是非": 9574,
      "是耶和华的": 9575,
      "是他们的": 9576,
      "是怎么": 9577,
      "暂时": 9578,
      "最小": 9579,
      "最终": 9580,
      "有所": 9581,
      "有火": 9582,
      "有话语": 9583,
      "有极大的": 9584,
      "有恩惠": 9585,
      "有鬼魔附身": 9586,
      "服装": 9587,
      "本国": 9588,
      "朽坏的": 9589,
      "杜顿": 9590,
      "杠子": 9591,
      "根枝干": 9592,
      "格里": 9593,
      "欢跃": 9594,
      "欺负": 9595,
      "止住": 9596,
      "每逢": 9597,
      "比加": 9598,
      "比珥": 9599,
      "民间": 9600,
      "水边": 9601,
      "沿海": 9602,
      "注定": 9603,
      "洪流": 9604,
      "流泪": 9605,
      "涌出": 9606,
      "清白": 9607,
      "满满": 9608,
      "炎热": 9609,
      "烧毁": 9610,
      "照耀": 9611,
      "爱心": 9612,
      "狂妄": 9613,
      "王和他的": 9614,
      "玛拉": 9615,
      "现今": 9616,
      "玷辱": 9617,
      "甘甜": 9618,
      "生养": 9619,
      "用铁": 9620,
      "田产": 9621,
      "癞癣": 9622,
      "白昼": 9623,
      "的灯": 9624,
      "的父": 9625,
      "的道": 9626,
      "的马": 9627,
      "的审判": 9628,
      "的葡萄": 9629,
      "的圣所": 9630,
      "的君王": 9631,
      "的行为": 9632,
      "的世代": 9633,
      "的根基": 9634,
      "的居所": 9635,
      "的臣仆们": 9636,
      "的右边": 9637,
      "的香柏树": 9638,
      "的庙宇": 9639,
      "看不到": 9640,
      "睚珥": 9641,
      "石柱": 9642,
      "碎块": 9643,
      "站在那里": 9644,
      "第五": 9645,
      "第七年": 9646,
      "算命": 9647,
      "箭矢": 9648,
      "精兵": 9649,
      "约亚": 9650,
      "约撒巴": 9651,
      "组幔帐": 9652,
      "细面": 9653,
      "经期": 9654,
      "给那些": 9655,
      "罢特": 9656,
      "罩篷": 9657,
      "老年人": 9658,
      "而在": 9659,
      "耶达": 9660,
      "耶杜顿": 9661,
      "耽延": 9662,
      "联合": 9663,
      "肉和": 9664,
      "肚子": 9665,
      "肥壮": 9666,
      "脚上的": 9667,
      "自制": 9668,
      "苦情": 9669,
      "荫庇": 9670,
      "蒙着": 9671,
      "街市": 9672,
      "衡量": 9673,
      "被赦免": 9674,
      "装满": 9675,
      "装满了": 9676,
      "西巴": 9677,
      "要他们": 9678,
      "觉得": 9679,
      "讲明": 9680,
      "请告诉我": 9681,
      "贪爱": 9682,
      "走路": 9683,
      "超越": 9684,
      "跪下": 9685,
      "路途": 9686,
      "辛劳": 9687,
      "边走": 9688,
      "迅速": 9689,
      "运到": 9690,
      "这首": 9691,
      "通过": 9692,
      "都像": 9693,
      "都不要": 9694,
      "都不能": 9695,
      "都按圣所的谢克尔标准": 9696,
      "铜钹": 9697,
      "银钱": 9698,
      "长寿": 9699,
      "门扇": 9700,
      "闪耀": 9701,
      "问她": 9702,
      "问我": 9703,
      "除你": 9704,
      "除酵": 9705,
      "除我以外": 9706,
      "随意": 9707,
      "雀鸟": 9708,
      "雅谢": 9709,
      "鞋子": 9710,
      "颁布": 9711,
      "额上": 9712,
      "他们去": 9713,
      "他们曾": 9714,
      "他们那里": 9715,
      "他们不能": 9716,
      "他们竟然": 9717,
      "你们都是": 9718,
      "你的脚": 9719,
      "你的弟兄": 9720,
      "的人数": 9721,
      "我的羊群": 9722,
      "我的怒气": 9723,
      "因为耶和华的": 9724,
      "因为他说": 9725,
      "因为经上记着": 9726,
      "他的义": 9727,
      "他的父母": 9728,
      "耶稣进了": 9729,
      "一个叫": 9730,
      "一个王": 9731,
      "一个金": 9732,
      "耶和华的指示": 9733,
      "耶和华的命令": 9734,
      "所有军兵": 9735,
      "自己的兄弟": 9736,
      "我要把你": 9737,
      "子孙从": 9738,
      "于是王": 9739,
      "你要为": 9740,
      "不可在": 9741,
      "子民说": 9742,
      "这是在": 9743,
      "这是我的": 9744,
      "耶路巴力": 9745,
      "直到你": 9746,
      "起来攻击": 9747,
      "现在我们": 9748,
      "所有的王": 9749,
      "告诉过": 9750,
      "藉着你": 9751,
      "藉着信": 9752,
      "藉着耶稣基督": 9753,
      "不会有": 9754,
      "并且使": 9755,
      "赐给你们的": 9756,
      "赐给我们的": 9757,
      "成为你们的": 9758,
      "到了早晨": 9759,
      "的那个": 9760,
      "住在地上": 9761,
      "我必使你": 9762,
      "离开他们": 9763,
      "也不知道": 9764,
      "还有什么": 9765,
      "全体军兵": 9766,
      "律法之下": 9767,
      "平安吗": 9768,
      "旷野中": 9769,
      "旷野去": 9770,
      "在耶和华殿的": 9771,
      "听从他": 9772,
      "建造房屋": 9773,
      "站在旁边": 9774,
      "献上燔祭": 9775,
      "怎么办": 9776,
      "耶利莫": 9777,
      "免得你": 9778,
      "在你们里面": 9779,
      "敬畏你": 9780,
      "工作上": 9781,
      "会众当中": 9782,
      "教导他们": 9783,
      "这一切都": 9784,
      "耶和华所吩咐": 9785,
      "你所说的": 9786,
      "我也不会": 9787,
      "君王和": 9788,
      "回应他": 9789,
      "聚集在一起": 9790,
      "既然如此": 9791,
      "羊群的": 9792,
      "毁灭的": 9793,
      "那人说": 9794,
      "你就知道": 9795,
      "帮助我们": 9796,
      "我的子民哪": 9797,
      "黑暗里": 9798,
      "旁边的一段": 9799,
      "田野中": 9800,
      "与我同在": 9801,
      "遵守我的": 9802,
      "遵守他的": 9803,
      "领袖们": 9804,
      "犯罪的": 9805,
      "灭亡了": 9806,
      "死人复活": 9807,
      "亵渎的话": 9808,
      "听到的": 9809,
      "发现了": 9810,
      "的罪恶": 9811,
      "的罪责": 9812,
      "想要杀": 9813,
      "无法数算": 9814,
      "以斯哈": 9815,
      "的那些民族": 9816,
      "磐石上": 9817,
      "逃跑了": 9818,
      "有的说": 9819,
      "家的主人": 9820,
      "撒拉铁": 9821,
      "永远的约": 9822,
      "从他们中间": 9823,
      "一人存活": 9824,
      "到你那里": 9825,
      "每个人都": 9826,
      "制作了": 9827,
      "橄榄园": 9828,
      "荆棘和": 9829,
      "跟从耶和华": 9830,
      "尊贵的": 9831,
      "承担自己的": 9832,
      "用刀击杀": 9833,
      "耶和华所指示的": 9834,
      "初熟的": 9835,
      "你们要听耶和华的话语": 9836,
      "火焰中": 9837,
      "用手指": 9838,
      "我父啊": 9839,
      "施洗者": 9840,
      "彼此相爱": 9841,
      "围绕我": 9842,
      "结出果实": 9843,
      "放火烧毁": 9844,
      "富有的人": 9845,
      "从耶和华临到": 9846,
      "守卫室": 9847,
      "常献的燔祭和": 9848,
      "是照着耶和华指示": 9849,
      "玛哈念": 9850,
      "帷幔的柱子": 9851,
      "所得的继业": 9852,
      "这也是虚空": 9853,
      "这是为要应验": 9854,
      "蒙祝福的": 9855,
      "行政官": 9856,
      "从今以后": 9857,
      "干旱之地": 9858,
      "无意中": 9859,
      "战车和马兵": 9860,
      "分得继业": 9861,
      "转过身来": 9862,
      "耶希业": 9863,
      "轻易发怒": 9864,
      "以恩慈对待": 9865,
      "玛赫利": 9866,
      "看做是": 9867,
      "提克亚": 9868,
      "哈莫尔": 9869,
      "示法提雅": 9870,
      "诸天和大地": 9871,
      "二十岁以上所有能出战的男子": 9872,
      "伊矶伦": 9873,
      "安得烈": 9874,
      "帕示户珥": 9875,
      "战战兢兢": 9876,
      "报血仇": 9877,
      "一片": 9878,
      "一连": 9879,
      "三勇士": 9880,
      "三百人": 9881,
      "不上": 9882,
      "不下": 9883,
      "不停": 9884,
      "不受": 9885,
      "不然": 9886,
      "不顾": 9887,
      "不让他们": 9888,
      "与神": 9889,
      "与妻子": 9890,
      "与先前": 9891,
      "与其类": 9892,
      "丑恶的事": 9893,
      "丢失": 9894,
      "丢弃": 9895,
      "两天": 9896,
      "中出来": 9897,
      "为它": 9898,
      "为燔祭": 9899,
      "主管": 9900,
      "之神的": 9901,
      "乌云": 9902,
      "乌斯": 9903,
      "乌鸦": 9904,
      "乐祸": 9905,
      "乘驾": 9906,
      "也就": 9907,
      "了这些": 9908,
      "事的": 9909,
      "亚干": 9910,
      "享乐": 9911,
      "人来": 9912,
      "人能": 9913,
      "人手所造的": 9914,
      "从父": 9915,
      "从他们的": 9916,
      "从远方": 9917,
      "他作": 9918,
      "他和": 9919,
      "他才": 9920,
      "他使我的": 9921,
      "伊伯": 9922,
      "伊列": 9923,
      "伊坦": 9924,
      "伏兵": 9925,
      "伴着": 9926,
      "佐拉": 9927,
      "作我的": 9928,
      "作你们的": 9929,
      "你和你": 9930,
      "供职": 9931,
      "俯身": 9932,
      "倾倒": 9933,
      "做一个": 9934,
      "做任何": 9935,
      "做买卖": 9936,
      "像在": 9937,
      "其次": 9938,
      "切齿": 9939,
      "刚强": 9940,
      "利玛利": 9941,
      "到天上": 9942,
      "前去": 9943,
      "剥去": 9944,
      "包上了": 9945,
      "千万": 9946,
      "卖了": 9947,
      "印记": 9948,
      "又到": 9949,
      "又向": 9950,
      "双倍": 9951,
      "叔叔": 9952,
      "取走": 9953,
      "受欺压": 9954,
      "口渴": 9955,
      "司酒": 9956,
      "吃草": 9957,
      "各处": 9958,
      "吉多": 9959,
      "向他的": 9960,
      "吞掉": 9961,
      "听他": 9962,
      "呻吟": 9963,
      "命运": 9964,
      "和先知": 9965,
      "和寡妇": 9966,
      "和主耶稣基督": 9967,
      "哈嫩": 9968,
      "唤醒": 9969,
      "喝醉": 9970,
      "喧嚣": 9971,
      "喧闹": 9972,
      "四境": 9973,
      "四壁": 9974,
      "四肘": 9975,
      "回想": 9976,
      "回来的": 9977,
      "土利": 9978,
      "在城门口": 9979,
      "在圣殿里": 9980,
      "在会幕中": 9981,
      "地去": 9982,
      "坐上": 9983,
      "块地": 9984,
      "多久": 9985,
      "女王": 9986,
      "她是": 9987,
      "如水": 9988,
      "如火": 9989,
      "娶妻": 9990,
      "婴儿": 9991,
      "嫩子": 9992,
      "实现": 9993,
      "宣扬": 9994,
      "宫廷": 9995,
      "害死": 9996,
      "宽广": 9997,
      "对方": 9998,
      "对耶和华说": 9999,
      "对神说": 10000,
      "小事": 10001,
      "就到": 10002,
      "就起身": 10003,
      "屋子": 10004,
      "工酬": 10005,
      "希弗": 10006,
      "帘幕": 10007,
      "幸灾": 10008,
      "床铺": 10009,
      "底璧": 10010,
      "康复": 10011,
      "张桌子": 10012,
      "当然": 10013,
      "彼土利": 10014,
      "很少": 10015,
      "必要": 10016,
      "忠心的": 10017,
      "恩宠": 10018,
      "愿他的": 10019,
      "我何": 10020,
      "我吗": 10021,
      "我因": 10022,
      "我爱": 10023,
      "我被": 10024,
      "我自己": 10025,
      "我虽然": 10026,
      "我怎能": 10027,
      "我却要": 10028,
      "战斗": 10029,
      "房角": 10030,
      "扎克尔": 10031,
      "扣环": 10032,
      "承接": 10033,
      "把血": 10034,
      "抹在": 10035,
      "拉麦": 10036,
      "按队伍": 10037,
      "挪移": 10038,
      "掳物": 10039,
      "握着": 10040,
      "摆上": 10041,
      "撒门": 10042,
      "支持": 10043,
      "教义": 10044,
      "料石": 10045,
      "斧头": 10046,
      "既不": 10047,
      "早就": 10048,
      "明确": 10049,
      "易多": 10050,
      "是他的": 10051,
      "是我们的": 10052,
      "是来自": 10053,
      "显为义": 10054,
      "景象": 10055,
      "有怜悯": 10056,
      "有很多": 10057,
      "有这样的": 10058,
      "木匠": 10059,
      "木杖": 10060,
      "杀人的": 10061,
      "权贵": 10062,
      "棵树": 10063,
      "欢迎": 10064,
      "欢欢喜": 10065,
      "欣嫩子": 10066,
      "母羊": 10067,
      "比他": 10068,
      "比利亚": 10069,
      "永生的": 10070,
      "求告": 10071,
      "沙玛": 10072,
      "洗濯": 10073,
      "洗脚": 10074,
      "派去": 10075,
      "海沙": 10076,
      "海狮": 10077,
      "满心": 10078,
      "漂泊": 10079,
      "火炭": 10080,
      "火里": 10081,
      "热切": 10082,
      "熬炼": 10083,
      "爱慕": 10084,
      "爱的人": 10085,
      "片刻": 10086,
      "牢房": 10087,
      "特别": 10088,
      "王手中": 10089,
      "珍珠": 10090,
      "珥楠": 10091,
      "生一个儿子": 10092,
      "用什么": 10093,
      "白色的": 10094,
      "的后": 10095,
      "的地": 10096,
      "的外": 10097,
      "的第": 10098,
      "的脸": 10099,
      "的轭": 10100,
      "的门徒们": 10101,
      "的殿宇": 10102,
      "的各样": 10103,
      "的家里": 10104,
      "的外邦人": 10105,
      "的哥哥": 10106,
      "的言语": 10107,
      "的入口": 10108,
      "的坟墓": 10109,
      "的仆人们": 10110,
      "的见证人": 10111,
      "的枝子": 10112,
      "的君王们": 10113,
      "的三分之一": 10114,
      "的两个儿子": 10115,
      "的默示": 10116,
      "的洗礼": 10117,
      "皮革": 10118,
      "相关": 10119,
      "相同": 10120,
      "眼中的": 10121,
      "着他们": 10122,
      "破口": 10123,
      "破坏": 10124,
      "确信": 10125,
      "碧拉": 10126,
      "示米亚": 10127,
      "神对": 10128,
      "神柱": 10129,
      "神的人": 10130,
      "祭献": 10131,
      "空手": 10132,
      "等待": 10133,
      "算是": 10134,
      "米吉多": 10135,
      "红宝石": 10136,
      "约克": 10137,
      "约萨": 10138,
      "终结": 10139,
      "经火": 10140,
      "给我的": 10141,
      "给自己": 10142,
      "缠住": 10143,
      "网格": 10144,
      "罗尼": 10145,
      "群山上": 10146,
      "耐心": 10147,
      "耶拉": 10148,
      "耶伊列": 10149,
      "聆听": 10150,
      "肩膀": 10151,
      "自古以来": 10152,
      "至圣者": 10153,
      "苦毒": 10154,
      "苦痛": 10155,
      "荣美": 10156,
      "落入": 10157,
      "落空": 10158,
      "蒙怜悯": 10159,
      "行李": 10160,
      "行程": 10161,
      "行赎罪礼": 10162,
      "衣襟": 10163,
      "袋子": 10164,
      "袋子里": 10165,
      "被打": 10166,
      "被造": 10167,
      "要以": 10168,
      "要听": 10169,
      "要对": 10170,
      "要爱": 10171,
      "要不是": 10172,
      "要献上": 10173,
      "覆灭": 10174,
      "计策": 10175,
      "记载": 10176,
      "诏书": 10177,
      "询问": 10178,
      "说服": 10179,
      "说的一切": 10180,
      "请看": 10181,
      "象牙": 10182,
      "财主": 10183,
      "赎清": 10184,
      "赏赐": 10185,
      "走的路": 10186,
      "赶走": 10187,
      "赶路": 10188,
      "过去了": 10189,
      "这杯": 10190,
      "这都是": 10191,
      "这一天": 10192,
      "连接": 10193,
      "选出": 10194,
      "那不": 10195,
      "那兽": 10196,
      "酒的": 10197,
      "酵母": 10198,
      "重一百三十": 10199,
      "重十谢克尔": 10200,
      "铸造": 10201,
      "铸造的": 10202,
      "锭银子": 10203,
      "阴谋": 10204,
      "阿赫": 10205,
      "降雨": 10206,
      "陷坑": 10207,
      "隔离": 10208,
      "隘口": 10209,
      "雅亿": 10210,
      "雇用": 10211,
      "震惊": 10212,
      "青草": 10213,
      "面对面": 10214,
      "颗星": 10215,
      "饿了": 10216,
      "驻军": 10217,
      "骑上": 10218,
      "他们已经": 10219,
      "他们祖先的神": 10220,
      "你们不是": 10221,
      "你们不能": 10222,
      "耶和华对他说": 10223,
      "我们神": 10224,
      "我们说": 10225,
      "我们这些": 10226,
      "我们不是": 10227,
      "你的力量": 10228,
      "你的言语": 10229,
      "你的右手": 10230,
      "的人面前": 10231,
      "我的祷告": 10232,
      "我的罪孽": 10233,
      "我的救恩": 10234,
      "因为你的": 10235,
      "因为我要": 10236,
      "因为它们": 10237,
      "因为凡是": 10238,
      "他的后裔": 10239,
      "他的臣仆": 10240,
      "他的兄弟们": 10241,
      "没有什么": 10242,
      "没有受割礼": 10243,
      "耶稣对": 10244,
      "一个人的": 10245,
      "的儿子先知": 10246,
      "人的话": 10247,
      "人的后裔": 10248,
      "就是耶和华": 10249,
      "就是基督": 10250,
      "他们的儿女": 10251,
      "他们的继业": 10252,
      "他们的族兄弟": 10253,
      "如果没有": 10254,
      "自己的儿女": 10255,
      "自己的生命": 10256,
      "你们的兄弟": 10257,
      "祭司长": 10258,
      "于是那": 10259,
      "于是法老": 10260,
      "你要告诉": 10261,
      "子民中": 10262,
      "不是要": 10263,
      "不是为了": 10264,
      "以及与他一起": 10265,
      "照着你": 10266,
      "照着他们的": 10267,
      "话语的": 10268,
      "所有的长老": 10269,
      "所有的城镇": 10270,
      "父亲说": 10271,
      "它们就": 10272,
      "他们说话": 10273,
      "他说话": 10274,
      "所以你": 10275,
      "赐给了": 10276,
      "地上所有的": 10277,
      "都是如此": 10278,
      "祭坛和": 10279,
      "的那地上": 10280,
      "有人居住": 10281,
      "我必不": 10282,
      "我必惩罚": 10283,
      "回答我": 10284,
      "回答他们": 10285,
      "智慧的": 10286,
      "洁净自己": 10287,
      "有一条": 10288,
      "和他的妻子": 10289,
      "和他的全军": 10290,
      "攻击它": 10291,
      "而是为了": 10292,
      "亚比拿达": 10293,
      "人和牲畜": 10294,
      "也是这样": 10295,
      "因为他们是": 10296,
      "石头上": 10297,
      "免得有人": 10298,
      "一只一岁的公羊羔": 10299,
      "与你一起": 10300,
      "这一切话": 10301,
      "其中有": 10302,
      "坐在宝座上": 10303,
      "四围所有的": 10304,
      "交给他们": 10305,
      "没有人知道": 10306,
      "他们在一起": 10307,
      "第二年": 10308,
      "就在这里": 10309,
      "怒气发作": 10310,
      "房屋里": 10311,
      "向他下拜": 10312,
      "在这地上": 10313,
      "解救你们脱离": 10314,
      "的名号": 10315,
      "的王位": 10316,
      "与他们一同": 10317,
      "一百个": 10318,
      "寄居在": 10319,
      "将被称为": 10320,
      "我们的神哪": 10321,
      "有什么关系": 10322,
      "使徒的": 10323,
      "得了痊愈": 10324,
      "第三个": 10325,
      "第三年": 10326,
      "还要献": 10327,
      "正直的人": 10328,
      "正直人的": 10329,
      "？’”": 10330,
      "抓住他": 10331,
      "以弗仑": 10332,
      "到底是谁": 10333,
      "悖逆之家": 10334,
      "困苦人和": 10335,
      "至高者的": 10336,
      "绝不会再": 10337,
      "变得像": 10338,
      "王宫里": 10339,
      "七十谢克尔": 10340,
      "做的这是": 10341,
      "到你这里": 10342,
      "各自的": 10343,
      "城里的人": 10344,
      "保守你": 10345,
      "回自己的地方": 10346,
      "在位第十": 10347,
      "从这一点": 10348,
      "的火焰": 10349,
      "的火祭": 10350,
      "荆棘丛": 10351,
      "报告说": 10352,
      "在一处": 10353,
      "父系首领": 10354,
      "的这殿宇": 10355,
      "十分之一伊法": 10356,
      "比利迦": 10357,
      "班组有两万四千人": 10358,
      "燃烧的": 10359,
      "馨香的火祭": 10360,
      "蓝色的": 10361,
      "与他的列祖在一起": 10362,
      "作祭司的": 10363,
      "喊叫说": 10364,
      "血债归": 10365,
      "严厉地": 10366,
      "皮肤上": 10367,
      "后代子孙": 10368,
      "丰盛的慈爱": 10369,
      "十五日": 10370,
      "胸牌上": 10371,
      "束上麻布": 10372,
      "逾越节的羔羊": 10373,
      "会幕的入口": 10374,
      "无辜人的血": 10375,
      "被摧毁了": 10376,
      "倒塌了": 10377,
      "所宣告的话": 10378,
      "遥远之地": 10379,
      "卑劣之徒": 10380,
      "同心合": 10381,
      "弓箭手": 10382,
      "是什么意思呢": 10383,
      "朱红色线和捻成的细麻线": 10384,
      "愿恩典与平安": 10385,
      "用火烧掉": 10386,
      "人们把他葬在": 10387,
      "泽克利": 10388,
      "睡着了": 10389,
      "盛满了香": 10390,
      "同献的酒祭以外": 10391,
      "伸开双手": 10392,
      "吃得饱足": 10393,
      "从东边到西边": 10394,
      "芬芳香": 10395,
      "阿实基伦": 10396,
      "使女们": 10397,
      "耶罗罕": 10398,
      "阿波罗": 10399,
      "尼托法": 10400,
      "边走边": 10401,
      "除酵节": 10402,
      "怎么办呢": 10403,
      "幸灾乐祸": 10404,
      "欢欢喜喜": 10405,
      "海狮皮": 10406,
      "约萨达": 10407,
      "重一百三十谢克尔": 10408,
      "一口": 10409,
      "一国": 10410,
      "一座城": 10411,
      "七位天使": 10412,
      "三万": 10413,
      "三子": 10414,
      "上涨": 10415,
      "下阴间": 10416,
      "不吃": 10417,
      "不把": 10418,
      "两次": 10419,
      "中最": 10420,
      "为乐": 10421,
      "为首": 10422,
      "为他的": 10423,
      "之约": 10424,
      "也从": 10425,
      "买下": 10426,
      "了七天": 10427,
      "事务": 10428,
      "二月": 10429,
      "五分之一": 10430,
      "五只公绵羊": 10431,
      "亚甲": 10432,
      "交合": 10433,
      "交出来": 10434,
      "交在他": 10435,
      "亲属": 10436,
      "人心": 10437,
      "人用": 10438,
      "人没有": 10439,
      "人看见": 10440,
      "人来到": 10441,
      "人住在": 10442,
      "人一样": 10443,
      "仓库": 10444,
      "他以": 10445,
      "他去": 10446,
      "他呢": 10447,
      "他泊": 10448,
      "他面前": 10449,
      "他不可": 10450,
      "他看见": 10451,
      "他不会": 10452,
      "他也不": 10453,
      "他效法": 10454,
      "以恶": 10455,
      "份例": 10456,
      "伊德": 10457,
      "休息": 10458,
      "众君王": 10459,
      "会被": 10460,
      "传达": 10461,
      "但愿": 10462,
      "何珥": 10463,
      "作过": 10464,
      "作他们的神": 10465,
      "你神": 10466,
      "你就是": 10467,
      "你必须": 10468,
      "倾注": 10469,
      "做出": 10470,
      "做过": 10471,
      "停住": 10472,
      "健全": 10473,
      "催逼": 10474,
      "充足": 10475,
      "先人那里": 10476,
      "全国": 10477,
      "八百": 10478,
      "公开": 10479,
      "兴旺": 10480,
      "分成": 10481,
      "分给他们": 10482,
      "利比拉": 10483,
      "力气": 10484,
      "包皮": 10485,
      "占领": 10486,
      "即使我": 10487,
      "却把": 10488,
      "却被": 10489,
      "原先": 10490,
      "双眼": 10491,
      "取代": 10492,
      "取下来": 10493,
      "受审判": 10494,
      "受玷污": 10495,
      "口井": 10496,
      "可见": 10497,
      "合适": 10498,
      "听的": 10499,
      "和我们": 10500,
      "和我的": 10501,
      "和葡萄园": 10502,
      "哈什": 10503,
      "哈格": 10504,
      "哥尼雅": 10505,
      "哺乳": 10506,
      "啊哈": 10507,
      "四面": 10508,
      "四分之一": 10509,
      "困惑": 10510,
      "圣山上": 10511,
      "在我们的": 10512,
      "在神的": 10513,
      "在万民中": 10514,
      "地带": 10515,
      "坚持": 10516,
      "坚硬": 10517,
      "城中的": 10518,
      "基座": 10519,
      "基达": 10520,
      "基低斯": 10521,
      "复原": 10522,
      "大小": 10523,
      "大拉": 10524,
      "大衮": 10525,
      "大雨": 10526,
      "天父": 10527,
      "头巾": 10528,
      "头颅": 10529,
      "头上的": 10530,
      "好好": 10531,
      "好使我": 10532,
      "委托": 10533,
      "婚宴": 10534,
      "孕妇": 10535,
      "存到": 10536,
      "存放": 10537,
      "学问": 10538,
      "安定": 10539,
      "家去": 10540,
      "宽阔": 10541,
      "寻见": 10542,
      "封住": 10543,
      "射箭": 10544,
      "小母牛": 10545,
      "就如此": 10546,
      "就派遣": 10547,
      "屈膝": 10548,
      "屋子里": 10549,
      "巢穴": 10550,
      "左手": 10551,
      "巧匠": 10552,
      "巴纳": 10553,
      "巴拉巴": 10554,
      "帕兰": 10555,
      "幔利": 10556,
      "庇太": 10557,
      "底但": 10558,
      "底波": 10559,
      "开启": 10560,
      "很好": 10561,
      "得自由": 10562,
      "忍受": 10563,
      "惊扰": 10564,
      "愁烦": 10565,
      "愿望": 10566,
      "慕拿": 10567,
      "戏弄": 10568,
      "我了": 10569,
      "我使": 10570,
      "我再": 10571,
      "我儿子": 10572,
      "我如果": 10573,
      "我心里": 10574,
      "我之间": 10575,
      "所惧怕": 10576,
      "所造的": 10577,
      "所用的": 10578,
      "手拿": 10579,
      "扛抬": 10580,
      "执行": 10581,
      "把手": 10582,
      "抱怨": 10583,
      "担子": 10584,
      "拉开": 10585,
      "拿细": 10586,
      "拿刀剑": 10587,
      "持久": 10588,
      "按人的": 10589,
      "挥动": 10590,
      "接待": 10591,
      "接过来": 10592,
      "推荐": 10593,
      "掰开": 10594,
      "搅动": 10595,
      "撒慕拿": 10596,
      "擅自": 10597,
      "攻破": 10598,
      "放到": 10599,
      "放纵": 10600,
      "救治": 10601,
      "斜坡": 10602,
      "明显": 10603,
      "是分给": 10604,
      "显为": 10605,
      "暴风": 10606,
      "替代": 10607,
      "朝见": 10608,
      "束腰": 10609,
      "松树": 10610,
      "枉然": 10611,
      "架上": 10612,
      "格外": 10613,
      "格拉": 10614,
      "次日": 10615,
      "欧珥楠": 10616,
      "止住了": 10617,
      "死地": 10618,
      "残忍": 10619,
      "母狮": 10620,
      "每一": 10621,
      "每人": 10622,
      "比你": 10623,
      "水池": 10624,
      "水源": 10625,
      "汲沦": 10626,
      "河的": 10627,
      "波浪": 10628,
      "波涛": 10629,
      "活过来": 10630,
      "流出来": 10631,
      "海边的": 10632,
      "混合": 10633,
      "湖里": 10634,
      "溪流": 10635,
      "满溢": 10636,
      "火把": 10637,
      "照顾": 10638,
      "煽动": 10639,
      "牛膝": 10640,
      "猎取": 10641,
      "王与": 10642,
      "生来": 10643,
      "用银子": 10644,
      "用比喻": 10645,
      "番雅": 10646,
      "疑惑": 10647,
      "疲惫": 10648,
      "的必": 10649,
      "的殿": 10650,
      "的油": 10651,
      "的边": 10652,
      "的风": 10653,
      "的四围": 10654,
      "的眼睛": 10655,
      "的教会": 10656,
      "的金子": 10657,
      "的意思": 10658,
      "的犄角": 10659,
      "的葡萄树": 10660,
      "的堡垒": 10661,
      "的房间": 10662,
      "的骸骨": 10663,
      "的良心": 10664,
      "盆座": 10665,
      "相对": 10666,
      "看管": 10667,
      "砍断": 10668,
      "礼服": 10669,
      "祝谢": 10670,
      "称为我": 10671,
      "窃贼": 10672,
      "立起": 10673,
      "箴言": 10674,
      "索要": 10675,
      "红玛瑙": 10676,
      "终止": 10677,
      "结了": 10678,
      "罪人的": 10679,
      "老先知": 10680,
      "而快乐": 10681,
      "耶乌": 10682,
      "耶特罗": 10683,
      "肚腹": 10684,
      "背上": 10685,
      "能使": 10686,
      "脚凳": 10687,
      "自大": 10688,
      "自称": 10689,
      "船上": 10690,
      "船队": 10691,
      "茉大拉": 10692,
      "蓝宝石": 10693,
      "蔬草": 10694,
      "虔诚": 10695,
      "街道": 10696,
      "街道上": 10697,
      "衰朽": 10698,
      "被迫": 10699,
      "西庇太": 10700,
      "西番雅": 10701,
      "要在那里": 10702,
      "见自己": 10703,
      "见光明": 10704,
      "解释": 10705,
      "讨论": 10706,
      "讽刺": 10707,
      "说完": 10708,
      "调查": 10709,
      "谴责": 10710,
      "责骂": 10711,
      "贪心": 10712,
      "赞许": 10713,
      "趁着": 10714,
      "距离": 10715,
      "身旁": 10716,
      "过河": 10717,
      "过了一": 10718,
      "还会": 10719,
      "这律法": 10720,
      "远避": 10721,
      "送回": 10722,
      "遍地": 10723,
      "那将要": 10724,
      "邪术": 10725,
      "邻舍": 10726,
      "都可以": 10727,
      "都告诉了": 10728,
      "重七十谢克尔": 10729,
      "铜器": 10730,
      "阿格里": 10731,
      "院宇": 10732,
      "随时": 10733,
      "雏鸽": 10734,
      "非哈": 10735,
      "顶冠": 10736,
      "顾及": 10737,
      "骑着": 10738,
      "骨肉": 10739,
      "高天": 10740,
      "他们对他说": 10741,
      "他们彼此": 10742,
      "你们有": 10743,
      "你们还": 10744,
      "你们就要": 10745,
      "你们将要": 10746,
      "你们也要": 10747,
      "你们大家": 10748,
      "耶和华也": 10749,
      "耶和华向": 10750,
      "我们从": 10751,
      "我们却": 10752,
      "我们必": 10753,
      "你的敌人": 10754,
      "的人一起": 10755,
      "我的头": 10756,
      "我的面": 10757,
      "我的声音": 10758,
      "我的道路": 10759,
      "因为是": 10760,
      "因为王": 10761,
      "因为他的": 10762,
      "他的荣耀": 10763,
      "他的衣服": 10764,
      "他的道路": 10765,
      "他的礼物": 10766,
      "他的队伍": 10767,
      "他的班组有两万四千人": 10768,
      "自己生命的": 10769,
      "耶稣从": 10770,
      "耶稣是": 10771,
      "耶稣看见": 10772,
      "耶和华的会众": 10773,
      "所有人的": 10774,
      "一切话语": 10775,
      "他们的时候": 10776,
      "他们的兄弟": 10777,
      "他们的眼睛": 10778,
      "如果王": 10779,
      "那些民族": 10780,
      "那些被数点的": 10781,
      "子孙说": 10782,
      "不要像": 10783,
      "你要从": 10784,
      "你要坚强": 10785,
      "不可能": 10786,
      "不是我": 10787,
      "看见那": 10788,
      "直到你们": 10789,
      "的神耶和华啊": 10790,
      "吩咐你": 10791,
      "吩咐他们说": 10792,
      "现在我要": 10793,
      "现在求你": 10794,
      "宣告了": 10795,
      "不会被": 10796,
      "我们的心": 10797,
      "的一切话语": 10798,
      "难道是": 10799,
      "难道不会": 10800,
      "成为废墟": 10801,
      "到了傍晚": 10802,
      "住在你们里面": 10803,
      "有人从": 10804,
      "手中解救": 10805,
      "荣耀归于": 10806,
      "任何日常": 10807,
      "我必定": 10808,
      "支派被数点的": 10809,
      "在他前面": 10810,
      "律法上": 10811,
      "律法上的": 10812,
      "我就把": 10813,
      "我在你们": 10814,
      "和他的族兄弟": 10815,
      "两个器皿都": 10816,
      "法老那里": 10817,
      "法老的女儿": 10818,
      "做了这事": 10819,
      "听从我的话": 10820,
      "生命起誓": 10821,
      "攻击他们": 10822,
      "献上祭物": 10823,
      "脱离我的手": 10824,
      "好让你": 10825,
      "亚比户": 10826,
      "他是个": 10827,
      "敬畏他的人": 10828,
      "教导我": 10829,
      "他必须": 10830,
      "以法他": 10831,
      "看到他": 10832,
      "可是你": 10833,
      "外邦女子": 10834,
      "以致你": 10835,
      "长老和": 10836,
      "在耶和华面前摇一摇": 10837,
      "向耶和华哀求": 10838,
      "不洁净的人": 10839,
      "毁灭了": 10840,
      "凡是触碰": 10841,
      "全地都": 10842,
      "那人就": 10843,
      "施行拯救": 10844,
      "帐篷中": 10845,
      "向他显现": 10846,
      "极其害怕": 10847,
      "统治的": 10848,
      "的名份": 10849,
      "向他们显现": 10850,
      "五十谢克尔": 10851,
      "离弃了": 10852,
      "倒在地上": 10853,
      "有什么相": 10854,
      "显明给我": 10855,
      "事奉的": 10856,
      "只有一位": 10857,
      "显现了": 10858,
      "第三次": 10859,
      "天上的万象": 10860,
      "四十天": 10861,
      "我不愿意": 10862,
      "从前在": 10863,
      "招聚起来": 10864,
      "耶和华是神": 10865,
      "异象中": 10866,
      "无人能": 10867,
      "即使是": 10868,
      "正直的": 10869,
      "到我这里": 10870,
      "的一份": 10871,
      "你的神耶和华面前": 10872,
      "远离恶事": 10873,
      "亚达雅": 10874,
      "伸出你的手": 10875,
      "从他面前": 10876,
      "地区的": 10877,
      "去见王": 10878,
      "的国度": 10879,
      "柱子上的": 10880,
      "求问神": 10881,
      "替他拿兵器的": 10882,
      "翅膀的": 10883,
      "意思是": 10884,
      "每个人的": 10885,
      "有了罪责": 10886,
      "妇女们": 10887,
      "愚妄人": 10888,
      "全能者的": 10889,
      "管辖者": 10890,
      "自由人": 10891,
      "对他们讲": 10892,
      "不信的人": 10893,
      "与她同房": 10894,
      "开口说": 10895,
      "纯全的": 10896,
      "掳民回归": 10897,
      "虚假的": 10898,
      "马匹和": 10899,
      "班组是": 10900,
      "缺乏心智": 10901,
      "认为好": 10902,
      "在各地": 10903,
      "引导我": 10904,
      "的女子啊": 10905,
      "逃到那里": 10906,
      "你们应当知道": 10907,
      "说了这些话": 10908,
      "颈项上": 10909,
      "初熟之物": 10910,
      "孤儿和寡妇": 10911,
      "将领们": 10912,
      "我又观看": 10913,
      "哈纳尼": 10914,
      "派遣使者去见": 10915,
      "回转归向我": 10916,
      "邻人的妻子": 10917,
[...]
