{
  "version": "1.0",
  "truncation": null,
  "padding": null,
  "added_tokens": [
    {
      "id": 0,
      "content": "<pad>",
      "single_word": false,
      "lstrip": false,
      "rstrip": false,
      "normalized": false,
      "special": true
    },
    {
      "id": 1,
      "content": "<unk>",
      "single_word": false,
      "lstrip": false,
      "rstrip": false,
      "normalized": false,
      "special": true
    },
    {
      "id": 2,
      "content": "<s>",
      "single_word": false,
      "lstrip": false,
      "rstrip": false,
      "normalized": false,
      "special": true
    },
    {
      "id": 3,
      "content": "</s>",
      "single_word": false,
      "lstrip": false,
      "rstrip": false,
      "normalized": false,
      "special": true
    }
  ],
  "normalizer": null,
  "pre_tokenizer": {
    "type": "Sequence",
    "pretokenizers": [
      {
        "type": "Whitespace"
      },
      {
        "type": "Split",
        "pattern": {
          "Regex": "(?<=[ऀ-ॿ஀-௿฀-๿຀-໿က-႟ក-៿一-鿿꤀-꤯])(?=[A-Za-z0-9])|(?<=[A-Za-z0-9])(?=[ऀ-ॿ஀-௿฀-๿຀-໿က-႟ក-៿一-鿿꤀-꤯])"
        },
        "behavior": "Isolated",
        "invert": false
      }
    ]
  },
  "post_processor": null,
  "decoder": null,
  "model": {
    "type": "BPE",
    "dropout": null,
    "unk_token": "<unk>",
    "continuing_subword_prefix": null,
    "end_of_word_suffix": null,
    "fuse_unk": false,
    "byte_fallback": false,
    "ignore_merges": false,
    "vocab": {
      "<pad>": 0,
      "<unk>": 1,
      "<s>": 2,
      "</s>": 3,
      "!": 4,
      "(": 5,
      ")": 6,
      ",": 7,
      "-": 8,
      ".": 9,
      "/": 10,
      "0": 11,
      "1": 12,
      "2": 13,
      "3": 14,
      "4": 15,
      "5": 16,
      "6": 17,
      "7": 18,
      "8": 19,
      "9": 20,
      ":": 21,
      ";": 22,
      "=": 23,
      "?": 24,
      "A": 25,
      "B": 26,
      "C": 27,
      "D": 28,
      "E": 29,
      "G": 30,
      "H": 31,
      "I": 32,
      "J": 33,
      "K": 34,
      "L": 35,
      "M": 36,
      "N": 37,
      "O": 38,
      "P": 39,
      "R": 40,
      "S": 41,
      "T": 42,
      "U": 43,
      "W": 44,
      "Y": 45,
      "[": 46,
      "]": 47,
      "a": 48,
      "b": 49,
      "c": 50,
      "d": 51,
      "e": 52,
      "f": 53,
      "g": 54,
      "h": 55,
      "i": 56,
      "j": 57,
      "k": 58,
      "l": 59,
      "m": 60,
      "n": 61,
      "o": 62,
      "p": 63,
      "r": 64,
      "s": 65,
      "t": 66,
      "u": 67,
      "w": 68,
      "y": 69,
      "–": 70,
      "‘": 71,
      "’": 72,
      "“": 73,
      "”": 74,
      "an": 75,
      "ng": 76,
      "ang": 77,
      "ane": 78,
      "ka": 79,
      "un": 80,
      "sa": 81,
      "ing": 82,
      "en": 83,
      "ra": 84,
      "da": 85,
      "tu": 86,
      "pun": 87,
      "ma": 88,
      "in": 89,
      "pa": 90,
      "di": 91,
      "ti": 92,
      "ah": 93,
      "ak": 94,
      "ring": 95,
      "puni": 96,
      "sane": 97,
      "yang": 98,
      "Ida": 99,
      "ta": 100,
      "ri": 101,
      "tur": 102,
      "te": 103,
      "ja": 104,
      "li": 105,
      "la": 106,
      "punika": 107,
      "to": 108,
      "bu": 109,
      "ki": 110,
      "Sang": 111,
      "asa": 112,
      "se": 113,
      "mi": 114,
      "su": 115,
      "ba": 116,
      "me": 117,
      "ung": 118,
      "ga": 119,
      "tiang": 120,
      "ny": 121,
      "re": 122,
      "si": 123,
      "kan": 124,
      "le": 125,
      "Wi": 126,
      "Hyang": 127,
      "uh": 128,
      "ke": 129,
      "dane": 130,
      "ne": 131,
      "Widi": 132,
      "san": 133,
      "Wasa": 134,
      "anak": 135,
      "pi": 136,
      "Dane": 137,
      "nga": 138,
      "mu": 139,
      "ipun": 140,
      "ent": 141,
      "kar": 142,
      "ur": 143,
      "mpun": 144,
      "tan": 145,
      "de": 146,
      "enten": 147,
      "wah": 148,
      "wa": 149,
      "ris": 150,
      "ran": 151,
      "miwah": 152,
      "gi": 153,
      "wi": 154,
      "at": 155,
      "du": 156,
      "meto": 157,
      "lakar": 158,
      "sampun": 159,
      "puniki": 160,
      "lan": 161,
      "os": 162,
      "raris": 163,
      "semeto": 164,
      "lun": 165,
      "pang": 166,
      "be": 167,
      "on": 168,
      "ken": 169,
      "Ulun": 170,
      "lih": 171,
      "ungg": 172,
      "antu": 173,
      "ya": 174,
      "ku": 175,
      "pe": 176,
      "ge": 177,
      "Pa": 178,
      "pan": 179,
      "lu": 180,
      "pra": 181,
      "titiang": 182,
      "mang": 183,
      "anake": 184,
      "ine": 185,
      "je": 186,
      "ut": 187,
      "jaga": 188,
      "ento": 189,
      "Sa": 190,
      "na": 191,
      "ca": 192,
      "sak": 193,
      "antuk": 194,
      "anging": 195,
      "ko": 196,
      "bi": 197,
      "semeton": 198,
      "rah": 199,
      "nyane": 200,
      "tus": 201,
      "ening": 202,
      "ngan": 203,
      "buat": 204,
      "bang": 205,
      "para": 206,
      "saking": 207,
      ".”": 208,
      "ia": 209,
      "ong": 210,
      "Ra": 211,
      "Ye": 212,
      "we": 213,
      "wenten": 214,
      "man": 215,
      "teken": 216,
      "sang": 217,
      "kadi": 218,
      "pada": 219,
      "din": 220,
      "dang": 221,
      "sami": 222,
      "gen": 223,
      "ru": 224,
      "patu": 225,
      "reng": 226,
      "sapuniki": 227,
      "rika": 228,
      "Pra": 229,
      "gih": 230,
      "indi": 231,
      "tang": 232,
      "nge": 233,
      "nenten": 234,
      "ene": 235,
      "ida": 236,
      "Ratu": 237,
      "ungguh": 238,
      "ake": 239,
      "lungguh": 240,
      "tane": 241,
      "Prabu": 242,
      "ira": 243,
      "muah": 244,
      "kita": 245,
      "patut": 246,
      "ling": 247,
      "Is": 248,
      "can": 249,
      "as": 250,
      "dos": 251,
      "tun": 252,
      "yu": 253,
      "do": 254,
      "dados": 255,
      "bo": 256,
      "ji": 257,
      "tusing": 258,
      "Palungguh": 259,
      "suba": 260,
      "gane": 261,
      "wong": 262,
      "cang": 263,
      "rae": 264,
      "Israe": 265,
      "ina": 266,
      "rauh": 267,
      "Ti": 268,
      "Idane": 269,
      "wan": 270,
      "taran": 271,
      "nya": 272,
      "dika": 273,
      "maka": 274,
      "cening": 275,
      "gu": 276,
      "mungg": 277,
      "atur": 278,
      "lak": 279,
      "pacang": 280,
      "IRatu": 281,
      "kota": 282,
      "ro": 283,
      "uing": 284,
      "Nanging": 285,
      "ar": 286,
      "lang": 287,
      "sareng": 288,
      "mungguing": 289,
      "malih": 290,
      "mar": 291,
      "nanging": 292,
      "muli": 293,
      "lah": 294,
      "kang": 295,
      "pu": 296,
      "ju": 297,
      "tumuli": 298,
      "bangsa": 299,
      "ngandika": 300,
      "danene": 301,
      "ler": 302,
      "sakadi": 303,
      "kin": 304,
      "dan": 305,
      "yun": 306,
      "jan": 307,
      "ayang": 308,
      "ci": 309,
      "ngu": 310,
      "mah": 311,
      "pin": 312,
      "Israele": 313,
      "put": 314,
      "mangda": 315,
      "taler": 316,
      "lo": 317,
      "Pe": 318,
      "dadi": 319,
      "ika": 320,
      "genah": 321,
      "win": 322,
      "uru": 323,
      "gan": 324,
      "rang": 325,
      "han": 326,
      "laksan": 327,
      "turang": 328,
      "tin": 329,
      "sin": 330,
      "sakan": 331,
      "semetone": 332,
      "bda": 333,
      "mo": 334,
      "ipune": 335,
      "ragane": 336,
      "panga": 337,
      "Da": 338,
      "angja": 339,
      "duh": 340,
      "mb": 341,
      "ud": 342,
      "ron": 343,
      "wang": 344,
      "buka": 345,
      "sakancan": 346,
      "uli": 347,
      "ngi": 348,
      "jang": 349,
      "Tiang": 350,
      "adin": 351,
      "mane": 352,
      "baos": 353,
      "Se": 354,
      "kitane": 355,
      "sih": 356,
      "paindi": 357,
      "titiange": 358,
      "yan": 359,
      "inggih": 360,
      "ada": 361,
      "sah": 362,
      "sus": 363,
      "ica": 364,
      "api": 365,
      "lung": 366,
      "pitu": 367,
      "teng": 368,
      "wiadin": 369,
      "lantaran": 370,
      "Yesus": 371,
      "Yo": 372,
      "margi": 373,
      "tiange": 374,
      "idane": 375,
      "tos": 376,
      "rak": 377,
      "reh": 378,
      "is": 379,
      "sida": 380,
      "pisan": 381,
      "iraga": 382,
      "prabu": 383,
      "bak": 384,
      "irika": 385,
      "Ulune": 386,
      "lin": 387,
      "masa": 388,
      "aturan": 389,
      "usa": 390,
      "une": 391,
      "Sasa": 392,
      "tah": 393,
      "hang": 394,
      "gung": 395,
      "lui": 396,
      "Me": 397,
      "adi": 398,
      "asapunika": 399,
      "Sasampun": 400,
      "nu": 401,
      "santu": 402,
      "santukan": 403,
      "Du": 404,
      "make": 405,
      "An": 406,
      "ngang": 407,
      "Ipun": 408,
      "pabuat": 409,
      "uning": 410,
      "jeron": 411,
      "aning": 412,
      "jad": 413,
      "Sane": 414,
      "malantaran": 415,
      "tanah": 416,
      "am": 417,
      "nye": 418,
      "jak": 419,
      "aje": 420,
      "lem": 421,
      "Pun": 422,
      "kau": 423,
      "kalih": 424,
      "ni": 425,
      "Widin": 426,
      "jeroning": 427,
      "makasami": 428,
      "Ma": 429,
      "paindikan": 430,
      "gang": 431,
      "indik": 432,
      "Si": 433,
      "ban": 434,
      "Irika": 435,
      "hyang": 436,
      "rhyang": 437,
      "unan": 438,
      "ping": 439,
      "ten": 440,
      "okan": 441,
      "asapuniki": 442,
      "raga": 443,
      "keto": 444,
      "el": 445,
      "mabaos": 446,
      "pantaran": 447,
      "rep": 448,
      "pianak": 449,
      "sir": 450,
      "was": 451,
      "Yening": 452,
      "laksanayang": 453,
      "Ba": 454,
      "eh": 455,
      "undu": 456,
      "gal": 457,
      "wireh": 458,
      "mangkin": 459,
      "men": 460,
      "ngaturang": 461,
      "kantos": 462,
      "mapa": 463,
      "so": 464,
      "Daud": 465,
      "ngen": 466,
      "akeh": 467,
      "ben": 468,
      "Sasampune": 469,
      "baan": 470,
      "Anake": 471,
      "Perhyang": 472,
      "ayu": 473,
      "mpa": 474,
      "Yeh": 475,
      "sajeroning": 476,
      "rent": 477,
      "rentah": 478,
      "nun": 479,
      "matur": 480,
      "pade": 481,
      "kayun": 482,
      "wit": 483,
      "Yeru": 484,
      "dosa": 485,
      "Yerusa": 486,
      "seh": 487,
      "biri": 488,
      "Yehu": 489,
      "tung": 490,
      "Agung": 491,
      "Su": 492,
      "jadmane": 493,
      "mbah": 494,
      "min": 495,
      "Perhyangan": 496,
      "tak": 497,
      "mas": 498,
      "pandi": 499,
      "mra": 500,
      "geng": 501,
      "sar": 502,
      "jin": 503,
      "rahang": 504,
      "mba": 505,
      "janji": 506,
      "yen": 507,
      "aha": 508,
      "Ia": 509,
      "Musa": 510,
      "mala": 511,
      "kaulan": 512,
      "kudang": 513,
      "Israel": 514,
      "rahina": 515,
      "pane": 516,
      "gun": 517,
      "Ring": 518,
      "bangsane": 519,
      "winan": 520,
      "makejang": 521,
      "andi": 522,
      "Rika": 523,
      "dur": 524,
      "mada": 525,
      "Titiang": 526,
      "lintang": 527,
      "apa": 528,
      "saha": 529,
      "bin": 530,
      "sidayang": 531,
      "anan": 532,
      "suang": 533,
      "mrasidayang": 534,
      "sisi": 535,
      "rana": 536,
      "suku": 537,
      "luh": 538,
      "mbi": 539,
      "war": 540,
      "mp": 541,
      "made": 542,
      "tek": 543,
      "kotane": 544,
      "rbo": 545,
      "oh": 546,
      "angg": 547,
      "Ka": 548,
      "uri": 549,
      "Tu": 550,
      "ara": 551,
      "ce": 552,
      "praca": 553,
      "Para": 554,
      "Rikala": 555,
      "kane": 556,
      "apanga": 557,
      "mine": 558,
      "dewe": 559,
      "jagate": 560,
      "rahayu": 561,
      "mrentah": 562,
      "dua": 563,
      "kantun": 564,
      "ging": 565,
      "lanang": 566,
      "meseh": 567,
      "yate": 568,
      "?”": 569,
      "enan": 570,
      "nyu": 571,
      "awinan": 572,
      "sing": 573,
      "kapa": 574,
      "dal": 575,
      "Rat": 576,
      "marep": 577,
      "pat": 578,
      "maliha": 579,
      "aji": 580,
      "katur": 581,
      "winang": 582,
      "ngawinang": 583,
      "icayang": 584,
      "Ke": 585,
      "mpi": 586,
      "buin": 587,
      "ngin": 588,
      "ani": 589,
      "mamargi": 590,
      "apike": 591,
      "Guru": 592,
      "res": 593,
      "iragane": 594,
      "nan": 595,
      "cak": 596,
      "ad": 597,
      "nyida": 598,
      "beci": 599,
      "eneng": 600,
      "jani": 601,
      "ib": 602,
      "ih": 603,
      "rain": 604,
      "ngran": 605,
      "ajeng": 606,
      "Maha": 607,
      "Kris": 608,
      "mati": 609,
      "paling": 610,
      "Na": 611,
      "urip": 612,
      "bdab": 613,
      "Le": 614,
      "watek": 615,
      "pur": 616,
      "pesan": 617,
      "tune": 618,
      "teh": 619,
      "Pi": 620,
      "yah": 621,
      "kad": 622,
      "nyidayang": 623,
      "nyi": 624,
      "dewek": 625,
      "mer": 626,
      "Duaning": 627,
      "lis": 628,
      "rakyate": 629,
      "yening": 630,
      "wali": 631,
      "Kristus": 632,
      "ceninge": 633,
      "Yerusalem": 634,
      "rane": 635,
      "padem": 636,
      "iratu": 637,
      "madu": 638,
      "mpin": 639,
      "sue": 640,
      "cen": 641,
      "ayun": 642,
      "po": 643,
      "pida": 644,
      "dasa": 645,
      "!”": 646,
      "dru": 647,
      "mara": 648,
      "Ki": 649,
      "lawan": 650,
      "manah": 651,
      "et": 652,
      "pakar": 653,
      "ter": 654,
      "kanti": 655,
      "Duh": 656,
      "sawireh": 657,
      "mbil": 658,
      "tayang": 659,
      "Sak": 660,
      "ledang": 661,
      "gumine": 662,
      "pare": 663,
      "Ratune": 664,
      "kur": 665,
      "masih": 666,
      "IRatune": 667,
      "kawi": 668,
      "Yen": 669,
      "pami": 670,
      "suci": 671,
      "wantah": 672,
      "kaping": 673,
      "ngar": 674,
      "bakti": 675,
      "ahang": 676,
      "mbu": 677,
      "andikan": 678,
      "ditu": 679,
      "pituduh": 680,
      "katurunan": 681,
      "nglaksanayang": 682,
      "Santu": 683,
      "aki": 684,
      "Santukan": 685,
      "Yah": 686,
      "rit": 687,
      "Ab": 688,
      "Ih": 689,
      "indike": 690,
      "aja": 691,
      "iang": 692,
      "ragi": 693,
      "ub": 694,
      "taun": 695,
      "lane": 696,
      "morbo": 697,
      "margiang": 698,
      "nglu": 699,
      "lianan": 700,
      "sung": 701,
      "rikala": 702,
      "Punika": 703,
      "pasa": 704,
      "mbahan": 705,
      "mun": 706,
      "ali": 707,
      "muani": 708,
      "pracaya": 709,
      "osan": 710,
      "ton": 711,
      "nglawan": 712,
      "Pane": 713,
      "leme": 714,
      "wadua": 715,
      "asing": 716,
      ".’": 717,
      "atan": 718,
      "kapi": 719,
      "jero": 720,
      "Yehuda": 721,
      "ding": 722,
      "mawali": 723,
      "Di": 724,
      "wangun": 725,
      "masabda": 726,
      "kene": 727,
      "gunung": 728,
      "parekan": 729,
      "annyane": 730,
      "sab": 731,
      "mak": 732,
      "asi": 733,
      "tete": 734,
      "pandita": 735,
      "sawatek": 736,
      "ist": 737,
      "mapaica": 738,
      "mpe": 739,
      "ngambil": 740,
      "gihin": 741,
      "ngajak": 742,
      "tong": 743,
      "Bu": 744,
      "luiring": 745,
      "ngra": 746,
      "kase": 747,
      "Mesir": 748,
      "go": 749,
      "kat": 750,
      "sua": 751,
      "Panembahan": 752,
      "pamimpin": 753,
      "karya": 754,
      "ageng": 755,
      "barang": 756,
      "kardi": 757,
      "angan": 758,
      "aturane": 759,
      "laut": 760,
      "medal": 761,
      "yadi": 762,
      "diri": 763,
      "lihan": 764,
      "rahin": 765,
      "uku": 766,
      "parasemeton": 767,
      "madue": 768,
      "lur": 769,
      "pany": 770,
      "den": 771,
      "praju": 772,
      "tegal": 773,
      "kala": 774,
      "kil": 775,
      "pune": 776,
      "tanahe": 777,
      "dosan": 778,
      "becik": 779,
      "hin": 780,
      "las": 781,
      "pasi": 782,
      "lelu": 783,
      "putran": 784,
      "mbo": 785,
      "pon": 786,
      "Kita": 787,
      "kalintang": 788,
      "istri": 789,
      "ngardi": 790,
      "marg": 791,
      "dung": 792,
      "yat": 793,
      "maling": 794,
      "ug": 795,
      "tanin": 796,
      "tine": 797,
      "nunas": 798,
      "suja": 799,
      "boya": 800,
      "umah": 801,
      "Eli": 802,
      "kate": 803,
      "sabdan": 804,
      "saluiring": 805,
      "enin": 806,
      "kanggen": 807,
      "enang": 808,
      "sesa": 809,
      "Sau": 810,
      "dewa": 811,
      "co": 812,
      "nyak": 813,
      "masu": 814,
      "dek": 815,
      "ngutus": 816,
      "morboran": 817,
      "duur": 818,
      "nawang": 819,
      "sta": 820,
      "teka": 821,
      "sig": 822,
      "iba": 823,
      "rat": 824,
      "onang": 825,
      "tansah": 826,
      "pangan": 827,
      "kasa": 828,
      "ingak": 829,
      "bel": 830,
      "Sawireh": 831,
      "pidabdab": 832,
      "dayang": 833,
      "ana": 834,
      "bug": 835,
      "kaku": 836,
      "pamorboran": 837,
      "gelah": 838,
      "prasida": 839,
      "Yu": 840,
      "Yak": 841,
      "sehan": 842,
      "leluur": 843,
      "Ing": 844,
      "dih": 845,
      "Ane": 846,
      "pake": 847,
      "jagat": 848,
      "Agunge": 849,
      "makudang": 850,
      "caksan": 851,
      "maja": 852,
      "tongos": 853,
      "lus": 854,
      "sai": 855,
      "meton": 856,
      "masan": 857,
      "ab": 858,
      "mireng": 859,
      "Semeton": 860,
      "Inggih": 861,
      "gara": 862,
      "manut": 863,
      "tusan": 864,
      "makarya": 865,
      "lawar": 866,
      "are": 867,
      "Sampun": 868,
      "juk": 869,
      "ting": 870,
      "miragi": 871,
      "Ben": 872,
      "rus": 873,
      "ngwangun": 874,
      "wanten": 875,
      "paindikane": 876,
      "anggur": 877,
      "Kadi": 878,
      "suen": 879,
      "Lu": 880,
      "pine": 881,
      "um": 882,
      "sala": 883,
      "rih": 884,
      "inja": 885,
      "paundu": 886,
      "nayang": 887,
      "Be": 888,
      "yak": 889,
      "ngo": 890,
      "balan": 891,
      "sire": 892,
      "ren": 893,
      "lenan": 894,
      "rine": 895,
      "ber": 896,
      "titah": 897,
      "dun": 898,
      "us": 899,
      "usan": 900,
      "kulawar": 901,
      "polih": 902,
      "ratu": 903,
      "samaliha": 904,
      "suecan": 905,
      "enu": 906,
      "taken": 907,
      "asan": 908,
      "akepan": 909,
      "nang": 910,
      "tege": 911,
      "idu": 912,
      "tres": 913,
      "yane": 914,
      "nampi": 915,
      "malae": 916,
      "Tukad": 917,
      "asiki": 918,
      "bina": 919,
      "kali": 920,
      "lik": 921,
      "sayang": 922,
      "pangandikan": 923,
      "Saul": 924,
      "Pang": 925,
      "unas": 926,
      "naenin": 927,
      "Ge": 928,
      "ajin": 929,
      "matiang": 930,
      "jing": 931,
      "melah": 932,
      "Gi": 933,
      "tigang": 934,
      "tata": 935,
      "abe": 936,
      "ngre": 937,
      "Eda": 938,
      "laksana": 939,
      "unduk": 940,
      "idup": 941,
      "Raris": 942,
      "eda": 943,
      "ria": 944,
      "suh": 945,
      "ngelah": 946,
      "ngrauh": 947,
      "ngiring": 948,
      "mpah": 949,
      "kewanten": 950,
      "magenah": 951,
      "punapi": 952,
      "tinut": 953,
      "sampunang": 954,
      "suenipun": 955,
      "He": 956,
      "ngeniang": 957,
      "ngung": 958,
      "tiosan": 959,
      "weg": 960,
      "riki": 961,
      "batu": 962,
      "ngranjing": 963,
      "mupon": 964,
      "ngantos": 965,
      "Punapike": 966,
      "duk": 967,
      "pasira": 968,
      "bran": 969,
      "seda": 970,
      "pinih": 971,
      "Har": 972,
      "rbe": 973,
      "manusa": 974,
      "lunga": 975,
      "sisian": 976,
      "kit": 977,
      "arca": 978,
      "jerone": 979,
      "or": 980,
      "stawa": 981,
      "sarwi": 982,
      "Te": 983,
      "liang": 984,
      "durung": 985,
      "arepan": 986,
      "janjian": 987,
      "ngk": 988,
      "palungguh": 989,
      "tembo": 990,
      "ngamargiang": 991,
      "pinunas": 992,
      "Roh": 993,
      "ange": 994,
      "dia": 995,
      "log": 996,
      "Nabi": 997,
      "pateh": 998,
      "melak": 999,
      "mangge": 1000,
      "tangkil": 1001,
      "tengah": 1002,
      "usane": 1003,
      "Tur": 1004,
      "ajak": 1005,
      "krana": 1006,
      "mapi": 1007,
      "putang": 1008,
      "tali": 1009,
      "laning": 1010,
      "prab": 1011,
      "adiri": 1012,
      "ngastawa": 1013,
      "Mesire": 1014,
      "madak": 1015,
      "Yakub": 1016,
      "sia": 1017,
      "oka": 1018,
      "widang": 1019,
      "ongos": 1020,
      "rakyat": 1021,
      "pasuecan": 1022,
      "lungan": 1023,
      "dursi": 1024,
      "ngranayang": 1025,
      "mayu": 1026,
      "sur": 1027,
      "pese": 1028,
      "luya": 1029,
      "Yehudane": 1030,
      "druen": 1031,
      "kasu": 1032,
      "awinanipun": 1033,
      "Bang": 1034,
      "nandang": 1035,
      "alit": 1036,
      "ngungsi": 1037,
      "Harun": 1038,
      "Pasa": 1039,
      "ning": 1040,
      "ratune": 1041,
      "waluya": 1042,
      "mademang": 1043,
      "lar": 1044,
      "palingsehan": 1045,
      "upa": 1046,
      "pura": 1047,
      "baka": 1048,
      "ngandikayang": 1049,
      "rahayuang": 1050,
      "Ne": 1051,
      "To": 1052,
      "sinah": 1053,
      "kayunan": 1054,
      "wewidang": 1055,
      "prajurit": 1056,
      "wau": 1057,
      "dum": 1058,
      "iring": 1059,
      "sina": 1060,
      "wine": 1061,
      "mataken": 1062,
      "keneh": 1063,
      "utang": 1064,
      "angin": 1065,
      "makadados": 1066,
      "bagi": 1067,
      "pangang": 1068,
      "Samaliha": 1069,
      "parab": 1070,
      "paundukan": 1071,
      "mbe": 1072,
      "ras": 1073,
      "malaksana": 1074,
      "tih": 1075,
      "ngade": 1076,
      "cara": 1077,
      "wewe": 1078,
      "In": 1079,
      "ngraga": 1080,
      "ingon": 1081,
      "saja": 1082,
      "maicayang": 1083,
      "nongos": 1084,
      "ratun": 1085,
      "manusane": 1086,
      "De": 1087,
      "kele": 1088,
      "ajerih": 1089,
      "pasamu": 1090,
      "bane": 1091,
      "satinut": 1092,
      "gayang": 1093,
      "inahang": 1094,
      "basang": 1095,
      "nyinahang": 1096,
      "mpal": 1097,
      "Ku": 1098,
      "panditane": 1099,
      "makta": 1100,
      "Ko": 1101,
      "ulihan": 1102,
      "tiga": 1103,
      "Salo": 1104,
      "Ha": 1105,
      "sup": 1106,
      "Luur": 1107,
      "manggehang": 1108,
      "Tan": 1109,
      "ram": 1110,
      "pineh": 1111,
      "Salomo": 1112,
      "jagi": 1113,
      "gumi": 1114,
      "ks": 1115,
      "daging": 1116,
      "udine": 1117,
      "Yahudine": 1118,
      "dursila": 1119,
      "tuara": 1120,
      "kia": 1121,
      "setata": 1122,
      "ngamademang": 1123,
      "katurang": 1124,
      "putra": 1125,
      "jadma": 1126,
      "Pilis": 1127,
      "wewidangan": 1128,
      "toya": 1129,
      "maraga": 1130,
      "kidung": 1131,
      "ngebug": 1132,
      "Cakepan": 1133,
      "tia": 1134,
      "masaur": 1135,
      "Yusup": 1136,
      "kulawargan": 1137,
      "ungsung": 1138,
      "Yerusaleme": 1139,
      "Sakan": 1140,
      "bah": 1141,
      "nglintang": 1142,
      "kre": 1143,
      "duka": 1144,
      "musuh": 1145,
      "druene": 1146,
      "run": 1147,
      "sesan": 1148,
      "Kemah": 1149,
      "utusan": 1150,
      "duaning": 1151,
      "luk": 1152,
      "utin": 1153,
      "genahe": 1154,
      "yadias": 1155,
      "Put": 1156,
      "grain": 1157,
      "leteh": 1158,
      "mangdane": 1159,
      "bakal": 1160,
      "Ah": 1161,
      "kekalih": 1162,
      "osang": 1163,
      "Saking": 1164,
      "sujati": 1165,
      "nin": 1166,
      "mate": 1167,
      "Duk": 1168,
      "gem": 1169,
      "panyu": 1170,
      "manggihin": 1171,
      "ngrahayuang": 1172,
      "kata": 1173,
      "sayan": 1174,
      "hane": 1175,
      "lungin": 1176,
      "rahinane": 1177,
      "ukud": 1178,
      "lon": 1179,
      "napi": 1180,
      "pitung": 1181,
      "Pasaur": 1182,
      "cu": 1183,
      "sangsa": 1184,
      "ibane": 1185,
      "En": 1186,
      "dik": 1187,
      "galang": 1188,
      "sato": 1189,
      "tara": 1190,
      "meter": 1191,
      "nyungsung": 1192,
      "malinggih": 1193,
      "im": 1194,
      "luihang": 1195,
      "jah": 1196,
      "seme": 1197,
      "Abrah": 1198,
      "ngae": 1199,
      "malaib": 1200,
      "madaging": 1201,
      "subane": 1202,
      "ket": 1203,
      "ngaonang": 1204,
      "yar": 1205,
      "prajanjian": 1206,
      "Sakancan": 1207,
      "Pau": 1208,
      "ajap": 1209,
      "corah": 1210,
      "Pida": 1211,
      "bine": 1212,
      "wane": 1213,
      "suar": 1214,
      "luihan": 1215,
      "Abraham": 1216,
      "bareng": 1217,
      "istayang": 1218,
      "eng": 1219,
      "Paulus": 1220,
      "rikalaning": 1221,
      "punduh": 1222,
      "Malantaran": 1223,
      "tunggi": 1224,
      "diang": 1225,
      "langi": 1226,
      "punapike": 1227,
      "perak": 1228,
      "pam": 1229,
      "satia": 1230,
      "pas": 1231,
      "kawisesan": 1232,
      "Ri": 1233,
      "ala": 1234,
      "sipang": 1235,
      "les": 1236,
      "akehipun": 1237,
      "margin": 1238,
      "pesengan": 1239,
      "guru": 1240,
      "udi": 1241,
      "kamb": 1242,
      "birine": 1243,
      "malaekat": 1244,
      "Aji": 1245,
      "pame": 1246,
      "taen": 1247,
      "beli": 1248,
      "mertanin": 1249,
      "kah": 1250,
      "mula": 1251,
      "bakta": 1252,
      "meneng": 1253,
      "ungan": 1254,
      "Yahudi": 1255,
      "Kuasa": 1256,
      "Man": 1257,
      "cine": 1258,
      "ngamatiang": 1259,
      "muponin": 1260,
      "Buina": 1261,
      "nah": 1262,
      "tiwas": 1263,
      "nampe": 1264,
      "langgeng": 1265,
      "nulungin": 1266,
      "nyisipang": 1267,
      "jle": 1268,
      "tuah": 1269,
      "agung": 1270,
      "dar": 1271,
      "maosang": 1272,
      "turin": 1273,
      "ngluputang": 1274,
      "Pandi": 1275,
      "ula": 1276,
      "kalu": 1277,
      "desa": 1278,
      "caksana": 1279,
      "mai": 1280,
      "borbo": 1281,
      "apang": 1282,
      "pakayunan": 1283,
      "lamin": 1284,
      "borbor": 1285,
      "Wong": 1286,
      "nyan": 1287,
      "salami": 1288,
      "kapraca": 1289,
      "melakange": 1290,
      "Pandita": 1291,
      "yeh": 1292,
      "aksi": 1293,
      "buh": 1294,
      "roti": 1295,
      "Yosua": 1296,
      "kade": 1297,
      "kemah": 1298,
      "nyama": 1299,
      "Dumadak": 1300,
      "kambing": 1301,
      "Mo": 1302,
      "gah": 1303,
      "ngli": 1304,
      "tega": 1305,
      "bate": 1306,
      "gandum": 1307,
      "banteng": 1308,
      "anggon": 1309,
      "lurin": 1310,
      "nampek": 1311,
      "ngamanggehang": 1312,
      "Yor": 1313,
      "maderbe": 1314,
      "sunan": 1315,
      "unduke": 1316,
      "rin": 1317,
      "rnayang": 1318,
      "pati": 1319,
      "kapracayan": 1320,
      "Abi": 1321,
      "Wenten": 1322,
      "ragan": 1323,
      "kum": 1324,
      "cap": 1325,
      "wehan": 1326,
      "kapaicayang": 1327,
      "sapa": 1328,
      "payu": 1329,
      "tipun": 1330,
      "titi": 1331,
      "tar": 1332,
      "jaat": 1333,
      "pepineh": 1334,
      "wengi": 1335,
      "sasampun": 1336,
      "muji": 1337,
      "gelis": 1338,
      "rumasa": 1339,
      "pung": 1340,
      "ngwa": 1341,
      "keni": 1342,
      "Pet": 1343,
      "rainan": 1344,
      "Sampunangja": 1345,
      "das": 1346,
      "tawan": 1347,
      "bek": 1348,
      "panjak": 1349,
      "tembok": 1350,
      "Yordane": 1351,
      "Petrus": 1352,
      "lek": 1353,
      "Sucine": 1354,
      "pakaryan": 1355,
      "Edaja": 1356,
      "mud": 1357,
      "kor": 1358,
      "Daweg": 1359,
      "nyerahang": 1360,
      "nyirnayang": 1361,
      "Pilistine": 1362,
      "aga": 1363,
      "gede": 1364,
      "matu": 1365,
      "mase": 1366,
      "malakar": 1367,
      "doh": 1368,
      "bot": 1369,
      "gelahe": 1370,
      "Pidabdab": 1371,
      "Lewine": 1372,
      "mali": 1373,
      "timpal": 1374,
      "seng": 1375,
      "patuh": 1376,
      "tunggal": 1377,
      "ngkon": 1378,
      "Yadi": 1379,
      "sen": 1380,
      "ngluihang": 1381,
      "kasi": 1382,
      "akti": 1383,
      "liu": 1384,
      "dukan": 1385,
      "antuka": 1386,
      "wewengkon": 1387,
      "iwang": 1388,
      "nglan": 1389,
      "kakardi": 1390,
      "buina": 1391,
      "bapa": 1392,
      "uningayang": 1393,
      "Apa": 1394,
      "eling": 1395,
      "garane": 1396,
      "Gun": 1397,
      "kem": 1398,
      "kotan": 1399,
      "kanten": 1400,
      "nem": 1401,
      "nglugrain": 1402,
      "boyaja": 1403,
      "pangandika": 1404,
      "Jad": 1405,
      "ile": 1406,
      "iriki": 1407,
      "riin": 1408,
      "tangan": 1409,
      "duhang": 1410,
      "benin": 1411,
      "janjiang": 1412,
      "margine": 1413,
      "wak": 1414,
      "kab": 1415,
      "mapesengan": 1416,
      "sedek": 1417,
      "tengen": 1418,
      "Rah": 1419,
      "bab": 1420,
      "rengin": 1421,
      "roh": 1422,
      "ajaka": 1423,
      "Re": 1424,
      "dike": 1425,
      "sisin": 1426,
      "gumin": 1427,
      "wastanin": 1428,
      "ngun": 1429,
      "ngutang": 1430,
      "bapan": 1431,
      "molih": 1432,
      "nuntun": 1433,
      "jinah": 1434,
      "ninutin": 1435,
      "langite": 1436,
      "prentah": 1437,
      "kas": 1438,
      "madosa": 1439,
      "Epra": 1440,
      "one": 1441,
      "ngwe": 1442,
      "kake": 1443,
      "urune": 1444,
      "longan": 1445,
      "Nyen": 1446,
      "mon": 1447,
      "gapur": 1448,
      "cana": 1449,
      "La": 1450,
      "ananing": 1451,
      "ngawit": 1452,
      "del": 1453,
      "marasa": 1454,
      "tresna": 1455,
      "panak": 1456,
      "pamargin": 1457,
      "bung": 1458,
      "kimud": 1459,
      "wicaksana": 1460,
      "dini": 1461,
      "astiti": 1462,
      "langk": 1463,
      "sor": 1464,
      "Indike": 1465,
      "Gunung": 1466,
      "kaluihan": 1467,
      "tat": 1468,
      "bilang": 1469,
      "Napi": 1470,
      "jap": 1471,
      "kurenan": 1472,
      "Or": 1473,
      "kati": 1474,
      "ngamertanin": 1475,
      "parasisian": 1476,
      "Pangandikan": 1477,
      "pasamuane": 1478,
      "sasih": 1479,
      "pamrentah": 1480,
      "wikan": 1481,
      "bele": 1482,
      "prakanggen": 1483,
      "jeg": 1484,
      "Tusing": 1485,
      "petang": 1486,
      "ger": 1487,
      "Apake": 1488,
      "al": 1489,
      "alin": 1490,
      "nur": 1491,
      "jumeneng": 1492,
      "nibenin": 1493,
      "mina": 1494,
      "Lewi": 1495,
      "rate": 1496,
      "mata": 1497,
      "kel": 1498,
      "eluh": 1499,
      "ngrauhang": 1500,
      "pamantuka": 1501,
      "tatkala": 1502,
      "len": 1503,
      "kadu": 1504,
      "pauru": 1505,
      "per": 1506,
      "pukin": 1507,
      "Ditu": 1508,
      "Ento": 1509,
      "Jadmane": 1510,
      "kabe": 1511,
      "mapunduh": 1512,
      "nyingak": 1513,
      "nganistayang": 1514,
      "Babele": 1515,
      "mpuh": 1516,
      "Pu": 1517,
      "nyeneng": 1518,
      "sipun": 1519,
      "somah": 1520,
      "Putran": 1521,
      "laminipun": 1522,
      "iki": 1523,
      "dangin": 1524,
      "yadian": 1525,
      "gak": 1526,
      "pecak": 1527,
      "dogen": 1528,
      "Peti": 1529,
      "nilar": 1530,
      "awinannya": 1531,
      "gununge": 1532,
      ".)": 1533,
      "Iraga": 1534,
      "uug": 1535,
      "kalaksanayang": 1536,
      "maan": 1537,
      "pasin": 1538,
      "red": 1539,
      "sik": 1540,
      "widi": 1541,
      "lingsir": 1542,
      "laksanan": 1543,
      "Nah": 1544,
      "pak": 1545,
      "lima": 1546,
      "pedang": 1547,
      "parapamimpin": 1548,
      "nyarengin": 1549,
      "kabakta": 1550,
      "sut": 1551,
      "yubin": 1552,
      "tinne": 1553,
      "bron": 1554,
      "wusan": 1555,
      "kaka": 1556,
      "maborbor": 1557,
      "Yohane": 1558,
      "pakarsan": 1559,
      "Atur": 1560,
      "Ragane": 1561,
      "prabon": 1562,
      "mbang": 1563,
      "lajah": 1564,
      "sugih": 1565,
      "Babel": 1566,
      "nginum": 1567,
      "paurukan": 1568,
      "Yohanes": 1569,
      "Gurune": 1570,
      "mamanah": 1571,
      "parana": 1572,
      "demen": 1573,
      "Sasubane": 1574,
      "Ga": 1575,
      "jur": 1576,
      "mung": 1577,
      "sabda": 1578,
      "deda": 1579,
      "panggihin": 1580,
      "amun": 1581,
      "ngrereh": 1582,
      "mre": 1583,
      "nguningayang": 1584,
      "kame": 1585,
      "saku": 1586,
      "mage": 1587,
      "ngeton": 1588,
      "bakang": 1589,
      "panegara": 1590,
      "keleda": 1591,
      "Mi": 1592,
      "juru": 1593,
      "woh": 1594,
      "tuh": 1595,
      "rite": 1596,
      "Puniki": 1597,
      "00": 1598,
      "sukan": 1599,
      "keng": 1600,
      "tinipun": 1601,
      "ngicen": 1602,
      "Bet": 1603,
      "Cening": 1604,
      "dah": 1605,
      "tukang": 1606,
      "tungang": 1607,
      "pangawit": 1608,
      "sakuub": 1609,
      "aran": 1610,
      "anga": 1611,
      "sapasira": 1612,
      "beba": 1613,
      "Sapasira": 1614,
      "tangi": 1615,
      "Benya": 1616,
      "mayuda": 1617,
      "rabin": 1618,
      "jerit": 1619,
      "roras": 1620,
      "genahang": 1621,
      "niri": 1622,
      "mpura": 1623,
      "des": 1624,
      "kuda": 1625,
      "getih": 1626,
      "munggah": 1627,
      "bagian": 1628,
      "Amo": 1629,
      "ati": 1630,
      "don": 1631,
      "taru": 1632,
      "wewa": 1633,
      "Kana": 1634,
      "pen": 1635,
      "kasareng": 1636,
      "kaprabon": 1637,
      "saananing": 1638,
      "kiwa": 1639,
      "mebasang": 1640,
      "perang": 1641,
      "peteng": 1642,
      "urukang": 1643,
      "Asa": 1644,
      "cingak": 1645,
      "ehang": 1646,
      "ugang": 1647,
      "kaja": 1648,
      "mare": 1649,
      "mabakti": 1650,
      "ked": 1651,
      "ngawi": 1652,
      "tegeh": 1653,
      "Ta": 1654,
      "ngaksi": 1655,
      "punyan": 1656,
      "paicayang": 1657,
      "urung": 1658,
      "duman": 1659,
      "dina": 1660,
      "bernur": 1661,
      "Orti": 1662,
      "salah": 1663,
      "ratang": 1664,
      "nyen": 1665,
      "rered": 1666,
      "nabi": 1667,
      "Edo": 1668,
      "lod": 1669,
      "kakuatan": 1670,
      "kasarengin": 1671,
      "katu": 1672,
      "mit": 1673,
      "bar": 1674,
      "kolih": 1675,
      "nyedayang": 1676,
      "ngrauhin": 1677,
      "ose": 1678,
      "anggu": 1679,
      "mapinunas": 1680,
      "tenge": 1681,
      "janjiane": 1682,
      "nginan": 1683,
      "munduhang": 1684,
      "panyeneng": 1685,
      "Elisa": 1686,
      "Wusan": 1687,
      "cane": 1688,
      "tes": 1689,
      "ser": 1690,
      "pidukan": 1691,
      "benteng": 1692,
      "anyar": 1693,
      "ngine": 1694,
      "kayang": 1695,
      "sakit": 1696,
      "mulih": 1697,
      "luput": 1698,
      "carang": 1699,
      "bangsan": 1700,
      "dartayang": 1701,
      "Asing": 1702,
      "kamen": 1703,
      "pitulungan": 1704,
      "kaula": 1705,
      "kakuasan": 1706,
      "majalan": 1707,
      "Bo": 1708,
      "gra": 1709,
      "dadua": 1710,
      "lawas": 1711,
      "leb": 1712,
      "makadadi": 1713,
      "budal": 1714,
      "kite": 1715,
      "belog": 1716,
      "rengangja": 1717,
      "wasta": 1718,
      "ngorahang": 1719,
      "idewa": 1720,
      "saling": 1721,
      "turi": 1722,
      "beh": 1723,
      "tusingja": 1724,
      "kreta": 1725,
      "lam": 1726,
      "suud": 1727,
      "muel": 1728,
      "pangas": 1729,
      "Sajeroning": 1730,
      "pararatune": 1731,
      "dingehang": 1732,
      "ksma": 1733,
      "sunantara": 1734,
      "ngling": 1735,
      "malu": 1736,
      "kitan": 1737,
      "parapanditane": 1738,
      "wentenang": 1739,
      "nyaman": 1740,
      "Tiange": 1741,
      "nganggen": 1742,
      "pademang": 1743,
      "mbas": 1744,
      "bintang": 1745,
      "prajurite": 1746,
      "ngadeg": 1747,
      "wenang": 1748,
      "anipune": 1749,
      "tukade": 1750,
      "maga": 1751,
      "pesu": 1752,
      "jija": 1753,
      "ngawitin": 1754,
      "Linggih": 1755,
      "tas": 1756,
      "bus": 1757,
      "meng": 1758,
      "jel": 1759,
      "hak": 1760,
      "kawastanin": 1761,
      "padi": 1762,
      "pasisi": 1763,
      "batune": 1764,
      "nepukin": 1765,
      "parakaulan": 1766,
      "enek": 1767,
      "patpat": 1768,
      "masumpah": 1769,
      "anggure": 1770,
      "kaon": 1771,
      "maran": 1772,
      "digelis": 1773,
      "pangiring": 1774,
      "ngukum": 1775,
      "luih": 1776,
      "mbung": 1777,
      "sesamba": 1778,
      "Rak": 1779,
      "uang": 1780,
      "busan": 1781,
      "bukite": 1782,
      "Sawatek": 1783,
      "mpas": 1784,
      "panema": 1785,
      "warsa": 1786,
      "becikan": 1787,
      "dingang": 1788,
      "tresnan": 1789,
      "Kota": 1790,
      "kasidan": 1791,
      "So": 1792,
      "liman": 1793,
      "bukit": 1794,
      "sep": 1795,
      "wat": 1796,
      "duga": 1797,
      "ngede": 1798,
      "iratune": 1799,
      "kamenangan": 1800,
      "sesambatan": 1801,
      "Gu": 1802,
      "ahe": 1803,
      "ngalih": 1804,
      "jeje": 1805,
      "kadulurin": 1806,
      "trun": 1807,
      "saya": 1808,
      "maba": 1809,
      "mawasta": 1810,
      "rio": 1811,
      "riane": 1812,
      "midartayang": 1813,
      "dekan": 1814,
      "adil": 1815,
      "mpurayang": 1816,
      "bun": 1817,
      "sawit": 1818,
      "rare": 1819,
      "aturang": 1820,
      "mrentahang": 1821,
      "dingeh": 1822,
      "padidi": 1823,
      "Raha": 1824,
      "toyane": 1825,
      "Samuel": 1826,
      "bian": 1827,
      "nyayubin": 1828,
      "Bangsa": 1829,
      "suargan": 1830,
      "gon": 1831,
      "buk": 1832,
      "wiakti": 1833,
      "Wa": 1834,
      "ek": 1835,
      "buah": 1836,
      "rengan": 1837,
      "sampunangja": 1838,
      "geting": 1839,
      "it": 1840,
      "mping": 1841,
      "pamu": 1842,
      "page": 1843,
      "segarane": 1844,
      "Sama": 1845,
      "naar": 1846,
      "caran": 1847,
      "puput": 1848,
      "nyumbah": 1849,
      "salawas": 1850,
      "kalugra": 1851,
      "Yon": 1852,
      "aka": 1853,
      "alan": 1854,
      "ero": 1855,
      "dalang": 1856,
      "masane": 1857,
      "aku": 1858,
      "galing": 1859,
      "repti": 1860,
      "sirnayang": 1861,
      "tunggaling": 1862,
      "anggo": 1863,
      "pangastawan": 1864,
      "kapangandika": 1865,
      "Sapang": 1866,
      "nata": 1867,
      "singasan": 1868,
      "tonden": 1869,
      "iban": 1870,
      "kapang": 1871,
      "kicen": 1872,
      "kena": 1873,
      "payudan": 1874,
      "kamewehan": 1875,
      "kape": 1876,
      "raja": 1877,
      "ngaturin": 1878,
      "ngejuk": 1879,
      "arta": 1880,
      "bandingang": 1881,
      "kawe": 1882,
      "sengin": 1883,
      "yadiastun": 1884,
      "nglanturang": 1885,
      "dakang": 1886,
      "maputra": 1887,
      "linggih": 1888,
      "pangageng": 1889,
      "Suci": 1890,
      "akit": 1891,
      "tetegen": 1892,
      "golongan": 1893,
      "yadiastu": 1894,
      "Mana": 1895,
      "ngwentenang": 1896,
      "sadurung": 1897,
      "dauh": 1898,
      "maju": 1899,
      "madingehang": 1900,
      "paman": 1901,
      "kema": 1902,
      "dinane": 1903,
      "Ishak": 1904,
      "Yoab": 1905,
      "takut": 1906,
      "kawicaksan": 1907,
      "saitun": 1908,
      "teges": 1909,
      "Manase": 1910,
      "ngle": 1911,
      "nepasin": 1912,
      "makaon": 1913,
      "bencana": 1914,
      "guna": 1915,
      "Torate": 1916,
      "gapuran": 1917,
      "sabilang": 1918,
      "sela": 1919,
      "yunan": 1920,
      "madeg": 1921,
      "panyuksma": 1922,
      "tunggiling": 1923,
      "sasampune": 1924,
      "ena": 1925,
      "set": 1926,
      "panjang": 1927,
      "jiang": 1928,
      "jujur": 1929,
      "Yadias": 1930,
      "anggen": 1931,
      "pase": 1932,
      "tik": 1933,
      "dewane": 1934,
      "bdabe": 1935,
      "nibakang": 1936,
      "pianakne": 1937,
      "jejeh": 1938,
      "orahang": 1939,
      "kagenahang": 1940,
      "samping": 1941,
      "lom": 1942,
      "mbasang": 1943,
      "gunungan": 1944,
      "kuh": 1945,
      "wuh": 1946,
      "maki": 1947,
      "makidung": 1948,
      "nyabran": 1949,
      "lahang": 1950,
      "Anak": 1951,
      "majujuk": 1952,
      "Ada": 1953,
      "dne": 1954,
      "anu": 1955,
      "ngadakang": 1956,
      "kub": 1957,
      "kutus": 1958,
      "pitutur": 1959,
      "minyak": 1960,
      "muny": 1961,
      "jeroan": 1962,
      "miragiang": 1963,
      "tegale": 1964,
      "sutrepti": 1965,
      "Dika": 1966,
      "kawa": 1967,
      "kairing": 1968,
      "dem": 1969,
      "Sapuniki": 1970,
      "nganten": 1971,
      "tetep": 1972,
      "satone": 1973,
      "Rahayun": 1974,
      "dong": 1975,
      "raos": 1976,
      "daweg": 1977,
      "yagang": 1978,
      "ngeling": 1979,
      "gin": 1980,
      "katun": 1981,
      "rian": 1982,
      "tetiga": 1983,
      "lit": 1984,
      "jengang": 1985,
      "geni": 1986,
      "pus": 1987,
      "Ratun": 1988,
      "Elia": 1989,
      "bagia": 1990,
      "nglintangin": 1991,
      "ngurukang": 1992,
      "sat": 1993,
      "mawi": 1994,
      "entosin": 1995,
      "bih": 1996,
      "ngetang": 1997,
      "janjin": 1998,
      "kasugih": 1999,
      "Pujija": 2000,
      "kapademang": 2001,
      "tuu": 2002,
      "ngiangin": 2003,
      "malaekate": 2004,
      "panemayan": 2005,
      "Ajin": 2006,
      "Bi": 2007,
      "His": 2008,
      "asang": 2009,
      "ngane": 2010,
      "kara": 2011,
      "karahayu": 2012,
      "mamu": 2013,
      "misi": 2014,
      "leh": 2015,
      "ngayah": 2016,
      "gerang": 2017,
      "nyalanang": 2018,
      "makakalih": 2019,
      "kapangandikayang": 2020,
      "Amba": 2021,
      "matangi": 2022,
      "led": 2023,
      "Prajanjiane": 2024,
      "suaran": 2025,
      "masuka": 2026,
      "Ambate": 2027,
      "ulung": 2028,
      "pis": 2029,
      "pikolih": 2030,
      "ngaba": 2031,
      "pepitu": 2032,
      "cai": 2033,
      "duhkitan": 2034,
      "sueca": 2035,
      "kapitresnan": 2036,
      "perlu": 2037,
      "Ar": 2038,
      "icang": 2039,
      "maang": 2040,
      "jaba": 2041,
      "kuat": 2042,
      "nguugang": 2043,
      "mpur": 2044,
      "Gile": 2045,
      "gemuh": 2046,
      "dingehangja": 2047,
      "Ya": 2048,
      "son": 2049,
      "satunggaling": 2050,
      "gat": 2051,
      "kedi": 2052,
      "parapandita": 2053,
      "yuban": 2054,
      "cemer": 2055,
      "kantenang": 2056,
      "turipun": 2057,
      "maranin": 2058,
      "sawitran": 2059,
      "Yonatan": 2060,
      "Hiskia": 2061,
      "Nenten": 2062,
      "masi": 2063,
      "Pada": 2064,
      "parabangsane": 2065,
      "paraputran": 2066,
      "tanggun": 2067,
      "pakardin": 2068,
      "nangkil": 2069,
      "matemu": 2070,
      "sangsara": 2071,
      "jenek": 2072,
      "ob": 2073,
      "teg": 2074,
      "tedun": 2075,
      "mani": 2076,
      "puri": 2077,
      "ciri": 2078,
      "mbak": 2079,
      "sirna": 2080,
      "ngraos": 2081,
      "mayusa": 2082,
      "As": 2083,
      "Akab": 2084,
      "aukud": 2085,
      "kadin": 2086,
      "jalan": 2087,
      "tosang": 2088,
      "kipune": 2089,
      "mur": 2090,
      "petan": 2091,
      "wining": 2092,
      "baosang": 2093,
      "rencan": 2094,
      "temboke": 2095,
      "ningalin": 2096,
      "jlemane": 2097,
      "Nga": 2098,
      "ok": 2099,
      "kaduhkitan": 2100,
      "tawah": 2101,
      "buta": 2102,
      "seli": 2103,
      "duke": 2104,
      "lanturipun": 2105,
      "kul": 2106,
      "manggayang": 2107,
      "pakemah": 2108,
      "Benjang": 2109,
      "pangangge": 2110,
      "truna": 2111,
      "juh": 2112,
      "satunggiling": 2113,
      "pai": 2114,
      "urin": 2115,
      "banggayang": 2116,
      "nentenja": 2117,
      "Suja": 2118,
      "kaliangan": 2119,
      "semengan": 2120,
      "langkungan": 2121,
      "dene": 2122,
      "tro": 2123,
      "tulang": 2124,
      "lekad": 2125,
      "keb": 2126,
      "negen": 2127,
      "dep": 2128,
      "saksi": 2129,
      "ngeto": 2130,
      "ngrampas": 2131,
      "dosannyane": 2132,
      "Ritatkala": 2133,
      "rta": 2134,
      "kain": 2135,
      "masesambatan": 2136,
      "terang": 2137,
      "sud": 2138,
      "ngagem": 2139,
      "lantas": 2140,
      "rarisang": 2141,
      "ceri": 2142,
      "tetepa": 2143,
      "ngadegang": 2144,
      "jlema": 2145,
      "paksi": 2146,
      "paranabine": 2147,
      "Asu": 2148,
      "Mika": 2149,
      "kasirnayang": 2150,
      "tusane": 2151,
      "dadosang": 2152,
      "akim": 2153,
      "upacara": 2154,
      "Moab": 2155,
      "ugi": 2156,
      "dija": 2157,
      "kesah": 2158,
      "gul": 2159,
      "makelon": 2160,
      "Malih": 2161,
      "akidik": 2162,
      "mirengang": 2163,
      "sangsaran": 2164,
      "sapatitah": 2165,
      "mungkem": 2166,
      "trompe": 2167,
      "asih": 2168,
      "kada": 2169,
      "kapu": 2170,
      "sawa": 2171,
      "mace": 2172,
      "asar": 2173,
      "ngame": 2174,
      "nuturang": 2175,
      "nyele": 2176,
      "luran": 2177,
      "Benyamin": 2178,
      "mrika": 2179,
      "ngentosin": 2180,
      "makeneh": 2181,
      "pajaga": 2182,
      "siki": 2183,
      "pirengangja": 2184,
      "prakang": 2185,
      "bangun": 2186,
      "dikalane": 2187,
      "gus": 2188,
      "Sime": 2189,
      "kapale": 2190,
      "Kanaan": 2191,
      "Asure": 2192,
      "pre": 2193,
      "yuh": 2194,
      "male": 2195,
      "pangu": 2196,
      "bukadne": 2197,
      "Lebak": 2198,
      "purun": 2199,
      "ngiringang": 2200,
      "Nebukadne": 2201,
      "Rerainan": 2202,
      "makelonne": 2203,
      "nung": 2204,
      "sara": 2205,
      "majanji": 2206,
      "bajang": 2207,
      "lep": 2208,
      "dewan": 2209,
      "perhyang": 2210,
      "ngesengin": 2211,
      "masrana": 2212,
      "agama": 2213,
      "kapanggih": 2214,
      "Reh": 2215,
      "ayah": 2216,
      "bene": 2217,
      "surat": 2218,
      "balu": 2219,
      "siteng": 2220,
      "prabot": 2221,
      "kangin": 2222,
      "katawah": 2223,
      "minakadin": 2224,
      "lawasne": 2225,
      "pageh": 2226,
      "mriki": 2227,
      "katang": 2228,
      "kukuh": 2229,
      "tanggal": 2230,
      "Kemaja": 2231,
      "dewekne": 2232,
      "ngkung": 2233,
      "Dewa": 2234,
      "tetegenan": 2235,
      "Nebukadnesar": 2236,
      "abian": 2237,
      "kamargiang": 2238,
      "unat": 2239,
      "satus": 2240,
      "gar": 2241,
      "ngembasang": 2242,
      "pangajap": 2243,
      "mbat": 2244,
      "umahe": 2245,
      "edaja": 2246,
      "brontak": 2247,
      "karahayuan": 2248,
      "tetepasan": 2249,
      "El": 2250,
      "awak": 2251,
      "rene": 2252,
      "unang": 2253,
      "sau": 2254,
      "padang": 2255,
      "negak": 2256,
      "pidan": 2257,
      "nyelik": 2258,
      "ngenyagang": 2259,
      "Absa": 2260,
      "ngorahin": 2261,
      "ngresep": 2262,
      "Nyenja": 2263,
      "long": 2264,
      "lati": 2265,
      "wala": 2266,
      "panah": 2267,
      "abesik": 2268,
      "Epraim": 2269,
      "dedaaran": 2270,
      "cing": 2271,
      "ruh": 2272,
      "ryak": 2273,
      "sabeh": 2274,
      "maru": 2275,
      "pasukan": 2276,
      "paguna": 2277,
      "lae": 2278,
      "kenken": 2279,
      "linggah": 2280,
      "ngusud": 2281,
      "mapakayun": 2282,
      "ledangin": 2283,
      "masuryak": 2284,
      "Sampunang": 2285,
      "malipetan": 2286,
      "Rahayu": 2287,
      "kawicaksanan": 2288,
      "katawahan": 2289,
      "ksa": 2290,
      "kran": 2291,
      "dak": 2292,
      "inu": 2293,
      "pamupon": 2294,
      "taenang": 2295,
      "laran": 2296,
      "layu": 2297,
      "sumungkem": 2298,
      "bala": 2299,
      "kenginan": 2300,
      "Pamrentah": 2301,
      "biasa": 2302,
      "wek": 2303,
      "dok": 2304,
      "guman": 2305,
      "arcane": 2306,
      "menyan": 2307,
      "mbungang": 2308,
      "nyantosang": 2309,
      "Absalom": 2310,
      "Bar": 2311,
      "awan": 2312,
      "urat": 2313,
      "kayu": 2314,
      "sedih": 2315,
      "lengi": 2316,
      "ngawan": 2317,
      "pedas": 2318,
      "robe": 2319,
      "pinakit": 2320,
      "sinurat": 2321,
      "Yosa": 2322,
      "kayune": 2323,
      "Parasemeton": 2324,
      "logram": 2325,
      "melakang": 2326,
      "nguni": 2327,
      "munyin": 2328,
      "Sake": 2329,
      "adan": 2330,
      "maje": 2331,
      "lap": 2332,
      "sedekan": 2333,
      "kulit": 2334,
      "koman": 2335,
      "Yerobe": 2336,
      "ngiter": 2337,
      "mpine": 2338,
      "purine": 2339,
      "pidabdabe": 2340,
      "rena": 2341,
      "pasamuan": 2342,
      "isin": 2343,
      "wu": 2344,
      "kasujati": 2345,
      "matan": 2346,
      "bati": 2347,
      "lebu": 2348,
      "keh": 2349,
      "deka": 2350,
      "dede": 2351,
      "landuh": 2352,
      "banget": 2353,
      "parapang": 2354,
      "jukang": 2355,
      "wewalungan": 2356,
      "preti": 2357,
      "Ro": 2358,
      "eg": 2359,
      "angob": 2360,
      "ind": 2361,
      "seger": 2362,
      "balane": 2363,
      "ngajengang": 2364,
      "Paling": 2365,
      "Sabate": 2366,
      "parasemetone": 2367,
      "ngulati": 2368,
      "benjang": 2369,
      "morbor": 2370,
      "kaserahang": 2371,
      "mawisesa": 2372,
      "Es": 2373,
      "yake": 2374,
      "kadang": 2375,
      "kasin": 2376,
      "sampi": 2377,
      "rari": 2378,
      "nemah": 2379,
      "rusak": 2380,
      "Baal": 2381,
      "mbuh": 2382,
      "Gibe": 2383,
      "mabalik": 2384,
      "Nya": 2385,
      "yon": 2386,
      "kadadosang": 2387,
      "tukad": 2388,
      "kirang": 2389,
      "sumbung": 2390,
      "bad": 2391,
      "ngampurayang": 2392,
      "luas": 2393,
      "Sakadi": 2394,
      "bisa": 2395,
      "bobab": 2396,
      "Sedek": 2397,
      "nutu": 2398,
      "ngrasayang": 2399,
      "suari": 2400,
      "sajawining": 2401,
      "senapa": 2402,
      "Samaria": 2403,
      "Yerobeam": 2404,
      "ubuh": 2405,
      "kawenten": 2406,
      "rabi": 2407,
      "dasar": 2408,
      "pagunungan": 2409,
      "teke": 2410,
      "limang": 2411,
      "setan": 2412,
      "meme": 2413,
      "ret": 2414,
      "mupu": 2415,
      "jelan": 2416,
      "dosipun": 2417,
      "cikang": 2418,
      "nulak": 2419,
      "nunasang": 2420,
      "lemet": 2421,
      "Ahi": 2422,
      "riokang": 2423,
      "ola": 2424,
      "mapu": 2425,
      "ampe": 2426,
      "maduluran": 2427,
      "pasayuban": 2428,
      "Rakyate": 2429,
      "Gubernur": 2430,
      "Gilead": 2431,
      "Gali": 2432,
      "basa": 2433,
      "ot": 2434,
      "sun": 2435,
      "anipun": 2436,
      "ngke": 2437,
      "temaga": 2438,
      "praciri": 2439,
      "paraprakanggen": 2440,
      "lahan": 2441,
      "nitah": 2442,
      "Sim": 2443,
      "ngendih": 2444,
      "kapas": 2445,
      "kulawarga": 2446,
      "ningeh": 2447,
      "upah": 2448,
      "letehin": 2449,
      "cuk": 2450,
      "ngetor": 2451,
      "minakadinipun": 2452,
      "Oduh": 2453,
      "ade": 2454,
      "cakepan": 2455,
      "utusane": 2456,
      "masang": 2457,
      "pala": 2458,
      "mesuari": 2459,
      "bengkung": 2460,
      "kuasa": 2461,
      "pelih": 2462,
      "Pas": 2463,
      "naging": 2464,
      "rug": 2465,
      "purin": 2466,
      "sairing": 2467,
      "nagingin": 2468,
      "mag": 2469,
      "tepung": 2470,
      "buhan": 2471,
      "ungkur": 2472,
      "pipis": 2473,
      "nadiang": 2474,
      "kadilan": 2475,
      "nyadia": 2476,
      "ikayang": 2477,
      "barange": 2478,
      "Rahayune": 2479,
      "Wus": 2480,
      "joh": 2481,
      "rung": 2482,
      "kapra": 2483,
      "kambil": 2484,
      "jabaan": 2485,
      "kilogram": 2486,
      "sedia": 2487,
      "suru": 2488,
      "memen": 2489,
      "muk": 2490,
      "dumadak": 2491,
      "jek": 2492,
      "mpok": 2493,
      "resre": 2494,
      "sujatinne": 2495,
      "kasugihan": 2496,
      "awanane": 2497,
      "lengis": 2498,
      "bla": 2499,
      "katan": 2500,
      "tumbuh": 2501,
      "punapa": 2502,
      "mapang": 2503,
      "mawinan": 2504,
      "temah": 2505,
      "barak": 2506,
      "dosang": 2507,
      "gungan": 2508,
      "Siriane": 2509,
      "kasedayang": 2510,
      "sinarengan": 2511,
      "Edom": 2512,
      "Pamrentahan": 2513,
      "komandan": 2514,
      "Palingsehan": 2515,
      "Ele": 2516,
      "Esau": 2517,
      "Gen": 2518,
      "Utusan": 2519,
      "Wan": 2520,
      "dag": 2521,
      "tulung": 2522,
      "suara": 2523,
      "bat": 2524,
      "melek": 2525,
      "ngajap": 2526,
      "depang": 2527,
      "atin": 2528,
      "kut": 2529,
      "janten": 2530,
      "Setane": 2531,
      "ngangken": 2532,
      "Perhyangane": 2533,
      "malayar": 2534,
      "cenja": 2535,
      "beline": 2536,
      "dunungan": 2537,
      "kajaatan": 2538,
      "Galile": 2539,
      "Paskah": 2540,
      "Go": 2541,
      "jen": 2542,
      "pta": 2543,
      "sayah": 2544,
      "nadosang": 2545,
      "rahan": 2546,
      "waliang": 2547,
      "kakaonang": 2548,
      "ngawanang": 2549,
      "Ayu": 2550,
      "ate": 2551,
      "cake": 2552,
      "nyang": 2553,
      "yung": 2554,
      "ngraris": 2555,
      "kasangsaran": 2556,
      "tut": 2557,
      "mari": 2558,
      "pah": 2559,
      "lian": 2560,
      "meled": 2561,
      "ngebe": 2562,
      "Sion": 2563,
      "nyuang": 2564,
      "ukuman": 2565,
      "paundukane": 2566,
      "tunggil": 2567,
      "Manusa": 2568,
      "marupa": 2569,
      "Ru": 2570,
      "Un": 2571,
      "etang": 2572,
      "rurung": 2573,
      "newek": 2574,
      "nabine": 2575,
      "putun": 2576,
      "Segara": 2577,
      "nuju": 2578,
      "nyumbungang": 2579,
      "tongose": 2580,
      "panganggen": 2581,
      "busana": 2582,
      "sawatara": 2583,
      "kasujatian": 2584,
      "Jalan": 2585,
      "Katur": 2586,
      "cuku": 2587,
      "dalem": 2588,
      "seket": 2589,
      "parapangageng": 2590,
      "nyambe": 2591,
      "rotine": 2592,
      "ngandikain": 2593,
      "ajengan": 2594,
      "soroh": 2595,
      "apake": 2596,
      "adine": 2597,
      "pamekele": 2598,
      "langkung": 2599,
      "Ayub": 2600,
      "Bile": 2601,
      "jane": 2602,
      "kamar": 2603,
      "katah": 2604,
      "pal": 2605,
      "tami": 2606,
      "terus": 2607,
      "lila": 2608,
      "buron": 2609,
      "suka": 2610,
      "bapane": 2611,
      "rone": 2612,
      "Sede": 2613,
      "sinalih": 2614,
      "panyupat": 2615,
      "suarga": 2616,
      "Putraning": 2617,
      "Sapasirake": 2618,
      "Sapanglanturipun": 2619,
      "cakepane": 2620,
      "Gad": 2621,
      "kadan": 2622,
      "tig": 2623,
      "lali": 2624,
      "membah": 2625,
      "ngaug": 2626,
      "birin": 2627,
      "dinne": 2628,
      "Maka": 2629,
      "solah": 2630,
      "malingga": 2631,
      "pasisip": 2632,
      "dedet": 2633,
      "Ho": 2634,
      "ngletehin": 2635,
      "kenoh": 2636,
      "naur": 2637,
      "tegalan": 2638,
      "bebaosan": 2639,
      "nglinguang": 2640,
      "Ngawit": 2641,
      "Wantah": 2642,
      "Ene": 2643,
      "Ken": 2644,
      "Sina": 2645,
      "mlajah": 2646,
      "kampi": 2647,
      "punyah": 2648,
      "tel": 2649,
      "leng": 2650,
      "ngare": 2651,
      "besi": 2652,
      "lungane": 2653,
      "Sih": 2654,
      "leluurnyane": 2655,
      "Sapasiraja": 2656,
      "nginem": 2657,
      "cerik": 2658,
      "olasan": 2659,
      "Ruben": 2660,
      "Bileam": 2661,
      "Ni": 2662,
      "uk": 2663,
      "kak": 2664,
      "kaba": 2665,
      "miara": 2666,
      "rese": 2667,
      "lehan": 2668,
      "onin": 2669,
      "dol": 2670,
      "maturan": 2671,
      "panditan": 2672,
      "merta": 2673,
      "jagiran": 2674,
      "Moabe": 2675,
      "kakewehan": 2676,
      "keledae": 2677,
      "ngantenang": 2678,
      "ngayahin": 2679,
      "Eleasar": 2680,
      "cukup": 2681,
      "Iba": 2682,
      "abu": 2683,
      "jake": 2684,
      "padingehangja": 2685,
      "milih": 2686,
      "milehan": 2687,
      "unge": 2688,
      "kelod": 2689,
      "dume": 2690,
      "pek": 2691,
      "bangken": 2692,
      "dotang": 2693,
      "nguber": 2694,
      "Simon": 2695,
      "ngenahang": 2696,
      "Suba": 2697,
      "kapiolasan": 2698,
      "alase": 2699,
      "Edome": 2700,
      "dugase": 2701,
      "Napike": 2702,
      "apine": 2703,
      "mantuk": 2704,
      "kabina": 2705,
      "kagungan": 2706,
      "inget": 2707,
      "rem": 2708,
      "deg": 2709,
      "Yeri": 2710,
      "Prajanjian": 2711,
      "paderbe": 2712,
      "warni": 2713,
      "resna": 2714,
      "dunang": 2715,
      "Hebron": 2716,
      "pasti": 2717,
      "sengkala": 2718,
      "Amone": 2719,
      "mitra": 2720,
      "satmaka": 2721,
      "kedis": 2722,
      "batis": 2723,
      "amah": 2724,
      "gru": 2725,
      "imanusa": 2726,
      "kawangun": 2727,
      "mat": 2728,
      "mamitra": 2729,
      "pasih": 2730,
      "pace": 2731,
      "ritatkala": 2732,
      "semara": 2733,
      "sisan": 2734,
      "kelih": 2735,
      "sanja": 2736,
      "genine": 2737,
      "dikalan": 2738,
      "bdabang": 2739,
      "ical": 2740,
      "kaselik": 2741,
      "mapiteges": 2742,
      "prabun": 2743,
      "pamuput": 2744,
      "nikayang": 2745,
      "mael": 2746,
      "tipune": 2747,
      "rip": 2748,
      "ngalahang": 2749,
      "gubernur": 2750,
      "nure": 2751,
      "ngentungang": 2752,
      "nyujukang": 2753,
      "ngarsayang": 2754,
      "sujatinipun": 2755,
      "cokor": 2756,
      "nangis": 2757,
      "trompet": 2758,
      "Yosapat": 2759,
      "Katurunan": 2760,
      "Ama": 2761,
      "Uli": 2762,
      "bre": 2763,
      "tla": 2764,
      "andel": 2765,
      "rarene": 2766,
      "baang": 2767,
      "delod": 2768,
      "wisang": 2769,
      "bes": 2770,
      "Saka": 2771,
      "Sajaba": 2772,
      "bia": 2773,
      "bidang": 2774,
      "bangbang": 2775,
      "pararatun": 2776,
      "arcan": 2777,
      "pules": 2778,
      "Dadosipun": 2779,
      "Yoas": 2780,
      "madaar": 2781,
      "aniel": 2782,
      "mararian": 2783,
      "pasiatan": 2784,
      "tarune": 2785,
      "beneh": 2786,
      "iwau": 2787,
      "ol": 2788,
      "kapatu": 2789,
      "sapunapi": 2790,
      "mating": 2791,
      "murun": 2792,
      "warah": 2793,
      "nyaurin": 2794,
      "gandume": 2795,
      "nganggon": 2796,
      "Widinnyane": 2797,
      "apah": 2798,
      "muncuk": 2799,
      "Gide": 2800,
      "Yadian": 2801,
      "mreca": 2802,
      "dugas": 2803,
      "pajagaan": 2804,
      "ngebekin": 2805,
      "Daniel": 2806,
      "iane": 2807,
      "nis": 2808,
      "pina": 2809,
      "kapen": 2810,
      "sawiakti": 2811,
      "madunungan": 2812,
      "batang": 2813,
      "gaen": 2814,
      "kinum": 2815,
      "sisiane": 2816,
      "dewekipune": 2817,
      "parekane": 2818,
      "godel": 2819,
      "prabune": 2820,
      "ngwales": 2821,
      "!’": 2822,
      "Mu": 2823,
      "atus": 2824,
      "gtig": 2825,
      "kawit": 2826,
      "kadaging": 2827,
      "sali": 2828,
      "tua": 2829,
      "tep": 2830,
      "labuh": 2831,
      "kiwang": 2832,
      "sesang": 2833,
      "bas": 2834,
      "garan": 2835,
      "rerainan": 2836,
      "kerta": 2837,
      "nemu": 2838,
      "ngapus": 2839,
      "praya": 2840,
      "biang": 2841,
      "bibi": 2842,
      "manira": 2843,
      "ngeseng": 2844,
      "puji": 2845,
      "nyegerang": 2846,
      "Maria": 2847,
      "mentik": 2848,
      "pasaur": 2849,
      "pamekel": 2850,
      "Nyenke": 2851,
      "Amorine": 2852,
      "ngedengang": 2853,
      "Yadiastu": 2854,
      "perhyangan": 2855,
      "Nyabran": 2856,
      "Galilea": 2857,
      "Sedekia": 2858,
      "Jani": 2859,
      "cun": 2860,
      "tampi": 2861,
      "siu": 2862,
      "muru": 2863,
      "makamiwah": 2864,
      "Malae": 2865,
      "Suku": 2866,
      "panyero": 2867,
      "Torat": 2868,
      "wewalungane": 2869,
      "Mor": 2870,
      "em": 2871,
      "ipi": 2872,
      "nak": 2873,
      "rtayang": 2874,
      "kap": 2875,
      "kage": 2876,
      "sampur": 2877,
      "ritayang": 2878,
      "lelima": 2879,
      "ngaden": 2880,
      "ngajiang": 2881,
      "petenge": 2882,
      "patutipun": 2883,
      "jiwan": 2884,
      "nyag": 2885,
      "jubah": 2886,
      "Yosia": 2887,
      "ambate": 2888,
      "pianakipune": 2889,
      "Gelah": 2890,
      "suryane": 2891,
      "Indayang": 2892,
      "Pilistin": 2893,
      "Midi": 2894,
      "nyenja": 2895,
      "sikian": 2896,
      "dekai": 2897,
      "kawentenan": 2898,
      "Mordekai": 2899,
      "Eling": 2900,
      "abagian": 2901,
      "cah": 2902,
      "kaang": 2903,
      "tarane": 2904,
      "rib": 2905,
      "likur": 2906,
      "kir": 2907,
      "seduk": 2908,
      "neked": 2909,
      "cangin": 2910,
      "rauhang": 2911,
      "nyaga": 2912,
      "lok": 2913,
      "nunjel": 2914,
      "luhe": 2915,
      "sunantarane": 2916,
      "Sujatinipun": 2917,
      "Yeriko": 2918,
      "Gideon": 2919,
      "kapendem": 2920,
      "sampurna": 2921,
      "?’": 2922,
      "awi": 2923,
      "arep": 2924,
      "idewek": 2925,
      "rap": 2926,
      "rim": 2927,
      "tetu": 2928,
      "misa": 2929,
      "bal": 2930,
      "ngam": 2931,
      "pangrese": 2932,
      "pet": 2933,
      "prawi": 2934,
      "jeet": 2935,
      "natar": 2936,
      "nganampe": 2937,
      "parautusan": 2938,
      "indihin": 2939,
      "dosane": 2940,
      "putih": 2941,
      "panegaran": 2942,
      "Kajanjiang": 2943,
      "singane": 2944,
      "Pila": 2945,
      "Abram": 2946,
      "masanne": 2947,
      "Wau": 2948,
      "palsu": 2949,
      "Asur": 2950,
      "bong": 2951,
      "jati": 2952,
      "jaran": 2953,
      "mia": 2954,
      "suk": 2955,
      "sura": 2956,
      "suung": 2957,
      "paning": 2958,
      "ngancangin": 2959,
      "Per": 2960,
      "mbun": 2961,
      "numbas": 2962,
      "uningin": 2963,
      "nundung": 2964,
      "nyuci": 2965,
      "singa": 2966,
      "pangangon": 2967,
      "mbet": 2968,
      "Ahas": 2969,
      "macelep": 2970,
      "pinaka": 2971,
      "Amon": 2972,
      "Li": 2973,
      "Pan": 2974,
      "embas": 2975,
      "kaler": 2976,
      "kasuci": 2977,
      "undang": 2978,
      "rayunan": 2979,
      "tumbak": 2980,
      "rima": 2981,
      "bag": 2982,
      "muluk": 2983,
      "kukum": 2984,
      "Paris": 2985,
      "nagih": 2986,
      "nabdabang": 2987,
      "bihan": 2988,
      "paraleluur": 2989,
      "sinja": 2990,
      "mpen": 2991,
      "adung": 2992,
      "katempuh": 2993,
      "abedik": 2994,
      "Hero": 2995,
      "Putra": 2996,
      "ulam": 2997,
      "sapari": 2998,
      "paican": 2999,
      "prakangge": 3000,
      "ngangkenin": 3001,
      "paceda": 3002,
      "murub": 3003,
      "nyuciang": 3004,
      "Akeh": 3005,
      "Dan": 3006,
      "Keh": 3007,
      "idewane": 3008,
      "uta": 3009,
      "nging": 3010,
      "kauh": 3011,
      "tian": 3012,
      "melog": 3013,
      "kanistayang": 3014,
      "kemaja": 3015,
      "pitaken": 3016,
      "wates": 3017,
      "cad": 3018,
      "wewang": 3019,
      "bone": 3020,
      "pangadi": 3021,
      "mapakardi": 3022,
      "mapakayunan": 3023,
      "sehin": 3024,
      "semere": 3025,
      "matuuh": 3026,
      "ija": 3027,
      "pr": 3028,
      "wus": 3029,
      "kapese": 3030,
      "sasubane": 3031,
      "rake": 3032,
      "maku": 3033,
      "tambi": 3034,
      "lawang": 3035,
      "toyan": 3036,
      "seso": 3037,
      "gae": 3038,
      "guane": 3039,
      "arja": 3040,
      "dana": 3041,
      "laksanannyane": 3042,
      "bakuh": 3043,
      "ngenterang": 3044,
      "sarwa": 3045,
      "Kenginan": 3046,
      "deweknyane": 3047,
      "branan": 3048,
      "Banggayang": 3049,
      "tengennyane": 3050,
      "katiba": 3051,
      "Benyamine": 3052,
      "Boyake": 3053,
      "lampu": 3054,
      "Yadiastun": 3055,
      "Dikalane": 3056,
      "pasihe": 3057,
      "tambis": 3058,
      "Liban": 3059,
      "Make": 3060,
      "gunan": 3061,
      "ngla": 3062,
      "ngrang": 3063,
      "kaca": 3064,
      "sasaja": 3065,
      "ripang": 3066,
      "burone": 3067,
      "mimpin": 3068,
      "mitaenang": 3069,
      "baya": 3070,
      "keling": 3071,
      "gia": 3072,
      "keniang": 3073,
      "pantes": 3074,
      "nambet": 3075,
      "wewenang": 3076,
      "aketo": 3077,
      "rosan": 3078,
      "menang": 3079,
      "Abne": 3080,
      "Betel": 3081,
      "enggal": 3082,
      "Abimelek": 3083,
      "guminnyane": 3084,
      "pretiwine": 3085,
      "nganampekin": 3086,
      "kapesengin": 3087,
      "Yis": 3088,
      "alus": 3089,
      "bing": 3090,
      "es": 3091,
      "ilang": 3092,
      "ujan": 3093,
      "yi": 3094,
      "”.": 3095,
      "ngrusak": 3096,
      "kag": 3097,
      "kacorah": 3098,
      "dame": 3099,
      "but": 3100,
      "muputang": 3101,
      "pangja": 3102,
      "lum": 3103,
      "nampah": 3104,
      "parawong": 3105,
      "weh": 3106,
      "nyambat": 3107,
      "mot": 3108,
      "pangayu": 3109,
      "pangayah": 3110,
      "marayunan": 3111,
      "kawirosan": 3112,
      "pituduhang": 3113,
      "pakewuh": 3114,
      "Rarisang": 3115,
      "nyandang": 3116,
      "senti": 3117,
      "lenen": 3118,
      "keledaene": 3119,
      "Biri": 3120,
      "ksain": 3121,
      "rarisipun": 3122,
      "kapastiang": 3123,
      "Sakaria": 3124,
      "Elingangja": 3125,
      "misadia": 3126,
      "Pilatus": 3127,
      "Parisine": 3128,
      "prungg": 3129,
      "brana": 3130,
      "klawan": 3131,
      "nane": 3132,
      "sabar": 3133,
      "rama": 3134,
      "lampun": 3135,
      "lebihan": 3136,
      "neke": 3137,
      "karang": 3138,
      "karyan": 3139,
      "dueg": 3140,
      "panya": 3141,
      "makaad": 3142,
      "Sebu": 3143,
      "tungkas": 3144,
      "panyi": 3145,
      "suryak": 3146,
      "kotannyane": 3147,
      "bungkul": 3148,
      "sapasirake": 3149,
      "kranane": 3150,
      "nureksain": 3151,
      "Abner": 3152,
      "Ngi": 3153,
      "aya": 3154,
      "il": 3155,
      "ue": 3156,
      "sagu": 3157,
      "budi": 3158,
      "kihan": 3159,
      "selik": 3160,
      "gas": 3161,
      "nyo": 3162,
      "pisa": 3163,
      "dumun": 3164,
      "gep": 3165,
      "Paindik": 3166,
      "nganteg": 3167,
      "Yere": 3168,
      "Yesaya": 3169,
      "Yoya": 3170,
      "Buin": 3171,
      "Buat": 3172,
      "weweh": 3173,
      "kemahe": 3174,
      "natare": 3175,
      "kasinahang": 3176,
      "jelanan": 3177,
      "Simson": 3178,
      "kadagingin": 3179,
      "Gelahe": 3180,
      "pangresepan": 3181,
      "Ngiring": 3182,
      "saguluk": 3183,
      "Paindikane": 3184,
      "Ngu": 3185,
      "awin": 3186,
      "nindihin": 3187,
      "maya": 3188,
      "mamaling": 3189,
      "tios": 3190,
      "layon": 3191,
      "sedan": 3192,
      "Pamupu": 3193,
      "kol": 3194,
      "dot": 3195,
      "arsayang": 3196,
      "jua": 3197,
      "dadiang": 3198,
      "tengge": 3199,
      "Yoram": 3200,
      "sopa": 3201,
      "madasar": 3202,
      "kapisara": 3203,
      "kapilayu": 3204,
      "semeng": 3205,
      "Risedek": 3206,
      "anggona": 3207,
      "maliah": 3208,
      "Laban": 3209,
      "mbangan": 3210,
      "sayaga": 3211,
      "anggota": 3212,
      "selagan": 3213,
      "Dikalan": 3214,
      "nututin": 3215,
      "kaprabone": 3216,
      "kabatek": 3217,
      "resnain": 3218,
      "panyeroan": 3219,
      "awinane": 3220,
      "Pamuputipun": 3221,
      "Ingetang": 3222,
      "Jero": 3223,
      "age": 3224,
      "klebu": 3225,
      "sap": 3226,
      "encen": 3227,
      "seseli": 3228,
      "meang": 3229,
      "nedunang": 3230,
      "gilan": 3231,
      "gelur": 3232,
      "lakonin": 3233,
      "loka": 3234,
      "sakantun": 3235,
      "mbilang": 3236,
      "sungsung": 3237,
      "majalaran": 3238,
      "surya": 3239,
      "kasuratang": 3240,
      "lebake": 3241,
      "mapuasa": 3242,
      "muktiang": 3243,
      "paningalan": 3244,
      "seselikan": 3245,
      "Kar": 3246,
      "Tung": 3247,
      "no": 3248,
      "ngwaliang": 3249,
      "kabaos": 3250,
      "kajiang": 3251,
      "yangja": 3252,
      "ritan": 3253,
      "basan": 3254,
      "galak": 3255,
      "sipune": 3256,
      "kej": 3257,
      "deng": 3258,
      "unggang": 3259,
      "pana": 3260,
      "lingsire": 3261,
      "canane": 3262,
      "Bagia": 3263,
      "takon": 3264,
      "mpenan": 3265,
      "Kawi": 3266,
      "aras": 3267,
      "Kema": 3268,
      "kurine": 3269,
      "lemekin": 3270,
      "Hes": 3271,
      "Riwau": 3272,
      "bungah": 3273,
      "Gapura": 3274,
      "bintange": 3275,
      "mengkeb": 3276,
      "Sapangrarisipun": 3277,
      "singasanan": 3278,
      "Rehabe": 3279,
      "kampid": 3280,
      "mrecapada": 3281,
      "Ase": 3282,
      "Aketo": 3283,
      "Lak": 3284,
      "yakim": 3285,
      "nglem": 3286,
      "ngurung": 3287,
      "anggan": 3288,
      "enter": 3289,
      "maperang": 3290,
      "tet": 3291,
      "telu": 3292,
      "baler": 3293,
      "mes": 3294,
      "sirep": 3295,
      "kede": 3296,
      "bedelod": 3297,
      "Sara": 3298,
      "mbrahang": 3299,
      "jangih": 3300,
      "adakang": 3301,
      "apisan": 3302,
      "tengkej": 3303,
      "Punapi": 3304,
      "bantenge": 3305,
      "mbar": 3306,
      "asia": 3307,
      "Dewi": 3308,
      "ileh": 3309,
      "Sakewala": 3310,
      "nitahang": 3311,
      "Makasami": 3312,
      "grubug": 3313,
      "Jaga": 3314,
      "Mungg": 3315,
      "San": 3316,
      "cut": 3317,
      "seneng": 3318,
      "kamatiang": 3319,
      "kaange": 3320,
      "ingi": 3321,
      "rasan": 3322,
      "matin": 3323,
      "masin": 3324,
      "bulan": 3325,
      "serahang": 3326,
      "nyritayang": 3327,
      "siosan": 3328,
      "piragi": 3329,
      "atang": 3330,
      "beng": 3331,
      "nalih": 3332,
      "raharja": 3333,
      "pararatu": 3334,
      "gannyane": 3335,
      "Dam": 3336,
      "ngidih": 3337,
      "adad": 3338,
      "luire": 3339,
      "mastiang": 3340,
      "Rikalaning": 3341,
      "Tuah": 3342,
      "tonin": 3343,
      "nindes": 3344,
      "napike": 3345,
      "sabdayang": 3346,
      "Kanaane": 3347,
      "akasane": 3348,
      "masiat": 3349,
      "senapatin": 3350,
      "kiwangan": 3351,
      "lampune": 3352,
      "Mungguing": 3353,
      "Hanan": 3354,
      "Mis": 3355,
      "Mena": 3356,
      "jo": 3357,
      "ngku": 3358,
      "nggilan": 3359,
      "angine": 3360,
      "kari": 3361,
      "kamanggehang": 3362,
      "papan": 3363,
      "pamane": 3364,
      "risi": 3365,
      "kilang": 3366,
      "mitu": 3367,
      "gapura": 3368,
      "duang": 3369,
      "dumang": 3370,
      "bed": 3371,
      "bedak": 3372,
      "kuping": 3373,
      "jeja": 3374,
      "patunggilan": 3375,
      "patutne": 3376,
      "yuakti": 3377,
      "lange": 3378,
      "puk": 3379,
      "danda": 3380,
      "moko": 3381,
      "mobab": 3382,
      "Maija": 3383,
      "Pararatun": 3384,
      "Yude": 3385,
      "nglikub": 3386,
      "gerong": 3387,
      "kabekin": 3388,
      "bukti": 3389,
      "paselongan": 3390,
      "nyambehang": 3391,
      "Kenken": 3392,
      "Ngudiang": 3393,
      "sopacaran": 3394,
      "Menawi": 3395,
      "Am": 3396,
      "Ara": 3397,
      "nresnain": 3398,
      "ngresre": 3399,
      "kabecikan": 3400,
      "tuuh": 3401,
      "seba": 3402,
      "let": 3403,
      "neng": 3404,
      "nekaang": 3405,
      "delang": 3406,
      "Sabilang": 3407,
      "capang": 3408,
      "wengine": 3409,
      "tunden": 3410,
      "lahin": 3411,
      "ngudiang": 3412,
      "maha": 3413,
      "ngisi": 3414,
      "Sasaja": 3415,
      "amba": 3416,
      "pantarannyane": 3417,
      "mapamit": 3418,
      "benang": 3419,
      "masunat": 3420,
      "gunayang": 3421,
      "nyuratang": 3422,
      "katurin": 3423,
      "kaliput": 3424,
      "melaha": 3425,
      "Rahel": 3426,
      "gapurane": 3427,
      "kakaput": 3428,
      "donia": 3429,
      "Rakyat": 3430,
      "mokoh": 3431,
      "ngresresin": 3432,
      "Ibran": 3433,
      "Nuh": 3434,
      "Panak": 3435,
      "Sing": 3436,
      "nunggang": 3437,
      "ua": 3438,
      "tutu": 3439,
      "matakon": 3440,
      "pag": 3441,
      "padruen": 3442,
      "paks": 3443,
      "paek": 3444,
      "tiban": 3445,
      "laad": 3446,
      "milu": 3447,
      "nyaki": 3448,
      "kecap": 3449,
      "wahyu": 3450,
      "pangi": 3451,
      "jerih": 3452,
      "caine": 3453,
      "paraguru": 3454,
      "rot": 3455,
      "turangja": 3456,
      "bani": 3457,
      "sorang": 3458,
      "bencanane": 3459,
      "tungked": 3460,
      "madalem": 3461,
      "pamimpine": 3462,
      "kalikan": 3463,
      "melahan": 3464,
      "kadegang": 3465,
      "ngwehin": 3466,
      "Betleh": 3467,
      "Wadua": 3468,
      "singasanane": 3469,
      "rencanayang": 3470,
      "ngamedalang": 3471,
      "majengan": 3472,
      "parapanglingsir": 3473,
      "surup": 3474,
      "salibe": 3475,
      "sesocan": 3476,
      "prunggu": 3477,
      "Yeremia": 3478,
      "Ngiringja": 3479,
      "paksine": 3480,
      "aba": 3481,
      "adang": 3482,
      "guh": 3483,
      "nrima": 3484,
      "unne": 3485,
      "sapang": 3486,
      "sawan": 3487,
      "paica": 3488,
      "telas": 3489,
      "sekala": 3490,
      "mepek": 3491,
      "kenge": 3492,
      "kejuk": 3493,
      "pikenoh": 3494,
      "ngamah": 3495,
      "entanan": 3496,
      "pangkenge": 3497,
      "dangsah": 3498,
      "Ismael": 3499,
      "nyapa": 3500,
      "ngucap": 3501,
      "Sikem": 3502,
      "Babad": 3503,
      "minehin": 3504,
      "nantan": 3505,
      "nglumbrahang": 3506,
      "kapimpin": 3507,
      "sabdane": 3508,
      "Bangsane": 3509,
      "nyingakin": 3510,
      "bebas": 3511,
      "ngetangang": 3512,
      "Herodes": 3513,
      "tenggek": 3514,
      "Rehabeam": 3515,
      "tengkejut": 3516,
      "Sasajaane": 3517,
      "nyakitin": 3518,
      "),": 3519,
      "Amin": 3520,
      "gdu": 3521,
      "ohan": 3522,
      "kapituduhang": 3523,
      "satonden": 3524,
      "ingin": 3525,
      "dae": 3526,
      "dasan": 3527,
      "pasang": 3528,
      "pasuba": 3529,
      "dira": 3530,
      "tawang": 3531,
      "setane": 3532,
      "sirah": 3533,
      "lebang": 3534,
      "deman": 3535,
      "bet": 3536,
      "kentungang": 3537,
      "kubu": 3538,
      "peti": 3539,
      "lug": 3540,
      "mangan": 3541,
      "ngemasin": 3542,
      "tunas": 3543,
      "pucak": 3544,
      "genahnyane": 3545,
      "rangang": 3546,
      "bdayang": 3547,
      "ragat": 3548,
      "Basan": 3549,
      "mintonin": 3550,
      "sisipang": 3551,
      "gingsir": 3552,
      "Keto": 3553,
      "matilar": 3554,
      "Nata": 3555,
      "Pirengangja": 3556,
      "Buka": 3557,
      "kasabdayang": 3558,
      "katawan": 3559,
      "bungut": 3560,
      "000": 3561,
      "mamurug": 3562,
      "juhang": 3563,
      "Simeon": 3564,
      "atenga": 3565,
      "kabinawa": 3566,
      "nista": 3567,
      "sentimeter": 3568,
      "ambarane": 3569,
      "abot": 3570,
      "baning": 3571,
      "epo": 3572,
      "ik": 3573,
      "jung": 3574,
      "mpang": 3575,
      "andu": 3576,
      "kaledangin": 3577,
      "rapan": 3578,
      "maguman": 3579,
      "pagelah": 3580,
      "tameng": 3581,
      "Wisesa": 3582,
      "muan": 3583,
      "entang": 3584,
      "rarisangja": 3585,
      "gebug": 3586,
      "prarain": 3587,
      "jeng": 3588,
      "parasawitran": 3589,
      "asor": 3590,
      "sinin": 3591,
      "pangabih": 3592,
      "pianaknyane": 3593,
      "panegarane": 3594,
      "warga": 3595,
      "kapasang": 3596,
      "pituduhe": 3597,
      "kalikub": 3598,
      "Gil": 3599,
      "orti": 3600,
      "kenehne": 3601,
      "Kotane": 3602,
      "nglipur": 3603,
      "nglantur": 3604,
      "Eprate": 3605,
      "ngwedalang": 3606,
      "kapatutan": 3607,
      "Midiane": 3608,
      "Yoyada": 3609,
      "Betlehem": 3610,
      "magumana": 3611,
      "Aga": 3612,
      "ataun": 3613,
      "bon": 3614,
      "klo": 3615,
      "sadaging": 3616,
      "sapanjang": 3617,
      "sambilang": 3618,
      "rasa": 3619,
      "raat": 3620,
      "macingak": 3621,
      "magingsir": 3622,
      "tehang": 3623,
      "mian": 3624,
      "surate": 3625,
      "wadah": 3626,
      "dumade": 3627,
      "antung": 3628,
      "Parisi": 3629,
      "Saluiring": 3630,
      "parapangiring": 3631,
      "Pramesuari": 3632,
      "makadadua": 3633,
      "urug": 3634,
      "Seba": 3635,
      "sahayang": 3636,
      "isti": 3637,
      "Siria": 3638,
      "mesehipune": 3639,
      "kapal": 3640,
      "Pili": 3641,
      "Yudas": 3642,
      "katampah": 3643,
      "tawanan": 3644,
      "lekte": 3645,
      "icange": 3646,
      "wuwus": 3647,
      "uedan": 3648,
      "Ingetangja": 3649,
      "sopacaraning": 3650,
      "Mah": 3651,
      "icen": 3652,
      "plajah": 3653,
      "anut": 3654,
      "nglakonin": 3655,
      "kaprentah": 3656,
      "kamare": 3657,
      "sasa": 3658,
      "sake": 3659,
      "sadu": 3660,
      "sarat": 3661,
      "inum": 3662,
      "jaja": 3663,
      "bulun": 3664,
      "sel": 3665,
      "unggahang": 3666,
      "pes": 3667,
      "caya": 3668,
      "makaileh": 3669,
      "jumah": 3670,
      "cikan": 3671,
      "Silo": 3672,
      "wastan": 3673,
      "mesehe": 3674,
      "ngindayang": 3675,
      "Ledang": 3676,
      "Pitu": 3677,
      "balannyane": 3678,
      "tatas": 3679,
      "sinambi": 3680,
      "sinamian": 3681,
      "Haman": 3682,
      "timpalne": 3683,
      "timpalnyane": 3684,
      "ngwengku": 3685,
      "kaweruh": 3686,
      "ngkebang": 3687,
      "Unduke": 3688,
      "kalikanipun": 3689,
      "Rib": 3690,
      "eser": 3691,
      "iri": 3692,
      "jon": 3693,
      "kjek": 3694,
      "ngaku": 3695,
      "kajanjiang": 3696,
      "sapunika": 3697,
      "raya": 3698,
      "malun": 3699,
      "magu": 3700,
      "mabebaosan": 3701,
      "tepin": 3702,
      "tempal": 3703,
      "lemah": 3704,
      "nerangang": 3705,
      "sannyane": 3706,
      "ngalap": 3707,
      "karu": 3708,
      "pangenter": 3709,
      "bil": 3710,
      "bianan": 3711,
      "wetu": 3712,
      "bok": 3713,
      "uruk": 3714,
      "nyemak": 3715,
      "baana": 3716,
      "Pianak": 3717,
      "tegalane": 3718,
      "musuhne": 3719,
      "pamere": 3720,
      "yehe": 3721,
      "Dumadakja": 3722,
      "busanan": 3723,
      "makire": 3724,
      "pidanke": 3725,
      "kirangan": 3726,
      "runguang": 3727,
      "ngarepin": 3728,
      "Amasia": 3729,
      "bongkol": 3730,
      "ngrangsuk": 3731,
      "saguluking": 3732,
      "Yudea": 3733,
      "ble": 3734,
      "ros": 3735,
      "ante": 3736,
      "unta": 3737,
      "sag": 3738,
      "rag": 3739,
      "tuon": 3740,
      "tumurun": 3741,
      "mato": 3742,
      "mabudi": 3743,
      "palan": 3744,
      "pajalan": 3745,
      "pawuwus": 3746,
      "pabianan": 3747,
      "dijake": 3748,
      "tidong": 3749,
      "tam": 3750,
      "asapunapi": 3751,
      "sek": 3752,
      "suks": 3753,
      "mesuang": 3754,
      "lehin": 3755,
      "Wireh": 3756,
      "tandur": 3757,
      "tanduk": 3758,
      "dura": 3759,
      "beten": 3760,
      "pesta": 3761,
      "Pabuat": 3762,
      "luur": 3763,
      "Sab": 3764,
      "rud": 3765,
      "nyamane": 3766,
      "roang": 3767,
      "cih": 3768,
      "adasa": 3769,
      "makelo": 3770,
      "makeber": 3771,
      "nunden": 3772,
      "apaja": 3773,
      "wargan": 3774,
      "Kau": 3775,
      "Kaleb": 3776,
      "Natan": 3777,
      "dosanipune": 3778,
      "mbok": 3779,
      "garapan": 3780,
      "Beli": 3781,
      "Rarisangja": 3782,
      "Ahasia": 3783,
      "bates": 3784,
      "riinan": 3785,
      "ngundang": 3786,
      "magedi": 3787,
      "sapasiraja": 3788,
      "Tamar": 3789,
      "Sodo": 3790,
      "katunjel": 3791,
      "pakemahan": 3792,
      "pakemahane": 3793,
      "Genahe": 3794,
      "bresih": 3795,
      "Juru": 3796,
      "nuli": 3797,
      "osipune": 3798,
      "tene": 3799,
      "kare": 3800,
      "kasisipang": 3801,
      "ini": 3802,
      "tegak": 3803,
      "jalaran": 3804,
      "liah": 3805,
      "sumpah": 3806,
      "meli": 3807,
      "legen": 3808,
      "pireng": 3809,
      "ngasorang": 3810,
      "murip": 3811,
      "tanja": 3812,
      "belas": 3813,
      "pedih": 3814,
      "perake": 3815,
      "gelan": 3816,
      "pramesuari": 3817,
      "Sadok": 3818,
      "raha": 3819,
      "parasisiane": 3820,
      "mannyane": 3821,
      "manis": 3822,
      "rumpuh": 3823,
      "pukang": 3824,
      "nuturin": 3825,
      "nyekjek": 3826,
      "sore": 3827,
      "arab": 3828,
      "Kir": 3829,
      "kaliwat": 3830,
      "Teng": 3831,
      "laminnya": 3832,
      "kedise": 3833,
      "Benjangne": 3834,
      "Sujatinne": 3835,
      "teketin": 3836,
      "rurunge": 3837,
      "ipian": 3838,
      "Jerone": 3839,
      "daerah": 3840,
      "Mang": 3841,
      "akasa": 3842,
      "olih": 3843,
      "obin": 3844,
      "anne": 3845,
      "kaperlu": 3846,
      "samas": 3847,
      "dale": 3848,
      "lad": 3849,
      "subakti": 3850,
      "bare": 3851,
      "nylajah": 3852,
      "rebab": 3853,
      "lesang": 3854,
      "dange": 3855,
      "ngengkebang": 3856,
      "arin": 3857,
      "Meseh": 3858,
      "ngangobin": 3859,
      "ambil": 3860,
      "padewe": 3861,
      "mbara": 3862,
      "manahipune": 3863,
      "tonang": 3864,
      "sesajen": 3865,
      "kakuasa": 3866,
      "ngelahang": 3867,
      "sajabaning": 3868,
      "kretane": 3869,
      "kambinge": 3870,
      "padange": 3871,
      "kasuciang": 3872,
      "pangadilan": 3873,
      "Libanon": 3874,
      "karangsukan": 3875,
      "klompok": 3876,
      "lektekang": 3877,
      "Gat": 3878,
      "Hasa": 3879,
      "Icenja": 3880,
      "Tun": 3881,
      "ase": 3882,
      "cur": 3883,
      "egan": 3884,
      "ude": 3885,
      "ube": 3886,
      "ugan": 3887,
      "ngkala": 3888,
      "ngrencanayang": 3889,
      "kajak": 3890,
      "kapo": 3891,
      "kaluihang": 3892,
      "kapanditan": 3893,
      "kakirangan": 3894,
      "magarapan": 3895,
      "pategalan": 3896,
      "teta": 3897,
      "tekan": 3898,
      "lapang": 3899,
      "buke": 3900,
      "bucun": 3901,
      "negul": 3902,
      "lihang": 3903,
      "Padingehangja": 3904,
      "lugrain": 3905,
      "jemak": 3906,
      "Sadurung": 3907,
      "Raja": 3908,
      "yuda": 3909,
      "jiwa": 3910,
      "arane": 3911,
      "tinnyane": 3912,
      "Daude": 3913,
      "duhkita": 3914,
      "Seru": 3915,
      "Sengkala": 3916,
      "uripune": 3917,
      "patine": 3918,
      "patbelas": 3919,
      "palinggih": 3920,
      "mbuhang": 3921,
      "sungkan": 3922,
      "maksa": 3923,
      "tingalin": 3924,
      "yakti": 3925,
      "rencana": 3926,
      "kulawargannyane": 3927,
      "langit": 3928,
      "Manira": 3929,
      "tresnain": 3930,
      "somahipune": 3931,
      "marerainan": 3932,
      "magae": 3933,
      "rencanan": 3934,
      "selir": 3935,
      "kadameang": 3936,
      "Simei": 3937,
      "katangkilang": 3938,
      "Ester": 3939,
      "jende": 3940,
      "kacorahan": 3941,
      "sakewala": 3942,
      "padewekan": 3943,
      "Ela": 3944,
      "Je": 3945,
      "Kan": 3946,
      "ibu": 3947,
      "jine": 3948,
      "non": 3949,
      "”,": 3950,
      "ngrunguang": 3951,
      "undi": 3952,
      "satak": 3953,
      "tuk": 3954,
      "maliang": 3955,
      "makantenang": 3956,
      "pamen": 3957,
      "tepang": 3958,
      "jaring": 3959,
      "bucu": 3960,
      "kilin": 3961,
      "suda": 3962,
      "sungan": 3963,
      "baong": 3964,
      "baju": 3965,
      "mega": 3966,
      "merem": 3967,
      "nyun": 3968,
      "muda": 3969,
      "tanda": 3970,
      "pangon": 3971,
      "prajanjiane": 3972,
      "Sabat": 3973,
      "sakang": 3974,
      "ngebatang": 3975,
      "langan": 3976,
      "ngumbara": 3977,
      "mbong": 3978,
      "Yoyakim": 3979,
      "ngangge": 3980,
      "nganggo": 3981,
      "mapakeling": 3982,
      "masina": 3983,
      "panes": 3984,
      "Kala": 3985,
      "Nap": 3986,
      "nanggu": 3987,
      "manggeh": 3988,
      "kretan": 3989,
      "galange": 3990,
      "ngliwat": 3991,
      "paranabi": 3992,
      "bibit": 3993,
      "gunanipun": 3994,
      "sasajaane": 3995,
      "bingung": 3996,
      "Sebulon": 3997,
      "Isa": 3998,
      "Maje": 3999,
      "Maki": 4000,
      "Okan": 4001,
      "Usia": 4002,
      "ai": 4003,
      "muh": 4004,
      "mriokang": 4005,
      "olah": 4006,
      "angkara": 4007,
      "karahayuang": 4008,
      "karauhang": 4009,
      "saadung": 4010,
      "rarud": 4011,
      "daa": 4012,
      "daya": 4013,
      "tuturang": 4014,
      "padosa": 4015,
      "pasemengan": 4016,
      "dihan": 4017,
      "timbangan": 4018,
      "tegen": 4019,
      "mel": 4020,
      "megane": 4021,
      "keca": 4022,
      "neda": 4023,
      "ngarap": 4024,
      "widin": 4025,
      "wicaran": 4026,
      "panganggo": 4027,
      "onto": 4028,
      "mangmung": 4029,
      "biru": 4030,
      "ngedumang": 4031,
      "wangsi": 4032,
      "Semaya": 4033,
      "kauripang": 4034,
      "panyeng": 4035,
      "yatna": 4036,
      "umahnyane": 4037,
      "Yako": 4038,
      "masanipun": 4039,
      "arepa": 4040,
      "jukunge": 4041,
      "ulame": 4042,
      "kemahnyane": 4043,
      "pungkur": 4044,
      "korden": 4045,
      "maselong": 4046,
      "kawaca": 4047,
      "nunggi": 4048,
      "inuman": 4049,
      "Yisre": 4050,
      "Mispa": 4051,
      "jejarahan": 4052,
      "Gilgal": 4053,
      "cihna": 4054,
      "Aser": 4055,
      "Lot": 4056,
      "asung": 4057,
      "alas": 4058,
      "icenja": 4059,
      "pro": 4060,
      "rur": 4061,
      "uan": 4062,
      "nglemekin": 4063,
      "kampurayang": 4064,
      "saka": 4065,
      "sampine": 4066,
      "daane": 4067,
      "mapineh": 4068,
      "mabuah": 4069,
      "tius": 4070,
      "tikel": 4071,
      "tengan": 4072,
      "telung": 4073,
      "baanga": 4074,
      "remang": 4075,
      "kebin": 4076,
      "karo": 4077,
      "der": 4078,
      "atak": 4079,
      "petine": 4080,
      "gelungan": 4081,
      "parautusane": 4082,
      "sangja": 4083,
      "tanem": 4084,
      "lingu": 4085,
      "nyawisang": 4086,
      "juang": 4087,
      "ngulah": 4088,
      "baktine": 4089,
      "rainane": 4090,
      "Lea": 4091,
      "nyikut": 4092,
      "pakaryane": 4093,
      "katepasin": 4094,
      "kasambat": 4095,
      "ngastawayang": 4096,
      "bakatang": 4097,
      "punduhang": 4098,
      "pamragat": 4099,
      "ngwacen": 4100,
      "agamane": 4101,
      "nemnem": 4102,
      "kakecap": 4103,
      "Lakar": 4104,
      "prakanggene": 4105,
      "yadianja": 4106,
      "inucap": 4107,
      "Gibea": 4108,
      "Kehat": 4109,
      "mituturin": 4110,
      "istime": 4111,
      "Pilipus": 4112,
      "nulis": 4113,
      "Naptali": 4114,
      "Het": 4115,
      "aa": 4116,
      "dre": 4117,
      "ime": 4118,
      "ukin": 4119,
      "katak": 4120,
      "kaborbor": 4121,
      "kagunayang": 4122,
      "rakan": 4123,
      "daar": 4124,
      "dadinne": 4125,
      "pale": 4126,
      "paris": 4127,
      "tigan": 4128,
      "tikayang": 4129,
      "telah": 4130,
      "teleb": 4131,
      "sering": 4132,
      "sebel": 4133,
      "siang": 4134,
      "lenge": 4135,
      "negara": 4136,
      "nempuh": 4137,
      "nekain": 4138,
      "netepang": 4139,
      "piuning": 4140,
      "ngaula": 4141,
      "ngaadang": 4142,
      "ngatonang": 4143,
      "duduk": 4144,
      "lana": 4145,
      "pangar": 4146,
      "bedangin": 4147,
      "kutang": 4148,
      "Pare": 4149,
      "mangeling": 4150,
      "jeran": 4151,
      "jege": 4152,
      "Sapunapi": 4153,
      "bibih": 4154,
      "rahangja": 4155,
      "Rama": 4156,
      "rombo": 4157,
      "ngupin": 4158,
      "adab": 4159,
      "Melahan": 4160,
      "numbuhang": 4161,
      "ngangonang": 4162,
      "nyeng": 4163,
      "nir": 4164,
      "pingit": 4165,
      "menawi": 4166,
      "becikang": 4167,
      "pidarta": 4168,
      "Saulus": 4169,
      "dekdek": 4170,
      "kasatian": 4171,
      "Benaya": 4172,
      "rencang": 4173,
      "engsap": 4174,
      "wakang": 4175,
      "Gaenang": 4176,
      "keledaen": 4177,
      "Boas": 4178,
      "turipune": 4179,
      "nglinggihin": 4180,
      "buntut": 4181,
      "pamupu": 4182,
      "kawelas": 4183,
      "nganehang": 4184,
      "maletan": 4185,
      "Sakewanten": 4186,
      "wuwuh": 4187,
      "katanjung": 4188,
      "Jalanja": 4189,
      "paderbean": 4190,
      "Indayangja": 4191,
      "kakuasaan": 4192,
      "masinar": 4193,
      "Yakobus": 4194,
      "mangelingin": 4195,
      "Do": 4196,
      "Isai": 4197,
      "Mar": 4198,
      "Nile": 4199,
      "Orahang": 4200,
      "Uria": 4201,
      "Was": 4202,
      "ale": 4203,
      "aman": 4204,
      "cat": 4205,
      "hakim": 4206,
      "idep": 4207,
      "lurug": 4208,
      "tra": 4209,
      "tset": 4210,
      "katete": 4211,
      "kamertanin": 4212,
      "mabe": 4213,
      "masolah": 4214,
      "mawarni": 4215,
      "mapidarta": 4216,
      "pari": 4217,
      "paum": 4218,
      "pakurenan": 4219,
      "pable": 4220,
      "turan": 4221,
      "turun": 4222,
      "teked": 4223,
      "kiter": 4224,
      "uhin": 4225,
      "ngadol": 4226,
      "dele": 4227,
      "wicara": 4228,
      "panglingsir": 4229,
      "pega": 4230,
      "Pagunungan": 4231,
      "bokor": 4232,
      "Tirus": 4233,
      "nyai": 4234,
      "arsan": 4235,
      "julin": 4236,
      "cicing": 4237,
      "Dadinne": 4238,
      "nigtig": 4239,
      "Parapamimpin": 4240,
      "nyidaang": 4241,
      "nyilurin": 4242,
      "marabian": 4243,
      "Ger": 4244,
      "darma": 4245,
      "gedeg": 4246,
      "pamrentahe": 4247,
      "magejeran": 4248,
      "Boya": 4249,
      "Samariane": 4250,
      "kaperemang": 4251,
      "trompete": 4252,
      "resresan": 4253,
      "blabar": 4254,
      "Paskahe": 4255,
      "keliha": 4256,
      "ngamong": 4257,
      "klebutan": 4258,
      "matiningin": 4259,
      "matolihan": 4260,
      "pablesat": 4261,
      "Cingak": 4262,
      "Mas": 4263,
      "Yi": 4264,
      "amb": 4265,
      "dine": 4266,
      "sentanan": 4267,
      "wohan": 4268,
      "ngledangin": 4269,
      "kasan": 4270,
      "kalan": 4271,
      "kalangkung": 4272,
      "karesresan": 4273,
      "sambe": 4274,
      "endah": 4275,
      "tulen": 4276,
      "madan": 4277,
      "paka": 4278,
      "semer": 4279,
      "siane": 4280,
      "nembe": 4281,
      "wal": 4282,
      "warahang": 4283,
      "dumi": 4284,
      "panganggon": 4285,
      "pangind": 4286,
      "geh": 4287,
      "gelang": 4288,
      "prad": 4289,
      "mangseh": 4290,
      "mangenang": 4291,
      "Saja": 4292,
      "carane": 4293,
      "paraparekan": 4294,
      "boset": 4295,
      "rohan": 4296,
      "langin": 4297,
      "puun": 4298,
      "ngumbah": 4299,
      "ngulurin": 4300,
      "ngusahayang": 4301,
      "lone": 4302,
      "hanan": 4303,
      "ngilehin": 4304,
      "nyetset": 4305,
      "panegen": 4306,
      "pol": 4307,
      "sungsut": 4308,
      "ngrama": 4309,
      "masandekan": 4310,
      "Benh": 4311,
      "alasane": 4312,
      "nyamaan": 4313,
      "Tusingke": 4314,
      "maluan": 4315,
      "ngedekin": 4316,
      "eksa": 4317,
      "nglekadang": 4318,
      "Barna": 4319,
      "pretiwi": 4320,
      "Malaekate": 4321,
      "wewangen": 4322,
      "epode": 4323,
      "Ribka": 4324,
      "Majelis": 4325,
      "propin": 4326,
      "istimewa": 4327,
      "pangindraja": 4328,
      "Rut": 4329,
      "Ting": 4330,
      "ir": 4331,
      "upeti": 4332,
      "ngrin": 4333,
      "ngwastanin": 4334,
      "angkihan": 4335,
      "saang": 4336,
      "sada": 4337,
      "dahang": 4338,
      "pamargi": 4339,
      "pakanten": 4340,
      "tepukin": 4341,
      "liter": 4342,
      "buhane": 4343,
      "kipun": 4344,
      "segara": 4345,
      "bayu": 4346,
      "garang": 4347,
      "sib": 4348,
      "sirang": 4349,
      "silur": 4350,
      "ngalahin": 4351,
      "enting": 4352,
      "karsayang": 4353,
      "pel": 4354,
      "Sal": 4355,
      "paramalaekate": 4356,
      "rupan": 4357,
      "gua": 4358,
      "danan": 4359,
      "lokin": 4360,
      "nuut": 4361,
      "Baru": 4362,
      "bendu": 4363,
      "arayang": 4364,
      "ceng": 4365,
      "kawicaksana": 4366,
      "katurunannyane": 4367,
      "tetedan": 4368,
      "istrine": 4369,
      "Yakube": 4370,
      "Kemahe": 4371,
      "kalukat": 4372,
      "pamrentahan": 4373,
      "Aturan": 4374,
      "mulihang": 4375,
      "menggah": 4376,
      "kapelihan": 4377,
      "mamuat": 4378,
      "pangubakti": 4379,
      "pangubaktine": 4380,
      "katangiang": 4381,
      "tetujon": 4382,
      "Laksan": 4383,
      "pikenohipun": 4384,
      "Isakar": 4385,
      "Barnabas": 4386,
      "Asar": 4387,
      "awa": 4388,
      "kri": 4389,
      "menek": 4390,
      "om": 4391,
      "orahin": 4392,
      "ubuhan": 4393,
      "kabi": 4394,
      "kace": 4395,
      "tuang": 4396,
      "mako": 4397,
      "maji": 4398,
      "mayah": 4399,
      "makaro": 4400,
      "inan": 4401,
      "inah": 4402,
      "pajeg": 4403,
      "pawidi": 4404,
      "pawarah": 4405,
      "dimasan": 4406,
      "taman": 4407,
      "tatun": 4408,
      "liunne": 4409,
      "lase": 4410,
      "ladan": 4411,
      "baosipune": 4412,
      "meja": 4413,
      "nylem": 4414,
      "rerainane": 4415,
      "ketang": 4416,
      "pilih": 4417,
      "ngamulihang": 4418,
      "karung": 4419,
      "gel": 4420,
      "gega": 4421,
      "paraprajurite": 4422,
      "pararapan": 4423,
      "wehin": 4424,
      "wekas": 4425,
      "sangsar": 4426,
      "ngesehin": 4427,
      "iram": 4428,
      "ayangja": 4429,
      "nguug": 4430,
      "ngucapang": 4431,
      "ngusakang": 4432,
      "genahipune": 4433,
      "Matan": 4434,
      "Balak": 4435,
      "menin": 4436,
      "nandur": 4437,
      "pidartayang": 4438,
      "kapiragi": 4439,
      "umahne": 4440,
      "suecaninja": 4441,
      "imbang": 4442,
      "Pidabdabe": 4443,
      "ngunayang": 4444,
      "ngwetuang": 4445,
      "perhyangane": 4446,
      "kadanin": 4447,
      "Malaekat": 4448,
      "prawira": 4449,
      "Kaulan": 4450,
      "Sodom": 4451,
      "pradnyan": 4452,
      "Asarya": 4453,
      "makaroras": 4454,
      "Ana": 4455,
      "Ajak": 4456,
      "Jle": 4457,
      "akah": 4458,
      "waki": 4459,
      "yo": 4460,
      "anteng": 4461,
      "kawane": 4462,
      "sare": 4463,
      "enti": 4464,
      "entik": 4465,
      "mae": 4466,
      "lib": 4467,
      "kibeh": 4468,
      "asah": 4469,
      "mig": 4470,
      "ungsungan": 4471,
      "garu": 4472,
      "rek": 4473,
      "rehan": 4474,
      "kep": 4475,
      "wasinja": 4476,
      "duen": 4477,
      "nartayang": 4478,
      "indikan": 4479,
      "putangja": 4480,
      "ngisinin": 4481,
      "sihin": 4482,
      "baktin": 4483,
      "Merari": 4484,
      "Sip": 4485,
      "bana": 4486,
      "laksanayangja": 4487,
      "ngenah": 4488,
      "warna": 4489,
      "Parapanditane": 4490,
      "dalya": 4491,
      "Kristen": 4492,
      "mbungan": 4493,
      "kaselong": 4494,
      "panyungsungan": 4495,
      "pangande": 4496,
      "kakutang": 4497,
      "Luih": 4498,
      "nangkilin": 4499,
      "ngiringja": 4500,
      "adiriko": 4501,
      "Korah": 4502,
      "Abia": 4503,
      "bapanne": 4504,
      "minakadi": 4505,
      "dedalihan": 4506,
      "lawasnya": 4507,
      "ngedeng": 4508,
      "gatra": 4509,
      "negakin": 4510,
      "Roma": 4511,
      "Sinai": 4512,
      "ngarepang": 4513,
      "Sihon": 4514,
      "matinget": 4515,
      "Hesbon": 4516,
      "Damsik": 4517,
      "Ibrani": 4518,
      "suksrah": 4519,
      "Tunden": 4520,
      "pamendeman": 4521,
      "dumilah": 4522,
      "Benhadad": 4523,
      "ngrincikang": 4524,
      "kawicaksanaan": 4525,
      "Aturangja": 4526,
      "Bat": 4527,
      "Pin": 4528,
      "Yun": 4529,
      "alih": 4530,
      "arahina": 4531,
      "brang": 4532,
      "cin": 4533,
      "ecan": 4534,
      "king": 4535,
      "kuningin": 4536,
      "sre": 4537,
      "umur": 4538,
      "kaki": 4539,
      "kasaksi": 4540,
      "sarain": 4541,
      "sapanyeneng": 4542,
      "tuun": 4543,
      "indayang": 4544,
      "paiwang": 4545,
      "akan": 4546,
      "risan": 4547,
      "lape": 4548,
      "laturan": 4549,
      "tot": 4550,
      "kilo": 4551,
      "sume": 4552,
      "meweh": 4553,
      "gama": 4554,
      "sian": 4555,
      "sanan": 4556,
      "ngaukin": 4557,
      "mus": 4558,
      "wales": 4559,
      "dut": 4560,
      "belin": 4561,
      "nawan": 4562,
      "sanget": 4563,
      "bote": 4564,
      "gum": 4565,
      "gudang": 4566,
      "pul": 4567,
      "mahan": 4568,
      "Yoah": 4569,
      "ngangkebin": 4570,
      "nyerit": 4571,
      "nyediang": 4572,
      "nyelapang": 4573,
      "nilas": 4574,
      "Sione": 4575,
      "solas": 4576,
      "masun": 4577,
      "mertan": 4578,
      "lautang": 4579,
      "tongosne": 4580,
      "tingkah": 4581,
      "yakin": 4582,
      "diaang": 4583,
      "mapikolih": 4584,
      "kidunge": 4585,
      "payuk": 4586,
      "payuke": 4587,
      "riinin": 4588,
      "kabebasang": 4589,
      "Asapunika": 4590,
      "kenawan": 4591,
      "banggayanga": 4592,
      "kapuji": 4593,
      "yuhin": 4594,
      "parapanglingsire": 4595,
      "maglaturan": 4596,
      "Genah": 4597,
      "sanjata": 4598,
      "pujian": 4599,
      "utama": 4600,
      "andus": 4601,
      "nunggil": 4602,
      "Yisreel": 4603,
      "eksain": 4604,
      ").": 4605,
      "22": 4606,
      "Kre": 4607,
      "atengah": 4608,
      "bos": 4609,
      "cong": 4610,
      "gla": 4611,
      "iel": 4612,
      "kae": 4613,
      "kadursi": 4614,
      "kalebu": 4615,
      "una": 4616,
      "undag": 4617,
      "dap": 4618,
      "mabenteng": 4619,
      "tatak": 4620,
      "tabeng": 4621,
      "tepi": 4622,
      "liwat": 4623,
      "lag": 4624,
      "miteketin": 4625,
      "sumang": 4626,
      "gaenang": 4627,
      "nebus": 4628,
      "pitaenang": 4629,
      "rannyane": 4630,
      "girang": 4631,
      "pange": 4632,
      "pangupa": 4633,
      "pangwales": 4634,
      "panahe": 4635,
      "parapamimpine": 4636,
      "wet": 4637,
      "Yohanan": 4638,
      "Yoyakin": 4639,
      "masaut": 4640,
      "Mal": 4641,
      "Sidon": 4642,
      "sok": 4643,
      "ibun": 4644,
      "Luputangja": 4645,
      "Gedalya": 4646,
      "rakyatnyane": 4647,
      "Tanahe": 4648,
      "enggalang": 4649,
      "Manut": 4650,
      "matulis": 4651,
      "cingakin": 4652,
      "riokin": 4653,
      "pasepan": 4654,
      "lompang": 4655,
      "majeritan": 4656,
      "Yadianja": 4657,
      "sesangin": 4658,
      "karyanin": 4659,
      "Tungkalikanipun": 4660,
      "Kawicaksan": 4661,
      "Amnon": 4662,
      "sapanglanturipun": 4663,
      "Agamane": 4664,
      "pamereman": 4665,
      "legendahang": 4666,
      "parisolah": 4667,
      "Jlemane": 4668,
      "Yunus": 4669,
      "sregep": 4670,
      "Ang": 4671,
      "Hu": 4672,
      "Hil": 4673,
      "Pine": 4674,
      "We": 4675,
      "wol": 4676,
      "ngriinin": 4677,
      "unin": 4678,
      "sakita": 4679,
      "inge": 4680,
      "mab": 4681,
      "inin": 4682,
      "paya": 4683,
      "teket": 4684,
      "lipur": 4685,
      "medem": 4686,
      "mejane": 4687,
      "leel": 4688,
      "nelokin": 4689,
      "ngas": 4690,
      "mukak": 4691,
      "wayah": 4692,
      "lune": 4693,
      "kudane": 4694,
      "kuugang": 4695,
      "pegat": 4696,
      "gelase": 4697,
      "Paindikan": 4698,
      "panug": 4699,
      "lut": 4700,
      "Saananing": 4701,
      "mantun": 4702,
      "mancut": 4703,
      "ruse": 4704,
      "yud": 4705,
      "Timo": 4706,
      "mulian": 4707,
      "puyung": 4708,
      "Serah": 4709,
      "Pararatune": 4710,
      "mbuhin": 4711,
      "alite": 4712,
      "dungang": 4713,
      "Saule": 4714,
      "abune": 4715,
      "ngungku": 4716,
      "orta": 4717,
      "mapikenoh": 4718,
      "Hamat": 4719,
      "katampi": 4720,
      "napija": 4721,
      "bapanipune": 4722,
      "katigtig": 4723,
      "alpaka": 4724,
      "eluhe": 4725,
      "amunapi": 4726,
      "pasepane": 4727,
      "pajagaane": 4728,
      "prakanggon": 4729,
      "surudan": 4730,
      "bangbange": 4731,
      "apahdasan": 4732,
      "panyiuan": 4733,
      "panaur": 4734,
      "nglempag": 4735,
      "pasubaya": 4736,
      "lugraha": 4737,
      "lugrainja": 4738,
      "pamuputipun": 4739,
      "katetepang": 4740,
      "makolem": 4741,
      "kasaksian": 4742,
      "masunaran": 4743,
      "Amale": 4744,
      "Adonia": 4745,
      "Kene": 4746,
      "Kis": 4747,
      "Nasa": 4748,
      "Yunan": 4749,
      "dune": 4750,
      "id": 4751,
      "jun": 4752,
      "mene": 4753,
      "sine": 4754,
      "sene": 4755,
      "uman": 4756,
      "nguruk": 4757,
      "angen": 4758,
      "kaling": 4759,
      "kajengang": 4760,
      "kabaosang": 4761,
      "ingetang": 4762,
      "enta": 4763,
      "pasueca": 4764,
      "tai": 4765,
      "lipune": 4766,
      "layah": 4767,
      "tok": 4768,
      "bul": 4769,
      "metu": 4770,
      "sike": 4771,
      "ker": 4772,
      "kesengin": 4773,
      "nekeng": 4774,
      "pipune": 4775,
      "piteges": 4776,
      "gili": 4777,
      "dugdu": 4778,
      "gegaen": 4779,
      "lua": 4780,
      "lumbang": 4781,
      "mangunang": 4782,
      "jele": 4783,
      "jegang": 4784,
      "entos": 4785,
      "paramalaekat": 4786,
      "wedanan": 4787,
      "Praju": 4788,
      "yudane": 4789,
      "nyamenin": 4790,
      "aturangja": 4791,
      "yune": 4792,
      "ngubah": 4793,
      "molas": 4794,
      "ngidungang": 4795,
      "Yotam": 4796,
      "lempas": 4797,
      "gangan": 4798,
      "Silas": 4799,
      "pantaranipune": 4800,
      "Baale": 4801,
      "bendun": 4802,
      "minjulin": 4803,
      "malalung": 4804,
      "deweke": 4805,
      "nyuarayang": 4806,
      "nyiatin": 4807,
      "Abya": 4808,
      "tondene": 4809,
      "mpehang": 4810,
      "kasemaran": 4811,
      "pondok": 4812,
      "kategul": 4813,
      "Ber": 4814,
      "titahang": 4815,
      "pangangone": 4816,
      "alap": 4817,
      "pamedale": 4818,
      "maija": 4819,
      "Epraime": 4820,
      "mrekak": 4821,
      "magegebug": 4822,
      "Gumine": 4823,
      "nglelana": 4824,
      "Maliha": 4825,
      "gustinne": 4826,
      "Esra": 4827,
      "nyangsarain": 4828,
      "tetuladan": 4829,
      "makuug": 4830,
      "Jagate": 4831,
      "Menawita": 4832,
      "Hilkia": 4833,
      "Timotius": 4834,
      "Amaleke": 4835,
      "Kor": 4836,
      "Nini": 4837,
      "Sinah": 4838,
      "Tang": 4839,
      "Usi": 4840,
      "aane": 4841,
      "ede": 4842,
      "has": 4843,
      "iur": 4844,
      "imeseh": 4845,
      "kun": 4846,
      "kunggahang": 4847,
      "pungg": 4848,
      "uane": 4849,
      "anang": 4850,
      "kabu": 4851,
      "kadol": 4852,
      "kamulian": 4853,
      "ingone": 4854,
      "enahang": 4855,
      "damuh": 4856,
      "mawan": 4857,
      "tisang": 4858,
      "ripun": 4859,
      "rius": 4860,
      "temurun": 4861,
      "limolas": 4862,
      "bur": 4863,
      "buduh": 4864,
      "bulane": 4865,
      "buruh": 4866,
      "sera": 4867,
      "misuh": 4868,
      "mirib": 4869,
      "baane": 4870,
      "bagan": 4871,
      "baret": 4872,
      "mecikang": 4873,
      "simpang": 4874,
      "leli": 4875,
      "Wiadin": 4876,
      "delin": 4877,
      "watan": 4878,
      "beke": 4879,
      "bebasang": 4880,
      "pramangkin": 4881,
      "ngandeg": 4882,
      "parabangsa": 4883,
      "sangket": 4884,
      "ngeje": 4885,
      "bogan": 4886,
      "rauhing": 4887,
      "roda": 4888,
      "malihipun": 4889,
      "kanggon": 4890,
      "pujija": 4891,
      "yanin": 4892,
      "adat": 4893,
      "Malahan": 4894,
      "Kai": 4895,
      "merdeka": 4896,
      "mbut": 4897,
      "Becikan": 4898,
      "Tegarang": 4899,
      "mbek": 4900,
      "Depang": 4901,
      "Tanah": 4902,
      "Abisai": 4903,
      "jinahe": 4904,
      "Tusingja": 4905,
      "alinja": 4906,
      "laksananipune": 4907,
      "Asap": 4908,
      "kawicaksanane": 4909,
      "raosne": 4910,
      "Gileade": 4911,
      "tekep": 4912,
      "jelanane": 4913,
      "panganggennyane": 4914,
      "kadanda": 4915,
      "mlajahin": 4916,
      "bibite": 4917,
      "pisagan": 4918,
      "ingidang": 4919,
      "Kiryat": 4920,
      "nirmala": 4921,
      "Gerson": 4922,
      "ngramalang": 4923,
      "propinsi": 4924,
      "Tingalinja": 4925,
      "sangsarane": 4926,
      "sumangsaya": 4927,
      "panugrahan": 4928,
      "Nasaret": 4929,
      "50": 4930,
      "Aturipune": 4931,
      "Biang": 4932,
      "Dina": 4933,
      "Lug": 4934,
      "Men": 4935,
      "Maku": 4936,
      "etan": 4937,
      "he": 4938,
      "line": 4939,
      "nlektekang": 4940,
      "penting": 4941,
      "rga": 4942,
      "slae": 4943,
      "upon": 4944,
      "anane": 4945,
      "anting": 4946,
      "anom": 4947,
      "kac": 4948,
      "kalah": 4949,
      "kabanggayang": 4950,
      "kasungsung": 4951,
      "endag": 4952,
      "dab": 4953,
      "daun": 4954,
      "tuan": 4955,
      "maweweh": 4956,
      "inane": 4957,
      "pawi": 4958,
      "paru": 4959,
      "pategalane": 4960,
      "tio": 4961,
      "tihan": 4962,
      "tenga": 4963,
      "tetandur": 4964,
      "jalane": 4965,
      "lid": 4966,
      "asain": 4967,
      "baduur": 4968,
      "mete": 4969,
      "galan": 4970,
      "nyingidang": 4971,
      "sipi": 4972,
      "gison": 4973,
      "peplajah": 4974,
      "gego": 4975,
      "gegison": 4976,
      "Sapunapike": 4977,
      "paraprajurit": 4978,
      "manuk": 4979,
      "rengkeng": 4980,
      "tanggu": 4981,
      "ngetut": 4982,
      "nyaine": 4983,
      "langang": 4984,
      "nguasain": 4985,
      "mobot": 4986,
      "pangawal": 4987,
      "Maaka": 4988,
      "mpak": 4989,
      "tungkede": 4990,
      "Suud": 4991,
      "Kades": 4992,
      "rainja": 4993,
      "kurung": 4994,
      "lemek": 4995,
      "Diah": 4996,
      "tetelu": 4997,
      "ngor": 4998,
      "matianga": 4999,
      "mayus": 5000,
      "ninggal": 5001,
      "Depangja": 5002,
      "bapannyane": 5003,
      "kasunat": 5004,
      "matatu": 5005,
      "getihe": 5006,
      "setrane": 5007,
      "orahanga": 5008,
      "Benjangipun": 5009,
      "juhin": 5010,
      "dijaja": 5011,
      "Gibeon": 5012,
      "sundele": 5013,
      "paraprakanggene": 5014,
      "Musuh": 5015,
      "nanem": 5016,
      "karusakan": 5017,
      "Sabdan": 5018,
      "Tengah": 5019,
      "kapok": 5020,
      "tetabuhan": 5021,
      "Lugrainja": 5022,
      "Makudang": 5023,
      "Obed": 5024,
      "Singgih": 5025,
      "curin": 5026,
      "june": 5027,
      "ngneng": 5028,
      "kapara": 5029,
      "kacingak": 5030,
      "sakewanten": 5031,
      "rasayang": 5032,
      "dakin": 5033,
      "inang": 5034,
      "patin": 5035,
      "pabre": 5036,
      "rig": 5037,
      "teteken": 5038,
      "lai": 5039,
      "labda": 5040,
      "lawat": 5041,
      "busu": 5042,
      "kija": 5043,
      "sekar": 5044,
      "sekreta": 5045,
      "miik": 5046,
      "sukin": 5047,
      "sihan": 5048,
      "sipta": 5049,
      "uhang": 5050,
      "nengke": 5051,
      "ngamp": 5052,
      "ngaenang": 5053,
      "muri": 5054,
      "duan": 5055,
      "pangkeng": 5056,
      "panglipur": 5057,
      "kus": 5058,
      "pejang": 5059,
      "geden": 5060,
      "Parana": 5061,
      "luang": 5062,
      "utinja": 5063,
      "Rauh": 5064,
      "Yepta": 5065,
      "manjak": 5066,
      "ngejang": 5067,
      "ngetep": 5068,
      "dor": 5069,
      "gugu": 5070,
      "rombong": 5071,
      "arang": 5072,
      "nangingke": 5073,
      "ngitungang": 5074,
      "Setan": 5075,
      "Antuk": 5076,
      "nganginang": 5077,
      "ambe": 5078,
      "Bae": 5079,
      "undul": 5080,
      "menara": 5081,
      "mendep": 5082,
      "mras": 5083,
      "saren": 5084,
      "uripe": 5085,
      "Tumuli": 5086,
      "Parasisian": 5087,
      "mesehnyane": 5088,
      "Nao": 5089,
      "nyimpen": 5090,
      "merluang": 5091,
      "baktija": 5092,
      "mbus": 5093,
      "ngrampok": 5094,
      "kasedihan": 5095,
      "got": 5096,
      "sesaman": 5097,
      "lukuh": 5098,
      "agungan": 5099,
      "ngwarahang": 5100,
      "kordene": 5101,
      "Orta": 5102,
      "nilarin": 5103,
      "nyenke": 5104,
      "sawitra": 5105,
      "akasia": 5106,
      "singasana": 5107,
      "makisi": 5108,
      "nyeleg": 5109,
      "nungkasin": 5110,
      "dewannyane": 5111,
      "linggahipun": 5112,
      "sundel": 5113,
      "adegan": 5114,
      "palawatan": 5115,
      "mapangkeng": 5116,
      "sanjatan": 5117,
      "biase": 5118,
      "arcannyane": 5119,
      "ngambel": 5120,
      "sapariindik": 5121,
      "Makejang": 5122,
      "Hananya": 5123,
      "Mangda": 5124,
      "Boyaja": 5125,
      "kawanenan": 5126,
      "sumebar": 5127,
      "kadursilan": 5128,
      "Pinehas": 5129,
      "dugdugan": 5130,
      "Abyatar": 5131,
      "punggung": 5132,
      "kabuatan": 5133,
      "pabresihan": 5134,
      "sekretaris": 5135,
      "nengkej": 5136,
      ",’": 5137,
      "Hada": 5138,
      "Lasa": 5139,
      "Tin": 5140,
      "Yabe": 5141,
      "Yit": 5142,
      "abana": 5143,
      "gahang": 5144,
      "tragi": 5145,
      "uki": 5146,
      "udang": 5147,
      "ubuhane": 5148,
      "rayang": 5149,
      "tuli": 5150,
      "tumi": 5151,
      "tugas": 5152,
      "makanti": 5153,
      "masehin": 5154,
      "paji": 5155,
      "pamedal": 5156,
      "dihang": 5157,
      "tawa": 5158,
      "tamane": 5159,
      "ribu": 5160,
      "ririh": 5161,
      "teja": 5162,
      "kis": 5163,
      "midep": 5164,
      "sumu": 5165,
      "suratang": 5166,
      "sulinggih": 5167,
      "leg": 5168,
      "legi": 5169,
      "kelihan": 5170,
      "ngatehang": 5171,
      "mut": 5172,
      "desannyane": 5173,
      "wate": 5174,
      "beda": 5175,
      "beling": 5176,
      "berag": 5177,
      "lihja": 5178,
      "Paundu": 5179,
      "pradene": 5180,
      "utangja": 5181,
      "Salum": 5182,
      "cacah": 5183,
      "ngandelang": 5184,
      "parapamrentah": 5185,
      "sangang": 5186,
      "indih": 5187,
      "ngedotang": 5188,
      "ngebag": 5189,
      "tundun": 5190,
      "bog": 5191,
      "bor": 5192,
      "nyadelin": 5193,
      "makaukud": 5194,
      "artin": 5195,
      "nguluk": 5196,
      "lodang": 5197,
      "ngidepang": 5198,
      "linuh": 5199,
      "Mesu": 5200,
      "nuluh": 5201,
      "nulad": 5202,
      "ajebos": 5203,
      "lempung": 5204,
      "Mati": 5205,
      "Sisera": 5206,
      "pingkalih": 5207,
      "Bapa": 5208,
      "mendem": 5209,
      "soca": 5210,
      "kayunin": 5211,
      "Surat": 5212,
      "masingi": 5213,
      "sisia": 5214,
      "Kain": 5215,
      "Paraputran": 5216,
      "Bukit": 5217,
      "nangiang": 5218,
      "rbeang": 5219,
      "Bangun": 5220,
      "sinar": 5221,
      "Indik": 5222,
      "semengane": 5223,
      "ketket": 5224,
      "Rahina": 5225,
      "Taler": 5226,
      "luputangja": 5227,
      "kawehin": 5228,
      "kawacen": 5229,
      "cerike": 5230,
      "gustin": 5231,
      "kranjang": 5232,
      "senapati": 5233,
      "nyangsaren": 5234,
      "nyambeh": 5235,
      "abuku": 5236,
      "kabinawan": 5237,
      "sesangi": 5238,
      "encenke": 5239,
      "pirengang": 5240,
      "ruron": 5241,
      "sambeh": 5242,
      "pakantenanipun": 5243,
      "Baruk": 5244,
      "Laksanayangja": 5245,
      "edengang": 5246,
      "pawisik": 5247,
      "ngortiang": 5248,
      "Naomi": 5249,
      "tumiba": 5250,
      "masingidan": 5251,
      "Ak": 5252,
      "Durung": 5253,
      "Hana": 5254,
      "Hiram": 5255,
      "Lang": 5256,
      "Ny": 5257,
      "Pon": 5258,
      "Sur": 5259,
      "Yan": 5260,
      "asu": 5261,
      "amati": 5262,
      "agem": 5263,
      "duru": 5264,
      "ha": 5265,
      "hud": 5266,
      "icening": 5267,
      "jri": 5268,
      "nat": 5269,
      "ombak": 5270,
      "ple": 5271,
      "ryan": 5272,
      "ngru": 5273,
      "karep": 5274,
      "kalane": 5275,
      "katon": 5276,
      "sakiwa": 5277,
      "sabuk": 5278,
      "raman": 5279,
      "tuyuh": 5280,
      "teda": 5281,
      "jam": 5282,
      "buse": 5283,
      "sepang": 5284,
      "sedeng": 5285,
      "susu": 5286,
      "sukane": 5287,
      "bagus": 5288,
      "gala": 5289,
      "gare": 5290,
      "reg": 5291,
      "legan": 5292,
      "nepen": 5293,
      "watin": 5294,
      "gelas": 5295,
      "lukin": 5296,
      "pragat": 5297,
      "inem": 5298,
      "Sapunika": 5299,
      "naen": 5300,
      "wer": 5301,
      "wegang": 5302,
      "sangi": 5303,
      "rodane": 5304,
      "danune": 5305,
      "loba": 5306,
      "laksanane": 5307,
      "lintihan": 5308,
      "masayuban": 5309,
      "makemah": 5310,
      "lembu": 5311,
      "tendas": 5312,
      "wastra": 5313,
      "laksanayanga": 5314,
      "Kaja": 5315,
      "arase": 5316,
      "kanehang": 5317,
      "rahayuangja": 5318,
      "Naaman": 5319,
      "kawiryan": 5320,
      "Didinane": 5321,
      "mpeh": 5322,
      "ngrajegang": 5323,
      "pasisin": 5324,
      "kasasar": 5325,
      "saitune": 5326,
      "ngresepang": 5327,
      "ingonnyane": 5328,
      "kalugrain": 5329,
      "masesangi": 5330,
      "mrepat": 5331,
      "kajarah": 5332,
      "mareren": 5333,
      "panemayane": 5334,
      "sadurunge": 5335,
      "munyi": 5336,
      "Bil": 5337,
      "pakemahannyane": 5338,
      "isinin": 5339,
      "sampih": 5340,
      "kapastikayang": 5341,
      "rungu": 5342,
      "tamiune": 5343,
      "nakenang": 5344,
      "Yerikone": 5345,
      "Persia": 5346,
      "ngingsirang": 5347,
      "Banggayangja": 5348,
      "kuburan": 5349,
      "malunan": 5350,
      "polos": 5351,
      "Luihangja": 5352,
      "kilometer": 5353,
      "Berseba": 5354,
      "Baesa": 5355,
      "nengkejutang": 5356,
      "ribute": 5357,
      "sumuyud": 5358,
      "Mesulam": 5359,
      "Hose": 5360,
      "Krana": 5361,
      "Lo": 5362,
      "Lib": 5363,
      "Og": 5364,
      "aung": 5365,
      "awengi": 5366,
      "ambun": 5367,
      "bya": 5368,
      "gur": 5369,
      "gurune": 5370,
      "odah": 5371,
      "andelang": 5372,
      "ngwi": 5373,
      "kai": 5374,
      "kaso": 5375,
      "kalen": 5376,
      "kawaliang": 5377,
      "kakeniang": 5378,
      "kabecikang": 5379,
      "sakayang": 5380,
      "darane": 5381,
      "dapetang": 5382,
      "tugu": 5383,
      "mau": 5384,
      "mapangangge": 5385,
      "mawarna": 5386,
      "pakan": 5387,
      "pait": 5388,
      "pagaen": 5389,
      "didinane": 5390,
      "tibakang": 5391,
      "aktinipun": 5392,
      "tepuk": 5393,
      "tetimbangan": 5394,
      "lidang": 5395,
      "laman": 5396,
      "sepi": 5397,
      "balang": 5398,
      "balange": 5399,
      "gambar": 5400,
      "reang": 5401,
      "kemo": 5402,
      "tandangin": 5403,
      "antungang": 5404,
      "yasin": 5405,
      "kulah": 5406,
      "pepin": 5407,
      "geli": 5408,
      "Sapanyeneng": 5409,
      "nganti": 5410,
      "ngantiang": 5411,
      "parawadua": 5412,
      "weruh": 5413,
      "tangkah": 5414,
      "ngelung": 5415,
      "ngelodang": 5416,
      "canan": 5417,
      "canayang": 5418,
      "dohang": 5419,
      "dogo": 5420,
      "boto": 5421,
      "nyaluk": 5422,
      "lokane": 5423,
      "Darius": 5424,
      "icain": 5425,
      "aturannyane": 5426,
      "nyerah": 5427,
      "Sisan": 5428,
      "mapakantenang": 5429,
      "malasang": 5430,
      "Parawong": 5431,
      "kapaksa": 5432,
      "kapayasin": 5433,
      "Nabine": 5434,
      "Nabal": 5435,
      "uripnyane": 5436,
      "kaden": 5437,
      "nglukat": 5438,
      "mpes": 5439,
      "pamimpinnyane": 5440,
      "panyos": 5441,
      "malinge": 5442,
      "renaja": 5443,
      "Hewi": 5444,
      "Tembok": 5445,
      "mapiguman": 5446,
      "nongosin": 5447,
      "Kores": 5448,
      "Ahia": 5449,
      "pepinehnyane": 5450,
      "elingangja": 5451,
      "prentahe": 5452,
      "paranabin": 5453,
      "nyamanipune": 5454,
      "nganengneng": 5455,
      "manian": 5456,
      "Asdo": 5457,
      "kaputusan": 5458,
      "nyelehin": 5459,
      "nungkul": 5460,
      "blabare": 5461,
      "paderbeannyane": 5462,
      "matingkah": 5463,
      "ipiane": 5464,
      "Makedonia": 5465,
      "ramalan": 5466,
      "agengan": 5467,
      "kaweruhan": 5468,
      "kaperluan": 5469,
      "sudagare": 5470,
      "palelintihan": 5471,
      "Cingakinja": 5472,
      "pangindrajala": 5473,
      "Ajakja": 5474,
      "ecanin": 5475,
      "daptar": 5476,
      "Kawicaksanane": 5477,
      "Tinutinja": 5478,
      "plekutus": 5479,
      "Hosea": 5480,
      "12": 5481,
      "Amasa": 5482,
      "Ambun": 5483,
      "Elam": 5484,
      "Hen": 5485,
      "Mula": 5486,
      "arah": 5487,
      "aug": 5488,
      "blu": 5489,
      "gri": 5490,
      "genten": 5491,
      "idih": 5492,
      "lya": 5493,
      "pong": 5494,
      "ujane": 5495,
      "yong": 5496,
      "angken": 5497,
      "kale": 5498,
      "katin": 5499,
      "kapanggihin": 5500,
      "kaadakang": 5501,
      "kapunduhang": 5502,
      "unnyane": 5503,
      "sal": 5504,
      "sawewidangan": 5505,
      "sapatutipun": 5506,
      "satondene": 5507,
      "maparab": 5508,
      "maroang": 5509,
      "mambek": 5510,
      "mampeh": 5511,
      "papega": 5512,
      "taune": 5513,
      "tepan": 5514,
      "lat": 5515,
      "lacur": 5516,
      "sumi": 5517,
      "baja": 5518,
      "babel": 5519,
      "melan": 5520,
      "gase": 5521,
      "rereh": 5522,
      "siring": 5523,
      "kana": 5524,
      "kanis": 5525,
      "lega": 5526,
      "kete": 5527,
      "kengin": 5528,
      "kerug": 5529,
      "keweh": 5530,
      "kelangan": 5531,
      "ngaler": 5532,
      "ngaput": 5533,
      "ngauhang": 5534,
      "delima": 5535,
      "betang": 5536,
      "bedauh": 5537,
      "bedogo": 5538,
      "pekang": 5539,
      "gelar": 5540,
      "prabote": 5541,
      "Sato": 5542,
      "Samalihipun": 5543,
      "nauhin": 5544,
      "saksin": 5545,
      "rahajeng": 5546,
      "parakaturunan": 5547,
      "paraprakangge": 5548,
      "Yebuse": 5549,
      "werin": 5550,
      "manyi": 5551,
      "tekening": 5552,
      "ngereh": 5553,
      "ngeco": 5554,
      "akehan": 5555,
      "yusa": 5556,
      "yusan": 5557,
      "canggah": 5558,
      "rauhnya": 5559,
      "Tiruse": 5560,
      "makayun": 5561,
      "arga": 5562,
      "langgan": 5563,
      "pinun": 5564,
      "Daging": 5565,
      "mbake": 5566,
      "baosnyane": 5567,
      "Seraya": 5568,
      "Mepi": 5569,
      "nuek": 5570,
      "Dugase": 5571,
      "Antio": 5572,
      "ngangkat": 5573,
      "tanahnyane": 5574,
      "tanahipune": 5575,
      "ampura": 5576,
      "amonto": 5577,
      "pingi": 5578,
      "mapas": 5579,
      "mpakang": 5580,
      "katureksain": 5581,
      "ajengane": 5582,
      "pasare": 5583,
      "alitan": 5584,
      "panye": 5585,
      "katemu": 5586,
      "sesaka": 5587,
      "kasub": 5588,
      "kasumbungan": 5589,
      "Putri": 5590,
      "mategen": 5591,
      "wanen": 5592,
      "Manah": 5593,
      "ngliwatin": 5594,
      "ngwarah": 5595,
      "temboknyane": 5596,
      "sendi": 5597,
      "dedaarane": 5598,
      "perange": 5599,
      "canen": 5600,
      "carangne": 5601,
      "nglinggahang": 5602,
      "murni": 5603,
      "ngetohang": 5604,
      "ngamecikang": 5605,
      "magentos": 5606,
      "Goli": 5607,
      "Gomo": 5608,
      "Sinaine": 5609,
      "Amalek": 5610,
      "kapentang": 5611,
      "prawirane": 5612,
      "wewangunan": 5613,
      "kacawisang": 5614,
      "panyimpenan": 5615,
      "pisaga": 5616,
      "Karmel": 5617,
      "aseya": 5618,
      "Serubabel": 5619,
      "Makir": 5620,
      "lengek": 5621,
      "Parekan": 5622,
      "ambune": 5623,
      "Sajawining": 5624,
      "panegenane": 5625,
      "entikan": 5626,
      "kaparabin": 5627,
      "ngampung": 5628,
      "murid": 5629,
      "Paranabine": 5630,
      "Hadade": 5631,
      "Nyida": 5632,
      "papegatan": 5633,
      "ngalerang": 5634,
      "Antiokia": 5635,
      ",”": 5636,
      "Cai": 5637,
      "Ek": 5638,
      "Isebel": 5639,
      "Iwasinja": 5640,
      "Ngen": 5641,
      "Oh": 5642,
      "alun": 5643,
      "apin": 5644,
      "alon": 5645,
      "imaluan": 5646,
      "klukuh": 5647,
      "rtan": 5648,
      "uluk": 5649,
      "ukir": 5650,
      "ngliang": 5651,
      "sacara": 5652,
      "sawewengkon": 5653,
      "rayun": 5654,
      "raab": 5655,
      "tul": 5656,
      "maguna": 5657,
      "mapesta": 5658,
      "pasukane": 5659,
      "diayang": 5660,
      "ahin": 5661,
      "yangke": 5662,
      "tema": 5663,
      "megat": 5664,
      "gaena": 5665,
      "gail": 5666,
      "kebang": 5667,
      "ngado": 5668,
      "ngaras": 5669,
      "mulang": 5670,
      "muunang": 5671,
      "desane": 5672,
      "wahyune": 5673,
      "lunyuhin": 5674,
      "bedah": 5675,
      "antungan": 5676,
      "pekel": 5677,
      "get": 5678,
      "Sawusan": 5679,
      "sakane": 5680,
      "tusang": 5681,
      "ongane": 5682,
      "Rabin": 5683,
      "Ramot": 5684,
      "ngedum": 5685,
      "dolar": 5686,
      "boyake": 5687,
      "guleme": 5688,
      "aturin": 5689,
      "marya": 5690,
      "margane": 5691,
      "kinkin": 5692,
      "nguripang": 5693,
      "Peres": 5694,
      "Pekah": 5695,
      "pangampura": 5696,
      "Yoel": 5697,
      "luiripun": 5698,
      "makewehin": 5699,
      "ajengang": 5700,
      "Maaseya": 5701,
      "Batu": 5702,
      "Baangja": 5703,
      "mencanen": 5704,
      "masmi": 5705,
      "apahan": 5706,
      "mpy": 5707,
      "nyuecanin": 5708,
      "patlikur": 5709,
      "cenik": 5710,
      "asipune": 5711,
      "gompy": 5712,
      "umahipune": 5713,
      "pangantene": 5714,
      "tegesipun": 5715,
      "tresnane": 5716,
      "sayangang": 5717,
      "Pasauripune": 5718,
      "upacarane": 5719,
      "Haran": 5720,
      "Hagar": 5721,
      "musuhnyane": 5722,
      "sangsarain": 5723,
      "suargane": 5724,
      "tunggilan": 5725,
      "kapracayannyane": 5726,
      "Abigail": 5727,
      "nurunang": 5728,
      "mresihin": 5729,
      "getihnyane": 5730,
      "Amori": 5731,
      "tegehipun": 5732,
      "buahne": 5733,
      "kapangkeng": 5734,
      "panjangipun": 5735,
      "makirig": 5736,
      "Adam": 5737,
      "dongja": 5738,
      "panemayannyane": 5739,
      "Mikal": 5740,
      "Elkana": 5741,
      "Unduk": 5742,
      "tlapakan": 5743,
      "kawitnyane": 5744,
      "kasucian": 5745,
      "pangadilane": 5746,
      "sasajaan": 5747,
      "nekep": 5748,
      "telulas": 5749,
      "Sarai": 5750,
      "sasarengan": 5751,
      "pestan": 5752,
      "Pituduh": 5753,
      "maluna": 5754,
      "pangargan": 5755,
      "mabelok": 5756,
      "rohani": 5757,
      "wakil": 5758,
      "maekin": 5759,
      "Yoahas": 5760,
      "tatakan": 5761,
      "seneb": 5762,
      "ingetangja": 5763,
      "mawanan": 5764,
      "tetanduran": 5765,
      "gegodan": 5766,
      "Lasarus": 5767,
      "jrijin": 5768,
      "tepukina": 5769,
      "kanistan": 5770,
      "pinunasipune": 5771,
      "Hadadeser": 5772,
      "Nyidayangke": 5773,
      "Ngeniang": 5774,
      "Ad": 5775,
      "Ami": 5776,
      "Aram": 5777,
      "Bel": 5778,
      "Epe": 5779,
      "Nun": 5780,
      "Nadab": 5781,
      "Oka": 5782,
      "Orahin": 5783,
      "Pat": 5784,
      "Sira": 5785,
      "Stepan": 5786,
      "Tongos": 5787,
      "Urip": 5788,
      "asue": 5789,
      "abidang": 5790,
      "edotang": 5791,
      "mong": 5792,
      "oah": 5793,
      "oli": 5794,
      "puru": 5795,
      "utan": 5796,
      "upang": 5797,
      "uugan": 5798,
      "kaman": 5799,
      "kareh": 5800,
      "katanem": 5801,
      "entungang": 5802,
      "ratan": 5803,
      "rambut": 5804,
      "mayang": 5805,
      "maken": 5806,
      "magen": 5807,
      "mamati": 5808,
      "macu": 5809,
      "makurenan": 5810,
      "patur": 5811,
      "paca": 5812,
      "rimi": 5813,
      "tebel": 5814,
      "jarane": 5815,
      "jamuan": 5816,
      "bungan": 5817,
      "bugan": 5818,
      "mis": 5819,
      "miu": 5820,
      "bale": 5821,
      "balian": 5822,
      "gam": 5823,
      "gadang": 5824,
      "leket": 5825,
      "leleh": 5826,
      "kembasang": 5827,
      "nege": 5828,
      "piduka": 5829,
      "wadon": 5830,
      "gilang": 5831,
      "gigin": 5832,
      "wisesa": 5833,
      "wimuda": 5834,
      "bebendun": 5835,
      "lihin": 5836,
      "kuasan": 5837,
      "peda": 5838,
      "perot": 5839,
      "panji": 5840,
      "jekan": 5841,
      "Salah": 5842,
      "kori": 5843,
      "biane": 5844,
      "buatang": 5845,
      "paraistri": 5846,
      "Yea": 5847,
      "wekasan": 5848,
      "mana": 5849,
      "manju": 5850,
      "ngelus": 5851,
      "ngewerin": 5852,
      "done": 5853,
      "Tim": 5854,
      "gulem": 5855,
      "gumen": 5856,
      "pinin": 5857,
      "pinaki": 5858,
      "nulengek": 5859,
      "Bates": 5860,
      "mapakibeh": 5861,
      "Susan": 5862,
      "Sudan": 5863,
      "panebus": 5864,
      "Parapandita": 5865,
      "patindih": 5866,
      "dingin": 5867,
      "Dija": 5868,
      "kasegerang": 5869,
      "ingakan": 5870,
      "dunin": 5871,
      "Pangadi": 5872,
      "Gera": 5873,
      "Her": 5874,
      "Toyane": 5875,
      "ngadep": 5876,
      "pascad": 5877,
      "Manas": 5878,
      "Manusane": 5879,
      "korma": 5880,
      "Pulo": 5881,
      "Nahas": 5882,
      "Aturane": 5883,
      "amunapa": 5884,
      "kamedalang": 5885,
      "Asael": 5886,
      "limannyane": 5887,
      "limanipune": 5888,
      "ibanne": 5889,
      "nyelekang": 5890,
      "bangunja": 5891,
      "gargi": 5892,
      "Elya": 5893,
      "awakne": 5894,
      "sabehe": 5895,
      "linggahnyane": 5896,
      "Barang": 5897,
      "Roti": 5898,
      "indria": 5899,
      "tlagane": 5900,
      "Midian": 5901,
      "karyanang": 5902,
      "klebutane": 5903,
      "Aserane": 5904,
      "Damsike": 5905,
      "pangidih": 5906,
      "tawanga": 5907,
      "pagelahan": 5908,
      "sadagingipun": 5909,
      "icena": 5910,
      "Hasael": 5911,
      "nembelas": 5912,
      "sarea": 5913,
      "garudane": 5914,
      "Pinunas": 5915,
      "mabra": 5916,
      "Yunani": 5917,
      "Kaisarea": 5918,
      "makisid": 5919,
      "ukiran": 5920,
      "Bangunja": 5921,
      "legandang": 5922,
      "katindes": 5923,
      "melanin": 5924,
      "langgana": 5925,
      "Mepiboset": 5926,
      "rayunane": 5927,
      "ngadokang": 5928,
      "Epesus": 5929,
      "kamanusan": 5930,
      "gumendah": 5931,
      "Aka": 5932,
      "Aro": 5933,
      "Akabe": 5934,
      "Bene": 5935,
      "Geh": 5936,
      "Husa": 5937,
      "Ita": 5938,
      "Obaja": 5939,
      "Sen": 5940,
      "Tri": 5941,
      "dreng": 5942,
      "er": 5943,
      "ele": 5944,
      "eduman": 5945,
      "iparekan": 5946,
      "ipidan": 5947,
      "ming": 5948,
      "rya": 5949,
      "stus": 5950,
      "sraya": 5951,
      "sruron": 5952,
      "nglurug": 5953,
      "angarab": 5954,
      "kakurung": 5955,
      "saleel": 5956,
      "rai": 5957,
      "dat": 5958,
      "dawa": 5959,
      "maca": 5960,
      "madur": 5961,
      "mawuwuh": 5962,
      "makinkin": 5963,
      "yangang": 5964,
      "rihan": 5965,
      "ribut": 5966,
      "layang": 5967,
      "sem": 5968,
      "suksma": 5969,
      "baa": 5970,
      "baran": 5971,
      "bales": 5972,
      "meh": 5973,
      "galih": 5974,
      "nyle": 5975,
      "nyong": 5976,
      "rerin": 5977,
      "kepala": 5978,
      "pise": 5979,
      "ngaud": 5980,
      "mukang": 5981,
      "mutusang": 5982,
      "entana": 5983,
      "tana": 5984,
      "bete": 5985,
      "belah": 5986,
      "bekel": 5987,
      "berek": 5988,
      "kuugan": 5989,
      "Pati": 5990,
      "lukat": 5991,
      "mangkihan": 5992,
      "rahayun": 5993,
      "paraanake": 5994,
      "Rare": 5995,
      "Raos": 5996,
      "manjang": 5997,
      "ngeng": 5998,
      "ngega": 5999,
      "ngepung": 6000,
      "ngeret": 6001,
      "Tir": 6002,
      "nyatur": 6003,
      "aturanga": 6004,
      "pacangan": 6005,
      "jumun": 6006,
      "jujukang": 6007,
      "ngupa": 6008,
      "bukak": 6009,
      "lungsur": 6010,
      "nulu": 6011,
      "nuduk": 6012,
      "nyempal": 6013,
      "niwakang": 6014,
      "Mara": 6015,
      "mendakin": 6016,
      "sog": 6017,
      "ngenta": 6018,
      "ngence": 6019,
      "takenin": 6020,
      "mpo": 6021,
      "madeda": 6022,
      "resmi": 6023,
      "puran": 6024,
      "kuren": 6025,
      "kapilih": 6026,
      "mpet": 6027,
      "nyaksiang": 6028,
      "nyakupang": 6029,
      "masuara": 6030,
      "suennya": 6031,
      "Besaleel": 6032,
      "ningting": 6033,
      "upakara": 6034,
      "wewehin": 6035,
      "Kulawar": 6036,
      "Sakantun": 6037,
      "jahin": 6038,
      "agunge": 6039,
      "maiegan": 6040,
      "matuan": 6041,
      "prentahang": 6042,
      "Nahor": 6043,
      "pedange": 6044,
      "yubinja": 6045,
      "murka": 6046,
      "yuhan": 6047,
      "Gibeone": 6048,
      "mupuang": 6049,
      "Simri": 6050,
      "mapangarga": 6051,
      "tulunginja": 6052,
      "ptarang": 6053,
      "tamiang": 6054,
      "batisne": 6055,
      "basmi": 6056,
      "kageseng": 6057,
      "awig": 6058,
      "bongol": 6059,
      "Pany": 6060,
      "Libanone": 6061,
      "Lakis": 6062,
      "Amos": 6063,
      "jendela": 6064,
      "Kantos": 6065,
      "pangonane": 6066,
      "wangsit": 6067,
      "wangsitin": 6068,
      "katakutan": 6069,
      "tiganipun": 6070,
      "nyengkalen": 6071,
      "awai": 6072,
      "kabisan": 6073,
      "ngungkulang": 6074,
      "Niniwe": 6075,
      "peplajahan": 6076,
      "tragia": 6077,
      "temagane": 6078,
      "paturu": 6079,
      "Pangadilane": 6080,
      "Manasene": 6081,
      "Itamar": 6082,
      "madurgama": 6083,
      "nyongcong": 6084,
      "400": 6085,
      "Ata": 6086,
      "Bak": 6087,
      "Gasa": 6088,
      "Hor": 6089,
      "Icang": 6090,
      "Ibun": 6091,
      "Lan": 6092,
      "Masa": 6093,
      "Mada": 6094,
      "Tresna": 6095,
      "ajine": 6096,
      "denan": 6097,
      "grombo": 6098,
      "ibusan": 6099,
      "krun": 6100,
      "obag": 6101,
      "obagan": 6102,
      "puh": 6103,
      "ura": 6104,
      "utus": 6105,
      "uju": 6106,
      "kaonang": 6107,
      "kawentenang": 6108,
      "sawang": 6109,
      "samud": 6110,
      "raosang": 6111,
      "dalan": 6112,
      "mame": 6113,
      "mambahan": 6114,
      "matunggilan": 6115,
      "papu": 6116,
      "riel": 6117,
      "tele": 6118,
      "telun": 6119,
      "tegang": 6120,
      "liunan": 6121,
      "lampah": 6122,
      "latuh": 6123,
      "buanane": 6124,
      "bawan": 6125,
      "ungsi": 6126,
      "gai": 6127,
      "nyanan": 6128,
      "lesu": 6129,
      "keme": 6130,
      "kelem": 6131,
      "nerbeang": 6132,
      "sandal": 6133,
      "pipun": 6134,
      "ngala": 6135,
      "wasan": 6136,
      "wareg": 6137,
      "berat": 6138,
      "kenak": 6139,
      "kuri": 6140,
      "pepe": 6141,
      "cabul": 6142,
      "korine": 6143,
      "kolok": 6144,
      "semetonan": 6145,
      "parapangabih": 6146,
      "Yesua": 6147,
      "weros": 6148,
      "manteg": 6149,
      "ngepet": 6150,
      "tunjel": 6151,
      "Titiange": 6152,
      "wanin": 6153,
      "makapidanke": 6154,
      "maren": 6155,
      "pulone": 6156,
      "ganin": 6157,
      "Dados": 6158,
      "wangang": 6159,
      "jangkep": 6160,
      "nuutang": 6161,
      "nues": 6162,
      "makebi": 6163,
      "kaulane": 6164,
      "Sik": 6165,
      "waspada": 6166,
      "benyah": 6167,
      "sehane": 6168,
      "tunggak": 6169,
      "mbahang": 6170,
      "cek": 6171,
      "cepang": 6172,
      "cecanggah": 6173,
      "Parapangageng": 6174,
      "Paraprakanggene": 6175,
      "nyukur": 6176,
      "nyujuh": 6177,
      "kapage": 6178,
      "Leluur": 6179,
      "Pidukan": 6180,
      "maksian": 6181,
      "kasediaang": 6182,
      "laspas": 6183,
      "mboke": 6184,
      "kasatia": 6185,
      "pakeling": 6186,
      "tinutinja": 6187,
      "Hete": 6188,
      "dumunan": 6189,
      "krebek": 6190,
      "aksian": 6191,
      "pepinehipune": 6192,
      "matujuhin": 6193,
      "kasitengan": 6194,
      "nglancah": 6195,
      "Layon": 6196,
      "katibakang": 6197,
      "somahnyane": 6198,
      "nyamanne": 6199,
      "akatih": 6200,
      "anggotan": 6201,
      "tetegenannyane": 6202,
      "katunas": 6203,
      "katuntun": 6204,
      "katundung": 6205,
      "lehtehang": 6206,
      "masilihin": 6207,
      "ngamel": 6208,
      "malepuk": 6209,
      "indri": 6210,
      "nutugang": 6211,
      "Ahito": 6212,
      "ampehang": 6213,
      "sayahe": 6214,
      "Horon": 6215,
      "besine": 6216,
      "kawitnya": 6217,
      "nakenin": 6218,
      "kagebug": 6219,
      "Ahasweros": 6220,
      "makutang": 6221,
      "Hesron": 6222,
      "Sanhe": 6223,
      "Ibranine": 6224,
      "Singke": 6225,
      "kaprentahang": 6226,
      "Anatot": 6227,
      "Tundenja": 6228,
      "Prajurit": 6229,
      "Usiel": 6230,
      "busul": 6231,
      "Paundukane": 6232,
      "Pondok": 6233,
      "pepindan": 6234,
      "Henoh": 6235,
      "Stepanus": 6236,
      "manjus": 6237,
      "papuara": 6238,
      "Adi": 6239,
      "Aine": 6240,
      "Hadad": 6241,
      "Hasor": 6242,
      "Ja": 6243,
      "Mina": 6244,
      "Mugi": 6245,
      "Pen": 6246,
      "Tangan": 6247,
      "Umah": 6248,
      "Utusane": 6249,
      "ite": 6250,
      "itun": 6251,
      "mri": 6252,
      "mlegendahang": 6253,
      "nrak": 6254,
      "ombake": 6255,
      "usak": 6256,
      "yot": 6257,
      "ngreh": 6258,
      "nglungsur": 6259,
      "ngwangsitin": 6260,
      "angkeb": 6261,
      "kapon": 6262,
      "kakidung": 6263,
      "kasangsarain": 6264,
      "sapituduh": 6265,
      "saget": 6266,
      "rakang": 6267,
      "dara": 6268,
      "daana": 6269,
      "tume": 6270,
      "tuannyane": 6271,
      "majaga": 6272,
      "mamula": 6273,
      "par": 6274,
      "timpa": 6275,
      "tampak": 6276,
      "jalanang": 6277,
      "buuk": 6278,
      "kica": 6279,
      "asasih": 6280,
      "misun": 6281,
      "batun": 6282,
      "bayah": 6283,
      "nyakit": 6284,
      "sim": 6285,
      "silib": 6286,
      "kantin": 6287,
      "keras": 6288,
      "ngawa": 6289,
      "ngamastiang": 6290,
      "ngampehang": 6291,
      "ngampakang": 6292,
      "muane": 6293,
      "durian": 6294,
      "pangrauh": 6295,
      "pangweruh": 6296,
      "pangaksian": 6297,
      "becat": 6298,
      "gelem": 6299,
      "gegelan": 6300,
      "Paman": 6301,
      "Pateh": 6302,
      "panayang": 6303,
      "jeritan": 6304,
      "nabin": 6305,
      "naanang": 6306,
      "cabulan": 6307,
      "kok": 6308,
      "biasan": 6309,
      "bangke": 6310,
      "Yebus": 6311,
      "mandreng": 6312,
      "gihang": 6313,
      "ngedohang": 6314,
      "tuntun": 6315,
      "yuk": 6316,
      "cangkir": 6317,
      "nyarap": 6318,
      "makapatpat": 6319,
      "rongan": 6320,
      "langja": 6321,
      "pumahan": 6322,
      "pindo": 6323,
      "Peris": 6324,
      "mor": 6325,
      "ngidu": 6326,
      "Semes": 6327,
      "Yok": 6328,
      "rehning": 6329,
      "Dugas": 6330,
      "uningang": 6331,
      "Punyan": 6332,
      "Mag": 6333,
      "pinget": 6334,
      "Bapan": 6335,
      "ngenken": 6336,
      "Suko": 6337,
      "uripipune": 6338,
      "nandan": 6339,
      "uripne": 6340,
      "Kidung": 6341,
      "manahnyane": 6342,
      "kawitipun": 6343,
      "ngartiang": 6344,
      "Dijake": 6345,
      "Bulan": 6346,
      "ngraosang": 6347,
      "tegep": 6348,
      "Panga": 6349,
      "Tobia": 6350,
      "wewidangannyane": 6351,
      "musuhe": 6352,
      "cucun": 6353,
      "panakne": 6354,
      "kurenannyane": 6355,
      "minayang": 6356,
      "amunika": 6357,
      "sakuubing": 6358,
      "osek": 6359,
      "nginep": 6360,
      "trunane": 6361,
      "mabalih": 6362,
      "getingin": 6363,
      "kapangandikain": 6364,
      "panjangnyane": 6365,
      "tegangja": 6366,
      "tulange": 6367,
      "ayahan": 6368,
      "gumanti": 6369,
      "Ahimas": 6370,
      "mapupul": 6371,
      "ungkuran": 6372,
      "dumadakja": 6373,
      "blab": 6374,
      "salib": 6375,
      "Persiane": 6376,
      "Liu": 6377,
      "ngingetang": 6378,
      "gunanne": 6379,
      "lumlum": 6380,
      "nekepin": 6381,
      "Kawisesan": 6382,
      "Asera": 6383,
      "Arab": 6384,
      "ngisidang": 6385,
      "sudagar": 6386,
      "Masrana": 6387,
      "gehangja": 6388,
      "Batseba": 6389,
      "lelipi": 6390,
      "Yabes": 6391,
      "Yitro": 6392,
      "botol": 6393,
      "Asdod": 6394,
      "Goliat": 6395,
      "Timna": 6396,
      "Gehasi": 6397,
      "rerincikan": 6398,
      "ngupahin": 6399,
      "cecanggahan": 6400,
      "nrakane": 6401,
      "kicalan": 6402,
      "500": 6403,
      "60": 6404,
      "Ai": 6405,
      "Apanga": 6406,
      "Amra": 6407,
      "Asia": 6408,
      "Akis": 6409,
      "Bani": 6410,
      "Danu": 6411,
      "Ep": 6412,
      "Hur": 6413,
      "Ham": 6414,
      "Idewa": 6415,
      "Tam": 6416,
      "Usa": 6417,
      "ceh": 6418,
      "ekang": 6419,
      "embok": 6420,
      "hu": 6421,
      "ipianak": 6422,
      "ndika": 6423,
      "none": 6424,
      "nlehtehang": 6425,
      "poh": 6426,
      "runan": 6427,
      "rongane": 6428,
      "tent": 6429,
      "trunan": 6430,
      "ngunggahang": 6431,
      "anglurug": 6432,
      "katos": 6433,
      "kabungah": 6434,
      "unane": 6435,
      "untan": 6436,
      "sasar": 6437,
      "sasta": 6438,
      "dadane": 6439,
      "tutur": 6440,
      "tulak": 6441,
      "mape": 6442,
      "matane": 6443,
      "maug": 6444,
      "mabina": 6445,
      "mamare": 6446,
      "paba": 6447,
      "padane": 6448,
      "paran": 6449,
      "pamang": 6450,
      "palang": 6451,
      "pahan": 6452,
      "padingehang": 6453,
      "teto": 6454,
      "lidin": 6455,
      "kisi": 6456,
      "kilap": 6457,
      "kilape": 6458,
      "sesu": 6459,
      "selan": 6460,
      "seko": 6461,
      "segerang": 6462,
      "sukat": 6463,
      "sumpenan": 6464,
      "bawi": 6465,
      "memene": 6466,
      "ungu": 6467,
      "nyat": 6468,
      "resep": 6469,
      "sikut": 6470,
      "kanin": 6471,
      "lepra": 6472,
      "kebus": 6473,
      "nepang": 6474,
      "nedunin": 6475,
      "sanun": 6476,
      "piteket": 6477,
      "ngambe": 6478,
      "ngamig": 6479,
      "mua": 6480,
      "mule": 6481,
      "muatang": 6482,
      "waris": 6483,
      "watara": 6484,
      "wiro": 6485,
      "dui": 6486,
      "pangantungan": 6487,
      "kenang": 6488,
      "yama": 6489,
      "kuangan": 6490,
      "kuduan": 6491,
      "gegu": 6492,
      "jelek": 6493,
      "Sabda": 6494,
      "Sawatara": 6495,
      "naum": 6496,
      "parapanditan": 6497,
      "parasulinggih": 6498,
      "wecana": 6499,
      "dangja": 6500,
      "Pramangkin": 6501,
      "tangar": 6502,
      "astawa": 6503,
      "cangkem": 6504,
      "gumpang": 6505,
      "laksa": 6506,
      "tinja": 6507,
      "tinimbang": 6508,
      "mone": 6509,
      "wangi": 6510,
      "ngipi": 6511,
      "ngiwangang": 6512,
      "Sela": 6513,
      "pitulung": 6514,
      "masare": 6515,
      "tahsasta": 6516,
      "Sil": 6517,
      "Sidone": 6518,
      "Sikeme": 6519,
      "Barak": 6520,
      "mentas": 6521,
      "Kaping": 6522,
      "Kamanah": 6523,
      "Kaper": 6524,
      "Kasugih": 6525,
      "Paraleluur": 6526,
      "kapaid": 6527,
      "Pitung": 6528,
      "poleng": 6529,
      "pakarangan": 6530,
      "akime": 6531,
      "pracayaja": 6532,
      "asil": 6533,
      "Eliab": 6534,
      "masuk": 6535,
      "ibapa": 6536,
      "kasabatang": 6537,
      "saigum": 6538,
      "Panglukat": 6539,
      "melahang": 6540,
      "palingsehannyane": 6541,
      "Nebu": 6542,
      "sinahangja": 6543,
      "krebeke": 6544,
      "matedoh": 6545,
      "jaatane": 6546,
      "tawanane": 6547,
      "matutang": 6548,
      "Apaja": 6549,
      "Jadma": 6550,
      "kabriokang": 6551,
      "Laut": 6552,
      "sasihe": 6553,
      "minab": 6554,
      "katuju": 6555,
      "katulis": 6556,
      "katumbas": 6557,
      "bangsannyane": 6558,
      "nyamannyane": 6559,
      "limanne": 6560,
      "Rahab": 6561,
      "Yonadab": 6562,
      "kawarahang": 6563,
      "ngelingang": 6564,
      "kasugihannyane": 6565,
      "karampas": 6566,
      "Arnone": 6567,
      "Artahsasta": 6568,
      "manirane": 6569,
      "Rehu": 6570,
      "prabotnyane": 6571,
      "garba": 6572,
      "Ahimelek": 6573,
      "Galileane": 6574,
      "mrecapadane": 6575,
      "pamekelne": 6576,
      "Kehi": 6577,
      "utamana": 6578,
      "ngrangsukin": 6579,
      "nglemenahang": 6580,
      "ngurungang": 6581,
      "karirihan": 6582,
      "pasangke": 6583,
      "jenggot": 6584,
      "Seruya": 6585,
      "jendelane": 6586,
      "Jemak": 6587,
      "pangonan": 6588,
      "kecapi": 6589,
      "bakatanga": 6590,
      "menawita": 6591,
      "nylempoh": 6592,
      "Matanya": 6593,
      "brangti": 6594,
      "Kreta": 6595,
      "wetning": 6596,
      "mrastayang": 6597,
      "Yearim": 6598,
      "sogsag": 6599,
      "ngencegin": 6600,
      "samudrane": 6601,
      "Sanherib": 6602,
      "tentrem": 6603,
      "mamarekan": 6604,
      "ngambekang": 6605,
      "ngamigmig": 6606,
      "wirosa": 6607,
      "Kapernaum": 6608,
      "10": 6609,
      "Aya": 6610,
      "Adon": 6611,
      "Agri": 6612,
      "Dosan": 6613,
      "Gos": 6614,
      "Han": 6615,
      "Hasar": 6616,
      "Kam": 6617,
      "Mat": 6618,
      "Omri": 6619,
      "Tat": 6620,
      "abungkul": 6621,
      "abiane": 6622,
      "brin": 6623,
      "conto": 6624,
      "lki": 6625,
      "lselan": 6626,
      "rben": 6627,
      "sru": 6628,
      "srayang": 6629,
      "tni": 6630,
      "uy": 6631,
      "uyah": 6632,
      "wene": 6633,
      "angane": 6634,
      "kadum": 6635,
      "kakaryanang": 6636,
      "saput": 6637,
      "sapangandikan": 6638,
      "sawane": 6639,
      "sapakarsan": 6640,
      "raren": 6641,
      "rabine": 6642,
      "dad": 6643,
      "mapunyah": 6644,
      "mawecana": 6645,
      "pate": 6646,
      "painget": 6647,
      "padana": 6648,
      "didina": 6649,
      "rita": 6650,
      "terehan": 6651,
      "jaban": 6652,
      "lasang": 6653,
      "asapunapike": 6654,
      "ses": 6655,
      "sengan": 6656,
      "selem": 6657,
      "sebun": 6658,
      "bai": 6659,
      "babad": 6660,
      "meres": 6661,
      "kancing": 6662,
      "lebak": 6663,
      "keda": 6664,
      "kemin": 6665,
      "kedek": 6666,
      "nek": 6667,
      "ngajahin": 6668,
      "karan": 6669,
      "tanduke": 6670,
      "gigi": 6671,
      "gidat": 6672,
      "wiaktinipun": 6673,
      "dus": 6674,
      "panglemek": 6675,
      "berang": 6676,
      "besin": 6677,
      "pemb": 6678,
      "pepaya": 6679,
      "pepingi": 6680,
      "gerem": 6681,
      "pande": 6682,
      "Sapan": 6683,
      "nadak": 6684,
      "nameang": 6685,
      "rahane": 6686,
      "ngandik": 6687,
      "bangetan": 6688,
      "paraanak": 6689,
      "paragi": 6690,
      "paratukang": 6691,
      "paradewane": 6692,
      "parapajagaan": 6693,
      "wengin": 6694,
      "ruang": 6695,
      "Pracaya": 6696,
      "ngemu": 6697,
      "akep": 6698,
      "Isboset": 6699,
      "tunasang": 6700,
      "nyarah": 6701,
      "nyaratang": 6702,
      "nyampur": 6703,
      "kangge": 6704,
      "nguji": 6705,
      "putri": 6706,
      "Peda": 6707,
      "Pestus": 6708,
      "pangap": 6709,
      "ngiwa": 6710,
      "lungang": 6711,
      "tengang": 6712,
      "Yope": 6713,
      "raksa": 6714,
      "raksasa": 6715,
      "Melki": 6716,
      "makelid": 6717,
      "Anan": 6718,
      "amin": 6719,
      "tenung": 6720,
      "Baos": 6721,
      "ngenjuhang": 6722,
      "bende": 6723,
      "mpatang": 6724,
      "paderben": 6725,
      "witran": 6726,
      "tungkalikanipun": 6727,
      "sarin": 6728,
      "durin": 6729,
      "apasang": 6730,
      "mpena": 6731,
      "Kabeba": 6732,
      "Tuuh": 6733,
      "Tukang": 6734,
      "Paraprajurite": 6735,
      "Parautusane": 6736,
      "nyuudang": 6737,
      "singi": 6738,
      "resres": 6739,
      "mbusin": 6740,
      "pasaut": 6741,
      "gompes": 6742,
      "ukumane": 6743,
      "Elieser": 6744,
      "kasambe": 6745,
      "kasabaran": 6746,
      "tongosin": 6747,
      "jukung": 6748,
      "renyuh": 6749,
      "tegepipun": 6750,
      "Heman": 6751,
      "Tegal": 6752,
      "ratunnyane": 6753,
      "runyung": 6754,
      "sangsaya": 6755,
      "kaluen": 6756,
      "maid": 6757,
      "ngwaris": 6758,
      "panjakne": 6759,
      "maselselan": 6760,
      "dohipun": 6761,
      "kasimpen": 6762,
      "tresnainja": 6763,
      "katibenin": 6764,
      "mataanan": 6765,
      "kabelo": 6766,
      "parapamimpinnyane": 6767,
      "Mik": 6768,
      "Mirya": 6769,
      "atiban": 6770,
      "Taun": 6771,
      "nglelunyuhin": 6772,
      "mamuatang": 6773,
      "Mikael": 6774,
      "ngamengang": 6775,
      "gustinnyane": 6776,
      "saradan": 6777,
      "dedete": 6778,
      "senapatine": 6779,
      "tepunge": 6780,
      "matakeh": 6781,
      "tlaga": 6782,
      "tlabah": 6783,
      "kagetep": 6784,
      "nekedang": 6785,
      "nyoreang": 6786,
      "aget": 6787,
      "nomer": 6788,
      "kampidnyane": 6789,
      "rasanne": 6790,
      "tutug": 6791,
      "tututin": 6792,
      "lebangja": 6793,
      "Pitutur": 6794,
      "maguyang": 6795,
      "jaringe": 6796,
      "Makidung": 6797,
      "Parekane": 6798,
      "Margi": 6799,
      "nemberang": 6800,
      "rupanipun": 6801,
      "nylempang": 6802,
      "giliran": 6803,
      "ngejer": 6804,
      "paruman": 6805,
      "ampurayangja": 6806,
      "Gomorane": 6807,
      "Ekron": 6808,
      "Orahinja": 6809,
      "rimik": 6810,
      "pinakitipune": 6811,
      "Aroer": 6812,
      "kruna": 6813,
      "makebiar": 6814,
      "kasatiaan": 6815,
      "Ahitopel": 6816,
      "timpalipune": 6817,
      "misunayang": 6818,
      "pangweruhan": 6819,
      "Nebusaradan": 6820,
      "Agripa": 6821,
      "sruyung": 6822,
      "Miryam": 6823,
      "Aba": 6824,
      "Ampurayang": 6825,
      "Banteng": 6826,
      "Dib": 6827,
      "Eden": 6828,
      "Idewek": 6829,
      "No": 6830,
      "Nikayang": 6831,
      "Otni": 6832,
      "Pira": 6833,
      "Pis": 6834,
      "ame": 6835,
      "aas": 6836,
      "briokang": 6837,
      "cung": 6838,
      "gine": 6839,
      "grombong": 6840,
      "mungguh": 6841,
      "mpu": 6842,
      "mraga": 6843,
      "use": 6844,
      "anten": 6845,
      "ngake": 6846,
      "kasak": 6847,
      "kajujur": 6848,
      "kajuang": 6849,
      "unda": 6850,
      "sakulawargan": 6851,
      "sategepipun": 6852,
      "endih": 6853,
      "rasang": 6854,
      "rajan": 6855,
      "ragang": 6856,
      "maos": 6857,
      "mawak": 6858,
      "madune": 6859,
      "mamanjak": 6860,
      "parah": 6861,
      "pagunung": 6862,
      "palas": 6863,
      "papunduh": 6864,
      "pabayu": 6865,
      "dirga": 6866,
      "tisin": 6867,
      "tiel": 6868,
      "tatu": 6869,
      "taim": 6870,
      "risedek": 6871,
      "liangja": 6872,
      "laya": 6873,
      "lasin": 6874,
      "lait": 6875,
      "tonan": 6876,
      "suling": 6877,
      "bakat": 6878,
      "bawine": 6879,
      "meda": 6880,
      "tiangja": 6881,
      "rera": 6882,
      "remre": 6883,
      "sira": 6884,
      "sitengan": 6885,
      "kanambe": 6886,
      "nengk": 6887,
      "pipise": 6888,
      "ngage": 6889,
      "ngadan": 6890,
      "ngabut": 6891,
      "muat": 6892,
      "murang": 6893,
      "warisan": 6894,
      "wila": 6895,
      "duura": 6896,
      "kenin": 6897,
      "gebogan": 6898,
      "gedenan": 6899,
      "Pamorboran": 6900,
      "Pamargin": 6901,
      "lukang": 6902,
      "prade": 6903,
      "Sami": 6904,
      "Sayan": 6905,
      "nasir": 6906,
      "nawengin": 6907,
      "cacak": 6908,
      "cacad": 6909,
      "parajuru": 6910,
      "nget": 6911,
      "ngebah": 6912,
      "Isin": 6913,
      "yudang": 6914,
      "botang": 6915,
      "Titah": 6916,
      "makakeb": 6917,
      "marti": 6918,
      "kinja": 6919,
      "cirin": 6920,
      "nguluh": 6921,
      "nguduhang": 6922,
      "loteng": 6923,
      "pangampur": 6924,
      "ngirim": 6925,
      "Sem": 6926,
      "Meri": 6927,
      "nyediayang": 6928,
      "nimbang": 6929,
      "banne": 6930,
      "tenunge": 6931,
      "akehnyane": 6932,
      "akehnya": 6933,
      "Yehiel": 6934,
      "witra": 6935,
      "Kamar": 6936,
      "cele": 6937,
      "Nawegang": 6938,
      "pidartan": 6939,
      "munuh": 6940,
      "Panema": 6941,
      "kapireng": 6942,
      "gone": 6943,
      "yadiapin": 6944,
      "panyol": 6945,
      "panyingakan": 6946,
      "lelukatan": 6947,
      "leluuripune": 6948,
      "Elisane": 6949,
      "kasayubin": 6950,
      "ngoyong": 6951,
      "titahe": 6952,
      "kalikane": 6953,
      "Pangajap": 6954,
      "ortine": 6955,
      "mapikayun": 6956,
      "talia": 6957,
      "kasukan": 6958,
      "kasurat": 6959,
      "nongosja": 6960,
      "panyuks": 6961,
      "panyumpenan": 6962,
      "galangan": 6963,
      "jahan": 6964,
      "Wentenke": 6965,
      "sapakitan": 6966,
      "pepinehne": 6967,
      "ngwarasang": 6968,
      "malikang": 6969,
      "Rahinane": 6970,
      "kastang": 6971,
      "amunapike": 6972,
      "katukub": 6973,
      "Elisama": 6974,
      "katunan": 6975,
      "karahayuane": 6976,
      "Yair": 6977,
      "jalanja": 6978,
      "banggayangja": 6979,
      "nyelepang": 6980,
      "minakadinne": 6981,
      "Elyakim": 6982,
      "magantung": 6983,
      "memenne": 6984,
      "jekjekan": 6985,
      "mapangenan": 6986,
      "punyahan": 6987,
      "degdeg": 6988,
      "paderbeanipune": 6989,
      "balene": 6990,
      "Panjang": 6991,
      "saparilampah": 6992,
      "nglajur": 6993,
      "kagentosin": 6994,
      "mayasin": 6995,
      "kedeh": 6996,
      "johang": 6997,
      "pasubayan": 6998,
      "magubugan": 6999,
      "yudain": 7000,
      "nyundel": 7001,
      "yatnainja": 7002,
      "kutangja": 7003,
      "Dosa": 7004,
      "Yisar": 7005,
      "kingking": 7006,
      "Malkia": 7007,
      "tengai": 7008,
      "legit": 7009,
      "lempungang": 7010,
      "maumang": 7011,
      "mategenin": 7012,
      "ngliangin": 7013,
      "gompyokan": 7014,
      "gargita": 7015,
      "Elyasib": 7016,
      "Tirsa": 7017,
      "ningtingang": 7018,
      "grombolan": 7019,
      "Siklag": 7020,
      "biasanipun": 7021,
      "Amram": 7022,
      "kabungahan": 7023,
      "pembron": 7024,
      "remrem": 7025,
      "nengkluk": 7026,
      "ngagengang": 7027,
      "ngadanin": 7028,
      ".]": 7029,
      "20": 7030,
      "Al": 7031,
      "Adiri": 7032,
      "Adar": 7033,
      "Bos": 7034,
      "Carang": 7035,
      "Eg": 7036,
      "Eng": 7037,
      "Eber": 7038,
      "Ehud": 7039,
      "Iratu": 7040,
      "Iriki": 7041,
      "Kayang": 7042,
      "Kapi": 7043,
      "Kaku": 7044,
      "Mriki": 7045,
      "Nuju": 7046,
      "Rim": 7047,
      "Tah": 7048,
      "aluh": 7049,
      "cutin": 7050,
      "dro": 7051,
      "dbed": 7052,
      "dnyanan": 7053,
      "ieg": 7054,
      "kurukang": 7055,
      "mentang": 7056,
      "mlegandang": 7057,
      "olas": 7058,
      "pene": 7059,
      "plug": 7060,
      "ute": 7061,
      "yeng": 7062,
      "yone": 7063,
      "ngent": 7064,
      "ngantungang": 7065,
      "aneh": 7066,
      "kaan": 7067,
      "kawah": 7068,
      "kapanjak": 7069,
      "kakantenang": 7070,
      "kapidartayang": 7071,
      "kakaryanin": 7072,
      "kajaatane": 7073,
      "sabuke": 7074,
      "rambi": 7075,
      "dadosipun": 7076,
      "mado": 7077,
      "malah": 7078,
      "malo": 7079,
      "mameseh": 7080,
      "mapitutur": 7081,
      "mabusana": 7082,
      "mamaksa": 7083,
      "paj": 7084,
      "padan": 7085,
      "pakayun": 7086,
      "pasemetonan": 7087,
      "pajekjekan": 7088,
      "dim": 7089,
      "dipune": 7090,
      "dienggal": 7091,
      "til": 7092,
      "tampah": 7093,
      "ripune": 7094,
      "riwau": 7095,
      "turunan": 7096,
      "tengawan": 7097,
      "jata": 7098,
      "jarah": 7099,
      "lim": 7100,
      "lius": 7101,
      "lawate": 7102,
      "butan": 7103,
      "buyung": 7104,
      "seka": 7105,
      "sembah": 7106,
      "mim": 7107,
      "batan": 7108,
      "baose": 7109,
      "menge": 7110,
      "merang": 7111,
      "ungang": 7112,
      "nyriokin": 7113,
      "repe": 7114,
      "repan": 7115,
      "kedas": 7116,
      "pia": 7117,
      "pilihan": 7118,
      "pilar": 7119,
      "ngagu": 7120,
      "wai": 7121,
      "wabawan": 7122,
      "duine": 7123,
      "pangandi": 7124,
      "bera": 7125,
      "onan": 7126,
      "onangja": 7127,
      "keny": 7128,
      "kencurin": 7129,
      "kudan": 7130,
      "kukur": 7131,
      "pepacangan": 7132,
      "Pagehangja": 7133,
      "jejeron": 7134,
      "jembung": 7135,
      "namb": 7136,
      "nabdab": 7137,
      "cager": 7138,
      "kong": 7139,
      "bir": 7140,
      "bangkene": 7141,
      "parapan": 7142,
      "paraanggota": 7143,
      "paraprakanggon": 7144,
      "ias": 7145,
      "Yepune": 7146,
      "welas": 7147,
      "wehane": 7148,
      "wecanan": 7149,
      "manna": 7150,
      "sangkan": 7151,
      "patujuhang": 7152,
      "rikalane": 7153,
      "ngelur": 7154,
      "ngelut": 7155,
      "makalelima": 7156,
      "guber": 7157,
      "kangen": 7158,
      "kangja": 7159,
      "nguatang": 7160,
      "Petine": 7161,
      "Pepineh": 7162,
      "urudang": 7163,
      "pangajah": 7164,
      "Dadi": 7165,
      "mbragang": 7166,
      "ngimbuhin": 7167,
      "Seme": 7168,
      "pitulas": 7169,
      "masawitra": 7170,
      "Meso": 7171,
      "Melahang": 7172,
      "Andre": 7173,
      "nganggep": 7174,
      "ngangsok": 7175,
      "nimba": 7176,
      "banten": 7177,
      "mapadu": 7178,
      "ngencur": 7179,
      "bentenge": 7180,
      "tungkasan": 7181,
      "mastikayang": 7182,
      "malarapan": 7183,
      "binanipun": 7184,
      "warnan": 7185,
      "Kamb": 7186,
      "Kaluihan": 7187,
      "urim": 7188,
      "cemara": 7189,
      "Parasisiane": 7190,
      "nyuun": 7191,
      "singja": 7192,
      "dalena": 7193,
      "ngincepang": 7194,
      "becika": 7195,
      "becikipun": 7196,
      "nyibak": 7197,
      "morborane": 7198,
      "kapitresnane": 7199,
      "mpel": 7200,
      "kasayangang": 7201,
      "anaim": 7202,
      "saileh": 7203,
      "Betan": 7204,
      "suecanin": 7205,
      "Geba": 7206,
      "Geser": 7207,
      "Gebogan": 7208,
      "branane": 7209,
      "Harune": 7210,
      "Teke": 7211,
      "rakyatne": 7212,
      "Nebat": 7213,
      "kenehe": 7214,
      "sajaba": 7215,
      "Habel": 7216,
      "panyuud": 7217,
      "lonin": 7218,
      "cutet": 7219,
      "Manoah": 7220,
      "nyander": 7221,
      "kemahipune": 7222,
      "tegarang": 7223,
      "payudane": 7224,
      "bekung": 7225,
      "matuannyane": 7226,
      "kembang": 7227,
      "kotanipune": 7228,
      "sisinnyane": 7229,
      "Eprat": 7230,
      "gapurannyane": 7231,
      "kabebasan": 7232,
      "pakrimik": 7233,
      "demenin": 7234,
      "Mil": 7235,
      "ratangja": 7236,
      "katuturang": 7237,
      "kakuasannyane": 7238,
      "kaonan": 7239,
      "Gumi": 7240,
      "makidungja": 7241,
      "pisuna": 7242,
      "mbakin": 7243,
      "macecabulan": 7244,
      "gusti": 7245,
      "Yosabad": 7246,
      "kulitnyane": 7247,
      "benjangan": 7248,
      "nutug": 7249,
      "masangke": 7250,
      "kapradnyanan": 7251,
      "mariangken": 7252,
      "panganggenipune": 7253,
      "sisanne": 7254,
      "trompetnyane": 7255,
      "benehne": 7256,
      "nistana": 7257,
      "empul": 7258,
      "Perjamuan": 7259,
      "pagelahannyane": 7260,
      "macingakan": 7261,
      "Mahli": 7262,
      "tidongja": 7263,
      "Hasabya": 7264,
      "tegenang": 7265,
      "Sapunapiang": 7266,
      "panganggonne": 7267,
      "kriet": 7268,
      "Siprus": 7269,
      "Malki": 7270,
      "Wewidang": 7271,
      "Sinahangja": 7272,
      "agemja": 7273,
      "natunin": 7274,
      "Libna": 7275,
      "panyosohan": 7276,
      "Oholi": 7277,
      "makenta": 7278,
      "negepang": 7279,
      "Senapa": 7280,
      "nulusing": 7281,
      "mpoke": 7282,
      "kurenane": 7283,
      "ngawag": 7284,
      "Magdalena": 7285,
      "Sukot": 7286,
      "Epron": 7287,
      "Gosen": 7288,
      "brintik": 7289,
      "uyut": 7290,
      "nektek": 7291,
      "Pracayaja": 7292,
      "Ampurayangja": 7293,
      "Otniel": 7294,
      "mragatang": 7295,
      "pagunungane": 7296,
      "kanambetan": 7297,
      "Adiriko": 7298,
      "Mrikija": 7299,
      "Rimon": 7300,
      "droaka": 7301,
      "kapanjakang": 7302,
      "rambiah": 7303,
      "malomba": 7304,
      "pangandikane": 7305,
      "gubernure": 7306,
      "18": 7307,
      "45": 7308,
      "Ari": 7309,
      "Amina": 7310,
      "Angine": 7311,
      "Amarya": 7312,
      "Duru": 7313,
      "Hin": 7314,
      "Kas": 7315,
      "Matur": 7316,
      "Marta": 7317,
      "Neh": 7318,
      "PA": 7319,
      "Uru": 7320,
      "Wah": 7321,
      "aine": 7322,
      "ace": 7323,
      "bake": 7324,
      "ehan": 7325,
      "gdo": 7326,
      "mlaspas": 7327,
      "plegendahang": 7328,
      "swabawan": 7329,
      "ulun": 7330,
      "ulane": 7331,
      "uduhang": 7332,
      "uger": 7333,
      "uek": 7334,
      "yur": 7335,
      "ngrengkeng": 7336,
      "kalung": 7337,
      "kasar": 7338,
      "kamanah": 7339,
      "kales": 7340,
      "kadotang": 7341,
      "saur": 7342,
      "saange": 7343,
      "rame": 7344,
      "tug": 7345,
      "tulis": 7346,
      "tulungin": 7347,
      "tutipune": 7348,
      "macan": 7349,
      "mamun": 7350,
      "marengin": 7351,
      "mampuh": 7352,
      "mabia": 7353,
      "mabukti": 7354,
      "pajege": 7355,
      "pamorborane": 7356,
      "tis": 7357,
      "talin": 7358,
      "tamp": 7359,
      "tabuh": 7360,
      "jar": 7361,
      "jagung": 7362,
      "topa": 7363,
      "kiang": 7364,
      "kijaja": 7365,
      "sebet": 7366,
      "miel": 7367,
      "mikayunin": 7368,
      "sumbah": 7369,
      "bata": 7370,
      "badin": 7371,
      "bawak": 7372,
      "ungku": 7373,
      "gap": 7374,
      "gale": 7375,
      "nyah": 7376,
      "nyung": 7377,
      "nyurudang": 7378,
      "kanyagang": 7379,
      "lela": 7380,
      "kepek": 7381,
      "negarane": 7382,
      "nelebang": 7383,
      "ngaju": 7384,
      "ngagah": 7385,
      "mutang": 7386,
      "muput": 7387,
      "karyane": 7388,
      "urungan": 7389,
      "lantang": 7390,
      "bea": 7391,
      "bede": 7392,
      "behang": 7393,
      "antukipun": 7394,
      "pela": 7395,
      "gegin": 7396,
      "gemes": 7397,
      "gegelungan": 7398,
      "gegalangan": 7399,
      "Pasur": 7400,
      "lud": 7401,
      "lugra": 7402,
      "mangetang": 7403,
      "Sar": 7404,
      "Saitun": 7405,
      "nabuh": 7406,
      "calang": 7407,
      "kolesang": 7408,
      "bimbang": 7409,
      "paraluh": 7410,
      "Rarene": 7411,
      "Yedaya": 7412,
      "wewangun": 7413,
      "many": 7414,
      "manang": 7415,
      "kadilane": 7416,
      "padaya": 7417,
      "gendong": 7418,
      "rusang": 7419,
      "ruyuk": 7420,
      "tangin": 7421,
      "tangannyane": 7422,
      "ngejohang": 7423,
      "taneel": 7424,
      "domas": 7425,
      "bobo": 7426,
      "jian": 7427,
      "inadab": 7428,
      "Titus": 7429,
      "nyadang": 7430,
      "nyautin": 7431,
      "makampi": 7432,
      "kangkenin": 7433,
      "pumah": 7434,
      "pulo": 7435,
      "jugul": 7436,
      "ngubetang": 7437,
      "logam": 7438,
      "Pedange": 7439,
      "sinahang": 7440,
      "sakancaning": 7441,
      "ngilangang": 7442,
      "ngilonin": 7443,
      "ngicalang": 7444,
      "adinne": 7445,
      "Selo": 7446,
      "Selape": 7447,
      "Sepaca": 7448,
      "pitulikur": 7449,
      "Meh": 7450,
      "Mera": 7451,
      "makebat": 7452,
      "nyediaang": 7453,
      "lempang": 7454,
      "kalihipun": 7455,
      "Marerainan": 7456,
      "Majalaran": 7457,
      "Sikri": 7458,
      "okannyane": 7459,
      "wastu": 7460,
      "Bara": 7461,
      "menyane": 7462,
      "mapag": 7463,
      "mapadana": 7464,
      "benan": 7465,
      "witing": 7466,
      "Sudane": 7467,
      "takutin": 7468,
      "madame": 7469,
      "madewek": 7470,
      "anggone": 7471,
      "cecat": 7472,
      "Parab": 7473,
      "Paragi": 7474,
      "Paraprakanggen": 7475,
      "Parapamimpine": 7476,
      "kapaicain": 7477,
      "Naenin": 7478,
      "purane": 7479,
      "pakardi": 7480,
      "sungsu": 7481,
      "aliter": 7482,
      "kapiteketin": 7483,
      "makruyuk": 7484,
      "tegalne": 7485,
      "hinja": 7486,
      "mbokan": 7487,
      "Elipas": 7488,
      "katehang": 7489,
      "cog": 7490,
      "col": 7491,
      "panganten": 7492,
      "kasalib": 7493,
      "garap": 7494,
      "Bela": 7495,
      "ngoles": 7496,
      "Getih": 7497,
      "laksanaanga": 7498,
      "tinutin": 7499,
      "Hemor": 7500,
      "branannyane": 7501,
      "mapiteket": 7502,
      "siate": 7503,
      "Ner": 7504,
      "Netopa": 7505,
      "Netaneel": 7506,
      "keles": 7507,
      "basangne": 7508,
      "tigalikur": 7509,
      "Hagai": 7510,
      "ksrahang": 7511,
      "dagingipun": 7512,
      "matempuh": 7513,
      "mategul": 7514,
      "ketkete": 7515,
      "kamben": 7516,
      "pakaryannyane": 7517,
      "ilehan": 7518,
      "kabing": 7519,
      "kabre": 7520,
      "kasriokang": 7521,
      "pamarginipune": 7522,
      "katilar": 7523,
      "matalang": 7524,
      "somahne": 7525,
      "dumannyane": 7526,
      "bentengnyane": 7527,
      "riot": 7528,
      "kuhang": 7529,
      "wuhan": 7530,
      "ginjel": 7531,
      "suarannyane": 7532,
      "Aske": 7533,
      "kadasarin": 7534,
      "nunggal": 7535,
      "pamuponnyane": 7536,
      "Barsi": 7537,
      "indriane": 7538,
      "adegang": 7539,
      "memennyane": 7540,
      "depangja": 7541,
      "pahdasan": 7542,
      "tamiun": 7543,
      "Niko": 7544,
      "amahan": 7545,
      "nikayangja": 7546,
      "undangan": 7547,
      "utamaan": 7548,
      "kacatet": 7549,
      "jejarahane": 7550,
      "ngisiang": 7551,
      "pangiwa": 7552,
      "epod": 7553,
      "Mahanaim": 7554,
      "karesep": 7555,
      "Tengahe": 7556,
      "nyunarin": 7557,
      "nyunyur": 7558,
      "tegenin": 7559,
      "panyengguh": 7560,
      "panyengker": 7561,
      "rombongan": 7562,
      "cengceng": 7563,
      "garuda": 7564,
      "Batune": 7565,
      "indayangja": 7566,
      "Huram": 7567,
      "amunapija": 7568,
      "kalingganin": 7569,
      "entap": 7570,
      "ngejerang": 7571,
      "kaclempungang": 7572,
      "bedaja": 7573,
      "durus": 7574,
      "blulang": 7575,
      "purusa": 7576,
      "mabrarakan": 7577,
      "Beneh": 7578,
      "tetombokan": 7579,
      "gegumuk": 7580,
      "pepayasan": 7581,
      "Nikayangja": 7582,
      "papunduhan": 7583,
      "Meriba": 7584,
      "pembrontak": 7585,
      "pajlempang": 7586,
      "kenyel": 7587,
      "Andreas": 7588,
      "Oholiba": 7589,
      "Aminadab": 7590,
      "kaleson": 7591,
      "tampina": 7592,
      "wewangunane": 7593,
      "makampid": 7594,
      "Naeninke": 7595,
      "200": 7596,
      "250": 7597,
      "Adu": 7598,
      "Aduh": 7599,
      "Astawa": 7600,
      "Aksa": 7601,
      "Apolos": 7602,
      "Bur": 7603,
      "Dini": 7604,
      "Epa": 7605,
      "Eser": 7606,
      "Gan": 7607,
      "Hel": 7608,
      "Kur": 7609,
      "Kenan": 7610,
      "Kutangja": 7611,
      "Mun": 7612,
      "Musane": 7613,
      "Pre": 7614,
      "Paksi": 7615,
      "SU": 7616,
      "Tak": 7617,
      "Tro": 7618,
      "Tal": 7619,
      "Ulihan": 7620,
      "asane": 7621,
      "ata": 7622,
      "alane": 7623,
      "beneng": 7624,
      "cuhin": 7625,
      "crita": 7626,
      "ed": 7627,
      "eja": 7628,
      "grian": 7629,
      "ian": 7630,
      "ire": 7631,
      "iwasinja": 7632,
      "jeneng": 7633,
      "kle": 7634,
      "kon": 7635,
      "kuningayang": 7636,
      "nru": 7637,
      "nakep": 7638,
      "oger": 7639,
      "pran": 7640,
      "ugane": 7641,
      "uber": 7642,
      "kal": 7643,
      "kasang": 7644,
      "kaban": 7645,
      "katih": 7646,
      "kampehang": 7647,
      "katitahang": 7648,
      "sampin": 7649,
      "salon": 7650,
      "raket": 7651,
      "rampas": 7652,
      "rajane": 7653,
      "dakan": 7654,
      "dadan": 7655,
      "dagang": 7656,
      "dahin": 7657,
      "dacin": 7658,
      "tub": 7659,
      "mac": 7660,
      "mawong": 7661,
      "mampa": 7662,
      "malahan": 7663,
      "mainum": 7664,
      "pajerit": 7665,
      "paperang": 7666,
      "pakitan": 7667,
      "pakibeh": 7668,
      "patok": 7669,
      "dis": 7670,
      "aksa": 7671,
      "tau": 7672,
      "taur": 7673,
      "tamenge": 7674,
      "tepet": 7675,
      "liun": 7676,
      "lirang": 7677,
      "lare": 7678,
      "totonan": 7679,
      "bungu": 7680,
      "bungas": 7681,
      "kidang": 7682,
      "segan": 7683,
      "sembahan": 7684,
      "mimi": 7685,
      "baat": 7686,
      "babe": 7687,
      "badan": 7688,
      "bagal": 7689,
      "meel": 7690,
      "gaene": 7691,
      "nyunat": 7692,
      "sidang": 7693,
      "nelius": 7694,
      "nerusang": 7695,
      "pilare": 7696,
      "ngayun": 7697,
      "atane": 7698,
      "dute": 7699,
      "duuh": 7700,
      "dutun": 7701,
      "lanus": 7702,
      "belang": 7703,
      "kukun": 7704,
      "pedek": 7705,
      "pengke": 7706,
      "pecut": 7707,
      "pedeman": 7708,
      "gehang": 7709,
      "Pade": 7710,
      "Pacang": 7711,
      "Pakayunan": 7712,
      "panun": 7713,
      "lub": 7714,
      "lusin": 7715,
      "jee": 7716,
      "jejeneng": 7717,
      "namp": 7718,
      "nasib": 7719,
      "nambakin": 7720,
      "bangras": 7721,
      "parakulawargan": 7722,
      "Yeiel": 7723,
      "Yedutun": 7724,
      "welirang": 7725,
      "mandor": 7726,
      "manyama": 7727,
      "ngetel": 7728,
      "ngembus": 7729,
      "akedik": 7730,
      "asune": 7731,
      "tuna": 7732,
      "bora": 7733,
      "wanti": 7734,
      "dikala": 7735,
      "makamuah": 7736,
      "makacihna": 7737,
      "gumata": 7738,
      "aturnyane": 7739,
      "rod": 7740,
      "langunin": 7741,
      "kangine": 7742,
      "putus": 7743,
      "danu": 7744,
      "danta": 7745,
      "ngulahang": 7746,
      "mokeng": 7747,
      "pangawi": 7748,
      "duhangja": 7749,
      "wangkong": 7750,
      "Set": 7751,
      "liny": 7752,
      "tahanan": 7753,
      "Media": 7754,
      "makewuh": 7755,
      "lembar": 7756,
      "lemenahang": 7757,
      "Punduhangja": 7758,
      "kauk": 7759,
      "Widinipune": 7760,
      "indiknyane": 7761,
      "Bal": 7762,
      "Baana": 7763,
      "menarane": 7764,
      "sorohan": 7765,
      "ngendihang": 7766,
      "apaan": 7767,
      "Kaprabon": 7768,
      "Kacrita": 7769,
      "ceca": 7770,
      "Parabangsane": 7771,
      "nyurat": 7772,
      "nyumpena": 7773,
      "palingsehane": 7774,
      "kadinge": 7775,
      "polis": 7776,
      "potami": 7777,
      "pocol": 7778,
      "marabin": 7779,
      "ledangja": 7780,
      "Abinadab": 7781,
      "dingine": 7782,
      "kalaliang": 7783,
      "pondo": 7784,
      "duuran": 7785,
      "kasalukin": 7786,
      "masanjata": 7787,
      "nangsek": 7788,
      "Geli": 7789,
      "Gesur": 7790,
      "Tetu": 7791,
      "Teko": 7792,
      "Temah": 7793,
      "Tegeh": 7794,
      "Temboke": 7795,
      "Pasamuane": 7796,
      "ningehang": 7797,
      "Nem": 7798,
      "Neko": 7799,
      "Nebo": 7800,
      "Tomas": 7801,
      "prajuritnyane": 7802,
      "Debora": 7803,
      "ajerihipune": 7804,
      "Hasu": 7805,
      "jagirane": 7806,
      "gumiti": 7807,
      "matembung": 7808,
      "waneh": 7809,
      "engkag": 7810,
      "tunggilang": 7811,
      "alasan": 7812,
      "maiwang": 7813,
      "gahe": 7814,
      "ngliput": 7815,
      "ngliunang": 7816,
      "Abihu": 7817,
      "agaman": 7818,
      "masebun": 7819,
      "sengkalan": 7820,
      "tanganin": 7821,
      "rohe": 7822,
      "Repai": 7823,
      "nguntul": 7824,
      "kaketisang": 7825,
      "kakewuhan": 7826,
      "katimbang": 7827,
      "pakrengkeng": 7828,
      "mbangane": 7829,
      "Gaal": 7830,
      "munggal": 7831,
      "Mirib": 7832,
      "kengkebang": 7833,
      "tukange": 7834,
      "cingakinja": 7835,
      "marerepan": 7836,
      "luihangja": 7837,
      "Sora": 7838,
      "caranipun": 7839,
      "Yaeser": 7840,
      "masisa": 7841,
      "Astiti": 7842,
      "paicane": 7843,
      "nyelebang": 7844,
      "sikiane": 7845,
      "sarap": 7846,
      "pagehangja": 7847,
      "mrikija": 7848,
      "saumur": 7849,
      "krananne": 7850,
      "masanggama": 7851,
      "kaprawi": 7852,
      "temahe": 7853,
      "atinne": 7854,
      "Kenas": 7855,
      "Sinalih": 7856,
      "sisannyane": 7857,
      "kawitne": 7858,
      "kadagingan": 7859,
      "suratan": 7860,
      "nginggilang": 7861,
      "bingbang": 7862,
      "kagantung": 7863,
      "panyamaan": 7864,
      "nyoin": 7865,
      "kapisarayang": 7866,
      "nombahang": 7867,
      "Arauna": 7868,
      "tutup": 7869,
      "sambilanga": 7870,
      "selsel": 7871,
      "sagsag": 7872,
      "jegeg": 7873,
      "Wastu": 7874,
      "pangindrajalan": 7875,
      "imbangang": 7876,
      "kaepah": 7877,
      "Kornelius": 7878,
      "buruhe": 7879,
      "Tegarangja": 7880,
      "metera": 7881,
      "meterae": 7882,
      "durusang": 7883,
      "werti": 7884,
      "kasodayang": 7885,
      "bedogole": 7886,
      "Satone": 7887,
      "makayunin": 7888,
      "Sirake": 7889,
      "giginne": 7890,
      "Hermon": 7891,
      "mingkin": 7892,
      "madedagangan": 7893,
      "Kulawarga": 7894,
      "Lantas": 7895,
      "Jaat": 7896,
      "kakidungan": 7897,
      "Rehuel": 7898,
      "Hanun": 7899,
      "ngiwasin": 7900,
      "Melkisedek": 7901,
      "Ananias": 7902,
      "Mikmas": 7903,
      "Makidungja": 7904,
      "cunguh": 7905,
      "pangampuraning": 7906,
      "Panemayan": 7907,
      "kastanggi": 7908,
      "Eglon": 7909,
      "ngentinin": 7910,
      "Mesopotami": 7911,
      "mamunyah": 7912,
      "mabiayuhan": 7913,
      "manyine": 7914,
      "Barsilai": 7915,
      "SUK": 7916,
      "mampakan": 7917,
      "paperangan": 7918,
      "bungutipune": 7919,
      "gumatap": 7920,
      "makewuhin": 7921,
      "kadingehan": 7922,
      "Repaime": 7923,
      "Mesopotamia": 7924,
      "13": 7925,
      "14": 7926,
      "15": 7927,
      "32": 7928,
      "66": 7929,
      "Akan": 7930,
      "Abe": 7931,
      "Abang": 7932,
      "Abel": 7933,
      "Bah": 7934,
      "Co": 7935,
      "Cute": 7936,
      "Dasa": 7937,
      "Dasar": 7938,
      "Enu": 7939,
      "Hak": 7940,
      "Ibu": 7941,
      "Ido": 7942,
      "Po": 7943,
      "Sut": 7944,
      "aturipune": 7945,
      "bna": 7946,
      "bleng": 7947,
      "drah": 7948,
      "gut": 7949,
      "gong": 7950,
      "ideweke": 7951,
      "ilid": 7952,
      "lsel": 7953,
      "mragat": 7954,
      "obah": 7955,
      "orahangja": 7956,
      "slegen": 7957,
      "tri": 7958,
      "takeh": 7959,
      "ucapang": 7960,
      "any": 7961,
      "anin": 7962,
      "antenge": 7963,
      "andune": 7964,
      "nglin": 7965,
      "ngraksa": 7966,
      "kasih": 7967,
      "kasor": 7968,
      "kabiasa": 7969,
      "kaletehin": 7970,
      "kamelahan": 7971,
      "kagugu": 7972,
      "kajujukang": 7973,
      "sapunapike": 7974,
      "enah": 7975,
      "encanayang": 7976,
      "entegangja": 7977,
      "endute": 7978,
      "rames": 7979,
      "dai": 7980,
      "tuut": 7981,
      "tuju": 7982,
      "tuel": 7983,
      "malelu": 7984,
      "matembok": 7985,
      "mawoh": 7986,
      "maicain": 7987,
      "mapitulung": 7988,
      "pawa": 7989,
      "pakrana": 7990,
      "tati": 7991,
      "telan": 7992,
      "jambangane": 7993,
      "liane": 7994,
      "liwer": 7995,
      "layone": 7996,
      "buang": 7997,
      "buge": 7998,
      "buru": 7999,
      "kidange": 8000,
      "asap": 8001,
      "sekel": 8002,
      "sukeh": 8003,
      "sumingkin": 8004,
      "bada": 8005,
      "balok": 8006,
      "barisan": 8007,
      "met": 8008,
      "mekele": 8009,
      "gaenin": 8010,
      "sion": 8011,
      "silah": 8012,
      "kandik": 8013,
      "lesin": 8014,
      "Widine": 8015,
      "nelahang": 8016,
      "pit": 8017,
      "pitegesipun": 8018,
      "ngati": 8019,
      "ngadu": 8020,
      "ngayudain": 8021,
      "muti": 8022,
      "mumang": 8023,
      "mulihan": 8024,
      "mukir": 8025,
      "desan": 8026,
      "dereng": 8027,
      "wadih": 8028,
      "waras": 8029,
      "wira": 8030,
      "widine": 8031,
      "dugan": 8032,
      "osoh": 8033,
      "pangeling": 8034,
      "panglingsire": 8035,
      "antulan": 8036,
      "kulet": 8037,
      "geleng": 8038,
      "Paran": 8039,
      "Paicayang": 8040,
      "panulung": 8041,
      "luung": 8042,
      "luanan": 8043,
      "manggang": 8044,
      "jep": 8045,
      "Sam": 8046,
      "Saduk": 8047,
      "Satonden": 8048,
      "Sayubinja": 8049,
      "Sadrah": 8050,
      "cayan": 8051,
      "cawisang": 8052,
      "bite": 8053,
      "semetonnyane": 8054,
      "bangkiang": 8055,
      "paradewa": 8056,
      "paraleluurnyane": 8057,
      "parapangayah": 8058,
      "paraistrine": 8059,
      "parapangangone": 8060,
      "parampoke": 8061,
      "Yerah": 8062,
      "manyo": 8063,
      "rikalan": 8064,
      "indikipune": 8065,
      "nger": 8066,
      "ngetus": 8067,
      "ngeden": 8068,
      "ngetisang": 8069,
      "ngelidang": 8070,
      "Iska": 8071,
      "bokipune": 8072,
      "nyabatang": 8073,
      "nyampatang": 8074,
      "makatelun": 8075,
      "guan": 8076,
      "gucine": 8077,
      "roangan": 8078,
      "jana": 8079,
      "cimpe": 8080,
      "ngukir": 8081,
      "ngubadin": 8082,
      "ngukuhang": 8083,
      "ngulangunin": 8084,
      "Daun": 8085,
      "Datan": 8086,
      "Sebede": 8087,
      "sahang": 8088,
      "Yoabe": 8089,
      "bakin": 8090,
      "masalin": 8091,
      "Megi": 8092,
      "Mero": 8093,
      "Mesah": 8094,
      "nuutin": 8095,
      "ampa": 8096,
      "Male": 8097,
      "Masan": 8098,
      "Sib": 8099,
      "Siba": 8100,
      "tenenan": 8101,
      "sombong": 8102,
      "ngenuang": 8103,
      "bendah": 8104,
      "paderepe": 8105,
      "Suaran": 8106,
      "mbahane": 8107,
      "mrabotang": 8108,
      "panese": 8109,
      "panelas": 8110,
      "binan": 8111,
      "mplo": 8112,
      "Kaden": 8113,
      "cedang": 8114,
      "cecimpe": 8115,
      "gingsirang": 8116,
      "awinannyane": 8117,
      "singid": 8118,
      "Kedes": 8119,
      "Kelod": 8120,
      "Nabot": 8121,
      "Napta": 8122,
      "mertane": 8123,
      "madukan": 8124,
      "pok": 8125,
      "Kid": 8126,
      "Saku": 8127,
      "kawibuhan": 8128,
      "katurunanipune": 8129,
      "akilogram": 8130,
      "pasawitran": 8131,
      "lemeng": 8132,
      "Dimasane": 8133,
      "Dipradene": 8134,
      "agengnyane": 8135,
      "panyungsung": 8136,
      "ponin": 8137,
      "kategen": 8138,
      "pangandene": 8139,
      "gelahne": 8140,
      "tongosnyane": 8141,
      "tongosina": 8142,
      "masannyane": 8143,
      "Bere": 8144,
      "Beria": 8145,
      "Betele": 8146,
      "nanggap": 8147,
      "nangtangin": 8148,
      "binayan": 8149,
      "Gedong": 8150,
      "Heper": 8151,
      "Tekan": 8152,
      "Terah": 8153,
      "Teman": 8154,
      "Tesalon": 8155,
      "arepannyane": 8156,
      "mapilih": 8157,
      "Bangken": 8158,
      "Harim": 8159,
      "daginge": 8160,
      "ninjo": 8161,
      "pasrambiah": 8162,
      "batese": 8163,
      "punggal": 8164,
      "malilayang": 8165,
      "sendin": 8166,
      "molihing": 8167,
      "kakedeng": 8168,
      "Lameh": 8169,
      "pamarginnyane": 8170,
      "wicaksanaan": 8171,
      "sorban": 8172,
      "jurang": 8173,
      "Misa": 8174,
      "Ceninge": 8175,
      "tangisan": 8176,
      "getihne": 8177,
      "donan": 8178,
      "kaprabonnyane": 8179,
      "cingakja": 8180,
      "tegehnyane": 8181,
      "buntutipune": 8182,
      "pangastawanipune": 8183,
      "enai": 8184,
      "pituture": 8185,
      "kasugihanipune": 8186,
      "Bibite": 8187,
      "nganedunang": 8188,
      "mamuuk": 8189,
      "perluang": 8190,
      "Yapet": 8191,
      "tanggunnyane": 8192,
      "kadalih": 8193,
      "kadaptarang": 8194,
      "panguasa": 8195,
      "maruang": 8196,
      "kenkenang": 8197,
      "masuryakja": 8198,
      "Rahayuangja": 8199,
      "komandane": 8200,
      "kasujatiane": 8201,
      "Ahitub": 8202,
      "memenipune": 8203,
      "tulungja": 8204,
      "Gog": 8205,
      "sukaan": 8206,
      "bangkennyane": 8207,
      "grubuge": 8208,
      "nangisja": 8209,
      "pararatunnyane": 8210,
      "kapatutane": 8211,
      "apahliman": 8212,
      "pamekelnyane": 8213,
      "jiwannyane": 8214,
      "muluknyane": 8215,
      "mpenane": 8216,
      "kauhnyane": 8217,
      "kacorahane": 8218,
      "panyakape": 8219,
      "Tungkalikane": 8220,
      "gdugang": 8221,
      "sirahne": 8222,
      "nglipurang": 8223,
      "sahayangja": 8224,
      "plajahin": 8225,
      "jajar": 8226,
      "pestane": 8227,
      "urukja": 8228,
      "Sodome": 8229,
      "palekadan": 8230,
      "nyengguh": 8231,
      "pariselsel": 8232,
      "pegawe": 8233,
      "gegaene": 8234,
      "entikane": 8235,
      "Kretane": 8236,
      "ngungkulin": 8237,
      "Prajurite": 8238,
      "damuhe": 8239,
      "bebasangja": 8240,
      "Menara": 8241,
      "Suudja": 8242,
      "manjakang": 8243,
      "rombongane": 8244,
      "legite": 8245,
      "ngrubeda": 8246,
      "bedogol": 8247,
      "pedasinja": 8248,
      "Husai": 8249,
      "manjangane": 8250,
      "kapagehan": 8251,
      "indriannyane": 8252,
      "kapondong": 8253,
      "ndikayang": 8254,
      "sekop": 8255,
      "Kehila": 8256,
      "pepingitan": 8257,
      "nyampurnayang": 8258,
      "singidan": 8259,
      "Dibon": 8260,
      "kajujuran": 8261,
      "maosin": 8262,
      "limunan": 8263,
      "nambunang": 8264,
      "sangkaning": 8265,
      "Betania": 8266,
      "Milka": 8267,
      "gdog": 8268,
      "plegendahanga": 8269,
      "saurinja": 8270,
      "Selapeh": 8271,
      "Barabas": 8272,
      "mimitin": 8273,
      "pengkeban": 8274,
      "namplak": 8275,
      "Tetujon": 8276,
      "Abedne": 8277,
      "Cutetipun": 8278,
      "Sutrepti": 8279,
      "slegenti": 8280,
      "maleluasan": 8281,
      "Sadukine": 8282,
      "manyonyoin": 8283,
      "ngedenang": 8284,
      "Naptaline": 8285,
      "Tesalonika": 8286,
      "30": 8287,
      "Apang": 8288,
      "Agem": 8289,
      "Alek": 8290,
      "Atalia": 8291,
      "Bung": 8292,
      "Bas": 8293,
      "Bantenge": 8294,
      "Ca": 8295,
      "Dor": 8296,
      "Er": 8297,
      "Gala": 8298,
      "IN": 8299,
      "Imer": 8300,
      "Jin": 8301,
      "Juk": 8302,
      "Luh": 8303,
      "Mam": 8304,
      "Ping": 8305,
      "Pia": 8306,
      "Rub": 8307,
      "Sine": 8308,
      "Sune": 8309,
      "Satin": 8310,
      "Ten": 8311,
      "Upa": 8312,
      "atu": 8313,
      "ameter": 8314,
      "ajur": 8315,
      "adep": 8316,
      "apunggung": 8317,
      "eb": 8318,
      "epan": 8319,
      "engan": 8320,
      "edot": 8321,
      "gre": 8322,
      "gju": 8323,
      "nut": 8324,
      "op": 8325,
      "okang": 8326,
      "oam": 8327,
      "panake": 8328,
      "song": 8329,
      "sunat": 8330,
      "sentana": 8331,
      "tsasar": 8332,
      "ume": 8333,
      "uas": 8334,
      "uar": 8335,
      "ukur": 8336,
      "upami": 8337,
      "wulung": 8338,
      "yit": 8339,
      "nglangkung": 8340,
      "ngrur": 8341,
      "ngwaki": 8342,
      "anget": 8343,
      "kaa": 8344,
      "kaine": 8345,
      "kaje": 8346,
      "kacang": 8347,
      "kaput": 8348,
      "kagelah": 8349,
      "kajege": 8350,
      "kakarsayang": 8351,
      "katunggilang": 8352,
      "kagingsirang": 8353,
      "sabecik": 8354,
      "sayuakti": 8355,
      "satuan": 8356,
      "sawetning": 8357,
      "enyen": 8358,
      "endange": 8359,
      "enceh": 8360,
      "racun": 8361,
      "daan": 8362,
      "dawan": 8363,
      "tup": 8364,
      "tuhang": 8365,
      "tugelan": 8366,
      "punapine": 8367,
      "map": 8368,
      "mago": 8369,
      "macaya": 8370,
      "paw": 8371,
      "pamargine": 8372,
      "pabun": 8373,
      "pamras": 8374,
      "dibi": 8375,
      "dias": 8376,
      "disubane": 8377,
      "dimani": 8378,
      "diinin": 8379,
      "timah": 8380,
      "taluh": 8381,
      "rihin": 8382,
      "tureksain": 8383,
      "jaen": 8384,
      "jayeng": 8385,
      "lidek": 8386,
      "lasan": 8387,
      "bulu": 8388,
      "buana": 8389,
      "bungkung": 8390,
      "sesembahan": 8391,
      "mii": 8392,
      "suluh": 8393,
      "baangja": 8394,
      "bajun": 8395,
      "mele": 8396,
      "meran": 8397,
      "gaman": 8398,
      "nying": 8399,
      "nyur": 8400,
      "nyosoh": 8401,
      "resa": 8402,
      "sisa": 8403,
      "sirake": 8404,
      "kanya": 8405,
      "kanyi": 8406,
      "lemb": 8407,
      "uhan": 8408,
      "kes": 8409,
      "nea": 8410,
      "nepinin": 8411,
      "piring": 8412,
      "pija": 8413,
      "ngabih": 8414,
      "ngamuk": 8415,
      "ngalangin": 8416,
      "ngadut": 8417,
      "ngagendong": 8418,
      "mumah": 8419,
      "karencanayang": 8420,
      "rananggan": 8421,
      "duri": 8422,
      "luntik": 8423,
      "pangile": 8424,
      "behin": 8425,
      "belus": 8426,
      "kenkene": 8427,
      "kusir": 8428,
      "kuber": 8429,
      "gedong": 8430,
      "Pauru": 8431,
      "Patuh": 8432,
      "Pasemengan": 8433,
      "Patut": 8434,
      "Pamimpin": 8435,
      "Pamuput": 8436,
      "Pamragat": 8437,
      "panu": 8438,
      "panta": 8439,
      "luke": 8440,
      "luputang": 8441,
      "praraga": 8442,
      "prabea": 8443,
      "mangkeng": 8444,
      "mangsegan": 8445,
      "utah": 8446,
      "Sawiakti": 8447,
      "Sapanjang": 8448,
      "Sambilang": 8449,
      "nai": 8450,
      "cam": 8451,
      "kore": 8452,
      "ngancan": 8453,
      "bangga": 8454,
      "parakaula": 8455,
      "parampok": 8456,
      "parapangangon": 8457,
      "paratamiune": 8458,
      "paraprawirane": 8459,
      "Ram": 8460,
      "Yeus": 8461,
      "Yeroh": 8462,
      "wege": 8463,
      "tangane": 8464,
      "tangis": 8465,
      "ngeb": 8466,
      "ngedas": 8467,
      "ngedoh": 8468,
      "ngepah": 8469,
      "asri": 8470,
      "wonge": 8471,
      "Tigang": 8472,
      "nyacad": 8473,
      "dikalaning": 8474,
      "makatetiga": 8475,
      "makapepitu": 8476,
      "gulang": 8477,
      "lakon": 8478,
      "rodan": 8479,
      "arsa": 8480,
      "artinne": 8481,
      "marga": 8482,
      "puan": 8483,
      "pusuh": 8484,
      "ngul": 8485,
      "ngugu": 8486,
      "nguek": 8487,
      "nguleng": 8488,
      "ngulihang": 8489,
      "lot": 8490,
      "Pelik": 8491,
      "Peor": 8492,
      "tindakan": 8493,
      "pangalaman": 8494,
      "Daane": 8495,
      "Daune": 8496,
      "mben": 8497,
      "Selem": 8498,
      "Sebah": 8499,
      "Seal": 8500,
      "Sepanya": 8501,
      "Sebna": 8502,
      "Sekanya": 8503,
      "susun": 8504,
      "nug": 8505,
      "Sisiane": 8506,
      "ngencurin": 8507,
      "tungtung": 8508,
      "mrarakang": 8509,
      "sisip": 8510,
      "ohane": 8511,
      "Kapatu": 8512,
      "Tutu": 8513,
      "Tulung": 8514,
      "Parajuru": 8515,
      "Parapangiring": 8516,
      "nyugihang": 8517,
      "patinget": 8518,
      "Kele": 8519,
      "purang": 8520,
      "purna": 8521,
      "Kijaja": 8522,
      "Sakur": 8523,
      "kapingarep": 8524,
      "ngaryanin": 8525,
      "muna": 8526,
      "kasepekang": 8527,
      "katake": 8528,
      "katrima": 8529,
      "agengipun": 8530,
      "pasilih": 8531,
      "Eliel": 8532,
      "corang": 8533,
      "nyakra": 8534,
      "gelahanga": 8535,
      "anggurne": 8536,
      "Betuel": 8537,
      "nangisin": 8538,
      "asikiko": 8539,
      "idupne": 8540,
      "idupnyane": 8541,
      "arepanipune": 8542,
      "ngastawaja": 8543,
      "Bangsan": 8544,
      "Toya": 8545,
      "iringja": 8546,
      "Delila": 8547,
      "daginginja": 8548,
      "cucu": 8549,
      "pasentana": 8550,
      "panjaknyane": 8551,
      "matujuhang": 8552,
      "matuyuhin": 8553,
      "maselangang": 8554,
      "wakin": 8555,
      "guminne": 8556,
      "kurenanipune": 8557,
      "katiwakang": 8558,
      "paurukane": 8559,
      "kakalahang": 8560,
      "demenan": 8561,
      "magebagan": 8562,
      "wohnyane": 8563,
      "Tabor": 8564,
      "paicayangja": 8565,
      "katuekang": 8566,
      "kolihin": 8567,
      "Elisabet": 8568,
      "Soba": 8569,
      "Soar": 8570,
      "jejer": 8571,
      "mabaris": 8572,
      "bukune": 8573,
      "yadiastuja": 8574,
      "nglebang": 8575,
      "setran": 8576,
      "sampingnyane": 8577,
      "makidihang": 8578,
      "Adake": 8579,
      "mawicara": 8580,
      "janjinipune": 8581,
      "kasugihane": 8582,
      "Big": 8583,
      "Arca": 8584,
      "Yael": 8585,
      "pakardinnyane": 8586,
      "rencananipune": 8587,
      "Ngaeja": 8588,
      "kapuputang": 8589,
      "macebleng": 8590,
      "Simea": 8591,
      "sarayang": 8592,
      "dewanipune": 8593,
      "prabotne": 8594,
      "pagehja": 8595,
      "Elyo": 8596,
      "balat": 8597,
      "lengise": 8598,
      "Rotine": 8599,
      "indrian": 8600,
      "kawentenanipun": 8601,
      "pipisne": 8602,
      "jekjek": 8603,
      "kajaatannyane": 8604,
      "Jalanangja": 8605,
      "Makadados": 8606,
      "warahangja": 8607,
      "Muah": 8608,
      "Musi": 8609,
      "panyeroane": 8610,
      "panegarannyane": 8611,
      "lawange": 8612,
      "kelingang": 8613,
      "sayagaja": 8614,
      "teluan": 8615,
      "Hanani": 8616,
      "nenggala": 8617,
      "Agag": 8618,
      "Ribla": 8619,
      "kaperluang": 8620,
      "kaperluannyane": 8621,
      "kecag": 8622,
      "widinnyane": 8623,
      "yatnaja": 8624,
      "derben": 8625,
      "pamragatne": 8626,
      "dreda": 8627,
      "pangarga": 8628,
      "Markus": 8629,
      "Wasti": 8630,
      "Cingakja": 8631,
      "amben": 8632,
      "sambehang": 8633,
      "Salmon": 8634,
      "Salmuna": 8635,
      "brangso": 8636,
      "gumantung": 8637,
      "ngastiti": 8638,
      "entasina": 8639,
      "Bilha": 8640,
      "panyosohane": 8641,
      "blulange": 8642,
      "salju": 8643,
      "Beltsasar": 8644,
      "magenepan": 8645,
      "Nahason": 8646,
      "nylediinin": 8647,
      "ngentap": 8648,
      "pepetet": 8649,
      "Minakadin": 8650,
      "Tampija": 8651,
      "Kasugihan": 8652,
      "Jemakja": 8653,
      "Tatkala": 8654,
      "Kabebasane": 8655,
      "kasambehang": 8656,
      "undage": 8657,
      "parahakim": 8658,
      "cacakan": 8659,
      "Nehe": 8660,
      "acepok": 8661,
      "bobotipun": 8662,
      "Selomit": 8663,
      "kabresihin": 8664,
      "Adulam": 8665,
      "Astawayangja": 8666,
      "Preti": 8667,
      "maclempung": 8668,
      "aksamayang": 8669,
      "kaprawiran": 8670,
      "kabiasaan": 8671,
      "Maletan": 8672,
      "Kidrone": 8673,
      "Sakuub": 8674,
      "Abednego": 8675,
      "Agemja": 8676,
      "Aleksan": 8677,
      "Jinahe": 8678,
      "Rubene": 8679,
      "Sunem": 8680,
      "Satinut": 8681,
      "atugel": 8682,
      "gjugin": 8683,
      "nutdut": 8684,
      "nglangkungin": 8685,
      "ngruruh": 8686,
      "pabuncing": 8687,
      "pamrastan": 8688,
      "Yeroham": 8689,
      "Peliks": 8690,
      "Elyoenai": 8691,
      "600": 8692,
      "72": 8693,
      "Adin": 8694,
      "Adan": 8695,
      "Awengi": 8696,
      "Apek": 8697,
      "Binu": 8698,
      "Dinane": 8699,
      "Esa": 8700,
      "Elih": 8701,
      "Ju": 8702,
      "Kuli": 8703,
      "Kapa": 8704,
      "Ngan": 8705,
      "Opra": 8706,
      "Prentah": 8707,
      "Soh": 8708,
      "Tong": 8709,
      "Tuli": 8710,
      "Uri": 8711,
      "Yar": 8712,
      "ami": 8713,
      "arit": 8714,
      "era": 8715,
      "ese": 8716,
      "iparautusan": 8717,
      "mpra": 8718,
      "nasa": 8719,
      "ome": 8720,
      "ore": 8721,
      "ole": 8722,
      "odalan": 8723,
      "pento": 8724,
      "sunduk": 8725,
      "slokane": 8726,
      "uga": 8727,
      "ulu": 8728,
      "uugang": 8729,
      "uled": 8730,
      "usahayangja": 8731,
      "wen": 8732,
      "ying": 8733,
      "’,": 8734,
      "’.": 8735,
      "ngwewehin": 8736,
      "angki": 8737,
      "kaga": 8738,
      "kapitu": 8739,
      "kaleme": 8740,
      "kago": 8741,
      "kaala": 8742,
      "kacap": 8743,
      "kaundang": 8744,
      "kasangsarane": 8745,
      "kabukak": 8746,
      "kagetingin": 8747,
      "kajekjek": 8748,
      "uni": 8749,
      "untane": 8750,
      "unteng": 8751,
      "sad": 8752,
      "saran": 8753,
      "samb": 8754,
      "sarare": 8755,
      "saurin": 8756,
      "sayubinja": 8757,
      "sasukat": 8758,
      "raabe": 8759,
      "dama": 8760,
      "damar": 8761,
      "dabdabang": 8762,
      "tuturangja": 8763,
      "matang": 8764,
      "mapin": 8765,
      "masuci": 8766,
      "mapituduh": 8767,
      "mawet": 8768,
      "intus": 8769,
      "pagu": 8770,
      "patih": 8771,
      "pawak": 8772,
      "paweweh": 8773,
      "paileh": 8774,
      "dimasane": 8775,
      "tikeh": 8776,
      "tagih": 8777,
      "tampa": 8778,
      "taline": 8779,
      "telebangja": 8780,
      "jarahan": 8781,
      "lia": 8782,
      "likang": 8783,
      "likia": 8784,
      "serang": 8785,
      "sekare": 8786,
      "mirah": 8787,
      "sumine": 8788,
      "bayun": 8789,
      "balik": 8790,
      "badihan": 8791,
      "meten": 8792,
      "nyene": 8793,
      "reb": 8794,
      "kantinnyane": 8795,
      "lekang": 8796,
      "lebah": 8797,
      "kelin": 8798,
      "kebot": 8799,
      "neb": 8800,
      "netes": 8801,
      "sande": 8802,
      "pira": 8803,
      "pisin": 8804,
      "ngatur": 8805,
      "ngajang": 8806,
      "muungang": 8807,
      "tani": 8808,
      "demane": 8809,
      "degang": 8810,
      "wara": 8811,
      "waduan": 8812,
      "wawanin": 8813,
      "ranang": 8814,
      "wibuh": 8815,
      "atah": 8816,
      "dug": 8817,
      "lanying": 8818,
      "pangung": 8819,
      "pangreh": 8820,
      "panganggone": 8821,
      "bebeke": 8822,
      "kenyagang": 8823,
      "antungane": 8824,
      "yapas": 8825,
      "kumbah": 8826,
      "kuatan": 8827,
      "pele": 8828,
      "petak": 8829,
      "pelet": 8830,
      "pepilihan": 8831,
      "geran": 8832,
      "getah": 8833,
      "geluran": 8834,
      "getep": 8835,
      "Pame": 8836,
      "Pajaga": 8837,
      "Padan": 8838,
      "lulut": 8839,
      "prakara": 8840,
      "Satunggaling": 8841,
      "nara": 8842,
      "naga": 8843,
      "cayang": 8844,
      "cate": 8845,
      "komplo": 8846,
      "bis": 8847,
      "nganyudang": 8848,
      "ngancam": 8849,
      "bangja": 8850,
      "paraba": 8851,
      "parabeba": 8852,
      "paraprakang": 8853,
      "parakulawarga": 8854,
      "parakomandan": 8855,
      "paragubernur": 8856,
      "Raba": 8857,
      "sangetan": 8858,
      "gene": 8859,
      "ruange": 8860,
      "Prabun": 8861,
      "tangja": 8862,
      "ngete": 8863,
      "ngembusin": 8864,
      "akejep": 8865,
      "patutnya": 8866,
      "bolong": 8867,
      "bogannyane": 8868,
      "boros": 8869,
      "wandu": 8870,
      "nyacarang": 8871,
      "nyambragang": 8872,
      "makatang": 8873,
      "makaput": 8874,
      "guak": 8875,
      "rob": 8876,
      "puponin": 8877,
      "yunang": 8878,
      "nguda": 8879,
      "ngusap": 8880,
      "pinja": 8881,
      "Pedang": 8882,
      "Petang": 8883,
      "Pedas": 8884,
      "ikam": 8885,
      "winasa": 8886,
      "tiningin": 8887,
      "mog": 8888,
      "ngigel": 8889,
      "jangka": 8890,
      "Sema": 8891,
      "Sere": 8892,
      "masaih": 8893,
      "luihane": 8894,
      "Memen": 8895,
      "Melek": 8896,
      "nujune": 8897,
      "nugdugang": 8898,
      "nyebar": 8899,
      "nyelong": 8900,
      "nyelsel": 8901,
      "kauji": 8902,
      "nilap": 8903,
      "Maraga": 8904,
      "Marep": 8905,
      "Mawinan": 8906,
      "repot": 8907,
      "wast": 8908,
      "Baosipune": 8909,
      "menaran": 8910,
      "mapajar": 8911,
      "soran": 8912,
      "ngenyat": 8913,
      "ngentegang": 8914,
      "tungangja": 8915,
      "minyake": 8916,
      "mbatang": 8917,
      "durjana": 8918,
      "lintangan": 8919,
      "Kad": 8920,
      "Kaula": 8921,
      "Kayapas": 8922,
      "Tulang": 8923,
      "Parakaulan": 8924,
      "Paraprajurit": 8925,
      "Parautusan": 8926,
      "nyumun": 8927,
      "nyuksrahang": 8928,
      "nyugjugin": 8929,
      "kapak": 8930,
      "kapaica": 8931,
      "Keda": 8932,
      "Kebare": 8933,
      "purwa": 8934,
      "yahin": 8935,
      "nyilih": 8936,
      "Kilikia": 8937,
      "ledangang": 8938,
      "kawiakti": 8939,
      "Yahas": 8940,
      "ajape": 8941,
      "nglukar": 8942,
      "pracayain": 8943,
      "Dijaja": 8944,
      "ngajakin": 8945,
      "ngrayunang": 8946,
      "kaseng": 8947,
      "rahinanipun": 8948,
      "ukudan": 8949,
      "katebus": 8950,
      "katedunang": 8951,
      "sesamannyane": 8952,
      "kasampur": 8953,
      "gelahnyane": 8954,
      "masannya": 8955,
      "tingkat": 8956,
      "salamin": 8957,
      "Beero": 8958,
      "Becikang": 8959,
      "tegehan": 8960,
      "kalipurang": 8961,
      "Pangang": 8962,
      "Gede": 8963,
      "Heres": 8964,
      "Teken": 8965,
      "Negak": 8966,
      "utangne": 8967,
      "Dedan": 8968,
      "Debir": 8969,
      "Tanduke": 8970,
      "Salomone": 8971,
      "matetangisan": 8972,
      "cukan": 8973,
      "engkebang": 8974,
      "pasliwer": 8975,
      "marginin": 8976,
      "pesengannyane": 8977,
      "baktaja": 8978,
      "darman": 8979,
      "nyanjiang": 8980,
      "Molok": 8981,
      "gahin": 8982,
      "kapracayanipune": 8983,
      "Abiram": 8984,
      "Abieser": 8985,
      "ragannyane": 8986,
      "tarban": 8987,
      "pepinehe": 8988,
      "ngwalesang": 8989,
      "kormane": 8990,
      "masem": 8991,
      "dohangja": 8992,
      "sengkil": 8993,
      "kabraman": 8994,
      "Rahinan": 8995,
      "nguncarang": 8996,
      "kasriokin": 8997,
      "ngwekasang": 8998,
      "kakewehane": 8999,
      "Lautangja": 9000,
      "bungane": 9001,
      "bungkem": 9002,
      "katiben": 9003,
      "matamiu": 9004,
      "kabelog": 9005,
      "kaberatan": 9006,
      "paksad": 9007,
      "kakalahin": 9008,
      "magehang": 9009,
      "magegelan": 9010,
      "pendonan": 9011,
      "tegehne": 9012,
      "kakuatanipune": 9013,
      "katulak": 9014,
      "maluab": 9015,
      "wenangang": 9016,
      "bunter": 9017,
      "buktiang": 9018,
      "pamucuk": 9019,
      "pagehan": 9020,
      "pagelur": 9021,
      "pangastawannyane": 9022,
      "kapelih": 9023,
      "kawedalang": 9024,
      "tetegenane": 9025,
      "Adaya": 9026,
      "kawawa": 9027,
      "kawacan": 9028,
      "karasayang": 9029,
      "Arpaksad": 9030,
      "Asmawet": 9031,
      "masesambatanja": 9032,
      "cerikan": 9033,
      "tetepasane": 9034,
      "kadaut": 9035,
      "kapukang": 9036,
      "mrikaja": 9037,
      "Rehob": 9038,
      "katangehan": 9039,
      "kenkenja": 9040,
      "benjangipun": 9041,
      "Este": 9042,
      "adegane": 9043,
      "pelihne": 9044,
      "magantulan": 9045,
      "mapanganggo": 9046,
      "atebih": 9047,
      "katahan": 9048,
      "katahipun": 9049,
      "tamiu": 9050,
      "kadandan": 9051,
      "birinnyane": 9052,
      "Kenine": 9053,
      "kampidipune": 9054,
      "amaha": 9055,
      "tampija": 9056,
      "nakutin": 9057,
      "sukune": 9058,
      "paningalane": 9059,
      "Libia": 9060,
      "Herodias": 9061,
      "watesnyane": 9062,
      "sesocane": 9063,
      "prunggune": 9064,
      "ramalane": 9065,
      "panyakap": 9066,
      "uedane": 9067,
      "nogdog": 9068,
      "Sanun": 9069,
      "Sanbalat": 9070,
      "abaja": 9071,
      "pagelahane": 9072,
      "Sebaja": 9073,
      "istiadat": 9074,
      "karusak": 9075,
      "lektekangja": 9076,
      "Jelan": 9077,
      "kecaping": 9078,
      "panyengkala": 9079,
      "pungkuran": 9080,
      "pariindik": 9081,
      "awag": 9082,
      "majian": 9083,
      "gegaden": 9084,
      "akahne": 9085,
      "kakirim": 9086,
      "kakisidang": 9087,
      "musti": 9088,
      "glat": 9089,
[...]
