{
  "version": "1.0",
  "truncation": null,
  "padding": null,
  "added_tokens": [
    {
      "id": 0,
      "content": "<pad>",
      "single_word": false,
      "lstrip": false,
      "rstrip": false,
      "normalized": false,
      "special": true
    },
    {
      "id": 1,
      "content": "<unk>",
      "single_word": false,
      "lstrip": false,
      "rstrip": false,
      "normalized": false,
      "special": true
    },
    {
      "id": 2,
      "content": "<s>",
      "single_word": false,
      "lstrip": false,
      "rstrip": false,
      "normalized": false,
      "special": true
    },
    {
      "id": 3,
      "content": "</s>",
      "single_word": false,
      "lstrip": false,
      "rstrip": false,
      "normalized": false,
      "special": true
    }
  ],
  "normalizer": null,
  "pre_tokenizer": {
    "type": "Sequence",
    "pretokenizers": [
      {
        "type": "Whitespace"
      },
      {
        "type": "Split",
        "pattern": {
          "Regex": "(?<=[ऀ-ॿ஀-௿฀-๿຀-໿က-႟ក-៿一-鿿꤀-꤯])(?=[A-Za-z0-9])|(?<=[A-Za-z0-9])(?=[ऀ-ॿ஀-௿฀-๿຀-໿က-႟ក-៿一-鿿꤀-꤯])"
        },
        "behavior": "Isolated",
        "invert": false
      }
    ]
  },
  "post_processor": null,
  "decoder": null,
  "model": {
    "type": "BPE",
    "dropout": null,
    "unk_token": "<unk>",
    "continuing_subword_prefix": null,
    "end_of_word_suffix": null,
    "fuse_unk": false,
    "byte_fallback": false,
    "ignore_merges": false,
    "vocab": {
      "<pad>": 0,
      "<unk>": 1,
      "<s>": 2,
      "</s>": 3,
      "!": 4,
      "'": 5,
      "(": 6,
      ")": 7,
      "*": 8,
      ",": 9,
      "-": 10,
      ".": 11,
      "/": 12,
      "0": 13,
      "1": 14,
      "2": 15,
      "3": 16,
      "4": 17,
      "5": 18,
      "6": 19,
      "7": 20,
      "8": 21,
      "9": 22,
      ":": 23,
      ";": 24,
      "?": 25,
      "A": 26,
      "B": 27,
      "C": 28,
      "D": 29,
      "E": 30,
      "F": 31,
      "G": 32,
      "H": 33,
      "I": 34,
      "J": 35,
      "K": 36,
      "L": 37,
      "M": 38,
      "N": 39,
      "O": 40,
      "P": 41,
      "R": 42,
      "S": 43,
      "T": 44,
      "U": 45,
      "V": 46,
      "W": 47,
      "Y": 48,
      "Z": 49,
      "[": 50,
      "]": 51,
      "a": 52,
      "b": 53,
      "c": 54,
      "d": 55,
      "e": 56,
      "f": 57,
      "g": 58,
      "h": 59,
      "i": 60,
      "j": 61,
      "k": 62,
      "l": 63,
      "m": 64,
      "n": 65,
      "o": 66,
      "p": 67,
      "r": 68,
      "s": 69,
      "t": 70,
      "u": 71,
      "v": 72,
      "w": 73,
      "x": 74,
      "y": 75,
      "z": 76,
      "·": 77,
      "æ": 78,
      "ʹ": 79,
      "ʼ": 80,
      "ʽ": 81,
      "ה": 82,
      "ו": 83,
      "י": 84,
      "Ṭ": 85,
      "ṭ": 86,
      "–": 87,
      "—": 88,
      "‘": 89,
      "’": 90,
      "“": 91,
      "”": 92,
      "…": 93,
      "⁠": 94,
      "●": 95,
      "an": 96,
      "ah": 97,
      "na": 98,
      "ng": 99,
      "cu": 100,
      "aw": 101,
      "kh": 102,
      "ih": 103,
      "in": 104,
      "hna": 105,
      "th": 106,
      "mi": 107,
      "ang": 108,
      "la": 109,
      "kha": 110,
      "ti": 111,
      "nih": 112,
      "al": 113,
      "ch": 114,
      "si": 115,
      "le": 116,
      "ka": 117,
      "pa": 118,
      "tu": 119,
      "nak": 120,
      "lai": 121,
      "ung": 122,
      "am": 123,
      "lo": 124,
      "te": 125,
      "un": 126,
      "um": 127,
      "thi": 128,
      "ak": 129,
      "ei": 130,
      "cun": 131,
      "awi": 132,
      "hm": 133,
      "se": 134,
      "nan": 135,
      "ṭh": 136,
      "ca": 137,
      "uh": 138,
      "law": 139,
      "ia": 140,
      "khan": 141,
      "ai": 142,
      "kan": 143,
      "anh": 144,
      "hi": 145,
      "tiah": 146,
      "pi": 147,
      "awipa": 148,
      "chung": 149,
      "im": 150,
      "Bawipa": 151,
      "ua": 152,
      "mah": 153,
      "hr": 154,
      "caah": 155,
      "seh": 156,
      "ko": 157,
      "Pa": 158,
      "thian": 159,
      "ra": 160,
      "kah": 161,
      "khat": 162,
      "tuah": 163,
      "el": 164,
      "ph": 165,
      "Pathian": 166,
      "bia": 167,
      "awh": 168,
      "vi": 169,
      "ing": 170,
      "Cun": 171,
      "ar": 172,
      "pe": 173,
      "sin": 174,
      "lei": 175,
      "ter": 176,
      "fa": 177,
      "cung": 178,
      "ru": 179,
      "ong": 180,
      "hnak": 181,
      ",”": 182,
      "lak": 183,
      "ram": 184,
      "tuk": 185,
      "dah": 186,
      "ihm": 187,
      "pah": 188,
      "khua": 189,
      "vial": 190,
      "chim": 191,
      "vialte": 192,
      "tl": 193,
      "oh": 194,
      "ihmanh": 195,
      "li": 196,
      "Je": 197,
      "he": 198,
      "rang": 199,
      "hng": 200,
      "ri": 201,
      "ul": 202,
      "aa": 203,
      "pek": 204,
      "zei": 205,
      "kal": 206,
      "Cu": 207,
      "awk": 208,
      "ban": 209,
      "inn": 210,
      "nu": 211,
      "awng": 212,
      "ut": 213,
      "chu": 214,
      "ṭha": 215,
      "sinah": 216,
      "pakhat": 217,
      "bantuk": 218,
      "rak": 219,
      "su": 220,
      "tikah": 221,
      "pahrang": 222,
      "angpahrang": 223,
      "sehlaw": 224,
      "on": 225,
      "ihmanhsehlaw": 226,
      "dih": 227,
      "Is": 228,
      "awn": 229,
      "cang": 230,
      "bi": 231,
      "va": 232,
      "thil": 233,
      "zong": 234,
      "awl": 235,
      "lung": 236,
      "amah": 237,
      "fapa": 238,
      "chungah": 239,
      "hl": 240,
      "en": 241,
      "lam": 242,
      "eih": 243,
      "sa": 244,
      "ser": 245,
      "rael": 246,
      "Israel": 247,
      "ni": 248,
      "hmuh": 249,
      "hmanh": 250,
      "hngal": 251,
      "ral": 252,
      "cungah": 253,
      "siangpahrang": 254,
      "hin": 255,
      "uan": 256,
      "za": 257,
      "sal": 258,
      "em": 259,
      "nga": 260,
      "bawi": 261,
      "chuah": 262,
      "uk": 263,
      "awkah": 264,
      "iah": 265,
      "ummi": 266,
      "angmah": 267,
      "min": 268,
      "ahcun": 269,
      "naw": 270,
      "or": 271,
      "duh": 272,
      "tein": 273,
      "ding": 274,
      "ve": 275,
      "thawh": 276,
      "sual": 277,
      "awm": 278,
      "ngai": 279,
      "hmun": 280,
      "de": 281,
      "phun": 282,
      "Mi": 283,
      "Jes": 284,
      "Ka": 285,
      "tak": 286,
      "tin": 287,
      "maw": 288,
      "hmai": 289,
      "Cucaah": 290,
      "cah": 291,
      "annih": 292,
      "tnak": 293,
      "ṭhan": 294,
      "eu": 295,
      "Jesuh": 296,
      "piak": 297,
      "chia": 298,
      "tlang": 299,
      "ir": 300,
      "khawh": 301,
      "hngalh": 302,
      "An": 303,
      "nawl": 304,
      "ning": 305,
      "leng": 306,
      "lang": 307,
      "Sihmanhsehlaw": 308,
      "ngei": 309,
      "kho": 310,
      "ruah": 311,
      "ci": 312,
      "Na": 313,
      "kut": 314,
      "thla": 315,
      "lawng": 316,
      "nangmah": 317,
      "er": 318,
      "awlei": 319,
      "dang": 320,
      "hrim": 321,
      "hlah": 322,
      "eimah": 323,
      "thl": 324,
      "ha": 325,
      "bu": 326,
      "lawm": 327,
      "Hi": 328,
      "bantukin": 329,
      "ip": 330,
      "Zei": 331,
      "hung": 332,
      "sihmanhsehlaw": 333,
      "thin": 334,
      "lomi": 335,
      "ho": 336,
      "siseh": 337,
      "paoh": 338,
      "Ju": 339,
      "zul": 340,
      "ṭi": 341,
      "tam": 342,
      "ngan": 343,
      "zoh": 344,
      "vawlei": 345,
      "ta": 346,
      "ek": 347,
      "tiang": 348,
      "thiang": 349,
      "rian": 350,
      "mang": 351,
      "thawi": 352,
      "kam": 353,
      "Judah": 354,
      "biak": 355,
      "tla": 356,
      "loin": 357,
      "hun": 358,
      "cahtiah": 359,
      "nun": 360,
      "chimh": 361,
      "ose": 362,
      "keimah": 363,
      "lh": 364,
      "ṭuan": 365,
      "ṭhat": 366,
      "van": 367,
      "kong": 368,
      "sh": 369,
      "Da": 370,
      "upa": 371,
      "ro": 372,
      "caan": 373,
      "ihnak": 374,
      "theih": 375,
      "deuh": 376,
      "zal": 377,
      "kum": 378,
      "aho": 379,
      "ze": 380,
      "chan": 381,
      "ṭhi": 382,
      "thawinak": 383,
      "bang": 384,
      "vid": 385,
      "David": 386,
      "mh": 387,
      "thah": 388,
      "tuahmi": 389,
      "umh": 390,
      "bik": 391,
      "pal": 392,
      "zung": 393,
      "eng": 394,
      "hnu": 395,
      "rawl": 396,
      "ruang": 397,
      "mei": 398,
      "hla": 399,
      "khi": 400,
      "dan": 401,
      "uat": 402,
      "chuak": 403,
      "tlak": 404,
      "cheu": 405,
      "thawng": 406,
      "chiah": 407,
      "hnga": 408,
      "hter": 409,
      "lio": 410,
      "bal": 411,
      "Si": 412,
      "tang": 413,
      ",’": 414,
      "zungzal": 415,
      "zeihmanh": 416,
      "ui": 417,
      "nung": 418,
      "chungin": 419,
      "kap": 420,
      "daw": 421,
      "ngeih": 422,
      "sar": 423,
      "hmaiah": 424,
      "mit": 425,
      "cio": 426,
      "uai": 427,
      "thum": 428,
      "dihlak": 429,
      "ihi": 430,
      "Nan": 431,
      "Jo": 432,
      "oses": 433,
      "pawl": 434,
      "Moses": 435,
      "Jeru": 436,
      "hma": 437,
      "lengmang": 438,
      "nakh": 439,
      "nain": 440,
      "simi": 441,
      "salem": 442,
      "Jerusalem": 443,
      "hal": 444,
      "thiam": 445,
      "leh": 446,
      "lu": 447,
      "har": 448,
      "nakhnga": 449,
      "dong": 450,
      "ngaih": 451,
      "tampi": 452,
      "lonak": 453,
      "tlangbawi": 454,
      "nau": 455,
      "zu": 456,
      "sak": 457,
      "sawm": 458,
      "pum": 459,
      "thang": 460,
      "?”": 461,
      "hmu": 462,
      "rel": 463,
      "zeitin": 464,
      "cam": 465,
      "et": 466,
      "lon": 467,
      "ba": 468,
      "khar": 469,
      "hmi": 470,
      "ahnak": 471,
      "hrih": 472,
      "hlan": 473,
      "Iz": 474,
      "Khrih": 475,
      "chin": 476,
      "bangin": 477,
      "pahnih": 478,
      "phung": 479,
      "sualnak": 480,
      "hihi": 481,
      "hei": 482,
      "hrimhrim": 483,
      "ruangah": 484,
      "miphun": 485,
      "ipt": 486,
      "Izipt": 487,
      "nannih": 488,
      "puan": 489,
      "ṭhal": 490,
      "do": 491,
      "Kan": 492,
      "Sa": 493,
      "zeicahtiah": 494,
      "hlei": 495,
      "timi": 496,
      "ṭhalo": 497,
      "Amah": 498,
      "thong": 499,
      "tha": 500,
      "par": 501,
      "din": 502,
      "hnaw": 503,
      "Siangpahrang": 504,
      "nunnak": 505,
      "cawn": 506,
      "da": 507,
      "rih": 508,
      "hn": 509,
      "ahohmanh": 510,
      "enh": 511,
      "thlah": 512,
      "tum": 513,
      "Ab": 514,
      "bawm": 515,
      "dir": 516,
      "chimmi": 517,
      "ralkap": 518,
      "anmah": 519,
      "thu": 520,
      "thing": 521,
      "hlaw": 522,
      "kaa": 523,
      "lakah": 524,
      "rau": 525,
      "bo": 526,
      "Ba": 527,
      "nam": 528,
      "chanh": 529,
      "minung": 530,
      "fim": 531,
      "thei": 532,
      "fi": 533,
      "rat": 534,
      "cawnpiak": 535,
      "angh": 536,
      "chungkhar": 537,
      "ke": 538,
      "kir": 539,
      "atu": 540,
      "caw": 541,
      "tlai": 542,
      "chiat": 543,
      "umnak": 544,
      "ṭial": 545,
      "hman": 546,
      "vancung": 547,
      "tefa": 548,
      "ṭhiam": 549,
      "Mah": 550,
      "hram": 551,
      "nawlbia": 552,
      "ale": 553,
      "sur": 554,
      "sarih": 555,
      "nupi": 556,
      "kul": 557,
      "zumh": 558,
      "tuu": 559,
      "chun": 560,
      "Annih": 561,
      "phan": 562,
      "chang": 563,
      "rh": 564,
      "khin": 565,
      "tawn": 566,
      "ṭih": 567,
      "langhter": 568,
      "zulh": 569,
      "nanmah": 570,
      "pekmi": 571,
      "Kh": 572,
      "tho": 573,
      "fak": 574,
      "tan": 575,
      "di": 576,
      "pang": 577,
      "re": 578,
      "rai": 579,
      "uang": 580,
      "Am": 581,
      "doh": 582,
      "hawi": 583,
      "Khi": 584,
      "co": 585,
      "len": 586,
      "hnih": 587,
      "unau": 588,
      "biakam": 589,
      "ili": 590,
      "sinin": 591,
      "hrawh": 592,
      "tluk": 593,
      "Be": 594,
      "hnuah": 595,
      "Le": 596,
      "au": 597,
      "sang": 598,
      "sui": 599,
      "oi": 600,
      "zar": 601,
      "mon": 602,
      "fet": 603,
      "cucaah": 604,
      "ṭhawn": 605,
      "rofet": 606,
      "Nangmah": 607,
      "fan": 608,
      "khamh": 609,
      "ngaingai": 610,
      "tlaih": 611,
      "chi": 612,
      "sinain": 613,
      "cucu": 614,
      "tlun": 615,
      "thangṭhat": 616,
      "ngak": 617,
      "khangh": 618,
      "let": 619,
      "kalpi": 620,
      "Maw": 621,
      "lioah": 622,
      "ceih": 623,
      "Zeicahtiah": 624,
      "ual": 625,
      "zan": 626,
      "ab": 627,
      "cahdah": 628,
      ".”": 629,
      "ṭhawng": 630,
      "hrin": 631,
      "run": 632,
      "mipa": 633,
      "zapi": 634,
      "sau": 635,
      "vai": 636,
      "pawng": 637,
      "aan": 638,
      "lut": 639,
      "ṭheng": 640,
      "innchungkhar": 641,
      "ton": 642,
      "zaang": 643,
      "rem": 644,
      "fale": 645,
      "sawh": 646,
      "biakamnak": 647,
      "zum": 648,
      "duhmi": 649,
      "Tlang": 650,
      "tei": 651,
      "taktak": 652,
      "Fa": 653,
      "kip": 654,
      "pei": 655,
      "ticun": 656,
      "hnawh": 657,
      "profet": 658,
      "nakin": 659,
      "fanu": 660,
      "khenh": 661,
      "phak": 662,
      "phi": 663,
      "phaw": 664,
      "He": 665,
      "put": 666,
      "biakṭheng": 667,
      "tlawm": 668,
      "thih": 669,
      "rah": 670,
      "du": 671,
      "awhnak": 672,
      "pekchanh": 673,
      "Saul": 674,
      "ṭhawnnak": 675,
      "zeidah": 676,
      "pathian": 677,
      "lungthin": 678,
      "thawngin": 679,
      "sermi": 680,
      "harnak": 681,
      "thawk": 682,
      "piin": 683,
      "dam": 684,
      "hmasa": 685,
      "Nannih": 686,
      "Thi": 687,
      "ṭil": 688,
      "thlam": 689,
      "tlung": 690,
      "Th": 691,
      "om": 692,
      "zeitintiah": 693,
      "thim": 694,
      "ki": 695,
      "can": 696,
      "riah": 697,
      "ṭhatnak": 698,
      "luh": 699,
      "hmang": 700,
      "ob": 701,
      "Bi": 702,
      "vel": 703,
      "zultu": 704,
      "thlua": 705,
      "hruai": 706,
      "fahnak": 707,
      "Thla": 708,
      "Ze": 709,
      "Khua": 710,
      "pupa": 711,
      "khika": 712,
      "than": 713,
      "mitsur": 714,
      "dawt": 715,
      "Ral": 716,
      "Ma": 717,
      "She": 718,
      "tiva": 719,
      "Levi": 720,
      "ṭhut": 721,
      "zongah": 722,
      "So": 723,
      "thli": 724,
      "tiin": 725,
      "dawtnak": 726,
      "Fili": 727,
      "kung": 728,
      "zeitindah": 729,
      "zing": 730,
      "Bai": 731,
      "Me": 732,
      "Baibal": 733,
      "kawl": 734,
      "she": 735,
      "sen": 736,
      "Keimah": 737,
      "aron": 738,
      "hau": 739,
      "Aaron": 740,
      "uar": 741,
      "Aho": 742,
      "auh": 743,
      "zam": 744,
      "man": 745,
      "tah": 746,
      "ngun": 747,
      "thluachuah": 748,
      "eh": 749,
      "kai": 750,
      "philh": 751,
      "as": 752,
      "Pe": 753,
      "bawipa": 754,
      "chuahpi": 755,
      "Jeho": 756,
      "thai": 757,
      "chih": 758,
      "him": 759,
      "Jak": 760,
      "hring": 761,
      "ruahnak": 762,
      "ruk": 763,
      "ullam": 764,
      "thinhun": 765,
      "fawn": 766,
      "lan": 767,
      "Jakob": 768,
      "tling": 769,
      "saṭil": 770,
      "luat": 771,
      "men": 772,
      "kannih": 773,
      "bilon": 774,
      "Babilon": 775,
      "khuaruah": 776,
      "kun": 777,
      "mu": 778,
      "Gi": 779,
      "Eli": 780,
      "Sam": 781,
      "hri": 782,
      "Ni": 783,
      "mer": 784,
      "fek": 785,
      "vung": 786,
      "cuka": 787,
      "ṭhu": 788,
      "biakinn": 789,
      "Bia": 790,
      "leiah": 791,
      "hran": 792,
      "zohkhenh": 793,
      "Ng": 794,
      "sawng": 795,
      "ennak": 796,
      "thlarau": 797,
      "reu": 798,
      "sun": 799,
      "ria": 800,
      "vancungmi": 801,
      "naa": 802,
      "sih": 803,
      "timh": 804,
      "sia": 805,
      "lawmhnak": 806,
      "hle": 807,
      "ngakchia": 808,
      "tlunter": 809,
      "oih": 810,
      "uktu": 811,
      "ralkapbu": 812,
      "duhnak": 813,
      "ruat": 814,
      "rili": 815,
      "phunglam": 816,
      "Zeitin": 817,
      "zaw": 818,
      "ngeimi": 819,
      "uah": 820,
      "be": 821,
      "sam": 822,
      "ohan": 823,
      "ṭhiamṭhiam": 824,
      "ceu": 825,
      "ṭung": 826,
      "rung": 827,
      "kutka": 828,
      "parnak": 829,
      "vainam": 830,
      "lomon": 831,
      "Solomon": 832,
      "Filis": 833,
      "hmuhmi": 834,
      "dar": 835,
      "tung": 836,
      "Thlarau": 837,
      "Asinain": 838,
      "sullam": 839,
      "Johan": 840,
      "kuang": 841,
      "Zeicahdah": 842,
      "dum": 843,
      "Abrah": 844,
      "Abraham": 845,
      "Jose": 846,
      "zuam": 847,
      "Beth": 848,
      "sunparnak": 849,
      "Filistin": 850,
      "Vawlei": 851,
      "fah": 852,
      "khiah": 853,
      "awnh": 854,
      "Ne": 855,
      "Josef": 856,
      "pakhatkhat": 857,
      "chiti": 858,
      "kei": 859,
      "ṭam": 860,
      "thlai": 861,
      "ap": 862,
      "silo": 863,
      "zumhnak": 864,
      "me": 865,
      "chaw": 866,
      "hrem": 867,
      "laksawng": 868,
      "bawmh": 869,
      "cawh": 870,
      "aiah": 871,
      "aro": 872,
      "ad": 873,
      "dawi": 874,
      "nihin": 875,
      "Van": 876,
      "thihnak": 877,
      "thuh": 878,
      "Fapa": 879,
      "sinum": 880,
      "rawk": 881,
      "cik": 882,
      "rawn": 883,
      "thar": 884,
      "tlin": 885,
      "Cuticun": 886,
      "Zoh": 887,
      "ssi": 888,
      "vut": 889,
      "khuami": 890,
      "hmaan": 891,
      "thinhunnak": 892,
      "rianṭuan": 893,
      "chunhnak": 894,
      "voi": 895,
      "cawtum": 896,
      "cikc": 897,
      "Atu": 898,
      "tat": 899,
      "tal": 900,
      "anngan": 901,
      "hlawt": 902,
      "peng": 903,
      "dingmi": 904,
      "changreu": 905,
      "Ram": 906,
      "rum": 907,
      "orh": 908,
      "tangka": 909,
      "hra": 910,
      "holh": 911,
      "pumh": 912,
      "pathum": 913,
      "Ca": 914,
      "sung": 915,
      "Ti": 916,
      "sha": 917,
      "bochan": 918,
      "daihnak": 919,
      "Zi": 920,
      "dawh": 921,
      "dingah": 922,
      "nnak": 923,
      "vui": 924,
      "Zohhmanh": 925,
      "pu": 926,
      "zat": 927,
      "siloah": 928,
      "Faro": 929,
      "kaltu": 930,
      "raithawinak": 931,
      "anih": 932,
      "herh": 933,
      "khawhnak": 934,
      "rami": 935,
      "fimnak": 936,
      "tlawmpal": 937,
      "ol": 938,
      "kaltak": 939,
      "ningin": 940,
      "hlanah": 941,
      "chuahlei": 942,
      "tiangin": 943,
      "otu": 944,
      "ther": 945,
      "lonh": 946,
      "tai": 947,
      "kar": 948,
      "tel": 949,
      "ramlak": 950,
      "lawnglawng": 951,
      "shua": 952,
      "Ha": 953,
      "Paul": 954,
      "khatte": 955,
      "zohhmanh": 956,
      "midang": 957,
      "paohpaoh": 958,
      "ampang": 959,
      "Ef": 960,
      "haotu": 961,
      "Peter": 962,
      "fung": 963,
      "Mat": 964,
      "Ben": 965,
      "hu": 966,
      "kua": 967,
      "chuahter": 968,
      "fial": 969,
      "coh": 970,
      "ṭhutdan": 971,
      "cikcek": 972,
      "no": 973,
      "Joshua": 974,
      "vun": 975,
      "awktlak": 976,
      "donghnak": 977,
      "Mo": 978,
      "tik": 979,
      "heh": 980,
      "val": 981,
      "ratpi": 982,
      "zaangfahnak": 983,
      "mhnak": 984,
      "lih": 985,
      "umter": 986,
      "nuam": 987,
      "Ralkap": 988,
      "Phung": 989,
      "don": 990,
      "vampang": 991,
      "cawk": 992,
      "phang": 993,
      "thilri": 994,
      "pale": 995,
      "ngeihmi": 996,
      "siasal": 997,
      "chawnh": 998,
      "changvut": 999,
      "asiloah": 1000,
      "zang": 1001,
      "lek": 1002,
      "Aha": 1003,
      "fang": 1004,
      "thlak": 1005,
      "miah": 1006,
      "jah": 1007,
      "tawng": 1008,
      ".”—": 1009,
      "puai": 1010,
      "sinak": 1011,
      "hmel": 1012,
      "rual": 1013,
      "pali": 1014,
      "asinain": 1015,
      "dai": 1016,
      "biaceih": 1017,
      "khuapi": 1018,
      "chuakmi": 1019,
      "saram": 1020,
      "cin": 1021,
      "kanmah": 1022,
      "zi": 1023,
      "zak": 1024,
      "ihmui": 1025,
      "hlo": 1026,
      "chum": 1027,
      "Jor": 1028,
      "ralr": 1029,
      "ihnih": 1030,
      "hmelchunhnak": 1031,
      "nang": 1032,
      "miṭhalo": 1033,
      "ath": 1034,
      "amin": 1035,
      "thlacam": 1036,
      "Lam": 1037,
      "bba": 1038,
      "innka": 1039,
      "nichuahlei": 1040,
      "chiatnak": 1041,
      "zumhawktlak": 1042,
      "hlonh": 1043,
      "vo": 1044,
      "kheng": 1045,
      "Jordan": 1046,
      "hang": 1047,
      "zihmui": 1048,
      "nganpi": 1049,
      "thanh": 1050,
      "hitin": 1051,
      "elrawn": 1052,
      "dom": 1053,
      "thazang": 1054,
      "Min": 1055,
      "hringhran": 1056,
      "ngaihthiam": 1057,
      "thluachuahnak": 1058,
      "Moab": 1059,
      "alh": 1060,
      "ulh": 1061,
      "zeitluk": 1062,
      "deng": 1063,
      "por": 1064,
      "dinnak": 1065,
      "Heb": 1066,
      "Re": 1067,
      "zah": 1068,
      "khul": 1069,
      "lawmh": 1070,
      "nungmi": 1071,
      "Dan": 1072,
      "thm": 1073,
      "tikh": 1074,
      "biatak": 1075,
      "zeicahdah": 1076,
      "fih": 1077,
      "jamin": 1078,
      "khuh": 1079,
      "ngaiin": 1080,
      "velchum": 1081,
      "ihin": 1082,
      "cawng": 1083,
      "mui": 1084,
      "pak": 1085,
      "hika": 1086,
      "fate": 1087,
      "Tu": 1088,
      "fe": 1089,
      "cheukhat": 1090,
      "Benjamin": 1091,
      "Man": 1092,
      "san": 1093,
      "ahm": 1094,
      "peh": 1095,
      "Sal": 1096,
      "ṭhen": 1097,
      "iria": 1098,
      "Pennak": 1099,
      "kawh": 1100,
      "hngalhnak": 1101,
      "dingin": 1102,
      "hnek": 1103,
      "mizapi": 1104,
      "hruaitu": 1105,
      "zawn": 1106,
      "Tlangbawi": 1107,
      "zawtnak": 1108,
      "meheh": 1109,
      "hlen": 1110,
      "tong": 1111,
      "mithm": 1112,
      "tuahnak": 1113,
      "Kei": 1114,
      "ez": 1115,
      "tmi": 1116,
      "khual": 1117,
      "kalter": 1118,
      "Mipa": 1119,
      "hleihnih": 1120,
      "Ralkapbu": 1121,
      "nem": 1122,
      "Jere": 1123,
      "hlantiang": 1124,
      "fiang": 1125,
      "ceunak": 1126,
      "Li": 1127,
      "thaw": 1128,
      "serh": 1129,
      "Jeremiah": 1130,
      "Nawl": 1131,
      "aih": 1132,
      "lianngan": 1133,
      "ken": 1134,
      "thuam": 1135,
      "tim": 1136,
      "chak": 1137,
      "pasarih": 1138,
      "ramri": 1139,
      "lamkaltu": 1140,
      "hmunthiang": 1141,
      "Zeitintiah": 1142,
      "thianh": 1143,
      "pil": 1144,
      "sernak": 1145,
      "biaknak": 1146,
      "pekchanhmi": 1147,
      "Thiang": 1148,
      "Assi": 1149,
      "Hm": 1150,
      "bel": 1151,
      "rim": 1152,
      "riahhmun": 1153,
      "nai": 1154,
      "cuticun": 1155,
      "cauk": 1156,
      "cia": 1157,
      "manh": 1158,
      "ron": 1159,
      "uel": 1160,
      "ṭap": 1161,
      "pennak": 1162,
      "rut": 1163,
      "tangmi": 1164,
      "Matthai": 1165,
      "ihrut": 1166,
      "thisen": 1167,
      "kom": 1168,
      "tertu": 1169,
      "ruahchan": 1170,
      "kulh": 1171,
      "Lung": 1172,
      "car": 1173,
      "khuazei": 1174,
      "upatnak": 1175,
      "Khrihfa": 1176,
      "Ahohmanh": 1177,
      "Cathiang": 1178,
      "Assiria": 1179,
      "Nu": 1180,
      "laa": 1181,
      "khal": 1182,
      "rangleng": 1183,
      "pumhnak": 1184,
      "khuaruahhar": 1185,
      "ya": 1186,
      "ṭah": 1187,
      "alnak": 1188,
      "lem": 1189,
      "cangmi": 1190,
      "naih": 1191,
      "hmailei": 1192,
      "pawngah": 1193,
      "kuat": 1194,
      "dip": 1195,
      "oth": 1196,
      "tual": 1197,
      "tuknak": 1198,
      "lengah": 1199,
      "khomi": 1200,
      "Kanaan": 1201,
      "Biak": 1202,
      "Va": 1203,
      "zahnak": 1204,
      "hmuhsak": 1205,
      "orhlei": 1206,
      "ahodah": 1207,
      "that": 1208,
      "boam": 1209,
      "zaangfah": 1210,
      "Bik": 1211,
      "Nawlbia": 1212,
      "khaan": 1213,
      "palawng": 1214,
      "Zion": 1215,
      "cuar": 1216,
      "sining": 1217,
      "Cuka": 1218,
      "tlangval": 1219,
      "cohlan": 1220,
      "zia": 1221,
      "thingkung": 1222,
      "angmi": 1223,
      "nitlak": 1224,
      "Hihi": 1225,
      "raim": 1226,
      "Vancung": 1227,
      "sifak": 1228,
      "zeizong": 1229,
      "Hez": 1230,
      "asseh": 1231,
      "karlak": 1232,
      "bbath": 1233,
      "Manasseh": 1234,
      "Abi": 1235,
      "hni": 1236,
      "innak": 1237,
      "unh": 1238,
      "cawnpiaknak": 1239,
      "Efraim": 1240,
      "khulrang": 1241,
      "Kannih": 1242,
      "sah": 1243,
      "thir": 1244,
      "ruak": 1245,
      "minu": 1246,
      "huh": 1247,
      "kau": 1248,
      "ukawng": 1249,
      "veng": 1250,
      "thawhter": 1251,
      "ṭhit": 1252,
      "Joab": 1253,
      "remnak": 1254,
      "che": 1255,
      "thur": 1256,
      "remh": 1257,
      "Samuel": 1258,
      "ahmaan": 1259,
      "nelrawn": 1260,
      "lead": 1261,
      "hme": 1262,
      "thaizing": 1263,
      "pakpalawng": 1264,
      "In": 1265,
      "Rili": 1266,
      "Isak": 1267,
      "biah": 1268,
      "thlan": 1269,
      "ṭialmi": 1270,
      "fir": 1271,
      "thlei": 1272,
      "vawleicung": 1273,
      "hnulei": 1274,
      "fihnung": 1275,
      "ṭum": 1276,
      "khun": 1277,
      "innchung": 1278,
      "onh": 1279,
      "chimhmi": 1280,
      "dik": 1281,
      "Thawng": 1282,
      "Minung": 1283,
      "Ge": 1284,
      "tar": 1285,
      "tlon": 1286,
      "inh": 1287,
      "thlet": 1288,
      "tuukawng": 1289,
      "biapi": 1290,
      "hlawh": 1291,
      "nah": 1292,
      "thlang": 1293,
      "phungbia": 1294,
      "thimmi": 1295,
      "mithmuh": 1296,
      "thau": 1297,
      "Ra": 1298,
      "Za": 1299,
      "phorh": 1300,
      "Isaiah": 1301,
      "Jona": 1302,
      "Thil": 1303,
      "thlacamnak": 1304,
      "chaklei": 1305,
      "aria": 1306,
      "Miphun": 1307,
      "chinchin": 1308,
      "porhlaw": 1309,
      "El": 1310,
      "and": 1311,
      "hmui": 1312,
      "hmaika": 1313,
      "tangah": 1314,
      "Siria": 1315,
      "kamah": 1316,
      "dohnak": 1317,
      "Samaria": 1318,
      "zohkhenhtu": 1319,
      "Zeitindah": 1320,
      "nge": 1321,
      "lawn": 1322,
      "tuufa": 1323,
      "huat": 1324,
      "her": 1325,
      "thianglo": 1326,
      "panga": 1327,
      "12": 1328,
      "Ham": 1329,
      "Har": 1330,
      "thuk": 1331,
      "ṭhawngmi": 1332,
      "andeih": 1333,
      "Sim": 1334,
      "lakin": 1335,
      "tatnak": 1336,
      "ngaknu": 1337,
      "Ar": 1338,
      "Mar": 1339,
      "den": 1340,
      "hua": 1341,
      "lawh": 1342,
      "Thawngṭha": 1343,
      "thet": 1344,
      "fekmi": 1345,
      "thetse": 1346,
      "14": 1347,
      "Shi": 1348,
      "dor": 1349,
      "hnan": 1350,
      "ur": 1351,
      "khamhnak": 1352,
      "ṭhek": 1353,
      "anhngan": 1354,
      "thiangmi": 1355,
      "zual": 1356,
      "hnanak": 1357,
      "kel": 1358,
      "ziah": 1359,
      "phu": 1360,
      "Jen": 1361,
      "tonnak": 1362,
      "luhpi": 1363,
      "riat": 1364,
      "La": 1365,
      "khah": 1366,
      "mithi": 1367,
      "angki": 1368,
      "ṭhawl": 1369,
      "lunglawmhnak": 1370,
      "thiamnak": 1371,
      "bawmhnak": 1372,
      "tail": 1373,
      "Tuu": 1374,
      "Inn": 1375,
      "Jonathan": 1376,
      "Jentail": 1377,
      "Edom": 1378,
      "bawk": 1379,
      "it": 1380,
      "ngol": 1381,
      "chawk": 1382,
      "Ammon": 1383,
      "hawikom": 1384,
      "damter": 1385,
      "buar": 1386,
      "far": 1387,
      "chimtu": 1388,
      "Miṭhalo": 1389,
      "ṭuanmi": 1390,
      "Baal": 1391,
      "phawt": 1392,
      "tlinter": 1393,
      "13": 1394,
      "khuai": 1395,
      "mifim": 1396,
      "nihsawh": 1397,
      "lianhngan": 1398,
      "langhnak": 1399,
      "ekiah": 1400,
      "kongah": 1401,
      "Hezekiah": 1402,
      "tlonnak": 1403,
      "11": 1404,
      "ruh": 1405,
      "khang": 1406,
      "laimi": 1407,
      "riak": 1408,
      "sertu": 1409,
      "ningzahnak": 1410,
      "dantatnak": 1411,
      "thiammi": 1412,
      "rihmi": 1413,
      "petu": 1414,
      "ril": 1415,
      "Cucu": 1416,
      "hlang": 1417,
      "hngalhter": 1418,
      "iel": 1419,
      "ramdang": 1420,
      "tlau": 1421,
      "lengmangmi": 1422,
      "?’": 1423,
      "Aa": 1424,
      "Ch": 1425,
      "pummi": 1426,
      "mibu": 1427,
      "arfi": 1428,
      "der": 1429,
      "Ahi": 1430,
      "Lo": 1431,
      "var": 1432,
      "ngam": 1433,
      "pipi": 1434,
      "kalnak": 1435,
      "lunglawm": 1436,
      "salpa": 1437,
      "buai": 1438,
      "thlanglei": 1439,
      "upat": 1440,
      "kulhnak": 1441,
      "khattelei": 1442,
      "tinak": 1443,
      "hmunkhat": 1444,
      "Biakinn": 1445,
      "17": 1446,
      "erh": 1447,
      "Nanmah": 1448,
      "zanlei": 1449,
      "hloh": 1450,
      "tham": 1451,
      "tipil": 1452,
      "tlu": 1453,
      "deuhmi": 1454,
      "hlat": 1455,
      "hnawmh": 1456,
      "muko": 1457,
      "lah": 1458,
      "lungre": 1459,
      "phunphun": 1460,
      "Salm": 1461,
      "kiah": 1462,
      "tihin": 1463,
      "vah": 1464,
      "saya": 1465,
      "Gilead": 1466,
      "cawngtu": 1467,
      "fehter": 1468,
      ").": 1469,
      "fuh": 1470,
      "hrawk": 1471,
      "rul": 1472,
      "kalmi": 1473,
      "vengtu": 1474,
      "Bar": 1475,
      "mihrut": 1476,
      "khen": 1477,
      "tete": 1478,
      "lila": 1479,
      "shekel": 1480,
      "hneksak": 1481,
      "herhmi": 1482,
      "Reu": 1483,
      "kangh": 1484,
      "sik": 1485,
      "umtu": 1486,
      "pem": 1487,
      "chanhnak": 1488,
      "cawnpiaktu": 1489,
      "ṭihnung": 1490,
      "ngaingaimi": 1491,
      "hmangmi": 1492,
      "rualchan": 1493,
      "lianhngannak": 1494,
      "oah": 1495,
      "miding": 1496,
      "teh": 1497,
      "bawiṭhutdan": 1498,
      "ralring": 1499,
      "10": 1500,
      "tlaiin": 1501,
      "luatter": 1502,
      "Elijah": 1503,
      "ash": 1504,
      "fapale": 1505,
      "tli": 1506,
      "liam": 1507,
      "pekchanhnak": 1508,
      "chuan": 1509,
      "salom": 1510,
      "Absalom": 1511,
      "zakip": 1512,
      "tikhmanh": 1513,
      "Pi": 1514,
      "to": 1515,
      "Jero": 1516,
      "thup": 1517,
      "tuurun": 1518,
      "Jeroboam": 1519,
      "khu": 1520,
      "tehna": 1521,
      "ngeihnak": 1522,
      "Khika": 1523,
      "Nebu": 1524,
      "ben": 1525,
      "hmul": 1526,
      "rasi": 1527,
      "ṭhial": 1528,
      "luhnak": 1529,
      "tawnmi": 1530,
      "saupi": 1531,
      "Farasi": 1532,
      "thleidan": 1533,
      "!”": 1534,
      "19": 1535,
      "dn": 1536,
      "khuad": 1537,
      "innpa": 1538,
      "hnah": 1539,
      "hriam": 1540,
      "Ngak": 1541,
      "khiahnak": 1542,
      "Esau": 1543,
      "Kor": 1544,
      "lim": 1545,
      "paw": 1546,
      "Ṭha": 1547,
      "cunglei": 1548,
      "pahra": 1549,
      "nawn": 1550,
      "Hika": 1551,
      "camcin": 1552,
      "hmanmi": 1553,
      "chiandeih": 1554,
      "dengmang": 1555,
      "Hebru": 1556,
      "Her": 1557,
      "khor": 1558,
      "ṭhami": 1559,
      "palhnak": 1560,
      "theitlai": 1561,
      "hramthawk": 1562,
      "tehte": 1563,
      "zuar": 1564,
      "thlen": 1565,
      "thluk": 1566,
      "hoih": 1567,
      "bikmi": 1568,
      "nitlaklei": 1569,
      "16": 1570,
      "bah": 1571,
      "eo": 1572,
      "amm": 1573,
      "tlaihnak": 1574,
      "chiahmi": 1575,
      "thurh": 1576,
      "muihnak": 1577,
      "ssiah": 1578,
      "cawm": 1579,
      "sum": 1580,
      "ṭem": 1581,
      "pial": 1582,
      "hruang": 1583,
      "chuahnak": 1584,
      "khawhmi": 1585,
      "Gal": 1586,
      "vang": 1587,
      "phor": 1588,
      "khuate": 1589,
      "rial": 1590,
      "zeitikhmanh": 1591,
      "veve": 1592,
      "Ngan": 1593,
      "Han": 1594,
      "ok": 1595,
      "misual": 1596,
      "iat": 1597,
      "sarihnak": 1598,
      "Messiah": 1599,
      "ruahchannak": 1600,
      "Tho": 1601,
      "rawi": 1602,
      "anhtak": 1603,
      "hrai": 1604,
      "phuan": 1605,
      "tlan": 1606,
      "hngi": 1607,
      "lungvar": 1608,
      "lawngah": 1609,
      "mangṭam": 1610,
      "pawngkam": 1611,
      "ziaza": 1612,
      "Gad": 1613,
      "Rawl": 1614,
      "bul": 1615,
      "eb": 1616,
      "biakhiahnak": 1617,
      "fat": 1618,
      "nawh": 1619,
      "thangṭhatnak": 1620,
      "chiatser": 1621,
      "hawile": 1622,
      "thlaici": 1623,
      "Ahab": 1624,
      "Daniel": 1625,
      "cuarpar": 1626,
      "huhph": 1627,
      "Asa": 1628,
      "Zan": 1629,
      "dal": 1630,
      "od": 1631,
      "cham": 1632,
      "tuahpiak": 1633,
      "tlakmi": 1634,
      "teinak": 1635,
      "Gibe": 1636,
      "Kut": 1637,
      "Lu": 1638,
      "bawh": 1639,
      "lin": 1640,
      "ahmah": 1641,
      "hngawng": 1642,
      "palh": 1643,
      "covo": 1644,
      "Reuben": 1645,
      "fater": 1646,
      "salnu": 1647,
      "ngaimi": 1648,
      "tinhmi": 1649,
      "shan": 1650,
      "dongh": 1651,
      "so": 1652,
      "vaa": 1653,
      "ṭang": 1654,
      "ṭawl": 1655,
      "luchin": 1656,
      "samh": 1657,
      "hnipuan": 1658,
      "15": 1659,
      "danh": 1660,
      "ile": 1661,
      "awhr": 1662,
      "elh": 1663,
      "nule": 1664,
      "Mit": 1665,
      "khotu": 1666,
      "chiahnak": 1667,
      "tlawmte": 1668,
      "uahmah": 1669,
      "Ele": 1670,
      "Sar": 1671,
      "khon": 1672,
      "thal": 1673,
      "khadn": 1674,
      "hitihin": 1675,
      "cungin": 1676,
      "raltuknak": 1677,
      "Anmah": 1678,
      "lawngin": 1679,
      "Amor": 1680,
      "hmaanmi": 1681,
      "ezzar": 1682,
      "Lianngan": 1683,
      "Nebukhadn": 1684,
      "thurhhnawmh": 1685,
      "hngilh": 1686,
      "Nebukhadnezzar": 1687,
      "Chi": 1688,
      "Ri": 1689,
      "air": 1690,
      "Pakhat": 1691,
      "rit": 1692,
      "ngeitu": 1693,
      "Zeidah": 1694,
      "bei": 1695,
      "bar": 1696,
      "rua": 1697,
      "tuahsernak": 1698,
      "sabbath": 1699,
      "shafat": 1700,
      "Phungbia": 1701,
      "Galile": 1702,
      "Galilee": 1703,
      "20": 1704,
      "Uz": 1705,
      "htu": 1706,
      "zer": 1707,
      "awmh": 1708,
      "Job": 1709,
      "chunh": 1710,
      "hremnak": 1711,
      "rianṭuannak": 1712,
      "serhsa": 1713,
      "hriamnam": 1714,
      "Zu": 1715,
      "elek": 1716,
      "pawi": 1717,
      "zummi": 1718,
      "khuah": 1719,
      "cabuai": 1720,
      "pen": 1721,
      "rub": 1722,
      "hem": 1723,
      "zongin": 1724,
      "serpiak": 1725,
      "ralṭha": 1726,
      "ralchanh": 1727,
      "hranchaw": 1728,
      "biaceihtu": 1729,
      "kual": 1730,
      "lat": 1731,
      "karh": 1732,
      "hmei": 1733,
      "ṭhia": 1734,
      "phah": 1735,
      "lamh": 1736,
      "ralbawi": 1737,
      "Jehoshafat": 1738,
      "chawva": 1739,
      "23": 1740,
      "Kum": 1741,
      "Rom": 1742,
      "bunh": 1743,
      "ran": 1744,
      "shi": 1745,
      "inmi": 1746,
      "thimi": 1747,
      "ṭhumh": 1748,
      "phoih": 1749,
      "riam": 1750,
      "tlangram": 1751,
      "hleiah": 1752,
      "dawtmi": 1753,
      "himnak": 1754,
      "huhphenh": 1755,
      "Bawi": 1756,
      "Cung": 1757,
      "tahnak": 1758,
      "luang": 1759,
      "zuah": 1760,
      "kirpi": 1761,
      "cawhmi": 1762,
      "biaceihnak": 1763,
      "Ashe": 1764,
      "Tim": 1765,
      "ven": 1766,
      "chuh": 1767,
      "ṭhang": 1768,
      "cangka": 1769,
      "dantat": 1770,
      "zinglei": 1771,
      "Ahodah": 1772,
      "Harnak": 1773,
      "thilnu": 1774,
      "minmei": 1775,
      "meiinn": 1776,
      "pehtlaihnak": 1777,
      "21": 1778,
      "keng": 1779,
      "mawh": 1780,
      "kas": 1781,
      "hruk": 1782,
      "khatnak": 1783,
      "rangtum": 1784,
      "ralhau": 1785,
      "ralvengtu": 1786,
      "puanzar": 1787,
      "canter": 1788,
      "Bethel": 1789,
      "Lamkaltu": 1790,
      "tikhor": 1791,
      "umtuning": 1792,
      "awhralnak": 1793,
      "Ja": 1794,
      "Jei": 1795,
      "Khal": 1796,
      "tawi": 1797,
      "loh": 1798,
      "umkheng": 1799,
      "hren": 1800,
      "tuahtu": 1801,
      "one": 1802,
      "raldohnak": 1803,
      "hnihnak": 1804,
      "tawngh": 1805,
      "Hebron": 1806,
      "Elea": 1807,
      "khuahrum": 1808,
      "18": 1809,
      "22": 1810,
      "Noah": 1811,
      "olh": 1812,
      "elah": 1813,
      "biafang": 1814,
      "leidip": 1815,
      "ngaihpiak": 1816,
      "bau": 1817,
      "innchunghawi": 1818,
      "Ngakchia": 1819,
      "Eleazar": 1820,
      "Nihin": 1821,
      "Puai": 1822,
      "cawi": 1823,
      "dia": 1824,
      "khim": 1825,
      "ihkhun": 1826,
      "milem": 1827,
      "khariah": 1828,
      "lehem": 1829,
      "ainak": 1830,
      "hrawm": 1831,
      "Shem": 1832,
      "Bethlehem": 1833,
      "Simon": 1834,
      "Kutka": 1835,
      "hrang": 1836,
      "liv": 1837,
      "peknak": 1838,
      "zau": 1839,
      "cit": 1840,
      "Satan": 1841,
      "hmanung": 1842,
      "langhtermi": 1843,
      "Herod": 1844,
      "Ai": 1845,
      "Dam": 1846,
      "Sh": 1847,
      "toi": 1848,
      "ṭihnak": 1849,
      "thleng": 1850,
      "phai": 1851,
      "khuachia": 1852,
      "liang": 1853,
      "zulmi": 1854,
      "theihnak": 1855,
      "dinhnak": 1856,
      "zarh": 1857,
      "vailam": 1858,
      "Zekhariah": 1859,
      "Jehovah": 1860,
      "hler": 1861,
      "Khrihfabu": 1862,
      "Hlan": 1863,
      "Profet": 1864,
      "at": 1865,
      "eth": 1866,
      "lawi": 1867,
      "zun": 1868,
      "thleh": 1869,
      "chap": 1870,
      "tuak": 1871,
      "phuh": 1872,
      "lian": 1873,
      "ṭuantu": 1874,
      "relnak": 1875,
      "tuukhal": 1876,
      "Leban": 1877,
      "sahrang": 1878,
      "hlawhhlang": 1879,
      "Pilat": 1880,
      "thlukbia": 1881,
      "Khaldi": 1882,
      "Ara": 1883,
      "cong": 1884,
      "fei": 1885,
      "kaw": 1886,
      "toih": 1887,
      "khem": 1888,
      "chimchung": 1889,
      "lungpi": 1890,
      "ngaithiam": 1891,
      "langh": 1892,
      "lawmhter": 1893,
      "theihmi": 1894,
      "theihpiak": 1895,
      "bikbik": 1896,
      "thumnak": 1897,
      "halmi": 1898,
      "diam": 1899,
      "khenhnak": 1900,
      "nulepa": 1901,
      "Mor": 1902,
      "Nun": 1903,
      "Sual": 1904,
      "rumnak": 1905,
      "zin": 1906,
      "lehnak": 1907,
      "hrawng": 1908,
      "ruam": 1909,
      "vemi": 1910,
      "ningcang": 1911,
      "Tiva": 1912,
      "fialmi": 1913,
      "ammam": 1914,
      "Lebanon": 1915,
      "Kar": 1916,
      "Sha": 1917,
      "tlawn": 1918,
      "hnar": 1919,
      "paruk": 1920,
      "umhnak": 1921,
      "uhmi": 1922,
      "iar": 1923,
      "thianter": 1924,
      "rap": 1925,
      "Jeri": 1926,
      "zeizat": 1927,
      "ciammam": 1928,
      "thahmi": 1929,
      "dinh": 1930,
      "bawmtu": 1931,
      "sawhsawh": 1932,
      "Shekhem": 1933,
      "rianṭuantu": 1934,
      "Ga": 1935,
      "Ser": 1936,
      "neh": 1937,
      "tlo": 1938,
      "ṭhunh": 1939,
      "khuazakip": 1940,
      "Jehu": 1941,
      "nuhmei": 1942,
      "ṭhiang": 1943,
      "hlennak": 1944,
      "ramdangmi": 1945,
      "Anih": 1946,
      "Ash": 1947,
      "Ke": 1948,
      "khumh": 1949,
      "ting": 1950,
      "phone": 1951,
      "satu": 1952,
      "ralhruang": 1953,
      "Midi": 1954,
      "dab": 1955,
      "kil": 1956,
      "Khuazei": 1957,
      "Khuachia": 1958,
      "Reho": 1959,
      "santlai": 1960,
      "Midian": 1961,
      "Kha": 1962,
      "Nang": 1963,
      "kkhatte": 1964,
      "kham": 1965,
      "sidar": 1966,
      "imelek": 1967,
      "thinphang": 1968,
      "ngaihchiatnak": 1969,
      "pahnihnak": 1970,
      "Sabbath": 1971,
      "thinghmui": 1972,
      "hrinpiak": 1973,
      "Jehoia": 1974,
      "Mary": 1975,
      "Hor": 1976,
      "The": 1977,
      "rawhralnak": 1978,
      "sor": 1979,
      "zuan": 1980,
      "miṭhawng": 1981,
      "misifak": 1982,
      "chel": 1983,
      "chawh": 1984,
      "cheh": 1985,
      "tuan": 1986,
      "tem": 1987,
      "lenglei": 1988,
      "tlap": 1989,
      "hnuk": 1990,
      "hnem": 1991,
      "hninh": 1992,
      "theimi": 1993,
      "ṭhiangṭhunh": 1994,
      "Ki": 1995,
      "Per": 1996,
      "foih": 1997,
      "paih": 1998,
      "tuh": 1999,
      "pheng": 2000,
      "chimnak": 2001,
      "tlanh": 2002,
      "sami": 2003,
      "dekai": 2004,
      "dekiah": 2005,
      "dad": 2006,
      "Zedekiah": 2007,
      "cohlang": 2008,
      "Jeim": 2009,
      "Mordekai": 2010,
      "Jeriko": 2011,
      "Tair": 2012,
      "az": 2013,
      "uatnak": 2014,
      "hling": 2015,
      "kammi": 2016,
      "colh": 2017,
      "khamhtu": 2018,
      "cherub": 2019,
      "Ṭhat": 2020,
      "Es": 2021,
      "bon": 2022,
      "gi": 2023,
      "ner": 2024,
      "tih": 2025,
      "cho": 2026,
      "kauh": 2027,
      "ngat": 2028,
      "Mifim": 2029,
      "Abner": 2030,
      "tonh": 2031,
      "askas": 2032,
      "Elisha": 2033,
      "ralrinnak": 2034,
      "Mitsur": 2035,
      "Damaskas": 2036,
      "Nah": 2037,
      "buk": 2038,
      "kuai": 2039,
      "zua": 2040,
      "thnem": 2041,
      "miak": 2042,
      "laam": 2043,
      "lauk": 2044,
      "lehr": 2045,
      "lawnnak": 2046,
      "iao": 2047,
      "khatmi": 2048,
      "ingmi": 2049,
      "zeitik": 2050,
      "chuahtak": 2051,
      "hmaizah": 2052,
      "chimhhrin": 2053,
      "saknak": 2054,
      "hnin": 2055,
      "thlahmi": 2056,
      "Abimelek": 2057,
      "dohtu": 2058,
      "hmangṭhia": 2059,
      "khuaruahharnak": 2060,
      "hup": 2061,
      "Phungthlukbia": 2062,
      "tingtang": 2063,
      "24": 2064,
      "Lanhtak": 2065,
      "dem": 2066,
      "ihpi": 2067,
      "ihli": 2068,
      "siah": 2069,
      "ṭhathnem": 2070,
      "suk": 2071,
      "suai": 2072,
      "thilnung": 2073,
      "Midang": 2074,
      "camcawh": 2075,
      "bad": 2076,
      "hnawm": 2077,
      "Abram": 2078,
      "tlaimi": 2079,
      "ṭialtu": 2080,
      "putmi": 2081,
      "ngunkhuai": 2082,
      "hrial": 2083,
      "zik": 2084,
      "ezer": 2085,
      "Azar": 2086,
      "fawi": 2087,
      "hak": 2088,
      "rawhnak": 2089,
      "laifang": 2090,
      "biami": 2091,
      "tukmi": 2092,
      "Ishma": 2093,
      "lungsau": 2094,
      "erah": 2095,
      "Bashan": 2096,
      "Kham": 2097,
      "tannak": 2098,
      "zingka": 2099,
      "Mei": 2100,
      "eon": 2101,
      "fai": 2102,
      "hor": 2103,
      "sai": 2104,
      "chah": 2105,
      "amnak": 2106,
      "eimi": 2107,
      "ail": 2108,
      "hlum": 2109,
      "ruahmi": 2110,
      "ṭuannak": 2111,
      "thahnak": 2112,
      "dok": 2113,
      "kehlei": 2114,
      "tali": 2115,
      "liannganmi": 2116,
      "kenkip": 2117,
      "ciami": 2118,
      "Zadok": 2119,
      "Laban": 2120,
      "khuadawm": 2121,
      "Esther": 2122,
      "zuarh": 2123,
      "Ishmael": 2124,
      "mak": 2125,
      "rawh": 2126,
      "zor": 2127,
      "miṭha": 2128,
      "sing": 2129,
      "thiah": 2130,
      "akim": 2131,
      "ṭheo": 2132,
      "hrui": 2133,
      "hen": 2134,
      "hmunmi": 2135,
      "Naf": 2136,
      "Hit": 2137,
      "shon": 2138,
      "sakmi": 2139,
      "hmur": 2140,
      "hmuhnak": 2141,
      "das": 2142,
      "pangpar": 2143,
      "Ama": 2144,
      "Biatak": 2145,
      "Simeon": 2146,
      "Luka": 2147,
      "serhsat": 2148,
      "hlawhhlangnu": 2149,
      "temhin": 2150,
      "Fim": 2151,
      "Mihrut": 2152,
      "es": 2153,
      "kuh": 2154,
      "non": 2155,
      "us": 2156,
      "ush": 2157,
      "zawmh": 2158,
      "ngal": 2159,
      "cuai": 2160,
      "khih": 2161,
      "kalauk": 2162,
      "tuar": 2163,
      "lakmi": 2164,
      "Josiah": 2165,
      "dirmi": 2166,
      "cawnpiakmi": 2167,
      "changtu": 2168,
      "Zebul": 2169,
      "Tuufa": 2170,
      "toiah": 2171,
      "zawmhta": 2172,
      "Adam": 2173,
      "Vai": 2174,
      "sawhnak": 2175,
      "tlawng": 2176,
      "nganh": 2177,
      "khrih": 2178,
      "hngak": 2179,
      "rik": 2180,
      "innleng": 2181,
      "lungkua": 2182,
      "tanglei": 2183,
      "nupile": 2184,
      "khrihfa": 2185,
      ".)": 2186,
      "Ad": 2187,
      "Chun": 2188,
      "Mu": 2189,
      "forh": 2190,
      "oliv": 2191,
      "soi": 2192,
      "tle": 2193,
      "nal": 2194,
      "siang": 2195,
      "umpi": 2196,
      "chunglei": 2197,
      "ramh": 2198,
      "chuk": 2199,
      "lamkal": 2200,
      "uknak": 2201,
      "kholh": 2202,
      "nganmi": 2203,
      "bat": 2204,
      "fakmi": 2205,
      "phakter": 2206,
      "Biaceih": 2207,
      "Cauk": 2208,
      "ahmaanmi": 2209,
      "thleidannak": 2210,
      "Hanan": 2211,
      "tlanhnak": 2212,
      "Naftali": 2213,
      "hlam": 2214,
      "ne": 2215,
      "tlam": 2216,
      "khuk": 2217,
      "chawn": 2218,
      "sis": 2219,
      "khuakhan": 2220,
      "khuaihli": 2221,
      "hlim": 2222,
      "Miding": 2223,
      "thlalang": 2224,
      "lawngte": 2225,
      "hlanlio": 2226,
      "theipi": 2227,
      "bochanmi": 2228,
      "lihchim": 2229,
      "tipilnak": 2230,
      "Rehoboam": 2231,
      "Azariah": 2232,
      "25": 2233,
      "puar": 2234,
      "uhnak": 2235,
      "zai": 2236,
      "zuk": 2237,
      "cuahmah": 2238,
      "tit": 2239,
      "char": 2240,
      "cazin": 2241,
      "ping": 2242,
      "ras": 2243,
      "zeipaoh": 2244,
      "saphaw": 2245,
      "ṭhannak": 2246,
      "hoi": 2247,
      "Judas": 2248,
      "nunter": 2249,
      "nunning": 2250,
      "Amen": 2251,
      "tlukin": 2252,
      "timhmi": 2253,
      "thuhmi": 2254,
      "Hag": 2255,
      "Haman": 2256,
      "khahter": 2257,
      "Chan": 2258,
      "Jehoiada": 2259,
      "huppheng": 2260,
      "Asi": 2261,
      "Ho": 2262,
      "Sui": 2263,
      "celh": 2264,
      "lum": 2265,
      "mai": 2266,
      "ote": 2267,
      "ṭanh": 2268,
      "ihter": 2269,
      "alek": 2270,
      "tuai": 2271,
      "lok": 2272,
      "phawh": 2273,
      "lakpiak": 2274,
      "bil": 2275,
      "duhning": 2276,
      "Nathan": 2277,
      "thlum": 2278,
      "tas": 2279,
      "tlami": 2280,
      "Beer": 2281,
      "aunak": 2282,
      "Zeru": 2283,
      "thlitu": 2284,
      "Rachel": 2285,
      "Timote": 2286,
      "cherubim": 2287,
      "Nelrawn": 2288,
      "benh": 2289,
      "esh": 2290,
      "gal": 2291,
      "luatnak": 2292,
      "vak": 2293,
      "khir": 2294,
      "hngah": 2295,
      "lungtho": 2296,
      "danghnak": 2297,
      "thluan": 2298,
      "kamhmi": 2299,
      "Sidon": 2300,
      "Saya": 2301,
      "Balaam": 2302,
      "Sodom": 2303,
      "tahchunhnak": 2304,
      "ṭhumi": 2305,
      "Hmun": 2306,
      "temhinnak": 2307,
      "Zebulun": 2308,
      "Bo": 2309,
      "Jab": 2310,
      "Zung": 2311,
      "po": 2312,
      "tuam": 2313,
      "thilpuan": 2314,
      "dea": 2315,
      "Judea": 2316,
      "ngaihchia": 2317,
      "Amalek": 2318,
      "comi": 2319,
      "Thihnak": 2320,
      "cinken": 2321,
      "Elia": 2322,
      "Shimei": 2323,
      "mawhchiat": 2324,
      "Koh": 2325,
      "Tam": 2326,
      "hleng": 2327,
      "ku": 2328,
      "kek": 2329,
      "ma": 2330,
      "khuar": 2331,
      "Jez": 2332,
      "bantukte": 2333,
      "Jesse": 2334,
      "khoi": 2335,
      "liomi": 2336,
      "ngaihchih": 2337,
      "hmumi": 2338,
      "luatmi": 2339,
      "Korin": 2340,
      "khrihfabu": 2341,
      "khuaihliti": 2342,
      "Kohath": 2343,
      "Sih": 2344,
      "To": 2345,
      "ce": 2346,
      "pon": 2347,
      "zpah": 2348,
      "ṭan": 2349,
      "naiah": 2350,
      "thawl": 2351,
      "theh": 2352,
      "tilet": 2353,
      "chom": 2354,
      "siter": 2355,
      "hrut": 2356,
      "biathli": 2357,
      "termi": 2358,
      "chuahhnawh": 2359,
      "nawng": 2360,
      "deon": 2361,
      "kutdong": 2362,
      "mitcaw": 2363,
      "bas": 2364,
      "dot": 2365,
      "hnuh": 2366,
      "reel": 2367,
      "Gil": 2368,
      "Gideon": 2369,
      "Rian": 2370,
      "Zuf": 2371,
      "zawmhtaih": 2372,
      "Jezreel": 2373,
      "Ger": 2374,
      "cerh": 2375,
      "fel": 2376,
      "geb": 2377,
      "theng": 2378,
      "ias": 2379,
      "rilh": 2380,
      "ritmi": 2381,
      "zeirel": 2382,
      "deu": 2383,
      "nawlngeihnak": 2384,
      "Zeizong": 2385,
      "hlau": 2386,
      "thawngṭha": 2387,
      "hno": 2388,
      "hnang": 2389,
      "kirter": 2390,
      "ṭihmi": 2391,
      "hrinmi": 2392,
      "fanule": 2393,
      "tlungmi": 2394,
      "Mera": 2395,
      "Mesh": 2396,
      "Gibeah": 2397,
      "Ez": 2398,
      "Kiria": 2399,
      "Ru": 2400,
      "Sen": 2401,
      "kuar": 2402,
      "mar": 2403,
      "son": 2404,
      "mirum": 2405,
      "tikulh": 2406,
      "choih": 2407,
      "kaan": 2408,
      "set": 2409,
      "kanh": 2410,
      "phanh": 2411,
      "hngan": 2412,
      "hlun": 2413,
      "hmanhah": 2414,
      "Mithi": 2415,
      "nawlnak": 2416,
      "bus": 2417,
      "luangmi": 2418,
      "hleili": 2419,
      "thlahtu": 2420,
      "Benaiah": 2421,
      "ṭhawnter": 2422,
      "Thing": 2423,
      "sheba": 2424,
      "thilrit": 2425,
      "hlorh": 2426,
      "khuadei": 2427,
      "00": 2428,
      "27": 2429,
      "Caw": 2430,
      "Khe": 2431,
      "Nung": 2432,
      "Sai": 2433,
      "esa": 2434,
      "luan": 2435,
      "ṭiao": 2436,
      "ngiat": 2437,
      "awlok": 2438,
      "khum": 2439,
      "intuar": 2440,
      "lau": 2441,
      "tes": 2442,
      "ṭhah": 2443,
      "cazual": 2444,
      "Jebus": 2445,
      "rangcung": 2446,
      "awkin": 2447,
      "salle": 2448,
      "Mizapi": 2449,
      "ningpi": 2450,
      "thlaih": 2451,
      "khish": 2452,
      "chiahpiak": 2453,
      "mitthli": 2454,
      "Joash": 2455,
      "zuang": 2456,
      "thangchiat": 2457,
      "hmutu": 2458,
      "chinh": 2459,
      "phungbuar": 2460,
      "damnak": 2461,
      "tlingmi": 2462,
      "Nichuahlei": 2463,
      "Biathlam": 2464,
      "vutcam": 2465,
      "pathumnak": 2466,
      "taisawm": 2467,
      "Efesa": 2468,
      "Ahaz": 2469,
      "Hmai": 2470,
      "Gibeon": 2471,
      "Asher": 2472,
      "Sualnak": 2473,
      "Chanrelnak": 2474,
      "Puan": 2475,
      "mih": 2476,
      "hnabei": 2477,
      "milam": 2478,
      "mifir": 2479,
      "sil": 2480,
      "hruh": 2481,
      "rates": 2482,
      "phawi": 2483,
      "biachim": 2484,
      "desh": 2485,
      "Mikah": 2486,
      "Mizpah": 2487,
      "hngalhmi": 2488,
      "ningzak": 2489,
      "thlapa": 2490,
      "thluahmah": 2491,
      "thawngpang": 2492,
      "taktakmi": 2493,
      "hruainak": 2494,
      "kainak": 2495,
      "mertak": 2496,
      "ngakchiapa": 2497,
      "dornak": 2498,
      "Sarah": 2499,
      "Shemaiah": 2500,
      "santlailo": 2501,
      "Khamhtu": 2502,
      "Zufrates": 2503,
      "bung": 2504,
      "ceo": 2505,
      "ee": 2506,
      "fing": 2507,
      "fual": 2508,
      "kuk": 2509,
      "inu": 2510,
      "mithiang": 2511,
      "chungchin": 2512,
      "per": 2513,
      "Issa": 2514,
      "hluahmah": 2515,
      "ene": 2516,
      "bur": 2517,
      "kamh": 2518,
      "hmaih": 2519,
      "langhternak": 2520,
      "Khuapi": 2521,
      "nuamhnak": 2522,
      "Vancungmi": 2523,
      "sifakmi": 2524,
      "hruitu": 2525,
      "ṭhahnem": 2526,
      "Issakhar": 2527,
      "Cuh": 2528,
      "Ko": 2529,
      "Voi": 2530,
      "Zing": 2531,
      "iakim": 2532,
      "zuh": 2533,
      "chungmi": 2534,
      "biading": 2535,
      "khuachung": 2536,
      "nuk": 2537,
      "ṭhaṭha": 2538,
      "hmuhter": 2539,
      "sualmi": 2540,
      "dangdang": 2541,
      "Zeitluk": 2542,
      "Sinai": 2543,
      "dawr": 2544,
      "Kanmah": 2545,
      "dap": 2546,
      "hlawn": 2547,
      "hramhram": 2548,
      "Zeihmanh": 2549,
      "porhlawt": 2550,
      "rimthaw": 2551,
      "thurter": 2552,
      "Fimnak": 2553,
      "zeirello": 2554,
      "Merari": 2555,
      "Cuhleiah": 2556,
      "Chang": 2557,
      "En": 2558,
      "Go": 2559,
      "Grik": 2560,
      "Hna": 2561,
      "Se": 2562,
      "Sei": 2563,
      "dawn": 2564,
      "ephah": 2565,
      "hut": 2566,
      "omi": 2567,
      "sio": 2568,
      "hreng": 2569,
      "hruhnak": 2570,
      "phar": 2571,
      "phulh": 2572,
      "rammi": 2573,
      "theihter": 2574,
      "zuangmi": 2575,
      "thuhnak": 2576,
      "kehnak": 2577,
      "chikkhatte": 2578,
      "Thli": 2579,
      "hauka": 2580,
      "zamtak": 2581,
      "Negeb": 2582,
      "talen": 2583,
      "porhlawtnak": 2584,
      "Lot": 2585,
      "hlatpi": 2586,
      "hnahnaw": 2587,
      "intuarnak": 2588,
      "34": 2589,
      "Gath": 2590,
      "Ruah": 2591,
      "haw": 2592,
      "ipi": 2593,
      "pia": 2594,
      "poi": 2595,
      "ṭin": 2596,
      "ine": 2597,
      "khau": 2598,
      "nakkhan": 2599,
      "telh": 2600,
      "ramcar": 2601,
      "hmaitonh": 2602,
      "hngalhthiamnak": 2603,
      "cil": 2604,
      "dangmi": 2605,
      "Hil": 2606,
      "cawfa": 2607,
      "chuahpitu": 2608,
      "Samson": 2609,
      "hremtu": 2610,
      "cikcin": 2611,
      "putu": 2612,
      "Ahaziah": 2613,
      "phaisa": 2614,
      "tlong": 2615,
      "lehrulh": 2616,
      "Amaziah": 2617,
      "Gilgal": 2618,
      "28": 2619,
      "De": 2620,
      "Gene": 2621,
      "Kale": 2622,
      "Mal": 2623,
      "Te": 2624,
      "anter": 2625,
      "cutin": 2626,
      "chalh": 2627,
      "tupi": 2628,
      "eiah": 2629,
      "hrolh": 2630,
      "pechan": 2631,
      "riang": 2632,
      "mawhnak": 2633,
      "thladem": 2634,
      "taza": 2635,
      "shbon": 2636,
      "hlapi": 2637,
      "tlaknak": 2638,
      "relmi": 2639,
      "chiatsernak": 2640,
      "suimilam": 2641,
      "Heshbon": 2642,
      "Filip": 2643,
      "tahmi": 2644,
      "thattu": 2645,
      "phuhlam": 2646,
      "tleu": 2647,
      "khuakhannak": 2648,
      "Kiriath": 2649,
      "khaubawk": 2650,
      "Kaleb": 2651,
      "Az": 2652,
      "Jah": 2653,
      "Ramah": 2654,
      "Shal": 2655,
      "Zerah": 2656,
      "kang": 2657,
      "linh": 2658,
      "pin": 2659,
      "tleng": 2660,
      "Ṭih": 2661,
      "ihmi": 2662,
      "thlo": 2663,
      "khael": 2664,
      "chong": 2665,
      "sii": 2666,
      "eli": 2667,
      "innsang": 2668,
      "thilthuam": 2669,
      "ralthuam": 2670,
      "thawhlawm": 2671,
      "Mikhael": 2672,
      "piaktu": 2673,
      "citmi": 2674,
      "thlauh": 2675,
      "tiangah": 2676,
      "dotla": 2677,
      "anmahle": 2678,
      "tuuhmul": 2679,
      "hrinthlak": 2680,
      "lutmi": 2681,
      "ṭhutnak": 2682,
      "Jehoiakim": 2683,
      "Ngun": 2684,
      "nuamh": 2685,
      "doni": 2686,
      "ngaihthiamnak": 2687,
      "tongh": 2688,
      "Hma": 2689,
      "chiatserhnak": 2690,
      "linhnak": 2691,
      "hnarcheu": 2692,
      "Sihon": 2693,
      "hmaihum": 2694,
      "Seir": 2695,
      "Hilkiah": 2696,
      "Asiloah": 2697,
      "Adoni": 2698,
      "Baa": 2699,
      "Has": 2700,
      "ed": 2701,
      "fon": 2702,
      "fonh": 2703,
      "sanh": 2704,
      "uam": 2705,
      "khawl": 2706,
      "las": 2707,
      "lainak": 2708,
      "sel": 2709,
      "caang": 2710,
      "komi": 2711,
      "phei": 2712,
      "phel": 2713,
      "zeicah": 2714,
      "eman": 2715,
      "Miṭha": 2716,
      "zulhmi": 2717,
      "shai": 2718,
      "cheuhnak": 2719,
      "dawhnak": 2720,
      "Joram": 2721,
      "pumsa": 2722,
      "fimmi": 2723,
      "Sheol": 2724,
      "kawlmi": 2725,
      "sheth": 2726,
      "bekah": 2727,
      "ṭamh": 2728,
      "Rebekah": 2729,
      "mithmai": 2730,
      "ziar": 2731,
      "cheuh": 2732,
      "thurhnawm": 2733,
      "Zaang": 2734,
      "barli": 2735,
      "Vainam": 2736,
      "thlalangawng": 2737,
      "bungh": 2738,
      "),": 2739,
      "26": 2740,
      "Dar": 2741,
      "Maa": 2742,
      "Uriah": 2743,
      "lanh": 2744,
      "nim": 2745,
      "tom": 2746,
      "ṭahnak": 2747,
      "ana": 2748,
      "khawng": 2749,
      "hnamh": 2750,
      "tilian": 2751,
      "ching": 2752,
      "anhram": 2753,
      "rauh": 2754,
      "pakhatnak": 2755,
      "lungtlap": 2756,
      "chuahmi": 2757,
      "chuahkehnak": 2758,
      "ṭhanmi": 2759,
      "zohkhenhnak": 2760,
      "zalh": 2761,
      "zungthiam": 2762,
      "meikhu": 2763,
      "hlasatu": 2764,
      "pumpi": 2765,
      "dolh": 2766,
      "thongtla": 2767,
      "surter": 2768,
      "chihmi": 2769,
      "Vawleicung": 2770,
      "thlainak": 2771,
      "Ramlak": 2772,
      "chuahtertu": 2773,
      "Korah": 2774,
      "khonnak": 2775,
      "sortu": 2776,
      "Persia": 2777,
      "Genesis": 2778,
      "riangmang": 2779,
      "Ahim": 2780,
      "BA": 2781,
      "Di": 2782,
      "Ethi": 2783,
      "Naa": 2784,
      "Obe": 2785,
      "Rang": 2786,
      "Tar": 2787,
      "cawl": 2788,
      "cem": 2789,
      "opia": 2790,
      "cuk": 2791,
      "khrawl": 2792,
      "mipem": 2793,
      "til": 2794,
      "pakan": 2795,
      "pakul": 2796,
      "phuang": 2797,
      "facang": 2798,
      "rus": 2799,
      "dahra": 2800,
      "zaam": 2801,
      "chiaṭha": 2802,
      "Nazar": 2803,
      "Daihnak": 2804,
      "meizik": 2805,
      "zungzalmi": 2806,
      "uico": 2807,
      "camh": 2808,
      "tlaihmi": 2809,
      "chuahpimi": 2810,
      "hringsortu": 2811,
      "tungpi": 2812,
      "cawhnuk": 2813,
      "ahmul": 2814,
      "khualipi": 2815,
      "hmete": 2816,
      "Hamath": 2817,
      "khanghnak": 2818,
      "Asaf": 2819,
      "daliah": 2820,
      "hnemh": 2821,
      "Zungzal": 2822,
      "Hmailei": 2823,
      "Ethiopia": 2824,
      "Nazareth": 2825,
      "Ak": 2826,
      "Abia": 2827,
      "cim": 2828,
      "ppa": 2829,
      "puh": 2830,
      "rin": 2831,
      "st": 2832,
      "nadab": 2833,
      "nabas": 2834,
      "caṭialtu": 2835,
      "hrum": 2836,
      "ariah": 2837,
      "pemi": 2838,
      "ulhnak": 2839,
      "lungchung": 2840,
      "pariat": 2841,
      "hnawhmi": 2842,
      "hnim": 2843,
      "dirter": 2844,
      "both": 2845,
      "kedan": 2846,
      "Leah": 2847,
      "tlunhnawh": 2848,
      "tonmi": 2849,
      "zumtu": 2850,
      "canah": 2851,
      "ṭhuro": 2852,
      "hleing": 2853,
      "sunglawi": 2854,
      "ralrin": 2855,
      "Gedaliah": 2856,
      "Barnabas": 2857,
      "Sertu": 2858,
      "gilead": 2859,
      "chommi": 2860,
      "hnahnawhnak": 2861,
      "Caan": 2862,
      "MI": 2863,
      "Shim": 2864,
      "Zumhnak": 2865,
      "ber": 2866,
      "ceng": 2867,
      "dei": 2868,
      "lanhtak": 2869,
      "naut": 2870,
      "awtnak": 2871,
      "khuang": 2872,
      "tupa": 2873,
      "thianhnak": 2874,
      "phum": 2875,
      "hngia": 2876,
      "riahnak": 2877,
      "zeital": 2878,
      "lamhruainak": 2879,
      "Mika": 2880,
      "taang": 2881,
      "khiak": 2882,
      "hngat": 2883,
      "lehlam": 2884,
      "thonglawi": 2885,
      "daihter": 2886,
      "phakpi": 2887,
      "velngeihnak": 2888,
      "send": 2889,
      "Biakam": 2890,
      "zawmi": 2891,
      "puam": 2892,
      "rimhmui": 2893,
      "khuaruahharmi": 2894,
      "dikmi": 2895,
      "Shiloh": 2896,
      "hrawktu": 2897,
      "titsa": 2898,
      "Abiathar": 2899,
      "29": 2900,
      "37": 2901,
      "Dai": 2902,
      "Dinnak": 2903,
      "Tah": 2904,
      "hih": 2905,
      "annak": 2906,
      "thut": 2907,
      "titu": 2908,
      "komh": 2909,
      "ratnak": 2910,
      "likuk": 2911,
      "ulrang": 2912,
      "onah": 2913,
      "piakmi": 2914,
      "zulhnak": 2915,
      "tami": 2916,
      "pumlawnnak": 2917,
      "campiak": 2918,
      "kedanh": 2919,
      "Khulrang": 2920,
      "ṭhutter": 2921,
      "karhter": 2922,
      "palinak": 2923,
      "Lungthin": 2924,
      "Nupi": 2925,
      "biahngal": 2926,
      "thletmi": 2927,
      "tlik": 2928,
      "Zanlei": 2929,
      "Chiandeih": 2930,
      "Uzzi": 2931,
      "phuhri": 2932,
      "pingah": 2933,
      "hupphengtu": 2934,
      "Changreu": 2935,
      "Shallum": 2936,
      "31": 2937,
      "35": 2938,
      "Elam": 2939,
      "Gom": 2940,
      "Uk": 2941,
      "banh": 2942,
      "beng": 2943,
      "cal": 2944,
      "fun": 2945,
      "hliam": 2946,
      "vennak": 2947,
      "mingan": 2948,
      "lainawng": 2949,
      "akah": 2950,
      "hro": 2951,
      "thiannak": 2952,
      "linak": 2953,
      "suan": 2954,
      "Kain": 2955,
      "tining": 2956,
      "nganfah": 2957,
      "ngeihter": 2958,
      "donghter": 2959,
      "Ammi": 2960,
      "Tlangval": 2961,
      "luhhnawh": 2962,
      "Sheba": 2963,
      "Filipi": 2964,
      "menmen": 2965,
      "lunglawmmi": 2966,
      "tawite": 2967,
      "kauhlei": 2968,
      "ṭhathnemnak": 2969,
      "camcawhfung": 2970,
      "badiah": 2971,
      "tlamtling": 2972,
      "Boaz": 2973,
      "Tamar": 2974,
      "kekual": 2975,
      "Meshullam": 2976,
      "33": 2977,
      "Ber": 2978,
      "Tang": 2979,
      "erus": 2980,
      "ga": 2981,
      "hel": 2982,
      "mel": 2983,
      "mas": 2984,
      "pthah": 2985,
      "pom": 2986,
      "zir": 2987,
      "anak": 2988,
      "thawn": 2989,
      "nakcun": 2990,
      "umṭi": 2991,
      "hrenh": 2992,
      "phiar": 2993,
      "arim": 2994,
      "Jepthah": 2995,
      "nuva": 2996,
      "suerus": 2997,
      "hngalmi": 2998,
      "uanchuk": 2999,
      "veh": 3000,
      "Jeshua": 3001,
      "Kadesh": 3002,
      "thinlinhnak": 3003,
      "rawlṭam": 3004,
      "sawmmi": 3005,
      "hnor": 3006,
      "aleti": 3007,
      "retheihnak": 3008,
      "Nethan": 3009,
      "sungmi": 3010,
      "pur": 3011,
      "Phungchimtu": 3012,
      "Ahasuerus": 3013,
      "mehehtum": 3014,
      "tlangvalpa": 3015,
      "thukmi": 3016,
      "huatu": 3017,
      "lungrethei": 3018,
      "lungretheihnak": 3019,
      "khuhnak": 3020,
      "Uzziah": 3021,
      "Karmel": 3022,
      "Gershon": 3023,
      "uanchukcho": 3024,
      "30": 3025,
      "Im": 3026,
      "Jonah": 3027,
      "Lih": 3028,
      "Lei": 3029,
      "Mang": 3030,
      "Um": 3031,
      "Zumh": 3032,
      "cek": 3033,
      "ddo": 3034,
      "ham": 3035,
      "king": 3036,
      "meh": 3037,
      "roh": 3038,
      "khing": 3039,
      "thawm": 3040,
      "kate": 3041,
      "karah": 3042,
      "rath": 3043,
      "khuasik": 3044,
      "khuavang": 3045,
      "rianh": 3046,
      "inncung": 3047,
      "lampi": 3048,
      "nifate": 3049,
      "saltannak": 3050,
      "sualter": 3051,
      "sualphawt": 3052,
      "takmi": 3053,
      "has": 3054,
      "nganak": 3055,
      "taangmi": 3056,
      "hlauh": 3057,
      "ciomi": 3058,
      "baoh": 3059,
      "bosheth": 3060,
      "khinh": 3061,
      "Amnon": 3062,
      "ngakṭah": 3063,
      "thlichia": 3064,
      "zawt": 3065,
      "zuammi": 3066,
      "telmi": 3067,
      "kuatmi": 3068,
      "Biakṭheng": 3069,
      "Tuukhal": 3070,
      "Baruk": 3071,
      "tawnghtham": 3072,
      "Ezra": 3073,
      "Ruahnak": 3074,
      "hawhra": 3075,
      "Baasha": 3076,
      "anhramdeng": 3077,
      "Mikaiah": 3078,
      "Che": 3079,
      "Hu": 3080,
      "Mer": 3081,
      "Oho": 3082,
      "Su": 3083,
      "Selah": 3084,
      "bai": 3085,
      "cel": 3086,
      "ciah": 3087,
      "go": 3088,
      "kawi": 3089,
      "ring": 3090,
      "ṭa": 3091,
      "khong": 3092,
      "hnam": 3093,
      "nihsawhnak": 3094,
      "temhnak": 3095,
      "einak": 3096,
      "ṭheh": 3097,
      "cat": 3098,
      "komhnak": 3099,
      "phih": 3100,
      "liah": 3101,
      "riz": 3102,
      "dihtu": 3103,
      "Ish": 3104,
      "biana": 3105,
      "thlu": 3106,
      "hadad": 3107,
      "ṭimi": 3108,
      "zohthiammi": 3109,
      "ṭhatlonak": 3110,
      "vannak": 3111,
      "zeng": 3112,
      "chanmi": 3113,
      "dawmi": 3114,
      "Jotham": 3115,
      "relpiak": 3116,
      "thonginn": 3117,
      "thlahhnawh": 3118,
      "tlaitu": 3119,
      "fakpi": 3120,
      "chit": 3121,
      "tahchunh": 3122,
      "tlinnak": 3123,
      "Tipil": 3124,
      "Benhadad": 3125,
      "cawkmi": 3126,
      "Minu": 3127,
      "pehtlaih": 3128,
      "belh": 3129,
      "Abijah": 3130,
      "derthawm": 3131,
      "Arabah": 3132,
      "lungsaunak": 3133,
      "Hananiah": 3134,
      "khumla": 3135,
      "tildi": 3136,
      "sendung": 3137,
      "biahngaltu": 3138,
      "As": 3139,
      "Ek": 3140,
      "Hng": 3141,
      "Kal": 3142,
      "Kaa": 3143,
      "Kush": 3144,
      "Lang": 3145,
      "Lai": 3146,
      "Lawng": 3147,
      "NW": 3148,
      "Nail": 3149,
      "Pum": 3150,
      "bak": 3151,
      "tse": 3152,
      "taleti": 3153,
      "vale": 3154,
      "cuan": 3155,
      "chonh": 3156,
      "sidon": 3157,
      "leihnih": 3158,
      "aklei": 3159,
      "aiawh": 3160,
      "tuksa": 3161,
      "vate": 3162,
      "lungpang": 3163,
      "taklawng": 3164,
      "tlangpar": 3165,
      "Anti": 3166,
      "cite": 3167,
      "buin": 3168,
      "bubu": 3169,
      "Hiv": 3170,
      "hunnak": 3171,
      "hunter": 3172,
      "tumnak": 3173,
      "Balak": 3174,
      "ratter": 3175,
      "hrampi": 3176,
      "dil": 3177,
      "hmangin": 3178,
      "Masidon": 3179,
      "sheme": 3180,
      "Ngai": 3181,
      "sawngkhoi": 3182,
      "Ramoth": 3183,
      "dawhmi": 3184,
      "Haza": 3185,
      "Mattan": 3186,
      "donh": 3187,
      "muisam": 3188,
      "Abishai": 3189,
      "biahalnak": 3190,
      "Chaklei": 3191,
      "ṭawlnak": 3192,
      "Chikkhatte": 3193,
      "congoih": 3194,
      "conglawmh": 3195,
      "ruamkai": 3196,
      "Gala": 3197,
      "Thetse": 3198,
      "chawhlawn": 3199,
      "tuanbia": 3200,
      "sianginn": 3201,
      "Zeruiah": 3202,
      "Sairas": 3203,
      "Adonijah": 3204,
      "khawltu": 3205,
      "hleinga": 3206,
      "Masidonia": 3207,
      "shemesh": 3208,
      "Do": 3209,
      "Din": 3210,
      "Deu": 3211,
      "Dawtnak": 3212,
      "Fi": 3213,
      "Gre": 3214,
      "Ph": 3215,
      "Sho": 3216,
      "Tha": 3217,
      "Upa": 3218,
      "bor": 3219,
      "daiah": 3220,
      "mawng": 3221,
      "seiah": 3222,
      "tlawnnak": 3223,
      "ani": 3224,
      "awinu": 3225,
      "khri": 3226,
      "khnawh": 3227,
      "tili": 3228,
      "tilawng": 3229,
      "laknak": 3230,
      "pahleihnih": 3231,
      "bawile": 3232,
      "orah": 3233,
      "duhduh": 3234,
      "awmhnak": 3235,
      "dep": 3236,
      "hmaizahnak": 3237,
      "ningzah": 3238,
      "Naam": 3239,
      "biakmi": 3240,
      "uaimai": 3241,
      "naule": 3242,
      "Siangpahrangnu": 3243,
      "dirnak": 3244,
      "cawrun": 3245,
      "kulhmi": 3246,
      "cantiang": 3247,
      "khiahmi": 3248,
      "Nebat": 3249,
      "chawdawr": 3250,
      "rawkmi": 3251,
      "nolh": 3252,
      "bbabel": 3253,
      "Lib": 3254,
      "ruahchanmi": 3255,
      "cohlanpiak": 3256,
      "Arnon": 3257,
      "Marka": 3258,
      "phortu": 3259,
      "liangluang": 3260,
      "chimchungbia": 3261,
      "zuanhnawh": 3262,
      "kuhthing": 3263,
      "Zerubbabel": 3264,
      "Cawtum": 3265,
      "pinah": 3266,
      "Zaangfahnak": 3267,
      "nauta": 3268,
      "Uktu": 3269,
      "Greek": 3270,
      "38": 3271,
      "Ana": 3272,
      "Aram": 3273,
      "Asilo": 3274,
      "Evi": 3275,
      "Esh": 3276,
      "Mel": 3277,
      "Pumhnak": 3278,
      "Shu": 3279,
      "Thei": 3280,
      "Zo": 3281,
      "bainak": 3282,
      "ep": 3283,
      "fong": 3284,
      "fer": 3285,
      "huah": 3286,
      "ius": 3287,
      "kawng": 3288,
      "lul": 3289,
      "nennak": 3290,
      "ṭe": 3291,
      "anri": 3292,
      "cut": 3293,
      "inter": 3294,
      "chon": 3295,
      "sivai": 3296,
      "eitu": 3297,
      "capo": 3298,
      "leiba": 3299,
      "orrah": 3300,
      "duhtu": 3301,
      "Mil": 3302,
      "hngalhthiam": 3303,
      "habiah": 3304,
      "zohtu": 3305,
      "hunpiak": 3306,
      "vansang": 3307,
      "konglam": 3308,
      "hlasak": 3309,
      "tlakter": 3310,
      "chiahtak": 3311,
      "hngami": 3312,
      "Silas": 3313,
      "Joel": 3314,
      "pumpak": 3315,
      "dod": 3316,
      "cawih": 3317,
      "chiatter": 3318,
      "zumhtlak": 3319,
      "hawikomhnak": 3320,
      "sangmi": 3321,
      "saulei": 3322,
      "Thai": 3323,
      "Jehoash": 3324,
      "Ngaih": 3325,
      "Johanan": 3326,
      "rianṭuanmi": 3327,
      "pengmi": 3328,
      "cawknak": 3329,
      "cawngh": 3330,
      "tongmi": 3331,
      "biapimi": 3332,
      "dormi": 3333,
      "Lakhish": 3334,
      "Ahijah": 3335,
      "Ashdod": 3336,
      "khirh": 3337,
      "cerhti": 3338,
      "Zinglei": 3339,
      "Hmasa": 3340,
      "Darius": 3341,
      "Gomorrah": 3342,
      "Tangka": 3343,
      "Ekron": 3344,
      "Antiok": 3345,
      "Hazael": 3346,
      "1Korin": 3347,
      "AH": 3348,
      "Al": 3349,
      "Fak": 3350,
      "Hung": 3351,
      "Pal": 3352,
      "bun": 3353,
      "cer": 3354,
      "for": 3355,
      "kin": 3356,
      "kawm": 3357,
      "lhnak": 3358,
      "pung": 3359,
      "rennak": 3360,
      "zel": 3361,
      "ahaz": 3362,
      "ngia": 3363,
      "khawn": 3364,
      "khahmul": 3365,
      "aim": 3366,
      "kanah": 3367,
      "koth": 3368,
      "khatkhat": 3369,
      "phuah": 3370,
      "khuazing": 3371,
      "Jeze": 3372,
      "innkhar": 3373,
      "nuchun": 3374,
      "lungput": 3375,
      "lamhlatpi": 3376,
      "niam": 3377,
      "nawnnak": 3378,
      "deh": 3379,
      "ṭhantu": 3380,
      "ruahning": 3381,
      "ruahṭi": 3382,
      "Nabal": 3383,
      "Naomi": 3384,
      "thluang": 3385,
      "buri": 3386,
      "paohah": 3387,
      "nganfahnak": 3388,
      "shur": 3389,
      "theihlo": 3390,
      "meiphu": 3391,
      "sakpiak": 3392,
      "thangchiatnak": 3393,
      "Abel": 3394,
      "fianter": 3395,
      "zaruh": 3396,
      "teitu": 3397,
      "kiak": 3398,
      "luhter": 3399,
      "thannak": 3400,
      "Makhir": 3401,
      "Maakah": 3402,
      "Periz": 3403,
      "timhtuah": 3404,
      "timhcia": 3405,
      "rilikam": 3406,
      "feth": 3407,
      "Hezron": 3408,
      "thleidang": 3409,
      "Gera": 3410,
      "porhlawmi": 3411,
      "Elkanah": 3412,
      "huatnak": 3413,
      "Lazaruh": 3414,
      "Tuurun": 3415,
      "phorhmi": 3416,
      "hngawngkual": 3417,
      "Hlanlio": 3418,
      "Nunnak": 3419,
      "hrawngah": 3420,
      "Gaza": 3421,
      "Seraiah": 3422,
      "suaimi": 3423,
      "Biaceihnak": 3424,
      "Beersheba": 3425,
      "Jabesh": 3426,
      "hnangam": 3427,
      "hnangamnak": 3428,
      "Thingkung": 3429,
      "nimtlau": 3430,
      "cawlcang": 3431,
      "cenghngia": 3432,
      "Thaizing": 3433,
      "Jezebel": 3434,
      "thluangthluan": 3435,
      "AW": 3436,
      "Ken": 3437,
      "Nine": 3438,
      "Og": 3439,
      "San": 3440,
      "Zim": 3441,
      "bing": 3442,
      "bawinu": 3443,
      "ud": 3444,
      "zzar": 3445,
      "thak": 3446,
      "thlek": 3447,
      "sera": 3448,
      "lawk": 3449,
      "hrual": 3450,
      "rib": 3451,
      "inntual": 3452,
      "nupa": 3453,
      "lamhruang": 3454,
      "uanak": 3455,
      "ngaichih": 3456,
      "tinh": 3457,
      "tinhnak": 3458,
      "Naboth": 3459,
      "ṭuanpiak": 3460,
      "hlathlai": 3461,
      "Sisera": 3462,
      "dawtu": 3463,
      "puanchia": 3464,
      "chanhtu": 3465,
      "hmannak": 3466,
      "Amo": 3467,
      "duahmah": 3468,
      "zamnak": 3469,
      "rilipi": 3470,
      "beth": 3471,
      "samhmi": 3472,
      "sungh": 3473,
      "vuinak": 3474,
      "Hada": 3475,
      "Hmaan": 3476,
      "hnik": 3477,
      "biahrennak": 3478,
      "huami": 3479,
      "hngalhternak": 3480,
      "tlaumi": 3481,
      "khonmi": 3482,
      "serhsatnak": 3483,
      "Asherah": 3484,
      "Shelah": 3485,
      "Kish": 3486,
      "Perez": 3487,
      "tihal": 3488,
      "miaknak": 3489,
      "zingkate": 3490,
      "ceuh": 3491,
      "Malkhi": 3492,
      "cukmak": 3493,
      "Biakamnak": 3494,
      "Susa": 3495,
      "bianabia": 3496,
      "Nineveh": 3497,
      "1Johan": 3498,
      "53": 3499,
      "CH": 3500,
      "Ci": 3501,
      "Ceu": 3502,
      "Chim": 3503,
      "Itham": 3504,
      "Lak": 3505,
      "Ner": 3506,
      "Pah": 3507,
      "Ste": 3508,
      "Tung": 3509,
      "Tir": 3510,
      "UAH": 3511,
      "clo": 3512,
      "dim": 3513,
      "del": 3514,
      "fam": 3515,
      "gai": 3516,
      "met": 3517,
      "nin": 3518,
      "pawn": 3519,
      "yclo": 3520,
      "zo": 3521,
      "Ṭh": 3522,
      "ṭuang": 3523,
      "ṭol": 3524,
      "naupa": 3525,
      "ngerh": 3526,
      "khawmh": 3527,
      "thawhnak": 3528,
      "tia": 3529,
      "siam": 3530,
      "kao": 3531,
      "pakua": 3532,
      "ṭhenh": 3533,
      "chungle": 3534,
      "hranh": 3535,
      "hrawhnak": 3536,
      "pheh": 3537,
      "khuari": 3538,
      "kalpah": 3539,
      "oni": 3540,
      "bili": 3541,
      "hmuhning": 3542,
      "ngaihnak": 3543,
      "thawhmi": 3544,
      "thawhṭhannak": 3545,
      "dek": 3546,
      "phunhawi": 3547,
      "Mirum": 3548,
      "Nadab": 3549,
      "thlau": 3550,
      "Hiram": 3551,
      "vanchiatnak": 3552,
      "luak": 3553,
      "harmi": 3554,
      "sawmh": 3555,
      "dotu": 3556,
      "hleiruk": 3557,
      "hleiriat": 3558,
      "thingtan": 3559,
      "res": 3560,
      "cozah": 3561,
      "kalpimi": 3562,
      "zanriah": 3563,
      "hrinnak": 3564,
      "hrinsor": 3565,
      "phawlawng": 3566,
      "Thah": 3567,
      "cannak": 3568,
      "Jehoram": 3569,
      "Jehoahaz": 3570,
      "Nga": 3571,
      "tluntermi": 3572,
      "rawknak": 3573,
      "zil": 3574,
      "vok": 3575,
      "kawhmi": 3576,
      "hnekmi": 3577,
      "thurhnawmh": 3578,
      "khangtu": 3579,
      "buaibainak": 3580,
      "hneksaknak": 3581,
      "siknak": 3582,
      "hoihmi": 3583,
      "bawhte": 3584,
      "khuahrumbo": 3585,
      "toidornak": 3586,
      "Hagar": 3587,
      "000": 3588,
      "sunglawimi": 3589,
      "Bere": 3590,
      "tuksapur": 3591,
      "Mattaniah": 3592,
      "Melkhi": 3593,
      "Hadade": 3594,
      "Ceunak": 3595,
      "Ithamar": 3596,
      "32": 3597,
      "Akhish": 3598,
      "Bu": 3599,
      "Cawn": 3600,
      "Chung": 3601,
      "Ex": 3602,
      "Laa": 3603,
      "Leng": 3604,
      "Nim": 3605,
      "Oliv": 3606,
      "Obadiah": 3607,
      "Phin": 3608,
      "Pek": 3609,
      "Rab": 3610,
      "Sah": 3611,
      "Suk": 3612,
      "Teh": 3613,
      "Teman": 3614,
      "Zak": 3615,
      "ehas": 3616,
      "luaimai": 3617,
      "panh": 3618,
      "tawl": 3619,
      "vawl": 3620,
      "vorh": 3621,
      "vanhramdeng": 3622,
      "ṭim": 3623,
      "ṭek": 3624,
      "khai": 3625,
      "chut": 3626,
      "sir": 3627,
      "tuhmi": 3628,
      "naklai": 3629,
      "lose": 3630,
      "phal": 3631,
      "chimter": 3632,
      "tlum": 3633,
      "riel": 3634,
      "vapa": 3635,
      "saih": 3636,
      "hngaltu": 3637,
      "raldoh": 3638,
      "ralṭhatnak": 3639,
      "ukmi": 3640,
      "dedom": 3641,
      "Misual": 3642,
      "chiami": 3643,
      "ṭian": 3644,
      "tamnak": 3645,
      "rothil": 3646,
      "ṭhirual": 3647,
      "Sifakmi": 3648,
      "Safan": 3649,
      "dinter": 3650,
      "hnawmhnak": 3651,
      "Abih": 3652,
      "chiatserh": 3653,
      "phanmi": 3654,
      "phanter": 3655,
      "thoth": 3656,
      "thophel": 3657,
      "rethei": 3658,
      "lente": 3659,
      "sangpi": 3660,
      "sangphawlawng": 3661,
      "ceihtu": 3662,
      "Thisen": 3663,
      "Thlam": 3664,
      "Media": 3665,
      "auhmi": 3666,
      "mupi": 3667,
      "hrilh": 3668,
      "tlinh": 3669,
      "telin": 3670,
      "Lampi": 3671,
      "pehtlai": 3672,
      "kaupi": 3673,
      "nahchuah": 3674,
      "nahchuahnak": 3675,
      "Haran": 3676,
      "khanghmi": 3677,
      "Ahithophel": 3678,
      "hramthawknak": 3679,
      "cawmnak": 3680,
      "rawitu": 3681,
      "rawinak": 3682,
      "rankin": 3683,
      "Aize": 3684,
      "Muihnak": 3685,
      "tuamtu": 3686,
      "Eliab": 3687,
      "khoika": 3688,
      "mark": 3689,
      "Kolose": 3690,
      "Maaseiah": 3691,
      "Obededom": 3692,
      "tilditmi": 3693,
      "Hngalh": 3694,
      "Naaman": 3695,
      "Anathoth": 3696,
      "lulhm": 3697,
      "forhnak": 3698,
      "pawnchuah": 3699,
      "Hadadezer": 3700,
      "Phinehas": 3701,
      "rankinsen": 3702,
      "36": 3703,
      "42": 3704,
      "Aro": 3705,
      "Asia": 3706,
      "Bel": 3707,
      "Ding": 3708,
      "Eno": 3709,
      "Hush": 3710,
      "Jar": 3711,
      "Ku": 3712,
      "Om": 3713,
      "Rak": 3714,
      "Sia": 3715,
      "Zar": 3716,
      "cyclo": 3717,
      "fo": 3718,
      "je": 3719,
      "mo": 3720,
      "nel": 3721,
      "nor": 3722,
      "sho": 3723,
      "tawk": 3724,
      "tor": 3725,
      "ule": 3726,
      "uamnak": 3727,
      "anah": 3728,
      "awt": 3729,
      "ihnam": 3730,
      "miruak": 3731,
      "tiput": 3732,
      "chet": 3733,
      "choi": 3734,
      "sifahnak": 3735,
      "eitlung": 3736,
      "hmin": 3737,
      "seihnam": 3738,
      "chungchung": 3739,
      "hramah": 3740,
      "chimning": 3741,
      "tluang": 3742,
      "suang": 3743,
      "ralvennak": 3744,
      "minthannak": 3745,
      "phunmi": 3746,
      "Hitihin": 3747,
      "ṭinak": 3748,
      "zohchunh": 3749,
      "mangki": 3750,
      "tlar": 3751,
      "tlari": 3752,
      "hunpi": 3753,
      "sham": 3754,
      "rokhrawl": 3755,
      "ahopaoh": 3756,
      "zedek": 3757,
      "Sisar": 3758,
      "ngaihchiat": 3759,
      "hmual": 3760,
      "bauh": 3761,
      "hleithum": 3762,
      "thongthong": 3763,
      "dinlonak": 3764,
      "Khual": 3765,
      "retheimi": 3766,
      "Amon": 3767,
      "Amariah": 3768,
      "damh": 3769,
      "Thong": 3770,
      "obah": 3771,
      "thanuam": 3772,
      "tivate": 3773,
      "riatnak": 3774,
      "ṭamhnak": 3775,
      "aroth": 3776,
      "sunghter": 3777,
      "therphang": 3778,
      "Hazor": 3779,
      "kaumi": 3780,
      "Chaw": 3781,
      "dermi": 3782,
      "cuarpartan": 3783,
      "Saram": 3784,
      "shish": 3785,
      "Cunglei": 3786,
      "hrenhnak": 3787,
      "lehrul": 3788,
      "Encyclo": 3789,
      "Hashabiah": 3790,
      "Tarshish": 3791,
      "camhthiam": 3792,
      "bengh": 3793,
      "Sahrang": 3794,
      "Sukkoth": 3795,
      "Omri": 3796,
      "Sisaria": 3797,
      ");": 3798,
      "?“": 3799,
      "Anak": 3800,
      "Asah": 3801,
      "Bani": 3802,
      "Cam": 3803,
      "Chri": 3804,
      "Eden": 3805,
      "HAW": 3806,
      "Pen": 3807,
      "Rai": 3808,
      "Rim": 3809,
      "Rul": 3810,
      "Thin": 3811,
      "Tab": 3812,
      "Thlang": 3813,
      "Zal": 3814,
      "corh": 3815,
      "frankinsen": 3816,
      "hawipa": 3817,
      "nen": 3818,
      "pel": 3819,
      "taroth": 3820,
      "ub": 3821,
      "anu": 3822,
      "naum": 3823,
      "thle": 3824,
      "thro": 3825,
      "tub": 3826,
      "laileng": 3827,
      "hmah": 3828,
      "sem": 3829,
      "capawl": 3830,
      "lawlaw": 3831,
      "sehmi": 3832,
      "rangmi": 3833,
      "zeimaw": 3834,
      "lungphun": 3835,
      "lunglawmh": 3836,
      "hlanh": 3837,
      "sazuk": 3838,
      "serter": 3839,
      "nika": 3840,
      "raltuk": 3841,
      "chuahtu": 3842,
      "Mik": 3843,
      "Kaper": 3844,
      "ṭhanter": 3845,
      "khoih": 3846,
      "Zeicah": 3847,
      "taan": 3848,
      "nunchung": 3849,
      "ṭuanter": 3850,
      "meiṭil": 3851,
      "Jok": 3852,
      "cammi": 3853,
      "phungphai": 3854,
      "dothla": 3855,
      "domh": 3856,
      "thathu": 3857,
      "tumkung": 3858,
      "ṭialnak": 3859,
      "cotu": 3860,
      "ceihpiak": 3861,
      "phiah": 3862,
      "phawtu": 3863,
      "phawtnak": 3864,
      "riahbuk": 3865,
      "Mag": 3866,
      "Meso": 3867,
      "zammi": 3868,
      "Pele": 3869,
      "thaim": 3870,
      "Ramdangmi": 3871,
      "holhtheihlo": 3872,
      "Zik": 3873,
      "hur": 3874,
      "note": 3875,
      "lihnin": 3876,
      "thlakmi": 3877,
      "tawngtu": 3878,
      "bbaal": 3879,
      "khengkuar": 3880,
      "Refai": 3881,
      "pehtlaimi": 3882,
      "Keilah": 3883,
      "thuamh": 3884,
      "Lungpi": 3885,
      "hniang": 3886,
      "cheuhmi": 3887,
      "Geba": 3888,
      "denmi": 3889,
      "farnu": 3890,
      "Ahikam": 3891,
      "ngamh": 3892,
      "Ṭhatnak": 3893,
      "phuanmi": 3894,
      "shib": 3895,
      "baumi": 3896,
      "Thesal": 3897,
      "Nahor": 3898,
      "Vailam": 3899,
      "potami": 3900,
      "Eliashib": 3901,
      "Tobiah": 3902,
      "hluahmahmi": 3903,
      "Thlichia": 3904,
      "thurhnawmmi": 3905,
      "Uzziel": 3906,
      "hell": 3907,
      "Cherub": 3908,
      "depde": 3909,
      "Libnah": 3910,
      "pungsan": 3911,
      "Laksawng": 3912,
      "Steven": 3913,
      "Tehte": 3914,
      "lulhmalh": 3915,
      "Siasal": 3916,
      "jearim": 3917,
      "Asahel": 3918,
      "Thlanglei": 3919,
      "Kapernaum": 3920,
      "Mesopotami": 3921,
      "Refaim": 3922,
      "Mesopotamia": 3923,
      "1Peter": 3924,
      "Athal": 3925,
      "Eg": 3926,
      "Hla": 3927,
      "Hawi": 3928,
      "Hru": 3929,
      "Thar": 3930,
      "TUAH": 3931,
      "dawm": 3932,
      "eah": 3933,
      "gon": 3934,
      "gail": 3935,
      "hah": 3936,
      "hawh": 3937,
      "hlawm": 3938,
      "humh": 3939,
      "kuanak": 3940,
      "odu": 3941,
      "puhmi": 3942,
      "ret": 3943,
      "sawk": 3944,
      "tlek": 3945,
      "uak": 3946,
      "von": 3947,
      "zelh": 3948,
      "ṭawm": 3949,
      "nalh": 3950,
      "khoh": 3951,
      "hnatlaknak": 3952,
      "thuan": 3953,
      "thor": 3954,
      "tian": 3955,
      "tiel": 3956,
      "sian": 3957,
      "sianh": 3958,
      "sifah": 3959,
      "hreitlung": 3960,
      "dahkaw": 3961,
      "Jehi": 3962,
      "rialnak": 3963,
      "kalning": 3964,
      "lamhla": 3965,
      "sathau": 3966,
      "serhmi": 3967,
      "ralchan": 3968,
      "ralbawipa": 3969,
      "ralveng": 3970,
      "zabad": 3971,
      "ningte": 3972,
      "had": 3973,
      "ṭhatter": 3974,
      "vanmi": 3975,
      "kumhra": 3976,
      "bangkhan": 3977,
      "Joppa": 3978,
      "lehhmah": 3979,
      "zur": 3980,
      "zuri": 3981,
      "baan": 3982,
      "bath": 3983,
      "hleikhat": 3984,
      "hmanthlak": 3985,
      "chunzan": 3986,
      "phannak": 3987,
      "tawntu": 3988,
      "langhtertu": 3989,
      "Bela": 3990,
      "auhnak": 3991,
      "tlaihchan": 3992,
      "tlunpi": 3993,
      "tluninn": 3994,
      "teimi": 3995,
      "teirul": 3996,
      "duah": 3997,
      "velh": 3998,
      "Khuaruah": 3999,
      "thani": 4000,
      "thanuamnak": 4001,
      "Meshe": 4002,
      "zamter": 4003,
      "manna": 4004,
      "Pekah": 4005,
      "Eliezer": 4006,
      "hleih": 4007,
      "ruatmi": 4008,
      "sunghnak": 4009,
      "shad": 4010,
      "Hadad": 4011,
      "nuammi": 4012,
      "tawngmi": 4013,
      "zawnruahnak": 4014,
      "naite": 4015,
      "Abigail": 4016,
      "Thilnu": 4017,
      "lawnmi": 4018,
      "chawkmi": 4019,
      "Ahitub": 4020,
      "khenhmi": 4021,
      "hnahnawh": 4022,
      "Ngaknu": 4023,
      "pialter": 4024,
      "bultawl": 4025,
      "Sarai": 4026,
      "baunak": 4027,
      "paruknak": 4028,
      "nehsawhnak": 4029,
      "hrinpiakmi": 4030,
      "Horeb": 4031,
      "Amasa": 4032,
      "Gersho": 4033,
      "thengte": 4034,
      "Ahimelek": 4035,
      "Amminadab": 4036,
      "Oholi": 4037,
      "Galati": 4038,
      "bunhmi": 4039,
      "Cite": 4040,
      "Tirzah": 4041,
      "Melkhizedek": 4042,
      "Exodu": 4043,
      "shama": 4044,
      "dothlat": 4045,
      "Athaliah": 4046,
      "Gershom": 4047,
      "Exodus": 4048,
      "39": 4049,
      "Buanchukcho": 4050,
      "Cerh": 4051,
      "Him": 4052,
      "Hur": 4053,
      "Holh": 4054,
      "Heman": 4055,
      "HMI": 4056,
      "IM": 4057,
      "KHAW": 4058,
      "Mak": 4059,
      "Or": 4060,
      "Rem": 4061,
      "Thl": 4062,
      "Zer": 4063,
      "cak": 4064,
      "fu": 4065,
      "ju": 4066,
      "ks": 4067,
      "nenh": 4068,
      "of": 4069,
      "otho": 4070,
      "sua": 4071,
      "sawn": 4072,
      "vuan": 4073,
      "zawnh": 4074,
      "zainak": 4075,
      "Ṭhal": 4076,
      "naz": 4077,
      "cua": 4078,
      "awṭawm": 4079,
      "khaw": 4080,
      "the": 4081,
      "thun": 4082,
      "thlung": 4083,
      "mizaw": 4084,
      "angtu": 4085,
      "lag": 4086,
      "lal": 4087,
      "lath": 4088,
      "khab": 4089,
      "alan": 4090,
      "cha": 4091,
      "chem": 4092,
      "kat": 4093,
      "patling": 4094,
      "tua": 4095,
      "teo": 4096,
      "hmih": 4097,
      "ṭhum": 4098,
      "aioth": 4099,
      "radan": 4100,
      "pedia": 4101,
      "chimhring": 4102,
      "Jefun": 4103,
      "Jedaiah": 4104,
      "ulhmi": 4105,
      "aaz": 4106,
      "Cuti": 4107,
      "lungtak": 4108,
      "lungdong": 4109,
      "hmuhpiak": 4110,
      "zaradan": 4111,
      "hmunhter": 4112,
      "Mikhal": 4113,
      "hmaichiatnak": 4114,
      "And": 4115,
      "Nau": 4116,
      "upadi": 4117,
      "rolh": 4118,
      "hmakhatte": 4119,
      "halnak": 4120,
      "bab": 4121,
      "Saṭil": 4122,
      "kebei": 4123,
      "chuntlung": 4124,
      "tawnnak": 4125,
      "rep": 4126,
      "Amram": 4127,
      "coter": 4128,
      "fano": 4129,
      "chianu": 4130,
      "remter": 4131,
      "putnak": 4132,
      "duak": 4133,
      "Ralvengtu": 4134,
      "shen": 4135,
      "ruknak": 4136,
      "Eliakim": 4137,
      "Elishama": 4138,
      "timhtuahnak": 4139,
      "ceumi": 4140,
      "ṭamhmi": 4141,
      "shazzar": 4142,
      "Ziba": 4143,
      "hringhranmi": 4144,
      "Rekhab": 4145,
      "lawmhpi": 4146,
      "Manoah": 4147,
      "ṭhenmi": 4148,
      "aihram": 4149,
      "naihmi": 4150,
      "Elah": 4151,
      "Martha": 4152,
      "144": 4153,
      "rulpi": 4154,
      "thupmi": 4155,
      "Nebuzaradan": 4156,
      "limkeng": 4157,
      "camcinnak": 4158,
      "thlennak": 4159,
      "sumsel": 4160,
      "ṭemnak": 4161,
      "pialtak": 4162,
      "Hannah": 4163,
      "tlanval": 4164,
      "ṭangbenh": 4165,
      "Shad": 4166,
      "hnemhnak": 4167,
      "horkuang": 4168,
      "puarhrang": 4169,
      "ṭiaotakmi": 4170,
      "ngiatthlai": 4171,
      "Ahimaaz": 4172,
      "zirziar": 4173,
      "Zimri": 4174,
      "CHIM": 4175,
      "Berekhiah": 4176,
      "Aroer": 4177,
      "Rimmon": 4178,
      "Ziklag": 4179,
      "humhak": 4180,
      "KHAWHMI": 4181,
      "Thlua": 4182,
      "jubili": 4183,
      "Jefunneh": 4184,
      "CHIMMI": 4185,
      "46": 4186,
      "Ap": 4187,
      "Anan": 4188,
      "Ari": 4189,
      "Aga": 4190,
      "Cuar": 4191,
      "Eber": 4192,
      "Fes": 4193,
      "Gezer": 4194,
      "Sin": 4195,
      "Vampang": 4196,
      "baa": 4197,
      "dawnh": 4198,
      "dorh": 4199,
      "ean": 4200,
      "edn": 4201,
      "ego": 4202,
      "fenh": 4203,
      "kem": 4204,
      "lia": 4205,
      "ling": 4206,
      "pres": 4207,
      "tawh": 4208,
      "tter": 4209,
      "ṭet": 4210,
      "cuanh": 4211,
      "tikam": 4212,
      "aliah": 4213,
      "lepa": 4214,
      "lemiah": 4215,
      "pam": 4216,
      "laiah": 4217,
      "loth": 4218,
      "ṭhing": 4219,
      "ṭhennak": 4220,
      "chungril": 4221,
      "tuahter": 4222,
      "phong": 4223,
      "phen": 4224,
      "pherh": 4225,
      "faz": 4226,
      "fatiah": 4227,
      "rup": 4228,
      "khuaawng": 4229,
      "bir": 4230,
      "lungfahnak": 4231,
      "lamhlat": 4232,
      "lamhlapi": 4233,
      "bawiluchin": 4234,
      "duhdanh": 4235,
      "Miriam": 4236,
      "langta": 4237,
      "lawmmi": 4238,
      "lawmhmi": 4239,
      "Zeitik": 4240,
      "thinhung": 4241,
      "tazak": 4242,
      "thawimi": 4243,
      "hunh": 4244,
      "harter": 4245,
      "naute": 4246,
      "Izhar": 4247,
      "Sadu": 4248,
      "daih": 4249,
      "Abedn": 4250,
      "rathnawh": 4251,
      "Mahli": 4252,
      "tanter": 4253,
      "diriam": 4254,
      "panganak": 4255,
      "Bethani": 4256,
      "ṭhawngṭhawng": 4257,
      "phawnam": 4258,
      "Bilh": 4259,
      "thluachuak": 4260,
      "Raltuknak": 4261,
      "Sheal": 4262,
      "Shefatiah": 4263,
      "muih": 4264,
      "mura": 4265,
      "Eliza": 4266,
      "merh": 4267,
      "tluntertu": 4268,
      "tungtu": 4269,
      "zuamnak": 4270,
      "dawitu": 4271,
      "Hazar": 4272,
      "khualtlawnnak": 4273,
      "nemnak": 4274,
      "Nulepa": 4275,
      "Geha": 4276,
      "Geshur": 4277,
      "thukpi": 4278,
      "Artazak": 4279,
      "pemmi": 4280,
      "Hermon": 4281,
      "Mitcaw": 4282,
      "Chimh": 4283,
      "ruaram": 4284,
      "ralchanhmi": 4285,
      "lamhbak": 4286,
      "vailamtahnak": 4287,
      "attu": 4288,
      "Ashke": 4289,
      "chimhhrinnak": 4290,
      "horon": 4291,
      "tlawngmi": 4292,
      "Meshak": 4293,
      "choihmi": 4294,
      "burbuk": 4295,
      "Goshen": 4296,
      "thlop": 4297,
      "khawngsil": 4298,
      "chingchiah": 4299,
      "hrokhrawl": 4300,
      "Nethaniah": 4301,
      "Zumhawktlak": 4302,
      "thakpherh": 4303,
      "lawkihmi": 4304,
      "tuavon": 4305,
      "Shadrak": 4306,
      "Festas": 4307,
      "Sadusi": 4308,
      "Abednego": 4309,
      "Artazaksis": 4310,
      "41": 4311,
      "44": 4312,
      "Au": 4313,
      "Aw": 4314,
      "Dum": 4315,
      "Er": 4316,
      "Hak": 4317,
      "Hel": 4318,
      "Hlawh": 4319,
      "Pu": 4320,
      "Phun": 4321,
      "Rah": 4322,
      "ble": 4323,
      "beh": 4324,
      "cing": 4325,
      "dak": 4326,
      "gri": 4327,
      "mual": 4328,
      "molh": 4329,
      "ot": 4330,
      "rei": 4331,
      "sul": 4332,
      "ttai": 4333,
      "unaupa": 4334,
      "Ṭhi": 4335,
      "ṭotho": 4336,
      "anaim": 4337,
      "ngh": 4338,
      "ngang": 4339,
      "khuan": 4340,
      "nihchuak": 4341,
      "alhmi": 4342,
      "tutu": 4343,
      "tuamm": 4344,
      "nakding": 4345,
      "lopi": 4346,
      "ṭhuat": 4347,
      "ṭhep": 4348,
      "mahle": 4349,
      "caahdah": 4350,
      "koa": 4351,
      "kolh": 4352,
      "Pash": 4353,
      "biachimnak": 4354,
      "pemh": 4355,
      "teron": 4356,
      "fas": 4357,
      "cungnung": 4358,
      "khuasak": 4359,
      "chimhnak": 4360,
      "chimpiak": 4361,
      "chimhnawh": 4362,
      "litin": 4363,
      "Jedu": 4364,
      "kalhnawh": 4365,
      "sersiam": 4366,
      "duhdawtnak": 4367,
      "phunzai": 4368,
      "phunzainak": 4369,
      "Misifak": 4370,
      "hmaichia": 4371,
      "nawlpiak": 4372,
      "langmi": 4373,
      "ruahpi": 4374,
      "hacang": 4375,
      "thinfual": 4376,
      "biakchawnh": 4377,
      "nuncan": 4378,
      "vanrang": 4379,
      "vanṭhatnak": 4380,
      "dannak": 4381,
      "liopi": 4382,
      "Jerubbaal": 4383,
      "hlankan": 4384,
      "dirh": 4385,
      "thingthei": 4386,
      "hlawmi": 4387,
      "bok": 4388,
      "fibosheth": 4389,
      "keh": 4390,
      "kehram": 4391,
      "kirtak": 4392,
      "ṭihzah": 4393,
      "raithawi": 4394,
      "coih": 4395,
      "tluknak": 4396,
      "tlaihlan": 4397,
      "ngakchianu": 4398,
      "lettu": 4399,
      "remhnak": 4400,
      "Khuadawm": 4401,
      "dawtte": 4402,
      "Meri": 4403,
      "Megi": 4404,
      "Mefibosheth": 4405,
      "kaimi": 4406,
      "Elifaz": 4407,
      "hril": 4408,
      "fahter": 4409,
      "khiahpiak": 4410,
      "Nebo": 4411,
      "thlaimi": 4412,
      "rumra": 4413,
      "rumter": 4414,
      "Titas": 4415,
      "dawhdawh": 4416,
      "thuammi": 4417,
      "Nuhmei": 4418,
      "khaltu": 4419,
      "huham": 4420,
      "thaumi": 4421,
      "Zapi": 4422,
      "phuchim": 4423,
      "Miṭhalopa": 4424,
      "tlinternak": 4425,
      "Barak": 4426,
      "khuam": 4427,
      "camcinmi": 4428,
      "vangpalh": 4429,
      "Asherim": 4430,
      "Jazer": 4431,
      "Sham": 4432,
      "Shamm": 4433,
      "phaikung": 4434,
      "hlingbur": 4435,
      "Nahshon": 4436,
      "hornak": 4437,
      "saipres": 4438,
      "soisel": 4439,
      "Biaceihtu": 4440,
      "kuak": 4441,
      "kuli": 4442,
      "Ruth": 4443,
      "awlokchong": 4444,
      "Gog": 4445,
      "Ruahchan": 4446,
      "tlongmi": 4447,
      "Debir": 4448,
      "Tekoa": 4449,
      "phuhlamtu": 4450,
      "Obed": 4451,
      "hnorsuan": 4452,
      "Nethanel": 4453,
      "Langhnak": 4454,
      "Deuteron": 4455,
      "mawngtu": 4456,
      "Rabbah": 4457,
      "vawlh": 4458,
      "Hushai": 4459,
      "Encyclopedia": 4460,
      "aihramnak": 4461,
      "Shealtiel": 4462,
      "tuammuai": 4463,
      "Pashhur": 4464,
      "Jeduthun": 4465,
      "Megiddo": 4466,
      "Deuteronomi": 4467,
      "!’": 4468,
      "1Timote": 4469,
      "Elih": 4470,
      "Hremnak": 4471,
      "Ith": 4472,
      "Iddo": 4473,
      "Lawmhnak": 4474,
      "Mam": 4475,
      "Mangki": 4476,
      "Net": 4477,
      "Pak": 4478,
      "Rawhralnak": 4479,
      "Shar": 4480,
      "Tal": 4481,
      "Tem": 4482,
      "Thlan": 4483,
      "Zobah": 4484,
      "bahnak": 4485,
      "buanchukcho": 4486,
      "cen": 4487,
      "erib": 4488,
      "gah": 4489,
      "gad": 4490,
      "mal": 4491,
      "pan": 4492,
      "reng": 4493,
      "uih": 4494,
      "zuat": 4495,
      "zok": 4496,
      "anan": 4497,
      "nath": 4498,
      "cul": 4499,
      "khe": 4500,
      "khel": 4501,
      "kher": 4502,
      "miel": 4503,
      "tirawl": 4504,
      "tidil": 4505,
      "sial": 4506,
      "kath": 4507,
      "pamh": 4508,
      "hmet": 4509,
      "aitu": 4510,
      "kanto": 4511,
      "hiti": 4512,
      "hirh": 4513,
      "hrawl": 4514,
      "koni": 4515,
      "phalh": 4516,
      "phok": 4517,
      "ramchung": 4518,
      "ramhtu": 4519,
      "zeidang": 4520,
      "innom": 4521,
      "chuang": 4522,
      "dihmi": 4523,
      "serchommi": 4524,
      "zadak": 4525,
      "saltang": 4526,
      "saltangmi": 4527,
      "chuahpiak": 4528,
      "mino": 4529,
      "phuntungtu": 4530,
      "tlangpang": 4531,
      "Anah": 4532,
      "Nazir": 4533,
      "thlar": 4534,
      "bual": 4535,
      "tamter": 4536,
      "nganngan": 4537,
      "ṭuanṭi": 4538,
      "ṭuanvo": 4539,
      "Dagon": 4540,
      "deuhdeuh": 4541,
      "ṭhio": 4542,
      "ṭhitu": 4543,
      "ṭhitumnak": 4544,
      "umhar": 4545,
      "nakherib": 4546,
      "harh": 4547,
      "thangpi": 4548,
      "hlanpi": 4549,
      "hleiin": 4550,
      "ṭhalomi": 4551,
      "thazaang": 4552,
      "thatmi": 4553,
      "tumtu": 4554,
      "bonak": 4555,
      "Bath": 4556,
      "nambar": 4557,
      "cawla": 4558,
      "Maha": 4559,
      "kulul": 4560,
      "zumhfekmi": 4561,
      "Khor": 4562,
      "faniah": 4563,
      "saumi": 4564,
      "Thir": 4565,
      "Zefaniah": 4566,
      "shea": 4567,
      "senmi": 4568,
      "kaipi": 4569,
      "hringtu": 4570,
      "Nitlak": 4571,
      "bed": 4572,
      "Neko": 4573,
      "ṭammi": 4574,
      "melek": 4575,
      "thuhtak": 4576,
      "Zif": 4577,
      "Zil": 4578,
      "Zikhri": 4579,
      "Efron": 4580,
      "fungfek": 4581,
      "palik": 4582,
      "zahpi": 4583,
      "hlenter": 4584,
      "hleihnihnak": 4585,
      "thianhpiak": 4586,
      "naisai": 4587,
      "khuazeika": 4588,
      "sahlawh": 4589,
      "khunmi": 4590,
      "ngolter": 4591,
      "Barzil": 4592,
      "Reuel": 4593,
      "nawncek": 4594,
      "somei": 4595,
      "Chiti": 4596,
      "ritter": 4597,
      "Cungnung": 4598,
      "Timnah": 4599,
      "Jafeth": 4600,
      "Jeiel": 4601,
      "Ngakchiapa": 4602,
      "ruamkainak": 4603,
      "Kareah": 4604,
      "tlolh": 4605,
      "zuanzamnak": 4606,
      "zorter": 4607,
      "Hoshea": 4608,
      "Tampi": 4609,
      "hrutmi": 4610,
      "Sennakherib": 4611,
      "dawntu": 4612,
      "stmas": 4613,
      "Amoz": 4614,
      "Enok": 4615,
      "Christmas": 4616,
      "Eglon": 4617,
      "Jehiel": 4618,
      "cakuat": 4619,
      "Andru": 4620,
      "Thluachuahnak": 4621,
      "Apol": 4622,
      "Agag": 4623,
      "Gehazi": 4624,
      "Ruahchannak": 4625,
      "Mamre": 4626,
      "hirhiar": 4627,
      "Barzillai": 4628,
      "2Korin": 4629,
      "Agri": 4630,
      "Bri": 4631,
      "Dong": 4632,
      "Fih": 4633,
      "Hal": 4634,
      "Hei": 4635,
      "Hngal": 4636,
      "IBA": 4637,
      "Jair": 4638,
      "Men": 4639,
      "No": 4640,
      "Nam": 4641,
      "PA": 4642,
      "Terah": 4643,
      "Uri": 4644,
      "Zorah": 4645,
      "aamah": 4646,
      "bih": 4647,
      "blah": 4648,
      "dron": 4649,
      "ea": 4650,
      "ged": 4651,
      "hliah": 4652,
      "kangmi": 4653,
      "luk": 4654,
      "mun": 4655,
      "mash": 4656,
      "nuar": 4657,
      "osh": 4658,
      "ofah": 4659,
      "pul": 4660,
      "rummi": 4661,
      "vom": 4662,
      "zaa": 4663,
      "cuang": 4664,
      "khur": 4665,
      "ihphah": 4666,
      "thni": 4667,
      "thlawh": 4668,
      "mithinghmui": 4669,
      "chihnak": 4670,
      "kaih": 4671,
      "kari": 4672,
      "pasarihnak": 4673,
      "tuhtu": 4674,
      "lotu": 4675,
      "cazi": 4676,
      "lawt": 4677,
      "khanmi": 4678,
      "hrap": 4679,
      "tuahning": 4680,
      "fath": 4681,
      "cungkhuh": 4682,
      "rulh": 4683,
      "tukforhnak": 4684,
      "Jerah": 4685,
      "Jethro": 4686,
      "ritnak": 4687,
      "zeilo": 4688,
      "zeiruaram": 4689,
      "nutling": 4690,
      "dihumnak": 4691,
      "lungsi": 4692,
      "saf": 4693,
      "nica": 4694,
      "siangpahrangnu": 4695,
      "bawifung": 4696,
      "dinglo": 4697,
      "piaknak": 4698,
      "lengkekual": 4699,
      "ngeimipa": 4700,
      "ngandamnak": 4701,
      "zohkhenhmi": 4702,
      "taannak": 4703,
      "thianghlim": 4704,
      "shah": 4705,
      "upatmi": 4706,
      "rocotu": 4707,
      "ṭhitnak": 4708,
      "rawldanghnak": 4709,
      "khit": 4710,
      "Sib": 4711,
      "dawp": 4712,
      "lupawng": 4713,
      "camnak": 4714,
      "bami": 4715,
      "phungthluk": 4716,
      "thuel": 4717,
      "fimkhur": 4718,
      "fian": 4719,
      "Mahanaim": 4720,
      "zumhmi": 4721,
      "Khangh": 4722,
      "tannica": 4723,
      "Beriah": 4724,
      "auter": 4725,
      "ngakchiat": 4726,
      "kalpitu": 4727,
      "thihter": 4728,
      "thawkmi": 4729,
      "Thahnak": 4730,
      "Zebe": 4731,
      "Zebah": 4732,
      "hringmi": 4733,
      "merhnawh": 4734,
      "chawlehnak": 4735,
      "hremmi": 4736,
      "tlawmpalte": 4737,
      "chuahtermi": 4738,
      "umtertu": 4739,
      "daite": 4740,
      "Minmei": 4741,
      "dengteo": 4742,
      "Heber": 4743,
      "khuhtu": 4744,
      "aihmi": 4745,
      "Biaknak": 4746,
      "hmuhsakmi": 4747,
      "firmi": 4748,
      "Jonadab": 4749,
      "herhnak": 4750,
      "Arma": 4751,
      "ṭhekmi": 4752,
      "Innsang": 4753,
      "Lomi": 4754,
      "varek": 4755,
      "Kornel": 4756,
      "zuarmi": 4757,
      "Thomas": 4758,
      "huhphen": 4759,
      "dalin": 4760,
      "soser": 4761,
      "Riblah": 4762,
      "Hlanah": 4763,
      "tuakmi": 4764,
      "Arab": 4765,
      "Arabia": 4766,
      "chimchungmi": 4767,
      "Ashtaroth": 4768,
      "Kedar": 4769,
      "Kedesh": 4770,
      "Jehoiachin": 4771,
      "Kidron": 4772,
      "Khamhnak": 4773,
      "Meiinn": 4774,
      "kuhkulul": 4775,
      "Adaiah": 4776,
      "Muko": 4777,
      "chawnhnak": 4778,
      "khuakhanmi": 4779,
      "Haggai": 4780,
      "Beeroth": 4781,
      "luanter": 4782,
      "zuangzam": 4783,
      "Tefa": 4784,
      "pechantu": 4785,
      "phuhlamnak": 4786,
      "siivai": 4787,
      "nuamhpi": 4788,
      "BAIBA": 4789,
      "Dibon": 4790,
      "Leidip": 4791,
      "Huram": 4792,
      "Ishbosheth": 4793,
      "Palhnak": 4794,
      "Malkhijah": 4795,
      "Cawnpiaknak": 4796,
      "Zalmun": 4797,
      "Magdalin": 4798,
      "Cherubim": 4799,
      "Hruaitu": 4800,
      "Cuarpar": 4801,
      "Ashkelon": 4802,
      "Rahab": 4803,
      "Elihu": 4804,
      "Netofah": 4805,
      "Nitlaklei": 4806,
      "Agrippa": 4807,
      "Britannica": 4808,
      "geddon": 4809,
      "Zebedi": 4810,
      "Armageddon": 4811,
      "Kornelias": 4812,
      "BAIBAL": 4813,
      "Zalmunna": 4814,
      ".’": 4815,
      "45": 4816,
      "Alek": 4817,
      "Bawm": 4818,
      "Bawmhnak": 4819,
      "Deb": 4820,
      "Ethan": 4821,
      "Ehu": 4822,
      "Ebed": 4823,
      "Gol": 4824,
      "Hab": 4825,
      "Jaa": 4826,
      "Khau": 4827,
      "Ofir": 4828,
      "Riah": 4829,
      "Sun": 4830,
      "Sawm": 4831,
      "Tlak": 4832,
      "Tlawm": 4833,
      "Tual": 4834,
      "Zip": 4835,
      "Zab": 4836,
      "bek": 4837,
      "ii": 4838,
      "kur": 4839,
      "mat": 4840,
      "oam": 4841,
      "pras": 4842,
      "rinh": 4843,
      "ttu": 4844,
      "toh": 4845,
      "tlen": 4846,
      "yamah": 4847,
      "ṭummi": 4848,
      "cuh": 4849,
      "hnatlak": 4850,
      "hnakhaw": 4851,
      "mil": 4852,
      "milung": 4853,
      "milu": 4854,
      "mitling": 4855,
      "milihchim": 4856,
      "khakha": 4857,
      "khalh": 4858,
      "timhnak": 4859,
      "alon": 4860,
      "chaan": 4861,
      "chat": 4862,
      "lel": 4863,
      "tuzan": 4864,
      "laici": 4865,
      "amh": 4866,
      "lofe": 4867,
      "umning": 4868,
      "umhnawh": 4869,
      "eilo": 4870,
      "seng": 4871,
      "koin": 4872,
      "Paran": 4873,
      "kahcham": 4874,
      "pho": 4875,
      "pet": 4876,
      "favui": 4877,
      "nuphung": 4878,
      "utlak": 4879,
      "Iskari": 4880,
      "vat": 4881,
      "lunghno": 4882,
      "chuahka": 4883,
      "thawhtertu": 4884,
      "ngaikuang": 4885,
      "Mis": 4886,
      "tinvo": 4887,
      "ṭhancho": 4888,
      "tlangkawm": 4889,
      "nawlngeitu": 4890,
      "langhngan": 4891,
      "Hiti": 4892,
      "thinlinh": 4893,
      "holhnak": 4894,
      "zohchun": 4895,
      "vanlai": 4896,
      "roth": 4897,
      "zalel": 4898,
      "rawlh": 4899,
      "rawlret": 4900,
      "meifar": 4901,
      "meilaknak": 4902,
      "hlatnak": 4903,
      "ballat": 4904,
      "Joah": 4905,
      "Joia": 4906,
      "relning": 4907,
      "phungthlukbia": 4908,
      "dotlak": 4909,
      "dinmi": 4910,
      "fimchimtu": 4911,
      "cawtter": 4912,
      "hmanṭi": 4913,
      "thomi": 4914,
      "dis": 4915,
      "diel": 4916,
      "Ammih": 4917,
      "hrawhmi": 4918,
      "Beor": 4919,
      "Bethuel": 4920,
      "chik": 4921,
      "khanghthawinak": 4922,
      "phit": 4923,
      "phichuak": 4924,
      "phawtmi": 4925,
      "dammi": 4926,
      "Thih": 4927,
      "Thlaici": 4928,
      "kiang": 4929,
      "Bil": 4930,
      "Zelofe": 4931,
      "Raldohnak": 4932,
      "Sheb": 4933,
      "Shelemiah": 4934,
      "mansung": 4935,
      "philhhlah": 4936,
      "Eliel": 4937,
      "ṭhup": 4938,
      "hranter": 4939,
      "ngakchiate": 4940,
      "New": 4941,
      "Nehe": 4942,
      "app": 4943,
      "dawimi": 4944,
      "tharmi": 4945,
      "rianṭuanning": 4946,
      "hlawtmi": 4947,
      "pumi": 4948,
      "huam": 4949,
      "thmanh": 4950,
      "Tupi": 4951,
      "sannak": 4952,
      "sanlei": 4953,
      "Abiram": 4954,
      "Abinadab": 4955,
      "kauhnak": 4956,
      "ṭhitpiak": 4957,
      "hlawhtling": 4958,
      "Hamor": 4959,
      "Harim": 4960,
      "hlangnu": 4961,
      "mibupi": 4962,
      "fuhmi": 4963,
      "chuannak": 4964,
      "dengmangmi": 4965,
      "thurhhnawmhnak": 4966,
      "Hanun": 4967,
      "phuannak": 4968,
      "chiatserhmi": 4969,
      "sop": 4970,
      "ruathmanh": 4971,
      "riamruam": 4972,
      "zuahmi": 4973,
      "mawhchiatnak": 4974,
      "citter": 4975,
      "Aij": 4976,
      "thiantermi": 4977,
      "nehsawh": 4978,
      "Kenaz": 4979,
      "ziknawh": 4980,
      "chahmi": 4981,
      "cuaithlainak": 4982,
      "nganhmi": 4983,
      "Adullam": 4984,
      "Mushi": 4985,
      "tlerh": 4986,
      "Hanani": 4987,
      "nehmi": 4988,
      "Jabin": 4989,
      "ṭanpi": 4990,
      "Saipras": 4991,
      "chiahpiakmi": 4992,
      "mihrokhrawl": 4993,
      "Dedan": 4994,
      "Hmakhatte": 4995,
      "thlulo": 4996,
      "Thazang": 4997,
      "Theipi": 4998,
      "Milkah": 4999,
      "ngiatu": 5000,
      "Hmaanmi": 5001,
      "Ṭhawng": 5002,
      "thurhnawmhter": 5003,
      "Lenglei": 5004,
      "Zakkur": 5005,
      "Abihu": 5006,
      "Zarh": 5007,
      "foihnak": 5008,
      "Raithawinak": 5009,
      "Mikmash": 5010,
      "Ornan": 5011,
      "Ananias": 5012,
      "Bilhah": 5013,
      "Elizabeth": 5014,
      "Hlawhhlangnu": 5015,
      "Pakpalawng": 5016,
      "Bathsheba": 5017,
      "Apollo": 5018,
      "zeiruaramlo": 5019,
      "Alekzan": 5020,
      "Deborah": 5021,
      "Ehud": 5022,
      "Khaubawk": 5023,
      "Sunparnak": 5024,
      "Zippor": 5025,
      "Iskariot": 5026,
      "Ammihud": 5027,
      "Zelofehad": 5028,
      "2Matthai": 5029,
      "49": 5030,
      "50": 5031,
      "Ezer": 5032,
      "Feli": 5033,
      "Hrem": 5034,
      "IPA": 5035,
      "Jan": 5036,
      "Kir": 5037,
      "Lawk": 5038,
      "NG": 5039,
      "Ning": 5040,
      "Neh": 5041,
      "Po": 5042,
      "Rung": 5043,
      "Tili": 5044,
      "Tuah": 5045,
      "WIPA": 5046,
      "Zin": 5047,
      "ael": 5048,
      "blet": 5049,
      "ck": 5050,
      "diah": 5051,
      "enai": 5052,
      "fia": 5053,
      "kiao": 5054,
      "lun": 5055,
      "nek": 5056,
      "neng": 5057,
      "net": 5058,
      "sei": 5059,
      "suat": 5060,
      "taw": 5061,
      "ṭangmi": 5062,
      "nas": 5063,
      "ngaw": 5064,
      "cum": 5065,
      "cuti": 5066,
      "miluat": 5067,
      "mipuarhrang": 5068,
      "angai": 5069,
      "lakhi": 5070,
      "khaa": 5071,
      "aliel": 5072,
      "siIsaiah": 5073,
      "pas": 5074,
      "unu": 5075,
      "unah": 5076,
      "iatnak": 5077,
      "iafas": 5078,
      "hrawn": 5079,
      "thianlo": 5080,
      "khatlei": 5081,
      "phenh": 5082,
      "biatu": 5083,
      "arba": 5084,
      "fapawi": 5085,
      "faphal": 5086,
      "tukforh": 5087,
      "lili": 5088,
      "Jerem": 5089,
      "kalh": 5090,
      "Cutin": 5091,
      "lungpumh": 5092,
      "amahte": 5093,
      "hlih": 5094,
      "ralkah": 5095,
      "zaih": 5096,
      "minthlak": 5097,
      "duhdim": 5098,
      "veth": 5099,
      "thawhṭhan": 5100,
      "hmunthur": 5101,
      "phunkhat": 5102,
      "Mig": 5103,
      "Mifir": 5104,
      "Miruamkai": 5105,
      "Jesh": 5106,
      "Kaiafas": 5107,
      "hmaisuang": 5108,
      "nawlngaih": 5109,
      "cip": 5110,
      "ciruang": 5111,
      "Zeitikhmanh": 5112,
      "thinhnawh": 5113,
      "lomipa": 5114,
      "zulhter": 5115,
      "zohpiak": 5116,
      "tablet": 5117,
      "nunnem": 5118,
      "shti": 5119,
      "tlakrawh": 5120,
      "hternak": 5121,
      "balmi": 5122,
      "Jozabad": 5123,
      "lengmangtu": 5124,
      "simipa": 5125,
      "simiNa": 5126,
      "halpiak": 5127,
      "lehmi": 5128,
      "baal": 5129,
      "chinmi": 5130,
      "hleisarih": 5131,
      "hleikhatnak": 5132,
      "thlahpiak": 5133,
      "anmahte": 5134,
      "fimthiamnak": 5135,
      "hramh": 5136,
      "chunte": 5137,
      "pangeilo": 5138,
      "dohmi": 5139,
      "aumi": 5140,
      "autu": 5141,
      "tlunh": 5142,
      "zanṭim": 5143,
      "runpi": 5144,
      "phaknak": 5145,
      "phing": 5146,
      "Hefer": 5147,
      "lungthinlei": 5148,
      "hmasami": 5149,
      "obul": 5150,
      "Bible": 5151,
      "Malakhi": 5152,
      "luattertu": 5153,
      "Nifate": 5154,
      "timhpiak": 5155,
      "Filistia": 5156,
      "Neriah": 5157,
      "meel": 5158,
      "cawhlek": 5159,
      "hmaanlo": 5160,
      "rumro": 5161,
      "Cabuai": 5162,
      "puak": 5163,
      "purh": 5164,
      "herhbaunak": 5165,
      "kaltakmi": 5166,
      "Efrath": 5167,
      "cinmi": 5168,
      "ziel": 5169,
      "Lamhlatpi": 5170,
      "thanhmi": 5171,
      "Tubal": 5172,
      "santlaihnak": 5173,
      "zawnhnak": 5174,
      "aihter": 5175,
      "belte": 5176,
      "kulhtu": 5177,
      "Vashti": 5178,
      "hmuhsaknak": 5179,
      "ṭumchuk": 5180,
      "tlonter": 5181,
      "Thilnung": 5182,
      "Arfi": 5183,
      "angkileng": 5184,
      "nawhthuh": 5185,
      "tuahpiakmi": 5186,
      "thurhhnawmhter": 5187,
      "kengtu": 5188,
      "toidor": 5189,
      "tuakning": 5190,
      "Shaul": 5191,
      "Shafan": 5192,
      "Rehob": 5193,
      "hnemtu": 5194,
      "thiahmi": 5195,
      "nea": 5196,
      "Boz": 5197,
      "maveth": 5198,
      "Tofeth": 5199,
      "launak": 5200,
      "tlengh": 5201,
      "lanhter": 5202,
      "BAWIPA": 5203,
      "phiarmi": 5204,
      "Immer": 5205,
      "rohmi": 5206,
      "Meraioth": 5207,
      "celhnak": 5208,
      "derthawmmi": 5209,
      "Phone": 5210,
      "Upatnak": 5211,
      "Zoar": 5212,
      "Gerar": 5213,
      "Sanballat": 5214,
      "zohnak": 5215,
      "kaoter": 5216,
      "onika": 5217,
      "Hngalhthiamnak": 5218,
      "Tabor": 5219,
      "pelpawi": 5220,
      "Thesalonika": 5221,
      "hahter": 5222,
      "hleihluat": 5223,
      "shaddai": 5224,
      "Remaliah": 5225,
      "Meribah": 5226,
      "vawlhpamh": 5227,
      "cenhmi": 5228,
      "aamahkhan": 5229,
      "Jerahmeel": 5230,
      "huhphenhnak": 5231,
      "Aijalon": 5232,
      "40": 5233,
      "Aza": 5234,
      "Adar": 5235,
      "Ahmaanmi": 5236,
      "Buk": 5237,
      "Ceng": 5238,
      "Ed": 5239,
      "Ei": 5240,
      "Fung": 5241,
      "Fing": 5242,
      "Gam": 5243,
      "Hlen": 5244,
      "Hinnom": 5245,
      "Ib": 5246,
      "Jas": 5247,
      "Othni": 5248,
      "Rumnak": 5249,
      "TV": 5250,
      "Ta": 5251,
      "Tuk": 5252,
      "Tro": 5253,
      "Vok": 5254,
      "Zihmui": 5255,
      "asi": 5256,
      "bamah": 5257,
      "cet": 5258,
      "ceh": 5259,
      "frah": 5260,
      "hning": 5261,
      "hleh": 5262,
      "hlon": 5263,
      "kawhnak": 5264,
      "mam": 5265,
      "raw": 5266,
      "sci": 5267,
      "sobul": 5268,
      "tlawt": 5269,
      "vuai": 5270,
      "vuih": 5271,
      "Ṭihnak": 5272,
      "nar": 5273,
      "naan": 5274,
      "nathan": 5275,
      "naunu": 5276,
      "cuainak": 5277,
      "awkh": 5278,
      "miporhlaw": 5279,
      "mizeng": 5280,
      "miruamkai": 5281,
      "laang": 5282,
      "tibantuk": 5283,
      "almi": 5284,
      "chumh": 5285,
      "chahnak": 5286,
      "chaih": 5287,
      "pat": 5288,
      "paz": 5289,
      "teshazzar": 5290,
      "umhmun": 5291,
      "ṭhinh": 5292,
      "caṭial": 5293,
      "cafang": 5294,
      "kaniah": 5295,
      "pit": 5296,
      "chunghawi": 5297,
      "kol": 5298,
      "phut": 5299,
      "biakhiak": 5300,
      "biachahnak": 5301,
      "leiser": 5302,
      "ternak": 5303,
      "faah": 5304,
      "khualak": 5305,
      "khuarit": 5306,
      "chimbu": 5307,
      "lisia": 5308,
      "Jeh": 5309,
      "Jeush": 5310,
      "Jeroh": 5311,
      "hngar": 5312,
      "pekning": 5313,
      "pakhatte": 5314,
      "vacung": 5315,
      "thilṭhalo": 5316,
      "lungkhat": 5317,
      "lunghrinnak": 5318,
      "ence": 5319,
      "saduh": 5320,
      "sakhi": 5321,
      "nifa": 5322,
      "nithla": 5323,
      "hngalthiam": 5324,
      "zaza": 5325,
      "zapei": 5326,
      "emuel": 5327,
      "ummim": 5328,
      "duhsah": 5329,
      "Kad": 5330,
      "thlanh": 5331,
      "nganter": 5332,
      "zohmi": 5333,
      "kamter": 5334,
      "chimhning": 5335,
      "shak": 5336,
      "shbe": 5337,
      "Dathan": 5338,
      "rocar": 5339,
      "caanṭha": 5340,
      "theihhngalh": 5341,
      "kumvoi": 5342,
      "hlathlainak": 5343,
      "tlakning": 5344,
      "htermi": 5345,
      "Sifahnak": 5346,
      "Silisia": 5347,
      "Jobab": 5348,
      "lengmangnak": 5349,
      "reltu": 5350,
      "hlannak": 5351,
      "dirhmun": 5352,
      "thingthluan": 5353,
      "Baanah": 5354,
      "theipar": 5355,
      "fik": 5356,
      "keuh": 5357,
      "kepi": 5358,
      "kedah": 5359,
      "keza": 5360,
      "kirmi": 5361,
      "cawtu": 5362,
      "khinhmi": 5363,
      "tawne": 5364,
      "ṭihphannak": 5365,
      "nanmahle": 5366,
      "tholung": 5367,
      "reth": 5368,
      "dohpiak": 5369,
      "unaule": 5370,
      "tlukter": 5371,
      "Beel": 5372,
      "Bezalel": 5373,
      "auhnawh": 5374,
      "suiluchin": 5375,
      "tlaihter": 5376,
      "zanter": 5377,
      "kiptuh": 5378,
      "ṭiltlawt": 5379,
      "riahcaw": 5380,
      "Big": 5381,
      "Bikhri": 5382,
      "Zebadiah": 5383,
      "Mas": 5384,
      "Shere": 5385,
      "Shekaniah": 5386,
      "kawlpiak": 5387,
      "Peor": 5388,
      "Pedaiah": 5389,
      "Babilonia": 5390,
      "Git": 5391,
      "Elife": 5392,
      "Niko": 5393,
      "sunsak": 5394,
      "samfa": 5395,
      "rungrul": 5396,
      "chawlet": 5397,
      "thuhkanh": 5398,
      "sinumpa": 5399,
      "pumhhnawh": 5400,
      "sunghmi": 5401,
      "dawhcah": 5402,
      "olhnak": 5403,
      "Molek": 5404,
      "tawngtham": 5405,
      "Lamek": 5406,
      "Rezin": 5407,
      "zawntu": 5408,
      "lianngannak": 5409,
      "carmi": 5410,
      "Nuam": 5411,
      "cohlanmi": 5412,
      "chep": 5413,
      "chehnak": 5414,
      "hmeinu": 5415,
      "Inter": 5416,
      "hlawhtlinnak": 5417,
      "Arpak": 5418,
      "Maresh": 5419,
      "ṭheknak": 5420,
      "zualko": 5421,
      "Innleng": 5422,
      "buarnak": 5423,
      "farle": 5424,
      "thlennawnnak": 5425,
      "cawmmi": 5426,
      "phorhter": 5427,
      "Zanriah": 5428,
      "Luz": 5429,
      "barnea": 5430,
      "Uzza": 5431,
      "Zuri": 5432,
      "Bawiṭhutdan": 5433,
      "tawiter": 5434,
      "khimh": 5435,
      "tuaktan": 5436,
      "Araunah": 5437,
      "Karmi": 5438,
      "Gaal": 5439,
      "Hormah": 5440,
      "phengphel": 5441,
      "maknak": 5442,
      "zawmhtaihnak": 5443,
      "puarhran": 5444,
      "cuahmahmi": 5445,
      "maimaw": 5446,
      "vakmi": 5447,
      "Sihlah": 5448,
      "ṭanṭinak": 5449,
      "luannak": 5450,
      "phungbuarnak": 5451,
      "fingrilh": 5452,
      "Changvut": 5453,
      "Jahath": 5454,
      "Rangtum": 5455,
      "Aksah": 5456,
      "Tahchunhnak": 5457,
      "thutnak": 5458,
      "hnorsuang": 5459,
      "Shobal": 5460,
      "Shunam": 5461,
      "fonghlei": 5462,
      "Amos": 5463,
      "Pahnih": 5464,
      "Belteshazzar": 5465,
      "tlarimi": 5466,
      "Camcawh": 5467,
      "hlanhmi": 5468,
      "Peleth": 5469,
      "khohter": 5470,
      "Khuaruahhar": 5471,
      "Meshek": 5472,
      "Oholibamah": 5473,
      "Makkedah": 5474,
      "Hngalhnak": 5475,
      "Riahhmun": 5476,
      "Feliks": 5477,
      "zaihnawh": 5478,
      "Cenghngia": 5479,
      "hninghno": 5480,
      "science": 5481,
      "Jeroham": 5482,
      "Mareshah": 5483,
      "48": 5484,
      "Akh": 5485,
      "Adah": 5486,
      "Afek": 5487,
      "Duh": 5488,
      "Dor": 5489,
      "Ebal": 5490,
      "Elon": 5491,
      "Fale": 5492,
      "Gir": 5493,
      "Haro": 5494,
      "Ira": 5495,
      "Ittai": 5496,
      "Jam": 5497,
      "Jamin": 5498,
      "Krit": 5499,
      "Khem": 5500,
      "Mem": 5501,
      "NA": 5502,
      "Onan": 5503,
      "Pang": 5504,
      "Por": 5505,
      "Pale": 5506,
      "Reh": 5507,
      "Seth": 5508,
      "Tel": 5509,
      "Toi": 5510,
      "Taan": 5511,
      "Teitu": 5512,
      "Tapp": 5513,
      "Unau": 5514,
      "Urim": 5515,
      "UNG": 5516,
      "Vanhramdeng": 5517,
      "Zul": 5518,
      "asilo": 5519,
      "dummi": 5520,
      "eg": 5521,
      "fut": 5522,
      "feh": 5523,
      "felah": 5524,
      "gar": 5525,
      "hli": 5526,
      "huk": 5527,
      "ik": 5528,
      "iang": 5529,
      "ly": 5530,
      "map": 5531,
      "moth": 5532,
      "neli": 5533,
      "opa": 5534,
      "odi": 5535,
      "ppi": 5536,
      "puang": 5537,
      "pok": 5538,
      "sahmul": 5539,
      "uanh": 5540,
      "voih": 5541,
      "zim": 5542,
      "ṭeng": 5543,
      "ahem": 5544,
      "nguh": 5545,
      "cuhleiah": 5546,
      "khawm": 5547,
      "khumhnak": 5548,
      "hnatonh": 5549,
      "hnachet": 5550,
      "then": 5551,
      "miralṭha": 5552,
      "latu": 5553,
      "khap": 5554,
      "sibawi": 5555,
      "sias": 5556,
      "siannak": 5557,
      "pau": 5558,
      "tun": 5559,
      "tus": 5560,
      "tuainak": 5561,
      "ungkung": 5562,
      "ten": 5563,
      "teng": 5564,
      "tenai": 5565,
      "tekem": 5566,
      "uni": 5567,
      "umtak": 5568,
      "umruang": 5569,
      "sek": 5570,
      "ṭhih": 5571,
      "cakhenh": 5572,
      "iau": 5573,
      "radis": 5574,
      "tuahchunh": 5575,
      "phuat": 5576,
      "phulhmi": 5577,
      "biar": 5578,
      "faiar": 5579,
      "pahlei": 5580,
      "khuasaknak": 5581,
      "Jether": 5582,
      "rikam": 5583,
      "innpi": 5584,
      "nuhmeinu": 5585,
      "pakhatpa": 5586,
      "onnak": 5587,
      "awnnak": 5588,
      "biale": 5589,
      "lungṭhawnnak": 5590,
      "lungdai": 5591,
      "amahle": 5592,
      "hlinh": 5593,
      "hliau": 5594,
      "lamnai": 5595,
      "sathi": 5596,
      "sayamah": 5597,
      "safaiar": 5598,
      "hmuhhngan": 5599,
      "raltu": 5600,
      "ralṭhami": 5601,
      "bawinak": 5602,
      "minthang": 5603,
      "minkhenhnak": 5604,
      "venak": 5605,
      "hmunh": 5606,
      "tlangngaikuang": 5607,
      "hngalhpiak": 5608,
      "hngalhtertu": 5609,
      "hauh": 5610,
      "bupi": 5611,
      "Zeicaahdah": 5612,
      "thinlung": 5613,
      "ṭit": 5614,
      "tama": 5615,
      "zohchih": 5616,
      "taol": 5617,
      "ekiel": 5618,
      "nunh": 5619,
      "rop": 5620,
      "kumvui": 5621,
      "zeel": 5622,
      "zebul": 5623,
      "ṭhimi": 5624,
      "ṭhitum": 5625,
      "rawlṭuantu": 5626,
      "cheumi": 5627,
      "cheuchum": 5628,
      "chiahhnawh": 5629,
      "liote": 5630,
      "tangin": 5631,
      "ngaihchihnak": 5632,
      "hrihrual": 5633,
      "domi": 5634,
      "Sau": 5635,
      "cawnnak": 5636,
      "rihter": 5637,
      "Abdon": 5638,
      "thuah": 5639,
      "thingkuang": 5640,
      "boa": 5641,
      "Basem": 5642,
      "cawmi": 5643,
      "cawhnak": 5644,
      "cawleng": 5645,
      "chiathnawh": 5646,
      "thangṭhatmi": 5647,
      "runven": 5648,
      "saunak": 5649,
      "vaim": 5650,
      "pawngin": 5651,
      "pawngte": 5652,
      "remhmi": 5653,
      "phir": 5654,
      "Hele": 5655,
      "putter": 5656,
      "thihtak": 5657,
      "Thang": 5658,
      "kik": 5659,
      "kian": 5660,
      "riahhnawh": 5661,
      "velhnak": 5662,
      "Khuachung": 5663,
      "thanhnak": 5664,
      "Maon": 5665,
      "Shemi": 5666,
      "Shefelah": 5667,
      "Soko": 5668,
      "Jehozadak": 5669,
      "muvanlai": 5670,
      "siapi": 5671,
      "beuh": 5672,
      "beon": 5673,
      "ohanan": 5674,
      "tungvangpalh": 5675,
      "chawr": 5676,
      "chawhrawl": 5677,
      "dawinak": 5678,
      "Vanchiatnak": 5679,
      "rawnram": 5680,
      "holhmi": 5681,
      "shael": 5682,
      "Zibeon": 5683,
      "Hara": 5684,
      "Hash": 5685,
      "Matti": 5686,
      "kuaih": 5687,
      "nuamhter": 5688,
      "thlaknak": 5689,
      "ziam": 5690,
      "Dantatnak": 5691,
      "Tuzan": 5692,
      "khualtlawn": 5693,
      "Libia": 5694,
      "thawthaw": 5695,
      "biaknaklei": 5696,
      "rimmon": 5697,
      "Lunglawmhnak": 5698,
      "carter": 5699,
      "Nuva": 5700,
      "Abiezer": 5701,
      "thurhnawmhnak": 5702,
      "Zabad": 5703,
      "chinchinmi": 5704,
      "Elim": 5705,
      "huatmi": 5706,
      "rilhnak": 5707,
      "Chiat": 5708,
      "Pis": 5709,
      "Ngakṭah": 5710,
      "beimi": 5711,
      "lamhchih": 5712,
      "chuhmi": 5713,
      "Shema": 5714,
      "Herodias": 5715,
      "vailamtah": 5716,
      "lawmhtertu": 5717,
      "Shafat": 5718,
      "kilven": 5719,
      "tlanhmi": 5720,
      "cohlangmi": 5721,
      "Nahash": 5722,
      "kuaimi": 5723,
      "chuahtakmi": 5724,
      "chahlei": 5725,
      "makmi": 5726,
      "Haggi": 5727,
      "phawher": 5728,
      "Zungthiam": 5729,
      "kub": 5730,
      "Tola": 5731,
      "kutdonghrolh": 5732,
      "Gilboa": 5733,
      "Rianṭuantu": 5734,
      "Ezekiel": 5735,
      "Khereth": 5736,
      "silla": 5737,
      "siling": 5738,
      "Sefar": 5739,
      "Thlitu": 5740,
      "Azrikam": 5741,
      "tlenghnak": 5742,
      "Ngunkhuai": 5743,
      "Rangleng": 5744,
      "Akkub": 5745,
      "hngatchan": 5746,
      "hngatchanmi": 5747,
      "Tlangvalpa": 5748,
      "Lihchim": 5749,
      "hammi": 5750,
      "Cheu": 5751,
      "Asaiah": 5752,
      "dildel": 5753,
      "Dinah": 5754,
      "Aramean": 5755,
      "Eshtaol": 5756,
      "cutmat": 5757,
      "Santlai": 5758,
      "ṭuangpi": 5759,
      "Ngaihmanh": 5760,
      "Nimtlau": 5761,
      "Pekchanh": 5762,
      "Peleg": 5763,
      "Thesalon": 5764,
      "Hawikom": 5765,
      "Oholibah": 5766,
      "Cerhti": 5767,
      "suaum": 5768,
      "Chimhhrinnak": 5769,
      "khuamui": 5770,
      "Shammah": 5771,
      "Sharon": 5772,
      "phokphawher": 5773,
      "Mahala": 5774,
      "Zilpah": 5775,
      "Menahem": 5776,
      "Nambar": 5777,
      "nuarmi": 5778,
      "Nehemiah": 5779,
      "Jeremoth": 5780,
      "Bozrah": 5781,
      "Edrei": 5782,
      "Gamaliel": 5783,
      "Othniel": 5784,
      "Kadmiel": 5785,
      "Beelzebul": 5786,
      "Sherebiah": 5787,
      "Khemosh": 5788,
      "Rehum": 5789,
      "Tappuah": 5790,
      "asilole": 5791,
      "nelian": 5792,
      "Basemath": 5793,
      "47": 5794,
      "65": 5795,
      "69": 5796,
      "AD": 5797,
      "Ang": 5798,
      "Ain": 5799,
      "Ale": 5800,
      "Akhan": 5801,
      "Ahin": 5802,
      "Aze": 5803,
      "Bah": 5804,
      "Binn": 5805,
      "Biah": 5806,
      "Chu": 5807,
      "Dir": 5808,
      "Deli": 5809,
      "Ezi": 5810,
      "Gab": 5811,
      "Hun": 5812,
      "Hnu": 5813,
      "Hrawk": 5814,
      "Hod": 5815,
      "Hrin": 5816,
      "Hnek": 5817,
      "Joh": 5818,
      "Jash": 5819,
      "Kulhnak": 5820,
      "Lim": 5821,
      "Ore": 5822,
      "Ofrah": 5823,
      "Paw": 5824,
      "Pri": 5825,
      "Put": 5826,
      "Ro": 5827,
      "Rawk": 5828,
      "Spa": 5829,
      "Sair": 5830,
      "Tei": 5831,
      "Ting": 5832,
      "Ui": 5833,
      "ara": 5834,
      "bim": 5835,
      "dulh": 5836,
      "eri": 5837,
      "ge": 5838,
      "gam": 5839,
      "glah": 5840,
      "gash": 5841,
      "hlai": 5842,
      "hum": 5843,
      "jas": 5844,
      "ker": 5845,
      "oihnak": 5846,
      "pong": 5847,
      "ponh": 5848,
      "rawnh": 5849,
      "taa": 5850,
      "ttim": 5851,
      "tawhr": 5852,
      "urim": 5853,
      "ṭale": 5854,
      "anka": 5855,
      "naim": 5856,
      "ngu": 5857,
      "ngel": 5858,
      "ini": 5859,
      "inchunghawi": 5860,
      "thung": 5861,
      "mis": 5862,
      "mith": 5863,
      "milh": 5864,
      "mipuai": 5865,
      "mingiatu": 5866,
      "laih": 5867,
      "khaka": 5868,
      "titlang": 5869,
      "alhter": 5870,
      "almon": 5871,
      "sirah": 5872,
      "sivang": 5873,
      "leem": 5874,
      "laite": 5875,
      "lainawnnak": 5876,
      "lolak": 5877,
      "lotlau": 5878,
      "lothlo": 5879,
      "teim": 5880,
      "thitlawn": 5881,
      "akkuk": 5882,
      "eiter": 5883,
      "ṭhangh": 5884,
      "cafung": 5885,
      "cakhenhnak": 5886,
      "iap": 5887,
      "iath": 5888,
      "airolh": 5889,
      "hrolhnak": 5890,
      "kotu": 5891,
      "Par": 5892,
      "thiantertu": 5893,
      "tuahṭi": 5894,
      "biachimmi": 5895,
      "biachawn": 5896,
      "vide": 5897,
      "vilah": 5898,
      "arai": 5899,
      "pehmi": 5900,
      "leithuan": 5901,
      "terran": 5902,
      "favai": 5903,
      "cungdot": 5904,
      "tukter": 5905,
      "khuasa": 5906,
      "khuazeihmanh": 5907,
      "Jekoni": 5908,
      "zeiti": 5909,
      "baniah": 5910,
      "inner": 5911,
      "nuai": 5912,
      "nuel": 5913,
      "awngsil": 5914,
      "chuih": 5915,
      "Isshi": 5916,
      "cangpa": 5917,
      "vaar": 5918,
      "vaihnak": 5919,
      "thilṭha": 5920,
      "lungṭhawng": 5921,
      "lunghrin": 5922,
      "lungherh": 5923,
      "lungpuam": 5924,
      "hluan": 5925,
      "sas": 5926,
      "serhnawh": 5927,
      "hmuhtonnak": 5928,
      "ralnak": 5929,
      "ralca": 5930,
      "ralthawh": 5931,
      "zao": 5932,
      "zatlang": 5933,
      "eme": 5934,
      "nawhmi": 5935,
      "duhmipa": 5936,
      "hmunte": 5937,
      "Miporhlaw": 5938,
      "Mithathu": 5939,
      "Mishael": 5940,
      "taksa": 5941,
      "cahang": 5942,
      "tlangrawn": 5943,
      "lengmi": 5944,
      "langak": 5945,
      "ruahpiak": 5946,
      "ruahceih": 5947,
      "cirik": 5948,
      "kutke": 5949,
      "kutkhih": 5950,
      "thlauhmi": 5951,
      "lawngcawng": 5952,
      "thling": 5953,
      "thlahnak": 5954,
      "buṭit": 5955,
      "hungmi": 5956,
      "homer": 5957,
      "tammi": 5958,
      "zohchuk": 5959,
      "kamnak": 5960,
      "kamor": 5961,
      "biakchawnhnak": 5962,
      "ṭuanpiaktu": 5963,
      "roi": 5964,
      "rok": 5965,
      "theihhngan": 5966,
      "biktu": 5967,
      "hlasa": 5968,
      "hngauh": 5969,
      "Sifak": 5970,
      "uila": 5971,
      "luthlung": 5972,
      "zureu": 5973,
      "bara": 5974,
      "hlanin": 5975,
      "hrimhrimmi": 5976,
      "dol": 5977,
      "daang": 5978,
      "datha": 5979,
      "thlahdorh": 5980,
      "tummi": 5981,
      "Abbas": 5982,
      "dirhnawh": 5983,
      "ṭialpiak": 5984,
      "surh": 5985,
      "Khinner": 5986,
      "Khawngsil": 5987,
      "tanmi": 5988,
      "diterran": 5989,
      "hawidang": 5990,
      "Lehnak": 5991,
      "aupi": 5992,
      "chilh": 5993,
      "sauter": 5994,
      "tonter": 5995,
      "teipiak": 5996,
      "phawih": 5997,
      "phawhnak": 5998,
      "Hena": 5999,
      "tlawmtam": 6000,
      "dup": 6001,
      "thawktu": 6002,
      "omer": 6003,
      "thluachuakmi": 6004,
      "hruaimi": 6005,
      "Zebo": 6006,
      "Khuasik": 6007,
      "Khuavang": 6008,
      "Shebaniah": 6009,
      "thliahmah": 6010,
      "Mede": 6011,
      "Methu": 6012,
      "Meheh": 6013,
      "Mediterran": 6014,
      "auhter": 6015,
      "Pela": 6016,
      "Penuel": 6017,
      "muth": 6018,
      "Gib": 6019,
      "hranak": 6020,
      "timhtuahpiak": 6021,
      "bez": 6022,
      "rungmi": 6023,
      "Bethsai": 6024,
      "cawhdeh": 6025,
      "voikhat": 6026,
      "Tishbe": 6027,
      "therh": 6028,
      "Havilah": 6029,
      "husop": 6030,
      "kuatnak": 6031,
      "kuaihnak": 6032,
      "fialtu": 6033,
      "cikcekmi": 6034,
      "ratpimi": 6035,
      "Phungthluk": 6036,
      "daithlanh": 6037,
      "fihmi": 6038,
      "Tuchan": 6039,
      "Tuukawng": 6040,
      "ṭhentu": 6041,
      "timmi": 6042,
      "Lunglawm": 6043,
      "khaanmi": 6044,
      "hnit": 6045,
      "thawhtermi": 6046,
      "ṭhitter": 6047,
      "check": 6048,
      "remhtu": 6049,
      "biahleng": 6050,
      "Gedor": 6051,
      "Elnathan": 6052,
      "Arki": 6053,
      "Shil": 6054,
      "Shishak": 6055,
      "urmar": 6056,
      "Ladan": 6057,
      "Laodi": 6058,
      "khahtertu": 6059,
      "Innka": 6060,
      "buarmi": 6061,
      "nihsawhtu": 6062,
      "hlangfang": 6063,
      "Lotan": 6064,
      "ngammi": 6065,
      "hlohpiak": 6066,
      "tlumi": 6067,
      "fehtertu": 6068,
      "pemnak": 6069,
      "chuanpiak": 6070,
      "toihnak": 6071,
      "topaz": 6072,
      "pawcawmnak": 6073,
      "phormi": 6074,
      "Hanok": 6075,
      "tlantu": 6076,
      "hngilhnak": 6077,
      "chamnak": 6078,
      "chambau": 6079,
      "ṭawlpiak": 6080,
      "Pakhatkhat": 6081,
      "ngeitupa": 6082,
      "serpiakmi": 6083,
      "riamhter": 6084,
      "cangkate": 6085,
      "hrukmi": 6086,
      "hrenmi": 6087,
      "Hlanpi": 6088,
      "khamtu": 6089,
      "kauhter": 6090,
      "hakmi": 6091,
      "hakkauhnak": 6092,
      "saikamor": 6093,
      "temhinter": 6094,
      "nganhtami": 6095,
      "hngakmi": 6096,
      "ṭanhmi": 6097,
      "Hmunthiang": 6098,
      "Jabbok": 6099,
      "Korinth": 6100,
      "Kiriathaim": 6101,
      "mirumpa": 6102,
      "setsai": 6103,
      "hlunmi": 6104,
      "Khebar": 6105,
      "hnahnawk": 6106,
      "Delaiah": 6107,
      "Malluk": 6108,
      "tazacuai": 6109,
      "Azmaveth": 6110,
      "Jahaz": 6111,
      "Ṭihnung": 6112,
      "fonhmi": 6113,
      "Dishon": 6114,
      "Akuila": 6115,
      "strik": 6116,
      "hleinganak": 6117,
      "Shimron": 6118,
      "nautat": 6119,
      "Tahath": 6120,
      "Tahpanh": 6121,
      "Leiser": 6122,
      "Mangṭam": 6123,
      "zengmipa": 6124,
      "tildit": 6125,
      "Dinlonak": 6126,
      "Phai": 6127,
      "That": 6128,
      "mawngh": 6129,
      "Libni": 6130,
      "Zoan": 6131,
      "Millo": 6132,
      "Ngaihchiatnak": 6133,
      "cawlcanghter": 6134,
      "lawkih": 6135,
      "Tungpi": 6136,
      "famua": 6137,
      "Mirumpa": 6138,
      "Chungkhar": 6139,
      "Chungchin": 6140,
      "ṭeklung": 6141,
      "Abihail": 6142,
      "lentecelhnak": 6143,
      "Belshazzar": 6144,
      "Jarmuth": 6145,
      "Zare": 6146,
      "tluangkhawn": 6147,
      "Himnak": 6148,
      "tuammuaitu": 6149,
      "Ithra": 6150,
      "rengh": 6151,
      "hmetngan": 6152,
      "Habakkuk": 6153,
      "Zabdi": 6154,
      "Joiarib": 6155,
      "Shebna": 6156,
      "Alekzandar": 6157,
      "Lawkihmi": 6158,
      "Poti": 6159,
      "Tukforhnak": 6160,
      "Jehohanan": 6161,
      "saduhthah": 6162,
      "Elifelet": 6163,
      "Arpakshad": 6164,
      "Girgash": 6165,
      "Zultu": 6166,
      "bialehnak": 6167,
      "Mattithiah": 6168,
      "Pisgah": 6169,
      "Sefarvaim": 6170,
      "Angki": 6171,
      "Ahinoam": 6172,
      "Azekah": 6173,
      "Binnui": 6174,
      "Delilah": 6175,
      "Limkeng": 6176,
      "Oreb": 6177,
      "Prisilla": 6178,
      "Spain": 6179,
      "Sairin": 6180,
      "Tingtang": 6181,
      "jasper": 6182,
      "tawhrolh": 6183,
      "ngelcel": 6184,
      "video": 6185,
      "Jekoniah": 6186,
      "Mediterranean": 6187,
      "Bethsaida": 6188,
      "Laodisia": 6189,
      "Tahpanhes": 6190,
      "1Matthai": 6191,
      "51": 6192,
      "7Matthai": 6193,
      "AM": 6194,
      "Aiah": 6195,
      "Ahmaan": 6196,
      "Ataroth": 6197,
      "Athen": 6198,
      "Bak": 6199,
      "Dem": 6200,
      "Em": 6201,
      "Fo": 6202,
      "Fine": 6203,
      "Gih": 6204,
      "Gem": 6205,
      "Hul": 6206,
      "Hmu": 6207,
      "Hnang": 6208,
      "Huatnak": 6209,
      "Hrawh": 6210,
      "Hling": 6211,
      "Hlun": 6212,
      "HUNG": 6213,
      "Ikoni": 6214,
      "Kam": 6215,
      "Ker": 6216,
      "Kuang": 6217,
      "Loth": 6218,
      "LAM": 6219,
      "Ming": 6220,
      "Mui": 6221,
      "Nupa": 6222,
      "Nob": 6223,
      "Naioth": 6224,
      "Pon": 6225,
      "PHUNG": 6226,
      "Run": 6227,
      "Rawi": 6228,
      "Rek": 6229,
      "Sung": 6230,
      "Shuh": 6231,
      "Sur": 6232,
      "Tuan": 6233,
      "Tat": 6234,
      "Tes": 6235,
      "Teinak": 6236,
      "Ur": 6237,
      "Zuar": 6238,
      "Zur": 6239,
      "Zawtnak": 6240,
      "alak": 6241,
      "azu": 6242,
      "aven": 6243,
      "aziel": 6244,
      "buh": 6245,
      "bong": 6246,
      "buhmi": 6247,
      "ct": 6248,
      "dua": 6249,
      "ese": 6250,
      "feih": 6251,
      "fni": 6252,
      "fom": 6253,
      "ftor": 6254,
      "gel": 6255,
      "hawng": 6256,
      "ith": 6257,
      "menh": 6258,
      "ostrik": 6259,
      "rinnak": 6260,
      "tanh": 6261,
      "Ṭiao": 6262,
      "ṭawn": 6263,
      "ṭuak": 6264,
      "ngur": 6265,
      "kheu": 6266,
      "khet": 6267,
      "ihthiam": 6268,
      "hnatla": 6269,
      "thru": 6270,
      "thelah": 6271,
      "mithim": 6272,
      "mizeiruaramlo": 6273,
      "angrang": 6274,
      "lar": 6275,
      "khami": 6276,
      "khaat": 6277,
      "chok": 6278,
      "kak": 6279,
      "pad": 6280,
      "palak": 6281,
      "tuchan": 6282,
      "lainawn": 6283,
      "amhmi": 6284,
      "lopa": 6285,
      "loIsaiah": 6286,
      "lomoth": 6287,
      "techin": 6288,
      "tengh": 6289,
      "thias": 6290,
      "eiṭi": 6291,
      "hmihnak": 6292,
      "naniah": 6293,
      "ṭhim": 6294,
      "airawl": 6295,
      "anhring": 6296,
      "pis": 6297,
      "pimi": 6298,
      "pitu": 6299,
      "pithlung": 6300,
      "hriah": 6301,
      "hrom": 6302,
      "hrennak": 6303,
      "hrelh": 6304,
      "hranhram": 6305,
      "sehchih": 6306,
      "kon": 6307,
      "kor": 6308,
      "kos": 6309,
      "Paro": 6310,
      "elu": 6311,
      "phe": 6312,
      "pher": 6313,
      "phinnak": 6314,
      "biaruah": 6315,
      "viah": 6316,
      "araim": 6317,
      "pehnak": 6318,
      "ramhnak": 6319,
      "ramkung": 6320,
      "tluan": 6321,
      "Jerim": 6322,
      "Jedia": 6323,
      "rith": 6324,
      "zeicaahdah": 6325,
      "innah": 6326,
      "innlo": 6327,
      "dihnak": 6328,
      "cangai": 6329,
      "vaih": 6330,
      "lungrual": 6331,
      "lungthawhnak": 6332,
      "lungawṭawm": 6333,
      "fapar": 6334,
      "ent": 6335,
      "lamhmi": 6336,
      "sat": 6337,
      "nikhat": 6338,
      "nichuah": 6339,
      "hmuhthiam": 6340,
      "ralzam": 6341,
      "uanthlar": 6342,
      "zaoh": 6343,
      "salei": 6344,
      "emoth": 6345,
      "ukang": 6346,
      "nawm": 6347,
      "dingte": 6348,
      "dehmi": 6349,
      "phundang": 6350,
      "Mib": 6351,
      "Jeshi": 6352,
      "Kaftor": 6353,
      "nawlngaihnak": 6354,
      "lengin": 6355,
      "ruahtu": 6356,
      "ruahchih": 6357,
      "ruahchihmi": 6358,
      "cianak": 6359,
      "thlatu": 6360,
      "thlachiat": 6361,
      "dangh": 6362,
      "hat": 6363,
      "hol": 6364,
      "tament": 6365,
      "hunmi": 6366,
      "hunhmi": 6367,
      "hunhnawh": 6368,
      "ṭuanning": 6369,
      "kongkau": 6370,
      "shal": 6371,
      "shub": 6372,
      "romi": 6373,
      "roter": 6374,
      "rokuang": 6375,
      "zalmi": 6376,
      "kumhnih": 6377,
      "kumfate": 6378,
      "chantling": 6379,
      "chanrelnak": 6380,
      "thahter": 6381,
      "palhmi": 6382,
      "meialh": 6383,
      "hlasaknak": 6384,
      "khiangrang": 6385,
      "cheutu": 6386,
      "thawngthanhnak": 6387,
      "Sidar": 6388,
      "nungak": 6389,
      "kapza": 6390,
      "ngaihmi": 6391,
      "zualnak": 6392,
      "zuahmah": 6393,
      "sakter": 6394,
      "puanter": 6395,
      "puanki": 6396,
      "doram": 6397,
      "hleimi": 6398,
      "thongh": 6399,
      "pariatnak": 6400,
      "damiah": 6401,
      "rihning": 6402,
      "Abarim": 6403,
      "bawmmi": 6404,
      "thuang": 6405,
      "thingah": 6406,
      "kehlan": 6407,
      "ṭialning": 6408,
      "hmanter": 6409,
      "nupichun": 6410,
      "zumhter": 6411,
      "Amas": 6412,
      "lennak": 6413,
      "hrawhpiak": 6414,
      "Bebai": 6415,
      "Bekher": 6416,
      "zaniah": 6417,
      "remrel": 6418,
      "sawhmi": 6419,
      "khenhchih": 6420,
      "phiak": 6421,
      "thawknak": 6422,
      "Thuhmi": 6423,
      "Thummim": 6424,
      "thimnak": 6425,
      "luhhnawhmi": 6426,
      "Biangai": 6427,
      "velhle": 6428,
      "Zeeb": 6429,
      "Khuazing": 6430,
      "thanter": 6431,
      "Ralhruang": 6432,
      "Ralring": 6433,
      "Shelomi": 6434,
      "Shelomoth": 6435,
      "shem": 6436,
      "shean": 6437,
      "haumi": 6438,
      "manuel": 6439,
      "Pedah": 6440,
      "tlingte": 6441,
      "menpiak": 6442,
      "muihter": 6443,
      "Gid": 6444,
      "Biading": 6445,
      "Biakhiahnak": 6446,
      "Ngol": 6447,
      "sunpar": 6448,
      "darik": 6449,
      "Nebai": 6450,
      "tatmi": 6451,
      "Ramdang": 6452,
      "pumhmi": 6453,
      "pumhter": 6454,
      "pumhkhawmh": 6455,
      "Tikhor": 6456,
      "dawhte": 6457,
      "vuimi": 6458,
      "vuitu": 6459,
      "vuiter": 6460,
      "puhnak": 6461,
      "karlakah": 6462,
      "karnelian": 6463,
      "Hazer": 6464,
      "Matta": 6465,
      "valpa": 6466,
      "lihbia": 6467,
      "cawkpiak": 6468,
      "lektak": 6469,
      "zib": 6470,
      "zumhawktlakmi": 6471,
      "thanhtu": 6472,
      "Ref": 6473,
      "khuhmi": 6474,
      "muimi": 6475,
      "fehnak": 6476,
      "List": 6477,
      "thawmi": 6478,
      "timtu": 6479,
      "Thiangmi": 6480,
      "Hmuh": 6481,
      "ṭapmi": 6482,
      "Abib": 6483,
      "Abishua": 6484,
      "Gede": 6485,
      "tarpa": 6486,
      "hlawhhlannak": 6487,
      "hmuichon": 6488,
      "ngaknut": 6489,
      "Arpad": 6490,
      "Shilon": 6491,
      "Shinar": 6492,
      "Shittim": 6493,
      "luhpitu": 6494,
      "Baalah": 6495,
      "riakmi": 6496,
      "Ahio": 6497,
      "Ahiezer": 6498,
      "fehternak": 6499,
      "tlimi": 6500,
      "Pirath": 6501,
      "khup": 6502,
      "ṭhialpiak": 6503,
      "thleidanmi": 6504,
      "nawnmi": 6505,
      "zuartu": 6506,
      "Rawlṭam": 6507,
      "Lud": 6508,
      "linmi": 6509,
      "Rial": 6510,
      "zernak": 6511,
      "serhsatmi": 6512,
      "Kumhra": 6513,
      "ranak": 6514,
      "Timna": 6515,
      "Jael": 6516,
      "Jakhin": 6517,
      "khimter": 6518,
      "zaumi": 6519,
      "zaunak": 6520,
      "thlengtu": 6521,
      "congoihnak": 6522,
      "Kib": 6523,
      "Kil": 6524,
      "Kishon": 6525,
      "tihang": 6526,
      "tihnawh": 6527,
      "miakmi": 6528,
      "hmaizahmi": 6529,
      "demu": 6530,
      "ṭhathnemhnak": 6531,
      "hnawmpon": 6532,
      "Azarel": 6533,
      "fawimi": 6534,
      "rawhmi": 6535,
      "khihmi": 6536,
      "nganhta": 6537,
      "hngaktu": 6538,
      "Mupi": 6539,
      "hlampiak": 6540,
      "chawntu": 6541,
      "charmi": 6542,
      "Nathanael": 6543,
      "Eliasaf": 6544,
      "maakah": 6545,
      "dottu": 6546,
      "Rianṭuan": 6547,
      "geber": 6548,
      "hleilinak": 6549,
      "Puanzar": 6550,
      "mihring": 6551,
      "Azel": 6552,
      "Zerahiah": 6553,
      "thlongh": 6554,
      "Hasshub": 6555,
      "Maakath": 6556,
      "chingchiahnak": 6557,
      "Tarsas": 6558,
      "phuangtu": 6559,
      "Shimea": 6560,
      "cengceh": 6561,
      "Gomer": 6562,
      "lainawngmi": 6563,
      "hronak": 6564,
      "Ammiel": 6565,
      "umṭinak": 6566,
      "Mangbawi": 6567,
      "cekce": 6568,
      "sualternak": 6569,
      "Meremoth": 6570,
      "derthawmnak": 6571,
      "Asshur": 6572,
      "Laish": 6573,
      "Eshtem": 6574,
      "Shur": 6575,
      "Shuthelah": 6576,
      "Milkom": 6577,
      "cawihtu": 6578,
      "Ngaihchia": 6579,
      "Pallu": 6580,
      "khuazingnu": 6581,
      "fianternak": 6582,
      "bethon": 6583,
      "Pahath": 6584,
      "Tungvangpalh": 6585,
      "mettu": 6586,
      "vawlpam": 6587,
      "Enosh": 6588,
      "moab": 6589,
      "Chawdawr": 6590,
      "Camh": 6591,
      "Thinhun": 6592,
      "thlep": 6593,
      "Joktan": 6594,
      "hawhawt": 6595,
      "vuanzi": 6596,
      "zirziarnak": 6597,
      "Ariok": 6598,
      "Sinum": 6599,
      "Hell": 6600,
      "molhter": 6601,
      "ngangngan": 6602,
      "ngakchianute": 6603,
      "Shammai": 6604,
      "Shammua": 6605,
      "Talmai": 6606,
      "zokzok": 6607,
      "sialpiak": 6608,
      "Fihnung": 6609,
      "khitkhet": 6610,
      "Sibmah": 6611,
      "Bawmtu": 6612,
      "Goliath": 6613,
      "chikkhat": 6614,
      "Zarhpi": 6615,
      "Hremmi": 6616,
      "Nehsawhnak": 6617,
      "Tilian": 6618,
      "diahmah": 6619,
      "Migdol": 6620,
      "Jeshaiah": 6621,
      "Bukki": 6622,
      "Troas": 6623,
      "mizengpa": 6624,
      "Bigvai": 6625,
      "Nikodemu": 6626,
      "Internet": 6627,
      "Taanak": 6628,
      "ṭengnge": 6629,
      "tengtung": 6630,
      "chawhrawlnak": 6631,
      "suaumau": 6632,
      "Bahurim": 6633,
      "Chuak": 6634,
      "Ezion": 6635,
      "Hodiah": 6636,
      "inisia": 6637,
      "Isshiah": 6638,
      "Gibbethon": 6639,
      "Athens": 6640,
      "Foinisia": 6641,
      "Finehas": 6642,
      "Gihon": 6643,
      "Ikonium": 6644,
      "PHUNGLAM": 6645,
      "Testament": 6646,
      "Parosh": 6647,
      "Jerimoth": 6648,
      "Jediael": 6649,
      "Amasai": 6650,
      "Hazeroth": 6651,
      "Listra": 6652,
      "Pirathon": 6653,
      "2Peter": 6654,
      "2Thesalon": 6655,
      "43": 6656,
      "55": 6657,
      "61": 6658,
      ":⁠": 6659,
      "Av": 6660,
      "Ater": 6661,
      "Akhor": 6662,
      "Cang": 6663,
      "Dei": 6664,
      "Der": 6665,
      "Dinh": 6666,
      "Epa": 6667,
      "Enan": 6668,
      "Ebia": 6669,
      "Etam": 6670,
      "Eder": 6671,
      "Elath": 6672,
      "Gai": 6673,
      "Guni": 6674,
      "Hram": 6675,
      "Hose": 6676,
      "Hau": 6677,
      "Hnah": 6678,
      "Hrokhrawl": 6679,
      "Hnawm": 6680,
      "Ir": 6681,
      "Jul": 6682,
      "Jad": 6683,
      "Kit": 6684,
      "Nih": 6685,
      "On": 6686,
      "Okh": 6687,
      "Ono": 6688,
      "One": 6689,
      "Ofel": 6690,
      "Pam": 6691,
      "Phuh": 6692,
      "Shun": 6693,
      "Soi": 6694,
      "Tum": 6695,
      "Tli": 6696,
      "Ter": 6697,
      "Tlan": 6698,
      "Ver": 6699,
      "Zah": 6700,
      "Zam": 6701,
      "Zumtu": 6702,
      "ach": 6703,
      "buan": 6704,
      "bbe": 6705,
      "cor": 6706,
      "dennak": 6707,
      "dson": 6708,
      "ddim": 6709,
      "enan": 6710,
      "fuk": 6711,
      "gan": 6712,
      "giel": 6713,
      "hawl": 6714,
      "il": 6715,
      "iim": 6716,
      "itmi": 6717,
      "ja": 6718,
      "jam": 6719,
      "kih": 6720,
      "keu": 6721,
      "kui": 6722,
      "mua": 6723,
      "mihm": 6724,
      "mail": 6725,
      "neiah": 6726,
      "oa": 6727,
      "pæ": 6728,
      "pelh": 6729,
      "pelah": 6730,
      "star": 6731,
      "unaunu": 6732,
      "via": 6733,
      "vamh": 6734,
      "vurmar": 6735,
      "zon": 6736,
      "ʹph": 6737,
      "Ṭah": 6738,
      "Ṭek": 6739,
      "ṭaw": 6740,
      "ṭak": 6741,
      "ṭuk": 6742,
      "ṭom": 6743,
      "ṭeh": 6744,
      "anṭam": 6745,
      "ahath": 6746,
      "naanah": 6747,
      "ngah": 6748,
      "cuanter": 6749,
      "awih": 6750,
      "kheth": 6751,
      "khep": 6752,
      "khnawhmi": 6753,
      "ino": 6754,
      "inpi": 6755,
      "hnalh": 6756,
      "mina": 6757,
      "michia": 6758,
      "milianngan": 6759,
      "mirethei": 6760,
      "mithathu": 6761,
      "laar": 6762,
      "lazu": 6763,
      "laomer": 6764,
      "lapis": 6765,
      "tio": 6766,
      "tikuang": 6767,
      "tivarek": 6768,
      "nihnak": 6769,
      "nihlawh": 6770,
      "alo": 6771,
      "chawng": 6772,
      "chor": 6773,
      "sim": 6774,
      "sion": 6775,
      "leel": 6776,
      "kalai": 6777,
      "pamhnak": 6778,
      "tur": 6779,
      "turah": 6780,
      "tuhmui": 6781,
      "nakzik": 6782,
      "temis": 6783,
      "unim": 6784,
      "umsertu": 6785,
      "hmum": 6786,
      "hminmi": 6787,
      "selah": 6788,
      "cau": 6789,
      "catiah": 6790,
      "camipuai": 6791,
      "lawhter": 6792,
      "chungthin": 6793,
      "chungchuak": 6794,
      "hrel": 6795,
      "hreu": 6796,
      "hrawkh": 6797,
      "kok": 6798,
      "koz": 6799,
      "Pagiel": 6800,
      "razim": 6801,
      "phol": 6802,
      "ari": 6803,
      "arah": 6804,
      "peor": 6805,
      "leitu": 6806,
      "terte": 6807,
      "cungtang": 6808,
      "rug": 6809,
      "ruannak": 6810,
      "lakter": 6811,
      "lakkanh": 6812,
      "ramro": 6813,
      "pahranak": 6814,
      "lis": 6815,
      "aash": 6816,
      "pekter": 6817,
      "zeibantuk": 6818,
      "kalhnawhmi": 6819,
      "Cuai": 6820,
      "innte": 6821,
      "inning": 6822,
      "Ishi": 6823,
      "vaam": 6824,
      "awlnak": 6825,
      "lungtum": 6826,
      "lungfim": 6827,
      "lungdaihnak": 6828,
      "lungnge": 6829,
      "lungriam": 6830,
      "lungpon": 6831,
      "lungkhong": 6832,
      "lungtekem": 6833,
      "hluai": 6834,
      "lamnak": 6835,
      "lamkalai": 6836,
      "saza": 6837,
      "sertermi": 6838,
      "nizan": 6839,
      "hmanhin": 6840,
      "hngalthiammi": 6841,
      "zami": 6842,
      "zabu": 6843,
      "zabok": 6844,
      "salchuak": 6845,
      "emh": 6846,
      "ngaphaw": 6847,
      "ukṭi": 6848,
      "duhter": 6849,
      "thawhpi": 6850,
      "det": 6851,
      "deur": 6852,
      "deuhnak": 6853,
      "Kalauk": 6854,
      "mawṭaw": 6855,
      "cahmi": 6856,
      "ṭhantertu": 6857,
      "tlangpi": 6858,
      "Annas": 6859,
      "nawlpeknak": 6860,
      "lengnu": 6861,
      "langhlat": 6862,
      "ruahter": 6863,
      "Naamah": 6864,
      "kutro": 6865,
      "kuttum": 6866,
      "kuttlaihnak": 6867,
      "thlim": 6868,
      "thliar": 6869,
      "hag": 6870,
      "haz": 6871,
      "lawmmam": 6872,
      "Zeipaoh": 6873,
      "thintawi": 6874,
      "holah": 6875,
      "Jubili": 6876,
      "Judson": 6877,
      "nganfak": 6878,
      "ngandam": 6879,
      "taanter": 6880,
      "thiangte": 6881,
      "tlakhnawh": 6882,
      "nunphung": 6883,
      "nunnuam": 6884,
      "theihthiam": 6885,
      "zez": 6886,
      "thahpiak": 6887,
      "palpah": 6888,
      "rawlṭuan": 6889,
      "ruangmang": 6890,
      "meivannak": 6891,
      "hlatmi": 6892,
      "danhnak": 6893,
      "cheubang": 6894,
      "htertu": 6895,
      "balsam": 6896,
      "Sizar": 6897,
      "zungzaltu": 6898,
      "nungdam": 6899,
      "mitleh": 6900,
      "mitfang": 6901,
      "mithnawm": 6902,
      "mitkuh": 6903,
      "Jozadak": 6904,
      "lud": 6905,
      "dongmi": 6906,
      "pumsalei": 6907,
      "thangmi": 6908,
      "zeitindik": 6909,
      "kharvar": 6910,
      "kharkanh": 6911,
      "phungchim": 6912,
      "phungning": 6913,
      "hleiriatnak": 6914,
      "thap": 6915,
      "dinhter": 6916,
      "hnawn": 6917,
      "daviah": 6918,
      "thumi": 6919,
      "thuangtu": 6920,
      "thingram": 6921,
      "Bara": 6922,
      "namte": 6923,
      "theitu": 6924,
      "fis": 6925,
      "fiak": 6926,
      "fidim": 6927,
      "filia": 6928,
      "chungkharmi": 6929,
      "kep": 6930,
      "keph": 6931,
      "kechik": 6932,
      "cawpi": 6933,
      "Mahlah": 6934,
      "aleh": 6935,
      "zumhfek": 6936,
      "tuutum": 6937,
      "chunlai": 6938,
      "chuncha": 6939,
      "ṭihnunnak": 6940,
      "Khuah": 6941,
      "dit": 6942,
      "Ameri": 6943,
      "com": 6944,
      "biakamhmi": 6945,
      "Bezer": 6946,
      "Lehi": 6947,
      "Levia": 6948,
      "oiim": 6949,
      "khamhmi": 6950,
      "vaireu": 6951,
      "pawngri": 6952,
      "Fater": 6953,
      "hnawhpiak": 6954,
      "Helon": 6955,
      "Hegai": 6956,
      "tlawmmi": 6957,
      "ṭilva": 6958,
      "Thlapa": 6959,
      "Khuari": 6960,
      "Khuaihli": 6961,
      "khikas": 6962,
      "thantu": 6963,
      "dawtle": 6964,
      "Ralbawi": 6965,
      "Ralhau": 6966,
      "Ralrinnak": 6967,
      "Mago": 6968,
      "Shethar": 6969,
      "Sheshan": 6970,
      "Shedeur": 6971,
      "tivakam": 6972,
      "ṭhuttertu": 6973,
      "zingfate": 6974,
      "Mehe": 6975,
      "Meshi": 6976,
      "Meunim": 6977,
      "kawltu": 6978,
      "kawlnak": 6979,
      "mandar": 6980,
      "philhter": 6981,
      "asah": 6982,
      "muel": 6983,
      "Elizur": 6984,
      "mernak": 6985,
      "zohkhenhpiak": 6986,
      "Nge": 6987,
      "beo": 6988,
      "ceuter": 6989,
      "awnhhnawh": 6990,
      "Nefe": 6991,
      "meth": 6992,
      "meon": 6993,
      "media": 6994,
      "rawkral": 6995,
      "tharte": 6996,
      "pengtu": 6997,
      "Ramcar": 6998,
      "Ramese": 6999,
      "shag": 7000,
      "shath": 7001,
      "bochannak": 7002,
      "lonhtu": 7003,
      "karhnak": 7004,
      "Haotu": 7005,
      "Hattu": 7006,
      "Moza": 7007,
      "nuamter": 7008,
      "lekmi": 7009,
      "fangkha": 7010,
      "fangvoi": 7011,
      "tawnghmi": 7012,
      "cinthlakmi": 7013,
      "hlok": 7014,
      "miṭhalopa": 7015,
      "Lamhlat": 7016,
      "bbas": 7017,
      "innkaba": 7018,
      "Rehabiah": 7019,
      "Refidim": 7020,
      "feas": 7021,
      "Manahath": 7022,
      "Salmon": 7023,
      "Saltannak": 7024,
      "ṭhenning": 7025,
      "mehehfa": 7026,
      "khualpa": 7027,
      "khualeng": 7028,
      "khualtlawng": 7029,
      "kaltertu": 7030,
      "Lianhngan": 7031,
      "Lidia": 7032,
      "serhtu": 7033,
      "kenmi": 7034,
      "thianhtu": 7035,
      "thianhhlim": 7036,
      "Assir": 7037,
      "ciar": 7038,
      "manhmi": 7039,
      "Lungpang": 7040,
      "Lungthli": 7041,
      "hmuhsaktu": 7042,
      "Abidan": 7043,
      "Abijam": 7044,
      "Abishag": 7045,
      "thawhternak": 7046,
      "hmemi": 7047,
      "Rilikam": 7048,
      "dikthliar": 7049,
      "tarh": 7050,
      "inhliam": 7051,
      "nahchuak": 7052,
      "thlangh": 7053,
      "thauthau": 7054,
      "Raamah": 7055,
      "Zattu": 7056,
      "Elimelek": 7057,
      "hmuitinh": 7058,
      "thuknak": 7059,
      "Artemis": 7060,
      "dorlaomer": 7061,
      "ṭhawlthiam": 7062,
      "Innchungkhar": 7063,
      "110": 7064,
      "dernak": 7065,
      "Ahira": 7066,
      "Ahilud": 7067,
      "ngamter": 7068,
      "lahrual": 7069,
      "sayapa": 7070,
      "fehtermi": 7071,
      "mihrutpa": 7072,
      "tlikhnawh": 7073,
      "chuankhan": 7074,
      "Kore": 7075,
      "pawt": 7076,
      "pawlai": 7077,
      "zuarhmi": 7078,
      "hoiher": 7079,
      "cawmtu": 7080,
      "rialmi": 7081,
      "tlanter": 7082,
      "cuarpartannak": 7083,
      "Zanoah": 7084,
      "Zanṭim": 7085,
      "somh": 7086,
      "ṭawlning": 7087,
      "danhpiak": 7088,
      "Elealeh": 7089,
      "Eleasah": 7090,
      "thalkah": 7091,
      "thalbawm": 7092,
      "Anmahle": 7093,
      "Uzzah": 7094,
      "penmi": 7095,
      "ṭhangcho": 7096,
      "kengmi": 7097,
      "Javan": 7098,
      "Jafia": 7099,
      "cittu": 7100,
      "Shelu": 7101,
      "Arad": 7102,
      "congh": 7103,
      "conglawmhnak": 7104,
      "toihmi": 7105,
      "Shaal": 7106,
      "tlor": 7107,
      "Keturah": 7108,
      "zuanpi": 7109,
      "tuante": 7110,
      "hnuktu": 7111,
      "hnuktlai": 7112,
      "Nahath": 7113,
      "hninhmi": 7114,
      "ihpimi": 7115,
      "kenkiplo": 7116,
      "ṭheoṭheo": 7117,
      "hmurka": 7118,
      "Admah": 7119,
      "neʹph": 7120,
      "Hosah": 7121,
      "Hofni": 7122,
      "Hodaviah": 7123,
      "tuaitam": 7124,
      "lungthote": 7125,
      "hlengtu": 7126,
      "Gideoni": 7127,
      "rilhter": 7128,
      "rilhtertu": 7129,
      "Khenaanah": 7130,
      "Khedorlaomer": 7131,
      "ṭiaotak": 7132,
      "khumlahrual": 7133,
      "mertakmi": 7134,
      "ngakchiapate": 7135,
      "Zingka": 7136,
      "Gozan": 7137,
      "Seba": 7138,
      "Serug": 7139,
      "dawnkhan": 7140,
      "hutmi": 7141,
      "zamtakmi": 7142,
      "Decem": 7143,
      "tleumi": 7144,
      "Jahaziel": 7145,
      "siibawi": 7146,
      "khawlh": 7147,
      "Zaangfah": 7148,
      "chingnak": 7149,
      "Dishan": 7150,
      "puhtu": 7151,
      "rinkuar": 7152,
      "Shimri": 7153,
      "senduk": 7154,
      "Ammishaddai": 7155,
      "Imnah": 7156,
      "kingh": 7157,
      "Hushath": 7158,
      "Oholah": 7159,
      "Oholia": 7160,
      "gotha": 7161,
      "Ishvi": 7162,
      "thluak": 7163,
      "Galal": 7164,
      "Dodo": 7165,
      "Doeg": 7166,
      "Fiang": 7167,
      "chawdawrnak": 7168,
      "kawngh": 7169,
      "zumhtlaklo": 7170,
      "Alfeas": 7171,
      "zelṭuang": 7172,
      "kiakmi": 7173,
      "cawlcangh": 7174,
      "Malkhishua": 7175,
      "Pahra": 7176,
      "oniks": 7177,
      "Berea": 7178,
      "Buz": 7179,
      "Cawnpiaktu": 7180,
      "Nimshi": 7181,
      "Peknak": 7182,
      "Zakia": 7183,
      "Jared": 7184,
      "Kushan": 7185,
      "Khualipi": 7186,
      "Encyclopæ": 7187,
      "Chris": 7188,
      "Zalmon": 7189,
      "nenhmi": 7190,
      "Hlasatu": 7191,
      "hleihlak": 7192,
      "bultawltu": 7193,
      "Holhtheihlo": 7194,
      "Makpelah": 7195,
      "Ṭhalopa": 7196,
      "khawpi": 7197,
      "Aristar": 7198,
      "Hakkoz": 7199,
      "Purim": 7200,
      "pemhter": 7201,
      "Talmon": 7202,
      "Tema": 7203,
      "Temhnak": 7204,
      "phoktu": 7205,
      "umharnak": 7206,
      "Urijah": 7207,
      "Golgotha": 7208,
      "hnatlakpi": 7209,
      "senghnak": 7210,
      "ṭhanchoter": 7211,
      "Bildad": 7212,
      "Zipporah": 7213,
      "khaatnak": 7214,
      "ṭumchuknak": 7215,
      "Jason": 7216,
      "Taza": 7217,
      "hlonhmi": 7218,
      "Zurishaddai": 7219,
      "puarhrannak": 7220,
      "James": 7221,
      "Memfis": 7222,
      "voihnih": 7223,
      "pahleikhat": 7224,
      "Helez": 7225,
      "Hashum": 7226,
      "Haggith": 7227,
      "Mahalalel": 7228,
      "Gabriel": 7229,
      "Hneksaknak": 7230,
      "John": 7231,
      "Jashub": 7232,
      "Teirul": 7233,
      "Uico": 7234,
      "taavah": 7235,
      "teima": 7236,
      "thitlawnthiam": 7237,
      "lunghrinh": 7238,
      "emeral": 7239,
      "ruahceihṭi": 7240,
      "Zeboiim": 7241,
      "Medeba": 7242,
      "Methuselah": 7243,
      "Pelatiah": 7244,
      "Tishbemi": 7245,
      "Bakbuk": 7246,
      "Gemariah": 7247,
      "Hnangam": 7248,
      "Rekem": 7249,
      "anhringso": 7250,
      "hattaavah": 7251,
      "Shelomith": 7252,
      "Pedahzur": 7253,
      "Nebaioth": 7254,
      "Kibroth": 7255,
      "Eshtemoa": 7256,
      "Derbe": 7257,
      "Epaf": 7258,
      "Ebiasaf": 7259,
      "Gaius": 7260,
      "Hosea": 7261,
      "Hnawmpon": 7262,
      "Okhran": 7263,
      "Onesi": 7264,
      "Pamfilia": 7265,
      "Version": 7266,
      "buanbara": 7267,
      "ṭukṭak": 7268,
      "lazuli": 7269,
      "Khuahrum": 7270,
      "American": 7271,
      "Leviathan": 7272,
      "Khuaihliti": 7273,
      "Magog": 7274,
      "Meshil": 7275,
      "mandarek": 7276,
      "Rameses": 7277,
      "Hattush": 7278,
      "Lianhngannak": 7279,
      "Shelumiel": 7280,
      "neʹphesh": 7281,
      "December": 7282,
      "Oholiab": 7283,
      "Encyclopædia": 7284,
      "Aristarkas": 7285,
      "1Siangpahrang": 7286,
      "1Marka": 7287,
      "2Luka": 7288,
      "2Timote": 7289,
      "4Matthai": 7290,
      "67": 7291,
      "6Johan": 7292,
      "83": 7293,
      "89": 7294,
      "9Johan": 7295,
      "9Matthai": 7296,
      "Azu": 7297,
      "Adin": 7298,
      "Are": 7299,
      "Arah": 7300,
      "Arim": 7301,
      "Ashan": 7302,
      "Abad": 7303,
      "Attai": 7304,
      "Adiel": 7305,
      "Bal": 7306,
      "Bam": 7307,
      "Benh": 7308,
      "Belh": 7309,
      "Co": 7310,
      "Can": 7311,
      "Cawh": 7312,
      "Con": 7313,
      "Elo": 7314,
      "Elh": 7315,
      "Elio": 7316,
      "Enge": 7317,
      "Etham": 7318,
      "Far": 7319,
      "Fir": 7320,
      "Gar": 7321,
      "Gaash": 7322,
      "HA": 7323,
      "HI": 7324,
      "Hus": 7325,
      "Hnuk": 7326,
      "Ih": 7327,
      "Iri": 7328,
      "Itali": 7329,
      "Ible": 7330,
      "Jai": 7331,
      "King": 7332,
      "Kon": 7333,
      "Klau": 7334,
      "Kulhmi": 7335,
      "Lili": 7336,
      "Mih": 7337,
      "Nal": 7338,
      "Nak": 7339,
      "Nemuel": 7340,
      "Oz": 7341,
      "Onam": 7342,
      "Ome": 7343,
      "Oboth": 7344,
      "Pul": 7345,
      "Peng": 7346,
      "Pur": 7347,
      "Phaw": 7348,
      "Rel": 7349,
      "Rawhnak": 7350,
      "Rap": 7351,
      "RUAH": 7352,
      "Rosh": 7353,
      "Sang": 7354,
      "Sale": 7355,
      "Tai": 7356,
      "Tahnak": 7357,
      "Tob": 7358,
      "Tonnak": 7359,
      "Tlaih": 7360,
      "Ulam": 7361,
      "Uriel": 7362,
      "Vung": 7363,
      "Vel": 7364,
      "Wor": 7365,
      "Zun": 7366,
      "Zem": 7367,
      "Zuah": 7368,
      "ao": 7369,
      "abi": 7370,
      "but": 7371,
      "bawhnak": 7372,
      "borh": 7373,
      "bzeel": 7374,
      "bbim": 7375,
      "bawlnak": 7376,
      "con": 7377,
      "cingmi": 7378,
      "dul": 7379,
      "dut": 7380,
      "dda": 7381,
      "dria": 7382,
      "deiah": 7383,
      "epal": 7384,
      "ect": 7385,
      "feng": 7386,
      "flet": 7387,
      "fur": 7388,
      "gob": 7389,
      "gas": 7390,
      "gerah": 7391,
      "gus": 7392,
      "glath": 7393,
      "hawk": 7394,
      "hlung": 7395,
      "hmit": 7396,
      "htama": 7397,
      "iz": 7398,
      "jair": 7399,
      "jes": 7400,
      "kiar": 7401,
      "lua": 7402,
      "os": 7403,
      "olis": 7404,
      "ps": 7405,
      "pih": 7406,
      "poah": 7407,
      "ranh": 7408,
      "sawi": 7409,
      "tti": 7410,
      "tte": 7411,
      "tlem": 7412,
      "tlawh": 7413,
      "uz": 7414,
      "vuak": 7415,
      "vuanh": 7416,
      "zut": 7417,
      "Ṭuan": 7418,
      "Ṭahnak": 7419,
      "Ṭhu": 7420,
      "ṭei": 7421,
      "ṭual": 7422,
      "ṭawt": 7423,
      "ṭuanh": 7424,
      "anfah": 7425,
      "cumh": 7426,
      "awdawh": 7427,
      "ining": 7428,
      "inkhawh": 7429,
      "inoam": 7430,
      "thenh": 7431,
      "thep": 7432,
      "mim": 7433,
      "mir": 7434,
      "mikip": 7435,
      "midawh": 7436,
      "milunglawm": 7437,
      "mising": 7438,
      "mipuar": 7439,
      "midepde": 7440,
      "mikhep": 7441,
      "ladah": 7442,
      "ladan": 7443,
      "khabe": 7444,
      "khacer": 7445,
      "tiam": 7446,
      "tira": 7447,
      "titnak": 7448,
      "tisor": 7449,
      "tius": 7450,
      "alter": 7451,
      "chawhnak": 7452,
      "chingmi": 7453,
      "siar": 7454,
      "siSalm": 7455,
      "sidia": 7456,
      "leser": 7457,
      "pasal": 7458,
      "paradis": 7459,
      "tuuk": 7460,
      "unganfah": 7461,
      "amel": 7462,
      "loam": 7463,
      "lote": 7464,
      "loral": 7465,
      "lome": 7466,
      "loSalm": 7467,
      "tep": 7468,
      "tekos": 7469,
      "thiar": 7470,
      "akan": 7471,
      "hmal": 7472,
      "hmung": 7473,
      "sed": 7474,
      "seah": 7475,
      "sefer": 7476,
      "ṭhe": 7477,
      "ṭhin": 7478,
      "cathiang": 7479,
      "cathiam": 7480,
      "capar": 7481,
      "cabawm": 7482,
      "iatu": 7483,
      "iatira": 7484,
      "aik": 7485,
      "hiam": 7486,
      "pim": 7487,
      "pipa": 7488,
      "pileser": 7489,
      "mahtihin": 7490,
      "hrua": 7491,
      "hrangmi": 7492,
      "caahtiah": 7493,
      "koih": 7494,
      "kokek": 7495,
      "Pathro": 7496,
      "Paradis": 7497,
      "Paseah": 7498,
      "rabbim": 7499,
      "kahmi": 7500,
      "elchunhnak": 7501,
      "perh": 7502,
      "pelet": 7503,
      "perazim": 7504,
      "fatin": 7505,
      "ruhnak": 7506,
      "rubi": 7507,
      "ramsa": 7508,
      "ramhring": 7509,
      "ramoth": 7510,
      "ramhno": 7511,
      "rambur": 7512,
      "pahlek": 7513,
      "khualai": 7514,
      "khuachiat": 7515,
      "khuaceu": 7516,
      "khuakhangtu": 7517,
      "liak": 7518,
      "Jeka": 7519,
      "Jesu": 7520,
      "Jezer": 7521,
      "heres": 7522,
      "rimi": 7523,
      "risha": 7524,
      "rius": 7525,
      "pekIsaiah": 7526,
      "zeicatiah": 7527,
      "inntling": 7528,
      "innkhaan": 7529,
      "innkil": 7530,
      "awnter": 7531,
      "awnpiak": 7532,
      "awnhmi": 7533,
      "cangh": 7534,
      "cangcel": 7535,
      "bial": 7536,
      "biangai": 7537,
      "vad": 7538,
      "vaihter": 7539,
      "lungrang": 7540,
      "lungfak": 7541,
      "lungton": 7542,
      "lungthli": 7543,
      "fapate": 7544,
      "hluah": 7545,
      "eihthiam": 7546,
      "eihol": 7547,
      "sazam": 7548,
      "sakhnawh": 7549,
      "serning": 7550,
      "nite": 7551,
      "nikhua": 7552,
      "nizarh": 7553,
      "ralmi": 7554,
      "ralṭhat": 7555,
      "ralthawhnak": 7556,
      "zap": 7557,
      "zaka": 7558,
      "zabel": 7559,
      "ngaihmanh": 7560,
      "ngatlaitu": 7561,
      "chuahkeh": 7562,
      "ukter": 7563,
      "ukbawi": 7564,
      "nawi": 7565,
      "duhfahnak": 7566,
      "duhdanhnak": 7567,
      "dingrep": 7568,
      "vek": 7569,
      "ver": 7570,
      "thawhhnawh": 7571,
      "thawhkehnak": 7572,
      "sualtertu": 7573,
      "ngaichihmi": 7574,
      "hmunking": 7575,
      "hmunphiah": 7576,
      "ded": 7577,
      "debar": 7578,
      "phunhran": 7579,
      "Mith": 7580,
      "Mibu": 7581,
      "Micheu": 7582,
      "Milu": 7583,
      "Miṭhawng": 7584,
      "Mijamin": 7585,
      "Mipuar": 7586,
      "Kaan": 7587,
      "taktu": 7588,
      "takpum": 7589,
      "hmaikhuh": 7590,
      "chiathru": 7591,
      "irah": 7592,
      "khawhning": 7593,
      "hngalhpi": 7594,
      "Anri": 7595,
      "nawlpek": 7596,
      "ningani": 7597,
      "lengtu": 7598,
      "langin": 7599,
      "khoihmi": 7600,
      "kholhnak": 7601,
      "ruahthiamnak": 7602,
      "cial": 7603,
      "Naarah": 7604,
      "nangmahle": 7605,
      "thlummi": 7606,
      "hab": 7607,
      "haar": 7608,
      "bub": 7609,
      "Zeicaahtiah": 7610,
      "thinphan": 7611,
      "Jus": 7612,
      "ṭilh": 7613,
      "zohpi": 7614,
      "zohthiam": 7615,
      "zohcho": 7616,
      "taar": 7617,
      "tabel": 7618,
      "tappi": 7619,
      "mangbawi": 7620,
      "mangihnak": 7621,
      "huntertu": 7622,
      "vanṭha": 7623,
      "vanchiat": 7624,
      "kongh": 7625,
      "shar": 7626,
      "shual": 7627,
      "roih": 7628,
      "roco": 7629,
      "rogel": 7630,
      "zalong": 7631,
      "kumzabu": 7632,
      "zenai": 7633,
      "zebub": 7634,
      "ṭhitmi": 7635,
      "thahri": 7636,
      "thahiah": 7637,
      "zungthiammi": 7638,
      "rawlkung": 7639,
      "rawlhrawn": 7640,
      "hlaat": 7641,
      "tlakphuat": 7642,
      "Siang": 7643,
      "Siddim": 7644,
      "Siloam": 7645,
      "tangnung": 7646,
      "zungzalnak": 7647,
      "zeihmanhlo": 7648,
      "ngeihchun": 7649,
      "ngeihchunte": 7650,
      "sarh": 7651,
      "Jot": 7652,
      "Joiakim": 7653,
      "lehpiak": 7654,
      "lehtama": 7655,
      "lukheng": 7656,
      "lukhuh": 7657,
      "ludomh": 7658,
      "zumi": 7659,
      "sawmtu": 7660,
      "pumpek": 7661,
      "pumlawng": 7662,
      "pumrua": 7663,
      "relrul": 7664,
      "baoth": 7665,
      "bazzar": 7666,
      "kharuh": 7667,
      "hlanmi": 7668,
      "chinhmi": 7669,
      "Kana": 7670,
      "Sab": 7671,
      "Sazuk": 7672,
      "hleisarihnak": 7673,
      "hleithumnak": 7674,
      "hleikuanak": 7675,
      "thainu": 7676,
      "parmi": 7677,
      "parpahlek": 7678,
      "Abdi": 7679,
      "Abinoam": 7680,
      "dirhmi": 7681,
      "direct": 7682,
      "thingphel": 7683,
      "hlawtnak": 7684,
      "bomi": 7685,
      "bozenai": 7686,
      "theikung": 7687,
      "fifik": 7688,
      "cawnpiakning": 7689,
      "kelawng": 7690,
      "kedong": 7691,
      "kelamh": 7692,
      "cawt": 7693,
      "tlaiter": 7694,
      "Mahlon": 7695,
      "Mahath": 7696,
      "kulnak": 7697,
      "chuntu": 7698,
      "ṭihtu": 7699,
      "langhterIsaiah": 7700,
      "nanmahte": 7701,
      "thok": 7702,
      "tholome": 7703,
      "faknak": 7704,
      "tanpah": 7705,
      "red": 7706,
      "uangthlar": 7707,
      "Amzi": 7708,
      "dohter": 7709,
      "dohhmang": 7710,
      "lenmi": 7711,
      "lenhmui": 7712,
      "biakammi": 7713,
      "Lebo": 7714,
      "Lehtama": 7715,
      "aukhuan": 7716,
      "moni": 7717,
      "tlaihpiak": 7718,
      "tlaihhrem": 7719,
      "ceihmi": 7720,
      ".”“": 7721,
      "runrun": 7722,
      "runvennak": 7723,
      "mipam": 7724,
      "vaimi": 7725,
      "Tlangpar": 7726,
      "teiter": 7727,
      "Facang": 7728,
      "Faphir": 7729,
      "phakmi": 7730,
      "phio": 7731,
      "Heth": 7732,
      "duale": 7733,
      "thawkin": 7734,
      "damtertu": 7735,
      "ṭilṭawt": 7736,
      "Thum": 7737,
      "Thawh": 7738,
      "Thiatira": 7739,
      "canphio": 7740,
      "riahmah": 7741,
      "riahter": 7742,
      "ṭhatnaklei": 7743,
      "hmangtu": 7744,
      "hmangṭi": 7745,
      "Thlalang": 7746,
      "Thlacam": 7747,
      "Khuazakip": 7748,
      "Ralbawipa": 7749,
      "Mad": 7750,
      "Shesh": 7751,
      "Shemer": 7752,
      "ṭhutpi": 7753,
      "Ahohi": 7754,
      "zampi": 7755,
      "mane": 7756,
      "philhmi": 7757,
      "Pethahiah": 7758,
      "Jehozabad": 7759,
      "himmi": 7760,
      "himte": 7761,
      "himoth": 7762,
      "ruahnakA": 7763,
      "menmi": 7764,
      "mumi": 7765,
      "Samlah": 7766,
      "hriang": 7767,
      "hriim": 7768,
      "Nisan": 7769,
      "merter": 7770,
      "vungmang": 7771,
      "reumi": 7772,
      "sunlawi": 7773,
      "timhpiakmi": 7774,
      "uktupa": 7775,
      "bekai": 7776,
      "ṭhiamṭhiammi": 7777,
      "tungtai": 7778,
      "dumdang": 7779,
      "medatha": 7780,
      "chawlettu": 7781,
      "Vanmi": 7782,
      "rawnmi": 7783,
      "tlinlonak": 7784,
      "Zohar": 7785,
      "hmaanning": 7786,
      "talet": 7787,
      "hrat": 7788,
      "Cazual": 7789,
      "sungsung": 7790,
      "Til": 7791,
      "Tiglath": 7792,
      "thermi": 7793,
      "therter": 7794,
      "therine": 7795,
      "Hati": 7796,
      "Hathak": 7797,
      "Hadoram": 7798,
      "Efer": 7799,
      "Matthat": 7800,
      "Mattenai": 7801,
      "Matred": 7802,
      "Bene": 7803,
      "chuahternak": 7804,
      "fialnak": 7805,
      "nok": 7806,
      "nomi": 7807,
      "Moladah": 7808,
      "umtermi": 7809,
      "chawnhbiak": 7810,
      "tawnghnak": 7811,
      "hloi": 7812,
      "athea": 7813,
      "Lamkal": 7814,
      "Lamhlapi": 7815,
      "voth": 7816,
      "volh": 7817,
      "thanhSalm": 7818,
      "zahan": 7819,
      "pakuanak": 7820,
      "santer": 7821,
      "Saltang": 7822,
      "Sallu": 7823,
      "hnekchom": 7824,
      "zawnruah": 7825,
      "hlenthawinak": 7826,
      "hlenhmang": 7827,
      "khualtlung": 7828,
      "kaltermi": 7829,
      "nemmi": 7830,
      "nemter": 7831,
      "Lian": 7832,
      "Likuk": 7833,
      "Lisias": 7834,
      "Lidda": 7835,
      "thuamhnak": 7836,
      "pilter": 7837,
      "Hmelchunhnak": 7838,
      "naimi": 7839,
      "Lungkua": 7840,
      "Lungvar": 7841,
      "Lungkil": 7842,
      "Lungtlap": 7843,
      "Abiel": 7844,
      "thirfung": 7845,
      "thurmi": 7846,
      "Rilipi": 7847,
      "firah": 7848,
      "firtu": 7849,
      "thleidangmi": 7850,
      "onhtu": 7851,
      "Gebal": 7852,
      "Geriz": 7853,
      "thauter": 7854,
      "Zatlang": 7855,
      "huatter": 7856,
      "12Matthai": 7857,
      "Hamul": 7858,
      "Hammedatha": 7859,
      "Ard": 7860,
      "Argob": 7861,
      "Arvad": 7862,
      "14Matthai": 7863,
      "zualhma": 7864,
      "mithipa": 7865,
      "ṭhawlmi": 7866,
      "ṭhawlpiak": 7867,
      "Innchung": 7868,
      "chawkvai": 7869,
      "buartu": 7870,
      "chimtupa": 7871,
      "139": 7872,
      "nihsawhmi": 7873,
      "118": 7874,
      "tlaunak": 7875,
      "Chiatnak": 7876,
      "derter": 7877,
      "Lod": 7878,
      "Lodebar": 7879,
      "thamtham": 7880,
      "Salma": 7881,
      "fuhpanh": 7882,
      "rulhnak": 7883,
      "Bartholome": 7884,
      "pemter": 7885,
      "104": 7886,
      "tliang": 7887,
      "chuanmi": 7888,
      "Pisidia": 7889,
      "benhnak": 7890,
      "pawpi": 7891,
      "hramthawkte": 7892,
      "Galili": 7893,
      "Gallim": 7894,
      "phorhnak": 7895,
      "rialchih": 7896,
      "Hanamel": 7897,
      "odak": 7898,
      "Luhnak": 7899,
      "bawhter": 7900,
      "bawhkhuh": 7901,
      "ṭangphaw": 7902,
      "ṭangṭimi": 7903,
      "samhhnawh": 7904,
      "15Matthai": 7905,
      "Ritnak": 7906,
      "Rizpah": 7907,
      "ruaih": 7908,
      "pawimi": 7909,
      "ralchanhtu": 7910,
      "23A": 7911,
      "phoihtu": 7912,
      "riamh": 7913,
      "kengdan": 7914,
      "hrukter": 7915,
      "Jalam": 7916,
      "Jaflet": 7917,
      "Jatti": 7918,
      "tawinak": 7919,
      "cawimi": 7920,
      "hrawmmi": 7921,
      "Shemariah": 7922,
      "toidormi": 7923,
      "zarhkhat": 7924,
      "thlehbaoh": 7925,
      "Ararat": 7926,
      "zinan": 7927,
      "Shamir": 7928,
      "tlawnmi": 7929,
      "hnartonh": 7930,
      "ciammammi": 7931,
      "dinhdorh": 7932,
      "tlok": 7933,
      "Jehudi": 7934,
      "Ashbel": 7935,
      "Kehlei": 7936,
      "Kedem": 7937,
      "Rehoboth": 7938,
      "Khaan": 7939,
      "thinghmuimi": 7940,
      "Hormi": 7941,
      "Horesh": 7942,
      "Theihnak": 7943,
      "misifakpa": 7944,
      "chawhpi": 7945,
      "chawhkanh": 7946,
      "Kishi": 7947,
      "foihmi": 7948,
      "foihter": 7949,
      "paihmi": 7950,
      "hlingkung": 7951,
      "kuainak": 7952,
      "demh": 7953,
      "suaitu": 7954,
      "fawiter": 7955,
      "Khamh": 7956,
      "Meiṭil": 7957,
      "Meikhu": 7958,
      "rawhter": 7959,
      "henh": 7960,
      "Fimthiamnak": 7961,
      "cuaimi": 7962,
      "cuaitu": 7963,
      "Hananel": 7964,
      "hlamtu": 7965,
      "25Matthai": 7966,
      "puarmi": 7967,
      "Hoglah": 7968,
      "Suimilam": 7969,
      "maimilh": 7970,
      "tuaiter": 7971,
      "Hmunkhat": 7972,
      "Jabez": 7973,
      "khuarter": 7974,
      "ṭanter": 7975,
      "mitcawpa": 7976,
      "Merab": 7977,
      "Senir": 7978,
      "Khefirah": 7979,
      "lauter": 7980,
      "thlaihmi": 7981,
      "hnabeidong": 7982,
      "silhnalh": 7983,
      "Zingkate": 7984,
      "Golan": 7985,
      "Hnachet": 7986,
      "Sela": 7987,
      "34Pathian": 7988,
      "Azgad": 7989,
      "kanghnak": 7990,
      "tlengtu": 7991,
      "siilei": 7992,
      "siithlop": 7993,
      "tonghtham": 7994,
      "selsul": 7995,
      "bunghhnawh": 7996,
      "nimte": 7997,
      "rauhter": 7998,
      "zaamtak": 7999,
      "Shime": 8000,
      "Shimshai": 8001,
      "biahngalhternak": 8002,
      "funtom": 8003,
      "Kainan": 8004,
      "Tanglei": 8005,
      "pommi": 8006,
      "rawlṭamnak": 8007,
      "Imlah": 8008,
      "Immanuel": 8009,
      "Umnak": 8010,
      "hamath": 8011,
      "khingkhang": 8012,
      "zawtter": 8013,
      "tawnghthampiak": 8014,
      "Asriel": 8015,
      "Langta": 8016,
      "aiawhtu": 8017,
      "donhhlei": 8018,
      "conglawmhtu": 8019,
      "Galatia": 8020,
      "Dothan": 8021,
      "Dinhnak": 8022,
      "Deuel": 8023,
      "Firuk": 8024,
      "Fizang": 8025,
      "Phulh": 8026,
      "Shobab": 8027,
      "Naamath": 8028,
      "Aramaik": 8029,
      "Eshkol": 8030,
      "Theitlai": 8031,
      "Zofar": 8032,
      "huahmi": 8033,
      "ṭeka": 8034,
      "chonhmi": 8035,
      "Alfa": 8036,
      "bunhnak": 8037,
      "kothrolh": 8038,
      "phuahchommi": 8039,
      "Keniz": 8040,
      "Zimmah": 8041,
      "bingtalet": 8042,
      "hlathlaitu": 8043,
      "Malkhiel": 8044,
      "Chimbu": 8045,
      "Nergal": 8046,
      "Ṭhawnnak": 8047,
      "Chunglei": 8048,
      "Rabbi": 8049,
      "khaimi": 8050,
      "phalhmi": 8051,
      "Husham": 8052,
      "Kue": 8053,
      "Chawlehnak": 8054,
      "Pentekos": 8055,
      "thler": 8056,
      "Jokshan": 8057,
      "Vailamtahnak": 8058,
      "hlawmtu": 8059,
      "thormi": 8060,
      "Khuaruahharnak": 8061,
      "Khuaruahharmi": 8062,
      "Meshelemiah": 8063,
      "Meshezabel": 8064,
      "Zeresh": 8065,
      "Zered": 8066,
      "vuanthok": 8067,
      "lalhnawh": 8068,
      "kemh": 8069,
      "Bilhan": 8070,
      "Elizafan": 8071,
      "Augus": 8072,
      "Ṭhiotu": 8073,
      "Ṭhitumnak": 8074,
      "Meribbaal": 8075,
      "Nekoda": 8076,
      "tlolhmi": 8077,
      "Donghnak": 8078,
      "Sibbekai": 8079,
      "Cuarpartan": 8080,
      "Jaazaniah": 8081,
      "Tlawmpal": 8082,
      "milungṭhawng": 8083,
      "phonak": 8084,
      "Mishma": 8085,
      "Joiada": 8086,
      "kiangah": 8087,
      "Shebnah": 8088,
      "Alekzandria": 8089,
      "nengtu": 8090,
      "ralkahmi": 8091,
      "aamahkhannak": 8092,
      "Azazel": 8093,
      "hlonhnak": 8094,
      "awkhlawh": 8095,
      "nifatin": 8096,
      "rocarnak": 8097,
      "fikfa": 8098,
      "Massa": 8099,
      "Harod": 8100,
      "NAK": 8101,
      "Pangpar": 8102,
      "Porhlawt": 8103,
      "Toidornak": 8104,
      "garmah": 8105,
      "ppim": 8106,
      "tenh": 8107,
      "Saupi": 8108,
      "Thangṭhatnak": 8109,
      "Shemida": 8110,
      "Shemiramoth": 8111,
      "Sokoh": 8112,
      "Alemeth": 8113,
      "Hnulei": 8114,
      "Hrawktu": 8115,
      "arabah": 8116,
      "game": 8117,
      "mithram": 8118,
      "Khinneroth": 8119,
      "Henadad": 8120,
      "hnitkha": 8121,
      "Phaisa": 8122,
      "Zarefath": 8123,
      "tluangkhawnnak": 8124,
      "Potifar": 8125,
      "Huldah": 8126,
      "Hmutu": 8127,
      "Mingiatu": 8128,
      "Tattenai": 8129,
      "buhri": 8130,
      "Ṭiaotakmi": 8131,
      "Jeshimon": 8132,
      "holhrel": 8133,
      "Khuazingnu": 8134,
      "Giddel": 8135,
      "Mattathias": 8136,
      "Refaiah": 8137,
      "cekcekhnawh": 8138,
      "Deirel": 8139,
      "Tlik": 8140,
      "mihme": 8141,
      "aloes": 8142,
      "Mehetabel": 8143,
      "Nefeg": 8144,
      "thianhhlimh": 8145,
      "Americana": 8146,
      "Azubah": 8147,
      "Arimathea": 8148,
      "Abaddon": 8149,
      "Bamoth": 8150,
      "Cantiang": 8151,
      "Elhanan": 8152,
      "Elioenai": 8153,
      "Engedi": 8154,
      "Hushim": 8155,
      "Ibleam": 8156,
      "Jairu": 8157,
      "Koniah": 8158,
      "Klaudia": 8159,
      "Omega": 8160,
      "Salekah": 8161,
      "Zuahmi": 8162,
      "dulmal": 8163,
      "fengbeo": 8164,
      "jeshimoth": 8165,
      "ṭeifiak": 8166,
      "ṭualmal": 8167,
      "ṭuanhawi": 8168,
      "mikhepkha": 8169,
      "Pathros": 8170,
      "Jesus": 8171,
      "rishathaim": 8172,
      "chiathrutnak": 8173,
      "Gerizim": 8174,
      "Bartholomew": 8175,
      "Jattir": 8176,
      "Kedemoth": 8177,
      "Augustus": 8178,
      "1Samuel": 8179,
      "2Siangpahrang": 8180,
      "56": 8181,
      "60": 8182,
      "68": 8183,
      "?*": 8184,
      "Ah": 8185,
      "At": 8186,
      "Ase": 8187,
      "Azal": 8188,
      "Arel": 8189,
      "Anam": 8190,
      "Bun": 8191,
      "Buai": 8192,
      "Bawinu": 8193,
      "Cak": 8194,
      "Car": 8195,
      "Cawng": 8196,
      "Dal": 8197,
      "Dim": 8198,
      "Dawh": 8199,
      "Duhmi": 8200,
      "Eu": 8201,
      "Ela": 8202,
      "Eri": 8203,
      "Esar": 8204,
      "Eben": 8205,
      "Ephah": 8206,
      "Eras": 8207,
      "Eloth": 8208,
      "Emim": 8209,
      "Fri": 8210,
      "Fur": 8211,
      "Gah": 8212,
      "Ginn": 8213,
      "Hr": 8214,
      "Hah": 8215,
      "Haw": 8216,
      "Hri": 8217,
      "Hlang": 8218,
      "Huat": 8219,
      "Hrai": 8220,
      "Had": 8221,
      "Hnem": 8222,
      "Hoth": 8223,
      "Hran": 8224,
      "Hirah": 8225,
      "If": 8226,
      "Ij": 8227,
      "Ik": 8228,
      "Iv": 8229,
      "Iy": 8230,
      "Igal": 8231,
      "Joses": 8232,
      "Kuh": 8233,
      "Kawl": 8234,
      "Kho": 8235,
      "Kol": 8236,
      "Keb": 8237,
      "Khoi": 8238,
      "Keli": 8239,
      "Kemuel": 8240,
      "Luh": 8241,
      "Luatnak": 8242,
      "Minn": 8243,
      "Nawh": 8244,
      "Nawn": 8245,
      "Nobah": 8246,
      "Nof": 8247,
      "Omar": 8248,
      "Oded": 8249,
      "Puah": 8250,
      "Rum": 8251,
      "Ruh": 8252,
      "Ruat": 8253,
      "Sem": 8254,
      "Sta": 8255,
      "Stan": 8256,
      "Sullam": 8257,
      "Shua": 8258,
      "Serh": 8259,
      "Shup": 8260,
      "Sahmul": 8261,
      "Shuham": 8262,
      "Tih": 8263,
      "Tawng": 8264,
      "Thlah": 8265,
      "Thal": 8266,
      "Tlin": 8267,
      "Taleti": 8268,
      "THI": 8269,
      "Un": 8270,
      "Vei": 8271,
      "Veng": 8272,
      "Vale": 8273,
      "Wil": 8274,
      "Zih": 8275,
      "Zaan": 8276,
      "aga": 8277,
      "alal": 8278,
      "bla": 8279,
      "bni": 8280,
      "bet": 8281,
      "cih": 8282,
      "cenh": 8283,
      "ctor": 8284,
      "duk": 8285,
      "ethi": 8286,
      "eden": 8287,
      "esheth": 8288,
      "fen": 8289,
      "fuhnak": 8290,
      "fuam": 8291,
      "gum": 8292,
      "gram": 8293,
      "gath": 8294,
      "ggai": 8295,
      "gub": 8296,
      "han": 8297,
      "hai": 8298,
      "helh": 8299,
      "hiar": 8300,
      "hamnak": 8301,
      "hanan": 8302,
      "ib": 8303,
      "id": 8304,
      "ial": 8305,
      "iamin": 8306,
      "kihnak": 8307,
      "kennak": 8308,
      "kuah": 8309,
      "kingmi": 8310,
      "lumh": 8311,
      "lumnak": 8312,
      "lulh": 8313,
      "muk": 8314,
      "meihol": 8315,
      "othai": 8316,
      "onaim": 8317,
      "pun": 8318,
      "poih": 8319,
      "piat": 8320,
      "pchap": 8321,
      "rong": 8322,
      "rhnak": 8323,
      "rhmi": 8324,
      "sta": 8325,
      "sonh": 8326,
      "tlei": 8327,
      "ukan": 8328,
      "urh": 8329,
      "vih": 8330,
      "vam": 8331,
      "vim": 8332,
      "venh": 8333,
      "vvoth": 8334,
      "zawng": 8335,
      "zawm": 8336,
      "zek": 8337,
      "zzam": 8338,
      "zzah": 8339,
      "ʹach": 8340,
      "Ṭang": 8341,
      "Ṭap": 8342,
      "’,": 8343,
      "“‘": 8344,
      "”,": 8345,
      "anath": 8346,
      "anfangkha": 8347,
      "ahmi": 8348,
      "naah": 8349,
      "namh": 8350,
      "natio": 8351,
      "nger": 8352,
      "ngalnak": 8353,
      "nganhtak": 8354,
      "cur": 8355,
      "khahnak": 8356,
      "khangmi": 8357,
      "khiat": 8358,
      "khiar": 8359,
      "ihdah": 8360,
      "ihor": 8361,
      "inihdah": 8362,
      "hnalei": 8363,
      "hnaNa": 8364,
      "hnatlakmi": 8365,
      "thupa": 8366,
      "thonh": 8367,
      "mirang": 8368,
      "mithla": 8369,
      "mish": 8370,
      "mizu": 8371,
      "mirun": 8372,
      "mirawi": 8373,
      "milian": 8374,
      "miramh": 8375,
      "mithattu": 8376,
      "mikhong": 8377,
      "minauta": 8378,
      "mizuangzam": 8379,
      "mithintawi": 8380,
      "lap": 8381,
      "lami": 8382,
      "khaih": 8383,
      "khaangtu": 8384,
      "titer": 8385,
      "tidong": 8386,
      "tikhal": 8387,
      "tikas": 8388,
      "tilaknak": 8389,
      "tikik": 8390,
      "aloth": 8391,
      "algum": 8392,
      "almuk": 8393,
      "chawl": 8394,
      "cherh": 8395,
      "situ": 8396,
      "sirang": 8397,
      "lef": 8398,
      "leuh": 8399,
      "letnak": 8400,
      "lethai": 8401,
      "letas": 8402,
      "kara": 8403,
      "pai": 8404,
      "paal": 8405,
      "pacheu": 8406,
      "patar": 8407,
      "tumi": 8408,
      "tule": 8409,
      "tuhnak": 8410,
      "tuIsaiah": 8411,
      "tunaite": 8412,
      "nakmi": 8413,
      "nakpi": 8414,
      "nakkhin": 8415,
      "laim": 8416,
      "laikhat": 8417,
      "lailak": 8418,
      "amon": 8419,
      "amethi": 8420,
      "amfuam": 8421,
      "lohter": 8422,
      "teuh": 8423,
      "teom": 8424,
      "uning": 8425,
      "umpu": 8426,
      "thiel": 8427,
      "hmar": 8428,
      "hmawng": 8429,
      "hmawm": 8430,
      "hmeh": 8431,
      "ṭhul": 8432,
      "ṭhip": 8433,
      "ṭhet": 8434,
      "caak": 8435,
      "caṭialmi": 8436,
      "caphortu": 8437,
      "khanpiak": 8438,
      "chungte": 8439,
      "chungpi": 8440,
      "chungkhat": 8441,
      "imai": 8442,
      "hrulh": 8443,
      "sehlei": 8444,
      "raang": 8445,
      "rathah": 8446,
      "ramipa": 8447,
      "khatrep": 8448,
      "tuahpi": 8449,
      "tuahtertu": 8450,
      "biakhiah": 8451,
      "biathuk": 8452,
      "biatlaknak": 8453,
      "leitlang": 8454,
      "tertar": 8455,
      "falai": 8456,
      "faath": 8457,
      "faphir": 8458,
      "cungcang": 8459,
      "hnakkar": 8460,
      "ramhmi": 8461,
      "rammelek": 8462,
      "dahngai": 8463,
      "ihmang": 8464,
      "ihmai": 8465,
      "pahau": 8466,
      "pahchih": 8467,
      "khuadang": 8468,
      "khuacaan": 8469,
      "khuaruahnak": 8470,
      "tlah": 8471,
      "liim": 8472,
      "lion": 8473,
      "liza": 8474,
      "licen": 8475,
      "Jeuel": 8476,
      "Jearim": 8477,
      "Jetur": 8478,
      "hngahnak": 8479,
      "hngerh": 8480,
      "ris": 8481,
      "rioth": 8482,
      "kalei": 8483,
      "nutar": 8484,
      "utal": 8485,
      "chuhnak": 8486,
      "chuangtu": 8487,
      "chupchap": 8488,
      "ṭhate": 8489,
      "onoth": 8490,
      "awnhnak": 8491,
      "bitum": 8492,
      "vaca": 8493,
      "vatter": 8494,
      "thilthiang": 8495,
      "thilpon": 8496,
      "lunglai": 8497,
      "lungmit": 8498,
      "lunghmu": 8499,
      "lungthu": 8500,
      "lungthuh": 8501,
      "lungrawn": 8502,
      "lungnem": 8503,
      "lunghmul": 8504,
      "lungdongh": 8505,
      "lungthleng": 8506,
      "lungnemnak": 8507,
      "hluat": 8508,
      "hluang": 8509,
      "lammi": 8510,
      "lamding": 8511,
      "lamhter": 8512,
      "lamnaite": 8513,
      "saihnak": 8514,
      "sathar": 8515,
      "serah": 8516,
      "nis": 8517,
      "niel": 8518,
      "nichuak": 8519,
      "ralpa": 8520,
      "ralchia": 8521,
      "raltho": 8522,
      "zalam": 8523,
      "zafang": 8524,
      "saling": 8525,
      "ngaan": 8526,
      "ngatlai": 8527,
      "ukning": 8528,
      "ukmak": 8529,
      "ummipa": 8530,
      "minchiatnak": 8531,
      "minthut": 8532,
      "minthlakmi": 8533,
      "nawhnak": 8534,
      "ortu": 8535,
      "sualtermi": 8536,
      "ngaitu": 8537,
      "ngaite": 8538,
      "hmunsang": 8539,
      "Mirang": 8540,
      "Mithiang": 8541,
      "Mikip": 8542,
      "Mizaw": 8543,
      "Miruak": 8544,
      "Mipem": 8545,
      "Mizzah": 8546,
      "Miletas": 8547,
      "Jeshu": 8548,
      "Kau": 8549,
      "Kabzeel": 8550,
      "Katherine": 8551,
      "ṭhantermi": 8552,
      "eus": 8553,
      "tlangcung": 8554,
      "tlangrel": 8555,
      "Anna": 8556,
      "Aner": 8557,
      "ninghngal": 8558,
      "khol": 8559,
      "Nafi": 8560,
      "Nafath": 8561,
      "kuttang": 8562,
      "kutzeng": 8563,
      "thlazung": 8564,
      "thlakhnawh": 8565,
      "hrimhnak": 8566,
      "hrimhter": 8567,
      "thlur": 8568,
      "buel": 8569,
      "Hitin": 8570,
      "Zeiti": 8571,
      "Zeithil": 8572,
      "Zeizat": 8573,
      "hungcho": 8574,
      "hungkainak": 8575,
      "hoze": 8576,
      "hobe": 8577,
      "hoglah": 8578,
      "paohin": 8579,
      "tamar": 8580,
      "zohter": 8581,
      "vawleite": 8582,
      "takhup": 8583,
      "mangṭhia": 8584,
      "kamhtu": 8585,
      "nunmi": 8586,
      "nuntertu": 8587,
      "nunchimhnak": 8588,
      "chimhchung": 8589,
      "ṭuanpah": 8590,
      "vanluh": 8591,
      "vanluhnak": 8592,
      "vanchiami": 8593,
      "Dap": 8594,
      "Dabe": 8595,
      "rod": 8596,
      "caancaan": 8597,
      "theihpi": 8598,
      "theihngal": 8599,
      "deuhtu": 8600,
      "zalei": 8601,
      "zalawng": 8602,
      "zep": 8603,
      "zet": 8604,
      "zefon": 8605,
      "ṭhiṭhalo": 8606,
      "ṭhiotu": 8607,
      "ṭhitupa": 8608,
      "mham": 8609,
      "tuahmipa": 8610,
      "bikpa": 8611,
      "hnur": 8612,
      "hnuang": 8613,
      "hnuai": 8614,
      "hnuhmai": 8615,
      "meici": 8616,
      "hlami": 8617,
      "khilah": 8618,
      "chuakmipa": 8619,
      "tlakin": 8620,
      "tlaktertu": 8621,
      "chiahtakmi": 8622,
      "saret": 8623,
      "sartlam": 8624,
      "mitthi": 8625,
      "ciocio": 8626,
      "Jog": 8627,
      "hmape": 8628,
      "hmapu": 8629,
      "haltu": 8630,
      "thiamtlang": 8631,
      "thiamcoh": 8632,
      "luri": 8633,
      "donghlei": 8634,
      "zuun": 8635,
      "zurit": 8636,
      "zucua": 8637,
      "sawmpalak": 8638,
      "pumtu": 8639,
      "pumte": 8640,
      "pumpemi": 8641,
      "pumpul": 8642,
      "camter": 8643,
      "etrius": 8644,
      "bag": 8645,
      "baz": 8646,
      "bael": 8647,
      "bathah": 8648,
      "batmi": 8649,
      "kharkhumh": 8650,
      "Izrah": 8651,
      "chintu": 8652,
      "phungchimmi": 8653,
      "puanfual": 8654,
      "doṭhiang": 8655,
      "dotlami": 8656,
      "Kanah": 8657,
      "Sala": 8658,
      "Sayamah": 8659,
      "hleikhunmi": 8660,
      "thath": 8661,
      "parte": 8662,
      "hnawhnak": 8663,
      "hnawhnam": 8664,
      "cawnmi": 8665,
      "rihai": 8666,
      "tumpah": 8667,
      "tumbul": 8668,
      "bawmhmi": 8669,
      "dirpi": 8670,
      "dirkamh": 8671,
      "thingtum": 8672,
      "thingthu": 8673,
      "thingmui": 8674,
      "thinghnah": 8675,
      "thingrua": 8676,
      "thingzarh": 8677,
      "thinghreu": 8678,
      "hlawtu": 8679,
      "hlawrh": 8680,
      "raumi": 8681,
      "bom": 8682,
      "Baalh": 8683,
      "Baana": 8684,
      "Baladan": 8685,
      "namtu": 8686,
      "fimter": 8687,
      "fimas": 8688,
      "filim": 8689,
      "fiamfuam": 8690,
      "kesh": 8691,
      "kedil": 8692,
      "kirhnawh": 8693,
      "atute": 8694,
      "cawihmi": 8695,
      "cawroi": 8696,
      "ṭialpiakmi": 8697,
      "hmanṭinak": 8698,
      "Mahle": 8699,
      "Maharai": 8700,
      "hramtu": 8701,
      "surmi": 8702,
      "changper": 8703,
      "ṭihawi": 8704,
      "langhterning": 8705,
      "pekmipa": 8706,
      "Khum": 8707,
      "Khel": 8708,
      "Khuam": 8709,
      "tanpi": 8710,
      "tanbo": 8711,
      "tanhnawhmi": 8712,
      "did": 8713,
      "dibla": 8714,
      "rew": 8715,
      "dohpiaktu": 8716,
      "Khis": 8717,
      "Khilion": 8718,
      "Khimham": 8719,
      "hnihchunte": 8720,
      "tluktertu": 8721,
      "Berak": 8722,
      "Besor": 8723,
      "Bezai": 8724,
      "Bezek": 8725,
      "sangsang": 8726,
      "zaran": 8727,
      "tlaihchanmi": 8728,
      "chial": 8729,
      "tlunnak": 8730,
      "tlunhtu": 8731,
      "thangṭhattu": 8732,
      "letmi": 8733,
      "ceihnak": 8734,
      "hrinter": 8735,
      "vaivuanh": 8736,
      "tonhmi": 8737,
      "zaangmi": 8738,
      "zaangthupa": 8739,
      "profetnu": 8740,
      "fanute": 8741,
      "khenhteo": 8742,
      "phawte": 8743,
      "Helek": 8744,
      "Thanh": 8745,
      "ome": 8746,
      "omau": 8747,
      "canthum": 8748,
      "canceo": 8749,
      "luhpah": 8750,
      "hruaiter": 8751,
      "Thlachiat": 8752,
      "Zefon": 8753,
      "Zeinihdah": 8754,
      "Khuadei": 8755,
      "Ralṭha": 8756,
      "Raldoh": 8757,
      "Sheshai": 8758,
      "Shefu": 8759,
      "Shebuel": 8760,
      "Levitikas": 8761,
      "thlir": 8762,
      "thlite": 8763,
      "thlizil": 8764,
      "Mehi": 8765,
      "Mesha": 8766,
      "Mefaath": 8767,
      "kawlmipa": 8768,
      "senh": 8769,
      "Ahopaoh": 8770,
      "mantu": 8771,
      "tahtlem": 8772,
      "kaiter": 8773,
      "aseiah": 8774,
      "Pelon": 8775,
      "Pelaiah": 8776,
      "Jehoad": 8777,
      "Jehonadab": 8778,
      "thinhunter": 8779,
      "lanmi": 8780,
      "kunpiak": 8781,
      "kunhnawh": 8782,
      "muihmai": 8783,
      "Elishua": 8784,
      "Elishah": 8785,
      "Nichuah": 8786,
      "Nizan": 8787,
      "mermi": 8788,
      "hranthawl": 8789,
      "Ngeih": 8790,
      "thlaraulei": 8791,
      "sihlaw": 8792,
      "timhning": 8793,
      "timhlamh": 8794,
      "oihmi": 8795,
      "bep": 8796,
      "beril": 8797,
      "berith": 8798,
      "samak": 8799,
      "samthlai": 8800,
      "ceutertu": 8801,
      "ṭungmi": 8802,
      "dard": 8803,
      "tungdanh": 8804,
      "dumpi": 8805,
      "zuamcawh": 8806,
      "Bethshan": 8807,
      "Bethfeih": 8808,
      "Nef": 8809,
      "Neariah": 8810,
      "Nefilim": 8811,
      "thlaitu": 8812,
      "appi": 8813,
      "mes": 8814,
      "meter": 8815,
      "messiah": 8816,
      "meholah": 8817,
      "chawkhonnak": 8818,
      "adiah": 8819,
      "addar": 8820,
      "dawiter": 8821,
      "thuhphenh": 8822,
      "sinumnu": 8823,
      "rawnhter": 8824,
      "tlintertu": 8825,
      "Zohkhenh": 8826,
      "hmaannak": 8827,
      "hmaante": 8828,
      "rianṭuanṭi": 8829,
      "voimi": 8830,
      "Atute": 8831,
      "Ramath": 8832,
      "Capawl": 8833,
      "Tiber": 8834,
      "Tibni": 8835,
      "shaf": 8836,
      "dawhter": 8837,
      "puamnak": 8838,
      "herhning": 8839,
      "herhbaumi": 8840,
      "telnak": 8841,
      "Haz": 8842,
      "Havvoth": 8843,
      "Hakhilah": 8844,
      "Hadid": 8845,
      "Efrathah": 8846,
      "ratpitu": 8847,
      "lihchimmi": 8848,
      "nuamnuam": 8849,
      "Phungbuar": 8850,
      "lekter": 8851,
      "Ahava": 8852,
      "thlakawk": 8853,
      "tawngca": 8854,
      "tawnghter": 8855,
      "hmelchunh": 8856,
      "daimon": 8857,
      "zit": 8858,
      "zipeng": 8859,
      "hlomh": 8860,
      "chumhmui": 8861,
      "Lamhruainak": 8862,
      "thanhpiak": 8863,
      "thanhlaar": 8864,
      "Miniamin": 8865,
      "dengtu": 8866,
      "Reaiah": 8867,
      "Retheimi": 8868,
      "zahab": 8869,
      "Dantat": 8870,
      "fihnunnak": 8871,
      "fihnungmi": 8872,
      "cawnghnak": 8873,
      "cawnghter": 8874,
      "muithlam": 8875,
      "Tunaite": 8876,
      "fera": 8877,
      "sanna": 8878,
      "sanning": 8879,
      "Salnu": 8880,
      "Salem": 8881,
      "nemmam": 8882,
      "fiangmi": 8883,
      "serhpiak": 8884,
      "kenter": 8885,
      "keneh": 8886,
      "kenret": 8887,
      "Hmaiah": 8888,
      "naidem": 8889,
      "ciaomau": 8890,
      "kommi": 8891,
      "Lungtho": 8892,
      "Lungsau": 8893,
      "Khrihfami": 8894,
      "laapi": 8895,
      "lemtu": 8896,
      "lemoth": 8897,
      "dipdep": 8898,
      "zaangfahtu": 8899,
      "Bikmi": 8900,
      "siningte": 8901,
      "cohlannak": 8902,
      "ziathiam": 8903,
      "ziazalei": 8904,
      "Abiana": 8905,
      "chehmi": 8906,
      "hmetuai": 8907,
      "Inkhawhnak": 8908,
      "biahrang": 8909,
      "firnak": 8910,
      "Geshem": 8911,
      "tarmi": 8912,
      "tlonlennak": 8913,
      "biapit": 8914,
      "biapitnak": 8915,
      "hlawhhlan": 8916,
      "hlawhtlin": 8917,
      "nahchuahter": 8918,
      "Thilpuan": 8919,
      "Elte": 8920,
      "Elpaal": 8921,
      "hmuizum": 8922,
      "Hamutal": 8923,
      "Arba": 8924,
      "Mark": 8925,
      "ṭhektu": 8926,
      "phuzep": 8927,
      "mithikhua": 8928,
      "angkifual": 8929,
      "ṭhawltu": 8930,
      "Tuuhmul": 8931,
      "Inncung": 8932,
      "khuaiseng": 8933,
      "tlauter": 8934,
      "?’“": 8935,
      "Cham": 8936,
      "Ahiman": 8937,
      "Ahisamak": 8938,
      "17Mi": 8939,
      "lahkhah": 8940,
      "lahmangṭhia": 8941,
      "vahpi": 8942,
      "vahvaih": 8943,
      "sayate": 8944,
      "cawngtunu": 8945,
      "khenkham": 8946,
      "kanghtu": 8947,
      "umtuzia": 8948,
      "liammi": 8949,
      "Pithlung": 8950,
      "Ṭhatlo": 8951,
      "Heres": 8952,
      "zuarnak": 8953,
      "hoihter": 8954,
      "ṭemh": 8955,
      "pialmi": 8956,
      "pialhnawh": 8957,
      "pialtertu": 8958,
      "Gallio": 8959,
      "rialhnawh": 8960,
      "rawiphiar": 8961,
      "chambaumi": 8962,
      "bawhmi": 8963,
      "hngawngdih": 8964,
      "uahmahmi": 8965,
      "Saruak": 8966,
      "Sardis": 8967,
      "khonter": 8968,
      "hngilhmi": 8969,
      "hngilhter": 8970,
      "barah": 8971,
      "ruakhuang": 8972,
      "Zuun": 8973,
      "penes": 8974,
      "karhcho": 8975,
      "ranter": 8976,
      "Cungdot": 8977,
      "Timnath": 8978,
      "ṭhangṭhat": 8979,
      "ṭhanghter": 8980,
      "kenglei": 8981,
      "kassia": 8982,
      "Jaar": 8983,
      "Jabal": 8984,
      "Khaldia": 8985,
      "tawimi": 8986,
      "khimmi": 8987,
      "milempi": 8988,
      "Damnak": 8989,
      "Shaa": 8990,
      "Shihor": 8991,
      "hlerpiak": 8992,
      "thlehmi": 8993,
      "tuakpiak": 8994,
      "toihtu": 8995,
      "langhning": 8996,
      "langhhnawh": 8997,
      "Moreh": 8998,
      "Moresheth": 8999,
      "Nunnuam": 9000,
      "ningcanglo": 9001,
      "Tivate": 9002,
      "Tivapi": 9003,
      "Karkhe": 9004,
      "Shaaraim": 9005,
      "Shabbe": 9006,
      "thianternak": 9007,
      "sawhsawhmi": 9008,
      "sawhsawhte": 9009,
      "Gatam": 9010,
      "Serah": 9011,
      "Sermi": 9012,
      "Sered": 9013,
      "Ashtor": 9014,
      "Kenan": 9015,
      "Kerioth": 9016,
      "kilveng": 9017,
      "santlaimi": 9018,
      "Khaka": 9019,
      "Khatte": 9020,
      "khammi": 9021,
      "khamnak": 9022,
      "Horon": 9023,
      "Horkuang": 9024,
      "Horonaim": 9025,
      "Thebez": 9026,
      "zuannak": 9027,
      "chawhhnawh": 9028,
      "Perga": 9029,
      "Nahum": 9030,
      "Nahchuahnak": 9031,
      "lehrulhnak": 9032,
      "chimhhrinmi": 9033,
      "ihpitu": 9034,
      "hnawmtam": 9035,
      "hakkauh": 9036,
      "hakkaumi": 9037,
      "Meiphu": 9038,
      "horduh": 9039,
      "serhsattu": 9040,
      "khihchih": 9041,
      "Adrammelek": 9042,
      "Chunzan": 9043,
      "Mura": 9044,
      "soinak": 9045,
      "nalmi": 9046,
      "umpitu": 9047,
      "batter": 9048,
      "rashim": 9049,
      "Hori": 9050,
      "Holon": 9051,
      "maim": 9052,
      "thlumthlum": 9053,
      "vakvai": 9054,
      "hngahhlang": 9055,
      "Hmunmi": 9056,
      "Eliada": 9057,
      "Tamara": 9058,
      "ngaihchihmi": 9059,
      "cep": 9060,
      "ṭannak": 9061,
      "mitcawmi": 9062,
      "mitcawtnak": 9063,
      "felfai": 9064,
      "zeirellonak": 9065,
      "hnonak": 9066,
      "Ezem": 9067,
      "marlei": 9068,
      "Thingtan": 9069,
      "Cawla": 9070,
      "awlokchonh": 9071,
      "thangchiatmi": 9072,
      "thangchiattu": 9073,
      "mihlen": 9074,
      "hnabeidonghnak": 9075,
      "hruhter": 9076,
      "fingrei": 9077,
      "hmaihngalnak": 9078,
      "ṭhahnemmi": 9079,
      "Koz": 9080,
      "Kolaiah": 9081,
      "Konaniah": 9082,
      "Voikhat": 9083,
      "porhlawtmi": 9084,
      "rimthawmi": 9085,
      "Endor": 9086,
      "Sele": 9087,
      "Segub": 9088,
      "hrengmi": 9089,
      "hrengtu": 9090,
      "pharnak": 9091,
      "poinak": 9092,
      "ṭinter": 9093,
      "cilnak": 9094,
      "Genesaret": 9095,
      "Malkhiah": 9096,
      "pechanmi": 9097,
      "Azmon": 9098,
      "Azriel": 9099,
      "Jahzeel": 9100,
      "Jahleel": 9101,
      "Adonikam": 9102,
      "Baalath": 9103,
      "Hasse": 9104,
      "sanhmi": 9105,
      "cheuhning": 9106,
      "lanhpi": 9107,
      "rauhhlan": 9108,
      "Rangcung": 9109,
      "cemchih": 9110,
      "Akbor": 9111,
      "Akrabbim": 9112,
      "Shimeah": 9113,
      "deiter": 9114,
      "deirel": 9115,
      "phakpitu": 9116,
      "puammi": 9117,
      "Dairus": 9118,
      "Tahan": 9119,
      "Tahpenes": 9120,
      "thutter": 9121,
      "Lungthinlei": 9122,
      "Chiandeihpi": 9123,
      "Uknak": 9124,
      "hliammi": 9125,
      "hliamnak": 9126,
      "lainawngtu": 9127,
      "Bernis": 9128,
      "hrenhkhumh": 9129,
      "hrenhkanh": 9130,
      "rawlṭammi": 9131,
      "hnormi": 9132,
      "Imri": 9133,
      "Lihchimmi": 9134,
      "Zumhtlak": 9135,
      "kinglang": 9136,
      "Huppim": 9137,
      "celhmi": 9138,
      "ciahnak": 9139,
      "kawiter": 9140,
      "khongmi": 9141,
      "hnamngei": 9142,
      "zengmi": 9143,
      "pehtlaihter": 9144,
      "Lairel": 9145,
      "Lainawng": 9146,
      "Lainawnnak": 9147,
      "Lawngcawng": 9148,
      "Pumsa": 9149,
      "Dot": 9150,
      "Fikol": 9151,
      "Shomer": 9152,
      "depmap": 9153,
      "nautatnak": 9154,
      "Shubael": 9155,
      "chonkanh": 9156,
      "Ngaihchiat": 9157,
      "Almon": 9158,
      "Allah": 9159,
      "khawnhnawh": 9160,
      "Gerasa": 9161,
      "hrualmi": 9162,
      "tinhning": 9163,
      "ceuhtu": 9164,
      "metmi": 9165,
      "nincan": 9166,
      "Ṭhangh": 9167,
      "hranhtu": 9168,
      "hrinsormi": 9169,
      "Thahmi": 9170,
      "thurhnawmhtertu": 9171,
      "Buri": 9172,
      "Cawnningani": 9173,
      "Lengah": 9174,
      "Nimrod": 9175,
      "luaimaimi": 9176,
      "Dingthlu": 9177,
      "Jarib": 9178,
      "Kushi": 9179,
      "mot": 9180,
      "ngaihchiattertu": 9181,
      "Khualtlung": 9182,
      "Khualtlawngmi": 9183,
      "damhpiak": 9184,
      "Thonginn": 9185,
      "Thongtla": 9186,
      "Chawleh": 9187,
      "Peninnah": 9188,
      "Thinhung": 9189,
      "thletnak": 9190,
      "Mikloth": 9191,
      "hnianghnuang": 9192,
      "Hruhnak": 9193,
      "sawksam": 9194,
      "haddon": 9195,
      "tlaihchannak": 9196,
      "Pekahiah": 9197,
      "thehnak": 9198,
      "chaang": 9199,
      "chaangtu": 9200,
      "chemmi": 9201,
      "kattaza": 9202,
      "humhaknak": 9203,
      "phongh": 9204,
      "phentu": 9205,
      "Ashkenaz": 9206,
      "Dumah": 9207,
      "Heldai": 9208,
      "Helkath": 9209,
      "Puvah": 9210,
      "khuannak": 9211,
      "chimhnawhchan": 9212,
      "biakchawnhpiak": 9213,
      "khuamuih": 9214,
      "vawlhpamhnak": 9215,
      "Sharezer": 9216,
      "kheʹ": 9217,
      "khelbo": 9218,
      "Zillah": 9219,
      "zahpimi": 9220,
      "Halah": 9221,
      "luklak": 9222,
      "dawpter": 9223,
      "Habor": 9224,
      "Tlakrawh": 9225,
      "Tlawmte": 9226,
      "millo": 9227,
      "milungpuam": 9228,
      "milungkhong": 9229,
      "mitlinglo": 9230,
      "ṭhanchonak": 9231,
      "kiangkap": 9232,
      "Bilgah": 9233,
      "ṭhupmi": 9234,
      "Nehelam": 9235,
      "huammi": 9236,
      "nehsawhtu": 9237,
      "Janoah": 9238,
[...]
