{
  "version": "1.0",
  "truncation": null,
  "padding": null,
  "added_tokens": [
    {
      "id": 0,
      "content": "<pad>",
      "single_word": false,
      "lstrip": false,
      "rstrip": false,
      "normalized": false,
      "special": true
    },
    {
      "id": 1,
      "content": "<unk>",
      "single_word": false,
      "lstrip": false,
      "rstrip": false,
      "normalized": false,
      "special": true
    },
    {
      "id": 2,
      "content": "<s>",
      "single_word": false,
      "lstrip": false,
      "rstrip": false,
      "normalized": false,
      "special": true
    },
    {
      "id": 3,
      "content": "</s>",
      "single_word": false,
      "lstrip": false,
      "rstrip": false,
      "normalized": false,
      "special": true
    }
  ],
  "normalizer": null,
  "pre_tokenizer": {
    "type": "Sequence",
    "pretokenizers": [
      {
        "type": "Whitespace"
      },
      {
        "type": "Split",
        "pattern": {
          "Regex": "(?<=[ऀ-ॿ஀-௿฀-๿຀-໿က-႟ក-៿一-鿿꤀-꤯])(?=[A-Za-z0-9])|(?<=[A-Za-z0-9])(?=[ऀ-ॿ஀-௿฀-๿຀-໿က-႟ក-៿一-鿿꤀-꤯])"
        },
        "behavior": "Isolated",
        "invert": false
      }
    ]
  },
  "post_processor": null,
  "decoder": null,
  "model": {
    "type": "BPE",
    "dropout": null,
    "unk_token": "<unk>",
    "continuing_subword_prefix": null,
    "end_of_word_suffix": null,
    "fuse_unk": false,
    "byte_fallback": false,
    "ignore_merges": false,
    "vocab": {
      "<pad>": 0,
      "<unk>": 1,
      "<s>": 2,
      "</s>": 3,
      "(": 4,
      ")": 5,
      ",": 6,
      ".": 7,
      "က": 8,
      "ခ": 9,
      "ဂ": 10,
      "ဃ": 11,
      "င": 12,
      "စ": 13,
      "ဆ": 14,
      "ဇ": 15,
      "ည": 16,
      "တ": 17,
      "ထ": 18,
      "ဒ": 19,
      "ဓ": 20,
      "န": 21,
      "ပ": 22,
      "ဖ": 23,
      "ဗ": 24,
      "ဘ": 25,
      "မ": 26,
      "ယ": 27,
      "ရ": 28,
      "လ": 29,
      "ဝ": 30,
      "သ": 31,
      "ဟ": 32,
      "အ": 33,
      "ဧ": 34,
      "ါ": 35,
      "ာ": 36,
      "ိ": 37,
      "ီ": 38,
      "ူ": 39,
      "ဲ": 40,
      "ဳ": 41,
      "ံ": 42,
      "့": 43,
      "း": 44,
      "်": 45,
      "ျ": 46,
      "ြ": 47,
      "ွ": 48,
      "ှ": 49,
      "၀": 50,
      "၁": 51,
      "၂": 52,
      "၄": 53,
      "၆": 54,
      "ၠ": 55,
      "ၡ": 56,
      "ၢ": 57,
      "ၣ": 58,
      "ၤ": 59,
      "ၱ": 60,
      "​": 61,
      "—": 62,
      "‘": 63,
      "’": 64,
      "“": 65,
      "”": 66,
      "ာ်": 67,
      "ဲၤ": 68,
      "ၢ်": 69,
      "ၣ်": 70,
      "ဳၤ": 71,
      "ၱာ်": 72,
      "ဲာ်": 73,
      "တဲၤ": 74,
      "ီၣ်": 75,
      "နဳၤ": 76,
      "ဒဳ": 77,
      "့ၤ": 78,
      "စီ": 79,
      "ကၱာ်": 80,
      "ဲး": 81,
      "ဳး": 82,
      "ဲၢ်": 83,
      "စီာ်": 84,
      "စဲာ်": 85,
      "ီး": 86,
      "ပွ": 87,
      "ကဲၤ": 88,
      "ံၤ": 89,
      "ဘဲာ်": 90,
      "အီၣ်": 91,
      "သံ": 92,
      "ူၤ": 93,
      "မၱာ်": 94,
      "ီၤ": 95,
      "ဝၤ": 96,
      "ီၢ်": 97,
      "ူး": 98,
      "လၤ": 99,
      "ပၠ": 100,
      "ပၠၤ": 101,
      "ထာ်": 102,
      "မဲၤ": 103,
      "ပွဲၤ": 104,
      "ံာ်": 105,
      "ဒီၣ်": 106,
      "နံၤ": 107,
      "နီး": 108,
      "အံာ်": 109,
      "ၱး": 110,
      "စာ်": 111,
      "ပူၤ": 112,
      "လ့ၤ": 113,
      "ဒဳၣ်": 114,
      "လှ": 115,
      "ထဲၢ်": 116,
      "ခဳး": 117,
      "သး": 118,
      "ဘၱာ်": 119,
      "ဖဳး": 120,
      "လၢ်": 121,
      "ဓဳၤ": 122,
      "ယဳၤ": 123,
      "က့ၤ": 124,
      "ရှ": 125,
      "ပီၢ်": 126,
      "ပျ": 127,
      "လီၤ": 128,
      "ဒီ": 129,
      "“​": 130,
      "မှ": 131,
      "ကျ": 132,
      "စီၤ": 133,
      "ဝှ": 134,
      "့း": 135,
      "ဘိ": 136,
      "ူၣ်": 137,
      "ၱၢ်": 138,
      "့ၣ်": 139,
      "မၤ": 140,
      "ဘ့": 141,
      "ံး": 142,
      "ထၱး": 143,
      "ိး": 144,
      "ဆး": 145,
      "ယ့ၣ်": 146,
      "ရှူး": 147,
      "နှ": 148,
      "ကီ": 149,
      "ကိ": 150,
      "ၱၤ": 151,
      "နဲၢ်": 152,
      "စါ": 153,
      "ဳာ်": 154,
      "ထံ": 155,
      "သၱာ်": 156,
      "ံၢ်": 157,
      "ပွဲး": 158,
      "ဟဲ": 159,
      "သဲ": 160,
      "ိၤ": 161,
      "လဳ": 162,
      "ဝှါ": 163,
      "ဝ့ၤ": 164,
      "န့ၤ": 165,
      "စဲ": 166,
      "အဲး": 167,
      ".”": 168,
      "ခံ": 169,
      "ကါ": 170,
      "ယဲၤ": 171,
      "မီၢ်": 172,
      "ဝၱၤ": 173,
      "မံၤ": 174,
      "့ၢ်": 175,
      "မဳၤ": 176,
      "ကဲ": 177,
      "ဒဲ": 178,
      "ကိာ်": 179,
      "ဘူၣ်": 180,
      "ဆါ": 181,
      "ခီ": 182,
      "ရၤ": 183,
      "ံၣ်": 184,
      "အၣ်": 185,
      "မူၤ": 186,
      "ရၱာ်": 187,
      "တၤ": 188,
      "ခး": 189,
      "ပျဳာ်": 190,
      "ကၠ": 191,
      "မီၤ": 192,
      "ကျဲ": 193,
      "ကဲာ်": 194,
      "ထဳ": 195,
      "ဖၱး": 196,
      "အူး": 197,
      "ဟဲး": 198,
      "ဇၤ": 199,
      "ပာ်": 200,
      "တၱၢ်": 201,
      "မှး": 202,
      "နဲၤ": 203,
      "မဲး": 204,
      "လှူၣ်": 205,
      "ချ": 206,
      "ဖျ": 207,
      "ဆီး": 208,
      "လဲၢ်": 209,
      "အူ": 210,
      "မိ": 211,
      "စဲး": 212,
      "နူၤ": 213,
      "လါ": 214,
      "ဘး": 215,
      "လှီ": 216,
      "ယၱၢ်": 217,
      "ဧါ": 218,
      "ဘဲ": 219,
      "ခဳ": 220,
      "လီၢ်": 221,
      "နံၢ်": 222,
      "ဒၤ": 223,
      "သီ": 224,
      "မံ": 225,
      "ပဳၤ": 226,
      ",”": 227,
      "ထဳး": 228,
      "စူး": 229,
      "လှိ": 230,
      "ဘါ": 231,
      "ခီး": 232,
      "ခွ": 233,
      "လဳၢ်": 234,
      "တီၤ": 235,
      "ခီၣ်": 236,
      "ယူ": 237,
      "သဲာ်": 238,
      "ဝဲၤ": 239,
      "ဝဲၢ်": 240,
      "ပ့ၤ": 241,
      "ြး": 242,
      "မှဲး": 243,
      "ပျဲၢ်": 244,
      "လ့ၢ်": 245,
      "ဓူ": 246,
      "ရှံၣ်": 247,
      "နှဲး": 248,
      "ကၱ": 249,
      "နှး": 250,
      "အီ": 251,
      "ပျာ်": 252,
      "ဆဲး": 253,
      "ဘီၣ်": 254,
      "ကျဲး": 255,
      "ၡံး": 256,
      "ရး": 257,
      "ဇဳၤ": 258,
      "သဳ": 259,
      "ပၤ": 260,
      "လှဲး": 261,
      "ကၠံၢ်": 262,
      "အဲ": 263,
      "ခၠ": 264,
      "သဳး": 265,
      "ဆဲ": 266,
      "ဆီ": 267,
      "ကျဳၤ": 268,
      "စံး": 269,
      "လၱၢ်": 270,
      "‘​": 271,
      "ၡံ": 272,
      "ချဳ": 273,
      "ခၠၱး": 274,
      "ကၠး": 275,
      "ယၤ": 276,
      "တဲၢ်": 277,
      "ပီၤ": 278,
      "ဇိၤ": 279,
      "လံၤ": 280,
      "ဧဲၤ": 281,
      "ဆူး": 282,
      "ဘီ": 283,
      "ထဲး": 284,
      "ပ့": 285,
      "ခၣ်": 286,
      "မှူး": 287,
      "ဝှ့း": 288,
      "ဆိး": 289,
      "ဖၱ": 290,
      "ခဲ": 291,
      "လှၱ": 292,
      "ထိ": 293,
      "သါ": 294,
      "လဲ": 295,
      "ခ့": 296,
      "ပဲၢ်": 297,
      "န့း": 298,
      "ခွံ": 299,
      "လဳၤ": 300,
      "နှီ": 301,
      "သဳာ်": 302,
      "ဒ့": 303,
      "လူး": 304,
      "သိ": 305,
      "ဖျီး": 306,
      "တ့ၢ်": 307,
      "လး": 308,
      "ူၢ်": 309,
      "ဟၣ်": 310,
      "အါ": 311,
      "ဝံ": 312,
      "ရှံ": 313,
      "လံ": 314,
      "ကူ": 315,
      "ဓဳ": 316,
      "အဳ": 317,
      "ထိး": 318,
      "ယိၤ": 319,
      "ဘၱ": 320,
      "ရ့": 321,
      "အီး": 322,
      "နီၣ်": 323,
      "ပီ": 324,
      "ကဳာ်": 325,
      "နၢ်": 326,
      "ဇီၤ": 327,
      "ရူး": 328,
      "ဒဳး": 329,
      "ပံၤ": 330,
      "လှဲ": 331,
      "သိး": 332,
      "လိၤ": 333,
      "ဓဲ": 334,
      "နါ": 335,
      "ပ့း": 336,
      "ဖြး": 337,
      "သ့း": 338,
      "ပၢ်": 339,
      "ဝၢ်": 340,
      "အၤ": 341,
      "ဓူၤ": 342,
      "မဲာ်": 343,
      "လဲၤ": 344,
      "ပွ့ၤ": 345,
      "မဲ": 346,
      "ပျဲး": 347,
      "လှ့": 348,
      "ဖး": 349,
      "ဟီး": 350,
      "ကၢ်": 351,
      "ထါ": 352,
      "သၱး": 353,
      "ွဲ": 354,
      "ညဲ": 355,
      "ိာ်": 356,
      "လူၤ": 357,
      "ိၢ်": 358,
      "ထူ": 359,
      "ပွ့": 360,
      "စူ": 361,
      "လ့ၣ်": 362,
      "ဟိး": 363,
      "ထဲ": 364,
      "ဗွဲ": 365,
      "တါ": 366,
      "ယၢ်": 367,
      "ပြး": 368,
      "ွံၢ်": 369,
      "နှၱ": 370,
      "အိး": 371,
      "စွ": 372,
      "ဓၢ်": 373,
      "ဘံာ်": 374,
      "ရူၤ": 375,
      "ဒါ": 376,
      "မှၱး": 377,
      "ပျဳၤ": 378,
      "ဘီာ်": 379,
      "ဖါ": 380,
      "ယါ": 381,
      "သူ": 382,
      "ဟူၣ်": 383,
      "သိၣ်": 384,
      "နီၢ်": 385,
      "ပွဲ": 386,
      "ဘိး": 387,
      "ဖၤ": 388,
      "အဳး": 389,
      ".’": 390,
      "ဝှဲး": 391,
      "မ့ၤ": 392,
      "ရံၤ": 393,
      "ကြ": 394,
      "စိ": 395,
      "ရှံး": 396,
      "သွ": 397,
      "ဟိ": 398,
      "ဘ့ာ်": 399,
      "ဓူၢ်": 400,
      "ဖ့း": 401,
      "လဲာ်": 402,
      "ဟဳ": 403,
      "ဳၢ်": 404,
      "မှ့း": 405,
      "ဒဲး": 406,
      "ခံး": 407,
      "ရၱ": 408,
      "လှီး": 409,
      "မိၢ်": 410,
      "နၤ": 411,
      "မဲၢ်": 412,
      "ဟၱး": 413,
      "လွံၢ်": 414,
      "ဖျီ": 415,
      "ယီၤ": 416,
      "ယၱၤ": 417,
      "ရၣ်": 418,
      "ဟး": 419,
      "ဝှိ": 420,
      ",’": 421,
      "မှါ": 422,
      "ၡံၣ်": 423,
      "ပျါ": 424,
      "ကၤ": 425,
      "ရိၤ": 426,
      "ပွၱၤ": 427,
      "တံၤ": 428,
      "ယိ": 429,
      "စီး": 430,
      "စဳး": 431,
      "ကျံ": 432,
      "မၱ": 433,
      "မူၢ်": 434,
      "နှူ": 435,
      "ပး": 436,
      "မၢ်": 437,
      "ဓ့ၢ်": 438,
      "ဖြ": 439,
      "ယး": 440,
      "ပဲာ်": 441,
      "သီၣ်": 442,
      "သီး": 443,
      "သွံၣ်": 444,
      "မ့": 445,
      "မိၤ": 446,
      "ကူာ်": 447,
      "ဇၱၢ်": 448,
      "ထီး": 449,
      "ထူး": 450,
      "မါ": 451,
      "မှဲ": 452,
      "ဘြ": 453,
      "ကျဲၢ်": 454,
      "ကီၢ်": 455,
      "ခူ": 456,
      "တး": 457,
      "ဒ့ာ်": 458,
      "ထး": 459,
      "ပဲၤ": 460,
      "ပူး": 461,
      "အံၣ်": 462,
      "ဝှိး": 463,
      "ယံၢ်": 464,
      "စၤ": 465,
      "ဇ့ၤ": 466,
      "လီ": 467,
      "နှါ": 468,
      "ထ့": 469,
      "ဖံ": 470,
      "ၡ့": 471,
      "ဓီၤ": 472,
      "ကျၤ": 473,
      "ပီး": 474,
      "နံ": 475,
      "ဓ့": 476,
      "ယဲၢ်": 477,
      "ဆဳ": 478,
      "ပိာ်": 479,
      "ပွ့း": 480,
      "မှီး": 481,
      "မိၣ်": 482,
      "တိၤ": 483,
      "လိး": 484,
      "ဝှ့": 485,
      "ဘြၤ": 486,
      "စဳ": 487,
      "ဘဳာ်": 488,
      "ဟူ": 489,
      "ဧဳၤ": 490,
      "လံၢ်": 491,
      "ခွဲး": 492,
      "ဖူ": 493,
      "လၱး": 494,
      "သဲး": 495,
      "ပျၤ": 496,
      "ကဳ": 497,
      "တူး": 498,
      "ကွ": 499,
      "ၡဲ": 500,
      "သ့": 501,
      "မှူ": 502,
      "ထွ": 503,
      "ဘၤ": 504,
      "စံ": 505,
      "ကဳၤ": 506,
      "ကဲၢ်": 507,
      "တြ": 508,
      "တစီာ်": 509,
      "အ့း": 510,
      "စၱး": 511,
      "ဆ့း": 512,
      "ဒၱာ်": 513,
      "ဝံာ်": 514,
      "ွှ": 515,
      "(​": 516,
      "ခါ": 517,
      "နီၤ": 518,
      "ဘျ": 519,
      "ကူၤ": 520,
      "နၣ်": 521,
      "ပ့ၢ်": 522,
      "မဳ": 523,
      "ဘျီၣ်": 524,
      "ဖျူ": 525,
      "ဖီ": 526,
      "ၡံာ်": 527,
      "စွဲး": 528,
      "ဝံး": 529,
      "စွံး": 530,
      "ဘူ": 531,
      "ကျၱး": 532,
      "မ့ၢ်": 533,
      "ရိ": 534,
      "ရွှ": 535,
      "ရွှံး": 536,
      "ခဲး": 537,
      "ပြ": 538,
      "ရ့း": 539,
      "ဒး": 540,
      "ဗ့": 541,
      "ရ့ာ်": 542,
      "ဆိ": 543,
      "ဗဳၤ": 544,
      "အံၤ": 545,
      "ချံ": 546,
      "ချဳး": 547,
      "ရါ": 548,
      "ဇွ": 549,
      "မှိ": 550,
      "ခူး": 551,
      "လူၢ်": 552,
      "တ့ၤ": 553,
      "တီး": 554,
      "ရိာ်": 555,
      "ဝံၢ်": 556,
      "ပျီၤ": 557,
      "ခွဲ": 558,
      "ထွဲး": 559,
      "မီ": 560,
      "ဟ့ၤ": 561,
      "ကး": 562,
      "ပိၢ်": 563,
      "လံး": 564,
      "ၡဳ": 565,
      "ပျဲာ်": 566,
      "ရှဲ": 567,
      "ကျး": 568,
      "ိၣ်": 569,
      "စ့း": 570,
      "ထူၣ်": 571,
      "ရံ": 572,
      "ဝူၤ": 573,
      "ဟီ": 574,
      "ဘၱာ်စဲာ်": 575,
      "ချဲး": 576,
      "ရၱၣ်": 577,
      "ဆဳး": 578,
      "ဓီ": 579,
      "ပဳၢ်": 580,
      "ကံ": 581,
      "ပျၱၤ": 582,
      "ဖျး": 583,
      "ဇွၱၢ်": 584,
      "ညါ": 585,
      "ယီၢ်": 586,
      "ဝၱၢ်": 587,
      "ဒူၣ်": 588,
      "ဘ့ၤ": 589,
      "အ့ၤ": 590,
      "ကျါ": 591,
      "ဇၢ်": 592,
      "ဘ့း": 593,
      "လူ": 594,
      "ဆဲၣ်": 595,
      "ပံ": 596,
      "ဖူး": 597,
      "ဘံ": 598,
      "သူး": 599,
      "တၱ": 600,
      "ဒိး": 601,
      "ဇိၢ်": 602,
      "ဝံၤ": 603,
      "ကီၤ": 604,
      "စး": 605,
      "ဖီး": 606,
      "ဗူ": 607,
      "ရၢ်": 608,
      "လီး": 609,
      ".)": 610,
      "မး": 611,
      "ဧိၢ်": 612,
      "ကျၢ်": 613,
      "ချံး": 614,
      "ပၱး": 615,
      "ဝဳၤ": 616,
      "ပျၱ": 617,
      "ဖျဳး": 618,
      "ဘၢ်": 619,
      "ဒွ": 620,
      "မံး": 621,
      "ဘိာ်": 622,
      "ကြံး": 623,
      "ဒွါ": 624,
      "ခၱ": 625,
      "တံ": 626,
      "ရာ်": 627,
      "လၱၤ": 628,
      "ဝဳၢ်": 629,
      "ကီး": 630,
      "ဒာ်": 631,
      "လၣ်": 632,
      "အ့": 633,
      "အၱး": 634,
      "လှ့း": 635,
      "ယံး": 636,
      "ွဲၤ": 637,
      "လှိး": 638,
      "တီၢ်": 639,
      "နၱၢ်": 640,
      "ဟံ": 641,
      "ဆ့": 642,
      "ဇဲၤ": 643,
      "လဲး": 644,
      "ဧီၢ်": 645,
      "ဖြီး": 646,
      "တြီၤ": 647,
      "ဖဲ": 648,
      "ရူ": 649,
      "ဝူၢ်": 650,
      "ရှဳ": 651,
      "ယူၢ်": 652,
      "ဖြူး": 653,
      "ခ်": 654,
      "နၱၤ": 655,
      "ပိး": 656,
      "ရ့ၤ": 657,
      "လၱ": 658,
      "ကွၢ်": 659,
      "ကူး": 660,
      "မူး": 661,
      "လှဲာ်": 662,
      "ကြံးခ်": 663,
      "ကဘၱာ်စဲာ်": 664,
      "ဒံ": 665,
      "န့": 666,
      "ပျိၤ": 667,
      "ကျ့ၤ": 668,
      "ကဲး": 669,
      "ဒၱ": 670,
      "ဒ့း": 671,
      "ဓံ": 672,
      "ပံး": 673,
      "ဖ့": 674,
      "ဖၠ": 675,
      "ရဳ": 676,
      "တဲၤအ": 677,
      "ကိၢ်": 678,
      "ဖၠး": 679,
      "ထီ": 680,
      "မ့ၣ်": 681,
      "ယွဲၤ": 682,
      "အး": 683,
      "ကျ့း": 684,
      "ကဳး": 685,
      "က့း": 686,
      "ခူၣ်": 687,
      "ရီၤ": 688,
      "အိ": 689,
      "စာ်ဘိ": 690,
      "လှါ": 691,
      "ရှူ": 692,
      "ရှံာ်": 693,
      "ဂီၤ": 694,
      "ဖီၣ်": 695,
      "ဗြ": 696,
      "လ့း": 697,
      "သၤ": 698,
      "လှၱး": 699,
      "ပျ့း": 700,
      "ကျံး": 701,
      "ဝှး": 702,
      "ချူး": 703,
      "ခိ": 704,
      "ဒူး": 705,
      "ရဲၤ": 706,
      "ဝ့ၢ်": 707,
      "အၱာ်": 708,
      "အပူၤ": 709,
      "ကျိး": 710,
      "ဝှံး": 711,
      "သဲၣ်": 712,
      "သဳၣ်": 713,
      "ကွဲၤ": 714,
      "စိၤ": 715,
      "ထၱ": 716,
      "ဓဲၢ်": 717,
      "ဖိး": 718,
      "မ့း": 719,
      "လိၢ်": 720,
      "ဝး": 721,
      "သၣ်": 722,
      "ဧဳၢ်": 723,
      "ပျူၤ": 724,
      "နှဳ": 725,
      "ချူ": 726,
      "ဓဳၢ်": 727,
      "ကြၱၢ်": 728,
      "ဖြၱ": 729,
      "ခရၱာ်": 730,
      "စူၤ": 731,
      "ဒိၣ်": 732,
      "ဓွံၢ်": 733,
      "ရီ": 734,
      "ရီၢ်": 735,
      "ရူၢ်": 736,
      "အဲၤ": 737,
      "အတဲၤ": 738,
      "ကျီး": 739,
      "ထဳၣ်": 740,
      "ဖျဲး": 741,
      "ထံး": 742,
      "ပါ": 743,
      "ဘၱး": 744,
      "လ့": 745,
      "လှူ": 746,
      "ကိၤ": 747,
      "ခွံး": 748,
      "စွ့": 749,
      "ကြဳၢ်": 750,
      "သွဲး": 751,
      "ဃၤ": 752,
      "ဒိ": 753,
      "ဒ့ၣ်": 754,
      "နၱး": 755,
      "အၱ": 756,
      "အစာ်ဘိ": 757,
      "စဲာ်တစီာ်": 758,
      "ပျဲ": 759,
      "ဘြံၤ": 760,
      "ကၱး": 761,
      "ဆူ": 762,
      "တၢ်": 763,
      "တပွဲၤ": 764,
      "ဒၣ်": 765,
      "ပၱၢ်": 766,
      "ဖံး": 767,
      "ဗ့ၤ": 768,
      "ရံး": 769,
      "ဝဲ": 770,
      "ဝှူ": 771,
      "ကၠၱၢ်": 772,
      "ကာ်": 773,
      "တ့": 774,
      "ဒြ": 775,
      "ဓိၤ": 776,
      "ဖဳ": 777,
      "လိၣ်": 778,
      "ဟူး": 779,
      "ဧၤ": 780,
      "ပျိာ်": 781,
      "နှဲ": 782,
      "ခၠါ": 783,
      "ကြ့း": 784,
      "တဲး": 785,
      "ဘူၤ": 786,
      "မူ": 787,
      "အၢ်": 788,
      "ဧ့ၤ": 789,
      "ဒဳတဲၤ": 790,
      "ပွံၢ်": 791,
      "ပၠၤအ": 792,
      "ကၠံး": 793,
      "အီာ်": 794,
      "ကြၱၤ": 795,
      "ကွါ": 796,
      "ထွံၣ်": 797,
      "တစီာ်နဳၤ": 798,
      "ပြီၤ": 799,
      "ပြူး": 800,
      "ကြး": 801,
      "စၣ်": 802,
      "ဇဲၢ်": 803,
      "တဳ": 804,
      "တြး": 805,
      "ဓ့ၤ": 806,
      "နဳ": 807,
      "ဖဲး": 808,
      "ယွံၢ်": 809,
      "ရၱၢ်": 810,
      "သြ": 811,
      "ရှၤ": 812,
      "နှီး": 813,
      "ဖြဳ": 814,
      "ဒီး": 815,
      "ဒူၤ": 816,
      "ဒၱး": 817,
      "ယက": 818,
      "ယ့ၤ": 819,
      "ရံၣ်": 820,
      "အိာ်": 821,
      "ီာ်": 822,
      "ၡး": 823,
      "ၡၤ": 824,
      "ပၠၤလှူၣ်": 825,
      "ရှါ": 826,
      "ပျး": 827,
      "ကျိ": 828,
      "သဲသၱာ်": 829,
      "မီၢ်ခဳး": 830,
      "ခွး": 831,
      "တြူၤ": 832,
      "တဲၤအဓဳၤ": 833,
      "ကံၤ": 834,
      "ဃါ": 835,
      "စံၤ": 836,
      "ဆံး": 837,
      "ဇူၤ": 838,
      "ဒူ": 839,
      "နီ": 840,
      "နိး": 841,
      "ဗွ": 842,
      "ယာ်": 843,
      "ရဳး": 844,
      "ရိး": 845,
      "ရၱၤ": 846,
      "ဝၱ": 847,
      "သိၤ": 848,
      "ၡါ": 849,
      "ထဲၢ်အ": 850,
      "ကျဳ": 851,
      "မၤနဲၢ်": 852,
      "သွံး": 853,
      "ဗွံ": 854,
      "က့": 855,
      "ခြ": 856,
      "စိၢ်": 857,
      "တ့း": 858,
      "တပွဲး": 859,
      "ထၣ်": 860,
      "နဲး": 861,
      "ဖံၤ": 862,
      "ဘဳး": 863,
      "အီၤ": 864,
      "ၡၱ": 865,
      "သံတဲၤ": 866,
      "သးအဲး": 867,
      "လၢ်ခဳး": 868,
      "ရှ့": 869,
      "ပျ့ၤ": 870,
      "မှံ": 871,
      "မှၱာ်": 872,
      "ဝှၱ": 873,
      "စါစဲး": 874,
      "လဳစါစဲး": 875,
      ".’”": 876,
      "အပူၤနဳၤ": 877,
      "ဃ့ၣ်": 878,
      "ငၢ်": 879,
      "စၢ်": 880,
      "ဆီၤ": 881,
      "ဇၱၤ": 882,
      "တဲာ်": 883,
      "ထြ": 884,
      "ဒံၤ": 885,
      "နး": 886,
      "မွှ": 887,
      "ယၣ်": 888,
      "ဝါ": 889,
      "ဝ့": 890,
      "ဝၱာ်": 891,
      "အက": 892,
      "အစဲ": 893,
      "နံၤခံ": 894,
      "အံာ်လၤ": 895,
      "လၢ်ဝၤ": 896,
      "ကြီာ်": 897,
      "ဖြိး": 898,
      "ထွၱး": 899,
      "တြၤ": 900,
      "ကဘၱာ်စဲာ်အ": 901,
      "ဗြၢ်": 902,
      "မွှ့း": 903,
      "ကိး": 904,
      "ခီၤ": 905,
      "စက": 906,
      "ဇါ": 907,
      "တဘဲာ်": 908,
      "တူၢ်": 909,
      "ဘၣ်": 910,
      "သူၤ": 911,
      "သမိ": 912,
      "အခဳး": 913,
      "အိၣ်": 914,
      "ဧး": 915,
      "ၡၱး": 916,
      "သံက": 917,
      "သံး": 918,
      "သိာ်": 919,
      "ကြ့": 920,
      "တြိၤ": 921,
      "သြူ": 922,
      "),": 923,
      "ကနဳၤ": 924,
      "ကံး": 925,
      "ကွဲ": 926,
      "ဃိ": 927,
      "ဃူး": 928,
      "စ့ၤ": 929,
      "စိး": 930,
      "တံး": 931,
      "တခီ": 932,
      "ဒ့ၤ": 933,
      "ဒံာ်": 934,
      "နိ": 935,
      "ပူၢ်": 936,
      "ဖွ": 937,
      "ယိၢ်": 938,
      "ရဲ": 939,
      "သၱ": 940,
      "သွဲ": 941,
      "ဟါ": 942,
      "ဟ့း": 943,
      "အကျဲ": 944,
      "ဧ့": 945,
      "ဧူၢ်": 946,
      "ကၱာ်တဲၤ": 947,
      "ပွ့ၢ်": 948,
      "ဘဲာ်ကီ": 949,
      "ပျ့": 950,
      "ပျီၢ်": 951,
      "ကျူ": 952,
      "ဝှံ": 953,
      "သၱာ်ဟဲ": 954,
      "ကၠၢ်": 955,
      "ချီၣ်": 956,
      "စံးရး": 957,
      "ဘူာ်": 958,
      "ပြံ": 959,
      "သဲသၱာ်အ": 960,
      "ခြိး": 961,
      "သးအဲးနံၤ": 962,
      "ကၣ်": 963,
      "ကၱၢ်": 964,
      "ကံၣ်": 965,
      "ခ့း": 966,
      "ခြး": 967,
      "ဃံ": 968,
      "ဃံၤ": 969,
      "တူ": 970,
      "တၱး": 971,
      "ဗွဲၤ": 972,
      "ဘူး": 973,
      "ယံၤ": 974,
      "ယဳၢ်": 975,
      "လဝ့ၤ": 976,
      "သ့ၣ်": 977,
      "ဳၣ်": 978,
      "ဒဳစ": 979,
      "ဘဲာ်လီၢ်": 980,
      "အီၣ်သမိ": 981,
      "သံမၱာ်": 982,
      "ထာ်အံာ်": 983,
      "မဲၤတဲၤ": 984,
      "လှူး": 985,
      "ယဳၤမၱာ်": 986,
      "ပီၢ်တဲၤ": 987,
      "ကျီၤ": 988,
      "လဳၣ်": 989,
      "အဳၣ်": 990,
      "စွၱး": 991,
      "ရိၣ်": 992,
      "ပြဲၤ": 993,
      "ဒြူး": 994,
      "ကူၣ်": 995,
      "က့ၢ်": 996,
      "ကမဳၤ": 997,
      "ကမဲာ်": 998,
      "ကဳၢ်": 999,
      "ဃး": 1000,
      "စီၣ်": 1001,
      "ဇဲ": 1002,
      "ဇၱ": 1003,
      "ဇံၤ": 1004,
      "တအီၣ်": 1005,
      "ထ့း": 1006,
      "ဒံၣ်": 1007,
      "ဓီၢ်": 1008,
      "နဲ": 1009,
      "ပိ": 1010,
      "ပၱ": 1011,
      "ပၣ်": 1012,
      "ပီၣ်": 1013,
      "ပိၤ": 1014,
      "ဖူၤ": 1015,
      "ဘံး": 1016,
      "မၱး": 1017,
      "ယူး": 1018,
      "ယိး": 1019,
      "ယဳၣ်": 1020,
      "သဘဲ": 1021,
      "သလဲ": 1022,
      "ဟ့ၣ်": 1023,
      "ဟိၤ": 1024,
      "အံ": 1025,
      "အဘဲာ်": 1026,
      "အပွဲၤ": 1027,
      "အခၠၱး": 1028,
      "အနံၤခံ": 1029,
      "“‘​": 1030,
      "ဒဳအ": 1031,
      "ကၱာ်အ": 1032,
      "လှဳး": 1033,
      "ရှၱ": 1034,
      "ရှၱး": 1035,
      "ပီၢ်သံ": 1036,
      "ပီၢ်မဲး": 1037,
      "ဝှဲ": 1038,
      "စါထံ": 1039,
      "ချီး": 1040,
      "ဖျဳ": 1041,
      "ဆီးခ့": 1042,
      "ကြံ": 1043,
      "ဟိၣ်": 1044,
      "ယိၣ်": 1045,
      "ပြၢ်": 1046,
      "ပြိၤ": 1047,
      "ဇွဲၤ": 1048,
      "ဇွံၤ": 1049,
      "စာ်ဘိထဲၢ်": 1050,
      "ရီာ်": 1051,
      "အခဳးအစဲ": 1052,
      "ဆီးခ့န့း": 1053,
      "ကအီၣ်": 1054,
      "က့ၣ်": 1055,
      "ဃဲ": 1056,
      "စတဲၤ": 1057,
      "စ့ၣ်": 1058,
      "တဳၤ": 1059,
      "တမၱာ်": 1060,
      "တနံၤ": 1061,
      "တဓဲ": 1062,
      "ထွဲ": 1063,
      "ဒံး": 1064,
      "ဒ့ၢ်": 1065,
      "ဘီး": 1066,
      "ဘံၤ": 1067,
      "ဘ့ၣ်": 1068,
      "ဘံၣ်": 1069,
      "မံၣ်": 1070,
      "ယူၤ": 1071,
      "ယံၣ်": 1072,
      "ရဲး": 1073,
      "သ့ၤ": 1074,
      "အက့ၤ": 1075,
      "အသဲ": 1076,
      "အမံၤ": 1077,
      "အလံၤ": 1078,
      "အလဝ့ၤ": 1079,
      "ဧၣ်": 1080,
      "ဧိၤ": 1081,
      "ၡိၣ်": 1082,
      "ဒဳမီၢ်ခဳး": 1083,
      "ကဲၤအ": 1084,
      "ဘဲာ်ထၱး": 1085,
      "သံနဳၤ": 1086,
      "ထာ်ကဲၤ": 1087,
      "မဲၤကနဳၤ": 1088,
      "ဒီၣ်ဓဳၤ": 1089,
      "နံၤဘဲာ်": 1090,
      "စာ်ထၱး": 1091,
      "ပူၤနဳၤ": 1092,
      "ဖဳးတစီာ်": 1093,
      "ပျၱး": 1094,
      "ပျၱၢ်": 1095,
      "လီၤနဳၤ": 1096,
      "ကျီၢ်": 1097,
      "ကီာ်": 1098,
      "န့ၤဘၱ": 1099,
      ".”)": 1100,
      "ပျဳာ်ကၱာ်": 1101,
      "ဖျူး": 1102,
      "ဖျၱး": 1103,
      "ခဳနူၤ": 1104,
      "စူးခီး": 1105,
      "ဘါပျဲာ်": 1106,
      "မှဲးလၤ": 1107,
      "ဖၱထာ်": 1108,
      "ခွံဖဳး": 1109,
      "ထါအံာ်": 1110,
      "ကြီၤ": 1111,
      "ကြၱး": 1112,
      "ဖြီ": 1113,
      "လီာ်": 1114,
      "သဲးထဲး": 1115,
      "ကွ့": 1116,
      "ကွ့ၤ": 1117,
      "တြံ": 1118,
      "ပြၱး": 1119,
      "ဘၱာ်စဲာ်အ": 1120,
      "ဗြူ": 1121,
      "ဗြိၤ": 1122,
      "ဒြ့း": 1123,
      "သြီး": 1124,
      "ပၠၤလှူၣ်တဲၤအဓဳၤ": 1125,
      "ထြူး": 1126,
      "ဖွဲး": 1127,
      "န့ၤဘၱစဲာ်": 1128,
      "ကဘဲာ်": 1129,
      "ကဟဲး": 1130,
      "ကဓူ": 1131,
      "ကဓူၤ": 1132,
      "ခိး": 1133,
      "ဃူၣ်": 1134,
      "ဃံး": 1135,
      "စ့": 1136,
      "စၱ": 1137,
      "စမဲၤ": 1138,
      "စဒီၣ်": 1139,
      "ဇီ": 1140,
      "ဇီၢ်": 1141,
      "တီ": 1142,
      "တူၤ": 1143,
      "တပျာ်": 1144,
      "ဓါ": 1145,
      "နူး": 1146,
      "နံး": 1147,
      "နဳာ်": 1148,
      "နိၣ်": 1149,
      "ဖ့ၤ": 1150,
      "ဖိၤ": 1151,
      "ဗံ": 1152,
      "မူၣ်": 1153,
      "ယွ": 1154,
      "ယတဲၤ": 1155,
      "ရဳာ်": 1156,
      "လိ": 1157,
      "လံၣ်": 1158,
      "လိာ်": 1159,
      "ဝၱး": 1160,
      "ဟၤ": 1161,
      "အူၤ": 1162,
      "အဒီၣ်": 1163,
      "အဓဳၤ": 1164,
      "အယဳၤ": 1165,
      "အ့ၣ်": 1166,
      "အကူ": 1167,
      "အလှဲ": 1168,
      "အဓၢ်": 1169,
      "ၡ့ၤ": 1170,
      "—​": 1171,
      "တဲၤလဳစါစဲး": 1172,
      "ဒဳသံ": 1173,
      "ဒဳခရၱာ်": 1174,
      "ဒဳကဘၱာ်စဲာ်အ": 1175,
      "ကၱာ်စ": 1176,
      "ကၱာ်ယ": 1177,
      "ကၱာ်ပၠၤ": 1178,
      "ကၱာ်စက": 1179,
      "ကဲၤကၱာ်": 1180,
      "အီၣ်ဟူၣ်": 1181,
      "သံမဲၤ": 1182,
      "လၤတ့ၢ်": 1183,
      "ပၠါ": 1184,
      "ပၠၤတပွဲၤ": 1185,
      "ပၠၤခွံဖဳး": 1186,
      "ပွဲၤဇိၤ": 1187,
      "နီးနဳၤ": 1188,
      "အံာ်သံ": 1189,
      "စာ်ပီၢ်": 1190,
      "ထဲၢ်ယ": 1191,
      "ရှး": 1192,
      "ပျီာ်": 1193,
      "ကျီ": 1194,
      "ကျ့": 1195,
      "ဝှံာ်": 1196,
      "ဘိၤ": 1197,
      "ဘ့စ": 1198,
      "ဆးဖြး": 1199,
      "ယ့ၣ်ရှူး": 1200,
      "ထံအက့ၤ": 1201,
      "ဒဲလၱၢ်": 1202,
      "ပျဳာ်ပျဳာ်ကၱာ်": 1203,
      "ချ့း": 1204,
      "အူအံာ်": 1205,
      "လှီမီၢ်": 1206,
      "ခဳၣ်": 1207,
      "လှဲးပီၢ်": 1208,
      "ကၠံၢ်ပွဲၤ": 1209,
      "ခၠံး": 1210,
      "ဆီထဳး": 1211,
      "ထိဓဳၤ": 1212,
      "ပီာ်": 1213,
      "ဖးမ့ၤ": 1214,
      "ပြးထာ်": 1215,
      "ဘ့ာ်မ့": 1216,
      "ဖြါ": 1217,
      "ကွး": 1218,
      "တြူ": 1219,
      "တစီာ်တခီ": 1220,
      "ဆဳးဖြဳ": 1221,
      "ဗြီၢ်": 1222,
      "တပွဲၤလီၤ": 1223,
      "ယကမဲၤ": 1224,
      "မၤနဲၢ်ဒဳၣ်": 1225,
      "သံတဲၤအီၣ်သမိ": 1226,
      "အံာ်လၤနံၤ": 1227,
      "လၢ်ဝၤအ": 1228,
      "ခဳနူၤယဳၤ": 1229,
      "ယွၤ": 1230,
      "အဓၢ်ပူၤ": 1231,
      "ဒဲလၱၢ်ထာ်": 1232,
      "ဆဳးဖြဳဆးဖြး": 1233,
      ").": 1234,
      "ကမဲၤ": 1235,
      "ကနၢ်": 1236,
      "ကဒီၣ်ဓဳၤ": 1237,
      "ကစာ်ထၱး": 1238,
      "ခၱး": 1239,
      "ဃ့": 1240,
      "ဃ့ၤ": 1241,
      "ဃ့း": 1242,
      "ဃံၣ်": 1243,
      "ဃိၢ်": 1244,
      "စူၣ်": 1245,
      "စ့ၢ်": 1246,
      "စံၣ်": 1247,
      "စလ့ၢ်": 1248,
      "စရ့": 1249,
      "စစဳး": 1250,
      "ဆွ": 1251,
      "ဇ့ၢ်": 1252,
      "တဳး": 1253,
      "တလၤ": 1254,
      "တ့ၣ်": 1255,
      "တၱၤ": 1256,
      "တံၢ်": 1257,
      "တနၢ်": 1258,
      "တထွဲး": 1259,
      "တွဲၤ": 1260,
      "တရ့ၤ": 1261,
      "ဒီၢ်": 1262,
      "ဓၤ": 1263,
      "နတဲၤ": 1264,
      "နိၤ": 1265,
      "နိာ်": 1266,
      "ပူ": 1267,
      "ပၱာ်": 1268,
      "ပဲး": 1269,
      "ပဳး": 1270,
      "ပရၤ": 1271,
      "ဖၣ်": 1272,
      "ဖၱၤ": 1273,
      "ဗၤ": 1274,
      "မွ": 1275,
      "ယတ": 1276,
      "ယဲ": 1277,
      "ယ့": 1278,
      "ယပၠၤ": 1279,
      "ယဒီၣ်": 1280,
      "ယနံၤခံ": 1281,
      "ရီး": 1282,
      "ရကၱ": 1283,
      "လူၣ်": 1284,
      "သၢ်": 1285,
      "သဓဳ": 1286,
      "သရ့": 1287,
      "ဟူၤ": 1288,
      "အအီၣ်": 1289,
      "အနံၤ": 1290,
      "အသး": 1291,
      "အဖဳး": 1292,
      "အဝၱၤ": 1293,
      "အကဲ": 1294,
      "အခီ": 1295,
      "အမှး": 1296,
      "အလါ": 1297,
      "အသဲာ်": 1298,
      "အလ့ၢ်": 1299,
      "အရှံၣ်": 1300,
      "အကျဲး": 1301,
      "အၡံး": 1302,
      "အခွံ": 1303,
      "အဇီၤ": 1304,
      "အထဲ": 1305,
      "အတါ": 1306,
      "အဘၱာ်စဲာ်": 1307,
      "အယဳၤမၱာ်": 1308,
      "အစူးခီး": 1309,
      "အထံအက့ၤ": 1310,
      "အသရ့": 1311,
      "ဧူး": 1312,
      "၀၀": 1313,
      "၂၆": 1314,
      "၆၆": 1315,
      "ၡီၤ": 1316,
      "တဲၤတ": 1317,
      "တဲၤမဲၤ": 1318,
      "တဲၤလ့ၤ": 1319,
      "တဲၤသး": 1320,
      "တဲၤလ့ၢ်": 1321,
      "တဲၤဆဲ": 1322,
      "တဲၤပဲၢ်": 1323,
      "တဲၤဝှဲး": 1324,
      "တဲၤစိ": 1325,
      "တဲၤဟး": 1326,
      "တဲၤသးအဲးနံၤ": 1327,
      "တဲၤဘဲာ်လီၢ်": 1328,
      "တဲၤသလဲ": 1329,
      "တဲၤန့ၤဘၱစဲာ်": 1330,
      "နဳၤနီး": 1331,
      "ဒဳပွဲၤ": 1332,
      "ဒဳထၱး": 1333,
      "ကၱာ်ဝၤ": 1334,
      "ကၱာ်ကျါ": 1335,
      "ကၱာ်ယက": 1336,
      "ကၱာ်အက": 1337,
      "ကၱာ်တဘဲာ်": 1338,
      "ကဲၤစဲာ်တစီာ်": 1339,
      "ကဲၤသဲသၱာ်အ": 1340,
      "ဘဲာ်ထာ်": 1341,
      "ဘဲာ်နီး": 1342,
      "ဘဲာ်ဒိ": 1343,
      "အီၣ်ဒဳ": 1344,
      "အီၣ်ကဲၤ": 1345,
      "အီၣ်မၤ": 1346,
      "အီၣ်ဒဳအ": 1347,
      "အီၣ်အသရ့": 1348,
      "သံကဲၤ": 1349,
      "သံဘဲာ်": 1350,
      "သံမဲၤတဲၤ": 1351,
      "မၱာ်ကီ": 1352,
      "မၱာ်ဝၱၤ": 1353,
      "မၱာ်ကဘၱာ်စဲာ်": 1354,
      "ဝၤဘဲာ်": 1355,
      "ဝၤမၱာ်": 1356,
      "ဝၤဒဳၣ်": 1357,
      "ဝၤအစာ်ဘိ": 1358,
      "လၤအံာ်": 1359,
      "လၤကီ": 1360,
      "လၤဆါ": 1361,
      "ပၠၤအတဲၤ": 1362,
      "ပၠၤလဳစါစဲး": 1363,
      "ထာ်နံၤ": 1364,
      "ထာ်က့ၤ": 1365,
      "ထာ်ပီၢ်": 1366,
      "ထာ်သီး": 1367,
      "မဲၤလၤ": 1368,
      "မဲၤဝှါ": 1369,
      "မဲၤကဲ": 1370,
      "ပွဲၤဇဳၤ": 1371,
      "ဒီၣ်ရီၢ်": 1372,
      "အံာ်အ": 1373,
      "အံာ်သီ": 1374,
      "အံာ်မၢ်": 1375,
      "အံာ်တပွဲး": 1376,
      "အံာ်ထါအံာ်": 1377,
      "စာ်အံာ်": 1378,
      "စာ်ဒီ": 1379,
      "ပူၤတ": 1380,
      "ပူၤဝ့ၤ": 1381,
      "လ့ၤနဳၤ": 1382,
      "လ့ၤပိာ်": 1383,
      "ဒဳၣ်ချဳ": 1384,
      "သးဒီ": 1385,
      "သးလဳၢ်": 1386,
      "သးပူၤနဳၤ": 1387,
      "သးလၤအံာ်": 1388,
      "ယဳၤတဲၤဟး": 1389,
      "ပီၢ်ဒဳ": 1390,
      "ပျံၤ": 1391,
      "လီၤတဲၤ": 1392,
      "လီၤနီး": 1393,
      "ဒီဆး": 1394,
      "ဒီထိး": 1395,
      "ဘ့နဳၤ": 1396,
      "ဆးနါ": 1397,
      "ကီစတဲၤ": 1398,
      "ကိၣ်": 1399,
      "ကိအပွဲၤ": 1400,
      "ကိထာ်သီး": 1401,
      ".”’": 1402,
      "ကဲပီၢ်": 1403,
      "မူၤနံၤ": 1404,
      "တၤနဲၢ်": 1405,
      "ကၠၤ": 1406,
      "ကၠၱး": 1407,
      "ကဲာ်ထာ်": 1408,
      "ဖၱးဓဳၤ": 1409,
      "ဖၱးတဲၤမဲၤ": 1410,
      "အူးအ": 1411,
      "တၱၢ်အမှး": 1412,
      "လှူၣ်ထာ်အံာ်": 1413,
      "လှူၣ်အတါ": 1414,
      "အူာ်": 1415,
      "အူဆူး": 1416,
      "ယၱၢ်ဘဲာ်ထၱး": 1417,
      "ခဳတနံၤ": 1418,
      "စူးတထွဲး": 1419,
      "ခီးသးဒီ": 1420,
      "ခီၣ်ဝဲၤ": 1421,
      "ယူဒၤ": 1422,
      "ပျာ်တပျာ်": 1423,
      "သဳနံၤ": 1424,
      "ယၤနဳၤ": 1425,
      "သါသိး": 1426,
      "ဒ့ဒီၣ်ရီၢ်": 1427,
      "ဖျီးမံ": 1428,
      "ထိးအံာ်မၢ်": 1429,
      "ပၢ်ဖျီးမံ": 1430,
      "ဓူၤလါ": 1431,
      "ထါထာ်အံာ်": 1432,
      "သူကူာ်": 1433,
      "ကြၢ်": 1434,
      "ကြဳၤ": 1435,
      "ကြီၢ်": 1436,
      "ဟိရကၱ": 1437,
      ",’”": 1438,
      "မၱတမၱာ်": 1439,
      "ဖြဲ": 1440,
      "ဖြူၤ": 1441,
      "ကီၢ်အံာ်ထါအံာ်": 1442,
      "အံၣ်စရ့": 1443,
      "ဟူာ်": 1444,
      "ကွံ": 1445,
      "ကွဲး": 1446,
      "တြိ": 1447,
      "တြီး": 1448,
      "တြူး": 1449,
      "တစီာ်မီၤ": 1450,
      "တစီာ်ကဘဲာ်": 1451,
      "စၱးသဳ": 1452,
      "စၱးပိး": 1453,
      "ကျၱးလၤဆါ": 1454,
      "ပြၤ": 1455,
      "ဘၱာ်စဲာ်အတဲၤ": 1456,
      "ဘၱာ်စဲာ်ဒီၣ်ဓဳၤ": 1457,
      "ဟံအထဲ": 1458,
      "ရူာ်": 1459,
      "ကဘၱာ်စဲာ်အတဲၤ": 1460,
      "တဲၤအယဳၤ": 1461,
      "တဲၤအယဳၤမၱာ်": 1462,
      "ခရၱာ်မၱာ်": 1463,
      "ခရၱာ်အပူၤ": 1464,
      "အစာ်ဘိသံမဲၤ": 1465,
      "စဲာ်တစီာ်က": 1466,
      "တပွဲၤနဳၤ": 1467,
      "ဒြၤ": 1468,
      "ဒဳတဲၤကိ": 1469,
      "ပၠၤအလဝ့ၤ": 1470,
      "ယကယၱၢ်ဘဲာ်ထၱး": 1471,
      "မီၢ်ခဳးပွဲၤဇဳၤ": 1472,
      "ထဲၢ်အမဲၤတဲၤ": 1473,
      "ခြၱး": 1474,
      "ထြံး": 1475,
      "ထြိး": 1476,
      "တဘဲာ်ထ့": 1477,
      "တခီနဳၤ": 1478,
      "ဖွ့း": 1479,
      "အကျဲနဳၤ": 1480,
      "စံးရးဖးမ့ၤ": 1481,
      "သဲသၱာ်အသဲ": 1482,
      "သဲသၱာ်အအူဆူး": 1483,
      "သံမၱာ်ပၠၤအ": 1484,
      "ကမဳၤထာ်နံၤ": 1485,
      "ပီၢ်သံန့ၤ": 1486,
      "စာ်ဘိထဲၢ်သံက": 1487,
      "တဓဲအဒီၣ်": 1488,
      "အမံၤအပူၤ": 1489,
      "အလံၤလၤ": 1490,
      "ဒဳမီၢ်ခဳးလဲၢ်": 1491,
      "ကဟဲးထာ်": 1492,
      "စဒီၣ်ကဲၤ": 1493,
      "အကူဓူၤလါ": 1494,
      "ယ့ၣ်ရှူးခရၱာ်အပူၤ": 1495,
      "ကၠံၢ်ပွဲၤမၱာ်": 1496,
      "ထိဓဳၤလၤ": 1497,
      "ဆွဲး": 1498,
      "ပရၤဆါ": 1499,
      "မွ့ၤ": 1500,
      "အခီနဳၤ": 1501,
      "၂၆၀": 1502,
      "တဲၤစိတဲၤသလဲ": 1503,
      "တဲၤန့ၤဘၱစဲာ်အသဲ": 1504,
      "ဒဳပွဲၤသူကူာ်": 1505,
      "ကၱာ်ကျါမဲ": 1506,
      "အီၣ်အသရ့နဳၤ": 1507,
      "အံာ်သီအံာ်": 1508,
      "စာ်ဒီကိာ်": 1509,
      "လ့ၤပိာ်ဒဳထၱး": 1510,
      "ခဳတနံၤယဳၤ": 1511,
      "စူးတထွဲးတခီနဳၤ": 1512,
      "ပျာ်တပျာ်ဖၱထာ်": 1513,
      "ဒ့ဒီၣ်ရီၢ်ခဲး": 1514,
      "ထိးအံာ်မၢ်အံာ်": 1515,
      "မၱတမၱာ်နီး": 1516,
      "အံၣ်စရ့လး": 1517,
      "စၱးပိးစၱးသဳ": 1518,
      "ယကယၱၢ်ဘဲာ်ထၱးမၤ": 1519
    },
    "merges": [
      [
        "ာ",
        "်"
      ],
      [
        "ဲ",
        "ၤ"
      ],
      [
        "ၢ",
        "်"
      ],
      [
        "ၣ",
        "်"
      ],
      [
        "ဳ",
        "ၤ"
      ],
      [
        "ၱ",
        "ာ်"
      ],
      [
        "ဲ",
        "ာ်"
      ],
      [
        "တ",
        "ဲၤ"
      ],
      [
        "ီ",
        "ၣ်"
      ],
      [
        "န",
        "ဳၤ"
      ],
      [
        "ဒ",
        "ဳ"
      ],
      [
        "့",
        "ၤ"
      ],
      [
        "စ",
        "ီ"
      ],
      [
        "က",
        "ၱာ်"
      ],
      [
        "ဲ",
        "း"
      ],
      [
        "ဳ",
        "း"
      ],
      [
        "ဲ",
        "ၢ်"
      ],
      [
        "စီ",
        "ာ်"
      ],
      [
        "စ",
        "ဲာ်"
      ],
      [
        "ီ",
        "း"
      ],
      [
        "ပ",
        "ွ"
      ],
      [
        "က",
        "ဲၤ"
      ],
      [
        "ံ",
        "ၤ"
      ],
      [
        "ဘ",
        "ဲာ်"
      ],
      [
        "အ",
        "ီၣ်"
      ],
      [
        "သ",
        "ံ"
      ],
      [
        "ူ",
        "ၤ"
      ],
      [
        "မ",
        "ၱာ်"
      ],
      [
        "ီ",
        "ၤ"
      ],
      [
        "ဝ",
        "ၤ"
      ],
      [
        "ီ",
        "ၢ်"
      ],
      [
        "ူ",
        "း"
      ],
      [
        "လ",
        "ၤ"
      ],
      [
        "ပ",
        "ၠ"
      ],
      [
        "ပၠ",
        "ၤ"
      ],
      [
        "ထ",
        "ာ်"
      ],
      [
        "မ",
        "ဲၤ"
      ],
      [
        "ပွ",
        "ဲၤ"
      ],
      [
        "ံ",
        "ာ်"
      ],
      [
        "ဒ",
        "ီၣ်"
      ],
      [
        "န",
        "ံၤ"
      ],
      [
        "န",
        "ီး"
      ],
      [
        "အ",
        "ံာ်"
      ],
      [
        "ၱ",
        "း"
      ],
      [
        "စ",
        "ာ်"
      ],
      [
        "ပ",
        "ူၤ"
      ],
      [
        "လ",
        "့ၤ"
      ],
      [
        "ဒဳ",
        "ၣ်"
      ],
      [
        "လ",
        "ှ"
      ],
      [
        "ထ",
        "ဲၢ်"
      ],
      [
        "ခ",
        "ဳး"
      ],
      [
        "သ",
        "း"
      ],
      [
        "ဘ",
        "ၱာ်"
      ],
      [
        "ဖ",
        "ဳး"
      ],
      [
        "လ",
        "ၢ်"
      ],
      [
        "ဓ",
        "ဳၤ"
      ],
      [
        "ယ",
        "ဳၤ"
      ],
      [
        "က",
        "့ၤ"
      ],
      [
        "ရ",
        "ှ"
      ],
      [
        "ပ",
        "ီၢ်"
      ],
      [
        "ပ",
        "ျ"
      ],
      [
        "လ",
        "ီၤ"
      ],
      [
        "ဒ",
        "ီ"
      ],
      [
        "“",
        "​"
      ],
      [
        "မ",
        "ှ"
      ],
      [
        "က",
        "ျ"
      ],
      [
        "စီ",
        "ၤ"
      ],
      [
        "ဝ",
        "ှ"
      ],
      [
        "့",
        "း"
      ],
      [
        "ဘ",
        "ိ"
      ],
      [
        "ူ",
        "ၣ်"
      ],
      [
        "ၱ",
        "ၢ်"
      ],
      [
        "့",
        "ၣ်"
      ],
      [
        "မ",
        "ၤ"
      ],
      [
        "ဘ",
        "့"
      ],
      [
        "ံ",
        "း"
      ],
      [
        "ထ",
        "ၱး"
      ],
      [
        "ိ",
        "း"
      ],
      [
        "ဆ",
        "း"
      ],
      [
        "ယ",
        "့ၣ်"
      ],
      [
        "ရှ",
        "ူး"
      ],
      [
        "န",
        "ှ"
      ],
      [
        "က",
        "ီ"
      ],
      [
        "က",
        "ိ"
      ],
      [
        "ၱ",
        "ၤ"
      ],
      [
        "န",
        "ဲၢ်"
      ],
      [
        "စ",
        "ါ"
      ],
      [
        "ဳ",
        "ာ်"
      ],
      [
        "ထ",
        "ံ"
      ],
      [
        "သ",
        "ၱာ်"
      ],
      [
        "ံ",
        "ၢ်"
      ],
      [
        "ပွ",
        "ဲး"
      ],
      [
        "ဟ",
        "ဲ"
      ],
      [
        "သ",
        "ဲ"
      ],
      [
        "ိ",
        "ၤ"
      ],
      [
        "လ",
        "ဳ"
      ],
      [
        "ဝှ",
        "ါ"
      ],
      [
        "ဝ",
        "့ၤ"
      ],
      [
        "န",
        "့ၤ"
      ],
      [
        "စ",
        "ဲ"
      ],
      [
        "အ",
        "ဲး"
      ],
      [
        ".",
        "”"
      ],
      [
        "ခ",
        "ံ"
      ],
      [
        "က",
        "ါ"
      ],
      [
        "ယ",
        "ဲၤ"
      ],
      [
        "မ",
        "ီၢ်"
      ],
      [
        "ဝ",
        "ၱၤ"
      ],
      [
        "မ",
        "ံၤ"
      ],
      [
        "့",
        "ၢ်"
      ],
      [
        "မ",
        "ဳၤ"
      ],
      [
        "က",
        "ဲ"
      ],
      [
        "ဒ",
        "ဲ"
      ],
      [
        "ကိ",
        "ာ်"
      ],
      [
        "ဘ",
        "ူၣ်"
      ],
      [
        "ဆ",
        "ါ"
      ],
      [
        "ခ",
        "ီ"
      ],
      [
        "ရ",
        "ၤ"
      ],
      [
        "ံ",
        "ၣ်"
      ],
      [
        "အ",
        "ၣ်"
      ],
      [
        "မ",
        "ူၤ"
      ],
      [
        "ရ",
        "ၱာ်"
      ],
      [
        "တ",
        "ၤ"
      ],
      [
        "ခ",
        "း"
      ],
      [
        "ပျ",
        "ဳာ်"
      ],
      [
        "က",
        "ၠ"
      ],
      [
        "မ",
        "ီၤ"
      ],
      [
        "ကျ",
        "ဲ"
      ],
      [
        "က",
        "ဲာ်"
      ],
      [
        "ထ",
        "ဳ"
      ],
      [
        "ဖ",
        "ၱး"
      ],
      [
        "အ",
        "ူး"
      ],
      [
        "ဟ",
        "ဲး"
      ],
      [
        "ဇ",
        "ၤ"
      ],
      [
        "ပ",
        "ာ်"
      ],
      [
        "တ",
        "ၱၢ်"
      ],
      [
        "မှ",
        "း"
      ],
      [
        "န",
        "ဲၤ"
      ],
      [
        "မ",
        "ဲး"
      ],
      [
        "လှ",
        "ူၣ်"
      ],
      [
        "ခ",
        "ျ"
      ],
      [
        "ဖ",
        "ျ"
      ],
      [
        "ဆ",
        "ီး"
      ],
      [
        "လ",
        "ဲၢ်"
      ],
      [
        "အ",
        "ူ"
      ],
      [
        "မ",
        "ိ"
      ],
      [
        "စ",
        "ဲး"
      ],
      [
        "န",
        "ူၤ"
      ],
      [
        "လ",
        "ါ"
      ],
      [
        "ဘ",
        "း"
      ],
      [
        "လှ",
        "ီ"
      ],
      [
        "ယ",
        "ၱၢ်"
      ],
      [
        "ဧ",
        "ါ"
      ],
      [
        "ဘ",
        "ဲ"
      ],
      [
        "ခ",
        "ဳ"
      ],
      [
        "လ",
        "ီၢ်"
      ],
      [
        "န",
        "ံၢ်"
      ],
      [
        "ဒ",
        "ၤ"
      ],
      [
        "သ",
        "ီ"
      ],
      [
        "မ",
        "ံ"
      ],
      [
        "ပ",
        "ဳၤ"
      ],
      [
        ",",
        "”"
      ],
      [
        "ထ",
        "ဳး"
      ],
      [
        "စ",
        "ူး"
      ],
      [
        "လှ",
        "ိ"
      ],
      [
        "ဘ",
        "ါ"
      ],
      [
        "ခ",
        "ီး"
      ],
      [
        "ခ",
        "ွ"
      ],
      [
        "လဳ",
        "ၢ်"
      ],
      [
        "တ",
        "ီၤ"
      ],
      [
        "ခ",
        "ီၣ်"
      ],
      [
        "ယ",
        "ူ"
      ],
      [
        "သ",
        "ဲာ်"
      ],
      [
        "ဝ",
        "ဲၤ"
      ],
      [
        "ဝ",
        "ဲၢ်"
      ],
      [
        "ပ",
        "့ၤ"
      ],
      [
        "ြ",
        "း"
      ],
      [
        "မှ",
        "ဲး"
      ],
      [
        "ပျ",
        "ဲၢ်"
      ],
      [
        "လ",
        "့ၢ်"
      ],
      [
        "ဓ",
        "ူ"
      ],
      [
        "ရှ",
        "ံၣ်"
      ],
      [
        "နှ",
        "ဲး"
      ],
      [
        "က",
        "ၱ"
      ],
      [
        "နှ",
        "း"
      ],
      [
        "အ",
        "ီ"
      ],
      [
        "ပျ",
        "ာ်"
      ],
      [
        "ဆ",
        "ဲး"
      ],
      [
        "ဘ",
        "ီၣ်"
      ],
      [
        "ကျ",
        "ဲး"
      ],
      [
        "ၡ",
        "ံး"
      ],
      [
        "ရ",
        "း"
      ],
      [
        "ဇ",
        "ဳၤ"
      ],
      [
        "သ",
        "ဳ"
      ],
      [
        "ပ",
        "ၤ"
      ],
      [
        "လှ",
        "ဲး"
      ],
      [
        "ကၠ",
        "ံၢ်"
      ],
      [
        "အ",
        "ဲ"
      ],
      [
        "ခ",
        "ၠ"
      ],
      [
        "သ",
        "ဳး"
      ],
      [
        "ဆ",
        "ဲ"
      ],
      [
        "ဆ",
        "ီ"
      ],
      [
        "ကျ",
        "ဳၤ"
      ],
      [
        "စ",
        "ံး"
      ],
      [
        "လ",
        "ၱၢ်"
      ],
      [
        "‘",
        "​"
      ],
      [
        "ၡ",
        "ံ"
      ],
      [
        "ချ",
        "ဳ"
      ],
      [
        "ခၠ",
        "ၱး"
      ],
      [
        "ကၠ",
        "း"
      ],
      [
        "ယ",
        "ၤ"
      ],
      [
        "တ",
        "ဲၢ်"
      ],
      [
        "ပ",
        "ီၤ"
      ],
      [
        "ဇ",
        "ိၤ"
      ],
      [
        "လ",
        "ံၤ"
      ],
      [
        "ဧ",
        "ဲၤ"
      ],
      [
        "ဆ",
        "ူး"
      ],
      [
        "ဘ",
        "ီ"
      ],
      [
        "ထ",
        "ဲး"
      ],
      [
        "ပ",
        "့"
      ],
      [
        "ခ",
        "ၣ်"
      ],
      [
        "မှ",
        "ူး"
      ],
      [
        "ဝှ",
        "့း"
      ],
      [
        "ဆ",
        "ိး"
      ],
      [
        "ဖ",
        "ၱ"
      ],
      [
        "ခ",
        "ဲ"
      ],
      [
        "လှ",
        "ၱ"
      ],
      [
        "ထ",
        "ိ"
      ],
      [
        "သ",
        "ါ"
      ],
      [
        "လ",
        "ဲ"
      ],
      [
        "ခ",
        "့"
      ],
      [
        "ပ",
        "ဲၢ်"
      ],
      [
        "န",
        "့း"
      ],
      [
        "ခွ",
        "ံ"
      ],
      [
        "လ",
        "ဳၤ"
      ],
      [
        "နှ",
        "ီ"
      ],
      [
        "သ",
        "ဳာ်"
      ],
      [
        "ဒ",
        "့"
      ],
      [
        "လ",
        "ူး"
      ],
      [
        "သ",
        "ိ"
      ],
      [
        "ဖျ",
        "ီး"
      ],
      [
        "တ",
        "့ၢ်"
      ],
      [
        "လ",
        "း"
      ],
      [
        "ူ",
        "ၢ်"
      ],
      [
        "ဟ",
        "ၣ်"
      ],
      [
        "အ",
        "ါ"
      ],
      [
        "ဝ",
        "ံ"
      ],
      [
        "ရှ",
        "ံ"
      ],
      [
        "လ",
        "ံ"
      ],
      [
        "က",
        "ူ"
      ],
      [
        "ဓ",
        "ဳ"
      ],
      [
        "အ",
        "ဳ"
      ],
      [
        "ထ",
        "ိး"
      ],
      [
        "ယ",
        "ိၤ"
      ],
      [
        "ဘ",
        "ၱ"
      ],
      [
        "ရ",
        "့"
      ],
      [
        "အ",
        "ီး"
      ],
      [
        "န",
        "ီၣ်"
      ],
      [
        "ပ",
        "ီ"
      ],
      [
        "က",
        "ဳာ်"
      ],
      [
        "န",
        "ၢ်"
      ],
      [
        "ဇ",
        "ီၤ"
      ],
      [
        "ရ",
        "ူး"
      ],
      [
        "ဒဳ",
        "း"
      ],
      [
        "ပ",
        "ံၤ"
      ],
      [
        "လှ",
        "ဲ"
      ],
      [
        "သ",
        "ိး"
      ],
      [
        "လ",
        "ိၤ"
      ],
      [
        "ဓ",
        "ဲ"
      ],
      [
        "န",
        "ါ"
      ],
      [
        "ပ",
        "့း"
      ],
      [
        "ဖ",
        "ြး"
      ],
      [
        "သ",
        "့း"
      ],
      [
        "ပ",
        "ၢ်"
      ],
      [
        "ဝ",
        "ၢ်"
      ],
      [
        "အ",
        "ၤ"
      ],
      [
        "ဓ",
        "ူၤ"
      ],
      [
        "မ",
        "ဲာ်"
      ],
      [
        "လ",
        "ဲၤ"
      ],
      [
        "ပွ",
        "့ၤ"
      ],
      [
        "မ",
        "ဲ"
      ],
      [
        "ပျ",
        "ဲး"
      ],
      [
        "လှ",
        "့"
      ],
      [
        "ဖ",
        "း"
      ],
      [
        "ဟ",
        "ီး"
      ],
      [
        "က",
        "ၢ်"
      ],
      [
        "ထ",
        "ါ"
      ],
      [
        "သ",
        "ၱး"
      ],
      [
        "ွ",
        "ဲ"
      ],
      [
        "ည",
        "ဲ"
      ],
      [
        "ိ",
        "ာ်"
      ],
      [
        "လ",
        "ူၤ"
      ],
      [
        "ိ",
        "ၢ်"
      ],
      [
        "ထ",
        "ူ"
      ],
      [
        "ပွ",
        "့"
      ],
      [
        "စ",
        "ူ"
      ],
      [
        "လ",
        "့ၣ်"
      ],
      [
        "ဟ",
        "ိး"
      ],
      [
        "ထ",
        "ဲ"
      ],
      [
        "ဗ",
        "ွဲ"
      ],
      [
        "တ",
        "ါ"
      ],
      [
        "ယ",
        "ၢ်"
      ],
      [
        "ပ",
        "ြး"
      ],
      [
        "ွ",
        "ံၢ်"
      ],
      [
        "နှ",
        "ၱ"
      ],
      [
        "အ",
        "ိး"
      ],
      [
        "စ",
        "ွ"
      ],
      [
        "ဓ",
        "ၢ်"
      ],
      [
        "ဘ",
        "ံာ်"
      ],
      [
        "ရ",
        "ူၤ"
      ],
      [
        "ဒ",
        "ါ"
      ],
      [
        "မှ",
        "ၱး"
      ],
      [
        "ပျ",
        "ဳၤ"
      ],
      [
        "ဘီ",
        "ာ်"
      ],
      [
        "ဖ",
        "ါ"
      ],
      [
        "ယ",
        "ါ"
      ],
      [
        "သ",
        "ူ"
      ],
      [
        "ဟ",
        "ူၣ်"
      ],
      [
        "သိ",
        "ၣ်"
      ],
      [
        "န",
        "ီၢ်"
      ],
      [
        "ပွ",
        "ဲ"
      ],
      [
        "ဘိ",
        "း"
      ],
      [
        "ဖ",
        "ၤ"
      ],
      [
        "အ",
        "ဳး"
      ],
      [
        ".",
        "’"
      ],
      [
        "ဝှ",
        "ဲး"
      ],
      [
        "မ",
        "့ၤ"
      ],
      [
        "ရ",
        "ံၤ"
      ],
      [
        "က",
        "ြ"
      ],
      [
        "စ",
        "ိ"
      ],
      [
        "ရှ",
        "ံး"
      ],
      [
        "သ",
        "ွ"
      ],
      [
        "ဟ",
        "ိ"
      ],
      [
        "ဘ့",
        "ာ်"
      ],
      [
        "ဓူ",
        "ၢ်"
      ],
      [
        "ဖ",
        "့း"
      ],
      [
        "လ",
        "ဲာ်"
      ],
      [
        "ဟ",
        "ဳ"
      ],
      [
        "ဳ",
        "ၢ်"
      ],
      [
        "မှ",
        "့း"
      ],
      [
        "ဒ",
        "ဲး"
      ],
      [
        "ခ",
        "ံး"
      ],
      [
        "ရ",
        "ၱ"
      ],
      [
        "လှ",
        "ီး"
      ],
      [
        "မိ",
        "ၢ်"
      ],
      [
        "န",
        "ၤ"
      ],
      [
        "မ",
        "ဲၢ်"
      ],
      [
        "ဟ",
        "ၱး"
      ],
      [
        "လ",
        "ွံၢ်"
      ],
      [
        "ဖျ",
        "ီ"
      ],
      [
        "ယ",
        "ီၤ"
      ],
      [
        "ယ",
        "ၱၤ"
      ],
      [
        "ရ",
        "ၣ်"
      ],
      [
        "ဟ",
        "း"
      ],
      [
        "ဝှ",
        "ိ"
      ],
      [
        ",",
        "’"
      ],
      [
        "မှ",
        "ါ"
      ],
      [
        "ၡ",
        "ံၣ်"
      ],
      [
        "ပျ",
        "ါ"
      ],
      [
        "က",
        "ၤ"
      ],
      [
        "ရ",
        "ိၤ"
      ],
      [
        "ပွ",
        "ၱၤ"
      ],
      [
        "တ",
        "ံၤ"
      ],
      [
        "ယ",
        "ိ"
      ],
      [
        "စီ",
        "း"
      ],
      [
        "စ",
        "ဳး"
      ],
      [
        "ကျ",
        "ံ"
      ],
      [
        "မ",
        "ၱ"
      ],
      [
        "မ",
        "ူၢ်"
      ],
      [
        "နှ",
        "ူ"
      ],
      [
        "ပ",
        "း"
      ],
      [
        "မ",
        "ၢ်"
      ],
      [
        "ဓ",
        "့ၢ်"
      ],
      [
        "ဖ",
        "ြ"
      ],
      [
        "ယ",
        "း"
      ],
      [
        "ပ",
        "ဲာ်"
      ],
      [
        "သ",
        "ီၣ်"
      ],
      [
        "သ",
        "ီး"
      ],
      [
        "သွ",
        "ံၣ်"
      ],
      [
        "မ",
        "့"
      ],
      [
        "မ",
        "ိၤ"
      ],
      [
        "ကူ",
        "ာ်"
      ],
      [
        "ဇ",
        "ၱၢ်"
      ],
      [
        "ထ",
        "ီး"
      ],
      [
        "ထ",
        "ူး"
      ],
      [
        "မ",
        "ါ"
      ],
      [
        "မှ",
        "ဲ"
      ],
      [
        "ဘ",
        "ြ"
      ],
      [
        "ကျ",
        "ဲၢ်"
      ],
      [
        "က",
        "ီၢ်"
      ],
      [
        "ခ",
        "ူ"
      ],
      [
        "တ",
        "း"
      ],
      [
        "ဒ့",
        "ာ်"
      ],
      [
        "ထ",
        "း"
      ],
      [
        "ပ",
        "ဲၤ"
      ],
      [
        "ပ",
        "ူး"
      ],
      [
        "အ",
        "ံၣ်"
      ],
      [
        "ဝှ",
        "ိး"
      ],
      [
        "ယ",
        "ံၢ်"
      ],
      [
        "စ",
        "ၤ"
      ],
      [
        "ဇ",
        "့ၤ"
      ],
      [
        "လ",
        "ီ"
      ],
      [
        "နှ",
        "ါ"
      ],
      [
        "ထ",
        "့"
      ],
      [
        "ဖ",
        "ံ"
      ],
      [
        "ၡ",
        "့"
      ],
      [
        "ဓ",
        "ီၤ"
      ],
      [
        "ကျ",
        "ၤ"
      ],
      [
        "ပ",
        "ီး"
      ],
      [
        "န",
        "ံ"
      ],
      [
        "ဓ",
        "့"
      ],
      [
        "ယ",
        "ဲၢ်"
      ],
      [
        "ဆ",
        "ဳ"
      ],
      [
        "ပ",
        "ိာ်"
      ],
      [
        "ပွ",
        "့း"
      ],
      [
        "မှ",
        "ီး"
      ],
      [
        "မိ",
        "ၣ်"
      ],
      [
        "တ",
        "ိၤ"
      ],
      [
        "လ",
        "ိး"
      ],
      [
        "ဝှ",
        "့"
      ],
      [
        "ဘြ",
        "ၤ"
      ],
      [
        "စ",
        "ဳ"
      ],
      [
        "ဘ",
        "ဳာ်"
      ],
      [
        "ဟ",
        "ူ"
      ],
      [
        "ဧ",
        "ဳၤ"
      ],
      [
        "လ",
        "ံၢ်"
      ],
      [
        "ခွ",
        "ဲး"
      ],
      [
        "ဖ",
        "ူ"
      ],
      [
        "လ",
        "ၱး"
      ],
      [
        "သ",
        "ဲး"
      ],
      [
        "ပျ",
        "ၤ"
      ],
      [
        "က",
        "ဳ"
      ],
      [
        "တ",
        "ူး"
      ],
      [
        "က",
        "ွ"
      ],
      [
        "ၡ",
        "ဲ"
      ],
      [
        "သ",
        "့"
      ],
      [
        "မှ",
        "ူ"
      ],
      [
        "ထ",
        "ွ"
      ],
      [
        "ဘ",
        "ၤ"
      ],
      [
        "စ",
        "ံ"
      ],
      [
        "က",
        "ဳၤ"
      ],
      [
        "က",
        "ဲၢ်"
      ],
      [
        "တ",
        "ြ"
      ],
      [
        "တ",
        "စီာ်"
      ],
      [
        "အ",
        "့း"
      ],
      [
        "စ",
        "ၱး"
      ],
      [
        "ဆ",
        "့း"
      ],
      [
        "ဒ",
        "ၱာ်"
      ],
      [
        "ဝ",
        "ံာ်"
      ],
      [
        "ွ",
        "ှ"
      ],
      [
        "(",
        "​"
      ],
      [
        "ခ",
        "ါ"
      ],
      [
        "န",
        "ီၤ"
      ],
      [
        "ဘ",
        "ျ"
      ],
      [
        "က",
        "ူၤ"
      ],
      [
        "န",
        "ၣ်"
      ],
      [
        "ပ",
        "့ၢ်"
      ],
      [
        "မ",
        "ဳ"
      ],
      [
        "ဘျ",
        "ီၣ်"
      ],
      [
        "ဖျ",
        "ူ"
      ],
      [
        "ဖ",
        "ီ"
      ],
      [
        "ၡ",
        "ံာ်"
      ],
      [
        "စွ",
        "ဲး"
      ],
      [
        "ဝ",
        "ံး"
      ],
      [
        "စွ",
        "ံး"
      ],
      [
        "ဘ",
        "ူ"
      ],
      [
        "ကျ",
        "ၱး"
      ],
      [
        "မ",
        "့ၢ်"
      ],
      [
        "ရ",
        "ိ"
      ],
      [
        "ရ",
        "ွှ"
      ],
      [
        "ရွှ",
        "ံး"
      ],
      [
        "ခ",
        "ဲး"
      ],
      [
        "ပ",
        "ြ"
      ],
      [
        "ရ",
        "့း"
      ],
      [
        "ဒ",
        "း"
      ],
      [
        "ဗ",
        "့"
      ],
      [
        "ရ့",
        "ာ်"
      ],
      [
        "ဆ",
        "ိ"
      ],
      [
        "ဗ",
        "ဳၤ"
      ],
      [
        "အ",
        "ံၤ"
      ],
      [
        "ချ",
        "ံ"
      ],
      [
        "ချ",
        "ဳး"
      ],
      [
        "ရ",
        "ါ"
      ],
      [
        "ဇ",
        "ွ"
      ],
      [
        "မှ",
        "ိ"
      ],
      [
        "ခ",
        "ူး"
      ],
      [
        "လ",
        "ူၢ်"
      ],
      [
        "တ",
        "့ၤ"
      ],
      [
        "တ",
        "ီး"
      ],
      [
        "ရ",
        "ိာ်"
      ],
      [
        "ဝ",
        "ံၢ်"
      ],
      [
        "ပျ",
        "ီၤ"
      ],
      [
        "ခွ",
        "ဲ"
      ],
      [
        "ထွ",
        "ဲး"
      ],
      [
        "မ",
        "ီ"
      ],
      [
        "ဟ",
        "့ၤ"
      ],
      [
        "က",
        "း"
      ],
      [
        "ပ",
        "ိၢ်"
      ],
      [
        "လ",
        "ံး"
      ],
      [
        "ၡ",
        "ဳ"
      ],
      [
        "ပျ",
        "ဲာ်"
      ],
      [
        "ရှ",
        "ဲ"
      ],
      [
        "ကျ",
        "း"
      ],
      [
        "ိ",
        "ၣ်"
      ],
      [
        "စ",
        "့း"
      ],
      [
        "ထ",
        "ူၣ်"
      ],
      [
        "ရ",
        "ံ"
      ],
      [
        "ဝ",
        "ူၤ"
      ],
      [
        "ဟ",
        "ီ"
      ],
      [
        "ဘၱာ်",
        "စဲာ်"
      ],
      [
        "ချ",
        "ဲး"
      ],
      [
        "ရၱ",
        "ၣ်"
      ],
      [
        "ဆ",
        "ဳး"
      ],
      [
        "ဓ",
        "ီ"
      ],
      [
        "ပ",
        "ဳၢ်"
      ],
      [
        "က",
        "ံ"
      ],
      [
        "ပျ",
        "ၱၤ"
      ],
      [
        "ဖျ",
        "း"
      ],
      [
        "ဇွ",
        "ၱၢ်"
      ],
      [
        "ည",
        "ါ"
      ],
      [
        "ယ",
        "ီၢ်"
      ],
      [
        "ဝ",
        "ၱၢ်"
      ],
      [
        "ဒ",
        "ူၣ်"
      ],
      [
        "ဘ",
        "့ၤ"
      ],
      [
        "အ",
        "့ၤ"
      ],
      [
        "ကျ",
        "ါ"
      ],
      [
        "ဇ",
        "ၢ်"
      ],
      [
        "ဘ",
        "့း"
      ],
      [
        "လ",
        "ူ"
      ],
      [
        "ဆဲ",
        "ၣ်"
      ],
      [
        "ပ",
        "ံ"
      ],
      [
        "ဖ",
        "ူး"
      ],
      [
        "ဘ",
        "ံ"
      ],
      [
        "သ",
        "ူး"
      ],
      [
        "တ",
        "ၱ"
      ],
      [
        "ဒ",
        "ိး"
      ],
      [
        "ဇ",
        "ိၢ်"
      ],
      [
        "ဝ",
        "ံၤ"
      ],
      [
        "က",
        "ီၤ"
      ],
      [
        "စ",
        "း"
      ],
      [
        "ဖ",
        "ီး"
      ],
      [
        "ဗ",
        "ူ"
      ],
      [
        "ရ",
        "ၢ်"
      ],
      [
        "လ",
        "ီး"
      ],
      [
        ".",
        ")"
      ],
      [
        "မ",
        "း"
      ],
      [
        "ဧ",
        "ိၢ်"
      ],
      [
        "ကျ",
        "ၢ်"
      ],
      [
        "ချ",
        "ံး"
      ],
      [
        "ပ",
        "ၱး"
      ],
      [
        "ဝ",
        "ဳၤ"
      ],
      [
        "ပျ",
        "ၱ"
      ],
      [
        "ဖျ",
        "ဳး"
      ],
      [
        "ဘ",
        "ၢ်"
      ],
      [
        "ဒ",
        "ွ"
      ],
      [
        "မ",
        "ံး"
      ],
      [
        "ဘိ",
        "ာ်"
      ],
      [
        "ကြ",
        "ံး"
      ],
      [
        "ဒွ",
        "ါ"
      ],
      [
        "ခ",
        "ၱ"
      ],
      [
        "တ",
        "ံ"
      ],
      [
        "ရ",
        "ာ်"
      ],
      [
        "လ",
        "ၱၤ"
      ],
      [
        "ဝ",
        "ဳၢ်"
      ],
      [
        "က",
        "ီး"
      ],
      [
        "ဒ",
        "ာ်"
      ],
      [
        "လ",
        "ၣ်"
      ],
      [
        "အ",
        "့"
      ],
      [
        "အ",
        "ၱး"
      ],
      [
        "လှ",
        "့း"
      ],
      [
        "ယ",
        "ံး"
      ],
      [
        "ွ",
        "ဲၤ"
      ],
      [
        "လှ",
        "ိး"
      ],
      [
        "တ",
        "ီၢ်"
      ],
      [
        "န",
        "ၱၢ်"
      ],
      [
        "ဟ",
        "ံ"
      ],
      [
        "ဆ",
        "့"
      ],
      [
        "ဇ",
        "ဲၤ"
      ],
      [
        "လ",
        "ဲး"
      ],
      [
        "ဧ",
        "ီၢ်"
      ],
      [
        "ဖြ",
        "ီး"
      ],
      [
        "တြ",
        "ီၤ"
      ],
      [
        "ဖ",
        "ဲ"
      ],
      [
        "ရ",
        "ူ"
      ],
      [
        "ဝ",
        "ူၢ်"
      ],
      [
        "ရှ",
        "ဳ"
      ],
      [
        "ယူ",
        "ၢ်"
      ],
      [
        "ဖြ",
        "ူး"
      ],
      [
        "ခ",
        "်"
      ],
      [
        "န",
        "ၱၤ"
      ],
      [
        "ပ",
        "ိး"
      ],
      [
        "ရ",
        "့ၤ"
      ],
      [
        "လ",
        "ၱ"
      ],
      [
        "ကွ",
        "ၢ်"
      ],
      [
        "က",
        "ူး"
      ],
      [
        "မ",
        "ူး"
      ],
      [
        "လှ",
        "ဲာ်"
      ],
      [
        "ကြံး",
        "ခ်"
      ],
      [
        "က",
        "ဘၱာ်စဲာ်"
      ],
      [
        "ဒ",
        "ံ"
      ],
      [
        "န",
        "့"
      ],
      [
        "ပျ",
        "ိၤ"
      ],
      [
        "ကျ",
        "့ၤ"
      ],
      [
        "က",
        "ဲး"
      ],
      [
        "ဒ",
        "ၱ"
      ],
      [
        "ဒ",
        "့း"
      ],
      [
        "ဓ",
        "ံ"
      ],
      [
        "ပ",
        "ံး"
      ],
      [
        "ဖ",
        "့"
      ],
      [
        "ဖ",
        "ၠ"
      ],
      [
        "ရ",
        "ဳ"
      ],
      [
        "တဲၤ",
        "အ"
      ],
      [
        "ကိ",
        "ၢ်"
      ],
      [
        "ဖၠ",
        "း"
      ],
      [
        "ထ",
        "ီ"
      ],
      [
        "မ",
        "့ၣ်"
      ],
      [
        "ယ",
        "ွဲၤ"
      ],
      [
        "အ",
        "း"
      ],
      [
        "ကျ",
        "့း"
      ],
      [
        "က",
        "ဳး"
      ],
      [
        "က",
        "့း"
      ],
      [
        "ခ",
        "ူၣ်"
      ],
      [
        "ရ",
        "ီၤ"
      ],
      [
        "အ",
        "ိ"
      ],
      [
        "စာ်",
        "ဘိ"
      ],
      [
        "လှ",
        "ါ"
      ],
      [
        "ရှ",
        "ူ"
      ],
      [
        "ရှ",
        "ံာ်"
      ],
      [
        "ဂ",
        "ီၤ"
      ],
      [
        "ဖ",
        "ီၣ်"
      ],
      [
        "ဗ",
        "ြ"
      ],
      [
        "လ",
        "့း"
      ],
      [
        "သ",
        "ၤ"
      ],
      [
        "လှ",
        "ၱး"
      ],
      [
        "ပျ",
        "့း"
      ],
      [
        "ကျ",
        "ံး"
      ],
      [
        "ဝှ",
        "း"
      ],
      [
        "ချ",
        "ူး"
      ],
      [
        "ခ",
        "ိ"
      ],
      [
        "ဒ",
        "ူး"
      ],
      [
        "ရ",
        "ဲၤ"
      ],
      [
        "ဝ",
        "့ၢ်"
      ],
      [
        "အ",
        "ၱာ်"
      ],
      [
        "အ",
        "ပူၤ"
      ],
      [
        "ကျ",
        "ိး"
      ],
      [
        "ဝှ",
        "ံး"
      ],
      [
        "သဲ",
        "ၣ်"
      ],
      [
        "သဳ",
        "ၣ်"
      ],
      [
        "ကွ",
        "ဲၤ"
      ],
      [
        "စ",
        "ိၤ"
      ],
      [
        "ထ",
        "ၱ"
      ],
      [
        "ဓ",
        "ဲၢ်"
      ],
      [
        "ဖ",
        "ိး"
      ],
      [
        "မ",
        "့း"
      ],
      [
        "လ",
        "ိၢ်"
      ],
      [
        "ဝ",
        "း"
      ],
      [
        "သ",
        "ၣ်"
      ],
      [
        "ဧ",
        "ဳၢ်"
      ],
      [
        "ပျ",
        "ူၤ"
      ],
      [
        "နှ",
        "ဳ"
      ],
      [
        "ချ",
        "ူ"
      ],
      [
        "ဓဳ",
        "ၢ်"
      ],
      [
        "ကြ",
        "ၱၢ်"
      ],
      [
        "ဖြ",
        "ၱ"
      ],
      [
        "ခ",
        "ရၱာ်"
      ],
      [
        "စ",
        "ူၤ"
      ],
      [
        "ဒ",
        "ိၣ်"
      ],
      [
        "ဓ",
        "ွံၢ်"
      ],
      [
        "ရ",
        "ီ"
      ],
      [
        "ရ",
        "ီၢ်"
      ],
      [
        "ရ",
        "ူၢ်"
      ],
      [
        "အ",
        "ဲၤ"
      ],
      [
        "အ",
        "တဲၤ"
      ],
      [
        "ကျ",
        "ီး"
      ],
      [
        "ထဳ",
        "ၣ်"
      ],
      [
        "ဖျ",
        "ဲး"
      ],
      [
        "ထ",
        "ံး"
      ],
      [
        "ပ",
        "ါ"
      ],
      [
        "ဘ",
        "ၱး"
      ],
      [
        "လ",
        "့"
      ],
      [
        "လှ",
        "ူ"
      ],
      [
        "ကိ",
        "ၤ"
      ],
      [
        "ခွ",
        "ံး"
      ],
      [
        "စွ",
        "့"
      ],
      [
        "ကြ",
        "ဳၢ်"
      ],
      [
        "သွ",
        "ဲး"
      ],
      [
        "ဃ",
        "ၤ"
      ],
      [
        "ဒ",
        "ိ"
      ],
      [
        "ဒ",
        "့ၣ်"
      ],
      [
        "န",
        "ၱး"
      ],
      [
        "အ",
        "ၱ"
      ],
      [
        "အ",
        "စာ်ဘိ"
      ],
      [
        "စဲာ်",
        "တစီာ်"
      ],
      [
        "ပျ",
        "ဲ"
      ],
      [
        "ဘြ",
        "ံၤ"
      ],
      [
        "က",
        "ၱး"
      ],
      [
        "ဆ",
        "ူ"
      ],
      [
        "တ",
        "ၢ်"
      ],
      [
        "တ",
        "ပွဲၤ"
      ],
      [
        "ဒ",
        "ၣ်"
      ],
      [
        "ပ",
        "ၱၢ်"
      ],
      [
        "ဖ",
        "ံး"
      ],
      [
        "ဗ",
        "့ၤ"
      ],
      [
        "ရ",
        "ံး"
      ],
      [
        "ဝ",
        "ဲ"
      ],
      [
        "ဝှ",
        "ူ"
      ],
      [
        "ကၠ",
        "ၱၢ်"
      ],
      [
        "က",
        "ာ်"
      ],
      [
        "တ",
        "့"
      ],
      [
        "ဒ",
        "ြ"
      ],
      [
        "ဓ",
        "ိၤ"
      ],
      [
        "ဖ",
        "ဳ"
      ],
      [
        "လ",
        "ိၣ်"
      ],
      [
        "ဟ",
        "ူး"
      ],
      [
        "ဧ",
        "ၤ"
      ],
      [
        "ပျ",
        "ိာ်"
      ],
      [
        "နှ",
        "ဲ"
      ],
      [
        "ခၠ",
        "ါ"
      ],
      [
        "ကြ",
        "့း"
      ],
      [
        "တ",
        "ဲး"
      ],
      [
        "ဘ",
        "ူၤ"
      ],
      [
        "မ",
        "ူ"
      ],
      [
        "အ",
        "ၢ်"
      ],
      [
        "ဧ",
        "့ၤ"
      ],
      [
        "ဒဳ",
        "တဲၤ"
      ],
      [
        "ပွ",
        "ံၢ်"
      ],
      [
        "ပၠၤ",
        "အ"
      ],
      [
        "ကၠ",
        "ံး"
      ],
      [
        "အီ",
        "ာ်"
      ],
      [
        "ကြ",
        "ၱၤ"
      ],
      [
        "ကွ",
        "ါ"
      ],
      [
        "ထွ",
        "ံၣ်"
      ],
      [
        "တစီာ်",
        "နဳၤ"
      ],
      [
        "ပြ",
        "ီၤ"
      ],
      [
        "ပြ",
        "ူး"
      ],
      [
        "က",
        "ြး"
      ],
      [
        "စ",
        "ၣ်"
      ],
      [
        "ဇ",
        "ဲၢ်"
      ],
      [
        "တ",
        "ဳ"
      ],
      [
        "တ",
        "ြး"
      ],
      [
        "ဓ",
        "့ၤ"
      ],
      [
        "န",
        "ဳ"
      ],
      [
        "ဖ",
        "ဲး"
      ],
      [
        "ယ",
        "ွံၢ်"
      ],
      [
        "ရ",
        "ၱၢ်"
      ],
      [
        "သ",
        "ြ"
      ],
      [
        "ရှ",
        "ၤ"
      ],
      [
        "နှ",
        "ီး"
      ],
      [
        "ဖြ",
        "ဳ"
      ],
      [
        "ဒ",
        "ီး"
      ],
      [
        "ဒ",
        "ူၤ"
      ],
      [
        "ဒ",
        "ၱး"
      ],
      [
        "ယ",
        "က"
      ],
      [
        "ယ",
        "့ၤ"
      ],
      [
        "ရ",
        "ံၣ်"
      ],
      [
        "အ",
        "ိာ်"
      ],
      [
        "ီ",
        "ာ်"
      ],
      [
        "ၡ",
        "း"
      ],
      [
        "ၡ",
        "ၤ"
      ],
      [
        "ပၠၤ",
        "လှူၣ်"
      ],
      [
        "ရှ",
        "ါ"
      ],
      [
        "ပျ",
        "း"
      ],
      [
        "ကျ",
        "ိ"
      ],
      [
        "သဲ",
        "သၱာ်"
      ],
      [
        "မီၢ်",
        "ခဳး"
      ],
      [
        "ခွ",
        "း"
      ],
      [
        "တြ",
        "ူၤ"
      ],
      [
        "တဲၤအ",
        "ဓဳၤ"
      ],
      [
        "က",
        "ံၤ"
      ],
      [
        "ဃ",
        "ါ"
      ],
      [
        "စ",
        "ံၤ"
      ],
      [
        "ဆ",
        "ံး"
      ],
      [
        "ဇ",
        "ူၤ"
      ],
      [
        "ဒ",
        "ူ"
      ],
      [
        "န",
        "ီ"
      ],
      [
        "န",
        "ိး"
      ],
      [
        "ဗ",
        "ွ"
      ],
      [
        "ယ",
        "ာ်"
      ],
      [
        "ရ",
        "ဳး"
      ],
      [
        "ရ",
        "ိး"
      ],
      [
        "ရ",
        "ၱၤ"
      ],
      [
        "ဝ",
        "ၱ"
      ],
      [
        "သ",
        "ိၤ"
      ],
      [
        "ၡ",
        "ါ"
      ],
      [
        "ထဲၢ်",
        "အ"
      ],
      [
        "ကျ",
        "ဳ"
      ],
      [
        "မၤ",
        "နဲၢ်"
      ],
      [
        "သွ",
        "ံး"
      ],
      [
        "ဗွ",
        "ံ"
      ],
      [
        "က",
        "့"
      ],
      [
        "ခ",
        "ြ"
      ],
      [
        "စ",
        "ိၢ်"
      ],
      [
        "တ",
        "့း"
      ],
      [
        "တ",
        "ပွဲး"
      ],
      [
        "ထ",
        "ၣ်"
      ],
      [
        "န",
        "ဲး"
      ],
      [
        "ဖ",
        "ံၤ"
      ],
      [
        "ဘ",
        "ဳး"
      ],
      [
        "အ",
        "ီၤ"
      ],
      [
        "ၡ",
        "ၱ"
      ],
      [
        "သံ",
        "တဲၤ"
      ],
      [
        "သး",
        "အဲး"
      ],
      [
        "လၢ်",
        "ခဳး"
      ],
      [
        "ရှ",
        "့"
      ],
      [
        "ပျ",
        "့ၤ"
      ],
      [
        "မှ",
        "ံ"
      ],
      [
        "မှ",
        "ၱာ်"
      ],
      [
        "ဝှ",
        "ၱ"
      ],
      [
        "စါ",
        "စဲး"
      ],
      [
        "လဳ",
        "စါစဲး"
      ],
      [
        ".’",
        "”"
      ],
      [
        "အပူၤ",
        "နဳၤ"
      ],
      [
        "ဃ",
        "့ၣ်"
      ],
      [
        "င",
        "ၢ်"
      ],
      [
        "စ",
        "ၢ်"
      ],
      [
        "ဆ",
        "ီၤ"
      ],
      [
        "ဇ",
        "ၱၤ"
      ],
      [
        "တ",
        "ဲာ်"
      ],
      [
        "ထ",
        "ြ"
      ],
      [
        "ဒ",
        "ံၤ"
      ],
      [
        "န",
        "း"
      ],
      [
        "မ",
        "ွှ"
      ],
      [
        "ယ",
        "ၣ်"
      ],
      [
        "ဝ",
        "ါ"
      ],
      [
        "ဝ",
        "့"
      ],
      [
        "ဝ",
        "ၱာ်"
      ],
      [
        "အ",
        "က"
      ],
      [
        "အ",
        "စဲ"
      ],
      [
        "နံၤ",
        "ခံ"
      ],
      [
        "အံာ်",
        "လၤ"
      ],
      [
        "လၢ်",
        "ဝၤ"
      ],
      [
        "ကြ",
        "ီာ်"
      ],
      [
        "ဖြ",
        "ိး"
      ],
      [
        "ထွ",
        "ၱး"
      ],
      [
        "တြ",
        "ၤ"
      ],
      [
        "ကဘၱာ်စဲာ်",
        "အ"
      ],
      [
        "ဗြ",
        "ၢ်"
      ],
      [
        "မွှ",
        "့း"
      ],
      [
        "က",
        "ိး"
      ],
      [
        "ခ",
        "ီၤ"
      ],
      [
        "စ",
        "က"
      ],
      [
        "ဇ",
        "ါ"
      ],
      [
        "တ",
        "ဘဲာ်"
      ],
      [
        "တ",
        "ူၢ်"
      ],
      [
        "ဘ",
        "ၣ်"
      ],
      [
        "သ",
        "ူၤ"
      ],
      [
        "သ",
        "မိ"
      ],
      [
        "အ",
        "ခဳး"
      ],
      [
        "အ",
        "ိၣ်"
      ],
      [
        "ဧ",
        "း"
      ],
      [
        "ၡ",
        "ၱး"
      ],
      [
        "သံ",
        "က"
      ],
      [
        "သံ",
        "း"
      ],
      [
        "သိ",
        "ာ်"
      ],
      [
        "ကြ",
        "့"
      ],
      [
        "တြ",
        "ိၤ"
      ],
      [
        "သြ",
        "ူ"
      ],
      [
        ")",
        ","
      ],
      [
        "က",
        "နဳၤ"
      ],
      [
        "က",
        "ံး"
      ],
      [
        "က",
        "ွဲ"
      ],
      [
        "ဃ",
        "ိ"
      ],
      [
        "ဃ",
        "ူး"
      ],
      [
        "စ",
        "့ၤ"
      ],
      [
        "စ",
        "ိး"
      ],
      [
        "တ",
        "ံး"
      ],
      [
        "တ",
        "ခီ"
      ],
      [
        "ဒ",
        "့ၤ"
      ],
      [
        "ဒ",
        "ံာ်"
      ],
      [
        "န",
        "ိ"
      ],
      [
        "ပ",
        "ူၢ်"
      ],
      [
        "ဖ",
        "ွ"
      ],
      [
        "ယ",
        "ိၢ်"
      ],
      [
        "ရ",
        "ဲ"
      ],
      [
        "သ",
        "ၱ"
      ],
      [
        "သ",
        "ွဲ"
      ],
      [
        "ဟ",
        "ါ"
      ],
      [
        "ဟ",
        "့း"
      ],
      [
        "အ",
        "ကျဲ"
      ],
      [
        "ဧ",
        "့"
      ],
      [
        "ဧ",
        "ူၢ်"
      ],
      [
        "ကၱာ်",
        "တဲၤ"
      ],
      [
        "ပွ",
        "့ၢ်"
      ],
      [
        "ဘဲာ်",
        "ကီ"
      ],
      [
        "ပျ",
        "့"
      ],
      [
        "ပျ",
        "ီၢ်"
      ],
      [
        "ကျ",
        "ူ"
      ],
      [
        "ဝှ",
        "ံ"
      ],
      [
        "သၱာ်",
        "ဟဲ"
      ],
      [
        "ကၠ",
        "ၢ်"
      ],
      [
        "ချ",
        "ီၣ်"
      ],
      [
        "စံး",
        "ရး"
      ],
      [
        "ဘူ",
        "ာ်"
      ],
      [
        "ပြ",
        "ံ"
      ],
      [
        "သဲသၱာ်",
        "အ"
      ],
      [
        "ခြ",
        "ိး"
      ],
      [
        "သးအဲး",
        "နံၤ"
      ],
      [
        "က",
        "ၣ်"
      ],
      [
        "က",
        "ၱၢ်"
      ],
      [
        "က",
        "ံၣ်"
      ],
      [
        "ခ",
        "့း"
      ],
      [
        "ခ",
        "ြး"
      ],
      [
        "ဃ",
        "ံ"
      ],
      [
        "ဃ",
        "ံၤ"
      ],
      [
        "တ",
        "ူ"
      ],
      [
        "တ",
        "ၱး"
      ],
      [
        "ဗ",
        "ွဲၤ"
      ],
      [
        "ဘ",
        "ူး"
      ],
      [
        "ယ",
        "ံၤ"
      ],
      [
        "ယ",
        "ဳၢ်"
      ],
      [
        "လ",
        "ဝ့ၤ"
      ],
      [
        "သ",
        "့ၣ်"
      ],
      [
        "ဳ",
        "ၣ်"
      ],
      [
        "ဒဳ",
        "စ"
      ],
      [
        "ဘဲာ်",
        "လီၢ်"
      ],
      [
        "အီၣ်",
        "သမိ"
      ],
      [
        "သံ",
        "မၱာ်"
      ],
      [
        "ထာ်",
        "အံာ်"
      ],
      [
        "မဲၤ",
        "တဲၤ"
      ],
      [
        "လှ",
        "ူး"
      ],
      [
        "ယဳၤ",
        "မၱာ်"
      ],
      [
        "ပီၢ်",
        "တဲၤ"
      ],
      [
        "ကျ",
        "ီၤ"
      ],
      [
        "လဳ",
        "ၣ်"
      ],
      [
        "အဳ",
        "ၣ်"
      ],
      [
        "စွ",
        "ၱး"
      ],
      [
        "ရိ",
        "ၣ်"
      ],
      [
        "ပြ",
        "ဲၤ"
      ],
      [
        "ဒြ",
        "ူး"
      ],
      [
        "က",
        "ူၣ်"
      ],
      [
        "က",
        "့ၢ်"
      ],
      [
        "က",
        "မဳၤ"
      ],
      [
        "က",
        "မဲာ်"
      ],
      [
        "က",
        "ဳၢ်"
      ],
      [
        "ဃ",
        "း"
      ],
      [
        "စ",
        "ီၣ်"
      ],
      [
        "ဇ",
        "ဲ"
      ],
      [
        "ဇ",
        "ၱ"
      ],
      [
        "ဇ",
        "ံၤ"
      ],
      [
        "တ",
        "အီၣ်"
      ],
      [
        "ထ",
        "့း"
      ],
      [
        "ဒ",
        "ံၣ်"
      ],
      [
        "ဓ",
        "ီၢ်"
      ],
      [
        "န",
        "ဲ"
      ],
      [
        "ပ",
        "ိ"
      ],
      [
        "ပ",
        "ၱ"
      ],
      [
        "ပ",
        "ၣ်"
      ],
      [
        "ပ",
        "ီၣ်"
      ],
      [
        "ပ",
        "ိၤ"
      ],
      [
        "ဖ",
        "ူၤ"
      ],
      [
        "ဘ",
        "ံး"
      ],
      [
        "မ",
        "ၱး"
      ],
      [
        "ယ",
        "ူး"
      ],
      [
        "ယ",
        "ိး"
      ],
      [
        "ယ",
        "ဳၣ်"
      ],
      [
        "သ",
        "ဘဲ"
      ],
      [
        "သ",
        "လဲ"
      ],
      [
        "ဟ",
        "့ၣ်"
      ],
      [
        "ဟ",
        "ိၤ"
      ],
      [
        "အ",
        "ံ"
      ],
      [
        "အ",
        "ဘဲာ်"
      ],
      [
        "အ",
        "ပွဲၤ"
      ],
      [
        "အ",
        "ခၠၱး"
      ],
      [
        "အ",
        "နံၤခံ"
      ],
      [
        "“",
        "‘​"
      ],
      [
        "ဒဳ",
        "အ"
      ],
      [
        "ကၱာ်",
        "အ"
      ],
      [
        "လှ",
        "ဳး"
      ],
      [
        "ရှ",
        "ၱ"
      ],
      [
        "ရှ",
        "ၱး"
      ],
      [
        "ပီၢ်",
        "သံ"
      ],
      [
        "ပီၢ်",
        "မဲး"
      ],
      [
        "ဝှ",
        "ဲ"
      ],
      [
        "စါ",
        "ထံ"
      ],
      [
        "ချ",
        "ီး"
      ],
      [
        "ဖျ",
        "ဳ"
      ],
      [
        "ဆီး",
        "ခ့"
      ],
      [
        "ကြ",
        "ံ"
      ],
      [
        "ဟိ",
        "ၣ်"
      ],
      [
        "ယိ",
        "ၣ်"
      ],
      [
        "ပြ",
        "ၢ်"
      ],
      [
        "ပြ",
        "ိၤ"
      ],
      [
        "ဇွ",
        "ဲၤ"
      ],
      [
        "ဇွ",
        "ံၤ"
      ],
      [
        "စာ်ဘိ",
        "ထဲၢ်"
      ],
      [
        "ရီ",
        "ာ်"
      ],
      [
        "အခဳး",
        "အစဲ"
      ],
      [
        "ဆီးခ့",
        "န့း"
      ],
      [
        "က",
        "အီၣ်"
      ],
      [
        "က",
        "့ၣ်"
      ],
      [
        "ဃ",
        "ဲ"
      ],
      [
        "စ",
        "တဲၤ"
      ],
      [
        "စ",
        "့ၣ်"
      ],
      [
        "တ",
        "ဳၤ"
      ],
      [
        "တ",
        "မၱာ်"
      ],
      [
        "တ",
        "နံၤ"
      ],
      [
        "တ",
        "ဓဲ"
      ],
      [
        "ထ",
        "ွဲ"
      ],
      [
        "ဒ",
        "ံး"
      ],
      [
        "ဒ",
        "့ၢ်"
      ],
      [
        "ဘ",
        "ီး"
      ],
      [
        "ဘ",
        "ံၤ"
      ],
      [
        "ဘ",
        "့ၣ်"
      ],
      [
        "ဘ",
        "ံၣ်"
      ],
      [
        "မ",
        "ံၣ်"
      ],
      [
        "ယ",
        "ူၤ"
      ],
      [
        "ယ",
        "ံၣ်"
      ],
      [
        "ရ",
        "ဲး"
      ],
      [
        "သ",
        "့ၤ"
      ],
      [
        "အ",
        "က့ၤ"
      ],
      [
        "အ",
        "သဲ"
      ],
      [
        "အ",
        "မံၤ"
      ],
      [
        "အ",
        "လံၤ"
      ],
      [
        "အ",
        "လဝ့ၤ"
      ],
      [
        "ဧ",
        "ၣ်"
      ],
      [
        "ဧ",
        "ိၤ"
      ],
      [
        "ၡ",
        "ိၣ်"
      ],
      [
        "ဒဳ",
        "မီၢ်ခဳး"
      ],
      [
        "ကဲၤ",
        "အ"
      ],
      [
        "ဘဲာ်",
        "ထၱး"
      ],
      [
        "သံ",
        "နဳၤ"
      ],
      [
        "ထာ်",
        "ကဲၤ"
      ],
      [
        "မဲၤ",
        "ကနဳၤ"
      ],
      [
        "ဒီၣ်",
        "ဓဳၤ"
      ],
      [
        "နံၤ",
        "ဘဲာ်"
      ],
      [
        "စာ်",
        "ထၱး"
      ],
      [
        "ပူၤ",
        "နဳၤ"
      ],
      [
        "ဖဳး",
        "တစီာ်"
      ],
      [
        "ပျ",
        "ၱး"
      ],
      [
        "ပျ",
        "ၱၢ်"
      ],
      [
        "လီၤ",
        "နဳၤ"
      ],
      [
        "ကျ",
        "ီၢ်"
      ],
      [
        "ကီ",
        "ာ်"
      ],
      [
        "န့ၤ",
        "ဘၱ"
      ],
      [
        ".”",
        ")"
      ],
      [
        "ပျဳာ်",
        "ကၱာ်"
      ],
      [
        "ဖျ",
        "ူး"
      ],
      [
        "ဖျ",
        "ၱး"
      ],
      [
        "ခဳ",
        "နူၤ"
      ],
      [
        "စူး",
        "ခီး"
      ],
      [
        "ဘါ",
        "ပျဲာ်"
      ],
      [
        "မှဲး",
        "လၤ"
      ],
      [
        "ဖၱ",
        "ထာ်"
      ],
      [
        "ခွံ",
        "ဖဳး"
      ],
      [
        "ထါ",
        "အံာ်"
      ],
      [
        "ကြ",
        "ီၤ"
      ],
      [
        "ကြ",
        "ၱး"
      ],
      [
        "ဖြ",
        "ီ"
      ],
      [
        "လီ",
        "ာ်"
      ],
      [
        "သဲး",
        "ထဲး"
      ],
      [
        "ကွ",
        "့"
      ],
      [
        "ကွ",
        "့ၤ"
      ],
      [
        "တြ",
        "ံ"
      ],
      [
        "ပြ",
        "ၱး"
      ],
      [
        "ဘၱာ်စဲာ်",
        "အ"
      ],
      [
        "ဗြ",
        "ူ"
      ],
      [
        "ဗြ",
        "ိၤ"
      ],
      [
        "ဒြ",
        "့း"
      ],
      [
        "သြ",
        "ီး"
      ],
      [
        "ပၠၤလှူၣ်",
        "တဲၤအဓဳၤ"
      ],
      [
        "ထြ",
        "ူး"
      ],
      [
        "ဖွ",
        "ဲး"
      ],
      [
        "န့ၤဘၱ",
        "စဲာ်"
      ],
      [
        "က",
        "ဘဲာ်"
      ],
      [
        "က",
        "ဟဲး"
      ],
      [
        "က",
        "ဓူ"
      ],
      [
        "က",
        "ဓူၤ"
      ],
      [
        "ခ",
        "ိး"
      ],
      [
        "ဃ",
        "ူၣ်"
      ],
      [
        "ဃ",
        "ံး"
      ],
      [
        "စ",
        "့"
      ],
      [
        "စ",
        "ၱ"
      ],
      [
        "စ",
        "မဲၤ"
      ],
      [
        "စ",
        "ဒီၣ်"
      ],
      [
        "ဇ",
        "ီ"
      ],
      [
        "ဇ",
        "ီၢ်"
      ],
      [
        "တ",
        "ီ"
      ],
      [
        "တ",
        "ူၤ"
      ],
      [
        "တ",
        "ပျာ်"
      ],
      [
        "ဓ",
        "ါ"
      ],
      [
        "န",
        "ူး"
      ],
      [
        "န",
        "ံး"
      ],
      [
        "န",
        "ဳာ်"
      ],
      [
        "န",
        "ိၣ်"
      ],
      [
        "ဖ",
        "့ၤ"
      ],
      [
        "ဖ",
        "ိၤ"
      ],
      [
        "ဗ",
        "ံ"
      ],
      [
        "မ",
        "ူၣ်"
      ],
      [
        "ယ",
        "ွ"
      ],
      [
        "ယ",
        "တဲၤ"
      ],
      [
        "ရ",
        "ဳာ်"
      ],
      [
        "လ",
        "ိ"
      ],
      [
        "လ",
        "ံၣ်"
      ],
      [
        "လ",
        "ိာ်"
      ],
      [
        "ဝ",
        "ၱး"
      ],
      [
        "ဟ",
        "ၤ"
      ],
      [
        "အ",
        "ူၤ"
      ],
      [
        "အ",
        "ဒီၣ်"
      ],
      [
        "အ",
        "ဓဳၤ"
      ],
      [
        "အ",
        "ယဳၤ"
      ],
      [
        "အ",
        "့ၣ်"
      ],
      [
        "အ",
        "ကူ"
      ],
      [
        "အ",
        "လှဲ"
      ],
      [
        "အ",
        "ဓၢ်"
      ],
      [
        "ၡ",
        "့ၤ"
      ],
      [
        "—",
        "​"
      ],
      [
        "တဲၤ",
        "လဳစါစဲး"
      ],
      [
        "ဒဳ",
        "သံ"
      ],
      [
        "ဒဳ",
        "ခရၱာ်"
      ],
      [
        "ဒဳ",
        "ကဘၱာ်စဲာ်အ"
      ],
      [
        "ကၱာ်",
        "စ"
      ],
      [
        "ကၱာ်",
        "ယ"
      ],
      [
        "ကၱာ်",
        "ပၠၤ"
      ],
      [
        "ကၱာ်",
        "စက"
      ],
      [
        "ကဲၤ",
        "ကၱာ်"
      ],
      [
        "အီၣ်",
        "ဟူၣ်"
      ],
      [
        "သံ",
        "မဲၤ"
      ],
      [
        "လၤ",
        "တ့ၢ်"
      ],
      [
        "ပၠ",
        "ါ"
      ],
      [
        "ပၠၤ",
        "တပွဲၤ"
      ],
      [
        "ပၠၤ",
        "ခွံဖဳး"
      ],
      [
        "ပွဲၤ",
        "ဇိၤ"
      ],
      [
        "နီး",
        "နဳၤ"
      ],
      [
        "အံာ်",
        "သံ"
      ],
      [
        "စာ်",
        "ပီၢ်"
      ],
      [
        "ထဲၢ်",
        "ယ"
      ],
      [
        "ရှ",
        "း"
      ],
      [
        "ပျ",
        "ီာ်"
      ],
      [
        "ကျ",
        "ီ"
      ],
      [
        "ကျ",
        "့"
      ],
      [
        "ဝှ",
        "ံာ်"
      ],
      [
        "ဘိ",
        "ၤ"
      ],
      [
        "ဘ့",
        "စ"
      ],
      [
        "ဆး",
        "ဖြး"
      ],
      [
        "ယ့ၣ်",
        "ရှူး"
      ],
      [
        "ထံ",
        "အက့ၤ"
      ],
      [
        "ဒဲ",
        "လၱၢ်"
      ],
      [
        "ပျဳာ်",
        "ပျဳာ်ကၱာ်"
      ],
      [
        "ချ",
        "့း"
      ],
      [
        "အူ",
        "အံာ်"
      ],
      [
        "လှီ",
        "မီၢ်"
      ],
      [
        "ခဳ",
        "ၣ်"
      ],
      [
        "လှဲး",
        "ပီၢ်"
      ],
      [
        "ကၠံၢ်",
        "ပွဲၤ"
      ],
      [
        "ခၠ",
        "ံး"
      ],
      [
        "ဆီ",
        "ထဳး"
      ],
      [
        "ထိ",
        "ဓဳၤ"
      ],
      [
        "ပီ",
        "ာ်"
      ],
      [
        "ဖး",
        "မ့ၤ"
      ],
      [
        "ပြး",
        "ထာ်"
      ],
      [
        "ဘ့ာ်",
        "မ့"
      ],
      [
        "ဖြ",
        "ါ"
      ],
      [
        "ကွ",
        "း"
      ],
      [
        "တြ",
        "ူ"
      ],
      [
        "တစီာ်",
        "တခီ"
      ],
      [
        "ဆဳး",
        "ဖြဳ"
      ],
      [
        "ဗြ",
        "ီၢ်"
      ],
      [
        "တပွဲၤ",
        "လီၤ"
      ],
      [
        "ယက",
        "မဲၤ"
      ],
      [
        "မၤနဲၢ်",
        "ဒဳၣ်"
      ],
      [
        "သံတဲၤ",
        "အီၣ်သမိ"
      ],
      [
        "အံာ်လၤ",
        "နံၤ"
      ],
      [
        "လၢ်ဝၤ",
        "အ"
      ],
      [
        "ခဳနူၤ",
        "ယဳၤ"
      ],
      [
        "ယွ",
        "ၤ"
      ],
      [
        "အဓၢ်",
        "ပူၤ"
      ],
      [
        "ဒဲလၱၢ်",
        "ထာ်"
      ],
      [
        "ဆဳးဖြဳ",
        "ဆးဖြး"
      ],
      [
        ")",
        "."
      ],
      [
        "က",
        "မဲၤ"
      ],
      [
        "က",
        "နၢ်"
      ],
      [
        "က",
        "ဒီၣ်ဓဳၤ"
      ],
      [
        "က",
        "စာ်ထၱး"
      ],
      [
        "ခ",
        "ၱး"
      ],
      [
        "ဃ",
        "့"
      ],
      [
        "ဃ",
        "့ၤ"
      ],
      [
        "ဃ",
        "့း"
      ],
      [
        "ဃ",
        "ံၣ်"
      ],
      [
        "ဃ",
        "ိၢ်"
      ],
      [
        "စ",
        "ူၣ်"
      ],
      [
        "စ",
        "့ၢ်"
      ],
      [
        "စ",
        "ံၣ်"
      ],
      [
        "စ",
        "လ့ၢ်"
      ],
      [
        "စ",
        "ရ့"
      ],
      [
        "စ",
        "စဳး"
      ],
      [
        "ဆ",
        "ွ"
      ],
      [
        "ဇ",
        "့ၢ်"
      ],
      [
        "တ",
        "ဳး"
      ],
      [
        "တ",
        "လၤ"
      ],
      [
        "တ",
        "့ၣ်"
      ],
      [
        "တ",
        "ၱၤ"
      ],
      [
        "တ",
        "ံၢ်"
      ],
      [
        "တ",
        "နၢ်"
      ],
      [
        "တ",
        "ထွဲး"
      ],
      [
        "တ",
        "ွဲၤ"
      ],
      [
        "တ",
        "ရ့ၤ"
      ],
      [
        "ဒ",
        "ီၢ်"
      ],
      [
        "ဓ",
        "ၤ"
      ],
      [
        "န",
        "တဲၤ"
      ],
      [
        "န",
        "ိၤ"
      ],
      [
        "န",
        "ိာ်"
      ],
      [
        "ပ",
        "ူ"
      ],
      [
        "ပ",
        "ၱာ်"
      ],
      [
        "ပ",
        "ဲး"
      ],
      [
        "ပ",
        "ဳး"
      ],
      [
        "ပ",
        "ရၤ"
      ],
      [
        "ဖ",
        "ၣ်"
      ],
      [
        "ဖ",
        "ၱၤ"
      ],
      [
        "ဗ",
        "ၤ"
      ],
      [
        "မ",
        "ွ"
      ],
      [
        "ယ",
        "တ"
      ],
      [
        "ယ",
        "ဲ"
      ],
      [
        "ယ",
        "့"
      ],
      [
        "ယ",
        "ပၠၤ"
      ],
      [
        "ယ",
        "ဒီၣ်"
      ],
      [
        "ယ",
        "နံၤခံ"
      ],
      [
        "ရ",
        "ီး"
      ],
      [
        "ရ",
        "ကၱ"
      ],
      [
        "လ",
        "ူၣ်"
      ],
      [
        "သ",
        "ၢ်"
      ],
      [
        "သ",
        "ဓဳ"
      ],
      [
        "သ",
        "ရ့"
      ],
      [
        "ဟ",
        "ူၤ"
      ],
      [
        "အ",
        "အီၣ်"
      ],
      [
        "အ",
        "နံၤ"
      ],
      [
        "အ",
        "သး"
      ],
      [
        "အ",
        "ဖဳး"
      ],
      [
        "အ",
        "ဝၱၤ"
      ],
      [
        "အ",
        "ကဲ"
      ],
      [
        "အ",
        "ခီ"
      ],
      [
        "အ",
        "မှး"
      ],
      [
        "အ",
        "လါ"
      ],
      [
        "အ",
        "သဲာ်"
      ],
      [
        "အ",
        "လ့ၢ်"
      ],
      [
        "အ",
        "ရှံၣ်"
      ],
      [
        "အ",
        "ကျဲး"
      ],
      [
        "အ",
        "ၡံး"
      ],
      [
        "အ",
        "ခွံ"
      ],
      [
        "အ",
        "ဇီၤ"
      ],
      [
        "အ",
        "ထဲ"
      ],
      [
        "အ",
        "တါ"
      ],
      [
        "အ",
        "ဘၱာ်စဲာ်"
      ],
      [
        "အ",
        "ယဳၤမၱာ်"
      ],
      [
        "အ",
        "စူးခီး"
      ],
      [
        "အ",
        "ထံအက့ၤ"
      ],
      [
        "အ",
        "သရ့"
      ],
      [
        "ဧ",
        "ူး"
      ],
      [
        "၀",
        "၀"
      ],
      [
        "၂",
        "၆"
      ],
      [
        "၆",
        "၆"
      ],
      [
        "ၡ",
        "ီၤ"
      ],
      [
        "တဲၤ",
        "တ"
      ],
      [
        "တဲၤ",
        "မဲၤ"
      ],
      [
        "တဲၤ",
        "လ့ၤ"
      ],
      [
        "တဲၤ",
        "သး"
      ],
      [
        "တဲၤ",
        "လ့ၢ်"
      ],
      [
        "တဲၤ",
        "ဆဲ"
      ],
      [
        "တဲၤ",
        "ပဲၢ်"
      ],
      [
        "တဲၤ",
        "ဝှဲး"
      ],
      [
        "တဲၤ",
        "စိ"
      ],
      [
        "တဲၤ",
        "ဟး"
      ],
      [
        "တဲၤ",
        "သးအဲးနံၤ"
      ],
      [
        "တဲၤ",
        "ဘဲာ်လီၢ်"
      ],
      [
        "တဲၤ",
        "သလဲ"
      ],
      [
        "တဲၤ",
        "န့ၤဘၱစဲာ်"
      ],
      [
        "နဳၤ",
        "နီး"
      ],
      [
        "ဒဳ",
        "ပွဲၤ"
      ],
      [
        "ဒဳ",
        "ထၱး"
      ],
      [
        "ကၱာ်",
        "ဝၤ"
      ],
      [
        "ကၱာ်",
        "ကျါ"
      ],
      [
        "ကၱာ်",
        "ယက"
      ],
      [
        "ကၱာ်",
        "အက"
      ],
      [
        "ကၱာ်",
        "တဘဲာ်"
      ],
      [
        "ကဲၤ",
        "စဲာ်တစီာ်"
      ],
      [
        "ကဲၤ",
        "သဲသၱာ်အ"
      ],
      [
        "ဘဲာ်",
        "ထာ်"
      ],
      [
        "ဘဲာ်",
        "နီး"
      ],
      [
        "ဘဲာ်",
        "ဒိ"
      ],
      [
        "အီၣ်",
        "ဒဳ"
      ],
      [
        "အီၣ်",
        "ကဲၤ"
      ],
      [
        "အီၣ်",
        "မၤ"
      ],
      [
        "အီၣ်",
        "ဒဳအ"
      ],
      [
        "အီၣ်",
        "အသရ့"
      ],
      [
        "သံ",
        "ကဲၤ"
      ],
      [
        "သံ",
        "ဘဲာ်"
      ],
      [
        "သံ",
        "မဲၤတဲၤ"
      ],
      [
        "မၱာ်",
        "ကီ"
      ],
      [
        "မၱာ်",
        "ဝၱၤ"
      ],
      [
        "မၱာ်",
        "ကဘၱာ်စဲာ်"
      ],
      [
        "ဝၤ",
        "ဘဲာ်"
      ],
      [
        "ဝၤ",
        "မၱာ်"
      ],
      [
        "ဝၤ",
        "ဒဳၣ်"
      ],
      [
        "ဝၤ",
        "အစာ်ဘိ"
      ],
      [
        "လၤ",
        "အံာ်"
      ],
      [
        "လၤ",
        "ကီ"
      ],
      [
        "လၤ",
        "ဆါ"
      ],
      [
        "ပၠၤ",
        "အတဲၤ"
      ],
      [
        "ပၠၤ",
        "လဳစါစဲး"
      ],
      [
        "ထာ်",
        "နံၤ"
      ],
      [
        "ထာ်",
        "က့ၤ"
      ],
      [
        "ထာ်",
        "ပီၢ်"
      ],
      [
        "ထာ်",
        "သီး"
      ],
      [
        "မဲၤ",
        "လၤ"
      ],
      [
        "မဲၤ",
        "ဝှါ"
      ],
      [
        "မဲၤ",
        "ကဲ"
      ],
      [
        "ပွဲၤ",
        "ဇဳၤ"
      ],
      [
        "ဒီၣ်",
        "ရီၢ်"
      ],
      [
        "အံာ်",
        "အ"
      ],
      [
        "အံာ်",
        "သီ"
      ],
      [
        "အံာ်",
        "မၢ်"
      ],
      [
        "အံာ်",
        "တပွဲး"
      ],
      [
        "အံာ်",
        "ထါအံာ်"
      ],
      [
        "စာ်",
        "အံာ်"
      ],
      [
        "စာ်",
        "ဒီ"
      ],
      [
        "ပူၤ",
        "တ"
      ],
      [
        "ပူၤ",
        "ဝ့ၤ"
      ],
      [
        "လ့ၤ",
        "နဳၤ"
      ],
      [
        "လ့ၤ",
        "ပိာ်"
      ],
      [
        "ဒဳၣ်",
        "ချဳ"
      ],
      [
        "သး",
        "ဒီ"
      ],
      [
        "သး",
        "လဳၢ်"
      ],
      [
        "သး",
        "ပူၤနဳၤ"
      ],
      [
        "သး",
        "လၤအံာ်"
      ],
      [
        "ယဳၤ",
        "တဲၤဟး"
      ],
      [
        "ပီၢ်",
        "ဒဳ"
      ],
      [
        "ပျ",
        "ံၤ"
      ],
      [
        "လီၤ",
        "တဲၤ"
      ],
      [
        "လီၤ",
        "နီး"
      ],
      [
        "ဒီ",
        "ဆး"
      ],
      [
        "ဒီ",
        "ထိး"
      ],
      [
        "ဘ့",
        "နဳၤ"
      ],
      [
        "ဆး",
        "နါ"
      ],
      [
        "ကီ",
        "စတဲၤ"
      ],
      [
        "ကိ",
        "ၣ်"
      ],
      [
        "ကိ",
        "အပွဲၤ"
      ],
      [
        "ကိ",
        "ထာ်သီး"
      ],
      [
        ".”",
        "’"
      ],
      [
        "ကဲ",
        "ပီၢ်"
      ],
      [
        "မူၤ",
        "နံၤ"
      ],
      [
        "တၤ",
        "နဲၢ်"
      ],
      [
        "ကၠ",
        "ၤ"
      ],
      [
        "ကၠ",
        "ၱး"
      ],
      [
        "ကဲာ်",
        "ထာ်"
      ],
      [
        "ဖၱး",
        "ဓဳၤ"
      ],
      [
        "ဖၱး",
        "တဲၤမဲၤ"
      ],
      [
        "အူး",
        "အ"
      ],
      [
        "တၱၢ်",
        "အမှး"
      ],
      [
        "လှူၣ်",
        "ထာ်အံာ်"
      ],
      [
        "လှူၣ်",
        "အတါ"
      ],
      [
        "အူ",
        "ာ်"
      ],
      [
        "အူ",
        "ဆူး"
      ],
      [
        "ယၱၢ်",
        "ဘဲာ်ထၱး"
      ],
      [
        "ခဳ",
        "တနံၤ"
      ],
      [
        "စူး",
        "တထွဲး"
      ],
      [
        "ခီး",
        "သးဒီ"
      ],
      [
        "ခီၣ်",
        "ဝဲၤ"
      ],
      [
        "ယူ",
        "ဒၤ"
      ],
      [
        "ပျာ်",
        "တပျာ်"
      ],
      [
        "သဳ",
        "နံၤ"
      ],
      [
        "ယၤ",
        "နဳၤ"
      ],
      [
        "သါ",
        "သိး"
      ],
      [
        "ဒ့",
        "ဒီၣ်ရီၢ်"
      ],
      [
        "ဖျီး",
        "မံ"
      ],
      [
        "ထိး",
        "အံာ်မၢ်"
      ],
      [
        "ပၢ်",
        "ဖျီးမံ"
      ],
      [
        "ဓူၤ",
        "လါ"
      ],
      [
        "ထါ",
        "ထာ်အံာ်"
      ],
      [
        "သူ",
        "ကူာ်"
      ],
      [
        "ကြ",
        "ၢ်"
      ],
      [
        "ကြ",
        "ဳၤ"
      ],
      [
        "ကြ",
        "ီၢ်"
      ],
      [
        "ဟိ",
        "ရကၱ"
      ],
      [
        ",’",
        "”"
      ],
      [
        "မၱ",
        "တမၱာ်"
      ],
      [
        "ဖြ",
        "ဲ"
      ],
      [
        "ဖြ",
        "ူၤ"
      ],
      [
        "ကီၢ်",
        "အံာ်ထါအံာ်"
      ],
      [
        "အံၣ်",
        "စရ့"
      ],
      [
        "ဟူ",
        "ာ်"
      ],
      [
        "ကွ",
        "ံ"
      ],
      [
        "ကွ",
        "ဲး"
      ],
      [
        "တြ",
        "ိ"
      ],
      [
        "တြ",
        "ီး"
      ],
      [
        "တြ",
        "ူး"
      ],
      [
        "တစီာ်",
        "မီၤ"
      ],
      [
        "တစီာ်",
        "ကဘဲာ်"
      ],
      [
        "စၱး",
        "သဳ"
      ],
      [
        "စၱး",
        "ပိး"
      ],
      [
        "ကျၱး",
        "လၤဆါ"
      ],
      [
        "ပြ",
        "ၤ"
      ],
      [
        "ဘၱာ်စဲာ်",
        "အတဲၤ"
      ],
      [
        "ဘၱာ်စဲာ်",
        "ဒီၣ်ဓဳၤ"
      ],
      [
        "ဟံ",
        "အထဲ"
      ],
      [
        "ရူ",
        "ာ်"
      ],
      [
        "ကဘၱာ်စဲာ်",
        "အတဲၤ"
      ],
      [
        "တဲၤအ",
        "ယဳၤ"
      ],
      [
        "တဲၤအ",
        "ယဳၤမၱာ်"
      ],
      [
        "ခရၱာ်",
        "မၱာ်"
      ],
      [
        "ခရၱာ်",
        "အပူၤ"
      ],
      [
        "အစာ်ဘိ",
        "သံမဲၤ"
      ],
      [
        "စဲာ်တစီာ်",
        "က"
      ],
      [
        "တပွဲၤ",
        "နဳၤ"
      ],
      [
        "ဒြ",
        "ၤ"
      ],
      [
        "ဒဳတဲၤ",
        "ကိ"
      ],
      [
        "ပၠၤအ",
        "လဝ့ၤ"
      ],
      [
        "ယက",
        "ယၱၢ်ဘဲာ်ထၱး"
      ],
      [
        "မီၢ်ခဳး",
        "ပွဲၤဇဳၤ"
      ],
      [
        "ထဲၢ်အ",
        "မဲၤတဲၤ"
      ],
      [
        "ခြ",
        "ၱး"
      ],
      [
        "ထြ",
        "ံး"
      ],
      [
        "ထြ",
        "ိး"
      ],
      [
        "တဘဲာ်",
        "ထ့"
      ],
      [
        "တခီ",
        "နဳၤ"
      ],
      [
        "ဖွ",
        "့း"
      ],
      [
        "အကျဲ",
        "နဳၤ"
      ],
      [
        "စံးရး",
        "ဖးမ့ၤ"
      ],
      [
        "သဲသၱာ်အ",
        "သဲ"
      ],
      [
        "သဲသၱာ်အ",
        "အူဆူး"
      ],
      [
        "သံမၱာ်",
        "ပၠၤအ"
      ],
      [
        "ကမဳၤ",
        "ထာ်နံၤ"
      ],
      [
        "ပီၢ်သံ",
        "န့ၤ"
      ],
      [
        "စာ်ဘိထဲၢ်",
        "သံက"
      ],
      [
        "တဓဲ",
        "အဒီၣ်"
      ],
      [
        "အမံၤ",
        "အပူၤ"
      ],
      [
        "အလံၤ",
        "လၤ"
      ],
      [
        "ဒဳမီၢ်ခဳး",
        "လဲၢ်"
      ],
      [
        "ကဟဲး",
        "ထာ်"
      ],
      [
        "စဒီၣ်",
        "ကဲၤ"
      ],
      [
        "အကူ",
        "ဓူၤလါ"
      ],
      [
        "ယ့ၣ်ရှူး",
        "ခရၱာ်အပူၤ"
      ],
      [
        "ကၠံၢ်ပွဲၤ",
        "မၱာ်"
      ],
      [
        "ထိဓဳၤ",
        "လၤ"
      ],
      [
        "ဆွ",
        "ဲး"
      ],
      [
        "ပရၤ",
        "ဆါ"
      ],
      [
        "မွ",
        "့ၤ"
      ],
      [
        "အခီ",
        "နဳၤ"
      ],
      [
        "၂၆",
        "၀"
      ],
      [
        "တဲၤစိ",
        "တဲၤသလဲ"
      ],
      [
        "တဲၤန့ၤဘၱစဲာ်",
        "အသဲ"
      ],
      [
        "ဒဳပွဲၤ",
        "သူကူာ်"
      ],
      [
        "ကၱာ်ကျါ",
        "မဲ"
      ],
      [
        "အီၣ်အသရ့",
        "နဳၤ"
      ],
      [
        "အံာ်သီ",
        "အံာ်"
      ],
      [
        "စာ်ဒီ",
        "ကိာ်"
      ],
      [
        "လ့ၤပိာ်",
        "ဒဳထၱး"
      ],
      [
        "ခဳတနံၤ",
        "ယဳၤ"
      ],
      [
        "စူးတထွဲး",
        "တခီနဳၤ"
      ],
      [
        "ပျာ်တပျာ်",
        "ဖၱထာ်"
      ],
      [
        "ဒ့ဒီၣ်ရီၢ်",
        "ခဲး"
      ],
      [
        "ထိးအံာ်မၢ်",
        "အံာ်"
      ],
      [
        "မၱတမၱာ်",
        "နီး"
      ],
      [
        "အံၣ်စရ့",
        "လး"
      ],
      [
        "စၱးပိး",
        "စၱးသဳ"
      ],
      [
        "ယကယၱၢ်ဘဲာ်ထၱး",
        "မၤ"
      ]
    ]
  }
}