{
  "version": "1.0",
  "truncation": null,
  "padding": null,
  "added_tokens": [
    {
      "id": 0,
      "content": "<pad>",
      "single_word": false,
      "lstrip": false,
      "rstrip": false,
      "normalized": false,
      "special": true
    },
    {
      "id": 1,
      "content": "<unk>",
      "single_word": false,
      "lstrip": false,
      "rstrip": false,
      "normalized": false,
      "special": true
    },
    {
      "id": 2,
      "content": "<s>",
      "single_word": false,
      "lstrip": false,
      "rstrip": false,
      "normalized": false,
      "special": true
    },
    {
      "id": 3,
      "content": "</s>",
      "single_word": false,
      "lstrip": false,
      "rstrip": false,
      "normalized": false,
      "special": true
    }
  ],
  "normalizer": null,
  "pre_tokenizer": {
    "type": "Sequence",
    "pretokenizers": [
      {
        "type": "Whitespace"
      },
      {
        "type": "Split",
        "pattern": {
          "Regex": "(?<=[ऀ-ॿ஀-௿฀-๿຀-໿က-႟ក-៿一-鿿꤀-꤯])(?=[A-Za-z0-9])|(?<=[A-Za-z0-9])(?=[ऀ-ॿ஀-௿฀-๿຀-໿က-႟ក-៿一-鿿꤀-꤯])"
        },
        "behavior": "Isolated",
        "invert": false
      }
    ]
  },
  "post_processor": null,
  "decoder": null,
  "model": {
    "type": "BPE",
    "dropout": null,
    "unk_token": "<unk>",
    "continuing_subword_prefix": null,
    "end_of_word_suffix": null,
    "fuse_unk": false,
    "byte_fallback": false,
    "ignore_merges": false,
    "vocab": {
      "<pad>": 0,
      "<unk>": 1,
      "<s>": 2,
      "</s>": 3,
      "!": 4,
      "\"": 5,
      "#": 6,
      "$": 7,
      "%": 8,
      "&": 9,
      "'": 10,
      "(": 11,
      ")": 12,
      "*": 13,
      "+": 14,
      ",": 15,
      "-": 16,
      ".": 17,
      "/": 18,
      "0": 19,
      "1": 20,
      "2": 21,
      "3": 22,
      "4": 23,
      "5": 24,
      "6": 25,
      "7": 26,
      "8": 27,
      "9": 28,
      ":": 29,
      ";": 30,
      "<": 31,
      "=": 32,
      ">": 33,
      "?": 34,
      "@": 35,
      "A": 36,
      "B": 37,
      "C": 38,
      "D": 39,
      "E": 40,
      "F": 41,
      "G": 42,
      "H": 43,
      "I": 44,
      "J": 45,
      "K": 46,
      "L": 47,
      "M": 48,
      "N": 49,
      "O": 50,
      "P": 51,
      "Q": 52,
      "R": 53,
      "S": 54,
      "T": 55,
      "U": 56,
      "V": 57,
      "W": 58,
      "X": 59,
      "Y": 60,
      "Z": 61,
      "[": 62,
      "\\": 63,
      "]": 64,
      "^": 65,
      "_": 66,
      "`": 67,
      "a": 68,
      "b": 69,
      "c": 70,
      "d": 71,
      "e": 72,
      "f": 73,
      "g": 74,
      "h": 75,
      "i": 76,
      "j": 77,
      "k": 78,
      "l": 79,
      "m": 80,
      "n": 81,
      "o": 82,
      "p": 83,
      "q": 84,
      "r": 85,
      "s": 86,
      "t": 87,
      "u": 88,
      "v": 89,
      "w": 90,
      "x": 91,
      "y": 92,
      "z": 93,
      "{": 94,
      "|": 95,
      "}": 96,
      "~": 97,
      "": 98,
      "¡": 99,
      "¢": 100,
      "£": 101,
      "¤": 102,
      "¥": 103,
      "¦": 104,
      "§": 105,
      "©": 106,
      "«": 107,
      "¬": 108,
      "­": 109,
      "®": 110,
      "°": 111,
      "±": 112,
      "²": 113,
      "³": 114,
      "´": 115,
      "µ": 116,
      "¶": 117,
      "·": 118,
      "¸": 119,
      "¹": 120,
      "º": 121,
      "»": 122,
      "½": 123,
      "¿": 124,
      "À": 125,
      "Á": 126,
      "Â": 127,
      "Ã": 128,
      "Ä": 129,
      "Å": 130,
      "Æ": 131,
      "Ç": 132,
      "È": 133,
      "É": 134,
      "Ê": 135,
      "Ë": 136,
      "Ì": 137,
      "Í": 138,
      "Î": 139,
      "Ï": 140,
      "Ð": 141,
      "Ñ": 142,
      "Ò": 143,
      "Ó": 144,
      "Ô": 145,
      "Õ": 146,
      "Ö": 147,
      "×": 148,
      "Ø": 149,
      "Ù": 150,
      "Ú": 151,
      "Û": 152,
      "Ü": 153,
      "Ý": 154,
      "Þ": 155,
      "ß": 156,
      "à": 157,
      "á": 158,
      "â": 159,
      "ã": 160,
      "ä": 161,
      "å": 162,
      "æ": 163,
      "ç": 164,
      "è": 165,
      "é": 166,
      "ê": 167,
      "ë": 168,
      "ì": 169,
      "í": 170,
      "î": 171,
      "ï": 172,
      "ð": 173,
      "ñ": 174,
      "ò": 175,
      "ó": 176,
      "ô": 177,
      "õ": 178,
      "ö": 179,
      "÷": 180,
      "ø": 181,
      "ù": 182,
      "ú": 183,
      "û": 184,
      "ü": 185,
      "ý": 186,
      "þ": 187,
      "ÿ": 188,
      "Ā": 189,
      "ā": 190,
      "Ă": 191,
      "ă": 192,
      "Ą": 193,
      "ą": 194,
      "Ć": 195,
      "ć": 196,
      "Ĉ": 197,
      "ĉ": 198,
      "Ċ": 199,
      "ċ": 200,
      "Č": 201,
      "č": 202,
      "Ď": 203,
      "ď": 204,
      "Đ": 205,
      "đ": 206,
      "Ē": 207,
      "ē": 208,
      "Ĕ": 209,
      "ĕ": 210,
      "Ė": 211,
      "ė": 212,
      "Ę": 213,
      "ę": 214,
      "Ě": 215,
      "ě": 216,
      "Ĝ": 217,
      "ĝ": 218,
      "Ğ": 219,
      "ğ": 220,
      "Ġ": 221,
      "ġ": 222,
      "Ģ": 223,
      "ģ": 224,
      "Ĥ": 225,
      "ĥ": 226,
      "Ħ": 227,
      "ħ": 228,
      "Ĩ": 229,
      "ĩ": 230,
      "Ī": 231,
      "ī": 232,
      "Ĭ": 233,
      "ĭ": 234,
      "Į": 235,
      "į": 236,
      "İ": 237,
      "ı": 238,
      "Ĵ": 239,
      "ĵ": 240,
      "Ķ": 241,
      "ķ": 242,
      "Ĺ": 243,
      "ĺ": 244,
      "Ļ": 245,
      "ļ": 246,
      "Ľ": 247,
      "ľ": 248,
      "Ŀ": 249,
      "ŀ": 250,
      "Ł": 251,
      "ł": 252,
      "Ń": 253,
      "ń": 254,
      "Ņ": 255,
      "ņ": 256,
      "Ň": 257,
      "ň": 258,
      "Ŋ": 259,
      "ŋ": 260,
      "Ō": 261,
      "ō": 262,
      "Ŏ": 263,
      "ŏ": 264,
      "Ő": 265,
      "ő": 266,
      "Œ": 267,
      "œ": 268,
      "Ŕ": 269,
      "ŕ": 270,
      "Ŗ": 271,
      "ŗ": 272,
      "Ř": 273,
      "ř": 274,
      "Ś": 275,
      "ś": 276,
      "Ŝ": 277,
      "ŝ": 278,
      "Ş": 279,
      "ş": 280,
      "Š": 281,
      "š": 282,
      "Ţ": 283,
      "ţ": 284,
      "Ť": 285,
      "ť": 286,
      "ŧ": 287,
      "Ũ": 288,
      "ũ": 289,
      "Ū": 290,
      "ū": 291,
      "Ŭ": 292,
      "ŭ": 293,
      "Ů": 294,
      "ů": 295,
      "Ű": 296,
      "ű": 297,
      "Ų": 298,
      "ų": 299,
      "Ŵ": 300,
      "ŵ": 301,
      "Ŷ": 302,
      "ŷ": 303,
      "Ÿ": 304,
      "Ź": 305,
      "ź": 306,
      "Ż": 307,
      "ż": 308,
      "Ž": 309,
      "ž": 310,
      "Ɔ": 311,
      "ƈ": 312,
      "Ǝ": 313,
      "Ə": 314,
      "Ɛ": 315,
      "ƒ": 316,
      "ƕ": 317,
      "ƙ": 318,
      "ƛ": 319,
      "Ơ": 320,
      "ơ": 321,
      "ƥ": 322,
      "ƭ": 323,
      "Ư": 324,
      "ư": 325,
      "ƿ": 326,
      "ǀ": 327,
      "ǁ": 328,
      "ǂ": 329,
      "ǃ": 330,
      "Ǆ": 331,
      "Ǎ": 332,
      "ǎ": 333,
      "Ǐ": 334,
      "ǐ": 335,
      "Ǒ": 336,
      "ǒ": 337,
      "Ǔ": 338,
      "ǔ": 339,
      "Ǖ": 340,
      "ǖ": 341,
      "Ǘ": 342,
      "ǘ": 343,
      "Ǚ": 344,
      "ǚ": 345,
      "Ǜ": 346,
      "ǜ": 347,
      "ǝ": 348,
      "Ǣ": 349,
      "ǣ": 350,
      "Ǫ": 351,
      "ǫ": 352,
      "Ƕ": 353,
      "ȁ": 354,
      "ȅ": 355,
      "ȉ": 356,
      "Ȍ": 357,
      "ȍ": 358,
      "Ȏ": 359,
      "ȏ": 360,
      "Ȕ": 361,
      "ȕ": 362,
      "Ȗ": 363,
      "ȗ": 364,
      "Ș": 365,
      "ș": 366,
      "Ț": 367,
      "ț": 368,
      "ȡ": 369,
      "Ȳ": 370,
      "ȳ": 371,
      "ȴ": 372,
      "ȵ": 373,
      "ȶ": 374,
      "ȷ": 375,
      "Ɂ": 376,
      "ɂ": 377,
      "ɏ": 378,
      "ɐ": 379,
      "ɑ": 380,
      "ɒ": 381,
      "ɓ": 382,
      "ɔ": 383,
      "ɕ": 384,
      "ɖ": 385,
      "ɗ": 386,
      "ɘ": 387,
      "ə": 388,
      "ɚ": 389,
      "ɛ": 390,
      "ɜ": 391,
      "ɝ": 392,
      "ɞ": 393,
      "ɟ": 394,
      "ɠ": 395,
      "ɡ": 396,
      "ɢ": 397,
      "ɣ": 398,
      "ɤ": 399,
      "ɥ": 400,
      "ɦ": 401,
      "ɧ": 402,
      "ɨ": 403,
      "ɪ": 404,
      "ɫ": 405,
      "ɬ": 406,
      "ɭ": 407,
      "ɮ": 408,
      "ɯ": 409,
      "ɰ": 410,
      "ɱ": 411,
      "ɲ": 412,
      "ɳ": 413,
      "ɴ": 414,
      "ɵ": 415,
      "ɶ": 416,
      "ɸ": 417,
      "ɹ": 418,
      "ɺ": 419,
      "ɻ": 420,
      "ɽ": 421,
      "ɾ": 422,
      "ʀ": 423,
      "ʁ": 424,
      "ʂ": 425,
      "ʃ": 426,
      "ʄ": 427,
      "ʇ": 428,
      "ʈ": 429,
      "ʉ": 430,
      "ʊ": 431,
      "ʋ": 432,
      "ʌ": 433,
      "ʍ": 434,
      "ʎ": 435,
      "ʏ": 436,
      "ʐ": 437,
      "ʑ": 438,
      "ʒ": 439,
      "ʔ": 440,
      "ʕ": 441,
      "ʖ": 442,
      "ʗ": 443,
      "ʘ": 444,
      "ʙ": 445,
      "ʛ": 446,
      "ʜ": 447,
      "ʝ": 448,
      "ʟ": 449,
      "ʠ": 450,
      "ʡ": 451,
      "ʢ": 452,
      "ʣ": 453,
      "ʤ": 454,
      "ʥ": 455,
      "ʦ": 456,
      "ʧ": 457,
      "ʨ": 458,
      "ʰ": 459,
      "ʱ": 460,
      "ʲ": 461,
      "ʳ": 462,
      "ʶ": 463,
      "ʷ": 464,
      "ʹ": 465,
      "ʻ": 466,
      "ʼ": 467,
      "ʽ": 468,
      "ʾ": 469,
      "ʿ": 470,
      "ˀ": 471,
      "ˁ": 472,
      "ˈ": 473,
      "ˌ": 474,
      "ː": 475,
      "ˑ": 476,
      "˒": 477,
      "˓": 478,
      "˔": 479,
      "˕": 480,
      "˖": 481,
      "˗": 482,
      "˞": 483,
      "ˠ": 484,
      "ˡ": 485,
      "ˤ": 486,
      "˥": 487,
      "˦": 488,
      "˧": 489,
      "˨": 490,
      "˩": 491,
      "˭": 492,
      "̀": 493,
      "́": 494,
      "̂": 495,
      "̃": 496,
      "̄": 497,
      "̆": 498,
      "̈": 499,
      "̊": 500,
      "̋": 501,
      "̌": 502,
      "̍": 503,
      "̎": 504,
      "̏": 505,
      "̑": 506,
      "̘": 507,
      "̙": 508,
      "̚": 509,
      "̜": 510,
      "̝": 511,
      "̞": 512,
      "̟": 513,
      "̠": 514,
      "̢": 515,
      "̣": 516,
      "̤": 517,
      "̥": 518,
      "̩": 519,
      "̪": 520,
      "̫": 521,
      "̬": 522,
      "̯": 523,
      "̰": 524,
      "̱": 525,
      "̴": 526,
      "̹": 527,
      "̺": 528,
      "̻": 529,
      "̼": 530,
      "̽": 531,
      "͆": 532,
      "͇": 533,
      "͈": 534,
      "͉": 535,
      "͊": 536,
      "͍": 537,
      "͎": 538,
      "͑": 539,
      "͗": 540,
      "͜": 541,
      "͡": 542,
      "Ά": 543,
      "Έ": 544,
      "Ή": 545,
      "Ί": 546,
      "Ό": 547,
      "Ύ": 548,
      "Ώ": 549,
      "ΐ": 550,
      "Α": 551,
      "Β": 552,
      "Γ": 553,
      "Δ": 554,
      "Ε": 555,
      "Ζ": 556,
      "Η": 557,
      "Θ": 558,
      "Ι": 559,
      "Κ": 560,
      "Λ": 561,
      "Μ": 562,
      "Ν": 563,
      "Ξ": 564,
      "Ο": 565,
      "Π": 566,
      "Ρ": 567,
      "Σ": 568,
      "Τ": 569,
      "Υ": 570,
      "Φ": 571,
      "Χ": 572,
      "Ψ": 573,
      "Ω": 574,
      "Ϊ": 575,
      "Ϋ": 576,
      "ά": 577,
      "έ": 578,
      "ή": 579,
      "ί": 580,
      "ΰ": 581,
      "α": 582,
      "β": 583,
      "γ": 584,
      "δ": 585,
      "ε": 586,
      "ζ": 587,
      "η": 588,
      "θ": 589,
      "ι": 590,
      "κ": 591,
      "λ": 592,
      "μ": 593,
      "ν": 594,
      "ξ": 595,
      "ο": 596,
      "π": 597,
      "ρ": 598,
      "ς": 599,
      "σ": 600,
      "τ": 601,
      "υ": 602,
      "φ": 603,
      "χ": 604,
      "ψ": 605,
      "ω": 606,
      "ϊ": 607,
      "ϋ": 608,
      "ό": 609,
      "ύ": 610,
      "ώ": 611,
      "ϐ": 612,
      "ϑ": 613,
      "ϕ": 614,
      "Ϛ": 615,
      "Ϝ": 616,
      "ϝ": 617,
      "ϰ": 618,
      "ϱ": 619,
      "ϲ": 620,
      "ϵ": 621,
      "Ё": 622,
      "Ђ": 623,
      "Ѓ": 624,
      "Є": 625,
      "Ѕ": 626,
      "І": 627,
      "Ї": 628,
      "Ј": 629,
      "Љ": 630,
      "Њ": 631,
      "Ћ": 632,
      "Ќ": 633,
      "Ў": 634,
      "Џ": 635,
      "А": 636,
      "Б": 637,
      "В": 638,
      "Г": 639,
      "Д": 640,
      "Е": 641,
      "Ж": 642,
      "З": 643,
      "И": 644,
      "Й": 645,
      "К": 646,
      "Л": 647,
      "М": 648,
      "Н": 649,
      "О": 650,
      "П": 651,
      "Р": 652,
      "С": 653,
      "Т": 654,
      "У": 655,
      "Ф": 656,
      "Х": 657,
      "Ц": 658,
      "Ч": 659,
      "Ш": 660,
      "Щ": 661,
      "Ъ": 662,
      "Ы": 663,
      "Ь": 664,
      "Э": 665,
      "Ю": 666,
      "Я": 667,
      "а": 668,
      "б": 669,
      "в": 670,
      "г": 671,
      "д": 672,
      "е": 673,
      "ж": 674,
      "з": 675,
      "и": 676,
      "й": 677,
      "к": 678,
      "л": 679,
      "м": 680,
      "н": 681,
      "о": 682,
      "п": 683,
      "р": 684,
      "с": 685,
      "т": 686,
      "у": 687,
      "ф": 688,
      "х": 689,
      "ц": 690,
      "ч": 691,
      "ш": 692,
      "щ": 693,
      "ъ": 694,
      "ы": 695,
      "ь": 696,
      "э": 697,
      "ю": 698,
      "я": 699,
      "ё": 700,
      "ђ": 701,
      "ѓ": 702,
      "є": 703,
      "ѕ": 704,
      "і": 705,
      "ї": 706,
      "ј": 707,
      "љ": 708,
      "њ": 709,
      "ћ": 710,
      "ќ": 711,
      "ў": 712,
      "џ": 713,
      "Ґ": 714,
      "ґ": 715,
      "Ғ": 716,
      "ғ": 717,
      "Ҕ": 718,
      "ҕ": 719,
      "Җ": 720,
      "җ": 721,
      "Ҙ": 722,
      "ҙ": 723,
      "Қ": 724,
      "қ": 725,
      "Ҝ": 726,
      "ҝ": 727,
      "Ҟ": 728,
      "ҟ": 729,
      "Ҡ": 730,
      "ҡ": 731,
      "Ң": 732,
      "ң": 733,
      "Ҥ": 734,
      "ҥ": 735,
      "Ҧ": 736,
      "ҧ": 737,
      "Ҩ": 738,
      "ҩ": 739,
      "Ҫ": 740,
      "ҫ": 741,
      "Ҭ": 742,
      "ҭ": 743,
      "Ү": 744,
      "ү": 745,
      "Ұ": 746,
      "ұ": 747,
      "Ҳ": 748,
      "ҳ": 749,
      "Ҵ": 750,
      "ҵ": 751,
      "Ҷ": 752,
      "ҷ": 753,
      "Ҹ": 754,
      "ҹ": 755,
      "Һ": 756,
      "һ": 757,
      "Ҽ": 758,
      "ҽ": 759,
      "Ҿ": 760,
      "ҿ": 761,
      "Ӏ": 762,
      "Ӂ": 763,
      "ӂ": 764,
      "Ӄ": 765,
      "ӄ": 766,
      "Ӈ": 767,
      "ӈ": 768,
      "Ӌ": 769,
      "ӌ": 770,
      "ӏ": 771,
      "Ӑ": 772,
      "ӑ": 773,
      "Ӓ": 774,
      "ӓ": 775,
      "Ӕ": 776,
      "ӕ": 777,
      "Ӗ": 778,
      "ӗ": 779,
      "Ә": 780,
      "ә": 781,
      "Ӛ": 782,
      "ӛ": 783,
      "Ӝ": 784,
      "ӝ": 785,
      "Ӟ": 786,
      "ӟ": 787,
      "Ӡ": 788,
      "ӡ": 789,
      "Ӣ": 790,
      "ӣ": 791,
      "Ӥ": 792,
      "ӥ": 793,
      "Ӧ": 794,
      "ӧ": 795,
      "Ө": 796,
      "ө": 797,
      "Ӫ": 798,
      "ӫ": 799,
      "Ӯ": 800,
      "ӯ": 801,
      "Ӱ": 802,
      "ӱ": 803,
      "Ӳ": 804,
      "ӳ": 805,
      "Ӵ": 806,
      "ӵ": 807,
      "Ӹ": 808,
      "ӹ": 809,
      "Հ": 810,
      "ա": 811,
      "յ": 812,
      "ն": 813,
      "ս": 814,
      "տ": 815,
      "ք": 816,
      "֑": 817,
      "֖": 818,
      "֗": 819,
      "֜": 820,
      "֣": 821,
      "֥": 822,
      "֨": 823,
      "ְ": 824,
      "ֱ": 825,
      "ִ": 826,
      "ֵ": 827,
      "ֶ": 828,
      "ַ": 829,
      "ָ": 830,
      "ֹ": 831,
      "ֻ": 832,
      "ּ": 833,
      "ֽ": 834,
      "־": 835,
      "ׁ": 836,
      "ׂ": 837,
      "א": 838,
      "ב": 839,
      "ג": 840,
      "ד": 841,
      "ה": 842,
      "ו": 843,
      "ז": 844,
      "ח": 845,
      "ט": 846,
      "י": 847,
      "ך": 848,
      "כ": 849,
      "ל": 850,
      "ם": 851,
      "מ": 852,
      "ן": 853,
      "נ": 854,
      "ס": 855,
      "ע": 856,
      "ף": 857,
      "פ": 858,
      "ץ": 859,
      "צ": 860,
      "ק": 861,
      "ר": 862,
      "ש": 863,
      "ת": 864,
      "װ": 865,
      "ױ": 866,
      "ײ": 867,
      "׳": 868,
      "״": 869,
      "،": 870,
      "؛": 871,
      "؟": 872,
      "ء": 873,
      "أ": 874,
      "ؤ": 875,
      "إ": 876,
      "ئ": 877,
      "ا": 878,
      "ب": 879,
      "ة": 880,
      "ت": 881,
      "ث": 882,
      "ج": 883,
      "ح": 884,
      "خ": 885,
      "د": 886,
      "ذ": 887,
      "ر": 888,
      "ز": 889,
      "س": 890,
      "ش": 891,
      "ص": 892,
      "ض": 893,
      "ط": 894,
      "ظ": 895,
      "ع": 896,
      "غ": 897,
      "ف": 898,
      "ق": 899,
      "ك": 900,
      "ل": 901,
      "م": 902,
      "ن": 903,
      "ه": 904,
      "و": 905,
      "ى": 906,
      "ي": 907,
      "ً": 908,
      "َ": 909,
      "ِ": 910,
      "ْ": 911,
      "٠": 912,
      "١": 913,
      "٢": 914,
      "٣": 915,
      "٤": 916,
      "٥": 917,
      "٦": 918,
      "٧": 919,
      "٨": 920,
      "٩": 921,
      "ٹ": 922,
      "پ": 923,
      "ک": 924,
      "گ": 925,
      "ی": 926,
      "ە": 927,
      "۲": 928,
      "۳": 929,
      "۴": 930,
      "۵": 931,
      "۶": 932,
      "۹": 933,
      "ހ": 934,
      "ބ": 935,
      "ވ": 936,
      "ދ": 937,
      "ސ": 938,
      "ަ": 939,
      "ި": 940,
      "ެ": 941,
      "ް": 942,
      "ँ": 943,
      "ं": 944,
      "ः": 945,
      "अ": 946,
      "आ": 947,
      "इ": 948,
      "ई": 949,
      "उ": 950,
      "ऊ": 951,
      "ऋ": 952,
      "ए": 953,
      "ऐ": 954,
      "ओ": 955,
      "औ": 956,
      "क": 957,
      "ख": 958,
      "ग": 959,
      "घ": 960,
      "ङ": 961,
      "च": 962,
      "छ": 963,
      "ज": 964,
      "झ": 965,
      "ञ": 966,
      "ट": 967,
      "ठ": 968,
      "ड": 969,
      "ढ": 970,
      "ण": 971,
      "त": 972,
      "थ": 973,
      "द": 974,
      "ध": 975,
      "न": 976,
      "प": 977,
      "फ": 978,
      "ब": 979,
      "भ": 980,
      "म": 981,
      "य": 982,
      "र": 983,
      "ल": 984,
      "व": 985,
      "श": 986,
      "ष": 987,
      "स": 988,
      "ह": 989,
      "़": 990,
      "ा": 991,
      "ि": 992,
      "ी": 993,
      "ु": 994,
      "ू": 995,
      "ृ": 996,
      "ॅ": 997,
      "े": 998,
      "ै": 999,
      "ॉ": 1000,
      "ो": 1001,
      "ौ": 1002,
      "्": 1003,
      "ॠ": 1004,
      "।": 1005,
      "॥": 1006,
      "०": 1007,
      "१": 1008,
      "२": 1009,
      "३": 1010,
      "४": 1011,
      "५": 1012,
      "६": 1013,
      "७": 1014,
      "८": 1015,
      "९": 1016,
      "ং": 1017,
      "আ": 1018,
      "ক": 1019,
      "খ": 1020,
      "গ": 1021,
      "ঙ": 1022,
      "চ": 1023,
      "জ": 1024,
      "ঠ": 1025,
      "ঢ": 1026,
      "ণ": 1027,
      "ত": 1028,
      "দ": 1029,
      "ধ": 1030,
      "ন": 1031,
      "প": 1032,
      "ব": 1033,
      "ভ": 1034,
      "ম": 1035,
      "য": 1036,
      "র": 1037,
      "ল": 1038,
      "শ": 1039,
      "ষ": 1040,
      "স": 1041,
      "হ": 1042,
      "়": 1043,
      "া": 1044,
      "ি": 1045,
      "ী": 1046,
      "ু": 1047,
      "ূ": 1048,
      "ে": 1049,
      "ৈ": 1050,
      "ো": 1051,
      "্": 1052,
      "০": 1053,
      "১": 1054,
      "২": 1055,
      "৩": 1056,
      "৪": 1057,
      "৫": 1058,
      "৬": 1059,
      "৭": 1060,
      "৮": 1061,
      "৯": 1062,
      "ৰ": 1063,
      "৳": 1064,
      "ਖ": 1065,
      "ਚ": 1066,
      "ਣ": 1067,
      "ਤ": 1068,
      "ਨ": 1069,
      "ਮ": 1070,
      "ਰ": 1071,
      "ਲ": 1072,
      "ਸ": 1073,
      "ਿ": 1074,
      "ੀ": 1075,
      "ੂ": 1076,
      "ੇ": 1077,
      "੦": 1078,
      "੧": 1079,
      "੨": 1080,
      "੩": 1081,
      "੪": 1082,
      "੫": 1083,
      "੬": 1084,
      "੭": 1085,
      "੮": 1086,
      "੯": 1087,
      "ੰ": 1088,
      "ੱ": 1089,
      "ੴ": 1090,
      "ક": 1091,
      "ચ": 1092,
      "ત": 1093,
      "ર": 1094,
      "ા": 1095,
      "ૈ": 1096,
      "્": 1097,
      "૦": 1098,
      "૧": 1099,
      "૨": 1100,
      "૩": 1101,
      "૪": 1102,
      "૫": 1103,
      "૬": 1104,
      "૭": 1105,
      "૮": 1106,
      "૯": 1107,
      "ଆ": 1108,
      "କ": 1109,
      "ଖ": 1110,
      "ଢ": 1111,
      "ଣ": 1112,
      "ତ": 1113,
      "ଦ": 1114,
      "ଧ": 1115,
      "ପ": 1116,
      "ବ": 1117,
      "ଭ": 1118,
      "ମ": 1119,
      "ର": 1120,
      "ଶ": 1121,
      "ଷ": 1122,
      "ା": 1123,
      "ି": 1124,
      "ୁ": 1125,
      "ୂ": 1126,
      "ୈ": 1127,
      "୍": 1128,
      "୦": 1129,
      "୧": 1130,
      "୨": 1131,
      "୩": 1132,
      "୪": 1133,
      "୫": 1134,
      "୬": 1135,
      "୭": 1136,
      "୮": 1137,
      "୯": 1138,
      "அ": 1139,
      "ஆ": 1140,
      "இ": 1141,
      "ஈ": 1142,
      "உ": 1143,
      "ஊ": 1144,
      "எ": 1145,
      "ஏ": 1146,
      "ஐ": 1147,
      "ஒ": 1148,
      "ஓ": 1149,
      "க": 1150,
      "ங": 1151,
      "ச": 1152,
      "ஜ": 1153,
      "ஞ": 1154,
      "ட": 1155,
      "ண": 1156,
      "த": 1157,
      "ந": 1158,
      "ன": 1159,
      "ப": 1160,
      "ம": 1161,
      "ய": 1162,
      "ர": 1163,
      "ற": 1164,
      "ல": 1165,
      "ள": 1166,
      "ழ": 1167,
      "வ": 1168,
      "ஷ": 1169,
      "ஸ": 1170,
      "ஹ": 1171,
      "ா": 1172,
      "ி": 1173,
      "ீ": 1174,
      "ு": 1175,
      "ூ": 1176,
      "ெ": 1177,
      "ே": 1178,
      "ை": 1179,
      "ொ": 1180,
      "ோ": 1181,
      "ௌ": 1182,
      "்": 1183,
      "௦": 1184,
      "௧": 1185,
      "௨": 1186,
      "௩": 1187,
      "௪": 1188,
      "௫": 1189,
      "௬": 1190,
      "௭": 1191,
      "௮": 1192,
      "௯": 1193,
      "ం": 1194,
      "క": 1195,
      "ఖ": 1196,
      "చ": 1197,
      "ణ": 1198,
      "త": 1199,
      "ద": 1200,
      "ధ": 1201,
      "ప": 1202,
      "బ": 1203,
      "మ": 1204,
      "ర": 1205,
      "వ": 1206,
      "శ": 1207,
      "ా": 1208,
      "ి": 1209,
      "ీ": 1210,
      "ు": 1211,
      "ై": 1212,
      "ౌ": 1213,
      "్": 1214,
      "౦": 1215,
      "౧": 1216,
      "౨": 1217,
      "౩": 1218,
      "౪": 1219,
      "౫": 1220,
      "౬": 1221,
      "౭": 1222,
      "౮": 1223,
      "౯": 1224,
      "ಕ": 1225,
      "ಖ": 1226,
      "ಚ": 1227,
      "ಣ": 1228,
      "ತ": 1229,
      "ದ": 1230,
      "ಧ": 1231,
      "ಪ": 1232,
      "ಬ": 1233,
      "ಮ": 1234,
      "ರ": 1235,
      "ವ": 1236,
      "ಶ": 1237,
      "ಾ": 1238,
      "ಿ": 1239,
      "ು": 1240,
      "ೈ": 1241,
      "ೌ": 1242,
      "್": 1243,
      "೦": 1244,
      "೧": 1245,
      "೨": 1246,
      "೩": 1247,
      "೪": 1248,
      "೫": 1249,
      "೬": 1250,
      "೭": 1251,
      "೮": 1252,
      "೯": 1253,
      "ം": 1254,
      "ക": 1255,
      "ച": 1256,
      "ട": 1257,
      "ണ": 1258,
      "ത": 1259,
      "പ": 1260,
      "മ": 1261,
      "യ": 1262,
      "ര": 1263,
      "റ": 1264,
      "ല": 1265,
      "ള": 1266,
      "വ": 1267,
      "ഷ": 1268,
      "സ": 1269,
      "ി": 1270,
      "ൂ": 1271,
      "െ": 1272,
      "ൈ": 1273,
      "്": 1274,
      "൦": 1275,
      "൧": 1276,
      "൨": 1277,
      "൩": 1278,
      "൪": 1279,
      "൫": 1280,
      "൬": 1281,
      "൭": 1282,
      "൮": 1283,
      "൯": 1284,
      "අ": 1285,
      "ඇ": 1286,
      "ඉ": 1287,
      "උ": 1288,
      "ඔ": 1289,
      "ඕ": 1290,
      "ක": 1291,
      "ග": 1292,
      "ඩ": 1293,
      "ණ": 1294,
      "ත": 1295,
      "ද": 1296,
      "ධ": 1297,
      "න": 1298,
      "ඳ": 1299,
      "ප": 1300,
      "බ": 1301,
      "ම": 1302,
      "ය": 1303,
      "ර": 1304,
      "ල": 1305,
      "ව": 1306,
      "ස": 1307,
      "හ": 1308,
      "ළ": 1309,
      "්": 1310,
      "ා": 1311,
      "ැ": 1312,
      "ෑ": 1313,
      "ි": 1314,
      "ී": 1315,
      "ු": 1316,
      "ෙ": 1317,
      "ේ": 1318,
      "ො": 1319,
      "ෝ": 1320,
      "ก": 1321,
      "ข": 1322,
      "ฃ": 1323,
      "ค": 1324,
      "ฅ": 1325,
      "ฆ": 1326,
      "ง": 1327,
      "จ": 1328,
      "ฉ": 1329,
      "ช": 1330,
      "ซ": 1331,
      "ฌ": 1332,
      "ญ": 1333,
      "ฎ": 1334,
      "ฏ": 1335,
      "ฐ": 1336,
      "ฑ": 1337,
      "ฒ": 1338,
      "ณ": 1339,
      "ด": 1340,
      "ต": 1341,
      "ถ": 1342,
      "ท": 1343,
      "ธ": 1344,
      "น": 1345,
      "บ": 1346,
      "ป": 1347,
      "ผ": 1348,
      "ฝ": 1349,
      "พ": 1350,
      "ฟ": 1351,
      "ภ": 1352,
      "ม": 1353,
      "ย": 1354,
      "ร": 1355,
      "ฤ": 1356,
      "ล": 1357,
      "ว": 1358,
      "ศ": 1359,
      "ษ": 1360,
      "ส": 1361,
      "ห": 1362,
      "ฬ": 1363,
      "อ": 1364,
      "ฮ": 1365,
      "ฯ": 1366,
      "ะ": 1367,
      "ั": 1368,
      "า": 1369,
      "ำ": 1370,
      "ิ": 1371,
      "ี": 1372,
      "ึ": 1373,
      "ื": 1374,
      "ุ": 1375,
      "ู": 1376,
      "ฺ": 1377,
      "฿": 1378,
      "เ": 1379,
      "แ": 1380,
      "โ": 1381,
      "ใ": 1382,
      "ไ": 1383,
      "ๅ": 1384,
      "ๆ": 1385,
      "็": 1386,
      "่": 1387,
      "้": 1388,
      "๊": 1389,
      "๋": 1390,
      "์": 1391,
      "ํ": 1392,
      "๐": 1393,
      "๑": 1394,
      "๒": 1395,
      "๓": 1396,
      "๔": 1397,
      "๕": 1398,
      "๖": 1399,
      "๗": 1400,
      "๘": 1401,
      "๙": 1402,
      "ກ": 1403,
      "ຂ": 1404,
      "ຄ": 1405,
      "ງ": 1406,
      "ຈ": 1407,
      "ຊ": 1408,
      "ຍ": 1409,
      "ດ": 1410,
      "ຕ": 1411,
      "ຖ": 1412,
      "ທ": 1413,
      "ນ": 1414,
      "ບ": 1415,
      "ປ": 1416,
      "ຜ": 1417,
      "ຝ": 1418,
      "ພ": 1419,
      "ຟ": 1420,
      "ມ": 1421,
      "ຢ": 1422,
      "ຣ": 1423,
      "ລ": 1424,
      "ວ": 1425,
      "ສ": 1426,
      "ຫ": 1427,
      "ອ": 1428,
      "ຮ": 1429,
      "ະ": 1430,
      "ັ": 1431,
      "າ": 1432,
      "ຳ": 1433,
      "ິ": 1434,
      "ີ": 1435,
      "ຶ": 1436,
      "ື": 1437,
      "ຸ": 1438,
      "ູ": 1439,
      "ົ": 1440,
      "ຼ": 1441,
      "ຽ": 1442,
      "ເ": 1443,
      "ແ": 1444,
      "ໂ": 1445,
      "ໃ": 1446,
      "ໄ": 1447,
      "ໆ": 1448,
      "່": 1449,
      "້": 1450,
      "໋": 1451,
      "ໍ": 1452,
      "໐": 1453,
      "໑": 1454,
      "໒": 1455,
      "໓": 1456,
      "໔": 1457,
      "໕": 1458,
      "໖": 1459,
      "໗": 1460,
      "໘": 1461,
      "໙": 1462,
      "ໜ": 1463,
      "ໝ": 1464,
      "་": 1465,
      "།": 1466,
      "༠": 1467,
      "༡": 1468,
      "༢": 1469,
      "༣": 1470,
      "༤": 1471,
      "༥": 1472,
      "༦": 1473,
      "༧": 1474,
      "༨": 1475,
      "༩": 1476,
      "ཀ": 1477,
      "ག": 1478,
      "ཆ": 1479,
      "ད": 1480,
      "ན": 1481,
      "པ": 1482,
      "བ": 1483,
      "མ": 1484,
      "ཛ": 1485,
      "ཟ": 1486,
      "འ": 1487,
      "ར": 1488,
      "ཤ": 1489,
      "ས": 1490,
      "ཱ": 1491,
      "ི": 1492,
      "ུ": 1493,
      "ེ": 1494,
      "ོ": 1495,
      "ྟ": 1496,
      "ྱ": 1497,
      "ྲ": 1498,
      "ླ": 1499,
      "က": 1500,
      "ခ": 1501,
      "ဂ": 1502,
      "ဃ": 1503,
      "င": 1504,
      "စ": 1505,
      "ဆ": 1506,
      "ဇ": 1507,
      "ဈ": 1508,
      "ဉ": 1509,
      "ည": 1510,
      "ဋ": 1511,
      "ဌ": 1512,
      "ဍ": 1513,
      "ဎ": 1514,
      "ဏ": 1515,
      "တ": 1516,
      "ထ": 1517,
      "ဒ": 1518,
      "ဓ": 1519,
      "န": 1520,
      "ပ": 1521,
      "ဖ": 1522,
      "ဗ": 1523,
      "ဘ": 1524,
      "မ": 1525,
      "ယ": 1526,
      "ရ": 1527,
      "လ": 1528,
      "ဝ": 1529,
      "သ": 1530,
      "ဟ": 1531,
      "ဠ": 1532,
      "အ": 1533,
      "ဢ": 1534,
      "ဣ": 1535,
      "ဤ": 1536,
      "ဥ": 1537,
      "ဦ": 1538,
      "ဧ": 1539,
      "ဨ": 1540,
      "ဩ": 1541,
      "ဪ": 1542,
      "ါ": 1543,
      "ာ": 1544,
      "ိ": 1545,
      "ီ": 1546,
      "ု": 1547,
      "ူ": 1548,
      "ေ": 1549,
      "ဲ": 1550,
      "ဳ": 1551,
      "ဴ": 1552,
      "ဵ": 1553,
      "ံ": 1554,
      "့": 1555,
      "း": 1556,
      "္": 1557,
      "်": 1558,
      "ျ": 1559,
      "ြ": 1560,
      "ွ": 1561,
      "ှ": 1562,
      "ဿ": 1563,
      "၀": 1564,
      "၁": 1565,
      "၂": 1566,
      "၃": 1567,
      "၄": 1568,
      "၅": 1569,
      "၆": 1570,
      "၇": 1571,
      "၈": 1572,
      "၉": 1573,
      "၊": 1574,
      "။": 1575,
      "၌": 1576,
      "၍": 1577,
      "၎": 1578,
      "၏": 1579,
      "ၐ": 1580,
      "ၑ": 1581,
      "ၒ": 1582,
      "ၓ": 1583,
      "ၔ": 1584,
      "ၕ": 1585,
      "ၖ": 1586,
      "ၗ": 1587,
      "ၘ": 1588,
      "ၙ": 1589,
      "ၚ": 1590,
      "ၛ": 1591,
      "ၜ": 1592,
      "ၝ": 1593,
      "ၞ": 1594,
      "ၟ": 1595,
      "ၠ": 1596,
      "ၡ": 1597,
      "ၢ": 1598,
      "ၣ": 1599,
      "ၤ": 1600,
      "ၥ": 1601,
      "ၦ": 1602,
      "ၧ": 1603,
      "ၨ": 1604,
      "ၩ": 1605,
      "ၪ": 1606,
      "ၫ": 1607,
      "ၬ": 1608,
      "ၭ": 1609,
      "ၮ": 1610,
      "ၯ": 1611,
      "ၰ": 1612,
      "ၱ": 1613,
      "ၲ": 1614,
      "ၳ": 1615,
      "ၴ": 1616,
      "ၵ": 1617,
      "ၶ": 1618,
      "ၷ": 1619,
      "ၸ": 1620,
      "ၹ": 1621,
      "ၺ": 1622,
      "ၻ": 1623,
      "ၼ": 1624,
      "ၽ": 1625,
      "ၾ": 1626,
      "ၿ": 1627,
      "ႀ": 1628,
      "ႁ": 1629,
      "ႂ": 1630,
      "ႃ": 1631,
      "ႄ": 1632,
      "ႅ": 1633,
      "ႆ": 1634,
      "ႇ": 1635,
      "ႈ": 1636,
      "ႉ": 1637,
      "ႊ": 1638,
      "ႋ": 1639,
      "ႌ": 1640,
      "ႍ": 1641,
      "ႎ": 1642,
      "ႏ": 1643,
      "႐": 1644,
      "႑": 1645,
      "႒": 1646,
      "႓": 1647,
      "႔": 1648,
      "႕": 1649,
      "႖": 1650,
      "႗": 1651,
      "႘": 1652,
      "႙": 1653,
      "ႚ": 1654,
      "ႛ": 1655,
      "ႜ": 1656,
      "ႝ": 1657,
      "႞": 1658,
      "႟": 1659,
      "ა": 1660,
      "ე": 1661,
      "ვ": 1662,
      "თ": 1663,
      "კ": 1664,
      "ლ": 1665,
      "ო": 1666,
      "რ": 1667,
      "ს": 1668,
      "ქ": 1669,
      "ღ": 1670,
      "ᅪ": 1671,
      "ቡ": 1672,
      "አ": 1673,
      "ዳ": 1674,
      "ጊ": 1675,
      "፩": 1676,
      "፪": 1677,
      "፫": 1678,
      "፬": 1679,
      "፭": 1680,
      "፮": 1681,
      "፯": 1682,
      "፰": 1683,
      "፱": 1684,
      "ᐁ": 1685,
      "ᕕ": 1686,
      "ᖃ": 1687,
      "ក": 1688,
      "ខ": 1689,
      "គ": 1690,
      "ឃ": 1691,
      "ង": 1692,
      "ច": 1693,
      "ឆ": 1694,
      "ជ": 1695,
      "ឈ": 1696,
      "ញ": 1697,
      "ដ": 1698,
      "ឋ": 1699,
      "ឌ": 1700,
      "ឍ": 1701,
      "ណ": 1702,
      "ត": 1703,
      "ថ": 1704,
      "ទ": 1705,
      "ធ": 1706,
      "ន": 1707,
      "ប": 1708,
      "ផ": 1709,
      "ព": 1710,
      "ភ": 1711,
      "ម": 1712,
      "យ": 1713,
      "រ": 1714,
      "ល": 1715,
      "វ": 1716,
      "ស": 1717,
      "ហ": 1718,
      "ឡ": 1719,
      "អ": 1720,
      "ឤ": 1721,
      "ឥ": 1722,
      "ឧ": 1723,
      "ឪ": 1724,
      "ឫ": 1725,
      "ឬ": 1726,
      "ឭ": 1727,
      "ឮ": 1728,
      "ឯ": 1729,
      "ឱ": 1730,
      "ឲ": 1731,
      "ា": 1732,
      "ិ": 1733,
      "ី": 1734,
      "ឹ": 1735,
      "ឺ": 1736,
      "ុ": 1737,
      "ូ": 1738,
      "ួ": 1739,
      "ើ": 1740,
      "ឿ": 1741,
      "ៀ": 1742,
      "េ": 1743,
      "ែ": 1744,
      "ៃ": 1745,
      "ោ": 1746,
      "ៅ": 1747,
      "ំ": 1748,
      "ះ": 1749,
      "ៈ": 1750,
      "៉": 1751,
      "៊": 1752,
      "់": 1753,
      "៌": 1754,
      "៍": 1755,
      "៎": 1756,
      "៏": 1757,
      "័": 1758,
      "្": 1759,
      "។": 1760,
      "៕": 1761,
      "៖": 1762,
      "ៗ": 1763,
      "៛": 1764,
      "០": 1765,
      "១": 1766,
      "២": 1767,
      "៣": 1768,
      "៤": 1769,
      "៥": 1770,
      "៦": 1771,
      "៧": 1772,
      "៨": 1773,
      "៩": 1774,
      "᠐": 1775,
      "᠑": 1776,
      "᠒": 1777,
      "᠓": 1778,
      "᠔": 1779,
      "᠕": 1780,
      "᠖": 1781,
      "᠗": 1782,
      "᠘": 1783,
      "᠙": 1784,
      "᥆": 1785,
      "᥇": 1786,
      "᥈": 1787,
      "᥉": 1788,
      "᥊": 1789,
      "᥋": 1790,
      "᥌": 1791,
      "᥍": 1792,
      "᥎": 1793,
      "᥏": 1794,
      "᧐": 1795,
      "᧑": 1796,
      "᧒": 1797,
      "᧓": 1798,
      "᧔": 1799,
      "᧕": 1800,
      "᧖": 1801,
      "᧗": 1802,
      "᧘": 1803,
      "᧙": 1804,
      "ᨥ": 1805,
      "ᴳ": 1806,
      "ᵇ": 1807,
      "ᵈ": 1808,
      "ᵊ": 1809,
      "ᵍ": 1810,
      "ᵏ": 1811,
      "ᵐ": 1812,
      "ᵑ": 1813,
      "ᵖ": 1814,
      "ᵗ": 1815,
      "ᵝ": 1816,
      "ᵡ": 1817,
      "ᵬ": 1818,
      "ᵭ": 1819,
      "ᵮ": 1820,
      "ᵯ": 1821,
      "ᵰ": 1822,
      "ᵱ": 1823,
      "ᵲ": 1824,
      "ᵳ": 1825,
      "ᵴ": 1826,
      "ᵵ": 1827,
      "ᵶ": 1828,
      "ᵸ": 1829,
      "ᵻ": 1830,
      "ᵿ": 1831,
      "ᶑ": 1832,
      "ᶜ": 1833,
      "ᶡ": 1834,
      "ᶢ": 1835,
      "ᶣ": 1836,
      "ᶬ": 1837,
      "ᶮ": 1838,
      "ᶯ": 1839,
      "ᶰ": 1840,
      "᷂": 1841,
      "᷄": 1842,
      "᷅": 1843,
      "᷆": 1844,
      "᷇": 1845,
      "᷈": 1846,
      "᷉": 1847,
      "᷽": 1848,
      "ḁ": 1849,
      "ḅ": 1850,
      "Ḍ": 1851,
      "ḍ": 1852,
      "ḏ": 1853,
      "ḗ": 1854,
      "ḛ": 1855,
      "Ḥ": 1856,
      "ḥ": 1857,
      "ḩ": 1858,
      "ḫ": 1859,
      "ḭ": 1860,
      "Ḷ": 1861,
      "ḷ": 1862,
      "Ḹ": 1863,
      "ḹ": 1864,
      "ṁ": 1865,
      "Ṃ": 1866,
      "ṃ": 1867,
      "ṅ": 1868,
      "Ṇ": 1869,
      "ṇ": 1870,
      "ṓ": 1871,
      "ṗ": 1872,
      "Ṛ": 1873,
      "ṛ": 1874,
      "Ṝ": 1875,
      "ṝ": 1876,
      "ṡ": 1877,
      "Ṣ": 1878,
      "ṣ": 1879,
      "Ṭ": 1880,
      "ṭ": 1881,
      "ṯ": 1882,
      "ṳ": 1883,
      "ṵ": 1884,
      "ṽ": 1885,
      "ẓ": 1886,
      "ẕ": 1887,
      "ẖ": 1888,
      "ẗ": 1889,
      "ẘ": 1890,
      "ẙ": 1891,
      "Ạ": 1892,
      "ạ": 1893,
      "Ả": 1894,
      "ả": 1895,
      "Ấ": 1896,
      "ấ": 1897,
      "ầ": 1898,
      "ẩ": 1899,
      "ẫ": 1900,
      "ậ": 1901,
      "Ắ": 1902,
      "ắ": 1903,
      "ằ": 1904,
      "ẳ": 1905,
      "Ẵ": 1906,
      "ẵ": 1907,
      "ặ": 1908,
      "Ẹ": 1909,
      "ẹ": 1910,
      "ẻ": 1911,
      "Ẽ": 1912,
      "ẽ": 1913,
      "Ế": 1914,
      "ế": 1915,
      "ề": 1916,
      "ể": 1917,
      "ễ": 1918,
      "ệ": 1919,
      "ỉ": 1920,
      "Ị": 1921,
      "ị": 1922,
      "Ọ": 1923,
      "ọ": 1924,
      "ỏ": 1925,
      "Ố": 1926,
      "ố": 1927,
      "Ồ": 1928,
      "ồ": 1929,
      "ổ": 1930,
      "ỗ": 1931,
      "ộ": 1932,
      "ớ": 1933,
      "ờ": 1934,
      "Ở": 1935,
      "ở": 1936,
      "ỡ": 1937,
      "ợ": 1938,
      "Ụ": 1939,
      "ụ": 1940,
      "Ủ": 1941,
      "ủ": 1942,
      "Ứ": 1943,
      "ứ": 1944,
      "ừ": 1945,
      "ử": 1946,
      "ữ": 1947,
      "ự": 1948,
      "ỳ": 1949,
      "ỵ": 1950,
      "ỷ": 1951,
      "Ỹ": 1952,
      "ỹ": 1953,
      "ἀ": 1954,
      "ἁ": 1955,
      "ἂ": 1956,
      "ἃ": 1957,
      "ἄ": 1958,
      "ἅ": 1959,
      "ἆ": 1960,
      "ἇ": 1961,
      "Ἀ": 1962,
      "Ἁ": 1963,
      "Ἂ": 1964,
      "Ἃ": 1965,
      "Ἄ": 1966,
      "Ἅ": 1967,
      "Ἆ": 1968,
      "Ἇ": 1969,
      "ἐ": 1970,
      "ἑ": 1971,
      "ἒ": 1972,
      "ἓ": 1973,
      "ἔ": 1974,
      "ἕ": 1975,
      "Ἐ": 1976,
      "Ἑ": 1977,
      "Ἒ": 1978,
      "Ἓ": 1979,
      "Ἔ": 1980,
      "Ἕ": 1981,
      "ἠ": 1982,
      "ἡ": 1983,
      "ἢ": 1984,
      "ἣ": 1985,
      "ἤ": 1986,
      "ἥ": 1987,
      "ἦ": 1988,
      "ἧ": 1989,
      "Ἠ": 1990,
      "Ἡ": 1991,
      "Ἢ": 1992,
      "Ἣ": 1993,
      "Ἤ": 1994,
      "Ἥ": 1995,
      "Ἦ": 1996,
      "Ἧ": 1997,
      "ἰ": 1998,
      "ἱ": 1999,
      "ἲ": 2000,
      "ἳ": 2001,
      "ἴ": 2002,
      "ἵ": 2003,
      "ἶ": 2004,
      "ἷ": 2005,
      "Ἰ": 2006,
      "Ἱ": 2007,
      "Ἲ": 2008,
      "Ἳ": 2009,
      "Ἴ": 2010,
      "Ἵ": 2011,
      "Ἶ": 2012,
      "Ἷ": 2013,
      "ὀ": 2014,
      "ὁ": 2015,
      "ὂ": 2016,
      "ὃ": 2017,
      "ὄ": 2018,
      "ὅ": 2019,
      "Ὀ": 2020,
      "Ὁ": 2021,
      "Ὂ": 2022,
      "Ὃ": 2023,
      "Ὄ": 2024,
      "Ὅ": 2025,
      "ὐ": 2026,
      "ὑ": 2027,
      "ὒ": 2028,
      "ὓ": 2029,
      "ὔ": 2030,
      "ὕ": 2031,
      "ὖ": 2032,
      "ὗ": 2033,
      "Ὑ": 2034,
      "Ὓ": 2035,
      "Ὕ": 2036,
      "Ὗ": 2037,
      "ὠ": 2038,
      "ὡ": 2039,
      "ὢ": 2040,
      "ὣ": 2041,
      "ὤ": 2042,
      "ὥ": 2043,
      "ὦ": 2044,
      "ὧ": 2045,
      "Ὠ": 2046,
      "Ὡ": 2047,
      "Ὢ": 2048,
      "Ὣ": 2049,
      "Ὤ": 2050,
      "Ὥ": 2051,
      "Ὦ": 2052,
      "Ὧ": 2053,
      "ὰ": 2054,
      "ὲ": 2055,
      "ὴ": 2056,
      "ὶ": 2057,
      "ὸ": 2058,
      "ὺ": 2059,
      "ὼ": 2060,
      "ᾀ": 2061,
      "ᾁ": 2062,
      "ᾂ": 2063,
      "ᾃ": 2064,
      "ᾄ": 2065,
      "ᾅ": 2066,
      "ᾆ": 2067,
      "ᾇ": 2068,
      "ᾈ": 2069,
      "ᾉ": 2070,
      "ᾊ": 2071,
      "ᾋ": 2072,
      "ᾌ": 2073,
      "ᾍ": 2074,
      "ᾎ": 2075,
      "ᾏ": 2076,
      "ᾐ": 2077,
      "ᾑ": 2078,
      "ᾒ": 2079,
      "ᾓ": 2080,
      "ᾔ": 2081,
      "ᾕ": 2082,
      "ᾖ": 2083,
      "ᾗ": 2084,
      "ᾘ": 2085,
      "ᾙ": 2086,
      "ᾚ": 2087,
      "ᾛ": 2088,
      "ᾜ": 2089,
      "ᾝ": 2090,
      "ᾞ": 2091,
      "ᾟ": 2092,
      "ᾠ": 2093,
      "ᾡ": 2094,
      "ᾢ": 2095,
      "ᾣ": 2096,
      "ᾤ": 2097,
      "ᾥ": 2098,
      "ᾦ": 2099,
      "ᾧ": 2100,
      "ᾨ": 2101,
      "ᾩ": 2102,
      "ᾪ": 2103,
      "ᾫ": 2104,
      "ᾬ": 2105,
      "ᾭ": 2106,
      "ᾮ": 2107,
      "ᾯ": 2108,
      "ᾰ": 2109,
      "ᾱ": 2110,
      "ᾲ": 2111,
      "ᾳ": 2112,
      "ᾴ": 2113,
      "ᾶ": 2114,
      "ᾷ": 2115,
      "Ᾰ": 2116,
      "Ᾱ": 2117,
      "Ὰ": 2118,
      "ᾼ": 2119,
      "ῂ": 2120,
      "ῃ": 2121,
      "ῄ": 2122,
      "ῆ": 2123,
      "ῇ": 2124,
      "Ὲ": 2125,
      "Ὴ": 2126,
      "ῌ": 2127,
      "ῐ": 2128,
      "ῑ": 2129,
      "ῒ": 2130,
      "ῖ": 2131,
      "ῗ": 2132,
      "Ῐ": 2133,
      "Ῑ": 2134,
      "Ὶ": 2135,
      "ῠ": 2136,
      "ῡ": 2137,
      "ῢ": 2138,
      "ῤ": 2139,
      "ῥ": 2140,
      "ῦ": 2141,
      "ῧ": 2142,
      "Ῠ": 2143,
      "Ῡ": 2144,
      "Ὺ": 2145,
      "Ῥ": 2146,
      "ῲ": 2147,
      "ῳ": 2148,
      "ῴ": 2149,
      "ῶ": 2150,
      "ῷ": 2151,
      "Ὸ": 2152,
      "Ὼ": 2153,
      "ῼ": 2154,
      "​": 2155,
      "‌": 2156,
      "‍": 2157,
      "‎": 2158,
      "‏": 2159,
      "‐": 2160,
      "‑": 2161,
      "–": 2162,
      "—": 2163,
      "―": 2164,
      "‖": 2165,
      "‘": 2166,
      "’": 2167,
      "‚": 2168,
      "“": 2169,
      "”": 2170,
      "„": 2171,
      "†": 2172,
      "‡": 2173,
      "•": 2174,
      "…": 2175,
      "‰": 2176,
      "′": 2177,
      "″": 2178,
      "‹": 2179,
      "›": 2180,
      "‼": 2181,
      "‽": 2182,
      "‿": 2183,
      "⁄": 2184,
      "⁠": 2185,
      "⁶": 2186,
      "ⁿ": 2187,
      "₁": 2188,
      "₂": 2189,
      "₠": 2190,
      "₡": 2191,
      "₢": 2192,
      "₣": 2193,
      "₤": 2194,
      "₥": 2195,
      "₦": 2196,
      "₧": 2197,
      "₨": 2198,
      "₩": 2199,
      "₪": 2200,
      "₫": 2201,
      "€": 2202,
      "₭": 2203,
      "₮": 2204,
      "₯": 2205,
      "₰": 2206,
      "₱": 2207,
      "₳": 2208,
      "₴": 2209,
      "₵": 2210,
      "₽": 2211,
      "₿": 2212,
      "⃣": 2213,
      "ℂ": 2214,
      "ℍ": 2215,
      "ℕ": 2216,
      "№": 2217,
      "ℙ": 2218,
      "ℚ": 2219,
      "ℝ": 2220,
      "™": 2221,
      "ℤ": 2222,
      "ℳ": 2223,
      "ℵ": 2224,
      "⅔": 2225,
      "ↀ": 2226,
      "←": 2227,
      "↑": 2228,
      "→": 2229,
      "↓": 2230,
      "↔": 2231,
      "↕": 2232,
      "↗": 2233,
      "↘": 2234,
      "↦": 2235,
      "↳": 2236,
      "↵": 2237,
      "⇌": 2238,
      "⇐": 2239,
      "⇒": 2240,
      "⇔": 2241,
      "⇪": 2242,
      "∀": 2243,
      "∂": 2244,
      "∃": 2245,
      "∅": 2246,
      "∆": 2247,
      "∇": 2248,
      "∈": 2249,
      "∉": 2250,
      "∋": 2251,
      "∏": 2252,
      "∐": 2253,
      "∑": 2254,
      "−": 2255,
      "∓": 2256,
      "∕": 2257,
      "∗": 2258,
      "∘": 2259,
      "√": 2260,
      "∝": 2261,
      "∞": 2262,
      "∠": 2263,
      "∤": 2264,
      "∧": 2265,
      "∨": 2266,
      "∩": 2267,
      "∪": 2268,
      "∫": 2269,
      "∬": 2270,
      "∭": 2271,
      "∮": 2272,
      "∴": 2273,
      "∵": 2274,
      "≀": 2275,
      "≃": 2276,
      "≅": 2277,
      "≈": 2278,
      "≐": 2279,
      "≜": 2280,
      "≝": 2281,
      "≠": 2282,
      "≡": 2283,
      "≣": 2284,
      "≤": 2285,
      "≥": 2286,
      "≪": 2287,
      "≫": 2288,
      "⊂": 2289,
      "⊃": 2290,
      "⊄": 2291,
      "⊅": 2292,
      "⊆": 2293,
      "⊇": 2294,
      "⊈": 2295,
      "⊉": 2296,
      "⊊": 2297,
      "⊋": 2298,
      "⊕": 2299,
      "⊗": 2300,
      "⊢": 2301,
      "⊣": 2302,
      "⊤": 2303,
      "⊥": 2304,
      "⊧": 2305,
      "⊻": 2306,
      "⋅": 2307,
      "⋈": 2308,
      "⋉": 2309,
      "⋊": 2310,
      "⋮": 2311,
      "⌈": 2312,
      "⌉": 2313,
      "⌊": 2314,
      "⌋": 2315,
      "⎈": 2316,
      "␥": 2317,
      "▂": 2318,
      "▉": 2319,
      "□": 2320,
      "▸": 2321,
      "►": 2322,
      "▻": 2323,
      "◅": 2324,
      "◆": 2325,
      "○": 2326,
      "◌": 2327,
      "●": 2328,
      "◼": 2329,
      "◾": 2330,
      "☀": 2331,
      "☃": 2332,
      "☉": 2333,
      "☎": 2334,
      "☙": 2335,
      "☠": 2336,
      "☸": 2337,
      "☾": 2338,
      "♀": 2339,
      "♂": 2340,
      "♠": 2341,
      "♣": 2342,
      "♥": 2343,
      "♦": 2344,
      "♭": 2345,
      "♮": 2346,
      "♯": 2347,
      "⚔": 2348,
      "⚕": 2349,
      "⚖": 2350,
      "⚙": 2351,
      "⚛": 2352,
      "⚜": 2353,
      "⚡": 2354,
      "⚧": 2355,
      "⚽": 2356,
      "⛪": 2357,
      "✈": 2358,
      "✍": 2359,
      "✏": 2360,
      "✓": 2361,
      "✝": 2362,
      "✤": 2363,
      "✨": 2364,
      "✮": 2365,
      "✵": 2366,
      "❀": 2367,
      "❁": 2368,
      "❄": 2369,
      "❖": 2370,
      "❤": 2371,
      "❧": 2372,
      "➡": 2373,
      "➲": 2374,
      "⟨": 2375,
      "⟩": 2376,
      "⬛": 2377,
      "ⱱ": 2378,
      "、": 2379,
      "。": 2380,
      "〃": 2381,
      "〇": 2382,
      "《": 2383,
      "》": 2384,
      "「": 2385,
      "」": 2386,
      "〡": 2387,
      "〢": 2388,
      "〣": 2389,
      "〤": 2390,
      "〥": 2391,
      "〦": 2392,
      "〧": 2393,
      "〨": 2394,
      "〩": 2395,
      "が": 2396,
      "き": 2397,
      "く": 2398,
      "っ": 2399,
      "つ": 2400,
      "と": 2401,
      "は": 2402,
      "み": 2403,
      "ゃ": 2404,
      "り": 2405,
      "を": 2406,
      "ア": 2407,
      "イ": 2408,
      "ェ": 2409,
      "エ": 2410,
      "カ": 2411,
      "キ": 2412,
      "ケ": 2413,
      "ゾ": 2414,
      "タ": 2415,
      "ダ": 2416,
      "ノ": 2417,
      "フ": 2418,
      "マ": 2419,
      "ワ": 2420,
      "ン": 2421,
      "・": 2422,
      "ー": 2423,
      "ㄱ": 2424,
      "ㄲ": 2425,
      "ㄴ": 2426,
      "ㄷ": 2427,
      "ㄸ": 2428,
      "ㄹ": 2429,
      "ㅃ": 2430,
      "ㅎ": 2431,
      "ㅏ": 2432,
      "ㅐ": 2433,
      "ㅑ": 2434,
      "ㅒ": 2435,
      "ㅓ": 2436,
      "ㅖ": 2437,
      "ㅗ": 2438,
      "䍁": 2439,
      "一": 2440,
      "丁": 2441,
      "七": 2442,
      "万": 2443,
      "丈": 2444,
      "三": 2445,
      "上": 2446,
      "下": 2447,
      "不": 2448,
      "与": 2449,
      "丐": 2450,
      "丑": 2451,
      "专": 2452,
      "且": 2453,
      "世": 2454,
      "丘": 2455,
      "业": 2456,
      "丛": 2457,
      "东": 2458,
      "丝": 2459,
      "丢": 2460,
      "两": 2461,
      "严": 2462,
      "丧": 2463,
      "个": 2464,
      "中": 2465,
      "丰": 2466,
      "串": 2467,
      "临": 2468,
      "丸": 2469,
      "丹": 2470,
      "为": 2471,
      "主": 2472,
      "丽": 2473,
      "举": 2474,
      "乃": 2475,
      "久": 2476,
      "么": 2477,
      "义": 2478,
      "之": 2479,
      "乌": 2480,
      "乎": 2481,
      "乏": 2482,
      "乐": 2483,
      "乔": 2484,
      "乖": 2485,
      "乘": 2486,
      "九": 2487,
      "乞": 2488,
      "也": 2489,
      "习": 2490,
      "乡": 2491,
      "书": 2492,
      "买": 2493,
      "乱": 2494,
      "乳": 2495,
      "了": 2496,
      "予": 2497,
      "争": 2498,
      "事": 2499,
      "二": 2500,
      "于": 2501,
      "亏": 2502,
      "云": 2503,
      "互": 2504,
      "五": 2505,
      "井": 2506,
      "亘": 2507,
      "亚": 2508,
      "些": 2509,
      "亡": 2510,
      "亢": 2511,
      "交": 2512,
      "亥": 2513,
      "产": 2514,
      "亨": 2515,
      "亩": 2516,
      "享": 2517,
      "京": 2518,
      "亭": 2519,
      "亮": 2520,
      "亲": 2521,
      "亵": 2522,
      "人": 2523,
      "亿": 2524,
      "什": 2525,
      "仁": 2526,
      "仃": 2527,
      "仅": 2528,
      "仆": 2529,
      "仇": 2530,
      "今": 2531,
      "介": 2532,
      "仍": 2533,
      "从": 2534,
      "仏": 2535,
      "仑": 2536,
      "仓": 2537,
      "仔": 2538,
      "他": 2539,
      "仗": 2540,
      "付": 2541,
      "仙": 2542,
      "代": 2543,
      "令": 2544,
      "以": 2545,
      "仪": 2546,
      "们": 2547,
      "仮": 2548,
      "仰": 2549,
      "仲": 2550,
      "件": 2551,
      "价": 2552,
      "任": 2553,
      "份": 2554,
      "仿": 2555,
      "企": 2556,
      "伊": 2557,
      "伍": 2558,
      "伏": 2559,
      "伐": 2560,
      "休": 2561,
      "众": 2562,
      "优": 2563,
      "伙": 2564,
      "会": 2565,
      "伞": 2566,
      "伟": 2567,
      "传": 2568,
      "伤": 2569,
      "伦": 2570,
      "伪": 2571,
      "伯": 2572,
      "估": 2573,
      "伴": 2574,
      "伶": 2575,
      "伸": 2576,
      "伺": 2577,
      "似": 2578,
      "伽": 2579,
      "佃": 2580,
      "但": 2581,
      "位": 2582,
      "低": 2583,
      "住": 2584,
      "佐": 2585,
      "体": 2586,
      "何": 2587,
      "余": 2588,
      "佛": 2589,
      "作": 2590,
      "你": 2591,
      "佣": 2592,
      "佤": 2593,
      "佩": 2594,
      "佳": 2595,
      "使": 2596,
      "侄": 2597,
      "來": 2598,
      "侈": 2599,
      "例": 2600,
      "侍": 2601,
      "侏": 2602,
      "供": 2603,
      "依": 2604,
      "侣": 2605,
      "侦": 2606,
      "侧": 2607,
      "侨": 2608,
      "侮": 2609,
      "侵": 2610,
      "便": 2611,
      "促": 2612,
      "俄": 2613,
      "俊": 2614,
      "俏": 2615,
      "俗": 2616,
      "俘": 2617,
      "保": 2618,
      "信": 2619,
      "俩": 2620,
      "修": 2621,
      "俯": 2622,
      "俱": 2623,
      "俸": 2624,
      "倍": 2625,
      "倒": 2626,
      "候": 2627,
      "倚": 2628,
      "借": 2629,
      "倡": 2630,
      "倦": 2631,
      "债": 2632,
      "值": 2633,
      "倾": 2634,
      "假": 2635,
      "偎": 2636,
      "偏": 2637,
      "做": 2638,
      "停": 2639,
      "健": 2640,
      "偶": 2641,
      "偷": 2642,
      "偿": 2643,
      "傅": 2644,
      "傍": 2645,
      "傑": 2646,
      "傘": 2647,
      "備": 2648,
      "储": 2649,
      "催": 2650,
      "傲": 2651,
      "像": 2652,
      "僚": 2653,
      "僭": 2654,
      "僵": 2655,
      "僻": 2656,
      "儒": 2657,
      "儿": 2658,
      "允": 2659,
      "元": 2660,
      "兄": 2661,
      "充": 2662,
      "兆": 2663,
      "先": 2664,
      "光": 2665,
      "克": 2666,
      "免": 2667,
      "兑": 2668,
      "兔": 2669,
      "党": 2670,
      "兜": 2671,
      "兢": 2672,
      "入": 2673,
      "全": 2674,
      "八": 2675,
      "公": 2676,
      "六": 2677,
      "兰": 2678,
      "共": 2679,
      "关": 2680,
      "兴": 2681,
      "兵": 2682,
      "其": 2683,
      "具": 2684,
      "典": 2685,
      "兹": 2686,
      "养": 2687,
      "兼": 2688,
      "兽": 2689,
      "内": 2690,
      "冈": 2691,
      "册": 2692,
      "再": 2693,
      "冒": 2694,
      "冕": 2695,
      "写": 2696,
      "军": 2697,
      "农": 2698,
      "冠": 2699,
      "冤": 2700,
      "冥": 2701,
      "冬": 2702,
      "冰": 2703,
      "冲": 2704,
      "决": 2705,
      "况": 2706,
      "冶": 2707,
      "冷": 2708,
      "冻": 2709,
      "净": 2710,
      "凄": 2711,
      "准": 2712,
      "凉": 2713,
      "凋": 2714,
      "凌": 2715,
      "减": 2716,
      "凝": 2717,
      "几": 2718,
      "凡": 2719,
      "凤": 2720,
      "凭": 2721,
      "凯": 2722,
      "凳": 2723,
      "凶": 2724,
      "凸": 2725,
      "出": 2726,
      "击": 2727,
      "函": 2728,
      "凿": 2729,
      "刀": 2730,
      "刃": 2731,
      "分": 2732,
      "切": 2733,
      "刊": 2734,
      "刍": 2735,
      "刑": 2736,
      "划": 2737,
      "列": 2738,
      "刘": 2739,
      "则": 2740,
      "刚": 2741,
      "创": 2742,
      "初": 2743,
      "删": 2744,
      "判": 2745,
      "刨": 2746,
      "利": 2747,
      "别": 2748,
      "刮": 2749,
      "到": 2750,
      "制": 2751,
      "刷": 2752,
      "刹": 2753,
      "刺": 2754,
      "刻": 2755,
      "刽": 2756,
      "剃": 2757,
      "削": 2758,
      "前": 2759,
      "剐": 2760,
      "剑": 2761,
      "剔": 2762,
      "剖": 2763,
      "剜": 2764,
      "剥": 2765,
      "剧": 2766,
      "剩": 2767,
      "剪": 2768,
      "副": 2769,
      "割": 2770,
      "劈": 2771,
      "力": 2772,
      "劝": 2773,
      "办": 2774,
      "功": 2775,
      "加": 2776,
      "务": 2777,
      "劣": 2778,
      "动": 2779,
      "助": 2780,
      "努": 2781,
      "劫": 2782,
      "励": 2783,
      "劳": 2784,
      "势": 2785,
      "勃": 2786,
      "勇": 2787,
      "勉": 2788,
      "勒": 2789,
      "勝": 2790,
      "募": 2791,
      "勤": 2792,
      "勺": 2793,
      "勾": 2794,
      "匀": 2795,
      "包": 2796,
      "匆": 2797,
      "匏": 2798,
      "化": 2799,
      "北": 2800,
      "匙": 2801,
      "匠": 2802,
      "匪": 2803,
      "匹": 2804,
      "区": 2805,
      "医": 2806,
      "匿": 2807,
      "十": 2808,
      "千": 2809,
      "升": 2810,
      "午": 2811,
      "半": 2812,
      "华": 2813,
      "协": 2814,
      "卑": 2815,
      "卒": 2816,
      "卓": 2817,
      "单": 2818,
      "卖": 2819,
      "南": 2820,
      "博": 2821,
      "卜": 2822,
      "占": 2823,
      "卡": 2824,
      "卢": 2825,
      "卧": 2826,
      "卫": 2827,
      "印": 2828,
      "危": 2829,
      "即": 2830,
      "却": 2831,
      "卷": 2832,
      "卸": 2833,
      "卿": 2834,
      "厂": 2835,
      "厅": 2836,
      "历": 2837,
      "厉": 2838,
      "压": 2839,
      "厌": 2840,
      "厕": 2841,
      "厚": 2842,
      "原": 2843,
      "厢": 2844,
      "厨": 2845,
      "厩": 2846,
      "去": 2847,
      "叁": 2848,
      "参": 2849,
      "又": 2850,
      "叉": 2851,
      "及": 2852,
      "友": 2853,
      "双": 2854,
      "反": 2855,
      "发": 2856,
      "叔": 2857,
      "取": 2858,
      "受": 2859,
      "变": 2860,
      "叙": 2861,
      "叛": 2862,
      "叠": 2863,
      "口": 2864,
      "古": 2865,
      "句": 2866,
      "另": 2867,
      "叩": 2868,
      "只": 2869,
      "叫": 2870,
      "召": 2871,
      "叮": 2872,
      "可": 2873,
      "台": 2874,
      "叱": 2875,
      "史": 2876,
      "右": 2877,
      "叶": 2878,
      "号": 2879,
      "司": 2880,
      "叹": 2881,
      "叼": 2882,
      "吁": 2883,
      "吃": 2884,
      "各": 2885,
      "吆": 2886,
      "合": 2887,
      "吉": 2888,
      "吊": 2889,
      "同": 2890,
      "名": 2891,
      "后": 2892,
      "吏": 2893,
      "吐": 2894,
      "向": 2895,
      "吓": 2896,
      "吕": 2897,
      "吗": 2898,
      "君": 2899,
      "吝": 2900,
      "吞": 2901,
      "吟": 2902,
      "吠": 2903,
      "否": 2904,
      "吧": 2905,
      "吩": 2906,
      "含": 2907,
      "听": 2908,
      "吮": 2909,
      "启": 2910,
      "吴": 2911,
      "吵": 2912,
      "吸": 2913,
      "吹": 2914,
      "吻": 2915,
      "吼": 2916,
      "吾": 2917,
      "呀": 2918,
      "呆": 2919,
      "呈": 2920,
      "告": 2921,
      "呐": 2922,
      "呕": 2923,
      "员": 2924,
      "呢": 2925,
      "周": 2926,
      "味": 2927,
      "呵": 2928,
      "呻": 2929,
      "呼": 2930,
      "命": 2931,
      "咆": 2932,
      "和": 2933,
      "咐": 2934,
      "咒": 2935,
      "咖": 2936,
      "咙": 2937,
      "咬": 2938,
      "咳": 2939,
      "咸": 2940,
      "咽": 2941,
      "哀": 2942,
      "品": 2943,
      "哄": 2944,
      "哇": 2945,
      "哈": 2946,
      "哉": 2947,
      "响": 2948,
      "哑": 2949,
      "哒": 2950,
      "哗": 2951,
      "哥": 2952,
      "哦": 2953,
      "哨": 2954,
      "哪": 2955,
      "哭": 2956,
      "哮": 2957,
      "哲": 2958,
      "哺": 2959,
      "哼": 2960,
      "唁": 2961,
      "唆": 2962,
      "唇": 2963,
      "唉": 2964,
      "唤": 2965,
      "售": 2966,
      "唯": 2967,
      "唱": 2968,
      "唾": 2969,
      "啃": 2970,
      "啄": 2971,
      "商": 2972,
      "啊": 2973,
      "啕": 2974,
      "啬": 2975,
      "啸": 2976,
      "啼": 2977,
      "喀": 2978,
      "喂": 2979,
      "喃": 2980,
      "善": 2981,
      "喉": 2982,
      "喊": 2983,
      "喘": 2984,
      "喜": 2985,
      "喝": 2986,
      "喧": 2987,
      "喷": 2988,
      "喻": 2989,
      "嗅": 2990,
      "嗉": 2991,
      "嗐": 2992,
      "嗒": 2993,
      "嗜": 2994,
      "嗡": 2995,
      "嗣": 2996,
      "嗤": 2997,
      "嘈": 2998,
      "嘘": 2999,
      "嘱": 3000,
      "嘲": 3001,
      "嘴": 3002,
      "嘶": 3003,
      "嘹": 3004,
      "器": 3005,
      "噩": 3006,
      "噬": 3007,
      "嚎": 3008,
      "嚏": 3009,
      "嚣": 3010,
      "嚷": 3011,
      "嚼": 3012,
      "囊": 3013,
      "囚": 3014,
      "四": 3015,
      "回": 3016,
      "因": 3017,
      "团": 3018,
      "囫": 3019,
      "园": 3020,
      "困": 3021,
      "図": 3022,
      "围": 3023,
      "囵": 3024,
      "固": 3025,
      "国": 3026,
      "图": 3027,
      "圃": 3028,
      "圆": 3029,
      "圈": 3030,
      "土": 3031,
      "圣": 3032,
      "在": 3033,
      "地": 3034,
      "场": 3035,
      "圾": 3036,
      "均": 3037,
      "坍": 3038,
      "坎": 3039,
      "坏": 3040,
      "坐": 3041,
      "坑": 3042,
      "块": 3043,
      "坚": 3044,
      "坛": 3045,
      "坟": 3046,
      "坠": 3047,
      "坡": 3048,
      "坦": 3049,
      "垂": 3050,
      "垃": 3051,
      "型": 3052,
      "垒": 3053,
      "垛": 3054,
      "垣": 3055,
      "垦": 3056,
      "垫": 3057,
      "垮": 3058,
      "埃": 3059,
      "埋": 3060,
      "城": 3061,
      "域": 3062,
      "培": 3063,
      "基": 3064,
      "堂": 3065,
      "堆": 3066,
      "堕": 3067,
      "堡": 3068,
      "堤": 3069,
      "堪": 3070,
      "堵": 3071,
      "塌": 3072,
      "塑": 3073,
      "塔": 3074,
      "塘": 3075,
      "塞": 3076,
      "填": 3077,
      "境": 3078,
      "墓": 3079,
      "墙": 3080,
      "增": 3081,
      "墟": 3082,
      "墨": 3083,
      "墩": 3084,
      "壁": 3085,
      "壤": 3086,
      "士": 3087,
      "壮": 3088,
      "声": 3089,
      "壳": 3090,
      "壶": 3091,
      "处": 3092,
      "备": 3093,
      "复": 3094,
      "夏": 3095,
      "外": 3096,
      "多": 3097,
      "夜": 3098,
      "够": 3099,
      "大": 3100,
      "天": 3101,
      "太": 3102,
      "夫": 3103,
      "夭": 3104,
      "央": 3105,
      "失": 3106,
      "头": 3107,
      "夷": 3108,
      "夸": 3109,
      "夹": 3110,
      "夺": 3111,
      "奇": 3112,
      "奈": 3113,
      "奉": 3114,
      "奋": 3115,
      "奎": 3116,
      "奏": 3117,
      "契": 3118,
      "奔": 3119,
      "奕": 3120,
      "奖": 3121,
      "套": 3122,
      "奠": 3123,
      "奢": 3124,
      "奥": 3125,
      "女": 3126,
      "奴": 3127,
      "奶": 3128,
      "奸": 3129,
      "她": 3130,
      "好": 3131,
      "如": 3132,
      "妃": 3133,
      "妄": 3134,
      "妆": 3135,
      "妇": 3136,
      "妈": 3137,
      "妒": 3138,
      "妓": 3139,
      "妙": 3140,
      "妥": 3141,
      "妨": 3142,
      "妮": 3143,
      "妲": 3144,
      "妹": 3145,
      "妻": 3146,
      "妾": 3147,
      "姆": 3148,
      "始": 3149,
      "姐": 3150,
      "姑": 3151,
      "姓": 3152,
      "委": 3153,
      "姨": 3154,
      "姻": 3155,
      "姿": 3156,
      "威": 3157,
      "娃": 3158,
      "娅": 3159,
      "娇": 3160,
      "娈": 3161,
      "娘": 3162,
      "娜": 3163,
      "娢": 3164,
      "娥": 3165,
      "娩": 3166,
      "娱": 3167,
      "娶": 3168,
      "娼": 3169,
      "婆": 3170,
      "婚": 3171,
      "婢": 3172,
      "婪": 3173,
      "婴": 3174,
      "婿": 3175,
      "媚": 3176,
      "媳": 3177,
      "嫁": 3178,
      "嫂": 3179,
      "嫉": 3180,
      "嫌": 3181,
      "嫔": 3182,
      "嫩": 3183,
      "孀": 3184,
      "子": 3185,
      "孔": 3186,
      "孕": 3187,
      "字": 3188,
      "存": 3189,
      "孙": 3190,
      "孝": 3191,
      "季": 3192,
      "孤": 3193,
      "学": 3194,
      "孩": 3195,
      "孫": 3196,
      "孵": 3197,
      "孽": 3198,
      "宁": 3199,
      "它": 3200,
      "宅": 3201,
      "宇": 3202,
      "守": 3203,
      "安": 3204,
      "宋": 3205,
      "完": 3206,
      "宏": 3207,
      "宗": 3208,
      "官": 3209,
      "宙": 3210,
      "定": 3211,
      "宜": 3212,
      "宝": 3213,
      "实": 3214,
      "宠": 3215,
      "审": 3216,
      "客": 3217,
      "宣": 3218,
      "室": 3219,
      "宫": 3220,
      "宰": 3221,
      "害": 3222,
      "宴": 3223,
      "家": 3224,
      "容": 3225,
      "宽": 3226,
      "宾": 3227,
      "宿": 3228,
      "寂": 3229,
      "寄": 3230,
      "密": 3231,
      "富": 3232,
      "寒": 3233,
      "寓": 3234,
      "寛": 3235,
      "寝": 3236,
      "察": 3237,
      "寡": 3238,
      "寥": 3239,
      "寨": 3240,
      "寸": 3241,
      "对": 3242,
      "寺": 3243,
      "寻": 3244,
      "导": 3245,
      "寿": 3246,
      "封": 3247,
      "射": 3248,
      "将": 3249,
      "尊": 3250,
      "小": 3251,
      "少": 3252,
      "尔": 3253,
      "尖": 3254,
      "尘": 3255,
      "尚": 3256,
      "尝": 3257,
      "尤": 3258,
      "尬": 3259,
      "就": 3260,
      "尴": 3261,
      "尸": 3262,
      "尺": 3263,
      "尼": 3264,
      "尽": 3265,
      "尾": 3266,
      "尿": 3267,
      "局": 3268,
      "层": 3269,
      "居": 3270,
      "屈": 3271,
      "屋": 3272,
      "屏": 3273,
      "屑": 3274,
      "展": 3275,
      "属": 3276,
      "屠": 3277,
      "屡": 3278,
      "履": 3279,
      "屯": 3280,
      "山": 3281,
      "屹": 3282,
      "岁": 3283,
      "岂": 3284,
      "岔": 3285,
      "岖": 3286,
      "岗": 3287,
      "岛": 3288,
      "岩": 3289,
      "岬": 3290,
      "岭": 3291,
      "岳": 3292,
      "岸": 3293,
      "峙": 3294,
      "峭": 3295,
      "峰": 3296,
      "峻": 3297,
      "崇": 3298,
      "崎": 3299,
      "崖": 3300,
      "崩": 3301,
      "崭": 3302,
      "嵌": 3303,
      "巅": 3304,
      "巡": 3305,
      "巢": 3306,
      "工": 3307,
      "左": 3308,
      "巧": 3309,
      "巨": 3310,
      "巩": 3311,
      "巫": 3312,
      "差": 3313,
      "己": 3314,
      "已": 3315,
      "巴": 3316,
      "巷": 3317,
      "巾": 3318,
      "币": 3319,
      "市": 3320,
      "布": 3321,
      "帅": 3322,
      "帆": 3323,
      "师": 3324,
      "希": 3325,
      "帐": 3326,
      "帕": 3327,
      "帖": 3328,
      "帘": 3329,
      "帚": 3330,
      "帜": 3331,
      "帝": 3332,
      "带": 3333,
      "席": 3334,
      "帮": 3335,
      "帷": 3336,
      "常": 3337,
      "幅": 3338,
      "幔": 3339,
      "幕": 3340,
      "干": 3341,
      "平": 3342,
      "年": 3343,
      "并": 3344,
      "幸": 3345,
      "幻": 3346,
      "幼": 3347,
      "幽": 3348,
      "广": 3349,
      "庁": 3350,
      "庄": 3351,
      "庆": 3352,
      "庇": 3353,
      "床": 3354,
      "序": 3355,
      "库": 3356,
      "应": 3357,
      "底": 3358,
      "店": 3359,
      "庙": 3360,
      "府": 3361,
      "庞": 3362,
      "废": 3363,
      "度": 3364,
      "座": 3365,
      "庭": 3366,
      "康": 3367,
      "廉": 3368,
      "廊": 3369,
      "廓": 3370,
      "延": 3371,
      "廷": 3372,
      "建": 3373,
      "开": 3374,
      "异": 3375,
      "弃": 3376,
      "弄": 3377,
      "式": 3378,
      "弑": 3379,
      "弓": 3380,
      "引": 3381,
      "弗": 3382,
      "弛": 3383,
      "弟": 3384,
      "张": 3385,
      "弥": 3386,
      "弦": 3387,
      "弯": 3388,
      "弱": 3389,
      "弹": 3390,
      "强": 3391,
      "归": 3392,
      "当": 3393,
      "录": 3394,
      "形": 3395,
      "彩": 3396,
      "彭": 3397,
      "彰": 3398,
      "影": 3399,
      "役": 3400,
      "彻": 3401,
      "彼": 3402,
      "往": 3403,
      "征": 3404,
      "径": 3405,
      "待": 3406,
      "徇": 3407,
      "很": 3408,
      "徉": 3409,
      "徊": 3410,
      "律": 3411,
      "徐": 3412,
      "徒": 3413,
      "得": 3414,
      "徘": 3415,
      "徙": 3416,
      "徜": 3417,
      "御": 3418,
      "循": 3419,
      "微": 3420,
      "德": 3421,
      "心": 3422,
      "必": 3423,
      "忆": 3424,
      "忌": 3425,
      "忍": 3426,
      "志": 3427,
      "忘": 3428,
      "忙": 3429,
      "忠": 3430,
      "忡": 3431,
      "忤": 3432,
      "忧": 3433,
      "快": 3434,
      "念": 3435,
      "忽": 3436,
      "怀": 3437,
      "态": 3438,
      "怂": 3439,
      "怎": 3440,
      "怒": 3441,
      "怕": 3442,
      "怖": 3443,
      "怜": 3444,
      "思": 3445,
      "怠": 3446,
      "急": 3447,
      "性": 3448,
      "怨": 3449,
      "怪": 3450,
      "怯": 3451,
      "总": 3452,
      "恋": 3453,
      "恐": 3454,
      "恒": 3455,
      "恕": 3456,
      "恙": 3457,
      "恢": 3458,
      "恤": 3459,
      "恨": 3460,
      "恩": 3461,
      "恭": 3462,
      "息": 3463,
      "恰": 3464,
      "恳": 3465,
      "恶": 3466,
      "恸": 3467,
      "恼": 3468,
      "恿": 3469,
      "悄": 3470,
      "悉": 3471,
      "悍": 3472,
      "悔": 3473,
      "悖": 3474,
      "悟": 3475,
      "悠": 3476,
      "患": 3477,
      "悦": 3478,
      "您": 3479,
      "悬": 3480,
      "悯": 3481,
      "悲": 3482,
      "悴": 3483,
      "悼": 3484,
      "情": 3485,
      "惊": 3486,
      "惑": 3487,
      "惕": 3488,
      "惜": 3489,
      "惠": 3490,
      "惧": 3491,
      "惨": 3492,
      "惩": 3493,
      "惫": 3494,
      "惬": 3495,
      "惭": 3496,
      "惮": 3497,
      "惯": 3498,
      "惰": 3499,
      "想": 3500,
      "惶": 3501,
      "惹": 3502,
      "愁": 3503,
      "愆": 3504,
      "愈": 3505,
      "愉": 3506,
      "意": 3507,
      "愕": 3508,
      "愚": 3509,
      "感": 3510,
      "愤": 3511,
      "愧": 3512,
      "愿": 3513,
      "慈": 3514,
      "慌": 3515,
      "慎": 3516,
      "慕": 3517,
      "慢": 3518,
      "慧": 3519,
      "慨": 3520,
      "慰": 3521,
      "慶": 3522,
      "慷": 3523,
      "憎": 3524,
      "憔": 3525,
      "懂": 3526,
      "懈": 3527,
      "懊": 3528,
      "懒": 3529,
      "戈": 3530,
      "戏": 3531,
      "成": 3532,
      "我": 3533,
      "戒": 3534,
      "或": 3535,
      "战": 3536,
      "戚": 3537,
      "截": 3538,
      "戮": 3539,
      "戴": 3540,
      "户": 3541,
      "房": 3542,
      "所": 3543,
      "扁": 3544,
      "扇": 3545,
      "手": 3546,
      "才": 3547,
      "扎": 3548,
      "扑": 3549,
      "打": 3550,
      "扔": 3551,
      "托": 3552,
      "扛": 3553,
      "扣": 3554,
      "执": 3555,
      "扩": 3556,
      "扪": 3557,
      "扫": 3558,
      "扬": 3559,
      "扭": 3560,
      "扮": 3561,
      "扯": 3562,
      "扰": 3563,
      "扶": 3564,
      "批": 3565,
      "找": 3566,
      "承": 3567,
      "技": 3568,
      "抄": 3569,
      "抉": 3570,
      "把": 3571,
      "抑": 3572,
      "抓": 3573,
      "投": 3574,
      "抖": 3575,
      "抗": 3576,
      "折": 3577,
      "抚": 3578,
      "抛": 3579,
      "抟": 3580,
      "抡": 3581,
      "抢": 3582,
      "护": 3583,
      "报": 3584,
      "披": 3585,
      "抬": 3586,
      "抱": 3587,
      "抵": 3588,
      "抹": 3589,
      "押": 3590,
      "抽": 3591,
      "抿": 3592,
      "拃": 3593,
      "拄": 3594,
      "担": 3595,
      "拆": 3596,
      "拇": 3597,
      "拉": 3598,
      "拌": 3599,
      "拍": 3600,
      "拐": 3601,
      "拒": 3602,
      "拓": 3603,
      "拔": 3604,
      "拖": 3605,
      "拘": 3606,
      "拙": 3607,
      "招": 3608,
      "拜": 3609,
      "拢": 3610,
      "拣": 3611,
      "拥": 3612,
      "拦": 3613,
      "拧": 3614,
      "拨": 3615,
      "择": 3616,
      "括": 3617,
      "拯": 3618,
      "拳": 3619,
      "拴": 3620,
      "拷": 3621,
      "拼": 3622,
      "拽": 3623,
      "拾": 3624,
      "拿": 3625,
      "持": 3626,
      "挂": 3627,
      "指": 3628,
      "按": 3629,
      "挑": 3630,
      "挖": 3631,
      "挠": 3632,
      "挡": 3633,
      "挣": 3634,
      "挤": 3635,
      "挥": 3636,
      "挨": 3637,
      "挪": 3638,
      "挫": 3639,
      "振": 3640,
      "挺": 3641,
      "挽": 3642,
      "捂": 3643,
      "捆": 3644,
      "捉": 3645,
      "捏": 3646,
      "捐": 3647,
      "捕": 3648,
      "捞": 3649,
      "损": 3650,
      "捡": 3651,
      "换": 3652,
      "捣": 3653,
      "捧": 3654,
      "据": 3655,
      "捶": 3656,
      "捷": 3657,
      "捺": 3658,
      "捻": 3659,
      "掀": 3660,
      "授": 3661,
      "掉": 3662,
      "掌": 3663,
      "掏": 3664,
      "掐": 3665,
      "排": 3666,
      "掘": 3667,
      "掠": 3668,
      "探": 3669,
      "接": 3670,
      "控": 3671,
      "推": 3672,
      "掩": 3673,
      "措": 3674,
      "掰": 3675,
      "掳": 3676,
      "掷": 3677,
      "掺": 3678,
      "揉": 3679,
      "描": 3680,
      "提": 3681,
      "插": 3682,
      "握": 3683,
      "揪": 3684,
      "揭": 3685,
      "揲": 3686,
      "援": 3687,
      "搀": 3688,
      "搁": 3689,
      "搂": 3690,
      "搅": 3691,
      "搏": 3692,
      "搓": 3693,
      "搜": 3694,
      "搡": 3695,
      "搧": 3696,
      "搬": 3697,
      "搭": 3698,
      "摆": 3699,
      "摇": 3700,
      "摊": 3701,
      "摔": 3702,
      "摘": 3703,
      "摧": 3704,
      "摩": 3705,
      "摸": 3706,
      "撇": 3707,
      "撑": 3708,
      "撒": 3709,
      "撕": 3710,
      "撞": 3711,
      "撤": 3712,
      "撬": 3713,
      "播": 3714,
      "撼": 3715,
      "擅": 3716,
      "操": 3717,
      "擛": 3718,
      "擦": 3719,
      "攥": 3720,
      "支": 3721,
      "收": 3722,
      "改": 3723,
      "攻": 3724,
      "放": 3725,
      "政": 3726,
      "故": 3727,
      "效": 3728,
      "敌": 3729,
      "敏": 3730,
      "救": 3731,
      "教": 3732,
      "敛": 3733,
      "敝": 3734,
      "敞": 3735,
      "敢": 3736,
      "散": 3737,
      "敦": 3738,
      "敬": 3739,
      "数": 3740,
      "敲": 3741,
      "整": 3742,
      "敷": 3743,
      "文": 3744,
      "斐": 3745,
      "斑": 3746,
      "斓": 3747,
      "斗": 3748,
      "料": 3749,
      "斜": 3750,
      "斤": 3751,
      "斥": 3752,
      "斧": 3753,
      "斩": 3754,
      "断": 3755,
      "斯": 3756,
      "新": 3757,
      "方": 3758,
      "施": 3759,
      "旁": 3760,
      "旅": 3761,
      "旋": 3762,
      "旌": 3763,
      "族": 3764,
      "旗": 3765,
      "无": 3766,
      "既": 3767,
      "日": 3768,
      "旦": 3769,
      "旧": 3770,
      "旨": 3771,
      "早": 3772,
      "旬": 3773,
      "旱": 3774,
      "时": 3775,
      "旷": 3776,
      "旺": 3777,
      "昂": 3778,
      "昆": 3779,
      "昌": 3780,
      "明": 3781,
      "昏": 3782,
      "易": 3783,
      "昔": 3784,
      "星": 3785,
      "映": 3786,
      "春": 3787,
      "昧": 3788,
      "昨": 3789,
      "昭": 3790,
      "是": 3791,
      "昴": 3792,
      "昼": 3793,
      "显": 3794,
      "晃": 3795,
      "晒": 3796,
      "晓": 3797,
      "晕": 3798,
      "晖": 3799,
      "晚": 3800,
      "晨": 3801,
      "普": 3802,
      "景": 3803,
      "晴": 3804,
      "晶": 3805,
      "晷": 3806,
      "智": 3807,
      "暂": 3808,
      "暑": 3809,
      "暖": 3810,
      "暗": 3811,
      "暮": 3812,
      "暴": 3813,
      "曙": 3814,
      "曲": 3815,
      "更": 3816,
      "曼": 3817,
      "曾": 3818,
      "替": 3819,
      "最": 3820,
      "月": 3821,
      "有": 3822,
      "朋": 3823,
      "服": 3824,
      "朔": 3825,
      "朗": 3826,
      "望": 3827,
      "朝": 3828,
      "期": 3829,
      "木": 3830,
      "未": 3831,
      "末": 3832,
      "本": 3833,
      "术": 3834,
      "朱": 3835,
      "朴": 3836,
      "朵": 3837,
      "机": 3838,
      "朽": 3839,
      "杀": 3840,
      "杂": 3841,
      "权": 3842,
      "杆": 3843,
      "杈": 3844,
      "杉": 3845,
      "李": 3846,
      "杏": 3847,
      "材": 3848,
      "村": 3849,
      "杖": 3850,
      "杜": 3851,
      "束": 3852,
      "杠": 3853,
      "条": 3854,
      "来": 3855,
      "杨": 3856,
      "杯": 3857,
      "杰": 3858,
      "東": 3859,
      "杵": 3860,
      "松": 3861,
      "板": 3862,
      "极": 3863,
      "构": 3864,
      "枉": 3865,
      "枕": 3866,
      "林": 3867,
      "果": 3868,
      "枝": 3869,
      "枣": 3870,
      "枪": 3871,
      "枫": 3872,
      "枯": 3873,
      "架": 3874,
      "枷": 3875,
      "柄": 3876,
      "柏": 3877,
      "某": 3878,
      "染": 3879,
      "柔": 3880,
      "柜": 3881,
      "查": 3882,
      "柯": 3883,
      "柱": 3884,
      "柳": 3885,
      "柴": 3886,
      "柽": 3887,
      "标": 3888,
      "栋": 3889,
      "栏": 3890,
      "树": 3891,
      "栖": 3892,
      "栗": 3893,
      "株": 3894,
      "样": 3895,
      "核": 3896,
      "根": 3897,
      "格": 3898,
      "栽": 3899,
      "桂": 3900,
      "桃": 3901,
      "桅": 3902,
      "框": 3903,
      "案": 3904,
      "桌": 3905,
      "桐": 3906,
      "桑": 3907,
      "档": 3908,
      "桨": 3909,
      "桩": 3910,
      "桶": 3911,
      "梁": 3912,
      "梅": 3913,
      "梗": 3914,
      "梢": 3915,
      "梦": 3916,
      "梭": 3917,
      "梯": 3918,
      "械": 3919,
      "梳": 3920,
      "检": 3921,
      "棍": 3922,
      "棒": 3923,
      "棕": 3924,
      "棘": 3925,
      "棚": 3926,
      "森": 3927,
      "棱": 3928,
      "棵": 3929,
      "棺": 3930,
      "椅": 3931,
      "植": 3932,
      "椽": 3933,
      "楚": 3934,
      "楠": 3935,
      "楣": 3936,
      "楼": 3937,
      "概": 3938,
      "榄": 3939,
      "榈": 3940,
      "榎": 3941,
      "榜": 3942,
      "榨": 3943,
      "榫": 3944,
      "榴": 3945,
      "榻": 3946,
      "槁": 3947,
      "槃": 3948,
      "槛": 3949,
      "槽": 3950,
      "模": 3951,
      "横": 3952,
      "橄": 3953,
      "橛": 3954,
      "橡": 3955,
      "檀": 3956,
      "檐": 3957,
      "檩": 3958,
      "欠": 3959,
      "次": 3960,
      "欢": 3961,
      "欣": 3962,
      "欧": 3963,
      "欲": 3964,
      "欺": 3965,
      "款": 3966,
      "歇": 3967,
      "歉": 3968,
      "歌": 3969,
      "歐": 3970,
      "止": 3971,
      "正": 3972,
      "此": 3973,
      "步": 3974,
      "武": 3975,
      "歧": 3976,
      "歪": 3977,
      "歹": 3978,
      "死": 3979,
      "殃": 3980,
      "殊": 3981,
      "残": 3982,
      "殓": 3983,
      "殖": 3984,
      "殴": 3985,
      "段": 3986,
      "殷": 3987,
      "殿": 3988,
      "毁": 3989,
      "毂": 3990,
      "毅": 3991,
      "母": 3992,
      "每": 3993,
      "毒": 3994,
      "比": 3995,
      "毕": 3996,
      "毗": 3997,
      "毙": 3998,
      "毛": 3999,
      "毫": 4000,
      "毯": 4001,
      "民": 4002,
      "氓": 4003,
      "气": 4004,
      "水": 4005,
      "永": 4006,
      "汁": 4007,
      "求": 4008,
      "汇": 4009,
      "汉": 4010,
      "汊": 4011,
      "汗": 4012,
      "汛": 4013,
      "江": 4014,
      "池": 4015,
      "污": 4016,
      "汤": 4017,
      "汪": 4018,
      "汲": 4019,
      "汶": 4020,
      "汹": 4021,
      "沃": 4022,
      "沉": 4023,
      "沌": 4024,
      "沙": 4025,
      "沛": 4026,
      "沟": 4027,
      "没": 4028,
      "沥": 4029,
      "沦": 4030,
      "沫": 4031,
      "沮": 4032,
      "河": 4033,
      "沸": 4034,
      "油": 4035,
      "治": 4036,
      "沼": 4037,
      "沾": 4038,
      "沿": 4039,
      "泄": 4040,
      "泉": 4041,
      "泊": 4042,
      "法": 4043,
      "泛": 4044,
      "泞": 4045,
      "泡": 4046,
      "波": 4047,
      "泣": 4048,
      "泥": 4049,
      "注": 4050,
      "泪": 4051,
      "泯": 4052,
      "泰": 4053,
      "泳": 4054,
      "泻": 4055,
      "泼": 4056,
      "泽": 4057,
      "洁": 4058,
      "洋": 4059,
      "洒": 4060,
      "洗": 4061,
      "洛": 4062,
      "洞": 4063,
      "津": 4064,
      "洪": 4065,
      "洲": 4066,
      "活": 4067,
      "洼": 4068,
      "派": 4069,
      "流": 4070,
      "浅": 4071,
      "浆": 4072,
      "浇": 4073,
      "浊": 4074,
      "测": 4075,
      "济": 4076,
      "浑": 4077,
      "浓": 4078,
      "浦": 4079,
      "浩": 4080,
      "浪": 4081,
      "浮": 4082,
      "浴": 4083,
      "海": 4084,
      "浸": 4085,
      "涂": 4086,
      "涅": 4087,
      "消": 4088,
      "涉": 4089,
      "涌": 4090,
      "涎": 4091,
      "涕": 4092,
      "涛": 4093,
      "涤": 4094,
      "润": 4095,
      "涨": 4096,
      "涩": 4097,
      "涯": 4098,
      "液": 4099,
      "涸": 4100,
      "淌": 4101,
      "淑": 4102,
      "淡": 4103,
      "淤": 4104,
      "淫": 4105,
      "深": 4106,
      "混": 4107,
      "淹": 4108,
      "添": 4109,
      "清": 4110,
      "渊": 4111,
      "渍": 4112,
      "渎": 4113,
      "渐": 4114,
      "渔": 4115,
      "渗": 4116,
      "渠": 4117,
      "渡": 4118,
      "渣": 4119,
      "温": 4120,
      "港": 4121,
      "渴": 4122,
      "游": 4123,
      "湃": 4124,
      "湍": 4125,
      "湎": 4126,
      "湖": 4127,
      "湾": 4128,
      "湿": 4129,
      "溃": 4130,
      "溅": 4131,
      "溉": 4132,
      "源": 4133,
      "溜": 4134,
      "溢": 4135,
      "溪": 4136,
      "溺": 4137,
      "滋": 4138,
      "滑": 4139,
      "滓": 4140,
      "滔": 4141,
      "滚": 4142,
      "滞": 4143,
      "满": 4144,
      "滤": 4145,
      "滥": 4146,
      "滩": 4147,
      "滴": 4148,
      "漂": 4149,
      "漆": 4150,
      "漏": 4151,
      "演": 4152,
      "漠": 4153,
      "漢": 4154,
      "漫": 4155,
      "潘": 4156,
      "潜": 4157,
      "潮": 4158,
      "澄": 4159,
      "澈": 4160,
      "澎": 4161,
      "澡": 4162,
      "激": 4163,
      "濯": 4164,
      "瀑": 4165,
      "灌": 4166,
      "火": 4167,
      "灭": 4168,
      "灯": 4169,
      "灰": 4170,
      "灵": 4171,
      "灶": 4172,
      "灼": 4173,
      "灾": 4174,
      "灿": 4175,
      "炉": 4176,
      "炎": 4177,
      "炒": 4178,
      "炙": 4179,
      "炫": 4180,
      "炭": 4181,
      "点": 4182,
      "炼": 4183,
      "炽": 4184,
      "烁": 4185,
      "烂": 4186,
      "烈": 4187,
      "烘": 4188,
      "烙": 4189,
      "烟": 4190,
      "烤": 4191,
      "烦": 4192,
      "烧": 4193,
      "烫": 4194,
      "烬": 4195,
      "热": 4196,
      "烽": 4197,
      "焊": 4198,
      "焕": 4199,
      "焙": 4200,
      "焚": 4201,
      "無": 4202,
      "焦": 4203,
      "焰": 4204,
      "然": 4205,
      "煌": 4206,
      "煎": 4207,
      "煞": 4208,
      "煤": 4209,
      "照": 4210,
      "煮": 4211,
      "煽": 4212,
      "熄": 4213,
      "熊": 4214,
      "熏": 4215,
      "熔": 4216,
      "熟": 4217,
      "熠": 4218,
      "熬": 4219,
      "燃": 4220,
      "燔": 4221,
      "燕": 4222,
      "燥": 4223,
      "燧": 4224,
      "爆": 4225,
      "爪": 4226,
      "爬": 4227,
      "爱": 4228,
      "父": 4229,
      "爸": 4230,
      "爽": 4231,
      "片": 4232,
      "版": 4233,
      "牌": 4234,
      "牙": 4235,
      "牛": 4236,
      "牝": 4237,
      "牢": 4238,
      "牧": 4239,
      "物": 4240,
      "牲": 4241,
      "牵": 4242,
      "特": 4243,
      "牺": 4244,
      "犁": 4245,
      "犄": 4246,
      "犊": 4247,
      "犬": 4248,
      "犯": 4249,
      "状": 4250,
      "犹": 4251,
      "狂": 4252,
      "狄": 4253,
      "狈": 4254,
      "狍": 4255,
      "狐": 4256,
      "狗": 4257,
      "狠": 4258,
      "狡": 4259,
      "独": 4260,
      "狭": 4261,
      "狮": 4262,
      "狱": 4263,
      "狸": 4264,
      "狼": 4265,
      "猎": 4266,
      "猛": 4267,
      "猜": 4268,
      "猪": 4269,
      "猫": 4270,
      "献": 4271,
      "猴": 4272,
      "猾": 4273,
      "猿": 4274,
      "獠": 4275,
      "玄": 4276,
      "率": 4277,
      "玉": 4278,
      "王": 4279,
      "玛": 4280,
      "玩": 4281,
      "玫": 4282,
      "环": 4283,
      "现": 4284,
      "玷": 4285,
      "玺": 4286,
      "玻": 4287,
      "珀": 4288,
      "珉": 4289,
      "珊": 4290,
      "珍": 4291,
      "珠": 4292,
      "珥": 4293,
      "班": 4294,
      "球": 4295,
      "琅": 4296,
      "理": 4297,
      "琉": 4298,
      "琐": 4299,
      "琢": 4300,
      "琥": 4301,
      "琳": 4302,
      "琴": 4303,
      "琶": 4304,
      "瑕": 4305,
      "瑙": 4306,
      "瑚": 4307,
      "瑞": 4308,
      "瑟": 4309,
      "瑰": 4310,
      "瑾": 4311,
      "璃": 4312,
      "璐": 4313,
      "璧": 4314,
      "瓜": 4315,
      "瓣": 4316,
      "瓦": 4317,
      "瓶": 4318,
      "甘": 4319,
      "甚": 4320,
      "甜": 4321,
      "生": 4322,
      "甥": 4323,
      "用": 4324,
      "甩": 4325,
      "田": 4326,
      "由": 4327,
      "甲": 4328,
      "申": 4329,
      "电": 4330,
      "男": 4331,
      "甸": 4332,
      "画": 4333,
      "畅": 4334,
      "界": 4335,
      "畏": 4336,
      "畔": 4337,
      "留": 4338,
      "畜": 4339,
      "略": 4340,
      "畦": 4341,
      "番": 4342,
      "畸": 4343,
      "疆": 4344,
      "疏": 4345,
      "疑": 4346,
      "疗": 4347,
      "疚": 4348,
      "疤": 4349,
      "疥": 4350,
      "疫": 4351,
      "疮": 4352,
      "疯": 4353,
      "疲": 4354,
      "疵": 4355,
      "疹": 4356,
      "疼": 4357,
      "疾": 4358,
      "病": 4359,
      "症": 4360,
      "痊": 4361,
      "痒": 4362,
      "痕": 4363,
      "痛": 4364,
      "痢": 4365,
      "痨": 4366,
      "痪": 4367,
      "痫": 4368,
      "瘀": 4369,
      "瘟": 4370,
      "瘠": 4371,
      "瘤": 4372,
      "瘦": 4373,
      "瘪": 4374,
      "瘫": 4375,
      "瘸": 4376,
      "癞": 4377,
      "癣": 4378,
      "癫": 4379,
      "発": 4380,
      "登": 4381,
      "白": 4382,
      "百": 4383,
      "皂": 4384,
      "的": 4385,
      "皇": 4386,
      "皎": 4387,
      "皮": 4388,
      "皱": 4389,
      "皿": 4390,
      "盆": 4391,
      "盈": 4392,
      "益": 4393,
      "盏": 4394,
      "盐": 4395,
      "监": 4396,
      "盒": 4397,
      "盔": 4398,
      "盖": 4399,
      "盗": 4400,
      "盘": 4401,
      "盛": 4402,
      "盟": 4403,
      "目": 4404,
      "盯": 4405,
      "盲": 4406,
      "直": 4407,
      "相": 4408,
      "盹": 4409,
      "盼": 4410,
      "盾": 4411,
      "省": 4412,
      "眉": 4413,
      "看": 4414,
      "真": 4415,
      "眠": 4416,
      "眨": 4417,
      "眯": 4418,
      "眷": 4419,
      "眸": 4420,
      "眼": 4421,
      "着": 4422,
      "睁": 4423,
      "睚": 4424,
      "睛": 4425,
      "睡": 4426,
      "督": 4427,
      "睦": 4428,
      "睬": 4429,
      "睹": 4430,
      "睾": 4431,
      "瞄": 4432,
      "瞎": 4433,
      "瞒": 4434,
      "瞥": 4435,
      "瞩": 4436,
      "瞪": 4437,
      "瞬": 4438,
      "瞳": 4439,
      "矛": 4440,
      "矢": 4441,
      "知": 4442,
      "矩": 4443,
      "矫": 4444,
      "短": 4445,
      "矮": 4446,
      "石": 4447,
      "矶": 4448,
      "矿": 4449,
      "码": 4450,
      "砌": 4451,
      "砍": 4452,
      "研": 4453,
      "砖": 4454,
      "砝": 4455,
      "砣": 4456,
      "砧": 4457,
      "破": 4458,
      "砸": 4459,
      "砺": 4460,
      "础": 4461,
      "硕": 4462,
      "硝": 4463,
      "硫": 4464,
      "硬": 4465,
      "确": 4466,
      "碌": 4467,
      "碍": 4468,
      "碎": 4469,
      "碑": 4470,
      "碗": 4471,
      "碟": 4472,
      "碧": 4473,
      "碰": 4474,
      "碱": 4475,
      "碾": 4476,
      "磐": 4477,
      "磙": 4478,
      "磨": 4479,
      "磴": 4480,
      "磺": 4481,
      "礁": 4482,
      "示": 4483,
      "礼": 4484,
      "社": 4485,
      "祀": 4486,
      "祈": 4487,
      "祖": 4488,
      "祝": 4489,
      "神": 4490,
      "票": 4491,
      "祭": 4492,
      "祷": 4493,
      "祸": 4494,
      "禀": 4495,
      "禁": 4496,
      "禄": 4497,
      "福": 4498,
      "禧": 4499,
      "离": 4500,
      "禽": 4501,
      "禾": 4502,
      "秀": 4503,
      "私": 4504,
      "秃": 4505,
      "秆": 4506,
      "秉": 4507,
      "秋": 4508,
      "种": 4509,
      "科": 4510,
      "秕": 4511,
      "秘": 4512,
      "租": 4513,
      "秤": 4514,
      "秧": 4515,
      "秩": 4516,
      "积": 4517,
      "称": 4518,
      "秸": 4519,
      "移": 4520,
      "秽": 4521,
      "稀": 4522,
      "程": 4523,
      "稍": 4524,
      "税": 4525,
      "稗": 4526,
      "稣": 4527,
      "稳": 4528,
      "稻": 4529,
      "稼": 4530,
      "穆": 4531,
      "穑": 4532,
      "穗": 4533,
      "穴": 4534,
      "究": 4535,
      "穷": 4536,
      "穹": 4537,
      "空": 4538,
      "穿": 4539,
      "突": 4540,
      "窃": 4541,
      "窄": 4542,
      "窍": 4543,
      "窑": 4544,
      "窒": 4545,
      "窖": 4546,
      "窗": 4547,
      "窘": 4548,
      "窜": 4549,
      "窝": 4550,
      "窥": 4551,
      "立": 4552,
      "竖": 4553,
      "站": 4554,
      "竞": 4555,
      "竟": 4556,
      "章": 4557,
      "童": 4558,
      "竭": 4559,
      "端": 4560,
      "竹": 4561,
      "竿": 4562,
      "笆": 4563,
      "笑": 4564,
      "笔": 4565,
      "笛": 4566,
      "符": 4567,
      "笨": 4568,
      "第": 4569,
      "笼": 4570,
      "等": 4571,
      "筋": 4572,
      "筏": 4573,
      "筐": 4574,
      "筑": 4575,
      "筒": 4576,
      "答": 4577,
      "策": 4578,
      "筛": 4579,
      "筵": 4580,
      "筹": 4581,
      "签": 4582,
      "简": 4583,
      "箍": 4584,
      "箏": 4585,
      "箐": 4586,
      "箕": 4587,
      "算": 4588,
      "管": 4589,
      "箭": 4590,
      "箱": 4591,
      "箴": 4592,
      "節": 4593,
      "範": 4594,
      "篇": 4595,
      "篝": 4596,
      "篡": 4597,
      "篮": 4598,
      "篱": 4599,
      "篷": 4600,
      "簸": 4601,
      "籍": 4602,
      "米": 4603,
      "类": 4604,
      "籽": 4605,
      "粉": 4606,
      "粒": 4607,
      "粗": 4608,
      "粘": 4609,
      "粟": 4610,
      "粪": 4611,
      "粮": 4612,
      "精": 4613,
      "糊": 4614,
      "糟": 4615,
      "糠": 4616,
      "系": 4617,
      "紀": 4618,
      "紋": 4619,
      "素": 4620,
      "索": 4621,
      "紧": 4622,
      "紫": 4623,
      "累": 4624,
      "絮": 4625,
      "編": 4626,
      "繁": 4627,
      "纠": 4628,
      "红": 4629,
      "纣": 4630,
      "约": 4631,
      "级": 4632,
      "纪": 4633,
      "纬": 4634,
      "纯": 4635,
      "纱": 4636,
      "纳": 4637,
      "纵": 4638,
      "纷": 4639,
      "纸": 4640,
      "纹": 4641,
      "纺": 4642,
      "线": 4643,
      "练": 4644,
      "组": 4645,
      "细": 4646,
      "织": 4647,
      "终": 4648,
      "绊": 4649,
      "经": 4650,
      "绑": 4651,
      "结": 4652,
      "绕": 4653,
      "绘": 4654,
      "给": 4655,
      "络": 4656,
      "绝": 4657,
      "绞": 4658,
      "统": 4659,
      "绣": 4660,
      "继": 4661,
      "绩": 4662,
      "绪": 4663,
      "续": 4664,
      "绳": 4665,
      "维": 4666,
      "绵": 4667,
      "绷": 4668,
      "绸": 4669,
      "绺": 4670,
      "绽": 4671,
      "绿": 4672,
      "缀": 4673,
      "缄": 4674,
      "缅": 4675,
      "缆": 4676,
      "缎": 4677,
      "缒": 4678,
      "缓": 4679,
      "缔": 4680,
      "编": 4681,
      "缘": 4682,
      "缚": 4683,
      "缝": 4684,
      "缠": 4685,
      "缤": 4686,
      "缦": 4687,
      "缨": 4688,
      "缩": 4689,
      "缮": 4690,
      "缸": 4691,
      "缺": 4692,
      "罐": 4693,
      "网": 4694,
      "罕": 4695,
      "罗": 4696,
      "罚": 4697,
      "罢": 4698,
      "罩": 4699,
      "罪": 4700,
      "置": 4701,
      "署": 4702,
      "羅": 4703,
      "羊": 4704,
      "美": 4705,
      "羔": 4706,
      "羚": 4707,
      "羞": 4708,
      "羡": 4709,
      "群": 4710,
      "羱": 4711,
      "羽": 4712,
      "翁": 4713,
      "翅": 4714,
      "翎": 4715,
      "翔": 4716,
      "翠": 4717,
      "翡": 4718,
      "翰": 4719,
      "翱": 4720,
      "翻": 4721,
      "翼": 4722,
      "耀": 4723,
      "老": 4724,
      "考": 4725,
      "者": 4726,
      "而": 4727,
      "耍": 4728,
      "耐": 4729,
      "耕": 4730,
      "耗": 4731,
      "耘": 4732,
      "耙": 4733,
      "耳": 4734,
      "耶": 4735,
      "耸": 4736,
      "耻": 4737,
      "耽": 4738,
      "聂": 4739,
      "聆": 4740,
      "聋": 4741,
      "职": 4742,
      "联": 4743,
      "聘": 4744,
      "聚": 4745,
      "聪": 4746,
      "肃": 4747,
      "肆": 4748,
      "肉": 4749,
      "肋": 4750,
      "肌": 4751,
      "肘": 4752,
      "肚": 4753,
      "肝": 4754,
      "肠": 4755,
      "股": 4756,
      "肢": 4757,
      "肤": 4758,
      "肥": 4759,
      "肩": 4760,
      "肪": 4761,
      "肮": 4762,
      "肯": 4763,
      "育": 4764,
      "肺": 4765,
      "肾": 4766,
      "肿": 4767,
      "胀": 4768,
      "胁": 4769,
      "胃": 4770,
      "胆": 4771,
      "背": 4772,
      "胎": 4773,
      "胖": 4774,
      "胛": 4775,
      "胜": 4776,
      "胞": 4777,
      "胡": 4778,
      "胫": 4779,
      "胯": 4780,
      "胳": 4781,
      "胶": 4782,
      "胸": 4783,
      "能": 4784,
      "脂": 4785,
      "脆": 4786,
      "脊": 4787,
      "脏": 4788,
      "脐": 4789,
      "脑": 4790,
      "脓": 4791,
      "脖": 4792,
      "脚": 4793,
      "脱": 4794,
      "脸": 4795,
      "腊": 4796,
      "腋": 4797,
      "腌": 4798,
      "腐": 4799,
      "腑": 4800,
      "腓": 4801,
      "腔": 4802,
      "腕": 4803,
      "腮": 4804,
      "腰": 4805,
      "腱": 4806,
      "腹": 4807,
      "腻": 4808,
      "腾": 4809,
      "腿": 4810,
      "膀": 4811,
      "膊": 4812,
      "膏": 4813,
      "膛": 4814,
      "膜": 4815,
      "膝": 4816,
      "膨": 4817,
      "膳": 4818,
      "膺": 4819,
      "臀": 4820,
      "臂": 4821,
      "臣": 4822,
      "自": 4823,
      "臭": 4824,
      "至": 4825,
      "致": 4826,
      "臼": 4827,
      "舀": 4828,
      "舅": 4829,
      "舌": 4830,
      "舍": 4831,
      "舒": 4832,
      "舔": 4833,
      "舞": 4834,
      "舟": 4835,
      "航": 4836,
      "般": 4837,
      "舰": 4838,
      "舱": 4839,
      "舵": 4840,
      "船": 4841,
      "艇": 4842,
      "艘": 4843,
      "良": 4844,
      "艰": 4845,
      "色": 4846,
      "艳": 4847,
      "艺": 4848,
      "艾": 4849,
      "节": 4850,
      "芒": 4851,
      "芜": 4852,
      "芥": 4853,
      "芦": 4854,
      "芫": 4855,
      "芬": 4856,
      "芭": 4857,
      "芯": 4858,
      "花": 4859,
      "芳": 4860,
      "芸": 4861,
      "芹": 4862,
      "芽": 4863,
      "苇": 4864,
      "苍": 4865,
      "苏": 4866,
      "苗": 4867,
      "苛": 4868,
      "苞": 4869,
      "若": 4870,
      "苦": 4871,
      "英": 4872,
      "苹": 4873,
      "茁": 4874,
      "茂": 4875,
      "范": 4876,
      "茄": 4877,
      "茅": 4878,
      "茉": 4879,
      "茎": 4880,
      "茜": 4881,
      "茨": 4882,
      "茫": 4883,
      "茬": 4884,
      "茴": 4885,
      "茶": 4886,
      "茸": 4887,
      "茹": 4888,
      "荆": 4889,
      "草": 4890,
      "荐": 4891,
      "荒": 4892,
      "荚": 4893,
      "荡": 4894,
      "荣": 4895,
      "荫": 4896,
      "药": 4897,
      "荷": 4898,
      "荻": 4899,
      "荽": 4900,
      "莉": 4901,
      "莎": 4902,
      "莫": 4903,
      "莱": 4904,
      "莲": 4905,
      "莳": 4906,
      "获": 4907,
      "莽": 4908,
      "菇": 4909,
      "菌": 4910,
      "菖": 4911,
      "菜": 4912,
      "華": 4913,
      "菱": 4914,
      "菲": 4915,
      "萃": 4916,
      "萄": 4917,
      "萌": 4918,
      "萍": 4919,
      "萎": 4920,
      "萝": 4921,
      "营": 4922,
      "萨": 4923,
      "萼": 4924,
      "落": 4925,
      "著": 4926,
      "葡": 4927,
      "葬": 4928,
      "葱": 4929,
      "蒂": 4930,
      "蒙": 4931,
      "蒜": 4932,
      "蒲": 4933,
      "蒸": 4934,
      "蒺": 4935,
      "蓄": 4936,
      "蓖": 4937,
      "蓝": 4938,
      "蓮": 4939,
      "蔑": 4940,
      "蔓": 4941,
      "蔬": 4942,
      "蔽": 4943,
      "蕴": 4944,
      "蕾": 4945,
      "薄": 4946,
      "薛": 4947,
      "薰": 4948,
      "藉": 4949,
      "藏": 4950,
      "藐": 4951,
      "藜": 4952,
      "藤": 4953,
      "蘸": 4954,
      "虎": 4955,
      "虏": 4956,
      "虐": 4957,
      "虑": 4958,
      "虔": 4959,
      "虚": 4960,
      "虫": 4961,
      "虹": 4962,
      "虺": 4963,
      "虻": 4964,
      "虽": 4965,
      "蚀": 4966,
      "蚁": 4967,
      "蚂": 4968,
      "蚋": 4969,
      "蚤": 4970,
      "蚱": 4971,
      "蛀": 4972,
      "蛆": 4973,
      "蛇": 4974,
      "蛋": 4975,
      "蛙": 4976,
      "蛛": 4977,
      "蛮": 4978,
      "蜂": 4979,
      "蜒": 4980,
      "蜓": 4981,
      "蜗": 4982,
      "蜘": 4983,
      "蜚": 4984,
      "蜜": 4985,
      "蜡": 4986,
      "蜢": 4987,
      "蜥": 4988,
      "蜴": 4989,
      "蜷": 4990,
      "蜿": 4991,
      "蝇": 4992,
      "蝎": 4993,
      "蝗": 4994,
      "蝘": 4995,
      "蝙": 4996,
      "蝠": 4997,
      "蝮": 4998,
      "蝰": 4999,
      "蝻": 5000,
      "融": 5001,
      "螫": 5002,
      "螺": 5003,
      "蟀": 5004,
      "蟋": 5005,
      "蟥": 5006,
      "蠓": 5007,
      "蠢": 5008,
      "蠹": 5009,
      "血": 5010,
      "衅": 5011,
      "行": 5012,
      "衍": 5013,
      "衔": 5014,
      "街": 5015,
      "衛": 5016,
      "衡": 5017,
      "衣": 5018,
      "补": 5019,
      "表": 5020,
      "衫": 5021,
      "衮": 5022,
      "衰": 5023,
      "衲": 5024,
      "袋": 5025,
      "袍": 5026,
      "袒": 5027,
      "袖": 5028,
      "被": 5029,
      "袭": 5030,
      "裁": 5031,
      "裂": 5032,
      "装": 5033,
      "裔": 5034,
      "裕": 5035,
      "裙": 5036,
      "裤": 5037,
      "裳": 5038,
      "裸": 5039,
      "裹": 5040,
      "褓": 5041,
      "褶": 5042,
      "襁": 5043,
      "襟": 5044,
      "西": 5045,
      "要": 5046,
      "覆": 5047,
      "観": 5048,
      "见": 5049,
      "观": 5050,
      "规": 5051,
      "觅": 5052,
      "视": 5053,
      "觉": 5054,
      "觐": 5055,
      "角": 5056,
      "解": 5057,
      "触": 5058,
      "言": 5059,
      "誓": 5060,
      "誕": 5061,
      "語": 5062,
      "警": 5063,
      "计": 5064,
      "订": 5065,
      "认": 5066,
      "讥": 5067,
      "讨": 5068,
      "让": 5069,
      "训": 5070,
      "议": 5071,
      "讯": 5072,
      "记": 5073,
      "讲": 5074,
      "讶": 5075,
      "讷": 5076,
      "许": 5077,
      "论": 5078,
      "讼": 5079,
      "讽": 5080,
      "设": 5081,
      "访": 5082,
      "诀": 5083,
      "证": 5084,
      "评": 5085,
      "诅": 5086,
      "识": 5087,
      "诈": 5088,
      "诉": 5089,
      "诋": 5090,
      "词": 5091,
      "诏": 5092,
      "译": 5093,
      "试": 5094,
      "诗": 5095,
      "诚": 5096,
      "话": 5097,
      "诞": 5098,
      "诡": 5099,
      "询": 5100,
      "该": 5101,
      "详": 5102,
      "诧": 5103,
      "诫": 5104,
      "诬": 5105,
      "语": 5106,
      "诮": 5107,
      "误": 5108,
      "诱": 5109,
      "诲": 5110,
      "说": 5111,
      "诵": 5112,
      "请": 5113,
      "诸": 5114,
      "诺": 5115,
      "读": 5116,
      "诽": 5117,
      "诿": 5118,
      "谁": 5119,
      "调": 5120,
      "谄": 5121,
      "谅": 5122,
      "谈": 5123,
      "谋": 5124,
      "谎": 5125,
      "谏": 5126,
      "谐": 5127,
      "谓": 5128,
      "谕": 5129,
      "谗": 5130,
      "谚": 5131,
      "谜": 5132,
      "谢": 5133,
      "谣": 5134,
      "谤": 5135,
      "谦": 5136,
      "谨": 5137,
      "谬": 5138,
      "谱": 5139,
      "谴": 5140,
      "谷": 5141,
      "豁": 5142,
      "豆": 5143,
      "象": 5144,
      "豪": 5145,
      "豫": 5146,
      "豹": 5147,
      "豺": 5148,
      "貌": 5149,
      "贝": 5150,
      "贞": 5151,
      "负": 5152,
      "贡": 5153,
      "财": 5154,
      "责": 5155,
      "贤": 5156,
      "败": 5157,
      "账": 5158,
      "货": 5159,
      "质": 5160,
      "贩": 5161,
      "贪": 5162,
      "贫": 5163,
      "贬": 5164,
      "购": 5165,
      "贯": 5166,
      "贱": 5167,
      "贴": 5168,
      "贵": 5169,
      "贷": 5170,
      "贸": 5171,
      "费": 5172,
      "贺": 5173,
      "贼": 5174,
      "贿": 5175,
      "赂": 5176,
      "赃": 5177,
      "资": 5178,
      "赉": 5179,
      "赋": 5180,
      "赌": 5181,
      "赎": 5182,
      "赏": 5183,
      "赐": 5184,
      "赔": 5185,
      "赖": 5186,
      "赚": 5187,
      "赛": 5188,
      "赞": 5189,
      "赠": 5190,
      "赢": 5191,
      "赤": 5192,
      "赦": 5193,
      "赫": 5194,
      "走": 5195,
      "赴": 5196,
      "赶": 5197,
      "起": 5198,
      "趁": 5199,
      "超": 5200,
      "越": 5201,
      "趟": 5202,
      "足": 5203,
      "趴": 5204,
      "趾": 5205,
      "跃": 5206,
      "跄": 5207,
      "跌": 5208,
      "跑": 5209,
      "跚": 5210,
      "距": 5211,
      "跟": 5212,
      "跤": 5213,
      "跨": 5214,
      "跪": 5215,
      "路": 5216,
      "跳": 5217,
      "践": 5218,
      "跺": 5219,
      "踉": 5220,
      "踊": 5221,
      "踏": 5222,
      "踝": 5223,
      "踞": 5224,
      "踢": 5225,
      "踩": 5226,
      "踪": 5227,
      "踹": 5228,
      "蹄": 5229,
      "蹈": 5230,
      "蹋": 5231,
      "蹒": 5232,
      "蹚": 5233,
      "蹦": 5234,
      "蹲": 5235,
      "躁": 5236,
      "身": 5237,
      "躬": 5238,
      "躯": 5239,
      "躲": 5240,
      "躺": 5241,
      "车": 5242,
      "轧": 5243,
      "轨": 5244,
      "转": 5245,
      "轭": 5246,
      "轮": 5247,
      "软": 5248,
      "轰": 5249,
      "轴": 5250,
      "轻": 5251,
      "载": 5252,
      "轿": 5253,
      "较": 5254,
      "辅": 5255,
      "辆": 5256,
      "辈": 5257,
      "辉": 5258,
      "辎": 5259,
      "辐": 5260,
      "辑": 5261,
      "辔": 5262,
      "辖": 5263,
      "辗": 5264,
      "辘": 5265,
      "辛": 5266,
      "辜": 5267,
      "辞": 5268,
      "辟": 5269,
      "辣": 5270,
      "辨": 5271,
      "辩": 5272,
      "辫": 5273,
      "辰": 5274,
      "辱": 5275,
      "边": 5276,
      "辽": 5277,
      "达": 5278,
      "迁": 5279,
      "迅": 5280,
      "过": 5281,
      "迈": 5282,
      "迎": 5283,
      "运": 5284,
      "近": 5285,
      "返": 5286,
      "还": 5287,
      "这": 5288,
      "进": 5289,
      "远": 5290,
      "违": 5291,
      "连": 5292,
      "迟": 5293,
      "迦": 5294,
      "迪": 5295,
      "迫": 5296,
      "述": 5297,
      "迷": 5298,
      "迸": 5299,
      "迹": 5300,
      "追": 5301,
      "退": 5302,
      "送": 5303,
      "适": 5304,
      "逃": 5305,
      "逆": 5306,
      "选": 5307,
      "逊": 5308,
      "透": 5309,
      "逐": 5310,
      "递": 5311,
      "途": 5312,
      "通": 5313,
      "逝": 5314,
      "逞": 5315,
      "速": 5316,
      "造": 5317,
      "逢": 5318,
      "逮": 5319,
      "逸": 5320,
      "逼": 5321,
      "逾": 5322,
      "遁": 5323,
      "遇": 5324,
      "遍": 5325,
      "道": 5326,
      "遗": 5327,
      "遜": 5328,
      "遣": 5329,
      "遥": 5330,
      "遭": 5331,
      "遮": 5332,
      "遵": 5333,
      "避": 5334,
      "邀": 5335,
      "邑": 5336,
      "那": 5337,
      "邦": 5338,
      "邪": 5339,
      "邻": 5340,
      "郊": 5341,
      "郎": 5342,
      "郑": 5343,
      "部": 5344,
      "都": 5345,
      "鄙": 5346,
      "酊": 5347,
      "配": 5348,
      "酒": 5349,
      "酗": 5350,
      "酝": 5351,
      "酣": 5352,
      "酩": 5353,
      "酪": 5354,
      "酬": 5355,
      "酵": 5356,
      "酷": 5357,
      "酸": 5358,
      "酿": 5359,
      "醇": 5360,
      "醉": 5361,
      "醋": 5362,
      "醒": 5363,
      "采": 5364,
      "释": 5365,
      "釋": 5366,
      "里": 5367,
      "重": 5368,
      "野": 5369,
      "量": 5370,
      "金": 5371,
      "釜": 5372,
      "針": 5373,
      "鉴": 5374,
      "鍋": 5375,
      "针": 5376,
      "钉": 5377,
      "钓": 5378,
      "钝": 5379,
      "钟": 5380,
      "钥": 5381,
      "钩": 5382,
      "钱": 5383,
      "钳": 5384,
      "钵": 5385,
      "钹": 5386,
      "钻": 5387,
      "铁": 5388,
      "铃": 5389,
      "铅": 5390,
      "铐": 5391,
      "铛": 5392,
      "铜": 5393,
      "铠": 5394,
      "铭": 5395,
      "铮": 5396,
      "铰": 5397,
      "铲": 5398,
      "银": 5399,
      "铸": 5400,
      "铺": 5401,
      "链": 5402,
      "销": 5403,
      "锁": 5404,
      "锄": 5405,
      "锅": 5406,
      "锆": 5407,
      "锈": 5408,
      "锋": 5409,
      "锐": 5410,
      "错": 5411,
      "锚": 5412,
      "锡": 5413,
      "锣": 5414,
      "锤": 5415,
      "锥": 5416,
      "锨": 5417,
      "锭": 5418,
      "锯": 5419,
      "镀": 5420,
      "镇": 5421,
      "镌": 5422,
      "镐": 5423,
      "镖": 5424,
      "镜": 5425,
      "镣": 5426,
      "镯": 5427,
      "镰": 5428,
      "镶": 5429,
      "長": 5430,
      "长": 5431,
      "门": 5432,
      "闩": 5433,
      "闪": 5434,
      "闭": 5435,
      "问": 5436,
      "闯": 5437,
      "闲": 5438,
      "间": 5439,
      "闷": 5440,
      "闸": 5441,
      "闹": 5442,
      "闺": 5443,
      "闻": 5444,
      "阁": 5445,
      "阅": 5446,
      "阉": 5447,
      "阐": 5448,
      "阔": 5449,
      "队": 5450,
      "阱": 5451,
      "防": 5452,
      "阳": 5453,
      "阴": 5454,
      "阵": 5455,
      "阶": 5456,
      "阻": 5457,
      "阿": 5458,
      "陀": 5459,
      "附": 5460,
      "际": 5461,
      "陆": 5462,
      "陈": 5463,
      "陋": 5464,
      "陌": 5465,
      "降": 5466,
      "限": 5467,
      "陛": 5468,
      "院": 5469,
      "除": 5470,
      "险": 5471,
      "陪": 5472,
      "陵": 5473,
      "陶": 5474,
      "陷": 5475,
      "隆": 5476,
      "随": 5477,
      "隐": 5478,
      "隔": 5479,
      "隘": 5480,
      "隙": 5481,
      "障": 5482,
      "隶": 5483,
      "隼": 5484,
      "难": 5485,
      "雀": 5486,
      "雄": 5487,
      "雅": 5488,
      "集": 5489,
      "雇": 5490,
      "雌": 5491,
      "雏": 5492,
      "雕": 5493,
      "雨": 5494,
      "雪": 5495,
      "零": 5496,
      "雷": 5497,
      "雹": 5498,
      "雾": 5499,
      "需": 5500,
      "霄": 5501,
      "霆": 5502,
      "震": 5503,
      "霉": 5504,
      "霍": 5505,
      "霖": 5506,
      "霜": 5507,
      "霪": 5508,
      "露": 5509,
      "青": 5510,
      "静": 5511,
      "非": 5512,
      "靠": 5513,
      "靡": 5514,
      "面": 5515,
      "革": 5516,
      "靴": 5517,
      "靶": 5518,
      "鞋": 5519,
      "鞍": 5520,
      "鞘": 5521,
      "鞭": 5522,
      "韦": 5523,
      "韭": 5524,
      "音": 5525,
      "页": 5526,
      "顶": 5527,
      "顷": 5528,
      "项": 5529,
      "顺": 5530,
      "须": 5531,
      "顽": 5532,
      "顾": 5533,
      "顿": 5534,
      "颁": 5535,
      "颂": 5536,
      "预": 5537,
      "颅": 5538,
      "领": 5539,
      "颇": 5540,
      "颈": 5541,
      "颊": 5542,
      "颗": 5543,
      "题": 5544,
      "颚": 5545,
      "颜": 5546,
      "额": 5547,
      "颠": 5548,
      "颤": 5549,
      "风": 5550,
      "飓": 5551,
      "飘": 5552,
      "飞": 5553,
      "食": 5554,
      "餐": 5555,
      "饥": 5556,
      "饭": 5557,
      "饮": 5558,
      "饰": 5559,
      "饱": 5560,
      "饲": 5561,
      "饵": 5562,
      "饶": 5563,
      "饷": 5564,
      "饼": 5565,
      "饿": 5566,
      "馆": 5567,
      "馐": 5568,
      "首": 5569,
      "香": 5570,
      "馨": 5571,
      "马": 5572,
      "驭": 5573,
      "驮": 5574,
      "驯": 5575,
      "驰": 5576,
      "驱": 5577,
      "驳": 5578,
      "驴": 5579,
      "驶": 5580,
      "驹": 5581,
      "驻": 5582,
      "驼": 5583,
      "驾": 5584,
      "驿": 5585,
      "骂": 5586,
      "骄": 5587,
      "骆": 5588,
      "骇": 5589,
      "骈": 5590,
      "骋": 5591,
      "验": 5592,
      "骏": 5593,
      "骑": 5594,
      "骗": 5595,
      "骚": 5596,
      "骟": 5597,
      "骡": 5598,
      "骨": 5599,
      "骷": 5600,
      "骸": 5601,
      "髅": 5602,
      "髓": 5603,
      "高": 5604,
      "鬃": 5605,
      "鬓": 5606,
      "鬼": 5607,
      "魂": 5608,
      "魄": 5609,
      "魔": 5610,
      "鱼": 5611,
      "鲁": 5612,
      "鲜": 5613,
      "鳍": 5614,
      "鳞": 5615,
      "鳢": 5616,
      "鸟": 5617,
      "鸠": 5618,
      "鸡": 5619,
      "鸢": 5620,
      "鸣": 5621,
      "鸥": 5622,
      "鸦": 5623,
      "鸪": 5624,
      "鸬": 5625,
      "鸮": 5626,
      "鸵": 5627,
      "鸶": 5628,
      "鸽": 5629,
      "鸿": 5630,
      "鹈": 5631,
      "鹌": 5632,
      "鹑": 5633,
      "鹕": 5634,
      "鹗": 5635,
      "鹚": 5636,
      "鹞": 5637,
      "鹤": 5638,
      "鹧": 5639,
      "鹫": 5640,
      "鹭": 5641,
      "鹰": 5642,
      "鹳": 5643,
      "鹿": 5644,
      "麦": 5645,
      "麻": 5646,
      "黄": 5647,
      "黎": 5648,
      "黑": 5649,
      "默": 5650,
      "黜": 5651,
      "黝": 5652,
      "黯": 5653,
      "鼓": 5654,
      "鼠": 5655,
      "鼹": 5656,
      "鼻": 5657,
      "齐": 5658,
      "齿": 5659,
      "龄": 5660,
      "龍": 5661,
      "龙": 5662,
      "龛": 5663,
      "ꜛ": 5664,
      "ꜜ": 5665,
      "꞉": 5666,
      "Ꞌ": 5667,
      "ꞌ": 5668,
      "ꞎ": 5669,
      "ꞏ": 5670,
      "ꞵ": 5671,
      "꤀": 5672,
      "꤁": 5673,
      "꤂": 5674,
      "꤄": 5675,
      "꤈": 5676,
      "ꤊ": 5677,
      "ꤋ": 5678,
      "ꤌ": 5679,
      "ꤍ": 5680,
      "ꤎ": 5681,
      "ꤏ": 5682,
      "ꤐ": 5683,
      "ꤑ": 5684,
      "ꤒ": 5685,
      "ꤓ": 5686,
      "ꤔ": 5687,
      "ꤕ": 5688,
      "ꤖ": 5689,
      "ꤗ": 5690,
      "ꤘ": 5691,
      "ꤙ": 5692,
      "ꤚ": 5693,
      "ꤛ": 5694,
      "ꤜ": 5695,
      "ꤝ": 5696,
      "ꤞ": 5697,
      "ꤟ": 5698,
      "ꤠ": 5699,
      "ꤡ": 5700,
      "ꤢ": 5701,
      "ꤣ": 5702,
      "ꤤ": 5703,
      "ꤥ": 5704,
      "ꤦ": 5705,
      "ꤧ": 5706,
      "ꤨ": 5707,
      "ꤩ": 5708,
      "ꤪ": 5709,
      "꤫": 5710,
      "꤬": 5711,
      "꤭": 5712,
      "꤮": 5713,
      "꤯": 5714,
      "ꦁ": 5715,
      "ꦔ": 5716,
      "ꦕ": 5717,
      "ꦤ": 5718,
      "ꦭ": 5719,
      "ꦺ": 5720,
      "꧀": 5721,
      "꧐": 5722,
      "꧑": 5723,
      "꧒": 5724,
      "꧓": 5725,
      "꧔": 5726,
      "꧕": 5727,
      "꧖": 5728,
      "꧗": 5729,
      "꧘": 5730,
      "꧙": 5731,
      "ꧠ": 5732,
      "ꧡ": 5733,
      "ꧢ": 5734,
      "ꧣ": 5735,
      "ꧤ": 5736,
      "ꧥ": 5737,
      "ꧦ": 5738,
      "ꧧ": 5739,
      "ꧨ": 5740,
      "ꧩ": 5741,
      "ꧪ": 5742,
      "ꧫ": 5743,
      "ꧬ": 5744,
      "ꧭ": 5745,
      "ꧮ": 5746,
      "ꧯ": 5747,
      "꧰": 5748,
      "꧱": 5749,
      "꧲": 5750,
      "꧳": 5751,
      "꧴": 5752,
      "꧵": 5753,
      "꧶": 5754,
      "꧷": 5755,
      "꧸": 5756,
      "꧹": 5757,
      "ꧺ": 5758,
      "ꧻ": 5759,
      "ꧼ": 5760,
      "ꧽ": 5761,
      "ꧾ": 5762,
      "ꨁ": 5763,
      "ꨅ": 5764,
      "꨸": 5765,
      "ꩠ": 5766,
      "ꩡ": 5767,
      "ꩢ": 5768,
      "ꩣ": 5769,
      "ꩤ": 5770,
      "ꩥ": 5771,
      "ꩦ": 5772,
      "ꩧ": 5773,
      "ꩨ": 5774,
      "ꩩ": 5775,
      "ꩪ": 5776,
      "ꩫ": 5777,
      "ꩬ": 5778,
      "ꩭ": 5779,
      "ꩮ": 5780,
      "ꩯ": 5781,
      "ꩰ": 5782,
      "ꩱ": 5783,
      "ꩲ": 5784,
      "ꩳ": 5785,
      "ꩴ": 5786,
      "ꩵ": 5787,
      "ꩶ": 5788,
      "꩷": 5789,
      "꩸": 5790,
      "꩹": 5791,
      "ꩺ": 5792,
      "ꩻ": 5793,
      "ꩼ": 5794,
      "ꩽ": 5795,
      "ꩾ": 5796,
      "ꩿ": 5797,
      "ꭓ": 5798,
      "가": 5799,
      "감": 5800,
      "거": 5801,
      "건": 5802,
      "경": 5803,
      "국": 5804,
      "굴": 5805,
      "글": 5806,
      "날": 5807,
      "님": 5808,
      "대": 5809,
      "등": 5810,
      "딴": 5811,
      "말": 5812,
      "문": 5813,
      "민": 5814,
      "발": 5815,
      "버": 5816,
      "부": 5817,
      "상": 5818,
      "생": 5819,
      "석": 5820,
      "선": 5821,
      "섯": 5822,
      "세": 5823,
      "시": 5824,
      "신": 5825,
      "않": 5826,
      "암": 5827,
      "았": 5828,
      "약": 5829,
      "양": 5830,
      "어": 5831,
      "연": 5832,
      "오": 5833,
      "왕": 5834,
      "이": 5835,
      "일": 5836,
      "임": 5837,
      "정": 5838,
      "조": 5839,
      "종": 5840,
      "찌": 5841,
      "찰": 5842,
      "처": 5843,
      "탄": 5844,
      "팽": 5845,
      "한": 5846,
      "활": 5847,
      "회": 5848,
      "희": 5849,
      "": 5850,
      "": 5851,
      "": 5852,
      "": 5853,
      "︎": 5854,
      "️": 5855,
      "﹪": 5856,
      "ﺁ": 5857,
      "﻿": 5858,
      "！": 5859,
      "＂": 5860,
      "（": 5861,
      "）": 5862,
      "，": 5863,
      "：": 5864,
      "；": 5865,
      "？": 5866,
      "～": 5867,
      "￼": 5868,
      "�": 5869,
      "𐍈": 5870,
      "𐞄": 5871,
      "𐞋": 5872,
      "𐞖": 5873,
      "𐞪": 5874,
      "𐞯": 5875,
      "𐞳": 5876,
      "𐞴": 5877,
      "𑀓": 5878,
      "𑀔": 5879,
      "𑀢": 5880,
      "𑀯": 5881,
      "𑀲": 5882,
      "𑀸": 5883,
      "𑁄": 5884,
      "𑁆": 5885,
      "𑇡": 5886,
      "𑇢": 5887,
      "𑇣": 5888,
      "𑇤": 5889,
      "𑇥": 5890,
      "𑇦": 5891,
      "𑇧": 5892,
      "𑇨": 5893,
      "𑇩": 5894,
      "𓏺": 5895,
      "𓏻": 5896,
      "𓏼": 5897,
      "𓏽": 5898,
      "𓏾": 5899,
      "𓏿": 5900,
      "𓐀": 5901,
      "𓐁": 5902,
      "𓐂": 5903,
      "𝐂": 5904,
      "𝐬": 5905,
      "𝝂": 5906,
      "𝼄": 5907,
      "𝼅": 5908,
      "𝼆": 5909,
      "𝼈": 5910,
      "𝼉": 5911,
      "𝼊": 5912,
      "𞤁": 5913,
      "𞤢": 5914,
      "𞤣": 5915,
      "𞤫": 5916,
      "𞤯": 5917,
      "𞤲": 5918,
      "𞤴": 5919,
      "🇫": 5920,
      "🇱": 5921,
      "🇲": 5922,
      "🇳": 5923,
      "🇷": 5924,
      "🌈": 5925,
      "🌋": 5926,
      "🌌": 5927,
      "🌍": 5928,
      "🌎": 5929,
      "🌏": 5930,
      "🌐": 5931,
      "🌙": 5932,
      "🌟": 5933,
      "🌦": 5934,
      "🌫": 5935,
      "🌾": 5936,
      "🌿": 5937,
      "🍎": 5938,
      "🍳": 5939,
      "🍼": 5940,
      "🎄": 5941,
      "🎓": 5942,
      "🎤": 5943,
      "🎧": 5944,
      "🎨": 5945,
      "🎭": 5946,
      "🎵": 5947,
      "🎸": 5948,
      "🏅": 5949,
      "🏆": 5950,
      "🏋": 5951,
      "🏓": 5952,
      "🏔": 5953,
      "🏗": 5954,
      "🏛": 5955,
      "🏢": 5956,
      "🏫": 5957,
      "🏭": 5958,
      "👉": 5959,
      "👍": 5960,
      "👑": 5961,
      "👤": 5962,
      "👥": 5963,
      "👦": 5964,
      "👧": 5965,
      "👨": 5966,
      "👩": 5967,
      "👶": 5968,
      "👷": 5969,
      "💃": 5970,
      "💋": 5971,
      "💡": 5972,
      "💨": 5973,
      "💪": 5974,
      "💫": 5975,
      "💰": 5976,
      "💶": 5977,
      "💻": 5978,
      "💼": 5979,
      "💾": 5980,
      "📁": 5981,
      "📂": 5982,
      "📄": 5983,
      "📅": 5984,
      "📆": 5985,
      "📈": 5986,
      "📊": 5987,
      "📋": 5988,
      "📌": 5989,
      "📍": 5990,
      "📑": 5991,
      "📓": 5992,
      "📖": 5993,
      "📘": 5994,
      "📚": 5995,
      "📜": 5996,
      "📝": 5997,
      "📢": 5998,
      "📦": 5999,
      "📱": 6000,
      "🔄": 6001,
      "🔍": 6002,
      "🔒": 6003,
      "🔗": 6004,
      "🔢": 6005,
      "🔥": 6006,
      "🔧": 6007,
      "🔬": 6008,
      "🔭": 6009,
      "🔸": 6010,
      "🕊": 6011,
      "🕌": 6012,
      "🖼": 6013,
      "🗂": 6014,
      "🗓": 6015,
      "🗣": 6016,
      "🗨": 6017,
      "🗳": 6018,
      "🗺": 6019,
      "😁": 6020,
      "🙋": 6021,
      "🙏": 6022,
      "🚀": 6023,
      "🚒": 6024,
      "🚩": 6025,
      "🛑": 6026,
      "🛕": 6027,
      "🛠": 6028,
      "🛡": 6029,
      "🜨": 6030,
      "🟪": 6031,
      "🤔": 6032,
      "🤖": 6033,
      "🤘": 6034,
      "🤝": 6035,
      "🦁": 6036,
      "🦚": 6037,
      "🦯": 6038,
      "🦰": 6039,
      "🦱": 6040,
      "🦲": 6041,
      "🦳": 6042,
      "🦺": 6043,
      "🦼": 6044,
      "🦽": 6045,
      "🧑": 6046,
      "🧓": 6047,
      "🧚": 6048,
      "🧠": 6049,
      "🧬": 6050,
      "🧲": 6051,
      "🩹": 6052,
      "🪖": 6053,
      "🫲": 6054,
      "an": 6055,
      "င်": 6056,
      "ng": 6057,
      "ို": 6058,
      "ang": 6059,
      "in": 6060,
      "်း": 6061,
      "ka": 6062,
      "ah": 6063,
      "တ်": 6064,
      "sa": 6065,
      "na": 6066,
      "ော": 6067,
      "န်": 6068,
      "ဝ်": 6069,
      "at": 6070,
      "ၣ်": 6071,
      "aw": 6072,
      "th": 6073,
      "ai": 6074,
      "un": 6075,
      "က်": 6076,
      "ၼ်": 6077,
      "ma": 6078,
      "ၚ်": 6079,
      "ှ်": 6080,
      "pa": 6081,
      "ၢ်": 6082,
      "ွံ": 6083,
      "င်း": 6084,
      "er": 6085,
      "al": 6086,
      "ing": 6087,
      "ak": 6088,
      "hi": 6089,
      "ပ်": 6090,
      "ar": 6091,
      "ဵု": 6092,
      "tu": 6093,
      "en": 6094,
      "am": 6095,
      "ti": 6096,
      "si": 6097,
      "ာ်": 6098,
      "te": 6099,
      "ih": 6100,
      "di": 6101,
      "da": 6102,
      "்க": 6103,
      "မ်": 6104,
      "ဂှ်": 6105,
      "ung": 6106,
      "ိူ": 6107,
      "le": 6108,
      "ီး": 6109,
      "ကဵု": 6110,
      "mi": 6111,
      "ၼ်း": 6112,
      "kh": 6113,
      "ta": 6114,
      "ိုင်": 6115,
      "on": 6116,
      "kan": 6117,
      "တု": 6118,
      "ပ္": 6119,
      "လီ": 6120,
      "ွဲ": 6121,
      "ႃႈ": 6122,
      "လၢ": 6123,
      "ra": 6124,
      "ni": 6125,
      "the": 6126,
      "ya": 6127,
      "ဟ်": 6128,
      "la": 6129,
      "ga": 6130,
      "se": 6131,
      "sh": 6132,
      "um": 6133,
      "ပြ": 6134,
      "்த": 6135,
      "uh": 6136,
      "တီ": 6137,
      "ိုတ်": 6138,
      "ன்": 6139,
      "pe": 6140,
      "ꤢꤩ": 6141,
      "ur": 6142,
      "ီု": 6143,
      "ch": 6144,
      "ပ္ဍ": 6145,
      "ား": 6146,
      "ane": 6147,
      "့ၣ်": 6148,
      "ပ္ဍဲ": 6149,
      "ke": 6150,
      "ꤣꤧ": 6151,
      "li": 6152,
      "ကျ": 6153,
      "ong": 6154,
      "ၵ်": 6155,
      "or": 6156,
      "တုဲ": 6157,
      "တၢ်": 6158,
      "ம்": 6159,
      "မ်း": 6160,
      "အ်": 6161,
      "မ္": 6162,
      "ba": 6163,
      "mu": 6164,
      "ki": 6165,
      "လၧ": 6166,
      "su": 6167,
      "pi": 6168,
      "me": 6169,
      "ဒှ်": 6170,
      "ာန်": 6171,
      "ယ်": 6172,
      "ku": 6173,
      "cu": 6174,
      "ၩ့": 6175,
      "ၼႆ": 6176,
      "ri": 6177,
      "ကြ": 6178,
      "မွဲ": 6179,
      "အာ": 6180,
      "lo": 6181,
      "ုင်": 6182,
      "ကၠ": 6183,
      "ော်": 6184,
      "လိ": 6185,
      "ꤢꤩ꤬": 6186,
      "bi": 6187,
      "ay": 6188,
      "ီၪ": 6189,
      "க்க": 6190,
      "ရေ": 6191,
      "ွင်": 6192,
      "ဝ်း": 6193,
      "to": 6194,
      "້າ": 6195,
      "ႃး": 6196,
      "and": 6197,
      "ဂး": 6198,
      "bu": 6199,
      "ောန်": 6200,
      "ꤢꤧ": 6201,
      "yang": 6202,
      "မိူ": 6203,
      "อง": 6204,
      "သ္": 6205,
      "ာံ": 6206,
      "ၵူ": 6207,
      "ပါ": 6208,
      "man": 6209,
      "ကေ": 6210,
      "လု": 6211,
      "ၢႆ": 6212,
      "လီၤ": 6213,
      "lu": 6214,
      "ding": 6215,
      "de": 6216,
      "ும்": 6217,
      "ဆၧ": 6218,
      "မိ": 6219,
      "ag": 6220,
      "re": 6221,
      "ဲ့": 6222,
      "ဂွံ": 6223,
      "မၠ": 6224,
      "ႃႇ": 6225,
      "்கள": 6226,
      "ချ": 6227,
      "nga": 6228,
      "တီႈ": 6229,
      "ဒီး": 6230,
      "ကို": 6231,
      "တ်း": 6232,
      "ဝဲ": 6233,
      "တွ": 6234,
      "ဝ်ႈ": 6235,
      "ိုၚ်": 6236,
      "ပွ": 6237,
      "ဟွံ": 6238,
      "ဝွံ": 6239,
      "ကု": 6240,
      "တိ": 6241,
      "pun": 6242,
      "ອງ": 6243,
      "ၢၼ်": 6244,
      "့ၢ်": 6245,
      "ꤢ꤬": 6246,
      "ရာ": 6247,
      "ꤣꤧ꤬": 6248,
      "န့ၣ်": 6249,
      "လူ": 6250,
      "ီၤ": 6251,
      "hna": 6252,
      "த்த": 6253,
      "ပို": 6254,
      "mang": 6255,
      "ၪ့": 6256,
      "of": 6257,
      "မှ": 6258,
      "ပေ": 6259,
      "้า": 6260,
      "တေ": 6261,
      "လေ": 6262,
      "မၞ": 6263,
      "စ်": 6264,
      "ုံ": 6265,
      "ညး": 6266,
      "ப்": 6267,
      "ၢင်": 6268,
      "ီၣ်": 6269,
      "hte": 6270,
      "el": 6271,
      "့ၫ": 6272,
      "du": 6273,
      "pag": 6274,
      "ည်": 6275,
      "ၼ်ႉ": 6276,
      "wa": 6277,
      "it": 6278,
      "သၟ": 6279,
      "ல்": 6280,
      "hpe": 6281,
      "ႂ်": 6282,
      "nh": 6283,
      "ระ": 6284,
      "he": 6285,
      "lah": 6286,
      "သေ": 6287,
      "သွ": 6288,
      "တို": 6289,
      "us": 6290,
      "ုၚ်": 6291,
      "အခ": 6292,
      "ၵ်း": 6293,
      "ာဲ": 6294,
      "ၫ့": 6295,
      "မိူင်း": 6296,
      "ိၣ်": 6297,
      "gaw": 6298,
      "ைய": 6299,
      "ၵေ": 6300,
      "မ္ဂး": 6301,
      "က္": 6302,
      "ဝႃႈ": 6303,
      "il": 6304,
      "ja": 6305,
      "ဝ့ၫ": 6306,
      "့်": 6307,
      "के": 6308,
      "ရှ": 6309,
      "ၵူၼ်း": 6310,
      "ႄႈ": 6311,
      "ci": 6312,
      "ဘၣ်": 6313,
      "ဂမၠ": 6314,
      "be": 6315,
      "ံင်": 6316,
      "ဘာ": 6317,
      "angin": 6318,
      "ari": 6319,
      "မဳ": 6320,
      "တူ": 6321,
      "ႆး": 6322,
      "ut": 6323,
      "ၼႆႉ": 6324,
      "ົ້າ": 6325,
      "ႆႈ": 6326,
      "่า": 6327,
      "gi": 6328,
      "ரு": 6329,
      "dan": 6330,
      "တအ်": 6331,
      "ကွ": 6332,
      "မု": 6333,
      "और": 6334,
      "လဝ်": 6335,
      "ັນ": 6336,
      "ဒး": 6337,
      "nak": 6338,
      "ၵ်ႈ": 6339,
      "ிய": 6340,
      "ने": 6341,
      "ப்ப": 6342,
      "အိုတ်": 6343,
      "mah": 6344,
      "்ட": 6345,
      "သု": 6346,
      "နီၪ": 6347,
      "နူ": 6348,
      "သၞ": 6349,
      "ႁူ": 6350,
      "ိုက်": 6351,
      "ပှ": 6352,
      "ံၚ်": 6353,
      "ခမဳ": 6354,
      "သာ": 6355,
      "rai": 6356,
      "sin": 6357,
      "ဵၼ်": 6358,
      "မျ": 6359,
      "ကာ": 6360,
      "တၭ": 6361,
      "ောံ": 6362,
      "່າ": 6363,
      "ဍုင်": 6364,
      "ꤢꤨ": 6365,
      "ယူ": 6366,
      "ဲၤ": 6367,
      "as": 6368,
      "ຂອງ": 6369,
      "ဂၠ": 6370,
      "တ္": 6371,
      "nih": 6372,
      "ph": 6373,
      "ru": 6374,
      "mat": 6375,
      "သို": 6376,
      "พระ": 6377,
      "ံၤ": 6378,
      "sha": 6379,
      "ແລ": 6380,
      "mga": 6381,
      "ເຈ": 6382,
      "သူ": 6383,
      "ere": 6384,
      "သိ": 6385,
      "ua": 6386,
      "ကျာ်": 6387,
      "ႃႉ": 6388,
      "မန်": 6389,
      "manga": 6390,
      "nan": 6391,
      "່ງ": 6392,
      "yu": 6393,
      "ကေု": 6394,
      "ကေုာံ": 6395,
      "ပှၤ": 6396,
      "mag": 6397,
      "pat": 6398,
      "မ်ႇ": 6399,
      "ເຈົ້າ": 6400,
      "ၢင်း": 6401,
      "ဂက": 6402,
      "lai": 6403,
      "ber": 6404,
      "ko": 6405,
      "pu": 6406,
      "ဖိ": 6407,
      "awl": 6408,
      "တယ်": 6409,
      "ring": 6410,
      "ர்கள": 6411,
      "ົາ": 6412,
      "မူ": 6413,
      "Is": 6414,
      "ၥံ": 6415,
      "လႆႈ": 6416,
      "ပူ": 6417,
      "တဖ": 6418,
      "tan": 6419,
      "lang": 6420,
      "men": 6421,
      "နာ": 6422,
      "is": 6423,
      "နွံ": 6424,
      "ယွ": 6425,
      "တာ": 6426,
      "ந்த": 6427,
      "ne": 6428,
      "ဒေ": 6429,
      "nu": 6430,
      "ပဵၼ်": 6431,
      "om": 6432,
      "ter": 6433,
      "ດ້": 6434,
      "ရဴ": 6435,
      "ों": 6436,
      "lam": 6437,
      "ညာ": 6438,
      "ောင်": 6439,
      "ວກ": 6440,
      "tr": 6441,
      "taw": 6442,
      "ံး": 6443,
      "ကီု": 6444,
      "တဖၣ်": 6445,
      "pan": 6446,
      "ີ່": 6447,
      "ိုင်ႈ": 6448,
      "मे": 6449,
      "့ၤ": 6450,
      "pang": 6451,
      "kha": 6452,
      "ພວກ": 6453,
      "လီၫ": 6454,
      "မႃး": 6455,
      "ၼၼ်ႉ": 6456,
      "asa": 6457,
      "kaw": 6458,
      "ဖြ": 6459,
      "ႂ်း": 6460,
      ".”": 6461,
      "dai": 6462,
      "anak": 6463,
      "ေံ": 6464,
      "အဲ": 6465,
      "ီၢ်": 6466,
      "es": 6467,
      "ၼႂ်း": 6468,
      "တြ": 6469,
      "ဂမၠိုၚ်": 6470,
      "င်ႇ": 6471,
      "្រ": 6472,
      "ဒဲ": 6473,
      "awi": 6474,
      "से": 6475,
      "ဇၞ": 6476,
      "ของ": 6477,
      "တွေ": 6478,
      "မီး": 6479,
      "ၥံၪ": 6480,
      "ူး": 6481,
      "ဘဲ": 6482,
      "ிற": 6483,
      "அவ": 6484,
      "ိၚ်": 6485,
      "လေဝ်": 6486,
      "ၵ်ႇ": 6487,
      "ban": 6488,
      "ိဟ်": 6489,
      "แล": 6490,
      "ທີ່": 6491,
      "လိက်": 6492,
      "နေ": 6493,
      "ແລະ": 6494,
      "ời": 6495,
      "ဵင်း": 6496,
      "ဝ်ႉ": 6497,
      "ၢၼ်ႈ": 6498,
      "20": 6499,
      "san": 6500,
      "ေး": 6501,
      "ຣະ": 6502,
      "တ်ႈ": 6503,
      "မၤ": 6504,
      "ဢၼ်": 6505,
      "ရေင်": 6506,
      "ພຣະ": 6507,
      "รา": 6508,
      "ca": 6509,
      "ika": 6510,
      "ha": 6511,
      "ໄດ້": 6512,
      "या": 6513,
      "ாக": 6514,
      "law": 6515,
      "ี่": 6516,
      "တံ": 6517,
      "လ္": 6518,
      "တဴ": 6519,
      "nang": 6520,
      "ွင်ႈ": 6521,
      "कर": 6522,
      "kay": 6523,
      "ကောန်": 6524,
      "เจ": 6525,
      "து": 6526,
      "ရော": 6527,
      "ara": 6528,
      "ve": 6529,
      "မ်ႈ": 6530,
      "မြ": 6531,
      "ုပ်": 6532,
      "ိုဟ်": 6533,
      "မာ": 6534,
      "ဒု": 6535,
      "စာ": 6536,
      "ဇၞော်": 6537,
      "ngai": 6538,
      "စီၤ": 6539,
      "င့်": 6540,
      "mung": 6541,
      "je": 6542,
      "ဗွဲ": 6543,
      "နှ": 6544,
      "သး": 6545,
      "အဂ": 6546,
      "ံၭ": 6547,
      "sane": 6548,
      "เจ้า": 6549,
      "အဝဲ": 6550,
      "do": 6551,
      "ட்ட": 6552,
      "nna": 6553,
      "hk": 6554,
      "တၢင်း": 6555,
      "per": 6556,
      "န့ၣ်လီၤ": 6557,
      "ဢမ်ႇ": 6558,
      "ဖျ": 6559,
      "လုပ်": 6560,
      "ina": 6561,
      "An": 6562,
      "မ်ႉ": 6563,
      "bang": 6564,
      "ပွမ": 6565,
      "ၵၼ်": 6566,
      "ုတ်": 6567,
      "້ນ": 6568,
      "ge": 6569,
      "Isra": 6570,
      "ົນ": 6571,
      "မၞိဟ်": 6572,
      "ꤥ꤬": 6573,
      "pawl": 6574,
      "का": 6575,
      "လွ": 6576,
      "है": 6577,
      "ထီၣ်": 6578,
      "န္": 6579,
      "လၧအ": 6580,
      "ိုပ်": 6581,
      "mar": 6582,
      "ၼ်ႈ": 6583,
      "တၠ": 6584,
      "ul": 6585,
      "င်ႈ": 6586,
      "ꤢꤧ꤭": 6587,
      "kah": 6588,
      "ဒ်": 6589,
      "ye": 6590,
      "ின்": 6591,
      ",”": 6592,
      "dah": 6593,
      "ၸိူ": 6594,
      "မၞုံ": 6595,
      "க்கு": 6596,
      "າຍ": 6597,
      "ဗြ": 6598,
      "တႆး": 6599,
      "ana": 6600,
      "ဟာ": 6601,
      "्र": 6602,
      "rang": 6603,
      "အီၪ": 6604,
      "lak": 6605,
      "အိၣ်": 6606,
      "cun": 6607,
      "ເຮ": 6608,
      "သွက်": 6609,
      "မ့ၢ်": 6610,
      "gal": 6611,
      "thu": 6612,
      "Ida": 6613,
      "တဲ့": 6614,
      "ဒၟ": 6615,
      "को": 6616,
      "id": 6617,
      "ที่": 6618,
      "ங்கள": 6619,
      "ပၠ": 6620,
      "ဝါ": 6621,
      "သိုၵ်း": 6622,
      "ဘၪ": 6623,
      "ၵႂ": 6624,
      "လႄႈ": 6625,
      "Sa": 6626,
      "ꤢꤧ꤬": 6627,
      "န်း": 6628,
      "ဟီု": 6629,
      "ၶႃႈ": 6630,
      "ுட": 6631,
      "em": 6632,
      "ັດ": 6633,
      "ႁဵ": 6634,
      "လို": 6635,
      "ယူႇ": 6636,
      "ပရေင်": 6637,
      "Di": 6638,
      "เข": 6639,
      "ဒါ": 6640,
      "็น": 6641,
      "khat": 6642,
      "ကေတ်": 6643,
      "และ": 6644,
      "ဝၼ်း": 6645,
      "என்": 6646,
      "yi": 6647,
      "ပ်း": 6648,
      "ர்": 6649,
      "ကိ": 6650,
      "နကဵု": 6651,
      "သည်": 6652,
      "ေတ်": 6653,
      "उस": 6654,
      "ၵေႃႈ": 6655,
      "ັບ": 6656,
      "ဝ်ႇ": 6657,
      "ꤢꤪ": 6658,
      "ho": 6659,
      "कि": 6660,
      "ค์": 6661,
      "sak": 6662,
      "เป": 6663,
      "မၩ": 6664,
      "itu": 6665,
      "வா": 6666,
      "ဝဵင်း": 6667,
      "pada": 6668,
      "no": 6669,
      "ၵေႃႉ": 6670,
      "tuk": 6671,
      "າມ": 6672,
      "awng": 6673,
      "ro": 6674,
      "ိုး": 6675,
      "မှာ": 6676,
      "ပျ": 6677,
      "္ဍ": 6678,
      "ານ": 6679,
      "่ง": 6680,
      "wi": 6681,
      "သ့ၣ်": 6682,
      "ngư": 6683,
      "ၢႆး": 6684,
      "လၢအ": 6685,
      "tur": 6686,
      "ent": 6687,
      "anu": 6688,
      "ၥၭ": 6689,
      "ram": 6690,
      "စိုတ်": 6691,
      "वा": 6692,
      "ဒ္": 6693,
      "ဝႃႈၼႆ": 6694,
      "ောင်း": 6695,
      "ိတ်": 6696,
      "ရှိ": 6697,
      "ောက်": 6698,
      "များ": 6699,
      "องค์": 6700,
      "့ၪ": 6701,
      "အလ": 6702,
      "ဗ္": 6703,
      "ဖြစ်": 6704,
      "ug": 6705,
      "ั้": 6706,
      "kani": 6707,
      "và": 6708,
      "ဟိုတ်": 6709,
      "ၵ်ႉ": 6710,
      "ိင်": 6711,
      "ၵႂႃႇ": 6712,
      "ts": 6713,
      "all": 6714,
      "ab": 6715,
      "akan": 6716,
      "हो": 6717,
      "ู้": 6718,
      "nag": 6719,
      "ับ": 6720,
      "လဲ": 6721,
      "Israel": 6722,
      "ည်း": 6723,
      ".-": 6724,
      "ံက်": 6725,
      "ၵၢၼ်": 6726,
      "पर": 6727,
      "Sang": 6728,
      "သၞာံ": 6729,
      "punika": 6730,
      "ရဴဝွံ": 6731,
      "ngan": 6732,
      "yo": 6733,
      "usa": 6734,
      "ဒိ": 6735,
      "เป็น": 6736,
      "ထၪ့": 6737,
      "ati": 6738,
      "ên": 6739,
      "ັງ": 6740,
      "keun": 6741,
      "ောဝ်": 6742,
      "တန်": 6743,
      "နိုင်": 6744,
      "ဂကူ": 6745,
      "ဳၤ": 6746,
      "ຈະ": 6747,
      "ေၚ်": 6748,
      "में": 6749,
      "ၽူ": 6750,
      "ဢွ": 6751,
      "ác": 6752,
      "ၱာ်": 6753,
      "ဇကု": 6754,
      "ໍ່": 6755,
      "tung": 6756,
      "की": 6757,
      "ce": 6758,
      "တၞ": 6759,
      "ເຂ": 6760,
      "kar": 6761,
      "ခြ": 6762,
      "ate": 6763,
      "ႆႉ": 6764,
      "လူင်": 6765,
      "anhte": 6766,
      "ပၢင်": 6767,
      "ၧၩ့": 6768,
      "may": 6769,
      "่อ": 6770,
      "သင်": 6771,
      "သ္ၚ": 6772,
      "shi": 6773,
      "ဒဳ": 6774,
      "ရိ": 6775,
      "bal": 6776,
      "ဘဲၫ": 6777,
      "ுடைய": 6778,
      "ື່": 6779,
      "ꤢ꤭": 6780,
      "သာ်": 6781,
      "ꤢꤦ": 6782,
      "ေါ": 6783,
      "ယဝ်ႉ": 6784,
      "្ន": 6785,
      "ၸိုင်ႈ": 6786,
      "ပိ": 6787,
      "for": 6788,
      "ள்": 6789,
      "awipa": 6790,
      "ல்ல": 6791,
      "ता": 6792,
      "အိုတ်ရ": 6793,
      "ர்கள்": 6794,
      "st": 6795,
      "အစ": 6796,
      "เขา": 6797,
      "bah": 6798,
      "ၽူႈ": 6799,
      "வி": 6800,
      "တၟ": 6801,
      "တဳ": 6802,
      "ꤞꤤ": 6803,
      "အီၤ": 6804,
      "ယွံ": 6805,
      "ဓိ": 6806,
      "hong": 6807,
      "न्": 6808,
      "sung": 6809,
      "that": 6810,
      "kau": 6811,
      "ပူၤ": 6812,
      "हा": 6813,
      "ông": 6814,
      "kamu": 6815,
      "จะ": 6816,
      "တော်": 6817,
      "ံၣ်": 6818,
      "ကွာန်": 6819,
      "ပတ်": 6820,
      "ရေး": 6821,
      "gan": 6822,
      "chi": 6823,
      "ເປ": 6824,
      "ູ້": 6825,
      "Pangin": 6826,
      "လိူ": 6827,
      "ꤔꤣꤧ꤬": 6828,
      "ผู้": 6829,
      "လၟ": 6830,
      "Ng": 6831,
      "Ti": 6832,
      "bo": 6833,
      "သီု": 6834,
      "sang": 6835,
      "Bawipa": 6836,
      "သံ": 6837,
      "dang": 6838,
      "ဒီ": 6839,
      "လာ": 6840,
      "ei": 6841,
      "ၸွ": 6842,
      "seh": 6843,
      "လွင်ႈ": 6844,
      "ဉ်": 6845,
      "ना": 6846,
      "pin": 6847,
      "าม": 6848,
      "နိ": 6849,
      "uk": 6850,
      "ອນ": 6851,
      "ႁဝ်း": 6852,
      "lung": 6853,
      "lan": 6854,
      "ຫລ": 6855,
      "ှ်ေ": 6856,
      "ꤣꤧ꤭": 6857,
      "ົງ": 6858,
      "ရ်": 6859,
      "yan": 6860,
      "ວ່າ": 6861,
      "Si": 6862,
      "जा": 6863,
      "tiang": 6864,
      "ုမ်း": 6865,
      "min": 6866,
      "သ္ပ": 6867,
      "At": 6868,
      "siya": 6869,
      "ႂ်ႈ": 6870,
      "Al": 6871,
      "Da": 6872,
      "าย": 6873,
      "၊၊": 6874,
      "ິດ": 6875,
      "aku": 6876,
      "ိုန်": 6877,
      "ဝႆႉ": 6878,
      "ဂမၠိုင်": 6879,
      "டு": 6880,
      "ir": 6881,
      "là": 6882,
      "နဲ": 6883,
      "ယွၤ": 6884,
      "ပညာ": 6885,
      "าก": 6886,
      "ဆို": 6887,
      "ala": 6888,
      "ဏ္ဍ": 6889,
      "ັ້ນ": 6890,
      "ၸႄႈ": 6891,
      "ဲး": 6892,
      "ண்ட": 6893,
      "ေင်": 6894,
      "စီ": 6895,
      "တႄ": 6896,
      "ເປັນ": 6897,
      "pah": 6898,
      "ႁဵတ်း": 6899,
      "တင်း": 6900,
      "orang": 6901,
      "ဏ်": 6902,
      "ເພ": 6903,
      "ด้": 6904,
      "ိၭ": 6905,
      "gu": 6906,
      "रा": 6907,
      "ில": 6908,
      "tiah": 6909,
      "ໃຫ": 6910,
      "ခံ": 6911,
      "ၟာ": 6912,
      "ဂကောံ": 6913,
      "ைக": 6914,
      "တ္ၚ": 6915,
      "ꤢꤨ꤭": 6916,
      "eh": 6917,
      "ပ်ႉ": 6918,
      "သဳ": 6919,
      "က္က": 6920,
      "ိက်": 6921,
      "ဗြဴ": 6922,
      "့ၩ": 6923,
      "ான்": 6924,
      "my": 6925,
      "And": 6926,
      "ัน": 6927,
      "ဍုၚ်": 6928,
      "အဖ": 6929,
      "mo": 6930,
      "Na": 6931,
      "ꤒꤣꤧ꤬": 6932,
      "ว่า": 6933,
      "ၼ်ႇ": 6934,
      "ဒၪ": 6935,
      "con": 6936,
      "စိုပ်": 6937,
      "so": 6938,
      "ereka": 6939,
      "လ္ၚ": 6940,
      "et": 6941,
      "ဝၢၼ်ႈ": 6942,
      "hta": 6943,
      "par": 6944,
      "သီ": 6945,
      "dak": 6946,
      "tak": 6947,
      "ngu": 6948,
      "Ma": 6949,
      "ือ": 6950,
      "ပြီး": 6951,
      "ညိ": 6952,
      "လး": 6953,
      "ပေါ": 6954,
      "ၸုမ်း": 6955,
      "तु": 6956,
      "Ch": 6957,
      "ပီ": 6958,
      "người": 6959,
      "apa": 6960,
      "ဖိၪ": 6961,
      "ီၩ": 6962,
      "hin": 6963,
      "ໃນ": 6964,
      "ama": 6965,
      "တ္ၚဲ": 6966,
      "တဲ": 6967,
      "ခွ": 6968,
      "िय": 6969,
      "ခဲ့": 6970,
      "ၸဝ်ႈ": 6971,
      "မိူဝ်ႈ": 6972,
      "လှ": 6973,
      "ເຮົາ": 6974,
      "ကဲ": 6975,
      "ꤢꤩ꤭": 6976,
      "sam": 6977,
      "ပရ": 6978,
      "ាន": 6979,
      "ते": 6980,
      "တ်ႇ": 6981,
      "kal": 6982,
      "ນັ້ນ": 6983,
      "ယု": 6984,
      "ႅင်း": 6985,
      "່ນ": 6986,
      "າເ": 6987,
      "မာန်": 6988,
      "ເຂົາ": 6989,
      "ဆက်": 6990,
      "ထီး": 6991,
      "ယၢ": 6992,
      "ၸိူဝ်း": 6993,
      "ny": 6994,
      "ႆႇ": 6995,
      "awn": 6996,
      "ထု": 6997,
      "kam": 6998,
      "தி": 6999,
      "လၢတ်ႈ": 7000,
      "ောတ်": 7001,
      "မၼ်း": 7002,
      "niya": 7003,
      "vi": 7004,
      "hian": 7005,
      "ꤘꤣ": 7006,
      "tuah": 7007,
      "ၜါ": 7008,
      "saw": 7009,
      "ထဲ": 7010,
      "று": 7011,
      "າກ": 7012,
      "ໃຫ້": 7013,
      "တိုန်": 7014,
      "တဲၤ": 7015,
      "po": 7016,
      "သၠ": 7017,
      "Pat": 7018,
      "hang": 7019,
      "လဵ": 7020,
      "tang": 7021,
      "စု": 7022,
      "atu": 7023,
      "awa": 7024,
      "Ka": 7025,
      "ေန်": 7026,
      "၂၀": 7027,
      "ủa": 7028,
      "လ်": 7029,
      "ဇြ": 7030,
      "ड़": 7031,
      "လျ": 7032,
      "ให": 7033,
      "ຜູ້": 7034,
      "ဂၤ": 7035,
      "mem": 7036,
      "တိတ်": 7037,
      "ji": 7038,
      "သွက်ဂွံ": 7039,
      "रे": 7040,
      "စ္": 7041,
      "leh": 7042,
      "ພວກເຂົາ": 7043,
      "วก": 7044,
      "ான": 7045,
      "້ອ": 7046,
      "Wi": 7047,
      "့ၬ": 7048,
      "ກໍ": 7049,
      "ၵူၼ်းမိူင်း": 7050,
      "khi": 7051,
      "ud": 7052,
      "Hyang": 7053,
      "của": 7054,
      "செ": 7055,
      "ဏအ်": 7056,
      "က္ခ": 7057,
      "ေဟ်": 7058,
      "ꤚꤣꤧ꤬": 7059,
      "าร": 7060,
      "ၺ်း": 7061,
      "Allah": 7062,
      "Pathian": 7063,
      "Pa": 7064,
      "வே": 7065,
      "ꤢꤦ꤬": 7066,
      "อย": 7067,
      "lem": 7068,
      "ຄົນ": 7069,
      "ယာ": 7070,
      "các": 7071,
      "သမ္": 7072,
      "အံၤ": 7073,
      "ံၫ": 7074,
      "အဝဲသ့ၣ်": 7075,
      "အဝ့ၫ": 7076,
      "ini": 7077,
      "cho": 7078,
      "เรา": 7079,
      "နာဲ": 7080,
      "ဂြ": 7081,
      "ရး": 7082,
      "လဖ": 7083,
      "ພຣະເຈົ້າ": 7084,
      "we": 7085,
      "ိုၼ်း": 7086,
      "ယိ": 7087,
      "सा": 7088,
      "າວ": 7089,
      "ꤔꤢꤧ": 7090,
      "tho": 7091,
      "esu": 7092,
      "သၟိၚ်": 7093,
      "မှု": 7094,
      "ဒၞ": 7095,
      "รง": 7096,
      "angah": 7097,
      "နဲ့": 7098,
      "aran": 7099,
      "hm": 7100,
      "တက": 7101,
      "พระองค์": 7102,
      "ôi": 7103,
      "kaniyang": 7104,
      "co": 7105,
      "ၸႂ်": 7106,
      "ဗွဲမ": 7107,
      "ໄປ": 7108,
      "အရာ": 7109,
      "ꤒꤢꤩ꤬": 7110,
      "ကစ": 7111,
      "လံ": 7112,
      "Cu": 7113,
      "thi": 7114,
      "ပြော": 7115,
      "19": 7116,
      "ுக்கு": 7117,
      "မၢၼ်ႈ": 7118,
      "masha": 7119,
      "ကတ": 7120,
      "ႁူမ်ႈ": 7121,
      "ไม": 7122,
      "ပၞ": 7123,
      "ၧၫ့": 7124,
      "ມາ": 7125,
      "ယဲ": 7126,
      "jaw": 7127,
      "ၜး": 7128,
      "ၢႆႇ": 7129,
      "lun": 7130,
      "ို့": 7131,
      "्य": 7132,
      "lal": 7133,
      "nya": 7134,
      "kei": 7135,
      "စရ": 7136,
      "ிரு": 7137,
      "गा": 7138,
      "ဘာသာ": 7139,
      "kang": 7140,
      "စၟ": 7141,
      "Th": 7142,
      "ใน": 7143,
      "ပၼ်": 7144,
      "ၶၢ": 7145,
      "စဲ": 7146,
      "တႄႉ": 7147,
      "ູ່": 7148,
      "္ဂ": 7149,
      "သြ": 7150,
      "ில்": 7151,
      "are": 7152,
      "yong": 7153,
      "ဆူ": 7154,
      "ဟိ": 7155,
      "ให้": 7156,
      "ser": 7157,
      "Widi": 7158,
      "ही": 7159,
      "လၩ့": 7160,
      "amah": 7161,
      "ອົງ": 7162,
      "ၶဝ်": 7163,
      "mereka": 7164,
      "pai": 7165,
      "ၼိုင်ႈ": 7166,
      "တင်": 7167,
      "ပိုဉ်": 7168,
      "ບໍ່": 7169,
      "ព្រ": 7170,
      "00": 7171,
      "တစ်": 7172,
      "ၶူ": 7173,
      "မေ": 7174,
      "ມີ": 7175,
      "ဥပ": 7176,
      "ad": 7177,
      "दे": 7178,
      "ုံး": 7179,
      "ၶဝ်ႈ": 7180,
      "คน": 7181,
      "Wasa": 7182,
      "The": 7183,
      "ையும்": 7184,
      "up": 7185,
      "ယီၩ": 7186,
      "ัง": 7187,
      "ၼမ်ႉ": 7188,
      "တ်ႉ": 7189,
      "ၥိၭ": 7190,
      "ဝၼ်းတီႈ": 7191,
      "ိၪ": 7192,
      "ုဟ်": 7193,
      "ဗီု": 7194,
      "ตร": 7195,
      "ahi": 7196,
      "ကဏ္ဍ": 7197,
      "ကၠုၚ်": 7198,
      "ꤖꤚ": 7199,
      "ဒၟံင်": 7200,
      "ꤥ꤭": 7201,
      "போ": 7202,
      "ได้": 7203,
      "ိန်": 7204,
      "ꤞꤤ꤭": 7205,
      "oh": 7206,
      "ထား": 7207,
      "ले": 7208,
      "มา": 7209,
      "ဍာ်": 7210,
      "ွင်ႇ": 7211,
      "ciangin": 7212,
      "ami": 7213,
      ")။": 7214,
      "अप": 7215,
      "ပါ်": 7216,
      "मा": 7217,
      "இரு": 7218,
      "ပၠန်": 7219,
      "ွၵ်ႈ": 7220,
      "่าน": 7221,
      "တႃႇ": 7222,
      "gin": 7223,
      "maw": 7224,
      "tin": 7225,
      "လဖၪ": 7226,
      "ပၢႆ": 7227,
      "ார": 7228,
      "his": 7229,
      "ၸႄႈဝဵင်း": 7230,
      "ui": 7231,
      "ထ္": 7232,
      "နု": 7233,
      "Ta": 7234,
      "ဦး": 7235,
      "kum": 7236,
      "ทรง": 7237,
      "ဇာ": 7238,
      "ข้า": 7239,
      "ၵၢင်": 7240,
      "ia": 7241,
      "Dai": 7242,
      "ၾၢႆႇ": 7243,
      "နဳၤ": 7244,
      "shall": 7245,
      "เห": 7246,
      "ကၠောန်": 7247,
      "Dane": 7248,
      "他们": 7249,
      "கோ": 7250,
      "ຢູ່": 7251,
      "?”": 7252,
      "မဒှ်": 7253,
      "ၸၢႆး": 7254,
      "pen": 7255,
      "khua": 7256,
      "ச்": 7257,
      "ài": 7258,
      "ีย": 7259,
      "ပိုဲ": 7260,
      "ညာတ်": 7261,
      "ṭh": 7262,
      "ဒၟံၚ်": 7263,
      "အာပတ်": 7264,
      "ီၩ့": 7265,
      "inn": 7266,
      "To": 7267,
      "ani": 7268,
      "ສະ": 7269,
      "ไม่": 7270,
      "ไป": 7271,
      "ဝ်ႊ": 7272,
      "naw": 7273,
      "ຂ້າ": 7274,
      "အတ": 7275,
      "jeung": 7276,
      "လက်": 7277,
      "ထိုင်": 7278,
      "dal": 7279,
      "ႁူဝ်": 7280,
      "khan": 7281,
      "ထႅ": 7282,
      "ဖဲ": 7283,
      "ပေး": 7284,
      "os": 7285,
      "ၸၢ": 7286,
      "พวก": 7287,
      "အဓိ": 7288,
      "ht": 7289,
      "က့ၤ": 7290,
      "ꤣ꤬": 7291,
      "ုရ": 7292,
      "ဝိ": 7293,
      "မၢ": 7294,
      "eng": 7295,
      "ဍေံ": 7296,
      "od": 7297,
      "အကြ": 7298,
      "သိး": 7299,
      "ဢဝ်": 7300,
      "ath": 7301,
      "pagka": 7302,
      "Tua": 7303,
      "செய": 7304,
      "ဘိ": 7305,
      "gen": 7306,
      "တၞဟ်": 7307,
      "ata": 7308,
      "ဂိ": 7309,
      "ၢင်ႈ": 7310,
      "urang": 7311,
      "eu": 7312,
      "த்து": 7313,
      "ထ္ၜး": 7314,
      "muah": 7315,
      "unto": 7316,
      "ພຣະອົງ": 7317,
      "စံး": 7318,
      "မုၢ်": 7319,
      "wu": 7320,
      "kin": 7321,
      "ந்து": 7322,
      "ស់": 7323,
      "hp": 7324,
      "Gi": 7325,
      "ပြည်": 7326,
      "ื่อ": 7327,
      "ကၠုင်": 7328,
      "ân": 7329,
      "လၢတၢ်": 7330,
      "ꤟꤢꤩ꤬": 7331,
      "sida": 7332,
      "தே": 7333,
      "သတ်": 7334,
      "sẽ": 7335,
      "ken": 7336,
      "ႁႂ်ႈ": 7337,
      "တဳလ": 7338,
      "ั้ง": 7339,
      "ນີ": 7340,
      "ယျ": 7341,
      "ဂျ": 7342,
      "oi": 7343,
      "ဂှ်ရ": 7344,
      "ິນ": 7345,
      "ဝင်": 7346,
      "ဂၩ": 7347,
      "ကၠာ": 7348,
      "him": 7349,
      "ပ်ႇ": 7350,
      "Hi": 7351,
      "နၥံၪ": 7352,
      "่น": 7353,
      "zong": 7354,
      "ဂၞ": 7355,
      "မဲ": 7356,
      "ver": 7357,
      "ாவ": 7358,
      "ກັບ": 7359,
      "ື່ອ": 7360,
      "ព្រះ": 7361,
      "ဒြ": 7362,
      "ั้น": 7363,
      "ကမၠ": 7364,
      "ဒေသ": 7365,
      "maka": 7366,
      "meng": 7367,
      "pek": 7368,
      "ယၤ": 7369,
      "အတၢ်": 7370,
      "ຄວ": 7371,
      "ောဲ": 7372,
      "ห์": 7373,
      "sina": 7374,
      "ကာလ": 7375,
      "úng": 7376,
      "Se": 7377,
      "tah": 7378,
      "ꤖꤚꤢꤩ꤬": 7379,
      "တဂၤ": 7380,
      "ton": 7381,
      "ơi": 7382,
      "र्": 7383,
      "ali": 7384,
      "ထိ": 7385,
      "້ອຍ": 7386,
      "စံၭ": 7387,
      "ின": 7388,
      "အၥၭ": 7389,
      "amu": 7390,
      "ည့်": 7391,
      "ၼင်ႇ": 7392,
      "ed": 7393,
      "matu": 7394,
      "kita": 7395,
      "para": 7396,
      "sing": 7397,
      "စေ": 7398,
      "kepada": 7399,
      "စၟတ်": 7400,
      "anh": 7401,
      "หน": 7402,
      "oon": 7403,
      "shanhte": 7404,
      "ங்கள்": 7405,
      "rak": 7406,
      "thei": 7407,
      "nen": 7408,
      "ပာ်": 7409,
      "ေက်": 7410,
      "ປະ": 7411,
      "၁၉": 7412,
      "மு": 7413,
      "ิน": 7414,
      "uun": 7415,
      "kun": 7416,
      "ເມ": 7417,
      "gam": 7418,
      "မံ": 7419,
      "eta": 7420,
      "ol": 7421,
      "ဟွံသေ": 7422,
      "ဒၣ်": 7423,
      "erusa": 7424,
      "တြဲ": 7425,
      "hari": 7426,
      "ပွင်": 7427,
      "दि": 7428,
      "ဢွၵ်ႇ": 7429,
      "cang": 7430,
      "chung": 7431,
      "yus": 7432,
      "သက်": 7433,
      "sai": 7434,
      "เพ": 7435,
      "စၞ": 7436,
      "நீ": 7437,
      "ရေဝ်": 7438,
      "ႁႅင်း": 7439,
      "qu": 7440,
      "ရေၚ်": 7441,
      "டி": 7442,
      "ကျာ်တြဲ": 7443,
      "မၞုံကဵု": 7444,
      "ုဲ": 7445,
      "ပေႃး": 7446,
      "ிர": 7447,
      "ជា": 7448,
      "ထူ": 7449,
      "teh": 7450,
      "အက": 7451,
      "တို့": 7452,
      "ော့": 7453,
      "ဒဒှ်": 7454,
      "க்கிற": 7455,
      "னுடைய": 7456,
      "ến": 7457,
      "जो": 7458,
      "ခြင်း": 7459,
      "ဏာ": 7460,
      "हे": 7461,
      "sim": 7462,
      "ꤒꤣꤧ꤬ꤟꤢꤩ꤬": 7463,
      "ယၢမ်း": 7464,
      "ນີ້": 7465,
      "tawh": 7466,
      "ິ່ງ": 7467,
      "ại": 7468,
      "ကၞ": 7469,
      "ꤤ꤬": 7470,
      "າດ": 7471,
      "ပိူ": 7472,
      "မ္မ": 7473,
      "bin": 7474,
      "ရာဇ": 7475,
      "erusalem": 7476,
      "ကလိ": 7477,
      "ၽွ": 7478,
      "တႅ": 7479,
      "ယၟ": 7480,
      "ຄວາມ": 7481,
      "ဂု": 7482,
      "tidak": 7483,
      "không": 7484,
      "คร": 7485,
      "စိ": 7486,
      "ள்ள": 7487,
      "ဒက်": 7488,
      "າງ": 7489,
      "ေႃႈ": 7490,
      "ကွံ": 7491,
      "tôi": 7492,
      "dat": 7493,
      "वह": 7494,
      "လို့": 7495,
      "ၸွမ်း": 7496,
      "အရ": 7497,
      "တရ": 7498,
      "ຈາກ": 7499,
      "လိၵ်ႈ": 7500,
      "你们": 7501,
      "ဆိ": 7502,
      "ႁဝ်းၶႃႈ": 7503,
      "ကြီး": 7504,
      "ழு": 7505,
      "ကစၢ်": 7506,
      "हु": 7507,
      "enten": 7508,
      "aha": 7509,
      "Nang": 7510,
      "ဵုဒှ်": 7511,
      "ພວກເຈົ້າ": 7512,
      "Topa": 7513,
      "eun": 7514,
      "ဂပ်": 7515,
      "ယဟိ": 7516,
      "fi": 7517,
      "ၵူၺ်း": 7518,
      "AN": 7519,
      "मै": 7520,
      "လၧဆၧ": 7521,
      "ႂ်ႇ": 7522,
      "ꤒꤣ꤬": 7523,
      "ิด": 7524,
      "கிற": 7525,
      "အၪ့": 7526,
      "sum": 7527,
      "tay": 7528,
      "ला": 7529,
      "Mi": 7530,
      "ပု": 7531,
      "င်ႉ": 7532,
      "aris": 7533,
      "स्": 7534,
      "tsun": 7535,
      "kap": 7536,
      "ท่าน": 7537,
      "peuh": 7538,
      "wah": 7539,
      "້ວ": 7540,
      "တွင်": 7541,
      "ခဲ": 7542,
      "ால்": 7543,
      "zi": 7544,
      "னை": 7545,
      "mite": 7546,
      "မတ်": 7547,
      "လဵဝ်": 7548,
      "าน": 7549,
      "เอ": 7550,
      "လည်း": 7551,
      "dingin": 7552,
      "ອກ": 7553,
      "ဗၠ": 7554,
      "Ngài": 7555,
      "aking": 7556,
      "tikah": 7557,
      "ற்": 7558,
      "):": 7559,
      "ilang": 7560,
      "អ្ន": 7561,
      "អ្នក": 7562,
      "ဒၞာဲ": 7563,
      "पा": 7564,
      "ကမၠောန်": 7565,
      "duh": 7566,
      "ရောၚ်": 7567,
      "úa": 7568,
      "ute": 7569,
      "उन": 7570,
      "လောန်": 7571,
      "Sh": 7572,
      "ပွဲ": 7573,
      "າເວ": 7574,
      "ten": 7575,
      "TU": 7576,
      "ran": 7577,
      "प्र": 7578,
      "အတွ": 7579,
      "ling": 7580,
      "ꤟꤢꤩ": 7581,
      "ဒေါ": 7582,
      "Panginuun": 7583,
      "Madu": 7584,
      "HAN": 7585,
      "मैं": 7586,
      "TUHAN": 7587,
      "ဍိုက်": 7588,
      "gay": 7589,
      "tun": 7590,
      "ပၞာန်": 7591,
      "with": 7592,
      "बा": 7593,
      "va": 7594,
      "myit": 7595,
      "rah": 7596,
      "was": 7597,
      "มี": 7598,
      "သၚ်": 7599,
      "यहो": 7600,
      "த்": 7601,
      "miwah": 7602,
      "เม": 7603,
      "ức": 7604,
      "ู่": 7605,
      "အီၣ်": 7606,
      "esus": 7607,
      "ເຊ": 7608,
      "ແຕ": 7609,
      "ယဝ်": 7610,
      "จาก": 7611,
      "ကွံာ်": 7612,
      "ၶိူ": 7613,
      "ကၱာ်": 7614,
      "្ដ": 7615,
      "ipun": 7616,
      "ရွ": 7617,
      "not": 7618,
      "Panginoon": 7619,
      "ượ": 7620,
      "ဝန်": 7621,
      "wat": 7622,
      "꤫ꤢꤦ꤬": 7623,
      "သော": 7624,
      "ประ": 7625,
      "manh": 7626,
      "ယၟု": 7627,
      "ங்க": 7628,
      "hnen": 7629,
      "แต": 7630,
      "အသး": 7631,
      "யெ": 7632,
      "ี้": 7633,
      "sian": 7634,
      "ဂပ်ဝ်": 7635,
      "ဂိတု": 7636,
      "ၵွ": 7637,
      "စ္စ": 7638,
      "đã": 7639,
      "put": 7640,
      "စား": 7641,
      "ướ": 7642,
      "ັກ": 7643,
      "သ္ဂး": 7644,
      "In": 7645,
      "री": 7646,
      "lei": 7647,
      "ရဲ့": 7648,
      "था": 7649,
      "ခီ": 7650,
      "和华": 7651,
      "耶和华": 7652,
      "ခု": 7653,
      "သား": 7654,
      "꤫ꤢꤩ꤬": 7655,
      "นั้น": 7656,
      "ဝၩ": 7657,
      "ham": 7658,
      "Pang": 7659,
      "คว": 7660,
      "သဘ": 7661,
      "awh": 7662,
      "ီၪ့": 7663,
      "ார்": 7664,
      "ting": 7665,
      "ဖၧၩ့": 7666,
      "caah": 7667,
      "them": 7668,
      "Aku": 7669,
      "အပူၤ": 7670,
      "ဂၠိုင်": 7671,
      "ူၣ်": 7672,
      "Ra": 7673,
      "လီု": 7674,
      "ပွတ်း": 7675,
      "ဗု": 7676,
      "ine": 7677,
      "ညံင်": 7678,
      "ဓရ်": 7679,
      "they": 7680,
      "त्र": 7681,
      "கொ": 7682,
      "Le": 7683,
      "กล": 7684,
      "ပဲ": 7685,
      "sun": 7686,
      "uan": 7687,
      "ၵျ": 7688,
      "ပြု": 7689,
      "အခိင်": 7690,
      "ைகள": 7691,
      "စပ်": 7692,
      "pahrang": 7693,
      "angpahrang": 7694,
      "इस": 7695,
      "ເອ": 7696,
      "နံ": 7697,
      "aneh": 7698,
      "Chúa": 7699,
      "jang": 7700,
      "ပၟ": 7701,
      "ຶ່ງ": 7702,
      "dane": 7703,
      "ชา": 7704,
      "ก็": 7705,
      "ຢາເວ": 7706,
      "ပန်": 7707,
      "ခွံ": 7708,
      "geus": 7709,
      "jah": 7710,
      "यहोवा": 7711,
      "za": 7712,
      "chúng": 7713,
      "iki": 7714,
      "lih": 7715,
      "RD": 7716,
      "Diyus": 7717,
      "ết": 7718,
      "LO": 7719,
      "inda": 7720,
      "đi": 7721,
      "ဘၣ်တၢ်": 7722,
      "ကလေ": 7723,
      "arai": 7724,
      "ချက်": 7725,
      "யெகோ": 7726,
      "ကော်": 7727,
      "ấy": 7728,
      "sar": 7729,
      "အခိၚ်": 7730,
      "အဃ": 7731,
      "mai": 7732,
      "buat": 7733,
      "una": 7734,
      "लिय": 7735,
      "ແລ້ວ": 7736,
      "ဟု": 7737,
      "လီၢ်": 7738,
      "န့": 7739,
      "go": 7740,
      "Mo": 7741,
      "ဘုရ": 7742,
      "ဘူး": 7743,
      "CH": 7744,
      "ation": 7745,
      "meton": 7746,
      "க்கும்": 7747,
      "ทำ": 7748,
      "လာန်": 7749,
      "้น": 7750,
      "lakar": 7751,
      "uda": 7752,
      "LORD": 7753,
      "ral": 7754,
      "ꤗꤢꤩ꤬": 7755,
      "ၸိုင်ႈတႆး": 7756,
      "Ab": 7757,
      "eran": 7758,
      "ယၫ": 7759,
      "ဂ့ၤ": 7760,
      "ၸိူဝ်းၼႆႉ": 7761,
      "ning": 7762,
      "ÚA": 7763,
      "CHÚA": 7764,
      "ꤢꤨ꤬": 7765,
      "sampun": 7766,
      "ဟဲ": 7767,
      "bia": 7768,
      "अपने": 7769,
      "တ့ၢ်": 7770,
      "iyong": 7771,
      "ရင်": 7772,
      "သၞာ": 7773,
      "ဒုင်": 7774,
      "ၧၩ": 7775,
      "တိုက်": 7776,
      "ꤛꤢꤩ꤬": 7777,
      "Kami": 7778,
      "၁၃": 7779,
      "dari": 7780,
      "လၢႆး": 7781,
      "kasa": 7782,
      "mes": 7783,
      "श्": 7784,
      "ึง": 7785,
      "ရန်": 7786,
      "18": 7787,
      "hen": 7788,
      "ႁိူ": 7789,
      "ரி": 7790,
      "kanda": 7791,
      "စီာ်": 7792,
      "ất": 7793,
      "யெகோவா": 7794,
      "တူဝ်": 7795,
      "ဗၟာ": 7796,
      "तुम": 7797,
      "တက့ၢ်": 7798,
      "ால": 7799,
      "န့ၢ်": 7800,
      "မနွံ": 7801,
      "Jo": 7802,
      "ິງ": 7803,
      "တအ်ဂှ်": 7804,
      "uru": 7805,
      ")၊": 7806,
      "பு": 7807,
      "kota": 7808,
      "့ၭ": 7809,
      "ထံ": 7810,
      "ၶိုၼ်း": 7811,
      "ார்கள்": 7812,
      "kata": 7813,
      "puniki": 7814,
      "စဲာ်": 7815,
      "စွံ": 7816,
      "ทั้ง": 7817,
      "ပြင်": 7818,
      "dia": 7819,
      "လႅ": 7820,
      "pakhat": 7821,
      "SS": 7822,
      "ကဲၤ": 7823,
      "by": 7824,
      "ွန်": 7825,
      "ึ่ง": 7826,
      "Ba": 7827,
      "ແຕ່": 7828,
      "ရုပ်": 7829,
      "kat": 7830,
      "trong": 7831,
      "tungah": 7832,
      "khem": 7833,
      "Cun": 7834,
      "နံၤ": 7835,
      "မည်": 7836,
      "hu": 7837,
      "awm": 7838,
      "ခိၣ်": 7839,
      "yen": 7840,
      "ကီၢ်": 7841,
      "ယဟိဝၩ": 7842,
      "cung": 7843,
      "ທັງ": 7844,
      "ပ္ဍဲကဵု": 7845,
      "ới": 7846,
      "က္ဍ": 7847,
      "သ္ၚိ": 7848,
      "ผู้เป็น": 7849,
      "ົດ": 7850,
      "ဳး": 7851,
      "န္တ": 7852,
      "พวกเขา": 7853,
      "ထီ": 7854,
      "တေႃႇ": 7855,
      "ခွံၬ": 7856,
      "បាន": 7857,
      "semeton": 7858,
      "ရာဇ်": 7859,
      "ပိုန်": 7860,
      "दा": 7861,
      "အရေဝ်": 7862,
      "လုၢ်": 7863,
      "சு": 7864,
      "ความ": 7865,
      "ົ່ງ": 7866,
      "anan": 7867,
      "ột": 7868,
      "niku": 7869,
      "ယို": 7870,
      "tem": 7871,
      "ကောံ": 7872,
      "ោះ": 7873,
      "sih": 7874,
      "เล": 7875,
      "ဒုၚ်": 7876,
      "ဓဝ်": 7877,
      "Pangeran": 7878,
      "hnak": 7879,
      "har": 7880,
      "dam": 7881,
      "ாய": 7882,
      "்கு": 7883,
      "சொ": 7884,
      "ການ": 7885,
      "ယွံခမဳ": 7886,
      "ဂရ": 7887,
      "hiam": 7888,
      "ັ່ງ": 7889,
      "້ອງ": 7890,
      "dengan": 7891,
      "သွား": 7892,
      "ัก": 7893,
      "ၼႃႈ": 7894,
      "ses": 7895,
      "ချူ": 7896,
      "ကၟ": 7897,
      "ညံၚ်": 7898,
      "ကလ": 7899,
      "ako": 7900,
      "ၢၤ": 7901,
      "ဟိုတ်နူ": 7902,
      "ကၠေံ": 7903,
      "ဘုရား": 7904,
      "rin": 7905,
      "भी": 7906,
      "แต่": 7907,
      "မံၤ": 7908,
      "ဒိၣ်": 7909,
      "raris": 7910,
      "လူင်ပွင်": 7911,
      "jadi": 7912,
      "tam": 7913,
      "awk": 7914,
      "tum": 7915,
      "ဂေတ်": 7916,
      "မျိုး": 7917,
      "lin": 7918,
      "ပႃႇ": 7919,
      "bar": 7920,
      "အိ": 7921,
      "ory": 7922,
      "ើយ": 7923,
      "နှစ်": 7924,
      "hmuah": 7925,
      "Ulun": 7926,
      "tal": 7927,
      "အံ": 7928,
      "သမ်ႉ": 7929,
      "bangin": 7930,
      "กับ": 7931,
      "้ว": 7932,
      "ကျာ်ဇၞော်": 7933,
      "din": 7934,
      "່າງ": 7935,
      "Me": 7936,
      "वि": 7937,
      "าง": 7938,
      "ris": 7939,
      "ကလိဂွံ": 7940,
      "အကျ": 7941,
      "မုက်": 7942,
      "အဆၧ": 7943,
      "ဒးအာပတ်": 7944,
      "တွေကို": 7945,
      "တပ်ႉ": 7946,
      "hanggan": 7947,
      "one": 7948,
      "चा": 7949,
      "uli": 7950,
      "สิ": 7951,
      "mara": 7952,
      "လူင်ပွင်ၸိုင်ႈ": 7953,
      "tawu": 7954,
      "ခရ": 7955,
      "ເຮັດ": 7956,
      "ပ်ႈ": 7957,
      "รร": 7958,
      "ပွိုင်": 7959,
      "ꤟꤣꤧ": 7960,
      "biak": 7961,
      "ິ່ນ": 7962,
      "ꤠꤢꤧ꤭": 7963,
      "အဂီၢ်": 7964,
      "ju": 7965,
      "องค์พระ": 7966,
      "ững": 7967,
      "ாகிய": 7968,
      "ວຍ": 7969,
      "ກະ": 7970,
      "nó": 7971,
      "ယူႇတီႈ": 7972,
      "ႁိူၼ်း": 7973,
      "ày": 7974,
      "khempeuh": 7975,
      "န္ဒ": 7976,
      "như": 7977,
      "ဂၠိုၚ်": 7978,
      "ၼမ်": 7979,
      "nanhte": 7980,
      "vid": 7981,
      "ဆောင်": 7982,
      "bag": 7983,
      "ker": 7984,
      "hih": 7985,
      "ထႅင်ႈ": 7986,
      "วย": 7987,
      "ယေ": 7988,
      "pra": 7989,
      "bat": 7990,
      "ခိၪ": 7991,
      "อา": 7992,
      "ိုလ်": 7993,
      "đến": 7994,
      "वे": 7995,
      "ாம": 7996,
      "ผู้เป็นเจ้า": 7997,
      "องค์พระผู้เป็นเจ้า": 7998,
      "စဵု": 7999,
      "ဖို့": 8000,
      "sila": 8001,
      "ட்டு": 8002,
      "கள": 8003,
      "ນ້ອຍ": 8004,
      "ခိုဟ်": 8005,
      "ထဲၩ့": 8006,
      "ဗော်": 8007,
      "hkr": 8008,
      "တုပ်": 8009,
      "အ့ၬ": 8010,
      "mas": 8011,
      "ဟေၚ်": 8012,
      "လူၬ": 8013,
      "teu": 8014,
      "อยู่": 8015,
      "ap": 8016,
      "लिये": 8017,
      "အဝ့ၫၥံၪ": 8018,
      "வன": 8019,
      "ကိုပ်": 8020,
      "masa": 8021,
      "pay": 8022,
      "ิส": 8023,
      "တီႇ": 8024,
      "can": 8025,
      "kur": 8026,
      "Pasian": 8027,
      "Raja": 8028,
      "aya": 8029,
      "ene": 8030,
      "rig": 8031,
      "raja": 8032,
      "ာတ်": 8033,
      "เส": 8034,
      "ບັນ": 8035,
      "ဂတ": 8036,
      "họ": 8037,
      "သၟဝ်": 8038,
      "ước": 8039,
      "ငံ": 8040,
      "மே": 8041,
      "ထဝ်": 8042,
      "Israi": 8043,
      "อก": 8044,
      "အဂဲး": 8045,
      "பெ": 8046,
      "David": 8047,
      "ေဝ်": 8048,
      "အခေါ": 8049,
      "dih": 8050,
      "လၢႆ": 8051,
      "क्": 8052,
      "လိုက်": 8053,
      "မၞုံပိုဉ်": 8054,
      "thil": 8055,
      "ပရူ": 8056,
      "ເລ": 8057,
      "jal": 8058,
      "ꤜꤢꤪ": 8059,
      "तब": 8060,
      "ដែ": 8061,
      "မွ": 8062,
      "နိုင်ငံ": 8063,
      "ယွံခမဳတအ်": 8064,
      "ပၤ": 8065,
      "ထႆး": 8066,
      "Tr": 8067,
      "တော့": 8068,
      "ູກ": 8069,
      "Yesus": 8070,
      "luh": 8071,
      "ခေတ်": 8072,
      "ược": 8073,
      "ကျမ်း": 8074,
      "तो": 8075,
      "ង្": 8076,
      "သဵ": 8077,
      "ကျာ": 8078,
      "ဝၤ": 8079,
      "ဢွၼ်": 8080,
      "sia": 8081,
      "ld": 8082,
      "10": 8083,
      "ပြာ": 8084,
      "ိူဝ်": 8085,
      "ပွၵ်ႈ": 8086,
      "လၤ": 8087,
      "Pag": 8088,
      "ều": 8089,
      "nei": 8090,
      "untuk": 8091,
      "ahih": 8092,
      "but": 8093,
      "သမ္တီ": 8094,
      "ႁူင်း": 8095,
      "ဗၞ": 8096,
      "bangsa": 8097,
      "op": 8098,
      "အဃိ": 8099,
      "ညါ": 8100,
      "fapa": 8101,
      "siangpahrang": 8102,
      "ဘျ": 8103,
      "ဒ္ဓ": 8104,
      "နူကဵု": 8105,
      "တိုၵ်း": 8106,
      "hand": 8107,
      "ရူ": 8108,
      "được": 8109,
      "Kas": 8110,
      "္စာ": 8111,
      "amyu": 8112,
      "ဂဲ": 8113,
      "hindi": 8114,
      "ဝ့ၢ်": 8115,
      "teng": 8116,
      "သၞောတ်": 8117,
      "ဘဲာ်": 8118,
      "một": 8119,
      "အဖၧၩ့": 8120,
      "ល់": 8121,
      "ဟွံသေင်": 8122,
      "dahil": 8123,
      "ယက": 8124,
      "ညးမ": 8125,
      "ဂလာန်": 8126,
      "ၡၩ": 8127,
      "!”": 8128,
      "ဗဒှ်": 8129,
      "ဒတဴ": 8130,
      "sal": 8131,
      "Be": 8132,
      "làm": 8133,
      "ခွါ": 8134,
      "စရ့": 8135,
      "ខ្": 8136,
      "ꤗꤢ꤬": 8137,
      "ခင်": 8138,
      "ၵု": 8139,
      "တေံ": 8140,
      "้อง": 8141,
      "ၸဵ": 8142,
      "sungah": 8143,
      "အဓိက": 8144,
      "အ္စာ": 8145,
      "नी": 8146,
      "အတွက်": 8147,
      "ဏံ": 8148,
      "ပလ": 8149,
      "kanyu": 8150,
      "าห์": 8151,
      "ဂ့ၩ": 8152,
      "यह": 8153,
      "eri": 8154,
      "வர": 8155,
      "ွင်ႉ": 8156,
      "với": 8157,
      "nam": 8158,
      "လဂၩ": 8159,
      "wal": 8160,
      "bak": 8161,
      "ဟတ်": 8162,
      "van": 8163,
      "่าง": 8164,
      "တၟိ": 8165,
      "ကီုရ": 8166,
      "္ဌ": 8167,
      "galaw": 8168,
      "majaw": 8169,
      "हैं": 8170,
      "Ju": 8171,
      "shang": 8172,
      "whi": 8173,
      "kanilang": 8174,
      "ရပ်": 8175,
      "có": 8176,
      "titiang": 8177,
      "ကိုယ်": 8178,
      "ngươi": 8179,
      "ຂ້ານ້ອຍ": 8180,
      "ther": 8181,
      "kami": 8182,
      "21": 8183,
      "ၺ်": 8184,
      "वर": 8185,
      "ၶိူဝ်း": 8186,
      "ၢင်ႇ": 8187,
      "ꤢ꤬ꤋ": 8188,
      "ंग": 8189,
      "ောအ်": 8190,
      "ອາ": 8191,
      "ဟ့ၣ်": 8192,
      "mon": 8193,
      "ꤡꤢꤪ": 8194,
      "theih": 8195,
      "ဂၠး": 8196,
      "ເພິ່ນ": 8197,
      "အား": 8198,
      "அத": 8199,
      "ဆှ": 8200,
      "unman": 8201,
      "kanmu": 8202,
      "ình": 8203,
      "ကြောင်း": 8204,
      "ຊາ": 8205,
      "အၥိၭ": 8206,
      "sat": 8207,
      "လိူၼ်": 8208,
      "တ္တ": 8209,
      "ိၼ်": 8210,
      "ကစၢ်ယွၤ": 8211,
      "jan": 8212,
      "jeun": 8213,
      "မဟ": 8214,
      "စိတ်": 8215,
      "နီး": 8216,
      "wil": 8217,
      "thum": 8218,
      "ាំ": 8219,
      "မိက်": 8220,
      "ဂုဏ်": 8221,
      "ၶႅ": 8222,
      "လတူ": 8223,
      "ngal": 8224,
      "anake": 8225,
      "ss": 8226,
      "လ္ၚတ်": 8227,
      "hkam": 8228,
      "Ku": 8229,
      "Myan": 8230,
      "Karai": 8231,
      "နှင့်": 8232,
      "ထွ": 8233,
      "Đức": 8234,
      "Myanmar": 8235,
      "க்": 8236,
      "ूं": 8237,
      "ထောင်": 8238,
      "aman": 8239,
      "แล้ว": 8240,
      "လပါ်": 8241,
      "ညီ": 8242,
      "Kasang": 8243,
      "use": 8244,
      "တၢႆ": 8245,
      "ကတဵုဒှ်": 8246,
      "ကော": 8247,
      "นี้": 8248,
      "လုၵ်ႈ": 8249,
      "နၤ": 8250,
      "sem": 8251,
      "hnenah": 8252,
      "ຸກ": 8253,
      "ອບ": 8254,
      "ယႃ": 8255,
      "ிலே": 8256,
      "reng": 8257,
      "ိတ်ႉ": 8258,
      "ကံ": 8259,
      "ống": 8260,
      "င့်": 8261,
      "ரா": 8262,
      "leng": 8263,
      "ꤊꤣꤧ꤬": 8264,
      "ဂါ": 8265,
      "ဝဳ": 8266,
      "ລາວ": 8267,
      "ကြဴ": 8268,
      "sir": 8269,
      "လၢာ်": 8270,
      "ပါတယ်": 8271,
      "những": 8272,
      "မယ်": 8273,
      "zo": 8274,
      "என்று": 8275,
      "ဒါန်": 8276,
      "मु": 8277,
      "အတိုင်": 8278,
      "ண்டு": 8279,
      "ahan": 8280,
      "မံၚ်": 8281,
      "ဎွ": 8282,
      "မို": 8283,
      "ဋ္ဌ": 8284,
      "nye": 8285,
      "ைக்": 8286,
      "ောင့်": 8287,
      "daw": 8288,
      "หล": 8289,
      "ကအ်": 8290,
      "ဆံၭ": 8291,
      "ဟွံမွဲ": 8292,
      "အင်": 8293,
      "cam": 8294,
      "fr": 8295,
      "လါ": 8296,
      "ၶွ": 8297,
      "ລູກ": 8298,
      "တံဂှ်": 8299,
      "သ္ဂ": 8300,
      "သ်": 8301,
      "king": 8302,
      "အသိး": 8303,
      "ၵႃႈ": 8304,
      "bai": 8305,
      "ကုခမဳ": 8306,
      "நான்": 8307,
      "အုပ်": 8308,
      "लो": 8309,
      "thy": 8310,
      "Ama": 8311,
      "ven": 8312,
      "စုတ်": 8313,
      "khal": 8314,
      "ิต": 8315,
      "လၢ်": 8316,
      "ပႃႇတီႇ": 8317,
      "ento": 8318,
      "son": 8319,
      "thou": 8320,
      "ဘဝ": 8321,
      "သၟဟ်": 8322,
      "ສັດ": 8323,
      "ၢၣ်": 8324,
      "அவர்கள": 8325,
      "ateg": 8326,
      "ဒီးတၢ်": 8327,
      "ပၢႆႈ": 8328,
      "hai": 8329,
      "ຈົ່ງ": 8330,
      "ႁၢ": 8331,
      "He": 8332,
      "အောင်": 8333,
      "vua": 8334,
      "ၢၢ်": 8335,
      "ꤟꤢꤨ": 8336,
      "tion": 8337,
      "sen": 8338,
      "ဂီၢ်": 8339,
      "पु": 8340,
      "्यों": 8341,
      "nngai": 8342,
      "ôn": 8343,
      "ၼႄ": 8344,
      "mare": 8345,
      "ၥ့ၪ": 8346,
      "လဲၣ်": 8347,
      "ယွၩ": 8348,
      "ເວ": 8349,
      "alte": 8350,
      "လူင်း": 8351,
      "လွှ": 8352,
      "tat": 8353,
      "ຸດ": 8354,
      "ပ္ပ": 8355,
      "ကဝ်": 8356,
      "ေဒ": 8357,
      "kung": 8358,
      "ၶၢဝ်း": 8359,
      "การ": 8360,
      "အလဵု": 8361,
      "အ့ၪ": 8362,
      "नि": 8363,
      "ແມ": 8364,
      "ပႃး": 8365,
      "လၧၦ": 8366,
      "ດາ": 8367,
      "ṭhe": 8368,
      "gih": 8369,
      "Times": 8370,
      "Re": 8371,
      "လုံ": 8372,
      "ัส": 8373,
      "ប់": 8374,
      "ပြန်": 8375,
      "နယ်": 8376,
      "ၸတ်း": 8377,
      "သိုၵ်းမၢၼ်ႈ": 8378,
      "ဘဲၫယီၩ": 8379,
      "ၵဵ": 8380,
      "တဳလမၞုံပိုဉ်": 8381,
      "တွၼ်ႈ": 8382,
      "amaute": 8383,
      "ꤊ꤫ꤢꤦ꤬": 8384,
      "ဆု": 8385,
      "என்ற": 8386,
      "အဝ": 8387,
      "உன்": 8388,
      "ꤝꤢ": 8389,
      "ဥပမာ": 8390,
      "dapat": 8391,
      "တက်": 8392,
      "niyu": 8393,
      "day": 8394,
      "ပွိုင်ဍုင်": 8395,
      "ဆံ": 8396,
      "ယုက်": 8397,
      "त्": 8398,
      "Ke": 8399,
      "ົກ": 8400,
      "ற்ற": 8401,
      "panin": 8402,
      "ูก": 8403,
      "மாக": 8404,
      "chim": 8405,
      "စကာ": 8406,
      "atan": 8407,
      "kut": 8408,
      "அப்ப": 8409,
      "အသ": 8410,
      "which": 8411,
      "she": 8412,
      "்த்த": 8413,
      "꤫ꤢꤧ꤬": 8414,
      "ុំ": 8415,
      "ย์": 8416,
      "ဆဵု": 8417,
      "उसके": 8418,
      "រប": 8419,
      "pt": 8420,
      "อบ": 8421,
      "ord": 8422,
      "พระเจ้า": 8423,
      "baw": 8424,
      "ကိး": 8425,
      "ပ္တန်": 8426,
      "ໃດ": 8427,
      "ဗက်": 8428,
      "သ္ဒး": 8429,
      "antuk": 8430,
      "Kh": 8431,
      "nge": 8432,
      "ꤒꤥ꤬": 8433,
      "fa": 8434,
      "နာနာ": 8435,
      "ัว": 8436,
      "हीं": 8437,
      "ဝ့ၫဒၪ": 8438,
      "பி": 8439,
      "တင်ႈ": 8440,
      "သၟတ်": 8441,
      "လၭ": 8442,
      "Shi": 8443,
      "ရက်": 8444,
      "sur": 8445,
      "जि": 8446,
      "အန": 8447,
      "မပ": 8448,
      "kai": 8449,
      "မၱာ်": 8450,
      "တၢင်းပဵၼ်": 8451,
      "ियों": 8452,
      "indi": 8453,
      "ze": 8454,
      "မၢႆ": 8455,
      "chu": 8456,
      "ម្": 8457,
      "dun": 8458,
      "”.": 8459,
      "ກ່": 8460,
      "ၼၢင်း": 8461,
      "ဂကူမန်": 8462,
      "စက်": 8463,
      "အဆ": 8464,
      "ၺႃး": 8465,
      "Israe": 8466,
      "tim": 8467,
      "လၧယ": 8468,
      "ႆႇႁ": 8469,
      "Yo": 8470,
      "nyane": 8471,
      "ၵမ်း": 8472,
      "အစာ": 8473,
      "bur": 8474,
      "ုက်": 8475,
      "ly": 8476,
      "hpa": 8477,
      "Jerusalem": 8478,
      "ရီု": 8479,
      "စှ်": 8480,
      "ၵူၼ်းဝၢၼ်ႈ": 8481,
      "ति": 8482,
      "្នា": 8483,
      "รับ": 8484,
      "isang": 8485,
      "bih": 8486,
      "ဒ္ဂေတ်": 8487,
      "kiangah": 8488,
      "kong": 8489,
      "तू": 8490,
      "ahcun": 8491,
      "ải": 8492,
      "ကျွန်": 8493,
      "າະ": 8494,
      "ဗျ": 8495,
      "အမ": 8496,
      "ஒரு": 8497,
      "လၟုဟ်": 8498,
      "gum": 8499,
      "ရု": 8500,
      "pina": 8501,
      "ဆၣ်": 8502,
      "ຊາຍ": 8503,
      "ꤙꤢꤩ꤬": 8504,
      "ိုဝ်": 8505,
      "hkaw": 8506,
      "ငိုၼ်း": 8507,
      "ၵူႈ": 8508,
      "ဖန်": 8509,
      "အၫ": 8510,
      "ၜိုတ်": 8511,
      "kit": 8512,
      "Israil": 8513,
      "tua": 8514,
      "dar": 8515,
      "Dios": 8516,
      "sinabi": 8517,
      "ဆါ": 8518,
      "ꤛꤢꤩ꤬ꤞꤤ꤭": 8519,
      "แก": 8520,
      "ဏီ": 8521,
      "ာန": 8522,
      "நா": 8523,
      "ဍိက်": 8524,
      "လဲၤ": 8525,
      "द्": 8526,
      "ती": 8527,
      "ဆီ": 8528,
      "ယွၼ်ႉ": 8529,
      "there": 8530,
      "ခါ": 8531,
      "របស់": 8532,
      "၁၀": 8533,
      "ကူ": 8534,
      "from": 8535,
      "vialte": 8536,
      "ek": 8537,
      "အခါ": 8538,
      "သီႇ": 8539,
      "னி": 8540,
      "ຕໍ່": 8541,
      "saking": 8542,
      "တှ်ေ": 8543,
      "ành": 8544,
      "မည": 8545,
      "12": 8546,
      "कहा": 8547,
      "एक": 8548,
      "ໄວ": 8549,
      "inak": 8550,
      "ၸိူဝ်ႉ": 8551,
      "ហើយ": 8552,
      "่ว": 8553,
      "श्वर": 8554,
      "စှ်ေ": 8555,
      "နဲကဲ": 8556,
      "သႅ": 8557,
      "သ့": 8558,
      "ꤤ꤭": 8559,
      "sabi": 8560,
      "த்தில்": 8561,
      "Categ": 8562,
      "စွ": 8563,
      "မပ္": 8564,
      "သနာ": 8565,
      "ဓမ္မ": 8566,
      "kitu": 8567,
      "သက္က": 8568,
      "လိၼ်": 8569,
      "िर": 8570,
      "nida": 8571,
      "wan": 8572,
      "Je": 8573,
      "lawng": 8574,
      "တမ်": 8575,
      "မံၩ့": 8576,
      "ដែល": 8577,
      "tos": 8578,
      "Judah": 8579,
      "လၧန": 8580,
      "ယော": 8581,
      "angan": 8582,
      "hal": 8583,
      "ၽူႈတွ": 8584,
      "shal": 8585,
      "้อ": 8586,
      "ၶူဝ်ႊ": 8587,
      "ண்": 8588,
      "ꤛꤢꤧ꤭": 8589,
      "အထ": 8590,
      "nun": 8591,
      "let": 8592,
      "sali": 8593,
      "க்கொ": 8594,
      "ada": 8595,
      "လီၩ့": 8596,
      "မတ": 8597,
      "gun": 8598,
      "ពួ": 8599,
      "ံၪ့": 8600,
      "ពួក": 8601,
      "lahat": 8602,
      "မၢၵ်ႇ": 8603,
      "ဂ္ဂ": 8604,
      "सब": 8605,
      "Category": 8606,
      "ပိုၼ်ႉ": 8607,
      "Dia": 8608,
      "sawm": 8609,
      "ង្គ": 8610,
      "ီႈ": 8611,
      "ဒုၭ": 8612,
      "မ္ဂးဂှ်": 8613,
      "God": 8614,
      "တွဵု": 8615,
      "ႁဵၼ်း": 8616,
      "ၶို": 8617,
      "rim": 8618,
      "deui": 8619,
      "So": 8620,
      "ႆႇႁွၵ်ႈ": 8621,
      "ထီးအ": 8622,
      "செய்த": 8623,
      "ติ": 8624,
      "guh": 8625,
      "क्यों": 8626,
      "kadi": 8627,
      "nung": 8628,
      "sual": 8629,
      "ပၠၤ": 8630,
      "မူတ်း": 8631,
      "ရဳ": 8632,
      "àn": 8633,
      "ប្រ": 8634,
      "ၽွင်း": 8635,
      "เช": 8636,
      "ស្": 8637,
      "மக": 8638,
      "သၟိင်": 8639,
      "hpang": 8640,
      "ထာ်": 8641,
      "ဢိူ": 8642,
      "เร": 8643,
      "ဖအိုတ်": 8644,
      "တောန်": 8645,
      "មាន": 8646,
      "ṭha": 8647,
      "said": 8648,
      "ດ້ວຍ": 8649,
      "ဒုး": 8650,
      "ền": 8651,
      "Trời": 8652,
      "have": 8653,
      "ၽူႈတွႆႇႁွၵ်ႈ": 8654,
      "ထာ": 8655,
      "ຳລ": 8656,
      "atur": 8657,
      "လၢတ်ႈတီႈ": 8658,
      "ဝံ": 8659,
      "ဇိုင်": 8660,
      "their": 8661,
      "say": 8662,
      "မဲၤ": 8663,
      "ꤊꤣꤧ꤬ꤛꤢꤧ꤭": 8664,
      "พเจ้า": 8665,
      "အီၪက": 8666,
      "ွဲ့": 8667,
      "lh": 8668,
      "சி": 8669,
      "တဳလမၞုံပိုဉ်ကျာ်တြဲ": 8670,
      "ப்போ": 8671,
      "ãy": 8672,
      "ကတ်": 8673,
      "tanan": 8674,
      "ႁူႉ": 8675,
      "သာ်ဝွံ": 8676,
      "ၶမ်း": 8677,
      "dân": 8678,
      "្យ": 8679,
      "tus": 8680,
      "စၟတ်သမ္တီ": 8681,
      "ထေက်": 8682,
      "kawu": 8683,
      "ây": 8684,
      "Eli": 8685,
      "လ့ၩ": 8686,
      "bun": 8687,
      "ခွၫ": 8688,
      "ໄວ້": 8689,
      "เอล": 8690,
      "ပေၚ်": 8691,
      "ဋ်": 8692,
      "ပရာ": 8693,
      "mun": 8694,
      "ndai": 8695,
      "ၵဵင်း": 8696,
      "ၽၢ": 8697,
      "nimu": 8698,
      "ຕາມ": 8699,
      "လဵု": 8700,
      "နဳ": 8701,
      "່ວ": 8702,
      "langai": 8703,
      "တိူ": 8704,
      "diri": 8705,
      ",’": 8706,
      "เย": 8707,
      "ကဴ": 8708,
      "ယေန်": 8709,
      "ဗုဒ္ဓ": 8710,
      "வன்": 8711,
      "aa": 8712,
      "我们": 8713,
      "စာ်": 8714,
      "semu": 8715,
      "will": 8716,
      "လွှတ်": 8717,
      "chy": 8718,
      "cen": 8719,
      "လွဳ": 8720,
      "gid": 8721,
      "：“": 8722,
      "jaga": 8723,
      "ல்லா": 8724,
      "မဟာ": 8725,
      "သာသနာ": 8726,
      "ၵႃး": 8727,
      "சே": 8728,
      "ุก": 8729,
      "மா": 8730,
      "꤫ꤥ꤬": 8731,
      "pei": 8732,
      "khu": 8733,
      "ព្រះអ": 8734,
      "pr": 8735,
      "စီၤပၤ": 8736,
      "परमे": 8737,
      "។​": 8738,
      "တ္တိ": 8739,
      "परमेश्वर": 8740,
      "ເພາະ": 8741,
      "ข้าพเจ้า": 8742,
      "မရ": 8743,
      "ကျမ်းစာ": 8744,
      "ꤜꤢꤨ꤭": 8745,
      "ဟွံသေင်မ္ဂး": 8746,
      "ារ": 8747,
      "သန": 8748,
      "ito": 8749,
      "လဳ": 8750,
      "အဖိၪ": 8751,
      "ꤒꤣ꤬ꤖꤚꤢꤩ꤬": 8752,
      "ேன்": 8753,
      "bakal": 8754,
      "ကယဲ": 8755,
      "ဒီၣ်": 8756,
      "ake": 8757,
      "tanah": 8758,
      "จง": 8759,
      "नहीं": 8760,
      "hmuh": 8761,
      "ၸေ": 8762,
      "ราะ": 8763,
      "នៅ": 8764,
      "phun": 8765,
      "စူ": 8766,
      "sinah": 8767,
      "ຫລາຍ": 8768,
      "ပွဲၤ": 8769,
      "aki": 8770,
      "Jes": 8771,
      "nin": 8772,
      "ႁိုဝ်": 8773,
      "cih": 8774,
      "iba": 8775,
      "ໂລ": 8776,
      "teken": 8777,
      "လိူဝ်": 8778,
      "ချဲ": 8779,
      "ၽေး": 8780,
      "ero": 8781,
      "မာန်ရ": 8782,
      "dung": 8783,
      "တြုံ": 8784,
      "out": 8785,
      "ဒြပ်": 8786,
      "வெ": 8787,
      "த்தை": 8788,
      "ொழு": 8789,
      "ຮັບ": 8790,
      "နွံကဵု": 8791,
      "ၼု": 8792,
      "ကာယ": 8793,
      "ထတ်း": 8794,
      "မၞး": 8795,
      "ໃຈ": 8796,
      "ဝိတ်ႉ": 8797,
      "လၢတ်ႈဝႃႈ": 8798,
      "thee": 8799,
      "bung": 8800,
      "diman": 8801,
      "ပိုတ်": 8802,
      "Saul": 8803,
      "ꤢꤪ꤬": 8804,
      "wenten": 8805,
      "ဆ့": 8806,
      "တုမ်": 8807,
      "เพราะ": 8808,
      "ပိုၼ်": 8809,
      "ခဲလၢာ်": 8810,
      "ili": 8811,
      "ngar": 8812,
      "ကောင်း": 8813,
      "ၸွႆႈ": 8814,
      "Nh": 8815,
      "ပဒတဴ": 8816,
      "dua": 8817,
      "ຖື": 8818,
      "கு": 8819,
      "dum": 8820,
      "ben": 8821,
      "piak": 8822,
      "နီၪလီၫ": 8823,
      "ຈຶ່ງ": 8824,
      "Pra": 8825,
      "खा": 8826,
      "လော": 8827,
      "gang": 8828,
      "ဌာန်": 8829,
      "တဳလပိုဉ်": 8830,
      "ၵျွ": 8831,
      "ယ့ၣ်": 8832,
      "pak": 8833,
      "ဂဲၫ": 8834,
      "hun": 8835,
      "sami": 8836,
      "ຄື": 8837,
      "နီ": 8838,
      "ပ္ဍဲအခိၚ်": 8839,
      "ဝေ": 8840,
      "ot": 8841,
      "ດັ່ງ": 8842,
      "သုန်": 8843,
      "ဗ္ဗ": 8844,
      "မ္ၚ": 8845,
      "au": 8846,
      "yawng": 8847,
      "နး": 8848,
      "ເຢ": 8849,
      "နီၢ်": 8850,
      "ꤖꤢꤨ": 8851,
      "மக்க": 8852,
      "ສິ່ງ": 8853,
      "တုန်": 8854,
      "tai": 8855,
      "loin": 8856,
      "bali": 8857,
      "မိူင်းတႆး": 8858,
      "ဆၢ": 8859,
      "ப்பட்ட": 8860,
      "ဗေဒ": 8861,
      "सी": 8862,
      "ၢၼ်း": 8863,
      "ႄး": 8864,
      "ဗော": 8865,
      "အကြာ": 8866,
      "ົ່າ": 8867,
      "သၟာန်": 8868,
      "ꤚꤢꤧ꤬": 8869,
      "मि": 8870,
      "ាំង": 8871,
      "ဆုံး": 8872,
      "hampay": 8873,
      "Mag": 8874,
      "सु": 8875,
      "sel": 8876,
      "telah": 8877,
      "waya": 8878,
      "ဌာန": 8879,
      "ကြောင့်": 8880,
      "Man": 8881,
      "အချ": 8882,
      "້ງ": 8883,
      "ເພື່ອ": 8884,
      "hangin": 8885,
      "တႃႈ": 8886,
      "lon": 8887,
      "ុង": 8888,
      "தன்": 8889,
      "ဇ္": 8890,
      "ခၞ": 8891,
      "cả": 8892,
      "ၶူဝ်ႊဝိတ်ႉ": 8893,
      "ဢိူင်ႇ": 8894,
      "ရဲ": 8895,
      "ပိုဒ်": 8896,
      "Su": 8897,
      "ด้วย": 8898,
      "အဲဒီ": 8899,
      "ihan": 8900,
      "சொல்ல": 8901,
      "ကဳ": 8902,
      "ပါဲ": 8903,
      "ၶၢဝ်ႇ": 8904,
      "ອອກ": 8905,
      "upang": 8906,
      "tawn": 8907,
      "မပ္တံ": 8908,
      "တုၤ": 8909,
      "သူၣ်": 8910,
      "၀၀": 8911,
      "akin": 8912,
      "Pe": 8913,
      "Jesuh": 8914,
      "để": 8915,
      "கா": 8916,
      "ເຄ": 8917,
      "pas": 8918,
      "ဟွံဂွံ": 8919,
      "ယေန်သၞာ": 8920,
      "டிய": 8921,
      "ခြာ": 8922,
      "တိုင်း": 8923,
      "ႁႃ": 8924,
      "လုံး": 8925,
      "ືອນ": 8926,
      "ເທ": 8927,
      "ဢေႃႈ": 8928,
      "ွေ": 8929,
      "လိၤ": 8930,
      "taran": 8931,
      "15": 8932,
      "ပြဲ": 8933,
      "ဒပ်": 8934,
      "စဴ": 8935,
      "Ne": 8936,
      "ပႆႇ": 8937,
      "ພວກເຮົາ": 8938,
      "kala": 8939,
      "ซึ่ง": 8940,
      "ดา": 8941,
      "De": 8942,
      "ၶႄ": 8943,
      "ၽၢဝ်ႇ": 8944,
      "ren": 8945,
      "daripada": 8946,
      "செய்": 8947,
      "หม": 8948,
      "mam": 8949,
      "அவன்": 8950,
      "bas": 8951,
      "ဍုင်ကွာန်": 8952,
      "ꤗꤣꤧ꤬": 8953,
      "Mu": 8954,
      "ढ़": 8955,
      "အဂဲးဘဲၫယီၩ": 8956,
      "kaniya": 8957,
      "ꤡꤢꤪꤗꤣꤧ꤬": 8958,
      "ꤡꤢꤪꤗꤣꤧ꤬ꤚꤢꤧ꤬": 8959,
      "ທຸກ": 8960,
      "araw": 8961,
      "2020": 8962,
      "บุ": 8963,
      "fore": 8964,
      "ယူၭ": 8965,
      "အလုံ": 8966,
      "nasa": 8967,
      "Moses": 8968,
      "Am": 8969,
      "thin": 8970,
      "dingah": 8971,
      "ဟး": 8972,
      "သုင်": 8973,
      "ၼုမ်ႇ": 8974,
      "ဍာံ": 8975,
      "ဢူ": 8976,
      "သက္ကရာဇ်": 8977,
      "မူင်း": 8978,
      "အံာ်": 8979,
      "ဓါ": 8980,
      "ဘၣ်ဆၣ်": 8981,
      "aga": 8982,
      "ဂှ်တုဲ": 8983,
      "က္ဍိုပ်": 8984,
      "ꤕꤢꤩ꤬": 8985,
      "படி": 8986,
      "buh": 8987,
      "lại": 8988,
      "क्योंकि": 8989,
      "hmai": 8990,
      "ihsin": 8991,
      "ထောံ": 8992,
      "ria": 8993,
      "ាល់": 8994,
      "ொழுது": 8995,
      "bab": 8996,
      "ပိုၼ်ၽၢဝ်ႇ": 8997,
      "dom": 8998,
      "tawm": 8999,
      "ဂီၢ်မုၢ်": 9000,
      "were": 9001,
      "ລະ": 9002,
      "ùng": 9003,
      "chị": 9004,
      "စောဲ": 9005,
      "ၚ်ပ": 9006,
      "່າວ": 9007,
      "அவர்கள்": 9008,
      "உங்கள": 9009,
      "ពី": 9010,
      "hkrum": 9011,
      "sapuniki": 9012,
      "hmun": 9013,
      "ແດ": 9014,
      "ဒ္ဒ": 9015,
      "puan": 9016,
      "ၸိူင်ႉ": 9017,
      "ánh": 9018,
      "ဂေါ": 9019,
      "ၽူႈတွႆႇႁွၵ်ႈဝႃႈ": 9020,
      "ஸ்": 9021,
      "တၞဟ်န": 9022,
      "ថា": 9023,
      "ဘယ်": 9024,
      "ထႅမ်": 9025,
      "ႁွင်ႇ": 9026,
      "Amah": 9027,
      "dian": 9028,
      "ayang": 9029,
      "သြန်": 9030,
      "tar": 9031,
      "Yerusalem": 9032,
      "မိူၼ်": 9033,
      "dika": 9034,
      "เหล": 9035,
      "ဖော်": 9036,
      "gy": 9037,
      "bantuk": 9038,
      "သည့်": 9039,
      "ិត": 9040,
      "zawn": 9041,
      "लि": 9042,
      "ဂိုန်": 9043,
      "म्": 9044,
      "hku": 9045,
      "ũng": 9046,
      "ရာမည": 9047,
      "ம்ம": 9048,
      "war": 9049,
      "၁၂": 9050,
      "သ္ၚာ": 9051,
      "ဆာန်": 9052,
      "ဢုပ်": 9053,
      "ကြား": 9054,
      "。”": 9055,
      "ພະ": 9056,
      "றி": 9057,
      "ဒက်ပ္တန်": 9058,
      "မွဲမွဲ": 9059,
      "han": 9060,
      "ဇန်": 9061,
      "lalu": 9062,
      "ராஜ": 9063,
      "၂၀၂": 9064,
      "vì": 9065,
      "က္ခာ": 9066,
      "គ្នា": 9067,
      "လညာတ်": 9068,
      "ဒ်သိး": 9069,
      "ဂီၤ": 9070,
      "ိုတ်း": 9071,
      "Nu": 9072,
      "လ့ၤ": 9073,
      "၁၈": 9074,
      "ruangah": 9075,
      "लोग": 9076,
      "ไว": 9077,
      "នោះ": 9078,
      "ເຖ": 9079,
      "kali": 9080,
      "ပှၤဂီၢ်မုၢ်": 9081,
      "ကမ်": 9082,
      "mei": 9083,
      "ty": 9084,
      "ၱး": 9085,
      "ဒၤ": 9086,
      "မွၵ်ႈ": 9087,
      "कार": 9088,
      "pal": 9089,
      "သူ့": 9090,
      "thing": 9091,
      "ပၢႆး": 9092,
      "เด": 9093,
      "ိၤ": 9094,
      "့း": 9095,
      "လူႉ": 9096,
      "ເມື່ອ": 9097,
      "ເຫ": 9098,
      "வும்": 9099,
      "ဗၠး": 9100,
      "ပိုယ်": 9101,
      "ကွၢ်": 9102,
      "ခမဳဗြဴ": 9103,
      "No": 9104,
      "wh": 9105,
      "ဝေါ": 9106,
      "ຊີ": 9107,
      "ၚ်ရ": 9108,
      "ပၟိက်": 9109,
      "Daud": 9110,
      "ဩဝ်": 9111,
      "ကတိ": 9112,
      "mati": 9113,
      "ယိုဝ်း": 9114,
      "အာယုက်": 9115,
      "ខ្ញ": 9116,
      "เก": 9117,
      "ខ្ញុំ": 9118,
      "unan": 9119,
      "pung": 9120,
      "ညဳ": 9121,
      "ली": 9122,
      "လၟိဟ်": 9123,
      "အဂး": 9124,
      "ဗွဲမဂၠိုင်": 9125,
      "ிற்கு": 9126,
      "fe": 9127,
      "ိမ်း": 9128,
      "ꤊꤢꤧ꤭": 9129,
      "ႁၼ်": 9130,
      "บา": 9131,
      "ummi": 9132,
      "တႅၼ်း": 9133,
      "ၵေႃႉၼိုင်ႈ": 9134,
      "ຶ້ນ": 9135,
      "bayan": 9136,
      "သိုပ်ႇ": 9137,
      "ຂຶ້ນ": 9138,
      "ព្រះអង្គ": 9139,
      "េះ": 9140,
      "note": 9141,
      "Bi": 9142,
      "ແມ່ນ": 9143,
      "Pal": 9144,
      "ꤛꤢ꤭": 9145,
      "ဘုရားသ": 9146,
      "ไว้": 9147,
      "ၶိုၼ်ႈ": 9148,
      "မႄး": 9149,
      "ihu": 9150,
      "kerana": 9151,
      "သ္ဂးရ": 9152,
      "ອິດ": 9153,
      "nenten": 9154,
      "ဢုပ်ႇ": 9155,
      "ື່ອງ": 9156,
      "ထီးအလူၬ": 9157,
      "ဒေဝ": 9158,
      "တေအ်": 9159,
      "shangun": 9160,
      "လေပ်": 9161,
      "lupa": 9162,
      "வர்கள": 9163,
      "ၥု": 9164,
      "maraneh": 9165,
      "CSS": 9166,
      "ကၠံ": 9167,
      "เมื่อ": 9168,
      "ၶၢႆ": 9169,
      "11": 9170,
      "ွေး": 9171,
      "ၵိၼ်": 9172,
      "patut": 9173,
      "Ang": 9174,
      "ဘဲၫၥိၭ": 9175,
      "ahnak": 9176,
      "ပုံ": 9177,
      "တူၵ်း": 9178,
      "ပၢင်တိုၵ်း": 9179,
      "လိူၵ်ႈ": 9180,
      "ົບ": 9181,
      "ချဲၩ့": 9182,
      "ื่": 9183,
      "usti": 9184,
      "ầy": 9185,
      "sama": 9186,
      "Ratu": 9187,
      "magka": 9188,
      "ထံၣ်": 9189,
      "တၟအ်": 9190,
      "len": 9191,
      "ật": 9192,
      "က္တ": 9193,
      "တိယ": 9194,
      "บั": 9195,
      "baba": 9196,
      "ဒဵု": 9197,
      "၁၄": 9198,
      "ຊາວ": 9199,
      "မာဲ": 9200,
      "သွင်": 9201,
      "this": 9202,
      "ved": 9203,
      "sau": 9204,
      "ချပ်": 9205,
      "ဃု": 9206,
      "ယဝ်ရ": 9207,
      "ဝဲလၢ": 9208,
      "cal": 9209,
      "ဝူ": 9210,
      "thành": 9211,
      "मन": 9212,
      "မှတ်": 9213,
      "hka": 9214,
      "ແກ່": 9215,
      "တရဴ": 9216,
      "ឲ្យ": 9217,
      "ဍေဟ်": 9218,
      "sareng": 9219,
      "နဒဒှ်": 9220,
      "ໜ້າ": 9221,
      "der": 9222,
      "ok": 9223,
      "ယၢမ်းလဵဝ်": 9224,
      "ဗောဓိ": 9225,
      "chye": 9226,
      "ाए": 9227,
      "หร": 9228,
      "ၸပ်း": 9229,
      "ထၢ": 9230,
      "ဗွ": 9231,
      "ເຫລ": 9232,
      "จึง": 9233,
      "ើង": 9234,
      "manin": 9235,
      "ບັນດາ": 9236,
      "ဎွၩ": 9237,
      "Nya": 9238,
      "你的": 9239,
      "ပိူင်": 9240,
      ".’": 9241,
      "ပူဂ": 9242,
      "tara": 9243,
      "ần": 9244,
      "လ္ၚဵု": 9245,
      "ဖး": 9246,
      "ဇာတ်": 9247,
      "ၼၼ်": 9248,
      "လွှတ်တော်": 9249,
      "ၶေႃႈ": 9250,
      "គេ": 9251,
      "ginan": 9252,
      "balaw": 9253,
      "yak": 9254,
      "အီၪက့ၪ": 9255,
      "တွဵုရး": 9256,
      "Tu": 9257,
      "sehlaw": 9258,
      "ပြံင်": 9259,
      "သပ်": 9260,
      "ယႃႈ": 9261,
      "manhsehlaw": 9262,
      "bawi": 9263,
      "mali": 9264,
      "Ngai": 9265,
      "သီုဖအိုတ်": 9266,
      "လင်": 9267,
      "Per": 9268,
      "ាប់": 9269,
      "လိာ်": 9270,
      "Prabu": 9271,
      "၁၅": 9272,
      "pro": 9273,
      "သို့": 9274,
      "နံၩ": 9275,
      "မောဝ်": 9276,
      "အု": 9277,
      "umat": 9278,
      "pia": 9279,
      "ႁူမ်ႈၵၼ်": 9280,
      "ươ": 9281,
      "လွႆ": 9282,
      "sisi": 9283,
      "ầu": 9284,
      "her": 9285,
      "tri": 9286,
      "Ag": 9287,
      "கே": 9288,
      "ဍုင်မန်": 9289,
      "कु": 9290,
      "မဟုတ်": 9291,
      "သတိ": 9292,
      "abdi": 9293,
      "ິບ": 9294,
      "ၸၢဝ်း": 9295,
      "ဒိၪ": 9296,
      "uri": 9297,
      "ၸၢင်ႈ": 9298,
      "အမိ": 9299,
      "ꤟꤢꤧ꤭": 9300,
      "ထေ": 9301,
      "的人": 9302,
      "ပတိုန်": 9303,
      "भा": 9304,
      "sy": 9305,
      "đó": 9306,
      "ຄຳ": 9307,
      "ကိစ္စ": 9308,
      "မၧၫ့": 9309,
      "beri": 9310,
      "semua": 9311,
      "ရှင်": 9312,
      "หรือ": 9313,
      "ပၢ": 9314,
      "ເຖິງ": 9315,
      "ngah": 9316,
      "sapagka": 9317,
      "num": 9318,
      "Ki": 9319,
      "သ္ဍိုက်": 9320,
      "အာစိုပ်": 9321,
      "फिर": 9322,
      "ກ່າວ": 9323,
      "သၢ": 9324,
      "အခြ": 9325,
      "ຖືກ": 9326,
      "ဝတ်ႉ": 9327,
      "တၞံ": 9328,
      "ဒီးပှၤ": 9329,
      "မူႇ": 9330,
      "ၸိုင်ႈတႆးပွတ်း": 9331,
      "ဂစိုတ်": 9332,
      "ယမိ": 9333,
      "ขึ": 9334,
      "जाए": 9335,
      "ၼွင်ႉ": 9336,
      "ขึ้น": 9337,
      "ກັນ": 9338,
      "ဘါ": 9339,
      "ົວ": 9340,
      "2021": 9341,
      "ꤔꤢꤧ꤬": 9342,
      "og": 9343,
      "ตาม": 9344,
      "Con": 9345,
      "hman": 9346,
      "ဂ်": 9347,
      "ិន": 9348,
      "ເວົ້າ": 9349,
      "कह": 9350,
      "သမ": 9351,
      "အလး": 9352,
      "ပေါ်": 9353,
      "ဗ္ဒ": 9354,
      "မဲာ်": 9355,
      "သဝ်": 9356,
      "တီႉ": 9357,
      "သေံ": 9358,
      "न्तु": 9359,
      "ဖု": 9360,
      "ချိုတ်": 9361,
      "திய": 9362,
      "lema": 9363,
      "ဆိုတာ": 9364,
      "Zi": 9365,
      "ဂှ်လေဝ်": 9366,
      "ໜຶ່ງ": 9367,
      "สั": 9368,
      "ဍောတ်": 9369,
      "ႁူမ်ႈတုမ်": 9370,
      "ဥပဒေ": 9371,
      "Gusti": 9372,
      "ໝົດ": 9373,
      "လမ်း": 9374,
      "nhtawm": 9375,
      "ைப்": 9376,
      "မသုန်": 9377,
      "மான": 9378,
      "ດີ": 9379,
      "အဒ": 9380,
      "ဟာရ": 9381,
      "ကား": 9382,
      "rek": 9383,
      "ເຂົ້າ": 9384,
      "ဇိုၚ်": 9385,
      "ပ္ဍဲဘာ": 9386,
      "ဝ့ၫလၧ": 9387,
      "လ္ပ": 9388,
      "Nan": 9389,
      "ၸတ်းႁဵတ်း": 9390,
      "rit": 9391,
      "ခမဳဂမၠိုၚ်": 9392,
      "เพื่อ": 9393,
      "ทุก": 9394,
      "ဖျိ": 9395,
      "ၵူတ်ႇ": 9396,
      "takin": 9397,
      "တပ်ႉသိုၵ်း": 9398,
      "ឹង": 9399,
      "RCSS": 9400,
      "ဢွၼ်ၵၼ်": 9401,
      "ၵူၼ်းၼုမ်ႇ": 9402,
      "hlah": 9403,
      "னக்கு": 9404,
      "ແຫ": 9405,
      "ဟော": 9406,
      "ပီႈ": 9407,
      "ဝှ်": 9408,
      "ဖိတဖၣ်": 9409,
      "ဘၪဆၧ": 9410,
      "tapi": 9411,
      "lain": 9412,
      "ាត": 9413,
      "rag": 9414,
      "anehna": 9415,
      "ရောက်": 9416,
      "သန်": 9417,
      "າບ": 9418,
      "သိက္ခာ": 9419,
      "ன்ன": 9420,
      "அப்பொழுது": 9421,
      "မဲ့": 9422,
      "uhan": 9423,
      "mana": 9424,
      "paya": 9425,
      "dosa": 9426,
      "ัตร": 9427,
      "mình": 9428,
      "တရား": 9429,
      "ຢ່າງ": 9430,
      "我的": 9431,
      "ပင်": 9432,
      "ပံင်": 9433,
      "shag": 9434,
      "ပလိၵ်ႈ": 9435,
      "្វ": 9436,
      "ꤕꤢ꤭": 9437,
      "မဆ": 9438,
      "2018": 9439,
      "Ar": 9440,
      "ညးတအ်": 9441,
      "ກະສັດ": 9442,
      "ဓါတ်": 9443,
      "မံက်": 9444,
      "ဖက်": 9445,
      "ast": 9446,
      "matay": 9447,
      "ပြကာ": 9448,
      "ទៅ": 9449,
      "bawl": 9450,
      "ှေ": 9451,
      "ရွက်": 9452,
      "ຂໍ": 9453,
      "ယေန်သၞာင်": 9454,
      "இர": 9455,
      "ချုပ်": 9456,
      "เว": 9457,
      "ꤜꤢꤪ꤭": 9458,
      "မုက်လိက်": 9459,
      "အီၤလၢ": 9460,
      "因为": 9461,
      "luk": 9462,
      "ီႊ": 9463,
      "shing": 9464,
      "ngam": 9465,
      "rau": 9466,
      "fir": 9467,
      "ꤓꤢꤧ꤬": 9468,
      "စံ": 9469,
      "မး": 9470,
      "ằng": 9471,
      "mer": 9472,
      "ဇၟာ": 9473,
      "ꤜꤢ꤭": 9474,
      "ṭuan": 9475,
      "யெகோவாவ": 9476,
      "mula": 9477,
      "hmuahhmuah": 9478,
      "ຕົນ": 9479,
      "ging": 9480,
      "လႂ်": 9481,
      "သ္ဂောံ": 9482,
      "និ": 9483,
      "gar": 9484,
      "जब": 9485,
      "တီၢ်": 9486,
      "ted": 9487,
      "phải": 9488,
      "ၦလၧအ": 9489,
      "kil": 9490,
      "他的": 9491,
      "bel": 9492,
      "ต่อ": 9493,
      "อิส": 9494,
      "dos": 9495,
      "ຊົນ": 9496,
      "ကီုလေဝ်": 9497,
      "ၵႅ": 9498,
      "nói": 9499,
      "ຍັງ": 9500,
      "ถึง": 9501,
      "ộc": 9502,
      "မ်ႊ": 9503,
      "ကၟိန်": 9504,
      "แก่": 9505,
      "ဇၟာပ်": 9506,
      "Giê": 9507,
      "ၶႄႇ": 9508,
      "tong": 9509,
      "रह": 9510,
      "berkata": 9511,
      "တႄႇ": 9512,
      "ခၞံ": 9513,
      "່ານ": 9514,
      "bawa": 9515,
      "ใจ": 9516,
      "ပရေၚ်": 9517,
      "ၵုမ်": 9518,
      "परन्तु": 9519,
      "ပတိတ်": 9520,
      "วง": 9521,
      "kham": 9522,
      "suak": 9523,
      "ဖဵု": 9524,
      "rika": 9525,
      "க்கி": 9526,
      "တြေံ": 9527,
      "về": 9528,
      "com": 9529,
      "át": 9530,
      "trên": 9531,
      "ிலும்": 9532,
      "နည်း": 9533,
      "ungguh": 9534,
      "ဖျေံ": 9535,
      "hkra": 9536,
      "ႁပ်ႉ": 9537,
      "ပါယ်": 9538,
      "பா": 9539,
      "led": 9540,
      "देश": 9541,
      "our": 9542,
      "บุตร": 9543,
      "သၽ": 9544,
      "သၢင်ႈ": 9545,
      "အကၠ": 9546,
      "சத்த": 9547,
      "ய்": 9548,
      "အင်္ဂ": 9549,
      "nal": 9550,
      "มือ": 9551,
      "ືອງ": 9552,
      "30": 9553,
      "bị": 9554,
      "ன்ற": 9555,
      "இருக்கிற": 9556,
      "kumpi": 9557,
      "ரிய": 9558,
      "စဳ": 9559,
      "ၵွင်ႈ": 9560,
      "သူင်ႇ": 9561,
      "ယၧၩ": 9562,
      "າເອນ": 9563,
      "တုဲရ": 9564,
      "ကိုပ်ကၠာ": 9565,
      "லை": 9566,
      "laku": 9567,
      "ទាំង": 9568,
      "make": 9569,
      "tlang": 9570,
      "ကဆ": 9571,
      "စစ်": 9572,
      "သုံး": 9573,
      "မာတ်": 9574,
      "किया": 9575,
      "အအိၣ်": 9576,
      "perti": 9577,
      "ាស់": 9578,
      "စၞောန်": 9579,
      "hkan": 9580,
      "တၢ်လၢ": 9581,
      "awt": 9582,
      "you": 9583,
      "້າຍ": 9584,
      "မြို့": 9585,
      "मेरे": 9586,
      "cũng": 9587,
      "ื่อง": 9588,
      "အဝ့ၫဒၪ": 9589,
      "án": 9590,
      "ဘဒ္ဒ": 9591,
      "ဒဳၣ်": 9592,
      "မ့": 9593,
      "နှင့်": 9594,
      "chungah": 9595,
      "way": 9596,
      "ပှ်": 9597,
      "ṭheh": 9598,
      "ukum": 9599,
      "suk": 9600,
      "ặt": 9601,
      "ပ္ဍဲသၞာံ": 9602,
      "วัน": 9603,
      "ក៏": 9604,
      "ngat": 9605,
      "ဗောဓိသတ်": 9606,
      "ောပ်": 9607,
      "maan": 9608,
      "lim": 9609,
      "ອິດສະ": 9610,
      "အိမ်": 9611,
      "မဂွံ": 9612,
      "ဒဲး": 9613,
      "ထဲၢ်": 9614,
      "သၠး": 9615,
      "rat": 9616,
      "နောက်": 9617,
      "ội": 9618,
      "โล": 9619,
      "တင်းမူတ်း": 9620,
      "မၚ်": 9621,
      "တပ်": 9622,
      "ꤛꤢꤨ": 9623,
      "kana": 9624,
      "suba": 9625,
      "khaw": 9626,
      "Mar": 9627,
      "sti": 9628,
      "ပရိ": 9629,
      "zu": 9630,
      "kudu": 9631,
      "ၵူတ်ႇထတ်း": 9632,
      "အူ": 9633,
      "ဢမ်ႇမီး": 9634,
      "စဵုကဵု": 9635,
      "ungan": 9636,
      "တမံၤ": 9637,
      "tusing": 9638,
      "upon": 9639,
      "လၢတ်ႈတီႈၽူႈတွႆႇႁွၵ်ႈဝႃႈ": 9640,
      "အသဳ": 9641,
      "រាល់": 9642,
      "दी": 9643,
      "Palungguh": 9644,
      "แด": 9645,
      "ອີ": 9646,
      "အာရ": 9647,
      "ၶႂ်ႈ": 9648,
      "umah": 9649,
      "ညံင်ဂွံ": 9650,
      "ၵဵဝ်ႇ": 9651,
      "kayo": 9652,
      "17": 9653,
      "pih": 9654,
      "zoh": 9655,
      "itin": 9656,
      "siat": 9657,
      "ၼိူဝ်": 9658,
      "ရိက": 9659,
      "ဖှ": 9660,
      "ႁွ": 9661,
      "पास": 9662,
      "တၢင်ႇ": 9663,
      "tulu": 9664,
      "တွံ": 9665,
      "ကြက်": 9666,
      "ிருக்கிற": 9667,
      "အီ": 9668,
      "siseh": 9669,
      "ity": 9670,
      "ชน": 9671,
      "lawm": 9672,
      "ဒုဟ်": 9673,
      "ເອົາ": 9674,
      "keimah": 9675,
      "ၟံက်": 9676,
      "ข้าพระองค์": 9677,
      "ဘုရားသခင်": 9678,
      "ိုဏ်": 9679,
      "hay": 9680,
      "tina": 9681,
      "ậy": 9682,
      "တိုၵ်ႉ": 9683,
      "သိုလ်": 9684,
      "दिया": 9685,
      "tampi": 9686,
      "ထေက်ကဵု": 9687,
      "ght": 9688,
      "မႄႈ": 9689,
      "wn": 9690,
      "ꤑꤢꤩ꤭": 9691,
      "Shanhte": 9692,
      "ပိုၼ်ႉတီႈ": 9693,
      "meny": 9694,
      "manug": 9695,
      "သၞောဝ်": 9696,
      "ၥံၫ": 9697,
      "--": 9698,
      "zei": 9699,
      "ဒဂိုန်": 9700,
      "inyong": 9701,
      "ꤡꤝꤢ": 9702,
      "ၼႂ်းၸႄႈဝဵင်း": 9703,
      "ဟံၣ်": 9704,
      "ဟွံမွဲကဵု": 9705,
      "ခဳး": 9706,
      "itan": 9707,
      "thiam": 9708,
      "Musa": 9709,
      "ဂိုၚ်": 9710,
      "မိူဝ်ႈၼႆႉ": 9711,
      "wo": 9712,
      "गया": 9713,
      "ၵဝ်ႇ": 9714,
      "dalam": 9715,
      "ၼႃး": 9716,
      "လေး": 9717,
      "ဒြဟတ်": 9718,
      "အပ္ဍဲ": 9719,
      "မိတ်": 9720,
      "từ": 9721,
      "राजा": 9722,
      "òng": 9723,
      "ào": 9724,
      "မႂ်ႇ": 9725,
      "pala": 9726,
      "တွေ့": 9727,
      "以色": 9728,
      "ออก": 9729,
      "ဂၠးတိ": 9730,
      "以色列": 9731,
      "ck": 9732,
      "थे": 9733,
      "ດິນ": 9734,
      "ရတ်": 9735,
      "သဘင်": 9736,
      "အါ": 9737,
      "အာတ်": 9738,
      "ပၢႆႈၽေး": 9739,
      "thaw": 9740,
      "dados": 9741,
      "ပ္ပါယ်": 9742,
      "ida": 9743,
      "រាល់គ្នា": 9744,
      "feh": 9745,
      "மேல்": 9746,
      "hmu": 9747,
      "ອິດສະຣ": 9748,
      "ၵပ်း": 9749,
      "rauh": 9750,
      "ပြောသည်": 9751,
      "ອິດສະຣາເອນ": 9752,
      "kanya": 9753,
      "हि": 9754,
      "sus": 9755,
      "paka": 9756,
      "ီႇ": 9757,
      "ုန်": 9758,
      "than": 9759,
      "ဵၼ်ႈ": 9760,
      "hnu": 9761,
      "ဘူၣ်": 9762,
      "စး": 9763,
      "ၜိုန်": 9764,
      "สิ่ง": 9765,
      "hngal": 9766,
      "ယ့်": 9767,
      "tein": 9768,
      "Bang": 9769,
      "nangmah": 9770,
      "အဂ့ၢ်": 9771,
      "சா": 9772,
      "dinga": 9773,
      "im": 9774,
      "ၵမ်": 9775,
      "Như": 9776,
      "េច": 9777,
      "အလဵုအသဳ": 9778,
      "झे": 9779,
      "rih": 9780,
      "တေလႆႈ": 9781,
      "Dapat": 9782,
      "အံၣ်": 9783,
      "wong": 9784,
      "ái": 9785,
      "ပူၼ်ႉ": 9786,
      "pisan": 9787,
      "ເມືອງ": 9788,
      "gia": 9789,
      "jeunna": 9790,
      "Hu": 9791,
      "ꤝꤢ꤭": 9792,
      "kad": 9793,
      "ஸ்ர": 9794,
      "အောန်": 9795,
      "land": 9796,
      "tsa": 9797,
      "ၺ်ႈ": 9798,
      "အလီၢ်": 9799,
      "ခိုင်": 9800,
      "หน้า": 9801,
      "ဝတ်": 9802,
      "သွံ": 9803,
      "တအ်ရ": 9804,
      "ခး": 9805,
      "ဒေါဝ်": 9806,
      "pus": 9807,
      "၁၁": 9808,
      "khia": 9809,
      "ulu": 9810,
      "ၵၢင်ၸႂ်": 9811,
      "ທາງ": 9812,
      "magkun": 9813,
      "ລູກຊາຍ": 9814,
      "menjadi": 9815,
      "Idane": 9816,
      "ương": 9817,
      "nawn": 9818,
      "ន្": 9819,
      "ราเอล": 9820,
      "သင့်": 9821,
      "မိူင်းႁူမ်ႈတုမ်": 9822,
      "ကၟာ": 9823,
      "သအာ": 9824,
      "tempat": 9825,
      "ဆောင်ရွက်": 9826,
      "dong": 9827,
      "sơ": 9828,
      "โร": 9829,
      "ริ": 9830,
      "क्या": 9831,
      "Kei": 9832,
      "ເກ": 9833,
      "பல": 9834,
      "ເບ": 9835,
      "ဇရေၚ်": 9836,
      "oleh": 9837,
      "ဘၱာ်": 9838,
      "ல்லை": 9839,
      "แห": 9840,
      "Mereka": 9841,
      "उन्": 9842,
      "ោក": 9843,
      "သၽႃး": 9844,
      "này": 9845,
      "ரும்": 9846,
      "2019": 9847,
      "သုတေ": 9848,
      "ဇွ": 9849,
      "16": 9850,
      "ကမ္မ": 9851,
      "အဖိၪခွၫ": 9852,
      "ဘဒ္ဒန္တ": 9853,
      "ວັນ": 9854,
      "kangku": 9855,
      "दो": 9856,
      "Bag": 9857,
      "cungah": 9858,
      "பே": 9859,
      "စရာ": 9860,
      "ယဵၼ်": 9861,
      "ிட": 9862,
      "000": 9863,
      "ၽႂ်": 9864,
      "လိူၵ်ႈတင်ႈ": 9865,
      "ະນ": 9866,
      "ဗၞတ်": 9867,
      "စရ့လး": 9868,
      "ुष": 9869,
      "ဘာဝ": 9870,
      "ỏi": 9871,
      "ப்படு": 9872,
      "ပထ": 9873,
      "suah": 9874,
      "ဒိုဟ်": 9875,
      "ပဳ": 9876,
      "ຫານ": 9877,
      "taga": 9878,
      "อิสราเอล": 9879,
      "ồi": 9880,
      "တူၺ်း": 9881,
      "வேண்ட": 9882,
      "lum": 9883,
      "ဝှ": 9884,
      "၁၇": 9885,
      "when": 9886,
      "ဂၠာဲ": 9887,
      "இஸ்ர": 9888,
      "ທັງໝົດ": 9889,
      "jelema": 9890,
      "ကတိၤ": 9891,
      "အဓိပ္ပါယ်": 9892,
      "तुम्": 9893,
      "இஸ்ரவே": 9894,
      "ၵူၺ်းၵႃႈ": 9895,
      "ခမဳဂှ်": 9896,
      "ဧ့": 9897,
      "ตรัส": 9898,
      "သဲ": 9899,
      "teʼ": 9900,
      "ຽງ": 9901,
      "dina": 9902,
      "ပီႈၼွင်ႉ": 9903,
      "ers": 9904,
      "तक": 9905,
      "lian": 9906,
      "तेरे": 9907,
      "den": 9908,
      "ပေင်": 9909,
      "ड़े": 9910,
      "Abrah": 9911,
      "bahan": 9912,
      "နိကာယ": 9913,
      "လၧစ": 9914,
      "เข้า": 9915,
      "bik": 9916,
      "रू": 9917,
      "ၸွမ်": 9918,
      "ண்ண": 9919,
      "က္တဵုဒှ်": 9920,
      "ាត់": 9921,
      "ລາ": 9922,
      "ၵိုတ်း": 9923,
      "amin": 9924,
      "Abraham": 9925,
      "ပေါတ်": 9926,
      "เน": 9927,
      "kaba": 9928,
      "ရှု": 9929,
      "ၸဵမ်": 9930,
      "ड़ा": 9931,
      "sana": 9932,
      "သႂ်ႇ": 9933,
      "big": 9934,
      "kul": 9935,
      "လဲၪ": 9936,
      "ပိာ်": 9937,
      "அந்த": 9938,
      "មក": 9939,
      "Kan": 9940,
      "အဲဍိက်": 9941,
      "ใช": 9942,
      "ဆဲ": 9943,
      "ក់": 9944,
      "Bal": 9945,
      "ကွး": 9946,
      "14": 9947,
      "ဆိုင်": 9948,
      "ยาห์": 9949,
      "ருட": 9950,
      "rawng": 9951,
      "မႆႈ": 9952,
      "ꤊꤜ": 9953,
      "ဂိုဏ်": 9954,
      "ဖဳး": 9955,
      "ர்த்த": 9956,
      "လၫ့": 9957,
      "ꤋꤢꤨ꤭": 9958,
      "ခီၫ": 9959,
      "Ge": 9960,
      "မိူဝ်ႈဝၼ်းတီႈ": 9961,
      "mà": 9962,
      "pur": 9963,
      "ိပ်": 9964,
      "ဂြိုပ်": 9965,
      "இருந்த": 9966,
      "batu": 9967,
      "ယောက်": 9968,
      "maneh": 9969,
      "မင်": 9970,
      "pum": 9971,
      "ính": 9972,
      "ัด": 9973,
      "ရင်း": 9974,
      "ꤊꤣꤧ꤭": 9975,
      "ของพระองค์": 9976,
      "စၞောန်ထ္ၜး": 9977,
      "zet": 9978,
      "ꤡꤣꤧ": 9979,
      "အနေ": 9980,
      "တူၼ်ႈ": 9981,
      "ូល": 9982,
      "ối": 9983,
      "꤫ꤢ꤬": 9984,
      "တၠပညာ": 9985,
      "மி": 9986,
      "पुत्र": 9987,
      "மக்கள": 9988,
      "Nakan": 9989,
      "muli": 9990,
      "อย่าง": 9991,
      "တဝ်": 9992,
      "Israela": 9993,
      "செய்ய": 9994,
      "န့်": 9995,
      "ၸၼ်ႉ": 9996,
      "មិន": 9997,
      "နက်": 9998,
      "ธิ": 9999,
      "ဖ့ၪ": 10000,
      "ပီၢ်": 10001,
      "ิย์": 10002,
      "ຢາ": 10003,
      "buwat": 10004,
      "อด": 10005,
      "อน": 10006,
      "right": 10007,
      "သ့ၣ်ညါ": 10008,
      "ဒွ": 10009,
      "ဟံ": 10010,
      "ၤၡ": 10011,
      "နေ့": 10012,
      "自己": 10013,
      "ၜတ်": 10014,
      "vào": 10015,
      "အံၫ": 10016,
      "ၸင်ႇ": 10017,
      "ကမ": 10018,
      "ือง": 10019,
      "ເໝ": 10020,
      "ၧး": 10021,
      "ត្រ": 10022,
      "mus": 10023,
      "ப்பு": 10024,
      "မိုဝ်း": 10025,
      "kho": 10026,
      "thla": 10027,
      "ၼင်ႇၼႆ": 10028,
      "ngun": 10029,
      "ၾႆး": 10030,
      "ꤕ꤫ꤢꤩ꤬": 10031,
      "cening": 10032,
      "êu": 10033,
      "Vì": 10034,
      "jer": 10035,
      "ọi": 10036,
      "ษัตร": 10037,
      "ဓဳၤ": 10038,
      "उसने": 10039,
      "ษัตริย์": 10040,
      "အ့": 10041,
      "ꤓꤥ꤭": 10042,
      "jak": 10043,
      "အမျိုး": 10044,
      "ဢွင်ႇ": 10045,
      "หนึ่ง": 10046,
      "ပ္ဍဲအခိၚ်ဂှ်": 10047,
      "ၸၢဝ်းၶိူဝ်း": 10048,
      "made": 10049,
      "Ahi": 10050,
      "ၜဳ": 10051,
      "ဟွံသေၚ်": 10052,
      "ၶူဝ်း": 10053,
      "ဂရၚ်ပ": 10054,
      "ລົງ": 10055,
      "awkah": 10056,
      "ထပ်": 10057,
      "ဂရၚ်ပတီ": 10058,
      "ဗှ်": 10059,
      "အပ်": 10060,
      "များကို": 10061,
      "သၠုင်": 10062,
      "ṭhat": 10063,
      "้ำ": 10064,
      "ယဳၤ": 10065,
      "အဖိ": 10066,
      "had": 10067,
      "Nanging": 10068,
      "ညးဂမၠိုၚ်": 10069,
      "ဖျါ": 10070,
      "လကျာ်": 10071,
      "agi": 10072,
      "lời": 10073,
      "တြဴ": 10074,
      "အဖွဲ့": 10075,
      "ac": 10076,
      "òn": 10077,
      "ထုၵ်ႇ": 10078,
      "နုက်": 10079,
      "儿子": 10080,
      "200": 10081,
      "ပေမဲ့": 10082,
      "င်းက": 10083,
      "ាយ": 10084,
      "hkum": 10085,
      "ທຳ": 10086,
      "ၶႃႈဢေႃႈ": 10087,
      "ओं": 10088,
      "အက္ခ": 10089,
      "ன்று": 10090,
      "kanila": 10091,
      "အခေါင်": 10092,
      "வீ": 10093,
      ").": 10094,
      "အိုတ်ညိ": 10095,
      "တၠအဲ": 10096,
      "upa": 10097,
      "ကလေင်": 10098,
      "shara": 10099,
      "bả": 10100,
      "ตัว": 10101,
      "ເສ": 10102,
      "bahay": 10103,
      "come": 10104,
      "ၸေႊ": 10105,
      "wang": 10106,
      "အံၣ်စရ့လး": 10107,
      "ဗၟံက်": 10108,
      "rem": 10109,
      "பின்": 10110,
      "பிர": 10111,
      "ႁွင်ႈ": 10112,
      "မုၣ်": 10113,
      "ople": 10114,
      "ano": 10115,
      "ယၢမ်းၵၢင်": 10116,
      "သိူဝ်": 10117,
      "bahawa": 10118,
      "द्ध": 10119,
      "မံင်": 10120,
      "ngi": 10121,
      "une": 10122,
      "For": 10123,
      "ອດ": 10124,
      "ວາຍ": 10125,
      "gala": 10126,
      "ရုင်": 10127,
      "gur": 10128,
      "हों": 10129,
      "ꤙꤣꤧ": 10130,
      "မြန်": 10131,
      "Ph": 10132,
      "sinain": 10133,
      "သွၼ်": 10134,
      "ဆက်စပ်": 10135,
      "வு": 10136,
      "laban": 10137,
      "போது": 10138,
      "दिन": 10139,
      "ngei": 10140,
      "ဒုတိယ": 10141,
      "..": 10142,
      "lên": 10143,
      "တက္က": 10144,
      "၁၆": 10145,
      "seperti": 10146,
      "မျၧး": 10147,
      "ிருந்து": 10148,
      "13": 10149,
      "သော်": 10150,
      "ႁႅ": 10151,
      "minung": 10152,
      "ခဲ့တယ်": 10153,
      "ပေႃႉ": 10154,
      "แห่ง": 10155,
      "ຊ້": 10156,
      "ဂဥ": 10157,
      "စရ့လၭ": 10158,
      "Eng": 10159,
      "ꤘꤢꤦ꤬": 10160,
      "pacang": 10161,
      "ping": 10162,
      "ဒၫ": 10163,
      "ận": 10164,
      "sudah": 10165,
      "nyi": 10166,
      "ၾႃႉ": 10167,
      "என்ன": 10168,
      "့ၬယၫ": 10169,
      "maga": 10170,
      "เราจะ": 10171,
      "ंगे": 10172,
      "ပ္ဍဲအခိင်": 10173,
      "ထူပ်း": 10174,
      "pre": 10175,
      "cah": 10176,
      "thah": 10177,
      "த்தின்": 10178,
      "အကြောင်း": 10179,
      "ယျာ": 10180,
      "ယွၼ်း": 10181,
      "NL": 10182,
      "ဘၭ": 10183,
      "ၼႃႇ": 10184,
      "ႃႊ": 10185,
      "ဒိး": 10186,
      "ပြာပ်": 10187,
      "้าง": 10188,
      "မတီ": 10189,
      "ꤚꤣꤧ": 10190,
      "ဟီၣ်": 10191,
      "ragane": 10192,
      "lễ": 10193,
      "ถูก": 10194,
      "တ္ထု": 10195,
      "Maw": 10196,
      "လျိုင်": 10197,
      "ore": 10198,
      "ဧၢ": 10199,
      "ချဳ": 10200,
      "မရှိ": 10201,
      "supaya": 10202,
      "ကိၭ": 10203,
      "စံးဘၣ်": 10204,
      "tla": 10205,
      "ရာမညနိကာယ": 10206,
      "khin": 10207,
      "အေန်": 10208,
      "ှော်": 10209,
      "IRatu": 10210,
      "ười": 10211,
      "ဒီးစီၤ": 10212,
      "ဗဗွဲ": 10213,
      "ບໍ": 10214,
      "ကမၤ": 10215,
      "ၶူး": 10216,
      "mit": 10217,
      "ayon": 10218,
      "las": 10219,
      "யோ": 10220,
      "ခမျၧး": 10221,
      "ၵၢ": 10222,
      "ꤋꤚ": 10223,
      "မြင်": 10224,
      "गे": 10225,
      "வை": 10226,
      "hrang": 10227,
      "သွာ": 10228,
      "ນາງ": 10229,
      "datang": 10230,
      "ပိုန်ဒြပ်": 10231,
      "hear": 10232,
      "ပိူဝ်ႈ": 10233,
      "နီၪတၭ": 10234,
      "again": 10235,
      "ဏအ်ဂှ်": 10236,
      "iyo": 10237,
      "ဒဝ်": 10238,
      "theo": 10239,
      "ment": 10240,
      "ထံၫ": 10241,
      "ဝၚ်": 10242,
      "kawa": 10243,
      "ாலும்": 10244,
      "madu": 10245,
      "သီုကဵု": 10246,
      "run": 10247,
      "nanging": 10248,
      "ces": 10249,
      "pune": 10250,
      "ကရေ": 10251,
      "ဒိုက်": 10252,
      "ဒံး": 10253,
      "ໃຊ້": 10254,
      "ၡူး": 10255,
      "les": 10256,
      "guing": 10257,
      "ោយ": 10258,
      "ၵျွၵ်ႉ": 10259,
      "பார": 10260,
      "ယ့ၣ်ၡူး": 10261,
      "ဖၭ": 10262,
      "tunda": 10263,
      "လႃႈ": 10264,
      "ົມ": 10265,
      "លោក": 10266,
      "ၸူ": 10267,
      "ပ္တိတ်": 10268,
      "คือ": 10269,
      "သဵု": 10270,
      "လဵၵ်း": 10271,
      "เมือง": 10272,
      "ற்கு": 10273,
      "သိုက်": 10274,
      "kara": 10275,
      "Li": 10276,
      "शा": 10277,
      "bagay": 10278,
      "ngandika": 10279,
      "ကြတယ်": 10280,
      "မပ္တံကဵု": 10281,
      "Yuda": 10282,
      "जिस": 10283,
      "လား": 10284,
      "ừng": 10285,
      "ꤖꤢꤧ": 10286,
      "မၪ": 10287,
      "အမေ": 10288,
      "အဴ": 10289,
      "ပိုင်း": 10290,
      "điều": 10291,
      "ဏဳ": 10292,
      "ႁိမ်း": 10293,
      "bul": 10294,
      "करे": 10295,
      "ၪထၪ့": 10296,
      "ចាស់": 10297,
      "ꤕꤜ": 10298,
      "သဘာဝ": 10299,
      "သုတေသန": 10300,
      "ဋိ": 10301,
      "ထုတ်": 10302,
      "ဝေါဟာရ": 10303,
      "TheMyanmar": 10304,
      "TheMyanmarTimes": 10305,
      "တင်ဂၞ": 10306,
      "fer": 10307,
      "people": 10308,
      "kim": 10309,
      "Pagka": 10310,
      "தோ": 10311,
      "ပၢင်ၵုမ်": 10312,
      "အခိၣ်": 10313,
      "ႁႅင်းၵၢၼ်": 10314,
      "af": 10315,
      "ຫາ": 10316,
      "ிருந்த": 10317,
      "ữa": 10318,
      "मान": 10319,
      "ัย": 10320,
      "thang": 10321,
      "ယႂ်ႇ": 10322,
      "ีก": 10323,
      "ແຫ່ງ": 10324,
      "ဂီု": 10325,
      "ဝဳကဳ": 10326,
      "မိၚ်": 10327,
      "သကအ်": 10328,
      "ကြည်": 10329,
      "hada": 10330,
      "စရင်": 10331,
      "ມື": 10332,
      "ဝံၤ": 10333,
      "အေ": 10334,
      "ဢွၼ်ႇ": 10335,
      "yar": 10336,
      "duk": 10337,
      "လၟေင်": 10338,
      "หาร": 10339,
      "ဗလး": 10340,
      "ဟာန်": 10341,
      "mungguing": 10342,
      "တက္ကသိုလ်": 10343,
      "த்திற்கு": 10344,
      "thawh": 10345,
      "हम": 10346,
      "hrim": 10347,
      "กษัตริย์": 10348,
      "တုဲမ္ဂး": 10349,
      "တီး": 10350,
      "ႁၢင်ႈ": 10351,
      ",-": 10352,
      "ญญ": 10353,
      "ထောင်စု": 10354,
      "came": 10355,
      "မလုပ်": 10356,
      "ၢမ်း": 10357,
      "wor": 10358,
      "ลง": 10359,
      "ាង": 10360,
      "ောၚ်": 10361,
      "alan": 10362,
      "ရှာ": 10363,
      "ເໝືອນ": 10364,
      "ໂມ": 10365,
      "”-": 10366,
      "हुए": 10367,
      "நீங்கள்": 10368,
      "ever": 10369,
      "hãy": 10370,
      "mala": 10371,
      "kẻ": 10372,
      "thawn": 10373,
      "ဟဵု": 10374,
      "ကျဲ": 10375,
      "စီး": 10376,
      "သဇိုင်": 10377,
      "ၶီႈ": 10378,
      "ꤊꤢꤨ꤭": 10379,
      "ၵျွၵ်ႉမႄး": 10380,
      "ໂດ": 10381,
      "စကား": 10382,
      "ႁၢၼ်": 10383,
      "ꤘꤣꤧ": 10384,
      "katu": 10385,
      "Yeh": 10386,
      "ဝၢႆး": 10387,
      "ပတန်": 10388,
      "ရိုဟ်": 10389,
      "hath": 10390,
      "ក្រ": 10391,
      "ၶွင်": 10392,
      "đá": 10393,
      "alah": 10394,
      "கூ": 10395,
      "ັ້ງ": 10396,
      "seng": 10397,
      "没有": 10398,
      "မၩအၥၭ": 10399,
      "ပက": 10400,
      "မှန်": 10401,
      "beh": 10402,
      "अपनी": 10403,
      "hati": 10404,
      "ăn": 10405,
      "ဧိၤ": 10406,
      "လၢန": 10407,
      "จน": 10408,
      "သၢႆ": 10409,
      "အခိုက်": 10410,
      "nai": 10411,
      "ພຣະເຈົ້າຢາເວ": 10412,
      "handug": 10413,
      "हें": 10414,
      "ႁူပ်ႉ": 10415,
      "ดิน": 10416,
      "tio": 10417,
      "ဖါ": 10418,
      "မြေ": 10419,
      "ပႅ": 10420,
      "ูล": 10421,
      "்க்க": 10422,
      "လှာဲ": 10423,
      "ahu": 10424,
      "ပြဟ်": 10425,
      "ของเรา": 10426,
      "မ့ၢ်ဂ့ၤ": 10427,
      "นำ": 10428,
      "sabih": 10429,
      "nading": 10430,
      "ကုန်": 10431,
      "दू": 10432,
      "ຕ້ອງ": 10433,
      "ện": 10434,
      "ဗ္တောန်": 10435,
      "ငွေ": 10436,
      "အခေါၚ်": 10437,
      "ີຍ": 10438,
      "zongin": 10439,
      "thawinak": 10440,
      "မဂပ်ဝ်": 10441,
      "້າງ": 10442,
      "hkawhkam": 10443,
      "hram": 10444,
      "ခေါ": 10445,
      "Cule": 10446,
      "အး": 10447,
      "တိတ်း": 10448,
      "àng": 10449,
      "မူႇၸေႊ": 10450,
      "ម្ចាស់": 10451,
      "ாமல்": 10452,
      "ுகிற": 10453,
      "ဝန်ကြီး": 10454,
      "ເຄື່ອງ": 10455,
      "ທ່ານ": 10456,
      "ဨက": 10457,
      "ைச்": 10458,
      "ori": 10459,
      "ếu": 10460,
      "တန်တဴ": 10461,
      "dup": 10462,
      "lomi": 10463,
      "ကွေံ": 10464,
      "ziang": 10465,
      "ကန": 10466,
      "long": 10467,
      "လာ်": 10468,
      "လူး": 10469,
      "house": 10470,
      "Sih": 10471,
      "Ben": 10472,
      "မုဟ်": 10473,
      "ដូ": 10474,
      "ពួកគេ": 10475,
      "ပၠန်ရ": 10476,
      "25": 10477,
      "into": 10478,
      "லும்": 10479,
      "ahang": 10480,
      "Kris": 10481,
      "เท": 10482,
      "daga": 10483,
      "ဆၧၫ့": 10484,
      "သူတို့": 10485,
      "அவர்": 10486,
      "rawl": 10487,
      "နၧၩ": 10488,
      "லே": 10489,
      "လ္တူ": 10490,
      "ပရူပရာ": 10491,
      "ໂຕ": 10492,
      "ဗာ": 10493,
      "လလ": 10494,
      "kir": 10495,
      "ập": 10496,
      "ၶဵ": 10497,
      "အံင်": 10498,
      "ယြ": 10499,
      "rup": 10500,
      "ၸႂ်ႉ": 10501,
      "ูด": 10502,
      "्राए": 10503,
      "raga": 10504,
      "သိပ္ပ": 10505,
      "ขอ": 10506,
      "ꤒꤢꤩ꤭": 10507,
      "ကြည့်": 10508,
      "ပွႆး": 10509,
      "ဆံၫ့": 10510,
      "தா": 10511,
      "इस्राए": 10512,
      "ườ": 10513,
      "ထက်": 10514,
      "꤫ꤤ꤬": 10515,
      "လည်": 10516,
      "lakah": 10517,
      "hkung": 10518,
      "တိုင်": 10519,
      "သဵၼ်ႈ": 10520,
      "ဖော်ပြ": 10521,
      "နာ်": 10522,
      "ngaw": 10523,
      "လၢယ": 10524,
      "ลา": 10525,
      "တောင်": 10526,
      "သၟာ": 10527,
      "est": 10528,
      "now": 10529,
      "ပေါင်း": 10530,
      "bing": 10531,
      "low": 10532,
      "ပြည်ထောင်စု": 10533,
      "ဢမ်ႇလႆႈ": 10534,
      "ခဲ့သည်": 10535,
      "ဗီုပြင်": 10536,
      "ပိုတ်ႇ": 10537,
      "Aar": 10538,
      "Teta": 10539,
      "ဝါဒ": 10540,
      "နါ": 10541,
      "கொடு": 10542,
      "Mesir": 10543,
      "အခြေ": 10544,
      "Nhưng": 10545,
      "Tetapi": 10546,
      "စၠ": 10547,
      "နၫ့": 10548,
      "ဖြင့်": 10549,
      "Sal": 10550,
      "zum": 10551,
      "အင်္ဂလိက်": 10552,
      "hkang": 10553,
      "ทาง": 10554,
      "ယင်း": 10555,
      "ngày": 10556,
      "ဆှံ": 10557,
      "ထပှ်": 10558,
      "ၡါ": 10559,
      "ၶွမ်ႊ": 10560,
      "ဒှ်တုဲ": 10561,
      "လၢပှၤ": 10562,
      "လုၵ်ႉ": 10563,
      "child": 10564,
      "ပယျ": 10565,
      "မသ": 10566,
      "မွဲအ": 10567,
      "ကၠး": 10568,
      "ဂူ": 10569,
      "ဘီ": 10570,
      "ປະຊາ": 10571,
      "ၸွႆႈထႅမ်": 10572,
      "lakukan": 10573,
      "pitu": 10574,
      "jalan": 10575,
      "သဵဝ်ႈ": 10576,
      "လုမ်း": 10577,
      "ဗဳ": 10578,
      "शु": 10579,
      "သိက္ခာပိုဒ်": 10580,
      "sự": 10581,
      "ការ": 10582,
      "seorang": 10583,
      "nau": 10584,
      "bil": 10585,
      "ယြဴ": 10586,
      "tul": 10587,
      "န္ဓ": 10588,
      "วิ": 10589,
      "သိပ္ပံ": 10590,
      "As": 10591,
      "ក្ន": 10592,
      "ꤢꤪ꤭": 10593,
      "ក្នុង": 10594,
      "ဂ္": 10595,
      "parihu": 10596,
      "ရုဲ": 10597,
      "daan": 10598,
      "மோ": 10599,
      "“​": 10600,
      "ꤞꤢꤧ": 10601,
      "ဟေင်": 10602,
      "ၼႆယဝ်ႉ": 10603,
      "ပျဲ": 10604,
      "စံၭဝ့ၫဒၪ": 10605,
      "hara": 10606,
      "ဘာလကျာ်": 10607,
      "tuan": 10608,
      "မုၪ": 10609,
      "jar": 10610,
      "देख": 10611,
      "မတ်မ": 10612,
      "กำ": 10613,
      "ဢိ": 10614,
      "tapa": 10615,
      "ဢႃ": 10616,
      "ရှင်း": 10617,
      "ắt": 10618,
      "tukan": 10619,
      "ကွတ်": 10620,
      "ngaih": 10621,
      "மனி": 10622,
      "เผ": 10623,
      "້ຳ": 10624,
      "မၞုံယၟု": 10625,
      "ၸၢတ်ႈ": 10626,
      "ꤏꤛꤢꤨ": 10627,
      "အချိန်": 10628,
      "ဒေဝတဴ": 10629,
      "โด": 10630,
      "sis": 10631,
      "thiang": 10632,
      "தீ": 10633,
      "tumuli": 10634,
      "ꤛꤢꤩ꤬ꤏꤛꤢꤨ": 10635,
      "Kristus": 10636,
      "shaloi": 10637,
      "htan": 10638,
      "ႁၢဝ်ႈ": 10639,
      "ိမ်": 10640,
      "ဆေး": 10641,
      "ꤛ꤫ꤢꤦ꤬": 10642,
      "sed": 10643,
      "ပ္ဍဲကာလ": 10644,
      "နေပြည်": 10645,
      "saha": 10646,
      "တူင်ႉ": 10647,
      "tuahmi": 10648,
      "Ze": 10649,
      "மைய": 10650,
      "အမေရိက": 10651,
      "ခိ": 10652,
      "ဆိုရင်": 10653,
      "tuu": 10654,
      "sep": 10655,
      "ဒဳယာ": 10656,
      "ngang": 10657,
      "ၶၢဝ်းတၢင်း": 10658,
      "px": 10659,
      "န့ၣ်တက့ၢ်": 10660,
      "အကၠီၩ့": 10661,
      "โม": 10662,
      "ဆဂး": 10663,
      "đất": 10664,
      "និង": 10665,
      "ယိင်း": 10666,
      "လႃႈသဵဝ်ႈ": 10667,
      "ทธิ": 10668,
      "tao": 10669,
      "ကလေၚ်": 10670,
      "salita": 10671,
      "ကဘၣ်": 10672,
      "နၢ်": 10673,
      "မော": 10674,
      "အတွင်း": 10675,
      "மகன": 10676,
      "सो": 10677,
      "lantaran": 10678,
      "သၢၼ်": 10679,
      "အၢ": 10680,
      "danene": 10681,
      "ழி": 10682,
      "ນຳ": 10683,
      "หลาย": 10684,
      "ूंगा": 10685,
      "กัน": 10686,
      "yad": 10687,
      "kia": 10688,
      "தேவன": 10689,
      "ဘု": 10690,
      "ဢႃယု": 10691,
      "ယုတ်": 10692,
      "langit": 10693,
      "မနွံကဵု": 10694,
      "**": 10695,
      "လျှ": 10696,
      "पी": 10697,
      "្ដី": 10698,
      "ဟိုတ်ဂှ်ရ": 10699,
      "စံးဝဲ": 10700,
      "ដូច": 10701,
      "toi": 10702,
      "ဗၠာဲ": 10703,
      "nar": 10704,
      "nila": 10705,
      "ப்பட": 10706,
      "ၸၢၼ်း": 10707,
      "Jesu": 10708,
      "တီၩ": 10709,
      "ຫລື": 10710,
      "ယာန်": 10711,
      "ပ္ကဴ": 10712,
      "sut": 10713,
      "ட்": 10714,
      "คำ": 10715,
      "ဂဥုဲ": 10716,
      "မ့ၢ်တၢ်": 10717,
      "parah": 10718,
      "တအိၣ်": 10719,
      "jalma": 10720,
      "ၚာ်": 10721,
      "ꤔ꤫ꤤ꤬": 10722,
      "ဖ့ၪလၫ့": 10723,
      "နေပြည်တော်": 10724,
      "່ອນ": 10725,
      "ရံ": 10726,
      "້ານ": 10727,
      "ဋ်ရ": 10728,
      "ต้อง": 10729,
      "บน": 10730,
      "ဝတ္ထု": 10731,
      "ပ္ဍဲဍုင်": 10732,
      "ꤟꤢꤨꤔꤣꤧ꤬": 10733,
      "នឹង": 10734,
      "your": 10735,
      "ரோ": 10736,
      "buka": 10737,
      "ம்முடைய": 10738,
      "ေပ်": 10739,
      "nepi": 10740,
      "ူၪ": 10741,
      "ប៉": 10742,
      "dik": 10743,
      "ပှၤလၢအ": 10744,
      "ကီ": 10745,
      "မႅင်း": 10746,
      "inan": 10747,
      "မွဲရ": 10748,
      "तुम्हा": 10749,
      "lagi": 10750,
      "caya": 10751,
      "ဂၪ့": 10752,
      "tetapi": 10753,
      "ເຫັນ": 10754,
      "tế": 10755,
      "ใด": 10756,
      "ကွဲ": 10757,
      "ဘး": 10758,
      "យើង": 10759,
      "kasha": 10760,
      "''": 10761,
      "sakadi": 10762,
      "သုၼ်ႇ": 10763,
      "ႁဵတ်းၵၢၼ်": 10764,
      "Topaʼ": 10765,
      "မဆေင်": 10766,
      "တဵ": 10767,
      "တႃႈၶီႈ": 10768,
      "ဒုက္က": 10769,
      "La": 10770,
      "shar": 10771,
      "chuah": 10772,
      "သႅၼ်": 10773,
      "အပ": 10774,
      "அவன": 10775,
      "ແດນ": 10776,
      "Rai": 10777,
      "ကမ္": 10778,
      "pad": 10779,
      "bug": 10780,
      "ulah": 10781,
      "ยัง": 10782,
      "သုၚ်": 10783,
      "ၵူၼ်းပၢႆႈၽေး": 10784,
      "လိက်ပတ်": 10785,
      "mak": 10786,
      "ကုတ်": 10787,
      "ạy": 10788,
      "တီၤ": 10789,
      "ဢၼ်ဝႃႈ": 10790,
      "ꤗꤢꤧ": 10791,
      "kik": 10792,
      "ဒးရး": 10793,
      "នេះ": 10794,
      "ꤋꤢꤧ꤭": 10795,
      "wag": 10796,
      "ၶု": 10797,
      "उसे": 10798,
      "balan": 10799,
      "Abi": 10800,
      "ngo": 10801,
      "ဖန်ဗဒှ်": 10802,
      "บู": 10803,
      "ဝး": 10804,
      "thì": 10805,
      "asi": 10806,
      "सम": 10807,
      "ဇေတ်": 10808,
      "ဧါ": 10809,
      "ကောန်ဂကူ": 10810,
      "walang": 10811,
      "ີນ": 10812,
      "မိူင်းထႆး": 10813,
      "cùng": 10814,
      "ၢၼ်ႇ": 10815,
      "ဝါရ": 10816,
      "ဂိုၚ်ကေတ်": 10817,
      "ưa": 10818,
      "ၶတ်း": 10819,
      "တတ်": 10820,
      "ăm": 10821,
      "အတိုၚ်": 10822,
      "Hisus": 10823,
      "ႁၢဝ်ႈႁႅင်း": 10824,
      "ipin": 10825,
      "fo": 10826,
      "ered": 10827,
      "ၽူႈတႅၼ်း": 10828,
      "လူင်ပွင်ၸိုင်ႈမၢၼ်ႈ": 10829,
      "လောဲ": 10830,
      "dab": 10831,
      "ၼိုင်": 10832,
      "bila": 10833,
      "မေႃ": 10834,
      "သုင်စောဲ": 10835,
      "ဟီၣ်ခိၣ်": 10836,
      "hter": 10837,
      "yaw": 10838,
      "trước": 10839,
      "ဂၞန်": 10840,
      "ทธิ์": 10841,
      "အဲၣ်": 10842,
      "บรร": 10843,
      "ມັນ": 10844,
      "လၢသု": 10845,
      "ကတၢၢ်": 10846,
      "juga": 10847,
      "Ya": 10848,
      "ness": 10849,
      "တဲ့အခါ": 10850,
      "bagai": 10851,
      "အက္ခရ်": 10852,
      "ciam": 10853,
      "என்னுடைய": 10854,
      "inig": 10855,
      "ကဆံင်": 10856,
      "und": 10857,
      "ပါတီ": 10858,
      "ဒးဒုင်": 10859,
      "pha": 10860,
      "ဒဲဆၧ": 10861,
      "ပရေင်ဍုင်ကွာန်": 10862,
      "ခြား": 10863,
      "တႃႈၶီႈလဵၵ်း": 10864,
      "ꤢ꤬ꤋꤛꤢ꤭": 10865,
      "အဝဵု": 10866,
      "sab": 10867,
      "unang": 10868,
      "ဇၞော်မောဝ်": 10869,
      "ှေ်": 10870,
      "တင်ဂၞင်": 10871,
      "gat": 10872,
      "ံာ်": 10873,
      "maranehna": 10874,
      "ชี": 10875,
      "ປະຊາຊົນ": 10876,
      "Khi": 10877,
      "sik": 10878,
      "mur": 10879,
      "luar": 10880,
      "တ္တာ": 10881,
      "ဖျေဟ်": 10882,
      "ကျွန်တော်": 10883,
      "မဟွံ": 10884,
      "ꤣꤧ꤭ꤔꤣꤧ꤬": 10885,
      "ဂမၠိုၚ်ဂှ်": 10886,
      "ႁူင်းယႃ": 10887,
      "ชาย": 10888,
      "mudian": 10889,
      "phán": 10890,
      "thawng": 10891,
      "ဗ္ဒန်": 10892,
      "တၚ်": 10893,
      "နီၣ်": 10894,
      "இந்த": 10895,
      "ပါလုပ်": 10896,
      "mata": 10897,
      "Apa": 10898,
      "ாரிய": 10899,
      "ၵွပ်ႈ": 10900,
      "ꤜꤢ꤭ꤋꤢꤧ꤭": 10901,
      "tui": 10902,
      "deuh": 10903,
      "hmanh": 10904,
      "ငမ်း": 10905,
      "รุ": 10906,
      "ຖ້າ": 10907,
      "အီၪဝ့ၫ": 10908,
      "ဖြစ်သည်": 10909,
      "เห็น": 10910,
      "tenna": 10911,
      "လမျ": 10912,
      ".)": 10913,
      "Nag": 10914,
      "ၼႃႈတီႈ": 10915,
      "ဆဵုကေတ်": 10916,
      "ເຫລົ່າ": 10917,
      "Ha": 10918,
      "Ye": 10919,
      "moal": 10920,
      "She": 10921,
      "நோ": 10922,
      "nah": 10923,
      "၂၅": 10924,
      "ကလေး": 10925,
      "ating": 10926,
      "pama": 10927,
      "တၢ်မၤ": 10928,
      "ဂြောပ်": 10929,
      "ອີກ": 10930,
      "ဒ်အံၤ": 10931,
      "br": 10932,
      "lis": 10933,
      "ၪ့ထၪ့": 10934,
      "စီဆှံ": 10935,
      "တစ်ခု": 10936,
      "အၧၩ့": 10937,
      "ဗုဒ္ဓဘာသာ": 10938,
      "Mantenna": 10939,
      "ຮູ້": 10940,
      "ួយ": 10941,
      "भे": 10942,
      "raw": 10943,
      "shagu": 10944,
      "डा": 10945,
      "ဒယ": 10946,
      "ပ္ဍဲအရာ": 10947,
      "အၤ": 10948,
      "कोई": 10949,
      "ဟီုသ္ဂး": 10950,
      "နုၤ": 10951,
      "စၢၤ": 10952,
      "keur": 10953,
[...]
