{
  "version": "1.0",
  "truncation": null,
  "padding": null,
  "added_tokens": [
    {
      "id": 0,
      "content": "<pad>",
      "single_word": false,
      "lstrip": false,
      "rstrip": false,
      "normalized": false,
      "special": true
    },
    {
      "id": 1,
      "content": "<unk>",
      "single_word": false,
      "lstrip": false,
      "rstrip": false,
      "normalized": false,
      "special": true
    },
    {
      "id": 2,
      "content": "<s>",
      "single_word": false,
      "lstrip": false,
      "rstrip": false,
      "normalized": false,
      "special": true
    },
    {
      "id": 3,
      "content": "</s>",
      "single_word": false,
      "lstrip": false,
      "rstrip": false,
      "normalized": false,
      "special": true
    }
  ],
  "normalizer": null,
  "pre_tokenizer": {
    "type": "Sequence",
    "pretokenizers": [
      {
        "type": "Whitespace"
      },
      {
        "type": "Split",
        "pattern": {
          "Regex": "(?<=[ऀ-ॿ஀-௿฀-๿຀-໿က-႟ក-៿一-鿿꤀-꤯])(?=[A-Za-z0-9])|(?<=[A-Za-z0-9])(?=[ऀ-ॿ஀-௿฀-๿຀-໿က-႟ក-៿一-鿿꤀-꤯])"
        },
        "behavior": "Isolated",
        "invert": false
      }
    ]
  },
  "post_processor": null,
  "decoder": null,
  "model": {
    "type": "BPE",
    "dropout": null,
    "unk_token": "<unk>",
    "continuing_subword_prefix": null,
    "end_of_word_suffix": null,
    "fuse_unk": false,
    "byte_fallback": false,
    "ignore_merges": false,
    "vocab": {
      "<pad>": 0,
      "<unk>": 1,
      "<s>": 2,
      "</s>": 3,
      "(": 4,
      ")": 5,
      "*": 6,
      ",": 7,
      "-": 8,
      ".": 9,
      "1": 10,
      "2": 11,
      "3": 12,
      "4": 13,
      "6": 14,
      "8": 15,
      "9": 16,
      ":": 17,
      ";": 18,
      "A": 19,
      "B": 20,
      "C": 21,
      "D": 22,
      "E": 23,
      "F": 24,
      "G": 25,
      "H": 26,
      "I": 27,
      "J": 28,
      "K": 29,
      "L": 30,
      "M": 31,
      "N": 32,
      "O": 33,
      "P": 34,
      "Q": 35,
      "R": 36,
      "S": 37,
      "T": 38,
      "U": 39,
      "V": 40,
      "W": 41,
      "Y": 42,
      "[": 43,
      "]": 44,
      "a": 45,
      "b": 46,
      "c": 47,
      "d": 48,
      "e": 49,
      "f": 50,
      "g": 51,
      "h": 52,
      "i": 53,
      "k": 54,
      "l": 55,
      "m": 56,
      "n": 57,
      "o": 58,
      "p": 59,
      "r": 60,
      "s": 61,
      "t": 62,
      "u": 63,
      "v": 64,
      "w": 65,
      "x": 66,
      "y": 67,
      "­": 68,
      "·": 69,
      "â": 70,
      "ʹ": 71,
      "ׁ": 72,
      "ה": 73,
      "ו": 74,
      "י": 75,
      "נ": 76,
      "פ": 77,
      "ש": 78,
      "က": 79,
      "ခ": 80,
      "ဂ": 81,
      "ဃ": 82,
      "င": 83,
      "စ": 84,
      "ဆ": 85,
      "ည": 86,
      "တ": 87,
      "ထ": 88,
      "ဒ": 89,
      "န": 90,
      "ပ": 91,
      "ဖ": 92,
      "ဘ": 93,
      "မ": 94,
      "ယ": 95,
      "ရ": 96,
      "လ": 97,
      "ဝ": 98,
      "သ": 99,
      "ဟ": 100,
      "အ": 101,
      "ဧ": 102,
      "ါ": 103,
      "ာ": 104,
      "ိ": 105,
      "ီ": 106,
      "ု": 107,
      "ူ": 108,
      "ဲ": 109,
      "ံ": 110,
      "့": 111,
      "း": 112,
      "်": 113,
      "ျ": 114,
      "ြ": 115,
      "ွ": 116,
      "ှ": 117,
      "၀": 118,
      "၁": 119,
      "၂": 120,
      "၃": 121,
      "၄": 122,
      "၅": 123,
      "၆": 124,
      "၇": 125,
      "၈": 126,
      "၉": 127,
      "ၠ": 128,
      "ၡ": 129,
      "ၢ": 130,
      "ၣ": 131,
      "ၤ": 132,
      "‏": 133,
      "–": 134,
      "—": 135,
      "‘": 136,
      "’": 137,
      "“": 138,
      "”": 139,
      "ၣ်": 140,
      "ၢ်": 141,
      "ီၤ": 142,
      "့ၣ်": 143,
      "လၢ": 144,
      "တၢ်": 145,
      "ဒီ": 146,
      "လီၤ": 147,
      "ဒီး": 148,
      "ာ်": 149,
      "န့ၣ်": 150,
      "့ၢ်": 151,
      "ဝဲ": 152,
      "ိၣ်": 153,
      "ဘၣ်": 154,
      "ီၣ်": 155,
      "ပှ": 156,
      "ီၢ်": 157,
      "ပှၤ": 158,
      "တဖ": 159,
      "တဖၣ်": 160,
      "ံၤ": 161,
      "မၤ": 162,
      "န့ၣ်လီၤ": 163,
      "ံး": 164,
      "လၢအ": 165,
      "ထီၣ်": 166,
      "စီၤ": 167,
      "ိး": 168,
      "အိၣ်": 169,
      "မ့ၢ်": 170,
      "သး": 171,
      "အဝဲ": 172,
      "့ၤ": 173,
      "သ့ၣ်": 174,
      "ုၢ်": 175,
      "ူၤ": 176,
      "အီၤ": 177,
      "ံၣ်": 178,
      "သု": 179,
      "ဖိ": 180,
      "ွၤ": 181,
      "ယွၤ": 182,
      "ိၤ": 183,
      "ဂၤ": 184,
      "ဒ်": 185,
      "ကွ": 186,
      "ပူၤ": 187,
      "လဲ": 188,
      "ူၣ်": 189,
      "အံၤ": 190,
      "ံာ်": 191,
      "ကစ": 192,
      "ဂီၢ်": 193,
      "အဝဲသ့ၣ်": 194,
      "ိာ်": 195,
      "သိး": 196,
      "တက": 197,
      "မုၢ်": 198,
      "ဖဲ": 199,
      "လၢတၢ်": 200,
      "ူး": 201,
      "စံး": 202,
      "ကတ": 203,
      "အတၢ်": 204,
      "တဂၤ": 205,
      "ခိၣ်": 206,
      "ယၤ": 207,
      "ဒၣ်": 208,
      "ဆူ": 209,
      "ကစၢ်": 210,
      "ဂ့ၤ": 211,
      "ကွံာ်": 212,
      "ုး": 213,
      "ဲး": 214,
      "အသး": 215,
      "အပူၤ": 216,
      "က့ၤ": 217,
      "ဘၣ်တၢ်": 218,
      "ုာ်": 219,
      "ကီၢ်": 220,
      "ပာ်": 221,
      "ကျ": 222,
      "တက့ၢ်": 223,
      "န့ၢ်": 224,
      "ၢၤ": 225,
      "တ့ၢ်": 226,
      "လုၢ်": 227,
      "လီၢ်": 228,
      "အဃ": 229,
      "ဒိၣ်": 230,
      "ုၤ": 231,
      "ဖျ": 232,
      "ခဲ": 233,
      "အဂီၢ်": 234,
      "လး": 235,
      "ုၣ်": 236,
      "အဃိ": 237,
      "ညါ": 238,
      "ဝ့ၢ်": 239,
      "တၢ်အ": 240,
      "ဲၤ": 241,
      "ပၤ": 242,
      "မံၤ": 243,
      "ဟ့ၣ်": 244,
      "လဲၤ": 245,
      "ဆှ": 246,
      "ကစၢ်ယွၤ": 247,
      ".”": 248,
      "ပျ": 249,
      "ဟဲ": 250,
      "လၢာ်": 251,
      "ၢၣ်": 252,
      "ၢၢ်": 253,
      "နၤ": 254,
      "သံ": 255,
      "အသိး": 256,
      "လဲၣ်": 257,
      "ဲာ်": 258,
      "ကိး": 259,
      "ဆၣ်": 260,
      "ဆၢ": 261,
      "ဲၣ်": 262,
      "ဒီးတၢ်": 263,
      "ကမ": 264,
      "ဒုး": 265,
      "သ့": 266,
      "စီၤပၤ": 267,
      "ခွ": 268,
      "နီၢ်": 269,
      "မူ": 270,
      "ဘျ": 271,
      "ခီ": 272,
      "ခဲလၢာ်": 273,
      "ခံ": 274,
      "့လး": 275,
      "ဂ့ၢ်": 276,
      "ဂီၤ": 277,
      "လံ": 278,
      "သူၣ်": 279,
      "ဒီးအ": 280,
      "ခွါ": 281,
      "တုၤ": 282,
      "ဘၣ်ဆၣ်": 283,
      "ဂီၢ်မုၢ်": 284,
      "လၢယ": 285,
      "လိၤ": 286,
      "ဒ်သိး": 287,
      "ပှၤဂီၢ်မုၢ်": 288,
      "ကလ": 289,
      "ထံ": 290,
      "ကွၢ်": 291,
      "ထံၣ်": 292,
      "ဒါ": 293,
      "သီ": 294,
      "ယဲ": 295,
      "ူၢ်": 296,
      "ပှၤအ": 297,
      "လိာ်": 298,
      "ဟး": 299,
      "ံၢ်": 300,
      "စု": 301,
      "ဖိတဖၣ်": 302,
      "ကမၤ": 303,
      "ဖး": 304,
      "စရ": 305,
      "ဒၤ": 306,
      "ဝဲလၢ": 307,
      "တန": 308,
      "နီ": 309,
      "မဲာ်": 310,
      "အအိၣ်": 311,
      "ဖှ": 312,
      "တမံၤ": 313,
      "အီၤလၢ": 314,
      "ဟံၣ်": 315,
      "ကတိၤ": 316,
      "စီ": 317,
      "ဒီးပှၤ": 318,
      "ထီ": 319,
      "ဒဲး": 320,
      "မ့": 321,
      "စီၤအ": 322,
      "ဘါ": 323,
      "ိၢ်": 324,
      "စရ့လး": 325,
      "လၢန": 326,
      "အဂ့ၢ်": 327,
      "ကဲ": 328,
      "အလီၢ်": 329,
      "ံၣ်စရ့လး": 330,
      "သ့ၣ်ညါ": 331,
      "စီၤယ": 332,
      "ပိာ်": 333,
      "လၢ်": 334,
      "ဒံး": 335,
      "မုၣ်": 336,
      "ဖိခွါ": 337,
      "ကဘၣ်": 338,
      "စံးဘၣ်": 339,
      "ဟီၣ်": 340,
      "ဧၢ": 341,
      "အက": 342,
      "တဲ": 343,
      "ဒိး": 344,
      "့ၣ်ၡ": 345,
      "့ၣ်ၡူး": 346,
      "ယဲၢ်": 347,
      "လၢအဝဲ": 348,
      "ကန": 349,
      "စၢၤ": 350,
      "ဝံၤ": 351,
      "အခ": 352,
      "ဧိၤ": 353,
      "မ့ၢ်ဂ့ၤ": 354,
      "ပှၤလၢအ": 355,
      "ကတီၢ်": 356,
      "အါ": 357,
      "တီ": 358,
      "ဆှံ": 359,
      "လၢသု": 360,
      "ယ့ၣ်ၡူး": 361,
      "ကီ": 362,
      "န့ၣ်တက့ၢ်": 363,
      "စံးဝဲ": 364,
      "မ့ၢ်တၢ်": 365,
      "တအိၣ်": 366,
      "အဒ": 367,
      "ဝံ": 368,
      "ကီၢ်အ": 369,
      "နီၣ်": 370,
      "ပတ": 371,
      "နၢ်": 372,
      "ကတၢၢ်": 373,
      "ဟီၣ်ခိၣ်": 374,
      "တၢ်မၤ": 375,
      "စိာ်": 376,
      "ဒ်အံၤ": 377,
      "စီဆှံ": 378,
      "နုၤ": 379,
      "ဖီ": 380,
      "ယက": 381,
      "အကျ": 382,
      "ချ": 383,
      "လၢပှၤ": 384,
      "ဃး": 385,
      "့း": 386,
      "ဘူၣ်": 387,
      "လၢအအိၣ်": 388,
      "တဂ့ၤ": 389,
      "ဆိ": 390,
      "ကယဲၢ်": 391,
      "ဃီ": 392,
      "ဖျါ": 393,
      "စ့ၢ်": 394,
      "ပၢ်": 395,
      "ဘ့ၣ်": 396,
      "သၣ်": 397,
      "သိၣ်": 398,
      "ဟ့ၣ်လီၤ": 399,
      "ဆူၣ်": 400,
      "ကီး": 401,
      "ထီၣ်ဝဲ": 402,
      "ညီ": 403,
      "ဃုာ်": 404,
      "သုး": 405,
      "ွဲ": 406,
      "ၢး": 407,
      "အိၣ်ဝဲ": 408,
      "ကဲထီၣ်": 409,
      "အီၣ်": 410,
      "စ့ၢ်ကီး": 411,
      "န့ၣ်ဒီး": 412,
      "ပှဲၤ": 413,
      "တမ့ၢ်": 414,
      "ဒိ": 415,
      "စံၣ်": 416,
      "တဖၣ်န့ၣ်": 417,
      "မိၤ": 418,
      "ဃု": 419,
      "မ့မ့ၢ်": 420,
      "တဖၣ်လၢ": 421,
      "နာ်": 422,
      "ယူ": 423,
      "ဖျိ": 424,
      "ဒီးစီၤ": 425,
      "အဲၣ်": 426,
      "ဟးဂီၤ": 427,
      "တၢ်လၢ": 428,
      "ဆံ": 429,
      "လၤ": 430,
      "ဘး": 431,
      "ပှၤတဂၤ": 432,
      "ဘျီ": 433,
      "လဲာ်": 434,
      "ဧါ": 435,
      "ဒ်လဲၣ်": 436,
      "ထၢ": 437,
      "ဘိ": 438,
      "ပှၢ်": 439,
      "အဖိခွါ": 440,
      "ကပ": 441,
      "အၢ": 442,
      "ဖှိၣ်": 443,
      "နံၤ": 444,
      "ညီၣ်": 445,
      "အဂ့ၢ်ဒ်အံၤ": 446,
      "ခီၣ်": 447,
      "ခီဖျိ": 448,
      "ဆှၢ": 449,
      "မနုၤ": 450,
      "ဘၣ်ဆၣ်ဒီး": 451,
      "ထဲ": 452,
      "စီၤယိၤ": 453,
      "ကမၣ်": 454,
      "ဟံး": 455,
      "ဒီးမၤ": 456,
      "ကူ": 457,
      "လၢတၢ်န့ၣ်": 458,
      "ရူၤ": 459,
      "အသိးန့ၣ်လီၤ": 460,
      "ပျဲ": 461,
      "အဝဲဒၣ်": 462,
      "ဆိး": 463,
      "ဖးဒိၣ်": 464,
      "ဃ့": 465,
      "ထွဲ": 466,
      "ကဘၣ်တၢ်": 467,
      "မး": 468,
      "ဘၣ်ဃး": 469,
      "ယူဒၤ": 470,
      "ဘီ": 471,
      "တၢ်လုၢ်": 472,
      "ကျဲ": 473,
      "အဂီၢ်န့ၣ်လီၤ": 474,
      "တစု": 475,
      "ဟူ": 476,
      "အဖီ": 477,
      "လ့ၣ်": 478,
      "တရ": 479,
      "လၢတၢ်န့ၣ်အဃိ": 480,
      "ဃာ်": 481,
      "ဆါ": 482,
      "ကူၣ်": 483,
      "လံာ်": 484,
      "တဘျီ": 485,
      "နုာ်": 486,
      "သွ": 487,
      "လါ": 488,
      "မဲာ်ညါ": 489,
      "ပျံၤ": 490,
      "စံးဆၢ": 491,
      "လၢအဝဲသ့ၣ်": 492,
      "အဂၤ": 493,
      "တဖၣ်န့ၣ်လီၤ": 494,
      "အတ": 495,
      "လၢအမ့ၢ်": 496,
      "တဖၣ်ဒီး": 497,
      "ဘှ": 498,
      "အလိၤ": 499,
      "စီၤအၤ": 500,
      "သိ": 501,
      "ဖဲန့ၣ်": 502,
      "ဂံၢ်": 503,
      "အကျါ": 504,
      "မံ": 505,
      "တနံၤ": 506,
      "ဆိၣ်": 507,
      "လၢပ": 508,
      "ကွံာ်အီၤ": 509,
      "ဒီးယ": 510,
      "အူ": 511,
      "မၤတၢ်": 512,
      "အီ": 513,
      "ၢၣ်လီၤ": 514,
      "ဒဲးဘး": 515,
      "ကဒါ": 516,
      "တဖၣ်အံၤ": 517,
      "လိၣ်": 518,
      "အပှၤ": 519,
      "တၢ်သီ": 520,
      "ဒၣ်ဝဲ": 521,
      "ထၢၣ်": 522,
      "ဝံး": 523,
      "လၢၤ": 524,
      "မၢ": 525,
      "လၢဝ့ၢ်": 526,
      "ဒၣ်လဲာ်": 527,
      "ကၤ": 528,
      "ၡ့": 529,
      "ပိာ်မုၣ်": 530,
      "လံၤ": 531,
      "ဖျဲး": 532,
      "တၤ": 533,
      "လၢက": 534,
      "စံၣ်ညီၣ်": 535,
      "အပူၤန့ၣ်လီၤ": 536,
      "ထံး": 537,
      "ပၢ": 538,
      "တဲဘၣ်": 539,
      "ဒၤဝံး": 540,
      "မ်": 541,
      "မၤတ့ၢ်": 542,
      "စၢ်": 543,
      "ဆၢကတီၢ်": 544,
      "သူ": 545,
      "တဖၣ်လၢအ": 546,
      "ဖံး": 547,
      "ကလုာ်": 548,
      "မိၢ်": 549,
      "ခါ": 550,
      "အပှၤဂီၢ်မုၢ်": 551,
      "ဝၤ": 552,
      "လိ": 553,
      "ကွဲး": 554,
      "မၤသံ": 555,
      "နး": 556,
      "အခါ": 557,
      "သကိး": 558,
      "ဒီးအဝဲသ့ၣ်": 559,
      "န့ၣ်ဘၣ်": 560,
      "ခု": 561,
      "တခီ": 562,
      "တူၢ်": 563,
      "ဒု": 564,
      "ဒီးသု": 565,
      "ဝဲလီၤ": 566,
      "စီၤၡ": 567,
      "အခိၣ်": 568,
      "ဟိ": 569,
      "တၢ်အခိၣ်": 570,
      "ဘၤ": 571,
      "မ့ၣ်": 572,
      "ဒီးန": 573,
      "ဘူး": 574,
      "အဒူၣ်": 575,
      "သၢ": 576,
      "အစီၤပၤ": 577,
      "ကမိၣ်": 578,
      "ဖၣ်": 579,
      "စိ": 580,
      "လီၤတ": 581,
      "ထံၣ်ဘၣ်": 582,
      "တြ": 583,
      "စူၢ်": 584,
      "လၢယွၤ": 585,
      "ထီၣ်ကွံာ်": 586,
      "အဂီၢ်လီၤ": 587,
      "ကနၣ်": 588,
      "နံၣ်": 589,
      "စး": 590,
      "ထူ": 591,
      "ဆိကမိၣ်": 592,
      "ကဒါက့ၤ": 593,
      "လီ": 594,
      "ကအိၣ်": 595,
      "ကီၢ်အံၣ်စရ့လး": 596,
      "ယရူၤ": 597,
      "ထီဒါ": 598,
      "မိၤၡ့": 599,
      "ကပီၤ": 600,
      "အဖီခိၣ်": 601,
      "ဂာ်": 602,
      "ထီၣ်တၢ်": 603,
      "လုၢ်တၢ်အခိၣ်": 604,
      "ပှၤအံၣ်စရ့လး": 605,
      "ဆၢထၢၣ်": 606,
      "စီၤဒၤဝံး": 607,
      "နီတဂၤ": 608,
      "စ့": 609,
      "ဃၣ်": 610,
      "ဝဲဒၣ်": 611,
      "ပျၢ်": 612,
      "နၢ်ဟူ": 613,
      "ဝဲၢ်": 614,
      "တဘၣ်": 615,
      "ဟၣ်": 616,
      "တနီၤ": 617,
      "ပှၤက": 618,
      "အမဲာ်ညါ": 619,
      "မ့ၣ်အူ": 620,
      "တီၤ": 621,
      "စိၤ": 622,
      "မါ": 623,
      "အပူၤန့ၣ်": 624,
      "တဖျ": 625,
      "အဃိန့ၣ်လီၤ": 626,
      "စီၤပ": 627,
      "ပတူး": 628,
      "အန့ၣ်": 629,
      "ကည": 630,
      "တသ့": 631,
      "ဒီးအဝဲ": 632,
      "ဲၤကူ": 633,
      "ဟံးန့ၢ်": 634,
      "ဖျါထီၣ်": 635,
      "သံကွၢ်": 636,
      "စုာ်": 637,
      "ရံ": 638,
      "ဒုၣ်": 639,
      "ကစီၣ်": 640,
      "မ့ၢ်ဝဲ": 641,
      "ပာ်လီၤ": 642,
      "တဖျၢၣ်": 643,
      "တၢ်ဒီး": 644,
      "တဘ့ၣ်": 645,
      "ဲၤကူပတူး": 646,
      "ရံာ်": 647,
      "ရၤ": 648,
      "ထီၣ်က့ၤ": 649,
      "အမံၤ": 650,
      "ပုၢ်": 651,
      "ကမီၤ": 652,
      "ဒဲ": 653,
      "မူခိၣ်": 654,
      "လၢ်လၢ်": 655,
      "တဖၣ်လီၤ": 656,
      "ၡလ့ၣ်": 657,
      "မ့ၢ်ပှၤ": 658,
      "သးခု": 659,
      "ဒိကနၣ်": 660,
      "ဆ့": 661,
      "သိၣ်တၢ်သီ": 662,
      "ခရံာ်": 663,
      "လၢအက": 664,
      "ဂဲၤ": 665,
      "တအိၣ်ဘၣ်": 666,
      "နီၤ": 667,
      "ွံ": 668,
      "အိၣ်မူ": 669,
      "ုက": 670,
      "ဆီ": 671,
      "အိၣ်ဒီး": 672,
      "ကလံၤ": 673,
      "နၢၤ": 674,
      "အဘ": 675,
      "သုတ": 676,
      "ကစၢၢ်": 677,
      "လူး": 678,
      "ဒီပုၢ်": 679,
      "ခဲအံၤ": 680,
      "လၢကီၢ်": 681,
      "ယရူၤၡလ့ၣ်": 682,
      "ဒူၣ်": 683,
      "ွံၢ်": 684,
      "စီၤမိၤၡ့": 685,
      "ယွၤအတၢ်": 686,
      "မုာ်": 687,
      "လၢၤဘၣ်": 688,
      "လၢမုၢ်": 689,
      "စၤ": 690,
      "တၢ်လီၢ်": 691,
      "ဒီးက": 692,
      "နါ": 693,
      "ပူၤဖျဲး": 694,
      "တၢ်အံၤ": 695,
      "ဘျုး": 696,
      "ဒီပုၢ်ဝဲၢ်": 697,
      "ထီၣ်အီၤ": 698,
      "ယာ်": 699,
      "ယသး": 700,
      "အသးလၢ": 701,
      "ဘူၣ်ထီၣ်": 702,
      "ထိၣ်": 703,
      "ထူၣ်": 704,
      "မၤလိာ်": 705,
      "မ့တမ့ၢ်": 706,
      "ပၢၢ်": 707,
      "စူၤ": 708,
      "ယတၢ်": 709,
      "လွံၢ်": 710,
      "ဒၢ": 711,
      "ဒိးန့ၢ်": 712,
      "ဃီၤ": 713,
      "ဘြ": 714,
      "တၢ်ဖ": 715,
      "တၢ်လၢအ": 716,
      "ဘၣ်တၢ်မၤ": 717,
      "လၢၢ်": 718,
      "လာ်": 719,
      "နီတမံၤ": 720,
      "ဘူၣ်ထီၣ်ဘါ": 721,
      "မၢ်": 722,
      "လုၢ်ဟံၣ်": 723,
      "ဟိဝၤ": 724,
      "ဘၣ်မနုၤ": 725,
      "အ့လး": 726,
      "အစု": 727,
      "ဆံး": 728,
      "အလီၢ်ခံ": 729,
      "ဂၢၢ်": 730,
      "ဟဲစိာ်": 731,
      "အိၣ်ဒီးတၢ်": 732,
      "ခ့": 733,
      "အၢၣ်လီၤ": 734,
      "စးထီၣ်": 735,
      "ဆူဝ့ၢ်": 736,
      "အဲၣ်ဒိး": 737,
      "ကိးဂၤ": 738,
      "ပံး": 739,
      "ဝဲဒီး": 740,
      "ပှ့ၤ": 741,
      "ြၢး": 742,
      "ဒ်န့ၣ်ဒီး": 743,
      "အပူၤလီၤ": 744,
      "အမုၢ်": 745,
      "စပံး": 746,
      "ဟဲက့ၤ": 747,
      "နတၢ်": 748,
      "နသး": 749,
      "ပိာ်ခွါ": 750,
      "ပတြ": 751,
      "ကဲၤ": 752,
      "ဆှီ": 753,
      "နွံ": 754,
      "ဖိကီၢ်": 755,
      "ပတြၢၤ": 756,
      "နက": 757,
      "တ့": 758,
      "စံးဝဲဒၣ်": 759,
      "စီၤဧ": 760,
      "ဟိဝၤယွၤ": 761,
      "အဟံၣ်": 762,
      "ကိးဂၤဒဲး": 763,
      "ကျၢၤ": 764,
      "နီတဂၤဘၣ်": 765,
      "ဝံၤဒီး": 766,
      "အ့ၤ": 767,
      "ပၢၤ": 768,
      "သွဲၣ်": 769,
      "ယတ": 770,
      "အုး": 771,
      "တၢ်ဒဲးဘး": 772,
      "ထုက": 773,
      "ထုကဖၣ်": 774,
      "ဒူ": 775,
      "က့": 776,
      "ကသ့": 777,
      "တဒု": 778,
      "သုသး": 779,
      "လ့": 780,
      "ခံဂၤ": 781,
      "ဘၣ်ဝဲ": 782,
      "ကီၢ်အဲၤကူပတူး": 783,
      "အီၤန့ၣ်လီၤ": 784,
      "ထီၣ်ပတြၢၤ": 785,
      "ဖှီၣ်": 786,
      "ပှၤလုၢ်တၢ်အခိၣ်": 787,
      "တဂၤန့ၣ်": 788,
      "နဲ": 789,
      "ဘၣ်ဃးဒီး": 790,
      "ထံကျ": 791,
      "နမ့ၢ်": 792,
      "သုဝဲ": 793,
      "အဃိလီၤ": 794,
      "အီလီၤ": 795,
      "တၢ်အီၣ်": 796,
      "အကလုၢ်": 797,
      "ဝး": 798,
      "အပၢ်": 799,
      "ကတီၤ": 800,
      "ပှၤကညီ": 801,
      "အီၤလီၤ": 802,
      "ဒ်တၢ်": 803,
      "ကညီၤ": 804,
      "ဆ့ၣ်": 805,
      "အီၤလၢတၢ်": 806,
      "အသးဒီး": 807,
      "ကဒီး": 808,
      "တၢ်န့ၣ်": 809,
      "သမူ": 810,
      "လီၤဂာ်": 811,
      "ဃုထၢ": 812,
      "ဆိၣ်ဂ့ၤ": 813,
      "အုၣ်": 814,
      "လဲၤဆူ": 815,
      "ယဟိဝၤယွၤ": 816,
      "တရူး": 817,
      "ဃုာ်ဒီး": 818,
      "ဘၢ": 819,
      "လ့ၤ": 820,
      "တခါ": 821,
      "မၤစၢၤ": 822,
      "ဆၣ်ဖိကီၢ်": 823,
      "တဆံ": 824,
      "မၤဝဲ": 825,
      "တ့ၢ်လံ": 826,
      "ကံး": 827,
      "အကတီၢ်": 828,
      "ကိာ်": 829,
      "တရံး": 830,
      "ပာ်ဖှိၣ်": 831,
      "တ့ၢ်ဝဲ": 832,
      "့းတရူး": 833,
      "ဆှၢလီၤ": 834,
      "ယံာ်": 835,
      "မၤသး": 836,
      "နဲၣ်": 837,
      "သ့ၣ်ဧၢ": 838,
      "အၤ": 839,
      "သ့ၣ်တဖၣ်": 840,
      "ဒိၣ်မး": 841,
      "ပက": 842,
      "အဆၢကတီၢ်": 843,
      "ံၣ်အံၤ": 844,
      "ပျၢၤ": 845,
      "ဖု": 846,
      "တၢ်ဘါ": 847,
      "ဒံးဘၣ်": 848,
      "ထံကျိ": 849,
      "သုက": 850,
      "အံၣ်စရ့လး": 851,
      "ဒ်န့ၣ်": 852,
      "ကိၢ်": 853,
      "ဃ့ၢ်": 854,
      "စီၤယၤ": 855,
      "အီၤဒီး": 856,
      "ယိာ်": 857,
      "ဟးထီၣ်": 858,
      "ဘှီ": 859,
      "ဘူၣ်ထီၣ်ဘါထီၣ်": 860,
      "သီၣ်": 861,
      "စံးထီၣ်ပတြၢၤ": 862,
      "သုတၢ်": 863,
      "အဖိ": 864,
      "ကနံၣ်အံၤ": 865,
      "လံာ်စီဆှံ": 866,
      "ပှၤကလုာ်": 867,
      "ဆူတၢ်": 868,
      "တုၤနုၤ": 869,
      "ခီၣ်က့ၤ": 870,
      "လၢဟီၣ်ခိၣ်": 871,
      "လၢကစၢ်ယွၤ": 872,
      "တုၤနုၤတစု": 873,
      "ဒ့ၣ်": 874,
      "ခဲကနံၣ်အံၤ": 875,
      "မတၤ": 876,
      "ီၣ်လဲၣ်": 877,
      "ဒီးတ": 878,
      "ဒုးတၢ်": 879,
      "ဘူၤ": 880,
      "အကစၢ်ယွၤ": 881,
      "အတၢ်မၤ": 882,
      "ကီၢ်ယူဒၤ": 883,
      "ပျီ": 884,
      "လၢအဘၣ်တၢ်": 885,
      "ဝီၤ": 886,
      "က့ၤခီၣ်က့ၤ": 887,
      "တသ့ဘၣ်": 888,
      "လၢပျၢၤ": 889,
      "ညၣ်": 890,
      "ဖံ": 891,
      "တၢ်ပာ်": 892,
      "အခီၣ်": 893,
      "ဝံၤအလီၢ်ခံ": 894,
      "သိၣ်လိ": 895,
      "ကး": 896,
      "အဒိၣ်": 897,
      "လီၤတဲာ်": 898,
      "အိၣ်ဒီးအ": 899,
      "ယမ့ၢ်": 900,
      "လၤကပီၤ": 901,
      "ဝါ": 902,
      "မူၤ": 903,
      "ကတဲာ်": 904,
      "စံးဘၣ်အီၤ": 905,
      "န့ၣ်လဲၣ်": 906,
      "ပျဲၢ်": 907,
      "ဘု": 908,
      "ဂုာ်": 909,
      "ဧၤ": 910,
      "ဒ်သိးက": 911,
      "စံ": 912,
      "ဖါ": 913,
      "ဝဲဆူ": 914,
      "ပှၤအံၣ်စရ့လးဖိ": 915,
      "လုၢ်ထီၣ်": 916,
      "နီတမံၤဘၣ်": 917,
      "ကတဲာ်ကတီၤ": 918,
      "ကလူး": 919,
      "ပူၤန့ၣ်လီၤ": 920,
      "စီၤအၤဘြ": 921,
      "ကထ": 922,
      "ဝံၣ်": 923,
      "စီၤပ့းတရူး": 924,
      "မၤဟးဂီၤ": 925,
      "အီၤဆူ": 926,
      "ချ့": 927,
      "ဒီးပ": 928,
      "ဖဲအဝဲသ့ၣ်": 929,
      "စီလူး": 930,
      "ဘှံး": 931,
      "ယိၤ": 932,
      "အသိးန့ၣ်": 933,
      "အကီၢ်": 934,
      "ဖျၢၣ်": 935,
      "ကုၢ်": 936,
      "ူာ်": 937,
      "ခိး": 938,
      "အကစၢ်": 939,
      "စီၤယိၤသး": 940,
      "အန့ၣ်ဒီး": 941,
      "သ့ၣ်နီၣ်": 942,
      "ကစံး": 943,
      "ဝ့ၢ်ယရူၤၡလ့ၣ်": 944,
      "တၢ်လီၤ": 945,
      "ဆူး": 946,
      "ဖၢ": 947,
      "ံယၤ": 948,
      "လၢခံ": 949,
      "အဂီၢ်န့ၣ်": 950,
      "တၢ်အၢၣ်လီၤ": 951,
      "ဆဲး": 952,
      "လဲၤနုာ်": 953,
      "ထး": 954,
      "ရၣ်": 955,
      "သုးမုၢ်": 956,
      "ဘ့ၤ": 957,
      "ယအိၣ်": 958,
      "လံယၤ": 959,
      "ကတိၤတၢ်": 960,
      "ဘၣ်ဒီး": 961,
      "ကူၣ်သ့": 962,
      "ချၢ": 963,
      "ပှၤအံၣ်စရ့လးဖိတဖၣ်": 964,
      "တဖၣ်က": 965,
      "ဖုး": 966,
      "စီၤဃ": 967,
      "လၢကျဲ": 968,
      "ဂဲၤဆၢထၢၣ်": 969,
      "ဆၣ်ဖိကီၢ်ဖိ": 970,
      "ထုး": 971,
      "ပှၤတ": 972,
      "တၢ်အၢ": 973,
      "ယံၤ": 974,
      "ကွံာ်ဝဲ": 975,
      "ဲးစ": 976,
      "နီတစု": 977,
      "ဖီၣ်": 978,
      "အဘီၣ်": 979,
      "န့ၢ်ဒံး": 980,
      "ဖိသၣ်": 981,
      "သပှၢ်": 982,
      "တဘိ": 983,
      "အဝဲသ့ၣ်က": 984,
      "ပာ်ဖျါထီၣ်": 985,
      "သ့တၢ်": 986,
      "မၤသးဒ်န့ၣ်ဒီး": 987,
      "အအိၣ်ဒီး": 988,
      "စိး": 989,
      "သးအိၣ်": 990,
      "သးကညီၤ": 991,
      "ပှၤအဂၤ": 992,
      "တိၢ်": 993,
      "ပူ": 994,
      "ရိၣ်": 995,
      "ထီဘိ": 996,
      "ပဒိၣ်": 997,
      "ဘူၣ်တၢ်ဘါ": 998,
      "ထိး": 999,
      "ပာ်ထီၣ်": 1000,
      "ၡါ": 1001,
      "လၢအတၢ်": 1002,
      "သါ": 1003,
      "အသီ": 1004,
      "ပျဲၢ်အဘီၣ်": 1005,
      "ယံး": 1006,
      "အပူၤဒီး": 1007,
      "ဒုးကဲထီၣ်": 1008,
      "ထံကီၢ်": 1009,
      "စုာ်စုာ်": 1010,
      "ယၢ်": 1011,
      "ၤဟၣ်": 1012,
      "ချံ": 1013,
      "န့ၢ်အီၤ": 1014,
      "တဲာ်": 1015,
      "ယွၤဧၢ": 1016,
      "ဖှံ": 1017,
      "စီၤဘ": 1018,
      "ဖဲအ": 1019,
      "ကယဲၢ်တၢ်": 1020,
      "ခိ": 1021,
      "စီၤအၤဘြၤဟၣ်": 1022,
      "န့ၣ်မ့ၢ်": 1023,
      "ချုး": 1024,
      "ထူး": 1025,
      "ကိးထီၣ်": 1026,
      "အသွဲၣ်": 1027,
      "ဒီးယွၤ": 1028,
      "စီၤစီလူး": 1029,
      "ဲးစၢး": 1030,
      "စဲး": 1031,
      "အဝဲက": 1032,
      "ဖဲတၢ်": 1033,
      "ဖဲအံၤ": 1034,
      "ဒုးနဲၣ်": 1035,
      "ကယၤ": 1036,
      "ဃူ": 1037,
      "ပှၤလၢ": 1038,
      "ဘၣ်မနုၤအဃိ": 1039,
      "မၤအသး": 1040,
      "နီၢ်နီၢ်": 1041,
      "လ့ၤဝံ": 1042,
      "ကိၣ်": 1043,
      "ဒွ": 1044,
      "အကျဲ": 1045,
      "တဖၣ်အ": 1046,
      "ဘၤဘူၤ": 1047,
      "လၣ်": 1048,
      "သန": 1049,
      "တၢ်ကစီၣ်": 1050,
      "ခူ": 1051,
      "ယကမၤ": 1052,
      "တၢ်ဂ့ၢ်": 1053,
      "တပူၤ": 1054,
      "ဖိဃီ": 1055,
      "ဂီၤဖံး": 1056,
      "တီၢ်": 1057,
      "ၡၤ": 1058,
      "ကျဲးစၢး": 1059,
      "ယူဒၤဖိ": 1060,
      "ဘီမုၢ်": 1061,
      "အဂ့ၤ": 1062,
      "တၢ်အဲၣ်": 1063,
      "ဟးထီၣ်ကွံာ်": 1064,
      "တဂၤလၢအ": 1065,
      "မိၣ်": 1066,
      "သူၣ်ထီၣ်": 1067,
      "ဘၣ်န့ၣ်လီၤ": 1068,
      "အအိၣ်န့ၣ်လီၤ": 1069,
      "စၢၤအသွဲၣ်": 1070,
      "ဘၤဘူၤလိၣ်": 1071,
      "မူၤအ့လး": 1072,
      "မနုၤလဲၣ်": 1073,
      "တနံၤအံၤ": 1074,
      "တံၤ": 1075,
      "စှ": 1076,
      "တူၢ်လိာ်": 1077,
      "လီၤပ": 1078,
      "အီၤန့ၣ်": 1079,
      "ယုၢ်": 1080,
      "မၤနၢၤ": 1081,
      "နီၢ်မၤ": 1082,
      "တကပၤ": 1083,
      "နီၢ်ကစၢ်": 1084,
      "ဒွဲၣ်": 1085,
      "ဝဲန့ၣ်လီၤ": 1086,
      "ကါ": 1087,
      "တၢ်ဂီၤ": 1088,
      "တဖု": 1089,
      "မိၢ်ပၢ်": 1090,
      "ဆး": 1091,
      "အဝဲန့ၣ်": 1092,
      "ရ့": 1093,
      "ဆှး": 1094,
      "နၤလီၤ": 1095,
      "အခံ": 1096,
      "ၡူ": 1097,
      "ပူၤန့ၣ်": 1098,
      "လီၤအသး": 1099,
      "မၤန့ၢ်": 1100,
      "အံၤမ့ၢ်": 1101,
      "စံးဆၢဝဲ": 1102,
      "တတီၤ": 1103,
      "ဒ်ပှၤ": 1104,
      "ဟ့": 1105,
      "အခ့": 1106,
      "သးဝံၣ်": 1107,
      "နၢ": 1108,
      "ဘျၢ": 1109,
      "လဲၤထီၣ်": 1110,
      "တး": 1111,
      "အတၢ်သိၣ်တၢ်သီ": 1112,
      "ကစံၣ်": 1113,
      "ကလဲာ်": 1114,
      "မၤဘၣ်": 1115,
      "အုၣ်က့ၤခီၣ်က့ၤ": 1116,
      "ခူသူၣ်": 1117,
      "လူၤ": 1118,
      "ဆူယွၤ": 1119,
      "ဝးတရံး": 1120,
      "သုမ့ၢ်": 1121,
      "တချုး": 1122,
      "ဝဲန့ၣ်": 1123,
      "အသိးလီၤ": 1124,
      "စီၤယၤကိာ်": 1125,
      "ကူး": 1126,
      "အိၣ်လၢ": 1127,
      "မ့ၢ်လၢ": 1128,
      "မုၢ်လၢ်": 1129,
      "ကျါ": 1130,
      "ဘါထုကဖၣ်": 1131,
      "နၢ်ပၢၢ်": 1132,
      "နီၢ်မၤရံ": 1133,
      "ဘံၣ်": 1134,
      "ဟရိၣ်": 1135,
      "ဖဲယ": 1136,
      "ဆ့ၣ်နီၤ": 1137,
      "ဒိၣ်ထီၣ်": 1138,
      "ကွၢ်ထွဲ": 1139,
      "ထံၣ်န့ၢ်": 1140,
      "သွံၣ်": 1141,
      "ဒ့": 1142,
      "ပီၣ်လဲၣ်": 1143,
      "အမဲာ်": 1144,
      "ရံၤ": 1145,
      "တၢ်ကတိၤ": 1146,
      "နၤဧ": 1147,
      "ဖဲအဝဲ": 1148,
      "ယၤလီၤ": 1149,
      "စပံးထံ": 1150,
      "ကဝီၤ": 1151,
      "တံၢ်": 1152,
      "သးအုး": 1153,
      "ကၢ်": 1154,
      "ဒုးအိၣ်": 1155,
      "စီၤအၤဟရိၣ်": 1156,
      "ပညီ": 1157,
      "ကစၢ်ယွၤအတၢ်": 1158,
      "ဟု": 1159,
      "အဂၤတဖၣ်": 1160,
      "အစၢၤအသွဲၣ်": 1161,
      "တၢ်သူၣ်": 1162,
      "အံၤန့ၣ်": 1163,
      "လၢယက": 1164,
      "အဒါ": 1165,
      "အဝဲသ့ၣ်လၢ": 1166,
      "လၢတၢ်လုၢ်": 1167,
      "တနံၣ်": 1168,
      "တၢ်လုၢ်ဟံၣ်": 1169,
      "အ့ၤစ": 1170,
      "အ့": 1171,
      "လီၤဆီ": 1172,
      "ဒီးလဲၤ": 1173,
      "တၢ်နာ်": 1174,
      "ပာ်ဖျါ": 1175,
      "ခီပညီ": 1176,
      "ဖိဃီဖိ": 1177,
      "ကဆှီ": 1178,
      "ဧး": 1179,
      "ဒ်သိးအက": 1180,
      "လိာ်အသး": 1181,
      "မဲာ်ဆှး": 1182,
      "သုးဖိ": 1183,
      "စိကမီၤ": 1184,
      "တြီ": 1185,
      ".’": 1186,
      "ဆီၣ်": 1187,
      "ဟဲထီၣ်": 1188,
      "အဖီလာ်": 1189,
      "မူး": 1190,
      "သးစၢ်": 1191,
      "သတး": 1192,
      "လီၤကွံာ်": 1193,
      "ဝဲလၢအ": 1194,
      "နၢမူ": 1195,
      "ကစံၣ်ညီၣ်": 1196,
      "အမါ": 1197,
      "လီၤဘၣ်": 1198,
      "ဒီးဝ့ၢ်": 1199,
      "နၢ်တဖၣ်": 1200,
      "ဟါ": 1201,
      "စီၤန": 1202,
      "တၢ်အၢၣ်လီၤအီလီၤ": 1203,
      "ပူၤလီၤ": 1204,
      "လိၤမိၤ": 1205,
      "ကလီ": 1206,
      "ယွၤအတၢ်လုၢ်ဟံၣ်": 1207,
      "တၢ်အီ": 1208,
      "စဲ": 1209,
      "လၢတၢ်လီၢ်": 1210,
      "ရူၤသး": 1211,
      "အပျဲၢ်အဘီၣ်": 1212,
      "ဆူညါ": 1213,
      "စီၤၡမူၤအ့လး": 1214,
      "အတၢ်ကတိၤ": 1215,
      "ဃံ": 1216,
      "မံၣ်": 1217,
      "အန့ၣ်ဝံၤဒီး": 1218,
      "အခီၣ်ထံး": 1219,
      "ၡသး": 1220,
      "ပၢတၢ်": 1221,
      "ဖလ့": 1222,
      "ကွံ": 1223,
      "ယၤလၢ": 1224,
      "သ့တၢ်လၢာ်": 1225,
      "အး": 1226,
      "တဖၣ်အပူၤ": 1227,
      "သ့ၣ်တဖၣ်အံၤ": 1228,
      "ဝံအ့ၤ": 1229,
      "ဖဲဝ့ၢ်": 1230,
      "တၢ်ဖီၣ်": 1231,
      "စိတၢ်": 1232,
      "ဝံအ့ၤလံယၤ": 1233,
      "ခူၣ်": 1234,
      "ဒ်အ": 1235,
      "ဖံဖု": 1236,
      "လၢ်လၢ်လၢအ": 1237,
      "ဖလ့ၡသး": 1238,
      "ယပှၤဂီၢ်မုၢ်": 1239,
      "ဒီဘ့ၣ်": 1240,
      "စီၤဟ": 1241,
      "ပလီၢ်": 1242,
      "ယိၣ်": 1243,
      "အဝ့ၢ်": 1244,
      "ကီၤ": 1245,
      "တၢ်ကမၣ်": 1246,
      "ပှၤကိးဂၤဒဲး": 1247,
      "စံးဘၣ်တဲဘၣ်": 1248,
      "အခ့အပှၤ": 1249,
      "တလိၤ": 1250,
      "တ့ၢ်အီၤ": 1251,
      "မဲ": 1252,
      "လီၤတၢ်": 1253,
      "ဘျါ": 1254,
      "ဃိ": 1255,
      "တၢ်လၢယ": 1256,
      "နာ်က့": 1257,
      "တဂၤဧိၤ": 1258,
      "ဝဲလၢတၢ်": 1259,
      "ပူၤဒီး": 1260,
      "မိၢ်ပၢ်ဖံဖု": 1261,
      "ဒံ": 1262,
      "သုကစၢ်ယွၤ": 1263,
      "က့ၤကဒါက့ၤ": 1264,
      "ဖျဲၣ်": 1265,
      "မ့ၢ်တၢ်တီ": 1266,
      "ဖီခိၣ်": 1267,
      "ကမၢ": 1268,
      "ကသ့ၣ်": 1269,
      "ီလူး": 1270,
      "မုၢ်နံၤ": 1271,
      "ဂၢၢ်ကျၢၤ": 1272,
      "လ့း": 1273,
      "အါထီၣ်": 1274,
      "စိတၢ်ကမီၤ": 1275,
      "ကဟဲ": 1276,
      "လၢပှဲၤ": 1277,
      "ကိ": 1278,
      "တထံၣ်": 1279,
      "အိၣ်ဖှိၣ်": 1280,
      "လုၢ်အ": 1281,
      "နီၢ်ခိ": 1282,
      "သၤ": 1283,
      "လၢကမၤ": 1284,
      "နီတဘျီ": 1285,
      "ကနၢ": 1286,
      "တီတလိၤ": 1287,
      "တဘျီဃီ": 1288,
      "အ့ၤစတၢ်": 1289,
      "စံာ်": 1290,
      "ပနီၣ်": 1291,
      "အမိၢ်": 1292,
      "ဘၣ်န့ၣ်": 1293,
      "လၢစီၤပၤ": 1294,
      "မံး": 1295,
      "ယီၤ": 1296,
      "ဘဧၤ": 1297,
      "အဝဲသ့ၣ်အတၢ်": 1298,
      "နီၢ်ရူၤသး": 1299,
      "တမ့ၢ်ဘၣ်": 1300,
      "ကထိ": 1301,
      "ကညီ": 1302,
      "တဲၤ": 1303,
      "လီၤတံၢ်": 1304,
      "လုာ်": 1305,
      "တဖၣ်လၢတၢ်": 1306,
      "ဖဲသု": 1307,
      "အဒဲ": 1308,
      "အတီၢ်": 1309,
      "နၣ်": 1310,
      "တဖၣ်အဂီၢ်": 1311,
      "ဖဲပှၤ": 1312,
      "ခွဲး": 1313,
      "တၢ်လုၢ်လီၢ်": 1314,
      "ယၢၤ": 1315,
      "သနာ်က့": 1316,
      "လၢညါ": 1317,
      "အဝဲမ့ၢ်": 1318,
      "ဖိထၢ": 1319,
      "ကွီၢ်": 1320,
      "ပမ့ၢ်": 1321,
      "အဂံၢ်": 1322,
      "စီၤယံး": 1323,
      "ပသး": 1324,
      "ဘိး": 1325,
      "ဟံးဃာ်": 1326,
      "ပၢဘၣ်တၢ်": 1327,
      "အၢၣ်လီၤအီလီၤ": 1328,
      "အနံၣ်": 1329,
      "ကံယၤ": 1330,
      "ဃါ": 1331,
      "တံာ်": 1332,
      "တၢ်ခဲလၢာ်": 1333,
      "စီၤအဘ": 1334,
      "တဂၤအံၤ": 1335,
      "ဘျီၣ်": 1336,
      "ကလာ်": 1337,
      "ဒီးလၢ": 1338,
      "ဒီးအတၢ်": 1339,
      "တဂၤဒီး": 1340,
      "ခီဂာ်": 1341,
      "တၢ်အၢတၢ်သီ": 1342,
      "သးစူၤ": 1343,
      "ယိၤနါ": 1344,
      "ကရ": 1345,
      "တဖၣ်အကျါ": 1346,
      "ပူၤကွံာ်": 1347,
      "တမံၤမံၤ": 1348,
      "ဒီပုၢ်ဝဲၢ်ခွါ": 1349,
      "ပှၢ်မုၢ်": 1350,
      "ကီၢ်အံၣ်စရ့လးအပှၤဂီၢ်မုၢ်": 1351,
      "တလါ": 1352,
      "ပတၢ်": 1353,
      "တၢ်ဆၢကတီၢ်": 1354,
      "န့ၣ်က": 1355,
      "လၢအသး": 1356,
      "အံၤမ့ၢ်တၢ်": 1357,
      "တကလုာ်": 1358,
      "တၢ်ခဲ": 1359,
      "ဘၣ်အီၤ": 1360,
      "အိၣ်ဆိး": 1361,
      "ဟဲလီၤ": 1362,
      "အါအါ": 1363,
      "အနီၣ်": 1364,
      "ဟးဂီၤကွံာ်": 1365,
      "တစဲး": 1366,
      "ပာ်သး": 1367,
      "တုၤဒၣ်လဲာ်": 1368,
      "အအိၣ်လီၤ": 1369,
      "တဲၤတဲ": 1370,
      "ခံး": 1371,
      "ညိ": 1372,
      "ပဝဲ": 1373,
      "တဖၣ်ဆူ": 1374,
      "အိၣ်ဘှံး": 1375,
      "သပှၢ်ကတၢၢ်": 1376,
      "ကလုၢ်": 1377,
      "စၢ": 1378,
      "အခီပညီ": 1379,
      "အဒိ": 1380,
      "ဒီးကယဲၢ်": 1381,
      "ယါ": 1382,
      "လုၣ်": 1383,
      "ဝ့ၤ": 1384,
      "အိ": 1385,
      "ခံဆံ": 1386,
      "စံးဘၣ်အဝဲသ့ၣ်": 1387,
      "မိၢ်ပၢ်ဖံဖုလၢပျၢၤ": 1388,
      "ပၢဘၣ်တၢ်ခဲလၢာ်": 1389,
      "တသ့ၣ်ညါ": 1390,
      "မဆါ": 1391,
      "လီၣ်": 1392,
      "ဒီးပာ်": 1393,
      "ဒီးစံးဝဲ": 1394,
      "တၢ်အုၣ်": 1395,
      "ဟဲတုၤ": 1396,
      "အခိၣ်အ": 1397,
      "ရ့း": 1398,
      "အီၤဒ်": 1399,
      "တကး": 1400,
      "ဖဲန": 1401,
      "ပှၤတဂၤလၢအ": 1402,
      "ဃိး": 1403,
      "ဒီးယၤ": 1404,
      "ဒီးဒုး": 1405,
      "ဒီးယက": 1406,
      "ပှီၢ်": 1407,
      "စံးဝဲလၢ": 1408,
      "လဲၤတၢ်": 1409,
      "ဟဲဆူ": 1410,
      "တၢ်လုၢ်တၢ်ပာ်": 1411,
      "ပှၢ်မုၢ်ကနၢ": 1412,
      "တန့ၢ်": 1413,
      "ယီၣ်": 1414,
      "အထံ": 1415,
      "မ့ၢ်န": 1416,
      "စီၤယိၤၡူ": 1417,
      "မၢလီၤ": 1418,
      "အခါန့ၣ်": 1419,
      "အန့ၣ်ဝံၤ": 1420,
      "ဒ်န့ၣ်အသိး": 1421,
      "စှၤ": 1422,
      "ကၣ်": 1423,
      "မ့ၤ": 1424,
      "ဒ်လဲၣ်န့ၣ်": 1425,
      "ကဘျ": 1426,
      "ပသူ": 1427,
      "ယူး": 1428,
      "အဘါ": 1429,
      "မ့ၢ်မတၤ": 1430,
      "ပာ်ကဲ": 1431,
      "တမံၤဃီ": 1432,
      "ကီတၢ်ခဲ": 1433,
      "ဟီၣ်ခိၣ်ဖိ": 1434,
      "တမၤ": 1435,
      "လၢမူခိၣ်": 1436,
      "အဂ့ၢ်န့ၣ်လီၤ": 1437,
      "တိာ်": 1438,
      "သူၣ်ပာ်သး": 1439,
      "ခီၣ်ထံး": 1440,
      ".)": 1441,
      "ထီၣ်အသး": 1442,
      "ခီဖျိလၢ": 1443,
      "အဂီၤ": 1444,
      "ဘၣ်အၢ": 1445,
      "ကတဲ": 1446,
      "စူၢ်တၢ်နာ်": 1447,
      "ကလံၤစိး": 1448,
      "မနၤ": 1449,
      "လီၤမၢ်": 1450,
      "ဝဲဒ်": 1451,
      "တကဆှီ": 1452,
      "ဆိကတီၢ်": 1453,
      "ပီ": 1454,
      "အသိ": 1455,
      "ဝဲဘၣ်": 1456,
      "တဖၣ်လၢအအိၣ်": 1457,
      "ယွၤလီၤ": 1458,
      "မိၤအး": 1459,
      "ဖံးတၢ်မၤ": 1460,
      "ဂုာ်ကျဲးစၢး": 1461,
      "စိၣ်": 1462,
      "သုကဘၣ်": 1463,
      "ဒၣ်တၢ်": 1464,
      "ဒုးတၢ်ယၤ": 1465,
      "မ့ၢ်အ": 1466,
      "တ့ၢ်တၢ်": 1467,
      "ဒီးပှၤလၢအ": 1468,
      "စီၤအ့": 1469,
      "လၢနက": 1470,
      "စီၤပီလူး": 1471,
      "လီၤပြ": 1472,
      "လၢတၢ်မၤ": 1473,
      "ဟ့ၣ်ကူၣ်": 1474,
      "ယ့ၣ်ၡူးခရံာ်": 1475,
      "တၢ်မၤလိာ်": 1476,
      "ပပှၢ်": 1477,
      "လဲး": 1478,
      "ဖဲလဲၣ်": 1479,
      "အချ": 1480,
      "လၢသုက": 1481,
      "ဒၢး": 1482,
      "ဆ့ကၤ": 1483,
      "ဒိၣ်မးလီၤ": 1484,
      "တာ်": 1485,
      "ပ့ၤ": 1486,
      "ဒီးအီၤ": 1487,
      "ကဲကုၢ်": 1488,
      "ကွဲးနီၣ်": 1489,
      "တပ": 1490,
      "အဘီ": 1491,
      "ပှၤယူဒၤဖိ": 1492,
      "ကီၢ်ဘၤဘူၤလိၣ်": 1493,
      "ဖျီ": 1494,
      "တနံၤန့ၣ်": 1495,
      "ဒိးန့ၢ်ဘၣ်": 1496,
      "ဒး": 1497,
      "န့": 1498,
      "အနံၤ": 1499,
      "တၢ်ဘၣ်": 1500,
      "အိၣ်ဝဲဆိး": 1501,
      "ကိးမံၤ": 1502,
      "ခဲလၢာ်လီၤ": 1503,
      "ခဲလၢာ်န့ၣ်လီၤ": 1504,
      "သုးခိၣ်": 1505,
      "မၤတ့ၢ်ဝဲ": 1506,
      "စီၤဧ့": 1507,
      "အုးသးအုး": 1508,
      "လၢစီၤ": 1509,
      "တဖၣ်အတၢ်": 1510,
      "အ့ၣ်": 1511,
      "ၤၡ": 1512,
      "ဒီးစံး": 1513,
      "န့ၣ်ဧါ": 1514,
      "တဖၣ်အသိး": 1515,
      "ကျိာ်": 1516,
      "အါဂၤ": 1517,
      "ဒီးမၤသံ": 1518,
      "ကညး": 1519,
      "ကပာ်": 1520,
      "တဖၣ်ဘၣ်တၢ်": 1521,
      "ကမူၣ်": 1522,
      "လၢအမ့ၢ်ဝဲ": 1523,
      "ကလံၤထံး": 1524,
      "တၢ်ဖိး": 1525,
      "တၢ်သိၣ်တၢ်သီ": 1526,
      "လီၤက့ၤ": 1527,
      "ထီၣ်ပှဲၤ": 1528,
      "ဘ့း": 1529,
      "လၢကီၢ်အဲၤကူပတူး": 1530,
      "တၢ်ဆါ": 1531,
      "ယွၤစံးဘၣ်": 1532,
      "ပှၤအါ": 1533,
      "စံၣ်တဲၤတဲ": 1534,
      "သဲ": 1535,
      "ပှၤလ့ၤဝံ": 1536,
      "အိၣ်ခိး": 1537,
      "ဂ့ၢ်လိာ်": 1538,
      "ဝံယိၤနါ": 1539,
      "ဆိၣ်အၢ": 1540,
      "ဘှီထီၣ်": 1541,
      "ဖိထၢဖိ": 1542,
      "ကိးပသူ": 1543,
      "တြဲၤ": 1544,
      "ကျဲၤ": 1545,
      "လၢယဂီၢ်": 1546,
      "စီၤၡလိၤမိၤ": 1547,
      "တၢ်ဖုး": 1548,
      "ယၢ်ဒ့ၣ်": 1549,
      "တုၤအ": 1550,
      "စီၤယိၤအ": 1551,
      "နီတစုဘၣ်": 1552,
      "က့ၣ်": 1553,
      "ကဒဲ": 1554,
      "မၤဘူၣ်": 1555,
      "ဖိတဂၤ": 1556,
      "သ့ၣ်နီၣ်ထီၣ်က့ၤ": 1557,
      "အသုးမုၢ်": 1558,
      "လၢတၢ်သူၣ်": 1559,
      "နီၢ်အ့ၤစတၢ်": 1560,
      "ယူာ်": 1561,
      "သတးဒီး": 1562,
      "ဃံၤ": 1563,
      "ဧ့ၤ": 1564,
      "ဝဲဖဲ": 1565,
      "လၢအဂီၢ်": 1566,
      "ကမၤသံ": 1567,
      "ကွဲးအသး": 1568,
      "ဘ့ၤသ": 1569,
      "ဘဧၤလး": 1570,
      "မဆါတနံၤအံၤ": 1571,
      "ဘီၣ်": 1572,
      "ရဲၣ်": 1573,
      "တၢ်ဖှီၣ်": 1574,
      "ဘၣ်လၢ": 1575,
      "လဲၢ်": 1576,
      "ဃူတၢ်ဖိး": 1577,
      "သံၣ်": 1578,
      "ပျံၤတၢ်ဖုး": 1579,
      "လူၢ်": 1580,
      "အီၤဘၣ်": 1581,
      "ကစၢ်ယွၤဧၢ": 1582,
      "အတြ": 1583,
      "လၢကစၢၢ်": 1584,
      "ဒီးဖဲ": 1585,
      "သးညီ": 1586,
      "သ့ၣ်သ့ၣ်": 1587,
      "နာ်က့ၤ": 1588,
      "ပဒိၣ်ပပှၢ်": 1589,
      "ပၢဘၣ်တၢ်ခဲလၢာ်ကစၢ်": 1590,
      "ကိၤ": 1591,
      "ဖၤ": 1592,
      "ဒီးကစၢ်ယွၤ": 1593,
      "န့ၣ်တဂ့ၤ": 1594,
      "ဘၣ်သး": 1595,
      "ယၤတက့ၢ်": 1596,
      "စီၤယဟိ": 1597,
      "ပိာ်ထွဲ": 1598,
      "ပှၤတဂၤလၢ်လၢ်လၢအ": 1599,
      "အဖိခွါစီၤ": 1600,
      "တခီဘီမုၢ်": 1601,
      "ကြၢး": 1602,
      "အလီၢ်န့ၣ်လီၤ": 1603,
      "စီၤယိၤဟၣ်": 1604,
      "တဲး": 1605,
      "တၢ်တ": 1606,
      "ဒီးအဝဲဒၣ်": 1607,
      "မ့ၢ်တၢ်လၢအ": 1608,
      "ယူးယီၣ်": 1609,
      "အဘီအမုၢ်": 1610,
      "တသီ": 1611,
      "အလုၢ်အ": 1612,
      "ကွံာ်ပှၤ": 1613,
      "ဒီးအဖိခွါ": 1614,
      "သၣ်ဝံၤ": 1615,
      "အဒူၣ်ထၢ": 1616,
      "ဟုဧိၤ": 1617,
      "ကဟၣ်": 1618,
      "မၣ်": 1619,
      "ဟူး": 1620,
      "သးထီၣ်": 1621,
      "က့ၤနာ်က့ၤ": 1622,
      "ကျိၤ": 1623,
      "နၤလၢ": 1624,
      "တၢ်အီၣ်တၢ်အီ": 1625,
      "ပ့ၤနီၣ်": 1626,
      "ရိ": 1627,
      "အဒုၣ်": 1628,
      "ဖှံသးညီ": 1629,
      "ကိးမံၤဒဲး": 1630,
      "တဲးလဲး": 1631,
      "ဃၤ": 1632,
      "တဘၣ်တၢ်": 1633,
      "လၢထီၣ်ပှဲၤ": 1634,
      "လီၤဝဲ": 1635,
      "ဒၣ်ထဲ": 1636,
      "တုၤလီၤ": 1637,
      "စံးဆၢအီၤ": 1638,
      "တြီၤ": 1639,
      "ကဲၤထီၣ်": 1640,
      "အဒိၣ်ကတၢၢ်": 1641,
      "ဖၢမုၢ်": 1642,
      "ကကဲထီၣ်": 1643,
      "တဖၣ်အလိၤ": 1644,
      "သးဟ့": 1645,
      "လၢယ့ၣ်ၡူး": 1646,
      "လီၤဆဲး": 1647,
      "ဘၣ်သ့ၣ်သ့ၣ်": 1648,
      "ဂ့ၤဂ့ၤ": 1649,
      "အသးသမူ": 1650,
      "လံတၢ်": 1651,
      "ဒီးပှၤလုၢ်တၢ်အခိၣ်": 1652,
      "နိၣ်": 1653,
      "တဂၤလီၤ": 1654,
      "ဟ့ၣ်အီၤ": 1655,
      "ဧိၤဟုဧိၤ": 1656,
      "ဆိကတၢၢ်": 1657,
      "ခုသးခု": 1658,
      "စူၢ်က့ၤနာ်က့ၤ": 1659,
      "ဒုၣ်ဒွဲၣ်": 1660,
      "တနၢ်": 1661,
      "အဖိမုၣ်": 1662,
      "ဘျါက့ၤ": 1663,
      "တဂၤလၢ": 1664,
      "တဂၤဂၤ": 1665,
      "မဲာ်တဲးလဲး": 1666,
      "အဒုၣ်အဒါ": 1667,
      "ကံၣ်": 1668,
      "ဘုၣ်": 1669,
      "တၢ်တဖၣ်": 1670,
      "ဒီးနီၢ်": 1671,
      "မၤကမၣ်": 1672,
      "ယၤမံၣ်": 1673,
      "လၢအဝဲဒၣ်": 1674,
      "အစုပူၤ": 1675,
      "အဂ့ၤကတၢၢ်": 1676,
      "အိၣ်ဝဲလၢ": 1677,
      "မူဒါ": 1678,
      "လ့ၣ်ကဟၣ်": 1679,
      "ကမၢကမၣ်": 1680,
      "ဃိာ်": 1681,
      "စီၤနၤ": 1682,
      "အတၢ်လုၢ်ဟံၣ်": 1683,
      "ပာ်သူၣ်ပာ်သး": 1684,
      "ဘၣ်ဃးဒီးတၢ်": 1685,
      "အခါန့ၣ်လီၤ": 1686,
      "ထူၣ်ဖျဲး": 1687,
      "တကးဒံးဘၣ်": 1688,
      "ထါ": 1689,
      "သ့ၣ်စၤ": 1690,
      "ဆူပှၤ": 1691,
      "ကွံာ်အဝဲသ့ၣ်": 1692,
      "ဘျး": 1693,
      "ဟံၣ်ဖိဃီဖိ": 1694,
      "ပှၤတဂၤဂၤ": 1695,
      "ကံၢ်": 1696,
      "ဖိး": 1697,
      "ယၣ်": 1698,
      "မုၢ်ဆ့ၣ်": 1699,
      "ယၤဒီး": 1700,
      "ဒၣ်ယဲ": 1701,
      "ကဘၣ်တၢ်မၤ": 1702,
      "တံၤသကိး": 1703,
      "ကြ": 1704,
      "ကလး": 1705,
      "ဘိၣ်": 1706,
      "တၢ်လၢန": 1707,
      "လီၤပှီၢ်": 1708,
      "ဘၣ်ထွဲ": 1709,
      "ဟဲက့ၤကဒါက့ၤ": 1710,
      "ထံကျိယၢ်ဒ့ၣ်": 1711,
      "သန့ၤ": 1712,
      "နၤဧၣ်": 1713,
      "ကပၤ": 1714,
      "နုၢ်": 1715,
      "ဝီ": 1716,
      "ဟီ": 1717,
      "အဝဲတ": 1718,
      "န့ၢ်သါ": 1719,
      "ဆၢၣ်": 1720,
      "ယဒါ": 1721,
      "ၡဲ": 1722,
      "သးပှၢ်": 1723,
      "ကလိ": 1724,
      "ခီဖျိတၢ်": 1725,
      "ဂီၤတၢ်ဖီၣ်": 1726,
      "ဒ်သိးအ": 1727,
      "အၢအသီ": 1728,
      "ဆ့ဆ့": 1729,
      "သ့ၣ်စၤယံး": 1730,
      "ခုၣ်": 1731,
      "ထိ": 1732,
      "နတ": 1733,
      "သးပ့ၤနီၣ်": 1734,
      "အီၤတက့ၢ်": 1735,
      "တ့ၢ်သု": 1736,
      "လၢာ်လၢာ်": 1737,
      "ကတိၤတၢ်ဒီး": 1738,
      "မၢကဲကုၢ်": 1739,
      "ထူလီၤ": 1740,
      "နပှၤ": 1741,
      "မျ": 1742,
      "ယိး": 1743,
      "အိၣ်ဒံး": 1744,
      "ယွၤစံးဝဲဒၣ်": 1745,
      "ကွဲ": 1746,
      "ဒီးအပှၤ": 1747,
      "တုၤလၢ": 1748,
      "တ့လီၤ": 1749,
      "ကဟ့ၣ်": 1750,
      "ကဘီ": 1751,
      "အတၢ်ဒဲးဘး": 1752,
      "ကမၤစၢၤ": 1753,
      "ဒဲစီဆှံ": 1754,
      "ဘုဧိၤဟုဧိၤ": 1755,
      "ဖျဲၣ်ထီၣ်": 1756,
      "မှ": 1757,
      "မဲး": 1758,
      "အနီၢ်ကစၢ်": 1759,
      "ပှၤဂၤ": 1760,
      "လၢအဂ့ၤ": 1761,
      "မုၢ်တနံၤ": 1762,
      "ဒိၣ်န့ၢ်ဒံး": 1763,
      "သွၣ်": 1764,
      "ိအၤ": 1765,
      "ူဒၤ": 1766,
      "လီၤသး": 1767,
      "လီၤလး": 1768,
      "သံဝဲ": 1769,
      "သူၣ်ဒဲ": 1770,
      "နးတၢ်ဖှီၣ်": 1771,
      "မီၢ်": 1772,
      "မၤနး": 1773,
      "အဝဲသ့ၣ်တ": 1774,
      "ဒီးတၢ်သူၣ်": 1775,
      "စီၤအလံၤ": 1776,
      "တၤသၣ်": 1777,
      "သၢဂၤ": 1778,
      "ဒီဘ့ၣ်ညါ": 1779,
      "တၢ်တီၤ": 1780,
      "ဒီဒၣ်": 1781,
      "စီၤစ": 1782,
      "တကယၤ": 1783,
      "လၢသုဂီၢ်": 1784,
      "မ့မ့ၢ်ဒ်န့ၣ်ဒီး": 1785,
      "ကပြ": 1786,
      "ဃ့ဘါထုကဖၣ်": 1787,
      "စံးဆၢဝဲဒၣ်": 1788,
      "ပိာ်မုၣ်န့ၣ်": 1789,
      "သံကွၢ်အီၤ": 1790,
      "ကိၢ်တၢ်ဂီၤ": 1791,
      "အိၣ်ဒီးအဖိခွါ": 1792,
      "လူ": 1793,
      "ပှိၤ": 1794,
      "ကစၢ်ဧၢ": 1795,
      "ပှၤအၢ": 1796,
      "ဝံသးစူၤ": 1797,
      "စူၤရံ": 1798,
      "ညိကွံာ်": 1799,
      "ကမ့ၢ်": 1800,
      "တ့ၢ်ယၤ": 1801,
      "အီၣ်တၢ်": 1802,
      "စ့ၢ်ကီးလီၤ": 1803,
      "နီၤဖး": 1804,
      "က့ၢ်": 1805,
      "အိး": 1806,
      "အီၤလၢအ": 1807,
      "ယွၤအသး": 1808,
      "ဒၣ်နဲ": 1809,
      "အဂီၢ်ဒီး": 1810,
      "ၢၣ်စၢၤ": 1811,
      "အကပၤ": 1812,
      "ရှ": 1813,
      "သဒၢ": 1814,
      "အစိၤ": 1815,
      "ပှၤတဖၣ်လၢအ": 1816,
      "ပှၤဖလ့ၡသး": 1817,
      "အသိးန့ၣ်တက့ၢ်": 1818,
      "သ့ဝဲလီၤ": 1819,
      "သူၣ်ဘၣ်သး": 1820,
      "သုးဖိတဖၣ်": 1821,
      "ဂုၤ": 1822,
      "နံ": 1823,
      "ယသ့ၣ်ညါ": 1824,
      "လွဲ": 1825,
      "အဝဲမၤ": 1826,
      "ဖိမုၣ်": 1827,
      "တဂၤန့ၣ်လီၤ": 1828,
      "ကမၤအသး": 1829,
      "တမံၤလၢ်လၢ်": 1830,
      "စၢဃာ်": 1831,
      "ပှၤပိာ်ခွါ": 1832,
      "တနာ်": 1833,
      "ဃ့ကညး": 1834,
      "လၢကီၢ်ယူဒၤ": 1835,
      "ထူးတၢ်တီၤ": 1836,
      "ရှလ့ၣ်": 1837,
      "ကဖၢ": 1838,
      "စါ": 1839,
      "သက": 1840,
      "ဒီးဟ့ၣ်လီၤ": 1841,
      "အတြဲၤ": 1842,
      "ရး": 1843,
      "အဘျုး": 1844,
      "အယိာ်": 1845,
      "ပှၤဟီၣ်ခိၣ်ဖိ": 1846,
      "အတလါ": 1847,
      "အဖီခိၣ်န့ၣ်လီၤ": 1848,
      "ဖီၣ်န့ၢ်": 1849,
      "လၢာ်လၢာ်ဆ့ဆ့": 1850,
      "ထူလီၤယိာ်": 1851,
      "ဒီးစီၤပၤ": 1852,
      "အဂီၢ်တက့ၢ်": 1853,
      "တၢ်မၤအသး": 1854,
      "ယီၢ်": 1855,
      "တၢ်သး": 1856,
      "တၢ်သံ": 1857,
      "မ့း": 1858,
      "ထဲလဲၣ်": 1859,
      "လီတၢ်": 1860,
      "ယရူၤရှလ့ၣ်": 1861,
      "နၢ်ဟူဘၣ်": 1862,
      "ကံးလ": 1863,
      "ပီး": 1864,
      "တၢ်လိၤ": 1865,
      "ဒီခိၣ်": 1866,
      "လီၤပျံၤ": 1867,
      "ဘၣ်အသး": 1868,
      "လၢအမၤ": 1869,
      "အဃံ": 1870,
      "ယဲဒၣ်": 1871,
      "ကွံာ်အီၤန့ၣ်လီၤ": 1872,
      "မှံၤ": 1873,
      "ရံၣ်": 1874,
      "လၢထံ": 1875,
      "တၢ်ကွံ": 1876,
      "ပှၤသီ": 1877,
      "လံတၢ်လံ": 1878,
      "နမၤ": 1879,
      "ပစိာ်": 1880,
      "န့ၣ်အဝဲ": 1881,
      "မ့ၢ်ပှၤလၢအ": 1882,
      "ယွၤပၢဘၣ်တၢ်ခဲလၢာ်ကစၢ်": 1883,
      "အဂီၢ်န့ၣ်တက့ၢ်": 1884,
      "သူၣ်လီၤ": 1885,
      "ပှ့ၤဒိၣ်": 1886,
      "လီၤဂာ်ဒီး": 1887,
      "မနၤၡ": 1888,
      "ထွ": 1889,
      "ဒကဲၤ": 1890,
      "ဧ့": 1891,
      "လီၤဖုး": 1892,
      "ထီၣ်ထီ": 1893,
      "လၢဝ့ၢ်ယရူၤၡလ့ၣ်": 1894,
      "မၢ်ဒကဲၤ": 1895,
      "လီၤဂာ်ဒ်": 1896,
      "တိၢ်ဘီ": 1897,
      "စီၤအဘံ": 1898,
      "ကလဲၤ": 1899,
      "စိၢ်": 1900,
      "မိး": 1901,
      "အပျၢ်": 1902,
      "တဖၣ်တက့ၢ်": 1903,
      "လၢအပှဲၤ": 1904,
      "အပျဲၢ်အဘီၣ်တဖၣ်": 1905,
      "အလုၢ်အလၢ်": 1906,
      "နအိၣ်": 1907,
      "တဖၣ်မ့ၢ်ဂ့ၤ": 1908,
      "လၢအလီၢ်": 1909,
      "ထီၣ်ဒီး": 1910,
      "အဝဲအတၢ်": 1911,
      "ကွီၤ": 1912,
      "ကူၣ်တၢ်": 1913,
      "လဲၤနုာ်ဆူ": 1914,
      "နီတဘျီဘၣ်": 1915,
      "သွၣ်ခိၣ်": 1916,
      "ပှၤအၢပှၤသီ": 1917,
      "ကံ": 1918,
      "တကြၢး": 1919,
      "ပှၤအဲၤကူပတူး": 1920,
      "အါမး": 1921,
      "ကူတၢ်": 1922,
      "သၢဆံ": 1923,
      "ဘြံၤ": 1924,
      "လၢဟီၣ်ခိၣ်ချၢ": 1925,
      "ပာ်ထီၣ်ထီ": 1926,
      "စီၤနိအၤ": 1927,
      "ယပှၤ": 1928,
      "မ်ပ": 1929,
      "ဘံၣ်ယၤမံၣ်": 1930,
      "လီၤတံၢ်လီၤဆဲး": 1931,
      "ဟုၣ်": 1932,
      "ဘၣ်လီၤ": 1933,
      "လၢအသံ": 1934,
      "လၢအလိၤ": 1935,
      "အသးအိၣ်": 1936,
      "ဟ့ၣ်တၢ်": 1937,
      "ကတိၤလံတၢ်လံ": 1938,
      "တရီ": 1939,
      "မၤဟးဂီၤကွံာ်": 1940,
      "မ့ၢ်ဒၣ်": 1941,
      "အဝဲသ့ၣ်အ": 1942,
      "အဝဲသ့ၣ်မၤ": 1943,
      "ဟဲနုာ်": 1944,
      "ကဘၣ်မၤ": 1945,
      "ဃုာ်ဒီးအ": 1946,
      "ထံၣ်ဘၣ်ဝဲ": 1947,
      "မရံ": 1948,
      "ရူၢ်": 1949,
      "ယွၤအံၤ": 1950,
      "ယၤန့ၣ်လီၤ": 1951,
      "အါန့ၢ်": 1952,
      "မၤသံကွံာ်": 1953,
      "အဘၢၣ်စၢၤ": 1954,
      "က့ၤကဒါက့ၤဆူ": 1955,
      "စီၤယိၤအာ်": 1956,
      "ယမၤ": 1957,
      "ယစံး": 1958,
      "အစိကမီၤ": 1959,
      "လီၤက": 1960,
      "မ့ၢ်တ": 1961,
      "အတၢ်လုၢ်": 1962,
      "ၤၡူၢ်": 1963,
      "ဃီၣ်": 1964,
      "အံၤစဲး": 1965,
      "ဖဲန့ၣ်လီၤ": 1966,
      "တဂၤလဲၣ်": 1967,
      "ပာ်စီဆှံ": 1968,
      "ဒိၣ်န့ၢ်": 1969,
      "လဲၤဒီး": 1970,
      "စီၤယိ": 1971,
      "တၢ်မၤစၢၤ": 1972,
      "အိၣ်ဝဲဒၣ်": 1973,
      "ထဲတဂၤဧိၤ": 1974,
      "ဝံၤအလီၢ်ခံန့ၣ်": 1975,
      "အချၢ": 1976,
      "မနၤၡ့ၤ": 1977,
      "ယွၤသ့တၢ်လၢာ်": 1978,
      "တက့ၢ်လီၤ": 1979,
      "အဃၢၤ": 1980,
      "ကထါ": 1981,
      "လီၣ်ဖျါထီၣ်": 1982,
      "ဃဲ": 1983,
      "သဒၣ်": 1984,
      "ံၤသကိး": 1985,
      "ံးစ": 1986,
      "မ့ၢ်သု": 1987,
      "အတၢ်ကမၣ်": 1988,
      "ဘါဆူၣ်": 1989,
      "ယဲၢ်ဆံ": 1990,
      "ဃးနၤ": 1991,
      "ပျံၤတၢ်": 1992,
      "အလိၤန့ၣ်လီၤ": 1993,
      "ဝဲဒၣ်န့ၣ်လီၤ": 1994,
      "ဖှီၣ်ဖိ": 1995,
      "ပာ်ဖျါထီၣ်ဝဲ": 1996,
      "တစိၤ": 1997,
      "လုး": 1998,
      "ဂီၢ်ဂီၢ်": 1999,
      "ဒိၣ်ဒိၣ်": 2000,
      "ဖျိး": 2001,
      "ဟ့ၣ်ပလီၢ်": 2002,
      "မူဝဲ": 2003,
      "ခဲလၢာ်န့ၣ်": 2004,
      "တီတၢ်လိၤ": 2005,
      "နၤဧမံ": 2006,
      "စူး": 2007,
      "ဝ့": 2008,
      "အသ": 2009,
      "အလံၤ": 2010,
      "တၢ်အိၣ်": 2011,
      "မ့ၢ်ယ": 2012,
      "မ့ၢ်လၢအဝဲ": 2013,
      "အံၤန့ၣ်လီၤ": 2014,
      "ဖဲပ": 2015,
      "ကျၢၢ်": 2016,
      "တၢ်မၤနၢၤ": 2017,
      "ဟ့ၣ်လီၤအကလုၢ်": 2018,
      "ဒီးစီၤမိၤၡ့": 2019,
      "ထိၣ်ဂဲၤ": 2020,
      "အံၣ်စရ့လးအကစၢ်ယွၤ": 2021,
      "ဆူယွၤအအိၣ်": 2022,
      "ခူၣ်လီၤ": 2023,
      "ပြ": 2024,
      "အမူး": 2025,
      "အဆိကတၢၢ်": 2026,
      "ဧၣ်": 2027,
      "တၢ်စံၣ်ညီၣ်": 2028,
      "လၢအတ": 2029,
      "ဟဲဝဲ": 2030,
      "အဒူၣ်ဖိထၢဖိ": 2031,
      "စံာ်ပျီ": 2032,
      "မိၢ်ပၢ်ဖံဖုလၢပျၢၤတဖၣ်": 2033,
      "တၢး": 2034,
      "အဝၤ": 2035,
      "လီၤဒိ": 2036,
      "လၢအပူၤ": 2037,
      "တကျ": 2038,
      "ဆူကီၢ်": 2039,
      "တ့ၢ်ပှၤ": 2040,
      "ကပၢ": 2041,
      "ဒၢနုာ်": 2042,
      "ကသ့ဒ်လဲၣ်": 2043,
      "လၢခံကတၢၢ်": 2044,
      "တဒူၣ်": 2045,
      "ပသ့ၣ်ညါ": 2046,
      "တၢ်ယာ်": 2047,
      "အံၤအဃိ": 2048,
      "အဝဲသ့ၣ်မ့ၢ်": 2049,
      "အဝဲသ့ၣ်ခဲလၢာ်": 2050,
      "လၢနဂီၢ်": 2051,
      "လၢပီၣ်လဲၣ်": 2052,
      "လၢတၢ်လုၢ်လီၢ်": 2053,
      "အဂံၢ်အဘါ": 2054,
      "ကယ": 2055,
      "ဃ့ၣ်": 2056,
      "နပှၤဂီၢ်မုၢ်": 2057,
      "တၢ်ဖိ": 2058,
      "တၢ်မၢ": 2059,
      "ကစီ": 2060,
      "ဒိၣ်ပှ့ၤဒိၣ်": 2061,
      "လဲၤတုၤ": 2062,
      "ဒ်သိးယက": 2063,
      "ဂံၢ်ဆူၣ်": 2064,
      "ဃၣ်ကွံာ်": 2065,
      "ကစၢၢ်ကလိ": 2066,
      "အဆၢကတီၢ်န့ၣ်": 2067,
      "အကျဲစၢၤ": 2068,
      "ပှၤအါဂၤ": 2069,
      "တယံာ်": 2070,
      "လၢပှၤဂီၢ်မုၢ်": 2071,
      "စီၤမၢ်ဒကဲၤ": 2072,
      "ဟ့ၣ်ယၤ": 2073,
      "နီၢ်ဃးနၤ": 2074,
      "လၢပှၤကညီ": 2075,
      "ထဲသိး": 2076,
      "ကူၣ်ဘၣ်": 2077,
      "စိၤလီၤ": 2078,
      "ဆံးစၢ်": 2079,
      "ဘိးဘၣ်": 2080,
      "ယဖိခွါ": 2081,
      "ဒီးပှၤဂီၢ်မုၢ်": 2082,
      "တဖၣ်ဒီးတၢ်": 2083,
      "မုၢ်မဆါတနံၤအံၤ": 2084,
      "ခိၣ်ဒူ": 2085,
      "က့ၤဆူ": 2086,
      "ပျၤ": 2087,
      "လံန့ၣ်လီၤ": 2088,
      "ထီၣ်ဝဲလီၤ": 2089,
      "ခ့ယုၢ်": 2090,
      "တပူၤဃီ": 2091,
      "စီၤအလံၤၡါ": 2092,
      "ဒီးအိၣ်": 2093,
      "ပှၤမၤ": 2094,
      "ယွၤမၤလိာ်": 2095,
      "အဝဲသ့ၣ်န့ၣ်လီၤ": 2096,
      "ကမဲ": 2097,
      "ဘျ့": 2098,
      "လိာ်သး": 2099,
      "စီၤအ့ၤ": 2100,
      "တီသး": 2101,
      "အခိၣ်အနၢ်တဖၣ်": 2102,
      "ဖရဲၣ်": 2103,
      "အအံၤမ့ၢ်တၢ်": 2104,
      "၁၁": 2105,
      "တဖၣ်န့ၣ်တက့ၢ်": 2106,
      "သုအိၣ်": 2107,
      "န့ၢ်ပှၤ": 2108,
      "စိာ်မၢကဲကုၢ်": 2109,
      "ခီၣ်ခိၣ်": 2110,
      "နံၣ်တနံၣ်": 2111,
      "လွံၢ်ဆံ": 2112,
      "စံးထီၣ်ပတြၢၤယွၤ": 2113,
      "ၡၤမရံ": 2114,
      "ဖှီၣ်ဖိယာ်": 2115,
      "သတူၢ်": 2116,
      "အထူ": 2117,
      "ၡံ": 2118,
      "လၢကီၢ်အံၣ်စရ့လး": 2119,
      "လီၤအသးလၢ": 2120,
      "လီၤဃံၤ": 2121,
      "န့ၣ်ဘၣ်တၢ်": 2122,
      "သုဘၣ်": 2123,
      "သ့ၣ်ညါဝဲ": 2124,
      "စီၤၡံ": 2125,
      "လီခီ": 2126,
      "နဲဒၣ်": 2127,
      "စံၣ်တဲၤတဲလီၤ": 2128,
      "စဲၤ": 2129,
      "လံး": 2130,
      "အံး": 2131,
      "ပှၤတနီၤ": 2132,
      "အဝဲကဘၣ်": 2133,
      "ကတူၢ်": 2134,
      "နၤသၣ်": 2135,
      "ဒ်သိးအံၤ": 2136,
      "စုလီၢ်": 2137,
      "သိဖါ": 2138,
      "စၤရ": 2139,
      "ချ့ချ့": 2140,
      "ဆူးတၢ်ဆါ": 2141,
      "ဟီထီၣ်ကွံာ်": 2142,
      "သံး": 2143,
      "မ့ၢ်လၢအဝဲသ့ၣ်": 2144,
      "သုလၢ": 2145,
      "လၢတၢ်သံ": 2146,
      "တဂၤအသိး": 2147,
      "ပာ်တ့ၢ်": 2148,
      "နၤဒီး": 2149,
      "ကိးအီၤလၢ": 2150,
      "တံာ်တာ်": 2151,
      "ကဒုး": 2152,
      "ဘၣ်ဒိ": 2153,
      "ဘၣ်ထံး": 2154,
      "ဘၣ်သူၣ်ဘၣ်သး": 2155,
      "တဖၣ်အိၣ်": 2156,
      "အိၣ်ပှိၤ": 2157,
      "ဆူယအိၣ်": 2158,
      "ဘၣ်တၢ်မၤသံ": 2159,
      "တၢ်အၢၣ်": 2160,
      "ဆှုၣ်": 2161,
      "သီတသီ": 2162,
      "ယူဒၤဖိတဖၣ်": 2163,
      "မ်အ": 2164,
      "နံး": 2165,
      "အထူၣ်": 2166,
      "အဖၢမုၢ်": 2167,
      "တဖၣ်ဒီးပှၤ": 2168,
      "လၢအဟဲ": 2169,
      "နီတစဲး": 2170,
      "လံၤလံၤ": 2171,
      "ပှၤတတီတလိၤ": 2172,
      "ဘိးဘၣ်သ့ၣ်ညါ": 2173,
      "ၡိၣ်": 2174,
      "ဒီးလၢတၢ်": 2175,
      "န့ၣ်တ": 2176,
      "ိၤဧး": 2177,
      "ကွဲၤ": 2178,
      "တကထိ": 2179,
      "အတၢ်နာ်": 2180,
      "တဂၤဂ့ၤ": 2181,
      "ဖှီ": 2182,
      "အကျိာ်": 2183,
      "မံမီၢ်": 2184,
      "ဆံးဒိၣ်": 2185,
      "ဟဲက့ၤစိာ်": 2186,
      "အဟံၣ်ဖိဃီဖိ": 2187,
      "သ့ၣ်နီၣ်ထီၣ်": 2188,
      "သတူၢ်ကလာ်": 2189,
      "တၢ်ဆူ": 2190,
      "ဒီးအီၣ်": 2191,
      "လၢအအိၣ်လၢ": 2192,
      "လၢအအိၣ်ဒီး": 2193,
      "စ့ၢ်ကီးဧါ": 2194,
      "ဝဲဒၣ်လီၤ": 2195,
      "သမူထီၣ်က့ၤ": 2196,
      "ထးခိၣ်": 2197,
      "ဧ့ၤဘြံၤ": 2198,
      "အပူၤတက့ၢ်": 2199,
      "လံၢ်": 2200,
      "ပှၤအုၣ်": 2201,
      "သံကွၢ်ဝဲ": 2202,
      "ကီၤလံၢ်": 2203,
      "ကနၤဧၣ်": 2204,
      "ၡၣ်": 2205,
      "ဒီးဘၣ်တၢ်": 2206,
      "ဒ်န": 2207,
      "ဖှူ": 2208,
      "ဟီၣ်တၢ်": 2209,
      "ထီၣ်ဝဲဒၣ်": 2210,
      "ကဘၣ်တၢ်မၤသံ": 2211,
      "စီၤအၤဃာ်": 2212,
      "အါအါဂီၢ်ဂီၢ်": 2213,
      "လီၤမၢ်ကွံာ်": 2214,
      "သၣ်ဝံၤလီၤဒိ": 2215,
      "ဆံးဒိၣ်လဲၣ်": 2216,
      "ဂၢၤ": 2217,
      "ရၢ": 2218,
      "သဂၢၢ်": 2219,
      "လီၤဆူ": 2220,
      "အဝဲသ့ၣ်လဲၤ": 2221,
      "ပာ်စၢၤ": 2222,
      "သ့ဝဲ": 2223,
      "နီၢ်နၤဧမံ": 2224,
      "လိၤလိၤ": 2225,
      "အလီၢ်န့ၣ်": 2226,
      "မုၣ်ကီၤလံၢ်": 2227,
      "တဲဝဲလၢ": 2228,
      "တီအလိၤ": 2229,
      "ဆူၣ်ထီၣ်": 2230,
      "ဃ့ထီ": 2231,
      "တခီန့ၣ်လီၤ": 2232,
      "ဒုၣ်ယဒါ": 2233,
      "ဆၣ်ဖိကီၢ်ဖိတဖၣ်": 2234,
      "ဘူၣ်ထီၣ်ဘါထီၣ်ယွၤ": 2235,
      "ဂီၤဖံးဖါ": 2236,
      "လၢပှဲၤပှဲၤ": 2237,
      "စိၤလီၤထီ": 2238,
      "ပှၤအိၣ်": 2239,
      "တဖၣ်အအိၣ်": 2240,
      "ခိၣ်ပှၤ": 2241,
      "အသးလၢအ": 2242,
      "အသးဆူ": 2243,
      "ဟ့ၣ်လီၤသု": 2244,
      "ဒိးန့ၢ်ဘၣ်တၢ်": 2245,
      "တၢ်ဒိၣ်": 2246,
      "တၢ်ဟ့ၣ်": 2247,
      "တၢ်မနုၤလဲၣ်": 2248,
      "ဒီးဟ့ၣ်": 2249,
      "ဒီးတုၤ": 2250,
      "သးဒိၣ်": 2251,
      "အဝဲအံၤ": 2252,
      "အီၤဖဲ": 2253,
      "ထၢဖှိၣ်": 2254,
      "အတဲာ်": 2255,
      "မၢ်သၤ": 2256,
      "ကံးယာ်": 2257,
      "စံယိၣ်": 2258,
      "ပှၤလ့ၤဝံဖိတဖၣ်": 2259,
      "ကိးပသူထီၣ်": 2260,
      "၁၂": 2261,
      "ဒီးခဲကနံၣ်အံၤ": 2262,
      "တဖၣ်ဒီးအ": 2263,
      "ဖဲယ့ၣ်ၡူး": 2264,
      "အလီၢ်ကဝီၤ": 2265,
      "ပှၤတဂၤန့ၣ်": 2266,
      "တဆံခံ": 2267,
      "ထုးထီၣ်": 2268,
      "ကဘျၣ်": 2269,
      "ံးစကံယၤ": 2270,
      "တနၤ": 2271,
      "သပၢၤ": 2272,
      "သရၣ်": 2273,
      "အကတၢၢ်": 2274,
      "လၢလာ်": 2275,
      "ဒီးကီၢ်": 2276,
      "ဒီးစီၤယၤ": 2277,
      "အနီၢ်ကစၢ်ဒၣ်ဝဲ": 2278,
      "စုလီၢ်ခီၣ်ခိၣ်": 2279,
      "မၤပူၤဖျဲး": 2280,
      "နီၢ်မၢ်သၤ": 2281,
      "့းဘ့း": 2282,
      "အန့ၣ်တစု": 2283,
      "စပံးလီၢ်": 2284,
      "လွဲၢ်": 2285,
      "ယဲဒၣ်အံၤ": 2286,
      "ဟီၣ်တၢ်ယၢၤ": 2287,
      "ဝၢ်": 2288,
      "ဒီးဟီၣ်ခိၣ်": 2289,
      "သးစီဆှံ": 2290,
      "အဝဲသ့ၣ်လၢတၢ်": 2291,
      "စံးဘျုး": 2292,
      "က့ၤအီၤ": 2293,
      "အဃိန့ၣ်": 2294,
      "ပှၤအခိၣ်": 2295,
      "မဲာ်ချံ": 2296,
      "စီၤအး": 2297,
      "ယကဟ့ၣ်": 2298,
      "ပျံၤမၤ": 2299,
      "ဒၣ်လဲာ်န့ၣ်": 2300,
      "တူၢ်ဘၣ်": 2301,
      "အမဲာ်ညါန့ၣ်လီၤ": 2302,
      "ဒုၣ်ဒါ": 2303,
      "မျၢ်": 2304,
      "တပူ": 2305,
      "နကဘၣ်": 2306,
      "ပကဘၣ်": 2307,
      "ၡး": 2308,
      "သုလီၤ": 2309,
      "ကတုၤ": 2310,
      "အဃၣ်": 2311,
      "ကစၢ်ယွၤလၢအ": 2312,
      "အဂ့ၢ်ဒ်လဲၣ်န့ၣ်": 2313,
      "မုၣ်ကမဲ": 2314,
      "အါန့ၢ်ဒံး": 2315,
      "တၢ်လၢယွၤ": 2316,
      "တိၢ်န့ၢ်": 2317,
      "ဧၣ်မိၣ်": 2318,
      "ကစီဒီ": 2319,
      "ကသံ": 2320,
      "ကပိာ်": 2321,
      "အထီ": 2322,
      "အအံၤမ့ၢ်": 2323,
      "၁၈": 2324,
      "တၢ်န့ၣ်လီၤ": 2325,
      "လၢအမ့ၢ်တၢ်": 2326,
      "ဒ်သိးသု": 2327,
      "သ့ၣ်ညါဘၣ်": 2328,
      "ကနၢ်": 2329,
      "စိာ်တၢ်ကစီၣ်": 2330,
      "မ့ၣ်အူဒၢ": 2331,
      "တဂၤဒီးတဂၤ": 2332,
      "ယထံၣ်": 2333,
      "တၢ်မ့ၢ်တၢ်တီ": 2334,
      "မၤလိ": 2335,
      "လၢအဘၣ်": 2336,
      "လဲလိာ်": 2337,
      "လၢတၢ်က": 2338,
      "သူၣ်ဖှံသးညီ": 2339,
      "ဒ်သိးကမၤ": 2340,
      "ကွၢ်သိ": 2341,
      "တမံၤအံၤ": 2342,
      "ကနိး": 2343,
      "အၢမၤနး": 2344,
      "ဟံးထီၣ်": 2345,
      "ထွဲကွၢ်ထွဲ": 2346,
      "ဘှီၣ်": 2347,
      "ဆိၣ်ကဲၤ": 2348,
      "လၢပဂီၢ်": 2349,
      "အဖီခိၣ်လီၤ": 2350,
      "ဝဲၢ်ကိ": 2351,
      "ခ့တၢ်": 2352,
      "အကစၢ်ဒၣ်ဝဲ": 2353,
      "ပာ်ဖျါထီၣ်ဝဲလၢ": 2354,
      "ဘူၣ်တၢ်ဘါအတၢ်သိၣ်တၢ်သီ": 2355,
      "သနၢၣ်": 2356,
      "ပကစၢ်ယွၤ": 2357,
      "အဆၢ": 2358,
      "အဒီပုၢ်ဝဲၢ်": 2359,
      "အလၤကပီၤ": 2360,
      "တ့ၢ်ဝဲလၢ": 2361,
      "တ့ၢ်အီၤလၢ": 2362,
      "ခွံ": 2363,
      "အကူ": 2364,
      "ဆူၣ်ဆူၣ်": 2365,
      "ဆူဝ့ၢ်ယရူၤၡလ့ၣ်": 2366,
      "လီၤပြါ": 2367,
      "တပါ": 2368,
      "လီၤပျံၤလီၤဖုး": 2369,
      "နိာ်": 2370,
      "ဒီးမ့ၢ်": 2371,
      "ပှၤလိၤ": 2372,
      "တဖၣ်အဂီၢ်န့ၣ်လီၤ": 2373,
      "သးဒူ": 2374,
      "ယွၤက": 2375,
      "တဂၤဘၣ်": 2376,
      "ပာ်ကဖၢ": 2377,
      "ကျီၢ်": 2378,
      "န့ၢ်သု": 2379,
      "လဲၤဝဲဆူ": 2380,
      "လဲၣ်န့ၣ်": 2381,
      "ခဲလၢာ်လၢ": 2382,
      "သူၣ်ခုသးခု": 2383,
      "လၢယမ့ၢ်": 2384,
      "ထံၣ်လၢညါ": 2385,
      "ဖးထီ": 2386,
      "ကီၢ်အံၣ်စရ့လးအစီၤပၤ": 2387,
      "သးခုကစီၣ်": 2388,
      "အမုၢ်နံၤ": 2389,
      "စီၤဟၤ": 2390,
      "ကသ့ၣ်ယီၤ": 2391,
      "ခွဲးတၢ်ယာ်": 2392,
      "ပျံၤမၤဖုး": 2393,
      "တိၤ": 2394,
      "ဘူ": 2395,
      "တၢ်ကီတၢ်ခဲ": 2396,
      "ဒီးဖဲန့ၣ်": 2397,
      "ဘၣ်ဧါ": 2398,
      "ကွံာ်အီၤလၢ": 2399,
      "သူၣ်အုးသးအုး": 2400,
      "စီၤယူဒၤ": 2401,
      "ဝံတဖၣ်": 2402,
      "ဒုးအိၣ်ထီၣ်": 2403,
      "စီၤအ့ၤလံယၤ": 2404,
      "တမ့ၢ်တၢ်": 2405,
      "ံလီၤပြါ": 2406,
      "ဒီးတၢ်အ": 2407,
      "လၢအစု": 2408,
      "အဝဲသ့ၣ်လီၤ": 2409,
      "ပှၤဂီၢ်မုၢ်တဖၣ်": 2410,
      "ဘူးထီၣ်": 2411,
      "ကညီၤသးကညီၤ": 2412,
      "ကီၢ်ယူဒၤအစီၤပၤ": 2413,
      "စီၤဘိၤဧး": 2414,
      "အတီၢ်ပူၤ": 2415,
      "ကူတၢ်သိး": 2416,
      "ဂံၢ်ဆူၣ်ဘါဆူၣ်": 2417,
      "ဘလး": 2418,
      "အကလူး": 2419,
      "အဒီပုၢ်ဝဲၢ်ခွါ": 2420,
      "တၢ်က": 2421,
      "တၢ်လၢတၢ်": 2422,
      "ဒ်ယ": 2423,
      "အဃိဒီး": 2424,
      "လဲၤခီဖျိ": 2425,
      "နီၢ်အဘ": 2426,
      "ကီၢ်အဒိၣ်": 2427,
      "သိဖိ": 2428,
      "အကျါန့ၣ်လီၤ": 2429,
      "တရီတပါ": 2430,
      "ဒီးယ့ၣ်ၡူး": 2431,
      "ဒီးလၢတၢ်န့ၣ်အဃိ": 2432,
      "ဝဲၤ": 2433,
      "ဘၣ်ပှၤ": 2434,
      "ဂၤတဖၣ်": 2435,
      "ဒီးတၢ်လုၢ်": 2436,
      "ကွၢ်လိ": 2437,
      "ကီၢ်အၤၡူၢ်": 2438,
      "လံၤလါ": 2439,
      "အကတီၢ်န့ၣ်": 2440,
      "အထူအယိာ်": 2441,
      "ယၢၣ်": 2442,
      "သဘျ့": 2443,
      "၁၀": 2444,
      "မၤအီၤ": 2445,
      "မုၢ်ခိၣ်": 2446,
      "ယၤန့ၣ်": 2447,
      "ယၤလၢယ": 2448,
      "ဘၣ်တၢ်စံၣ်ညီၣ်": 2449,
      "တုၤဃီၤ": 2450,
      "သ့ၣ်ညါဝဲလၢ": 2451,
      "တအိၣ်နီတဂၤဘၣ်": 2452,
      "ကူၣ်ထီၣ်": 2453,
      "ဒူၣ်ထၢ": 2454,
      "ဒီဒၣ်အိၣ်ပှိၤ": 2455,
      "ဒူး": 2456,
      "ဘၡါ": 2457,
      "ယူၢ်": 2458,
      "သဝီ": 2459,
      "အအၢအသီ": 2460,
      "၁၇": 2461,
      "ဒီးနၤ": 2462,
      "မၤဒိး": 2463,
      "တကဲ": 2464,
      "ဒိၣ်ဝဲ": 2465,
      "ဆၢဂ့ၤ": 2466,
      "ကွံာ်အီၤလီၤ": 2467,
      "ကးန့": 2468,
      "တၢ်အဲၣ်တၢ်ကွံ": 2469,
      "ကဘျံး": 2470,
      "ဘၡါလိၣ်": 2471,
      "န့ၣ်အိၣ်": 2472,
      "စီၤမ": 2473,
      "အိၣ်ဖျဲၣ်ထီၣ်": 2474,
      "ယၤဘၣ်": 2475,
      "ပၤမုၣ်": 2476,
      "တီပှၤလိၤ": 2477,
      "လၢအမ့ၢ်ပှၤ": 2478,
      "ကၤလံၤလါ": 2479,
      "လၢမုၢ်နၤ": 2480,
      "ဒီးကိၣ်": 2481,
      "စပံးသၣ်": 2482,
      "ယံးလး": 2483,
      "ရံၤၡဲ": 2484,
      "ဖၤရံၤၡဲ": 2485,
      "ဘုၣ်ဂီၤဖံး": 2486,
      "ကံးလဧး": 2487,
      "့းဘ့းလး": 2488,
      "ထံၣ်လၢညါခီ": 2489,
      "အဖှိၣ်": 2490,
      "၁၄": 2491,
      "တၢ်မနုၤ": 2492,
      "ပှၤတခီဘီမုၢ်": 2493,
      "တဖၣ်လၢသု": 2494,
      "အဝဲသ့ၣ်ကဘၣ်": 2495,
      "စံးတ့ၢ်ဝဲ": 2496,
      "အတၢ်အိၣ်မူ": 2497,
      "ဒီးစီၤၡ": 2498,
      "မံလီၤ": 2499,
      "အမံၤလၢ": 2500,
      "ပၢၤဃာ်": 2501,
      "တန့ၢ်ဘၣ်": 2502,
      "လီၤက့ၤအသး": 2503,
      "သကုၤ": 2504,
      "ဖှီၣ်ဖိယာ်ဖိ": 2505,
      "စီၢ်": 2506,
      "တလီၢ်": 2507,
      "၁၅": 2508,
      "တၢ်လံၤ": 2509,
      "စီၤကၤ": 2510,
      "အတၢ်အိၣ်": 2511,
      "အဂီၢ်ဘၣ်": 2512,
      "မူကပိာ်": 2513,
      "ဘၣ်ဆၣ်ဒီးပှၤ": 2514,
      "ပဒိၣ်ဖးဒိၣ်": 2515,
      "ကလီကလီ": 2516,
      "စီၤအးဘၡါလိၣ်": 2517,
      "တစူၢ်": 2518,
      "နူၢ်": 2519,
      "အစိၣ်": 2520,
      "တၢ်ကပီၤ": 2521,
      "ပှၤခဲလၢာ်": 2522,
      "ံၤကါ": 2523,
      "မ့ၢ်လၢတၢ်": 2524,
      "မုၢ်ဟါ": 2525,
      "အပူၤန့ၣ်တက့ၢ်": 2526,
      "ဟဲဒီး": 2527,
      "အဂ့ၢ်န့ၣ်": 2528,
      "မ့ၢ်ဂ့ၤန့ၣ်ဘၣ်": 2529,
      "လၢမုၢ်ထီၣ်": 2530,
      "ဒိးန့ၢ်ဘၣ်ဝဲ": 2531,
      "အနီၣ်ဂံၢ်": 2532,
      "လီၤပြံလီၤပြါ": 2533,
      "ခး": 2534,
      "ဃၢၤ": 2535,
      "စံၤ": 2536,
      "တတီ": 2537,
      "ယစံးဘၣ်တဲဘၣ်": 2538,
      "သွဲ": 2539,
      "အသွံၣ်": 2540,
      "ၡီၤ": 2541,
      "တၢ်ပျၢ်": 2542,
      "လီၤသီ": 2543,
      "လီၤထူလီၤယိာ်": 2544,
      "ီၢ်ယၢ်": 2545,
      "စီၤမၤ": 2546,
      "အံၤလီၤ": 2547,
      "စံးပာ်": 2548,
      "မ့လ့း": 2549,
      "ကဲထီၣ်တၢ်": 2550,
      "အမဲာ်ညါန့ၣ်": 2551,
      "စးထီၣ်လၢ": 2552,
      "စီၤဃနိာ်": 2553,
      "ဟဲလီၤစၢၤ": 2554,
      "တကဆှီဘၣ်": 2555,
      "လူလီၤ": 2556,
      "အဃၣ်ဃၣ်": 2557,
      "ံၤကါယံးလး": 2558,
      "ခၢၣ်": 2559,
      "တစိၢ်": 2560,
      "ယပၢ်": 2561,
      "ရံး": 2562,
      "ဒီၣ်": 2563,
      "ဒီးထံ": 2564,
      "သ့ၣ်ဆှ": 2565,
      "လၢတၢ်လုၢ်ဟံၣ်": 2566,
      "ဆၢတဲာ်": 2567,
      "ကဲထီၣ်ပှၤ": 2568,
      "အဖိခွါတဖၣ်": 2569,
      "ဒၣ်ဝဲန့ၣ်လီၤ": 2570,
      "မ်ယွၤ": 2571,
      "မူခိၣ်ကလူး": 2572,
      "လၢမုၢ်နံၤ": 2573,
      "ပှၤလုၢ်တၢ်အခိၣ်တဖၣ်": 2574,
      "ကဝဲၤ": 2575,
      "ဆဲၣ်": 2576,
      "တလိၣ်": 2577,
      "ပဲ": 2578,
      "ပရၢ": 2579,
      "ဟုက": 2580,
      "အဘူး": 2581,
      "တၢ်နါ": 2582,
      "ထီၣ်အီၤလၢ": 2583,
      "သးတီ": 2584,
      "ယွၤန့ၣ်လီၤ": 2585,
      "မုၢ်ထီၣ်": 2586,
      "အသးလီၤ": 2587,
      "ကီၢ်မိၤအး": 2588,
      "ဆှဲး": 2589,
      "တနါ": 2590,
      "အီၤလၢပှၤ": 2591,
      "သ့ၣ်ညါနၢ်ပၢၢ်": 2592,
      "ဟီၣ်ခိၣ်ချၢ": 2593,
      "ဃုာ်ဒီးပှၤ": 2594,
      "ကဲထီၣ်စီၤပၤ": 2595,
      "လါတလါ": 2596,
      "ခ့နပှၤ": 2597,
      "ဂုာ်န့ၢ်": 2598,
      "ဘ့ၤသလ့": 2599,
      "သ့ၣ်စၤယံးအသိ": 2600,
      "မူကပိာ်လိၤ": 2601,
      "တၢ": 2602,
      "ဧိၣ်": 2603,
      "တၢ်အိၣ်မူ": 2604,
      "တၢ်နၢမူ": 2605,
      "မ့ၢ်လၢယ": 2606,
      "သးဂီၤ": 2607,
      "ဖိလၢအ": 2608,
      "လၢတၢ်ဒုး": 2609,
      "တၢ်အလီၢ်": 2610,
      "လဲၤဝဲ": 2611,
      "အသိးဒီး": 2612,
      "ထံၣ်ဘၣ်တၢ်": 2613,
      "တအိၣ်လၢၤဘၣ်": 2614,
      "အဒၢး": 2615,
      "ဟံးထီၣ်ကွံာ်": 2616,
      "ဃ့ၢ်ပူၤဖျဲး": 2617,
      "ဘူၤကးန့": 2618,
      "ဂုာ်ဆူၣ်": 2619,
      "အိၣ်ဘှံးနံၤ": 2620,
      "ဘီၣ်ထီၣ်": 2621,
      "တၢ်ကွဲးအသး": 2622,
      "ဒီဖျၢၣ်": 2623,
      "န့ၣ်အဝဲသ့ၣ်": 2624,
      "တဖၣ်ဘၣ်": 2625,
      "အတၢ်အီၣ်": 2626,
      "ဆၢဝါ": 2627,
      "ပှၤဂီၢ်မုၢ်လၢ": 2628,
      "ကမၤတၢ်": 2629,
      "စီၤယ့ၤ": 2630,
      "အကုၢ်": 2631,
      "တီတီ": 2632,
      "အကျိၤ": 2633,
      "ဆံဆဲၣ်": 2634,
      "အကျါတဂၤ": 2635,
      "နးနး": 2636,
      "ဃၣ်ဃၣ်": 2637,
      "ဂဲၤဆၢထၢၣ်သမူထီၣ်က့ၤ": 2638,
      "ရ့ဒိၣ်": 2639,
      "စီၤဟ့းဘ့းလး": 2640,
      "အိၣ်ဝဲဆိးဝဲ": 2641,
      "ကူၣ်ဘၣ်ကူၣ်သ့": 2642,
      "နီၢ်အဘံၤကါယံးလး": 2643,
      "ဟုကယာ်": 2644,
      "အု": 2645,
      "၁၉": 2646,
      "လီၤအီၤ": 2647,
      "တဖၣ်ဒ်": 2648,
      "စီၤအံၤစဲး": 2649,
      "အံၤအပူၤ": 2650,
      "တက့ၤ": 2651,
      "ဖဲတၢ်လီၢ်": 2652,
      "ဟ့ၣ်ဘါ": 2653,
      "လဲၤကပာ်": 2654,
      "စီၤပၤဖးဒိၣ်": 2655,
      "ကမၤန့ၢ်": 2656,
      "ကတိၤဒိ": 2657,
      "ညီနုၢ်": 2658,
      "လၢယွၤအတၢ်လုၢ်ဟံၣ်": 2659,
      "ရၤဘၣ်": 2660,
      "ကိၢ်သးဂီၤ": 2661,
      "ကူးတရံး": 2662,
      "အဒိအတဲာ်": 2663,
      "အိးထီၣ်": 2664,
      "တၢးတနါ": 2665,
      "စီၤဟၤမၣ်": 2666,
      "ဘ့ၤသလ့ဃ့ၣ်": 2667,
      ",”": 2668,
      "အကလုာ်": 2669,
      "န့ၣ်မ့ၢ်တၢ်": 2670,
      "သ့ၣ်တဖၣ်န့ၣ်": 2671,
      "မုၢ်နၤ": 2672,
      "လဲၤခီဂာ်": 2673,
      "နီၢ်ပၤမုၣ်": 2674,
      "ခံဘ့ၣ်": 2675,
      "ဘါစၢ်": 2676,
      "ကနီၤ": 2677,
      "ဧိၤန့ၣ်လီၤ": 2678,
      "သိၣ်တၢ်": 2679,
      "စီၤယိၤဘး": 2680,
      "ပျဲယ": 2681,
      "ဂံၢ်ဟ့ၣ်ဘါ": 2682,
      "မၤတၢ်ဒဲးဘး": 2683,
      "ကအိၣ်မူ": 2684,
      "ပူတပူ": 2685,
      "လုၣ်ဘၢ": 2686,
      "ကဒဲကဒဲ": 2687,
      "လီတၢ်ဝ့ၤ": 2688,
      "စီၢ်နီၤ": 2689,
      "ကၢၢ်": 2690,
      "ဂူာ်": 2691,
      "တတီတလိၤ": 2692,
      "ယဒီပုၢ်ဝဲၢ်": 2693,
      "ပှၤသံ": 2694,
      "ပှၤသုးဖိ": 2695,
      "ဟဲလၢ": 2696,
      "ကွၢ်ဃီၤ": 2697,
      "စုညါ": 2698,
      "တမံၤဂ့ၤ": 2699,
      "တအိၣ်ဒီးတၢ်": 2700,
      "ဘ့ၣ်ဘၣ်": 2701,
      "ဝ့ၤဝီၤ": 2702,
      "လၢအသံသ့": 2703,
      "ဃဲသဲ": 2704,
      "နဝ့": 2705,
      "သယုၢ်": 2706,
      "အဂၢၤ": 2707,
      "၁၃": 2708,
      "ဒီးစီၤအၤဟရိၣ်": 2709,
      "့ၢ်အဂီၤ": 2710,
      "တဖၣ်မ့ၢ်": 2711,
      "ထီၣ်ဖိ": 2712,
      "စီၤဒၤ": 2713,
      "အံၤဒီး": 2714,
      "ဂ့ၤတၢ်": 2715,
      "ကွံာ်တၢ်": 2716,
      "က့ၤဝဲ": 2717,
      "လုၢ်ဒိၣ်ပှ့ၤဒိၣ်": 2718,
      "ကမၤဟးဂီၤ": 2719,
      "တီဝဲ": 2720,
      "လၢပှၤကလုာ်": 2721,
      "ပှဲၤဒီးတၢ်": 2722,
      "နံၤနဝ့": 2723,
      "စိၤအဃၣ်ဃၣ်": 2724,
      "အခိၣ်အနၢ်": 2725,
      "ယူာ်ထီၣ်": 2726,
      "မုၢ်ဆ့ၣ်ထီၣ်": 2727,
      "ပှၤဖလ့ၡသးဖိတဖၣ်": 2728,
      "ယစံးဘၣ်": 2729,
      "အသီၣ်": 2730,
      "လၢတၢ်မၤစၢၤ": 2731,
      "တဂၤလၢ်လၢ်": 2732,
      "ကျီ": 2733,
      "ကျိၣ်": 2734,
      "တ့ၢ်နၤ": 2735,
      "တၢ်အသိး": 2736,
      "လဲၤစိာ်": 2737,
      "သူၣ်ကညီၤသးကညီၤ": 2738,
      "အအိၣ်န့ၣ်": 2739,
      "ပှၤတဂၤအံၤ": 2740,
      "စီၤဧၤ": 2741,
      "စှီၤ": 2742,
      "စီၢ်နီၤခိၣ်": 2743,
      "ပ့းတရူး": 2744,
      "တၢ်လီ": 2745,
      "ဒီးကဘၣ်": 2746,
      "တဖၣ်အဃိ": 2747,
      "ကစုာ်": 2748,
      "အတၢ်အဲၣ်": 2749,
      "ကွၢ်ဆၢၣ်": 2750,
      "ရူၤဘ့ၣ်": 2751,
      "တၢ်လုၢ်မ့ၣ်အူ": 2752,
      "မၢပှၤ": 2753,
      "ပၢဆှၢ": 2754,
      "မၤတ့ၢ်တၢ်ဒဲးဘး": 2755,
      "ကအိၣ်ဒီးတၢ်": 2756,
      "ပှၤကလုာ်တဖၣ်": 2757,
      "အထံအကီၢ်": 2758,
      "စီၤအ့လ": 2759,
      "ကွၢ်ဆၢၣ်မဲာ်": 2760,
      "ဝာ်": 2761,
      "တၢ်ကူၣ်သ့": 2762,
      "န့ၣ်ကဘၣ်": 2763,
      "မၤဖှီၣ်": 2764,
      "လၢအီၤ": 2765,
      "အိၣ်ကတဲာ်ကတီၤ": 2766,
      "လၢတၢ်ဂ့ၢ်": 2767,
      "လုၢ်ထီၣ်အီၤ": 2768,
      "ဟ့ၣ်ထီၣ်": 2769,
      "ဂီၤဘုၣ်ဂီၤဖံး": 2770,
      "ဒိးတ့": 2771,
      "အိၣ်ဝဲအသိး": 2772,
      "လိၣ်ဘၣ်": 2773,
      "တၢ်ဂီၤတၢ်ဖီၣ်": 2774,
      "တထံၣ်ဃီ": 2775,
      "မဲးမုၢ်ခိၣ်": 2776,
      "စီၤယိနၤသၣ်": 2777,
      "အံးထွဲကွၢ်ထွဲ": 2778,
      "ဆၢဂ့ၤဆၢဝါ": 2779,
      "ကဘျံးကဘျၣ်": 2780,
      "တထူၣ်": 2781,
      "ယၢၢ်": 2782,
      "လၢယၤ": 2783,
      "တၢ်စိတၢ်ကမီၤ": 2784,
      "န့ၣ်ယ": 2785,
      "အိၣ်လၢတၢ်": 2786,
      "မ့ၢ်လၢန": 2787,
      "အီၤတဖၣ်": 2788,
      "သုတဘၣ်": 2789,
      "ကမျ": 2790,
      "စံးဘၣ်ယၤ": 2791,
      "လံာ်ပရၢ": 2792,
      "အကတီၢ်န့ၣ်လီၤ": 2793,
      "ယိၤဟၣ်": 2794,
      "ပူထီၣ်": 2795,
      "ခံးတၢ်": 2796,
      "ဒီးစီၤယၤကိာ်": 2797,
      "စၣ်": 2798,
      "တၢၢ်": 2799,
      "လိၢ်": 2800,
      "အဘၣ်": 2801,
      "၁၆": 2802,
      "လၢမ့ၣ်အူ": 2803,
      "ဘၣ်တ့": 2804,
      "တဖၣ်ဒၣ်လဲာ်": 2805,
      "လၢအခိၣ်": 2806,
      "မ့ၢ်အိၣ်": 2807,
      "ဘၣ်ဆၣ်ဒီးတၢ်": 2808,
      "ဒ်သိးသုက": 2809,
      "ပှၤဂီၢ်မုၢ်ခဲလၢာ်": 2810,
      "သိၣ်ဃီၣ်": 2811,
      "သိၣ်လီၤသီ": 2812,
      "ဟ့ၣ်လီၤကွံာ်": 2813,
      "ဃုသ့ၣ်ညါ": 2814,
      "ဒီးစီၤဒၤဝံး": 2815,
      "ဘူးဒီး": 2816,
      "အမုၢ်ထီၣ်": 2817,
      "ကဒီးဝဲ": 2818,
      "ဃံလၤ": 2819,
      "နီတစဲးဘၣ်": 2820,
      "ဘူၤကးန့စၢ်": 2821,
      "ဃဲသဲမုၣ်": 2822,
      "ကမျၢၢ်": 2823,
      "စ့း": 2824,
      "အၢၣ်": 2825,
      "လၢကယဲၢ်": 2826,
      "မ့ၢ်လၢအ": 2827,
      "ကစူၢ်": 2828,
      "သ့လီၤ": 2829,
      "စီၤပၤအ": 2830,
      "လိာ်အသးဒီး": 2831,
      "ကမၤဟးဂီၤကွံာ်": 2832,
      "စီၤအလၤ": 2833,
      "အက့ၢ်အဂီၤ": 2834,
      "အခိၣ်တ": 2835,
      "ထီဒါယၤ": 2836,
      "ဘၣ်တၢ်မၤအီၤလၢ": 2837,
      "ကံးဒ": 2838,
      "တၢ်အုၣ်က့ၤခီၣ်က့ၤ": 2839,
      "ကပြုၢ်": 2840,
      "ပှၤအဲၤကူပတူးဖိတဖၣ်": 2841,
      "ပှၤအုၣ်အသး": 2842,
      "ကနိးကစုာ်": 2843,
      "သ့ၣ်ဆှိ": 2844,
      "ဘီၣ်ထီၣ်ညီ": 2845,
      ").": 2846,
      "ဃၢ": 2847,
      "နသ့ၣ်ညါ": 2848,
      "နခ့နပှၤ": 2849,
      "ယကစံၣ်ညီၣ်": 2850,
      "အူး": 2851,
      "ဧစၢ်": 2852,
      "တၢ်ဃူတၢ်ဖိး": 2853,
      "တဖၣ်အသိးန့ၣ်လီၤ": 2854,
      "စီၤဧိၤ": 2855,
      "တ့ၢ်အဝဲသ့ၣ်": 2856,
      "လီၢ်ပစိာ်": 2857,
      "ကိးထီၣ်ဝဲ": 2858,
      "ကိးဖှိၣ်": 2859,
      "ဒံးဆ့": 2860,
      "ဒိးဖျီ": 2861,
      "ပှၤတဂၤလၢ်လၢ်": 2862,
      "ကျဲစၢၤ": 2863,
      "ဂံၢ်တၢ်ဘါ": 2864,
      "စံၣ်ညီၣ်ကွီၢ်": 2865,
      "အမဲာ်ညါလီၤ": 2866,
      "ပှၤကညီလၢအသံသ့": 2867,
      "ကစံးထီၣ်ပတြၢၤ": 2868,
      "စီၤဘံး": 2869,
      "အတလါစီဆှံ": 2870,
      "သမှံၤ": 2871,
      "တၢ်မူ": 2872,
      "လၢအမဲာ်ညါ": 2873,
      "လၢအခီၣ်ထံး": 2874,
      "အိၣ်လီၤတဲာ်": 2875,
      "သးကွံ": 2876,
      "ပူၤဒဲး": 2877,
      "ကစိာ်": 2878,
      "န့ၢ်ယၤ": 2879,
      "ဒ်သိးသိး": 2880,
      "ကွၢ်ကွၢ်": 2881,
      "သီလိ": 2882,
      "တဖၣ်န့ၣ်ဘၣ်": 2883,
      "ကစံးဘၣ်": 2884,
      "ဆူးကဲၤ": 2885,
      "ထုးထီၣ်ကွံာ်": 2886,
      "ဘူၣ်တၢ်ဘါအလုၢ်အလၢ်": 2887,
      "မဲထီၣ်": 2888,
      "ဂုၢ်": 2889,
      "တဆီ": 2890,
      "လိး": 2891,
      "အဲး": 2892,
      "အဖိတဖၣ်": 2893,
      "အကမီၤ": 2894,
      "းထီၣ်": 2895,
      "လၢကစၢ်": 2896,
      "လီၤသွဲၣ်": 2897,
      "ဝဲတၢ်": 2898,
      "ပှၤလၢတၢ်": 2899,
      "စီၤဘၤ": 2900,
      "အိၣ်ဝးတရံး": 2901,
      "စံးဖှိၣ်": 2902,
      "အတၢ်ဖံးတၢ်မၤ": 2903,
      "ပာ်လီၤတဲာ်": 2904,
      "လဲၤကိး": 2905,
      "ဆၢက့ၤ": 2906,
      "ကမူ": 2907,
      "ထံၣ်အီၤ": 2908,
      "ဆိးကျၢၤ": 2909,
      "အတံၢ်": 2910,
      "မံသ": 2911,
      "ကွံာ်အီၤဆူ": 2912,
      "ဖံးဃာ်": 2913,
      "ဆိကမိၣ်ဝဲလၢ": 2914,
      "ဘြိၣ်": 2915,
      "စပံးမုၢ်": 2916,
      "ပာ်ဖှိၣ်ထီၣ်": 2917,
      "ပဒိၣ်ပပှၢ်တဖၣ်": 2918,
      "ပီးတၢ်လီ": 2919,
      "နးနးကလဲာ်": 2920,
      "စီၤအလၤဧစၢ်": 2921,
      "ယး": 2922,
      "ယ့လး": 2923,
      "ဟၤ": 2924,
      "အလွဲၢ်": 2925,
      "ဒီးစံးဝဲဒၣ်": 2926,
      "ပှၤယူဒၤဖိတဖၣ်": 2927,
      "မ့ၢ်လၢသု": 2928,
      "သုသ့ၣ်ညါ": 2929,
      "ကတြ": 2930,
      "တဂၤစုာ်စုာ်": 2931,
      "ပာ်ခူသူၣ်": 2932,
      "ဲၣ်ဆိး": 2933,
      "ဒုးသ့ၣ်ညါ": 2934,
      "ဘျဲၣ်": 2935,
      "စ့လၤ": 2936,
      "လွံၢ်ဂၤ": 2937,
      "အကလုၢ်ကထါ": 2938,
      "ကတဲဘၣ်": 2939,
      "စီၤဧ့လံၤ": 2940,
      "ထွံၣ်": 2941,
      "ကျီၢ်ဖါ": 2942,
      "ဂၢ်": 2943,
      "ဒီးတဲဘၣ်": 2944,
      "ဘၣ်ယိၣ်": 2945,
      "မၤမုာ်": 2946,
      "လၢအပူၤကွံာ်": 2947,
      "ထီၣ်ပၢၢ်": 2948,
      "သးတ": 2949,
      "အပူၤဘၣ်": 2950,
      "ဖျး": 2951,
      "ကိးပူၤဒဲး": 2952,
      "ဖးလီၤ": 2953,
      "လၢသုကျါ": 2954,
      "ယကလုၢ်": 2955,
      "ယကဒုး": 2956,
      "ဃုာ်ဒီးတၢ်": 2957,
      "အဲၣ်အီၤ": 2958,
      "သွါ": 2959,
      "စၢ်ဘါစၢ်": 2960,
      "ကွဲးလီၤ": 2961,
      "တၢ်ဒီးစံးဝဲ": 2962,
      "ကလံၤမုၢ်": 2963,
      "တၢ်အံၤမ့ၢ်တၢ်": 2964,
      "ဂၢၢ်ဆိးကျၢၤ": 2965,
      "ၡၤဖး": 2966,
      "လဲၤထီၣ်ဆူ": 2967,
      "မၤဘၣ်ဒိ": 2968,
      "အစၢၤအသွဲၣ်တဖၣ်": 2969,
      "ဟူးဝး": 2970,
      "ရိမ့ၤ": 2971,
      "ဘျးသဒၢ": 2972,
      "ဒိၣ်ဒိၣ်ကလဲာ်": 2973,
      "စီၤၡံမိၣ်": 2974,
      "နံးယ့လး": 2975,
      "ကွၢ်လိမၤဒိး": 2976,
      "ပှၤကညီလၢအသံသ့ဧၢ": 2977,
      "ကဲၣ်ဆိး": 2978,
      "၂၀": 2979,
      "တဖၣ်တ": 2980,
      "တဖၣ်အဖီခိၣ်": 2981,
      "သးသမူ": 2982,
      "့ၤရ": 2983,
      "အသးလၢတၢ်": 2984,
      "န့ၢ်ဘၣ်": 2985,
      "ဂီၤဂီၤ": 2986,
      "ဒီးအဂၤ": 2987,
      "ကတိၤတၢ်လၢ": 2988,
      "ပိာ်ထီၣ်": 2989,
      "ဒံးဝဲ": 2990,
      "တဲဖျါထီၣ်": 2991,
      "ဒ်လဲၣ်ဂ့ၤ": 2992,
      "သကိးတၢ်": 2993,
      "မ့တမ့ၢ်ဘၣ်": 2994,
      "လၢထီၣ်ပှဲၤထီၣ်": 2995,
      "အစိၤစိၤအဃၣ်ဃၣ်": 2996,
      "ဒိးတ့ဒိးဖျီ": 2997,
      "ကဒီးတၢ်": 2998,
      "ကအီၣ်": 2999,
      "ဃိၤ": 3000,
      "စီၣ်": 3001,
      "နဒါ": 3002,
      "အခဲအံၤ": 3003,
      "ွါ": 3004,
      "ၡမၤ": 3005,
      "လၢလၢၢ်": 3006,
      "တၢ်ဘိ": 3007,
      "တၢ်ဆိး": 3008,
      "ဒီးလၢအ": 3009,
      "ဒီးပျဲ": 3010,
      "ဒီးစံးဘၣ်အီၤ": 3011,
      "ပှၤသးစၢ်": 3012,
      "တဖၣ်ခဲလၢာ်": 3013,
      "ဒ်ပ": 3014,
      "တၢ်အါ": 3015,
      "ကလၤ": 3016,
      "စီၤအလံ": 3017,
      "တဲဝဲ": 3018,
      "ပတီၢ်": 3019,
      "လၢပှၤလုၢ်တၢ်အခိၣ်": 3020,
      "တၢ်လုၢ်မၤဘူၣ်": 3021,
      "တစုန့ၣ်လီၤ": 3022,
      "တူၢ်ဘၣ်တၢ်": 3023,
      "စီၤၡၤ": 3024,
      "အစီၤပၤဖးဒိၣ်": 3025,
      "နံၣ်န့ၣ်လီၤ": 3026,
      "လၢအကလုၢ်": 3027,
      "ဘၣ်မနုၤလၢန": 3028,
      "သီၣ်ထီၣ်": 3029,
      "ဒုးတၢ်ထီဒါ": 3030,
      "လၢကျဲဒ်လဲၣ်": 3031,
      "ယူးယီၣ်ပာ်ကဲ": 3032,
      "ခ့တၢ်ပှၤ": 3033,
      "ဂ့ၤတၢ်ဝါ": 3034,
      "ကဒ့ၣ်": 3035,
      "့ဖရဲၣ်": 3036,
      "ၡံယၤ": 3037,
      "လၢလၢပှဲၤပှဲၤ": 3038,
      "တၢ်တက့ၢ်": 3039,
      "လီၤဖး": 3040,
      "ဒီးပာ်လီၤ": 3041,
      "တဖၣ်ကဘၣ်တၢ်": 3042,
      "မၤပှဲၤ": 3043,
      "ဖဲန့ၣ်ဒီး": 3044,
      "အသးန့ၣ်လီၤ": 3045,
      "တၢ်မၤလိ": 3046,
      "လၢအအိၣ်လီၤတဲာ်": 3047,
      "အိၣ်ဝဲလီၤ": 3048,
      "ပျၢ်ကွံာ်": 3049,
      "ခ့ယပှၤ": 3050,
      "အကတီၢ်ဖဲန့ၣ်": 3051,
      "သိၣ်လိသီလိ": 3052,
      "တဂၤလၢအမံၤ": 3053,
      "လူၤကၣ်": 3054,
      "အတီၢ်ပူၤန့ၣ်": 3055,
      "သုးခိၣ်သုး": 3056,
      "စီၤဧ့ၡီၤ": 3057,
      "ကံၢ်ပူၤ": 3058,
      "စီၤယ့ၤဟူ": 3059,
      "ခံးတၢ်နၤ": 3060,
      "အခိၣ်တလိာ်": 3061,
      "ၡလိၤမိၤ": 3062,
      "ၢက": 3063,
      "လၢဟံၣ်": 3064,
      "တၢ်လၢသု": 3065,
      "တၢ်ဖှိၣ်": 3066,
      "တၢ်သ့ၣ်တဖၣ်အံၤ": 3067,
      "တကတိၤ": 3068,
      "တၢ်အဂ့ၤ": 3069,
      "နၤလၢတၢ်": 3070,
      "သ့လး": 3071,
      "လၢယတၢ်": 3072,
      "ဟးဂူာ်": 3073,
      "ဝဲလၢဝ့ၢ်": 3074,
      "တၢ်မၤသံ": 3075,
      "ဘူၣ်လဲၤကပာ်": 3076,
      "ဃုထံၣ်": 3077,
      "အလိၤန့ၣ်": 3078,
      "စိအကမီၤ": 3079,
      "တီၤလီၤ": 3080,
      "ဒံးဘၣ်န့ၣ်": 3081,
      "အံၣ်စရ့လးအပှၤဂီၢ်မုၢ်": 3082,
      "တၢ်လီၤလး": 3083,
      "အဒဲစီဆှံ": 3084,
      "ဂ့ၤဂ့ၤဘၣ်": 3085,
      "တၢ်ဒိၣ်ဧၢ": 3086,
      "အကူအသိး": 3087,
      "ကသ့ၣ်ညါ": 3088,
      "ယဟ့ၣ်လီၤ": 3089,
      "ယနၢ်ဟူ": 3090,
      "သလၣ်": 3091,
      "အကစီၣ်": 3092,
      "လၢပှၤအ": 3093,
      "တၢ်ညၣ်": 3094,
      "တၢ်ကလုၢ်": 3095,
      "တၢ်ကျိၤ": 3096,
      "န့ၣ်မ့ၢ်ဝဲ": 3097,
      "ံၤမ့လ့း": 3098,
      "သုလၢတၢ်": 3099,
      "စံးဒ": 3100,
      "နီၢ်အ": 3101,
      "သူၣ်တီသး": 3102,
      "လၢနတၢ်": 3103,
      "တဂ့ၤန့ၣ်လီၤ": 3104,
      "ကယဲၢ်ပှၤ": 3105,
      "အတံၤသကိး": 3106,
      "တဖၣ်လၢအဘၣ်တၢ်": 3107,
      "ဆံးအါ": 3108,
      "ဃ့ၢ်ကွံာ်": 3109,
      "လၢကျဲဒ်အံၤ": 3110,
      "ၡါယၤ": 3111,
      "ဒွဲၣ်အူ": 3112,
      "အ့ရ့း": 3113,
      "ဖုၣ်": 3114,
      "ယဒုၣ်ယဒါ": 3115,
      "သမံသ": 3116,
      "တၢ်ဖိတဖၣ်": 3117,
      "တၢ်တဖၣ်အံၤ": 3118,
      "တဖၣ်အပူၤန့ၣ်လီၤ": 3119,
      "စီၤစၤ": 3120,
      "အဝဲစံးဝဲ": 3121,
      "သုဒါ": 3122,
      "မုၢ်တၢ်ဘိ": 3123,
      "စံးတ့ၢ်": 3124,
      "ဝ့ၢ်အံၤ": 3125,
      "တုၤဆူ": 3126,
      "လိၤန့ၣ်လီၤ": 3127,
      "ကွၢ်မဲာ်": 3128,
      "တမံၤလၢ": 3129,
      "ိၢ်န့ၢ်": 3130,
      "ဃ့ဘြိၣ်": 3131,
      "တဘျီန့ၣ်": 3132,
      "ထူၣ်စုညါ": 3133,
      "နွံဆံ": 3134,
      "ကစံးဆၢ": 3135,
      "ဘ့ၤသ့လး": 3136,
      "အမဲာ်ချံ": 3137,
      "သမံသမိး": 3138,
      "ကအိ": 3139,
      "စၢၢ်": 3140,
      "တူာ်": 3141,
      "ဖ့း": 3142,
      "အလဲ": 3143,
      "အသုတ": 3144,
      "အဖု": 3145,
      "လၢသ့ၣ်": 3146,
      "လၢကလံၤစိး": 3147,
      "တၢ်ဒုး": 3148,
      "တၢ်လၤ": 3149,
      "ံၤလး": 3150,
      "ထီၣ်အ": 3151,
      "အိၣ်ထီၣ်": 3152,
      "ဖိတၢ်လံၤ": 3153,
      "တၢ်အခါ": 3154,
      "ဘျၣ်": 3155,
      "ခံကယၤ": 3156,
      "ခံကထိ": 3157,
      "လိာ်သုသး": 3158,
      "ဟးဆှဲး": 3159,
      "ယ့ၣ်ၡူးစံးဆၢ": 3160,
      "ဆူၣ်အိၣ်": 3161,
      "စ့ၢ်ကီးန့ၣ်လီၤ": 3162,
      "ဘးခီ": 3163,
      "တဘျီလၢ်လၢ်": 3164,
      "မံသး": 3165,
      "အပၢ်မ့ၢ်ဝဲ": 3166,
      "ပာ်ဖှိၣ်ထီၣ်အသး": 3167,
      "ဒူးကဒ့ၣ်": 3168,
      "အကလုာ်ကလုာ်": 3169,
      "တဒိကနၣ်": 3170,
      "ထု": 3171,
      "နယၤ": 3172,
      "နပၢ်": 3173,
      "ဘံ": 3174,
      "ယူၤ": 3175,
      "ယကဘၣ်": 3176,
      "လဘၤ": 3177,
      "တၢ်လၢအဝဲသ့ၣ်": 3178,
      "တၢ်လၤကပီၤ": 3179,
      "တၢ်ဒုးတၢ်ယၤ": 3180,
      "ပှၤစိာ်တၢ်ကစီၣ်": 3181,
      "ဖိလၢ": 3182,
      "ဂၤန့ၣ်လီၤ": 3183,
      "စံးကတိၤ": 3184,
      "အတၢ်မၤလိာ်": 3185,
      "လီၢ်မံ": 3186,
      "နၤဒီးန": 3187,
      "ဒီးအပျဲၢ်အဘီၣ်": 3188,
      "ဒ်သိးပ": 3189,
      "တဲစိၤ": 3190,
      "ပှဲၤထီၣ်": 3191,
      "ဒ်လဲၣ်န့ၣ်လီၤ": 3192,
      "ဒီးမၤန့ၢ်": 3193,
      "ဟူသၣ်": 3194,
      "ကသ့ဝဲ": 3195,
      "ကီၢ်ယူဒၤအပှၤဂီၢ်မုၢ်": 3196,
      "ပှၤအဂၤတဂၤ": 3197,
      "နၣ်ရံၣ်": 3198,
      "သပှၢ်ကတၢၢ်လီၤ": 3199,
      "တနၢ်ပၢၢ်": 3200,
      "ကပြီၤ": 3201,
      "တိ": 3202,
      "အမၤ": 3203,
      "အမ့ၢ်": 3204,
      "ဒီးဆူ": 3205,
      "ဒီးစံးဘၣ်": 3206,
      "ဒီးသိ": 3207,
      "တဖၣ်လၢယ": 3208,
      "အီၤတဂ့ၤ": 3209,
      "မုၢ်ဂီၤ": 3210,
      "အတၢ်ကပီၤ": 3211,
      "တက့ၢ်န့ၣ်လီၤ": 3212,
      "ကစၢ်ယွၤအအိၣ်": 3213,
      "နၤန့ၣ်": 3214,
      "ဘျဲး": 3215,
      "ပှၤအတီအလိၤ": 3216,
      "မ့မ့ၢ်တၢ်": 3217,
      "ကဲဘျုး": 3218,
      "ဘူၣ်ဘျီၣ်": 3219,
      "ကယဲၢ်ပှၤလၢအ": 3220,
      "မနုၤတမံၤ": 3221,
      "အၢၣ်လီၤတ့ၢ်": 3222,
      "ကနၢ်ဟူ": 3223,
      "တဝာ်": 3224,
      "လၢပှၤလၢအ": 3225,
      "လၢပှၢ်မုၢ်ကနၢ": 3226,
      "ဒီးဆှၢ": 3227,
      "ဒီးခဲအံၤ": 3228,
      "ဝဲဒီးတၢ်": 3229,
      "တဖၣ်လၢန": 3230,
      "မၤထွဲ": 3231,
      "လၢအဖီခိၣ်": 3232,
      "မ့ၢ်ကစၢ်ယွၤ": 3233,
      "သ့ၣ်ဖး": 3234,
      "ယွၤဟ့ၣ်လီၤ": 3235,
      "ဖဲစီၤပၤ": 3236,
      "အတၢ်သူၣ်": 3237,
      "ကစၢ်စီၤပၤ": 3238,
      "ကွံာ်သု": 3239,
      "တၢ်အဂၤ": 3240,
      "ဟဲကိး": 3241,
      "ကွၢ်တၢ်": 3242,
      "ပှၤအဂ့ၤ": 3243,
      "ပှၤအမိၢ်": 3244,
      "အခၢၣ်": 3245,
      "ဖျါထီၣ်ဝဲ": 3246,
      "ပှၤတဂၤလၢ": 3247,
      "ထဲဒၣ်": 3248,
      "ဂံၢ်အဘါ": 3249,
      "ကၤလး": 3250,
      "ပိာ်မုၣ်လၢအ": 3251,
      "နးမး": 3252,
      "ဒုၣ်နဒါ": 3253,
      "အစုပူၤန့ၣ်လီၤ": 3254,
      "ထိးဘၣ်": 3255,
      "သူၣ်ဒဲအလီၢ်": 3256,
      "အဘျုးအဖှိၣ်": 3257,
      "တၢ်မၢဖိ": 3258,
      "သိၣ်တၢ်ဘျၢ": 3259,
      "စံးဒကံယၤ": 3260,
      "တဝ့ၢ်": 3261,
      "တဒၢ": 3262,
      "နိ": 3263,
      "နမံၤ": 3264,
      "ပၣ်": 3265,
      "အဆံး": 3266,
      "အပှ့ၤ": 3267,
      "၂၂": 3268,
      "လၢစီၤဒၤဝံး": 3269,
      "မၤဆါ": 3270,
      "ဖဲအဝဲဒၣ်": 3271,
      "မံၤကါ": 3272,
      "ဒ်သိးန": 3273,
      "ဒ်သိးယ": 3274,
      "ကမၤဝဲ": 3275,
      "ဘါထီၣ်": 3276,
      "ဒံးဒၣ်": 3277,
      "စံၣ်စိၤ": 3278,
      "ကမၣ်ခွါ": 3279,
      "ဃ့ထုကဖၣ်": 3280,
      "ဂံၢ်စၢ်ဘါစၢ်": 3281,
      "စံၣ်ညီၣ်တီ": 3282,
      "ထီဒါယွၤ": 3283,
      "စီၤပံၤလး": 3284,
      "ဆံးယံာ်": 3285,
      "စီၤနၤဘလး": 3286,
      "လီၤသးဘၣ်အၢ": 3287,
      "ယူၢ်ဃီ": 3288,
      "ကံးဒဧိၣ်": 3289,
      "ကဆူး": 3290,
      "ပကစၢ်": 3291,
      "ယရံၤ": 3292,
      "သဘှံး": 3293,
      "အဘၣ်တၢ်": 3294,
      "အယာ်": 3295,
      "တၢ်ဂ့ၤ": 3296,
      "တၢ်အိၣ်ဖှိၣ်": 3297,
      "လီၤနသး": 3298,
      "ဘၣ်ဆိၣ်ဂ့ၤ": 3299,
      "စီၤအဃ": 3300,
      "တကိး": 3301,
      "ယၤလၢတၢ်": 3302,
      "ယၤဆူ": 3303,
      "အသးန့ၣ်": 3304,
      "အဂီၢ်မ့ၢ်ဂ့ၤ": 3305,
      "တၢ်အပှ့ၤ": 3306,
      "ၢၣ်ဒၢ": 3307,
      "ဖီလာ်": 3308,
      "သုးကွံာ်": 3309,
      "အၢသီ": 3310,
      "လံာ်ထူ": 3311,
      "အကျါန့ၣ်": 3312,
      "လၢအကြၢး": 3313,
      "တၢ်အံၤမ့ၢ်": 3314,
      "ဘှီလိာ်": 3315,
      "ဖံဘၣ်": 3316,
      "ကးဘၢ": 3317,
      "နီတစုလၢၤဘၣ်": 3318,
      "ဃူမၤ": 3319,
      "မံးဒ": 3320,
      "စံၣ်တဲၤတဲလီၤတၢ်": 3321,
      "ကူၣ်တၢ်သ့": 3322,
      "ပျံၤတၢ်တဂ့ၤ": 3323,
      "စံးဘျုးစံးဖှိၣ်": 3324,
      "က့လး": 3325,
      "ပီၢ်ယၢ်": 3326,
      "အလၤ": 3327,
      "အဆ့ကၤ": 3328,
      "လၢထံကီၢ်": 3329,
      "လီၤစၢၤ": 3330,
      "မၤဖျဲး": 3331,
      "စီၤရ": 3332,
      "စီၤစံ": 3333,
      "မ့ၢ်လီၤ": 3334,
      "အဝဲလဲၤ": 3335,
      "ဒ်သု": 3336,
      "အဝဲသ့ၣ်ဆူ": 3337,
      "ခံမံၤ": 3338,
      "ပှၤဂီၢ်မုၢ်လၢအ": 3339,
      "ကလိာ်": 3340,
      "လၢအအိၣ်ဆိး": 3341,
      "ဖဲန့ၣ်အဆၢကတီၢ်": 3342,
      "မၤတၢ်အံၤ": 3343,
      "ပိာ်မုၣ်တဂၤ": 3344,
      "ကွဲးဃါ": 3345,
      "နၢ်ဟူဘၣ်တၢ်": 3346,
      "ဘျုးတၢ်ဖှိၣ်": 3347,
      "မၢ်ကွံာ်": 3348,
      "ဒီးယွၤစံးဘၣ်": 3349,
      "ထိၣ်ဂဲၤထီၣ်": 3350,
      "့ၤရိာ်": 3351,
      "ၢကယဲ": 3352,
      "လဘၤနိၣ်": 3353,
      "မံးဒယၣ်": 3354,
      "ကမ့ၢ်တၢ်": 3355,
      "ကအိၣ်ဝဲ": 3356,
      "တံး": 3357,
      "ပအိၣ်": 3358,
      "ဖရၤ": 3359,
      "သရ": 3360,
      "ဟိၤ": 3361,
      "လၢတ": 3362,
      "တၢ်မျၢ်": 3363,
      "ဘၣ်သု": 3364,
      "ပှၤဝ့ၢ်": 3365,
      "ပှၤဖှီၣ်ဖိယာ်ဖိ": 3366,
      "တဖၣ်လၢအဝဲသ့ၣ်": 3367,
      "တဖၣ်အဂီၢ်လီၤ": 3368,
      "လၢအဂ့ၢ်": 3369,
      "အိၣ်ဆၢထၢၣ်": 3370,
      "အဝဲသ့ၣ်ဘၣ်": 3371,
      "တကလး": 3372,
      "က့ၤစိာ်": 3373,
      "လဲၤဃုာ်": 3374,
      "နၤလၢန": 3375,
      "သံကွံာ်": 3376,
      "မူအဒါ": 3377,
      "ပတာ်": 3378,
      "ချၢၣ်ဒၢ": 3379,
      "ဆိးက့": 3380,
      "နုာ်လီၤ": 3381,
      "ဒုၣ်သုဒါ": 3382,
      "ဂဲၤဆၢထၢၣ်က့ၤ": 3383,
      "ထိးဘိ": 3384,
      "ကိၣ်ကမူၣ်": 3385,
      "ဆီၣ်လီၤသး": 3386,
      "ခူၣ်လီၤကွံာ်": 3387,
      "အမိၢ်အပၢ်": 3388,
      "ကပြုၢ်ကပြီၤ": 3389,
      "ဆူၣ်အိၣ်ချ့": 3390,
      "ယရံၤဃိ": 3391,
      "ဃူမၤဖိး": 3392,
      "ဃံး": 3393,
      "တူး": 3394,
      "နသွဲၣ်": 3395,
      "နဘူၤကးန့စၢ်": 3396,
      "လယၤ": 3397,
      "အဘ့ၣ်": 3398,
      "အခွဲး": 3399,
      "၂၁": 3400,
      "၂၅": 3401,
      "လၢသး": 3402,
      "တၢ်လၢပှၤ": 3403,
      "ဝဲဘၣ်ဝဲ": 3404,
      "လၢအံၣ်စရ့လး": 3405,
      "ဖိဒီးပှၤ": 3406,
      "ယွၤလၢအ": 3407,
      "ဒ်န့ၣ်ဘၣ်": 3408,
      "ပူၤမၤဖျဲး": 3409,
      "တၢ်အဒိၣ်": 3410,
      "လဲၤသဒၣ်": 3411,
      "ပျ့ၤ": 3412,
      "ဆၣ်အလီၢ်": 3413,
      "ဒီးတၢ်မၤ": 3414,
      "ဒ်သိးအဝဲသ့ၣ်": 3415,
      "မဲာ်ဘျီၣ်": 3416,
      "တမံၤန့ၣ်": 3417,
      "စၢၤနသွဲၣ်": 3418,
      "တဂ့ၤအဂီၢ်န့ၣ်လီၤ": 3419,
      "ဃုဆံ": 3420,
      "သူဝဲ": 3421,
      "ဒူၣ်ဖိထၢဖိ": 3422,
      "မုာ်မုာ်": 3423,
      "ကသ့ဧါ": 3424,
      "တဒုန့ၣ်": 3425,
      "ကဝီၤဃာ်": 3426,
      "ဒုးအိၣ်ထီၣ်တၢ်": 3427,
      "တမ့ၢ်ဘၣ်ဧါ": 3428,
      "တၢ်အုၣ်အသး": 3429,
      "အဒုၣ်အဒါတဖၣ်": 3430,
      "အဖၢမုၢ်န့ၣ်": 3431,
      "ဒီဖျၢၣ်ညါ": 3432,
      "ဟးဂူာ်ဟးဂီၤ": 3433,
      "ဖ့": 3434,
      "အဒီခိၣ်": 3435,
      "ြၤ": 3436,
      "လၢခရံာ်": 3437,
      "တၢ်ဖံး": 3438,
      "လီၤဘှံး": 3439,
      "ဝဲလံ": 3440,
      "ဘၣ်ဖၣ်": 3441,
      "လၢအမံၤ": 3442,
      "စီၤမး": 3443,
      "သးဘၣ်အၢ": 3444,
      "အဝဲစံးဘၣ်": 3445,
      "ယွၤန့ၣ်": 3446,
      "ဘၣ်တၢ်ပာ်": 3447,
      "ဖျီၣ်": 3448,
      "လဲၤတၢ်လၢ": 3449,
      "တုၤယ": 3450,
      "ထံၣ်ဝဲ": 3451,
      "ဟံၣ်ပူၤ": 3452,
      "ဒီးပှၤတဂၤ": 3453,
      "အကိာ်": 3454,
      "မ့ၢ်ဂ့ၤန့ၣ်": 3455,
      "ဒီးစီၤဘ": 3456,
      "လၤအူး": 3457,
      "အၢတၢ်သီ": 3458,
      "လၢပက": 3459,
      "တၤဆှုၣ်": 3460,
      "မၤတ့ၢ်အသး": 3461,
      "ခါဆူညါ": 3462,
      "လီၤတယၢၢ်": 3463,
      "ပှၤကညီဖိခွါ": 3464,
      "အုၣ်အသး": 3465,
      "ပျီဆူၣ်": 3466,
      "လီၤကလဲ": 3467,
      "ကယီ": 3468,
      "ခိၣ်ပှၤနၢ်": 3469,
      "သိၣ်လီၤသီလီၤ": 3470,
      "ဟူသၣ်ဖျါ": 3471,
      "ဖရၤသး": 3472,
      "စ့ၤ": 3473,
      "စူၣ်": 3474,
      "ယံၣ်": 3475,
      "ရယၤ": 3476,
      "အညၣ်": 3477,
      "ဧမၤ": 3478,
      "ပှၤတီပှၤလိၤ": 3479,
      "အိၣ်သးအိၣ်": 3480,
      "သ့ၣ်ယီၤ": 3481,
      "သုလၢသု": 3482,
      "တကနၣ်": 3483,
      "ဖဲယွၤ": 3484,
      "အတၢ်အၢၣ်လီၤအီလီၤ": 3485,
      "ဆူတၢ်လီၢ်": 3486,
      "အသးလၢက": 3487,
      "ကီၢ်တဘ့ၣ်": 3488,
      "ပျုၢ်": 3489,
      "ကိးန့ၢ်": 3490,
      "ထံပူၤ": 3491,
      "ကွၢ်တက့ၢ်": 3492,
      "ယဲလီၤ": 3493,
      "ကမၤနၢၤ": 3494,
      "အဒု": 3495,
      "အဒ့": 3496,
      "စ့ၢ်ကီးဝဲ": 3497,
      "ကီၢ်အဲၤကူပတူးအစီၤပၤ": 3498,
      "တဘိယူၢ်ဃီ": 3499,
      "တပူၤလၢ်လၢ်": 3500,
      "အါအါကလဲာ်": 3501,
      "စီၤယဟိၡၤဖး": 3502,
      "ယဒီပုၢ်ဝဲၢ်သ့ၣ်ဧၢ": 3503,
      "ဃံးစကံယၤ": 3504,
      "နစု": 3505,
      "ဘ့ၢ်": 3506,
      "ယၡါယၤ": 3507,
      "ဟုး": 3508,
      "အဖံး": 3509,
      "၀၀": 3510,
      "၂၄": 3511,
      "ဒီးပိာ်မုၣ်": 3512,
      "ပှၤလၢန": 3513,
      "တဖၣ်ဟဲ": 3514,
      "အိၣ်ဖဲန့ၣ်": 3515,
      "အိၣ်ဘှီၣ်": 3516,
      "အဝဲအံၤမ့ၢ်": 3517,
      "အီၤအဂီၢ်": 3518,
      "မုၢ်နုာ်": 3519,
      "ဒၣ်သုဝဲ": 3520,
      "က့ၤတၢ်": 3521,
      "ဆှိး": 3522,
      "နၤဘၣ်": 3523,
      "လဲၣ်န့ၣ်လီၤ": 3524,
      "ဒုးသုး": 3525,
      "စီၤပၤၡလိၤမိၤ": 3526,
      "ခံဒု": 3527,
      "ဒီးပှၤကလုာ်": 3528,
      "ဟီၣ်ဝဲ": 3529,
      "ဒိးလဲ": 3530,
      "ဝံၤန့ၣ်": 3531,
      "ဧိၤတာ်": 3532,
      "ပှၤလၢအမၤ": 3533,
      "စိာ်ထီၣ်": 3534,
      "ယကဟ့ၣ်လီၤ": 3535,
      "လၢအအိၣ်ဝဲ": 3536,
      "တမ့ၢ်ထဲ": 3537,
      "ပၢတၢ်လၢ": 3538,
      "မၤတ့ၢ်လံ": 3539,
      "ဟံးန့ၢ်ကွံာ်": 3540,
      "လၢမုၢ်နုာ်": 3541,
      "လၢမုၢ်မဆါတနံၤအံၤ": 3542,
      "ဘၣ်တၢ်မၤဟးဂီၤ": 3543,
      "လ့ၤတက့ၤ": 3544,
      "လ့ၤဝံဖိတဖၣ်": 3545,
      "လဲၤထီၣ်ဒုး": 3546,
      "အါမးလီၤ": 3547,
      "ပာ်ထီၣ်ထီအသး": 3548,
      "တီတီလိၤလိၤ": 3549,
      "တလဲ": 3550,
      "ဒံၣ်": 3551,
      "နစၤ": 3552,
      "ပဒါ": 3553,
      "ယကစၢ်": 3554,
      "ဟၢ": 3555,
      "အလၢအပှဲၤ": 3556,
      "ပှၤဟးဂီၤ": 3557,
      "ပှၤတဖၣ်အံၤ": 3558,
      "သးဒိၣ်ထီၣ်": 3559,
      "အဝဲဆှၢလီၤ": 3560,
      "ဖိအ": 3561,
      "ဖိအဒူၣ်": 3562,
      "အတၢ်ထုကဖၣ်": 3563,
      "ဆူအဝဲသ့ၣ်": 3564,
      "လုၢ်လီၢ်": 3565,
      "အဃိန့ၣ်တက့ၢ်": 3566,
      "ဟ့ၣ်ပှၤ": 3567,
      "လဲၤဆူဝ့ၢ်": 3568,
      "တုၤအဝဲသ့ၣ်": 3569,
      "လၢယမဲာ်ညါ": 3570,
      "အဂ့ၢ်လီၤ": 3571,
      "မုၣ်ကမၣ်ခွါ": 3572,
      "ဧိၤကီၢ်": 3573,
      "လၢအအိၣ်ဒီးတၢ်": 3574,
      "တဖၣ်လၢက": 3575,
      "ဖးဒိၣ်လၢပျၢၤ": 3576,
      "ကဘၣ်တၢ်မၤဟးဂီၤ": 3577,
      "အတီၤ": 3578,
      "အလိၤလီၤ": 3579,
      "ဒီးယတ": 3580,
      "ကလုာ်ဒဲး": 3581,
      "သၢသီ": 3582,
      "ရၤဃ": 3583,
      "ဘူၣ်ထီၣ်ဘါထီၣ်အီၤ": 3584,
      "ယမ့ၢ်ယွၤ": 3585,
      "ပူထီၣ်တၢ်": 3586,
      "ဖိဃီဖိတဖၣ်": 3587,
      "ကဆှီထီၣ်": 3588,
      "စဲဘူး": 3589,
      "အန့ၣ်ဝံၤဒီးအဝဲ": 3590,
      "ကွဲးနီၣ်ကွဲးဃါ": 3591,
      "တနၢ်ဟူ": 3592,
      "ကျၢၢ်ဘၢ": 3593,
      "စံးထီၣ်ပတြၢၤယွၤတက့ၢ်": 3594,
      "မုၢ်ဟါလီၤ": 3595,
      "တၢ်ဆိးအလီၢ်": 3596,
      "ဘၣ်ဖၣ်လဲ": 3597,
      "ခၣ်": 3598,
      "ထ့ၣ်": 3599,
      "န့ၤ": 3600,
      "ပပၢ်": 3601,
      "ယုၤ": 3602,
      "ဒီးဒ်": 3603,
      "ပှၤပိာ်မုၣ်": 3604,
      "တဖၣ်ကဘၣ်": 3605,
      "လၢအဘၣ်ဃးဒီး": 3606,
      "အိၣ်သကိး": 3607,
      "သးလီ": 3608,
      "ကစွါ": 3609,
      "ပာ်တၢ်ကမၣ်": 3610,
      "ကမှ": 3611,
      "သူၣ်က့": 3612,
      "မဲာ်ထံ": 3613,
      "လၢနွံ": 3614,
      "အကရူၢ်": 3615,
      "ဧိၤလီၤ": 3616,
      "ဟီၣ်ခိၣ်လိၤ": 3617,
      "သၣ်ထီၣ်": 3618,
      "ကူာ်": 3619,
      "ကျဲဒ်လဲၣ်": 3620,
      "န့ၣ်ဘၣ်ဧါ": 3621,
      "တဖျၢၣ်လၢ": 3622,
      "နကလုၢ်": 3623,
      "ပၢၤခိၣ်": 3624,
      "စီၤယၤရၤဘၣ်": 3625,
      "လုၢ်ထီၣ်ပာ်ထီၣ်": 3626,
      "စီၤအၤဘြၣ်": 3627,
      "မၤအသးဒ်": 3628,
      "လီၤပလိာ်": 3629,
      "မ့ၢ်အတီ": 3630,
      "ဟ့ၣ်ကူၣ်ဟ့ၣ်": 3631,
      "အနံၤန့ၣ်": 3632,
      "လံးပ": 3633,
      "ပဲတြီ": 3634,
      "ဘီၣ်ထီၣ်ညီထီၣ်": 3635,
      "စံၣ်စိၤတဲစိၤ": 3636,
      "ဟၢဖၢ": 3637,
      "ဂိာ်": 3638,
      "စုၣ်": 3639,
      "စပၤ": 3640,
      "ဖိၣ်": 3641,
      "ယထံၣ်ဘၣ်": 3642,
      "အလီ": 3643,
      "အနီၢ်ခိ": 3644,
      "တၢ်ဆိၣ်ဂ့ၤ": 3645,
      "တၢ်နီတမံၤဘၣ်": 3646,
      "တဖၣ်လၢအမ့ၢ်": 3647,
      "တဖၣ်အပူၤန့ၣ်": 3648,
      "အိၣ်ဒီးသု": 3649,
      "အတၢ်ဆိကမိၣ်": 3650,
      "ဂ့ၤတဂၤဂ့ၤ": 3651,
      "ဟ့ၣ်ဂံၢ်ဟ့ၣ်ဘါ": 3652,
      "စီၤပၤအၤ": 3653,
      "ဘၣ်ဆၣ်သနာ်က့": 3654,
      "ဒ်သိးပက": 3655,
      "ပှၤအဒိၣ်": 3656,
      "စုကဝဲၤ": 3657,
      "စရ့": 3658,
      "ဒီးပှၤကညီ": 3659,
      "ယ့ၣ်ၡူးစံးဘၣ်အဝဲသ့ၣ်": 3660,
      "ဒ်အံၤလီၤ": 3661,
      "ဆိပာ်": 3662,
      "အိၣ်ဝဲအသိးန့ၣ်လီၤ": 3663,
      "အီၣ်ဝဲ": 3664,
      "တၢ်လၢပ": 3665,
      "အဂၤတဂၤ": 3666,
      "ဘှ့ၣ်": 3667,
      "လၢဝ့ၢ်ပူၤ": 3668,
      "တၤသူ": 3669,
      "ဖၣ်ဆါ": 3670,
      "ကအိၣ်က": 3671,
      "ကအိၣ်ဒီး": 3672,
      "နီတဂၤတဂ့ၤ": 3673,
      "အန့ၣ်ဒၣ်လဲာ်": 3674,
      "ဖံလံးပ": 3675,
      "အကီၢ်ပူၤ": 3676,
      "ဝ့ၢ်ယရူၤၡလ့ၣ်အပူၤ": 3677,
      "ဘ့ၤလး": 3678,
      "သပှၢ်ပှၢ်": 3679,
      "ထီဘိလီၤ": 3680,
      "ဃိာ်ပူၤ": 3681,
      "တဘီ": 3682,
      "ဘယၤ": 3683,
      "ယဟိဝၤ": 3684,
      "ဲၢ်": 3685,
      "၂၃": 3686,
      "ၡဘၤ": 3687,
      "တၢ်ယိး": 3688,
      "တၢ်နးတၢ်ဖှီၣ်": 3689,
      "ဒီးပှၤအ": 3690,
      "မ့ၢ်လၢပှၤ": 3691,
      "သုတအိၣ်": 3692,
      "ဒ်ယွၤမၤလိာ်": 3693,
      "အဝဲသ့ၣ်ဘၣ်တၢ်": 3694,
      "ခိၣ်နၢ်": 3695,
      "ဆူအအိၣ်": 3696,
      "ကစၢ်ယွၤက": 3697,
      "နၤန့ၣ်လီၤ": 3698,
      "ကိးကလုာ်ဒဲး": 3699,
      "ခံခီ": 3700,
      "တုၤလၢအ": 3701,
      "ဖိတဖၣ်န့ၣ်လီၤ": 3702,
      "လၢနီၣ်": 3703,
      "မ့ၢ်ဂ့ၤန့ၣ်လီၤ": 3704,
      "ဝံတဂၤ": 3705,
      "ဃီန့ၣ်": 3706,
      "သုးဘူး": 3707,
      "အီၣ်တၢ်အီ": 3708,
      "ဃုကယၤ": 3709,
      "ကူၣ်ကျဲၤ": 3710,
      "စံးဆၢက့ၤ": 3711,
      "အကျါလီၤ": 3712,
      "ဒီးသုက": 3713,
      "ယသးအိၣ်": 3714,
      "မ့တမ့ၢ်ဘၣ်ဒီး": 3715,
      "ခ့အပှၤ": 3716,
      "နွံသီ": 3717,
      "ခံဂၤအံၤ": 3718,
      "ဃုထၢထီၣ်": 3719,
      "ပှၤကလုာ်ဂၤ": 3720,
      "စိးပျၤ": 3721,
      "တကပၤန့ၣ်လီၤ": 3722,
      "ကွီၢ်ဘျီၣ်": 3723,
      "ကရၢ": 3724,
      "ရိဖှိၣ်": 3725,
      "ထါယၢၣ်": 3726,
      "ပှၤတဂၤဂၤမ့ၢ်": 3727,
      "ဒ်သိးအသုတ": 3728,
      "ဂုာ်ဆူၣ်ပျီဆူၣ်": 3729,
      "အုကစွါ": 3730,
      "စီၤဒၤနံးယ့လး": 3731,
      "ဧမၤလ့း": 3732,
      "တသီၣ်": 3733,
      "နၢၣ်": 3734,
      "ယဘၣ်တၢ်": 3735,
      "အသၣ်": 3736,
      "တၢ်ကိးမံၤဒဲး": 3737,
      "လီၤသုသး": 3738,
      "ဒီးစီၤအ": 3739,
      "ဒီးထူ": 3740,
      "ဝဲအသိး": 3741,
      "ပှီၤ": 3742,
      "ပှၤတကလုာ်": 3743,
      "အိၣ်လၢအ": 3744,
      "ကီၢ်စူၤရံ": 3745,
      "သ့း": 3746,
      "ထံၣ်လိာ်": 3747,
      "ဟးဝ့ၤဝီၤ": 3748,
      "ကနဲ": 3749,
      "တအိၣ်နီတမံၤဘၣ်": 3750,
      "သိၣ်က့ၤ": 3751,
      "အီၣ်အီၤ": 3752,
      "လၤဘၣ်": 3753,
      "ပှၤတဂၤဂ့ၤတဂၤဂ့ၤ": 3754,
      "ဒၣ်လဲာ်န့ၣ်လီၤ": 3755,
      "တဲဘၣ်အီၤ": 3756,
      "နၢ်ဟူတ့ၢ်": 3757,
      "မုာ်လၤ": 3758,
      "ဒူသးဒူ": 3759,
      "ပျီပူၤ": 3760,
      "ညၣ်ထ့ၣ်": 3761,
      "ဒံအါဂၤ": 3762,
      "တိာ်ပာ်": 3763,
      "စီၤယိၤအၣ်": 3764,
      "သံၣ်ဘိ": 3765,
      "ဒီၣ်တဲာ်": 3766,
      "စီၤဘံးလၣ်": 3767,
      "လၢအကလုၢ်ဖးဒိၣ်": 3768,
      "ဟ့ၣ်ကူၣ်ဟ့ၣ်ဖး": 3769,
      "ဃ့ၤ": 3770,
      "ပကမၤ": 3771,
      "ဘုက": 3772,
      "မိ": 3773,
      "မၢး": 3774,
      "ယပာ်လီၤ": 3775,
      "ယအဲၣ်ဒိး": 3776,
      "ရမံ": 3777,
      "လပီ": 3778,
      "အၣ်": 3779,
      "တၢ်သ့": 3780,
      "တၢ်ဃိၤ": 3781,
      "ဒီးကစၢ်": 3782,
      "ဒီးစီၤယိၤသး": 3783,
      "ပှၤဆါ": 3784,
      "မ့ၢ်အဝဲ": 3785,
      "ဒ်အဝဲ": 3786,
      "အံၤဆူ": 3787,
      "အဝဲသ့ၣ်စံးဝဲ": 3788,
      "ဖဲမုၢ်": 3789,
      "ဝ့ၢ်ယရူၤရှလ့ၣ်": 3790,
      "ဟ့ၣ်ကၣ်": 3791,
      "ကစၢ်ယွၤလီၤ": 3792,
      "ကစၢ်ယွၤအပှၤဂီၢ်မုၢ်": 3793,
      "ဟဲစူၤ": 3794,
      "လၢာ်ကွံာ်": 3795,
      "ကိးဃီၤ": 3796,
      "ခဲလၢာ်လၢအ": 3797,
      "ယဲၢ်ဂၤ": 3798,
      "ယကဒုးကဲထီၣ်": 3799,
      "ကဘၣ်တၢ်စံၣ်ညီၣ်": 3800,
      "ဂံၢ်ယ": 3801,
      "အဖီခိၣ်န့ၣ်": 3802,
      "တၢ်လီၢ်တတီၤ": 3803,
      "စီၤဧူး": 3804,
      "စီၤဃံးစကံယၤ": 3805,
      "ဆၣ်ဖိကီၢ်ဖိအမံၤ": 3806,
      "ထူးပှၤ": 3807,
      "ဖဲတၢ်ဆၢကတီၢ်": 3808,
      "ဒ့ဒီ": 3809,
      "ပာ်ဖျါထီၣ်တၢ်": 3810,
      "ဃါဃုာ်": 3811,
      "ကရူၢ်": 3812,
      "မ့းအိၣ်": 3813,
      "စီၤအဘံန့ၢ်": 3814,
      "စၤရါ": 3815,
      "သူၣ်က့သးပှၢ်": 3816,
      "ကဟုကယာ်": 3817,
      "စ့ၣ်": 3818,
      "တံ": 3819,
      "နဖိခွါ": 3820,
      "နတၢ်မၤလိာ်": 3821,
      "ယစု": 3822,
      "အဂုၤ": 3823,
      "ၤစ": 3824,
      "တၢ်အဂီၢ်": 3825,
      "ဒီးထိၣ်": 3826,
      "ဒီးကယဲၢ်တၢ်": 3827,
      "သးကဲၤထီၣ်": 3828,
      "ံၣ်ၡိၣ်": 3829,
      "သုန့ၣ်လီၤ": 3830,
      "အံၤဘၣ်တၢ်": 3831,
      "အဝဲသ့ၣ်ဒီး": 3832,
      "တကတီၢ်": 3833,
      "လၢတၢ်တ": 3834,
      "စံးတၢ်ကတိၤ": 3835,
      "ခိၣ်ဖး": 3836,
      "ကစၢ်ယွၤအသး": 3837,
      "တမံၤလီၤ": 3838,
      "မုၣ်ကနီၤ": 3839,
      "နီၣ်ဂံၢ်": 3840,
      "လၢအအိၣ်ဒီးအ": 3841,
      "ပှဲၤဒီး": 3842,
      "မံဃုာ်": 3843,
      "သူအီၤလၢတၢ်": 3844,
      "တခီန့ၣ်": 3845,
      "သၢကယၤ": 3846,
      "ထံၣ်ဘၣ်ဝဲလၢ": 3847,
      "ဒုၣ်ပဒါ": 3848,
      "ခ့ခါ": 3849,
      "နွံဂၤ": 3850,
      "ဖိကီၢ်ဖိ": 3851,
      "ဒူတၢ်ဃိၤ": 3852,
      "ပှၤလုၢ်တၢ်အခိၣ်အဒိၣ်": 3853,
      "အခ့အ": 3854,
      "မၤဘၣ်အၢ": 3855,
      "တၢ်သူၣ်အုးသးအုး": 3856,
      "ကီၢ်ဘၤဘူၤလိၣ်အစီၤပၤ": 3857,
      "ယွၤစံးဘၣ်စီၤမိၤၡ့": 3858,
      "ပှၤလ့ၤဝံဖိ": 3859,
      "လီၤပှီၢ်ကွံာ်": 3860,
      "တ့လီၤပာ်လီၤ": 3861,
      "ပှၤဖလ့ၡသးဖိ": 3862,
      "ခိၣ်ပှၤနၢ်တဖၣ်": 3863,
      "သိၣ်က့ၤသီ": 3864,
      "ကဲာ်": 3865,
      "တလီၤ": 3866,
      "ဒံၤ": 3867,
      "ပမၤ": 3868,
      "သဖှ": 3869,
      "တၢ်လၢအဝဲ": 3870,
      "တၢ်ဆူးတၢ်ဆါ": 3871,
      "ဒီးမၢ": 3872,
      "န့ၣ်ကဘၣ်တၢ်": 3873,
      "ဝဲအသိးန့ၣ်လီၤ": 3874,
      "ဝဲဆူဝ့ၢ်": 3875,
      "ပှၤလၢပ": 3876,
      "ပှၤဖၤရံၤၡဲ": 3877,
      "ထီၣ်ဝဲလၢ": 3878,
      "အိၣ်တ့ၢ်": 3879,
      "သးဘိ": 3880,
      "ဒ်စီၤပၤ": 3881,
      "ဒ်တၢ်လုၢ်": 3882,
      "အံၤတက့ၢ်": 3883,
      "အဝဲသ့ၣ်အသး": 3884,
      "အတၢ်န့ၢ်သါ": 3885,
      "တ့ၢ်လီၤ": 3886,
      "လီၢ်ခံ": 3887,
      "လီၢ်ကဝီၤ": 3888,
      "တၢ်အဖၢမုၢ်": 3889,
      "ပၤရၣ်": 3890,
      "ဟ့ၣ်နၤ": 3891,
      "လဲၤသကိး": 3892,
      "လဲၤပူၤကွံာ်": 3893,
      "စီၤပၤဒၤဝံး": 3894,
      "လၢယကမၤ": 3895,
      "ဒ်သိးဒီး": 3896,
      "စရူး": 3897,
      "ကဲထီၣ်ဝဲ": 3898,
      "အလီၢ်ပစိာ်": 3899,
      "အါထီၣ်ဝဲ": 3900,
      "ဝံတၢ်ယိး": 3901,
      "ချံး": 3902,
      "ဆူၣ်မၤ": 3903,
      "ဃုထံၣ်န့ၢ်": 3904,
      "ကပံာ်": 3905,
      "လါစရူး": 3906,
      "ပၢဘၣ်": 3907,
      "ခါပတာ်": 3908,
      "ဒီးအဝဲသ့ၣ်က": 3909,
      "တခီလီၤ": 3910,
      "တသ့နီတဂၤဘၣ်": 3911,
      "ဒ်တၢ်ဘူၣ်တၢ်ဘါအလုၢ်အလၢ်": 3912,
      "ပှၤအဂၤတဖၣ်": 3913,
      "အိၣ်ဝဲဆိးဝဲလၢ": 3914,
      "ယဖိခွါဧၢ": 3915,
      "ဧိၤတာ်ဧိၤ": 3916,
      "ထူးပှၤတီၤ": 3917,
      "ကန့ၢ်": 3918,
      "တုာ်": 3919,
      "တၢ်တဖၣ်န့ၣ်": 3920,
      "တၢ်တြီၤ": 3921,
      "ဝဲဒိၣ်မးလီၤ": 3922,
      "မ့ၢ်ပ": 3923,
      "သ့ၣ်ခါပတာ်": 3924,
      "အဝဲသ့ၣ်အကစၢ်ယွၤ": 3925,
      "ကီၢ်ပူၤ": 3926,
      "ပာ်တီၢ်": 3927,
      "နၤတက့ၢ်": 3928,
      "ကိးနံၤ": 3929,
      "ကမံ": 3930,
      "လံဧါ": 3931,
      "လၢယူဒၤ": 3932,
      "ကွၢ်ဟုၣ်": 3933,
      "အီၤလၢစီၤပၤ": 3934,
      "အလီၢ်လီၤ": 3935,
      "ဝံအကျိာ်": 3936,
      "အကျၢၤ": 3937,
      "ဟ့ၣ်လီၤအီၤ": 3938,
      "မ့မ့ၢ်ပှၤလၢအ": 3939,
      "တၢ်လၢကစၢ်ယွၤ": 3940,
      "ကူသိး": 3941,
      "လံာ်တၢ်": 3942,
      "အတၤ": 3943,
      "အပှၤလုၢ်တၢ်အခိၣ်": 3944,
      "တဘ့ၣ်အံၤ": 3945,
      "ဘၣ်တၢ်မၤနၢၤ": 3946,
      "နသးသမူ": 3947,
      "အကီၢ်ဆၢ": 3948,
      "သ့တၢ်ဘူၣ်တၢ်ဘါအတၢ်သိၣ်တၢ်သီ": 3949,
      "စီၤအဘံၤမ့လ့း": 3950,
      "ယၣ်ဘျးသဒၢ": 3951,
      "ထွးထီၣ်": 3952,
      "ကူၣ်ထီၣ်ဖးလီၤ": 3953,
      "တၢ်ပျၢ်တၢ်ဒဲးဘး": 3954,
      "စှီၤကျိာ်": 3955,
      "ခ့ခါစှီၤကျိာ်": 3956,
      "ကဒု": 3957,
      "ဖံၤ": 3958,
      "သမၢ": 3959,
      "သကွီၤ": 3960,
      "အအံၤ": 3961,
      "အနး": 3962,
      "ၡက့ၣ်": 3963,
      "”—": 3964,
      "တၢ်ကံးယာ်": 3965,
      "ဒီသဒၢ": 3966,
      "ဝဲဒိၣ်မး": 3967,
      "တဖၣ်လၢအဝဲ": 3968,
      "တဖၣ်လၢပှၤ": 3969,
      "တဖၣ်အဃိန့ၣ်လီၤ": 3970,
      "မၤကဒီး": 3971,
      "မၤဃူမၤဖိး": 3972,
      "အိၣ်ဖျါ": 3973,
      "သးလီၤ": 3974,
      "သးဟးဂီၤ": 3975,
      "အဝဲအ": 3976,
      "အဝဲပာ်လီၤ": 3977,
      "အဝဲစံးဝဲဒၣ်": 3978,
      "ံၣ်စရ့": 3979,
      "စံးတၢ်": 3980,
      "က့ၤကိး": 3981,
      "ဒုးအီ": 3982,
      "ကွၢ်လၢ်": 3983,
      "ဟးထီၣ်ဝဲ": 3984,
      "အီၤလၢဝ့ၢ်": 3985,
      "ဟံၣ်ဆီ": 3986,
      "ဒဲးန့ၣ်": 3987,
      "ဒိးတၢ်": 3988,
      "စီဆှံကတၢၢ်": 3989,
      "ဘ့ၣ်ဆ့": 3990,
      "ဟ့ၣ်လီၤတ့ၢ်": 3991,
      "ဒၣ်ဝဲလီၤ": 3992,
      "ဘၤၡၣ်": 3993,
      "လီၤတီၤ": 3994,
      "လီၤတိၢ်": 3995,
      "အန့ၣ်ဝံၤအလီၢ်ခံ": 3996,
      "တသ့လၢၤဘၣ်": 3997,
      "ဆီတလဲ": 3998,
      "နီတမံၤတဂ့ၤ": 3999,
      "ယတံၤသကိး": 4000,
      "အဆၢကတီၢ်န့ၣ်လီၤ": 4001,
      "လၢဟီၣ်ခိၣ်လိၤ": 4002,
      "သိၣ်လိနဲၣ်": 4003,
      "အမဲာ်သၣ်": 4004,
      "တၢ်တတၢးတနါ": 4005,
      "ကယၢကယဲ": 4006,
      "ဆံးစၢ်န့ၢ်": 4007,
      "ပျၤထီ": 4008,
      "စိၤလီၤထီလီၤ": 4009,
      "စံၤနါ": 4010,
      "သ့ၣ်ဆှိအ့ရ့း": 4011,
      "ရၤဃ့လး": 4012,
      "ဃဲၤ": 4013,
      "တထံး": 4014,
      "တပျၢ်": 4015,
      "ထဲး": 4016,
      "ယတၢ်မၤလိာ်": 4017,
      "လၢထံကျိ": 4018,
      "တၢ်သးခု": 4019,
      "တၢ်သးကညီၤ": 4020,
      "ဒီးထံၣ်": 4021,
      "ဒီးဒုးကဲထီၣ်": 4022,
      "ဒီးဖဲအ": 4023,
      "န့ၣ်တၢ်": 4024,
      "ပှံၢ်": 4025,
      "မၤလၤကပီၤ": 4026,
      "လၢအသးအိၣ်": 4027,
      "စီၤကံးဒဧိၣ်": 4028,
      "အဝဲမ့ၢ်ပှၤ": 4029,
      "အီၤအဂီၢ်န့ၣ်လီၤ": 4030,
      "ဖိတဒု": 4031,
      "ဒ်ယွၤ": 4032,
      "အဝဲသ့ၣ်တဖၣ်": 4033,
      "လၢတၢ်အံၤအဃိ": 4034,
      "ကတၢ": 4035,
      "အတၢ်ဟ့ၣ်": 4036,
      "လုၢ်အီၣ်": 4037,
      "ဟ့ၣ်သု": 4038,
      "အသိးတက့ၢ်": 4039,
      "ဒီးအီ": 4040,
      "အီၤလၢထူ": 4041,
      "လၢနမဲာ်ညါ": 4042,
      "အဒၢ": 4043,
      "ကတၢၢ်ကွံာ်": 4044,
      "ချံၣ်": 4045,
      "ပျဲအဝဲသ့ၣ်": 4046,
      "တြူာ်": 4047,
      "ကအိၣ်ဆိး": 4048,
      "ကီၢ်အံၣ်စရ့လးအကစၢ်ယွၤ": 4049,
      "ထီဒါအီၤ": 4050,
      "ပာ်လီၤဆီ": 4051,
      "ဒီပုၢ်ဝဲၢ်မုၣ်": 4052,
      "ဟဲစိာ်န့ၢ်": 4053,
      "တဆံခံဂၤ": 4054,
      "လၢခံန့ၣ်": 4055,
      "လၢကီၢ်အဲၤကူပတူးအပူၤ": 4056,
      "ဂ့ၢ်လိာ်ဘှီလိာ်": 4057,
      "တုၤလီၤလၢ": 4058,
      "ပီးအလီ": 4059,
      "ဘၣ်ဒိဘၣ်ထံး": 4060,
      "အဘူးအတံၢ်": 4061,
      "တီဝဲလိၤ": 4062,
      "ဂ့ၤဂ့ၤဘၣ်ဘၣ်": 4063,
      "ကပူၤ": 4064,
      "မု": 4065,
      "အ့း": 4066,
      "လၢကလံၤထံး": 4067,
      "ဒီးသ့ၣ်": 4068,
      "ပှၤတက့ၢ်": 4069,
      "မၤတၢ်လၢ": 4070,
      "လၢအလီၤ": 4071,
      "လၢအိၣ်": 4072,
      "စီၤအဃံ": 4073,
      "အိၣ်ဖျဲၣ်": 4074,
      "သးဆး": 4075,
      "အဝဲဘၣ်တၢ်": 4076,
      "အီၤဒ်လဲၣ်": 4077,
      "သုစံး": 4078,
      "ဒ်အဝဲသ့ၣ်": 4079,
      "လၢတၢ်သးခု": 4080,
      "တဂၤမ့ၢ်": 4081,
      "ယၤအဖိခွါ": 4082,
      "ကီၢ်ဆၢ": 4083,
      "ဖျ့": 4084,
      "အဃိဘၣ်": 4085,
      "စီၤအမၤ": 4086,
      "အါမံၤ": 4087,
      "တီပာ်": 4088,
      "မ့ၢ်တၢ်မနုၤလဲၣ်": 4089,
      "တၢ်မၤဘူၣ်": 4090,
      "နံၤဘၣ်ဖၣ်လဲ": 4091,
      "ဆှၢထီၣ်": 4092,
      "ဒီးမၤတၢ်": 4093,
      "ကွဲးလံာ်": 4094,
      "နၢ်ဟူဘၣ်ဝဲ": 4095,
      "တဖျၢၣ်န့ၣ်": 4096,
      "လွံၢ်ကယၤ": 4097,
      "ပှၤလုၢ်တၢ်အခိၣ်အဒိၣ်ကတၢၢ်": 4098,
      "ပကြၢး": 4099,
      "စဲအ့ၣ်": 4100,
      "ဒီးမၤသံကွံာ်": 4101,
      "မၤနးမၤဖှီၣ်": 4102,
      "ဟဲလီၤစၢၤလီၤသွဲၣ်": 4103,
      "ရံးဘ": 4104,
      "တကနၣ်ဃုာ်": 4105,
      "ဧိၤကီၢ်ဧိၤ": 4106,
      "ကဲာ်ဆိး": 4107,
      "သဖှိ": 4108,
      "ဒၢ်": 4109,
      "နဒုၣ်နဒါ": 4110,
      "မဲၣ်": 4111,
      "အဝံ": 4112,
      "အဆူၣ်": 4113,
      "အလၢၢ်": 4114,
      "အဖျၢၣ်": 4115,
      "တၢ်စူၢ်တၢ်နာ်": 4116,
      "ပှၤတဖၣ်လၢ": 4117,
      "ပှၤတၢ်ဒဲးဘး": 4118,
      "ပှၤသ့ၣ်တဖၣ်အံၤ": 4119,
      "လၢအခီၣ်": 4120,
      "လၢအယံၤ": 4121,
      "မ့ၢ်လၢပ": 4122,
      "ပူၤကွံာ်ဝဲ": 4123,
      "အံၤလၢ": 4124,
      "မုၢ်သီ": 4125,
      "လၢတၢ်ချၢ": 4126,
      "လၢတၢ်ဒုးတၢ်ယၤ": 4127,
      "အတၢ်ထူးတၢ်တီၤ": 4128,
      "ဆူမူခိၣ်": 4129,
      "ဘၣ်တၢ်ဒုး": 4130,
      "ဟ့ၣ်ဝဲ": 4131,
      "ကွၢ်အီၤ": 4132,
      "စုထွဲ": 4133,
      "တမံၤန့ၣ်လီၤ": 4134,
      "ထီကတၢၢ်": 4135,
      "လၢသုသး": 4136,
      "ဟီၣ်ခိၣ်ဒီဘ့ၣ်": 4137,
      "အၢမၤ": 4138,
      "ဘၣ်ဆၣ်ဒီးအဝဲသ့ၣ်": 4139,
      "ပျံၤဘၣ်": 4140,
      "ပျံၤသကွီၤ": 4141,
      "စီၤအၤဒၣ်": 4142,
      "အခိၣ်ဒူ": 4143,
      "သၢနံၣ်": 4144,
      "တြိာ်": 4145,
      "စူၢ်တနာ်": 4146,
      "ကပီၤထီၣ်": 4147,
      "တဘၣ်မၤ": 4148,
      "ပှၤကနၤဧၣ်": 4149,
      "အမံၤအပူၤ": 4150,
      "လၢအကဟဲ": 4151,
      "ဆီဟံၣ်ဆီ": 4152,
      "ယွၤအတၢ်အၢၣ်လီၤအီလီၤ": 4153,
      "စူၤမ့းအိၣ်": 4154,
      "ဂၢၢ်အကျၢၤ": 4155,
      "အမုၢ်တနံၤ": 4156,
      "ထံကျါ": 4157,
      "စံဒိၣ်": 4158,
      "စီၤဃၤ": 4159,
      "သပှၢ်တၢၢ်": 4160,
      "ဖှံလီၤ": 4161,
      "နီၢ်နီၢ်လီၤ": 4162,
      "စဲပနီၣ်": 4163,
      "တၢ်ဘၣ်တ့": 4164,
      "ဘံၣ်ယၤမံၣ်အဒူၣ်": 4165,
      "အလံၤခွါ": 4166,
      "ၡံလိၤ": 4167,
      "ဒီးယွၤစံးဘၣ်စီၤမိၤၡ့": 4168,
      "ကအိၣ်ကဆိး": 4169,
      "ကလီၤ": 4170,
      "ကဒူးကဒ့ၣ်": 4171,
      "နတၢ်မၤ": 4172,
      "ပစံး": 4173,
      "ယခ့ယပှၤ": 4174,
      "ရူာ်": 4175,
      "သကူး": 4176,
      "အၢ်": 4177,
      "အဲၤကူပတူး": 4178,
      "အမ့ၢ်အတီ": 4179,
      "လီၤပှီၤ": 4180,
      "ဒီးစီၤယ": 4181,
      "ဒီးမ့ၣ်အူ": 4182,
      "ဒီးဖဲအဝဲသ့ၣ်": 4183,
      "ပှၤဘၣ်": 4184,
      "စီၤက": 4185,
      "သးဖျိး": 4186,
      "ဆူစီၤပၤ": 4187,
      "န့ၢ်ဝဲ": 4188,
      "ခဲလၢာ်ဒီး": 4189,
      "တုၤသု": 4190,
      "တုၤလၢဝ့ၢ်": 4191,
      "အီၤလၢသု": 4192,
      "အကြၢး": 4193,
      "ဧိၤမံၤ": 4194,
      "ပှၤလၢအဘၣ်တၢ်": 4195,
      "ဃီထၢ": 4196,
      "ပှဲၤဝဲဒီး": 4197,
      "ဒီးစီၤစီလူး": 4198,
      "ဒီးစီၤပ့းတရူး": 4199,
      "လါဟ့": 4200,
      "မိၢ်ပှၢ်": 4201,
      "ဒီးနက": 4202,
      "သံကွၢ်အဝဲသ့ၣ်": 4203,
      "ခရံာ်ဖိ": 4204,
      "ခဲအံၤန့ၣ်": 4205,
      "အိၣ်ဒီးတၢ်သူၣ်": 4206,
      "လ့ပ": 4207,
      "ကီၢ်အဲၤကူပတူးအပူၤ": 4208,
      "တခါလီၤ": 4209,
      "သါလီၤ": 4210,
      "တကပၤန့ၣ်": 4211,
      "ယွၤစံးဘၣ်ယၤ": 4212,
      "သူၣ်လီၤဖျး": 4213,
      "ဘူလိၣ်": 4214,
      "ဆံးယံာ်လဲၣ်": 4215,
      "ဃ့ၤသး": 4216,
      "တီပာ်လိၤ": 4217,
      "တပျဲ": 4218,
      "နတၢ်အဲၣ်": 4219,
      "ပထံၣ်ဘၣ်": 4220,
      "ယမံၤ": 4221,
      "ယဆိၣ်": 4222,
      "သူး": 4223,
      "သတြိာ်": 4224,
      "အသူၣ်": 4225,
      "ၤဘၣ်": 4226,
      "လၢပိာ်မုၣ်": 4227,
      "လၢထံကျိယၢ်ဒ့ၣ်": 4228,
      "ဒီးကွၢ်": 4229,
      "ဒီးဝံ": 4230,
      "ဒီးတမ့ၢ်": 4231,
      "လၢအစံးဝဲ": 4232,
      "လၢအပၢ်": 4233,
      "စီၤမံၤကါ": 4234,
      "အိၣ်ဘူး": 4235,
      "အိၣ်ဖျါထီၣ်": 4236,
      "သးလၢအ": 4237,
      "အဝဲဒုး": 4238,
      "သ့ၣ်တဖၣ်န့ၣ်လီၤ": 4239,
      "ယွၤကတိၤတၢ်ဒီး": 4240,
      "ပူၤလီၢ်": 4241,
      "သိးထီၣ်": 4242,
      "တကူာ်": 4243,
      "အတၢ်သံ": 4244,
      "အတၢ်ကစီၣ်": 4245,
      "ဒိၣ်တၢ်": 4246,
      "ဝ့ၢ်ခိၣ်ဒူ": 4247,
      "တၢ်အခီၣ်ထံး": 4248,
      "ဒ်သိးဒၣ်": 4249,
      "ဖးယံာ်": 4250,
      "လၢအအိၣ်မူ": 4251,
      "အီၣ်ကွံာ်": 4252,
      "စီၤယိၤၡံယၤ": 4253,
      "မးလီၤ": 4254,
      "ဟူထီၣ်": 4255,
      "ဆါအၢ": 4256,
      "ဘှါ": 4257,
      "ခါလီၤ": 4258,
      "စိဒိၣ်": 4259,
      "လီန့ၢ်": 4260,
      "လီသးကွံ": 4261,
      "ဂာ်ဒ်": 4262,
      "ဒီးအဝဲက": 4263,
      "တဖျၢၣ်အံၤ": 4264,
      "ဒိကနၣ်လၢ်": 4265,
      "ဒူၣ်ဃီထၢ": 4266,
      "ဘူၣ်ထီၣ်ဘါထီၣ်တၢ်": 4267,
      "စီၤဧး": 4268,
      "ဘၣ်ဝဲဘၣ်": 4269,
      "တၢ်န့ၣ်မ့ၢ်": 4270,
      "အဒိၣ်အမုၢ်": 4271,
      "ဖီၣ်န့ၢ်အီၤ": 4272,
      "ဖိသၣ်ပိာ်ခွါ": 4273,
      "လၢတၢ်လီၢ်ကိးပူၤဒဲး": 4274,
      "ကီၤလၤအူး": 4275,
      "ထူၣ်ဖျဲးထီၣ်": 4276,
      "ယိးဘိ": 4277,
      "ပှၤတခီဘီမုၢ်ဖိ": 4278,
      "မနုၤတမံၤလဲၣ်": 4279,
      "ဟိၤယါ": 4280,
      "ကမှံ": 4281,
      "ဂံၢ်ယဘါ": 4282,
      "သိၣ်က့ၤသီက့ၤ": 4283,
      "ကွၢ်ဟုၣ်ကွၢ်": 4284,
      "စုး": 4285,
      "စဒိၣ်": 4286,
      "စကၤ": 4287,
      "တဘျုး": 4288,
      "နူၤ": 4289,
      "နကစၢ်ယွၤ": 4290,
      "ယိ": 4291,
      "သလုး": 4292,
      "အကစၢၢ်": 4293,
      "တၢ်တမံၤမံၤ": 4294,
      "ပှၤကွၢ်သိ": 4295,
      "တဖၣ်ဒီးမၤ": 4296,
      "စီၤဃ့": 4297,
      "အိၣ်လၢဝ့ၢ်": 4298,
      "သ့ၣ်တဖၣ်လၢအ": 4299,
      "အီၤတသ့ဘၣ်": 4300,
      "ဒ်တၢ်လုၢ်တၢ်ပာ်": 4301,
      "တကီၢ်": 4302,
      "ယၤလၢန": 4303,
      "ကွံာ်လီၤ": 4304,
      "အသးဘၣ်": 4305,
      "ကီၢ်န့ၣ်": 4306,
      "ဒိၣ်ထီၣ်ဝဲ": 4307,
      "ခဲမုၢ်ဆ့ၣ်": 4308,
      "တၢ်အကတီၢ်": 4309,
      "အသိးန့ၣ်ဘၣ်": 4310,
      "ဒ်သိးနက": 4311,
      "ဟးဖး": 4312,
      "ဖိတဖၣ်ဒီး": 4313,
      "ဒၤမ့ၤ": 4314,
      "ဝဲလၢပှၤ": 4315,
      "ကတိၤတ့ၢ်": 4316,
      "ကတိၤဒုၣ်ဒွဲၣ်": 4317,
      "ဒဲးလီၤ": 4318,
      "ယဲၢ်ကယၤ": 4319,
      "နီၣ်ဧိၤမံၤ": 4320,
      "လၢအဝဲသ့ၣ်အကျါ": 4321,
      "မၤသံကွံာ်အီၤ": 4322,
      "ဃၣ်ကဒါက့ၤ": 4323,
      "ဝဲဒၣ်လၢ": 4324,
      "ပျၢ်ဖျဲး": 4325,
      "ကညီၢ်": 4326,
      "ဂဲၤကလ": 4327,
      "ဒီးကး": 4328,
      "ယသးလၢ": 4329,
      "အဟံၣ်ပူၤ": 4330,
      "ဂဲၤဆၢထၢၣ်ဒီး": 4331,
      "နီၢ်ကစၢ်ဒၣ်ဝဲ": 4332,
      "စီၤအၤဟရိၣ်ဒီးအဖိခွါ": 4333,
      "အခ့အပှၤတဖၣ်": 4334,
      "န့ဆၢၣ်": 4335,
      "လၢထီၣ်ပှဲၤထီၣ်ဝဲ": 4336,
      "ကြီ": 4337,
      "နုၢ်ထံ": 4338,
      "တၤသၣ်လီၢ်": 4339,
      "လၢအလီၢ်န့ၣ်လီၤ": 4340,
      "တၢ်မၢဖိတဖၣ်": 4341,
      "ပာ်တ့ၢ်ကွံာ်": 4342,
      "တိၢ်န့ၢ်ဖံးဃာ်": 4343,
      "ကစီဒီဧါ": 4344,
      "ဒီးကိၣ်မံၣ်": 4345,
      "တစိၢ်တလီၢ်": 4346,
      "အၢမၤသီ": 4347,
      "ကဆှ": 4348,
      "နဒုး": 4349,
      "နမၤတၢ်": 4350,
      "ယဃ့ကညး": 4351,
      "သဒံး": 4352,
      "အံၣ်": 4353,
      "အယွၤ": 4354,
      "အရ့ဒိၣ်": 4355,
      "ဧ့လး": 4356,
      "ၡံး": 4357,
      "ဒီးထံၣ်ဘၣ်": 4358,
      "ဘၣ်သီ": 4359,
      "စီၤလါစရူး": 4360,
      "အိၣ်ဖဲလဲၣ်": 4361,
      "ူၤၡး": 4362,
      "အီၤလံ": 4363,
      "တကုာ်": 4364,
      "တကရူၢ်": 4365,
      "မုၢ်ဆါ": 4366,
      "လၢတၢ်အၢၣ်": 4367,
      "အတၢ်ပၢ": 4368,
      "ဆူဟံၣ်": 4369,
      "ဒိၣ်သးဖျိး": 4370,
      "ညါလီၤ": 4371,
      "မံၤဟူသၣ်ဖျါ": 4372,
      "လဲၤလီၤ": 4373,
      "ဒီးအမါ": 4374,
      "ဘၣ်ဆၣ်အဝဲ": 4375,
      "ဒ်သိးပှၤ": 4376,
      "စရိၣ်": 4377,
      "အီၤလၢက": 4378,
      "ဧိၤဖီ": 4379,
      "နီၣ်ထီၣ်": 4380,
      "စိာ်ထီၣ်ကွံာ်": 4381,
      "လၢပှၤယူဒၤဖိ": 4382,
      "ဖျါလၢ": 4383,
      "ဒီးစီၤဧ": 4384,
      "ကူထီၣ်": 4385,
      "အလိၤဒီး": 4386,
      "တဲဘၣ်အဝဲသ့ၣ်": 4387,
      "စီၤၡံၣ်ၡိၣ်": 4388,
      "ဆိကမိၣ်လၢ": 4389,
      "အမံၤပှၢ်": 4390,
      "ထိၣ်လွံၢ်": 4391,
      "ယံာ်ယံာ်": 4392,
      "ဆူတၢ်သံ": 4393,
      "ကးတံာ်": 4394,
      "လုၢ်ထီၣ်တၢ်လုၢ်တၢ်ပာ်": 4395,
      "အအိၣ်ဒီးစံးဝဲ": 4396,
      "လ့ၤဝံဖိ": 4397,
      "ဖလ့ၡသးဖိ": 4398,
      "မံးစပၤ": 4399,
      "ဃၤဘၣ်": 4400,
      "စူၢ်က့ၤနာ်က့ၤတၢ်": 4401,
      "ယီၢ်တံၢ်": 4402,
      "ကတူၢ်လိာ်": 4403,
      "စီၤအ့လကါ": 4404,
      "ဂိာ်တသီၣ်": 4405,
      "အတၤသၣ်": 4406,
      "စိဒိၣ်ကမီၤ": 4407,
      "ဒၤမ့ၤစ့း": 4408,
      "ဃိၣ်": 4409,
      "ဃိၢ်": 4410,
      "ဘဲ": 4411,
      "မနၤလီၤ": 4412,
      "ယမ့ၢ်ပှၤ": 4413,
      "ယကိးထီၣ်": 4414,
      "ရိၤ": 4415,
      "ရူး": 4416,
      "လူၣ်": 4417,
      "အစီၤ": 4418,
      "အဟဲ": 4419,
      "အဝါ": 4420,
      "အယံၤ": 4421,
      "အကလံၤထံး": 4422,
      "ၡူၢ်": 4423,
      "ၡ့း": 4424,
      "တၢ်ဒ်": 4425,
      "ဒီဖု": 4426,
      "ဒီးမ်": 4427,
      "ဒီးဟံးန့ၢ်": 4428,
      "ဒီးပှၤအံၣ်စရ့လးဖိ": 4429,
      "န့ၣ်ဂ့ၤ": 4430,
      "ဘၣ်အဝဲသ့ၣ်": 4431,
      "ပှာ်": 4432,
      "ပှၤလီၤ": 4433,
      "ပှၤခိး": 4434,
      "အိၣ်စ့ၢ်ကီး": 4435,
      "အိၣ်ခူသူၣ်": 4436,
      "သုပၢ်": 4437,
      "ယွၤသုကစၢ်ယွၤ": 4438,
      "ဒ်ကစၢ်ယွၤ": 4439,
      "အတၢ်အၢၣ်လီၤ": 4440,
      "အတၢ်စုလီၢ်ခီၣ်ခိၣ်": 4441,
      "တဂၤဃီ": 4442,
      "ယၤတဂ့ၤ": 4443,
      "ယၤဒီးယ": 4444,
      "ဆူသုအိၣ်": 4445,
      "ကစၢ်အဂၤတဖၣ်": 4446,
      "အပူၤလီၢ်": 4447,
      "ပာ်အီၤ": 4448,
      "လုၢ်တၢ်ပာ်": 4449,
      "ခဲဆ့": 4450,
      "ကစၢ်ယွၤအဖိခွါ": 4451,
      "ဒီးတၢ်လီၢ်": 4452,
      "သ့စီ": 4453,
      "နီၢ်သး": 4454,
      "လၢယမၤ": 4455,
      "ကွၢ်လီၤ": 4456,
      "စရၤ": 4457,
      "ဒီးပှၤကိးဂၤဒဲး": 4458,
      "ဒိးထီၣ်": 4459,
      "ဒိးဘျၢ": 4460,
      "ဒိးကသ့ၣ်": 4461,
      "တအိၣ်လၢၤ": 4462,
      "ကတၢၢ်န့ၣ်လီၤ": 4463,
      "ကဲထီၣ်အသး": 4464,
      "နာ်န့ၢ်": 4465,
      "မၢဆူၣ်": 4466,
      "ဆိကမိၣ်ဝဲ": 4467,
      "ရံယၤ": 4468,
      "လၢအကဆှီ": 4469,
      "တအိၣ်ဘၣ်နီတဂၤဘၣ်": 4470,
      "အိၣ်မူဒံး": 4471,
      "ဃီၤဆူ": 4472,
      "နတၢ်သိၣ်တၢ်သီ": 4473,
      "နွံနံၣ်": 4474,
      "စီၤဧ့ၤ": 4475,
      "ဃုထၢအီၤ": 4476,
      "တခါလၢ": 4477,
      "တ့ၢ်ဝဲန့ၣ်လီၤ": 4478,
      "ဒ်န့ၣ်အသိးလီၤ": 4479,
      "သ့တၢ်ဘၣ်": 4480,
      "လူၤထွဲ": 4481,
      "တြီဃာ်": 4482,
      "အဖီလာ်န့ၣ်လီၤ": 4483,
      "သၤလံ": 4484,
      "တဘျီဃီန့ၣ်": 4485,
      "အိပူၤ": 4486,
      "လီၤမၢ်ကွံာ်ဝဲ": 4487,
      "ဆိကတီၢ်ကွံာ်": 4488,
      "သးပ့ၤနီၣ်ကွံာ်": 4489,
      "ဧ့စ့ၢ်": 4490,
      "လုးတကုာ်": 4491,
      "အဒီပုၢ်ဝဲၢ်မုၣ်": 4492,
      "လၢယမ့ၢ်ယွၤန့ၣ်လီၤ": 4493,
      "ကျိၣ်စ့": 4494,
      "သုးခိၣ်သုးနၢ်တဖၣ်": 4495,
      "ထူၣ်စုညါအလိၤ": 4496,
      "ရမံယၤ": 4497,
      "ဆူၣ်မၤစိး": 4498,
      "ရံးဘကၤ": 4499,
      "လ့ပစီ": 4500,
      "စယါ": 4501,
      "ယဘူၣ်": 4502,
      "ယအိၣ်ဒီးတၢ်": 4503,
      "ယတၢ်အဲၣ်": 4504,
      "လကံယၤ": 4505,
      "သလၢ": 4506,
      "သတြီၤ": 4507,
      "အလံာ်": 4508,
      "အကစၢၢ်ကလိ": 4509,
      "အပဒိၣ်ဖးဒိၣ်": 4510,
      "ံသၣ်": 4511,
      "ၠူၣ်": 4512,
      "လၢထး": 4513,
      "ဒီးဘၣ်": 4514,
      "ဒီးအသး": 4515,
      "ဒီးဃ့": 4516,
      "ဒီးစံးဘၣ်အဝဲသ့ၣ်": 4517,
      "ပှၤလၢယ": 4518,
      "ပှၤပၢၤ": 4519,
      "တဖၣ်အခိၣ်": 4520,
      "လၢအဟံၣ်": 4521,
      "သုမၤ": 4522,
      "သုဒုၣ်သုဒါ": 4523,
      "ယွၤမ့ၢ်": 4524,
      "ဒ်မ့ၣ်အူ": 4525,
      "လၢတၢ်ဒဲးဘး": 4526,
      "စံးအၢ": 4527,
      "အတၢ်စိတၢ်ကမီၤ": 4528,
      "ကစၢ်ဒၣ်ဝဲ": 4529,
      "တ့ၢ်မး": 4530,
      "ဟဲဝဲလၢ": 4531,
      "ကမၢ်": 4532,
      "သ့လၢ": 4533,
      "စီၤပၤဃံးစကံယၤ": 4534,
      "ခဲလၢာ်အံၤ": 4535,
      "လံန့ၣ်": 4536,
      "ဘၣ်ဆၣ်အဝဲသ့ၣ်": 4537,
      "လၢယအိၣ်": 4538,
      "လၢယသး": 4539,
      "လၢယပှၤဂီၢ်မုၢ်": 4540,
      "ထံၣ်တၢ်": 4541,
      "စုဆူၣ်": 4542,
      "အအိၣ်လၢ": 4543,
      "ဘါလီၢ်": 4544,
      "လၢအအိၣ်လၢဝ့ၢ်": 4545,
      "ခီၣ်တကး": 4546,
      "ခီဖျိအ": 4547,
      "ဆှၢဃီၤ": 4548,
      "စီၤယိၤနါ": 4549,
      "လါထီၣ်": 4550,
      "အတိာ်": 4551,
      "လိၣ်ဘၣ်ဝဲ": 4552,
      "ဒုၣ်အဒါ": 4553,
      "ဒိကနၣ်တက့ၢ်": 4554,
      "ဂဲၤထၢၣ်": 4555,
      "စီၤမိၤၡ့ဒီးစီၤအၤဟရိၣ်": 4556,
      "ပှၤကညီတဂၤ": 4557,
      "ဒ်တၢ်ကွဲးအသး": 4558,
      "တဆံလွံၢ်": 4559,
      "စုာ်စုာ်န့ၣ်လီၤ": 4560,
      "မၤနၢၤကွံာ်": 4561,
      "ဟဲထီၣ်ဒုး": 4562,
      "စီၤယဟိရၣ်": 4563,
      "သီတသီန့ၣ်": 4564,
      "ဝၢ်ဘးခီ": 4565,
      "ယစံးဘၣ်တဲဘၣ်သု": 4566,
      "ကၢၢ်နံၤ": 4567,
      "အတၢ်အဲၣ်ဂၢၢ်ကျၢၤ": 4568,
      "သးတဆး": 4569,
      "မံသးမုာ်": 4570,
      "လ့ၤတက့ၤဘၣ်": 4571,
      "နစၤရ့း": 4572,
      "တၤသူတၤသၣ်": 4573,
      "ကနဲစီ": 4574,
      "ကယာ်": 4575,
      "ဃၢ်": 4576,
      "တ့ၤ": 4577,
      "တပတီၢ်": 4578,
      "ပီလူး": 4579,
      "ယတၢ်မၤ": 4580,
      "ရုၢ်": 4581,
      "ဟဒး": 4582,
      "အလီၤ": 4583,
      "အစ့": 4584,
      "ီာ်": 4585,
      "၂၆": 4586,
      "တၢ်ဖး": 4587,
      "တၢ်သ့ၣ်ညါ": 4588,
      "တၢ်ဖျီ": 4589,
      "တၢ်သၣ်ဝံၤလီၤဒိ": 4590,
      "ဒီးကိး": 4591,
      "ဘၣ်တနံၤ": 4592,
      "ပှၤတဖၣ်န့ၣ်": 4593,
      "ပှၤမၤတၢ်": 4594,
      "ပှၤခံဂၤ": 4595,
      "တဖၣ်လဲၣ်": 4596,
      "တဖၣ်အပူၤလီၤ": 4597,
      "လၢအဒိၣ်": 4598,
      "အိၣ်ဒါ": 4599,
      "မ့ၢ်ပှၤအ": 4600,
      "မ့ၢ်လၢယွၤ": 4601,
      "မုၢ်အိၣ်ဘှံးနံၤ": 4602,
      "တဂၤဧၢ": 4603,
      "အသးပှၢ်": 4604,
      "ဘၣ်တၢ်စၢဃာ်": 4605,
      "လုၢ်တၢ်": 4606,
      "လုၢ်ပာ်": 4607,
      "လုၢ်လၢ်": 4608,
      "လးမူး": 4609,
      "နၤဆူ": 4610,
      "နီၢ်အ့ၤစ": 4611,
      "ခံဖျၢၣ်": 4612,
      "ဒီးအုၣ်": 4613,
      "ထီထီၣ်": 4614,
      "ပှၤလၢအမၤတၢ်": 4615,
      "ယ့ၣ်ၡူးစံးဘၣ်အီၤ": 4616,
      "ဒီးမၤစၢၤ": 4617,
      "ကွံာ်အီၤဒီး": 4618,
      "အူထီၣ်": 4619,
      "ကၤသး": 4620,
      "ပိာ်မုၣ်တဖၣ်": 4621,
      "လၢကဒုး": 4622,
      "တဲဘၣ်အီၤလၢ": 4623,
      "န့ၣ်ဘၣ်လီၤ": 4624,
      "တဘၣ်ဘၣ်": 4625,
      "တဘ့ၣ်လၢ": 4626,
      "ထိၣ်လီၤပှီၤ": 4627,
      "ဘူၣ်ထီၣ်ဘါထီၣ်ဝဲ": 4628,
      "ခ့ရူာ်": 4629,
      "သုဝဲခဲလၢာ်": 4630,
      "တၢ်န့ၣ်မ့ၢ်တၢ်": 4631,
      "ပာ်ဖှိၣ်အသး": 4632,
      "ကလူးန့ၣ်": 4633,
      "ချ့သဒံး": 4634,
      "ကစံးဝဲ": 4635,
      "တချုးလၢ": 4636,
      "ကဆှီထီၣ်က့ၤ": 4637,
      "ဆီၣ်လီၤ": 4638,
      "ဆီၣ်ထွဲ": 4639,
      "စီၤယံးၡမၤ": 4640,
      "ကရံၣ်": 4641,
      "သံၣ်မါ": 4642,
      "အိၣ်ဒံးဝဲ": 4643,
      "ဒီးအပှၤတဖၣ်": 4644,
      "လၢခံကတၢၢ်န့ၣ်": 4645,
      "ကီၢ်အၤၡူၢ်အစီၤပၤဖးဒိၣ်": 4646,
      "တစိၢ်ဖိ": 4647,
      "လၢတၢ်မၤစၢၤအဂီၢ်": 4648,
      "ဘုကၠူၣ်": 4649,
      "ဧိၤဖီဧိၤ": 4650,
      "ဂဲ": 4651,
      "မသ့း": 4652,
      "ယအိၣ်ဒီး": 4653,
      "သက့": 4654,
      "အသံ": 4655,
      "အဆၣ်": 4656,
      "အကလံၤစိး": 4657,
      "အဂၢၢ်အကျၢၤ": 4658,
      "လၢဘၣ်တၢ်": 4659,
      "တၢ်မ့ၢ်": 4660,
      "တၢ်ဒီးပှၤ": 4661,
      "တၢ်တဂ့ၤ": 4662,
      "တၢ်ဘူၣ်တၢ်ဘါ": 4663,
      "တၢ်မုၢ်လၢ်": 4664,
      "လီၤဘၣ်တၢ်": 4665,
      "ဒီးကီၢ်ယူဒၤ": 4666,
      "ဒီးမဲာ်တဲးလဲး": 4667,
      "ပှၤဧၣ်မိၣ်": 4668,
      "ပှၤထူးပှၤတီၤ": 4669,
      "လၢအကမၤ": 4670,
      "အဝဲအံၤန့ၣ်": 4671,
      "သုကျါ": 4672,
      "ယွၤမၤ": 4673,
      "ယွၤအအိၣ်": 4674,
      "အံၤစ့": 4675,
      "အဝဲသ့ၣ်ညါ": 4676,
      "အဝဲသ့ၣ်မ့ၢ်ပှၤ": 4677,
      "ဖဲကစၢ်ယွၤ": 4678,
      "ဖဲယအိၣ်": 4679,
      "လၢတၢ်အီၣ်": 4680,
      "လၢတၢ်လူၢ်": 4681,
      "ယၤဒ်": 4682,
      "အပူၤလၢ": 4683,
      "ပာ်မၤအသး": 4684,
      "ကျး": 4685,
      "အဃီ": 4686,
      "ညါအံၤ": 4687,
      "ကမုာ်": 4688,
      "မူဒံး": 4689,
      "ခံကလး": 4690,
      "ကွၢ်လၢ": 4691,
      "ပှၤလၢအတၢ်ကမၣ်": 4692,
      "ဟီၣ်ခိၣ်ဒီဘ့ၣ်ညါ": 4693,
      "စိာ်ကွံာ်": 4694,
      "လၢအအိၣ်ဝးတရံး": 4695,
      "ဆိပာ်စၢၤ": 4696,
      "ဒီးမၤနၢၤ": 4697,
      "ဒီးယကမၤ": 4698,
      "အပှၤတဖၣ်": 4699,
      "မၤတ့ၢ်အီၤ": 4700,
      "လီဝၢ်": 4701,
      "အမဲာ်ညါဒီး": 4702,
      "ရၤလီၤ": 4703,
      "စူၤသးစူၤ": 4704,
      "အလီၢ်ခံန့ၣ်": 4705,
      "ဟဲစိာ်တၢ်": 4706,
      "အမုၢ်နုာ်": 4707,
      "နွံဒု": 4708,
      "အဖိအလံၤ": 4709,
      "ပှၤကလုာ်ဂၤတဖၣ်": 4710,
      "ဆဲးလီၤ": 4711,
      "ထီဘိန့ၣ်လီၤ": 4712,
      "ယံးစရ့လး": 4713,
      "တံၤမသ့း": 4714,
      "ဟုကညီၢ်": 4715,
      "ဒီးလဲၤဝဲဆူ": 4716,
      "ဟါမၢ်ကွံာ်": 4717,
      "စီၤယံးၡဲ": 4718,
      "ဝဲဖဲန့ၣ်လီၤ": 4719,
      "စီၤယဟိယဒါ": 4720,
      "ဟ့ၣ်အီၤတၢ်": 4721,
      "စူၤရံဖိတဖၣ်": 4722,
      "မူဝဲတဂၤ": 4723,
      "သိဖါတဒု": 4724,
      "သရၣ်ဧၢ": 4725,
      "ကနၢ်ပၢၢ်": 4726,
      "ခၢၣ်သနၢၣ်": 4727,
      "ဂၢ်လီၤ": 4728,
      "အၢသီသီ": 4729,
      "ဖိၣ်ဃဲ": 4730,
      "ၤစယၤ": 4731,
      "ဆီဟံၣ်ဆီဃီ": 4732,
      "လုၢ်ပာ်ပှ့ၤ": 4733,
      "ကလၢၢ်": 4734,
      "ထၢၤ": 4735,
      "နစံး": 4736,
      "နကစၢ်": 4737,
      "ယတဲဘၣ်": 4738,
      "အဖှီၣ်": 4739,
      "လၢဒဲစီဆှံ": 4740,
      "တၢ်ဒူၣ်": 4741,
      "တၢ်ပနီၣ်": 4742,
      "လီၤလၢ": 4743,
      "ဒီးလၢၢ်": 4744,
      "ဒီးဆၣ်ဖိကီၢ်ဖိ": 4745,
      "ဒီးပှၤအဂၤ": 4746,
      "န့ၣ်လံ": 4747,
      "ပှၤအိၣ်ဝဲ": 4748,
      "အိၣ်ဒီးပှၤ": 4749,
      "သးဆူၣ်": 4750,
      "အဝဲဟ့ၣ်လီၤ": 4751,
      "သုခိၣ်": 4752,
      "ယွၤစံးဝဲ": 4753,
      "ကွ့ၢ်": 4754,
      "လၢတၢ်စူၢ်တၢ်နာ်": 4755,
      "အပူၤတဖၣ်": 4756,
      "အပူၤအသိးန့ၣ်လီၤ": 4757,
      "တ့ၢ်လၢ": 4758,
      "တ့ၢ်ယဲ": 4759,
      "နီၢ်ရၤဃ့လး": 4760,
      "ခံဘျီ": 4761,
      "တုၤမုၢ်ဟါလီၤ": 4762,
      "ဒ်သိးတၢ်": 4763,
      "အီၤလၢလၢၢ်": 4764,
      "တဲဖျါ": 4765,
      "ယ့ၣ်ၡူးစံးဘၣ်": 4766,
      "ပှၤတဂၤမ့ၢ်": 4767,
      "ထဲအံၤ": 4768,
      "ဖဲန့ၣ်အခါ": 4769,
      "အပှၤကလုာ်": 4770,
      "ၡ့ရၤ": 4771,
      "မ်ပက": 4772,
      "သူအီၤ": 4773,
      "လီသီၣ်": 4774,
      "ရၤမါ": 4775,
      "လၢၤဘၣ်န့ၣ်လီၤ": 4776,
      "ယတၢ်ကတိၤ": 4777,
      "အစုပူၤလီၤ": 4778,
      "ဆ့ၣ်ထီၣ်": 4779,
      "မၤစၢၤအီၤ": 4780,
      "မၤဝဲဒ်": 4781,
      "သုကသ့ၣ်ညါ": 4782,
      "ဂီၤဖံးမိၢ်": 4783,
      "အခံန့ၣ်လီၤ": 4784,
      "ဘါထုကဖၣ်တၢ်": 4785,
      "ဃါမနၤလီၤ": 4786,
      "အဘၢၣ်စၢၤန့ၣ်လီၤ": 4787,
      "စူးကွံာ်": 4788,
      "တၢ်စံၣ်ညီၣ်တီ": 4789,
      "မၤလိန့ၢ်": 4790,
      "တမံၤဂ့ၤတမံၤဂ့ၤ": 4791,
      "ယစံးဘၣ်သု": 4792,
      "လိးက့ၤ": 4793,
      "သိၣ်လိနဲၣ်ယုၤ": 4794,
      "နီၣ်ဧိၤမံၤဧိၤ": 4795,
      "အံၤစ့ဘ့ၤလး": 4796,
      "),": 4797,
      "ကသ့ၣ်တဖၣ်": 4798,
      "စာ်": 4799,
      "စဘူလိၣ်": 4800,
      "တမျ": 4801,
      "တတၢးတနါ": 4802,
      "နဘၣ်": 4803,
      "နကမၤ": 4804,
      "နယၢၣ်": 4805,
      "ပီၤ": 4806,
      "ပဝး": 4807,
      "ရၡိၣ်": 4808,
      "သဘံၣ်": 4809,
      "အလါ": 4810,
      "အသုးခိၣ်": 4811,
      "လၢပှၤအံၣ်စရ့လးဖိ": 4812,
      "လီၤမုၢ်": 4813,
      "ဒီးသူၣ်": 4814,
      "ဒီးစီၤအၤဘြၤဟၣ်": 4815,
      "ဝဲခဲလၢာ်": 4816,
      "ဘၣ်ဒံး": 4817,
      "မၤဘျါက့ၤ": 4818,
      "မၤတံာ်တာ်": 4819,
      "ထီၣ်တီၤ": 4820,
      "သးကါ": 4821,
      "သုကစၢ်": 4822,
      "အဝဲသ့ၣ်န့ၣ်": 4823,
      "အဝဲသ့ၣ်စံးဆၢဝဲ": 4824,
      "လၢတၢ်ပျံၤတၢ်ဖုး": 4825,
      "ဘၣ်တၢ်စိာ်မၢကဲကုၢ်": 4826,
      "ပာ်ဒိၣ်": 4827,
      "ဟဲဝဲဒီး": 4828,
      "သံဝဲလီၤ": 4829,
      "ဘၣ်ဆၣ်ဒီးအ": 4830,
      "ကွၢ်ဝဲ": 4831,
      "ပှၤအဒူၣ်": 4832,
      "စုပူၤ": 4833,
      "အီၤလၢထံ": 4834,
      "အီၤလၢမ့ၣ်အူ": 4835,
      "စံးဝဲအသိး": 4836,
      "ဒ်အံၤန့ၣ်": 4837,
      "တဂ့ၤအဂီၢ်လီၤ": 4838,
      "စ့ၢ်ကီးတၢ်": 4839,
      "ပှဲၤသိး": 4840,
      "ပျဲပှၤ": 4841,
      "ဖးဒိၣ်တဖၣ်": 4842,
      "ဃ့တၢ်": 4843,
      "မးလဲၣ်": 4844,
      "ဘၣ်ဃးဒီးပှၤ": 4845,
      "တဘျီအံၤ": 4846,
      "ကွံာ်အီၤလံ": 4847,
      "မၤတ့ၢ်တၢ်": 4848,
      "သူအီၤလၢ": 4849,
      "တနီၤနီၤ": 4850,
      "ထိၣ်သတြီၤ": 4851,
      "ဘၣ်တၢ်မၤစၢၤ": 4852,
      "ပိာ်ခွါတဖၣ်": 4853,
      "နွံဖျၢၣ်": 4854,
      "နွံကယၤ": 4855,
      "ဃုထၢပာ်လီၤ": 4856,
      "ပှၤကလုာ်ခဲလၢာ်": 4857,
      "ဆူတၢ်ချၢ": 4858,
      "မတၤတဂၤ": 4859,
      "လၢပျၢၤတဖၣ်": 4860,
      "ဘုမု": 4861,
      "ဝ့ၢ်ယရူၤၡလ့ၣ်အပှၤဂီၢ်မုၢ်": 4862,
      "ပှၤတစူၢ်တနာ်": 4863,
      "အအိၣ်ဒီးစံး": 4864,
      "တၢ်ဂ့ၢ်အံၤ": 4865,
      "ရ့နယၢၣ်": 4866,
      "သးဝံၣ်စံးထီၣ်ပတြၢၤ": 4867,
      "ဃံတၢ်လၤ": 4868,
      "မုၢ်နံၤမုၢ်သီ": 4869,
      "ခွဲးအယာ်": 4870,
      "ကကဲထီၣ်တၢ်": 4871,
      "လၢယ့ၣ်ၡူးခရံာ်": 4872,
      "ကံးလကၤလး": 4873,
      "ဃ့ထီကွံာ်": 4874,
      "လဲလိာ်ကွံာ်": 4875,
      "ဘူးထီၣ်လံ": 4876,
      "တကဲထီၣ်": 4877,
      "စၢၢ်ဆၢ": 4878,
      "က့း": 4879,
      "ကလီၤဘၣ်": 4880,
      "ဃမါ": 4881,
      "မရၤ": 4882,
      "ယဟဲ": 4883,
      "ယခီၣ်": 4884,
      "ယဆိကမိၣ်": 4885,
      "အခီ": 4886,
      "အနၢ်": 4887,
      "အပဒိၣ်ပပှၢ်": 4888,
      "ုဒု": 4889,
      "ဒီးလဲၤဆူ": 4890,
      "ဒီးဆူညါ": 4891,
      "ဘၣ်အဃိ": 4892,
      "လၢအဒုး": 4893,
      "စီၤက့": 4894,
      "စီၤစံးဒကံယၤ": 4895,
      "မ့ၢ်အဝဲသ့ၣ်": 4896,
      "သးလၢ": 4897,
      "အဝဲကမၤ": 4898,
      "အီၤမ့ၢ်ဂ့ၤ": 4899,
      "အီၤအသိးန့ၣ်လီၤ": 4900,
      "ဖိခဲလၢာ်": 4901,
      "ယွၤအကလုၢ်": 4902,
      "ကစုဒု": 4903,
      "တကတြ": 4904,
      "ဖဲပှၤဂီၢ်မုၢ်": 4905,
      "ဖဲစီၤဒၤဝံး": 4906,
      "ကတိၢ်န့ၢ်": 4907,
      "ဆူနအိၣ်": 4908,
      "ဂ့ၤလံ": 4909,
      "ပာ်လုၢ်ပာ်ပှ့ၤ": 4910,
      "တၢ်အ့ၣ်": 4911,
      "ဟ့ၣ်က့ၤ": 4912,
      "ကစၢ်ယွၤအဘီအမုၢ်": 4913,
      "ပျီၤ": 4914,
      "ဟဲဝံ": 4915,
      "သံလီၤ": 4916,
      "စီၤပၤတဖၣ်": 4917,
      "ဒီးအံၣ်စရ့လး": 4918,
      "ဒီးအခီၣ်": 4919,
      "ဒီးအသုးမုၢ်": 4920,
      "ထံဧိၤကီၢ်ဧိၤ": 4921,
      "သီတူၢ်": 4922,
      "ဖိတဖၣ်လၢ": 4923,
      "တမံၤအသိး": 4924,
      "ဒဲးန့ၣ်လီၤ": 4925,
      "စီၤအူၤ": 4926,
      "အလီၢ်တတီၤ": 4927,
      "ယဲၢ်ပျၢ်": 4928,
      "ကနာ်": 4929,
      "ဧိၤစီၤဧိၤ": 4930,
      "ပှၤလၢအအဲၣ်": 4931,
      "လၢသုမဲာ်ညါ": 4932,
      "တအိၣ်နီ": 4933,
      "ကတၢၢ်လီၤ": 4934,
      "တၢ်မၤကမၣ်": 4935,
      "ဟ့ၣ်လီၤအီၤဆူ": 4936,
      "ထီၣ်ဝဲန့ၣ်လီၤ": 4937,
      "နာ်သက့": 4938,
      "မၤတၢ်လီၤလး": 4939,
      "အီဝဲ": 4940,
      "ပိာ်မုၣ်ဖိ": 4941,
      "နးသၤလံ": 4942,
      "သကိးတၢ်ဒီး": 4943,
      "ဃၣ်ဃီၤ": 4944,
      "မ့ၢ်ပှၤလၢ": 4945,
      "တအိၣ်ဘၣ်ဒီး": 4946,
      "လၢကီၢ်ဘၤဘူၤလိၣ်": 4947,
      "လၢကီၢ်ကနၤဧၣ်": 4948,
      "ယွၤအတၢ်မၤလိာ်": 4949,
      "လၢမုၢ်ဆါ": 4950,
      "ပှ့ၤက့ၤ": 4951,
      "တခါအံၤ": 4952,
      "လံာ်စီဆှံတ": 4953,
      "စီၤဘၢ်": 4954,
      "တၢ်ဂ့ၢ်တၢ်ကျိၤ": 4955,
      "ဟါထၢၤ": 4956,
      "လုၢ်အလၢ်": 4957,
      "မၢလီၤယၤ": 4958,
      "မ့ၤလး": 4959,
      "အလုၢ်အပှ့ၤ": 4960,
      "ကူတၢ်ကၤ": 4961,
      "မနၤၡ့ၤအဒူၣ်": 4962,
      "ဖှီဝါ": 4963,
      "ထီၣ်ဝဲဒၣ်လီၤ": 4964,
      "ကတြီ": 4965,
      "တဂၤလၢအမံၤမ့ၢ်": 4966,
      "ဒီးအပျဲၢ်အဘီၣ်တဖၣ်": 4967,
      "ကစၢ်စီၤပၤဧၢ": 4968,
      "ဟီၣ်ဝဲယၢၤ": 4969,
      "ဒိၣ်တၢ်မုၢ်": 4970,
      "စီၤအ့လကါနၤ": 4971,
      "ကရံၣ်သူး": 4972,
      "ဘုမုယီၤ": 4973,
      "တကတြူၢ်": 4974,
      "ခံၣ်": 4975,
      "တအဲၣ်ဒိး": 4976,
      "တတူၢ်လိာ်": 4977,
      "ပဒုၣ်ပဒါ": 4978,
      "ယဒုး": 4979,
      "ရ့ၣ်": 4980,
      "ဝၣ်": 4981,
      "ဟ့ၤရိာ်": 4982,
      "အတီ": 4983,
      "အစိအကမီၤ": 4984,
      "အမူအဒါ": 4985,
      "လၢကီၢ်အ": 4986,
      "တၢ်ပျံၤတၢ်ဖုး": 4987,
      "တၢ်တီတၢ်လိၤ": 4988,
      "တၢ်ဘျုးတၢ်ဖှိၣ်": 4989,
      "လီၤနုာ်": 4990,
      "ဒီးစံၣ်ညီၣ်": 4991,
      "ဒီးစ့": 4992,
      "ဒီးပက": 4993,
      "န့ၣ်အပူၤ": 4994,
      "ီၣ်ကး": 4995,
      "တဖၣ်အဃိလီၤ": 4996,
      "မၤထီၣ်": 4997,
      "လၢအလဲၤ": 4998,
      "စီၤလိာ်": 4999,
      "စီၤစရ": 5000,
      "စီၤလၤဘၣ်": 5001,
      "အီၤတဂၤ": 5002,
      "အီၤသ့": 5003,
      "သုဒီး": 5004,
      "အတၢ်အိၣ်ဖှိၣ်": 5005,
      "အတၢ်ဂီၤတၢ်ဖီၣ်": 5006,
      "ခိၣ်န့ၣ်လီၤ": 5007,
      "ကစၢ်ယ့ၣ်ၡူး": 5008,
      "အသးတ": 5009,
      "ကျိ": 5010,
      "န့ၢ်ဘၣ်တၢ်": 5011,
      "တၢ်အဒိ": 5012,
      "နၤဒ်": 5013,
      "သံဝဲဒီး": 5014,
      "လၢယပၢ်": 5015,
      "ကွၢ်ထံ": 5016,
      "ထံၣ်ကမှံ": 5017,
      "ဖးတၢ်": 5018,
      "လၢနမၤ": 5019,
      "အလီၢ်အိၣ်": 5020,
      "လၢပှၤကိးဂၤဒဲး": 5021,
      "နံၤလါ": 5022,
      "အဝဲဒၣ်က": 5023,
      "လၢတၢ်န့ၣ်အဃိအဝဲ": 5024,
      "ထၢၣ်ရ့နယၢၣ်": 5025,
      "လၢကလဲၤ": 5026,
      "သၢဘျီ": 5027,
      "သၢကထိ": 5028,
      "တနီၤန့ၣ်": 5029,
      "တၢ်ဒီးစံး": 5030,
      "လၢကီၢ်ကံးလဧး": 5031,
      "နါပှၢ်": 5032,
      "ပၢၢ်ထီၣ်": 5033,
      "ခံဂၤလိာ်": 5034,
      "ကီၢ်ယူဒၤဒီး": 5035,
      "အိၣ်လၢမူခိၣ်": 5036,
      "ဖိထၢဖိတဖၣ်": 5037,
      "ဟဲလီၤလၢမူခိၣ်": 5038,
      "လီၣ်ဖျါ": 5039,
      "ကျိၤထံး": 5040,
      "မဲးဒံး": 5041,
      "ဖှီယာ်": 5042,
      "ပာ်ကဖၢလၢအသး": 5043,
      "ဆံဆဲၣ်ပူတပူ": 5044,
      "အဖုအဂီၢ်": 5045,
      "ဒီးပှၤတဂၤလၢ်လၢ်လၢအ": 5046,
      "လၢအအိၣ်ဝဲဆိး": 5047,
      "ဖံလံးပူး": 5048,
      "ကဆှၣ်": 5049,
      "စုဆူၣ်ခီၣ်တကး": 5050,
      "ကအုကစွါ": 5051,
      "တလၢ": 5052,
      "နိး": 5053,
      "နထံၣ်": 5054,
      "နမ့ၢ်ပှၤ": 5055,
      "ပဘၣ်တၢ်": 5056,
      "ပဝဲဒၣ်": 5057,
      "ယနာ်": 5058,
      "ယမၤတၢ်": 5059,
      "ရိး": 5060,
      "လ့ၢ်": 5061,
      "ဝံာ်": 5062,
      "သတြီ": 5063,
      "အအါ": 5064,
      "အအၢ": 5065,
      "အပဒိၣ်": 5066,
      "အၡ့ရၤ": 5067,
      "ၡဘိၣ်": 5068,
      "လၢစ့": 5069,
      "တၢ်လၢအအိၣ်": 5070,
      "ဒီးကတိၤ": 5071,
      "ဒီးကဲထီၣ်": 5072,
      "ဒီးစီၤယိၤဟၣ်": 5073,
      "န့ၣ်ဆူ": 5074,
      "ဘၣ်ဖုး": 5075,
      "ပှၤသ့တၢ်ဘူၣ်တၢ်ဘါအတၢ်သိၣ်တၢ်သီ": 5076,
      "လၢအမိၢ်": 5077,
      "ထီၣ်သု": 5078,
      "သ့ၣ်မုၣ်": 5079,
      "အီၤန့ၣ်တက့ၢ်": 5080,
      "ဖိအစီၤပၤ": 5081,
      "ဒ်လၢလာ်": 5082,
      "အဝဲသ့ၣ်ဒ်": 5083,
      "အဝဲသ့ၣ်တဖၣ်န့ၣ်": 5084,
      "လၢတၢ်ကတိၤ": 5085,
      "အတၢ်ဘူၣ်တၢ်ဘါ": 5086,
      "အတၢ်မုၢ်လၢ်": 5087,
      "ဒိၣ်ဒၣ်တၢ်": 5088,
      "ကစၢ်ယွၤန့ၣ်": 5089,
      "သူၣ်ကိၢ်သးဂီၤ": 5090,
      "ဒီးအဟံၣ်ဖိဃီဖိ": 5091,
      "လိၤဒီး": 5092,
      "ကွၢ်ကပာ်": 5093,
      "ဖးဖီ": 5094,
      "မဲာ်သၣ်": 5095,
      "ဟံၣ်ဖိ": 5096,
      "ဝံယၡါယၤ": 5097,
      "နီၣ်ယိးဘိ": 5098,
      "လၢပှၤတဂၤ": 5099,
      "အိၣ်ဝဲဖဲန့ၣ်": 5100,
      "ပှဲၤဝဲ": 5101,
      "နာ်ဝဲလၢ": 5102,
      "အဲၣ်ဘၢ": 5103,
      "ကပုာ်": 5104,
      "ဃာ်အီၤ": 5105,
      "ဆါလီၤကွံာ်": 5106,
      "သွံ": 5107,
      "ပျံၤလီၤဖုး": 5108,
      "လၢအဝဲသ့ၣ်အဂီၢ်": 5109,
      "တဲဘၣ်အဝဲသ့ၣ်လၢ": 5110,
      "မ်ကစၢ်ယွၤ": 5111,
      "နးမၤဖှီၣ်": 5112,
      "ဘူးဒီးဝ့ၢ်": 5113,
      "ဒုၣ်တၢ်အီၣ်တၢ်အီ": 5114,
      "အိၣ်ဒီးအီၤ": 5115,
      "ယသးသမူ": 5116,
      "ဃုထၢတ့ၢ်": 5117,
      "လ့ၤအၤ": 5118,
      "နဲၣ်ကျဲ": 5119,
      "အၤမ့ၣ်": 5120,
      "ဒံးဘၣ်န့ၣ်လီၤ": 5121,
      "ဒ်န့ၣ်န့ၣ်": 5122,
      "ဟးထီၣ်လၢဝ့ၢ်": 5123,
      "စံယါ": 5124,
      "လုၢ်ထီၣ်တၢ်လုၢ်": 5125,
      "အကစၢ်တဖၣ်": 5126,
      "ဖဲအံၤလီၤ": 5127,
      "နီၢ်ကစၢ်ဒၣ်ယဲ": 5128,
      "ဒ်အမ့ၢ်": 5129,
      "ပလီၢ်သုသး": 5130,
      "လ့ၣ်ကဟၣ်ဒုးသုး": 5131,
      "သကဲာ်": 5132,
      "လၢဝ့ၢ်ယရူၤၡလ့ၣ်အပူၤ": 5133,
      "ပြး": 5134,
      "တကျိၤ": 5135,
      "ယဲဒၣ်အံၤယမ့ၢ်": 5136,
      "စီၤပၤအၤဃာ်": 5137,
      "ဃမါသး": 5138,
      "ကၢ": 5139,
      "ကံၤ": 5140,
      "စ့လး": 5141,
      "ဒယၤ": 5142,
      "ဒၢၣ်": 5143,
      "ယဆၢ": 5144,
      "ယကမၢ": 5145,
      "ၡ့ၣ်": 5146,
      "တၢ်သံကွၢ်": 5147,
      "တၢ်ချံ": 5148,
      "တၢ်သွံၣ်": 5149,
      "တၢ်ထံၣ်လၢညါခီ": 5150,
      "တၢ်သွဲ": 5151,
      "ဒီဒူၣ်": 5152,
      "ဒီးကမၤ": 5153,
      "ဒီးလၢမုၢ်": 5154,
      "ဒီးဟဲစိာ်": 5155,
      "ဒီးစးထီၣ်": 5156,
      "ဒီးဟးထီၣ်ကွံာ်": 5157,
      "န့ၣ်ပှၤ": 5158,
      "ပှၤန့ၣ်လီၤ": 5159,
      "ပှၤဘၤဘူၤလိၣ်": 5160,
      "မၤဝီ": 5161,
      "လၢအတီ": 5162,
      "စီၤမနၤၡ့ၤ": 5163,
      "သုန့ၣ်": 5164,
      "အတၢ်စံးပာ်": 5165,
      "ဒၣ်ဝဲလၢ": 5166,
      "ဒၣ်ကလိာ်": 5167,
      "ဆူကစၢၢ်": 5168,
      "အပူၤလံ": 5169,
      "ကီၢ်ကၤလံၤလါ": 5170,
      "ကျီၤ": 5171,
      "ဝ့ၢ်တဖၣ်": 5172,
      "ဟ့ၣ်တ့ၢ်": 5173,
      "လဲၤတၢ်ဒီး": 5174,
      "ကစၢ်ယွၤန့ၣ်လီၤ": 5175,
      "ကိးနံၣ်": 5176,
      "ဆၣ်ဧိၤဖီဧိၤ": 5177,
      "ဲၣ်မုၣ်": 5178,
      "နီၢ်အံၤစ့ဘ့ၤလး": 5179,
      "ခဲလၢာ်တက့ၢ်": 5180,
      "ဒီးအပၢ်": 5181,
      "ဒီးအစၢၤအသွဲၣ်": 5182,
      "တုၤန": 5183,
      "လိၤလီၤ": 5184,
      "ပှၤဂီၢ်မုၢ်အံၤ": 5185,
      "ဝဲလၢခံ": 5186,
      "နီပူၤ": 5187,
      "တမံၤဒီး": 5188,
      "တမံၤဘၣ်": 5189,
      "အဂ့ၢ်အကျိၤ": 5190,
      "ပိာ်အခံ": 5191,
      "ယဲၢ်ကထိ": 5192,
      "နီၣ်ထိးဘိ": 5193,
      "ကတၢၢ်န့ၣ်": 5194,
      "အိၣ်ဝဲအပျၢ်": 5195,
      "အီၣ်တၢ်အီၣ်": 5196,
      "အဲၣ်တၢ်ကွံ": 5197,
      "ဒ်လဲၣ်အဂ့ၢ်န့ၣ်လီၤ": 5198,
      "ဃ့ၡဘိၣ်": 5199,
      "တစုလီၤ": 5200,
      "စံးဆၢတၢ်ဒီးစံးဝဲ": 5201,
      "လိၣ်ဘၣ်တၢ်": 5202,
      "ဒၣ်ဝဲအပူၤ": 5203,
      "တၤမဲ": 5204,
      "မ်န": 5205,
      "အခိၣ်ထိး": 5206,
      "အဖီခိၣ်ဒီး": 5207,
      "စ့ဒီးထူ": 5208,
      "နၢ်ဟူတၢ်": 5209,
      "နၢ်ဟူတၢ်အံၤ": 5210,
      "တနီၤလၢ": 5211,
      "အမံၤမ့ၢ်": 5212,
      "ဒိကနၣ်ဝဲ": 5213,
      "တအိၣ်ဘၣ်န့ၣ်လီၤ": 5214,
      "ကလံၤအူ": 5215,
      "တၢ်လီၢ်ဖဲ": 5216,
      "နါဘၤ": 5217,
      "ထီၣ်အီၤလၢတၢ်": 5218,
      "ဘၣ်မနုၤလၢသု": 5219,
      "တ့တၢ်ဖျီ": 5220,
      "လဲၤဆူညါ": 5221,
      "လီၤပံာ်": 5222,
      "လၢတၢ်လုၢ်မ့ၣ်အူ": 5223,
      "ဖလ့ၡသးဖိတဖၣ်": 5224,
      "ဂၢၢ်ကျၢၤကျၢၤ": 5225,
      "အနီၣ်ထိၣ်": 5226,
      "အချံ": 5227,
      "ယူာ်ဃီ": 5228,
      "ဒီးပှၤလုၢ်တၢ်အခိၣ်က": 5229,
      "ခုၣ်ခုၣ်": 5230,
      "သူၣ်ဒဲလီၢ်": 5231,
      "အိၣ်ဒီးအဖိခွါခံဂၤ": 5232,
      "ယွၤသ့တၢ်လၢာ်ကစၢ်": 5233,
      "ဒီးစီၤၡမူၤအ့လး": 5234,
      "မၤဘၣ်ဒိဘၣ်ထံး": 5235,
      "တဂၤလၢအမံၤမ့ၢ်ဝဲ": 5236,
      "လၢကျဲဒ်အံၤန့ၣ်": 5237,
      "ကီၢ်စူၤရံအစီၤပၤ": 5238,
      "အဂုၤအဂၤ": 5239,
      "တၢ်အဖၢမုၢ်န့ၣ်": 5240,
      "စီၤအမၤစယါ": 5241,
      "သကဲာ်ပဝး": 5242,
      "တခီၣ်": 5243,
      "ပတဲ": 5244,
      "ယဘၣ်": 5245,
      "ရၢၢ်": 5246,
      "သၢ်": 5247,
      "အပ": 5248,
      "အသုးဖိ": 5249,
      "အမဲ": 5250,
      "အထးခိၣ်": 5251,
      "တၢ်တမံၤ": 5252,
      "တၢ်မုာ်": 5253,
      "တၢ်သူၣ်ထီၣ်": 5254,
      "တၢ်ဖံးတၢ်မၤ": 5255,
      "တၢ်လီတၢ်ဝ့ၤ": 5256,
      "ဒီးလၢန": 5257,
      "ဒီးတဘၣ်": 5258,
      "ဒီးဟဲက့ၤ": 5259,
      "ဝဲအဂီၢ်": 5260,
      "ဘၣ်ဘီ": 5261,
      "ပှၤပၢတၢ်": 5262,
      "တဖၣ်တဂ့ၤ": 5263,
      "မၤဂီၤ": 5264,
      "ထီၣ်ကွံာ်အီၤ": 5265,
      "ထီၣ်တၢ": 5266,
      "စီၤဖံလံးပူး": 5267,
      "အဝဲန့ၣ်လီၤ": 5268,
      "အဝဲအံၤမ့ၢ်တၢ်": 5269,
      "အီၤဒီးတၢ်": 5270,
      "အီၤအဂီၢ်လီၤ": 5271,
      "ဖဲစီၤပ့းတရူး": 5272,
      "လၢတၢ်ခဲလၢာ်": 5273,
      "ခိၣ်သူ": 5274,
      "အသးအိၣ်ဝဲ": 5275,
      "အပူၤမ့ၢ်ဂ့ၤ": 5276,
      "တ့ၢ်ဘၣ်": 5277,
      "လုၢ်ထီၣ်ဝဲ": 5278,
      "ဝ့ၢ်ဖိ": 5279,
      "လဲၤပူၤကွံာ်ဝဲ": 5280,
      "ကစၢ်ယွၤဟ့ၣ်လီၤ": 5281,
      "ဟဲလံ": 5282,
      "သံလံ": 5283,
      "ကိးကပၤ": 5284,
      "ဒုးအီၣ်": 5285,
      "နီၢ်စၤရါ": 5286,
      "နီၢ်ရံးဘကၤ": 5287,
      "ထံၣ်ဝဲလၢ": 5288,
      "ထံၣ်န့ၢ်အီၤ": 5289,
      "ပှၤအၤၡူၢ်": 5290,
      "လိာ်ဆိးက့": 5291,
      "စုသ့": 5292,
      "ဖးယံၤ": 5293,
      "ဟံၣ်ဖိဃီဖိတဖၣ်": 5294,
      "အဂ့ၢ်မ့ၢ်": 5295,
      "အကၢၢ်": 5296,
      "စၢၤသု": 5297,
      "ဝံၤဒီးအဝဲ": 5298,
      "အါဝဲ": 5299,
      "လၢသုကမၤ": 5300,
      "လၢအအိၣ်လၢတၢ်": 5301,
      "ဘ့ၣ်လီၤကွံာ်": 5302,
      "တဖၣ်လၢကီၢ်": 5303,
      "ဒီးစီၤအံၤစဲး": 5304,
      "မးသဲ": 5305,
      "လ့ၣ်ဖံဘၣ်": 5306,
      "ပျံၤယွၤ": 5307,
      "စီၤအၤစါ": 5308,
      "ဖဲန့ၣ်န့ၣ်": 5309,
      "ဂံၢ်န": 5310,
      "တဲဘၣ်ယၤ": 5311,
      "မ်အဝဲသ့ၣ်": 5312,
      "ဒီးနတၢ်": 5313,
      "အိၣ်ဒီးအတၢ်": 5314,
      "လၢကီၢ်ပူၤ": 5315,
      "စူၤထံ": 5316,
      "စီၤဧစၤရ": 5317,
      "မတၤလဲၣ်": 5318,
      "ဒ်သိးကလဲၤ": 5319,
      "ထူးတီၤ": 5320,
      "တဖၣ်အလံာ်တၢ်": 5321,
      "ဆးဒး": 5322,
      "ရ့လိာ်သး": 5323,
      "ဟုဘံၣ်": 5324,
      "အ့ဖရဲၣ်": 5325,
      "စှၤဂၤ": 5326,
      "တြဲၤဖးဒိၣ်": 5327,
      "ယူာ်ဃီၤ": 5328,
      "လၢအဂီၢ်လီၤ": 5329,
      "လူၢ်တၢ်တြီၤ": 5330,
      "သွၣ်ခိၣ်အပူၤ": 5331,
      "ယစံးယဲ": 5332,
      "ဆူၣ်ဆူၣ်ကလဲာ်": 5333,
      "တဂၤဘၣ်တဂၤ": 5334,
      "ပှၤတခီဘီမုၢ်ဖိတဖၣ်": 5335,
      "ဒီၣ်ဃီၤ": 5336,
      "ဒ်လဲၣ်ဂ့ၤဒ်လဲၣ်ဂ့ၤ": 5337,
      "သူၣ်တီသးရၤ": 5338,
      "လီၤဘှံးလီၤတီၤ": 5339,
      "ကိးနံၤဒဲး": 5340,
      "အ့းဖ့း": 5341,
      "ကယာ်ဘၢ": 5342,
      "ကၠ": 5343,
      "ကလီၢ်": 5344,
      "ကဖး": 5345,
      "ညာ်": 5346,
      "တထံၣ်န့ၢ်": 5347,
      "ဒြ": 5348,
      "နဃၣ်": 5349,
      "ရယး": 5350,
      "အသ့ၣ်": 5351,
      "အဘျဲၣ်": 5352,
      "၂၈": 5353,
      "၂၉": 5354,
      "ၡဲၤ": 5355,
      "ၡက့လး": 5356,
      "တၢ်ပူၤဖျဲး": 5357,
      "တၢ်သးခုကစီၣ်": 5358,
      "တၢ်သိၣ်တၢ်ဘျၢ": 5359,
      "ဒီးစပံးထံ": 5360,
      "ပှၤတဖၣ်": 5361,
      "ပှၤသးပှၢ်": 5362,
      "တဖၣ်အပူၤဒီး": 5363,
      "လၢအထီ": 5364,
      "စီၤၡ့": 5365,
      "အိၣ်လီၤ": 5366,
      "အဝဲစံး": 5367,
      "အဝဲမၤတၢ်": 5368,
      "သုကီၢ်": 5369,
      "သုကဘၣ်တၢ်": 5370,
      "ယွၤကမၤ": 5371,
      "ဒ်ထံ": 5372,
      "သိးသုကျါ": 5373,
      "အတၢ်သးဝံၣ်": 5374,
      "အသးစီဆှံ": 5375,
      "အပူၤန့ၣ်ဘၣ်": 5376,
      "ပာ်အီၤလၢ": 5377,
      "တ့ၢ်အသး": 5378,
      "တ့ၢ်လီၤကွံာ်": 5379,
      "အဃ့": 5380,
      "ညါန့ၣ်လီၤ": 5381,
      "ဝ့ၢ်န့ၣ်": 5382,
      "ဆှု": 5383,
      "ကစၢ်ယွၤလၢ": 5384,
      "ကစၢ်ယွၤမ့ၢ်": 5385,
      "စီၤပၤလၢ": 5386,
      "ခဲလၢာ်သ့ၣ်ဧၢ": 5387,
      "သူၣ်အိၣ်သးအိၣ်": 5388,
      "ဒီးအဲၣ်": 5389,
      "ဒီးအဖိမုၣ်": 5390,
      "ကလိၣ်": 5391,
      "ကလူၤ": 5392,
      "ထံၣ်တ့ၢ်": 5393,
      "အအိၣ်တက့ၢ်": 5394,
      "အလီၢ်လၢ": 5395,
      "စီၤယဟိၤယါ": 5396,
      "ဒံးတၢ်": 5397,
      "ဒိးဘၣ်တၢ်": 5398,
      "အါထီၣ်တၢ်": 5399,
      "တအိၣ်ဒီး": 5400,
      "ယကဆှၢလီၤ": 5401,
      "စ့ၢ်ကီးဝဲလၢ": 5402,
      "တဖၣ်န့ၣ်မ့ၢ်ဝဲ": 5403,
      "မ့မ့ၢ်ခဲကနံၣ်အံၤ": 5404,
      "ခီၣ်ဆၢ": 5405,
      "ယူဒၤအတၢ်သိၣ်တၢ်သီ": 5406,
      "လၢအဝဲသ့ၣ်အတၢ်": 5407,
      "စီၤအၤမ": 5408,
      "ဒီးယုၢ်": 5409,
      "လၢကိၣ်": 5410,
      "ကွဲးကူ": 5411,
      "တူၢ်ဘၣ်ဝဲ": 5412,
      "တြၤ": 5413,
      "ပာ်လီၤအသး": 5414,
      "ရၤလီၤအသး": 5415,
      "အမံၤမ့ၢ်ဝဲ": 5416,
      "နီၤလီၤ": 5417,
      "မၤလိာ်တ့ၢ်": 5418,
      "ဂၢၢ်ဂၢၢ်ကျၢၤကျၢၤ": 5419,
      "ကဒီးအီၤ": 5420,
      "လီၤဂာ်ဒီးတၢ်": 5421,
      "မၤဝဲဒ်လဲၣ်": 5422,
      "အဖိဝဲၢ်ကိ": 5423,
      "ပျီပူၤန့ၣ်လီၤ": 5424,
      "ဘုစဲၤ": 5425,
      "စီၤဃနၤ": 5426,
      "ပာ်ထီၣ်အစု": 5427,
      "ယုၢ်န့ၢ်": 5428,
      "ဆ့ၣ်နီၤလၢ": 5429,
      "တံၢ်လီၤဆဲး": 5430,
      "ကၢ်ကွံာ်": 5431,
      "ကၢ်မ့ၤလး": 5432,
      "လိာ်အသးတဂၤဒီးတဂၤ": 5433,
      "ဟံးဃာ်ဂၢၢ်ကျၢၤ": 5434,
      "ဘှီထီၣ်ကဒါက့ၤ": 5435,
      "တခီဘီမုၢ်ဖိတဖၣ်": 5436,
      "ဘၣ်ဃးဒီးတၢ်ဂ့ၢ်": 5437,
      "ဘၣ်ထွဲဒီး": 5438,
      "ယီၢ်ဒ့": 5439,
      "ပှၤအဲၤကူပတူးဖိ": 5440,
      "အသဟီၣ်": 5441,
      "လံးဘ": 5442,
      "အတၢ်အိၣ်တၢ်ဆိးအလီၢ်": 5443,
      "တစူၢ်တနာ်": 5444,
      "လါတလါထီၣ်": 5445,
      "ဃ့ၢ်ပူၤဖျဲးကွံာ်": 5446,
      "ယူာ်ထီၣ်အစု": 5447,
      "စီၤစၤဒိး": 5448,
      "ယ့ၣ်ၡူးစံးဆၢအဝဲသ့ၣ်": 5449,
      "အခၢၣ်သး": 5450,
      "ပီၢ်ယၢ်လီၤက့ၤအသး": 5451,
      "သူၣ်လီၤဖျးလီၤ": 5452,
      "သဘံၣ်ဘုၣ်": 5453,
      "မဲးဒံးထၢၣ်ရ့နယၢၣ်": 5454,
      "ဟုဘံၣ်ကယာ်ဘၢ": 5455,
      "ကသံၣ်": 5456,
      "စူ": 5457,
      "စံၢ်": 5458,
      "တဟဲ": 5459,
      "နမါ": 5460,
      "ပဂီၢ်": 5461,
      "ပနံး": 5462,
      "ဘ့လး": 5463,
      "ယကစၢ်ယွၤဧၢ": 5464,
      "ရ့ၤ": 5465,
      "ဝ့ၣ်": 5466,
      "ဒီးနီၣ်": 5467,
      "ဒီးဆၢထၢၣ်": 5468,
      "ဒီးသံကွၢ်": 5469,
      "ဒီးဆှၢလီၤ": 5470,
      "ဝဲသီ": 5471,
      "ဘၣ်ယွၤ": 5472,
      "ပှၤပ": 5473,
      "ပှၤမံးဒယၣ်": 5474,
      "တဖၣ်မၤ": 5475,
      "မၤကဆှီ": 5476,
      "မၤချ့ချ့": 5477,
      "ထီၣ်ဘး": 5478,
      "သးဖုး": 5479,
      "အီၤဒ်သိး": 5480,
      "သုဆူ": 5481,
      "သုဝဲလၢ": 5482,
      "ဖိလီၤ": 5483,
      "ယွၤအပှၤဂီၢ်မုၢ်": 5484,
      "ပူၤတဖၣ်": 5485,
      "အံၤက": 5486,
      "အံၤအပူၤန့ၣ်": 5487,
      "လၢတၢ်သိၣ်တၢ်သီ": 5488,
      "အတၢ်လီၤ": 5489,
      "အတၢ်ပာ်သူၣ်ပာ်သး": 5490,
      "အတၢ်ဖိတၢ်လံၤ": 5491,
      "ခိၣ်သလုး": 5492,
      "ကစၢ်အဂၤ": 5493,
      "ဂ့ၤဒိၣ်န့ၢ်ဒံး": 5494,
      "ကွံာ်သံ": 5495,
      "လုၢ်အီ": 5496,
      "အဂီၢ်န့ၣ်ဘၣ်": 5497,
      "ဟ့ၣ်ကမီၤ": 5498,
      "ကိးမုၢ်နံၤ": 5499,
      "စီၤပၤစီၤဒၤဝံး": 5500,
      "ခံခါ": 5501,
      "ခံနံၣ်": 5502,
      "ဒ်သိးအဝဲသ့ၣ်က": 5503,
      "ဒ်သိးအံၤန့ၣ်": 5504,
      "ဟးသဒၣ်": 5505,
      "ဖိတဖၣ်န့ၣ်": 5506,
      "အီၤလၢကစၢ်ယွၤ": 5507,
      "ဒီးပှၤယူဒၤဖိ": 5508,
      "အဂ့ၢ်မ့ၢ်လၢ": 5509,
      "အလီၢ်တအိၣ်ဘၣ်": 5510,
      "ပှၤလၢအအိၣ်": 5511,
      "ယကပျဲ": 5512,
      "လၢပှၤဂၤ": 5513,
      "ဃုာ်ဒီးစီၤ": 5514,
      "ကဲထီၣ်လိၣ်": 5515,
      "မ့မ့ၢ်တခီ": 5516,
      "အဲၣ်ယွၤ": 5517,
      "ဆှၢကဒါက့ၤ": 5518,
      "ဒီးမၤဟးဂီၤကွံာ်": 5519,
      "ဆါလီၤ": 5520,
      "ပျံၤသးဖုး": 5521,
      "တနံၤဃီ": 5522,
      "ကွံာ်အီၤန့ၣ်": 5523,
      "ဒီးယဟိဝၤယွၤ": 5524,
      "လၢယွၤအမဲာ်ညါ": 5525,
      "ထူစီ": 5526,
      "တဖျၢၣ်ဃီ": 5527,
      "ထီၣ်က့ၤလီၤ": 5528,
      "မူခိၣ်ဒီးဟီၣ်ခိၣ်": 5529,
      "စီၤမိၤၡ့အတၢ်သိၣ်တၢ်သီ": 5530,
      "မုာ်ထီၣ်က့ၤ": 5531,
      "နါယၤ": 5532,
      "တၢ်အံၤမၤအသး": 5533,
      "ယသးလၢယ": 5534,
      "ယတၢ်ထုကဖၣ်": 5535,
      "တၢ်လၢအဘၣ်": 5536,
      "ဘၣ်တၢ်မၤအီၤ": 5537,
      "အဟံၣ်န့ၣ်လီၤ": 5538,
      "နီတဂၤဘၣ်န့ၣ်လီၤ": 5539,
      "တၢ်န့ၣ်ဝံၤအလီၢ်ခံ": 5540,
      "ကိၢ်မၤဂီၤ": 5541,
      "စံးထီၣ်ပတြၢၤကစၢ်ယွၤ": 5542,
      "ပှၤအံၣ်စရ့လးဖိခဲလၢာ်": 5543,
      "လၢခံတနံၤ": 5544,
      "နီတစုတဂ့ၤ": 5545,
      "ထိးနါ": 5546,
      "အခံလီၤ": 5547,
      "ဆူယွၤအအိၣ်န့ၣ်လီၤ": 5548,
      "သ့တၢ်လၢာ်ကစၢ်ယွၤ": 5549,
      "စီၤယံးရမံယၤ": 5550,
      "ခံးသူ": 5551,
      "အခီပညီမ့ၢ်ဝဲ": 5552,
      "ဟဲဆူယအိၣ်": 5553,
      "ကိးပသူထီၣ်ဝဲ": 5554,
      "ဟဲက့ၤကဒါက့ၤဆူ": 5555,
      "လီၤကာ်": 5556,
      "အတၢ်လုၢ်လီၢ်": 5557,
      "ဆံးစၢ်ထီၣ်": 5558,
      "တဂၤဂ့ၤတဂၤဂ့ၤ": 5559,
      "ဘူၣ်ထီၣ်ဘါထီၣ်ယွၤအဒဲ": 5560,
      "သကုၤဆးဒး": 5561,
      "စၣ်ကၢ်": 5562,
      "အခၢၣ်စး": 5563,
      "ပၣ်ဃုာ်ဒီး": 5564,
      "သရာ်": 5565,
      "ချံးခီၣ်": 5566,
      "ဒိးတၢ်ကူးတရံး": 5567,
      "ပျၤထီအီၤလၢ": 5568,
      "ဂဲၤကလံာ်": 5569,
      "ဒီးအုၣ်က့ၤခီၣ်က့ၤ": 5570,
      "အ့းဖ့းစူး": 5571,
      "ကဟ့ၣ်လီၤ": 5572,
      "စြၤ": 5573,
      "ဆံၣ်": 5574,
      "တဂိာ်တသီၣ်": 5575,
      "ဒီၤ": 5576,
      "နမိၢ်": 5577,
      "ဘၢ်": 5578,
      "ယအၢၣ်လီၤ": 5579,
      "ယဘီၣ်": 5580,
      "ယဂံၢ်ယဘါ": 5581,
      "အထၢ": 5582,
      "အပျံၤ": 5583,
      "အကမူၣ်": 5584,
      "အသုးဖိတဖၣ်": 5585,
      "အလီခီ": 5586,
      "အဒံးဆ့": 5587,
      "၂၇": 5588,
      "တၢ်ကိၢ်တၢ်ဂီၤ": 5589,
      "တၢ်ခွဲးတၢ်ယာ်": 5590,
      "ဒီးက့ၤ": 5591,
      "ဒီးတဲ": 5592,
      "န့ၣ်န": 5593,
      "ဝဲသ့ၣ်": 5594,
      "ဝဲအဃိ": 5595,
      "ဘၣ်ဝဲလၢ": 5596,
      "ပှၤမိၤအး": 5597,
      "တဖၣ်ဖဲ": 5598,
      "တဖၣ်ကအိၣ်": 5599,
      "တဖၣ်အမဲာ်ညါ": 5600,
      "လၢအသီ": 5601,
      "ထီၣ်လၢ": 5602,
      "မ့ၢ်ဝ့ၢ်": 5603,
      "အဝဲဟံးန့ၢ်": 5604,
      "အဝဲအိၣ်ဒီးတၢ်": 5605,
      "သုဘၣ်တၢ်": 5606,
      "ဖိဒီး": 5607,
      "ယွၤအကလူး": 5608,
      "ကွံၢ်": 5609,
      "ပူၤဘၣ်": 5610,
      "အဝဲသ့ၣ်ကိးဂၤဒဲး": 5611,
      "ဖဲပှၤအံၣ်စရ့လးဖိတဖၣ်": 5612,
      "လၢတၢ်အံၤ": 5613,
      "လၢတၢ်ဟးဂီၤ": 5614,
      "စံးကတိၤတၢ်": 5615,
      "အတၢ်စံၣ်ညီၣ်": 5616,
      "အတၢ်ပာ်ဖှိၣ်": 5617,
      "အတၢ်ပနီၣ်": 5618,
      "အတၢ်တြီၤ": 5619,
      "အတၢ်ကူတၢ်သိး": 5620,
      "ကစၢ်ယ့ၣ်ၡူးခရံာ်": 5621,
      "အသးစၢ်": 5622,
      "ပာ်ထီၣ်တၢ်": 5623,
      "လီၢ်စီဆှံ": 5624,
      "ညါန့ၣ်": 5625,
      "တၢ်အူ": 5626,
      "တၢ်အကတၢၢ်": 5627,
      "သံန့ၣ်": 5628,
      "အသိးဘၣ်": 5629,
      "ကိးသတြီ": 5630,
      "ဒီးတၢ်ဃူတၢ်ဖိး": 5631,
      "စီၤပၤတဂၤ": 5632,
      "သူၣ်တ": 5633,
      "ဒီးအမိၢ်": 5634,
      "ဒီးအဝၤ": 5635,
      "ပှၤဂီၢ်မုၢ်တဖၣ်အံၤ": 5636,
      "ထံဖိကီၢ်ဖိ": 5637,
      "လိာ်ကွီၢ်": 5638,
      "လိာ်ပသး": 5639,
      "တမံၤလၢအ": 5640,
      "အီၤလၢယွၤ": 5641,
      "လၢနကမၤ": 5642,
      "လၢ်ကျါ": 5643,
      "ကဘၣ်အိၣ်": 5644,
      "အါဒံအါဂၤ": 5645,
      "ဟီၣ်ခိၣ်အံၤ": 5646,
      "တၢ်မၤဟးဂီၤ": 5647,
      "ယကလဲၤ": 5648,
      "လၢအအိၣ်ဒီးအီၤ": 5649,
      "ကယဲၢ်တၢ်လၢအ": 5650,
      "ဘ့ၣ်ဟဒး": 5651,
      "ထီၣ်ဝဲန့ၣ်": 5652,
      "အီၣ်ဘၣ်": 5653,
      "ပှဲၤဝဲဒီးတၢ်": 5654,
      "တၢ်လၢယၤ": 5655,
      "အၢအၢသီသီ": 5656,
      "ဒီးမၤဟးဂီၤ": 5657,
      "မ်တၢ်": 5658,
      "မၤသံအီၤ": 5659,
      "မၤသံတ့ၢ်": 5660,
      "အစီၤပၤတဖၣ်": 5661,
      "ဖၣ်ကမူၣ်": 5662,
      "ဖၣ်ကပူၤ": 5663,
      "စိဟ့ၣ်ကမီၤ": 5664,
      "လီၤတူာ်": 5665,
      "နီတဂၤလၢၤဘၣ်": 5666,
      "တဘ့ၣ်အပူၤ": 5667,
      "လၢကီၢ်မိၤအး": 5668,
      "မၢ်ကူး": 5669,
      "အပၢ်ဖးဒိၣ်လၢပျၢၤ": 5670,
      "တ့ၢ်လံအီၤ": 5671,
      "တ့ၢ်ဝဲအသိးန့ၣ်လီၤ": 5672,
      "ဆှၢလီၤတၢ်ကစီၣ်": 5673,
      "လံာ်စီဆှံစံးဝဲလၢ": 5674,
      "စီၤဃူ": 5675,
      "လၢအတၢ်ကမၣ်": 5676,
      "ခိတၢ်သွဲ": 5677,
      "ဒီးယွၤစံးဝဲဒၣ်": 5678,
      "ဒုးနဲၣ်နၤ": 5679,
      "ယကမၤဟးဂီၤကွံာ်": 5680,
      "သူၣ်ထီၣ်အဒဲ": 5681,
      "ကါဒိၣ်": 5682,
      "သးဝံၣ်ထီၣ်": 5683,
      "သုမ့ၢ်မၤ": 5684,
      "လီၤဆီဒၣ်တၢ်": 5685,
      "သ့တၢ်လၢာ်ကစၢ်": 5686,
      "စံာ်ဧိၤ": 5687,
      "ယီၤဃ့": 5688,
      "တဖၣ်အကျါတဂၤ": 5689,
      "ဘၣ်အီၤဘၣ်": 5690,
      "လုၣ်သ့ၣ်ခါပတာ်": 5691,
      "လဲၤတၢ်က့ၤ": 5692,
      "ဆ့ကၤဖးထီ": 5693,
      "ဖျီအသးဒီး": 5694,
      "က့ၣ်သးကါ": 5695,
      "ဃၤနၣ်": 5696,
      "စီၤနၤသၣ်": 5697,
      "စီၤစကၤ": 5698,
      "ဃ့ဘါထုကဖၣ်တၢ်": 5699,
      "ထဲလဲၣ်န့ၣ်": 5700,
      "ဟဲနုာ်လီၤ": 5701,
      "ခ့ယုၢ်တဒု": 5702,
      "စီၤၡံမံၤ": 5703,
      "ကစီဒီလီၤ": 5704,
      "စီၤကၤယံၣ်": 5705,
      "လီၤထူလီၤယိာ်လီၤ": 5706,
      "လၢမုၢ်နံၤအဝဲန့ၣ်": 5707,
      "စီၤဘၤလး": 5708,
      "ဘူၣ်ဘျီၣ်လၢအမ့ၢ်တၢ်": 5709,
      "ဟူထီၣ်သါလီၤ": 5710,
      "ကွၢ်ဟုၣ်ကွၢ်စုး": 5711,
      "ကလီၤမၢ်ကွံာ်": 5712,
      "ညူး": 5713,
      "တမုၢ်": 5714,
      "တမီၢ်": 5715,
      "တလးမူး": 5716,
      "ဒာ်": 5717,
      "နဃ့": 5718,
      "နမၤတ့ၢ်": 5719,
      "ဖူ": 5720,
      "ဖ့ၤ": 5721,
      "ယကစၢ်ယွၤ": 5722,
      "ယဟိ": 5723,
      "ယတၢ်အၢၣ်လီၤအီလီၤ": 5724,
      "ရယါ": 5725,
      "လံၣ်": 5726,
      "သဃိး": 5727,
      "သညူး": 5728,
      "အပနီၣ်": 5729,
      "အပဒိၣ်ပပှၢ်တဖၣ်": 5730,
      "ံကၢ်": 5731,
      "၃၀": 5732,
      "လၢကဘၣ်": 5733,
      "လၢသိ": 5734,
      "လၢကယဲၢ်တၢ်": 5735,
      "တၢ်စံးဆၢ": 5736,
      "လီၤဘျၢ": 5737,
      "ဒီးဘူၣ်ထီၣ်ဘါထီၣ်": 5738,
      "ဒီးပှၤအံၣ်စရ့လးဖိတဖၣ်": 5739,
      "ဘၣ်ဆူ": 5740,
      "ဘၣ်နၤ": 5741,
      "ဘၣ်ဂီၤ": 5742,
      "ဘၣ်ဒါ": 5743,
      "ပှၤဒီး": 5744,
      "ပှၤမ့ၢ်": 5745,
      "မၤလီၤ": 5746,
      "လၢအပှၤဂီၢ်မုၢ်": 5747,
      "စီၤက့ၤ": 5748,
      "စီၤစ့": 5749,
      "စီၤကး": 5750,
      "အိၣ်သယုၢ်": 5751,
      "မ့ၢ်ဘၣ်တၢ်": 5752,
      "မ့ၢ်စီၤပၤ": 5753,
      "အဝဲတဲ": 5754,
      "ဖိဝဲၢ်ကိ": 5755,
      "ဒ်သိ": 5756,
      "ဒ်ကုၢ်": 5757,
      "လၢတၢ်စံၣ်ညီၣ်": 5758,
      "တဂၤလၢအမ့ၢ်": 5759,
      "ကစၢ်မုၣ်": 5760,
      "ဂ့ၤဝဲ": 5761,
      "က့ၤအသး": 5762,
      "န့ၢ်တၢ်": 5763,
      "န့ၢ်ပှၤလၢ": 5764,
      "တ့ၢ်ဒံး": 5765,
      "နီၢ်ဧ": 5766,
      "နီၢ်ပနံး": 5767,
      "ဒီးအဖိ": 5768,
      "ထံကီၢ်အ": 5769,
      "ကွၢ်စိ": 5770,
      "ကွၢ်ထီၣ်တၢ်": 5771,
      "ဖိတဖၣ်လီၤ": 5772,
      "မ့တမ့ၢ်တၢ်": 5773,
      "လၢနသး": 5774,
      "အက့": 5775,
      "အခၢး": 5776,
      "ပှၤလၢအတ": 5777,
      "အါဘျီ": 5778,
      "ဆှံဆှံ": 5779,
      "လၢသုတၢ်": 5780,
      "တအိၣ်မူ": 5781,
      "စီဆှံတဖၣ်": 5782,
      "စ့ၢ်ကီးဘၣ်": 5783,
      "နာ်ဝဲ": 5784,
      "နာ်န့ၢ်အီၤ": 5785,
      "ဒီးစီၤဧ့": 5786,
      "ပှၢ်လၢ်ကျါ": 5787,
      "ကပၢၤ": 5788,
      "လၢတၢ်န့ၣ်အလီၢ်": 5789,
      "ထွဲတခီ": 5790,
      "ကဘၣ်တၢ်ပျၢ်": 5791,
      "လံာ်ဧိၤ": 5792,
      "တဘျီဝံၤ": 5793,
      "တဘျီဘျီ": 5794,
      "စီၤအၤဃး": 5795,
      "သိတဖၣ်": 5796,
      "မံဘၣ်အသး": 5797,
      "ဆိၣ်ကဲၤထီၣ်": 5798,
      "အီစပံးထံ": 5799,
      "လၢဝ့ၢ်ယရူၤရှလ့ၣ်": 5800,
      "စီၤၡ့ၣ်": 5801,
      "စီၤၡမါ": 5802,
      "အခိၣ်သူ": 5803,
      "ဒီးနတ": 5804,
      "သၢပူတပူ": 5805,
      "ဆိကမိၣ်ထီၣ်": 5806,
      "ထီဒါနၤ": 5807,
      "တနီၤလၢအ": 5808,
      "ဒုၣ်တၢ်အီၣ်": 5809,
      "တဖျၢၣ်န့ၣ်လီၤ": 5810,
      "ထိၣ်ဟူး": 5811,
      "လၢၢ်တဖျၢၣ်": 5812,
      "နမ့ၢ်မၤ": 5813,
      "အပၢ်န့ၣ်လီၤ": 5814,
      "လီၤဂာ်ဒီးပှၤ": 5815,
      "ဃုာ်ဒီးအီၤ": 5816,
      "ကံးဘိၣ်": 5817,
      "လံာ်စီဆှံပာ်ဖျါထီၣ်ဝဲလၢ": 5818,
      "မူၤသံး": 5819,
      "ဖိသၣ်တဖၣ်": 5820,
      "တဲာ်ကွံာ်": 5821,
      "စီၤဘံၣ်": 5822,
      "ထူးထီၣ်တီၤ": 5823,
      "နီၢ်နီၢ်န့ၣ်": 5824,
      "ၡူၡၣ်": 5825,
      "ကူးဘု": 5826,
      "ပၢတၢ်ပြး": 5827,
      "စီၤဟ့ၤရိာ်": 5828,
      "မုၢ်နံၤအဝဲန့ၣ်": 5829,
      "အိၣ်ဘှံးအနံၤ": 5830,
      "တၢ်တတီတလိၤ": 5831,
      "ကွဲမုာ်": 5832,
      "က့ၢ်ဂီၤ": 5833,
      "ကူၣ်တၢ်ဆး": 5834,
      "မိၢ်ပၢ်ဖံဖုလၢပျၢၤတဖၣ်အကစၢ်ယွၤ": 5835,
      "လၢလာ်တဖၣ်အံၤ": 5836,
      "ယစံးဘၣ်တဲဘၣ်သုတၢ်": 5837,
      "သုးခိၣ်သုးနၢ်": 5838,
      "ဖံဘၣ်ခိၣ်": 5839,
      "စီၤရဃၤဘၣ်": 5840,
      "ကယီကယီ": 5841,
      "ပှၤဟးဂီၤဖိ": 5842,
      "မၤကဒီးတစု": 5843,
      "ကြီကြ": 5844,
      "ၡံးတၤ": 5845,
      "လီဝၢ်ဒံး": 5846,
      "ဖှီဝါကဆှၣ်": 5847,
      "စၢၤသုသွဲၣ်": 5848,
      "ကဆိကမိၣ်": 5849,
      "ကူၤၡး": 5850,
      "တၣ်": 5851,
      "တဘူၣ်": 5852,
      "တွံၢ်": 5853,
      "ထဲၣ်": 5854,
      "ဒိၤ": 5855,
      "နမဲာ်": 5856,
      "ပိၢ်": 5857,
      "ဘ့": 5858,
      "ယကွဲး": 5859,
      "သူၤ": 5860,
      "သဆၣ်": 5861,
      "သညိ": 5862,
      "သကွံၢ်": 5863,
      "အသနၢၣ်": 5864,
      "ဧၢ်": 5865,
      "ၡ့ၢ်": 5866,
      "လၢန့ၣ်": 5867,
      "လၢနၤ": 5868,
      "လၢသူၣ်": 5869,
      "လၢလါ": 5870,
      "တၢ်ဘူၣ်ထီၣ်ဘါထီၣ်": 5871,
      "တၢ်တမံၤလၢ်လၢ်": 5872,
      "လီၤစိၤလီၤထီ": 5873,
      "ဒီးသး": 5874,
      "ဒီးဃု": 5875,
      "ဒီးခီဖျိ": 5876,
      "ဒီးစူၢ်": 5877,
      "ဘၣ်တဘျီ": 5878,
      "ပှၤတဖၣ်လၢအအိၣ်": 5879,
      "တဖၣ်အိၣ်ဝဲ": 5880,
      "တဖၣ်အသိးလီၤ": 5881,
      "မၤဂ့ၤ": 5882,
      "မၤကျၢၤ": 5883,
      "လၢအဃိ": 5884,
      "ထီၣ်ဘၣ်": 5885,
      "စီၤထံ": 5886,
      "ိးထီၣ်": 5887,
      "အိၣ်လၢန": 5888,
      "အီၤခီဖျိ": 5889,
      "အီၤဆူဝ့ၢ်": 5890,
      "ယွၤတ": 5891,
      "ဖဲအအိၣ်": 5892,
      "လၢတၢ်စိာ်မၢကဲကုၢ်": 5893,
      "အတၢ်ဂ့ၢ်": 5894,
      "အတၢ်သးထီၣ်": 5895,
      "ယၤလၢပှၤ": 5896,
      "ဆူကစၢ်ယွၤ": 5897,
      "အပူၤတဂ့ၤ": 5898,
      "ကီၢ်ကနၤဧၣ်": 5899,
      "လုၢ်ထီၣ်တၢ်": 5900,
      "အဃၢ": 5901,
      "ဒိၣ်နီၢ်": 5902,
      "တၢ်အဘၣ်": 5903,
      "ဟ့ၣ်အဝဲသ့ၣ်": 5904,
      "ဒီးတၢ်သံ": 5905,
      "လံအဃိ": 5906,
      "ဒီးအခိၣ်": 5907,
      "တုၤပှၤ": 5908,
      "ဒ်သိးအဝဲ": 5909,
      "ပှၤဂီၢ်မုၢ်က": 5910,
      "ကလူ": 5911,
      "ထံၣ်ထီၣ်က့ၤ": 5912,
      "ကတိၤထီၣ်တၢ်": 5913,
      "သ့ၣ်ညါလၢ": 5914,
      "ကနၢၤ": 5915,
      "ဧိၤန့ၣ်": 5916,
      "လၢသုမၤ": 5917,
      "ဟီၣ်ခိၣ်ဖိတဖၣ်": 5918,
      "အီၣ်ကိၣ်": 5919,
      "မ့မ့ၢ်ယဲဒၣ်အံၤ": 5920,
      "တဖၣ်လၢယွၤ": 5921,
      "ဒီးစီၤမၤ": 5922,
      "ဆှၢပှၤ": 5923,
      "ဆှၢကမၣ်": 5924,
      "ဆှၢအီၤဆူ": 5925,
      "ဘၣ်ဆၣ်ဒီးအဝဲ": 5926,
      "ဒီးမၤပှဲၤ": 5927,
      "ဒီးမၤပူၤဖျဲး": 5928,
      "ပျဲအ": 5929,
      "ဆိးသီ": 5930,
      "ကျဲမုၢ်": 5931,
      "ကၤဒ့ၣ်": 5932,
      "ပိာ်မုၣ်အံၤ": 5933,
      "ဖံးတၢ်ညၣ်": 5934,
      "ဒီးသုကဘၣ်": 5935,
      "ထူစံာ်": 5936,
      "ဆိကမိၣ်တၢ်": 5937,
      "ဂာ်ဒီး": 5938,
      "တနီၤဒီး": 5939,
      "တအိၣ်ဘၣ်ဒီးတၢ်": 5940,
      "သုတမၤ": 5941,
      "ယတၢ်သိၣ်တၢ်သီ": 5942,
      "ဘၣ်တၢ်မၤမဲာ်ဆှး": 5943,
      "ပိာ်ခွါသးစၢ်": 5944,
      "ကိးဂၤဒဲးလီၤ": 5945,
      "သုဝဲလၢအ": 5946,
      "သုဝဲသ့ၣ်": 5947,
      "တဆံယဲၢ်": 5948,
      "ကံးညာ်": 5949,
      "ယံာ်ဝဲ": 5950,
      "ဒိၣ်မးန့ၣ်လီၤ": 5951,
      "ဖုတဖု": 5952,
      "ထံကျိဖရၤသး": 5953,
      "ဟးထီၣ်လၢ": 5954,
      "တသ့ဘၣ်န့ၣ်လီၤ": 5955,
      "ပျဲၢ်ယဘီၣ်": 5956,
      "လဲၤနုာ်လီၤဆူ": 5957,
      "ပာ်ဖျါထီၣ်န့ၢ်ပှၤ": 5958,
      "စုာ်စုာ်န့ၣ်": 5959,
      "ဘၣ်မနုၤအဃိန": 5960,
      "သန့လး": 5961,
      "သူၣ်ထီၣ်ဝ့ၢ်": 5962,
      "နီၢ်မၤရံဒီးစီၤယိၤသး": 5963,
      "တၢ်သူၣ်ဖှံသးညီ": 5964,
      "အဖီလာ်လီၤ": 5965,
      "လၢကမၤစၢၤ": 5966,
      "သပှၢ်ကတၢၢ်န့ၣ်လီၤ": 5967,
      "မ့ၢ်မတၤတဂၤလဲၣ်": 5968,
      "ကျိာ်ထံ": 5969,
      "ဧ့ၤဒ့ၣ်": 5970,
      "ပိာ်ထွဲထီၣ်": 5971,
      "ဟ့ၣ်လီၤအကလုၢ်ဆူ": 5972,
      "နံၣ်တနံၣ်အပူၤန့ၣ်": 5973,
      "ဟဲက့ၤစိာ်ကဒါက့ၤ": 5974,
      "နူၢ်ပူၤ": 5975,
      "ဂီၤဂီၤန့ၣ်": 5976,
      "အိၣ်ဝဲလီၤစိၤလီၤထီလီၤ": 5977,
      "သူၣ်တီသးလိၤ": 5978,
      "စူၣ်ပ": 5979,
      "စံၣ်စိၤတဲစိၤအပူၤန့ၣ်လီၤ": 5980,
      "တကီၢ်ခါ": 5981,
      "ချံးခီၣ်တီၤလီၤ": 5982,
      "ကၢၣ်": 5983,
      "ကဒံ": 5984,
      "တဆိ": 5985,
      "နစၢၤနသွဲၣ်": 5986,
      "ပလဲ": 5987,
      "ပဒီပုၢ်ဝဲၢ်": 5988,
      "ဖၢၣ်": 5989,
      "ယဂီၢ်": 5990,
      "ယမဲာ်": 5991,
      "လကံ": 5992,
      "အနီၢ်": 5993,
      "အဘီမုၢ်": 5994,
      "အံသၣ်": 5995,
      "ါယၤ": 5996,
      "ြံး": 5997,
      "တၢ်ကၤ": 5998,
      "တၢ်ထူးတၢ်တီၤ": 5999,
      "တၢ်ဂံၢ်တၢ်ဘါ": 6000,
      "တၢ်ဒူတၢ်ဃိၤ": 6001,
      "န့ၣ်ပ": 6002,
      "ဘၣ်က့ၤ": 6003,
      "ပှၤခိၣ်ပှၤနၢ်": 6004,
      "မၤအသးဒီး": 6005,
      "လၢအဂၤ": 6006,
      "လၢအမၤတၢ်": 6007,
      "လၢအလီၤဘၣ်": 6008,
      "လၢအဂံၢ်ဆူၣ်ဘါဆူၣ်": 6009,
      "အိၣ်လၢကီၢ်": 6010,
      "မ့ၢ်တ့ၢ်": 6011,
      "မ့ၢ်ပှၤတဂၤ": 6012,
      "သးဒ့ဒီ": 6013,
      "အဝဲစံးဆၢဝဲ": 6014,
      "အဝဲအမိၢ်": 6015,
      "အီၤဆူတၢ်": 6016,
      "သုဂီၢ်": 6017,
      "ဖိသ့ၣ်တဖၣ်": 6018,
      "ယွၤပၢဘၣ်တၢ်ခဲလၢာ်": 6019,
      "လၢတၢ်မၤသံ": 6020,
      "စံးကဒီးဝဲ": 6021,
      "အတၢ်ဘၣ်အသး": 6022,
      "တဂၤအသိးန့ၣ်လီၤ": 6023,
      "ခိၣ်ပှဲၤ": 6024,
      "ကီၢ်ကံးလဧး": 6025,
      "ဝ့ၢ်နံၤနဝ့": 6026,
      "ဟ့ၣ်ဘျုး": 6027,
      "ကစၢ်ယွၤတ": 6028,
      "ကစၢ်ယွၤအပှၤ": 6029,
      "ဟဲလၢကစၢ်ယွၤ": 6030,
      "ကိးဝဲ": 6031,
      "စီၤပၤယိၤ": 6032,
      "မူအထူအယိာ်": 6033,
      "ခံဘိ": 6034,
      "ဘၣ်ဆၣ်ယတ": 6035,
      "ပှၤဂီၢ်မုၢ်ဖးဒိၣ်": 6036,
      "ဖးထီၣ်": 6037,
      "ဟံၣ်ခိၣ်": 6038,
      "ကတိၤဒိၣ်": 6039,
      "အလီၢ်ဒီး": 6040,
      "အလီၢ်လံၤ": 6041,
      "အါလါ": 6042,
      "စိာ်ကွံာ်အီၤ": 6043,
      "လၢပှၤက": 6044,
      "ဖျါဖျါ": 6045,
      "ပၢ်ဧၢ": 6046,
      "ဃုာ်ဒီးအဝဲသ့ၣ်": 6047,
      "ကဲထီၣ်တၢ်မၤစၢၤ": 6048,
      "ဃုဂၤ": 6049,
      "တဖၣ်လၢဝ့ၢ်": 6050,
      "ဒီးစီၤပီလူး": 6051,
      "နံၤတနံၤ": 6052,
      "စီၤယိၤသၣ်": 6053,
      "ဒီးမၤလိာ်": 6054,
      "ကျဲလၢ": 6055,
      "လံာ်ကြီကြ": 6056,
      "တဖၣ်ဒီးသု": 6057,
      "စီၤအၤစာ်": 6058,
      "ဖဲန့ၣ်တဖၣ်": 6059,
      "တနံၤဘၣ်တနံၤ": 6060,
      "မၢအ": 6061,
      "တူၢ်တၢ်": 6062,
      "ဒီးသုဘၣ်": 6063,
      "ဒီးနီၤ": 6064,
      "ဘူးအလဲ": 6065,
      "ကီၢ်အံၣ်စရ့လးအပှၤ": 6066,
      "ဟံးန့ၢ်မူဒါ": 6067,
      "တၢ်ဒီးအီၤ": 6068,
      "တဘ့ၣ်န့ၣ်": 6069,
      "သးခုအကစီၣ်": 6070,
      "ဒိကနၣ်တၢ်": 6071,
      "ယွၤအတၢ်မၤ": 6072,
      "စၤလ": 6073,
      "ပူၤဖျဲးဒီးတၢ်": 6074,
      "အသးလၢထံ": 6075,
      "ယတၢ်ဒဲးဘး": 6076,
      "တၢ်လၢအဂ့ၤ": 6077,
      "ဟဲက့ၤတုၤ": 6078,
      "တၢ်ဒဲးဘးတဖၣ်": 6079,
      "သုသးလၢ": 6080,
      "တခါန့ၣ်": 6081,
      "ထံကျိဖိ": 6082,
      "ကီၢ်ယူဒၤအဝ့ၢ်": 6083,
      "ၡါစၢ်": 6084,
      "သူၣ်ထီၣ်ကဒါက့ၤ": 6085,
      "ဘျၢလီၤ": 6086,
      "တၢ်ကတိၤဒိ": 6087,
      "တၢ်သူၣ်ခုသးခု": 6088,
      "အဖီလာ်န့ၣ်": 6089,
      "အိၣ်ဖှိၣ်ရိဖှိၣ်": 6090,
      "တၢ်လုၢ်လီၢ်တခါ": 6091,
      "အိၣ်ဆိးဝဲ": 6092,
      "ခံးလီၤ": 6093,
      "ဃိးဆံ": 6094,
      "စီၤအ့ဘယၤ": 6095,
      "စီၤဧ့စြၤ": 6096,
      "လၢယဂီၢ်လီၤ": 6097,
      "ကြံး": 6098,
      "အိၣ်ဒီးအဖိခွါသၢဂၤ": 6099,
      "စီၤအဘံၡဲၤ": 6100,
      "တယံာ်ဘၣ်": 6101,
      "လၢကီၢ်အံၣ်စရ့လးအပူၤ": 6102,
      "တၢ်အသိးန့ၣ်လီၤ": 6103,
      "အဆံးကတၢၢ်": 6104,
      "အိၣ်ဘှီၣ်ကလာ်": 6105,
      "လီၤတိၢ်လီၤဆီ": 6106,
      "ယွၤအတၢ်အၢၣ်လီၤအီလီၤအတလါစီဆှံ": 6107,
      "ဃ့ၤသးဖိ": 6108,
      "အူထီၣ်ကွဲၤ": 6109,
      "ကမုာ်လၤ": 6110,
      "ဝဲလၢခံတပတီၢ်": 6111,
      "စီၤဧစၤရယၤ": 6112,
      "သညူးသပှၢ်": 6113,
      "တဂီၤ": 6114,
      "နဂီၢ်": 6115,
      "နသိး": 6116,
      "နကဘၣ်တၢ်": 6117,
      "နဒာ်": 6118,
      "ယခံ": 6119,
      "ယမၤတ့ၢ်": 6120,
      "အူၢ်": 6121,
      "အဆိ": 6122,
      "အအဲၣ်": 6123,
      "ဧ့ၣ်": 6124,
      "ၡမူၤအ့လး": 6125,
      "လၢလံာ်": 6126,
      "လၢပှၤအံၣ်စရ့လးဖိတဖၣ်": 6127,
      "တၢ်နီၤဖး": 6128,
      "ဒီးဟဲ": 6129,
      "ဒီးသံ": 6130,
      "ဒီးကဘၣ်တၢ်": 6131,
      "ဒီးဒိကနၣ်": 6132,
      "ဒီးနီၢ်မၤရံ": 6133,
      "ဒီးဖဲအဝဲ": 6134,
      "ဒီးသိဖါ": 6135,
      "ဘၣ်ကသ့ဧါ": 6136,
      "ထီၣ်န့ၣ်": 6137,
      "အိၣ်ယံၤ": 6138,
      "အိၣ်ဘ့ၣ်ဆ့": 6139,
      "မ့ၢ်ကစၢ်": 6140,
      "မ့ၢ်သုတ": 6141,
      "သုကမၤ": 6142,
      "ဖိသ့ၣ်ဧၢ": 6143,
      "အံၤဘၣ်": 6144,
      "ဖဲအဆၢကတီၢ်": 6145,
      "လၢတၢ်ကမၤ": 6146,
      "စံးလၢ": 6147,
      "ကတီ": 6148,
      "အတၢ်ဒူၣ်": 6149,
      "ဆူပီၣ်လဲၣ်": 6150,
      "ကွံာ်ယၤ": 6151,
      "ဘၣ်တၢ်ခူၣ်လီၤ": 6152,
      "တ့ၢ်အီၤန့ၣ်လီၤ": 6153,
      "လဲၤလီၤဆူ": 6154,
      "ကစၢ်ယွၤအကလုၢ်ကထါ": 6155,
      "သ့ဝဲန့ၣ်လီၤ": 6156,
      "စီၤပၤဟ့ၤရိာ်": 6157,
      "မူထီၣ်က့ၤ": 6158,
      "တုၤအဝဲ": 6159,
      "လၢယမံၤ": 6160,
      "လၢယမၤတ့ၢ်": 6161,
      "လၢယဟိဝၤယွၤ": 6162,
      "ထံထီၣ်ပၢၢ်": 6163,
      "ပှၤအအၢအသီ": 6164,
      "ဝဲလၢက": 6165,
      "တနွံ": 6166,
      "မဲာ်နိ": 6167,
      "အအိၣ်ဒီးတၢ်": 6168,
      "အလီၢ်တဖၣ်": 6169,
      "သ့ၣ်ညါတၢ်": 6170,
      "အခၣ်": 6171,
      "ဧိၤစ့": 6172,
      "ယ့ၣ်ၡူးစံးဆၢဝဲ": 6173,
      "မ့ၢ်တၢ်လၢ": 6174,
      "အဒူ": 6175,
      "ပတူၢ်": 6176,
      "ကယဲၢ်ပှၤဂီၢ်မုၢ်": 6177,
      "သၣ်စ့ၤ": 6178,
      "ဟ့ၣ်လီၤဝဲ": 6179,
      "ဟ့ၣ်လီၤပှၤ": 6180,
      "နံၤတနံၤန့ၣ်": 6181,
      "လၢတၢ်န့ၣ်အဃိအဝဲသ့ၣ်": 6182,
      "အဂၤတဖၣ်န့ၣ်": 6183,
      "ဆိၣ်လီၤအသး": 6184,
      "ဒီးယီၢ်": 6185,
      "လိၣ်ဘၣ်တၢ်မၤစၢၤ": 6186,
      "လၢကဘီ": 6187,
      "မၤတ့ၢ်ဝဲန့ၣ်": 6188,
      "မၤသံတၢ်": 6189,
      "ဒီးသုတ": 6190,
      "အခိၣ်လိၤ": 6191,
      "ထံၣ်ဘၣ်တ့ၢ်": 6192,
      "တနီၤန့ၣ်လီၤ": 6193,
      "တသ့နီတမံၤဘၣ်": 6194,
      "တဖျၢၣ်အပူၤ": 6195,
      "တဘ့ၣ်န့ၣ်လီၤ": 6196,
      "အမံၤန့ၣ်လီၤ": 6197,
      "တအိၣ်ဘၣ်ဒီးကိၣ်မံၣ်": 6198,
      "အိၣ်ဒီးယၤ": 6199,
      "လွံၢ်နၢၣ်": 6200,
      "ဘၣ်မနုၤလဲၣ်": 6201,
      "အစုကဝဲၤ": 6202,
      "နွံကထိ": 6203,
      "ပာ်ဖှိၣ်က့ၤ": 6204,
      "ပာ်ဖှိၣ်ဃုာ်": 6205,
      "ဆှၢလီၤပှၤစိာ်တၢ်ကစီၣ်": 6206,
      "ယံာ်ဒံး": 6207,
      "အတၢ်မၤန့ၣ်လီၤ": 6208,
      "အဒိၣ်အအါ": 6209,
      "တၢ်လီၤပျံၤလီၤဖုး": 6210,
      "လဲၤနုာ်လီၤ": 6211,
      "ထးသွဲ": 6212,
      "ဆၣ်ဖိကီၢ်ဖိတဒု": 6213,
      "အအိၣ်ဒီးစံးဘၣ်အီၤ": 6214,
      "ဒုးကဲထီၣ်အီၤလၢ": 6215,
      "စီၤဘနါယၤ": 6216,
      "ထူးအတီၤ": 6217,
      "နီၢ်နီၢ်တခီ": 6218,
      "တဖၣ်အဒီခိၣ်": 6219,
      "သးဝံၣ်တၢ်": 6220,
      "အုၣ်က့ၤခီၣ်က့ၤသု": 6221,
      "ဆီၣ်လီၤအသး": 6222,
      "အတၢ်ကတိၤတဖၣ်": 6223,
      "ဒ်အမ့ၢ်တၢ်": 6224,
      "စီၤဟိၤ": 6225,
      "တသ့ၣ်ညါဝဲဘၣ်": 6226,
      "စှၤလီၤ": 6227,
      "တခီဘီမုၢ်ဖိ": 6228,
      "အဒူၣ်ထၢပူၤန့ၣ်": 6229,
      "မၤကမၣ်တၢ်": 6230,
      "ဘိၣ်ဘံ": 6231,
      "အိးထီၣ်အသး": 6232,
      "ယွၤပၢဘၣ်တၢ်ခဲလၢာ်ကစၢ်စံးဝဲ": 6233,
      "အါန့ၢ်အန့ၣ်": 6234,
      "မ့ၢ်သုဆိကမိၣ်": 6235,
      "ပြံ": 6236,
      "လၢတၢ်လုၢ်လီၢ်အဖီခိၣ်": 6237,
      "တၢ်ဖိတၢ်လံၤ": 6238,
      "လံၤလံၤန့ၣ်": 6239,
      "ဧ့ၤဘြံၤကျိာ်": 6240,
      "တနၤကျၢၤ": 6241,
      "ယကဟ့ၣ်နၤ": 6242,
      "သိဖိတဒု": 6243,
      "မုၢ်ဆ့ၣ်ထီၣ်တနံၤန့ၣ်": 6244,
      "ပူထီၣ်ထီဒါ": 6245,
      "လိၢ်လီၤလး": 6246,
      "ကတိၤတၢ်လၢဝံအကျိာ်": 6247,
      "လီၤစၢၤလီၤသွဲၣ်": 6248,
      "မုာ်လၤသးခု": 6249,
      "သးဘိသ့ၣ်ဧၢ": 6250,
      "တုာ်ခိၣ်ပှဲၤ": 6251,
      "တီဝဲလိၤဝဲ": 6252,
      "ကတိၤတ့ၢ်တၢ်ဒီး": 6253,
      "တမျာ်": 6254,
      "စီၤအူၤရံယၤ": 6255,
      "ထီၣ်တၢလီၤ": 6256,
      "စီၤဘံၣ်ယၤမံၣ်": 6257,
      "သကွံၢ်ကညး": 6258,
      "ခ်": 6259,
      "ဂိၢ်": 6260,
      "စတူး": 6261,
      "တအ့": 6262,
      "ဒွံ": 6263,
      "ဒနံ": 6264,
      "နကအိၣ်": 6265,
      "ဖၠ": 6266,
      "ဖ့ၢ်": 6267,
      "မာ်": 6268,
      "အလုၢ်": 6269,
      "အမုာ်": 6270,
      "အဖါ": 6271,
      "အတီအလိၤ": 6272,
      "အဘျၣ်": 6273,
      "အဟၢဖၢ": 6274,
      "တၢ်မ့ၢ်ဂ့ၤ": 6275,
      "တၢ်ဘၢ": 6276,
      "ဒီးဆၣ်": 6277,
      "ဒီးလၢအဝဲသ့ၣ်": 6278,
      "ဒီးတုၤအ": 6279,
      "ဘၣ်တဆီ": 6280,
      "ပှီာ်": 6281,
      "ပှၤသၢဂၤ": 6282,
      "ပှၤသုးဖိတဖၣ်": 6283,
      "ပှၤကူၣ်ဘၣ်ကူၣ်သ့": 6284,
      "ပှၤဧမၤလ့း": 6285,
      "မၤသ့": 6286,
      "လၢအဖိခွါ": 6287,
      "လၢအတၢ်ဒဲးဘး": 6288,
      "စီၤစံး": 6289,
      "အိၣ်လံ": 6290,
      "အိၣ်ဒၣ်ထဲ": 6291,
      "အိၣ်ဂၢၢ်ဆိးကျၢၤ": 6292,
      "မ့ၢ်ယွၤ": 6293,
      "သးန့ၣ်လီၤ": 6294,
      "အဝဲအသး": 6295,
      "သုလၢသုက": 6296,
      "ဖိၤ": 6297,
      "ယွၤအဘီအမုၢ်": 6298,
      "အံၤတ": 6299,
      "အံၤအပူၤန့ၣ်လီၤ": 6300,
      "အဝဲသ့ၣ်လၢက": 6301,
      "ဖဲကစၢၢ်": 6302,
      "ဖဲဝံအ့ၤလံယၤ": 6303,
      "ဖဲအသးအိၣ်": 6304,
      "လၢတၢ်လၢအ": 6305,
      "အတၢ်သးကညီၤ": 6306,
      "ဂ့ၤတဲာ်": 6307,
      "အသးကံၢ်ပူၤ": 6308,
      "ဘၣ်တၢ်ကွဲးနီၣ်": 6309,
      "ပာ်ဝဲ": 6310,
      "န့ၢ်နၤ": 6311,
      "လီၢ်လံၤ": 6312,
      "အဃၤၡ": 6313,
      "တၢ်အသိ": 6314,
      "တၢ်အဆၢကတီၢ်": 6315,
      "တၢ်အကလုၢ်": 6316,
      "ပျိာ်": 6317,
      "ဟဲဘူး": 6318,
      "လၢာ်လံ": 6319,
      "နၤလၢနက": 6320,
      "ကိးဆၢ": 6321,
      "ကိးကတီၢ်": 6322,
      "ကိးနုာ်": 6323,
      "ကိးဖျၢၣ်": 6324,
      "သ့ထိး": 6325,
      "စီၤပၤစံးဘၣ်": 6326,
      "စီၤပၤနဘူၤကးန့စၢ်": 6327,
      "ဂီၤခီ": 6328,
      "သူၣ်မံသး": 6329,
      "တုၤယ့ၣ်ၡူး": 6330,
      "လၢယလိၤ": 6331,
      "လၢယမၤလိာ်": 6332,
      "ပှၤအဆံး": 6333,
      "မဲာ်ဖျၢၣ်": 6334,
      "ဒီးပှၤတဖၣ်လၢအ": 6335,
      "ဒဲးဝ့ၤ": 6336,
      "စီၤအဒိ": 6337,
      "ကဘၣ်မ့ၢ်": 6338,
      "ယဲၢ်နံၣ်": 6339,
      "ဧိၤလံာ်ဧိၤ": 6340,
      "ယ့ၣ်ၡူးအအိၣ်": 6341,
      "တအိၣ်လၢ": 6342,
      "ကီၢ်အံၣ်စရ့": 6343,
      "နီၣ်ထိၣ်": 6344,
      "ပတဘၣ်": 6345,
      "လၢအအိၣ်ဖဲ": 6346,
      "ဟ့ၣ်လီၤဆီ": 6347,
      "ထီၣ်ဝဲဒီး": 6348,
      "ထီၣ်ဝဲဒ်": 6349,
      "စ့ၢ်ကီးလၢ": 6350,
      "ပှဲၤဒီးတၢ်သူၣ်": 6351,
      "မ့မ့ၢ်ပှၤ": 6352,
      "ဒီးစီၤကၤ": 6353,
      "အဖိခွါခံဂၤ": 6354,
      "အဖိခွါဝဲၢ်ကိ": 6355,
      "ခီဖျိတၢ်မၤ": 6356,
      "ပျဲပ": 6357,
      "ဖးဒိၣ်လီၤ": 6358,
      "ဖးဒိၣ်န့ၣ်လီၤ": 6359,
      "ဖးဒိၣ်မဲးဒံးထၢၣ်ရ့နယၢၣ်": 6360,
      "ဘီလီၤမုၢ်": 6361,
      "တဘျီတခီၣ်": 6362,
      "လၢအဝဲသ့ၣ်အမဲာ်ညါ": 6363,
      "အဂၤတဆံ": 6364,
      "အဂၤတကလး": 6365,
      "တဖၣ်ဒီးစံးဝဲ": 6366,
      "တနံၤညါအံၤ": 6367,
      "လၢပသး": 6368,
      "မၤတၢ်လၢတၢ်": 6369,
      "စံၣ်ညီၣ်ဃၣ်": 6370,
      "မ်ပှၤလၢအ": 6371,
      "ဖံးခိၣ်": 6372,
      "တူၢ်ဒိၣ်": 6373,
      "ဘူးအတံၢ်": 6374,
      "အဒူၣ်တဖၣ်": 6375,
      "အဒူၣ်အထၢ": 6376,
      "နံၣ်အါလါ": 6377,
      "ကီၢ်အံၣ်စရ့လးဧၢ": 6378,
      "ပှၤကဘီ": 6379,
      "တဘ့ၣ်လီၤ": 6380,
      "ရၤမိး": 6381,
      "အဘု": 6382,
      "ဘျုးအဖှိၣ်": 6383,
      "ယသးလၢယက": 6384,
      "စူၤလီၤ": 6385,
      "အစုထွဲ": 6386,
      "သုသးလၢတၢ်": 6387,
      "မၤဝဲန့ၣ်": 6388,
      "မၤဝဲန့ၣ်လီၤ": 6389,
      "ကိၢ်ဘၣ်ဂီၤ": 6390,
      "ဃ့ၢ်ဝဲ": 6391,
      "ဒ့ၣ်ပာ်": 6392,
      "ဝံၤအလီၢ်ခံန့ၣ်လီၤ": 6393,
      "ဘုလီၢ်": 6394,
      "ဝဲဆူညါ": 6395,
      "ဒီးပီၣ်လဲၣ်": 6396,
      "သ့ၣ်နီၣ်ထီၣ်တၢ်": 6397,
      "ဆူးပှၤဆါ": 6398,
      "သုးမုၢ်သံၣ်ဘိ": 6399,
      "ယံၤဝဲ": 6400,
      "ကွံာ်ဝဲန့ၣ်လီၤ": 6401,
      "ကယဲၢ်တၢ်ခဲလၢာ်": 6402,
      "ဆးသးဆး": 6403,
      "တတီၤန့ၣ်လီၤ": 6404,
      "ဆ့ၣ်နီၤဝဲ": 6405,
      "သုကစၢ်ယွၤန့ၣ်လီၤ": 6406,
      "အဂံၢ်ဆူၣ်": 6407,
      "ကရၢၢ်": 6408,
      "ဘၣ်အၢဘၣ်သီ": 6409,
      "ပှၤအါဒံအါဂၤ": 6410,
      "လၢတၢ်သူၣ်ခုသးခု": 6411,
      "တဖၣ်အလိၤန့ၣ်လီၤ": 6412,
      "တဂၤဂၤဧါ": 6413,
      "မၤကမၣ်မုၣ်ကမၣ်ခွါ": 6414,
      "ကဘၣ်တၢ်မၤမဲာ်ဆှး": 6415,
      "ဂီၤတၢ်ဖီၣ်တဖၣ်": 6416,
      "ဒ်သိးအကမၤ": 6417,
      "အစိၤန့ၣ်": 6418,
      "စါဘ့း": 6419,
      "မ့းၡံ": 6420,
      "စံာ်ပျီပူၤ": 6421,
      "အဂံၢ်အဘါဆူၣ်": 6422,
      "တယံာ်တမီၢ်": 6423,
      "က့ၤဆူဟံၣ်": 6424,
      "တီသးရၤ": 6425,
      "နဲဒၣ်အံၤ": 6426,
      "ပှၤတနီၤနီၤ": 6427,
      "အသးလၢအီၤ": 6428,
      "ကစၢ်ယွၤလၢအမူဝဲ": 6429,
      "ဒီးတၢ်လုၢ်လီၢ်": 6430,
      "နူၢ်ဧိၤစီၤဧိၤ": 6431,
      "ပဲတရီ": 6432,
      "ဟၤကၢ်": 6433,
      "ချၢၣ်ဒၢသၣ်": 6434,
      "အခွဲးလၢ": 6435,
      "မဲာ်ထံမဲာ်နိ": 6436,
      "စဲပနီၣ်ဃာ်": 6437,
      "က့းဒနံ": 6438,
      "ဟဲဝံဟဲစိာ်": 6439,
      "နီၢ်ပနံးနၤ": 6440,
      "လံာ်ကြီကြာ်": 6441,
      "ဧိၤစ့ဧိၤ": 6442,
      "မ့းၡံအၤ": 6443,
      "an": 6444,
      "ကဖၣ်": 6445,
      "တ့း": 6446,
      "တလ့ၣ်": 6447,
      "တမုာ်": 6448,
      "တယုၢ်": 6449,
      "နဟံၣ်": 6450,
      "နဒီပုၢ်ဝဲၢ်": 6451,
      "ပဘၣ်": 6452,
      "ဘၢၣ်": 6453,
      "မီၣ်": 6454,
      "ယဖိ": 6455,
      "ယဟ့ၣ်": 6456,
      "ယအဲၣ်": 6457,
      "ယကစံးထီၣ်ပတြၢၤ": 6458,
      "ဟူၤ": 6459,
      "အကမၤ": 6460,
      "အစီ": 6461,
      "အန့ၣ်တက့ၢ်": 6462,
      "အမ့ၢ်တၢ်": 6463,
      "အဘျီ": 6464,
      "အမူဒါ": 6465,
      "အဖျီၣ်": 6466,
      "တၢ်ခုၣ်": 6467,
      "ဒီဂၤ": 6468,
      "ဒီကီၢ်": 6469,
      "လီၤပျီ": 6470,
      "လီၤဘှါ": 6471,
      "ဒီးမ့ၢ်ပှၤ": 6472,
      "ဒီးပိာ်ခွါ": 6473,
      "ဒီးဖဲယ": 6474,
      "ဒီးသ့ၣ်စၤယံးအသိ": 6475,
      "န့ၣ်သု": 6476,
      "ဘၣ်တနံၤန့ၣ်": 6477,
      "မၤတၢ်အၢတၢ်သီ": 6478,
      "စီၤထီၣ်": 6479,
      "စီၤကဒါ": 6480,
      "စီၤစး": 6481,
      "စီၤဖ့": 6482,
      "အိၣ်ဒၣ်": 6483,
      "မ့ၢ်သ့": 6484,
      "မ့ၢ်ခရံာ်": 6485,
      "မ့ၢ်နက": 6486,
      "မ့ၢ်မနုၤလဲၣ်": 6487,
      "သးစၢၢ်ဆၢ": 6488,
      "အဝဲၢ်": 6489,
      "အဝဲဘၣ်": 6490,
      "အဝဲဟ့ၣ်": 6491,
      "သ့ၣ်တဖၣ်လၢ": 6492,
      "အီၤအသိး": 6493,
      "သုတၢ်မၤ": 6494,
      "သုမ့ၢ်ပှၤ": 6495,
      "ယွၤဒုး": 6496,
      "ဒ်လာ်": 6497,
      "ပူၤတက့ၢ်": 6498,
      "ပူၤကျဲ": 6499,
      "အဝဲသ့ၣ်စံး": 6500,
      "အဝဲသ့ၣ်မၤတၢ်": 6501,
      "ဖဲဆၢကတီၢ်": 6502,
      "လၢတၢ်သး": 6503,
      "စံးတၢ်အံၤ": 6504,
      "အတၢ်ဆါ": 6505,
      "အတၢ်နၢမူ": 6506,
      "ယၤရၤဘၣ်": 6507,
      "အပူၤဒ်": 6508,
      "ဘၣ်တၢ်ဟ့ၣ်လီၤ": 6509,
      "ပာ်အသး": 6510,
      "ပာ်ထီၣ်အီၤ": 6511,
      "ပာ်တဒၢ": 6512,
      "ပာ်တီပာ်လိၤ": 6513,
      "တ့ၢ်စီၤမိၤၡ့": 6514,
      "လုၢ်တၢ်အဒိၣ်": 6515,
      "အဂီၢ်န့ၣ်လဲၣ်": 6516,
      "ဒီးတၢ်ခဲလၢာ်": 6517,
      "ဒီးအမံၤ": 6518,
      "လၢယကဘၣ်": 6519,
      "လၢယဟ့ၣ်လီၤ": 6520,
      "ဒ်သိးယကမၤ": 6521,
      "ကလီၣ်": 6522,
      "ထံလၢ": 6523,
      "ထံလီၤ": 6524,
      "ထံဒၢ": 6525,
      "ဖးလဲၢ်": 6526,
      "ဝဲလၢကျဲဒ်လဲၣ်": 6527,
      "အအိၣ်ဘၣ်": 6528,
      "အအိၣ်န့ၣ်တက့ၢ်": 6529,
      "ဟံၣ်တဖျၢၣ်": 6530,
      "ဟံၣ်ဒူၣ်ဃီထၢ": 6531,
      "ဒဲးကံၣ်": 6532,
      "ဘါထီၣ်တၢ်": 6533,
      "လၢနအိၣ်": 6534,
      "လၢနမၤတ့ၢ်": 6535,
      "အကသ့ၣ်ယီၤ": 6536,
      "တဲဘၣ်တၢ်": 6537,
      "လၢအဝဲအတၢ်": 6538,
      "လၢသုဝဲ": 6539,
      "ယ့ၣ်ၡူးစံးဆၢအီၤ": 6540,
      "ဝံတၢ်နါ": 6541,
      "ဟီၣ်ခိၣ်ဒီး": 6542,
      "ဟီၣ်ခိၣ်ညၣ်ထ့ၣ်": 6543,
      "လၢပှၤဟီၣ်ခိၣ်ဖိ": 6544,
      "တဂ့ၤန့ၣ်တက့ၢ်": 6545,
      "တမ့ၢ်ဒ်န့ၣ်ဘၣ်": 6546,
      "အၢဝဲသီ": 6547,
      "ဘၣ်ဆၣ်ဒီးကစၢ်ယွၤ": 6548,
      "ဖးဒိၣ်တဖျၢၣ်": 6549,
      "ဃ့သွဲ": 6550,
      "ကူၣ်အၢ": 6551,
      "လါအဲး": 6552,
      "အဂၤခဲလၢာ်": 6553,
      "လိၣ်ဘၣ်အီၤ": 6554,
      "ဒၣ်ဝဲန့ၣ်": 6555,
      "ပိာ်မုၣ်သးစၢ်": 6556,
      "လံၤစါဘ့း": 6557,
      "တၤဟိ": 6558,
      "ပၢတ့ၢ်": 6559,
      "တဲဘၣ်သု": 6560,
      "ဒီးနဲ": 6561,
      "အဒူၣ်ဖိထၢဖိတဖၣ်": 6562,
      "ထံၣ်ဘၣ်လၢ": 6563,
      "ဆိကမိၣ်ထံ": 6564,
      "ဆၢထၢၣ်လၢ": 6565,
      "ပာ်လီၤအသးလၢ": 6566,
      "တဘ့ၣ်လၢအ": 6567,
      "ခဲအံၤဒီးဆူညါ": 6568,
      "လၢမုၢ်ဂီၤ": 6569,
      "လၢမုၢ်ဆ့ၣ်ထီၣ်": 6570,
      "ဒီးကုၢ်": 6571,
      "ဘျုးတအိၣ်ဘၣ်": 6572,
      "အဟံၣ်ဖိဃီဖိတဖၣ်": 6573,
      "အဟံၣ်အဃီ": 6574,
      "တၢ်အီၣ်ဆၣ်အလီၢ်": 6575,
      "ပှၤကညီအတၢ်": 6576,
      "အသးဒီးအီၤ": 6577,
      "တဆံဃိး": 6578,
      "တ့ၢ်လံဝဲ": 6579,
      "ကံးရယး": 6580,
      "မၤသးဒ်န့ၣ်": 6581,
      "လီၤတဲာ်ကွံာ်": 6582,
      "ဒ်သိးကဒုး": 6583,
      "စံဃိၣ်": 6584,
      "ဒီးပဒိၣ်": 6585,
      "ကတိၤတၢ်ဒီးအဝဲသ့ၣ်": 6586,
      "ထုးန့ၢ်": 6587,
      "ပှၤတမှံၤ": 6588,
      "ဖီၣ်ဃာ်": 6589,
      "ပာ်ထီၣ်အီၤလၢ": 6590,
      "စီၤဘ့": 6591,
      "ဒုးနဲၣ်ဖျါထီၣ်": 6592,
      "တၢ်အဲၣ်ဂၢၢ်ကျၢၤ": 6593,
      "ၡူလၣ်": 6594,
      "လူၤဃု": 6595,
      "တချုးဒံးဘၣ်": 6596,
      "ဆ့ၣ်နီၤဝဲလၢ": 6597,
      "လီၤဆီလိာ်အသး": 6598,
      "ဟါမၢ်": 6599,
      "ကီၤဒိၣ်": 6600,
      "လုၢ်အပှ့ၤ": 6601,
      "နီတဘျီလၢၤဘၣ်": 6602,
      "တဘျီဃီလီၤ": 6603,
      "အတီၢ်ပူၤန့ၣ်လီၤ": 6604,
      "အနံၣ်ခံဆံ": 6605,
      "စီၤအဘံယၤ": 6606,
      "ကရိ": 6607,
      "တဖၣ်အကျါန့ၣ်လီၤ": 6608,
      "ဒီပုၢ်ဝဲၢ်ခွါတဖၣ်": 6609,
      "ပဝဲစ့ၢ်ကီး": 6610,
      "ယါကံၣ်": 6611,
      "တၢ်လုၢ်တၢ်ပာ်တဖၣ်": 6612,
      "အိၣ်ခိးကွၢ်လၢ်": 6613,
      "ကျဲၤလီၤ": 6614,
      "လဲၢ်ဝဲ": 6615,
      "ကြိၣ်": 6616,
      "အတၢ်ဒဲးဘးတဖၣ်": 6617,
      "ဒီးတၢ်သူၣ်ဖှံသးညီ": 6618,
      "လၢသုဂီၢ်လီၤ": 6619,
      "က့ၢ်အဂီၤ": 6620,
      "ယွၤအသးန့ၣ်လီၤ": 6621,
      "အကပၤန့ၣ်လီၤ": 6622,
      "ယွၤပၢဘၣ်တၢ်ခဲလၢာ်ကစၢ်ကတိၤလံတၢ်လံ": 6623,
      "ဝ့ရိၣ်": 6624,
      "အကျဲစၢၤန့ၣ်လီၤ": 6625,
      "ဟီထီၣ်ကွံာ်တၢ်နါ": 6626,
      "ပှၤအုၣ်က့ၤခီၣ်က့ၤ": 6627,
      "ထီၣ်ဝဲဒၣ်န့ၣ်လီၤ": 6628,
      "ကဲထီၣ်စီၤပၤလၢအလီၢ်န့ၣ်လီၤ": 6629,
      "တဆီဘၣ်တဆီ": 6630,
      "အစိၤစိၤအဃၣ်ဃၣ်လီၤ": 6631,
      "ဘျဲးအီၣ်": 6632,
      "လဲၤဃုာ်တၢ်ဒီး": 6633,
      "တၤဆှုၣ်တၤမဲ": 6634,
      "ပှၤတဂၤဂ့ၤတဂၤဂ့ၤလၢအ": 6635,
      "တကတီၢ်ဃီ": 6636,
      "စီၤကဃး": 6637,
      "ဂံၢ်နဘါ": 6638,
      "စီၤအၤမနိၣ်": 6639,
      "ဘူၣ်ဘျီၣ်လၢအမ့ၢ်တၢ်ဘါလီၢ်": 6640,
      "တဘျီဝံၤတဘျီ": 6641,
      "စီၤၡမါယၤ": 6642,
      "ဒွံကျိာ်": 6643,
      "ဒ့ၣ်ပာ်ကမၣ်": 6644,
      "ဒဲးကံၣ်ဒဲးဝ့ၤ": 6645,
      "ကကဲ": 6646,
      "ကသူ": 6647,
      "ကအုၣ်က့ၤခီၣ်က့ၤ": 6648,
      "ဂါ": 6649,
      "စ်": 6650,
      "ဆုး": 6651,
      "နဟ့ၣ်": 6652,
      "နအဲၣ်ဒိး": 6653,
      "ပကီၢ်": 6654,
      "ပသီ": 6655,
      "ဘိၤ": 6656,
      "ယလဲၤ": 6657,
      "ယဆိး": 6658,
      "ယဃုထၢ": 6659,
      "ယဆှၢလီၤ": 6660,
      "ယဖိမုၣ်": 6661,
      "ယပျဲၢ်ယဘီၣ်": 6662,
      "ဝံၢ်": 6663,
      "အာ်": 6664,
      "အနီ": 6665,
      "အနၢၤ": 6666,
      "အဝံတဖၣ်": 6667,
      "အပီးအလီ": 6668,
      "ဧူး": 6669,
      "ဧိၢ်": 6670,
      "၄၀": 6671,
      "ၣ်ဘျးသဒၢ": 6672,
      "တၢ်တဂၤ": 6673,
      "တၢ်ကျဲၤ": 6674,
      "တၢ်ကမၤအသး": 6675,
      "တၢ်ပီးတၢ်လီ": 6676,
      "တၢ်ခ့တၢ်ပှၤ": 6677,
      "တၢ်မုၢ်တၢ်ဘိ": 6678,
      "ဒီဘိ": 6679,
      "လီၤကမၢကမၣ်": 6680,
      "ဒီးခရံာ်": 6681,
      "ဒီးဃ့ၢ်": 6682,
      "ဒီးလၢခံ": 6683,
      "ဒီးထး": 6684,
      "ဒီးစီၤယိၤၡူ": 6685,
      "ဒီးပိာ်မုၣ်န့ၣ်": 6686,
      "ဒီးဒၢနုာ်": 6687,
      "န့ၣ်လၢ": 6688,
      "န့ၣ်အိၣ်ဝဲ": 6689,
      "ဘၣ်မး": 6690,
      "ဘၣ်တိၢ်": 6691,
      "ပှၤဘံၣ်ယၤမံၣ်": 6692,
      "ပှၤဧ့ၤဘြံၤ": 6693,
      "မၤတၢ်အၢၣ်လီၤအီလီၤ": 6694,
      "မၤအၢမၤနး": 6695,
      "မၤပျံၤမၤဖုး": 6696,
      "မၤက့းဒနံ": 6697,
      "ံးလကံယၤ": 6698,
      "လၢအသ့ၣ်ညါ": 6699,
      "လၢအနံၣ်": 6700,
      "မ့ၢ်တၢ်အ": 6701,
      "မ့ၢ်စ့ၢ်ကီး": 6702,
      "မ့ၢ်ယတၢ်": 6703,
      "မ့ၢ်လၢကစၢ်ယွၤ": 6704,
      "သးဆၢ": 6705,
      "သးဂဲၤ": 6706,
      "အဝဲမၢ": 6707,
      "အဝဲမၤတ့ၢ်": 6708,
      "အဝဲအဲၣ်ဒိး": 6709,
      "သ့ၣ်စူၣ်ပ": 6710,
      "အီၤဒ်တၢ်": 6711,
      "ံၣ်အု": 6712,
      "ယွၤကတိၤ": 6713,
      "ဒ်ပှၤလၢအ": 6714,
      "လဲလိာ်အသး": 6715,
      "အဝဲသ့ၣ်မၤသံ": 6716,
      "မုၢ်မုၢ်": 6717,
      "ဖဲဒၣ်": 6718,
      "ဖဲစီၤစီလူး": 6719,
      "လၢတၢ်ဟ့ၣ်": 6720,
      "အတၢ်စံးဆၢ": 6721,
      "အတၢ်ထိၣ်": 6722,
      "အတၢ်ပီးတၢ်လီ": 6723,
      "အတၢ်ပၢၤခိၣ်": 6724,
      "ယၤတဂၤဧိၤ": 6725,
      "အပူၤအသိး": 6726,
      "ဘၣ်တၢ်ကွဲး": 6727,
      "ဘၣ်တၢ်စံးထီၣ်ပတြၢၤ": 6728,
      "ပာ်အီၤဒ်": 6729,
      "ကျၣ်": 6730,
      "အဂီၢ်လဲၣ်": 6731,
      "အဃိၢ်": 6732,
      "လဲၤထီၣ်က့ၤလီၤ": 6733,
      "သံတဖၣ်": 6734,
      "အသိးအကျါ": 6735,
      "ဒီးတၢ်န့ၣ်": 6736,
      "နီၢ်ဘၤ": 6737,
      "ဒီးအက": 6738,
      "ဒီးအဂံၢ်အဘါ": 6739,
      "ဒီးအခ့အပှၤ": 6740,
      "လၢယတ": 6741,
      "လၢယပူၤ": 6742,
      "လၢယတၢ်သး": 6743,
      "ထံအကီၢ်": 6744,
      "ထံလုၣ်ဘၢ": 6745,
      "ပှၤအဆိကတၢၢ်": 6746,
      "ပှၤအမၢး": 6747,
      "ဖှ့": 6748,
      "တမံၤလၢတၢ်": 6749,
      "တမံၤဧိၤ": 6750,
      "ဒီးပှၤမၤ": 6751,
      "စီၤအၣ်": 6752,
      "ဘါၡၤ": 6753,
      "လၢနံၣ်": 6754,
      "ဒံးဧါ": 6755,
      "ကဘၣ်မၤတၢ်": 6756,
      "အကီ": 6757,
      "တဲနၢ်ပၢၢ်": 6758,
      "ဧိၤတဖၣ်": 6759,
      "တအိၣ်ဝဲ": 6760,
      "တအိၣ်လီၤတဲာ်": 6761,
      "လၢပှၤခဲလၢာ်": 6762,
      "တဂ့ၤလီၤ": 6763,
      "ကယဲၢ်တၢ်လၢ": 6764,
      "သုးကျဲၤ": 6765,
      "တမ့ၢ်ဘၣ်တၢ်": 6766,
      "နံၤယၤ": 6767,
      "ခီၣ်ဖံး": 6768,
      "တၢ်လုၢ်ထီၣ်": 6769,
      "ကျဲတဘိ": 6770,
      "အီာ်": 6771,
      "အီထံ": 6772,
      "လၢၤတဂ့ၤ": 6773,
      "တၤမၢ်": 6774,
      "မ်ယ": 6775,
      "အပှၤဂီၢ်မုၢ်လၢ": 6776,
      "မၤသံဘၣ်": 6777,
      "တူၢ်ဘၣ်လၢ": 6778,
      "သၢကလး": 6779,
      "ဃၣ်က့ၤ": 6780,
      "မ့ၣ်အူအီၣ်": 6781,
      "ဒီးအဝဲစံးဘၣ်": 6782,
      "အမံၤလၢစီၤ": 6783,
      "ဒိကနၣ်ယၤ": 6784,
      "လၢအကပၤ": 6785,
      "ပၢၢ်တုၤ": 6786,
      "လွံၢ်ကထိ": 6787,
      "လာ်ဆှိး": 6788,
      "အ့လးအဖိခွါ": 6789,
      "အလီၢ်ခံန့ၣ်လီၤ": 6790,
      "အီၤလၢတၢ်သံ": 6791,
      "အီၤလၢတၢ်ဒုး": 6792,
      "တခါလၢအ": 6793,
      "လံာ်စီဆှံန့ၣ်": 6794,
      "လၢဟီၣ်ခိၣ်ဒီဘ့ၣ်ညါ": 6795,
      "မတၤတဂၤလဲၣ်": 6796,
      "ဒီးတချုး": 6797,
      "ကတဲာ်ကတီၤအသး": 6798,
      "စီၤဃံးလကံယၤ": 6799,
      "လၢကျဲစၢၤ": 6800,
      "ဖဲအံၤတက့ၢ်": 6801,
      "ဘၣ်မနုၤအဃိလဲၣ်": 6802,
      "ဒွး": 6803,
      "တၢ်ဂ့ၢ်အဘျဲၣ်": 6804,
      "သူၣ်ထီၣ်တၢ်လုၢ်ဟံၣ်": 6805,
      "တံၤအီာ်": 6806,
      "လဲၤထီၣ်ဒုးတၢ်": 6807,
      "ကစံၣ်တဲၤတဲ": 6808,
      "ဘံၣ်တၢ်ဘၢ": 6809,
      "ဒုးအိၣ်ထီၣ်ဝဲ": 6810,
      "တြီဆၢ": 6811,
      "တၢ်အၢၣ်လီၤအီလီၤအတလါ": 6812,
      "စီၤယံးဖ": 6813,
      "န့ၣ်ကမ့ၢ်": 6814,
      "တစဲးဖိ": 6815,
      "မ့ၢ်မတၤတဂၤ": 6816,
      "တိာ်ဧိၤတာ်ဧိၤ": 6817,
      "ဒၣ်တၢ်ဒိၣ်": 6818,
      "လၢတၢ်မၤလၤကပီၤ": 6819,
      "အနံၤန့ၣ်လီၤ": 6820,
      "အသုးမုၢ်သံၣ်ဘိ": 6821,
      "ဃံၤဝံ": 6822,
      "အတြီၤ": 6823,
      "လၢကစၢၢ်ကလိ": 6824,
      "တကယၤခံဆံ": 6825,
      "အိၣ်ဒီးအဖိခွါလွံၢ်ဂၤ": 6826,
      "နီၤဖးလီၤ": 6827,
      "လၢကီၢ်ယူဒၤအစီၤပၤ": 6828,
      "ဟုၣ်တၢ်": 6829,
      "အတၢ်လုၢ်တၢ်ပာ်": 6830,
      "စီၤယိဃၤနၣ်": 6831,
      "ပသ့ၣ်ညါဘၣ်လၢ": 6832,
      "က့ၤဆူအဟံၣ်": 6833,
      "တကထိအခိၣ်": 6834,
      "ယဲဒၣ်အံၤယမ့ၢ်ယွၤ": 6835,
      "မ့ၣ်အူဒၢအလီၢ်": 6836,
      "ခွံဆံ": 6837,
      "ဆူဝ့ၢ်ယရူၤၡလ့ၣ်န့ၣ်လီၤ": 6838,
      "ဘၣ်တၢ်စံၣ်ညီၣ်ဃါမနၤလီၤ": 6839,
      "အဘူးအလဲ": 6840,
      "ဃ့ၢ်ပူၤဖျဲးအသး": 6841,
      "အတၢ်အီၣ်ဆၣ်အလီၢ်": 6842,
      "ရူၤဘ့ၣ်အဒူၣ်": 6843,
      "စီၤဧိၤဘ့း": 6844,
      "နီၢ်အ့း": 6845,
      "နီၢ်အံၣ်အု": 6846,
      "ယဒုၣ်ယဒါတဖၣ်": 6847,
      "ဘၣ်ဆိၣ်ဂ့ၤဝဲလီၤ": 6848,
      "လဲၤတၢ်လၢကျဲ": 6849,
      "ဘ့ၢ်ၡဘၤ": 6850,
      "ကွဲးနီၣ်ကွဲးဃါအီၤလၢ": 6851,
      "စီၤဧူးစံယါ": 6852,
      "ဖံၤနဃၣ်": 6853,
      "လုၢ်အီၣ်လုၢ်အီ": 6854,
      "ပစံးဒၣ်ကလိာ်": 6855,
      "စီၤမံၤကါယၤ": 6856,
      "ခါလီၤအကလုၢ်": 6857,
      "နစၤရ့းဖိ": 6858,
      "စီၤဘၢ်နါဘၤ": 6859,
      "ကစၢ်မုၣ်အၡ့ရၤ": 6860,
      "စီၤအ့ဘယၤသၢ်": 6861,
      "er": 6862,
      "ကုာ်": 6863,
      "ကထံၣ်": 6864,
      "ကဟံးန့ၢ်": 6865,
      "ကပူၤဖျဲး": 6866,
      "ဂဲာ်": 6867,
      "ညွ": 6868,
      "တမ့ၢ်တၢ်လၢအ": 6869,
      "ဒ့း": 6870,
      "ပဲာ်": 6871,
      "မယၤ": 6872,
      "မဲးစ": 6873,
      "ယမိၢ်": 6874,
      "ယမၤလိာ်": 6875,
      "ရာ်": 6876,
      "ရနီၣ်": 6877,
      "လယး": 6878,
      "အမူ": 6879,
      "အဒံး": 6880,
      "အစၢၤ": 6881,
      "အဘိ": 6882,
      "အပျီ": 6883,
      "အစှၤ": 6884,
      "အလဲၢ်": 6885,
      "အန့ဆၢၣ်": 6886,
      "အဝၢ်ဘးခီ": 6887,
      "အထိးနါ": 6888,
      "လၢခိ": 6889,
      "လၢစီၤပီလူး": 6890,
      "တၢ်ကျဲ": 6891,
      "တၢ်ပှ့ၤ": 6892,
      "တၢ်တမံၤဃီ": 6893,
      "ဒီကတီၢ်": 6894,
      "ဒီးဒုးနဲၣ်": 6895,
      "ဒီးတမ့ၢ်ဘၣ်": 6896,
      "န့ၣ်တဘၣ်": 6897,
      "ဝဲတုၤဒၣ်လဲာ်": 6898,
      "ဘၣ်တဂၤ": 6899,
      "ဘၣ်ယၤ": 6900,
      "ဘၣ်တဘၣ်": 6901,
      "ီၣ်ထီၣ်ကွံာ်": 6902,
      "ပှံာ်": 6903,
      "ပှၤသ့": 6904,
      "ပှၤကူၣ်သ့": 6905,
      "ပှၤဃဲသဲမုၣ်": 6906,
      "ပှၤတၢ်မၢဖိတဖၣ်": 6907,
      "တဖၣ်လံ": 6908,
      "မၤဃၣ်": 6909,
      "မၤဘျါ": 6910,
      "မၤပူၤမၤဖျဲး": 6911,
      "လၢအအီၣ်": 6912,
      "လၢအကျါ": 6913,
      "ထီၣ်အသးလၢ": 6914,
      "အိၣ်သါ": 6915,
      "မ့ၢ်ပှၤအခိၣ်": 6916,
      "အဝဲသံကွၢ်": 6917,
      "အီၤလၢယ": 6918,
      "အီၤတဖၣ်န့ၣ်လီၤ": 6919,
      "အီၤလၢအက": 6920,
      "ယွၤလၢ": 6921,
      "ဒ်ပှၤလုၢ်တၢ်အခိၣ်": 6922,
      "အဝဲသ့ၣ်လၢအ": 6923,
      "အဝဲသ့ၣ်ဟံးန့ၢ်": 6924,
      "လၢတၢ်ဆၢကတီၢ်": 6925,
      "လၢတၢ်မၤနၢၤ": 6926,
      "စံးပတြၢၤ": 6927,
      "အတၢ်စူၢ်တၢ်နာ်": 6928,
      "ခိၣ်ကဲ": 6929,
      "ဆူဟီၣ်ခိၣ်": 6930,
      "ဆူယွၤအတၢ်လုၢ်ဟံၣ်": 6931,
      "ဆူကစၢ်ယွၤအအိၣ်": 6932,
      "ကစၢ်လၢအ": 6933,
      "ကွံာ်လံ": 6934,
      "ဘၣ်တၢ်ဟ့ၣ်": 6935,
      "ဘၣ်တၢ်သ့ၣ်ညါ": 6936,
      "ကျံး": 6937,
      "န့ၢ်အီၤလၢ": 6938,
      "ဝ့ၢ်စံယိၣ်": 6939,
      "ဝ့ၢ်ထါယၢၣ်": 6940,
      "တၢ်အခွဲးအယာ်": 6941,
      "ဟ့ၣ်ထီၣ်တၢ်": 6942,
      "ဟ့ၣ်ဆူၣ်ထီၣ်": 6943,
      "ကိးထံၣ်": 6944,
      "ဒီးတၢ်ကတိၤ": 6945,
      "ဒီးတၢ်နၢမူ": 6946,
      "ဒုးဂဲၤဆၢထၢၣ်က့ၤ": 6947,
      "ခံကတၢၢ်": 6948,
      "ဒီးအပှၤဂီၢ်မုၢ်": 6949,
      "ဒီးအစု": 6950,
      "ဒီးအၢၣ်လီၤ": 6951,
      "ဒီးအဒီပုၢ်ဝဲၢ်": 6952,
      "တုၤမုၢ်မဆါတနံၤအံၤ": 6953,
      "ဘၣ်ဆၣ်ခဲအံၤ": 6954,
      "ထံၣ်လိာ်အသးဒီး": 6955,
      "သီတနၤကျၢၤ": 6956,
      "ဟးဖျိး": 6957,
      "ဖိတဖၣ်က": 6958,
      "ဒီးပှၤလၢ": 6959,
      "ဒီးပှၤတဂၤန့ၣ်": 6960,
      "ဒီးပှၤလ့ၤဝံဖိတဖၣ်": 6961,
      "ကဘၣ်လဲၤ": 6962,
      "အကံကၢ်": 6963,
      "ကနံၤ": 6964,
      "ဝံၤလံ": 6965,
      "တီဝဲလီၤ": 6966,
      "ယ့ၣ်ၡူးန့ၣ်လီၤ": 6967,
      "မ့ၢ်တၢ်တမံၤဃီ": 6968,
      "အဒဲၣ်မုၣ်": 6969,
      "ယကဆိၣ်ဂ့ၤ": 6970,
      "့းရနီၣ်": 6971,
      "ဘူၣ်တၢ်": 6972,
      "ကယဲၢ်တၢ်အဂၤ": 6973,
      "ဘ့ၣ်လီၤ": 6974,
      "ဟ့ၣ်လီၤယၤ": 6975,
      "ဒီးစီၤဃ": 6976,
      "ထၢထၢ": 6977,
      "ကပ့းရနီၣ်": 6978,
      "အဝဲဒၣ်စံးဘၣ်": 6979,
      "ကူၣ်လိာ်": 6980,
      "နုာ်လီၤဆူ": 6981,
      "အဂၤတဖၣ်လၢ": 6982,
      "မံဃုာ်ဒီး": 6983,
      "တဖၣ်အံၤန့ၣ်": 6984,
      "အပှၤဂီၢ်မုၢ်န့ၣ်လီၤ": 6985,
      "လိန့ၢ်": 6986,
      "ဝဲလီၤထူလီၤယိာ်": 6987,
      "ထံၣ်ဘၣ်အီၤ": 6988,
      "ဆိကမိၣ်ကွၢ်": 6989,
      "ထီဒါအဝဲသ့ၣ်": 6990,
      "ဝဲဒၣ်ဘၣ်": 6991,
      "ပျၢ်လၢ်": 6992,
      "ပှၤကံး": 6993,
      "ထီၣ်က့ၤဝဲ": 6994,
      "မူခိၣ်ဖီ": 6995,
      "မ့ၢ်ပှၤလုၢ်တၢ်အခိၣ်": 6996,
      "အိၣ်ဒီးနၤ": 6997,
      "ကစၢၢ်စံယိၣ်": 6998,
      "လွံၢ်ဒု": 6999,
      "တၢ်လၢအမၤအသး": 7000,
      "လၢၢ်ဘ့ၣ်ဘၣ်": 7001,
      "နီတမံၤလၢၤဘၣ်": 7002,
      "အစုပူၤဒီး": 7003,
      "အိၣ်ဒီးတၢ်စိတၢ်ကမီၤ": 7004,
      "ဒူဒူ": 7005,
      "သုသးဒီး": 7006,
      "ဝးဝး": 7007,
      "ဒ်တၢ်ဟ့ၣ်": 7008,
      "အီၤဒီးစံး": 7009,
      "ဘှီထီၣ်က့ၤ": 7010,
      "ဒ့ၣ်စၢၤ": 7011,
      "ဧၤမၣ်": 7012,
      "ဝံၣ်သးဆၢ": 7013,
      "ဆူးကဲၤထီၣ်": 7014,
      "ယအိၣ်ကတဲာ်ကတီၤ": 7015,
      "ကတိၤတၢ်ဒီးပှၤ": 7016,
      "နီတစုဘၣ်န့ၣ်လီၤ": 7017,
      "ထိးဘၣ်တၢ်": 7018,
      "ထံကီၢ်တဘ့ၣ်": 7019,
      "သနံ": 7020,
      "နီၢ်ကစၢ်ဒၣ်သုဝဲ": 7021,
      "ရ့လိာ်": 7022,
      "ဘျၢတၢ်": 7023,
      "တၢ်လုၢ်ဟံၣ်အဂၢၤ": 7024,
      "အခီၣ်ထံးကတၢၢ်": 7025,
      "ကိရ့ၣ်": 7026,
      "မံးလာ်": 7027,
      "ဘိးကဒါ": 7028,
      "ဃါမနၤ": 7029,
      "တၢ်ဆၢကတီၢ်လၢ": 7030,
      "ခံးကျါ": 7031,
      "ဒီးကယဲၢ်ပှၤဂီၢ်မုၢ်ခဲလၢာ်": 7032,
      "အထံထီၣ်ပၢၢ်": 7033,
      "အန့ၣ်ဝံၤဒီးအဝဲသ့ၣ်": 7034,
      "ပှၤအါကလုာ်": 7035,
      "လဲၢ်ထီၣ်": 7036,
      "ပျံၤတၢ်ဖုးတၢ်": 7037,
      "ကိၤရး": 7038,
      "စီၤစုၤ": 7039,
      "လီၤကဒွံကျိာ်": 7040,
      "အဃၢၤအဃိၢ်": 7041,
      "ဒိၣ်ဒိၣ်မုၢ်မုၢ်": 7042,
      "အဆိကတၢၢ်န့ၣ်": 7043,
      "တဒူၣ်ဘၣ်": 7044,
      "တယံာ်ဘၣ်ဒီး": 7045,
      "တယံာ်ဘၣ်န့ၣ်": 7046,
      "ထၢဖှိၣ်က့ၤ": 7047,
      "လၢပဂီၢ်လီၤ": 7048,
      "စီၤကၤလ့း": 7049,
      "ကွၢ်ဃီၤတၢ်ဆူ": 7050,
      "အလွဲၢ်လုးတကုာ်": 7051,
      "ထွံၣ်မံၤ": 7052,
      "စီၤၡၤလူၣ်": 7053,
      "သမံသမိးကွၢ်": 7054,
      "လၢကလံၤစိးတခီ": 7055,
      "ပှၤအမိၢ်ဖိတဖၣ်": 7056,
      "ပကစၢ်ယ့ၣ်ၡူးခရံာ်": 7057,
      "ပီၢ်ယၢ်လီၤက့ၤ": 7058,
      "နသးသမူတံၤသကိး": 7059,
      "ထွးထီၣ်ဃ့ၢ်": 7060,
      "ယံာ်ယံာ်ထၢထၢ": 7061,
      "စိဒိၣ်ကမီၤထီ": 7062,
      "ကလၢၢ်ဘၣ်": 7063,
      "တၢ်မၤကမၣ်မုၣ်ကမၣ်ခွါ": 7064,
      "ထံၣ်ကမှံကွၢ်လၢ": 7065,
      "ကိးနံၣ်ဒဲး": 7066,
      "ရယါဝ့ၣ်": 7067,
      "ကမုာ်လၤသးခု": 7068,
      "အဃၤၡဝ့ရိၣ်": 7069,
      "တူၢ်ဒိၣ်ကီၤဒိၣ်": 7070,
      "ဘၢၣ်ဖျိ": 7071,
      "ဂါစၤ": 7072,
      "နီၢ်အ့းလံၤစါဘ့း": 7073,
      "ညွံး": 7074,
      "ကဆှၢ": 7075,
      "ဂံာ်": 7076,
      "တလဲၤ": 7077,
      "တပၢၢ်": 7078,
      "တယၢ်": 7079,
      "တမူး": 7080,
      "တယီၣ်": 7081,
      "တထါ": 7082,
      "ပနာ်": 7083,
      "ပတၢ်နာ်": 7084,
      "ပဒၢး": 7085,
      "ဘံၤ": 7086,
      "ဘံယၤ": 7087,
      "ယကွၢ်": 7088,
      "ယတၢ်လုၢ်ဟံၣ်": 7089,
      "ရူ": 7090,
      "သလဲ": 7091,
      "အမၤတၢ်": 7092,
      "အဆၣ်ဖိကီၢ်ဖိ": 7093,
      "အသွၣ်ခိၣ်": 7094,
      "ါဒိၣ်": 7095,
      "၃၃": 7096,
      "လၢစီၤမိၤၡ့": 7097,
      "လၢစီၤစီလူး": 7098,
      "တၢ်ဘၣ်ဃး": 7099,
      "တၢ်ကွဲး": 7100,
      "တၢ်လူၢ်": 7101,
      "တၢ်ယူးယီၣ်": 7102,
      "တၢ်ကူတၢ်သိး": 7103,
      "လီၤယသး": 7104,
      "လီၤစဲၤ": 7105,
      "ဒီးပတ": 7106,
      "ဒီးစိာ်": 7107,
      "ပှၤဒ်သိး": 7108,
      "ပှၤနီတဂၤ": 7109,
      "ပှၤစူၢ်က့ၤနာ်က့ၤ": 7110,
      "ပှၤစူၤရံဖိတဖၣ်": 7111,
      "ပှၤဖိၣ်ဃဲ": 7112,
      "တဖၣ်ဒ်သိး": 7113,
      "တဖၣ်စ့ၢ်ကီး": 7114,
      "တဖၣ်ဘၣ်တၢ်မၤ": 7115,
      "တဖၣ်အဂီၢ်န့ၣ်": 7116,
      "တဖၣ်ကဘၣ်တၢ်မၤ": 7117,
      "ံးထွဲကွၢ်ထွဲ": 7118,
      "လၢအကစၢ်": 7119,
      "လၢအသူၣ်": 7120,
      "လၢအကတီၢ်": 7121,
      "လၢအတၢ်မၤ": 7122,
      "လၢအ့ဖရဲၣ်": 7123,
      "စီၤဟး": 7124,
      "အိၣ်ဘၣ်": 7125,
      "အိၣ်ထီၣ်ဝဲ": 7126,
      "မ့ၢ်အအိၣ်": 7127,
      "သးကတၢ": 7128,
      "အဝဲကဘၣ်တၢ်": 7129,
      "သ့ၣ်ပှၢ်": 7130,
      "သ့ၣ်ဘ့ၣ်ဘၣ်": 7131,
      "အီၤအဃိ": 7132,
      "အီၤကသ့": 7133,
      "သုဆိကမိၣ်": 7134,
      "ကွါ": 7135,
      "ကွီၣ်": 7136,
      "ကစဲာ်": 7137,
      "မုၢ်တနံၤအံၤ": 7138,
      "ဖဲလါ": 7139,
      "ဖဲစီၤမိၤၡ့": 7140,
      "လၢတၢ်ဘူၣ်ထီၣ်ဘါထီၣ်": 7141,
      "လၢတၢ်အိၣ်ဖှိၣ်": 7142,
      "လၢတၢ်သးတီ": 7143,
      "အတၢ်ဘၣ်": 7144,
      "အတၢ်န့ၣ်လီၤ": 7145,
      "အတၢ်ထံၣ်": 7146,
      "အတၢ်ကူၣ်သ့": 7147,
      "အတၢ်ဟ့ၣ်ကူၣ်": 7148,
      "ယၤအဂီၢ်": 7149,
      "ဆူတၢ်ဒဲးဘး": 7150,
      "ဆူကီၢ်အဲၤကူပတူး": 7151,
      "အပူၤဖဲ": 7152,
      "အပူၤကွံာ်": 7153,
      "က့ၤက့ၤ": 7154,
      "က့ၤကဒီး": 7155,
      "ဝ့ၢ်တဖျၢၣ်": 7156,
      "ဝ့ၢ်ဘ့ၤသလ့ဃ့ၣ်": 7157,
      "တၢ်အပီးအလီ": 7158,
      "တၢ်အလုၢ်အလၢ်": 7159,
      "နၤမ့ၢ်ဂ့ၤ": 7160,
      "ကိးထီၣ်တၢ်": 7161,
      "ဒီးတၢ်စံၣ်ညီၣ်": 7162,
      "နီၢ်လ့ၤအၤ": 7163,
      "ခဲလၢာ်အပူၤ": 7164,
      "ခဲလၢာ်လံ": 7165,
      "သူၣ်ဒိၣ်သးဖျိး": 7166,
      "ဒီးအလဲၢ်": 7167,
      "တုၤအိၣ်": 7168,
      "ဘၣ်ဆၣ်ယ": 7169,
      "ဘၣ်ဆၣ်ယွၤ": 7170,
      "ဘၣ်ဆၣ်သုတ": 7171,
      "ထံမူ": 7172,
      "ထံသုကီၢ်": 7173,
      "ဖှၣ်": 7174,
      "တမံၤဆူ": 7175,
      "ကတိၤတရီတပါ": 7176,
      "ဒီးပှၤဖၤရံၤၡဲ": 7177,
      "ကဲခိၣ်ကဲ": 7178,
      "စံးဘၣ်အီၤလၢ": 7179,
      "အကိၣ်": 7180,
      "ကနူၤ": 7181,
      "လၢသုလိၤ": 7182,
      "လၢသုဃိ": 7183,
      "လၢသုသိးသုကျါ": 7184,
      "ယ့ၣ်ၡူးစံးဝဲ": 7185,
      "နီၣ်ဘိ": 7186,
      "ပတုာ်": 7187,
      "ကတၢၢ်လၢ": 7188,
      "ဒ်အံၤအဃိ": 7189,
      "ယကဟဲစိာ်": 7190,
      "လၢအအိၣ်ဝဲလၢ": 7191,
      "စ့ၢ်ကီးအီၤလၢ": 7192,
      "ဒိဂ့ၤတဲာ်": 7193,
      "ဃုဝဲ": 7194,
      "မ့မ့ၢ်သုဝဲ": 7195,
      "အဲၣ်ဝဲ": 7196,
      "အဲၣ်ယၤ": 7197,
      "အဲၣ်ဘၣ်အီၤ": 7198,
      "အဖိခွါစီၤယိၤၡူ": 7199,
      "ဘၣ်ဆၣ်ဒီးသု": 7200,
      "ဃ့ဝဲ": 7201,
      "တၢ်လုၢ်ဒိၣ်ပှ့ၤဒိၣ်": 7202,
      "လၢတၢ်န့ၣ်အဃိယ": 7203,
      "စံးဆၢက့ၤအီၤ": 7204,
      "အဂၤတနီၤ": 7205,
      "လၢပတၢ်": 7206,
      "ကွံာ်အီၤဒ်": 7207,
      "အပှၤဟံၣ်ဖိ": 7208,
      "ဒၣ်လဲာ်ဘၣ်": 7209,
      "ၡ့ဘၤ": 7210,
      "စံၣ်ညီၣ်တဲာ်": 7211,
      "အခါဖဲလဲၣ်": 7212,
      "ဘူးန": 7213,
      "လၢယွၤပၢဘၣ်တၢ်ခဲလၢာ်ကစၢ်": 7214,
      "လီတဲ": 7215,
      "ဃၣ်လိၤ": 7216,
      "ဃၣ်တရံး": 7217,
      "ပျၢ်န့ၣ်လီၤ": 7218,
      "တနီၤလီၤ": 7219,
      "စိၤတစိၤ": 7220,
      "စီၤပီၢ်": 7221,
      "တအိၣ်ဘၣ်နီတမံၤဘၣ်": 7222,
      "အိၣ်မူဝဲ": 7223,
      "အိၣ်မူလၢတၢ်": 7224,
      "ဆီလီၤ": 7225,
      "ကစၢၢ်စီဆှံ": 7226,
      "ကစၢၢ်ကဆူး": 7227,
      "လၢမုၢ်တနံၤ": 7228,
      "ထီၣ်အီၤဆူ": 7229,
      "ဟဲစိာ်ဝဲ": 7230,
      "ဟဲစိာ်န့ၢ်အီၤ": 7231,
      "အိၣ်ဒီးတၢ်နာ်": 7232,
      "အမုၢ်တနံၤန့ၣ်": 7233,
      "အမုၢ်အိၣ်ဘှံးနံၤ": 7234,
      "နကြၢး": 7235,
      "ပၢၤဃး": 7236,
      "ယတသ့ၣ်ညါဘၣ်": 7237,
      "လ့ကအိ": 7238,
      "ခံဂၤလၢာ်": 7239,
      "တဂၤန့ၣ်လဲၣ်": 7240,
      "နဲလီၤ": 7241,
      "နမ့ၢ်တ": 7242,
      "မၤစၢၤအဝဲသ့ၣ်": 7243,
      "တ့ၢ်လံယၤ": 7244,
      "ယံာ်မၤ": 7245,
      "အၤဃာ်": 7246,
      "အံၣ်စရ့လးအစီၤပၤ": 7247,
      "ကိၢ်ခါ": 7248,
      "ဘှီဂ့ၤ": 7249,
      "လၢဟီၣ်ခိၣ်အံၤ": 7250,
      "လၢအဘၣ်တၢ်ကိး": 7251,
      "အဒိၣ်အယိာ်": 7252,
      "လုၢ်ထီၣ်တၢ်လုၢ်မ့ၣ်အူ": 7253,
      "ခိးကွၢ်": 7254,
      "အန့ၣ်ဒီးအဝဲသ့ၣ်": 7255,
      "ဆဲးဖျိ": 7256,
      "လဲၤနုာ်ဝဲဆူ": 7257,
      "ယံၤထီၣ်": 7258,
      "ဖိသၣ်န့ၣ်": 7259,
      "ပာ်ဖျါထီၣ်န့ၢ်ပှၤလၢ": 7260,
      "တဖၣ်အခံ": 7261,
      "ဒွဲၣ်ဧိၤ": 7262,
      "မၤန့ၢ်ဝဲ": 7263,
      "မၤဘၣ်တ့ၢ်": 7264,
      "ဘါထုကဖၣ်တၢ်ဆူ": 7265,
      "ကစၢ်ယွၤအတၢ်မၤလိာ်": 7266,
      "အ့ဖိး": 7267,
      "သတးဒီးအဝဲသ့ၣ်": 7268,
      "စီၤနဧၤမၣ်": 7269,
      "အခ့အပှၤစီၤမိၤၡ့": 7270,
      "အနံၣ်အလါ": 7271,
      "အနီၣ်ထိးဘိ": 7272,
      "တသ့ၣ်ညါဘၣ်": 7273,
      "ယူးတယီၣ်": 7274,
      "တပံၢ်": 7275,
      "ဆိၣ်အၢတမံၤ": 7276,
      "မူဒါလၢ": 7277,
      "လၢအပှဲၤဒီး": 7278,
      "လၢအပှဲၤဒီးတၢ်": 7279,
      "ပှၤအၢပှၤသီတဖၣ်": 7280,
      "ပာ်စီဆှံထီၣ်": 7281,
      "တစိၤဒၣ်": 7282,
      "ပြါ": 7283,
      "ဒီးအီၣ်ကွံာ်": 7284,
      "ဧ့ၤဘြံၤအကျိာ်": 7285,
      "ဂီၤဖံးဖါတဒု": 7286,
      "ကလီကလီလီၤ": 7287,
      "လဲၤဝဲဆူဝ့ၢ်": 7288,
      "လၢယွၤအတၢ်လုၢ်ဟံၣ်အပူၤ": 7289,
      "ဟဲလၢလဲၣ်": 7290,
      "စီၤဘၤရူး": 7291,
      "ကစံးဆၢဝဲ": 7292,
      "ပှၤအမိၢ်ဖိ": 7293,
      "လၢတပှဲၤ": 7294,
      "ဟုးဆါ": 7295,
      "ဖံလံးပံၤ": 7296,
      "ခိၣ်ဖးလာ်ဆှိး": 7297,
      "ပှၤလုၢ်တၢ်အခိၣ်အဒိၣ်တဖၣ်": 7298,
      "အိၣ်ဖျဲၣ်ထီၣ်ဝဲ": 7299,
      "စဲအ့ၣ်ဖိတဖၣ်": 7300,
      "မဲၣ်သူ": 7301,
      "ပှၤတၢ်ဒဲးဘးဖိတဖၣ်": 7302,
      "ယွၤကတိၤတၢ်ဒီးယၤလီၤ": 7303,
      "လါထီၣ်သီ": 7304,
      "စူးကွံာ်ညိကွံာ်": 7305,
      "ပှၤတစူၢ်တနာ်ယွၤအတၢ်": 7306,
      "မရၤရံၤ": 7307,
      "ကၢအိၣ်ခိး": 7308,
      "ပှၤဘၤဘူၤလိၣ်ဖိတဖၣ်": 7309,
      "လီၤတူာ်လီၤကာ်": 7310,
      "စံာ်ဧိၤပှဲၤ": 7311,
      "ကိးဆၢကိးကတီၢ်": 7312,
      "သ့ထိးဖၣ်": 7313,
      "စီၤကဒါလယၤ": 7314,
      "ဖှ့ၡံးတၤ": 7315,
      ",’": 7316,
      "es": 7317,
      "ကဒၣ်": 7318,
      "ကုး": 7319,
      "ကကွၢ်": 7320,
      "ကပျီၤ": 7321,
      "ဃဲး": 7322,
      "ဒူၤ": 7323,
      "နဆိကမိၣ်": 7324,
      "ပမိၢ်ပၢ်ဖံဖုလၢပျၢၤတဖၣ်": 7325,
      "ယသံကွၢ်": 7326,
      "ရမိၣ်": 7327,
      "အပှၢ်မုၢ်ကနၢ": 7328,
      "ဧ့ၢ်": 7329,
      "့ဖိး": 7330,
      "၃၁": 7331,
      "၃၅": 7332,
      "ၡံၣ်": 7333,
      "လၢစီၤယၤကိာ်": 7334,
      "တၢ်ပူၤ": 7335,
      "တၢ်အဂီၢ်လီၤ": 7336,
      "တၢ်စုလီၢ်ခီၣ်ခိၣ်": 7337,
      "တၢ်သ့ၣ်ညါနၢ်ပၢၢ်": 7338,
      "တၢ်ခံးတၢ်နၤ": 7339,
      "တၢ်ထီကတၢၢ်": 7340,
      "တၢ်ယီၤဃ့": 7341,
      "ဒီသိၣ်": 7342,
      "ဒီမှံၤ": 7343,
      "ဒီးလၢပှၤ": 7344,
      "ဒီးကအိၣ်": 7345,
      "ဒီးစံးထီၣ်ပတြၢၤ": 7346,
      "ဒီးကတဲာ်ကတီၤ": 7347,
      "ဒီးကိးထီၣ်": 7348,
      "ဒီးအိၣ်ဆိး": 7349,
      "ဒီးဃ့ဘါထုကဖၣ်": 7350,
      "န့ၣ်ယွၤ": 7351,
      "န့ၣ်တမ့ၢ်": 7352,
      "ဝဲဆှံ": 7353,
      "ပှၤမဲာ်ဘျီၣ်": 7354,
      "ပှၤခိၣ်ပှၤနၢ်တဖၣ်": 7355,
      "တဖၣ်အအိၣ်န့ၣ်လီၤ": 7356,
      "တဖၣ်အစုပူၤ": 7357,
      "မၤန့ၣ်": 7358,
      "မၤဘၢ": 7359,
      "လၢအကျဲ": 7360,
      "လၢအဘၣ်တၢ်မၤ": 7361,
      "လၢအအၢအသီ": 7362,
      "စီၤလ့ၤဝံ": 7363,
      "စီၤတံၤမသ့း": 7364,
      "အိၣ်ဖဲ": 7365,
      "အိၣ်ကတီၢ်": 7366,
      "အိၣ်ဃုာ်ဒီး": 7367,
      "အိၣ်တၢ်ဆိးအလီၢ်": 7368,
      "မ့ၢ်တအိၣ်": 7369,
      "မ့ၢ်မး": 7370,
      "မ့ၢ်နတၢ်": 7371,
      "အဝဲတဘၣ်": 7372,
      "အဝဲမၤဝဲ": 7373,
      "သုအိၣ်ဒီး": 7374,
      "သုအဲၣ်ဒိး": 7375,
      "ဖိန့ၣ်လီၤ": 7376,
      "ဖိသု": 7377,
      "ယွၤဒီး": 7378,
      "ကစးထီၣ်": 7379,
      "ဂီၢ်ပၤ": 7380,
      "အဝဲသ့ၣ်ထံၣ်": 7381,
      "အဝဲသ့ၣ်အဂီၢ်လီၤ": 7382,
      "အဝဲသ့ၣ်မၤဝဲ": 7383,
      "မုၢ်တနံၤန့ၣ်": 7384,
      "လၢတၢ်ကိၢ်တၢ်ဂီၤ": 7385,
      "အတၢ်လီၢ်": 7386,
      "အတၢ်ကွဲးနီၣ်": 7387,
      "အတၢ်တူၢ်ဘၣ်": 7388,
      "တဂၤအသိးန့ၣ်": 7389,
      "ကွံာ်ဝဲလီၤ": 7390,
      "အသးခု": 7391,
      "ဘၣ်တၢ်ဒဲးဘး": 7392,
      "အဃၤစယၤ": 7393,
      "အဂီၢ်တဂ့ၤ": 7394,
      "ဝ့ၢ်ဘၤဘူၤလိၣ်": 7395,
      "ဟ့ၣ်စိဟ့ၣ်ကမီၤ": 7396,
      "ကစၢ်ယွၤအမံၤ": 7397,
      "နၤန့ၣ်တက့ၢ်": 7398,
      "သံသတြိာ်": 7399,
      "ကိးဘ့ၣ်": 7400,
      "ဒီးတၢ်အိၣ်": 7401,
      "ဒီးတၢ်လုၢ်ဟံၣ်": 7402,
      "ဒီးတၢ်သွံၣ်": 7403,
      "စီၤပၤအအိၣ်": 7404,
      "နီၢ်ခီ": 7405,
      "နီၢ်တၤမၢ်": 7406,
      "ခဲလၢာ်မ့ၢ်ဝဲ": 7407,
      "ဒီးအလၤကပီၤ": 7408,
      "တုၤတၢ်": 7409,
      "လိၤမၤဘၣ်": 7410,
      "ထံၣ်တၢ်လၢ": 7411,
      "သီသီ": 7412,
      "ဒၤနံးယ့လး": 7413,
      "ဝဲလၢကျဲ": 7414,
      "နီတဘီ": 7415,
      "အီၤလၢကီၢ်": 7416,
      "လၢနး": 7417,
      "လၢနစု": 7418,
      "အဂ့ၢ်မ့ၢ်လၢအဝဲသ့ၣ်": 7419,
      "အလီၢ်တအိၣ်": 7420,
      "ဖိခွါတဖၣ်": 7421,
      "စံးဘၣ်သု": 7422,
      "စံးဘၣ်ယ့ၣ်ၡူး": 7423,
      "အကဒု": 7424,
      "တဲအီၤ": 7425,
      "တဲဖျါထီၣ်ဝဲ": 7426,
      "ဝံၤဒီးအဝဲသ့ၣ်": 7427,
      "ဧိၤလ့": 7428,
      "ယ့ၣ်ၡူးသ့ၣ်ညါ": 7429,
      "စံးဝဲန့ၣ်လီၤ": 7430,
      "မ့ၢ်တၢ်လီၢ်": 7431,
      "ဟီၣ်ခိၣ်လၢ": 7432,
      "တၢ်မၤအသးလၢ": 7433,
      "ယကဒုးနဲၣ်": 7434,
      "ဖျါထီၣ်တၢ်": 7435,
      "ကဲထီၣ်ကီၢ်ယူဒၤအစီၤပၤ": 7436,
      "ဒိဘၣ်ထံး": 7437,
      "ဃုကထိ": 7438,
      "အဲၣ်ဘၣ်": 7439,
      "ဒ်လဲၣ်ဒ်လဲၣ်န့ၣ်": 7440,
      "ဆိးလၢ": 7441,
      "ဃ့ရမိၣ်": 7442,
      "ထွဲဒံး": 7443,
      "ယူဒၤအဒူၣ်": 7444,
      "တစုန့ၣ်": 7445,
      "ဆါဆါ": 7446,
      "တဘျီန့ၣ်လီၤ": 7447,
      "စံးဆၢယၤ": 7448,
      "တဖၣ်ဒီးကယဲၢ်": 7449,
      "သိဆူၣ်": 7450,
      "သိနၢမူ": 7451,
      "ဆိၣ်လီၤ": 7452,
      "အီပှဲၤ": 7453,
      "ပိာ်မုၣ်တဂၤလၢအ": 7454,
      "တဲဘၣ်ပှၤ": 7455,
      "ကွဲးကျိာ်ထံ": 7456,
      "သကိးသကိး": 7457,
      "တခီပၤ": 7458,
      "ဒီးသုဝဲ": 7459,
      "ဒီးနပၢ်": 7460,
      "စူၢ်ယွၤ": 7461,
      "လၢယွၤအဂီၢ်": 7462,
      "ကနၣ်တက့ၢ်": 7463,
      "ဟံးန့ၢ်က့ၤ": 7464,
      "ပာ်လီၤဝဲ": 7465,
      "တဘ့ၣ်ဘၣ်": 7466,
      "မူခိၣ်အဘီအမုၢ်": 7467,
      "တအိၣ်ဘၣ်န့ၣ်": 7468,
      "အိၣ်မူဒံးဝဲ": 7469,
      "အိၣ်မူအိၣ်ဒါ": 7470,
      "ယွၤအတၢ်သိၣ်တၢ်သီ": 7471,
      "ယသးဟ့": 7472,
      "ထိၣ်ဧိၤလံာ်ဧိၤ": 7473,
      "ယတၢ်ကမၣ်": 7474,
      "ယတၢ်အိၣ်မူ": 7475,
      "ဒၢထီၣ်": 7476,
      "ဂၢၢ်မၤကျၢၤ": 7477,
      "ပှ့ၤန့ၢ်": 7478,
      "ကဲၤစါ": 7479,
      "နကိၤ": 7480,
      "အဟံၣ်ဒူၣ်ဃီထၢ": 7481,
      "ဒူသဝီ": 7482,
      "ခံဂၤတဂၤ": 7483,
      "ခံဂၤလၢအမ့ၢ်": 7484,
      "မၤစၢၤယၤ": 7485,
      "တဆံသၢ": 7486,
      "ယိာ်ပူၤ": 7487,
      "သုတၢ်စူၢ်တၢ်နာ်": 7488,
      "လၢကစၢ်ယွၤအမဲာ်ညါ": 7489,
      "ဒီးတိၢ်": 7490,
      "ဒီးတိၢ်န့ၢ်": 7491,
      "ဒ်သိးကကဲထီၣ်": 7492,
      "ဝ့ၢ်ယရူၤၡလ့ၣ်န့ၣ်လီၤ": 7493,
      "ဆူးမၤဆါ": 7494,
      "ထီဘိတထံၣ်ဃီ": 7495,
      "လၢအတၢ်ကတိၤ": 7496,
      "ယံးစၣ်ကၢ်": 7497,
      "ယၢ်ခီ": 7498,
      "န့ၣ်မ့ၢ်ဒၣ်": 7499,
      "တၢ်ကစီၣ်လၢ": 7500,
      "ယကမၤဟးဂီၤ": 7501,
      "တူၢ်လိာ်ဝဲ": 7502,
      "လူၤပိာ်ထွဲ": 7503,
      "ဒ့တၢ်အူ": 7504,
      "တံၢ်တံၢ်": 7505,
      "လီၤဘၣ်လၢ": 7506,
      "ဒီးဝ့ၢ်ယရူၤရှလ့ၣ်": 7507,
      "စီၤနဘူၤကးန့စၢ်": 7508,
      "အတၢ်ကတိၤလၢ": 7509,
      "အတီၢ်ပူၤလီၤ": 7510,
      "ယၢၤထီၣ်": 7511,
      "အဂံၢ်ထံး": 7512,
      "အနံၣ်လွံၢ်ဆံ": 7513,
      "ခီဂာ်ထံကျိယၢ်ဒ့ၣ်": 7514,
      "တလါစီဆှံ": 7515,
      "ပဝဲခဲလၢာ်": 7516,
      "မ့ၢ်နဆိကမိၣ်": 7517,
      "စှၤသီ": 7518,
      "လၢအဂီၢ်ဒၣ်ဝဲ": 7519,
      "လၢကစၢၢ်စံၤနါ": 7520,
      "ဒီးပှၤလုၢ်တၢ်အခိၣ်တဖၣ်": 7521,
      "ဒီးနီၢ်စၤရါ": 7522,
      "ထူၣ်ဖျဲးကွံာ်": 7523,
      "ထူၣ်ဖျဲးထီၣ်ကွံာ်": 7524,
      "ဘျးထီၣ်": 7525,
      "တကယၤအခိၣ်": 7526,
      "အတြဲၤဖးဒိၣ်": 7527,
      "အဘျုးတအိၣ်ဘၣ်": 7528,
      "နၢ်ဟူဘၣ်ဝဲလၢ": 7529,
      "ဧ့ကြိၣ်": 7530,
      "အမူးဖးဒိၣ်": 7531,
      "တၢးထီ": 7532,
      "တယံာ်လၢၤဘၣ်": 7533,
      "ထဲသိးဒီး": 7534,
      "သုဘၣ်အဖှီၣ်": 7535,
      "စဲၤလီၤ": 7536,
      "ဘၣ်တၢ်မၤသံကွံာ်အီၤ": 7537,
      "တဖၣ်ဒီးပှၤလ့ၤဝံဖိတဖၣ်": 7538,
      "အတၢ်နာ်န့ၣ်": 7539,
      "ကဘၣ်တၢ်မၤသံကွံာ်အီၤန့ၣ်လီၤ": 7540,
      "တၢ်ဒိၣ်ကစၢ်စီၤပၤဧၢ": 7541,
      "စီၤကၤလယး": 7542,
      "တၢ်ကွဲးအသးစံးဝဲ": 7543,
      "နံၤနဝ့ဖိတဖၣ်": 7544,
      "ကျိၣ်ဧိၤစ့ဧိၤ": 7545,
      "မၤတ့ၢ်တၢ်ဒဲးဘးထီဒါယွၤ": 7546,
      "သမှံၤသပှၢ်": 7547,
      "လဲၤထီၣ်ဆူကစၢၢ်": 7548,
      "ဒိၣ်ဒိၣ်ကလဲာ်လီၤ": 7549,
      "စီၤၡံမိၣ်ပ့းတရူး": 7550,
      "အစိၤစိၤအဃၣ်ဃၣ်န့ၣ်လီၤ": 7551,
      "ဒိးတ့ဒိးဖျီအသး": 7552,
      "ဒ်ပစံး": 7553,
      "နွံသီန့ၣ်လီၤ": 7554,
      "မိရၤ": 7555,
      "ဟဲစူၤလီၤ": 7556,
      "ထွးထီၣ်ဃ့ၢ်ကွံာ်": 7557,
      "ပှၤကနၤဧၣ်ဖိ": 7558,
      "ပထံၣ်ဘၣ်လၢ": 7559,
      "အတိာ်ဧိၤတာ်ဧိၤ": 7560,
      "စီၤက့ရၡိၣ်": 7561,
      "တၢ်အဒိအတဲာ်": 7562,
      "နိးဖံး": 7563,
      "ဒိၣ်ဒၣ်တၢ်တက့ၢ်": 7564,
      "ကပုာ်လုး": 7565,
      "နူၢ်ပူၤစီၤ": 7566,
      "ကိးဖျၢၣ်ဒဲး": 7567,
      "ဆုးလီၤ": 7568,
      "စီၤယံးဖသၤ": 7569,
      "တဒူၣ်ဘၣ်တဒူၣ်": 7570,
      "လီတဲစိ": 7571,
      "ကဲၤစါရံၤ": 7572,
      "ကဂ့ၤ": 7573,
      "ဃစံ": 7574,
      "တပာ်": 7575,
      "တၢၤ": 7576,
      "တအၢ": 7577,
      "တပှီာ်": 7578,
      "ဒရ့း": 7579,
      "ဒြၤ": 7580,
      "နဖိ": 7581,
      "နကီၢ်": 7582,
      "နနၢ်": 7583,
      "နကျဲ": 7584,
      "နတၢ်အၢၣ်လီၤ": 7585,
      "ပအဲၣ်ဒိး": 7586,
      "ပတၢ်ဒဲးဘး": 7587,
      "ယတမ့ၢ်": 7588,
      "ယဃ့": 7589,
      "ယသွဲၣ်": 7590,
      "လရာ်": 7591,
      "သမၢ်": 7592,
      "အသု": 7593,
      "အလၣ်": 7594,
      "ဧိး": 7595,
      "ီး": 7596,
      "ြဲၢ်": 7597,
      "၃၂": 7598,
      "ၡၢၣ်": 7599,
      "ၡတံၤ": 7600,
      "တၢ်ကမၤ": 7601,
      "တၢ်ကဘၣ်": 7602,
      "တၢ်ဆှံ": 7603,
      "တၢ်စီဆှံ": 7604,
      "တၢ်ဟးဂီၤ": 7605,
      "တၢ်သုးမုၢ်": 7606,
      "တၢ်မံမီၢ်": 7607,
      "တၢ်ဆီၣ်လီၤသး": 7608,
      "ဒီဒု": 7609,
      "ဒီးဆိကမိၣ်": 7610,
      "ဒီးဟးထီၣ်": 7611,
      "ဒီးဟံးဃာ်": 7612,
      "ဒီးဒ်န့ၣ်အသိး": 7613,
      "န့ၣ်မၤ": 7614,
      "ဝဲဖဲန့ၣ်": 7615,
      "ဝဲအဂီၢ်လီၤ": 7616,
      "ဘၣ်အဃိလီၤ": 7617,
      "ပှၤန့ၣ်": 7618,
      "ပှၤဃိာ်": 7619,
      "ပှၤလၢသုကျါ": 7620,
      "ပှၤကိးကလုာ်ဒဲး": 7621,
      "တဖၣ်လဲၤ": 7622,
      "တဖၣ်လၢအမ့ၢ်ဝဲ": 7623,
      "မၤဝံၤ": 7624,
      "မၤကတၢၢ်": 7625,
      "မၤလၤ": 7626,
      "မၤန့ၢ်အီၤ": 7627,
      "မၤမဲာ်ဆှး": 7628,
      "မၤလၢပှဲၤ": 7629,
      "မၤတရီတပါ": 7630,
      "မၤလီၤပြံလီၤပြါ": 7631,
      "လၢအကတိၤ": 7632,
      "လၢအခီပညီ": 7633,
      "လၢအလီၤဂာ်ဒီး": 7634,
      "လၢအရ့ဒိၣ်": 7635,
      "လၢအဘၣ်တၢ်မၤအီၤလၢ": 7636,
      "လၢအနီၢ်ကစၢ်ဒၣ်ဝဲ": 7637,
      "ထီၣ်န့ၣ်လီၤ": 7638,
      "စီၤတ့": 7639,
      "အိၣ်ထဲ": 7640,
      "အိၣ်ဒီးအဝဲသ့ၣ်": 7641,
      "မ့ၢ်ဒၣ်ထဲ": 7642,
      "သးလဲ": 7643,
      "သ့ၣ်တဖၣ်ဒီး": 7644,
      "ူၤဘၤ": 7645,
      "အီၤတဖၣ်န့ၣ်": 7646,
      "အီၤဒ်သိးအက": 7647,
      "ယွၤတဲဘၣ်": 7648,
      "ယွၤအကလုၢ်ကထါ": 7649,
      "ဒ်တၢ်လုၢ်မ့ၣ်အူ": 7650,
      "အံၤအသိးန့ၣ်လီၤ": 7651,
      "အဝဲသ့ၣ်အဂီၢ်": 7652,
      "အဝဲသ့ၣ်မ့ၢ်ဂ့ၤ": 7653,
      "အဝဲသ့ၣ်အပှၤ": 7654,
      "အဝဲသ့ၣ်တနီၤ": 7655,
      "အဝဲသ့ၣ်ဟးထီၣ်ကွံာ်": 7656,
      "တကဝီၤ": 7657,
      "မုၢ်တနၤ": 7658,
      "ဖဲကီၢ်": 7659,
      "အတၢ်လိၣ်": 7660,
      "အတၢ်ဆိၣ်ဂ့ၤ": 7661,
      "အတၢ်ခွဲးတၢ်ယာ်": 7662,
      "ခိၣ်နၢ်တဖၣ်": 7663,
      "ဒၣ်ပဝဲ": 7664,
      "ကစၢ်တဖၣ်": 7665,
      "က့ၤနုာ်": 7666,
      "ပာ်မူ": 7667,
      "ပာ်ဒ့ၣ်ပာ်ကမၣ်": 7668,
      "န့ၢ်မါ": 7669,
      "လုၢ်ထံ": 7670,
      "လီၢ်ဘၣ်": 7671,
      "အဃိတက့ၢ်": 7672,
      "အဃိမ့ၢ်ဂ့ၤ": 7673,
      "အဃိဧါ": 7674,
      "ဝ့ၢ်ဘ့ၤသ": 7675,
      "ဝ့ၢ်ယရံၤဃိ": 7676,
      "တၢ်အခ့အပှၤ": 7677,
      "လဲၤဃီၤ": 7678,
      "လဲၤအိၣ်သကိး": 7679,
      "ကစၢ်ယွၤအကလုၢ်": 7680,
      "ကစၢ်ယွၤအတၢ်သိၣ်တၢ်သီ": 7681,
      "နၤလံ": 7682,
      "ကိးထီၣ်အီၤ": 7683,
      "ကိးမုၢ်ဂီၤ": 7684,
      "ဒီးတၢ်စိတၢ်ကမီၤ": 7685,
      "ဒုးန့ၢ်": 7686,
      "ဒုးဂဲၤဆၢထၢၣ်": 7687,
      "စီၤပၤအတၢ်": 7688,
      "ခဲလၢာ်က": 7689,
      "ခဲလၢာ်ကဘၣ်တၢ်": 7690,
      "ခံဖု": 7691,
      "လံဒီး": 7692,
      "ဒီးအတံၤသကိး": 7693,
      "ဘၣ်ဆၣ်သု": 7694,
      "ကွၢ်ဆိကမိၣ်": 7695,
      "ကမၤပူၤဖျဲး": 7696,
      "ဟံၣ်န့ၣ်": 7697,
      "ဒီးပှၤတ": 7698,
      "ထီဝဲ": 7699,
      "စီၤအၢ်": 7700,
      "ဘါဒယၤ": 7701,
      "လၢနမ့ၢ်": 7702,
      "အဂ့ၢ်ဒီး": 7703,
      "အဂ့ၢ်န့ၣ်တက့ၢ်": 7704,
      "ကဲစီၤပၤ": 7705,
      "အလီၢ်စီဆှံ": 7706,
      "ပိာ်ယခံ": 7707,
      "ဒံးယံာ်ဒံး": 7708,
      "မုၣ်တဂၤ": 7709,
      "စံးဘၣ်တ့ၢ်": 7710,
      "စံးဘၣ်ပှၤဂီၢ်မုၢ်": 7711,
      "ကနး": 7712,
      "ပှၤလၢအသးဟ့": 7713,
      "အါဃး": 7714,
      "လၢသုပူၤ": 7715,
      "လၢသုကဘၣ်": 7716,
      "ယ့ၣ်ၡူးလၢ": 7717,
      "တအိၣ်နီတဂၤ": 7718,
      "ဝံအတၢ်စံးပာ်": 7719,
      "နီၣ်ထီၣ်ကွံာ်": 7720,
      "တၢ်မၤကွၢ်": 7721,
      "ချီ": 7722,
      "ဃးဖိ": 7723,
      "ကယဲၢ်ပှၤပိာ်ခွါ": 7724,
      "ဟ့ၣ်လီၤအဝဲသ့ၣ်": 7725,
      "သုးအသး": 7726,
      "အိၣ်ဝဲန့ၣ်လီၤ": 7727,
      "ဃုသီ": 7728,
      "လၤကံၣ်": 7729,
      "အဖိခွါန့ၣ်လီၤ": 7730,
      "ခီၣ်ဟးဂီၤ": 7731,
      "ခီဖျိသု": 7732,
      "ထဲန့ၣ်": 7733,
      "စီၤယိၤနၤသၣ်": 7734,
      "ဟံးစု": 7735,
      "ကူကၤ": 7736,
      "အဝဲဒၣ်မ့ၢ်": 7737,
      "အဝဲဒၣ်စံးဝဲ": 7738,
      "တၢ်လုၢ်ဘုဧိၤဟုဧိၤ": 7739,
      "ဃာ်ဝဲ": 7740,
      "လၢအဝဲသ့ၣ်အဖီခိၣ်": 7741,
      "သိလၢအ": 7742,
      "ဆိၣ်တမံၤ": 7743,
      "ကွံာ်အီၤတက့ၢ်": 7744,
      "ဒီးယထံၣ်": 7745,
      "မၤတၢ်လၢအ": 7746,
      "အီဘၣ်": 7747,
      "အပှၤပိာ်ခွါ": 7748,
      "အပှၤကွဲးလံာ်": 7749,
      "ဒၣ်လဲာ်လီၤ": 7750,
      "လံၤတဖၣ်": 7751,
      "မၤတ့ၢ်ဝဲလၢ": 7752,
      "တဖၣ်လၢအဘၣ်ထွဲ": 7753,
      "မၤသံကွံာ်ပှၤ": 7754,
      "အခိၣ်န့ၣ်လီၤ": 7755,
      "ကအိၣ်ဒံး": 7756,
      "စီၤဒၤဝံးအဖိခွါ": 7757,
      "စ့ယၤ": 7758,
      "နၢ်ဟူတၢ်ဂ့ၢ်": 7759,
      "ပှၤကး": 7760,
      "ဒီးအဝဲပၢတၢ်လၢ": 7761,
      "ဟံးန့ၢ်တၢ်မၤလိ": 7762,
      "ပာ်လီၤအီၤ": 7763,
      "ကလံၤကျါ": 7764,
      "သုတဘၣ်တၢ်": 7765,
      "တၢ်လီၢ်အံၤ": 7766,
      "မ့တမ့ၢ်ဘၣ်န့ၣ်": 7767,
      "လွံၢ်ကလး": 7768,
      "ဒိးန့ၢ်ဃုာ်": 7769,
      "ဒိးန့ၢ်ဘၣ်တၢ်မၤ": 7770,
      "တၢ်လၢအဘၣ်တၢ်": 7771,
      "ဘၣ်တၢ်မၤအၢမၤနး": 7772,
      "ဟဲစိာ်န့ၢ်ယၤ": 7773,
      "ခ့အ": 7774,
      "စးထီၣ်ဖဲန့ၣ်": 7775,
      "ဆူဝ့ၢ်ပူၤ": 7776,
      "နတၢ်ဒဲးဘး": 7777,
      "တ့ထီၣ်ဝဲ": 7778,
      "ကျၢၤကျၢၤ": 7779,
      "ယတသ့ၣ်ညါ": 7780,
      "သုသးလၢသု": 7781,
      "ဘၣ်ဃးဒီးဟီၣ်ခိၣ်": 7782,
      "တၢ်အီၣ်လၢ": 7783,
      "ဝးၡတံၤ": 7784,
      "အီၤလၢတၢ်လီၢ်": 7785,
      "လဲၤဆူကီၢ်": 7786,
      "မၤစၢၤနၤ": 7787,
      "နဲၣ်လိ": 7788,
      "ထံကျိနံၤလါ": 7789,
      "ဟးထီၣ်ဒီး": 7790,
      "လံာ်စီဆှံစံးဝဲ": 7791,
      "လံာ်စီဆှံအဆၢ": 7792,
      "သုးမုၢ်တဖု": 7793,
      "ဘ့ၤသနံ": 7794,
      "ပှၤတစိၤ": 7795,
      "မၤအသးဒ်လဲၣ်": 7796,
      "မနုၤလဲၣ်န့ၣ်": 7797,
      "တကပၤလီၤ": 7798,
      "ဆးဒဲးကံၣ်ဒဲးဝ့ၤ": 7799,
      "အဝဲန့ၣ်န့ၣ်": 7800,
      "မၤန့ၢ်မၤနၢၤ": 7801,
      "တချုးဒံး": 7802,
      "ဒ့ဒံၣ်": 7803,
      "တၢ်သူၣ်ကိၢ်သးဂီၤ": 7804,
      "ဟဲထီၣ်လၢ": 7805,
      "အခီၣ်ထံးန့ၣ်လီၤ": 7806,
      "ပလီၢ်နသး": 7807,
      "အခ့အပှၤလၢ": 7808,
      "ဖီခိၣ်လီၤ": 7809,
      "လၢကမၤသံ": 7810,
      "ကီၢ်အံၣ်စရ့လးအပှၤဂီၢ်မုၢ်သ့ၣ်ဧၢ": 7811,
      "ပတၢ်အိၣ်မူ": 7812,
      "န့ၣ်ကကဲထီၣ်": 7813,
      "တန့ၢ်လၢၤဘၣ်": 7814,
      "မ့ၢ်မတၤလဲၣ်": 7815,
      "တပိၢ်": 7816,
      "တပယူာ်ဃီ": 7817,
      "ပှၤယူဒၤဖိအခိၣ်အနၢ်တဖၣ်": 7818,
      "သုးခိၣ်ဖးဒိၣ်": 7819,
      "သ့ၣ်နီၣ်ထီၣ်က့ၤလၢ": 7820,
      "ဧ့ၤလၣ်": 7821,
      "ရဲၣ်တၢ်ကျဲၤ": 7822,
      "အဒူၣ်ထၢအကျါ": 7823,
      "မၤကမၣ်ဘၣ်": 7824,
      "မုၢ်ဆ့ၣ်မုၢ်ဂီၤ": 7825,
      "ကွဲၢ်": 7826,
      "ယသ့ၣ်ညါလၢ": 7827,
      "လၢာ်လၢာ်ဆ့ဆ့လီၤ": 7828,
      "အဃံအလၤ": 7829,
      "လၢဟီၣ်ခိၣ်ချၢအံၤ": 7830,
      "အသးအိၣ်တနံၣ်": 7831,
      "ယစံးဘျုး": 7832,
      "ပှၤမၤကဒါ": 7833,
      "နံၣ်တနံၣ်န့ၣ်": 7834,
      "ဖှီၣ်ဖိယာ်ဖိတဖၣ်": 7835,
      "အါအါဂီၢ်ဂီၢ်န့ၣ်လီၤ": 7836,
      "အဒီပုၢ်ဝဲၢ်ခွါတဖၣ်": 7837,
      "စပံးသၣ်တဖၣ်": 7838,
      "ဆှဲးဆှိး": 7839,
      "တၢထီၣ်တၢလီၤ": 7840,
      "အိၣ်ဝဲဆိးဝဲအဒဲစီဆှံ": 7841,
      "မုၢ်နၤခီ": 7842,
      "စီၤယိၤဘးဧၢ": 7843,
      "ကွၢ်ဆၢၣ်မဲာ်ဘၣ်ဝဲ": 7844,
      "ဟၤရၣ်": 7845,
      "ကျီၢ်ဖါတဒု": 7846,
      "သလၣ်ထီၣ်": 7847,
      "ယ့ၣ်ၡူးစံးဆၢတၢ်ဒီးစံးဝဲ": 7848,
      "မုာ်မုာ်ခုၣ်ခုၣ်": 7849,
      "လီၤကလဲကွံာ်": 7850,
      "အၣ်တံၤအီာ်": 7851,
      "တံတူး": 7852,
      "ပှၤဖၤရံၤၡဲတဖၣ်": 7853,
      "မဲၣ်ဂီၤ": 7854,
      "ဒီဖုညါ": 7855,
      "ရုၢ်ရုၢ်": 7856,
      "စီၤယံးၡမၤဧ့လး": 7857,
      "ပှၤဧၣ်မိၣ်ဖိတဖၣ်": 7858,
      "ပှၤလၢအတၢ်ကမၣ်တအိၣ်": 7859,
      "အကၢၢ်နံၤ": 7860,
      "ယစံးဘၣ်တဲဘၣ်သုတၢ်မ့ၢ်တၢ်တီ": 7861,
      "ကဒံကဒါ": 7862,
      "စီၤပၤယိၤၡံယၤ": 7863,
      "စီၤအဒိနံၤယၤ": 7864,
      "ကလီၣ်ဖျါထီၣ်": 7865,
      "ဘူးနတံၢ်": 7866,
      "ဒ်ပစံးတၢ်အသိး": 7867,
      "ကု": 7868,
      "ကသိၣ်လိ": 7869,
      "ကဟုကညီၢ်": 7870,
      "ကီၣ်ကး": 7871,
      "ဂမိရၤ": 7872,
      "စပတ": 7873,
      "တယၤ": 7874,
      "တပျ": 7875,
      "တဆံး": 7876,
      "နအိၣ်ဒီး": 7877,
      "နံယၤ": 7878,
      "ပအိၣ်မူ": 7879,
      "ပအိၣ်ဒီး": 7880,
      "ပယိၤ": 7881,
      "ဘံး": 7882,
      "မၢၤ": 7883,
      "မရၣ်": 7884,
      "ယကတိၤ": 7885,
      "ယတဲ": 7886,
      "ယကတိၤတၢ်": 7887,
      "ယမုၢ်လၢ်": 7888,
      "ယဟ့ၣ်ပလီၢ်": 7889,
      "ယနီၢ်ကစၢ်ဒၣ်ယဲ": 7890,
      "သၡ့ဘၤ": 7891,
      "အခဲ": 7892,
      "အဘူၣ်": 7893,
      "အဘၣ်ဃးဒီး": 7894,
      "အကွီၤ": 7895,
      "အစပံးလီၢ်": 7896,
      "ိဆူၣ်": 7897,
      "ူထီၣ်": 7898,
      "ၡံၤ": 7899,
      "ၤစံ": 7900,
      "လၢစံာ်ပျီ": 7901,
      "လၢကပၢ": 7902,
      "တၢ်ထီဒါ": 7903,
      "တၢ်နီတမံၤ": 7904,
      "တၢ်စံးထီၣ်ပတြၢၤ": 7905,
      "တၢ်နုၢ်ထံ": 7906,
      "ဒီသကိး": 7907,
      "ဒီတဘ့ၣ်": 7908,
      "ဒီတံၤ": 7909,
      "လီၤသဘှံး": 7910,
      "ဒီးသ့ၣ်ညါ": 7911,
      "ဒီးလါ": 7912,
      "ဒီးကီၢ်အံၣ်စရ့လး": 7913,
      "ဒီးတူၢ်လိာ်": 7914,
      "ဒီးဖဲသု": 7915,
      "ဒီးသူၣ်လီၤ": 7916,
      "န့ၣ်မ့ၢ်ပှၤ": 7917,
      "ပှၤတၢ်မၢဖိ": 7918,
      "ပှၤဆူးပှၤဆါ": 7919,
      "ပှၤဃံၤဝံ": 7920,
      "မၤအီၤလၢ": 7921,
      "မၤလီၤတံၢ်": 7922,
      "လၢအဆူၣ်": 7923,
      "လၢအမဲထီၣ်": 7924,
      "လၢအဒုၣ်အဒါ": 7925,
      "စီၤဟ့": 7926,
      "စီၤစူၤမ့းအိၣ်": 7927,
      "အိၣ်ကျၢၤ": 7928,
      "အိၣ်ဖဲအံၤ": 7929,
      "မ့ၢ်ဘၣ်": 7930,
      "မ့ၢ်အိၣ်ဒီး": 7931,
      "မ့ၢ်ဒၣ်တၢ်": 7932,
      "သးမုာ်": 7933,
      "သးက့ၣ်": 7934,
      "အဝဲတဲဘၣ်": 7935,
      "အဝဲဟးထီၣ်": 7936,
      "အဝဲဘှီထီၣ်": 7937,
      "သ့ၣ်ဘၣ်": 7938,
      "အီၤလၢအတၢ်": 7939,
      "သုဒ်": 7940,
      "သုထံၣ်": 7941,
      "သုကအိၣ်": 7942,
      "သုတၢ်ဒဲးဘး": 7943,
      "ယွၤစံး": 7944,
      "အံၤကဘၣ်တၢ်": 7945,
      "အဝဲသ့ၣ်ကမၤ": 7946,
      "အဝဲသ့ၣ်အတၢ်မၤ": 7947,
      "အဝဲသ့ၣ်အခံ": 7948,
      "သိးထီၣ်တၢ်": 7949,
      "တကိၢ်": 7950,
      "မုၢ်မဆါ": 7951,
      "မုၢ်လီၤနုာ်": 7952,
      "မုၢ်အိၣ်ဘှံးအနံၤ": 7953,
      "ဖဲန့ၣ်တက့ၢ်": 7954,
      "ဖဲစီၤယိၤသး": 7955,
      "ဖဲစီၤနိအၤ": 7956,
      "လၢတၢ်အိၣ်မူ": 7957,
      "လၢတၢ်နါ": 7958,
      "လၢတၢ်ကံးယာ်": 7959,
      "လၢတၢ်အိပူၤ": 7960,
      "အတၢ်သိၣ်လိ": 7961,
      "အတၢ်လဲၤခီဖျိ": 7962,
      "အတၢ်ဒိၣ်တၢ်မုၢ်": 7963,
      "ယၤန့ၣ်တက့ၢ်": 7964,
      "ယၤဒ်သိးယက": 7965,
      "ဆူပှၤဂီၢ်မုၢ်": 7966,
      "အသးတဖၣ်": 7967,
      "အပူၤအဂီၢ်န့ၣ်လီၤ": 7968,
      "အပူၤအဃိန့ၣ်လီၤ": 7969,
      "ဘၣ်တၢ်ဘၣ်": 7970,
      "ဘၣ်တၢ်ခူၣ်လီၤကွံာ်": 7971,
      "ကီၢ်ဖိ": 7972,
      "ကျိး": 7973,
      "န့ၢ်ဆီၣ်": 7974,
      "ဒိၣ်တုာ်ခိၣ်ပှဲၤ": 7975,
      "အဃိလဲၣ်": 7976,
      "ဝ့ၢ်အၤ": 7977,
      "ဝ့ၢ်တဝ့ၢ်": 7978,
      "ဝ့ၢ်စဒိၣ်": 7979,
      "တၢ်အဂ့ၢ်": 7980,
      "တၢ်အဒူၣ်": 7981,
      "ဟ့ၣ်တၢ်အပှ့ၤ": 7982,
      "လဲၤခီ": 7983,
      "လဲၤထီၣ်ဝဲ": 7984,
      "ပျိဆူၣ်": 7985,
      "လၢာ်ကွံာ်ဝဲ": 7986,
      "နၤနံ": 7987,
      "ကိးအီၤ": 7988,
      "ကိးဆၢကတီၢ်": 7989,
      "ဆၢဘၣ်": 7990,
      "ဒုးသ့ၣ်နီၣ်ထီၣ်က့ၤ": 7991,
      "ဒုးဂဲၤဆၢထၢၣ်သမူထီၣ်က့ၤ": 7992,
      "သ့န့ၣ်": 7993,
      "သ့တနံၤ": 7994,
      "စီၤပၤဖိခွါ": 7995,
      "စီၤပၤဧၢ": 7996,
      "ခဲလၢာ်ခဲဆ့": 7997,
      "သူၣ်လီသးကွံ": 7998,
      "တုၤစီၤပၤ": 7999,
      "ဘၣ်ဆၣ်ယ့ၣ်ၡူး": 8000,
      "လၢယဃုထၢ": 8001,
      "လၢယကစံၣ်ညီၣ်": 8002,
      "ပှၤဂီၢ်မုၢ်တဖု": 8003,
      "ထံလၢအ": 8004,
      "ကွၢ်ဃု": 8005,
      "ဒါယၤ": 8006,
      "နီတဖျၢၣ်": 8007,
      "အအိၣ်လဲၣ်": 8008,
      "ဟံၣ်ဃီ": 8009,
      "ကတိၤသွါ": 8010,
      "စီတၢ်ဆှံ": 8011,
      "ဘါလီၤ": 8012,
      "လၢနလိၤ": 8013,
      "ဖိခွါတဂၤ": 8014,
      "စံးဘၣ်နၤ": 8015,
      "အကဆူး": 8016,
      "အကထိ": 8017,
      "ဒိးအီၤ": 8018,
      "ယဲၢ်ဖျၢၣ်": 8019,
      "စၢၤယသွဲၣ်": 8020,
      "ဝံၤသၣ်စ့ၤ": 8021,
      "ဧိၤဘၣ်": 8022,
      "မ့ၢ်ဂ့ၤန့ၣ်တဂ့ၤ": 8023,
      "အါကလုာ်": 8024,
      "အါနံၣ်အါလါ": 8025,
      "လၢသုး": 8026,
      "လၢသုအိၣ်": 8027,
      "ယ့ၣ်ၡူးအခံ": 8028,
      "ကီၢ်အဲၤကူ": 8029,
      "ပတသ့ၣ်ညါဘၣ်": 8030,
      "တၢ်မၤပျံၤမၤဖုး": 8031,
      "လၢပှၤတဂၤဂၤ": 8032,
      "လၢအအိၣ်ဖျဲၣ်ထီၣ်": 8033,
      "တဂ့ၤအဂီၢ်": 8034,
      "ဆိကမ": 8035,
      "တမ့ၢ်လၢၤ": 8036,
      "ဒီးစီၤစ": 8037,
      "အဖိခွါစီၤအလံ": 8038,
      "ခီဖျိစီၤမိၤၡ့": 8039,
      "ကူဒုး": 8040,
      "ပျဲပူၤ": 8041,
      "အဝဲဒၣ်န့ၣ်": 8042,
      "ဟူာ်": 8043,
      "လၢအမ့ၢ်အတီ": 8044,
      "ဘှဲ": 8045,
      "စီၤအၤရ": 8046,
      "သိဖိတဖၣ်": 8047,
      "မံဝဲ": 8048,
      "ထၢၣ်တၢ်ကံးယာ်": 8049,
      "လၢဝ့ၢ်ဘ့ၤသလ့ဃ့ၣ်": 8050,
      "ကၤဘြံၤ": 8051,
      "မၤတ့ၢ်တၢ်အံၤ": 8052,
      "စၢ်လီၤ": 8053,
      "နးတဘ့ၣ်": 8054,
      "ဒီးသုလီၤ": 8055,
      "ဝဲလီၤတံၢ်လီၤဆဲး": 8056,
      "အခိၣ်ကိၤ": 8057,
      "ဒီးနကဘၣ်": 8058,
      "သၢလါ": 8059,
      "တြိး": 8060,
      "လၢယွၤသုကစၢ်ယွၤ": 8061,
      "ထူဒီးစ့": 8062,
      "ထူအဲၣ်ယွၤ": 8063,
      "ကဒါက့ၤအီၤ": 8064,
      "စီၤဒၤဝံးအစၢၤအသွဲၣ်": 8065,
      "စီၤဒၤဝံးအဝ့ၢ်": 8066,
      "စ့အဘ့ၣ်": 8067,
      "ပျၢ်တၢ်ဒဲးဘး": 8068,
      "နၢ်ဟူဝဲ": 8069,
      "မ့ၣ်အူလၣ်": 8070,
      "အန့ၣ်သတးဒီး": 8071,
      "သံကွၢ်ယၤ": 8072,
      "ပာ်လီၤအီၤလၢ": 8073,
      "တဖၣ်လီၤဂာ်ဒ်": 8074,
      "ဒိကနၣ်ယၤတက့ၢ်": 8075,
      "အဘံ": 8076,
      "ကစၢၢ်ကၢ်မ့ၤလး": 8077,
      "တၢ်လီၢ်န့ၣ်": 8078,
      "တၢ်အံၤန့ၣ်": 8079,
      "ထီၣ်အီၤလီၤ": 8080,
      "ဘၣ်မနုၤန": 8081,
      "အ့လးန့ၣ်လီၤ": 8082,
      "ဟဲစိာ်နုာ်": 8083,
      "အၢၣ်လီၤတ့ၢ်ဝဲ": 8084,
      "စးထီၣ်ခဲအံၤဒီးဆူညါ": 8085,
      "နကထံၣ်ဘၣ်": 8086,
      "ကသ့အဂီၢ်": 8087,
      "ပှၤလုၢ်တၢ်အခိၣ်တဖၣ်လၢအ": 8088,
      "နဲဒၣ်တၢ်ဒိၣ်": 8089,
      "ဒ်တၢ်ဆၢကတီၢ်": 8090,
      "ဒ်တၢ်သိၣ်တၢ်သီ": 8091,
      "ကဒီးတဘျီ": 8092,
      "လီၤဂာ်ဒ်တၢ်": 8093,
      "ဃုထၢဝဲ": 8094,
      "မၤသးဒိၣ်ထီၣ်": 8095,
      "သုကုၢ်": 8096,
      "ဟးထီၣ်လၢကီၢ်အဲၤကူပတူး": 8097,
      "ဘှီထီၣ်တၢ်": 8098,
      "ဘှီထီၣ်အီၤ": 8099,
      "ဘူၣ်ထီၣ်ဘါထီၣ်ယၤ": 8100,
      "ဆူတၢ်ဒုး": 8101,
      "ဆူတၢ်မူ": 8102,
      "တၢ်ပာ်ထီၣ်ထီ": 8103,
      "ကးတံၢ်": 8104,
      "အိၣ်ဒီးအမါ": 8105,
      "စံလၤ": 8106,
      "နီတမံၤဘၣ်န့ၣ်လီၤ": 8107,
      "ကတဲာ်ကတီၤအသးလၢ": 8108,
      "ဝ့ၢ်ယရူၤၡလ့ၣ်ဧၢ": 8109,
      "ဖၢၡၢၣ်": 8110,
      "လၢကျဲတဘိ": 8111,
      "ဆၣ်ဖိကီၢ်ဖိလၢအ": 8112,
      "ထုးကွံာ်": 8113,
      "ထီဘိန့ၣ်": 8114,
      "ဘၣ်မနုၤအဃိသု": 8115,
      "ကိၣ်မံၣ်": 8116,
      "သူၣ်ထီၣ်ဘှီထီၣ်": 8117,
      "တူၢ်လိာ်အီၤ": 8118,
      "စီၤယၤကိာ်အကစၢ်ယွၤ": 8119,
      "ကူးက့ၤ": 8120,
      "ဒိၣ်ထီၣ်ဒီး": 8121,
      "ကစၢ်ယွၤအတၢ်အၢၣ်လီၤအီလီၤ": 8122,
      "လၢတၢ်လုၢ်တၢ်ပျၢ်တၢ်ဒဲးဘး": 8123,
      "စဲၢ်": 8124,
      "ယပှၤဂီၢ်မုၢ်သ့ၣ်ဧၢ": 8125,
      "တဂၤဧိၤလီၤ": 8126,
      "နီၢ်ခိအတၢ်": 8127,
      "တဘျီဃီဖဲန့ၣ်": 8128,
      "ဘၣ်န့ၣ်ဧါ": 8129,
      "အဝဲသ့ၣ်အတၢ်ဒဲးဘး": 8130,
      "ပသးလၢ": 8131,
      "ဃါစိၢ်": 8132,
      "ပတၢ်သိၣ်တၢ်သီ": 8133,
      "လၢအသးသမူ": 8134,
      "တၢ်အုၣ်သး": 8135,
      "ယွၤလီၤဝဲ": 8136,
      "စီၤအ့လၤ": 8137,
      "အချံၣ်": 8138,
      "တၢ်ဘၣ်ယိၣ်": 8139,
      "လၢတၢ်သူၣ်ဖှံသးညီ": 8140,
      "ကမၤသံကွံာ်": 8141,
      "စီၤယဟိအါဃး": 8142,
      "ကြၢးဝဲဘၣ်ဝဲ": 8143,
      "တဖၣ်အလိၤဒီး": 8144,
      "ဂ့ၤဂ့ၤလီၤ": 8145,
      "ဒုၣ်ဒွဲၣ်စံးအၢ": 8146,
      "အဖိမုၣ်နီၢ်": 8147,
      "မဲာ်တဲးလဲးဖါ": 8148,
      "ဒီးနီၢ်နၤဧမံ": 8149,
      "ကမၢကမၣ်ဝဲ": 8150,
      "ကံၢ်သးလဲ": 8151,
      "ဖိးဟု": 8152,
      "တမံၤလၢ်လၢ်န့ၣ်": 8153,
      "ကဖၢလၢ": 8154,
      "စိၢ်ဘျဲး": 8155,
      "ကံလၤ": 8156,
      "လီၤတံၢ်လီၤဆဲးလီၤ": 8157,
      "ဟုၣ်န့ၢ်": 8158,
      "အချၢဒီး": 8159,
      "ဖျိးထီၣ်": 8160,
      "အသပၢၤ": 8161,
      "ထဲသိးသိး": 8162,
      "အအံၤမ့ၢ်တၢ်ကစီၣ်": 8163,
      "ကတူၢ်ဘၣ်": 8164,
      "ဆူယအိၣ်တက့ၢ်": 8165,
      "အထူၣ်တဖၣ်": 8166,
      "လံၤလံၤန့ၣ်လီၤ": 8167,
      "တဆံခံဒု": 8168,
      "တဆံခံဒူၣ်": 8169,
      "သပၢၤဟီၣ်ခိၣ်": 8170,
      "မဲာ်ချံတဖၣ်": 8171,
      "တူၢ်ဘၣ်ဝဲလၢ": 8172,
      "သ့ၣ်ညါဘၣ်ဝဲလၢ": 8173,
      "ယထံၣ်တ့ၢ်": 8174,
      "ပာ်ကဖၢလၢ": 8175,
      "တကဲဘၣ်": 8176,
      "လၢမုၢ်နၤခီ": 8177,
      "တလီၢ်လီၢ်": 8178,
      "အနီၣ်ဂံၢ်အိၣ်ဝဲ": 8179,
      "ကနီၤဖး": 8180,
      "စီၤအ့လယၤ": 8181,
      "ကျဲစၢၤကျိၤထံး": 8182,
      "တၢ်မူအထူအယိာ်": 8183,
      "စီၤအဃၤစယၤ": 8184,
      "စံၣ်တဲၤတဲလီၤတၢ်သးခုကစီၣ်": 8185,
      "ကူာ်လီၤကွံာ်": 8186,
      "တ့ၢ်လီၤကွံာ်အီၤဆူ": 8187,
      "စီၤဧးမံၤ": 8188,
      "ယဘူၣ်ဖိ": 8189,
      "ဒ်တၢ်ကွဲးအသးစံးဝဲအသိး": 8190,
      "ကွ့ၢ်ကွ့ၢ်": 8191,
      "တုၤမုၢ်ဟါလီၤန့ၣ်လီၤ": 8192,
      "ထဲအံၤညါ": 8193,
      "ယဲဒၣ်အံၤယမ့ၢ်ယွၤလီၤ": 8194,
      "စီၤဃနၤနယၤ": 8195,
      "ပျၤထီအီၤလၢထူၣ်စုညါအလိၤ": 8196,
      "စီၤစကၤရယၤ": 8197,
      "အက့အခီ": 8198,
      "ထိၣ်ဟူးထိၣ်ဂဲၤထီၣ်": 8199,
      "ထူးထီၣ်တီၤထီၣ်": 8200,
      "လၢသူၣ်လၢသး": 8201,
      "အဝဲၢ်ကိ": 8202,
      "ဒီးနဲဒၣ်": 8203,
      "မဲးစ့း": 8204,
      "ကဲခိၣ်ကဲနၢ်": 8205,
      "ကုးအီပှဲၤ": 8206,
      "တၢ်သုးမုၢ်ဂီၢ်မုၢ်": 8207,
      "ူၤဘၤဘ့လး": 8208,
      "စပတၤ": 8209,
      "ဒီတံၤဒီသကိး": 8210,
      "ကလိၤ": 8211,
      "ကဖီ": 8212,
      "ကဆူၣ်": 8213,
      "ကဒိးန့ၢ်ဘၣ်": 8214,
      "စဲၣ်": 8215,
      "တိၣ်": 8216,
      "တမါ": 8217,
      "တယံၤ": 8218,
      "နထံ": 8219,
      "နဟံၣ်ဖိဃီဖိ": 8220,
      "နတံၤသကိး": 8221,
      "ပဒီ": 8222,
      "ပူၣ်": 8223,
      "ပုာ်": 8224,
      "ပတၢ်ကမၣ်": 8225,
      "ပမိၢ်ပၢ်ဖံဖုလၢပျၢၤ": 8226,
      "ဘိၢ်": 8227,
      "ဘၢၣ်စၢၤ": 8228,
      "မရ့": 8229,
      "ယခိၣ်": 8230,
      "ယပာ်": 8231,
      "ယမ့ၢ်တၢ်": 8232,
      "ယဝၤ": 8233,
      "ယကစံး": 8234,
      "လ့လး": 8235,
      "လၡါစၢ်": 8236,
      "သဃီၤ": 8237,
      "သဃဲၤ": 8238,
      "အဲ": 8239,
      "အထၢၣ်": 8240,
      "အနီၢ်ပၤမုၣ်": 8241,
      "အဘးခီ": 8242,
      "ံသမၢ်": 8243,
      "လၢကဘၣ်တၢ်": 8244,
      "လၢဒဲ": 8245,
      "လၢလီၣ်": 8246,
      "လၢဒၢး": 8247,
      "တၢ်ကွဲးနီၣ်": 8248,
      "တၢ်သၣ်ဝံၤ": 8249,
      "တၢ်ခ့တၢ်": 8250,
      "လီၤသ": 8251,
      "လီၤသံး": 8252,
      "ဒီးတဂၤ": 8253,
      "ဒီးအိၣ်မူ": 8254,
      "ဒီးအီၤန့ၣ်လီၤ": 8255,
      "ဒီးကတိၤတၢ်": 8256,
      "ဒီးထံကီၢ်": 8257,
      "ဒီးဂီၤဖံး": 8258,
      "ဒီးနၢ်ပၢၢ်": 8259,
      "ဒီးစံးဘၣ်တဲဘၣ်": 8260,
      "ဒီးဟဲက့ၤစိာ်": 8261,
      "ဝဲဆိး": 8262,
      "ဘၣ်ဘျုး": 8263,
      "ဘၣ်ယသး": 8264,
      "ဘၣ်တဖု": 8265,
      "ဘၣ်တစိၤ": 8266,
      "ဘၣ်စီၣ်": 8267,
      "ပှၤပၢ": 8268,
      "ပှၤလၢယွၤ": 8269,
      "ပှၤနီတဂၤဘၣ်": 8270,
      "ပှၤဧၤ": 8271,
      "ပှၤတဖု": 8272,
      "ပှၤကူၣ်တၢ်သ့": 8273,
      "ပှၤစူၢ်က့ၤနာ်က့ၤတၢ်": 8274,
      "ပှၤဃ့သွဲ": 8275,
      "တဖၣ်အလီၢ်": 8276,
      "တဖၣ်မ့ၢ်ဝဲ": 8277,
      "မၤလၢာ်": 8278,
      "မၤကၢ်": 8279,
      "မၤလီၤပှီၢ်ကွံာ်": 8280,
      "လၢအစိာ်": 8281,
      "လၢအမါ": 8282,
      "လၢအပူၤန့ၣ်လီၤ": 8283,
      "လၢအပၢတၢ်": 8284,
      "လၢအမူဝဲတဂၤ": 8285,
      "အိၣ်သး": 8286,
      "မ့ၢ်စီၤ": 8287,
      "အဝဲပာ်": 8288,
      "အဝဲသံ": 8289,
      "အဝဲထိၣ်": 8290,
      "အဝဲန့ၣ်မ့ၢ်": 8291,
      "သုပှၤ": 8292,
      "သုဂံၢ်": 8293,
      "ဖိအကီၢ်": 8294,
      "ယွၤစံးဘၣ်အီၤ": 8295,
      "ယွၤကဟ့ၣ်": 8296,
      "ဒ်အအိၣ်": 8297,
      "ဒ်ခရံာ်": 8298,
      "ဒ်ယမ့ၢ်": 8299,
      "ဒ်လၢညါ": 8300,
      "အဝဲသ့ၣ်ဟဲစိာ်": 8301,
      "အဝဲသ့ၣ်ကိးထီၣ်": 8302,
      "မုၢ်ကျၢၢ်": 8303,
      "ဖဲတၢ်လုၢ်လီၢ်": 8304,
      "ဖဲနီၢ်အ့ၤစတၢ်": 8305,
      "လၢတၢ်ဃူတၢ်ဖိး": 8306,
      "လၢတၢ်တီတၢ်လိၤ": 8307,
      "အတၢ်ကိးထီၣ်": 8308,
      "အတၢ်တိာ်": 8309,
      "အတၢ်သွၣ်ခိၣ်": 8310,
      "အတၢ်ဆၢဂ့ၤဆၢဝါ": 8311,
      "အတၢ်ဂ့ၤတၢ်ဝါ": 8312,
      "တဂၤဆူ": 8313,
      "ခိၣ်လီၤ": 8314,
      "ယၤမ့ၢ်ဂ့ၤ": 8315,
      "ယၤကိာ်": 8316,
      "ယၤဖိၤ": 8317,
      "ဒၣ်အဒူၣ်": 8318,
      "ဂ့ၤသး": 8319,
      "ဂ့ၤမး": 8320,
      "အသးဒၣ်ဝဲ": 8321,
      "ကီၢ်အံၤ": 8322,
      "ကီၢ်ဆၣ်": 8323,
      "န့ၢ်လွဲ": 8324,
      "တ့ၢ်နဲ": 8325,
      "အဃိၤ": 8326,
      "အဃိာ်": 8327,
      "ဒိၣ်တက့ၢ်": 8328,
      "အဂီၢ်ဒ်": 8329,
      "အဂီၢ်လံ": 8330,
      "အဃိအဝဲ": 8331,
      "တၢ်အသီၣ်": 8332,
      "ဟ့ၣ်သုတၢ်": 8333,
      "လဲၤဘၣ်": 8334,
      "ဆှဲ": 8335,
      "ကစၢ်ယွၤမၤ": 8336,
      "ပျီၢ်": 8337,
      "ဟဲဘၣ်": 8338,
      "ဟဲလၢယွၤ": 8339,
      "ဟဲကဲထီၣ်အသး": 8340,
      "ဆၢန့ၢ်": 8341,
      "ဒီးတၢ်လၢအ": 8342,
      "ဒီးတၢ်ဆူးတၢ်ဆါ": 8343,
      "ဒီးတၢ်မျၢ်": 8344,
      "ကမူၤ": 8345,
      "သ့န့ၣ်လီၤ": 8346,
      "စီၤပၤယဟိ": 8347,
      "နီၢ်ဒီ": 8348,
      "နီၢ်ဟၤကၢ်": 8349,
      "မူရၣ်": 8350,
      "ခဲလၢာ်ဘၣ်တၢ်": 8351,
      "ဒီးအဖိတဖၣ်": 8352,
      "တုၤလၢတၢ်": 8353,
      "တုၤဒၣ်": 8354,
      "လၢယဂ့ၢ်": 8355,
      "လၢယအဲၣ်": 8356,
      "လိၤဘိ": 8357,
      "ကွၢ်က့ၤ": 8358,
      "ကွၢ်စ့ၢ်ကီး": 8359,
      "ကွၢ်တလီၤ": 8360,
      "ဒါလီၤ": 8361,
      "ပှၤအဖှီၣ်": 8362,
      "ကတိၤသီ": 8363,
      "ကတိၤအၢ": 8364,
      "စီဝဲဆှံ": 8365,
      "ဒီးပှၤဂၤ": 8366,
      "ဒီးပှၤတဂၤဂၤ": 8367,
      "ဒီးပှၤလ့ၤဝံဖိ": 8368,
      "မုၣ်လိၤဘိ": 8369,
      "ကဘၣ်တူၢ်": 8370,
      "စံးဘၣ်စီၤပၤ": 8371,
      "အကနူၤ": 8372,
      "တဲဆိပာ်": 8373,
      "ကနုာ်": 8374,
      "ဝံၤဝဲ": 8375,
      "ဝံသဲ": 8376,
      "ဟီၣ်ခိၣ်န့ၣ်": 8377,
      "ယကအိၣ်": 8378,
      "ယကပာ်": 8379,
      "လၢအအိၣ်တ့ၢ်": 8380,
      "ပၢ်ကစၢ်ယွၤ": 8381,
      "ဆူၣ်သးဂဲၤ": 8382,
      "အိၣ်ဝဲလၢတၢ်": 8383,
      "အီၣ်သကိး": 8384,
      "မ့မ့ၢ်ခဲအံၤ": 8385,
      "တဖၣ်လၢကမၤ": 8386,
      "နာ်တၢ်": 8387,
      "နာ်ယၤတက့ၢ်": 8388,
      "အဲၣ်လိာ်": 8389,
      "လၤတၢ်ကပီၤ": 8390,
      "ဆှၢနုာ်": 8391,
      "ဘၣ်ဆၣ်ဒီးသုတ": 8392,
      "ဘၣ်ဆၣ်ဒီးခဲအံၤ": 8393,
      "စီၤယိၤအ့လး": 8394,
      "အဝဲဒၣ်ဘၣ်တၢ်": 8395,
      "ဖးဒိၣ်အပူၤ": 8396,
      "ဖးဒိၣ်တဖု": 8397,
      "ဘၣ်ဃးတၢ်": 8398,
      "ကျဲလၢအ": 8399,
      "ဃာ်အီၤလၢ": 8400,
      "ဆါကွံာ်": 8401,
      "လၢအဝဲသ့ၣ်အလိၤ": 8402,
      "အတူၢ်": 8403,
      "လၢအမ့ၢ်စီၤ": 8404,
      "ဒီးယတၢ်": 8405,
      "အပှၤပၢၤ": 8406,
      "လၢၤအီၤ": 8407,
      "လၢဝ့ၢ်ခိၣ်ဒူ": 8408,
      "ဒၣ်လဲာ်တ": 8409,
      "ၡ့မ့ၣ်": 8410,
      "တၤလၣ်": 8411,
      "မ်ဒ်န့ၣ်ဒီး": 8412,
      "သူအသးလၢထံ": 8413,
      "ကွဲးအသးလၢ": 8414,
      "ဒီးအဝဲသ့ၣ်တ": 8415,
      "တခီဒီး": 8416,
      "တခီထံ": 8417,
      "စီၤၡး": 8418,
      "စီၤၡဘၤ": 8419,
      "ဒီးနၢ": 8420,
      "ဘူးက": 8421,
      "ဘူးတ့ၢ်မး": 8422,
      "စူၢ်အီၤ": 8423,
      "ထီဒါယၤလီၤ": 8424,
      "တသ့ဝဲဘၣ်": 8425,
      "ဒီးအဝဲမ့ၢ်": 8426,
      "ပာ်လီၤတၢ်": 8427,
      "ပာ်လီၤတ့ၢ်": 8428,
      "အမံၤန့ၣ်": 8429,
      "သုတသ့ၣ်ညါ": 8430,
      "လၢကီၢ်ကၤလံၤလါ": 8431,
      "စီၤမိၤၡ့ဒီး": 8432,
      "ယွၤအတၢ်လုၢ်": 8433,
      "လၢမုၢ်အိၣ်ဘှံးနံၤ": 8434,
      "တၢ်လီၢ်လၢ": 8435,
      "တၢ်လီၢ်ကိးပူၤဒဲး": 8436,
      "ဒီးကသ့ၣ်ယီၤ": 8437,
      "တၢ်အံၤမ့ၢ်တၢ်လၢအ": 8438,
      "မၤလိာ်ဝဲ": 8439,
      "ယတၢ်မုၢ်လၢ်": 8440,
      "လွံၢ်ခီ": 8441,
      "တၢ်လၢအမၤတ့ၢ်အသး": 8442,
      "အလီၢ်ခံဒီး": 8443,
      "ဂၢၢ်ပာ်": 8444,
      "နွံဘျီ": 8445,
      "နကုၢ်": 8446,
      "အဟံၣ်လီၤ": 8447,
      "တဒုန့ၣ်လီၤ": 8448,
      "အကလုၢ်လီၤ": 8449,
      "ဒ်တၢ်ဘူၣ်တၢ်ဘါ": 8450,
      "ဆိၣ်ဂ့ၤသု": 8451,
      "ဆိၣ်ဂ့ၤဝဲလီၤ": 8452,
      "ယဟိဝၤယွၤန့ၣ်": 8453,
      "ယဟိဝၤယွၤအအိၣ်": 8454,
      "ဃုာ်ဒီးအတၢ်အီၣ်ဆၣ်အလီၢ်": 8455,
      "လ့ၤမ့း": 8456,
      "တ့ၢ်ဝဲန့ၣ်": 8457,
      "ဒိၣ်မးလၢ": 8458,
      "ဒိၣ်မးလဲၣ်": 8459,
      "ဘှီး": 8460,
      "လံာ်စီဆှံလၢ": 8461,
[...]
