{
  "version": "1.0",
  "truncation": null,
  "padding": null,
  "added_tokens": [
    {
      "id": 0,
      "content": "<pad>",
      "single_word": false,
      "lstrip": false,
      "rstrip": false,
      "normalized": false,
      "special": true
    },
    {
      "id": 1,
      "content": "<unk>",
      "single_word": false,
      "lstrip": false,
      "rstrip": false,
      "normalized": false,
      "special": true
    },
    {
      "id": 2,
      "content": "<s>",
      "single_word": false,
      "lstrip": false,
      "rstrip": false,
      "normalized": false,
      "special": true
    },
    {
      "id": 3,
      "content": "</s>",
      "single_word": false,
      "lstrip": false,
      "rstrip": false,
      "normalized": false,
      "special": true
    }
  ],
  "normalizer": null,
  "pre_tokenizer": {
    "type": "Sequence",
    "pretokenizers": [
      {
        "type": "Whitespace"
      },
      {
        "type": "Split",
        "pattern": {
          "Regex": "(?<=[ऀ-ॿ஀-௿฀-๿຀-໿က-႟ក-៿一-鿿꤀-꤯])(?=[A-Za-z0-9])|(?<=[A-Za-z0-9])(?=[ऀ-ॿ஀-௿฀-๿຀-໿က-႟ក-៿一-鿿꤀-꤯])"
        },
        "behavior": "Isolated",
        "invert": false
      }
    ]
  },
  "post_processor": null,
  "decoder": null,
  "model": {
    "type": "BPE",
    "dropout": null,
    "unk_token": "<unk>",
    "continuing_subword_prefix": null,
    "end_of_word_suffix": null,
    "fuse_unk": false,
    "byte_fallback": false,
    "ignore_merges": false,
    "vocab": {
      "<pad>": 0,
      "<unk>": 1,
      "<s>": 2,
      "</s>": 3,
      "!": 4,
      "(": 5,
      ")": 6,
      ",": 7,
      "-": 8,
      ":": 9,
      "?": 10,
      "U": 11,
      "d": 12,
      "e": 13,
      "f": 14,
      "h": 15,
      "i": 16,
      "n": 17,
      "s": 18,
      "‘": 19,
      "’": 20,
      "“": 21,
      "”": 22,
      "꤀": 23,
      "꤁": 24,
      "꤂": 25,
      "꤈": 26,
      "ꤊ": 27,
      "ꤋ": 28,
      "ꤍ": 29,
      "ꤎ": 30,
      "ꤏ": 31,
      "ꤑ": 32,
      "ꤒ": 33,
      "ꤓ": 34,
      "ꤔ": 35,
      "ꤕ": 36,
      "ꤖ": 37,
      "ꤗ": 38,
      "ꤘ": 39,
      "ꤙ": 40,
      "ꤚ": 41,
      "ꤛ": 42,
      "ꤜ": 43,
      "ꤝ": 44,
      "ꤞ": 45,
      "ꤟ": 46,
      "ꤠ": 47,
      "ꤡ": 48,
      "ꤢ": 49,
      "ꤣ": 50,
      "ꤤ": 51,
      "ꤥ": 52,
      "ꤦ": 53,
      "ꤧ": 54,
      "ꤨ": 55,
      "ꤩ": 56,
      "ꤪ": 57,
      "꤫": 58,
      "꤬": 59,
      "꤭": 60,
      "꤮": 61,
      "꤯": 62,
      "ꤢꤩ": 63,
      "ꤣꤧ": 64,
      "ꤢꤩ꤬": 65,
      "ꤢꤧ": 66,
      "ꤣꤧ꤬": 67,
      "ꤢ꤬": 68,
      "ꤢꤨ": 69,
      "ꤥ꤬": 70,
      "ꤢꤧ꤭": 71,
      "ꤢꤧ꤬": 72,
      "ꤢꤪ": 73,
      "ꤢꤦ": 74,
      "ꤢ꤭": 75,
      "ꤞꤤ": 76,
      "ꤔꤣꤧ꤬": 77,
      "ꤣꤧ꤭": 78,
      "ꤢꤨ꤭": 79,
      "ꤒꤣꤧ꤬": 80,
      "ꤢꤩ꤭": 81,
      "ꤘꤣ": 82,
      "ꤚꤣꤧ꤬": 83,
      "ꤢꤦ꤬": 84,
      "ꤔꤢꤧ": 85,
      "ꤒꤢꤩ꤬": 86,
      "ꤖꤚ": 87,
      "ꤥ꤭": 88,
      "ꤞꤤ꤭": 89,
      "ꤣ꤬": 90,
      "ꤟꤢꤩ꤬": 91,
      "ꤖꤚꤢꤩ꤬": 92,
      "ꤒꤣꤧ꤬ꤟꤢꤩ꤬": 93,
      "ꤤ꤬": 94,
      "ꤒꤣ꤬": 95,
      "ꤟꤢꤩ": 96,
      "꤫ꤢꤦ꤬": 97,
      "꤫ꤢꤩ꤬": 98,
      "ꤗꤢꤩ꤬": 99,
      "ꤢꤨ꤬": 100,
      "ꤛꤢꤩ꤬": 101,
      "ꤟꤣꤧ": 102,
      "ꤠꤢꤧ꤭": 103,
      "ꤜꤢꤪ": 104,
      "ꤗꤢ꤬": 105,
      "ꤢ꤬ꤋ": 106,
      "ꤡꤢꤪ": 107,
      "ꤊꤣꤧ꤬": 108,
      "ꤟꤢꤨ": 109,
      "ꤊ꤫ꤢꤦ꤬": 110,
      "ꤝꤢ": 111,
      "꤫ꤢꤧ꤬": 112,
      "ꤒꤥ꤬": 113,
      "ꤙꤢꤩ꤬": 114,
      "ꤛꤢꤩ꤬ꤞꤤ꤭": 115,
      "ꤤ꤭": 116,
      "ꤛꤢꤧ꤭": 117,
      "ꤊꤣꤧ꤬ꤛꤢꤧ꤭": 118,
      "꤫ꤥ꤬": 119,
      "ꤜꤢꤨ꤭": 120,
      "ꤒꤣ꤬ꤖꤚꤢꤩ꤬": 121,
      "ꤢꤪ꤬": 122,
      "ꤖꤢꤨ": 123,
      "ꤚꤢꤧ꤬": 124,
      "ꤗꤣꤧ꤬": 125,
      "ꤡꤢꤪꤗꤣꤧ꤬": 126,
      "ꤡꤢꤪꤗꤣꤧ꤬ꤚꤢꤧ꤬": 127,
      "ꤕꤢꤩ꤬": 128,
      "ꤊꤢꤧ꤭": 129,
      "ꤛꤢ꤭": 130,
      "ꤟꤢꤧ꤭": 131,
      "ꤔꤢꤧ꤬": 132,
      "ꤕꤢ꤭": 133,
      "ꤜꤢꤪ꤭": 134,
      "ꤓꤢꤧ꤬": 135,
      "ꤜꤢ꤭": 136,
      "ꤛꤢꤨ": 137,
      "ꤑꤢꤩ꤭": 138,
      "ꤡꤝꤢ": 139,
      "ꤝꤢ꤭": 140,
      "ꤊꤣꤧ꤭": 141,
      "ꤋꤢꤨ꤭": 142,
      "ꤡꤣꤧ": 143,
      "ꤊꤜ": 144,
      "꤫ꤢ꤬": 145,
      "ꤕ꤫ꤢꤩ꤬": 146,
      "ꤓꤥ꤭": 147,
      "ꤙꤣꤧ": 148,
      "ꤘꤢꤦ꤬": 149,
      "ꤚꤣꤧ": 150,
      "ꤋꤚ": 151,
      "ꤖꤢꤧ": 152,
      "ꤕꤜ": 153,
      "ꤘꤣꤧ": 154,
      "ꤊꤢꤨ꤭": 155,
      "꤫ꤤ꤬": 156,
      "ꤒꤢꤩ꤭": 157,
      "ꤏꤛꤢꤨ": 158,
      "ꤞꤢꤧ": 159,
      "ꤛꤢꤩ꤬ꤏꤛꤢꤨ": 160,
      "ꤢꤪ꤭": 161,
      "ꤛ꤫ꤢꤦ꤬": 162,
      "ꤔ꤫ꤤ꤬": 163,
      "ꤟꤢꤨꤔꤣꤧ꤬": 164,
      "ꤗꤢꤧ": 165,
      "ꤋꤢꤧ꤭": 166,
      "ꤢ꤬ꤋꤛꤢ꤭": 167,
      "ꤣꤧ꤭ꤔꤣꤧ꤬": 168,
      "ꤜꤢ꤭ꤋꤢꤧ꤭": 169,
      "ꤢꤦ꤭": 170,
      "ꤗ꤫ꤢ꤬": 171,
      "ꤝꤢ꤬": 172,
      "ꤢ꤬ꤚ": 173,
      "ꤞꤣꤧ꤭": 174,
      "ꤊꤢꤩ꤬": 175,
      "ꤜꤥ꤭": 176,
      "ꤡꤢꤩ꤬": 177,
      "ꤕꤜꤢꤪ": 178,
      "ꤒꤢ꤭": 179,
      "ꤙꤢꤧ꤬": 180,
      "꤫ꤢꤪ꤬": 181,
      "ꤢ꤬ꤋꤢꤩ꤭": 182,
      "ꤙꤢꤧ꤬ꤡꤢꤩ꤬": 183,
      "ꤘꤢꤨ꤬": 184,
      "ꤒꤣꤧ꤬ꤟꤢꤩ꤬ꤔꤣꤧ꤬": 185,
      "ꤋꤢꤨ꤬": 186,
      "ꤝꤤ꤭": 187,
      "ꤟꤢꤩꤚꤣꤧ꤬": 188,
      "ꤔꤤ": 189,
      "ꤒꤢꤩ꤬ꤞ": 190,
      "꤫ꤣꤧ꤬": 191,
      "ꤚꤣꤧꤘꤢꤦ꤬": 192,
      "ꤢ꤬ꤋꤝꤢ꤬": 193,
      "ꤢ꤬ꤋꤝꤢ꤬ꤢ꤬ꤋꤛꤢ꤭": 194,
      "ꤔ꤫ꤢꤩ꤬": 195,
      "ꤔꤣꤧ꤬ꤒꤣꤧ꤬ꤟꤢꤩ꤬": 196,
      "ꤕꤜꤢꤪ꤬": 197,
      "ꤢ꤬ꤖꤢꤨ": 198,
      "ꤟꤢꤩꤏ": 199,
      "ꤒꤥ꤭": 200,
      "ꤓꤝꤢ꤭": 201,
      "ꤞꤤꤑꤢꤩ꤭": 202,
      "ꤒꤣꤧ꤬ꤚ": 203,
      "ꤢ꤬ꤜ": 204,
      "꤯”": 205,
      "ꤞꤤꤕꤜꤢꤪ꤬": 206,
      "ꤠꤤ꤭": 207,
      "ꤘꤢꤧ꤬": 208,
      "ꤗꤢ꤬ꤔꤢꤧ": 209,
      "ꤥ꤬ꤔ": 210,
      "ꤕꤢ꤬": 211,
      "ꤔꤣꤧ꤬ꤗꤢ꤬": 212,
      "ꤜꤢꤧ꤬": 213,
      "ꤗꤢꤩ꤬ꤒꤢꤩ꤭": 214,
      "ꤝꤤ": 215,
      "ꤗꤢ꤬ꤔꤢꤧꤚꤣꤧ꤬": 216,
      "ꤍ꤫ꤥ꤬": 217,
      "ꤢ꤬ꤋꤢꤩ꤭ꤔꤣꤧ꤬": 218,
      "ꤔꤢꤪ꤭": 219,
      "ꤊꤢꤨ": 220,
      "ꤜꤣꤧ꤬": 221,
      "ꤋꤛꤢ꤭": 222,
      "ꤛꤢ": 223,
      "ꤡ꤫ꤢꤧ꤬": 224,
      "ꤋꤚꤤ": 225,
      "ꤓꤢꤩ꤬": 226,
      "ꤖꤢꤩ꤭": 227,
      "ꤔꤣꤧ꤭": 228,
      "ꤒ꤫ꤢꤧ꤬": 229,
      "ꤗꤢꤧꤓ": 230,
      "ꤗꤢꤧꤓ꤫ꤣꤧ꤬": 231,
      "ꤜꤣ": 232,
      "ꤊꤢ꤬": 233,
      "ꤛ꤫ꤢꤦ꤬ꤢꤩ꤬": 234,
      "ꤗꤥ꤬": 235,
      "ꤡꤣ꤬": 236,
      "ꤒ꤫ꤥ꤬": 237,
      "ꤣꤧ꤭ꤒꤣꤧ꤬ꤟꤢꤩ꤬": 238,
      "ꤊꤢꤨ꤬": 239,
      "ꤜ꤫ꤢꤩ꤬": 240,
      "ꤊ꤫ꤢꤩ꤬": 241,
      "ꤞꤣꤧ꤭ꤖꤚꤢꤩ꤬": 242,
      "ꤗꤢꤩ꤬ꤒꤢꤩ꤭ꤟꤢꤩꤚꤣꤧ꤬": 243,
      "ꤟꤥ꤭": 244,
      "ꤞꤝꤢ": 245,
      "ꤓꤣꤧ꤭": 246,
      "ꤔ꤫ꤢꤧ꤬": 247,
      "ꤒꤣꤧ꤬ꤔ": 248,
      "ꤊꤜꤢꤪ": 249,
      "ꤣꤧ꤭ꤒꤣ꤬ꤖꤚꤢꤩ꤬": 250,
      "ꤕ꤫ꤥ꤬": 251,
      "ꤢ꤬ꤑꤢꤩ꤭": 252,
      "ꤢ꤬ꤊꤢꤨ꤭": 253,
      "ꤓꤥ꤭ꤚꤣꤧ꤬": 254,
      "꤮꤯": 255,
      "ꤡ꤫ꤢꤩ꤬": 256,
      "ꤚꤤ꤬": 257,
      "ꤞꤤꤛ꤫ꤢꤦ꤬": 258,
      "ꤒꤣ꤬ꤖ": 259,
      "ꤞꤢꤧꤟꤢꤨ": 260,
      "ꤒꤣ꤬ꤡꤣ꤬": 261,
      "ꤗ꤫ꤢ꤬ꤒꤥ꤬": 262,
      "ꤛ꤫ꤢꤧ꤬": 263,
      "ꤛꤢꤨꤘ": 264,
      "ꤥ꤬ꤔꤢꤧ꤭": 265,
      "ꤕꤝꤢ꤭": 266,
      "ꤟꤢꤩꤏꤥ꤬": 267,
      "ꤞꤢꤩ꤬": 268,
      "ꤙꤢꤩ꤬ꤙꤢꤩ꤬": 269,
      "ꤕꤜꤤ꤭": 270,
      "ꤋꤢꤩ꤭": 271,
      "ꤓꤥ꤭ꤟꤣꤧ": 272,
      "ꤗꤢꤪ": 273,
      "ꤔꤥ꤭": 274,
      "ꤟꤢꤩꤙꤢꤩ꤬": 275,
      "ꤏꤢ": 276,
      "ꤗ꤫ꤢꤪ꤬": 277,
      "ꤛꤥ꤬": 278,
      "ꤛꤢ꤬": 279,
      "ꤡꤢ꤭": 280,
      "ꤖꤢꤨꤡ꤫ꤢꤩ꤬": 281,
      "ꤊꤢꤨ꤬ꤊꤜꤢꤪ": 282,
      "ꤒꤢꤩ꤬ꤗꤢꤩ꤬": 283,
      "ꤢ꤬ꤔ꤫ꤢꤩ꤬": 284,
      "ꤛꤢꤨꤘꤢ꤬ꤖꤢꤨ": 285,
      "ꤖꤛꤢ": 286,
      "ꤋꤥ꤭": 287,
      "ꤙꤢꤩ꤭": 288,
      "ꤖꤚꤢꤩ꤬ꤋꤢꤨ꤭": 289,
      "ꤋꤢꤧ": 290,
      "ꤘꤢꤦ": 291,
      "ꤒꤣꤧ꤬ꤚꤣꤧ꤭": 292,
      "ꤊꤢ꤬ꤋꤛꤢ꤭": 293,
      "ꤙꤣꤧꤔꤣꤧ꤬": 294,
      "ꤙꤢꤩ": 295,
      "ꤟꤢꤨꤔꤣꤧ꤬ꤚꤣꤧ꤬": 296,
      "ꤗ꤫ꤢꤧ꤬": 297,
      "ꤗ꤫ꤥ꤬": 298,
      "ꤒꤢꤩ꤬ꤞꤢꤦ": 299,
      "ꤚꤢꤧ": 300,
      "ꤏꤢꤪ꤭": 301,
      "ꤓꤝꤢ꤭ꤓꤢꤧ꤬": 302,
      "ꤗꤢꤪ꤬": 303,
      "ꤒꤣꤧ꤬ꤔꤢꤩ꤬": 304,
      "ꤏꤢꤩ꤭": 305,
      "ꤟꤤ꤬": 306,
      "ꤜꤤ꤬": 307,
      "꤫ꤣ꤬": 308,
      "ꤗꤢꤩ꤭": 309,
      "ꤗꤝꤤ꤭": 310,
      "ꤟꤢꤩ꤬ꤋꤢꤨ꤬": 311,
      "ꤒꤣꤧ꤬ꤘꤢꤦ": 312,
      "ꤛ꤫ꤢꤧ꤬ꤛꤥ꤬": 313,
      "ꤒꤣꤧ꤬ꤘꤢꤦꤚꤣꤧ꤬": 314,
      "ꤊꤝꤤ꤭": 315,
      "ꤒ꤫ꤢꤧ꤬ꤗꤢꤩ꤬": 316,
      "ꤔ꤫ꤤ꤬ꤙꤢꤩ꤬": 317,
      "ꤗꤢꤨ꤬": 318,
      "ꤘꤥ꤬ꤔꤢꤧ꤭": 319,
      "ꤊꤜꤢꤩ꤭": 320,
      "ꤜꤥ꤬": 321,
      "ꤡꤢꤪꤙꤢꤩ꤭": 322,
      "ꤒꤥ꤭ꤙꤢꤩ꤬": 323,
      "ꤗꤢꤨ": 324,
      "ꤕꤣꤧ": 325,
      "ꤒ꤫ꤣ꤬": 326,
      "ꤏꤢꤦ꤬": 327,
      "ꤤ꤬ꤞꤝꤢ": 328,
      "ꤢ꤬ꤚꤤ꤬": 329,
      "ꤖꤚꤥ꤬": 330,
      "ꤏꤝꤢ꤬": 331,
      "ꤋꤛꤢ꤭ꤞꤢꤧ": 332,
      "ꤔꤢꤧ꤬ꤡꤣꤧ": 333,
      "ꤞꤢꤪ꤬": 334,
      "ꤒꤣ꤬ꤖꤥ": 335,
      "ꤕꤣꤧꤞꤢꤩ꤬": 336,
      "ꤘꤢ꤭": 337,
      "ꤜꤢꤨ꤬": 338,
      "ꤢ꤬ꤍ꤫ꤥ꤬": 339,
      "ꤟꤢꤩꤏꤢꤦ꤬": 340,
      "ꤋꤚꤝꤢ꤭": 341,
      "ꤒꤢꤧ꤭": 342,
      "ꤗꤢꤨꤗ꤫ꤢꤧ꤬": 343,
      "ꤢ꤬ꤚꤢꤨ": 344,
      "ꤖꤚꤢꤩ꤬ꤗꤢꤪ꤬": 345,
      "ꤗꤢꤪꤋꤢꤨ꤬": 346,
      "ꤜꤢ꤬": 347,
      "ꤖꤢ": 348,
      "ꤜꤢꤨ": 349,
      "ꤊꤢꤨꤔ꤫ꤢꤧ꤬": 350,
      "ꤗꤤ꤬": 351,
      "ꤋꤥ꤭ꤖꤢꤨꤡ꤫ꤢꤩ꤬": 352,
      "꤫ꤢꤨ꤬": 353,
      "ꤢ꤬ꤑꤢꤩ꤭ꤔꤣꤧ꤬": 354,
      "ꤢ꤬ꤊꤢꤧ꤭": 355,
      "꤮,": 356,
      "ꤜꤢꤨ꤭ꤒꤢꤧ꤭": 357,
      "ꤋꤝꤤ": 358,
      "ꤡꤝ": 359,
      "ꤞꤥ꤭": 360,
      "ꤔ꤫ꤤ꤬ꤟꤥ꤭": 361,
      "ꤞꤢꤧꤔꤢꤧ": 362,
      "ꤓꤢꤪ꤬": 363,
      "ꤕꤣꤧ꤬": 364,
      "ꤊꤣꤧ꤬ꤓꤢꤪ꤬": 365,
      "ꤋꤚꤢꤦ꤭": 366,
      "ꤏꤛ": 367,
      "ꤓꤥ꤭ꤒꤥ꤬": 368,
      "ꤞꤢꤩ": 369,
      "ꤜꤥ꤭ꤔ": 370,
      "ꤢ꤬ꤙ": 371,
      "ꤝꤢꤒꤢꤩ꤬ꤞ": 372,
      "ꤒꤢꤩ꤬ꤞꤝꤢꤒꤢꤩ꤬ꤞ": 373,
      "ꤒꤢꤩ꤬ꤞꤝꤢꤒꤢꤩ꤬ꤞꤢꤧ꤬": 374,
      "ꤥ꤬ꤞꤣꤧ꤭ꤖꤚꤢꤩ꤬": 375,
      "ꤕꤜꤢꤩ": 376,
      "ꤒꤢꤩ꤬ꤞꤤ": 377,
      "ꤞꤢꤩ꤭": 378,
      "ꤣꤧ꤭ꤒꤣꤧ꤬ꤟꤢꤩ꤬ꤔꤣꤧ꤬": 379,
      "ꤣꤧ꤭ꤒꤣ꤬": 380,
      "ꤗꤣꤧ꤭": 381,
      "ꤓꤢꤩ꤬ꤡꤝꤢ": 382,
      "ꤜꤢꤩ꤭": 383,
      "ꤘꤢꤧ": 384,
      "ꤘꤣꤧꤟ": 385,
      "ꤕꤢꤩ꤭": 386,
      "ꤚꤢꤩ꤭": 387,
      "ꤘꤣꤧꤟꤣꤧ꤭": 388,
      "ꤥ꤬ꤔꤢꤩ꤬": 389,
      "ꤙꤢꤧ": 390,
      "ꤒꤢꤦ": 391,
      "ꤒꤣ꤬ꤖꤚꤢꤩ꤬ꤖꤚꤢꤩ꤬": 392,
      "ꤓꤢꤨ꤬": 393,
      "ꤜꤤ꤭": 394,
      "ꤢꤪꤜꤢꤨ": 395,
      "?”": 396,
      "ꤋꤥ": 397,
      "ꤟꤤ": 398,
      "ꤛꤢꤩ꤬ꤏꤛꤢꤨꤋꤚꤤ": 399,
      "ꤏꤣꤧ": 400,
      "ꤚꤢ꤭": 401,
      "ꤟꤢꤨꤒꤢꤩ꤭": 402,
      "ꤢ꤬ꤚꤤ꤬ꤢ꤬ꤊꤢꤧ꤭": 403,
      "ꤖꤚꤢꤩ꤬ꤜꤢꤨ꤬": 404,
      "ꤊꤜꤢꤧ": 405,
      "ꤟꤢ꤬": 406,
      "ꤔꤢꤪ": 407,
      "ꤊꤣꤧ꤭ꤢꤨ꤭": 408,
      "ꤘꤣꤧꤡꤢ꤭": 409,
      "ꤜꤢꤪ꤭ꤕꤜꤤ꤭": 410,
      "ꤢ꤬ꤒꤢꤩ꤬": 411,
      "ꤛꤢꤪ꤬": 412,
      "ꤔ꤫ꤤ꤬ꤘꤢ꤭": 413,
      "ꤞꤢꤦ": 414,
      "ꤟꤢꤨꤣꤧ꤭": 415,
      "ꤚꤤ꤬ꤡ꤫ꤢꤧ꤬": 416,
      "ꤢ꤬ꤛ꤫ꤢꤧ꤬ꤛꤥ꤬": 417,
      "ꤣꤧ꤭ꤔꤣꤧ꤬ꤗꤢ꤬": 418,
      "ꤓꤢꤩ꤭": 419,
      "ꤙꤢ꤭": 420,
      "ꤜꤣꤧ꤬ꤕꤜꤢꤩ": 421,
      "ꤡꤝ꤫ꤢ꤬": 422,
      "ꤋꤢꤨ꤭ꤕ": 423,
      ",”": 424,
      "ꤔꤣꤧ꤬ꤒꤣ꤬ꤖꤚꤢꤩ꤬": 425,
      "ꤔꤤꤔꤢꤧ꤬": 426,
      "ꤋꤢꤨ꤭ꤕꤢꤪꤜꤢꤨ": 427,
      "ꤜꤢ꤭ꤟꤤ": 428,
      "ꤗꤢꤨꤗ꤫ꤢꤧ꤬ꤚꤤ꤬ꤡ꤫ꤢꤧ꤬": 429,
      "ꤘꤥ꤭": 430,
      "ꤢ꤬ꤚꤥ꤬": 431,
      "ꤒ꤫ꤣ꤬ꤊꤣꤧ꤭": 432,
      "ꤙꤢ꤬": 433,
      "ꤚꤢ꤬": 434,
      "ꤊꤜꤣꤧ꤭": 435,
      "ꤏꤥ꤭": 436,
      "ꤗꤢꤦ꤭": 437,
      "ꤗ꤫ꤢ꤬ꤟꤣꤧ": 438,
      "ꤜ꤫ꤥ꤬": 439,
      "ꤔꤣꤧ꤬ꤒꤣ꤬": 440,
      "ꤗ꤫ꤢ꤬ꤔꤤꤔꤢꤧ꤬": 441,
      "ꤘꤣꤧꤜꤥ꤭": 442,
      "ꤜꤥ꤭ꤔꤢꤩ": 443,
      "ꤡꤢꤦ꤬": 444,
      "ꤊ꤫ꤢꤦ꤬ꤚꤢꤩ꤭": 445,
      "ꤢ꤬ꤖꤢꤨꤖꤚꤢꤩ꤬ꤋꤢꤨ꤭": 446,
      "ꤒꤢꤩ꤬ꤖꤢꤨ": 447,
      "ꤟꤢꤩꤔꤣꤧ꤬": 448,
      "ꤓꤢꤨ꤭": 449,
      "ꤥ꤬ꤗ": 450,
      "ꤕꤜꤝꤢ꤭": 451,
      "ꤞꤢ": 452,
      "ꤠ꤫ꤢꤧ꤬": 453,
      "ꤖꤚꤢꤩ꤬ꤛ꤫ꤢꤦ꤬ꤢꤩ꤬": 454,
      "ꤊꤜ꤫ꤢꤪ꤬": 455,
      "ꤒꤢ꤭ꤒꤢꤩ꤬": 456,
      "ꤎꤢ꤬": 457,
      "ꤏꤢꤩ꤬": 458,
      "ꤚꤤ": 459,
      "ꤤ꤬ꤏꤢꤩ꤭": 460,
      "ꤢ꤬ꤜ꤫ꤢꤩ꤬": 461,
      "ꤢ꤬ꤞꤢꤧꤔꤢꤧ": 462,
      "ꤕ꤫ꤢꤦ꤬": 463,
      "ꤘꤥ꤬": 464,
      "ꤊꤜꤥ꤭": 465,
      "ꤕꤣꤧꤞꤢꤩ꤬ꤑꤢꤩ꤭": 466,
      "ꤒꤣꤧ꤬ꤡ": 467,
      "ꤒꤣꤧ꤬ꤘꤢꤦ꤬": 468,
      "ꤗꤢꤩ꤬ꤞꤣꤧ꤭": 469,
      "ꤊꤢꤨꤔ꤫ꤢꤧ꤬ꤣꤧ꤭": 470,
      "ꤜꤣꤧ꤬ꤕꤜꤢꤩꤊꤢ꤬": 471,
      "ꤔꤢꤧ꤭": 472,
      "ꤟꤢꤩꤏꤥ꤬ꤘꤥ꤬ꤔꤢꤧ꤭": 473,
      "ꤘꤤ꤭": 474,
      "ꤚ꤫ꤥ꤬": 475,
      "ꤖꤚꤢꤩ꤬ꤖꤚꤥ꤬": 476,
      "ꤟꤢꤩꤏꤥ꤬ꤜꤥ꤭": 477,
      "ꤢꤩꤖꤢꤨ": 478,
      "ꤒꤢ꤬ꤚꤢꤨ": 479,
      "ꤕꤢ꤭ꤔꤣꤧ꤬": 480,
      "ꤕꤢꤩ꤬ꤒꤢ꤬ꤚꤢꤨ": 481,
      "ꤒꤣ꤬ꤖꤥ꤬": 482,
      "ꤕꤢꤨ꤭": 483,
      "ꤜ꤫ꤢꤪ꤬": 484,
      "ꤗꤢꤧꤕꤢꤨ꤭": 485,
      "ꤕ꤫ꤥ꤬ꤠ꤫ꤢꤧ꤬": 486,
      "ꤛꤥ꤭": 487,
      "ꤗꤢꤩ꤬ꤡꤝ꤫ꤢ꤬": 488,
      "ꤗꤢ": 489,
      "ꤒꤣꤧ꤬ꤜ": 490,
      "ꤟꤢꤩꤔꤣꤧ꤬ꤗꤢ꤬": 491,
      "ꤊꤝꤤ꤭ꤡꤢꤪꤙꤢꤩ꤭": 492,
      "ꤎꤢꤧ": 493,
      "ꤒꤣꤧ꤬ꤖ": 494,
      "ꤓꤢꤨ꤬ꤞꤢꤩ": 495,
      "ꤜ꤫ꤢꤩ꤬ꤥ꤬": 496,
      "ꤞꤤꤛꤢꤪ꤬": 497,
      "ꤒꤢꤩ꤬ꤛ꤫ꤢꤦ꤬": 498,
      "ꤒꤣꤧ꤬ꤟꤢꤩ꤬ꤟꤢꤩ꤬": 499,
      "ꤢ꤬ꤚꤢꤧ": 500,
      "ꤒꤣꤧ꤬ꤔꤢꤩꤖꤢꤨ": 501,
      "ꤗ꤫ꤢꤪ꤬ꤔꤣꤧ꤭": 502,
      "ꤢ꤬ꤊꤜꤢꤩ꤭": 503,
      "ꤙꤝꤤ": 504,
      "ꤚ꤫ꤣꤧ꤬": 505,
      "ꤒꤣꤧ꤬ꤕꤜ": 506,
      "ꤤ꤬ꤞ": 507,
      "ꤕ꤫ꤢꤪ꤬": 508,
      "ꤢꤨ꤭ꤕꤢꤩ꤭": 509,
      "ꤋꤢꤨ꤭ꤕꤢꤩ꤬ꤒꤢ꤬ꤚꤢꤨ": 510,
      "ꤣꤧ꤭ꤒꤣ꤬ꤖꤚꤢꤩ꤬ꤔꤣꤧ꤬": 511,
      "ꤖꤥ": 512,
      "ꤡꤢꤦ꤭": 513,
      "ꤗꤝꤤ꤭ꤜꤢ꤬": 514,
      "ꤒꤢꤩ꤬ꤞꤤꤋꤚꤢꤦ꤭": 515,
      "ꤢ꤬ꤞꤤꤕꤜꤢꤪ꤬": 516,
      "ꤊꤜꤢꤧ꤭": 517,
      "ꤖꤚꤢꤩ꤬ꤜꤢꤨ꤭ꤒꤢꤧ꤭": 518,
      "ꤒꤢꤩ꤬ꤡꤢꤪ": 519,
      "ꤒꤣꤧ꤬ꤚꤤ꤬": 520,
      "ꤤ꤬ꤞꤝꤢꤤ꤬ꤞ": 521,
      "ꤏꤝꤢ꤬ꤏꤢꤪ꤭": 522,
      "ꤖꤚꤢꤩ꤬ꤜꤢꤨ꤬ꤊꤣꤧ꤬ꤛꤢꤧ꤭": 523,
      "ꤤ꤬ꤞꤝꤢꤤ꤬ꤞꤢꤧ꤬": 524,
      "ꤒꤢꤩ꤬ꤊꤢꤧ꤭": 525,
      "ꤞꤢꤨ꤭": 526,
      "ꤛꤥ꤭ꤟꤢ꤬": 527,
      "ꤕꤜꤥ꤭": 528,
      "ꤔꤢ꤬": 529,
      "ꤚꤢ": 530,
      "ꤕꤣ": 531,
      "ꤓꤢꤧ꤬ꤜꤥ꤭": 532,
      "ꤋꤢꤨ꤭ꤛꤥ꤭ꤟꤢ꤬": 533,
      "ꤒꤢꤩ꤬ꤞꤤꤋꤚꤢꤦ꤭ꤗꤝꤤ꤭ꤜꤢ꤬": 534,
      "ꤖꤚꤢꤧ꤬": 535,
      "ꤟꤢꤧ꤭ꤒ꤫ꤥ꤬": 536,
      "ꤙꤤ": 537,
      "ꤒꤣꤧ꤬ꤠ": 538,
      "ꤡꤢ": 539,
      "ꤢ꤬ꤖꤢꤩ꤭": 540,
      "ꤞꤤꤜꤢꤪ꤭": 541,
      "ꤒꤢꤩ꤬ꤚꤤ꤬": 542,
      "ꤒꤢꤩ꤬ꤚꤤ꤬ꤒꤢꤩ꤬ꤊꤢꤧ꤭": 543,
      "ꤞꤢꤚꤢ": 544,
      "ꤒꤣ꤬ꤗꤢꤩ꤭": 545,
      "ꤓꤢꤦ꤭": 546,
      "ꤘꤣꤧꤒꤢ꤭": 547,
      "ꤥ꤬ꤗ꤫ꤢꤩ꤬": 548,
      "ꤞꤤꤔꤣꤧ꤭": 549,
      "ꤘꤤ": 550,
      "ꤚꤥ꤬": 551,
      "ꤢꤪꤜꤢꤧ꤬": 552,
      "ꤊꤜꤢꤪ꤭": 553,
      "ꤢ꤬ꤗꤝꤤ꤭": 554,
      "ꤟꤢꤧ꤭ꤑꤢꤩ꤭": 555,
      "ꤊꤢꤨ꤬ꤊꤜꤢꤧ꤭": 556,
      "ꤊꤢꤨ꤬ꤊꤜꤢꤪꤊꤢꤨ꤬ꤊꤜꤢꤧ꤭": 557,
      "ꤘꤢꤨ꤬ꤜꤣ": 558,
      "ꤡꤛ": 559,
      "ꤊꤢꤩ꤬ꤟꤢꤩꤚꤣꤧ꤬": 560,
      "ꤕꤛꤢ": 561,
      "ꤘꤢ꤬": 562,
      "ꤖꤚ꤫ꤢꤩ꤬": 563,
      "ꤢ꤬ꤜꤢꤩ꤬": 564,
      "ꤊ꤫ꤢꤩ꤬ꤊꤢꤨ꤭": 565,
      "ꤋꤤ": 566,
      "ꤢꤨ꤬ꤖꤚꤢꤩ꤬": 567,
      "ꤊꤜꤝꤤ꤭": 568,
      "ꤒꤣꤧ꤬ꤡꤢꤨ꤬ꤖꤚꤢꤩ꤬": 569,
      "ꤊꤛꤢ꤭": 570,
      "ꤒꤣ꤬ꤖꤚꤢꤩ꤬ꤔꤣꤧ꤬": 571,
      "ꤙꤢꤩꤗꤢꤨ꤬": 572,
      "ꤗꤥ꤭": 573,
      "ꤘꤢꤪ": 574,
      "ꤘꤢꤪ꤭": 575,
      "ꤒꤢꤩ꤬ꤜꤢꤨ꤭ꤒꤢꤧ꤭": 576,
      "ꤊꤥ": 577,
      "ꤏꤛꤢ꤬ꤜꤢꤩ꤬": 578,
      "꤯’": 579,
      "ꤒꤣꤧ꤬ꤖꤢ꤭": 580,
      "ꤛꤢ꤬ꤚꤢꤨ": 581,
      "ꤥ꤬ꤊꤢꤧ꤭": 582,
      "ꤥ꤬ꤕ꤫ꤢꤪ꤬": 583,
      "ꤛꤢ꤬ꤚꤢꤨꤏꤛꤢ꤬ꤜꤢꤩ꤬": 584,
      "ꤖꤢꤦ꤬": 585,
      "ꤖꤚꤢꤩ꤬ꤗꤢꤩ꤬": 586,
      "ꤔꤢꤪ꤭ꤟꤢꤧ꤭": 587,
      "ꤊꤢꤧ": 588,
      "ꤊꤢꤨꤋꤢꤨ꤬": 589,
      "ꤙꤢ": 590,
      "ꤛ꤫ꤢꤧ꤬ꤛꤥ꤬ꤞꤣꤧ꤭ꤖꤚꤢꤩ꤬": 591,
      "ꤑꤢ꤭": 592,
      "ꤞꤤꤋꤚꤢꤦ꤭": 593,
      "ꤜꤢ꤭ꤒꤢꤩ꤬": 594,
      "ꤊꤜꤢꤪ꤬": 595,
      "ꤒꤤ": 596,
      "ꤞꤤꤤ꤬ꤏꤢꤩ꤭": 597,
      "ꤒꤣꤧ꤬ꤊ": 598,
      "ꤏꤢꤦ꤭": 599,
      "ꤒꤣꤧ꤬ꤊꤜ": 600,
      "ꤠꤤ꤭ꤛꤢ꤬ꤚꤢꤨꤏꤛꤢ꤬ꤜꤢꤩ꤬": 601,
      "ꤒꤣꤧ꤬ꤋꤢꤩ꤭": 602,
      "ꤜꤤ꤬ꤓꤢꤩ꤭": 603,
      "ꤞꤢꤪ꤬ꤖꤢ": 604,
      "ꤞꤥ꤭ꤞꤝꤢ": 605,
      "ꤜꤤ꤬ꤓꤢꤩ꤭ꤞꤢꤪ꤬ꤖꤢ": 606,
      "ꤔꤝꤢ": 607,
      "ꤊꤣꤧ꤭ꤘꤢꤦ꤬": 608,
      "ꤙꤢꤧꤞꤝꤢ": 609,
      "ꤒꤢꤧ꤬": 610,
      "ꤞꤢꤪ꤬ꤊꤜꤣꤧ꤭": 611,
      "ꤠꤢꤩ꤬": 612,
      "ꤖꤢꤩ꤬": 613,
      "ꤜꤢꤪ꤭ꤟꤣꤧ": 614,
      "ꤒ꤫ꤢꤦ꤬": 615,
      "ꤝꤤ꤬": 616,
      "ꤏꤢꤪ": 617,
      "ꤜꤢ": 618,
      "ꤘꤣꤋꤛꤢ꤭": 619,
      "ꤕꤜꤢꤪꤗꤢꤨ꤬": 620,
      "ꤖꤚꤢꤩ꤬ꤛ꤫ꤢꤦ꤬ꤢꤩ꤬ꤒꤢꤩ꤬": 621,
      "ꤘꤤ꤭ꤒ꤫ꤢꤦ꤬": 622,
      "ꤗꤢꤩ꤬ꤜꤣꤧ꤬ꤕꤜꤢꤩꤊꤢ꤬": 623,
      "ꤢ꤬ꤊꤣꤧ꤬ꤛꤢꤧ꤭": 624,
      "ꤢ꤬ꤋꤝꤢ꤬ꤢ꤬ꤋꤛꤢ꤭ꤚꤣꤧ꤬": 625,
      "ꤔ꤫ꤢꤩ꤬ꤊꤜ꤫ꤢꤪ꤬": 626,
      "ꤕꤥ꤬": 627,
      "ꤚꤢꤦ꤭": 628,
      "ꤗꤥ꤬ꤚꤣꤧ": 629,
      "ꤋꤚꤢꤧ": 630,
      "ꤒꤢꤩ꤬ꤗ꤫ꤢ꤬": 631,
      "ꤢ꤬ꤜꤥ꤬": 632,
      "ꤔ꤫ꤢꤧ꤬ꤢꤩ꤬": 633,
      "ꤢ꤬ꤥ꤬": 634,
      "ꤒꤢꤩ꤬ꤖꤚꤥ꤬": 635,
      "ꤒꤣꤧ꤬ꤚꤢꤧ꤭": 636,
      "ꤒꤣꤧ꤬ꤚꤤ꤬ꤒꤣꤧ꤬ꤚꤢꤧ꤭": 637,
      "ꤏꤢꤪ꤭ꤚꤤ꤬": 638,
      "ꤞꤤꤗꤤ꤬": 639,
      "ꤗꤢꤩ꤬ꤒꤢꤩ꤬": 640,
      "ꤢ꤬ꤊꤢꤨ꤭ꤔꤣꤧ꤬": 641,
      "ꤜꤢꤩ꤬": 642,
      "ꤢꤩꤓꤥ꤭": 643,
      "ꤒꤣꤧ꤬ꤚꤣꤧ꤭ꤏꤝꤢ꤬ꤏꤢꤪ꤭": 644,
      "ꤚꤢꤩ꤬": 645,
      "ꤜꤝꤤ꤭": 646,
      "ꤡꤢ꤬": 647,
      "ꤞꤤ꤭ꤔ꤫ꤢꤩ꤬": 648,
      "ꤖꤚꤢꤩ꤬ꤘꤥ꤬ꤔꤢꤧ꤭": 649,
      "ꤒꤣꤧ꤬ꤠꤢ꤬": 650,
      "ꤒꤢꤩ꤬ꤖꤚꤢꤧ꤬": 651,
      "ꤒꤣꤧ꤬ꤜꤝꤢ": 652,
      "ꤔꤝꤢꤓꤢꤧ꤬": 653,
      "ꤖꤥ꤭": 654,
      "ꤢ꤬ꤜꤢ꤭": 655,
      "ꤒꤣ꤬ꤔꤣꤧ꤭": 656,
      "ꤛ꤫ꤢꤦ꤬ꤢꤩ꤬ꤔ꤫ꤢꤧ꤬ꤢꤩ꤬": 657,
      "ꤢ꤬ꤜꤢ꤭ꤢ꤬ꤍ꤫ꤥ꤬": 658,
      "ꤒꤢꤩ꤬ꤖꤚꤥ꤬ꤒꤢꤩ꤬ꤖꤚꤢꤧ꤬": 659,
      "ꤡꤢꤧ꤬": 660,
      "ꤕ꤫ꤢꤩ꤬ꤊꤣꤧ꤭": 661,
      "ꤗꤢꤧꤏꤢꤦ꤭": 662,
      "ꤜꤣꤙꤢ꤭": 663,
      "ꤖꤚꤢꤩ꤬ꤘꤥ꤬ꤔꤢꤧ꤭ꤖꤢꤨ": 664,
      "ꤜꤢꤩ": 665,
      "ꤋꤢꤨ꤭ꤗꤢꤪ": 666,
      "ꤋꤢꤨ꤭ꤗꤢꤪꤎꤢꤧ": 667,
      "ꤔꤥ꤬": 668,
      "ꤗꤤ꤭": 669,
      "ꤜꤢ꤭ꤟꤤꤒꤥ꤬": 670,
      "ꤒꤢꤩ꤬ꤔ꤫ꤢꤧ꤬": 671,
      "ꤢ꤬ꤜ꤫ꤢꤩ꤬ꤥ꤬": 672,
      "ꤒꤣꤧ꤬ꤖꤢ꤭ꤊꤢꤧ꤭": 673,
      "ꤖꤢꤩ": 674,
      "ꤒꤢꤩ꤬ꤞꤤꤛ꤫ꤢꤦ꤬": 675,
      "ꤒꤢꤩ꤬ꤡꤢ꤭": 676,
      "ꤜꤣꤧ꤬ꤟꤥ꤭": 677,
      "ꤒꤣꤧ꤬ꤕꤜꤢꤩ꤬": 678,
      "ꤏꤥ꤬": 679,
      "ꤙꤥ꤭": 680,
      "ꤒꤢꤩ꤬ꤛ꤫ꤢꤦ꤬ꤒꤢꤩ꤬ꤔ꤫ꤢꤧ꤬": 681,
      "ꤒꤢꤩ꤬ꤞꤣꤧ꤭": 682,
      "ꤢ꤬ꤜꤤ꤬": 683,
      "ꤢ꤬ꤙꤚꤢ꤬": 684,
      "ꤡꤢꤓꤢꤧ꤬": 685,
      "ꤢ꤬ꤙꤚꤢ꤬ꤟꤢ꤬": 686,
      "ꤡꤝꤢꤔꤥ꤭": 687,
      "ꤜꤣꤧ꤬ꤏꤢ": 688,
      "ꤢ꤬ꤍ꤫ꤥ꤬ꤜꤣꤧ꤬ꤏꤢ": 689,
      "ꤞꤝꤤ꤬": 690,
      "ꤢ꤬ꤞꤢꤩ꤭": 691,
      "ꤞꤤꤓꤢꤩ꤬": 692,
      "ꤒꤢꤩ꤬ꤡꤢꤦ꤬": 693,
      "ꤖꤢꤨꤖꤚꤢꤩ꤬ꤋꤢꤨ꤭": 694,
      "ꤓꤢꤨ꤬ꤞꤢꤩꤓꤢꤧ꤬": 695,
      "ꤒꤢꤩ꤬ꤡꤢ꤭ꤒꤢꤩ꤬ꤡꤢꤦ꤬": 696,
      "ꤤ꤭ꤒꤢꤩ꤭": 697,
      "ꤢꤩꤜ": 698,
      "ꤒꤢ꤭ꤊꤢꤧ꤭": 699,
      "ꤋꤢꤧꤙꤢꤩ꤬": 700,
      "ꤕꤜꤝꤢ꤭ꤊꤢꤧ꤭": 701,
      "ꤊꤥ꤬": 702,
      "ꤢ꤬ꤟꤤ꤬": 703,
      "ꤒꤢꤩ꤬ꤟꤢꤩꤙꤢꤩ꤬": 704,
      "ꤒꤢꤩ꤬ꤏꤢꤩ꤭": 705,
      "ꤖꤢꤩ꤭ꤢ꤬ꤙꤚꤢ꤬ꤟꤢ꤬": 706,
      "ꤖꤢꤨꤡ꤫ꤢꤩ꤬ꤟꤢꤨ": 707,
      "ꤊꤢꤪ꤭": 708,
      "ꤎꤢ꤬ꤚ": 709,
      "ꤞꤢꤨ": 710,
      "ꤜꤥ꤭ꤔꤢꤩꤗꤢꤨꤗ꤫ꤢꤧ꤬ꤚꤤ꤬ꤡ꤫ꤢꤧ꤬": 711,
      "ꤏꤝꤤ": 712,
      "ꤡꤢꤦ": 713,
      "ꤗ꤫ꤢ꤬ꤒꤥ꤬ꤚꤣꤧ꤬": 714,
      "ꤏꤛꤢꤧ": 715,
      "ꤋꤢꤪ": 716,
      "ꤙꤣꤧꤒꤢꤩ꤭": 717,
      "ꤖꤚꤢꤩ꤬ꤗꤢꤩ꤬ꤒꤢꤩ꤬ꤖꤢꤨ": 718,
      "ꤛꤢꤨ꤭": 719,
      "꤮꤯”": 720,
      "ꤢ꤬ꤡꤢꤪ": 721,
      "ꤓꤢꤩ": 722,
      "ꤒꤢꤩ꤬ꤒꤣꤧ꤬ꤔꤢꤩ꤬": 723,
      "ꤒꤣꤧ꤬ꤊꤜꤤ": 724,
      "ꤔꤢꤨ꤬": 725,
      "ꤗꤢꤩ꤬ꤞꤢꤦ": 726,
      "ꤟꤢꤩ꤬ꤋꤢꤨ꤬ꤖꤢꤨ": 727,
      "ꤕꤣꤧ꤬ꤒꤤ": 728,
      "ꤢ꤬ꤙꤝꤤ": 729,
      "ꤏꤢꤩ꤬ꤢꤩ꤬": 730,
      ",’": 731,
      "ꤒꤢꤦ꤭": 732,
      "ꤖꤢ꤬ꤚꤤ꤬": 733,
      "ꤓꤢꤩ꤬ꤊꤢꤧ꤭": 734,
      "ꤒꤣꤧ꤬ꤊꤤ꤬": 735,
      "ꤏꤛꤢꤧꤖꤢꤨ": 736,
      "ꤖꤢ꤬ꤚꤤ꤬ꤏꤛꤢꤧꤖꤢꤨ": 737,
      "ꤟꤥ꤭ꤊꤢꤨ꤭": 738,
      "ꤋꤚꤝꤢ꤭ꤗꤢꤩ꤬": 739,
      "ꤒꤢꤩ꤬ꤥ꤬": 740,
      "ꤊꤣꤧ꤬ꤘꤢ꤭": 741,
      "ꤋꤥ꤭ꤙꤢꤧꤞꤝꤢ": 742,
      "ꤞꤤꤋꤚꤢꤦ꤭ꤞꤤꤜꤢꤪ꤭": 743,
      "ꤏꤢ꤭": 744,
      "ꤢ꤬ꤒꤥ꤭": 745,
      "ꤕꤝ": 746,
      "ꤖꤚꤤ꤬": 747,
      "ꤛꤢꤨꤘꤢ꤬": 748,
      "ꤜꤥ꤭ꤔꤢ꤬": 749,
      "ꤜꤥ꤭ꤔꤢꤩꤜꤥ꤭ꤔꤢ꤬": 750,
      "ꤕꤝꤢꤩ꤬": 751,
      "ꤥ꤬ꤜꤥ꤭": 752,
      "ꤙꤣꤧꤣꤧ꤭": 753,
      "ꤢ꤬ꤜꤣꤧ꤬": 754,
      "ꤋꤛꤢ": 755,
      "ꤏꤢꤦ": 756,
      "ꤢ꤬ꤗ꤫ꤥ꤬": 757,
      "ꤒꤣ꤬ꤊꤛꤢ꤭": 758,
      "ꤘꤢꤧ꤬ꤛ꤫ꤢꤦ꤬": 759,
      "ꤓꤢꤩ꤬ꤡꤝꤢꤊꤢꤧ꤭": 760,
      "ꤜꤤ꤬ꤓꤢꤩ꤭ꤞꤢꤪ꤬ꤖꤢꤊꤢꤨ꤭": 761,
      "ꤒꤢꤩ꤬ꤗ꤫ꤢ꤬ꤒꤢꤩ꤬ꤡꤢꤪ": 762,
      "ꤑꤢ": 763,
      "ꤔꤣꤧ꤬ꤟꤣꤧ": 764,
      "ꤊꤝꤤ꤭ꤞꤤꤛꤢꤪ꤬": 765,
      "ꤗꤢꤨ꤭": 766,
      "ꤊꤜꤢꤧ꤬": 767,
      "ꤛꤢꤦ": 768,
      "ꤡꤢꤨ꤭": 769,
      "ꤢ꤬ꤕꤥ꤬": 770,
      "ꤞꤤꤑꤢꤩ꤭ꤕꤜꤥ꤭": 771,
      "ꤏꤣꤧꤋꤢꤩ꤭": 772,
      "ꤊꤜꤣꤧ꤭ꤟꤢꤨ": 773,
      "ꤋꤢꤪꤗꤢꤨ꤭": 774,
      "ꤓꤢꤦ꤬": 775,
      "ꤒꤣ꤬ꤗꤢꤦ꤭": 776,
      "ꤗꤢ꤬ꤚꤤ": 777,
      "ꤘꤢꤨ꤬ꤛ꤫ꤢꤧ꤬": 778,
      "ꤥ꤬ꤔꤢꤧ꤭ꤥ꤬": 779,
      "ꤒꤢꤩ꤬ꤜꤢꤨ꤭ꤒꤢꤧ꤭ꤟꤥ꤭": 780,
      "ꤒꤤ꤬": 781,
      "ꤙꤢꤪ": 782,
      "ꤢ꤬ꤒꤢꤩ꤬ꤗꤢꤩ꤬": 783,
      "ꤔꤣꤧ꤬ꤚꤣꤧ꤬": 784,
      "ꤖꤚꤢ꤬": 785,
      "ꤡꤢꤪ꤭": 786,
      "ꤋꤚꤢꤩ": 787,
      "ꤟꤤ꤬ꤓꤢꤦ꤬": 788,
      "ꤔꤣꤧ꤬ꤖꤢꤧ": 789,
      "ꤤ꤬ꤎꤢ꤬ꤚ": 790,
      "ꤖꤚꤢꤩ꤬ꤛ꤫ꤢꤦ꤬ꤢꤩ꤬ꤒꤢꤩ꤬ꤖꤢꤨ": 791,
      "ꤋꤛꤢꤛꤢꤦ": 792,
      "ꤋꤥ꤬": 793,
      "ꤜꤢꤦ꤬": 794,
      "ꤡ꤫ꤢꤦ꤬": 795,
      "ꤥ꤬ꤒ꤫ꤣ꤬ꤊꤣꤧ꤭": 796,
      "ꤞꤤ꤭ꤊꤜꤢꤩ꤭": 797,
      "ꤋꤢꤨ꤭ꤡꤛ": 798,
      "ꤋꤥꤒꤣꤧ꤬ꤊꤜꤤ": 799,
      "ꤖꤢꤧ꤬": 800,
      "ꤢ꤬ꤒꤣꤧ꤬ꤚꤣꤧ꤭": 801,
      "ꤒꤢꤩ꤬ꤡꤢꤪꤙꤢꤩ꤭": 802,
      "ꤠꤢꤧ꤭ꤖꤢꤩ꤭": 803,
      "ꤢꤩꤜꤢ꤬": 804,
      "ꤢ꤬ꤓꤣꤧ꤭": 805,
      "ꤒꤣꤧ꤬ꤕꤢ꤬": 806,
      "ꤗꤢꤩ꤬ꤡꤢꤦ꤬": 807,
      "ꤟꤢꤧ꤭ꤜꤢꤧ꤬": 808,
      "ꤡꤝꤢꤒ꤫ꤥ꤬": 809,
      "ꤡꤢ꤭ꤗꤢꤩ꤬ꤡꤢꤦ꤬": 810,
      "ꤊꤣ": 811,
      "ꤞꤤꤔ꤫ꤢꤩ꤬": 812,
      "ꤕꤢ꤬ꤒꤥ꤬": 813,
      "ꤢꤩꤓꤢꤧ꤬": 814,
      "ꤢ꤬ꤗ꤫ꤢꤪ꤬ꤔꤣꤧ꤭": 815,
      "ꤊꤢꤧ꤭ꤏꤢ": 816,
      "ꤖꤢꤧꤒꤢꤦ": 817,
      "ꤢꤩꤜꤥ꤬": 818,
      "ꤟꤢꤨꤔꤣꤧ꤬ꤟꤣꤧ": 819,
      "ꤙꤣꤧꤔꤣꤧ꤬ꤢ꤬ꤋꤢꤩ꤭": 820,
      "ꤤ꤭ꤒꤢꤩ꤭ꤒꤢꤩ꤭": 821,
      "ꤊꤢꤦ꤭": 822,
      "ꤋꤢ": 823,
      "ꤟꤥ꤬": 824,
      "ꤡꤢꤨ": 825,
      "ꤢ꤬ꤔ꤫ꤤ꤬": 826,
      "ꤥ꤬ꤊꤥ": 827,
      "ꤒꤢꤩ꤬ꤜꤤ꤭": 828,
      "ꤟꤢꤩꤒꤣꤧ꤬ꤚꤣꤧ꤭": 829,
      "ꤟꤢꤩꤙꤝꤤ": 830,
      "ꤘꤢꤦ꤬ꤟꤣꤧ": 831,
      "ꤒꤣꤧ꤬ꤟꤢꤩ꤬ꤟꤢꤩ꤬ꤔꤣꤧ꤬": 832,
      "ꤟꤢꤩꤙꤝꤤꤟꤢꤩꤒꤣꤧ꤬ꤚꤣꤧ꤭": 833,
      "ꤓꤢꤪ": 834,
      "ꤕꤤ": 835,
      "ꤋꤢꤨ꤭ꤎ": 836,
      "ꤢ꤬ꤚ꤫ꤣꤧ꤬": 837,
      "ꤏꤛꤤ": 838,
      "ꤘꤤꤊꤢꤩ꤬": 839,
      "ꤑꤢꤔꤢꤨ꤬": 840,
      "ꤟꤤ꤬ꤓꤢꤦ꤬ꤘꤤꤊꤢꤩ꤬": 841,
      "ꤢꤩꤗꤥ꤬": 842,
      "ꤢ꤬ꤊꤜꤝꤤ꤭": 843,
      "ꤒꤢꤩ꤬ꤏꤢꤪ꤭ꤚꤤ꤬": 844,
      "ꤋꤝꤤꤘꤢꤨ꤬": 845,
      "ꤥ꤬ꤜꤥ꤭ꤓꤢꤧ꤬": 846,
      "ꤢꤧꤡꤢꤦ": 847,
      "ꤥ꤬ꤕꤜꤢꤪ": 848,
      "ꤤ꤬ꤏꤢꤪ": 849,
      "ꤘꤢꤧ꤬ꤔ꤫ꤢꤧ꤬": 850,
      "ꤜ꤫ꤢꤩ꤬ꤊꤜꤥ꤭": 851,
      "ꤋꤢꤧꤘꤥ꤬": 852,
      "ꤘꤢꤧ꤬ꤛ꤫ꤢꤦ꤬ꤘꤢꤧ꤬ꤔ꤫ꤢꤧ꤬": 853,
      "ꤡꤢꤨ꤭ꤢꤩ꤬": 854,
      "ꤛ꤫ꤢꤨ꤬": 855,
      "ꤠꤤ꤬": 856,
      "ꤢ꤬ꤗꤢꤩ꤭": 857,
      "ꤥ꤬ꤊꤣꤧ꤭": 858,
      "ꤥ꤬ꤗꤣꤧ꤭": 859,
      "ꤛꤢ꤭ꤊꤢꤨ꤭": 860,
      "ꤟꤢꤧ꤭ꤔꤥ꤭": 861,
      "ꤕꤜꤢꤨ꤬": 862,
      "ꤠꤤ꤭ꤊꤢꤧ꤭": 863,
      "ꤊꤢꤨꤛꤢ꤭ꤊꤢꤨ꤭": 864,
      "ꤟꤢꤩ꤬ꤋꤢꤨ꤬ꤣꤧ꤭": 865,
      "ꤖꤢꤧ꤭": 866,
      "ꤡꤢꤪꤡꤢꤪ": 867,
      "ꤓꤢꤧ꤬ꤞꤢꤩ꤭": 868,
      "ꤕ꤫ꤢꤩ꤬ꤟꤣꤧ": 869,
      "ꤢ꤬ꤕꤥ꤬ꤊꤢꤨ꤭": 870,
      "ꤏꤢꤨ꤬": 871,
      "ꤏꤤ꤭": 872,
      "ꤔꤢꤩ": 873,
      "ꤕ꤫ꤢꤧ꤬": 874,
      "ꤗꤢꤦ꤬": 875,
      "ꤡꤢꤩ꤭": 876,
      "ꤣꤧ꤭ꤒꤣ꤬ꤖꤥ": 877,
      "ꤒꤢꤩ꤬ꤥ꤬ꤞꤣꤧ꤭ꤖꤚꤢꤩ꤬": 878,
      "ꤔꤢꤪ꤭ꤡꤝꤢ": 879,
      "ꤋꤛꤢ꤭ꤜꤢꤨ꤭": 880,
      "ꤗꤤ꤭ꤡꤣ꤬": 881,
      "ꤘꤢꤨ꤬ꤛ꤫ꤢꤧ꤬ꤓꤢꤧ꤬ꤞꤢꤩ꤭": 882,
      "ꤏꤛꤤꤗꤥ꤬": 883,
      "ꤜꤢ꤬ꤜꤤ꤬": 884,
      "ꤠꤢ": 885,
      "ꤢꤩꤟꤢꤧ꤭": 886,
      "ꤢ꤬ꤊꤢꤨꤋꤢꤨ꤬": 887,
      "ꤒꤣ꤬ꤙꤢꤩ꤬": 888,
      "ꤋꤚꤤꤖꤢꤨ": 889,
      "ꤊꤢꤧꤜꤢ꤬ꤜꤤ꤬": 890,
      "ꤡꤢꤪꤖꤢꤧ꤬": 891,
      "ꤋꤢꤨ꤭ꤏꤛꤤꤗꤥ꤬": 892,
      "ꤢ꤬ꤑꤢꤩ꤭ꤔꤣꤧ꤬ꤚꤣꤧ꤬": 893,
      "ꤣꤧ꤭ꤒꤣ꤬ꤖꤥꤚꤣꤧ꤬": 894,
      "ꤊ꤫ꤢꤨ꤬": 895,
      "ꤔꤣꤧ꤭ꤔꤣꤧ꤬": 896,
      "ꤘꤢꤩ꤭": 897,
      "ꤚꤢꤪ꤬": 898,
      "ꤝ꤫ꤢ꤬": 899,
      "ꤒꤢꤩ꤬ꤒꤣꤧ꤬ꤚꤣꤧ꤭": 900,
      "ꤖꤚꤢꤧ꤭": 901,
      "ꤣꤧ꤭ꤔꤣꤧ꤬ꤒꤣꤧ꤬ꤟꤢꤩ꤬": 902,
      "ꤖꤚꤢꤩ꤬ꤛ꤫ꤢꤦ꤬ꤢꤩ꤬ꤒꤢꤩ꤬ꤕꤜꤢꤪꤗꤢꤨ꤬": 903,
      "ꤢ꤬ꤊꤜꤝꤤ꤭ꤢ꤬ꤜ": 904,
      "ꤟꤢ꤭": 905,
      "ꤒꤢꤩ꤬ꤚꤢꤧ": 906,
      "ꤗꤢꤩ꤬ꤡꤢ꤭ꤗꤢꤩ꤬ꤡꤢꤦ꤬": 907,
      "ꤒ꤫ꤥ꤬ꤘꤣ": 908,
      "ꤕꤜꤤ꤭ꤖꤥ": 909,
      "ꤊꤣꤧ꤬ꤓꤢꤪ꤬ꤥ꤬": 910,
      "ꤞꤢꤨ꤭ꤡꤝꤢ": 911,
      "ꤞꤢꤪ꤬ꤊꤜꤣꤧ꤭ꤘꤢꤨ꤬": 912,
      "ꤞꤥ꤬": 913,
      "ꤟꤢꤩꤗꤥ꤬": 914,
      "ꤟꤢꤩꤚꤢꤧ": 915,
      "ꤋꤢꤧꤟꤢꤩꤏꤥ꤬ꤜꤥ꤭": 916,
      "ꤗꤢꤪꤋꤢꤨ꤬ꤒꤣꤧ꤬ꤔꤢꤩꤖꤢꤨ": 917,
      "ꤢꤩꤜꤢ꤬ꤖꤢꤨ": 918,
      "ꤤ꤬ꤎꤢ꤬ꤚꤢꤩꤜꤢ꤬ꤖꤢꤨ": 919,
      "ꤟꤢꤩꤗꤥ꤬ꤟꤢꤩꤚꤢꤧ": 920,
      "ꤒꤢꤨ": 921,
      "ꤢ꤬ꤕꤣꤧꤞꤢꤩ꤬ꤑꤢꤩ꤭": 922,
      "ꤞꤤꤖꤚ": 923,
      "ꤕꤤꤜꤢ": 924,
      "ꤢ꤬ꤞꤢꤚꤢ": 925,
      "ꤢ꤬ꤔ꤫ꤢꤩ꤬ꤊꤜ꤫ꤢꤪ꤬": 926,
      "ꤊꤢꤨꤔ꤫ꤢꤧ꤬ꤚꤣꤧ꤬": 927,
      "ꤙꤥ꤬": 928,
      "ꤤ꤬ꤒꤢꤩ꤭": 929,
      "ꤗꤢꤩ꤬ꤟꤢꤨꤔꤣꤧ꤬": 930,
      "ꤞꤢꤧꤡꤣꤧ": 931,
      "ꤞꤣꤧ꤭ꤊꤢꤧ꤭": 932,
      "ꤠꤤ꤭ꤊꤢꤨ꤭": 933,
      "ꤛ꤫ꤢꤧ꤬ꤥ꤬ꤗ꤫ꤢꤩ꤬": 934,
      "ꤢ꤬ꤜ꤫ꤢꤩ꤬ꤊꤜꤥ꤭": 935,
      "ꤒꤣꤧ꤬ꤜꤤ": 936,
      "ꤘꤢ꤬ꤠꤤ꤬": 937,
      "ꤢ꤬ꤙꤝꤤꤢ꤬ꤒꤣꤧ꤬ꤚꤣꤧ꤭": 938,
      "ꤋꤝꤢ": 939,
      "ꤎꤣ꤬": 940,
      "ꤏꤣꤧ꤭": 941,
      "ꤙꤢꤨ꤭": 942,
      "ꤠ꤫ꤢꤩ꤬": 943,
      "ꤒꤢꤩ꤬ꤒꤢꤩ꤬": 944,
      "ꤒꤢꤩ꤬ꤣꤧ꤭ꤒꤣꤧ꤬ꤟꤢꤩ꤬": 945,
      "ꤗꤢꤩ꤬ꤟꤢꤨꤔꤣꤧ꤬ꤚꤣꤧ꤬": 946,
      "ꤡꤢꤪꤙꤢꤩ꤭ꤓꤢꤧ꤬": 947,
      "ꤋꤝꤤꤕꤤꤜꤢ": 948,
      "ꤎꤢ꤬ꤕ": 949,
      "ꤊꤢꤩ꤭": 950,
      "ꤊꤢꤪ꤬": 951,
      "ꤒꤣꤧ꤬ꤊꤢꤩ꤬": 952,
      "ꤞꤤꤕꤜꤢꤪ꤬ꤊꤢꤨ꤭": 953,
      "ꤘꤢꤧ꤬ꤓꤢꤧ꤬": 954,
      "ꤒꤢꤩ꤬ꤞꤢꤦꤒꤢꤩ꤬ꤥ꤬": 955,
      "ꤍꤢꤧ꤭": 956,
      "ꤙꤢꤨ꤬": 957,
      "ꤟꤢꤩꤗꤢ꤬": 958,
      "ꤠꤢꤧ꤭ꤣꤧ꤭": 959,
      "ꤢ꤬ꤊꤜꤝꤤ꤭ꤢ꤬ꤜꤢꤧ꤭": 960,
      "ꤓꤝꤢ": 961,
      "ꤛꤤ": 962,
      "ꤒꤣꤧ꤬ꤗꤥ꤭": 963,
      "ꤟꤢꤩ꤬ꤚꤥ꤬": 964,
      "ꤒꤣ꤬ꤗꤢꤨ꤬": 965,
      "ꤒꤣ꤬ꤘꤥ꤭": 966,
      "ꤔꤢꤧ꤬ꤔ꤫ꤢꤩ꤬": 967,
      "ꤘꤣꤧꤜꤢꤧ꤬": 968,
      "ꤞꤤꤕꤜꤢꤪ꤬ꤘꤢꤨ꤬": 969,
      "ꤒꤢꤦꤖꤢꤧ": 970,
      "ꤏꤥ꤭ꤚꤢꤧ꤬": 971,
      "ꤥ꤬ꤗꤢꤦ": 972,
      "ꤎꤢ꤬ꤕꤛꤤ": 973,
      "ꤢ꤬ꤊꤢꤨ": 974,
      "ꤒꤢꤩ꤬ꤖꤛꤢ": 975,
      "ꤒꤢꤩ꤬ꤤ꤬ꤞꤝꤢꤤ꤬ꤞꤢꤧ꤬": 976,
      "ꤒꤥ꤬ꤒꤥ꤬": 977,
      "ꤣꤧ꤭ꤒꤣ꤬ꤙꤢ꤬": 978,
      "ꤕꤛꤢꤊꤢꤧ꤭": 979,
      "ꤍꤢꤨ꤬": 980,
      "ꤕꤢꤪ꤬": 981,
      "ꤟꤣꤧ꤬": 982,
      "ꤖꤚꤢꤩ꤬ꤤ꤬ꤞꤝꤢ": 983,
      "ꤒꤣ꤬ꤠꤤ꤭": 984,
      "ꤡꤝꤢꤞꤢꤦ": 985,
      "ꤔꤢꤪ꤭ꤢꤩ꤬": 986,
      "ꤏꤥ꤭ꤖꤢ": 987,
      "ꤢ꤬ꤓꤣꤧ꤭ꤢ꤬": 988,
      "ꤕꤥ": 989,
      "ꤥ꤬ꤊꤜꤢꤪ꤬": 990,
      "ꤒꤢꤩ꤬ꤗꤢꤨꤗ꤫ꤢꤧ꤬ꤚꤤ꤬ꤡ꤫ꤢꤧ꤬": 991,
      "ꤢ꤬ꤋꤚ": 992,
      "ꤊꤣꤧ꤬ꤛꤢꤧ꤭ꤖꤢꤩ꤭": 993,
      "ꤊꤣꤧ꤭ꤜꤢ꤭ꤒꤢꤩ꤬": 994,
      "ꤞꤤꤕꤜꤢꤪ꤬ꤏꤝꤢ꤬": 995,
      "ꤒꤣ꤬ꤡꤣ꤬ꤡꤢꤦ꤭": 996,
      "ꤢ꤬ꤖꤢꤩ꤭ꤗꤢ꤬": 997,
      "ꤒꤝ꤫ꤢ꤬": 998,
      "ꤔꤢꤩ꤬": 999,
      "ꤙꤢꤧ꤭": 1000,
      "ꤜꤥ": 1001,
      "ꤢ꤬ꤊꤢꤨ꤬ꤊꤜꤢꤪ": 1002,
      "ꤟꤢꤩꤒ꤫ꤥ꤬": 1003,
      "ꤗ꤫ꤢ꤬ꤊꤢꤧ꤭": 1004,
      "ꤒꤣꤧ꤬ꤚꤢꤩ꤭": 1005,
      "ꤘꤢꤧ꤬ꤘꤢꤨ꤬": 1006,
      "ꤕ꤫ꤢꤦ꤬ꤗꤢ꤬": 1007,
      "ꤚ꤫ꤣꤧ꤬ꤜꤣ": 1008,
      "ꤢꤩꤗꤥ꤬ꤏꤢꤦ꤬": 1009,
      "ꤒꤢꤩ꤬ꤞꤢꤦꤒꤢꤩ꤬ꤥ꤬ꤚꤢ꤬": 1010,
      "ꤒꤢꤩ꤬ꤖꤛꤢꤒꤢꤩ꤬ꤗꤢꤩ꤬": 1011,
      "ꤋꤝ": 1012,
      "ꤖꤤ": 1013,
      "ꤢ꤬ꤕ꤫ꤥ꤬": 1014,
      "ꤞꤤ꤭ꤑꤢꤩ꤭": 1015,
      "ꤟꤢꤩꤥ꤬ꤔꤢꤩ꤬": 1016,
      "ꤢ꤬ꤋꤢꤨ꤬": 1017,
      "ꤜꤣꤧ꤬ꤒꤢ꤭": 1018,
      "ꤗ꤫ꤥ꤬ꤖꤚ꤫ꤢꤩ꤬": 1019,
      "ꤚꤢꤨ": 1020,
      "ꤢ꤬ꤗꤢꤨ꤬": 1021,
      "ꤗꤢꤧꤗꤣꤧ꤭": 1022,
      "ꤒꤢꤩ꤬ꤗꤢꤩ꤬ꤜꤣꤧ꤬ꤕꤜꤢꤩꤊꤢ꤬": 1023,
      "ꤡꤝꤤ꤬": 1024,
      "ꤟꤢꤧ꤭ꤒ꤫ꤥ꤬ꤟꤣꤧ": 1025,
      "ꤟꤤ꤬ꤓꤢꤦ꤬ꤘꤤꤊꤢꤩ꤬ꤜꤥ꤬": 1026,
      "ꤞꤢꤧꤡꤣꤧꤔꤢꤧ": 1027,
      "ꤗꤢꤧ꤬": 1028,
      "ꤟꤢꤧ꤬": 1029,
      "ꤣꤧ꤭ꤗꤢ꤬": 1030,
      "ꤒꤣ꤬ꤙꤢ꤬": 1031,
      "ꤊꤜꤢꤩ": 1032,
      "ꤘꤢꤨ꤬ꤓꤢꤧ꤬": 1033,
      "ꤘꤢꤦꤒꤣꤧ꤬ꤜꤤ": 1034,
      "ꤢꤩꤓꤥ꤭ꤓꤢꤧ꤬": 1035,
      "ꤗꤢꤧꤡꤢꤧ꤬": 1036,
      "ꤒꤢ꤭ꤒꤢꤦ꤭": 1037,
      "ꤗꤢꤦ꤭ꤞꤣꤧ꤭": 1038,
      "ꤕꤜꤢꤪꤗꤢꤨ꤬ꤖꤢꤨ": 1039,
      "!”": 1040,
      "ꤖꤣꤧ꤭": 1041,
      "ꤒꤢꤩ꤬ꤘꤣꤧꤡꤢ꤭": 1042,
      "ꤟꤢꤧ꤭ꤘꤣꤧ": 1043,
      "ꤕꤜꤢ": 1044,
      "ꤣꤧ꤭ꤔꤣꤧ꤬ꤟꤣꤧ": 1045,
      "ꤘꤢꤧ꤬ꤡꤢꤪ": 1046,
      "ꤔꤢꤪ꤭ꤗꤢꤩ꤬": 1047,
      "ꤚꤢ꤭ꤡꤝꤢ": 1048,
      "ꤏꤢꤧ꤬": 1049,
      "ꤙꤥ": 1050,
      "ꤞꤢ꤬": 1051,
      "ꤢ꤬ꤒꤢꤩ꤬ꤞꤢꤦ": 1052,
      "ꤒꤢꤩ꤬ꤗ꤫ꤢꤧ꤬": 1053,
      "ꤒꤢꤩ꤬ꤗꤤ꤬": 1054,
      "ꤞꤤ꤭ꤒꤣꤧ꤬ꤟꤢꤩ꤬": 1055,
      "ꤠꤢꤧ꤭ꤔ꤫ꤢꤩ꤬": 1056,
      "ꤜꤢꤨ꤭ꤓꤢꤧ꤬": 1057,
      "ꤢ꤬ꤜꤢꤩ꤭": 1058,
      "ꤊꤢꤨ꤬ꤊꤜꤢꤪꤘꤢꤨ꤬ꤜꤣ": 1059,
      "ꤋꤚꤝꤢ꤭ꤊꤣꤧ꤭": 1060,
      "ꤥ꤬ꤗ꤫ꤢꤩ꤬ꤊꤢꤧ꤭": 1061,
      "ꤘꤢꤧ꤬ꤡꤢꤪꤘꤢꤧ꤬": 1062,
      "ꤒꤢꤩ꤬ꤗꤤ꤬ꤒꤢꤩ꤬ꤗ꤫ꤢꤧ꤬": 1063,
      "ꤔꤤ꤬": 1064,
      "ꤘꤢꤦ꤭": 1065,
      "ꤥꤗꤢꤩ꤬": 1066,
      "ꤢꤩꤔꤢꤧ꤬ꤡꤣꤧ": 1067,
      "ꤢꤩꤕꤜꤢꤩ": 1068,
      "ꤢ꤬ꤏꤣꤧ": 1069,
      "ꤥ꤬ꤒꤥ꤬": 1070,
      "ꤒꤢꤩ꤬ꤗꤥ꤬": 1071,
      "ꤞꤢꤧꤊꤣꤧ꤭": 1072,
      "ꤗ꤫ꤢ꤬ꤘꤢꤦ꤬": 1073,
      "ꤕꤢ꤬ꤖꤢꤧ": 1074,
      "ꤞꤣꤧ꤭ꤖꤚꤢꤩ꤬ꤊꤣꤧ꤬ꤓꤢꤪ꤬": 1075,
      "ꤙꤣꤧꤔꤣꤧ꤬ꤋꤢꤩ꤭": 1076,
      "ꤋꤝꤤꤟꤢꤩ꤬ꤚꤥ꤬": 1077,
      "ꤢ꤬ꤙꤢ": 1078,
      "ꤘꤢꤧ꤬ꤡꤢꤪꤘꤢꤧ꤬ꤒꤢꤩ꤬": 1079,
      "ꤎꤤ꤬": 1080,
      "ꤟꤢꤧ꤭ꤔ꤫ꤤ꤬": 1081,
      "ꤞꤤꤕꤜꤢꤪ꤬ꤓꤢꤨ꤭": 1082,
      "ꤒꤢꤩ꤬ꤡꤢꤪꤒꤢꤩ꤬ꤒꤢꤩ꤬": 1083,
      "ꤒꤢꤩ꤬ꤞꤤꤛ꤫ꤢꤦ꤬ꤞꤤꤜꤢꤪ꤭": 1084,
      "ꤒꤢꤩ꤬ꤕꤝꤢ꤭": 1085,
      "ꤒꤣ꤬ꤔꤣꤧ꤭ꤔꤣꤧ꤬": 1086,
      "ꤟꤢꤩꤜꤥ꤭": 1087,
      "ꤕꤜꤢꤩ꤭": 1088,
      "ꤙꤢꤧꤜꤢꤧ꤬": 1089,
      "ꤗꤢꤩ꤬ꤞꤣꤧ꤭ꤊꤢꤧ꤭": 1090,
      "ꤚ꤫ꤥ꤬ꤜꤢꤨ꤭": 1091,
      "ꤠ꤫ꤢꤩ꤬ꤓꤢꤩ꤬ꤊꤢꤧ꤭": 1092,
      "ꤏꤥ꤭ꤖꤢꤏꤥ꤭ꤚꤢꤧ꤬": 1093,
      "ꤗꤢꤦ꤭ꤞꤣꤧ꤭ꤓꤢꤧ꤬": 1094,
      "ꤞꤢꤨ꤬": 1095,
      "ꤥ꤬ꤓꤢꤧ꤬": 1096,
      "ꤞꤤꤘꤥ꤭": 1097,
      "ꤞꤤꤒꤣꤧ꤬ꤚꤢꤩ꤭": 1098,
      "ꤟꤢꤩꤡꤢꤪꤡꤢꤪ": 1099,
      "ꤕꤢ꤭ꤗꤢ꤬": 1100,
      "ꤡꤣꤧꤟꤣꤧ": 1101,
      "ꤗꤢꤪꤜꤢꤩ꤭": 1102,
      "ꤖꤢꤨꤡ꤫ꤢꤩ꤬ꤜꤢꤧ꤬": 1103,
      "ꤋꤚꤝꤢ꤭ꤡꤝꤢ": 1104,
      "ꤊꤜꤢꤪ꤬ꤗꤢ꤬": 1105,
      "ꤍꤢꤨ꤬ꤘꤢꤨ꤬": 1106,
      "ꤊ꤫ꤥ꤬": 1107,
      "ꤔꤥ꤬ꤗꤢꤦ": 1108,
      "ꤜ꤫ꤢ꤬": 1109,
      "ꤒꤣꤧ꤬ꤠꤤ꤭": 1110,
      "ꤕꤢꤩ꤬ꤑꤢꤩ꤭": 1111,
      "ꤡꤝꤢꤥ꤬": 1112,
      "ꤓꤣꤧ꤭ꤘꤢꤨ꤬": 1113,
      "ꤒꤣ꤬ꤖꤥꤒꤥ꤬": 1114,
      "ꤢ꤬ꤊꤜꤢꤩ꤭ꤔꤣꤧ꤬": 1115,
      "ꤏꤢ꤭ꤛ꤫ꤢꤨ꤬": 1116,
      "ꤋꤢꤧꤟꤢꤩꤏꤥ꤬ꤜꤥ꤭ꤒꤢꤩ꤬": 1117,
      "ꤕꤝꤤ": 1118,
      "ꤙꤛꤢ꤬": 1119,
      "ꤚꤥꤗꤢꤩ꤬": 1120,
      "ꤛꤢꤧ꤬": 1121,
      "ꤒꤣꤧ꤬ꤛ": 1122,
      "ꤒꤣ꤬ꤡꤣ꤬ꤡꤣ꤬": 1123,
      "ꤒꤢꤧ꤬ꤜꤢ꤭ꤟꤤ": 1124,
      "ꤞꤤꤔ꤫ꤢꤩ꤬ꤓꤢꤧ꤬": 1125,
      "ꤋꤢꤋꤥ꤬": 1126,
      "ꤜꤢꤧ꤭": 1127,
      "ꤡ꤫ꤣꤧ꤬": 1128,
      "ꤒꤢꤩ꤬ꤘꤣ": 1129,
      "ꤖꤚꤣꤧ꤭": 1130,
      "ꤗꤢꤩ꤬ꤚꤢꤧ": 1131,
      "ꤊꤢꤨ꤬ꤊꤜꤢꤧ": 1132,
      "ꤗ꤫ꤢꤪ꤬ꤟꤢꤩ": 1133,
      "ꤕꤣꤧ꤬ꤢ": 1134,
      "ꤕꤣꤧ꤬ꤡ꤫ꤣꤧ꤬": 1135,
      "ꤏꤢꤪꤗꤢ꤬": 1136,
      "ꤥ꤬ꤊꤜꤢꤪ꤬ꤏꤢꤪꤗꤢ꤬": 1137,
      "ꤚ꤫ꤢꤩ꤬": 1138,
      "ꤟꤢꤪ": 1139,
      "ꤢꤩꤖꤚꤢꤩ꤬": 1140,
      "ꤢ꤬ꤙꤢꤧ꤬ꤡꤢꤩ꤬": 1141,
      "ꤕꤜꤤ꤬": 1142,
      "ꤜꤣꤧ꤬ꤞꤢꤩ": 1143,
      "ꤓꤣꤧ꤭ꤜ꤫ꤢꤩ꤬": 1144,
      "ꤙꤢꤦ꤭": 1145,
      "ꤡꤝꤢꤒꤣꤧ꤬ꤜꤝꤢ": 1146,
      "ꤋꤢꤨ꤭ꤛꤢꤨꤘꤢ꤬": 1147,
      "ꤕꤜꤢꤦ": 1148,
      "ꤊꤢ꤬ꤋꤛꤢ꤭ꤏꤢꤦ꤬": 1149,
      "ꤔꤣꤧ꤬ꤒꤣ꤬ꤘꤥ꤭": 1150,
      "ꤞꤤꤗꤤ꤬ꤖꤢꤨ": 1151,
      "ꤓꤣꤧ꤭ꤜ꤫ꤢꤩ꤬ꤊ꤫ꤢꤩ꤬ꤊꤢꤨ꤭": 1152,
      "ꤒ꤫ꤢꤪ꤬": 1153,
      "ꤢ꤬ꤘꤢꤨ꤬": 1154,
      "ꤢ꤬ꤞꤝꤤ꤬": 1155,
      "ꤒꤢꤩ꤬ꤕ꤫ꤢꤧ꤬": 1156,
      "ꤒꤣ꤬ꤊ꤫ꤢꤩ꤬": 1157,
      "ꤗꤢꤩ꤬ꤙꤢꤩ꤬": 1158,
      "ꤋꤢꤨ꤭ꤙꤢ꤬": 1159,
      "ꤘꤣꤧꤟꤢꤧ꤭ꤘꤣꤧ": 1160,
      "ꤞꤤꤕꤜꤢꤪ꤬ꤥ꤬": 1161,
      "ꤓꤣꤧ꤭ꤊ꤫ꤢꤩ꤬": 1162,
      "ꤋꤢꤧꤞꤤꤕꤜꤢꤪ꤬ꤓꤢꤨ꤭": 1163,
      "ꤙꤢ꤭ꤓꤢꤧ꤬": 1164,
      "ꤒꤢꤩ꤬ꤕ꤫ꤢꤧ꤬ꤒꤢꤩ꤬ꤏꤢꤩ꤭": 1165,
      "ꤘꤣꤧꤟꤢꤧ꤭ꤘꤣꤧꤚꤢꤩ꤬": 1166,
      "ꤒꤢꤩ꤬ꤢꤪꤜꤢꤧ꤬": 1167,
      "ꤒꤢꤩ꤬ꤋꤥꤒꤣꤧ꤬ꤊꤜꤤ": 1168,
      "ꤖꤚꤥ": 1169,
      "ꤟꤢꤩꤓꤥ꤭": 1170,
      "ꤗꤢꤩ꤬ꤕ꤫ꤢꤩ꤬": 1171,
      "ꤋꤢꤨ꤭ꤢ꤬": 1172,
      "ꤋꤚꤢ꤭": 1173,
      "ꤗ꤫ꤢ꤬ꤟꤢꤩꤗꤢ꤬": 1174,
      "ꤒꤢ꤭ꤗ꤫ꤥ꤬": 1175,
      "ꤊ꤫ꤢꤩ꤬ꤜꤣꤧ꤬ꤞꤢꤩ": 1176,
      "ꤡ꤫ꤢꤩ꤬ꤡꤢꤦ꤭": 1177,
      "ꤕꤣꤧꤞꤢꤩ꤬ꤋꤤ": 1178,
      "ꤒꤢ꤭ꤗ꤫ꤥ꤬ꤒꤢ꤭ꤒꤢꤩ꤬": 1179,
      "ꤔꤢꤪ꤬": 1180,
      "ꤜ꤫ꤢꤧ꤬": 1181,
      "ꤢꤩꤊꤢ꤬": 1182,
      "ꤣꤧ꤭ꤞꤤꤔꤣꤧ꤭": 1183,
      "ꤒꤢꤩ꤬ꤊꤜꤝꤤ꤭": 1184,
      "ꤟꤢꤩꤒꤢ꤭": 1185,
      "ꤗꤢꤩ꤬ꤜꤤ꤭": 1186,
      "ꤠꤢꤧ꤭ꤋꤛꤢ꤭": 1187,
      "ꤜꤢꤪ꤬": 1188,
      "ꤜꤢꤨ꤭ꤥ꤬": 1189,
      "ꤕꤢꤩ꤬ꤖꤢꤩ꤭": 1190,
      "ꤒꤢꤩ꤭ꤟꤢꤨ": 1191,
      "ꤓꤣꤧ꤭ꤢꤪ꤬": 1192,
      "ꤋꤢꤧꤞꤣꤧ꤭": 1193,
      "ꤟꤣꤧ꤬ꤡꤢ꤬": 1194,
      "ꤕꤣꤧ꤬ꤡ꤫ꤣꤧ꤬ꤕꤣꤧ꤬ꤢ": 1195,
      "ꤏꤛꤢ": 1196,
      "ꤠꤤ": 1197,
      "ꤥꤎꤢꤧ": 1198,
      "ꤒꤣꤧ꤬ꤋꤢꤧ": 1199,
      "ꤒꤢꤩ꤬ꤜꤢꤪ꤭": 1200,
      "ꤖꤚꤢꤩ꤬ꤛꤥ꤬": 1201,
      "ꤊꤢꤨꤊꤜꤢꤩ꤭": 1202,
      "ꤛ꤫ꤢꤦ꤬ꤢꤩ꤬ꤚꤣꤧ": 1203,
      "ꤋꤢꤩ꤭ꤒꤢꤩ꤭": 1204,
      "ꤗꤢꤪ꤬ꤗꤢ꤬ꤚꤤ": 1205,
      "ꤒꤢꤦꤘꤢꤦ꤬": 1206,
      "ꤢ꤬ꤚꤢꤧꤜꤣ": 1207,
      "ꤒꤣꤧ꤬ꤕꤜꤣ꤬": 1208,
      "ꤡꤢꤓꤝꤢ": 1209,
      "ꤙꤢꤪꤋꤢꤩ꤭ꤒꤢꤩ꤭": 1210,
      "ꤖꤚꤢ꤬ꤓꤢꤧ꤬": 1211,
      "ꤋꤢꤧ꤬": 1212,
      "ꤘꤢꤧ꤭": 1213,
      "ꤚꤥ꤭": 1214,
      "ꤜꤤ": 1215,
      "ꤥ꤬ꤖꤢꤨꤡ꤫ꤢꤩ꤬ꤜꤢꤧ꤬": 1216,
      "ꤞꤤꤕꤜꤢꤩ꤭": 1217,
      "ꤒꤣꤧ꤬ꤜꤢꤧ꤬": 1218,
      "ꤒꤢꤩ꤬ꤜꤣꤧ꤬": 1219,
      "ꤕꤣꤧꤞꤢꤩ꤬ꤕꤜꤢꤪ꤬": 1220,
      "ꤖꤢꤛꤢ꤬": 1221,
      "ꤞꤤꤛꤢꤪ꤬ꤚꤣꤧ": 1222,
      "ꤢ꤬ꤡꤢꤪꤢ꤬ꤒꤢꤩ꤬": 1223,
      "ꤋꤢꤨ꤭ꤡꤛꤢꤩ꤭": 1224,
      "ꤊꤢꤦ꤭ꤞꤢꤧ": 1225,
      "ꤍꤢꤨ꤬ꤘꤢꤨ꤬ꤖꤚꤤ꤬": 1226,
      "ꤒꤣꤧ꤬ꤜꤢꤧ꤬ꤋꤚꤢꤩ": 1227,
      "ꤘꤝꤢ": 1228,
      "ꤛꤢꤧ": 1229,
      "ꤢꤨ꤭ꤗ꤫ꤥ꤬ꤖꤚ꤫ꤢꤩ꤬": 1230,
      "ꤒꤣꤧ꤬ꤞꤤ": 1231,
      "ꤒꤢꤩ꤬ꤜꤢꤨ꤭": 1232,
      "ꤖꤚꤢꤩ꤭": 1233,
      "ꤖꤚꤢꤨ꤭ꤗ꤫ꤥ꤬ꤖꤚ꤫ꤢꤩ꤬": 1234,
      "ꤗꤢꤩ꤬ꤓꤥ꤭": 1235,
      "ꤠꤢꤧ꤭ꤑꤢꤩ꤭": 1236,
      "ꤊꤣꤧ꤬ꤛꤢꤧ꤭ꤡꤢꤪ": 1237,
      "ꤘꤢꤦ꤬ꤑꤢꤩ꤭": 1238,
      "ꤒꤣꤧ꤬ꤚꤤ": 1239,
      "ꤗꤢꤧꤓ꤫ꤣꤧ꤬ꤔꤢꤪ": 1240,
      "ꤗ꤫ꤢꤪ꤬ꤞꤢꤩ꤭": 1241,
      "ꤖꤛꤢꤏꤢꤦ꤬": 1242,
      "ꤗ꤫ꤥ꤬ꤖꤚꤢꤨ꤭ꤗ꤫ꤥ꤬ꤖꤚ꤫ꤢꤩ꤬": 1243,
      "ꤟꤢꤨꤒꤢꤩ꤭ꤔꤣꤧ꤬": 1244,
      "ꤖꤚꤢꤩ꤬ꤜꤢꤨ꤭ꤒꤢꤧ꤭ꤒꤢꤩ꤬": 1245,
      "ꤋꤚꤝꤢ꤭ꤗꤢꤩ꤬ꤊꤣꤧ꤭": 1246,
      "ꤋꤝꤢ꤬ꤋꤛꤢ꤭": 1247,
      "ꤍꤢꤦ꤬": 1248,
      "ꤣ꤭": 1249,
      "ꤢꤩꤜꤤ꤬": 1250,
      "ꤢ꤬ꤞꤢꤩ꤬": 1251,
      "ꤢ꤬ꤊꤜꤢꤧ": 1252,
      "ꤢ꤬ꤘꤢꤨ꤬ꤜꤣ": 1253,
      "ꤞꤤꤖꤚ꤫ꤢꤩ꤬": 1254,
      "ꤤ꤬ꤖꤚꤤ꤬": 1255,
      "ꤗꤢꤩ꤬ꤡ꤫ꤢꤧ꤬": 1256,
      "ꤠꤢꤧ꤭ꤟꤢꤩꤒ꤫ꤥ꤬": 1257,
      "ꤜꤤ꤬ꤕ": 1258,
      "ꤢ꤬ꤊꤢꤧ꤭ꤏꤢ": 1259,
      "ꤘꤢꤧꤍꤢꤦ꤬": 1260,
      "ꤓꤢꤨ꤬ꤜꤢꤧ꤬": 1261,
      "ꤋꤥꤊꤢꤧ꤭": 1262,
      "ꤓꤢꤩꤏꤢꤦ꤬": 1263,
      "ꤙꤢꤨ꤬ꤡꤢꤪꤙꤢꤩ꤭": 1264,
      "ꤖꤤꤜꤤ꤬ꤕ": 1265,
      "ꤓꤣꤧ꤭ꤘꤢꤨ꤬ꤒꤣꤧ꤬ꤠꤢ꤬": 1266,
      "ꤍꤢꤨ꤬ꤘꤢꤨ꤬ꤖꤚꤤ꤬ꤘꤢꤨ꤬": 1267,
      "ꤢ꤬ꤗ꤫ꤢ꤬": 1268,
      "ꤒꤣꤧ꤬ꤡꤣꤧ": 1269,
      "ꤒꤢꤩ꤬ꤗꤢ": 1270,
      "ꤒꤢꤩ꤬ꤙꤝꤤ": 1271,
      "ꤗꤢ꤬ꤎꤣ꤬": 1272,
      "ꤊꤢꤧ꤭ꤘꤢꤩ꤭": 1273,
      "ꤋꤚ꤫ꤢꤧ꤬": 1274,
      "ꤘꤢꤧ꤬ꤊꤢꤧ꤭": 1275,
      "ꤒꤣ꤬ꤖꤢꤩ꤬": 1276,
      "ꤘꤢꤪꤒꤢ꤭": 1277,
      "ꤞꤤꤖꤚꤝꤢ꤭": 1278,
      "ꤢ꤬ꤓꤣꤧ꤭ꤢ꤬ꤊ꤫ꤢꤩ꤬": 1279,
      "ꤊꤢꤪ": 1280,
      "ꤔꤥ": 1281,
      "ꤟ꤫ꤢꤨ꤬": 1282,
      "ꤡ꤫ꤢ꤬": 1283,
      "ꤢ꤬ꤛꤢꤧ꤭": 1284,
      "ꤢ꤬ꤠꤢꤩ꤬": 1285,
      "ꤥ꤬ꤋꤚꤢꤧ": 1286,
      "ꤞꤤꤜꤢꤩ꤬": 1287,
      "ꤔꤣꤧ꤬ꤋꤢꤩ꤭": 1288,
      "ꤒꤢꤩ꤬ꤒꤢꤩ꤭": 1289,
      "ꤤ꤬ꤊꤢꤩ꤭": 1290,
      "ꤗꤢꤩ꤬ꤞꤣꤧ꤭ꤖꤚꤢꤩ꤬": 1291,
      "ꤡꤝꤢꤊꤢꤧ꤭": 1292,
      "ꤘꤣꤧꤞꤤꤑꤢꤩ꤭": 1293,
      "ꤜꤥ꤭ꤊꤢꤨ꤭": 1294,
      "ꤢ꤬ꤋꤢꤩ꤭ꤕꤢ꤭ꤔꤣꤧ꤬": 1295,
      "ꤓꤝꤢ꤭ꤟꤣꤧ": 1296,
      "ꤒꤣꤧ꤬ꤚꤢꤨ": 1297,
      "ꤊ꤫ꤢꤩ꤬ꤖꤢꤨ": 1298,
      "ꤓꤣꤧ꤭ꤛꤢꤧ꤭": 1299,
      "ꤋꤥꤘꤢꤦ꤬": 1300,
      "ꤢꤩꤜꤢ꤬ꤢꤩꤕꤜꤢꤩ": 1301,
      "ꤊꤢꤨ꤬ꤊꤜꤢꤧꤓꤢꤩ꤭": 1302,
      "ꤣ꤭ꤜꤢꤧ꤬": 1303,
      "ꤒꤢꤩ꤬ꤗꤢꤒꤢꤩ꤬ꤒꤢꤩ꤭": 1304,
      "ꤒꤢꤩ꤬ꤙꤝꤤꤒꤢꤩ꤬ꤒꤣꤧ꤬ꤚꤣꤧ꤭": 1305,
      "ꤊꤚꤤ": 1306,
      "ꤔꤢ꤬ꤙꤢ": 1307,
      "ꤥ꤬ꤕꤢ꤬": 1308,
      "ꤗꤢꤩ꤬ꤗꤥ꤬": 1309,
      "ꤊꤣꤧ꤬ꤛꤢꤧ꤭ꤒꤢꤩ꤬": 1310,
      "ꤢ꤬ꤚꤢ": 1311,
      "ꤢ꤬ꤖꤢꤨꤢ꤬ꤜꤣꤧ꤬": 1312,
      "ꤒ꤫ꤥ꤬ꤊꤣꤧ꤭": 1313,
      "ꤗ꤫ꤢꤪ꤬ꤋꤤ": 1314,
      "ꤓꤝꤢ꤭ꤓꤢꤧ꤬ꤟꤣꤧ": 1315,
      "ꤏꤢꤩ꤬ꤥ꤭": 1316,
      "ꤤ꤬ꤏꤢꤪꤓꤢꤧ꤬": 1317,
      "ꤒꤣꤧ꤬ꤛ꤫ꤢꤩ꤬": 1318,
      "ꤋꤢꤨ꤭ꤙꤢ꤬ꤔꤢ꤬ꤙꤢ": 1319,
      "ꤊꤣꤧ꤬ꤛꤢꤧ꤭ꤡꤢꤪꤊꤣꤧ꤬ꤛꤢꤧ꤭ꤒꤢꤩ꤬": 1320,
      "ꤋꤢꤦ": 1321,
      "ꤘꤢ": 1322,
      "ꤢꤨ꤭ꤚꤥ꤬": 1323,
      "ꤠꤢꤧ꤭ꤍ꤫ꤥ꤬": 1324,
      "ꤊꤜꤢꤦ": 1325,
      "ꤍ꤫ꤥ꤬ꤋꤢꤋꤥ꤬": 1326,
      "ꤋꤢꤧꤞꤤꤘꤥ꤭": 1327,
      "ꤒꤣꤧ꤬ꤡ꤫ꤢꤨ꤬": 1328,
      "ꤒꤢꤧ꤬ꤜꤢ꤭ꤟꤤꤒꤥ꤬": 1329,
      "ꤏꤢꤩ꤬ꤢꤩ꤬ꤏꤢꤩ꤬ꤥ꤭": 1330,
      "ꤋꤢꤨ꤭ꤡꤛꤢꤩ꤭ꤗꤢ꤬ꤎꤣ꤬": 1331,
      "ꤊꤢꤩ": 1332,
      "ꤎꤢꤨ꤬": 1333,
      "ꤢ꤬ꤊꤜꤢꤪ꤭": 1334,
      "ꤒꤢꤩ꤬ꤣꤧ꤭": 1335,
      "ꤒꤢꤩ꤬ꤘꤢꤨ꤬ꤛ꤫ꤢꤧ꤬ꤓꤢꤧ꤬ꤞꤢꤩ꤭": 1336,
      "ꤗꤢꤩ꤬ꤔꤣꤧ꤬": 1337,
      "ꤗꤢꤩ꤬ꤒꤥ꤭": 1338,
      "ꤗꤢꤩ꤬ꤕꤛꤢꤊꤢꤧ꤭": 1339,
      "ꤕꤢꤩ꤬ꤔ꤫ꤢꤩ꤬": 1340,
      "ꤞꤢꤧꤟꤣꤧ": 1341,
      "ꤜꤣꤧ꤬ꤟꤢꤧ꤬": 1342,
      "ꤟꤤ꤬ꤘꤢꤪ": 1343,
      "ꤚꤢ꤭ꤗꤢ": 1344,
      "ꤢ꤬ꤗ꤫ꤢꤪ꤬ꤔꤣꤧ꤭ꤘꤥ꤬": 1345,
      "ꤙꤢꤦ꤬": 1346,
      "ꤜꤝꤢ": 1347,
      "ꤜ꤫ꤢꤨ꤬": 1348,
      "ꤝ꤫ꤤ꤬": 1349,
      "ꤞꤢꤪ": 1350,
      "ꤤꤜꤢ꤬": 1351,
      "ꤢ꤬ꤔꤣꤧ꤬": 1352,
      "ꤢ꤬ꤙꤢꤩ꤬": 1353,
      "ꤒꤢꤩ꤬ꤒꤣꤧ꤬ꤋꤢꤩ꤭": 1354,
      "ꤒꤢꤩ꤬ꤣ꤭ꤜꤢꤧ꤬": 1355,
      "ꤒꤣ꤬ꤒ꤫ꤥ꤬": 1356,
      "ꤗꤢꤩ꤬ꤓꤥ꤭ꤟꤣꤧ": 1357,
      "ꤊꤣꤧ꤭ꤕ꤫ꤥ꤬": 1358,
      "ꤊꤜꤣꤧ꤭ꤒꤣ꤬": 1359,
      "ꤋꤚꤥ꤭": 1360,
      "ꤕꤜꤣꤧ꤬": 1361,
      "ꤘꤢꤧ꤬ꤜꤢꤧ꤬": 1362,
      "ꤜꤣꤥ꤬": 1363,
      "ꤊꤢ꤬ꤊꤢꤧ꤭": 1364,
      "ꤜ꤫ꤢꤩ꤬ꤢꤩ꤬": 1365,
      "ꤗ꤫ꤢꤪ꤬ꤜꤤ꤭": 1366,
      "ꤒꤣꤧ꤬ꤚꤣꤧ꤭ꤓꤢꤨ꤭": 1367,
      "ꤔꤣꤧ꤬ꤒꤣ꤬ꤗꤢꤩ꤭": 1368,
      "ꤤ꤬ꤏꤢꤩ꤭ꤒꤢ꤭ꤊꤢꤧ꤭": 1369,
      "ꤕꤣꤒꤣꤧ꤬ꤚꤤ꤬": 1370,
      "ꤡꤢꤧ꤬ꤒꤥ꤭ꤙꤢꤩ꤬": 1371,
      "ꤜꤣꤧ꤬ꤟꤥ꤭ꤜꤣꤧ꤬ꤟꤢꤧ꤬": 1372,
      "ꤞꤢꤨꤕꤜꤤ꤭": 1373,
      "ꤋꤢꤨ꤭ꤎꤢꤪꤜꤢꤨ": 1374,
      "ꤑꤢꤔꤢꤨ꤬ꤋꤢꤩ꤭": 1375,
      "ꤏꤢꤨ꤬ꤔꤥ꤭": 1376,
      "ꤒꤣꤧ꤬ꤡꤣꤧꤒꤣꤧ꤬ꤡ꤫ꤢꤨ꤬": 1377,
      "ꤚꤢ꤬ꤖꤢꤨ": 1378,
      "ꤢꤩ꤬ꤟꤥ꤬": 1379,
      "ꤗꤢꤩ꤬ꤒꤣꤧ꤬ꤋꤢꤩ꤭": 1380,
      "ꤊꤢꤧ꤭ꤍ꤫ꤥ꤬": 1381,
      "ꤡ꤫ꤢꤧ꤬ꤒꤥ꤬": 1382,
      "ꤊꤢ꤬ꤏꤥ꤭": 1383,
      "ꤜꤢꤨ꤬ꤜꤢꤩ": 1384,
      "ꤕꤣꤧ꤬ꤒ": 1385,
      "ꤊꤜꤢꤧꤜꤥ꤬": 1386,
      "ꤘꤤꤘꤢꤧ꤭": 1387,
      "ꤙꤢꤗꤥ꤭": 1388,
      "ꤢ꤬ꤗ꤫ꤥ꤬ꤢ꤬ꤖꤢꤩ꤭": 1389,
      "ꤢ꤬ꤗꤢꤨ꤬ꤢ꤬ꤚꤢ": 1390,
      "ꤢ꤬ꤏꤣꤧꤢ꤬ꤋꤢꤩ꤭": 1391,
      "ꤖꤤꤜꤤ꤬ꤕꤢꤨ꤬": 1392,
      "ꤚꤢꤧ꤭": 1393,
      "ꤛꤣ꤬": 1394,
      "ꤥ꤬ꤘꤣ": 1395,
      "ꤤ꤬ꤚꤥ꤭": 1396,
      "ꤢꤨ꤬ꤡꤢꤩ꤭": 1397,
      "ꤗꤢ꤬ꤗꤢꤩ꤬ꤒꤢꤩ꤭": 1398,
      "ꤞꤤꤑꤢꤩ꤭ꤟꤣꤧ": 1399,
      "ꤒꤢꤩ꤬ꤖꤢꤨꤒꤢꤩ꤬ꤜꤣꤧ꤬": 1400,
      "ꤚ꤫ꤥ꤬ꤊꤣꤧ꤭": 1401,
      "ꤒꤢꤩ꤬ꤜꤤ꤭ꤒꤢꤩ꤬ꤒꤣꤧ꤬ꤋꤢꤩ꤭": 1402,
      "ꤋꤝꤢꤊꤢꤩ꤬": 1403,
      "ꤔꤢ": 1404,
      "ꤗꤤ": 1405,
      "ꤜꤢꤦ꤭": 1406,
      "ꤞꤢꤪ꤭": 1407,
      "ꤒꤢꤩ꤬ꤡꤝꤢꤒꤣꤧ꤬ꤜꤝꤢ": 1408,
      "ꤢ꤬ꤋꤥ꤭": 1409,
      "ꤓꤢꤧ꤬ꤚꤣꤧ": 1410,
      "ꤋꤢꤨ꤭ꤖꤤꤜꤤ꤬ꤕꤢꤨ꤬": 1411,
      "ꤔ꤫ꤤ꤬ꤟꤥ꤭ꤔꤢꤪ": 1412,
      "ꤊꤣꤧ꤬ꤓꤢꤪ꤬ꤊꤢ꤬ꤋꤛꤢ꤭": 1413,
      "ꤏꤣꤧꤞꤤꤔꤣꤧ꤭": 1414,
      "ꤒꤢꤩ꤬ꤗ꤫ꤢ꤬ꤊꤢꤧ꤭ꤍ꤫ꤥ꤬": 1415,
      "ꤏꤢꤦꤜꤢꤦ꤭": 1416,
      "ꤓꤣꤧ꤭ꤢꤪ꤬ꤘꤢꤨ꤬": 1417,
      "ꤢꤨ꤬ꤡꤢꤩ꤭ꤒꤣꤧ꤬ꤛ꤫ꤢꤩ꤬": 1418,
      "ꤊꤛꤢ": 1419,
      "ꤋꤛꤢ꤬": 1420,
      "ꤒꤣꤧ": 1421,
      "ꤗꤢ꤭": 1422,
      "ꤘꤢꤪ꤬": 1423,
      "ꤢꤩ꤬ꤥ꤭": 1424,
      "ꤢ꤬ꤖꤚꤢꤩ꤬ꤗꤢꤩ꤬ꤒꤢꤩ꤬ꤖꤢꤨ": 1425,
      "ꤒꤢꤩ꤬ꤗꤢꤧꤏꤢꤦ꤭": 1426,
      "ꤒꤢꤩ꤬ꤏꤝꤤ": 1427,
      "ꤖꤚꤢꤪ꤬": 1428,
      "ꤋꤢꤨ꤭ꤘꤢ꤬ꤠꤤ꤬": 1429,
      "ꤛ꤫ꤢꤦ꤬ꤔ꤫ꤢꤧ꤬": 1430,
      "ꤗꤢꤧꤙꤢꤦ꤭": 1431,
      "ꤢ꤬ꤖꤢꤨꤒꤢ꤭": 1432,
      "ꤖꤛꤢꤟꤢꤧ꤭ꤔ꤫ꤤ꤬": 1433,
      "ꤗ꤫ꤢꤪ꤬ꤔꤣꤧ꤭ꤗ꤫ꤢꤪ꤬ꤞꤢꤩ꤭": 1434,
      "ꤙꤤꤊꤢꤧ꤭": 1435,
      "꤯’”": 1436,
      "ꤚꤢꤪ꤬ꤚꤣꤧ": 1437,
      "ꤘꤢꤧ꤬ꤘꤢꤨ꤬ꤛ꤫ꤢꤦ꤬ꤔ꤫ꤢꤧ꤬": 1438,
      "ꤏꤢꤧ꤬ꤜꤢꤧ꤬": 1439,
      "ꤘꤢꤧꤍꤢꤦ꤬ꤜꤢꤧ꤬": 1440,
      "ꤟꤤ꤬ꤘꤢꤪꤊꤢꤨ꤭": 1441,
      "ꤒꤣꤧꤗ꤫ꤢꤪ꤬": 1442,
      "ꤢ꤬ꤔꤢ꤬": 1443,
      "ꤥ꤬ꤢꤩ": 1444,
      "ꤥ꤬ꤖꤢꤦ꤬": 1445,
      "ꤒꤢꤩ꤬ꤞꤣꤧ꤭ꤖꤚꤢꤩ꤬": 1446,
      "ꤒꤢꤩ꤬ꤋꤤ": 1447,
      "ꤤ꤬ꤡꤛ": 1448,
      "ꤢꤨ꤬ꤜꤢꤩ": 1449,
      "ꤖꤢꤨꤊ꤫ꤢꤩ꤬ꤖꤢꤨ": 1450,
      "ꤕꤢꤩ꤬ꤔ꤫ꤢꤩ꤬ꤊꤜ꤫ꤢꤪ꤬": 1451,
      "ꤡꤝꤢꤗꤢꤩ꤬": 1452,
      "ꤋꤚꤢꤦ꤬": 1453,
      "ꤒꤢ꤭ꤏꤢꤦ꤬": 1454,
      "ꤢ꤬ꤜꤢꤨ꤬ꤜꤢꤩ": 1455,
      "ꤜꤣꤧ꤬ꤋꤢꤦ": 1456,
      "ꤓꤣꤧ꤭ꤖꤢꤨꤊ꤫ꤢꤩ꤬ꤖꤢꤨ": 1457,
      "ꤊꤢꤨ꤬ꤊꤜꤢꤪꤘꤢꤨ꤬": 1458,
      "ꤣꤧ꤭ꤒꤣ꤬ꤔꤣꤧ꤭": 1459,
      "ꤣꤧ꤭ꤒꤣ꤬ꤗꤢꤩ꤭": 1460,
      "ꤋꤥꤋꤛꤢ꤬": 1461,
      "ꤜ꤫ꤥ꤬ꤘꤢꤨ꤬ꤜꤣ": 1462,
      "ꤔꤣꤧ꤬ꤒꤣ꤬ꤔꤣꤧ꤭": 1463,
      "ꤢꤨ꤭ꤕꤢꤩ꤭ꤕꤢꤩ꤭": 1464,
      "ꤔꤢ꤬ꤎ": 1465,
      "ꤊꤥꤚꤣꤧ": 1466,
      "ꤡꤢꤪ꤭ꤊꤜꤢꤪ꤬ꤗꤢ꤬": 1467,
      "ꤒꤢꤩ꤬ꤡꤢꤪꤙꤢꤩ꤭ꤟꤥ꤭ꤊꤢꤨ꤭": 1468,
      "ꤢ꤬ꤚ꤫ꤣꤧ꤬ꤋꤢꤩ꤭": 1469,
      "ꤊꤢꤧꤜꤢ꤬ꤜꤤ꤬ꤊ꤫ꤢꤩ꤬": 1470,
      "ꤋꤚꤝꤢ꤭ꤡꤝꤢꤊꤣꤧ꤭": 1471,
      "ꤤ꤬ꤡꤛꤤ": 1472,
      "ꤎꤢꤩ꤬": 1473,
      "ꤏꤤ": 1474,
      "ꤞꤢꤦ꤬": 1475,
      "ꤢꤩꤜꤣ": 1476,
      "ꤢ꤬ꤡ꤫ꤢꤦ꤬": 1477,
      "ꤣꤧ꤭ꤒꤣ꤬ꤡꤣ꤬": 1478,
      "ꤒꤢꤩ꤬ꤡ꤫ꤢꤧ꤬": 1479,
      "ꤟꤢꤩꤖꤚꤥ꤬": 1480,
      "ꤟꤢꤨꤣꤧ꤭ꤔꤣꤧ꤬": 1481,
      "ꤜꤢꤨ꤭ꤋꤛꤢ꤭": 1482,
      "ꤖꤢꤨꤖꤚꤢꤩ꤬ꤗꤢꤪ꤬": 1483,
      "ꤗꤢꤧꤘꤢꤨ꤬": 1484,
      "ꤢ꤬ꤜꤢ꤬": 1485,
      "ꤖꤛꤢꤓꤢꤧ꤬ꤜꤥ꤭": 1486,
      "ꤜꤤ꤬ꤣꤧ꤭": 1487,
      "ꤔ꤫ꤤ꤬ꤙꤢꤩ꤬ꤟꤣꤧ": 1488,
      "ꤖꤚꤢꤩ꤬ꤗꤢꤪ꤬ꤖꤚꤢꤩ꤬ꤋꤢꤨ꤭": 1489,
      "ꤢ꤬ꤚꤥ꤬ꤒꤣ꤬ꤖꤚꤢꤩ꤬": 1490,
      "ꤒꤣꤧ꤬ꤠꤢꤪ꤬": 1491,
      "ꤜꤢꤩ꤬ꤊꤥ꤬": 1492,
      "ꤒꤢꤩ꤬ꤡꤢꤪꤙꤢꤩ꤭ꤟꤥ꤭": 1493,
      "ꤢ꤬ꤚ꤫ꤣꤧ꤬ꤜꤣ": 1494,
      "ꤙꤥ꤬ꤢꤩ꤬": 1495,
      "ꤗꤢꤩ꤬ꤜꤤ꤭ꤗꤢꤩ꤬ꤒꤣꤧ꤬ꤋꤢꤩ꤭": 1496,
      "ꤓꤣꤧ꤭ꤢꤪ꤬ꤘꤢꤨ꤬ꤒꤣꤧ꤬ꤠꤢꤪ꤬": 1497,
      "ꤔꤢ꤬ꤎꤢ꤬ꤚꤢꤧ": 1498,
      "ꤘꤝꤤ": 1499,
      "ꤜꤢꤦ": 1500,
      "ꤢꤩꤡꤝꤢ": 1501,
      "ꤢ꤬ꤗꤢꤩ꤬": 1502,
      "ꤒꤣꤧ꤬ꤗꤢ": 1503,
      "ꤒꤢꤩ꤬ꤘꤢꤦ꤭": 1504,
      "ꤒꤢꤩ꤬ꤖꤚꤢꤩ꤭": 1505,
      "ꤖꤚꤢꤩ꤬ꤥ꤬": 1506,
      "ꤒꤣ꤬ꤙꤥ꤭": 1507,
      "ꤒꤣ꤬ꤕꤜꤢꤨ꤬": 1508,
      "ꤗꤢꤩ꤬ꤓꤝꤢ꤭ꤓꤢꤧ꤬": 1509,
      "ꤊꤣꤧ꤬ꤛꤢꤧ꤭ꤞꤣꤧ꤭": 1510,
      "ꤘꤣꤧꤢꤩ꤬": 1511,
      "ꤖꤚꤢꤩ꤬ꤗꤢꤪ꤬ꤥ꤬ꤋꤚꤢꤧ": 1512,
      "ꤞꤥ꤭ꤔꤣꤧ꤭": 1513,
      "ꤚꤢ꤭ꤥ꤬": 1514,
      "ꤏꤥ꤭ꤏꤢꤦ": 1515,
      "ꤜ꤫ꤢꤪ꤬ꤒꤣꤧ꤬ꤗꤢ": 1516,
      "ꤑꤢ꤭ꤒꤢꤧ꤬": 1517,
      "ꤘꤣꤋꤛꤢ꤭ꤔꤣꤧ꤬": 1518,
      "ꤢꤩꤜꤢ꤬ꤜꤣꤧ꤬": 1519,
      "ꤞꤤꤔ꤫ꤢꤩ꤬ꤓꤢꤧ꤬ꤙꤢꤩ꤬": 1520,
      "ꤒꤢꤩ꤬ꤡꤝꤢꤒꤣꤧ꤬ꤜꤝꤢꤕꤝꤢꤩ꤬": 1521,
      "ꤒꤢꤩ꤬ꤖꤚꤢꤩ꤭ꤒꤢꤩ꤬ꤘꤢꤦ꤭": 1522,
      "ꤑꤢ꤭ꤒꤢꤧ꤬ꤒꤥ꤬": 1523,
      "ꤢꤩꤜꤢ꤬ꤜꤣꤧ꤬ꤟꤥ꤭": 1524,
      "ꤕ꤫ꤢ꤬": 1525,
      "ꤖꤢꤦ꤭": 1526,
      "ꤢ꤬ꤖꤚꤢꤩ꤬": 1527,
      "ꤢ꤬ꤕꤣꤧꤞꤢꤩ꤬": 1528,
      "ꤥ꤬ꤒ꤫ꤣ꤬": 1529,
      "ꤥ꤬ꤚ꤫ꤥ꤬": 1530,
      "ꤥ꤬ꤜꤣꤥ꤬": 1531,
      "ꤗꤢ꤬ꤢꤨ꤭ꤕꤢꤩ꤭": 1532,
      "ꤊꤣꤧ꤬ꤓꤢꤧ꤬": 1533,
      "ꤊꤣꤧ꤬ꤜꤢꤧ꤬": 1534,
      "ꤖꤢꤨꤥ꤬": 1535,
      "ꤖꤢꤨꤖꤢꤧ꤭": 1536,
      "ꤜꤢꤪ꤭ꤞꤢꤩ": 1537,
      "ꤜꤢꤪ꤭ꤞꤢꤨ꤬": 1538,
      "ꤋꤢꤨ꤭ꤗꤢ꤬": 1539,
      "ꤓꤝꤢ꤭ꤒꤣꤧ꤬ꤚꤣꤧ꤭": 1540,
      "ꤓꤝꤢ꤭ꤙꤝꤤ": 1541,
      "ꤛꤢ꤬ꤊ꤫ꤢꤩ꤬": 1542,
      "ꤛꤢ꤬ꤊꤥ꤬": 1543,
      "ꤒ꤫ꤢꤧ꤬ꤗꤢꤩ꤬ꤔꤣꤧ꤬": 1544,
      "ꤕꤣꤧ꤬ꤜꤢ꤭": 1545,
      "ꤞꤢꤨ꤭ꤟꤢꤧ꤭": 1546,
      "ꤔꤢꤪ꤭ꤟꤢꤧ꤭ꤜꤢꤧ꤬": 1547,
      "ꤋꤚꤢꤩꤋꤚ꤫ꤢꤧ꤬": 1548,
      "ꤞꤤꤖꤚꤢ": 1549,
      "ꤘꤢꤦꤒꤣꤧ꤬ꤜꤤꤖꤢ": 1550,
      "ꤖꤣꤧ꤭ꤖꤥ꤭": 1551,
      "ꤢꤩꤜꤤ꤬ꤛꤢ꤬": 1552,
      "ꤖꤢꤨꤖꤢꤧ꤭ꤖꤢꤨ": 1553,
      "ꤜꤢꤪ꤭ꤞꤢꤨ꤬ꤜꤢꤪ꤭ꤞꤢꤩ": 1554,
      "?’": 1555,
      "ꤊꤣꤧ": 1556,
      "ꤒ꤫ꤢ꤬": 1557,
      "ꤓꤥ꤬": 1558,
      "ꤢ꤬ꤊꤢꤩ꤬": 1559,
      "ꤢ꤬ꤖꤥ": 1560,
      "ꤥ꤬ꤜꤢꤩ꤭": 1561,
      "ꤒꤣ꤬ꤓꤢꤦ꤭": 1562,
      "ꤗꤢ꤬ꤞꤢꤩ꤬": 1563,
      "ꤋꤢꤨ꤭ꤒꤤ꤬": 1564,
      "ꤓꤥ꤭ꤜꤢꤪ꤭ꤟꤣꤧ": 1565,
      "ꤕꤜꤤ": 1566,
      "ꤞꤤꤑꤢꤩ꤭ꤟꤢꤧ꤭": 1567,
      "ꤠꤤ꤭ꤢ꤬": 1568,
      "ꤜ꤫ꤢꤩ꤬ꤞꤢꤦ꤬": 1569,
      "ꤒꤢꤩ꤬ꤗꤢꤩ꤬ꤡꤝ꤫ꤢ꤬": 1570,
      "ꤏꤢꤪ꤭ꤓꤢꤧ꤬": 1571,
      "ꤟꤤ꤬ꤖꤢꤨꤖꤢꤧ꤭ꤖꤢꤨ": 1572,
      "ꤣꤧ꤭ꤒꤣ꤬ꤘꤥ꤭": 1573,
      "ꤢ꤬ꤒꤢꤩ꤬ꤗꤥ꤬": 1574,
      "ꤕ꤫ꤢꤪ꤬ꤞꤤ": 1575,
      "ꤒꤢꤩ꤬ꤡꤢꤪꤙꤢꤨ꤬ꤡꤢꤪꤙꤢꤩ꤭": 1576,
      "ꤥ꤬ꤕ꤫ꤢꤪ꤬ꤗꤢꤧꤏꤢꤦ꤭": 1577,
      "ꤞꤢꤪ꤬ꤊꤜꤣꤧ꤭ꤊꤢꤨ꤭": 1578,
      "ꤋꤢꤨ꤭ꤡꤛꤥꤎꤢꤧ": 1579,
      "ꤒꤣꤧ꤬ꤗꤥ꤭ꤗꤥ꤭": 1580,
      "ꤒꤣꤧ꤬ꤕꤜꤣ꤬ꤟꤢꤨ": 1581,
      "ꤡꤢꤧ꤬ꤒꤥ꤭ꤙꤢꤩ꤬ꤒꤢꤩ꤬": 1582,
      "ꤗꤢ꤬ꤗꤢꤩ꤬ꤒꤢꤩ꤭ꤚꤣꤧ꤬": 1583,
      "ꤒꤣ꤬ꤕꤜꤢꤨ꤬ꤒꤣ꤬ꤖꤢꤩ꤬": 1584,
      "ꤋꤢꤨ꤭ꤒꤤ꤬ꤗꤢ꤬ꤞꤢꤩ꤬": 1585,
      "ꤊꤢꤧ꤬": 1586,
      "ꤊꤝꤢ꤬": 1587,
      "ꤘꤥ": 1588,
      "ꤔꤣꤧ꤬ꤒꤣ꤬ꤖꤥ꤬": 1589,
      "ꤒꤢꤩ꤬ꤖꤢꤩ": 1590,
      "ꤒꤢꤩ꤬ꤟꤢꤩꤗꤥ꤬ꤟꤢꤩꤚꤢꤧ": 1591,
      "ꤞꤤ꤭ꤖꤢꤩ꤭": 1592,
      "ꤟꤢꤧ꤭ꤒꤥ꤭": 1593,
      "ꤔ꤫ꤤ꤬ꤋꤝꤢꤊꤢꤩ꤬": 1594,
      "ꤒꤢ꤭ꤒꤥ꤭": 1595,
      "ꤘꤢꤧ꤬ꤥ꤬": 1596,
      "ꤢ꤬ꤔ꤫ꤢꤩ꤬ꤙꤢꤧ꤬ꤡꤢꤩ꤬": 1597,
      "ꤖꤛꤢꤡꤝꤢ": 1598,
      "ꤖꤛꤢꤔ꤫ꤤ꤬": 1599,
      "ꤗ꤫ꤥ꤬ꤖꤢꤩ꤭": 1600,
      "ꤖꤚꤥ꤬ꤖꤚꤢꤧ꤬": 1601,
      "ꤒꤢꤩ꤬ꤞꤤꤛꤢꤪ꤬": 1602,
      "ꤒꤢꤩ꤬ꤞꤤꤒꤢꤩ꤬ꤖꤢꤩ": 1603,
      "ꤣꤧ꤭ꤒꤣ꤬ꤓꤢꤦ꤭": 1604,
      "ꤏꤣꤧꤔꤣꤧ꤭": 1605,
      "ꤊꤜꤢꤧꤛꤢꤨ꤭": 1606,
      "ꤢ꤬ꤒꤢꤩ꤬ꤛ꤫ꤢꤦ꤬": 1607,
      "ꤘꤣꤧꤒꤢ꤭ꤊꤢꤧ꤭": 1608,
      "ꤜꤝꤤ꤭ꤞꤝꤢ": 1609,
      "ꤛꤢꤨ꤭ꤊꤜꤢꤧꤛꤢꤨ꤭": 1610,
      "ꤋꤢꤨ꤭ꤎꤤꤜꤢ꤬": 1611,
      "ꤒꤢꤩ꤬ꤒꤣꤧ꤬ꤚꤣꤧ꤭ꤘꤢꤨ꤬": 1612,
      "ꤗꤢꤧꤡꤢꤧ꤬ꤚꤣꤧ": 1613,
      "ꤒꤣꤧ꤬ꤠꤤ꤭ꤒꤣꤧ꤬ꤠꤢ꤬": 1614,
      "ꤒ꤫ꤢꤪ꤬ꤓꤢꤩ": 1615,
      "ꤖꤚꤢꤩ꤬ꤥ꤬ꤚꤢ꤬ꤖꤢꤨ": 1616,
      "ꤛꤢꤨ꤭ꤊꤜꤢꤧꤛꤢꤨ꤭ꤊꤜꤥ꤭": 1617,
      "ꤏꤛꤢ꤬": 1618,
      "ꤔ꤫ꤥ꤬": 1619,
      "ꤡꤝꤢ꤬": 1620,
      "ꤢꤩꤏꤢꤦ꤬": 1621,
      "ꤢꤩ꤬ꤏꤢꤩ꤬": 1622,
      "ꤥ꤬ꤒꤣ꤬ꤖꤚꤢꤩ꤬": 1623,
      "ꤞꤤꤥ꤭": 1624,
      "ꤒꤣꤧ꤬ꤜꤢꤨ꤭": 1625,
      "ꤤ꤬ꤛꤢꤨ꤭": 1626,
      "ꤒꤣ꤬ꤘꤢꤪ꤭": 1627,
      "ꤠꤢꤧ꤭ꤖꤢꤨ": 1628,
      "ꤊꤣꤧ꤬ꤜꤢꤪ": 1629,
      "ꤜꤢꤨ꤭ꤍ꤫ꤥ꤬": 1630,
      "ꤡꤝꤢꤜꤢꤩ꤭": 1631,
      "ꤘꤣꤧꤚꤢꤪ꤬": 1632,
      "ꤍ꤫ꤥ꤬ꤋꤥꤋꤛꤢ꤬": 1633,
      "ꤊ꤫ꤢꤩ꤬ꤏꤢꤩ꤭": 1634,
      "ꤓꤣꤧ꤭ꤊꤢꤧ꤬": 1635,
      "ꤓꤢꤨ꤬ꤞꤢꤩꤚꤣꤧ": 1636,
      "ꤡꤢ꤬ꤡꤝꤢ꤬": 1637,
      "ꤒꤣꤧ꤬ꤜꤝꤢꤏꤢꤦꤜꤢꤦ꤭": 1638,
      "ꤊꤣꤧ꤬ꤘꤢ꤭ꤊꤢꤨ꤭": 1639,
      "ꤋꤝꤢꤞꤤꤑꤢꤩ꤭": 1640,
      "ꤡ꤫ꤢ꤬ꤖꤚꤣꤧ꤭": 1641,
      "ꤜ꤫ꤢꤪ꤬ꤒꤣꤧ꤬ꤗꤢꤋꤢꤨ꤬": 1642,
      "ꤕ꤫ꤢꤪ꤬ꤞꤤꤒꤣ꤬ꤙꤢꤩ꤬": 1643,
      "ꤊ꤫ꤢꤩ꤬ꤏꤢꤩ꤭ꤓꤣꤧ꤭ꤊꤢꤧ꤬": 1644,
      "ꤎꤤ": 1645,
      "ꤕ꤫ꤢꤨ꤬": 1646,
      "ꤠꤢ꤬": 1647,
      "꤯)": 1648,
      "ꤢ꤬ꤡ": 1649,
      "ꤒꤢꤩ꤬ꤋꤢꤩ꤭": 1650,
      "ꤒꤢꤩ꤬ꤏꤣꤧ": 1651,
      "ꤗꤢꤩ꤬ꤋꤚꤢꤧ": 1652,
      "ꤢ꤬ꤋꤝꤤ": 1653,
      "ꤟꤢꤧ꤭ꤡ꤫ꤢꤩ꤬": 1654,
      "ꤊꤣꤧ꤭ꤔꤢꤧ": 1655,
      "ꤋꤢꤨ꤭ꤎꤢ꤬": 1656,
      "ꤜꤥ꤭ꤋꤢꤨ꤬": 1657,
      "ꤚꤣꤧꤘꤢꤦ꤬ꤜꤢꤨ꤭": 1658,
      "ꤔꤢꤪ꤭ꤓꤝꤢ꤭ꤓꤢꤧ꤬": 1659,
      "ꤊꤢꤨꤊ꤫ꤥ꤬": 1660,
      "ꤜ꤫ꤢꤩ꤬ꤥ꤭": 1661,
      "ꤒꤣꤧ꤬ꤔꤢꤧ꤭": 1662,
      "ꤚꤤ꤬ꤡ꤫ꤢꤩ꤬": 1663,
      "ꤕꤣꤧꤚꤥ꤬": 1664,
      "ꤞꤢꤪ꤬ꤗ꤫ꤢꤪ꤬": 1665,
      "ꤕꤣꤧ꤬ꤏꤤ꤭": 1666,
      "ꤒꤢꤩ꤬ꤞꤤꤋꤝꤢꤞꤤꤑꤢꤩ꤭": 1667,
      "ꤏꤥ꤭ꤒꤣꤧ꤬ꤕꤢ꤬": 1668,
      "ꤢ꤬ꤖꤢꤨꤖꤚꤢꤩ꤬ꤋꤢꤨ꤭ꤣꤧ꤭": 1669,
      "ꤕꤜꤝꤢ꤭ꤓꤢꤩ꤬": 1670,
      "ꤞꤥ꤭ꤞꤝꤢꤒꤣ꤬ꤖꤚꤢꤩ꤬": 1671,
      "ꤚꤢꤦ꤭ꤛꤢ꤬": 1672,
      "ꤔꤥ꤬ꤕꤢ꤭": 1673,
      "ꤞꤢꤨꤞꤢ": 1674,
      "ꤗꤤ꤭ꤡꤣ꤬ꤖꤢꤨ": 1675,
      "ꤗꤢꤧ꤬ꤎꤤ꤬": 1676,
      "ꤏꤥ꤭ꤖꤢꤏꤥ꤭ꤚꤢꤧ꤬ꤖꤢꤨ": 1677,
      "ꤓꤝꤢ꤭ꤙꤝꤤꤓꤝꤢ꤭ꤒꤣꤧ꤬ꤚꤣꤧ꤭": 1678,
      "ꤘꤥꤔꤤ꤬": 1679,
      "ꤒꤢꤩ꤬ꤏꤣꤧꤒꤢꤩ꤬ꤋꤢꤩ꤭": 1680,
      "ꤟꤢꤧ꤭ꤡ꤫ꤢꤩ꤬ꤚꤤ꤬ꤡ꤫ꤢꤩ꤬": 1681,
      "ꤗꤢꤧ꤬ꤎꤤ꤬ꤘꤥꤔꤤ꤬": 1682,
      "ꤋꤢꤦ꤭": 1683,
      "ꤓꤢꤧ": 1684,
      "ꤝꤢꤩ": 1685,
      "ꤢ꤬ꤔꤥ꤬": 1686,
      "ꤢꤪꤜ꤫ꤥ꤬": 1687,
      "ꤒꤢꤩ꤬ꤜꤢꤪ꤬": 1688,
      "ꤒꤣ꤬ꤕꤝꤤ": 1689,
      "ꤠꤢꤧ꤭ꤥ꤬": 1690,
      "ꤗꤢ꤬ꤤ꤭ꤒꤢꤩ꤭": 1691,
      "ꤢ꤬ꤋꤝꤢ": 1692,
      "ꤊꤣꤧ꤬ꤔꤥ꤭": 1693,
      "ꤊꤣꤧ꤬ꤖꤢꤦ꤭": 1694,
      "ꤒꤥ꤬ꤗꤢ꤬ꤔꤢꤧ": 1695,
      "ꤕꤜꤢꤨ": 1696,
      "ꤢ꤬ꤚꤢꤩ꤬": 1697,
      "ꤠꤤ꤭ꤊꤢ꤬": 1698,
      "ꤊꤢꤨꤠ": 1699,
      "ꤜꤥ꤬ꤟꤣꤧ": 1700,
      "ꤗꤤ꤬ꤊꤢꤪ꤭": 1701,
      "ꤒꤢꤦꤗꤢ꤬": 1702,
      "ꤎꤢ꤬ꤒꤢꤨ": 1703,
      "ꤓꤢꤦ꤭ꤋꤢꤩ꤭": 1704,
      "ꤢ꤬ꤘꤢꤨ꤬ꤢ꤬ꤛꤢꤧ꤭": 1705,
      "ꤊꤣꤧ꤬ꤜꤢꤪꤊꤣꤧ꤬ꤖꤢꤦ꤭": 1706,
      "ꤏꤤ꤬": 1707,
      "ꤓꤝꤤ": 1708,
      "ꤖꤥ꤬": 1709,
      "ꤘꤢꤩ꤬": 1710,
      "ꤡ꤫ꤣ꤬": 1711,
      "ꤞꤤꤟꤢ꤭": 1712,
      "ꤒꤢꤩ꤬ꤤ꤬ꤞꤝꤢ": 1713,
      "ꤞꤤ꤭ꤊꤢꤨ꤭": 1714,
      "ꤟꤢꤩꤊꤥꤚꤣꤧ": 1715,
      "ꤗꤢꤩ꤬ꤒꤢꤩ꤬ꤞꤢꤦ": 1716,
      "ꤠꤢꤧ꤭ꤊꤢꤧ꤭": 1717,
      "ꤠꤢꤧ꤭ꤚꤤ꤬": 1718,
      "ꤢꤪ꤬ꤞꤢꤩ": 1719,
      "ꤟꤢꤧ꤭ꤟꤣꤧ": 1720,
      "ꤋꤢꤨ꤭ꤢꤩ": 1721,
      "ꤊꤜꤝꤢ꤬": 1722,
      "ꤓꤥ꤭ꤘꤢꤦ꤬ꤟꤣꤧ": 1723,
      "ꤞꤢꤧꤊꤣꤧ꤭ꤘꤢꤦ꤬": 1724,
      "ꤢ꤬ꤚꤤ": 1725,
      "ꤊꤢꤩ꤬ꤟꤢꤩ": 1726,
      "ꤞꤤꤑꤢꤩ꤭ꤔꤢꤪ": 1727,
      "ꤒꤣꤧ꤬ꤚꤢꤪ꤬ꤞꤢꤩ": 1728,
      "ꤒꤢꤩ꤬ꤗꤢꤩ꤬ꤓꤝꤢ꤭ꤓꤢꤧ꤬": 1729,
      "ꤒꤢꤩ꤬ꤗꤢꤩ꤬ꤔ꤫ꤤ꤬ꤋꤝꤢꤊꤢꤩ꤬": 1730,
      "ꤙꤢꤩ꤭ꤜ꤫ꤢꤪ꤬": 1731,
      "ꤜꤢꤨ꤭ꤒꤢꤧ꤭ꤓꤢꤧ꤬": 1732,
      "ꤗ꤫ꤢꤪ꤬ꤔꤣꤧ꤭ꤘꤥ꤬": 1733,
      "ꤊꤢꤪ꤭ꤊꤢꤪ꤭": 1734,
      "ꤏꤢꤦꤢꤦ꤭": 1735,
      "ꤕꤢ꤬ꤒꤥ꤬ꤟꤣꤧ": 1736,
      "ꤒꤣꤧ꤬ꤗꤥ꤭ꤒꤣꤧ꤬ꤊꤢꤩ꤬": 1737,
      "ꤘꤣꤧꤜꤢꤧ꤬ꤊꤢꤧ꤭": 1738,
      "ꤜ꤫ꤢꤩ꤬ꤢꤩ꤬ꤜ꤫ꤢꤩ꤬ꤥ꤭": 1739,
      "ꤒꤢꤩ꤬ꤋꤤꤒꤢꤩ꤬ꤜꤢꤪ꤬": 1740,
      "ꤚꤝꤢ": 1741,
      "ꤜꤣꤧ꤭": 1742,
      "ꤟꤥ": 1743,
      "ꤠꤣ": 1744,
      "ꤡꤤ꤬": 1745,
      "ꤢ꤬ꤏꤢꤪ꤭": 1746,
      "ꤥ꤬ꤊꤢꤨ": 1747,
      "ꤥ꤬ꤊꤣꤧ꤭ꤘꤢꤦ꤬": 1748,
      "ꤒꤣꤧ꤬ꤙꤢꤩ": 1749,
      "ꤒꤢꤩ꤬ꤊꤝꤤ꤭ꤡꤢꤪꤙꤢꤩ꤭": 1750,
      "ꤞꤤ꤭ꤥ꤬": 1751,
      "ꤖꤚꤢꤩ꤬ꤡꤢꤩ꤬": 1752,
      "ꤖꤚꤢꤩ꤬ꤥ꤬ꤕ꤫ꤢꤪ꤬": 1753,
      "ꤒꤣ꤬ꤗ꤫ꤥ꤬": 1754,
      "ꤗꤢꤩ꤬ꤜꤣ": 1755,
      "ꤗꤢꤩ꤬ꤕꤛꤢ": 1756,
      "ꤊꤣꤧ꤬ꤛꤥ꤭": 1757,
      "ꤊꤣꤧ꤬ꤔꤥ": 1758,
      "ꤒꤥ꤬ꤙꤢꤩ꤬": 1759,
      "ꤙꤢꤩ꤬ꤛꤢꤪ꤬": 1760,
      "ꤜꤢꤨ꤭ꤞꤤꤕꤜꤢꤪ꤬": 1761,
      "ꤜꤢꤨ꤭ꤗꤝꤤ꤭": 1762,
      "ꤒꤣ꤬ꤖꤚꤢꤩ꤬ꤟꤣꤧ": 1763,
      "ꤋꤢꤨ꤭ꤜꤢ꤬": 1764,
      "ꤘꤣꤧꤥ꤭": 1765,
      "ꤔꤢꤪ꤭ꤏꤝꤢ꤬": 1766,
      "ꤗꤢꤧꤓ꤫ꤣꤧ꤬ꤙꤢꤩ꤬": 1767,
      "ꤔꤥ꤭ꤔ꤫ꤤ꤬": 1768,
      "ꤛꤢ꤬ꤏꤛꤢ": 1769,
      "ꤘꤢꤧꤔ꤫ꤤ꤬": 1770,
      "ꤒꤢꤦꤚꤣꤧ꤬": 1771,
      "ꤚꤢ꤭ꤒꤢꤩ꤭": 1772,
      "ꤒꤣꤧ꤬ꤟꤢꤩ꤬ꤟꤢꤩ꤬ꤚꤣꤧ꤬": 1773,
      "ꤞꤥ꤭ꤞꤝꤢꤒꤣ꤬ꤗꤢꤩ꤭": 1774,
      "ꤞꤝꤤ꤬ꤓꤣꤧ꤭": 1775,
      "ꤞꤢꤨꤕꤜꤣꤧ꤬": 1776,
      "ꤟꤢꤪꤊꤢꤨ꤭": 1777,
      "ꤚꤢ꤭ꤗꤢꤚꤢ꤭ꤒꤢꤩ꤭": 1778,
      "ꤒꤢꤩ꤬ꤏꤝꤤꤒꤢꤩ꤬ꤏꤢꤩ꤭": 1779,
      "ꤠꤤ꤭ꤢ꤬ꤒꤤ꤬": 1780,
      "ꤢ꤬ꤋꤝꤢꤢ꤬ꤊꤢꤩ꤬": 1781,
      "ꤏꤤ꤬ꤜꤥ": 1782,
      "ꤠꤢꤧ꤭ꤚꤤ꤬ꤠꤢꤧ꤭ꤊꤢꤧ꤭": 1783,
      "ꤒꤣꤧ꤬ꤙꤢꤩꤞꤤꤖꤚꤢ": 1784,
      "ꤛꤢ꤬ꤏꤛꤢꤛꤢ꤬": 1785,
      "ꤋꤝꤢ꤬": 1786,
      "ꤒꤢ꤬": 1787,
      "ꤘꤝꤢ꤭": 1788,
      "ꤙꤢꤪ꤭": 1789,
      "ꤛꤢꤨ꤬": 1790,
      "ꤢꤩꤖꤢꤩ": 1791,
      "ꤢ꤬ꤕꤜꤢꤪ": 1792,
      "ꤢ꤬ꤏꤝꤢ꤬": 1793,
      "ꤒꤣꤧ꤬ꤍ": 1794,
      "ꤒꤢꤩ꤬ꤒꤣ꤬ꤡꤣ꤬ꤡꤢꤦ꤭": 1795,
      "ꤖꤚꤢꤩ꤬ꤊꤢꤩ꤭": 1796,
      "ꤡꤢꤪꤙꤢꤨ꤬": 1797,
      "ꤊꤣꤧ꤬ꤘꤝꤤ": 1798,
      "ꤟꤢꤨꤣꤧ꤭ꤔꤣꤧ꤬ꤗꤢ꤬": 1799,
      "ꤕꤢꤩ꤬ꤚꤢ꤬": 1800,
      "ꤓꤢꤧ꤬ꤙꤢ꤭ꤓꤢꤧ꤬": 1801,
      "ꤒꤢ꤭ꤙꤢꤩ꤬": 1802,
      "ꤒꤢ꤭ꤟꤢꤧ꤭ꤑꤢꤩ꤭": 1803,
      "ꤠꤤ꤭ꤔꤢ꤬ꤎꤢ꤬ꤚꤢꤧ": 1804,
      "ꤍ꤫ꤥ꤬ꤖꤚꤢ꤬ꤓꤢꤧ꤬": 1805,
      "ꤊꤢꤨꤜꤢꤩ꤬ꤊꤥ꤬": 1806,
      "ꤗꤢꤧꤓ꤫ꤣꤧ꤬ꤟꤣꤧ": 1807,
      "ꤊꤢ꤬ꤒ꤫ꤥ꤬": 1808,
      "ꤟꤥ꤭ꤗꤢꤦ꤬": 1809,
      "ꤕ꤫ꤥ꤬ꤖꤚꤢꤩ꤬ꤋꤢꤨ꤭": 1810,
      "ꤏꤢꤜ꤫ꤢꤩ꤬": 1811,
      "ꤗ꤫ꤥ꤬ꤗꤢ꤬ꤚꤤ": 1812,
      "ꤒꤣ꤬ꤖꤚꤢꤩ꤬ꤖꤚꤢꤩ꤬ꤔꤣꤧ꤬": 1813,
      "ꤎꤢ꤬ꤘ": 1814,
      "ꤒꤣꤧ꤬ꤘꤢꤦ꤬ꤕꤢ꤬": 1815,
      "ꤘꤢꤪ꤭ꤊꤢꤨ꤭": 1816,
      "ꤒꤣꤧ꤬ꤊꤜꤤ꤬": 1817,
      "ꤜꤢꤩ꤬ꤠꤤ": 1818,
      "ꤞꤤꤓꤢꤩ꤬ꤞꤤꤟꤢ꤭": 1819,
      "ꤡꤢꤩ꤭ꤗꤢꤧ": 1820,
      "ꤢ꤬ꤓꤣꤧ꤭ꤢ꤬ꤊ꤫ꤢꤩ꤬ꤊꤢꤨ꤭": 1821,
      "ꤏꤛꤢ꤬ꤗꤢ꤬ꤚꤤ": 1822,
      "ꤗꤢꤩ꤬ꤜꤣꤗꤢꤩ꤬": 1823,
      "ꤠꤤ꤭ꤢ꤬ꤒꤤ꤬ꤢꤪ꤬": 1824,
      "ꤢꤩꤖꤢꤩꤎꤢꤨ꤬": 1825,
      "ꤢ꤬ꤕꤜꤢꤪꤢ꤬ꤗꤢꤨ꤬": 1826,
      "ꤢ꤬ꤏꤝꤢ꤬ꤢ꤬ꤏꤢꤪ꤭": 1827,
      "ꤡꤢꤪꤙꤢꤨ꤬ꤡꤢꤪꤙꤢꤩ꤭ꤓꤢꤧ꤬": 1828,
      "ꤎꤢ꤬ꤚꤢꤨ": 1829,
      "ꤢ꤬ꤡꤢ꤬": 1830,
      "ꤢꤪꤜꤤ": 1831,
      "ꤒꤣꤧ꤬ꤗꤝꤤ꤭": 1832,
      "ꤢꤦ꤬ꤢ꤬ꤋꤚ": 1833,
      "ꤒꤢꤩ꤬ꤞꤤꤕꤜꤢꤪ꤬": 1834,
      "ꤒꤢꤩ꤬ꤓꤝꤢ꤭ꤓꤢꤧ꤬": 1835,
      "ꤒꤢꤩ꤬ꤢꤩꤜꤢ꤬ꤢꤩꤕꤜꤢꤩ": 1836,
      "ꤒꤢꤩ꤬ꤒꤣꤧ꤬ꤡꤣꤧꤒꤣꤧ꤬ꤡ꤫ꤢꤨ꤬": 1837,
      "ꤖꤚꤢꤩ꤬ꤡꤢꤧ꤬ꤒꤥ꤭ꤙꤢꤩ꤬ꤒꤢꤩ꤬": 1838,
      "ꤤ꤬ꤏꤢꤪ꤭": 1839,
      "ꤟꤢꤩꤊꤢꤧ꤭": 1840,
      "ꤗꤢꤩ꤬ꤜꤢꤨ꤭": 1841,
      "ꤗꤢꤩ꤬ꤏꤢꤩ꤭": 1842,
      "ꤓꤢꤧ꤬ꤟꤣꤧ": 1843,
      "ꤡꤝꤢꤖꤛꤢ": 1844,
      "ꤊꤣꤧ꤭ꤜꤢꤪ꤭": 1845,
      "ꤓꤥ꤭ꤕꤢ꤭": 1846,
      "ꤋꤚꤢꤪ꤭": 1847,
      "ꤘꤣꤧꤚꤢꤩ꤭": 1848,
      "ꤟꤢꤨꤔꤣꤧ꤬ꤗꤢ꤬": 1849,
      "ꤋꤢꤧ꤭ꤢꤩ꤬": 1850,
      "ꤔ꤫ꤢꤩ꤬ꤙꤢꤧ꤬ꤡꤢꤩ꤬": 1851,
      "ꤘꤢꤧ꤬ꤓꤢꤧ꤬ꤜꤥ꤭": 1852,
      "ꤖꤢꤩ꤭ꤡꤛ": 1853,
      "ꤗꤢꤧꤓ꤫ꤣꤧ꤬ꤜꤝꤢ": 1854,
      "ꤜꤣꤓꤢꤧ꤬ꤙꤢ꤭ꤓꤢꤧ꤬": 1855,
      "ꤊꤢꤨ꤬ꤜꤢ꤭": 1856,
      "ꤖꤛꤢꤟꤢꤧ꤭": 1857,
      "ꤖꤛꤢꤡꤝ꤫ꤢ꤬": 1858,
      "ꤜꤤ꤬ꤣꤧ꤭ꤒꤣ꤬ꤙꤢ꤬": 1859,
      "ꤣꤧ꤭ꤒꤣ꤬ꤗꤢꤦ꤭": 1860,
      "ꤕꤣꤚꤣꤧ": 1861,
      "ꤢ꤬ꤟꤤ꤬ꤊꤢꤨ꤭": 1862,
      "ꤒꤤ꤬ꤠꤢꤩ꤬": 1863,
      "ꤞꤥ꤬ꤓꤣꤧ꤭": 1864,
      "ꤢ꤬ꤋꤚꤢꤦ꤬ꤢ꤬ꤋꤚ": 1865,
      "ꤙꤥꤊꤢꤨ꤬ꤜꤢ꤭": 1866,
      "ꤜ꤫ꤢ꤬ꤒꤣꤧ꤬ꤊꤜꤤ꤬": 1867,
      "ꤋꤢꤨ꤭ꤎꤢ꤬ꤒꤤ꤬ꤠꤢꤩ꤬": 1868,
      "ꤠꤣꤒꤢ꤭": 1869,
      "ꤋꤢꤨ꤭ꤜꤢ꤬ꤎꤢ꤬ꤚꤢꤨ": 1870,
      "ꤒꤣꤧ꤬ꤍꤢ꤭": 1871,
      "ꤢ꤬ꤋꤚꤢꤦ꤬ꤢ꤬ꤋꤚ꤫ꤢꤪ꤬": 1872,
      "ꤊꤢ": 1873,
      "ꤊꤤ꤬": 1874,
      "ꤋꤢꤪ꤭": 1875,
      "ꤒꤢꤩ": 1876,
      "ꤓꤢꤦ": 1877,
      "ꤞꤢ꤬ꤞꤢꤩ꤭": 1878,
      "ꤢ꤫ꤢ꤬": 1879,
      "ꤢꤎꤢꤧ": 1880,
      "ꤢ꤬ꤒꤣꤧ꤬ꤘꤢꤦ꤬": 1881,
      "ꤥ꤬ꤟꤣꤧ": 1882,
      "ꤞꤤꤞꤥ꤭": 1883,
      "ꤔꤣꤧ꤬ꤙꤢꤩ꤬ꤙꤢꤩ꤬": 1884,
      "ꤒꤣꤧ꤬ꤕꤜꤢꤪ꤬": 1885,
      "ꤒꤢꤩ꤬ꤗꤢꤨꤗ꤫ꤢꤧ꤬": 1886,
      "ꤟꤢꤩꤜꤢꤧ꤬": 1887,
      "ꤗꤢꤩ꤬ꤊꤣꤧ꤭": 1888,
      "ꤗꤢꤩ꤬ꤏꤤ": 1889,
      "ꤠꤢꤧ꤭ꤊꤢꤨ꤭": 1890,
      "ꤖꤢꤧꤔꤣꤧ꤬": 1891,
      "ꤞꤢꤧꤜꤢꤨ꤭": 1892,
      "ꤗ꤫ꤢ꤬ꤟꤢꤧ꤭": 1893,
      "ꤜꤣꤧ꤬ꤘꤢꤧ": 1894,
      "ꤜꤣꤧ꤬ꤛꤢꤪ꤬": 1895,
      "ꤒꤣꤧ꤬ꤚꤣꤧ꤭ꤘꤢꤨ꤬": 1896,
      "ꤙꤢꤩꤚꤢꤩ꤭": 1897,
      "ꤘꤢ꤬ꤊ꤫ꤢꤩ꤬": 1898,
      "ꤘꤢꤪꤥ": 1899,
      "ꤞꤥ꤭ꤞꤝꤢꤒꤣ꤬": 1900,
      "ꤏꤥ꤬ꤋꤢꤨ꤬": 1901,
      "ꤕꤣꤧ꤬ꤒꤤꤜꤣ": 1902,
      "ꤏꤤ꤭ꤙꤢ꤬": 1903,
      "ꤗꤢꤦ꤭ꤞꤣꤧ꤭ꤓꤢꤧ꤬ꤊꤢꤧ꤭": 1904,
      "ꤊꤢꤦ꤭ꤞꤢꤧꤓꤢꤧ꤬": 1905,
      "ꤊꤜꤣꤧ꤭ꤒꤣ꤬ꤚꤤ": 1906,
      "ꤊꤢ꤬ꤏꤥ꤭ꤘꤢꤧ꤬": 1907,
      "ꤕꤣꤧ꤬ꤒꤢ": 1908,
      "ꤥ꤬ꤜꤣꤥ꤬ꤊꤜꤢꤪ꤭": 1909,
      "ꤘꤣꤧꤚꤢꤪ꤬ꤘꤣꤧꤚꤢꤩ꤭": 1910,
      "ꤒꤣꤧ꤬ꤕꤜꤢꤪ꤬ꤜꤣꤧ꤬ꤛꤢꤪ꤬": 1911,
      "ꤗꤢꤩ꤬ꤏꤤꤛꤢ꤬": 1912,
      "ꤏꤢꤧ": 1913,
      "ꤜꤢꤧ": 1914,
      "ꤜꤢ꤬ꤋ": 1915,
      "ꤡ꤫ꤢꤨ꤬": 1916,
      "ꤢꤩ꤬ꤟꤤ": 1917,
      "ꤢꤧꤒꤢꤩ꤬": 1918,
      "ꤢꤧꤡꤢꤪ": 1919,
      "ꤢ꤬ꤊꤢ꤬": 1920,
      "ꤥ꤬ꤖꤢꤧ": 1921,
      "ꤞꤤꤒꤣꤧ꤬": 1922,
      "ꤒꤢꤩ꤬ꤒꤣ꤬ꤡꤣ꤬": 1923,
      "ꤒꤢꤩ꤬ꤒꤣꤧ꤬ꤚꤣꤧ꤭ꤏꤝꤢ꤬ꤏꤢꤪ꤭": 1924,
      "ꤖꤚꤢꤩ꤬ꤊꤝꤤ꤭": 1925,
      "ꤗꤢꤩ꤬ꤘꤤꤘꤢꤧ꤭": 1926,
      "ꤖꤢꤨꤞꤢꤩ꤬": 1927,
      "ꤡꤝꤢꤒꤥ꤭": 1928,
      "ꤕꤜꤢꤧ꤬": 1929,
      "ꤕꤜ꤫ꤢꤧ꤬": 1930,
      "ꤒꤢꤩ꤭ꤔꤣꤧ꤬": 1931,
      "ꤗ꤫ꤢ꤬ꤘꤣ": 1932,
      "ꤓꤝꤢ꤭ꤘꤢꤨ꤬": 1933,
      "ꤞꤤꤕꤜꤢꤪ꤬ꤗꤥ꤬": 1934,
      "ꤞꤤꤕꤜꤢꤪ꤬ꤞꤣꤧ꤭ꤖꤚꤢꤩ꤬": 1935,
      "ꤖꤢꤩ꤭ꤛꤢ꤬ꤊꤥ꤬": 1936,
      "ꤒ꤫ꤥ꤬ꤊꤢꤨꤔ꤫ꤢꤧ꤬": 1937,
      "ꤜ꤫ꤢꤩ꤬ꤋꤢꤧ꤬": 1938,
      "ꤖꤛꤢꤘꤝꤢ": 1939,
      "ꤜꤢꤨ꤬ꤖꤚꤥ": 1940,
      "ꤖꤚꤢꤩ꤬ꤗꤢꤪ꤬ꤖꤢꤨꤡ꤫ꤢꤩ꤬ꤟꤢꤨ": 1941,
      "ꤋꤝꤤꤘꤢ꤬ꤠꤤ꤬": 1942,
      "ꤘꤣꤧꤜꤥ꤭ꤓꤢꤧ꤬": 1943,
      "ꤕ꤫ꤢꤦ꤬ꤔ꤫ꤤ꤬": 1944,
      "ꤘꤤ꤭ꤚ꤫ꤢꤩ꤬": 1945,
      "ꤋꤥ꤭ꤙꤢꤧꤞꤝꤢꤗꤥ꤬": 1946,
      "ꤤ꤬ꤒꤢꤩ꤭ꤔꤣꤧ꤬": 1947,
      "ꤢꤩ꤬ꤟꤥ꤬ꤢꤩ꤬ꤟꤤ": 1948,
      "ꤛꤢꤨ꤬ꤘꤢ꤬ꤊ꤫ꤢꤩ꤬": 1949,
      "ꤘꤢꤪꤥꤘꤢꤪ": 1950,
      "ꤢꤧꤡꤢꤪꤢꤧꤒꤢꤩ꤬": 1951,
      "ꤏꤢꤩ": 1952,
      "ꤔꤢꤨ": 1953,
      "ꤕꤤ꤭": 1954,
      "ꤙꤤ꤬": 1955,
      "ꤟꤢ": 1956,
      "ꤢꤩꤔ꤫ꤤ꤬": 1957,
      "ꤢ꤬ꤊꤜꤥ꤭": 1958,
      "ꤢ꤬ꤒꤝ꤫ꤢ꤬": 1959,
      "ꤥ꤬ꤕꤜꤢꤨ꤬": 1960,
      "ꤒꤢꤩ꤬ꤒꤝ꤫ꤢ꤬": 1961,
      "ꤖꤚꤢꤦ": 1962,
      "ꤒꤣ꤬ꤕꤜꤢꤪ꤬": 1963,
      "ꤗꤢꤩ꤬ꤒꤢ꤭ꤒꤢꤦ꤭": 1964,
      "ꤢ꤬ꤋꤢꤩ꤬": 1965,
      "ꤙꤢꤩ꤬ꤞꤢ꤬": 1966,
      "ꤊꤣꤧ꤬ꤛꤢꤧ꤭ꤗꤢꤨꤗ꤫ꤢꤧ꤬": 1967,
      "ꤜꤢꤨ꤭ꤒꤢꤩ꤬ꤞꤢꤦ": 1968,
      "ꤒꤣ꤬ꤖꤚꤢꤩ꤬ꤡꤢꤦ꤭": 1969,
      "ꤟꤢꤧ꤭ꤙꤢꤩ꤬": 1970,
      "ꤜꤢꤪ꤭ꤜ꤫ꤢ꤬ꤒꤣꤧ꤬ꤊꤜꤤ꤬": 1971,
      "ꤡꤝꤢꤓꤢꤧ꤬": 1972,
      "ꤡꤝꤢꤗꤢꤧꤓ꤫ꤣꤧ꤬": 1973,
      "ꤋꤢꤨ꤭ꤒꤤ": 1974,
      "ꤕ꤫ꤢꤩ꤬ꤜꤢꤪ꤭": 1975,
      "ꤔ꤫ꤤ꤬ꤙꤝꤤ": 1976,
      "ꤢ꤬ꤚꤣ꤬": 1977,
      "ꤟꤢꤩꤏꤥ꤭": 1978,
      "ꤒꤥ꤭ꤗꤢ": 1979,
      "ꤠꤤ꤭ꤊꤢꤧ": 1980,
      "ꤖꤢꤩ꤭ꤢ꤬": 1981,
      "ꤊꤢ꤬ꤘ": 1982,
      "ꤟꤢꤩꤙꤢꤩ꤬ꤓꤢꤨ꤬ꤞꤢꤩ": 1983,
      "ꤞꤥ꤭ꤖꤥ": 1984,
      "ꤙꤢꤧꤒꤢ꤭": 1985,
      "ꤟꤢꤨꤒꤢꤩ꤭ꤒꤢꤩ꤭": 1986,
      "ꤢ꤬ꤚꤥ꤬ꤒꤣꤧ꤬ꤟꤢꤩ꤬": 1987,
      "ꤏꤥ꤭ꤘꤥ꤭": 1988,
      "ꤔꤣꤧ꤬ꤒꤣ꤬ꤙꤢ꤬": 1989,
      "ꤚ꤫ꤥ꤬ꤜꤢꤪ꤭": 1990,
      "ꤒꤣ꤬ꤖꤥ꤬ꤔꤣꤧ꤬": 1991,
      "ꤗꤢꤧꤕꤢꤨ꤭ꤞꤤꤑꤢꤩ꤭": 1992,
      "ꤊꤜꤢꤧ꤭ꤗꤢꤩ꤭": 1993,
      "ꤞꤢꤚꤢꤘꤢꤨ꤬": 1994,
      "ꤖꤚꤢꤩ꤬ꤗꤢꤩ꤬ꤜꤣꤧ꤬ꤕꤜꤢꤩꤊꤢ꤬": 1995,
      "ꤗꤢꤩ꤬ꤒꤢꤩ꤬ꤚꤢꤧ": 1996,
      "ꤛ꤫ꤢꤦ꤬ꤢꤩ꤬ꤔ꤫ꤢꤧ꤬ꤢꤩ꤬ꤒꤢꤩ꤬": 1997,
      "ꤎꤢ꤬ꤚꤤ": 1998,
      "ꤡꤝꤢꤥ꤬ꤜꤢꤩ꤭": 1999,
      "ꤢ꤬ꤊꤜꤢꤧꤢ꤬ꤊꤜꤥ꤭": 2000,
      "ꤖꤚꤢꤪ꤬ꤊꤢꤧ꤭": 2001,
      "ꤤ꤬ꤛꤢꤨ꤭ꤜꤥ꤭": 2002,
      "ꤢꤪꤜꤤꤠꤢ꤬": 2003,
      "ꤘꤢꤪꤥꤘꤢꤪꤙꤤ": 2004,
      "ꤠꤤ꤭ꤊꤢꤧꤎꤢ꤬ꤚꤤ": 2005,
      "ꤘꤤ꤬": 2006,
      "ꤚ꤫ꤢꤨ꤬": 2007,
      "ꤛꤢꤦ꤬": 2008,
      "ꤞꤣ꤬": 2009,
      "ꤡꤛꤢꤪ꤬": 2010,
      "ꤢꤩ꤬ꤒ꤫ꤣ꤬": 2011,
      "ꤢꤧꤘꤥ꤬": 2012,
      "ꤢ꤬ꤑꤢ꤭": 2013,
      "ꤢ꤬ꤊꤜꤣꤧ꤭ꤟꤢꤨ": 2014,
      "ꤢ꤬ꤏꤛꤢ": 2015,
      "ꤒꤢꤩ꤬ꤘꤢꤧ꤬": 2016,
      "ꤒꤢꤩ꤬ꤘꤥ꤬ꤔꤢꤧ꤭": 2017,
      "ꤖꤚꤢꤩ꤬ꤞꤤ": 2018,
      "ꤟꤢꤩꤓꤥ꤭ꤟꤣꤧ": 2019,
      "ꤗꤢꤩ꤬ꤗꤢꤧ": 2020,
      "ꤢꤨ꤬ꤜꤥ꤬": 2021,
      "ꤢ꤬ꤋꤢꤧꤘꤥ꤬": 2022,
      "ꤛꤢꤩ꤬ꤞꤤ꤭ꤑꤢꤩ꤭": 2023,
      "ꤊꤣꤧ꤬ꤛꤢꤧ꤭ꤚꤤ꤬ꤡ꤫ꤢꤧ꤬": 2024,
      "ꤊꤣꤧ꤬ꤛꤢꤧ꤭ꤏꤝꤤ": 2025,
      "ꤜꤢꤨ꤭ꤑꤢꤩ꤭": 2026,
      "ꤜꤢꤨ꤭ꤊꤢꤨ꤭": 2027,
      "ꤔꤢꤧ꤬ꤥ꤬": 2028,
      "ꤕꤢ꤭ꤒꤢꤦ꤭": 2029,
      "ꤊꤣꤧ꤭ꤟꤣꤧ": 2030,
      "ꤚꤣꤧꤊꤣꤧ꤭": 2031,
      "ꤕꤜꤢꤧ": 2032,
      "ꤔ꤫ꤤ꤬ꤒꤣꤧ꤬ꤚꤣꤧ꤭": 2033,
      "ꤗ꤫ꤢ꤬ꤖꤢꤧ": 2034,
      "ꤒꤣꤧ꤬ꤟꤢꤩ꤬ꤔꤣꤧ꤬ꤗꤢ꤬": 2035,
      "ꤠꤤ꤭ꤢꤩꤖꤢꤩꤎꤢꤨ꤬": 2036,
      "ꤘꤢꤧ꤬ꤓꤢꤨ꤭": 2037,
      "ꤔꤣꤧ꤭ꤔꤣꤧ꤭": 2038,
      "ꤜ꤫ꤢꤩ꤬ꤘꤢꤧ꤬": 2039,
      "ꤏꤢꤏꤢꤦ꤬": 2040,
      "ꤟꤤ꤬ꤊꤢꤨ꤭": 2041,
      "ꤟꤢꤩ꤬ꤋꤢꤨ꤬ꤏꤤ꤭ꤙꤢ꤬": 2042,
      "ꤞꤢꤪ꤬ꤏꤢꤧ": 2043,
      "ꤡꤝ꤫ꤢꤩ꤬": 2044,
      "ꤜꤤ꤭ꤒꤣꤧ꤬ꤋꤢꤩ꤭": 2045,
      "ꤔꤣꤧ꤬ꤒꤣ꤬ꤙꤥ꤭": 2046,
      "ꤕ꤫ꤢꤦ꤬ꤖꤢꤩ꤬": 2047,
      "ꤜ꤫ꤢꤩ꤬ꤥ꤬ꤊꤥ": 2048,
      "ꤒꤣꤧ꤬ꤊꤢꤪ꤭": 2049,
      "ꤠꤢꤩ꤬ꤎꤢ꤬ꤒꤢꤨ": 2050,
      "ꤢꤩꤓꤥ꤭ꤢꤩꤗꤥ꤬": 2051,
      "ꤒꤢꤩ꤬ꤒꤣꤧ꤬ꤔꤢꤩ꤬ꤥ꤬ꤔꤢꤩ꤬": 2052,
      "ꤏꤢ꤭ꤖꤚ꤫ꤢꤩ꤬": 2053,
      "ꤟꤢꤩꤙꤝꤤꤟꤢꤩꤒꤣꤧ꤬ꤚꤣꤧ꤭ꤓꤢꤧ꤬": 2054,
      "ꤜ꤫ꤢꤩ꤬ꤊꤜꤥ꤭ꤜ꤫ꤢꤩ꤬ꤋꤢꤧ꤬": 2055,
      "ꤒꤣꤧ꤬ꤊꤢꤩ꤬ꤙꤤ": 2056,
      "ꤎꤢ꤬ꤕꤛꤤꤓꤣꤧ꤭": 2057,
      "ꤋꤝꤢꤩ": 2058,
      "ꤒꤢꤩ꤬ꤜꤢꤨ꤭ꤚ꤫ꤢꤩ꤬": 2059,
      "ꤒꤢ꤭ꤒꤥ꤭ꤒꤢ꤭ꤙꤢꤩ꤬": 2060,
      "ꤊꤣꤧ꤬ꤘꤝꤤꤗ꤫ꤢꤪ꤬": 2061,
      "ꤞꤤꤒꤣꤧ꤬ꤋꤥ꤭": 2062,
      "ꤖꤚꤢꤩ꤬ꤊꤝꤤ꤭ꤢ꤬ꤗꤢꤨ꤬ꤢ꤬ꤚꤢ": 2063,
      "ꤒꤢꤩ꤬ꤒꤝ꤫ꤢ꤬ꤒꤢꤩ꤬ꤚꤢꤧ": 2064,
      "ꤊꤤ": 2065,
      "ꤒ꤫ꤢꤨ꤬": 2066,
      "ꤓꤢꤧ꤭": 2067,
      "ꤓꤝꤤ꤬": 2068,
      "ꤕꤢꤪ": 2069,
      "ꤛ꤫ꤤ꤬": 2070,
      "꤮!": 2071,
      "ꤢꤩꤓꤢꤩ꤬": 2072,
      "ꤢꤩ꤬ꤒꤢꤩ꤬": 2073,
      "ꤢꤩ꤬ꤗꤢꤦ꤬": 2074,
      "ꤢ꤬ꤛꤢ꤬": 2075,
      "ꤢ꤬ꤖꤢꤧ꤭": 2076,
      "ꤥ꤬ꤗꤥ꤬": 2077,
      "ꤞꤤꤢꤩ꤬": 2078,
      "ꤔꤢꤧꤒꤥ꤬": 2079,
      "ꤒꤢꤩ꤬ꤕꤣꤧ꤬ꤜꤢ꤭": 2080,
      "ꤞꤤ꤭ꤔꤣꤧ꤬": 2081,
      "ꤖꤚꤢꤩ꤬ꤋꤢꤧ꤭ꤢꤩ꤬": 2082,
      "ꤤ꤬ꤒꤢ꤭": 2083,
      "ꤠꤢꤧ꤭ꤟꤢꤩ": 2084,
      "ꤕꤢꤩ꤬ꤖꤥ꤭": 2085,
      "ꤜꤢꤪ꤭ꤘꤢꤦ꤬": 2086,
      "ꤕ꤫ꤢꤩ꤬ꤘꤢꤦ꤬": 2087,
      "ꤋꤚꤢꤩ꤭": 2088,
      "ꤋꤚ꤫ꤢꤪ꤬": 2089,
      "ꤘꤣꤧꤊꤢꤧ꤭": 2090,
      "ꤘꤣꤧꤓꤝꤢ꤭ꤓꤢꤧ꤬": 2091,
      "ꤣꤧ꤭ꤔꤣꤧ꤬ꤚꤣꤧ꤬": 2092,
      "ꤜꤥ꤭ꤊ꤫ꤢꤩ꤬": 2093,
      "ꤞꤤꤑꤢꤩ꤭ꤒꤥ꤬": 2094,
      "ꤢ꤬ꤜꤤ꤭": 2095,
      "ꤞꤤꤕꤜꤢꤪ꤬ꤕꤛꤢ": 2096,
      "ꤞꤤꤕꤜꤢꤪ꤬ꤞꤥ꤬ꤓꤣꤧ꤭": 2097,
      "ꤜꤣꤧ꤬ꤡ꤫ꤢꤨ꤬": 2098,
      "ꤓꤣꤧ꤭ꤔꤥ꤬ꤗꤢꤦ": 2099,
      "ꤋꤢꤩ꤭ꤔꤣꤧ꤬": 2100,
      "ꤗ꤫ꤢꤪ꤬ꤞꤤ꤭ꤊꤜꤢꤩ꤭": 2101,
      "ꤡꤢ꤭ꤋꤢꤧ": 2102,
      "ꤋꤢꤧꤡꤢ꤭ꤋꤢꤧ": 2103,
      "ꤒꤣꤧ꤬ꤚꤣꤧ꤭ꤖꤚꤥ꤬ꤖꤚꤢꤧ꤬": 2104,
      "ꤞꤢꤪ꤬ꤞꤢꤩ꤬": 2105,
      "ꤋꤚꤝꤢ꤭ꤜꤢꤦ꤬": 2106,
      "ꤢ꤬ꤙꤢꤨ꤬ꤜꤥ꤬": 2107,
      "ꤘꤢꤧꤏꤥ꤬": 2108,
      "ꤘꤥ꤬ꤢꤩ꤬": 2109,
      "ꤗꤢꤩ꤬ꤡꤝ꤫ꤢ꤬ꤖꤛꤢꤡꤝ꤫ꤢ꤬": 2110,
      "ꤘꤢ꤬ꤗꤢ꤬": 2111,
      "ꤜꤝꤤ꤭ꤏꤣꤧ꤭": 2112,
      "ꤒꤣꤧ꤬ꤊꤤ꤬ꤟꤢꤨ": 2113,
      "ꤢꤩꤓꤢꤧ꤬ꤕ꤫ꤥ꤬": 2114,
      "ꤋꤢꤧꤘꤥ꤬ꤘꤢ": 2115,
      "ꤥ꤬ꤗꤣꤧ꤭ꤒꤣꤧ꤬ꤕꤢ꤬": 2116,
      "ꤒꤣ꤬ꤊ꤫ꤢꤩ꤬ꤜꤢꤩ꤭": 2117,
      "ꤗꤢꤩ꤬ꤕ꤫ꤢꤩ꤬ꤊꤢꤧ꤭": 2118,
      "ꤞꤤꤕꤜꤢꤩ꤭ꤞꤤꤛꤢꤪ꤬": 2119,
      "ꤥ꤬ꤚ꤫ꤥ꤬ꤥ꤬ꤢꤩ": 2120,
      "ꤜ꤫ꤢꤩ꤬ꤞꤢꤦ꤬ꤘꤢꤨ꤬": 2121,
      "ꤗ꤫ꤥ꤬ꤖꤢꤩ꤭ꤖꤣꤧ꤭ꤖꤥ꤭": 2122,
      "ꤟꤢꤟꤥ": 2123,
      "ꤋꤢꤨ꤭ꤒꤤꤒꤢꤨ": 2124,
      "ꤢꤩ꤬ꤗꤢꤦ꤬ꤥ꤭": 2125,
      "ꤋꤢꤧꤡꤢ꤭ꤋꤢꤧꤡꤢꤦ꤬": 2126,
      "ꤊꤢ꤬ꤋ": 2127,
      "ꤋꤣꤧ꤭": 2128,
      "ꤓꤢ꤬ꤊꤢ꤬": 2129,
      "ꤕꤢꤩ": 2130,
      "ꤕꤢꤦ꤬": 2131,
      "ꤗꤝꤢ꤭": 2132,
      "ꤙꤢꤪ꤬": 2133,
      "ꤡꤤ": 2134,
      "ꤥꤕꤢ꤬": 2135,
      "ꤢ꤬ꤞꤢꤦ": 2136,
      "ꤢ꤬ꤊꤚꤤ": 2137,
      "ꤥ꤬ꤔꤣꤧ꤬": 2138,
      "ꤥ꤬ꤓꤝꤢ꤭ꤓꤢꤧ꤬": 2139,
      "ꤥ꤬ꤕ꤫ꤢ꤬": 2140,
      "ꤞꤤꤋꤝꤢꤩ": 2141,
      "ꤒꤢꤩ꤬ꤟꤢꤩꤏꤥ꤬ꤘꤥ꤬ꤔꤢꤧ꤭": 2142,
      "ꤒꤢꤩ꤬ꤕꤛꤢ": 2143,
      "ꤒꤢꤩ꤬ꤞꤤꤕꤜꤢꤪ꤬ꤘꤢꤨ꤬": 2144,
      "ꤒꤢꤩ꤬ꤔꤥ꤬ꤗꤢꤦ": 2145,
      "ꤒꤢꤩ꤬ꤜ꤫ꤢꤨ꤬": 2146,
      "ꤖꤚꤢꤧ": 2147,
      "ꤒꤣ꤬ꤛꤢꤩ꤬": 2148,
      "ꤒꤣ꤬ꤋꤥ": 2149,
      "ꤟꤢꤩꤟꤢꤨꤔꤣꤧ꤬": 2150,
      "ꤗꤢꤩ꤬ꤟꤣꤧ": 2151,
      "ꤗꤢꤩ꤬ꤙꤢꤩ": 2152,
      "ꤗꤢꤩ꤬ꤜ꤫ꤢꤨ꤬": 2153,
      "ꤟꤣꤧꤟꤣꤧ": 2154,
      "ꤡꤢꤪꤒꤢꤩ꤬": 2155,
      "ꤊꤣꤧ꤬ꤜꤢꤨ": 2156,
      "ꤒꤥ꤬ꤔꤣꤧ꤬": 2157,
      "ꤊꤢꤧ꤭ꤟꤣꤧ": 2158,
      "ꤊꤢꤧ꤭ꤊꤢꤨ꤭": 2159,
      "ꤟꤢꤧ꤭ꤓꤢꤩ꤬": 2160,
      "ꤔꤢꤧ꤬ꤑꤢꤩ꤭": 2161,
      "ꤔꤢꤧ꤬ꤍ꤫ꤥ꤬": 2162,
      "ꤋꤚ꤫ꤤ꤬": 2163,
      "ꤘꤣꤧꤕ꤫ꤢꤩ꤬": 2164,
      "ꤊꤢꤨ꤭ꤔꤣꤧ꤬": 2165,
      "ꤟꤢꤨꤔꤣꤧ꤬ꤓꤥ꤭ꤚꤣꤧ꤬": 2166,
      "ꤞꤣꤧ꤭ꤡ꤫ꤢꤧ꤬": 2167,
      "ꤊꤢꤩ꤬ꤗ꤫ꤢ꤬ꤒꤥ꤬ꤚꤣꤧ꤬": 2168,
      "ꤠꤤ꤭ꤒꤢ꤭ꤊꤢꤧ꤭": 2169,
      "ꤠꤤ꤭ꤘꤢ꤬ꤗꤢ꤬": 2170,
      "ꤔꤢꤪ꤭ꤞꤤꤑꤢꤩ꤭": 2171,
      "ꤔꤣꤧ꤭ꤙꤢꤩ꤬": 2172,
      "ꤗꤢꤧꤓ꤫ꤣꤧ꤬ꤡ꤫ꤢꤧ꤬": 2173,
      "ꤊꤢ꤬ꤊꤣꤧ꤭": 2174,
      "ꤒ꤫ꤥ꤬ꤟꤣꤧ": 2175,
      "ꤜ꤫ꤢꤩ꤬ꤗꤣꤧ꤭": 2176,
      "ꤋꤢꤧꤜꤥ꤭": 2177,
      "ꤊꤢ꤬ꤋꤛꤢ꤭ꤒꤥ꤭": 2178,
      "ꤒꤣꤧ꤬ꤔꤢꤩ꤬ꤓꤢꤧ꤬": 2179,
      "ꤜꤢꤨ꤬ꤖꤚꤢꤧ꤭": 2180,
      "ꤋꤥꤜꤢꤨ꤭": 2181,
      "ꤤ꤬ꤎꤢ꤬ꤚꤢꤩꤜꤢ꤬": 2182,
      "ꤜꤢꤦ꤬ꤋꤚꤝꤢ꤭": 2183,
      "ꤕ꤫ꤢꤧ꤬ꤗꤢꤩ꤬ꤏꤢꤩ꤭": 2184,
      "ꤎꤢ꤬ꤕꤛꤤꤖꤢꤩ꤬": 2185,
      "ꤘꤢꤧ꤬ꤘꤢꤨ꤬ꤘꤢꤧ꤬ꤓꤢꤨ꤭": 2186,
      "ꤞꤤꤜꤢꤩ꤬ꤓꤢꤧ꤬ꤚꤣꤧ": 2187,
      "ꤊꤜꤣꤧ꤭ꤒꤣ꤬ꤛꤢꤩ꤬": 2188,
      "ꤋꤚꤢꤦ꤬ꤋꤚ꤫ꤢꤪ꤬": 2189,
      "ꤤ꤬ꤡꤛꤤꤊ꤫ꤢꤩ꤬": 2190,
      "ꤠꤤ꤭ꤊꤢ꤬ꤕꤢꤩ꤬ꤚꤢ꤬": 2191,
      "ꤗꤢꤩ꤬ꤕꤛꤢꤗꤢꤩ꤬ꤜ꤫ꤢꤨ꤬": 2192,
      "ꤖꤢꤩ꤭ꤡꤛꤥꤎꤢꤧ": 2193,
      "ꤜꤢ꤬ꤋꤤ": 2194,
      "ꤜꤢꤨ꤬ꤖꤚꤥꤜꤢꤨ꤬ꤖꤚꤢꤧ꤭": 2195,
      "ꤙꤤ꤬ꤊꤛꤢ꤭": 2196,
      "ꤢꤩ꤬ꤒ꤫ꤣ꤬ꤥ꤭": 2197,
      "ꤢ꤬ꤊꤚꤤꤕꤢ꤬": 2198,
      "ꤒꤢꤩ꤬ꤕꤛꤢꤒꤢꤩ꤬ꤜ꤫ꤢꤨ꤬": 2199,
      "ꤠꤤ꤭ꤘꤢ꤬ꤗꤢ꤬ꤎꤢꤩ꤬": 2200,
      "ꤠꤤ꤭ꤊꤢ꤬ꤕꤢꤩ꤬ꤚꤢ꤬ꤔꤢꤪ꤬": 2201,
      "ꤍꤢ꤬": 2202,
      "ꤕꤛꤢ꤭": 2203,
      "ꤖꤢꤩꤖꤢꤨ": 2204,
      "ꤚꤢꤩ": 2205,
      "ꤛ꤫ꤢꤪ꤬": 2206,
      "ꤛꤢꤩꤕꤜꤢꤩ": 2207,
      "ꤞꤝꤢꤩ": 2208,
      "ꤢꤩꤕꤜꤢꤪ": 2209,
      "ꤢꤩ꤬ꤊꤢꤪ": 2210,
      "ꤢ꤬ꤏꤢꤩ꤭": 2211,
      "ꤢ꤬ꤏꤝꤤ": 2212,
      "ꤥ꤬ꤞꤥ꤬": 2213,
      "ꤞꤤꤜꤝꤤ꤭": 2214,
      "ꤞꤤꤍꤢ꤬": 2215,
      "ꤔꤣꤧ꤬ꤒꤣꤧ꤬ꤟꤢꤩ꤬ꤔꤣꤧ꤬": 2216,
      "ꤢꤨ꤭ꤒꤢꤩ꤬": 2217,
      "ꤒꤢꤩ꤬ꤒꤢꤧ꤭": 2218,
      "ꤒꤢꤩ꤬ꤗꤥ꤬ꤚꤣꤧ": 2219,
      "ꤒꤢꤩ꤬ꤕꤜꤢ": 2220,
      "ꤖꤚꤢꤩ꤬ꤋꤢꤧꤟꤢꤩꤏꤥ꤬ꤜꤥ꤭ꤒꤢꤩ꤬": 2221,
      "ꤤ꤬ꤜ꤫ꤥ꤬": 2222,
      "ꤤ꤬ꤕꤜꤤ": 2223,
      "ꤒꤣ꤬ꤊꤜꤢꤪ": 2224,
      "ꤒꤣ꤬ꤞꤢꤩ꤭": 2225,
      "ꤗꤢꤩ꤬ꤜꤥ꤭": 2226,
      "ꤗꤢꤩ꤬ꤜꤣꤙꤢ꤭": 2227,
      "ꤗꤢꤩ꤬ꤕꤝꤢꤩ꤬": 2228,
      "ꤗꤢꤩ꤬ꤕ꤫ꤢꤧ꤬ꤗꤢꤩ꤬ꤏꤢꤩ꤭": 2229,
      "ꤠꤢꤧ꤭ꤗꤝꤤ꤭": 2230,
      "ꤠꤢꤧ꤭ꤖꤢꤨꤖꤚꤢꤩ꤬ꤋꤢꤨ꤭": 2231,
      "ꤠꤢꤧ꤭ꤋꤝꤢ꤬": 2232,
      "ꤤ꤭ꤕꤣꤧ꤬ꤒꤢ": 2233,
      "ꤊꤣꤧ꤬ꤛꤢꤧ꤭ꤏꤢꤩ꤭": 2234,
      "ꤕꤢꤩ꤬ꤊꤢꤨ꤭": 2235,
      "ꤕꤢꤩ꤬ꤖꤣꤧ꤭": 2236,
      "ꤊꤢꤧ꤭ꤚꤢꤧ꤬": 2237,
      "ꤟꤢꤧ꤭ꤗꤢꤩ꤬": 2238,
      "ꤡꤝꤢꤚꤣꤧ": 2239,
      "ꤊꤣꤧ꤭ꤕꤢ꤬": 2240,
      "ꤋꤢꤨ꤭ꤢꤧ꤬": 2241,
      "ꤕ꤫ꤢꤩ꤬ꤚꤣꤧ": 2242,
      "ꤟꤢꤨꤔꤣꤧ꤬ꤒꤥ꤬": 2243,
      "ꤟꤢꤨꤔꤣꤧ꤬ꤖꤢꤧ": 2244,
      "ꤒꤥ꤭ꤘꤢꤩ꤭": 2245,
      "ꤠꤤ꤭ꤔꤣꤧ꤬": 2246,
      "ꤔꤢꤪ꤭ꤟꤢꤩꤙꤢꤩ꤬": 2247,
      "ꤔꤢꤪ꤭ꤕꤣ": 2248,
      "ꤓꤢꤩ꤬ꤊꤜꤢꤧ꤬": 2249,
      "ꤕꤝꤢ꤭ꤒꤣ꤬ꤡꤣ꤬": 2250,
      "ꤛꤢ꤬ꤏꤢꤦ꤬": 2251,
      "ꤒꤣꤧ꤬ꤔꤢꤩ꤬ꤕꤜꤥ꤭": 2252,
      "ꤜꤢ꤬ꤗꤥ꤬": 2253,
      "ꤞꤥ꤭ꤜꤢꤩ꤭": 2254,
      "ꤣꤧ꤭ꤒꤣ꤬ꤙꤥ꤭": 2255,
      "ꤊꤜꤣꤧ꤭ꤊꤢꤨ꤬ꤊꤜꤢꤪ": 2256,
      "ꤜ꤫ꤥ꤬ꤘꤢꤨ꤬": 2257,
      "ꤒꤣꤧ꤬ꤖꤢ꤭ꤛꤢ꤬": 2258,
      "ꤊꤢꤧꤎꤢ꤬": 2259,
      "ꤥ꤬ꤊꤥꤊꤢꤧ꤭": 2260,
      "ꤒꤢꤩ꤬ꤜꤢꤨ꤭ꤒꤢꤩ꤬ꤒꤢꤧ꤭": 2261,
      "ꤋꤝꤢ꤬ꤋꤛꤢ꤭ꤚꤣꤧ꤬": 2262,
      "ꤊꤢ꤬ꤏꤥ꤭ꤗꤢꤩ꤭": 2263,
      "ꤕꤣꤧ꤬ꤒꤤ꤭ꤕꤣꤧ꤬ꤒꤢ": 2264,
      "ꤖꤢꤨꤖꤚꤢꤩ꤬ꤗꤢꤪ꤬ꤖꤢꤨꤖꤚꤢꤩ꤬ꤋꤢꤨ꤭": 2265,
      "ꤓꤥ꤭ꤕꤢ꤭ꤚꤣꤧ꤬": 2266,
      "ꤔ꤫ꤤ꤬ꤙꤝꤤꤔ꤫ꤤ꤬ꤒꤣꤧ꤬ꤚꤣꤧ꤭": 2267,
      "ꤖꤢꤩ꤭ꤢ꤬ꤘꤢ꤬": 2268,
      "ꤖꤚꤢꤩ꤬ꤞꤤꤖꤢꤩꤖꤢꤨ": 2269,
      "ꤕ꤫ꤢꤦ꤬ꤖꤢꤩ꤬ꤛꤢꤩꤕꤜꤢꤩ": 2270,
      "ꤊꤢ꤬ꤋꤛꤢ꤬ꤏꤢꤦ꤬": 2271,
      "ꤠꤢꤧ꤭ꤋꤝꤢ꤬ꤠꤢꤧ꤭ꤋꤛꤢ꤭": 2272,
      "ꤕꤢꤩ꤬ꤖꤣꤧ꤭ꤕꤢꤩ꤬ꤖꤥ꤭": 2273,
      "ꤋꤢ꤬ꤚꤣ꤬": 2274,
      "ꤙꤢ꤬ꤙꤢꤨ꤬ꤜꤥ꤬": 2275,
      "ꤚꤢ꤬ꤚꤢꤩ꤬": 2276,
      "ꤡꤢꤨ꤬": 2277,
      "ꤢ꤬ꤗ꤫ꤢꤧ꤬": 2278,
      "ꤥ꤬ꤒ꤫ꤢꤧ꤬": 2279,
      "ꤥ꤬ꤊꤢꤧ": 2280,
      "ꤥ꤬ꤑꤢ꤭": 2281,
      "ꤒꤣꤧ꤬ꤒ꤫ꤢꤪ꤬": 2282,
      "ꤥ꤭ꤙꤢ꤭": 2283,
      "ꤒꤣꤧ꤬ꤟꤢꤩ꤬ꤟꤣꤧ": 2284,
      "ꤟꤢꤩꤥ꤬": 2285,
      "ꤊꤣꤧ꤬ꤚꤢꤩ": 2286,
      "ꤡꤝꤢꤗꤢꤧ": 2287,
      "ꤋꤢꤨ꤭ꤔꤢ꤬": 2288,
      "ꤋꤢꤨ꤭ꤜꤢꤩ꤬ꤠꤤ": 2289,
      "ꤊꤜꤝꤢ": 2290,
      "ꤊꤜꤢ꤬ꤙꤢꤩ꤬": 2291,
      "ꤋꤚꤢꤩ꤬": 2292,
      "ꤕꤜꤢꤦ꤭": 2293,
      "ꤟꤢꤨꤔꤣꤧ꤬ꤔꤣꤧ꤬": 2294,
      "ꤜꤥ꤭ꤕꤣꤧ꤬ꤏꤤ꤭": 2295,
      "ꤒꤢ꤭ꤕꤢꤩ꤭": 2296,
      "ꤒꤢ꤭ꤕꤢꤪ꤬": 2297,
      "ꤠꤤ꤭ꤣꤧ꤭": 2298,
      "ꤠꤤ꤭ꤘꤢꤨ꤬": 2299,
      "ꤘꤢꤧ꤬ꤕꤜꤢꤪ": 2300,
      "ꤘꤢꤧ꤬ꤒꤢꤩ꤬ꤞꤢꤦ": 2301,
      "ꤔꤢꤪ꤭ꤓꤝꤢ꤭": 2302,
      "ꤔꤣꤧ꤭ꤡꤣ꤬": 2303,
      "ꤓꤣꤧ꤭ꤊꤜꤥ꤭": 2304,
      "ꤟꤢꤩꤙꤢꤩ꤬ꤘꤥ꤬ꤔꤢꤧ꤭": 2305,
      "ꤊꤢꤨ꤬ꤊꤜꤢꤪꤖꤚꤣꤧ꤭": 2306,
      "ꤒꤢꤩ꤬ꤗꤢꤩ꤬ꤢ꤬ꤔ꤫ꤢꤩ꤬": 2307,
      "ꤒꤢꤩ꤬ꤞꤢꤦꤒꤢꤩ꤬ꤕꤜꤢ": 2308,
      "ꤚꤢꤧꤊꤢ꤬": 2309,
      "ꤢ꤬ꤊꤢꤧ꤭ꤊꤢꤨ꤭": 2310,
      "ꤒꤢꤩ꤬ꤞꤤꤖꤢꤩ": 2311,
      "ꤙꤢꤧꤕꤜꤤ꤭": 2312,
      "ꤔꤣꤧ꤬ꤒꤣ꤬ꤊꤛꤢ꤭": 2313,
      "ꤠ꤫ꤢꤧ꤬ꤖꤚ꤫ꤢꤩ꤬": 2314,
      "ꤗꤢꤗꤢꤩ꤬ꤒꤢꤩ꤭": 2315,
      "ꤒꤣꤧ꤬ꤕꤜꤢꤧ": 2316,
      "ꤥ꤬ꤕ꤫ꤢꤪ꤬ꤗꤢ꤬": 2317,
      "ꤑꤢ꤭ꤋꤚꤥ꤭": 2318,
      "ꤖꤢꤩꤓꤢꤧ꤬": 2319,
      "ꤒꤣꤧ꤬ꤕꤜꤢꤩ꤬ꤊꤢꤧ꤭": 2320,
      "ꤢ꤬ꤒꤥ꤭ꤢ꤬ꤙꤢꤩ꤬": 2321,
      "ꤊꤢꤧ꤭ꤏꤢꤊꤢꤧ꤭ꤚꤢꤧ꤬": 2322,
      "ꤜꤣꤧ꤬ꤒꤢ꤭ꤒꤥ꤭": 2323,
      "ꤕꤝꤤꤒꤣ꤬ꤕꤝꤤ": 2324,
      "ꤒꤣꤧ꤬ꤕꤜꤣ꤬ꤒꤣꤧ꤬ꤕꤜꤢꤧ": 2325,
      "ꤖꤛꤢꤡꤝꤢꤔ꤫ꤤ꤬": 2326,
      "ꤊꤣꤧ꤭ꤔꤢꤧꤊ꤫ꤢꤩ꤬": 2327,
      "ꤋꤢꤦ꤭ꤟꤢ꤭": 2328,
      "ꤊꤢꤩ꤬ꤟꤢꤩꤟꤢꤨꤔꤣꤧ꤬ꤚꤣꤧ꤬": 2329,
      "ꤒꤣ꤬ꤗ꤫ꤥ꤬ꤒꤣ꤬ꤊꤜꤢꤪ": 2330,
      "ꤞꤝꤤ꤬ꤓꤣꤧ꤭ꤖꤢꤛꤢ꤬": 2331,
      "ꤞꤢꤨꤕꤜꤣꤧ꤬ꤒ꤫ꤢꤪ꤬ꤓꤢꤩ": 2332,
      "ꤋꤚꤢꤪ꤭ꤊꤢꤨ꤭": 2333,
      "ꤊꤜꤢꤧ꤭ꤗꤢꤩ꤭ꤊꤢꤨ꤭": 2334,
      "ꤞꤣ꤬ꤋꤢ꤬ꤚꤣ꤬": 2335,
      "ꤡꤛꤢꤪ꤬ꤘꤢ꤬": 2336,
      "ꤞꤤꤢꤩ꤬ꤞꤤꤥ꤭": 2337,
      "ꤢꤩ꤬ꤗꤢꤦ꤬ꤥ꤭ꤖꤚꤢꤧ": 2338,
      "ꤡꤤꤊꤛꤢ꤭": 2339,
      "ꤢꤩ꤬ꤊꤢꤪꤥ꤭ꤙꤢ꤭": 2340,
      "ꤒꤢ꤭ꤕꤢꤪ꤬ꤒꤢ꤭ꤕꤢꤩ꤭": 2341,
      "ꤞꤣ꤬ꤋꤢ꤬ꤚꤣ꤬ꤛꤢ꤬": 2342,
      "ꤋꤢꤩ": 2343,
      "ꤋꤢꤪ꤬": 2344,
      "ꤏꤛꤢꤩ꤬": 2345,
      "ꤓꤢ": 2346,
      "ꤔꤤ꤭": 2347,
      "ꤙꤤ꤭": 2348,
      "ꤙꤚꤢꤨ": 2349,
      "ꤚꤥ꤬ꤗꤢꤦ": 2350,
      "ꤜ꤫ꤤ꤬": 2351,
      "ꤢ꤬ꤕ꤫ꤥ꤬ꤠ꤫ꤢꤧ꤬": 2352,
      "ꤢ꤬ꤓꤢꤦ꤭": 2353,
      "ꤢ꤬ꤏꤢꤩ꤬ꤢꤩ꤬": 2354,
      "ꤢ꤬ꤏꤣꤧꤋꤢꤩ꤭": 2355,
      "ꤢꤨꤊꤢꤧ": 2356,
      "ꤥ꤬ꤊꤣꤧ꤭ꤢꤨ꤭": 2357,
      "ꤥ꤬ꤒꤣꤧ꤬ꤚꤤ꤬ꤒꤣꤧ꤬ꤚꤢꤧ꤭": 2358,
      "ꤞꤤꤊꤣꤧ꤬ꤜꤢꤪꤊꤣꤧ꤬ꤖꤢꤦ꤭": 2359,
      "ꤢꤨ꤭ꤗꤢꤩ꤭": 2360,
      "ꤒꤣꤧ꤬ꤞꤥ꤭": 2361,
      "ꤒꤣꤧ꤬ꤜꤢꤩ꤭": 2362,
      "ꤒꤣꤧ꤬ꤖꤚꤥ": 2363,
      "ꤒꤣꤧ꤬ꤘꤝꤢ꤭": 2364,
      "ꤒꤣꤧ꤬ꤗꤝꤢ꤭": 2365,
      "ꤒꤢꤩ꤬ꤣꤧ꤭ꤔꤣꤧ꤬": 2366,
      "ꤟꤢꤩ꤬ꤗꤢꤦ꤬": 2367,
      "ꤤ꤬ꤢꤨ꤬": 2368,
      "ꤤ꤬ꤔꤢꤨ": 2369,
      "ꤤ꤬ꤓꤢ꤬ꤊꤢ꤬": 2370,
      "ꤒꤣ꤬ꤊꤢꤨ꤭": 2371,
      "ꤒꤣ꤬ꤞꤢꤪ": 2372,
      "ꤟꤢꤩꤊꤢ꤬ꤋꤛꤢ꤬ꤏꤢꤦ꤬": 2373,
      "ꤗꤢꤩ꤬ꤡꤢꤪ": 2374,
      "ꤗꤢꤩ꤬ꤟꤢꤨꤒꤢꤩ꤭": 2375,
      "ꤗꤢꤩ꤬ꤔꤢꤪ": 2376,
      "ꤗꤢꤩ꤬ꤜꤣꤧ꤬ꤕꤜꤢꤩ": 2377,
      "ꤜꤢꤪꤕꤜꤢꤨ": 2378,
      "ꤗꤢ꤬ꤞꤢ": 2379,
      "ꤡꤢꤪꤙꤢꤨ꤬ꤡꤢꤪꤙꤢꤩ꤭": 2380,
      "ꤙꤢꤩ꤬ꤟꤣꤧ": 2381,
      "ꤛꤢꤩ꤬ꤞꤤ꤭ꤔꤣꤧ꤬": 2382,
      "ꤛꤢꤩ꤬ꤞꤤ꤭ꤊꤜꤢꤩ꤭": 2383,
      "ꤕꤢꤩ꤬ꤊꤜꤢꤩ꤭": 2384,
      "ꤟꤢꤧ꤭ꤢꤩ꤬": 2385,
      "ꤟꤢꤧ꤭ꤊꤣꤧ꤭": 2386,
      "ꤟꤢꤧ꤭ꤗꤣꤧ꤭": 2387,
      "ꤟꤢꤧ꤭ꤕ꤫ꤢꤦ꤬": 2388,
      "ꤟꤢꤧ꤭ꤖꤢꤦ꤬": 2389,
      "ꤔꤢꤧ꤬ꤒꤢꤩ꤬": 2390,
      "ꤔꤢꤧ꤬ꤗꤝꤤ꤭": 2391,
      "ꤜꤢ꤭ꤟꤣꤧ": 2392,
      "ꤋꤢꤨ꤭ꤊꤢ꤬": 2393,
      "ꤋꤢꤨ꤭ꤗꤢ": 2394,
      "ꤕ꤫ꤢꤩ꤬ꤗꤢꤧ": 2395,
      "ꤓꤥ꤭ꤔꤣꤧ꤬": 2396,
      "ꤔ꤫ꤤ꤬ꤊꤣꤧ꤭": 2397,
      "ꤢ꤬ꤚꤢ꤬": 2398,
      "ꤢ꤬ꤚꤝ꤫ꤤ꤬": 2399,
      "ꤞꤣꤧ꤭ꤟꤣꤧ": 2400,
      "ꤞꤣꤧ꤭ꤓꤥ꤭ꤟꤣꤧ": 2401,
      "ꤞꤣꤧ꤭ꤡꤤꤊꤛꤢ꤭": 2402,
      "ꤊꤢꤩ꤬ꤥ꤬": 2403,
      "꤫ꤢꤪ꤬ꤢ꤬ꤛꤢꤧ꤭": 2404,
      "ꤔꤣꤧ꤬ꤒꤣꤧ꤬ꤟꤢꤩ꤬ꤗꤢ꤬": 2405,
      "ꤢ꤬ꤜꤣ": 2406,
      "ꤞꤤꤕꤜꤢꤪ꤬ꤒꤥ꤭": 2407,
      "ꤠꤤ꤭ꤢꤨ꤭": 2408,
      "ꤓꤢꤩ꤬ꤊꤢ꤬ꤊꤢꤧ꤭": 2409,
      "ꤗꤢꤧꤓ꤫ꤣꤧ꤬ꤏꤢꤦ꤬": 2410,
      "ꤗꤥ꤬ꤗꤥ꤬": 2411,
      "ꤓꤣꤧ꤭ꤟꤢꤟꤥ": 2412,
      "꤮꤯’": 2413,
      "ꤞꤢꤩ꤬ꤓꤢꤧ꤬": 2414,
      "ꤖꤛꤢꤓꤢꤧ꤬": 2415,
      "ꤙꤢꤩꤑꤢꤩ꤭": 2416,
      "ꤙꤢꤩꤡ꤫ꤢꤧ꤬": 2417,
      "ꤗꤢꤪ꤬ꤗꤢ꤬ꤞꤢ": 2418,
      "ꤒꤣꤧ꤬ꤔꤢꤩ꤬ꤞꤢꤦ": 2419,
      "ꤟꤤ꤬ꤙꤢꤧ꤬ꤡꤢꤩ꤬": 2420,
      "ꤜꤤ꤬ꤒꤣꤧ꤬ꤜꤢꤨ꤭": 2421,
      "ꤔ꤫ꤤ꤬ꤙꤢꤩ꤬ꤊꤣꤧ꤭": 2422,
      "ꤒꤣ꤬ꤖꤥꤢ꤬ꤋꤢꤩ꤭": 2423,
      "ꤞꤥ꤭ꤕꤝꤤꤒꤣ꤬ꤕꤝꤤ": 2424,
      "ꤢ꤬ꤙꤤ": 2425,
      "ꤓꤢꤨ꤬ꤜꤢꤪ꤭": 2426,
      "ꤟꤤꤙꤚꤢꤨ": 2427,
      "ꤊꤜꤢꤧꤘꤢꤩ꤭": 2428,
      "ꤜ꤫ꤢꤪ꤬ꤘꤢꤨ꤬": 2429,
      "ꤕꤣꤒꤢꤩ꤬": 2430,
      "ꤊꤜꤝꤤ꤭ꤜꤢꤧ꤭": 2431,
      "ꤘꤢꤪꤔꤥ꤭": 2432,
      "ꤞꤥ꤭ꤞꤝꤢꤒꤣ꤬ꤔꤣꤧ꤭": 2433,
      "ꤖꤢꤩ꤬ꤊꤢꤧ꤭": 2434,
      "ꤜꤝꤤ꤭ꤘꤥ꤭": 2435,
      "ꤒꤣ꤬ꤔꤣꤧ꤭ꤋꤢꤩ꤭": 2436,
      "ꤢ꤬ꤙꤝꤤꤘꤢꤨ꤬": 2437,
      "ꤢ꤬ꤙꤝꤤꤒꤣꤧ꤬ꤚꤣꤧ꤭": 2438,
      "ꤜꤢꤦ꤬ꤋꤚꤝꤢ꤭ꤗꤢꤩ꤬": 2439,
      "ꤡꤢꤪꤡꤢꤪꤒꤢꤩ꤬ꤒꤢꤩ꤬": 2440,
      "ꤗꤤ꤭ꤡꤣ꤬ꤚꤥ꤬": 2441,
      "ꤙꤥ꤬ꤥ꤭": 2442,
      "ꤟꤣꤧ꤬ꤡ": 2443,
      "ꤕ꤫ꤢꤦ꤬ꤗꤢ꤬ꤚꤣꤧ": 2444,
      "ꤊꤜꤢꤩꤊꤢꤨ꤭": 2445,
      "ꤢ꤬ꤡ꤫ꤢꤪ꤬ꤢ꤬ꤛꤢꤧ꤭": 2446,
      "ꤗꤢꤧ꤬ꤎꤤ꤬ꤘꤥꤔꤤ꤬ꤛꤢ꤬ꤊ꤫ꤢꤩ꤬": 2447,
      "ꤠꤤ꤭ꤔꤢ꤬ꤎꤢ꤬ꤚꤢꤧꤖꤢꤨ": 2448,
      "ꤎꤢ꤬ꤘꤢꤨꤊꤢꤧ": 2449,
      "ꤒꤣꤧ꤬ꤚꤣꤧ꤭ꤘꤢꤨ꤬ꤒꤣꤧ꤬ꤚꤣꤧ꤭ꤓꤢꤨ꤭": 2450,
      "ꤛꤢꤦ꤬ꤔꤥ꤭": 2451,
      "ꤒꤣꤧ꤬ꤗꤝꤢ꤭ꤒꤣꤧ꤬ꤜꤢꤩ꤭": 2452,
      "ꤊꤜꤢꤧꤘꤢꤩ꤭ꤊꤢꤨ꤭": 2453,
      "ꤎꤢ꤬ꤘꤢꤨꤊꤢꤧꤖꤢꤨ": 2454,
      "ꤊ꤫ꤢ꤬": 2455,
      "ꤊ꤫ꤤ꤬": 2456,
      "ꤕꤢꤧ꤭": 2457,
      "ꤗ꤫ꤢꤩ꤬": 2458,
      "ꤠꤢꤦ": 2459,
      "꤮”": 2460,
      "ꤢꤩꤓꤢꤪ": 2461,
      "ꤢ꤬ꤒꤣꤧ꤬ꤋꤢꤩ꤭": 2462,
      "ꤥ꤬ꤒꤥ꤭": 2463,
      "ꤢꤪꤜ꤫ꤢꤧ꤬": 2464,
      "ꤞꤤꤙꤤ꤭": 2465,
      "ꤒꤢꤩ꤬ꤋꤢꤧꤟꤢꤩꤏꤥ꤬ꤜꤥ꤭ꤒꤢꤩ꤬": 2466,
      "ꤖꤚꤢ꤬ꤚ": 2467,
      "ꤒꤣ꤬ꤊꤥ꤬": 2468,
      "ꤗꤢꤩ꤬ꤕꤜꤢ": 2469,
      "ꤗꤢꤩ꤬ꤜꤣꤧ꤭": 2470,
      "ꤠꤢꤧ꤭ꤜꤢ꤭": 2471,
      "ꤗꤢ꤬ꤜꤢ꤬ꤋꤤ": 2472,
      "ꤙꤢꤩ꤬ꤜꤢ": 2473,
      "ꤜꤢꤨ꤭ꤜꤥ꤬": 2474,
      "ꤊꤢꤧ꤭ꤏꤢꤪ꤭": 2475,
      "ꤡꤝꤢꤗꤣꤧ꤭": 2476,
      "ꤋꤢꤨ꤭ꤙ": 2477,
      "꤫ꤢ꤬ꤊꤢꤨꤠ": 2478,
      "ꤕ꤫ꤢꤩ꤬ꤓꤥ꤭ꤟꤣꤧ": 2479,
      "ꤞꤢꤧꤓꤢꤧ꤬": 2480,
      "ꤟꤢꤨꤔꤣꤧ꤬ꤒꤣꤧ꤬ꤟꤢꤩ꤬": 2481,
      "ꤗꤢꤧꤖꤢꤩ꤬": 2482,
      "ꤗꤢꤧꤕꤣꤧ꤬ꤒꤤ": 2483,
      "ꤞꤤꤑꤢꤩ꤭ꤓꤝꤢ": 2484,
      "ꤠꤤ꤭ꤒꤢ꤭": 2485,
      "ꤠꤤ꤭ꤊꤜꤢꤪ꤭": 2486,
      "ꤘꤢꤧ꤬ꤒꤢ꤭": 2487,
      "ꤊꤢꤨꤜꤥ꤬": 2488,
      "ꤊꤢꤨꤜ꤫ꤤ꤬": 2489,
      "ꤔꤣꤧ꤭ꤚꤤ": 2490,
      "ꤊꤢ꤬ꤔ꤫ꤤ꤬": 2491,
      "ꤛ꤫ꤢꤦ꤬ꤢꤩ꤬ꤊꤣꤧ꤭": 2492,
      "ꤗꤥ꤬ꤜꤢꤧ꤬": 2493,
      "ꤊ꤫ꤢꤩ꤬ꤊꤜꤢꤪ꤭": 2494,
      "ꤒꤣꤧ꤬ꤔꤢꤩꤓꤢꤪ": 2495,
      "ꤞꤢꤩ꤬ꤘꤢꤧ": 2496,
      "ꤟꤢꤩꤙꤢꤩ꤬ꤡ꤫ꤢꤧ꤬": 2497,
      "ꤏꤢꤒꤢꤩ꤬": 2498,
      "ꤒꤢꤩ꤬ꤗꤢꤩ꤬ꤜꤢꤨ꤭": 2499,
      "ꤒꤢꤩ꤬ꤗꤢꤩ꤬ꤚꤢꤧ": 2500,
      "ꤏꤢꤪ꤭ꤙꤢꤨ꤭": 2501,
      "ꤒꤣꤧ꤬ꤔꤢꤩ꤬ꤗꤢꤧ": 2502,
      "ꤒꤣꤧ꤬ꤔꤢꤩ꤬ꤘꤢꤨ꤬": 2503,
      "ꤊꤢꤨꤔ꤫ꤢꤧ꤬ꤋꤢꤩ꤭": 2504,
      "ꤗꤤ꤬ꤊꤢꤧ꤭": 2505,
      "ꤋꤝꤤꤡꤢꤪꤖꤢꤧ꤬": 2506,
      "ꤓꤢꤨ꤬ꤟꤢꤨ": 2507,
      "ꤓꤢꤨ꤬ꤚꤢꤧ꤭": 2508,
      "ꤚꤢ꤭ꤊꤢꤧ꤭": 2509,
      "ꤚꤢ꤭ꤥ꤬ꤔꤢꤩ꤬": 2510,
      "ꤟꤢꤨꤒꤢꤩ꤭ꤟꤢꤩꤚꤣꤧ꤬": 2511,
      "ꤢ꤬ꤒꤢꤩ꤬ꤞꤣꤧ꤭": 2512,
      "ꤢ꤬ꤒꤢꤩ꤬ꤜꤤ꤭": 2513,
      "ꤎꤢ꤬ꤒ": 2514,
      "ꤔꤢꤧ꤭ꤟꤣꤧ": 2515,
      "ꤒꤣꤧ꤬ꤖꤢꤪ꤭": 2516,
      "ꤘꤢꤪ꤭ꤙꤢꤩ꤬ꤞꤢ꤬": 2517,
      "ꤥ꤬ꤕ꤫ꤢꤪ꤬ꤗꤢꤧ": 2518,
      "ꤑꤢ꤭ꤜꤥ꤬ꤟꤣꤧ": 2519,
      "ꤙꤢꤧꤞꤝꤢꤋꤢꤩ": 2520,
      "ꤊꤥ꤬ꤡꤢꤨ": 2521,
      "ꤗꤢꤩ꤬ꤞꤢꤦꤗꤢꤩ꤬ꤕꤜꤢ": 2522,
      "ꤞꤤ꤭ꤊꤜꤢꤩ꤭ꤔꤣꤧ꤬": 2523,
      "ꤢ꤬ꤒꤣꤧ꤬ꤚꤣꤧ꤭ꤓꤢꤨ꤭": 2524,
      "ꤡꤢꤨꤊꤥ꤬ꤡꤢꤨ": 2525,
      "ꤎꤢ꤬ꤕꤛꤤꤓꤣꤧ꤭ꤛꤢꤧ꤭": 2526,
      "ꤔꤢꤩ꤬ꤙꤢꤩ꤬": 2527,
      "ꤗꤢꤧ꤬ꤢꤪꤜ꤫ꤢꤧ꤬": 2528,
      "ꤏꤢꤧ꤬ꤋꤚꤝꤢ꤭": 2529,
      "ꤔꤥꤢ꤬": 2530,
      "ꤙꤥ꤬ꤢꤩ꤬ꤙꤥ꤬ꤥ꤭": 2531,
      "ꤊꤢꤨꤠ꤫ꤢ꤬ꤊꤢꤨꤠ": 2532,
      "ꤥ꤬ꤊꤢꤨꤥ꤬ꤊꤢꤧ": 2533,
      "ꤊꤣꤧ꤬ꤛꤢꤧ꤭ꤏꤝꤤꤊꤣꤧ꤬ꤛꤢꤧ꤭ꤏꤢꤩ꤭": 2534,
      "ꤕꤢ꤭ꤒꤢꤦ꤭ꤊꤢꤧ꤭": 2535,
      "ꤢ꤬ꤜꤤ꤭ꤢ꤬ꤒꤣꤧ꤬ꤋꤢꤩ꤭": 2536,
      "ꤜꤣꤧ꤬ꤡ꤫ꤢꤨ꤬ꤊꤢꤧ꤭": 2537,
      "ꤛ꤫ꤢꤪ꤬ꤞꤤꤙꤤ꤭": 2538,
      "ꤒꤣꤧ꤬ꤕꤜꤣ꤬ꤒꤣꤧ꤬ꤕꤜꤢꤧꤟꤢꤨ": 2539,
      "ꤠꤢꤧ꤭ꤜꤢ꤭ꤠꤢꤧ꤭ꤍ꤫ꤥ꤬": 2540,
      "ꤗꤢ꤬ꤜꤢ꤬ꤋꤤꤞꤢꤩ꤬ꤘꤢꤧ": 2541,
      "ꤒꤣꤧ꤬ꤔꤢꤩꤓꤢꤪꤘꤤ꤭": 2542,
      "ꤘꤢꤪ꤭ꤙꤢꤩ꤬ꤞꤢ꤬ꤔꤤ": 2543,
      "ꤙꤢꤧꤞꤝꤢꤋꤢꤩꤋꤥ꤭": 2544,
      "ꤡꤢꤨꤊꤥ꤬ꤡꤢꤨꤚꤢꤧ꤬": 2545,
      "ꤊꤢꤨꤠ꤫ꤢ꤬ꤊꤢꤨꤠꤢꤩ꤭": 2546,
      "ꤎꤢ꤬ꤙ": 2547,
      "ꤏꤢ꤬": 2548,
      "ꤘꤚꤢꤨ": 2549,
      "ꤚ꤫ꤢꤧ꤬": 2550,
      "ꤛꤢ꤬ꤚꤤ꤬": 2551,
      "ꤡ꤫ꤢꤪ꤬": 2552,
      "ꤢꤩ꤬ꤔꤢꤪ": 2553,
      "ꤢꤧꤚꤢꤩ꤬": 2554,
      "ꤢ꤬ꤖꤥ꤭": 2555,
      "ꤢ꤬ꤏꤢ꤭ꤛ꤫ꤢꤨ꤬": 2556,
      "ꤥ꤬ꤚꤣꤧ": 2557,
      "ꤢꤨ꤭ꤖꤢꤨ": 2558,
      "ꤒꤢꤩ꤬ꤋꤢꤨ꤬": 2559,
      "ꤒꤢꤩ꤬ꤔꤣꤧ꤬ꤒꤣꤧ꤬ꤟꤢꤩ꤬": 2560,
      "ꤖꤚꤢꤩ": 2561,
      "ꤞꤤ꤭ꤣꤧ꤭": 2562,
      "ꤒꤣ꤬ꤚꤤ": 2563,
      "ꤒꤣ꤬ꤗꤢ꤭": 2564,
      "ꤗꤢꤩ꤬ꤗꤢ꤬": 2565,
      "ꤗꤢꤩ꤬ꤕꤜꤤ꤭ꤖꤥ": 2566,
      "ꤡꤢꤪꤡꤢꤦ": 2567,
      "ꤊ꤫ꤢꤦ꤬ꤟꤢꤩ꤬": 2568,
      "ꤊ꤫ꤢꤦ꤬ꤍ꤫ꤥ꤬": 2569,
      "ꤙꤢꤩ꤬ꤊꤢꤧ꤭": 2570,
      "ꤙꤢꤩ꤬ꤊ꤫ꤢꤨ꤬": 2571,
      "ꤒꤣ꤬ꤖꤚꤢꤩ꤬ꤒꤥ꤬": 2572,
      "ꤟꤢꤧ꤭ꤚꤢꤩ꤬": 2573,
      "ꤔꤢꤧ꤬ꤖꤢꤩ꤭": 2574,
      "ꤓꤢꤧ꤬ꤗꤢꤪ": 2575,
      "ꤡꤝꤢꤔ꤫ꤤ꤬": 2576,
      "ꤡꤝꤢꤋꤥꤊꤢꤧ꤭": 2577,
      "ꤊꤣꤧ꤭ꤔꤢꤧ꤭": 2578,
      "ꤋꤢꤨ꤭ꤞ": 2579,
      "ꤖꤢꤧꤖꤢꤧ": 2580,
      "ꤘꤣꤧꤟꤣꤧ": 2581,
      "ꤘꤣꤧꤏꤝꤢ꤬": 2582,
      "ꤢ꤬ꤚꤢꤦ꤭": 2583,
      "ꤒꤢ꤭ꤖꤚꤢꤪ꤬ꤊꤢꤧ꤭": 2584,
      "ꤒꤥ꤭ꤒꤥ꤬": 2585,
      "ꤞꤤꤑꤢꤩ꤭ꤘꤢꤦ꤬": 2586,
      "ꤢ꤬ꤜꤢ": 2587,
      "ꤞꤤꤕꤜꤢꤪ꤬ꤊ꤫ꤢꤨ꤬": 2588,
      "ꤠꤤ꤭ꤡꤛ": 2589,
      "ꤘꤢꤧ꤬ꤥ꤬ꤊꤢꤧ꤭": 2590,
      "ꤔꤢꤪ꤭ꤟꤢꤩ": 2591,
      "ꤓꤢꤩ꤬ꤙꤢꤩ": 2592,
      "ꤖꤢꤩ꤭ꤞꤣ꤬ꤋꤢ꤬ꤚꤣ꤬ꤛꤢ꤬": 2593,
      "ꤔꤣꤧ꤭ꤖꤥ": 2594,
      "ꤊꤢꤨ꤬ꤋꤣꤧ꤭": 2595,
      "ꤜ꤫ꤢꤩ꤬ꤥ꤬ꤔꤢꤧ꤭": 2596,
      "ꤓꤣꤧ꤭ꤊꤢꤨ꤭": 2597,
      "ꤓꤣꤧ꤭ꤚꤥ꤬": 2598,
      "ꤏꤢꤕꤣꤧꤚꤥ꤬": 2599,
      "ꤒꤢꤩ꤬ꤗꤢꤩ꤬ꤣꤧ꤭": 2600,
      "ꤒꤢꤩ꤬ꤗꤢꤩ꤬ꤡꤢ꤭ꤗꤢꤩ꤬ꤡꤢꤦ꤬": 2601,
      "ꤚꤢꤧꤚꤢꤧ": 2602,
      "ꤟꤤ꤬ꤗꤢꤧꤖꤢꤩ꤬": 2603,
      "ꤏꤝꤢ꤬ꤏꤝꤢ꤬": 2604,
      "ꤖꤢꤜꤥ꤬": 2605,
      "꤫ꤢꤨ꤬ꤖꤚꤢ꤬": 2606,
      "ꤒꤢꤩ꤬ꤞꤤꤊꤣꤧ꤬ꤜꤢꤪꤊꤣꤧ꤬ꤖꤢꤦ꤭": 2607,
      "ꤘꤢꤧꤔꤢꤪ": 2608,
      "ꤕꤢꤩ꤭ꤊꤢꤧ꤭": 2609,
      "ꤜꤤ꤭ꤖꤥ": 2610,
      "ꤖꤚꤢꤩ꤬ꤜꤢꤨ꤬ꤟꤢꤩ꤬ꤋꤢꤨ꤬ꤖꤢꤨ": 2611,
      "ꤔꤣꤧ꤬ꤒꤣ꤬ꤠꤤ꤭": 2612,
      "ꤓꤢꤨ꤭ꤓꤢꤧ꤬": 2613,
      "ꤕꤜꤝꤢ꤭ꤓꤢꤩ꤬ꤊꤢꤧ꤭": 2614,
      "ꤤ꤬ꤏꤢꤩ꤭ꤊꤢꤧ꤭": 2615,
      "ꤒꤣꤧ꤬ꤖꤥ꤬": 2616,
      "ꤤ꤬ꤞꤝꤢꤤ꤬ꤞꤢꤧ꤬ꤒꤢ꤭": 2617,
      "ꤞꤢꤨ꤭ꤜꤢꤧ꤬": 2618,
      "ꤕꤜꤥ꤭ꤖꤢꤩ": 2619,
      "ꤟꤢꤧ꤭ꤒ꤫ꤥ꤬ꤊꤣꤧ꤭": 2620,
      "ꤒꤣ꤬ꤗꤢꤩ꤭ꤡꤢꤦ꤭": 2621,
      "ꤢꤪꤜꤢꤧ꤬ꤊꤢꤧ꤭": 2622,
      "ꤒꤣꤧ꤬ꤊꤛꤢ꤬": 2623,
      "ꤒꤢꤩ꤬ꤟꤢꤩꤙꤢꤩ꤬ꤟꤢꤩꤏꤥ꤭": 2624,
      "ꤢ꤬ꤡꤢꤪꤖꤢꤧ꤬": 2625,
      "ꤡ꤫ꤢꤦ꤬ꤖꤚꤢꤩ꤬ꤗꤢꤪ꤬": 2626,
      "ꤢꤧꤡꤢꤦꤢꤧꤚꤢꤩ꤬": 2627,
      "ꤛ꤫ꤢꤨ꤬ꤒꤢ꤭": 2628,
      "ꤊꤢꤧꤜꤢ꤬ꤜꤤ꤬ꤖꤢꤨ": 2629,
      "ꤚꤢ꤭ꤡꤝꤢꤕ꤫ꤢꤩ꤬": 2630,
      "ꤞꤤꤘꤥ꤭ꤞꤤꤍꤢ꤬": 2631,
      "ꤕꤜꤢꤦꤊꤢꤧ꤭": 2632,
      "ꤔꤢꤪ꤬ꤜꤢꤧ꤬": 2633,
      "ꤊꤢꤨꤊꤜꤢꤩ꤭ꤙꤢꤧ꤬ꤡꤢꤩ꤬": 2634,
      "ꤕꤣꤧꤞꤢꤩ꤬ꤕꤜꤢꤪ꤬ꤊꤢꤨ꤭": 2635,
      "ꤢ꤬ꤗ꤫ꤢ꤬ꤗ꤫ꤢ꤬": 2636,
      "ꤞꤢꤪꤞꤢꤦ": 2637,
      "ꤗ꤫ꤢꤪ꤬ꤜꤤ꤭ꤙꤢꤨ꤭": 2638,
      "ꤒꤣꤧ꤬ꤔꤢꤧ꤭ꤒꤣꤧ꤬ꤊꤛꤢ꤬": 2639,
      "ꤗꤢꤧ꤬ꤎꤤ꤬ꤘꤥꤔꤤ꤬ꤛꤢ꤬": 2640,
      "ꤖꤚꤢꤩ꤬ꤊꤢꤩ꤭ꤞꤤꤗꤤ꤬": 2641,
      "ꤏꤛꤢ꤬ꤗꤢ꤬ꤚꤤꤖꤢꤨ": 2642,
      "ꤗꤢꤩ꤬ꤜꤣꤗꤢꤩ꤬ꤙꤢ꤭ꤓꤢꤧ꤬": 2643,
      "ꤖꤚꤢꤩ꤬ꤋꤢꤧ꤭ꤢꤩ꤬ꤊꤢꤨꤊꤜꤢꤩ꤭": 2644,
      "ꤋꤢꤨ꤭ꤢꤧ꤬ꤘꤚꤢꤨ": 2645,
      "ꤒꤣꤧ꤬ꤖꤚꤥꤗꤢꤨꤗ꤫ꤢꤧ꤬": 2646,
      "ꤖꤚꤢ꤬ꤚ꤫ꤢꤨ꤬ꤖꤚꤢ꤬": 2647,
      "ꤢꤨ꤭ꤖꤢꤨꤢꤨ꤭ꤗꤢꤩ꤭": 2648,
      "ꤊ꤫ꤢꤦ꤬ꤍ꤫ꤥ꤬ꤊ꤫ꤢꤦ꤬ꤟꤢꤩ꤬": 2649,
      "ꤙꤢꤩ꤬ꤊ꤫ꤢꤨ꤬ꤙꤢꤩ꤬ꤊꤢꤧ꤭": 2650,
      "ꤠꤤ꤭ꤡꤛꤥꤕꤢ꤬": 2651,
      "ꤟꤤ꤬ꤗꤢꤧꤖꤢꤩ꤬ꤗ꤫ꤥ꤬": 2652,
      "ꤎꤢ꤬ꤜꤢ꤬": 2653,
      "ꤏꤢꤪ꤬": 2654,
      "ꤗꤥ": 2655,
      "ꤗꤢꤩ": 2656,
      "ꤛꤢꤩ꤭": 2657,
      "ꤜꤝꤤ": 2658,
      "ꤞꤢꤧ꤭": 2659,
      "ꤞꤢꤧ꤬": 2660,
      "ꤠꤢꤪ꤬": 2661,
      "ꤥꤗꤢ": 2662,
      "ꤢꤩ꤬ꤕ꤫ꤢꤩ꤬": 2663,
      "ꤢꤩ꤬ꤔ꤫ꤤ꤬": 2664,
      "ꤢ꤬ꤕꤜ": 2665,
      "ꤢ꤬ꤗ꤫ꤢꤪ꤬": 2666,
      "ꤢ꤬ꤖꤚꤥ꤬": 2667,
      "ꤢ꤬ꤓꤢꤨ꤭": 2668,
      "ꤢ꤬ꤖꤚꤢꤧ꤬": 2669,
      "ꤢ꤬ꤞꤤꤗꤤ꤬": 2670,
      "ꤢ꤬ꤍꤢꤨ꤬ꤘꤢꤨ꤬ꤖꤚꤤ꤬ꤘꤢꤨ꤬": 2671,
      "ꤢ꤬ꤊꤝꤢ꤬": 2672,
      "ꤢ꤬ꤓꤢꤦ꤭ꤋꤢꤩ꤭": 2673,
      "ꤥ꤬ꤔꤢꤧ": 2674,
      "ꤥ꤬ꤙꤢ꤭": 2675,
      "ꤥ꤬ꤢꤩꤓꤢꤧ꤬": 2676,
      "ꤥ꤬ꤞꤢ꤬ꤞꤢꤩ꤭": 2677,
      "ꤞꤤꤜꤥ꤭": 2678,
      "ꤞꤤꤔꤣꤧ꤭ꤔꤣꤧ꤬": 2679,
      "ꤞꤤꤗꤢꤧ꤬": 2680,
      "ꤔꤣꤧ꤬ꤒꤥ꤬": 2681,
      "ꤣꤧ꤭ꤒꤣ꤬ꤖꤥ꤬": 2682,
      "ꤒꤣꤧ꤬ꤖꤚ": 2683,
      "ꤒꤣꤧ꤬ꤊꤜꤢꤩ꤭": 2684,
      "ꤒꤢꤩ꤬ꤞꤤꤑꤢꤩ꤭": 2685,
      "ꤒꤢꤩ꤬ꤒꤣꤧ꤬ꤊꤜꤤ": 2686,
      "ꤒꤢꤩ꤬ꤘꤢꤦꤒꤣꤧ꤬ꤜꤤꤖꤢ": 2687,
      "ꤒꤢꤩ꤬ꤒꤣꤧ꤬ꤚꤢꤪ꤬ꤞꤢꤩ": 2688,
      "ꤞꤤ꤭ꤖꤢꤨ": 2689,
      "ꤞꤤ꤭ꤊꤢꤧ꤭": 2690,
      "ꤞꤤ꤭ꤜꤥ꤬": 2691,
      "ꤖꤚꤢꤩ꤬ꤢꤩ꤬ꤟꤥ꤬": 2692,
      "ꤤ꤬ꤜꤢꤪ꤭": 2693,
      "ꤤ꤬ꤎꤢ꤬": 2694,
      "ꤒꤣ꤬ꤜ꤫ꤢꤩ꤬": 2695,
      "ꤟꤢꤩꤣꤧ꤭": 2696,
      "ꤗꤢꤩ꤬ꤜꤢꤪ꤭": 2697,
      "ꤗꤢꤩ꤬ꤒꤣꤧ꤬ꤚꤣꤧ꤭": 2698,
      "ꤗꤢꤩ꤬ꤟꤢꤨꤣꤧ꤭": 2699,
      "ꤗꤢꤩ꤬ꤙꤝꤤ": 2700,
      "ꤗꤢꤩ꤬ꤞꤤꤕꤜꤢꤩ꤭": 2701,
      "ꤗꤢꤩ꤬ꤞꤢꤨꤞꤢ": 2702,
      "ꤠꤢꤧ꤭ꤊꤣꤧ꤬ꤛꤢꤧ꤭": 2703,
      "ꤗꤢ꤬ꤊꤢ꤬ꤘ": 2704,
      "ꤜꤢꤨ꤭ꤚꤤ꤬": 2705,
      "ꤒꤣ꤬ꤖꤚꤢꤩ꤬ꤖꤢꤧ": 2706,
      "ꤟꤢꤧ꤭ꤥ꤬": 2707,
      "ꤟꤢꤧ꤭ꤖꤛꤢ": 2708,
      "ꤔꤢꤧ꤬ꤔꤣꤧ꤬": 2709,
      "ꤔꤢꤧ꤬ꤊꤢꤧ꤭": 2710,
      "ꤡꤝꤢꤊꤝꤤ꤭": 2711,
      "ꤡꤝꤢꤗꤢꤧꤕꤢꤨ꤭": 2712,
      "ꤡꤝꤢꤟꤢꤩꤒ꤫ꤥ꤬": 2713,
      "ꤋꤢꤨ꤭ꤡ": 2714,
      "ꤋꤢꤨ꤭ꤢꤎꤢꤧ": 2715,
      "ꤊꤜꤥ꤬": 2716,
      "ꤓꤥ꤭ꤜꤢꤪ꤭": 2717,
      "ꤚꤣꤧꤕ꤫ꤢꤩ꤬": 2718,
      "ꤕꤜ꤫ꤥ꤬": 2719,
      "ꤘꤣꤧꤋꤚꤢ꤭": 2720,
      "ꤢ꤬ꤚꤢ꤬ꤙꤢ": 2721,
      "ꤜꤥ꤭ꤓꤢꤧ꤬": 2722,
      "ꤒꤢꤩ꤬ꤞꤢꤩ꤬ꤒꤢꤩ꤬": 2723,
      "ꤒꤣꤧ꤬ꤚꤢꤧ": 2724,
      "ꤠꤤ꤭ꤚꤥꤗꤢꤩ꤬": 2725,
      "ꤠꤤ꤭ꤎꤤ": 2726,
      "ꤠꤤ꤭ꤓꤢ": 2727,
      "ꤘꤢꤧ꤬ꤔꤥ꤭": 2728,
      "ꤘꤢꤧ꤬ꤥ꤬ꤕꤜꤢꤪ": 2729,
      "ꤔꤢꤪ꤭ꤥ꤬": 2730,
      "ꤔꤢꤪ꤭ꤓꤢꤩ꤬ꤡꤝꤢ": 2731,
      "ꤓꤢꤩ꤬ꤜꤥ꤭": 2732,
      "ꤓꤢꤩ꤬ꤊꤢ꤬": 2733,
      "ꤓꤢꤩ꤬ꤒꤣꤧ꤬ꤕꤢ꤬": 2734,
      "ꤖꤢꤩ꤭ꤊꤢꤪ": 2735,
      "ꤜꤣꤕꤢ꤬": 2736,
      "ꤒ꤫ꤥ꤬ꤙꤢꤩ꤬": 2737,
      "ꤜ꤫ꤢꤩ꤬ꤞꤢꤧ": 2738,
      "ꤊ꤫ꤢꤩ꤬ꤚ꤫ꤥ꤬": 2739,
      "ꤓꤣꤧ꤭ꤥ꤭": 2740,
      "ꤒꤣ꤬ꤡꤣ꤬ꤒꤢꤩ꤭": 2741,
      "ꤗ꤫ꤢ꤬ꤒꤥ꤬ꤒꤥ꤬": 2742,
      "ꤕꤝꤢ꤭ꤔꤣꤧ꤭ꤔꤣꤧ꤭": 2743,
      "ꤗꤢꤪꤚꤢ꤬": 2744,
      "ꤟꤢꤩꤙꤢꤩ꤬ꤡꤢꤪ": 2745,
      "ꤟꤢꤩꤙꤢꤩ꤬ꤓꤢꤩ꤬": 2746,
      "ꤗ꤫ꤥ꤬ꤢꤧ": 2747,
      "ꤟꤤ꤬ꤣꤧ꤭": 2748,
      "ꤟꤢꤩ꤬ꤋꤢꤨ꤬ꤔꤢꤩ": 2749,
      "ꤊꤝꤤ꤭ꤓꤢꤧ꤬": 2750,
      "ꤒ꤫ꤣ꤬ꤜꤢꤨ꤭": 2751,
      "ꤏꤝꤢ꤬ꤓꤢꤧ꤬": 2752,
      "ꤞꤢꤪ꤬ꤖꤢꤧ꤭": 2753,
      "ꤗꤤ꤬ꤊꤢꤨ꤭": 2754,
      "꤮,”": 2755,
      "ꤊꤣꤧ꤬ꤓꤢꤪ꤬ꤗꤣꤧ꤭": 2756,
      "ꤢ꤬ꤙꤢ꤭": 2757,
      "ꤘꤢꤧꤓꤢꤧ꤬": 2758,
      "ꤙꤢꤧꤙꤢꤦ꤭": 2759,
      "ꤏꤣꤧꤒꤣ꤬ꤕꤝꤤ": 2760,
      "ꤙꤢ꤭ꤟꤣꤧ": 2761,
      "ꤟꤢꤩꤔꤣꤧ꤬ꤚꤣꤧ꤬": 2762,
      "ꤕꤜꤝꤢ꤭ꤊꤢ꤬": 2763,
      "ꤚꤤꤛꤥ꤬": 2764,
      "ꤕ꤫ꤥ꤬ꤠ꤫ꤢꤧ꤬ꤞꤤ꤭": 2765,
      "ꤒꤣꤧ꤬ꤕꤜ꤫ꤥ꤬": 2766,
      "ꤘꤤꤡꤢꤩ꤭": 2767,
      "ꤘꤢꤪꤥ꤬": 2768,
      "ꤜꤣꤙꤢ꤭ꤓꤢꤧ꤬": 2769,
      "ꤗꤢꤩ꤬ꤞꤢꤦꤒꤢꤩ꤬": 2770,
      "ꤕꤣꤧ꤬ꤒꤤꤟꤢꤨ": 2771,
      ",’”": 2772,
      "ꤊꤣꤧ꤬ꤘꤢ꤭ꤘꤢꤨ꤬": 2773,
      "ꤏꤢ꤭ꤖꤢꤩ꤭": 2774,
      "ꤋꤢꤞꤤꤓꤢꤩ꤬": 2775,
      "ꤋꤢꤧꤘꤥ꤬ꤏꤢ": 2776,
      "ꤢ꤬ꤊꤢꤨꤊꤜꤢꤩ꤭": 2777,
      "ꤕꤢꤪ꤬ꤒꤢꤧ꤬": 2778,
      "ꤔꤢꤩ꤬ꤜꤤ": 2779,
      "ꤢ꤬ꤋꤢꤨ꤬ꤔꤣꤧ꤬": 2780,
      "ꤕꤝꤤꤏꤣꤧꤒꤣ꤬ꤕꤝꤤ": 2781,
      "ꤋꤢꤧꤞꤤꤕꤜꤢꤪ꤬ꤓꤢꤨ꤭ꤙꤢꤩ": 2782,
      "ꤋꤢꤨ꤭ꤢ꤬ꤕꤢꤪ": 2783,
      "ꤋꤢꤧ꤬ꤖꤢ": 2784,
      "ꤞꤤꤖꤚ꤫ꤢꤩ꤬ꤞꤤꤗꤢꤧ꤬": 2785,
      "ꤞꤢꤨꤕꤜꤤ꤭ꤊꤢꤧ꤭": 2786,
      "ꤏꤥ꤭ꤏꤢꤦꤖꤢꤧ": 2787,
      "ꤢ꤬ꤖꤥꤢ꤬ꤏꤣꤧ": 2788,
      "ꤘꤢꤪ꤭ꤊꤢꤨ꤭ꤗ꤫ꤥ꤬": 2789,
      "ꤗꤢꤩ꤬ꤜꤣꤗꤢꤩ꤬ꤙꤢ꤭": 2790,
      "ꤊꤢꤚꤤꤛꤥ꤬": 2791,
      "ꤒ꤫ꤢꤨ꤬ꤓꤢꤧ꤬": 2792,
      "ꤊꤣꤧ꤬ꤜꤢꤨꤋꤢꤩ꤭": 2793,
      "ꤊꤣꤧ꤬ꤚꤢꤩꤊꤢꤨ꤭": 2794,
      "ꤤ꤬ꤢꤨ꤬ꤓꤢꤧ꤬": 2795,
      "ꤢ꤬ꤜꤣꤢ꤬ꤙꤢ꤭": 2796,
      "ꤊꤢꤧ꤭ꤏꤢꤪ꤭ꤊꤢꤧ꤭ꤏꤢ": 2797,
      "ꤋꤢꤨ꤭ꤙꤢ꤬ꤚꤢ꤬ꤙꤢ": 2798,
      "ꤟꤢꤧ꤭ꤚꤢꤩ꤬ꤏꤝꤢ꤬ꤏꤢꤪ꤭": 2799,
      "ꤋꤢꤨ꤭ꤞꤥꤗꤢ": 2800,
      "ꤘꤣꤧꤏꤝꤢ꤬ꤘꤣꤧ": 2801,
      "ꤖꤚꤢ꤬ꤚ꤫ꤢꤨ꤬ꤖꤚꤢ꤬ꤒꤢꤩ": 2802,
      "ꤏꤢꤪ꤬ꤜꤢ꤬ꤗꤥ꤬": 2803,
      "ꤢ꤬ꤖꤚꤥ꤬ꤢ꤬ꤖꤚꤢꤧ꤬": 2804,
      "ꤤ꤬ꤎꤢ꤬ꤊꤢꤚꤤꤛꤥ꤬": 2805,
      "ꤗꤢꤩ꤬ꤙꤝꤤꤗꤢꤩ꤬ꤒꤣꤧ꤬ꤚꤣꤧ꤭": 2806,
      "ꤗꤢ꤬ꤊꤢ꤬ꤘꤢ꤬ꤜꤢ": 2807,
      "ꤒꤢꤩ꤬ꤞꤢꤩ꤬ꤒꤢꤩ꤬ꤖꤥ꤭": 2808,
      "ꤠꤤ꤭ꤓꤢꤛꤣ꤬": 2809,
      "ꤖꤢꤩ꤭ꤊꤢꤪꤔꤢꤩ꤬ꤜꤤ": 2810,
      "ꤗꤢꤪꤚꤢ꤬ꤕꤢꤪ꤬ꤒꤢꤧ꤬": 2811,
      "ꤟꤢꤩ꤬ꤋꤢꤨ꤬ꤔꤢꤩꤋꤢꤨ꤬": 2812,
      "ꤋꤢꤨ꤭ꤢ꤬ꤕꤢꤪꤜꤥ꤬": 2813,
      "ꤊꤥ꤭": 2814,
      "ꤊꤝꤢ": 2815,
      "ꤊꤢ꤬ꤚꤤ꤬": 2816,
      "ꤍꤢꤪ꤬": 2817,
      "ꤏꤢ꤬ꤜ": 2818,
      "ꤓꤥ꤬ꤕꤜꤢꤪ": 2819,
      "ꤚ꤫ꤢꤪ꤬": 2820,
      "ꤜꤝ꤫ꤤ꤬": 2821,
      "꤮?": 2822,
      "ꤢꤩꤡꤣ꤬": 2823,
      "ꤢ꤬ꤔ": 2824,
      "ꤢ꤬ꤜꤥ꤭": 2825,
      "ꤢ꤬ꤡꤢ꤭": 2826,
      "ꤢ꤬ꤖꤚꤢꤩ꤬ꤖꤚꤥ꤬": 2827,
      "ꤢ꤬ꤘꤢꤪ꤭": 2828,
      "ꤢ꤬ꤛꤢꤨ꤭": 2829,
      "ꤢ꤬ꤔꤢꤪ꤬": 2830,
      "ꤥ꤬ꤊꤢꤪ꤭": 2831,
      "ꤞꤤ꤬": 2832,
      "ꤒꤢꤩ꤬ꤛ꤫ꤢꤦ꤬ꤢꤩ꤬": 2833,
      "ꤒꤢꤩ꤬ꤘꤢꤧ꤬ꤛ꤫ꤢꤦ꤬ꤘꤢꤧ꤬ꤔ꤫ꤢꤧ꤬": 2834,
      "ꤒꤢꤩ꤬ꤊꤛꤢ": 2835,
      "ꤞꤤ꤭ꤍ꤫ꤥ꤬": 2836,
      "ꤞꤤ꤭ꤚꤤ꤬": 2837,
      "ꤤ꤬ꤕꤜꤢꤦ꤭": 2838,
      "ꤒꤣ꤬ꤗ꤫ꤢꤪ꤬": 2839,
      "ꤟꤢꤩꤔꤣꤧ꤭": 2840,
      "ꤗꤢꤩ꤬ꤟꤢꤨ": 2841,
      "ꤗꤢꤩ꤬ꤡꤢ꤭": 2842,
      "ꤗꤢꤩ꤬ꤙꤤ": 2843,
      "ꤠꤢꤧ꤭ꤜꤣꤧ꤬": 2844,
      "ꤙꤢꤩ꤬ꤘꤢꤧ": 2845,
      "ꤊꤣꤧ꤬ꤛꤢꤧ꤭ꤘꤢꤨ꤬": 2846,
      "ꤜꤢꤨ꤭ꤒꤢꤩ꤬": 2847,
      "ꤜꤢꤨ꤭ꤊꤢꤧ꤭": 2848,
      "ꤜꤢꤨ꤭ꤜ꤫ꤢꤩ꤬": 2849,
      "ꤟꤢꤧ꤭ꤥ꤬ꤕꤜꤢꤪ": 2850,
      "ꤔꤢꤧ꤬ꤚꤤ꤬": 2851,
      "ꤔꤢꤧ꤬ꤗ꤫ꤥ꤬": 2852,
      "ꤡꤝꤢꤚꤝꤢ": 2853,
      "ꤋꤢꤨ꤭ꤢꤪ": 2854,
      "ꤕ꤫ꤢꤩ꤬ꤊꤢꤧ꤭": 2855,
      "ꤕ꤫ꤢꤩ꤬ꤢꤩ꤬ꤕ꤫ꤢꤩ꤬": 2856,
      "ꤓꤥ꤭ꤕ꤫ꤢꤩ꤬ꤟꤣꤧ": 2857,
      "ꤕꤜꤥ": 2858,
      "ꤊꤢꤩ꤬ꤟꤢꤩꤔꤣꤧ꤬": 2859,
      "ꤚꤣꤧꤘꤢꤦ꤬ꤊꤣꤧ꤭": 2860,
      "ꤞꤤꤑꤢꤩ꤭ꤡ꤫ꤢꤧ꤬": 2861,
      "ꤢ꤬ꤜꤢꤧ": 2862,
      "ꤞꤤꤕꤜꤢꤪ꤬ꤊꤢꤧ꤭": 2863,
      "ꤠꤤ꤭ꤜꤢꤨ": 2864,
      "ꤘꤢꤧ꤬ꤏꤢꤪ꤭": 2865,
      "ꤍ꤫ꤥ꤬ꤗ꤫ꤢ꤬ꤊꤢꤧ꤭": 2866,
      "ꤋꤛꤢ꤭ꤜꤣ": 2867,
      "ꤔꤣꤧ꤭ꤋꤥ": 2868,
      "ꤊꤢ꤬ꤗꤢꤧꤓ꤫ꤣꤧ꤬": 2869,
      "ꤊꤢ꤬ꤟꤢꤩꤏꤥ꤬": 2870,
      "ꤊꤢ꤬ꤊꤣꤧ꤬ꤔꤥ꤭": 2871,
      "ꤜ꤫ꤢꤩ꤬ꤊꤢꤦ꤭": 2872,
      "ꤓꤣꤧ꤭ꤕꤣ": 2873,
      "ꤢ꤬ꤑꤢꤩ꤭ꤖꤢꤧ": 2874,
      "ꤞꤤꤛ꤫ꤢꤦ꤬ꤞꤤꤜꤢꤪ꤭": 2875,
      "ꤙꤢꤩ꤬ꤙꤢꤩ꤬ꤔꤣꤧ꤬": 2876,
      "ꤔꤥ꤭ꤊꤢꤧ꤭": 2877,
      "ꤟꤢꤩꤙꤢꤩ꤬ꤒꤢꤩ꤬": 2878,
      "ꤏꤢꤔꤢꤩ": 2879,
      "ꤗ꤫ꤢꤪ꤬ꤓꤥ꤬": 2880,
      "ꤛꤢ꤬ꤖꤢ": 2881,
      "ꤖꤛꤢꤘꤢꤨ꤬": 2882,
      "ꤋꤥ꤭ꤋꤢꤨ꤬": 2883,
      "ꤗ꤫ꤥ꤬ꤘꤢꤪ꤭": 2884,
      "ꤚꤢꤧꤊꤢ꤬ꤋꤛꤢ꤭": 2885,
      "ꤟꤤ꤬ꤔꤣꤧ꤬": 2886,
      "ꤟꤤ꤬ꤒꤣ꤬ꤗꤢꤩ꤭": 2887,
      "ꤘꤥ꤬ꤔꤢꤧ꤭ꤟꤢꤩꤏꤥ꤬": 2888,
      "ꤒ꤫ꤣ꤬ꤔꤢꤧ": 2889,
      "ꤜꤢꤨ꤬ꤗꤥ꤭": 2890,
      "ꤗꤤ꤬ꤞꤢꤩ꤬": 2891,
      "ꤕꤣꤧ꤬ꤛ": 2892,
      "ꤕꤣꤧ꤬ꤥ꤭": 2893,
      "ꤞꤢꤩꤙꤢꤩ꤬ꤘꤢꤧ": 2894,
      "ꤒꤢꤩ꤬ꤞꤤꤕꤜꤢꤩ꤭": 2895,
      "ꤣꤧ꤭ꤒꤣ꤬ꤙꤢꤩ꤬": 2896,
      "ꤘꤢꤧꤊꤝꤢ": 2897,
      "ꤓꤢꤨ꤬ꤜꤝ꤫ꤤ꤬": 2898,
      "ꤔꤢꤪꤊꤣꤧ꤭": 2899,
      "ꤒꤣꤧ꤬ꤖꤢꤩ꤬": 2900,
      "ꤢ꤬ꤚꤢꤧꤒꤥ꤬": 2901,
      "ꤢꤨ꤭ꤕꤢꤩ꤭ꤔꤣꤧ꤬": 2902,
      "ꤕꤣꤓꤣꤧ꤭ꤕꤣ": 2903,
      "ꤡꤢꤡꤤ꤬": 2904,
      "ꤥ꤬ꤊꤢꤧ꤭ꤜꤣ": 2905,
      "ꤖꤢꤦ꤬ꤟꤣꤧ": 2906,
      "ꤙꤢꤒꤢꤩ꤭": 2907,
      "ꤘꤣꤋꤛꤢ꤭ꤜꤣ": 2908,
      "ꤔ꤫ꤢꤩ꤬ꤊꤜ꤫ꤢꤪ꤬ꤖꤢꤛꤢ꤬": 2909,
      "ꤒꤣꤧ꤬ꤜꤝꤢꤊꤢꤧ꤭": 2910,
      "ꤓꤢꤩꤜꤥ꤬": 2911,
      "ꤡꤢꤪ꤭ꤊꤜꤢꤪ꤬": 2912,
      "ꤢ꤬ꤗ꤫ꤢꤪ꤬ꤔꤣꤧ꤭ꤗ꤫ꤢꤪ꤬ꤞꤢꤩ꤭": 2913,
      "ꤡꤢꤨꤢ": 2914,
      "ꤤ꤬ꤏꤢꤪꤤ꤬ꤕꤜꤢꤦ꤭": 2915,
      "ꤏꤢꤨ꤬ꤓꤢꤨ꤭": 2916,
      "ꤏꤥ꤭ꤚꤢꤧ꤬ꤏꤥ꤭ꤖꤢ": 2917,
      "ꤎꤢ꤬ꤕꤛꤤꤞꤢꤩ꤬": 2918,
      "ꤢ꤬ꤊꤢꤨꤜꤥ꤬": 2919,
      "ꤗ꤫ꤢ꤬ꤊꤢꤧ꤭ꤍ꤫ꤥ꤬": 2920,
      "ꤗ꤫ꤢꤪ꤬ꤟꤢꤩꤜꤢꤧ꤬": 2921,
      "ꤜꤤꤎꤢ꤬ꤙ": 2922,
      "ꤗ꤫ꤢꤪ꤬ꤋꤤꤋꤤ": 2923,
      "ꤗꤢ꤭ꤓꤢꤩꤜꤥ꤬": 2924,
      "ꤊꤢꤨ꤬ꤊꤜꤢꤪꤘꤢꤨ꤬ꤊꤣꤧ": 2925,
      "ꤤ꤬ꤡꤛꤤꤊ꤫ꤢꤩ꤬ꤊꤢꤨ꤭": 2926,
      "ꤒꤢꤩ꤬ꤞꤤꤛꤢꤪ꤬ꤊꤜꤢ꤬ꤙꤢꤩ꤬": 2927,
      "ꤠꤢꤧ꤭ꤖꤢꤨꤠꤢꤧ꤭ꤜꤣꤧ꤬": 2928,
      "ꤢ꤬ꤡꤢꤨ꤬": 2929,
      "ꤊꤢꤨꤊ꤫ꤥ꤬ꤓꤢꤩ꤭": 2930,
      "ꤟꤥ꤭ꤗꤢꤦ꤬ꤒꤣꤧ꤬ꤖꤥ꤬": 2931,
      "ꤗ꤫ꤢꤪ꤬ꤞꤤ꤭ꤊꤜꤢꤩ꤭ꤊꤜꤢꤩ꤭": 2932,
      "ꤢꤩ꤬ꤒ꤫ꤣ꤬ꤥ꤭ꤒ꤫ꤣ꤬": 2933,
      "ꤊꤢ꤬ꤏꤥ꤭ꤗꤢꤩ꤭ꤖꤚꤢꤩ꤬ꤋꤢꤨ꤭": 2934,
      "ꤜꤥ꤭ꤕꤣꤧ꤬ꤏꤤ꤭ꤡꤝꤢ": 2935,
      "ꤞꤢꤧ꤭ꤚꤢꤧ꤭": 2936,
      "ꤜꤢꤨ꤭ꤚꤤ꤬ꤜꤢꤨ꤭ꤊꤢꤧ꤭": 2937,
      "ꤠꤤ꤭ꤎꤤꤘꤥ꤬": 2938,
      "ꤗ꤫ꤥ꤬ꤢꤧꤜꤤꤎꤢ꤬ꤙ": 2939,
      "ꤘꤣꤧꤏꤝꤢ꤬ꤘꤣꤧꤏꤢꤪ꤭ꤓꤢꤧ꤬": 2940,
      "ꤊꤢ꤬ꤚꤤ꤬ꤞꤢꤨ꤬": 2941,
      "ꤏꤢ꤬ꤜꤢꤧ꤬": 2942,
      "ꤔꤢꤧ꤬ꤚꤤ꤬ꤔꤢꤧ꤬ꤊꤢꤧ꤭": 2943,
      "ꤕ꤫ꤢꤩ꤬ꤢꤩ꤬ꤕ꤫ꤢꤩ꤬ꤥ꤭": 2944,
      "ꤜ꤫ꤢꤩ꤬ꤊꤢꤦ꤭ꤜ꤫ꤢꤩ꤬ꤞꤢꤧ": 2945,
      "ꤏꤢꤔꤢꤩꤜꤥ꤭": 2946,
      "ꤕꤣꤓꤣꤧ꤭ꤕꤣꤊ꤫ꤢꤩ꤬": 2947,
      "ꤊꤢꤨ꤬ꤊꤜꤢꤪꤘꤢꤨ꤬ꤊꤣꤧꤏꤢꤨ꤬ꤓꤢꤨ꤭": 2948,
      "ꤗ꤫ꤥ꤬ꤢꤧꤜꤤꤎꤢ꤬ꤙꤢꤧ": 2949,
      "ꤊꤚꤢꤩ꤬": 2950,
      "ꤍ꤫ꤢꤧ꤬": 2951,
      "ꤍꤢ꤬ꤚ": 2952,
      "ꤎꤤꤜꤢ꤬": 2953,
      "ꤒꤢꤪ꤭": 2954,
      "ꤓꤣ꤬": 2955,
      "ꤔꤢ꤬ꤚꤤ": 2956,
      "ꤖꤢ꤬": 2957,
      "ꤖꤝꤤ꤭": 2958,
      "ꤘꤢꤩ": 2959,
      "ꤚ꤫ꤢ꤬": 2960,
      "ꤛꤢꤪ": 2961,
      "ꤞꤝꤤ": 2962,
      "ꤟꤢꤩ꤭": 2963,
      "ꤠꤢꤩꤜꤤ꤬": 2964,
      "ꤥꤓꤢꤧ꤬": 2965,
      "ꤢꤩꤔꤥ꤭": 2966,
      "ꤢꤩ꤬ꤊꤢꤧ꤭": 2967,
      "ꤢ꤬ꤔꤣꤧ꤭": 2968,
      "ꤢ꤬ꤗ꤫ꤢ꤬ꤒꤥ꤬": 2969,
      "ꤢ꤬ꤛ꤫ꤢꤧ꤬": 2970,
      "ꤢ꤬ꤏꤢꤨ꤬": 2971,
      "ꤢ꤬ꤊꤜꤢꤧ꤭ꤗꤢꤩ꤭ꤊꤢꤨ꤭": 2972,
      "ꤥ꤬ꤥ": 2973,
      "ꤥ꤬ꤥ꤬": 2974,
      "ꤥ꤬ꤘꤢꤦ꤬": 2975,
      "ꤥ꤬ꤚꤢꤧ": 2976,
      "ꤥ꤬ꤠꤢ": 2977,
      "ꤥ꤬ꤡ꤫ꤢꤩ꤬ꤡꤢꤦ꤭": 2978,
      "ꤞꤤꤜꤢꤧ꤬": 2979,
      "ꤞꤤꤔꤢꤩ꤬": 2980,
      "ꤢꤨ꤭ꤕꤝꤢ꤭": 2981,
      "ꤒꤣꤧ꤬ꤜꤤ꤭": 2982,
      "ꤒꤢꤩ꤬ꤒꤣꤧ꤬ꤟꤢꤩ꤬": 2983,
      "ꤞꤤ꤭ꤋꤛꤢ꤭": 2984,
      "ꤞꤤ꤭ꤗꤢꤩ꤭": 2985,
      "ꤞꤤ꤭ꤖꤥ꤭": 2986,
      "ꤞꤤ꤭ꤖꤣꤧ꤭": 2987,
      "ꤖꤚꤢꤩ꤬ꤗꤢꤩ꤬ꤡꤝ꤫ꤢ꤬": 2988,
      "ꤒꤣꤧ꤬ꤟꤢꤩ꤬ꤗꤢ꤬": 2989,
      "ꤤ꤬ꤛꤢ꤬": 2990,
      "ꤒꤣ꤬ꤕꤢꤦ꤬": 2991,
      "ꤟꤢꤩꤞꤢꤦ": 2992,
      "ꤗꤢꤩ꤬ꤊ꤫ꤢꤦ꤬": 2993,
      "ꤗꤢꤩ꤬ꤋꤢ": 2994,
      "ꤜꤢꤪꤞꤢꤪ꤭": 2995,
      "ꤢ꤬ꤋꤤ꤭": 2996,
      "ꤊꤣꤧ꤬ꤜꤥ꤭ꤋꤢꤨ꤬": 2997,
      "ꤊ꤫ꤢꤦ꤬ꤙꤢꤩ꤬": 2998,
      "ꤒꤥ꤬ꤟꤣꤧ": 2999,
      "ꤙꤢꤩ꤬ꤔꤢꤪ": 3000,
      "ꤙꤢꤩ꤬ꤚꤤ": 3001,
      "ꤕꤢꤩ꤬ꤍ꤫ꤥ꤬": 3002,
      "ꤟꤢꤧ꤭ꤕꤢ꤭": 3003,
      "ꤟꤢꤧ꤭ꤥ꤬ꤜꤥ꤭ꤓꤢꤧ꤬": 3004,
      "ꤔꤢꤧ꤬ꤊꤢꤨ꤭": 3005,
      "ꤕꤢ꤭ꤕꤢ꤭": 3006,
      "ꤡꤝꤢꤊꤣꤧ꤭": 3007,
      "ꤡꤝꤢꤙꤢꤩ": 3008,
      "ꤋꤢꤨ꤭ꤛꤢ꤬ꤊꤥ꤬": 3009,
      "ꤡꤣꤧꤒꤥ꤬": 3010,
      "ꤕ꤫ꤢꤩ꤬ꤕꤢ꤬": 3011,
      "ꤘꤣꤧꤙꤢꤩ": 3012,
      "ꤞꤢꤧꤖꤢꤧ": 3013,
      "ꤜꤥ꤭ꤓꤣꤧ꤭": 3014,
      "ꤒꤢ꤭ꤒꤢ꤭": 3015,
      "ꤒꤣꤧ꤬ꤟꤢꤩ꤬ꤔꤣꤧ꤬ꤚꤣꤧ꤬": 3016,
      "ꤒꤥ꤭ꤖꤢꤧ": 3017,
      "ꤓꤝꤢ꤭ꤜꤢꤪ꤭": 3018,
      "ꤠꤤ꤭ꤥ꤬ꤊꤢꤪ꤭": 3019,
      "ꤠꤤ꤭ꤊꤢ꤬ꤚꤤ꤬ꤞꤢꤨ꤬": 3020,
      "ꤥ꤬ꤔꤢ": 3021,
      "ꤔꤢꤪ꤭ꤗꤢꤩ꤬ꤞꤣꤧ꤭": 3022,
      "ꤖꤢꤩ꤭ꤊꤢ꤬": 3023,
      "ꤖꤢꤩ꤭ꤢ꤬ꤊꤢꤨ": 3024,
      "ꤖꤢꤩ꤭ꤢꤎꤢꤧ": 3025,
      "ꤔꤣꤧ꤭ꤊꤛꤢ꤭": 3026,
      "ꤒ꤫ꤥ꤬ꤕꤢ꤬": 3027,
      "ꤜ꤫ꤢꤩ꤬ꤟꤢꤧ꤭": 3028,
      "ꤥ꤬ꤔꤢꤧ꤭ꤒꤢ꤭": 3029,
      "ꤞꤢꤩ꤬ꤎꤢ꤬ꤜꤢ꤬": 3030,
      "ꤟꤢꤩꤙꤢꤩ꤬ꤓꤢꤧ꤬ꤜꤥ꤭": 3031,
      "ꤖꤢꤨꤡ꤫ꤢꤩ꤬ꤟꤢꤨꤣꤧ꤭": 3032,
      "ꤖꤛꤢꤢꤩ꤬": 3033,
      "ꤖꤚꤢꤩ꤬ꤋꤢꤨ꤭ꤖꤢꤨꤡ꤫ꤢꤩ꤬ꤟꤢꤨ": 3034,
      "ꤖꤚꤢꤩ꤬ꤋꤢꤨ꤭ꤖꤢꤨꤞꤢꤩ꤬": 3035,
      "ꤗ꤫ꤥ꤬ꤟꤢꤪꤊꤢꤨ꤭": 3036,
      "ꤒꤣꤧ꤬ꤔꤢꤩ꤬ꤥ꤬ꤔꤢꤩ꤬": 3037,
      "ꤜꤤ꤬ꤕꤜꤢꤪ꤬": 3038,
      "ꤗꤢꤩ꤭ꤜꤢꤪ꤭": 3039,
      "ꤕꤣꤧꤞꤢꤩ꤬ꤓꤣꤧ꤭": 3040,
      "ꤗꤤ꤬ꤢꤦ꤭": 3041,
      "ꤞꤥ꤭ꤗꤢꤦ꤭": 3042,
      "ꤞꤥ꤭ꤏꤣꤧ꤭": 3043,
      "ꤓꤢꤨ꤬ꤕꤜꤢ": 3044,
      "ꤔ꤫ꤤ꤬ꤘꤢ꤭ꤊꤣꤧ꤭": 3045,
      "ꤓꤢꤩ꤭ꤙꤢ꤬": 3046,
      "ꤜꤣꤧ꤬ꤕꤜꤢꤩꤙꤢꤩ": 3047,
      "ꤜ꤫ꤥ꤬ꤙꤢꤩ꤬": 3048,
      "ꤕꤜꤝꤢ꤭ꤟꤢꤧ꤭": 3049,
      "ꤕꤜꤝꤢ꤭ꤊꤢ꤬ꤊꤢꤧ꤭": 3050,
      "ꤖꤚꤢꤩ꤬ꤛ꤫ꤢꤦ꤬ꤢꤩ꤬ꤔ꤫ꤢꤧ꤬ꤢꤩ꤬": 3051,
      "ꤎꤢ꤬ꤘꤥ꤬": 3052,
      "ꤘꤥ꤬ꤥ꤭": 3053,
      "ꤒꤣꤧ꤬ꤡꤢ": 3054,
      "ꤘꤤ꤭ꤙꤢꤩ꤭": 3055,
      "ꤒꤣ꤬ꤖꤥ꤬ꤒꤢꤩ꤭": 3056,
      "ꤗꤢꤧꤕꤢꤨ꤭ꤗꤢꤩ꤬ꤞꤣꤧ꤭": 3057,
      "ꤊꤝꤤ꤭ꤡꤢꤪꤙꤢꤩ꤭ꤓꤢꤧ꤬": 3058,
      "ꤟꤢꤧ꤭ꤑꤢꤩ꤭ꤕ꤫ꤥ꤬": 3059,
      "ꤙꤢꤩꤗꤢꤨ꤬ꤘꤢꤨ꤬": 3060,
      "ꤊꤥꤜꤢꤦ꤬": 3061,
      "ꤊꤢꤨꤋꤢꤨ꤬ꤞꤣꤧ꤭": 3062,
      "ꤔꤝꤢꤖꤛꤢ": 3063,
      "ꤚꤢꤦ꤭ꤓꤢꤩ꤭": 3064,
      "ꤔꤝꤢꤓꤢꤧ꤬ꤟꤣꤧ": 3065,
      "ꤒꤢꤩ꤬ꤏꤢꤩ꤭ꤗꤢꤨꤗ꤫ꤢꤧ꤬": 3066,
      "ꤊꤜꤢꤧ꤬ꤟꤢꤧ꤭": 3067,
      "ꤏꤤ꤭ꤗꤢꤩ꤭ꤜꤢꤪ꤭": 3068,
      "ꤏꤣꤧ꤭ꤞꤥ꤭ꤞꤝꤢ": 3069,
      "ꤍꤢꤧ꤭ꤊꤜ꤫ꤢꤪ꤬": 3070,
      "ꤢ꤬ꤊꤢꤨꤜꤢꤩ꤬ꤊꤥ꤬": 3071,
      "ꤥ꤬ꤊꤜꤢꤪ꤬ꤗꤢ꤬": 3072,
      "ꤘꤢꤨ꤬ꤓꤢꤧ꤬ꤓꤢꤨ꤭ꤓꤢꤧ꤬": 3073,
      "ꤒꤢꤩ꤬ꤕꤝꤢ꤭ꤒꤣ꤬ꤡꤣ꤬": 3074,
      "ꤜ꤫ꤢ꤬ꤜꤤ꤭": 3075,
      "ꤟꤢꤪꤓꤢꤪ": 3076,
      "ꤞꤤꤕꤜꤢꤩ꤭ꤔꤢꤩ꤬ꤙꤢꤩ꤬": 3077,
      "ꤗꤢꤩ꤬ꤓꤥ꤭ꤊꤢꤧ꤭": 3078,
      "ꤓꤢꤩꤏꤢꤦ꤬ꤊꤢꤧ꤭": 3079,
      "ꤊꤚꤤꤗꤤ꤭ꤡꤣ꤬ꤖꤢꤨ": 3080,
      "ꤎꤢꤨ꤬ꤚꤤ": 3081,
      "ꤥ꤬ꤜꤣꤥ꤬ꤙꤢ꤭": 3082,
      "ꤋꤢꤨ꤭ꤗꤢ꤬ꤊꤢꤨ": 3083,
      "ꤓꤝꤤꤒꤢ꤭": 3084,
      "ꤘꤢꤩ꤬ꤔꤢ꤬ꤚꤤ": 3085,
      "ꤊꤜꤝꤢ꤬ꤜꤣꤧ꤬ꤟꤥ꤭": 3086,
      "ꤙꤢꤩ꤭ꤜ꤫ꤢꤪ꤬ꤘꤢꤨ꤬": 3087,
      "ꤏꤢꤦꤢꤦ꤭ꤊꤢꤧ꤭": 3088,
      "ꤢ꤬ꤡꤢ꤬ꤊꤜꤢꤪ꤭": 3089,
      "ꤓꤝꤢ꤭ꤘꤢꤨ꤬ꤓꤝꤢ꤭": 3090,
      "ꤒꤣꤧ꤬ꤊꤢꤪ꤭ꤒꤣꤧ꤬ꤊꤢꤩ꤬": 3091,
      "ꤢ꤬ꤓꤢꤦ꤭ꤓꤢꤦ꤭": 3092,
      "ꤟꤤꤙꤚꤢꤨꤍ꤫ꤥ꤬": 3093,
      "ꤔꤣꤧ꤭ꤖꤥꤒꤣ꤬ꤖꤥ": 3094,
      "ꤓꤣꤧ꤭ꤚꤥ꤬ꤊ꤫ꤢꤩ꤬ꤊꤜꤢꤪ꤭": 3095,
      "ꤓꤣꤧ꤭ꤥ꤭ꤖꤢ": 3096,
      "ꤞꤤ꤭ꤚꤤ꤬ꤞꤤ꤭ꤊꤢꤧ꤭": 3097,
      "ꤢ꤬ꤜꤢꤧꤎꤢ꤬ꤘ": 3098,
      "ꤢ꤬ꤡꤢꤨ꤬ꤡꤢꤨ꤬": 3099,
      "ꤊꤚꤢꤩ꤬ꤒꤢꤩ꤬": 3100,
      "ꤍꤢ꤬ꤚꤢ꤬ꤊꤢꤨ꤭": 3101,
      "ꤞꤤꤔꤢꤩ꤬ꤞꤥ꤬": 3102,
      "ꤞꤤ꤭ꤖꤣꤧ꤭ꤞꤤ꤭ꤖꤥ꤭": 3103,
      "ꤜꤥ꤭ꤓꤣꤧ꤭ꤜꤥ꤭ꤊ꤫ꤢꤩ꤬": 3104,
      "ꤖꤢꤩ꤭ꤊꤢ꤬ꤛꤢ꤬ꤖꤢ": 3105,
      "ꤖꤢꤩ꤭ꤢ꤬ꤊꤢꤨꤜꤢ": 3106,
      "ꤞꤢꤩ꤬ꤎꤢ꤬ꤜꤢ꤬ꤔꤤ": 3107,
      "“‘": 3108,
      "ꤊꤜꤢꤨ꤭": 3109,
      "ꤎꤢꤨ": 3110,
      "ꤒꤣ": 3111,
      "ꤕꤤ꤬": 3112,
      "ꤕꤚꤢꤨ": 3113,
      "ꤙꤢꤨ": 3114,
      "ꤚꤝ꤫ꤤ꤬": 3115,
      "ꤞ꤫ꤤ꤬": 3116,
      "ꤟꤢꤦ꤬": 3117,
      "ꤡꤢꤧ": 3118,
      "ꤡ꤫ꤥ꤬": 3119,
      "ꤢꤞ꤫ꤤ꤬": 3120,
      "ꤢꤩ꤬ꤚ꤫ꤥ꤬": 3121,
      "ꤢ꤬ꤟꤢꤧ꤭": 3122,
      "ꤢ꤬ꤟꤢꤪ": 3123,
      "ꤢ꤬ꤘꤢ": 3124,
      "ꤥ꤬ꤗꤢ꤬": 3125,
      "ꤥ꤬ꤜꤢꤨ꤭": 3126,
      "ꤥ꤬ꤛꤢ꤬": 3127,
      "ꤥ꤬ꤙꤣꤧꤔꤣꤧ꤬": 3128,
      "ꤥ꤬ꤡꤢꤦ꤭": 3129,
      "ꤥ꤬ꤙꤣꤧꤒꤢꤩ꤭": 3130,
      "ꤞꤤꤛ꤫ꤢꤪ꤬ꤞꤤꤙꤤ꤭": 3131,
      "ꤢꤨ꤭ꤊꤢꤧ꤭": 3132,
      "ꤢꤨ꤭ꤒꤢꤩ꤬ꤞꤢꤦ": 3133,
      "ꤒꤢꤩ꤬ꤔꤣꤧ꤬": 3134,
      "ꤒꤢꤩ꤬ꤙꤢꤩ꤬": 3135,
      "ꤒꤢꤩ꤬ꤟꤢꤧ꤭": 3136,
      "ꤒꤢꤩ꤬ꤘꤢꤨ꤬": 3137,
      "ꤒꤢꤩ꤬ꤓꤢꤨ꤭": 3138,
      "ꤒꤢꤩ꤬ꤚꤢꤩ꤬": 3139,
      "ꤒꤢꤩ꤬ꤤ꤭ꤒꤢꤩ꤭ꤒꤢꤩ꤭": 3140,
      "ꤒꤢꤩ꤬ꤒꤣ꤬ꤡꤣ꤬ꤡꤣ꤬": 3141,
      "ꤒꤢꤩ꤬ꤋꤢꤧꤞꤤꤕꤜꤢꤪ꤬ꤓꤢꤨ꤭": 3142,
      "ꤒꤢꤩ꤬ꤠꤤ": 3143,
      "ꤒꤢꤩ꤬ꤛꤢꤧ": 3144,
      "ꤒꤢꤩ꤬ꤜꤣꤧ꤬ꤟꤥ꤭ꤜꤣꤧ꤬ꤟꤢꤧ꤬": 3145,
      "ꤒꤢꤩ꤬ꤟꤢꤧ꤭ꤡ꤫ꤢꤩ꤬ꤚꤤ꤬ꤡ꤫ꤢꤩ꤬": 3146,
      "ꤒꤢꤩ꤬ꤗꤢꤧꤓ꤫ꤣꤧ꤬ꤜꤝꤢ": 3147,
      "ꤒꤢꤩ꤬ꤜꤝꤤ": 3148,
      "ꤞꤤ꤭ꤙꤢꤧ꤬ꤡꤢꤩ꤬": 3149,
      "ꤞꤤ꤭ꤋꤢꤨ꤬": 3150,
      "ꤟꤢꤩ꤬ꤊꤢꤨ꤭": 3151,
      "ꤖꤚꤢꤩ꤬ꤢꤩ꤬ꤟꤥ꤬ꤢꤩ꤬ꤟꤤ": 3152,
      "ꤖꤚꤢꤩ꤬ꤕ꤫ꤢꤦ꤬ꤖꤢꤩ꤬ꤛꤢꤩꤕꤜꤢꤩ": 3153,
      "ꤟꤢꤩꤕ꤫ꤥ꤬": 3154,
      "ꤟꤢꤩꤔꤤꤔꤢꤧ꤬": 3155,
      "ꤟꤢꤩꤙꤛꤢ꤬": 3156,
      "ꤗꤢꤩ꤬ꤔ꤫ꤤ꤬": 3157,
      "ꤗꤢꤩ꤬ꤕꤢ꤬": 3158,
      "ꤠꤢꤧ꤭ꤔꤣꤧ꤬": 3159,
      "ꤠꤢꤧ꤭ꤗ꤫ꤥ꤬": 3160,
      "ꤠꤢꤧ꤭ꤞꤝꤤ꤬": 3161,
      "ꤗꤢ꤬ꤒꤢꤩ꤭": 3162,
      "ꤛꤢꤩ꤬ꤞꤤ꤭ꤍ꤫ꤥ꤬": 3163,
      "ꤕꤢꤩ꤬ꤒꤢꤩ꤬": 3164,
      "ꤟꤢꤧ꤭ꤊꤣꤧ꤬ꤓꤢꤪ꤬ꤥ꤬": 3165,
      "ꤜꤢꤪ꤭ꤊꤢꤧ꤭": 3166,
      "ꤜꤢꤪ꤭ꤜꤢꤪ꤭": 3167,
      "ꤓꤢꤧ꤬ꤘꤢꤧ": 3168,
      "ꤓꤢꤧ꤬ꤖꤥ꤬": 3169,
      "ꤡꤝꤢꤟꤢꤩ": 3170,
      "ꤊꤣꤧ꤭ꤜꤢ꤭ꤟꤤ": 3171,
      "ꤋꤢꤨ꤭ꤛꤥ꤬": 3172,
      "ꤋꤢꤨ꤭ꤔꤤ꤬": 3173,
      "ꤙꤣꤧꤔꤣꤧ꤬ꤒꤣꤧ꤬ꤟꤢꤩ꤬": 3174,
      "ꤋꤚꤢꤦ": 3175,
      "ꤕꤜ꤫ꤢꤩ꤬": 3176,
      "ꤘꤣꤧꤞꤢꤧ": 3177,
      "ꤘꤣꤧꤊꤢꤦ꤭": 3178,
      "ꤞꤢꤧꤞꤢꤧ": 3179,
      "ꤞꤢꤧꤟꤢꤨꤔꤣꤧ꤬ꤟꤣꤧ": 3180,
      "ꤒꤢ꤭ꤊꤣꤧ꤬ꤜꤢꤧ꤬": 3181,
      "ꤙꤢꤧ꤬ꤞꤢꤧ꤬": 3182,
      "ꤚꤣꤧꤘꤢꤦ꤬ꤟꤣꤧ": 3183,
      "ꤒꤥ꤭ꤒꤢꤦ": 3184,
      "ꤞꤤꤑꤢꤩ꤭ꤘꤢꤦ꤬ꤟꤣꤧ": 3185,
      "ꤒꤣꤧ꤬ꤚꤢꤦ꤬": 3186,
      "ꤢ꤬ꤜꤝꤤ꤭": 3187,
      "ꤠꤤ꤭ꤎꤢ꤬ꤘꤥ꤬": 3188,
      "ꤠꤤ꤭ꤙꤢꤧ꤬ꤞꤢꤧ꤬": 3189,
      "ꤘꤢꤧ꤬ꤟꤣꤧ": 3190,
      "ꤘꤢꤧ꤬ꤊꤢꤩ꤬": 3191,
      "ꤘꤢꤧ꤬ꤏꤝꤢ꤬": 3192,
      "ꤘꤢꤧ꤬ꤞꤢꤩ": 3193,
      "ꤜꤢꤧ꤬ꤟꤢꤧ꤬": 3194,
      "ꤔꤢꤪ꤭ꤘꤣꤧꤡꤢ꤭": 3195,
      "ꤊꤢꤨꤕꤚꤢꤨ": 3196,
      "ꤡ꤫ꤢꤧ꤬ꤕꤢ꤬": 3197,
      "ꤓꤢꤩ꤬ꤋꤢꤨ꤬": 3198,
      "ꤖꤢꤩ꤭ꤘꤢ꤬ꤠꤤ꤬": 3199,
      "ꤖꤢꤩ꤭ꤔꤥꤢ꤬": 3200,
      "ꤖꤢꤩ꤭ꤞꤢꤩꤙꤢꤩ꤬ꤘꤢꤧ": 3201,
      "ꤔꤣꤧ꤭ꤖꤚꤢꤩ꤬": 3202,
      "ꤔꤣꤧ꤭ꤗꤢꤨ꤬": 3203,
      "ꤔꤣꤧ꤭ꤏꤣꤧ꤭": 3204,
      "ꤜꤣꤢꤨ꤭": 3205,
      "ꤜꤣꤕ꤫ꤥ꤬": 3206,
      "ꤊ꤫ꤢꤩ꤬ꤡꤢꤦ꤬": 3207,
      "ꤓꤣꤧ꤭ꤓꤢꤦ꤭": 3208,
      "ꤓꤣꤧ꤭ꤓꤢꤩ꤬ꤋꤢꤨ꤬": 3209,
      "ꤟꤢꤩꤏꤥ꤬ꤥ꤬ꤔꤢꤩ꤬": 3210,
      "ꤞꤢꤩ꤬ꤓꤢꤩ꤬": 3211,
      "ꤕꤜꤤ꤭ꤊꤢꤧ꤭": 3212,
      "ꤗ꤫ꤢꤪ꤬ꤔꤢꤩ꤬": 3213,
      "ꤡꤢ꤭ꤜꤣ": 3214,
      "ꤖꤛꤢꤖꤢꤩ꤬ꤊꤢꤧ꤭": 3215,
      "ꤗ꤫ꤥ꤬ꤖꤚꤤ꤬": 3216,
      "ꤞꤢꤪ꤬ꤊ꤫ꤤ꤬": 3217,
      "ꤋꤚꤝꤢ꤭ꤊꤢ꤬ꤊꤣꤧ꤭": 3218,
      "ꤗꤢꤪꤋꤢꤨ꤬ꤔꤣꤧ꤬": 3219,
      "ꤕꤣꤧ꤬ꤏꤢꤩ꤭": 3220,
      "ꤕꤣꤧ꤬ꤔ꤫ꤥ꤬": 3221,
      "ꤊꤣꤧ꤬ꤓꤢꤪ꤬ꤥ꤬ꤔꤢꤧ꤭": 3222,
      "ꤢ꤬ꤙꤢꤨ꤭": 3223,
      "ꤣꤧ꤭ꤒꤣ꤬ꤒ꤫ꤥ꤬": 3224,
      "ꤣꤧ꤭ꤒꤣ꤬ꤞꤢꤩ꤭": 3225,
      "ꤓꤢꤩ꤬ꤡꤝꤢꤗꤢꤧ": 3226,
      "ꤙꤢꤧꤜꤢ꤬": 3227,
      "ꤜꤤ꤭ꤓꤢꤧ꤬": 3228,
      "ꤢ꤬ꤒꤢꤩ꤬ꤒꤣꤧ꤬ꤔꤢꤩ꤬": 3229,
      "ꤢ꤬ꤒꤢꤩ꤬ꤟꤢꤩꤗꤥ꤬ꤟꤢꤩꤚꤢꤧ": 3230,
      "ꤔꤣꤧ꤬ꤒꤣ꤬ꤗꤢꤨ꤬": 3231,
      "ꤘꤥ꤬ꤢꤩ꤬ꤏꤢꤩ꤬": 3232,
      "ꤒꤣꤧ꤬ꤘꤢꤦ꤬ꤜꤣ": 3233,
      "ꤒꤣꤧ꤬ꤖꤢꤨ꤭ꤊꤢꤧ꤭": 3234,
      "ꤖꤚꤢꤩ꤬ꤜꤢꤨ꤭ꤒꤢꤧ꤭ꤒꤢꤩ꤬ꤖꤢꤨ": 3235,
      "ꤔꤢ꤬ꤔꤤ": 3236,
      "ꤒꤣꤧ꤬ꤠꤢ꤬ꤊꤢꤨ꤭": 3237,
      "ꤒꤣ꤬ꤗꤢꤩ꤭ꤚꤣꤧ꤬": 3238,
      "ꤟꤢꤧ꤭ꤑꤢꤩ꤭ꤜꤢ꤭": 3239,
      "ꤙꤢꤣꤧ꤭": 3240,
      "ꤙꤢꤧꤞꤝꤢꤙꤢꤧꤜꤢ꤬": 3241,
      "ꤕꤥ꤬ꤢꤩ꤬": 3242,
      "ꤢ꤬ꤜꤥ꤬ꤔꤣꤧ꤬": 3243,
      "ꤒꤢꤩ꤬ꤖꤚꤥ꤬ꤖꤚꤢꤧ꤬": 3244,
      "ꤏꤢꤪ꤭ꤚꤤ꤬ꤏꤢꤪ꤭ꤙꤢꤨ꤭": 3245,
      "ꤖꤥ꤭ꤓꤢꤧ꤬": 3246,
      "ꤏꤥ꤬ꤖꤢꤨ": 3247,
      "ꤏꤥ꤬ꤜꤥ꤬": 3248,
      "ꤓꤢꤩꤙꤤꤊꤢꤧ꤭": 3249,
      "ꤊꤣꤧ꤬ꤘꤢ꤭ꤓꤢꤦ꤭": 3250,
      "ꤊꤜꤢꤧ꤬ꤡꤝꤢ": 3251,
      "ꤋꤥ꤬ꤓꤢꤧ꤬": 3252,
      "ꤜꤢꤦ꤬ꤗꤢꤩ꤬ꤗꤥ꤬": 3253,
      "ꤛ꤫ꤢꤨ꤬ꤢꤩ꤬": 3254,
      "ꤔꤢꤩꤘꤢꤪ꤭": 3255,
      "ꤔꤢꤩꤜꤢ": 3256,
      "ꤢꤩꤟꤢꤧ꤭ꤔ꤫ꤤ꤬": 3257,
      "ꤖꤚꤢꤧ꤭ꤖꤚꤢꤧ꤭": 3258,
      "ꤠꤤ꤭ꤊꤢꤨ꤭ꤔꤣꤧ꤬": 3259,
      "ꤍꤢꤧ꤭ꤡꤝ꤫ꤢꤩ꤬": 3260,
      "ꤟꤢꤩ꤬ꤚꤥ꤬ꤘꤤ": 3261,
      "ꤢ꤬ꤊꤢꤨꤗꤤ꤬": 3262,
      "ꤢ꤬ꤕ꤫ꤥ꤬ꤢ꤬ꤗ꤫ꤢꤧ꤬": 3263,
      "ꤜꤣꤧ꤬ꤒꤢ꤭ꤖꤚꤢꤪ꤬": 3264,
      "ꤕꤜꤢꤜꤤ꤭": 3265,
      "ꤟꤢꤩꤜꤥ꤭ꤕꤜꤥ꤭": 3266,
      "ꤙꤢꤧꤜꤢꤧ꤬ꤜꤢꤨ": 3267,
      "ꤞꤢꤨ꤬ꤘꤢꤧ꤬ꤞꤢꤩ": 3268,
      "ꤓꤣꤧ꤭ꤘꤢꤨ꤬ꤒꤣꤧ꤬ꤠꤢ꤬ꤊꤢꤨ꤭": 3269,
      "ꤙꤛꤢ꤬ꤖꤢꤧ": 3270,
      "ꤜꤢꤧ꤭ꤗ꤫ꤥ꤬": 3271,
      "ꤊꤢꤨ꤬ꤊꤜꤢꤧꤓꤢꤧ꤬ꤜꤥ꤭": 3272,
      "ꤋꤢꤨ꤭ꤢ꤬ꤔꤢ꤬ꤔꤤ": 3273,
      "ꤜ꤫ꤢꤧ꤬ꤋꤢꤨ꤬": 3274,
      "ꤒꤢꤩ꤬ꤊꤜꤝꤤ꤭ꤒꤢꤩ꤬ꤜꤝꤤ": 3275,
      "ꤢ꤬ꤞꤢꤩ꤬ꤓꤢꤩ꤬": 3276,
      "ꤡ꤫ꤢ꤬ꤚ꤫ꤢꤪ꤬": 3277,
      "ꤞꤤꤜꤢꤩ꤬ꤚꤣꤧ": 3278,
      "ꤊꤢꤩꤙꤥ": 3279,
      "ꤋꤚꤥ꤭ꤊꤜꤢꤩ꤭": 3280,
      "ꤕꤣꤒꤣꤧ꤬ꤚꤤ꤬ꤚꤣꤧ": 3281,
      "ꤙꤢꤗꤥ꤭ꤓꤢꤧ꤬": 3282,
      "ꤗꤢꤧꤙꤢꤦ꤭ꤊꤣꤧ꤭": 3283,
      "ꤢ꤬ꤔꤢ꤬ꤒꤣ꤬ꤚꤤ": 3284,
      "ꤋꤚꤢꤦ꤬ꤔꤢꤧ꤬": 3285,
      "ꤜꤣꤧ꤬ꤋꤢꤦꤒꤢ꤭": 3286,
      "ꤎꤢꤩ꤬ꤓꤣ꤬": 3287,
      "ꤓꤣꤧ꤭ꤢꤪ꤬ꤘꤢꤨ꤬ꤒꤣꤧ꤬ꤠꤢꤪ꤬ꤓꤢꤦ꤭": 3288,
      "ꤊꤣꤧꤔ꤫ꤥ꤬": 3289,
      "ꤡ꤫ꤢ꤬ꤖꤚꤣꤧ꤭ꤡ꤫ꤢ꤬ꤚ꤫ꤢꤪ꤬": 3290,
      "ꤕꤣꤧꤚꤥ꤬ꤕꤢ꤭": 3291,
      "ꤊꤢ꤬ꤘꤢꤩ": 3292,
      "ꤢꤪꤜꤤꤠꤢ꤬ꤏꤥ꤬ꤋꤢꤨ꤬": 3293,
      "ꤢ꤬ꤏꤛꤢꤊ꤫ꤢꤩ꤬": 3294,
      "ꤢ꤬ꤏꤛꤢꤊ꤫ꤢꤩ꤬ꤊꤢꤨ꤭": 3295,
      "ꤞꤢꤪ꤬ꤏꤢꤧꤗ꤫ꤢꤪ꤬": 3296,
      "ꤞꤢꤪ꤬ꤏꤢꤧꤞꤢꤪ꤬ꤊ꤫ꤤ꤬": 3297,
      "ꤓꤝꤤ꤬ꤗꤤ꤬": 3298,
      "ꤥ꤬ꤗꤥ꤬ꤥ꤬ꤚꤢꤧ": 3299,
      "ꤜꤥ꤭ꤊ꤫ꤢꤩ꤬ꤔꤢꤩꤘꤢꤪ꤭": 3300,
      "ꤢ꤬ꤏꤝꤤꤢ꤬ꤏꤢꤩ꤭": 3301,
      "ꤤ꤬ꤜ꤫ꤥ꤬ꤒꤢ꤭": 3302,
      "ꤢ꤬ꤙꤝꤤꤘꤢꤨ꤬ꤢ꤬ꤒꤣꤧ꤬ꤚꤣꤧ꤭ꤓꤢꤨ꤭": 3303,
      "ꤗ꤫ꤢꤩ꤬ꤊꤢꤧ꤭": 3304,
      "ꤊ꤫ꤢꤩ꤬ꤚ꤫ꤥ꤬ꤋꤢꤩ꤭": 3305,
      "ꤗꤢꤪꤚꤢ꤬ꤕꤢꤪ꤬ꤒꤢꤧ꤬ꤊꤢꤨ꤭": 3306,
      "ꤕꤣꤧ꤬ꤥ꤭ꤕꤣꤧ꤬ꤏꤢꤩ꤭": 3307,
      "ꤡꤢꤨꤢꤗꤥ꤭": 3308,
      "ꤊꤚꤢꤩ꤬ꤒꤢꤩ꤬ꤊꤜꤢꤦ": 3309,
      "ꤢ꤬ꤟꤢꤧ꤭ꤢ꤬ꤚꤢꤩ꤬": 3310,
      "ꤒꤢꤩ꤬ꤙꤢꤩ꤬ꤙꤢꤧ": 3311,
      "ꤒꤢꤩ꤬ꤟꤢꤧ꤭ꤒꤢꤩ꤬ꤚꤢꤩ꤬": 3312,
      "ꤒꤢꤩ꤬ꤠꤤꤒꤢꤩ꤬ꤛꤢꤧ": 3313,
      "ꤘꤣꤧꤊꤢꤦ꤭ꤘꤣꤧꤞꤢꤧ": 3314,
      "ꤠꤤ꤭ꤙꤢꤧ꤬ꤞꤢꤧ꤬ꤜꤢꤧ꤬ꤟꤢꤧ꤬": 3315,
      "ꤊꤢꤨꤕꤚꤢꤨꤊꤜꤢꤦ": 3316,
      "ꤗ꤫ꤥ꤬ꤖꤚꤤ꤬ꤎꤤꤜꤢ꤬": 3317,
      "!’": 3318,
      "ꤊꤝꤢ꤭": 3319,
      "ꤊꤢ꤬ꤜꤢ꤬": 3320,
      "ꤎꤢꤩ": 3321,
      "ꤒꤢ꤬ꤜꤤ꤬": 3322,
      "ꤓ꤫ꤣꤧ꤬": 3323,
      "ꤚ꤫ꤤ꤬": 3324,
      "ꤠꤥ꤬": 3325,
      "ꤥꤘꤢꤧ꤬": 3326,
      "꤮!”": 3327,
      "ꤢꤩꤕ꤫ꤥ꤬": 3328,
      "ꤢꤩ꤬ꤊꤢꤨ꤭": 3329,
      "ꤢꤩ꤬ꤏꤢꤩ꤬ꤢꤩ꤬": 3330,
      "ꤢ꤬ꤕ": 3331,
      "ꤢ꤬ꤒꤣꤧ꤬": 3332,
      "ꤢ꤬ꤠꤤ꤭": 3333,
      "ꤢ꤬ꤡ꤫ꤢꤧ꤬": 3334,
      "ꤢ꤬ꤊ꤫ꤢꤨ꤬": 3335,
      "ꤢ꤬ꤊꤢꤪ꤬": 3336,
      "ꤢ꤬ꤍꤢꤨ꤬": 3337,
      "ꤢ꤬ꤟꤣꤧ꤬ꤡꤢ꤬": 3338,
      "ꤥ꤬ꤒꤢꤩ꤬": 3339,
      "ꤥ꤬ꤙꤣꤧ": 3340,
      "ꤥ꤬ꤙꤤ": 3341,
      "ꤥ꤬ꤖꤢꤩ꤬": 3342,
      "ꤞꤤꤔꤥ꤭": 3343,
      "ꤔꤣꤧ꤬ꤗ꤫ꤢ꤬ꤒꤥ꤬": 3344,
      "ꤣꤧ꤭ꤢ꤬ꤋꤢꤩ꤭ꤔꤣꤧ꤬": 3345,
      "ꤣꤧ꤭ꤒꤣꤧ꤬ꤠꤤ꤭": 3346,
      "ꤣꤧ꤭ꤞꤤꤔꤣꤧ꤭ꤔꤣꤧ꤬": 3347,
      "ꤒꤣꤧ꤬ꤒꤢꤩ꤬": 3348,
      "ꤒꤣꤧ꤬ꤕꤤ": 3349,
      "ꤒꤣꤧ꤬ꤕꤛꤢ꤭": 3350,
      "ꤒꤢꤩ꤬ꤏꤢꤪ꤭": 3351,
      "ꤒꤢꤩ꤬ꤘꤢꤧ": 3352,
      "ꤒꤢꤩ꤬ꤕꤣ": 3353,
      "ꤒꤢꤩ꤬ꤍꤢꤨ꤬ꤘꤢꤨ꤬ꤖꤚꤤ꤬ꤘꤢꤨ꤬": 3354,
      "ꤒꤢꤩ꤬ꤋꤢꤧꤞꤤꤘꤥ꤭": 3355,
      "ꤒꤢꤩ꤬ꤏꤢꤒꤢꤩ꤬": 3356,
      "ꤥ꤭ꤔꤢꤪ": 3357,
      "ꤖꤚꤢꤩ꤬ꤕꤣꤒꤢꤩ꤬": 3358,
      "ꤤ꤬ꤙꤢ꤬": 3359,
      "ꤤ꤬ꤓꤢꤧ": 3360,
      "ꤤ꤬ꤏꤢ꤬": 3361,
      "ꤒꤣ꤬ꤔꤢ꤬": 3362,
      "ꤟꤢꤩꤊꤣꤧ꤭": 3363,
      "ꤟꤢꤩꤡꤣꤧ": 3364,
      "ꤟꤢꤩꤡ꤫ꤢꤧ꤬": 3365,
      "ꤗꤢꤩ꤬ꤢꤩ꤬": 3366,
      "ꤗꤢꤩ꤬ꤒꤢꤧ꤭": 3367,
      "ꤗꤢꤩ꤬ꤒ꤫ꤣ꤬ꤊꤣꤧ꤭": 3368,
      "ꤗꤢꤩ꤬ꤥ꤬ꤗ꤫ꤢꤩ꤬": 3369,
      "ꤗꤢꤩ꤬ꤞꤤꤋꤚꤢꤦ꤭": 3370,
      "ꤗꤢꤩ꤬ꤊꤜꤢꤪ꤬": 3371,
      "ꤗꤢꤩ꤬ꤞꤤꤒꤣꤧ꤬ꤚꤢꤩ꤭": 3372,
      "ꤗꤢꤩ꤬ꤒꤣꤧ꤬ꤗꤥ꤭ꤒꤣꤧ꤬ꤊꤢꤩ꤬": 3373,
      "ꤗꤢꤩ꤬ꤒꤣꤧ꤬ꤕꤜꤢꤪ꤬ꤜꤣꤧ꤬ꤛꤢꤪ꤬": 3374,
      "ꤗꤢꤩ꤬ꤗꤢꤗꤢꤩ꤬ꤒꤢꤩ꤭": 3375,
      "ꤗꤢꤩ꤬ꤕꤣꤧ꤬ꤔ꤫ꤥ꤬": 3376,
      "ꤠꤢꤧ꤭ꤛꤢ꤬": 3377,
      "ꤗꤢ꤬ꤗꤢꤩ꤬ꤒꤢꤩ꤭ꤟꤢꤩꤚꤣꤧ꤬": 3378,
      "ꤊꤣꤧ꤬ꤘꤣ": 3379,
      "ꤊꤣꤧ꤬ꤢꤪ꤭": 3380,
      "ꤊꤣꤧ꤬ꤞꤝꤤ": 3381,
      "ꤙꤢꤩ꤬ꤗꤢꤩ꤬": 3382,
      "ꤙꤢꤩ꤬ꤏꤢꤩ꤭": 3383,
      "ꤙꤢꤩ꤬ꤞꤤ꤬": 3384,
      "ꤜꤢꤨ꤭ꤕꤣꤧꤞꤢꤩ꤬ꤑꤢꤩ꤭": 3385,
      "ꤟꤢꤧ꤭ꤢꤩ": 3386,
      "ꤟꤢꤧ꤭ꤥ꤭": 3387,
      "ꤟꤢꤧ꤭ꤏꤝꤢ꤬": 3388,
      "ꤟꤢꤧ꤭ꤚ꤫ꤥ꤬": 3389,
      "ꤔꤢꤧ꤬ꤊꤜꤝꤤ꤭": 3390,
      "ꤜꤢꤪ꤭ꤘꤢꤦ꤬ꤟꤣꤧ": 3391,
      "ꤜꤢ꤭ꤕ꤫ꤥ꤬": 3392,
      "ꤡꤝꤢꤟꤢꤧ꤭": 3393,
      "ꤡꤝꤢꤓꤝꤢ꤭": 3394,
      "ꤋꤢꤨ꤭ꤛꤢ꤬": 3395,
      "ꤋꤢꤨ꤭ꤏꤛꤢꤩ꤬": 3396,
      "ꤡꤣꤧꤔꤣꤧ꤬": 3397,
      "ꤡꤣꤧꤔꤢꤧ꤭": 3398,
      "꤫ꤢ꤬ꤙꤢꤪ": 3399,
      "ꤕ꤫ꤢꤩ꤬ꤒꤥ꤬": 3400,
      "ꤓꤥ꤭ꤘꤢꤦ꤬": 3401,
      "ꤓꤥ꤭ꤕꤜꤢꤦ": 3402,
      "ꤘꤣꤧꤘꤢꤦ꤬": 3403,
      "ꤘꤣꤧꤥ꤬ꤓꤢꤧ꤬": 3404,
      "ꤔ꤫ꤤ꤬ꤟꤢꤧ꤭ꤔ꤫ꤤ꤬": 3405,
      "ꤗꤢꤧꤗꤢꤧ": 3406,
      "ꤢ꤬ꤚꤢ꤬ꤒꤢꤩ꤬": 3407,
      "ꤞꤣꤧ꤭ꤜꤢꤪ꤭": 3408,
      "ꤞꤣꤧ꤭ꤓꤥ꤭": 3409,
      "ꤕꤜꤢꤪꤜꤢꤪ꤭": 3410,
      "ꤒꤢ꤭ꤟꤣꤧ": 3411,
      "ꤔꤤꤊꤢꤩ꤬": 3412,
      "ꤢ꤬ꤖꤢꤨꤖꤚꤢꤩ꤬ꤗꤢꤪ꤬": 3413,
      "ꤓꤝꤢ꤭ꤘꤢꤨ꤬ꤜꤣ": 3414,
      "ꤒꤣꤧ꤬ꤚꤢꤪ꤭": 3415,
      "ꤢ꤬ꤜ꤫ꤢꤧ꤬": 3416,
      "ꤞꤤꤕꤜꤢꤪ꤬ꤗꤤ꤭": 3417,
      "ꤠꤤ꤭ꤛꤢ꤬ꤚꤤ꤬": 3418,
      "ꤥ꤬ꤔꤢꤪ": 3419,
      "ꤜꤢꤧ꤬ꤙꤢꤩ꤬": 3420,
      "ꤜꤢꤧ꤬ꤚꤣꤧ": 3421,
      "ꤍ꤫ꤥ꤬ꤖꤚꤢ꤬": 3422,
      "ꤔꤢꤪ꤭ꤥ꤬ꤞꤣꤧ꤭ꤖꤚꤢꤩ꤬": 3423,
      "ꤔꤢꤪ꤭ꤋꤢꤧꤙꤢꤩ꤬": 3424,
      "ꤔꤢꤪ꤭ꤛꤢꤧ": 3425,
      "ꤊꤢꤨꤢꤨ꤬": 3426,
      "ꤜꤣꤧ꤬ꤜꤢꤪ꤭": 3427,
      "ꤊꤢ꤬ꤔꤥ꤭": 3428,
      "ꤊꤢ꤬ꤗꤣꤧ꤭": 3429,
      "ꤛ꤫ꤢꤦ꤬ꤢꤩ꤬ꤟꤣꤧ": 3430,
      "ꤛ꤫ꤢꤦ꤬ꤢꤩ꤬ꤒꤥ꤬": 3431,
      "ꤗꤥ꤬ꤜꤣ": 3432,
      "ꤒ꤫ꤥ꤬ꤟꤢꤧ꤭": 3433,
      "ꤜ꤫ꤢꤩ꤬ꤙꤢꤧ꤬": 3434,
      "ꤜ꤫ꤢꤩ꤬ꤟꤢꤩꤥ꤬": 3435,
      "ꤓꤣꤧ꤭ꤋꤢꤨ꤬": 3436,
      "ꤢ꤬ꤑꤢꤩ꤭ꤟꤣꤧ": 3437,
      "ꤢ꤬ꤊꤢꤨ꤭ꤟꤣꤧ": 3438,
      "ꤗ꤫ꤢ꤬ꤒꤥ꤬ꤗꤢ꤬": 3439,
      "ꤔꤥ꤭ꤊꤢꤨ꤭": 3440,
      "ꤟꤢꤩꤙꤢꤩ꤬ꤒꤢ꤭": 3441,
      "ꤟꤢꤩꤙꤢꤩ꤬ꤞꤢꤦ": 3442,
      "ꤒꤢꤩ꤬ꤗꤢꤩ꤬ꤞꤢꤦ": 3443,
      "ꤢ꤬ꤔ꤫ꤢꤩ꤬ꤒꤥ꤬": 3444,
      "ꤋꤢꤧꤙꤢꤩ": 3445,
      "ꤗ꤫ꤥ꤬ꤟꤢꤩ꤬ꤚꤥ꤬ꤘꤤ": 3446,
      "ꤒꤣꤧ꤬ꤔꤢꤩ꤬ꤕꤣꤧ꤬ꤒꤤ": 3447,
      "ꤒꤣꤧ꤬ꤔꤢꤩ꤬ꤗꤢꤧꤗꤣꤧ꤭": 3448,
      "ꤟꤤ꤬ꤊꤢꤨꤊ꤫ꤥ꤬": 3449,
      "ꤜꤤ꤬ꤎꤤ꤬": 3450,
      "ꤜꤤ꤬ꤏꤤ": 3451,
      "ꤤ꤬ꤞꤝꤢꤊꤢꤧ꤭": 3452,
      "ꤕꤣꤧꤞꤢꤩ꤬ꤜꤤ꤭": 3453,
      "ꤢ꤬ꤍ꤫ꤥ꤬ꤖꤚꤢ꤬ꤓꤢꤧ꤬": 3454,
      "ꤗꤤ꤬ꤖꤢꤩ꤬": 3455,
      "ꤋꤝꤤꤏꤢꤪ꤬ꤜꤢ꤬ꤗꤥ꤬": 3456,
      "ꤞꤥ꤭ꤖꤚꤢꤩ꤬": 3457,
      "ꤞꤥ꤭ꤊꤢꤨ꤭": 3458,
      "ꤔ꤫ꤤ꤬ꤟꤥ꤭ꤙꤢꤩ꤬": 3459,
      "ꤊꤣꤧ꤬ꤓꤢꤪ꤬ꤊꤢ꤬": 3460,
      "ꤒꤢꤩ꤬ꤞꤤꤒꤣꤧ꤬ꤚꤢꤩ꤭": 3461,
      "ꤥ꤬ꤔꤢꤩ꤬ꤊꤢꤧ꤭": 3462,
      "ꤢ꤬ꤒꤢꤩ꤬ꤏꤢꤩ꤭": 3463,
      "ꤙꤢ꤭ꤒꤣꤧ꤬ꤕꤤ": 3464,
      "ꤙꤢ꤬ꤘꤢꤨ꤬": 3465,
      "ꤔꤣꤧ꤬ꤒꤣ꤬ꤙꤢꤩ꤬": 3466,
      "ꤒꤢ꤭ꤒꤢꤩ꤬ꤟꤣꤧ": 3467,
      "ꤕꤣꤧꤞꤢꤩ꤬ꤑꤢꤩ꤭ꤔꤣꤧ꤬": 3468,
      "ꤒꤣꤧ꤬ꤡꤢꤩ꤭": 3469,
      "ꤒꤣꤧ꤬ꤘꤢꤦ꤬ꤊꤢꤧ꤭": 3470,
      "ꤜ꤫ꤢꤪ꤬ꤞꤢꤩ": 3471,
      "ꤗꤢꤩ꤬ꤡꤝ꤫ꤢ꤬ꤙꤢꤩ": 3472,
      "ꤊꤜꤢꤪ꤭ꤒꤢ꤭": 3473,
      "ꤊꤜꤢꤪ꤭ꤜꤢꤧ꤬": 3474,
      "ꤊ꤫ꤢꤩ꤬ꤊꤢꤨ꤭ꤔꤣꤧ꤬": 3475,
      "ꤋꤤꤒꤣꤧ꤬ꤚꤢꤦ꤬": 3476,
      "ꤒꤣꤧ꤬ꤊꤝꤢ꤬": 3477,
      "ꤊꤣꤧ꤭ꤘꤢꤦ꤬ꤟꤣꤧ": 3478,
      "ꤘꤣꤋꤛꤢ꤭ꤒꤣꤧ꤬ꤘꤢꤦ꤬": 3479,
      "ꤕꤥ꤬ꤥ꤭": 3480,
      "ꤜꤝꤤ꤭ꤚꤤ": 3481,
      "ꤡꤢ꤬ꤊꤜꤢꤪ꤭": 3482,
      "ꤒꤣꤧ꤬ꤕꤜꤢꤩ꤬ꤕꤜꤢꤪ꤬": 3483,
      "ꤒꤢꤩ꤬ꤟꤢꤩꤙꤢꤩ꤬ꤣꤧ꤭": 3484,
      "ꤛꤢꤨ꤭ꤑꤢ": 3485,
      "ꤒꤢꤩ꤬ꤥ꤬ꤜꤣꤥ꤬": 3486,
      "ꤛꤢꤨꤘꤢ꤬ꤊ꤫ꤢꤩ꤬ꤊꤢꤨ꤭": 3487,
      "ꤓꤢꤪꤕꤢꤩ꤭ꤊꤢꤧ꤭": 3488,
      "ꤢ꤬ꤚ꤫ꤣꤧ꤬ꤢ꤬ꤔꤥ꤬": 3489,
      "ꤥ꤬ꤕꤜꤢꤪꤥ꤬ꤕꤜꤢꤨ꤬": 3490,
      "ꤤ꤬ꤏꤢꤪꤥ꤬": 3491,
      "ꤥ꤬ꤗꤣꤧ꤭ꤒ꤫ꤣ꤬": 3492,
      "ꤏꤤ꤭ꤜꤢꤧ": 3493,
      "ꤢ꤬ꤊꤜꤝꤤ꤭ꤢ꤬ꤜꤝꤤ": 3494,
      "ꤞꤢꤧꤡꤣꤧꤟꤣꤧ": 3495,
      "ꤒꤣ꤬ꤗꤢꤨ꤬ꤡꤢꤦ꤭": 3496,
      "ꤎꤢ꤬ꤕꤛꤤꤗ꤫ꤢꤪ꤬": 3497,
      "ꤢ꤬ꤊꤢꤨꤢꤨ꤬": 3498,
      "ꤎꤤ꤬ꤜꤤ꤬ꤎꤤ꤬": 3499,
      "ꤊ꤫ꤥ꤬ꤓꤢꤧ꤬": 3500,
      "ꤒꤣꤧ꤬ꤛ꤫ꤢ꤬ꤙꤢꤪ": 3501,
      "ꤒꤢꤩ꤬ꤢꤪꤜꤢꤧ꤬ꤔꤢꤪ꤬ꤜꤢꤧ꤬": 3502,
      "ꤊ꤫ꤢꤩ꤬ꤜꤣꤧ꤬ꤞꤢꤩꤘꤢꤨ꤬": 3503,
      "ꤢ꤬ꤞꤢꤩ꤬ꤢ꤬ꤖꤥ꤭": 3504,
      "ꤓꤣꤧ꤭ꤘꤢꤨ꤬ꤒꤣꤧ꤬ꤠꤢ꤬ꤓꤢꤦ꤭": 3505,
      "ꤞꤤꤜꤢꤩ꤬ꤓꤢꤧ꤬": 3506,
      "ꤞꤢꤧꤟꤣꤧꤔꤢꤧ": 3507,
      "ꤗꤤꤥ꤬": 3508,
      "ꤗꤤꤜꤢꤩ꤬": 3509,
      "ꤢ꤬ꤋꤥ꤭ꤖꤢꤨꤡ꤫ꤢꤩ꤬": 3510,
      "ꤓꤣꤧ꤭ꤢꤪ꤬ꤘꤢꤨ꤬ꤒꤣꤧ꤬ꤠꤢꤪ꤬ꤊꤢꤨ꤭": 3511,
      "ꤘꤣꤧꤢꤩ꤬ꤘꤣꤧꤥ꤭": 3512,
      "ꤣꤧ꤭ꤒꤣ꤬ꤘꤥ꤭ꤔꤣꤧ꤬": 3513,
      "ꤒꤢꤩ꤬ꤒꤣꤧ꤬ꤚꤣꤧ꤭ꤘꤢꤨ꤬ꤓꤢꤨ꤭": 3514,
      "ꤒꤣꤧ꤬ꤜꤢꤨ꤭ꤔ꤫ꤤ꤬": 3515,
      "ꤏꤥ꤭ꤒꤣꤧ꤬ꤕꤢ꤬ꤊꤢꤧ꤭": 3516,
      "ꤓꤝꤤꤓꤢꤩ꤬": 3517,
      "ꤙꤢꤩ꤬ꤛꤢꤪ꤬ꤙꤢꤩ꤬ꤞꤤ꤬": 3518,
      "ꤤ꤬ꤏꤢꤪ꤭ꤤ꤬ꤙꤢ꤬": 3519,
      "ꤖꤛꤢꤘꤝꤢꤕꤜꤢꤪ": 3520,
      "ꤢ꤬ꤒꤝ꤫ꤢ꤬ꤢ꤬ꤚꤢꤧ": 3521,
      "ꤥ꤬ꤕꤜꤢꤨ꤬ꤥ꤬ꤖꤢꤩ꤬": 3522,
      "ꤢ꤬ꤋꤢꤩ꤬ꤛꤢ꤬": 3523,
      "ꤕꤜꤢꤧꤜꤤ꤬ꤏꤤ": 3524,
      "ꤞꤤꤒꤣꤧ꤬ꤋꤥ꤭ꤊꤢꤧ꤭": 3525,
      "ꤘꤥ꤬ꤢꤩ꤬ꤘꤥ꤬ꤥ꤭": 3526,
      "ꤒꤢꤩ꤬ꤔꤥ꤬ꤗꤢꤦꤔꤥ꤬": 3527,
      "ꤜꤢꤨ꤬ꤖꤚꤥꤜꤢꤨ꤬ꤖꤚꤢꤧ꤭ꤊꤢꤧ꤭": 3528,
      "ꤤ꤬ꤕꤜꤤꤚ꤫ꤤ꤬": 3529,
      "ꤗꤢꤩ꤬ꤕꤝꤢꤩ꤬ꤗꤢꤩ꤬ꤜꤢꤨ꤭": 3530,
      "ꤥ꤬ꤕ꤫ꤢꤪ꤬ꤗꤢ꤬ꤚꤣꤧ": 3531,
      "ꤗꤤ꤭ꤡꤣ꤬ꤚꤥ꤬ꤖꤢꤨ": 3532,
      "ꤓꤢꤧ꤬ꤗꤢꤪꤓꤢꤧ꤬ꤖꤥ꤬": 3533,
      "ꤒꤣꤧ꤬ꤕꤜ꤫ꤥ꤬ꤒꤣꤧ꤬ꤕꤛꤢ꤭": 3534,
      "ꤢ꤬ꤔꤢ꤬ꤜꤝꤤ꤭": 3535,
      "ꤕꤣꤧ꤬ꤛ꤫ꤢꤩ꤬": 3536,
      "ꤒꤣꤧ꤬ꤖꤢꤩ꤬ꤜꤢꤪꤞꤢꤪ꤭": 3537,
      "ꤎꤢꤨ꤬ꤚꤤꤊ꤫ꤢꤩ꤬": 3538,
      "ꤓꤝꤢ꤭ꤘꤢꤨ꤬ꤓꤝꤢ꤭ꤓꤢꤨ꤭": 3539,
      "ꤒꤢꤩ꤬ꤘꤢꤨ꤬ꤒꤢꤩ꤬ꤓꤢꤨ꤭": 3540,
      "ꤋꤢꤨ꤭ꤔꤤ꤬ꤊꤢ꤬ꤘꤢꤩ": 3541,
      "ꤘꤢꤧ꤬ꤏꤝꤢ꤬ꤘꤢꤧ꤬ꤏꤢꤪ꤭": 3542,
      "ꤕꤥ꤬ꤢꤩ꤬ꤕꤥ꤬ꤥ꤭": 3543,
      "ꤊꤢ꤬ꤜꤢ꤬ꤒꤤ": 3544,
      "ꤢ꤬ꤊꤢꤪ꤬ꤢ꤬ꤙꤢꤩ꤬": 3545,
      "ꤒꤢꤩ꤬ꤏꤢꤒꤢꤩ꤬ꤕꤢ꤭": 3546,
      "ꤤ꤬ꤓꤢꤧꤙꤥ꤭": 3547,
      "ꤗꤢꤩ꤬ꤊꤜꤢꤪ꤬ꤗꤢꤩ꤬ꤗꤢ꤬": 3548,
      "ꤔꤢꤧ꤬ꤊꤜꤝꤤ꤭ꤔꤢꤧ꤬": 3549,
      "ꤔ꤫ꤤ꤬ꤟꤢꤧ꤭ꤔ꤫ꤤ꤬ꤚꤢꤩ꤬": 3550,
      "ꤠꤤ꤭ꤛꤢ꤬ꤚꤤ꤬ꤋꤢꤪ": 3551,
      "ꤋꤢꤨ꤭ꤔꤤ꤬ꤊꤢ꤬ꤘꤢꤩꤗꤢꤨ꤬": 3552,
      "ꤊꤤ꤭": 3553,
      "ꤋꤢꤩ꤬": 3554,
      "ꤋꤢꤦ꤬": 3555,
      "ꤒꤢ": 3556,
      "ꤓꤢꤨ": 3557,
      "ꤔ꤫ꤢ꤬": 3558,
      "ꤕꤢꤧ꤬": 3559,
      "ꤖꤢ꤬ꤚꤥ꤬": 3560,
      "ꤗꤢꤧ꤭": 3561,
      "ꤚꤝꤢꤩ": 3562,
      "ꤞꤢꤦ꤭": 3563,
      "ꤡꤢꤧ꤭": 3564,
      "ꤤꤚꤢꤨ": 3565,
      "ꤥꤙꤤ": 3566,
      "ꤢ꤬ꤟꤣꤧ": 3567,
      "ꤢ꤬ꤒꤢꤩ꤭": 3568,
      "ꤢ꤬ꤖꤢ": 3569,
      "ꤢ꤬ꤏꤢꤩ꤬": 3570,
      "ꤢ꤬ꤗꤤ꤭": 3571,
      "ꤢ꤬ꤔꤢꤩ": 3572,
      "ꤢ꤬ꤞꤢꤪ꤭": 3573,
      "ꤢ꤬ꤊꤢꤨ꤬ꤋꤣꤧ꤭": 3574,
      "ꤥ꤬ꤔ꤫ꤤ꤬": 3575,
      "ꤥ꤬ꤏꤝꤢ꤬": 3576,
      "ꤥ꤬ꤋꤚꤢꤩ꤭": 3577,
      "ꤢꤪꤒꤣꤧ꤬": 3578,
      "ꤢꤦꤢꤧ": 3579,
      "ꤞꤤꤏꤝꤤ": 3580,
      "ꤞꤤꤋꤢꤞꤤꤓꤢꤩ꤬": 3581,
      "ꤔꤣꤧ꤬ꤕꤢ꤭": 3582,
      "ꤣꤧ꤭ꤟꤣꤧ": 3583,
      "ꤢꤨ꤭ꤑꤢꤩ꤭": 3584,
      "ꤢꤨ꤭ꤔ꤫ꤢꤩ꤬": 3585,
      "ꤢꤨ꤭ꤕꤣꤧꤞꤢꤩ꤬": 3586,
      "ꤒꤣꤧ꤬ꤢꤩ꤬": 3587,
      "ꤒꤣꤧ꤬ꤜꤣꤧ꤬": 3588,
      "ꤒꤣꤧ꤬ꤋꤚꤥ꤭": 3589,
      "ꤒꤣꤧ꤬ꤋꤚꤢꤦ": 3590,
      "ꤘꤣꤔꤣꤧ꤬": 3591,
      "ꤚꤣꤧ꤬ꤗꤢ꤬": 3592,
      "ꤒꤢꤩ꤬ꤗꤢꤧꤓ꤫ꤣꤧ꤬": 3593,
      "ꤒꤢꤩ꤬ꤜꤣꤧ꤬ꤕꤜꤢꤩꤊꤢ꤬": 3594,
      "ꤒꤢꤩ꤬ꤖꤥ꤭": 3595,
      "ꤒꤢꤩ꤬ꤊ꤫ꤢꤨ꤬": 3596,
      "ꤒꤢꤩ꤬ꤞꤤꤕꤜꤢꤪ꤬ꤏꤝꤢ꤬": 3597,
      "ꤒꤢꤩ꤬ꤙꤢꤧ꤭": 3598,
      "ꤒꤢꤩ꤬ꤕꤣꤧ꤬ꤡ꤫ꤣꤧ꤬ꤕꤣꤧ꤬ꤢ": 3599,
      "ꤒꤢꤩ꤬ꤟꤢꤩꤖꤚꤥ꤬": 3600,
      "ꤒꤢꤩ꤬ꤋꤚꤢꤩꤋꤚ꤫ꤢꤧ꤬": 3601,
      "ꤒꤢꤩ꤬ꤚꤢ꤭ꤗꤢꤚꤢ꤭ꤒꤢꤩ꤭": 3602,
      "ꤒꤢꤩ꤬ꤊꤣꤧ꤬ꤓꤢꤪ꤬ꤥ꤬ꤔꤢꤧ꤭": 3603,
      "ꤞꤤ꤭ꤟꤤ꤬": 3604,
      "ꤟꤢꤩ꤬ꤜꤢꤩ꤭": 3605,
      "ꤖꤚꤢꤩ꤬ꤞꤢꤨ꤭": 3606,
      "ꤖꤚꤢꤩ꤬ꤞꤤꤓꤢꤩ꤬": 3607,
      "ꤤ꤬ꤞꤢꤩ꤬": 3608,
      "ꤤ꤬ꤏꤝꤤ": 3609,
      "ꤟꤢꤩꤔꤢꤪ": 3610,
      "ꤟꤢꤩꤋꤚꤢꤧ": 3611,
      "ꤟꤢꤩꤔꤢꤨ꤬": 3612,
      "ꤗꤢꤩ꤬ꤓꤢꤧ꤬": 3613,
      "ꤗꤢꤩ꤬ꤜꤢꤩ꤭": 3614,
      "ꤗꤢꤩ꤬ꤙꤤꤊꤢꤧ꤭": 3615,
      "ꤟꤣꤧꤔꤣꤧ꤭": 3616,
      "ꤠꤢꤧ꤭ꤜꤥ꤬": 3617,
      "ꤢ꤬ꤋꤥ": 3618,
      "ꤊꤣꤧ꤬ꤢꤨ꤭": 3619,
      "ꤙꤢꤩ꤬ꤟꤢꤧ꤭": 3620,
      "ꤊꤣꤧ꤬ꤛꤢꤧ꤭ꤗꤝꤤ꤭": 3621,
      "ꤜꤢꤨ꤭ꤔꤣꤧ꤬": 3622,
      "ꤜꤢꤨ꤭ꤊꤢꤨꤋꤢꤨ꤬": 3623,
      "ꤒꤣ꤬ꤖꤚꤢꤩ꤬ꤜꤢꤪ꤭": 3624,
      "ꤖꤢꤨꤠ꤫ꤢꤧ꤬ꤖꤚ꤫ꤢꤩ꤬": 3625,
      "ꤖꤢꤨꤏꤥ꤬ꤖꤢꤨ": 3626,
      "ꤗꤣꤧ꤬ꤓ꤫ꤣꤧ꤬": 3627,
      "ꤕꤢꤩ꤬ꤣꤧ꤭": 3628,
      "ꤕꤢꤩ꤬ꤊꤢꤧ꤭": 3629,
      "ꤕꤢꤩ꤬ꤚꤤ꤬": 3630,
      "ꤟꤢꤧ꤭ꤔꤣꤧ꤬": 3631,
      "ꤟꤢꤧ꤭ꤗꤢꤧ": 3632,
      "ꤟꤢꤧ꤭ꤊꤝꤤ꤭": 3633,
      "ꤟꤢꤧ꤭ꤡꤢꤪꤙꤢꤩ꤭": 3634,
      "ꤟꤢꤧ꤭ꤏꤢꤧ꤬": 3635,
      "ꤟꤢꤧ꤭ꤏꤢꤨ꤬ꤔꤥ꤭": 3636,
      "ꤟꤢꤧ꤭ꤘꤝꤤ": 3637,
      "ꤔꤢꤧ꤬ꤜꤥ꤬": 3638,
      "ꤔꤢꤧ꤬ꤕꤣꤧꤞꤢꤩ꤬": 3639,
      "ꤔꤢꤧ꤬ꤠꤢꤩ꤬": 3640,
      "ꤜꤢꤪ꤭ꤔꤣꤧ꤬": 3641,
      "ꤓꤢꤧ꤬ꤊꤢꤧ꤭": 3642,
      "ꤡꤝꤢꤟꤣꤧ": 3643,
      "ꤡꤝꤢꤡ꤫ꤢꤧ꤬": 3644,
      "ꤡꤝꤢꤠꤢꤪ꤬": 3645,
      "ꤋꤢꤨ꤭ꤟꤢꤩ꤬": 3646,
      "ꤡꤣꤧꤙꤢꤩ꤬ꤙꤢꤩ꤬": 3647,
      "ꤕ꤫ꤢꤩ꤬ꤕ꤫ꤥ꤬": 3648,
      "ꤓꤥ꤭ꤓꤥ꤭": 3649,
      "ꤋꤚꤝꤤ": 3650,
      "ꤘꤣꤧꤞꤤꤑꤢꤩ꤭ꤕꤜꤥ꤭": 3651,
      "ꤒꤢꤩ꤭ꤗꤢꤧ": 3652,
      "ꤗ꤫ꤢ꤬ꤕꤢ꤬ꤒꤥ꤬": 3653,
      "ꤗ꤫ꤢ꤬ꤘꤢꤦ꤬ꤟꤣꤧ": 3654,
      "ꤢ꤬ꤚꤢꤩ": 3655,
      "ꤒꤢ꤭ꤡꤢꤦ": 3656,
      "ꤢ꤬ꤋꤢꤩ꤭ꤔꤣꤧ꤬ꤗꤢ꤬": 3657,
      "ꤘꤢꤨ꤬ꤟꤢꤧ꤭": 3658,
      "ꤢ꤬ꤖꤢꤨꤢ꤬ꤗꤢꤩ꤭": 3659,
      "ꤞꤤꤑꤢꤩ꤭ꤑꤢꤩ꤭": 3660,
      "ꤞꤤꤑꤢꤩ꤭ꤊꤣꤧ꤭": 3661,
      "ꤒꤣꤧ꤬ꤚꤥ꤬": 3662,
      "ꤠꤤ꤭ꤣꤧ꤭ꤔꤣꤧ꤬": 3663,
      "ꤠꤤ꤭ꤞꤢꤩ꤬ꤎꤢ꤬ꤜꤢ꤬ꤔꤤ": 3664,
      "ꤠꤤ꤭ꤒꤣꤧ꤬ꤚꤢꤪ꤭": 3665,
      "ꤔꤢꤪ꤭ꤗꤢꤧ": 3666,
      "ꤔꤢꤪ꤭ꤡꤝꤢꤔꤥ꤭": 3667,
      "ꤊꤢꤨꤔꤢꤪ꤭": 3668,
      "ꤊꤢꤨꤚꤢꤩ꤬": 3669,
      "ꤜꤣꤧ꤬ꤜꤢꤧ꤭": 3670,
      "ꤋꤚꤤꤔꤣꤧ꤬": 3671,
      "ꤖꤢꤩ꤭ꤛꤢ꤬": 3672,
      "ꤔꤣꤧ꤭ꤘꤥ꤭": 3673,
      "ꤊꤢ꤬ꤥ꤬": 3674,
      "ꤊꤢ꤬ꤊꤣꤧ꤬ꤓꤢꤧ꤬": 3675,
      "ꤜ꤫ꤢꤩ꤬ꤗꤢꤩ꤬": 3676,
      "ꤜ꤫ꤢꤩ꤬ꤡꤝꤢ": 3677,
      "ꤊ꤫ꤢꤩ꤬ꤘꤢꤦ꤭": 3678,
      "ꤢ꤬ꤑꤢꤩ꤭ꤑꤢꤩ꤭": 3679,
      "ꤢ꤬ꤊꤢꤨ꤭ꤣꤧ꤭": 3680,
      "ꤢ꤬ꤊꤢꤨ꤭ꤜꤣ": 3681,
      "ꤕꤝꤢ꤭ꤖꤚꤢꤩ꤬": 3682,
      "ꤕꤝꤢ꤭ꤔꤢ꤬": 3683,
      "ꤕꤝꤢ꤭ꤒꤣ꤬ꤙꤢ꤬": 3684,
      "ꤞꤢꤩ꤬ꤙꤢꤨ": 3685,
      "ꤋꤢꤩ꤭ꤒꤣꤧ꤬ꤕꤜꤢꤩ꤬": 3686,
      "ꤟꤢꤩꤙꤢꤩ꤬ꤗꤥ꤬": 3687,
      "ꤟꤢꤩꤙꤢꤩ꤬ꤜꤣꤧ꤬ꤕꤜꤢꤩ": 3688,
      "ꤟꤢꤩꤙꤢꤩ꤬ꤟꤢꤩꤏꤥ꤭": 3689,
      "ꤏꤢꤒꤢ꤭": 3690,
      "ꤏꤢꤒꤣꤧ꤬ꤋꤢꤩ꤭": 3691,
      "ꤛꤢ꤬ꤞꤢꤨ": 3692,
      "ꤊꤢꤨ꤬ꤊꤜꤢꤪꤜꤥ꤬": 3693,
      "ꤒꤢꤩ꤬ꤗꤢꤩ꤬ꤗꤥ꤬": 3694,
      "ꤒꤢꤩ꤬ꤗꤢꤩ꤬ꤗꤢꤗꤢꤩ꤬ꤒꤢꤩ꤭": 3695,
      "ꤙꤢꤩꤜꤢ꤬": 3696,
      "ꤚꤢꤧꤔꤢꤧ꤬ꤡꤣꤧ": 3697,
      "ꤜꤤ꤬ꤞꤣꤧ꤭ꤖꤚꤢꤩ꤬": 3698,
      "ꤜꤤ꤬ꤛꤢ꤬": 3699,
      "ꤜꤤ꤬ꤗꤢꤧ꤭": 3700,
      "ꤟꤢꤩ꤬ꤋꤢꤨ꤬ꤣꤧ꤭ꤔꤣꤧ꤬": 3701,
      "ꤒ꤫ꤢꤧ꤬ꤗꤢꤩ꤬ꤗꤢꤩ꤬": 3702,
      "ꤔ꤫ꤤ꤬ꤙꤢꤩ꤬ꤡ꤫ꤢꤧ꤬": 3703,
      "ꤘꤥ꤬ꤔꤢꤧ꤭ꤕꤜꤥ꤭": 3704,
      "ꤤ꤬ꤞꤝꤢꤚꤢꤧꤊꤢ꤬": 3705,
      "ꤏꤝꤢ꤬ꤔꤢꤧ꤬ꤡꤣꤧ": 3706,
      "ꤞꤢꤪ꤬ꤒꤢꤪ꤭": 3707,
      "ꤜꤢꤨ꤬ꤋꤥ": 3708,
      "ꤊꤢꤨꤔ꤫ꤢꤧ꤬ꤣꤧ꤭ꤔꤣꤧ꤬": 3709,
      "ꤋꤝꤤꤖꤢ꤬ꤚꤥ꤬": 3710,
      "ꤞꤥ꤭ꤡꤣ꤬": 3711,
      "ꤞꤥ꤭ꤞꤢꤩ꤭": 3712,
      "ꤕꤣꤧ꤬ꤓꤢꤦ꤭": 3713,
      "ꤣꤧ꤭ꤒꤣ꤬ꤗꤢꤨ꤬": 3714,
      "ꤓꤢꤩ꤬ꤡꤝꤢꤒꤣꤧ꤬ꤖꤢ꤭ꤊꤢꤧ꤭": 3715,
      "ꤜꤢꤩ꤭ꤙꤢꤧ": 3716,
      "ꤥ꤬ꤔꤢꤩ꤬ꤟꤣꤧ": 3717,
      "ꤒꤢꤦꤔꤣꤧ꤬": 3718,
      "ꤏꤣꤧꤜꤝꤤ꤭": 3719,
      "ꤘꤣꤧꤡꤢ꤭ꤟꤣꤧ": 3720,
      "ꤜꤣꤧ꤬ꤕꤜꤢꤩꤊꤢꤧ꤭": 3721,
      "ꤙꤢ꤬ꤢꤩ꤬": 3722,
      "ꤔꤣꤧ꤬ꤒꤣ꤬ꤗꤢꤦ꤭": 3723,
      "ꤘꤣꤧꤜꤥ꤭ꤟꤣꤧ": 3724,
      "ꤔꤢꤧ꤭ꤖꤢꤧ": 3725,
      "ꤜ꤫ꤢꤩ꤬ꤥ꤬ꤜ꤫ꤢꤩ꤬ꤙꤢꤧ꤬": 3726,
      "ꤖꤥꤖꤥ": 3727,
      "ꤒꤢꤩ꤬ꤞꤤꤋꤚꤢꤦ꤭ꤞꤤꤜꤢꤪ꤭": 3728,
      "ꤞꤢꤨ꤭ꤔꤥ꤭": 3729,
      "ꤞꤢꤨ꤭ꤊꤢ꤬ꤋꤛꤢ꤭": 3730,
      "ꤓꤢꤧ꤬ꤜꤥ꤭ꤋꤢꤨ꤬": 3731,
      "ꤓꤢꤧ꤬ꤜꤥ꤭ꤜꤣ": 3732,
      "ꤒꤣꤧ꤬ꤠꤢꤪꤒꤣꤧ꤬": 3733,
      "ꤒꤣ꤬ꤗꤢꤩ꤭ꤔꤣꤧ꤬": 3734,
      "ꤊꤜꤢꤪ꤭ꤊꤢꤧ꤭": 3735,
      "ꤋꤤꤊꤢꤧ꤭": 3736,
      "ꤏꤢꤦ꤭ꤟꤢꤩ꤭": 3737,
      "ꤒꤣꤧ꤬ꤊꤜꤢꤧ꤬": 3738,
      "ꤠꤢꤩ꤬ꤖꤥ꤭": 3739,
      "ꤔ꤫ꤢꤩ꤬ꤊꤜ꤫ꤢꤪ꤬ꤣꤧ꤭": 3740,
      "ꤢ꤬ꤥ꤬ꤒꤥ꤬": 3741,
      "ꤒꤣꤧ꤬ꤜꤝꤢꤒꤣꤧ꤬ꤕꤜꤢꤩ꤬": 3742,
      "ꤒꤣ꤬ꤔꤣꤧ꤭ꤔꤣꤧ꤭": 3743,
      "ꤡꤢꤧ꤬ꤚꤣꤧ": 3744,
      "ꤡꤢꤧ꤬ꤒꤢ꤭": 3745,
      "ꤕ꤫ꤢꤩ꤬ꤊꤣꤧ꤭ꤚꤣꤧ": 3746,
      "ꤞꤝꤤ꤬ꤒꤢ꤭": 3747,
      "ꤓꤢꤨ꤬ꤞꤢꤩꤓꤢꤧ꤬ꤚꤣꤧ": 3748,
      "ꤒꤢꤩ꤬ꤟꤢꤩꤙꤢꤩ꤬ꤞꤢꤦ": 3749,
      "ꤒꤢꤩ꤬ꤒꤣꤧ꤬ꤔꤢꤩ꤬ꤡ꤫ꤢꤧ꤬": 3750,
      "ꤊꤜꤢꤧ꤬ꤊꤢ꤬": 3751,
      "ꤞꤤꤑꤢꤩ꤭ꤕꤜꤥ꤭ꤙꤢꤩ": 3752,
      "ꤏꤣꤧꤋꤢꤩ꤭ꤒꤥ꤭": 3753,
      "ꤡꤢꤪ꤭ꤗꤢ꤬": 3754,
      "ꤥ꤬ꤊꤥꤊꤣꤧ꤭": 3755,
      "ꤒꤢꤩ꤬ꤜꤤ꤭ꤒꤣꤧ꤬ꤋꤢꤩ꤭": 3756,
      "ꤥ꤬ꤗꤣꤧ꤭ꤥ꤬": 3757,
      "ꤏꤤ꤭ꤜꤤ꤭": 3758,
      "ꤞꤢꤪ꤬ꤊꤜꤣꤧ꤭ꤘꤢꤨ꤬ꤊꤢꤨ꤭": 3759,
      "ꤞꤥ꤬ꤞꤥ꤬": 3760,
      "ꤠꤤ꤭ꤊꤢꤨ꤭ꤖꤢꤨ": 3761,
      "ꤛ꤫ꤢꤧ꤬ꤥ꤬ꤗ꤫ꤢꤩ꤬ꤊꤢꤧ꤭": 3762,
      "ꤠ꤫ꤢꤩ꤬ꤓꤢꤩ꤬": 3763,
      "ꤍꤢꤧ꤭ꤔꤣꤧ꤭": 3764,
      "ꤍꤢꤧ꤭ꤚꤤ": 3765,
      "ꤍꤢꤧ꤭ꤏꤣꤧ꤭": 3766,
      "ꤒꤣ꤬ꤠꤤ꤭ꤜꤢꤪ꤭": 3767,
      "ꤡꤝꤢꤞꤢꤦꤟꤣꤧ": 3768,
      "ꤢ꤬ꤋꤚꤝꤤ": 3769,
      "ꤜꤣꤧ꤬ꤒꤢ꤭ꤖꤚꤢꤪ꤬ꤊꤢꤧ꤭": 3770,
      "ꤒꤢ꤭ꤒꤢꤦ꤭ꤙꤤ": 3771,
      "ꤞꤢ꤬ꤔꤢꤩꤜꤢ": 3772,
      "ꤠ꤫ꤢꤩ꤬ꤓꤢꤩ꤬ꤊꤢꤧ꤭ꤙꤢꤩ": 3773,
      "ꤟꤢꤪꤏꤢꤩ꤭": 3774,
      "ꤢ꤬ꤘꤢꤨ꤬ꤢ꤬ꤓꤢꤨ꤭": 3775,
      "ꤋꤢꤨ꤭ꤢ꤬ꤙꤢꤩ꤬ꤜꤢ": 3776,
      "ꤊꤢꤨꤊꤜꤢꤩ꤭ꤋꤢꤨ꤬": 3777,
      "ꤒꤢꤩ꤬ꤜꤣꤧ꤬ꤋꤢꤦ": 3778,
      "ꤖꤤꤜꤤ꤬ꤕꤤ꤬": 3779,
      "ꤢ꤬ꤗ꤫ꤢ꤬ꤢ꤬ꤡꤢꤪ": 3780,
      "ꤢ꤬ꤗ꤫ꤢ꤬ꤠꤢ": 3781,
      "ꤊꤚꤤꤖꤢꤨ": 3782,
      "ꤗꤢꤩ꤬ꤒꤥ꤭ꤗꤢꤩ꤬ꤙꤢꤩ꤬": 3783,
      "ꤕꤣꤒꤣꤧ꤬ꤚꤤ꤬ꤒꤢꤩ꤬": 3784,
      "ꤤ꤬ꤡꤛꤤꤖꤢꤨ": 3785,
      "ꤊꤣꤧꤔꤤ꤭": 3786,
      "ꤒ꤫ꤢ꤬ꤒꤢ꤭ꤊꤢꤧ꤭": 3787,
      "ꤏꤣꤧꤔꤣꤧ꤭ꤗ꤫ꤥ꤬": 3788,
      "ꤏꤣꤧꤔꤣꤧ꤭ꤗꤢꤩ꤭": 3789,
      "ꤕ꤫ꤢꤨ꤬ꤖꤢꤩ꤭": 3790,
      "ꤢ꤬ꤋꤝꤤꤘꤢꤨ꤬": 3791,
      "ꤖꤚꤢꤩ꤬ꤊꤢꤩ꤭ꤞꤤꤗꤤ꤬ꤖꤢꤨ": 3792,
      "ꤘꤢꤪ꤭ꤊꤢꤨ꤭ꤖꤢꤨ": 3793,
      "ꤜꤢꤩ꤬ꤠꤤꤖꤢꤨ": 3794,
      "ꤗꤢꤩ꤬ꤜꤢꤨ꤭ꤗꤢꤩ꤬ꤒꤢꤧ꤭": 3795,
      "ꤋꤢꤪ꤭ꤕ꤫ꤢꤩ꤬": 3796,
      "ꤒꤣꤧ꤬ꤚꤣꤧ꤭ꤘꤢꤨ꤬ꤓꤢꤨ꤭": 3797,
      "ꤜꤢꤧꤒꤢ꤭": 3798,
      "ꤙꤢꤩ꤬ꤞꤢ꤬ꤎꤢꤧ": 3799,
      "ꤞꤥ꤭ꤖꤥꤒꤣ꤬ꤖꤥ": 3800,
      "ꤒꤣꤧ꤬ꤊꤢꤪ꤭ꤒꤣꤧ꤬ꤊꤢꤩ꤬ꤙꤤ": 3801,
      "ꤋꤚꤝꤢ꤭ꤜꤢꤦ꤬ꤗꤢꤩ꤬": 3802,
      "ꤋꤚ꤫ꤤ꤬ꤔꤣꤧ꤬": 3803,
      "ꤢꤩ꤬ꤒ꤫ꤣ꤬ꤥ꤭ꤒ꤫ꤣ꤬ꤊꤣꤧ꤭": 3804,
      "ꤋꤢꤨ꤭ꤔꤢ꤬ꤞꤢ꤬ꤔꤢꤩꤜꤢ": 3805,
      "ꤋꤚꤢꤩ꤬ꤗꤢꤩ꤬ꤞꤣꤧ꤭": 3806,
      "ꤔꤣꤧ꤭ꤡꤣ꤬ꤜꤢꤪ꤭": 3807,
      "ꤋꤚꤢꤪ꤭ꤊꤢꤨ꤭ꤛꤢꤧ꤭": 3808,
      "ꤗꤢꤩ꤬ꤡꤢꤪꤗꤢꤩ꤬ꤒꤢꤩ꤬": 3809,
      "ꤋꤢꤨ꤭ꤗꤢꤞꤢꤧ": 3810,
      "ꤙꤢꤩ꤬ꤜꤢꤞꤢꤩ꤬ꤙꤢꤨ": 3811,
      "ꤎꤢ꤬ꤒꤢ꤬ꤚꤢ꤬": 3812,
      "ꤒꤢꤩ꤬ꤋꤢꤨ꤬ꤞꤢꤚꤢꤘꤢꤨ꤬": 3813,
      "ꤢ꤬ꤕꤜꤢꤩ꤬ꤊꤢꤨ꤭": 3814,
      "ꤒꤣꤧ꤬ꤚꤢꤧꤗꤢ꤬": 3815,
      "ꤏꤝꤢ꤬ꤓꤢꤧ꤬ꤏꤢꤪ꤭ꤓꤢꤧ꤬": 3816,
      "ꤠꤤ꤭ꤜꤢꤨꤎꤢ꤬ꤒꤢ꤬ꤚꤢ꤬": 3817,
      "ꤗꤢꤩ꤬ꤊ꤫ꤢꤦ꤬ꤗꤢꤩ꤬ꤋꤢ": 3818,
      "ꤖꤚꤢꤩ꤬ꤛ꤫ꤢꤦ꤬ꤢꤩ꤬ꤔ꤫ꤢꤧ꤬ꤢꤩ꤬ꤖꤢꤨ": 3819,
      "ꤢꤩ꤬ꤚ꤫ꤥ꤬ꤥ꤭": 3820,
      "ꤢ꤬ꤚꤢ꤬ꤒꤢꤩ꤬ꤗꤤ꤬": 3821,
      "ꤎꤤ꤬ꤜꤤ꤬ꤎꤤ꤬ꤛꤢ꤬ꤊ꤫ꤢꤩ꤬": 3822,
      "ꤒꤢꤩ꤬ꤔꤥ꤬ꤗꤢꤦꤔꤥ꤬ꤏꤢꤦ꤭": 3823,
      "ꤔꤢꤧ꤬ꤊꤜꤝꤤ꤭ꤔꤢꤧ꤬ꤜꤢꤧ꤭": 3824,
      "ꤗꤣꤧ꤬ꤓ꤫ꤣꤧ꤬ꤛꤥ꤬": 3825,
      "ꤕꤢꤩ꤬ꤚꤤ꤬ꤕꤢꤩ꤬ꤊꤢꤧ꤭": 3826,
      "ꤟꤢꤧ꤭ꤘꤝꤤꤟꤢꤧ꤭ꤏꤢꤧ꤬": 3827,
      "ꤠꤤ꤭ꤒꤣꤧ꤬ꤚꤢꤪ꤭ꤢ": 3828,
      "ꤊꤢꤨꤚꤢꤩ꤬ꤔꤢꤩ꤬": 3829,
      "ꤖꤢꤩ꤭ꤛꤢ꤬ꤤꤚꤢꤨ": 3830,
      "ꤊ꤫ꤢꤩ꤬ꤘꤢꤦ꤭ꤊꤢꤨ꤭": 3831,
      "ꤕꤝꤢ꤭ꤔꤢ꤬ꤔꤢ꤬": 3832,
      "ꤛꤢ꤬ꤞꤢꤨꤙꤢꤧ꤭": 3833,
      "ꤒꤣꤧ꤬ꤠꤢꤪꤒꤣꤧ꤬ꤞꤢꤦ꤭": 3834,
      "ꤒꤢꤩ꤬ꤜꤣꤧ꤬ꤋꤢꤦꤜꤣꤧ꤬ꤜꤢꤪ꤭": 3835,
      "ꤊꤣꤧꤔꤤ꤭ꤊꤣꤧꤔ꤫ꤥ꤬": 3836,
      "ꤙꤢꤩ꤬ꤜꤢꤞꤢꤩ꤬ꤙꤢꤨꤜꤢ": 3837,
      "ꤊꤝ꤫ꤤ꤬": 3838,
      "ꤓꤝꤢ꤬": 3839,
      "ꤕꤢꤪ꤭": 3840,
      "ꤘꤣꤧ꤬": 3841,
      "ꤚꤣ꤬": 3842,
      "ꤛꤤ꤬": 3843,
      "ꤛ꤫ꤥ꤬": 3844,
      "ꤛꤢ꤬ꤋꤢꤩ꤬": 3845,
      "ꤞꤢ꤬ꤋꤢꤩ꤭": 3846,
      "ꤠꤢꤧ": 3847,
      "ꤠꤢꤩ꤭": 3848,
      "ꤡꤥ꤭": 3849,
      "ꤤꤊꤢ꤬": 3850,
      "ꤢꤩꤟꤣꤧ": 3851,
      "ꤢꤩꤋꤚꤝꤢ꤭": 3852,
      "ꤢꤩꤙꤥ꤭": 3853,
      "ꤢꤩꤏꤛꤢꤧ": 3854,
      "ꤢꤩ꤬ꤚꤢꤧ꤬": 3855,
      "ꤢꤩ꤬ꤚꤣꤧꤘꤢꤦ꤬": 3856,
      "ꤢ꤬ꤡꤢꤪꤗꤣꤧ꤬ꤚꤢꤧ꤬": 3857,
      "ꤢ꤬ꤕꤜꤤ꤭": 3858,
      "ꤢ꤬ꤗꤢꤪꤋꤢꤨ꤬": 3859,
      "ꤢ꤬ꤗꤢ": 3860,
      "ꤢ꤬ꤗꤝꤤ꤭ꤜꤢ꤬": 3861,
      "ꤢ꤬ꤏꤥ꤬": 3862,
      "ꤢ꤬ꤕ꤫ꤢꤧ꤬": 3863,
      "ꤢ꤬ꤕꤜꤤ꤬": 3864,
      "ꤢ꤬ꤙꤢꤩꤑꤢꤩ꤭": 3865,
      "ꤥ꤬ꤟꤢꤧ꤭": 3866,
      "ꤥ꤬ꤚꤣꤧꤘꤢꤦ꤬": 3867,
      "ꤥ꤬ꤕꤝꤢ꤭": 3868,
      "ꤥ꤬ꤟꤢꤧ꤭ꤑꤢꤩ꤭": 3869,
      "ꤥ꤬ꤒꤣꤧ꤬ꤠꤢ꤬": 3870,
      "ꤥ꤬ꤢꤩꤜꤥ꤬": 3871,
      "ꤥ꤬ꤋꤚꤥ꤭": 3872,
      "ꤥ꤬ꤒꤣꤧ꤬ꤖꤢ꤭ꤛꤢ꤬": 3873,
      "ꤥ꤬ꤋꤢꤪ꤬": 3874,
      "ꤞꤤꤥ꤬": 3875,
      "ꤢꤨ꤭ꤋꤢꤨ꤬": 3876,
      "ꤢꤨ꤭ꤛ꤫ꤢꤧ꤬ꤛꤥ꤬": 3877,
      "ꤒꤣꤧ꤬ꤕ": 3878,
      "ꤘꤣꤔꤢꤨ꤬": 3879,
      "ꤚꤣꤧ꤬ꤔꤢꤩ": 3880,
      "ꤔꤢꤧꤚꤣꤧ꤬": 3881,
      "ꤒꤢꤩ꤬ꤡꤢꤩ꤬": 3882,
      "ꤒꤢꤩ꤬ꤒꤣꤧ꤬ꤟꤢꤩ꤬ꤔꤣꤧ꤬": 3883,
      "ꤒꤢꤩ꤬ꤊꤜꤢꤩ꤭": 3884,
      "ꤒꤢꤩ꤬ꤓꤢꤨ꤬ꤞꤢꤩꤓꤢꤧ꤬": 3885,
      "ꤒꤢꤩ꤬ꤕꤜꤝꤢ꤭ꤊꤢꤧ꤭": 3886,
      "ꤒꤢꤩ꤬ꤟꤢꤩꤥ꤬ꤔꤢꤩ꤬": 3887,
      "ꤒꤢꤩ꤬ꤏꤢꤧ꤬ꤜꤢꤧ꤬": 3888,
      "ꤒꤢꤩ꤬ꤒꤣꤧ꤬ꤍꤢ꤭": 3889,
      "ꤒꤢꤩ꤬ꤢꤩ꤬ꤒꤢꤩ꤬": 3890,
      "ꤒꤢꤩ꤬ꤕꤣꤧ꤬ꤒꤤ꤭ꤕꤣꤧ꤬ꤒꤢ": 3891,
      "ꤖꤚꤢ": 3892,
      "ꤖꤚꤢꤨ": 3893,
      "ꤞꤤ꤭ꤠꤢꤩ꤬": 3894,
      "ꤞꤤ꤭ꤋꤝꤢ꤬": 3895,
      "ꤖꤚꤢꤩ꤬ꤤ꤬ꤏꤢꤪ": 3896,
      "ꤖꤚꤢꤩ꤬ꤗꤢꤧꤡꤢꤧ꤬": 3897,
      "ꤖꤚꤢꤩ꤬ꤊꤤ꤬": 3898,
      "ꤖꤚꤢꤩ꤬ꤟꤢꤧ꤭ꤢꤩ꤬": 3899,
      "ꤖꤚꤢꤩ꤬ꤊꤢꤩꤙꤥ": 3900,
      "ꤤ꤬ꤠꤤ꤭": 3901,
      "ꤤ꤬ꤕꤢꤪ꤬": 3902,
      "ꤒꤣ꤬ꤚꤥ꤭": 3903,
      "ꤟꤢꤩꤟꤣꤧ": 3904,
      "ꤟꤢꤩꤚꤣꤧ": 3905,
      "ꤟꤢꤩꤓꤢꤩ꤬": 3906,
      "ꤟꤢꤩꤕꤜꤥ꤭": 3907,
      "ꤟꤢꤩꤜꤢ꤭ꤒꤢꤩ꤬": 3908,
      "ꤟꤢꤩꤙꤢꤪ꤭": 3909,
      "ꤗꤢꤩ꤬ꤘꤢꤦ꤭": 3910,
      "ꤗꤢꤩ꤬ꤖꤚꤢꤩ꤭": 3911,
      "ꤠꤢꤧ꤭ꤓꤣꤧ꤭": 3912,
      "ꤠꤢꤧ꤭ꤕ꤫ꤥ꤬": 3913,
      "ꤠꤢꤧ꤭ꤋꤥ꤭": 3914,
      "ꤠꤢꤧ꤭ꤟꤤ꤬": 3915,
      "ꤠꤢꤧ꤭ꤕꤣꤧꤞꤢꤩ꤬": 3916,
      "ꤜꤢꤪꤘꤤ꤬": 3917,
      "ꤢ꤬ꤋꤢ꤬": 3918,
      "ꤡꤢꤪꤚꤣꤧ꤬ꤔꤢꤩ": 3919,
      "ꤊꤣꤧ꤬ꤜ": 3920,
      "ꤙꤢꤩ꤬ꤡꤝꤢ": 3921,
      "ꤛꤢꤩ꤬ꤞꤤ꤭ꤜ꤫ꤢꤩ꤬": 3922,
      "ꤊꤣꤧ꤬ꤛꤢꤧ꤭ꤚꤢꤧ": 3923,
      "ꤜꤢꤨ꤭ꤟꤤ꤬": 3924,
      "ꤖꤢꤨꤖꤛꤢ": 3925,
      "ꤕꤢꤩ꤬ꤥ꤬": 3926,
      "ꤛꤢ꤭ꤜꤢꤩ꤭": 3927,
      "ꤟꤢꤧ꤭ꤟꤢꤩ": 3928,
      "ꤟꤢꤧ꤭ꤘꤢꤧ꤬": 3929,
      "ꤟꤢꤧ꤭ꤓꤢꤪ": 3930,
      "ꤔꤢꤧ꤬ꤒꤣ꤬ꤖꤚꤢꤩ꤬": 3931,
      "ꤔꤢꤧ꤬ꤓꤣꤧ꤭": 3932,
      "ꤜꤢꤪ꤭ꤢꤨ꤭": 3933,
      "ꤜꤢꤪ꤭ꤕ꤫ꤢꤩ꤬": 3934,
      "ꤑꤢꤩ꤭ꤜꤣ": 3935,
      "ꤡꤝꤢꤘꤣꤧ": 3936,
      "ꤡꤝꤢꤊꤢ꤬": 3937,
      "ꤡꤝꤢꤟꤢꤩꤏꤥ꤬": 3938,
      "ꤡꤝꤢꤋꤥ": 3939,
      "ꤡꤝꤢꤙꤢꤧ꤭": 3940,
      "ꤡꤝꤢꤜꤢꤪꤕꤜꤢꤨ": 3941,
      "ꤊꤣꤧ꤭ꤚꤣꤧ": 3942,
      "ꤊꤣꤧ꤭ꤗꤣꤧ꤭": 3943,
      "ꤋꤢꤨ꤭ꤢꤧ": 3944,
      "ꤋꤢꤨ꤭ꤔꤢꤩ꤬": 3945,
      "ꤋꤢꤨ꤭ꤖꤤ": 3946,
      "ꤋꤢꤨ꤭ꤘꤢꤩ꤬": 3947,
      "ꤋꤢꤨ꤭ꤢ꤬ꤚꤤ": 3948,
      "ꤋꤢꤨ꤭ꤢ꤬ꤜꤢꤧꤎꤢ꤬ꤘ": 3949,
      "ꤊꤜꤢꤦ꤬": 3950,
      "ꤚꤣꤧꤋꤛꤢ꤭": 3951,
      "ꤖꤢꤧꤓꤢꤧ꤬": 3952,
      "ꤘꤣꤧꤊꤣꤧ꤭": 3953,
      "ꤘꤣꤧꤙꤢꤪ꤬": 3954,
      "ꤔ꤫ꤤ꤬ꤋꤚꤢ꤭": 3955,
      "ꤗꤢꤧꤡꤝꤢ": 3956,
      "ꤋꤢꤧ꤭ꤙꤢꤩ": 3957,
      "ꤣꤧ꤭ꤔꤣꤧ꤬ꤖꤢꤧ": 3958,
      "ꤣꤧ꤭ꤔꤣꤧ꤬ꤒꤣ꤬ꤗꤢꤩ꤭": 3959,
      "ꤗ꤫ꤢ꤬ꤡꤝꤢꤚꤣꤧ": 3960,
      "ꤢ꤬ꤚꤝꤢ꤭": 3961,
      "ꤞꤣꤧ꤭ꤍ꤫ꤥ꤬": 3962,
      "ꤞꤣꤧ꤭ꤊꤣꤧ꤬ꤓꤢꤪ꤬ꤊꤢ꤬ꤋꤛꤢ꤭": 3963,
      "ꤢ꤬ꤋꤢꤩ꤭ꤕꤢ꤬": 3964,
      "ꤘꤢꤨ꤬ꤊꤢꤨ꤭": 3965,
      "ꤒꤢꤩ꤬ꤞꤥ꤬ꤒꤢꤩ꤬": 3966,
      "ꤓꤝꤢ꤭ꤜꤢꤨ": 3967,
      "ꤞꤤꤑꤢꤩ꤭ꤥ꤬ꤔꤢꤩ꤬": 3968,
      "ꤒꤣꤧ꤬ꤚ꤫ꤢꤨ꤬": 3969,
      "ꤢ꤬ꤜ꤫ꤢꤨ꤬": 3970,
      "ꤢ꤬ꤜꤝ꤫ꤢ꤬": 3971,
      "ꤠꤤ꤭ꤒꤢ꤬": 3972,
      "ꤠꤤ꤭ꤔꤥ꤭ꤊꤢꤧ꤭": 3973,
      "ꤠꤤ꤭ꤙꤢꤩ꤬ꤚꤤ": 3974,
      "ꤠꤤ꤭ꤙꤢꤩ꤬ꤞꤢ꤬ꤎꤢꤧ": 3975,
      "ꤠꤤ꤭ꤊꤢꤨꤚꤢꤩ꤬ꤔꤢꤩ꤬": 3976,
      "ꤠꤤ꤭ꤤꤊꤢ꤬": 3977,
      "ꤘꤢꤧ꤬ꤘꤝꤢ": 3978,
      "ꤘꤢꤧ꤬ꤞꤢꤨ꤬ꤘꤢꤧ꤬ꤞꤢꤩ": 3979,
      "ꤗꤢꤩ꤬ꤒꤢꤩ꤭ꤟꤢꤩꤔꤣꤧ꤬ꤚꤣꤧ꤬": 3980,
      "ꤍ꤫ꤥ꤬ꤣꤧ꤭": 3981,
      "ꤍ꤫ꤥ꤬ꤞꤣꤧ꤭ꤍ꤫ꤥ꤬": 3982,
      "ꤔꤢꤪ꤭ꤒꤢ꤭": 3983,
      "ꤜꤣꤧ꤬ꤛꤢ꤭": 3984,
      "ꤜꤣꤧ꤬ꤊ꤫ꤢꤩ꤬": 3985,
      "ꤡ꤫ꤢꤧ꤬ꤒꤢꤩ꤬ꤜꤢꤪ꤭": 3986,
      "ꤓꤢꤩ꤬ꤔ꤫ꤤ꤬": 3987,
      "ꤔꤣꤧ꤭ꤛꤢꤩ꤬": 3988,
      "ꤗꤥ꤬ꤟꤢꤧ꤭": 3989,
      "ꤜ꤫ꤢꤩ꤬ꤗꤢꤧꤙꤢꤦ꤭": 3990,
      "ꤊ꤫ꤢꤩ꤬ꤞꤤꤓꤢꤩ꤬": 3991,
      "ꤒꤣꤧ꤬ꤔ꤫ꤢ꤬": 3992,
      "ꤕ꤫ꤥ꤬ꤘꤢꤦ꤬": 3993,
      "ꤕ꤫ꤥ꤬ꤋꤛꤢ꤭ꤞꤢꤧ": 3994,
      "ꤕꤝꤢ꤭ꤞꤢꤩ꤭": 3995,
      "ꤟꤢꤩꤏꤥ꤬ꤕ꤫ꤢꤩ꤬": 3996,
      "ꤟꤢꤩꤏꤥ꤬ꤞꤤꤑꤢꤩ꤭": 3997,
      "ꤟꤢꤩꤏꤥ꤬ꤕꤜꤥ꤭": 3998,
      "ꤗꤢꤪꤋꤚꤢꤪ꤭": 3999,
      "ꤗ꤫ꤢꤪ꤬ꤒꤢ꤭": 4000,
      "ꤗ꤫ꤢꤪ꤬ꤊꤝ꤫ꤤ꤬": 4001,
      "ꤒꤢꤩ꤬ꤗꤢꤩ꤬ꤒꤣꤧ꤬ꤕꤢ꤬": 4002,
      "ꤖꤚꤢꤩ꤬ꤋꤢꤨ꤭ꤘꤢꤨ꤬": 4003,
      "ꤙꤣꤧꤔꤣꤧ꤬ꤒꤣ꤬ꤔꤣꤧ꤭": 4004,
      "ꤙꤢꤩꤊꤣꤧ꤭": 4005,
      "ꤗ꤫ꤥ꤬ꤎꤢꤧ": 4006,
      "ꤚꤢꤧꤚꤣꤧ": 4007,
      "ꤚꤢꤧꤜꤣ": 4008,
      "ꤓꤝꤢ꤭ꤓꤢꤧ꤬ꤊꤣꤧ꤭": 4009,
      "ꤜꤤ꤬ꤊꤣꤧ꤬ꤞꤝꤤ": 4010,
      "ꤊꤝꤤ꤭ꤒꤢꤩ꤬": 4011,
      "ꤊꤝꤤ꤭ꤢꤩ꤬ꤏꤢꤩ꤬": 4012,
      "ꤜꤥ꤬ꤔꤣꤧ꤬": 4013,
      "ꤗꤢꤨꤚꤢ꤬": 4014,
      "ꤒ꤫ꤣ꤬ꤜꤢꤪ꤭": 4015,
      "ꤏꤢꤦ꤬ꤊꤢꤧ꤭": 4016,
      "ꤤ꤬ꤞꤝꤢꤒꤢ꤭": 4017,
      "ꤏꤝꤢ꤬ꤜꤣ": 4018,
      "ꤋꤛꤢ꤭ꤞꤢꤧꤜꤢꤨ꤭": 4019,
      "ꤋꤛꤢ꤭ꤞꤢꤧꤘꤢꤦ꤬": 4020,
      "ꤞꤢꤪ꤬ꤊꤜ꤫ꤢꤪ꤬": 4021,
      "ꤒꤣ꤬ꤖꤥꤋꤢꤩ꤭ꤔꤣꤧ꤬": 4022,
      "ꤋꤚꤝꤢ꤭ꤟꤢꤧ꤭ꤊꤣꤧ꤭": 4023,
      "ꤖꤚꤢꤩ꤬ꤗꤢꤪ꤬ꤟꤢꤨ": 4024,
      "ꤖꤢꤞꤢꤩ꤬": 4025,
      "ꤞꤥ꤭ꤔꤢ꤬": 4026,
      "ꤔ꤫ꤤ꤬ꤟꤥ꤭ꤟꤣꤧ": 4027,
      "ꤕꤣꤧ꤬ꤜ꤫ꤥ꤬": 4028,
      "ꤞꤢꤩꤗ꤫ꤥ꤬": 4029,
      "ꤜꤢꤩ꤭ꤖꤚ꤫ꤢꤩ꤬": 4030,
      "ꤘꤢꤧꤡ꤫ꤢꤩ꤬": 4031,
      "ꤘꤣꤧꤟꤣꤧ꤭ꤡꤢꤩ꤭ꤗꤢꤧ": 4032,
      "ꤙꤢꤧꤓꤢꤧ꤬": 4033,
      "ꤙꤢꤧꤘꤤ꤭": 4034,
      "ꤒꤢꤦꤣꤧ꤭ꤔꤣꤧ꤬": 4035,
      "ꤜꤤ꤭ꤊꤢ꤬ꤋꤛꤢ꤭": 4036,
      "ꤏꤣꤧꤒꤣ꤬ꤖꤚꤢꤩ꤬": 4037,
      "ꤔꤢꤪꤜꤢ꤭ꤟꤤ": 4038,
      "ꤜꤢꤪ꤭ꤕꤜꤤ꤭ꤡꤣꤧ": 4039,
      "ꤢ꤬ꤒꤢꤩ꤬ꤢꤩ꤬ꤥ꤭": 4040,
      "ꤒ꤫ꤣ꤬ꤊꤣꤧ꤭ꤕꤢ꤬": 4041,
      "ꤏꤥ꤭ꤖꤢꤨ": 4042,
      "ꤜ꤫ꤥ꤬ꤕꤢ꤬": 4043,
      "ꤔꤣꤧ꤬ꤒꤣ꤬ꤔꤣꤧ꤭ꤔꤣꤧ꤬": 4044,
      "ꤔꤣꤧ꤬ꤒꤣ꤬ꤕꤢꤦ꤬": 4045,
      "ꤕꤜꤝꤢ꤭ꤡꤝꤢ": 4046,
      "ꤒꤢ꤭ꤒꤢꤩ꤬ꤚꤢꤧ": 4047,
      "ꤤ꤬ꤏꤢꤩ꤭ꤢꤩ꤬": 4048,
      "ꤗꤢꤩ꤬ꤞꤣꤧ꤭ꤔ꤫ꤤ꤬": 4049,
      "ꤜ꤫ꤢꤪ꤬ꤊꤜꤢꤩ꤭": 4050,
      "ꤗꤢꤧꤕꤢꤨ꤭ꤢꤩ꤬": 4051,
      "ꤗꤢꤩ꤬ꤡꤝ꤫ꤢ꤬ꤊꤣꤧ꤭": 4052,
      "ꤜ꤫ꤢꤩ꤬ꤥ꤬ꤗꤣꤧ꤭": 4053,
      "ꤤ꤬ꤞꤝꤤ": 4054,
      "ꤔꤢ꤬ꤡ꤫ꤢꤩ꤬": 4055,
      "ꤘꤣꤧꤒꤢ꤭ꤟꤣꤧ": 4056,
      "ꤘꤣꤧꤒꤢ꤭ꤋꤚꤢ꤭": 4057,
      "ꤘꤤꤘꤢꤪ꤭": 4058,
      "ꤖꤚ꤫ꤢꤩ꤬ꤖꤚꤢꤩ꤬ꤗꤢꤪ꤬": 4059,
      "ꤘꤢꤪꤒꤢ꤭ꤊꤢꤧ꤭": 4060,
      "ꤘꤢꤪ꤭ꤖꤢꤨꤏꤥ꤬ꤖꤢꤨ": 4061,
      "ꤥ꤬ꤊꤢꤧ꤭ꤕꤢ꤬": 4062,
      "ꤖꤢꤦ꤬ꤟꤢꤧ꤭": 4063,
      "ꤖꤢꤦ꤬ꤓꤢꤧ꤬ꤟꤣꤧ": 4064,
      "ꤖꤚꤢꤩ꤬ꤗꤢꤩ꤬ꤒꤢꤩ꤬": 4065,
      "ꤒꤣꤧ꤬ꤊꤤ꤭": 4066,
      "ꤠꤤ꤭ꤛꤢ꤬ꤚꤢꤨꤏꤛꤢ꤬ꤜꤢꤩ꤬ꤖꤢꤨ": 4067,
      "ꤔꤝꤢꤓꤢꤩ꤬": 4068,
      "ꤜꤝꤤ꤭ꤔ꤫ꤢ꤬": 4069,
      "ꤖꤥ꤭ꤘꤢ꤬ꤠꤤ꤬": 4070,
      "ꤏꤥ꤬ꤚ꤫ꤢ꤬": 4071,
      "ꤙꤥ꤭ꤘꤢꤨ꤬": 4072,
      "ꤕꤜꤝꤢ꤭ꤊꤢꤧ꤭ꤟꤣꤧ": 4073,
      "ꤒꤢꤩ꤬ꤏꤢꤩ꤭ꤞꤝꤤ꤬ꤒꤢ꤭": 4074,
      "ꤟꤥ꤭ꤊꤢꤨ꤭ꤔꤣꤧ꤬": 4075,
      "ꤞꤤꤑꤢꤩ꤭ꤕꤜꤥ꤭ꤟꤢꤧ꤭": 4076,
      "ꤏꤣꤧꤋꤢꤩ꤭ꤙꤢꤩ꤬": 4077,
      "ꤙꤢꤪꤟꤢꤧ꤭": 4078,
      "ꤙꤢꤪꤓꤢꤧ꤬": 4079,
      "ꤙꤢꤪꤓꤢꤩ꤬": 4080,
      "ꤡꤢꤪ꤭ꤓꤢꤧ꤬": 4081,
      "ꤋꤢꤨ꤭ꤡꤛꤥ꤬ꤔꤢ": 4082,
      "ꤢ꤬ꤓꤣꤧ꤭ꤊ꤫ꤢꤩ꤬": 4083,
      "ꤋꤢꤨ꤭ꤎꤤ꤬": 4084,
      "ꤢ꤬ꤊꤜꤝꤤ꤭ꤜꤢꤧ꤭": 4085,
      "ꤋꤢꤧꤘꤥ꤬ꤜꤥ꤬": 4086,
      "ꤥ꤬ꤊꤣꤧ꤭ꤕꤢ꤬": 4087,
      "ꤏꤢꤨ꤬ꤥ꤬": 4088,
      "ꤞꤢꤨ꤭ꤡꤝꤢꤊꤢꤧ꤭": 4089,
      "ꤟꤢꤩꤗꤥ꤬ꤟꤢꤩꤚꤢꤧꤊꤢꤧ꤭": 4090,
      "ꤢ꤬ꤕꤣꤧꤞꤢꤩ꤬ꤑꤢꤩ꤭ꤔꤣꤧ꤬": 4091,
      "ꤙꤥ꤬ꤙꤤ": 4092,
      "ꤒꤢꤩ꤬ꤞꤢꤦꤒꤢꤩ꤬ꤥ꤬ꤚꤢ꤬ꤖꤢꤨ": 4093,
      "ꤒꤣꤧ꤬ꤗꤥ꤭ꤒꤣꤧ꤬ꤗꤥ꤭": 4094,
      "ꤊꤣꤧ꤭ꤜꤢ꤭ꤒꤢꤩ꤬ꤜꤢꤩ꤭": 4095,
      "ꤒꤝ꤫ꤢ꤬ꤚꤢꤧ": 4096,
      "ꤢ꤬ꤕ꤫ꤥ꤬ꤖꤚꤢꤩ꤬ꤗꤢꤪ꤬": 4097,
      "ꤟꤢꤩꤥ꤬ꤔꤢꤩ꤬ꤊꤢꤧ꤭": 4098,
      "ꤜꤣꤧ꤬ꤒꤢ꤭ꤔꤥ꤭": 4099,
      "ꤡꤝꤤ꤬ꤔ꤫ꤤ꤬": 4100,
      "ꤡꤝꤤ꤬ꤓꤢꤩ꤬": 4101,
      "ꤢꤩꤓꤥ꤭ꤓꤢꤧ꤬ꤏꤝꤢ꤬": 4102,
      "ꤒꤢꤩ꤬ꤗꤥ꤬ꤒꤢꤩ꤬ꤊꤜꤢꤩ꤭": 4103,
      "ꤙꤣꤧꤔꤣꤧ꤬ꤋꤢꤩ꤭ꤕꤢ꤭": 4104,
      "ꤞꤤꤒꤣꤧ꤬ꤚꤢꤩ꤭ꤊꤢꤧ꤭": 4105,
      "ꤗ꤫ꤢꤪ꤬ꤟꤢꤩꤗ꤫ꤢꤪ꤬ꤜꤤ꤭": 4106,
      "ꤋꤚꤢ꤭ꤊꤢꤧ꤭": 4107,
      "ꤡ꤫ꤢꤩ꤬ꤡꤢꤦ꤭ꤗꤢ꤬": 4108,
      "ꤢꤩꤊꤢ꤬ꤊꤢꤧ꤭": 4109,
      "ꤜꤢꤪ꤬ꤟꤢꤨ": 4110,
      "ꤖꤚꤢꤩ꤬ꤛꤥ꤬ꤖꤚꤢꤩ꤬ꤊꤤ꤬": 4111,
      "ꤋꤢꤧ꤬ꤛꤢ꤭ꤜꤢꤩ꤭": 4112,
      "ꤋꤢꤨ꤭ꤡꤛꤢꤩ꤭ꤎꤣ꤬": 4113,
      "ꤘꤝꤢꤊꤢꤧ꤭": 4114,
      "ꤛꤢꤧꤟꤢꤧ꤭": 4115,
      "ꤒꤣꤧ꤬ꤞꤤꤖꤢꤨ": 4116,
      "ꤒꤣꤧ꤬ꤞꤤꤜ꤫ꤥ꤬": 4117,
      "ꤒꤣꤧ꤬ꤞꤤꤙꤥ꤭ꤘꤢꤨ꤬": 4118,
      "ꤤ꤬ꤖꤚꤤ꤬ꤤ꤬ꤏꤢꤩ꤭": 4119,
      "ꤊꤚꤤꤍ꤫ꤥ꤬": 4120,
      "ꤗ꤫ꤢꤪ꤬ꤋꤤꤕꤣꤧ꤬ꤜ꤫ꤥ꤬": 4121,
      "ꤢ꤬ꤊꤜꤢꤪ꤭ꤔꤣꤧ꤬": 4122,
      "ꤗ꤫ꤢꤪ꤬ꤜꤤ꤭ꤚꤥ꤬ꤗꤢꤦ": 4123,
      "ꤜꤢꤨ꤬ꤜꤢꤩꤊꤢꤨ꤬ꤊꤜꤢꤪ": 4124,
      "ꤏꤣꤧꤞꤤꤔꤣꤧ꤭ꤣꤧ꤭": 4125,
      "ꤗꤢꤩ꤬ꤜꤤ꤭ꤗꤢꤩ꤬ꤒꤣꤧ꤬ꤋꤢꤩ꤭ꤓꤢꤧ꤬": 4126,
      "ꤔꤢ꤬ꤎꤢ꤬ꤚꤢꤧꤖꤢꤨ": 4127,
      "ꤕ꤫ꤢ꤬ꤊꤣꤧ꤬ꤓꤢꤪ꤬": 4128,
      "ꤋꤢꤨ꤭ꤗꤢ꤬ꤔꤢ": 4129,
      "ꤏꤣꤧꤔꤣꤧ꤭ꤔꤢ꤬": 4130,
      "ꤞꤤꤥ꤭ꤓꤣꤧ꤭": 4131,
      "ꤎꤤꤔꤢ": 4132,
      "ꤕ꤫ꤢꤨ꤬ꤖꤢꤨ": 4133,
      "ꤠꤢꤧ꤭ꤥ꤬ꤣꤧ꤭": 4134,
      "ꤋꤢꤨ꤭ꤢꤩꤕꤢ꤬": 4135,
      "ꤒꤣꤧ꤬ꤗꤥ꤭ꤒꤣꤧ꤬ꤊꤢꤩ꤬ꤏꤢꤦ꤬": 4136,
      "ꤙꤢꤪ꤭ꤙꤛꤢ꤬": 4137,
      "ꤒꤢ꤭ꤟꤢꤧ꤭ꤑꤢꤩ꤭ꤔꤣꤧ꤬": 4138,
      "ꤏꤛꤢ꤬ꤗꤢ꤬ꤚꤤꤊ꤫ꤢꤩ꤬": 4139,
      "ꤣꤧ꤭ꤒꤣ꤬ꤗꤢꤦ꤭ꤔꤣꤧ꤬": 4140,
      "ꤓꤢꤦꤞꤢꤨ꤭": 4141,
      "ꤢ꤫ꤢ꤬ꤒꤣꤧ꤬ꤡꤢ": 4142,
      "ꤜꤣꤧ꤬ꤘꤢꤧꤥ꤭": 4143,
      "ꤞꤥ꤭ꤞꤝꤢꤒꤣ꤬ꤊꤜ꤫ꤢꤪ꤬": 4144,
      "ꤞꤥ꤭ꤞꤝꤢꤒꤣ꤬ꤏꤣꤧ꤭": 4145,
      "ꤕꤣꤧ꤬ꤒꤤꤜꤣꤢꤨ꤭": 4146,
      "ꤕꤤ꤭ꤕ꤫ꤢꤩ꤬": 4147,
      "ꤡꤝꤢꤓꤢꤧ꤬ꤔꤥ꤭": 4148,
      "ꤚ꤫ꤢꤨ꤬ꤞꤤ": 4149,
      "ꤕꤜꤢꤧꤒꤣꤧ꤬ꤋꤢꤩ꤭": 4150,
      "ꤘꤢꤧꤏꤥ꤬ꤜꤥ꤭": 4151,
      "ꤒꤣꤧ꤬ꤖꤢ꤭ꤛꤢ꤬ꤊꤢꤧ꤭": 4152,
      "ꤋꤚꤢꤪ꤭ꤊꤢꤨ꤭ꤘꤢꤨ꤬": 4153,
      "ꤋꤢꤨ꤭ꤊꤢ꤬ꤛꤢꤨ": 4154,
      "ꤋꤢꤨ꤭ꤗꤢꤒꤢ꤬": 4155,
      "ꤢ꤬ꤚꤝ꤫ꤤ꤬ꤢ꤬ꤚꤝꤢ꤭": 4156,
      "ꤗꤥ꤬ꤗꤥ꤬ꤚꤢꤧꤚꤢꤧ": 4157,
      "ꤞꤢꤩ꤬ꤓꤢꤧ꤬ꤖꤥ꤭ꤓꤢꤧ꤬": 4158,
      "ꤟꤣꤧ꤬ꤡꤢ꤬ꤙꤢꤨ꤭": 4159,
      "ꤊ꤫ꤢ꤬ꤊꤜꤥ꤬": 4160,
      "ꤗꤤ꤬ꤊꤢꤧ꤭ꤒꤣꤧ꤬ꤞꤥ꤭": 4161,
      "ꤗꤥꤕꤢ꤬ꤖꤢꤧ": 4162,
      "ꤒꤣꤧ꤬ꤊꤜꤢꤩ꤭ꤜꤢꤩ꤭ꤙꤢꤧ": 4163,
      "ꤟꤢꤩꤙꤢꤩ꤬ꤡꤢꤪꤟꤢꤩꤙꤢꤩ꤬ꤒꤢꤩ꤬": 4164,
      "ꤢ꤬ꤘꤢꤪ꤭ꤢ꤬ꤏꤥ꤬": 4165,
      "ꤔꤣꤧ꤭ꤋꤥꤔꤣꤧ꤭ꤊꤛꤢ꤭": 4166,
      "ꤛꤢꤪꤊ꤫ꤢꤩ꤬": 4167,
      "ꤡꤢꤧꤡ꤫ꤥ꤬": 4168,
      "ꤗ꤫ꤢꤪ꤬ꤔꤢꤩ꤬ꤋꤢꤩ꤭": 4169,
      "ꤞꤢꤪ꤬ꤏꤢꤧꤞꤢꤪ꤬ꤊ꤫ꤤ꤬ꤊꤜꤢꤩ꤭": 4170,
      "ꤡꤢꤨꤢꤗꤥ꤭ꤓꤢꤧ꤬": 4171,
      "ꤥꤘꤢꤧ꤬ꤙꤤ": 4172,
      "ꤤ꤬ꤏꤢ꤬ꤒꤢ꤭": 4173,
      "ꤢ꤬ꤔꤢ꤬ꤜꤝꤤ꤭ꤏꤣꤧ꤭": 4174,
      "ꤊꤢ꤬ꤜꤢ꤬ꤒꤤꤊ꤫ꤢꤩ꤬": 4175,
      "ꤚꤝꤢꤩꤗ꤫ꤢꤪ꤬": 4176,
      "ꤒꤢꤩ꤬ꤙꤢꤧ꤭ꤙꤝꤤ": 4177,
      "ꤒꤢꤦꤔꤣꤧ꤬ꤓꤥ꤭ꤒꤥ꤬": 4178,
      "ꤢ꤬ꤗꤢꤢ꤬ꤒꤢꤩ꤭": 4179,
      "ꤥ꤬ꤋꤚꤥ꤭ꤥ꤬": 4180,
      "ꤘꤣꤔꤢꤨ꤬ꤘꤣ": 4181,
      "ꤒꤢꤩ꤬ꤢꤩ꤬ꤒꤢꤩ꤬ꤥ꤭": 4182,
      "ꤞꤤ꤭ꤋꤝꤢ꤬ꤞꤤ꤭ꤋꤛꤢ꤭": 4183,
      "ꤟꤢꤩꤙꤢꤪ꤭ꤟꤢꤩꤙꤛꤢ꤬": 4184,
      "ꤗꤢꤩ꤬ꤖꤚꤢꤩ꤭ꤗꤢꤩ꤬ꤘꤢꤦ꤭": 4185,
      "ꤠꤢꤧ꤭ꤕ꤫ꤥ꤬ꤠꤢꤧ꤭": 4186,
      "ꤜꤢꤪꤘꤤ꤬ꤊꤤ꤬": 4187,
      "ꤋꤢꤨ꤭ꤢ꤬ꤚꤤꤎꤢ꤬ꤒ": 4188,
      "ꤋꤢꤨ꤭ꤢ꤬ꤜꤢꤧꤎꤢ꤬ꤘꤚꤢꤨ": 4189,
      "ꤒꤢꤩ꤬ꤞꤥ꤬ꤒꤢꤩ꤬ꤋꤚꤢꤩ꤭": 4190,
      "ꤠꤤ꤭ꤒꤢ꤬ꤎꤢꤨ": 4191,
      "ꤠꤤ꤭ꤤꤊꤢ꤬ꤔꤤ꤬": 4192,
      "ꤍ꤫ꤥ꤬ꤞꤣꤧ꤭ꤍ꤫ꤥ꤬ꤥ꤬": 4193,
      "ꤗ꤫ꤢꤪ꤬ꤊꤝ꤫ꤤ꤬ꤜꤢꤧ꤬": 4194,
      "ꤗ꤫ꤥ꤬ꤎꤢꤧꤚꤢ꤬": 4195,
      "ꤘꤤꤘꤢꤪ꤭ꤘꤤꤘꤢꤧ꤭": 4196,
      ")꤯": 4197,
      "ꤊꤢ꤬ꤚꤢꤧ": 4198,
      "ꤊꤢꤩꤊꤢ꤬": 4199,
      "ꤎꤢ": 4200,
      "ꤓꤤ꤬": 4201,
      "ꤕꤢ꤬ꤜꤤ꤬": 4202,
      "ꤖꤢ꤬ꤖꤢꤨ": 4203,
      "ꤘꤢꤨ": 4204,
      "ꤙꤛ": 4205,
      "ꤚꤢꤨ꤬": 4206,
      "ꤚꤢꤪ꤭": 4207,
      "ꤚꤢ꤬ꤙꤤ": 4208,
      "ꤛꤝꤢ꤭": 4209,
      "ꤛꤢꤪ꤭": 4210,
      "ꤠꤢꤪ꤭": 4211,
      "ꤡꤝꤤ": 4212,
      "ꤥꤊꤢꤧ꤭": 4213,
      "꤮?”": 4214,
      "ꤢꤩꤢꤩ꤬": 4215,
      "ꤢꤩꤗꤤ꤭": 4216,
      "ꤢꤩꤋꤚꤝꤢ꤭ꤡꤝꤢ": 4217,
      "ꤢꤩ꤬ꤒꤢꤦ꤭": 4218,
      "ꤢꤩ꤬ꤜꤣꤧ꤬ꤘꤢꤧꤥ꤭": 4219,
      "ꤢ꤬ꤢꤩ꤬": 4220,
      "ꤢ꤬ꤣꤧ꤭": 4221,
      "ꤢ꤬ꤡꤣ꤬": 4222,
      "ꤢ꤬ꤞꤢꤩ": 4223,
      "ꤢ꤬ꤘꤥ꤭": 4224,
      "ꤢ꤬ꤕꤛꤢ": 4225,
      "ꤢ꤬ꤖꤚꤢ꤬": 4226,
      "ꤢ꤬ꤞꤤꤗꤤ꤬ꤖꤢꤨ": 4227,
      "ꤢ꤬ꤖꤚꤢꤩ꤬ꤛꤥ꤬": 4228,
      "ꤢ꤬ꤜꤥ꤭ꤊꤢꤨ꤭": 4229,
      "ꤢ꤬ꤓꤥ꤬": 4230,
      "ꤢ꤬ꤔ꤫ꤥ꤬": 4231,
      "ꤢ꤬ꤟꤢꤪꤊꤢꤨ꤭": 4232,
      "ꤢ꤬ꤟꤥ꤭ꤗꤢꤦ꤬": 4233,
      "ꤥ꤬ꤜꤢꤪ꤭": 4234,
      "ꤥ꤬ꤚꤢꤩ꤭": 4235,
      "ꤥ꤬ꤜꤣꤙꤢ꤭": 4236,
      "ꤥ꤬ꤚꤢꤪ꤬": 4237,
      "ꤥ꤬ꤖꤚꤢꤧ꤭": 4238,
      "ꤥ꤬ꤠꤤ꤭ꤥ꤬ꤊꤢꤪ꤭": 4239,
      "ꤞꤤꤍꤢꤧ꤭": 4240,
      "ꤔꤣꤧ꤬ꤒꤣ꤬ꤡꤣ꤬": 4241,
      "ꤣꤧ꤭ꤊꤣꤧ꤭": 4242,
      "ꤢꤨ꤭ꤖꤢꤩ꤭": 4243,
      "ꤢꤨ꤭ꤗ꤫ꤥ꤬": 4244,
      "ꤢꤨ꤭ꤗꤝꤤ꤭": 4245,
      "ꤒꤣꤧ꤬ꤖꤢꤧ": 4246,
      "ꤔꤢꤧꤗ꤫ꤢꤧ꤬": 4247,
      "ꤔꤢꤧꤔꤢꤧꤚꤣꤧ꤬": 4248,
      "ꤒꤢꤩ꤬ꤍ꤫ꤥ꤬": 4249,
      "ꤒꤢꤩ꤬ꤏꤝꤢ꤬": 4250,
      "ꤒꤢꤩ꤬ꤣꤧ꤭ꤒꤣꤧ꤬ꤟꤢꤩ꤬ꤔꤣꤧ꤬": 4251,
      "ꤒꤢꤩ꤬ꤔ꤫ꤤ꤬ꤘꤢ꤭": 4252,
      "ꤒꤢꤩ꤬ꤜ꤫ꤥ꤬": 4253,
      "ꤒꤢꤩ꤬ꤒꤣꤧ꤬ꤚꤤ꤬": 4254,
      "ꤒꤢꤩ꤬ꤒꤣꤧ꤬ꤕꤢ꤬": 4255,
      "ꤒꤢꤩ꤬ꤊꤢꤦ꤭": 4256,
      "ꤒꤢꤩ꤬ꤟꤢꤩꤙꤝꤤꤟꤢꤩꤒꤣꤧ꤬ꤚꤣꤧ꤭": 4257,
      "ꤒꤢꤩ꤬ꤡꤝꤢꤞꤢꤦ": 4258,
      "ꤒꤢꤩ꤬ꤘꤣꤧꤋꤚꤢ꤭": 4259,
      "ꤖꤚꤝ꤫ꤢ꤬": 4260,
      "ꤥ꤭ꤒꤢꤦ꤭": 4261,
      "ꤞꤤ꤭ꤜꤣꤧ꤬": 4262,
      "ꤞꤤ꤭ꤗ꤫ꤥ꤬": 4263,
      "ꤞꤤ꤭ꤊꤛꤢ": 4264,
      "ꤞꤤ꤭ꤞꤢꤨꤞꤢ": 4265,
      "ꤟꤢꤩ꤬ꤛꤢ꤬ꤚꤤ꤬": 4266,
      "ꤖꤚꤢꤩ꤬ꤘꤢꤧ": 4267,
      "ꤖꤚꤢꤩ꤬ꤏꤣꤧ": 4268,
      "ꤖꤚꤢꤩ꤬ꤊꤜꤝꤢ꤬": 4269,
      "ꤖꤚꤢꤩ꤬ꤕꤣꤧ꤬ꤒꤤꤜꤣ": 4270,
      "ꤖꤚꤢꤩ꤬ꤊꤢ꤬ꤏꤥ꤭ꤘꤢꤧ꤬": 4271,
      "ꤖꤚꤢꤩ꤬ꤕꤣꤒꤣꤧ꤬ꤚꤤ꤬ꤒꤢꤩ꤬": 4272,
      "ꤤ꤬ꤗꤢꤦ꤭": 4273,
      "ꤤ꤬ꤖꤥ꤭": 4274,
      "ꤤ꤬ꤒꤢ꤬ꤜꤤ꤬": 4275,
      "ꤒꤣ꤬ꤙꤢꤩ꤭": 4276,
      "ꤒꤣ꤬ꤞꤢꤪ꤬": 4277,
      "ꤒꤣ꤬ꤊꤜ꤫ꤢꤪ꤬": 4278,
      "ꤒꤣ꤬ꤗꤤ꤭": 4279,
      "ꤒꤣ꤬ꤡꤝ꤫ꤢꤩ꤬": 4280,
      "ꤟꤢꤩꤘꤢꤦ꤬": 4281,
      "ꤟꤢꤩꤋꤥ꤬": 4282,
      "ꤗꤢꤩ꤬ꤔꤢꤧ": 4283,
      "ꤗꤢꤩ꤬ꤒꤥ꤬": 4284,
      "ꤗꤢꤩ꤬ꤘꤢꤦ꤬": 4285,
      "ꤗꤢꤩ꤬ꤖꤢꤧ": 4286,
      "ꤗꤢꤩ꤬ꤓꤝꤢ꤭": 4287,
      "ꤗꤢꤩ꤬ꤗꤢ": 4288,
      "ꤗꤢꤩ꤬ꤒꤣꤧ꤬ꤕꤢ꤬": 4289,
      "ꤗꤢꤩ꤬ꤕꤜꤢꤦ": 4290,
      "ꤗꤢꤩ꤬ꤚ꤫ꤥ꤬ꤊꤣꤧ꤭": 4291,
      "ꤗꤢꤩ꤬ꤒꤢ꤭ꤖꤚꤢꤪ꤬ꤊꤢꤧ꤭": 4292,
      "ꤟꤣꤧꤔꤣꤧ꤬": 4293,
      "ꤟꤣꤧꤕꤢ꤭": 4294,
      "ꤠꤢꤧ꤭ꤣꤧ꤭ꤔꤣꤧ꤬": 4295,
      "ꤠꤢꤧ꤭ꤙꤢꤧ꤬ꤡꤢꤩ꤬": 4296,
      "ꤜꤢꤪꤒꤢ": 4297,
      "ꤗꤢ꤬ꤔꤢ": 4298,
      "ꤊꤣꤧ꤬ꤓꤥ꤭": 4299,
      "ꤊ꤫ꤢꤦ꤬ꤕꤢꤪ꤬": 4300,
      "ꤛꤢꤩ꤬ꤞꤤ꤭ꤋꤛꤢ꤭": 4301,
      "ꤒꤣ꤬ꤖꤚꤢꤩ꤬ꤗꤢ꤬": 4302,
      "ꤒꤣ꤬ꤖꤚꤢꤩ꤬ꤒꤢꤩ꤭": 4303,
      "ꤕꤢꤩ꤬ꤗ꤫ꤥ꤬": 4304,
      "ꤕꤢꤩ꤬ꤊꤜꤢꤧ": 4305,
      "ꤊꤢꤧ꤭ꤙꤥ꤭": 4306,
      "ꤟꤢꤧ꤭ꤓꤢꤧ꤬": 4307,
      "ꤟꤢꤧ꤭ꤗꤢꤧꤓ꤫ꤣꤧ꤬": 4308,
      "ꤟꤢꤧ꤭ꤊꤣꤧ꤬ꤓꤢꤪ꤬": 4309,
      "ꤟꤢꤧ꤭ꤜꤢꤩ": 4310,
      "ꤟꤢꤧ꤭ꤕꤜꤢꤨ꤬": 4311,
      "ꤔꤢꤧ꤬ꤊ꤫ꤢꤩ꤬": 4312,
      "ꤔꤢꤧ꤬ꤟꤤ꤬": 4313,
      "ꤔꤢꤧ꤬ꤊꤜꤢꤧ": 4314,
      "ꤕꤢ꤭ꤔꤣꤧ꤬ꤗꤢ꤬": 4315,
      "ꤓꤢꤧ꤬ꤒ꤫ꤥ꤬": 4316,
      "ꤓꤢꤧ꤬ꤔꤥ꤭": 4317,
      "ꤜꤢ꤭ꤘꤢꤦ꤬": 4318,
      "ꤡꤝꤢꤡꤢꤩ꤬": 4319,
      "ꤡꤝꤢꤘꤢꤧ꤬": 4320,
      "ꤡꤝꤢꤕꤜꤢ": 4321,
      "ꤡꤝꤢꤤ꤬ꤖꤚꤤ꤬": 4322,
      "ꤡꤝꤢꤡ꤫ꤢꤧ꤬ꤒꤥ꤬": 4323,
      "ꤋꤢꤨ꤭ꤢꤨ": 4324,
      "ꤋꤢꤨ꤭ꤞꤢꤧ": 4325,
      "ꤋꤢꤨ꤭ꤞꤢꤩ꤬": 4326,
      "ꤋꤢꤨ꤭ꤜꤢꤨ": 4327,
      "ꤋꤢꤨ꤭ꤒꤢꤨ": 4328,
      "ꤋꤢꤨ꤭ꤢꤩꤜꤤ꤬ꤛꤢ꤬": 4329,
      "ꤡꤣꤧꤘꤢꤦ꤬": 4330,
      "ꤊꤜꤥ": 4331,
      "ꤕ꤫ꤢꤩ꤬ꤓꤥ꤭": 4332,
      "ꤓꤥ꤭ꤜꤢꤨ꤬": 4333,
      "ꤚꤣꤧꤊꤣꤧ꤭ꤘꤢꤦ꤬": 4334,
      "ꤘꤣꤧꤢꤨ꤭": 4335,
      "ꤘꤣꤧꤓꤥ꤭ꤟꤣꤧ": 4336,
      "ꤒꤢꤩ꤭ꤜꤢꤧ꤬": 4337,
      "ꤞꤢꤧꤜꤢꤪ꤭": 4338,
      "ꤞꤢꤧꤔ꤫ꤤ꤬": 4339,
      "ꤞꤢꤧꤟꤢꤨꤔꤣꤧ꤬": 4340,
      "ꤔ꤫ꤤ꤬ꤕ꤫ꤢꤩ꤬": 4341,
      "ꤗꤢꤧꤒꤢ꤭": 4342,
      "ꤗꤢꤧꤊꤢ꤬ꤋꤛꤢ꤭": 4343,
      "ꤗꤢꤧꤚꤢꤩ꤭": 4344,
      "ꤗꤢꤧꤜꤝꤢ": 4345,
      "ꤗꤢꤧꤡꤥ꤭": 4346,
      "ꤢꤦ꤭ꤊꤢꤧ꤭": 4347,
      "ꤗ꤫ꤢ꤬ꤕꤢ꤬ꤒꤥ꤬ꤟꤣꤧ": 4348,
      "ꤢ꤬ꤚꤢꤪ꤭": 4349,
      "ꤞꤣꤧ꤭ꤡ꤫ꤢꤧ꤬ꤒꤥ꤬": 4350,
      "ꤊꤢꤩ꤬ꤟꤢꤩꤔꤣꤧ꤬ꤗꤢ꤬": 4351,
      "ꤜꤥ꤭ꤕ꤫ꤢꤩ꤬": 4352,
      "ꤜꤥ꤭ꤚꤢꤧ": 4353,
      "ꤡꤢꤩ꤬ꤊꤢ꤬": 4354,
      "ꤒꤢ꤭ꤜꤢꤪ꤭": 4355,
      "ꤒꤢ꤭ꤞꤥ꤭": 4356,
      "ꤒꤢ꤭ꤕꤜꤢꤨ": 4357,
      "ꤢ꤬ꤋꤢꤩ꤭ꤣꤧ꤭": 4358,
      "ꤢ꤬ꤋꤢꤩ꤭ꤣꤧ꤭ꤔꤣꤧ꤬": 4359,
      "ꤘꤢꤨ꤬ꤖꤚ꤫ꤢꤩ꤬": 4360,
      "ꤔꤣꤧ꤬ꤒꤣꤧ꤬ꤟꤢꤩ꤬ꤟꤣꤧ": 4361,
      "ꤢ꤬ꤖꤢꤨꤥ꤬": 4362,
      "ꤒꤥ꤭ꤟꤣꤧ": 4363,
      "ꤒꤥ꤭ꤋꤢꤩ꤭": 4364,
      "ꤒꤥ꤭ꤏꤣꤧ": 4365,
      "ꤓꤝꤢ꤭ꤊꤣꤧ꤭": 4366,
      "ꤓꤝꤢ꤭ꤘꤢꤦ꤬": 4367,
      "ꤞꤤꤑꤢꤩ꤭ꤒꤢꤩ꤬": 4368,
      "ꤢ꤬ꤜꤤ": 4369,
      "꤯”)": 4370,
      "ꤠꤤ꤭ꤖꤢꤨ": 4371,
      "ꤠꤤ꤭ꤒꤣ꤬ꤠꤤ꤭": 4372,
      "ꤠꤤ꤭ꤢ꤬ꤞꤢꤩ꤬": 4373,
      "ꤠꤤ꤭ꤘꤢꤩ꤬": 4374,
      "ꤠꤤ꤭ꤙꤢ꤬ꤙꤢꤨ꤬ꤜꤥ꤬": 4375,
      "ꤠꤤ꤭ꤖꤤꤜꤤ꤬ꤕꤤ꤬": 4376,
      "ꤘꤢꤧ꤬ꤊꤣꤧ꤭": 4377,
      "ꤘꤢꤧ꤬ꤡ꤫ꤢꤧ꤬": 4378,
      "ꤘꤢꤧ꤬ꤜꤥ꤭ꤓꤢꤧ꤬": 4379,
      "ꤕꤢ꤬ꤔꤢꤧ꤭": 4380,
      "ꤗꤢꤩ꤬ꤒꤢꤩ꤭ꤚꤣꤧ꤬": 4381,
      "ꤍ꤫ꤥ꤬ꤟꤢꤩ꤬": 4382,
      "ꤔꤢꤪ꤭ꤊꤢ꤬": 4383,
      "ꤔꤢꤪ꤭ꤏꤢꤪ꤭": 4384,
      "ꤔꤢꤪ꤭ꤞꤢꤨ꤭ꤡꤝꤢ": 4385,
      "ꤔꤢꤪ꤭ꤓꤢꤨ꤬ꤞꤢꤩꤚꤣꤧ": 4386,
      "ꤔꤢꤪ꤭ꤕꤣꤚꤣꤧ": 4387,
      "ꤜꤣꤧ꤬ꤕꤢꤪ꤬": 4388,
      "ꤜꤣꤧ꤬ꤠꤢꤪ꤭": 4389,
      "ꤋꤛꤢ꤭ꤟꤣꤧ": 4390,
      "ꤖꤢꤩ꤭ꤢ꤬ꤜꤢ꤬": 4391,
      "ꤗꤢꤧꤓ꤫ꤣ꤬": 4392,
      "ꤗꤢꤧꤓꤣꤧ꤭ꤊꤣꤧ꤭": 4393,
      "ꤊꤢ꤬ꤜꤢꤪ꤭": 4394,
      "ꤛ꤫ꤢꤦ꤬ꤢꤩ꤬ꤜꤢꤧ꤬": 4395,
      "ꤗꤥ꤬ꤔꤢꤧ꤬ꤡꤣꤧ": 4396,
      "ꤒ꤫ꤥ꤬ꤒꤥ꤬": 4397,
      "ꤒ꤫ꤥ꤬ꤒꤣ꤬ꤒ꤫ꤥ꤬": 4398,
      "ꤜ꤫ꤢꤩ꤬ꤡꤢꤧ꤬ꤒꤥ꤭ꤙꤢꤩ꤬ꤒꤢꤩ꤬": 4399,
      "ꤜ꤫ꤢꤩ꤬ꤏꤢꤦꤢꤦ꤭": 4400,
      "ꤜ꤫ꤢꤩ꤬ꤛ꤫ꤤ꤬": 4401,
      "ꤜ꤫ꤢꤩ꤬ꤒꤣꤧ꤬ꤖꤢꤪ꤭": 4402,
      "ꤜ꤫ꤢꤩ꤬ꤞꤤꤛ꤫ꤢꤪ꤬ꤞꤤꤙꤤ꤭": 4403,
      "ꤊ꤫ꤢꤩ꤬ꤊ꤫ꤢꤨ꤬": 4404,
      "ꤊ꤫ꤢꤩ꤬ꤒꤣ꤬ꤊ꤫ꤢꤩ꤬": 4405,
      "ꤓꤣꤧ꤭ꤘꤢꤨ꤬ꤓꤢꤧ꤬": 4406,
      "ꤓꤣꤧ꤭ꤞꤤꤖꤚ꤫ꤢꤩ꤬": 4407,
      "ꤒꤣꤧ꤬ꤔꤥ": 4408,
      "ꤕ꤫ꤥ꤬ꤗ꤫ꤢꤧ꤬": 4409,
      "ꤕ꤫ꤥ꤬ꤔꤢꤧꤗ꤫ꤢꤧ꤬": 4410,
      "ꤡ꤫ꤢꤩ꤬ꤟꤢꤩꤙꤢꤩ꤬ꤗꤥ꤬": 4411,
      "ꤒꤣ꤬ꤖꤢꤧ꤭": 4412,
      "ꤕꤝꤢ꤭ꤒꤣ꤬ꤗꤢꤨ꤬": 4413,
      "ꤕꤝꤢ꤭ꤒꤣ꤬ꤊ꤫ꤢꤩ꤬": 4414,
      "ꤕꤝꤢ꤭ꤒꤣ꤬ꤗ꤫ꤥ꤬": 4415,
      "ꤟꤢꤩꤏꤥ꤬ꤡꤢꤪꤡꤢꤪ": 4416,
      "ꤋꤢꤩ꤭ꤠꤢꤪ꤬": 4417,
      "ꤓꤥ꤭ꤟꤣꤧꤔꤣꤧ꤬": 4418,
      "ꤟꤢꤩꤙꤢꤩ꤬ꤓꤥ꤭": 4419,
      "ꤟꤢꤩꤙꤢꤩ꤬ꤕꤜꤥ꤭": 4420,
      "ꤟꤢꤩꤙꤢꤩ꤬ꤡ꤫ꤢꤩ꤬ꤟꤢꤩꤙꤢꤩ꤬ꤗꤥ꤬": 4421,
      "ꤏꤢꤕ꤫ꤢꤩ꤬": 4422,
      "ꤛꤥ꤬ꤥ꤬": 4423,
      "ꤊꤢꤨ꤬ꤊꤜꤢꤪꤛ꤫ꤢꤧ꤬ꤛꤥ꤬": 4424,
      "ꤢ꤬ꤔ꤫ꤢꤩ꤬ꤔꤣꤧ꤬": 4425,
      "ꤢ꤬ꤔ꤫ꤢꤩ꤬ꤜꤥ꤬": 4426,
      "ꤖꤛꤢꤊꤢꤧ꤭": 4427,
      "ꤖꤛꤢꤚꤣꤧ": 4428,
      "ꤖꤛꤢꤓꤢꤩ꤬": 4429,
      "ꤖꤛꤢꤊꤢ꤬ꤋꤛꤢ꤭": 4430,
      "ꤖꤛꤢꤖꤢꤩ꤬": 4431,
      "ꤖꤛꤢꤓꤢꤩ꤬ꤊꤢꤧ꤭": 4432,
      "ꤖꤛꤢꤖꤢꤨꤖꤛꤢ": 4433,
      "ꤙꤢꤩ꤭ꤊꤢꤨ꤭": 4434,
      "ꤙꤢꤩ꤭ꤖꤢꤩ": 4435,
      "ꤋꤢꤧꤕ꤫ꤢꤩ꤬": 4436,
      "ꤋꤢꤧꤙꤤ": 4437,
      "ꤊꤢ꤬ꤋꤛꤢ꤭ꤡ꤫ꤢꤧ꤬": 4438,
      "ꤙꤣꤧꤔꤣꤧ꤬ꤒꤣ꤬ꤖꤥ꤬": 4439,
      "ꤙꤢꤩꤊꤢꤧ꤭": 4440,
      "ꤒꤢꤩ꤬ꤞꤢꤦꤔꤣꤧ꤬": 4441,
      "ꤚꤢꤧꤒꤥ꤬": 4442,
      "ꤓꤝꤢ꤭ꤓꤢꤧ꤬ꤘꤢꤦ꤬": 4443,
      "ꤒꤣꤧ꤬ꤔꤢꤩ꤬ꤜꤢꤧ꤬": 4444,
      "ꤒꤣꤧ꤬ꤔꤢꤩ꤬ꤒ꤫ꤥ꤬": 4445,
      "ꤟꤤ꤬ꤔꤢꤧ": 4446,
      "ꤜꤤ꤬ꤋꤢꤧꤟꤢꤩꤏꤥ꤬ꤜꤥ꤭ꤒꤢꤩ꤬": 4447,
      "ꤊꤝꤤ꤭ꤢꤩ꤬": 4448,
      "ꤜꤥ꤬ꤊꤣꤧ꤬ꤘꤢ꤭": 4449,
      "ꤒ꤫ꤣ꤬ꤟꤣꤧ": 4450,
      "ꤋꤛꤢ꤭ꤞꤢꤧꤟꤣꤧ": 4451,
      "ꤞꤢꤪ꤬ꤚꤝ꤫ꤤ꤬": 4452,
      "ꤒꤣ꤬ꤖꤥꤖꤢꤧ": 4453,
      "ꤒꤣ꤬ꤖꤥꤋꤢꤩ꤭": 4454,
      "ꤒꤣ꤬ꤖꤥꤖꤥ": 4455,
      "ꤜꤢꤨ꤬ꤓꤥ꤭ꤜꤢꤨ꤬": 4456,
      "ꤋꤚꤝꤢ꤭ꤖꤢꤩ꤬": 4457,
      "ꤋꤚꤝꤢ꤭ꤕꤜꤢꤨ꤬": 4458,
      "ꤋꤚꤝꤢ꤭ꤗꤢꤧꤙꤢꤦ꤭": 4459,
      "ꤒꤢꤧ꤭ꤓꤢꤧ꤬": 4460,
      "ꤜꤢ꤬ꤊꤢꤪ꤬": 4461,
      "ꤗꤤ꤬ꤊꤜꤢꤩ꤭": 4462,
      "ꤢ꤬ꤊꤢꤧ꤭ꤙꤥ꤭": 4463,
      "ꤡꤝꤢꤩ꤭": 4464,
      "ꤞꤥ꤭ꤗꤢꤩ꤭": 4465,
      "ꤞꤥ꤭ꤘꤥ꤭": 4466,
      "ꤞꤥ꤭ꤜꤝꤤ꤭": 4467,
      "ꤞꤥ꤭ꤒꤢ꤭ꤊꤢꤧ꤭": 4468,
      "ꤔ꤫ꤤ꤬ꤟꤥ꤭ꤊꤣꤧ꤭": 4469,
      "ꤋꤚꤢꤦ꤭ꤗꤢꤩ꤬": 4470,
      "ꤥ꤬ꤞꤣꤧ꤭ꤖꤚꤢꤩ꤬ꤙꤢꤩ": 4471,
      "ꤒꤢꤩ꤬ꤞꤤꤤ꤬ꤏꤢꤩ꤭": 4472,
      "ꤒꤢꤩ꤬ꤞꤤꤛ꤫ꤢꤪ꤬ꤞꤤꤙꤤ꤭": 4473,
      "ꤣꤧ꤭ꤒꤣ꤬ꤊꤛꤢ꤭": 4474,
      "ꤘꤢꤧꤗꤢꤧ": 4475,
      "ꤘꤢꤧꤗꤣꤧ꤬ꤓ꤫ꤣꤧ꤬ꤛꤥ꤬": 4476,
      "ꤘꤣꤧꤟꤣꤧ꤭ꤜꤢꤧ꤬": 4477,
      "ꤘꤣꤧꤟꤣꤧ꤭ꤏꤢꤦ꤬": 4478,
      "ꤚꤢ꤭ꤥ꤬ꤊꤢꤧ꤭": 4479,
      "ꤢ꤬ꤚꤤ꤬ꤢ꤬ꤊꤢꤧ꤭ꤣꤧ꤭": 4480,
      "ꤊꤜꤢꤧꤓꤢꤦ꤭": 4481,
      "ꤘꤣꤧꤡꤢ꤭ꤊꤢꤧ꤭": 4482,
      "ꤘꤣꤧꤡꤢ꤭ꤡꤢ꤭": 4483,
      "ꤒ꤫ꤣ꤬ꤊꤣꤧ꤭ꤘꤢꤦ꤬": 4484,
      "ꤜ꤫ꤥ꤬ꤘꤣꤧ": 4485,
      "ꤔꤣꤧ꤬ꤒꤣ꤬ꤊꤢꤨ꤭": 4486,
      "ꤔꤣꤧ꤬ꤒꤣ꤬ꤞꤢꤩ꤭": 4487,
      "ꤡꤢꤦ꤬ꤒꤢ꤭": 4488,
      "ꤓꤢꤨ꤭ꤜꤣ": 4489,
      "ꤕꤜꤝꤢ꤭ꤗꤢꤩ꤬": 4490,
      "ꤚꤤꤛꤢ꤬": 4491,
      "ꤚ꤫ꤥ꤬ꤢꤩ": 4492,
      "ꤒꤣ꤬ꤖꤥ꤬ꤗꤢ꤬": 4493,
      "ꤜ꤫ꤢꤪ꤬ꤊꤢꤨ꤭": 4494,
      "ꤜ꤫ꤢꤪ꤬ꤖꤚꤥ꤬": 4495,
      "ꤜ꤫ꤢꤪ꤬ꤞꤢꤨ": 4496,
      "ꤜ꤫ꤢꤪ꤬ꤙꤢꤨ꤭": 4497,
      "ꤒꤣꤧ꤬ꤜꤥ": 4498,
      "ꤜ꤫ꤢꤩ꤬ꤥ꤬ꤚꤣꤧ": 4499,
      "ꤜ꤫ꤢꤩ꤬ꤥ꤬ꤠꤢ": 4500,
      "ꤢ꤬ꤊꤜꤢꤩ꤭ꤔꤣꤧ꤬ꤗꤢ꤬": 4501,
      "ꤚ꤫ꤣꤧ꤬ꤟꤣꤧ": 4502,
      "ꤖꤥꤏꤣꤧ": 4503,
      "ꤢ꤬ꤞꤤꤕꤜꤢꤪ꤬ꤊꤢꤨ꤭": 4504,
      "ꤒꤣꤧ꤬ꤠꤢ꤬ꤙꤤ": 4505,
      "ꤘꤣꤧꤒꤢ꤭ꤜꤢꤪ꤭": 4506,
      "ꤞꤤꤔꤣꤧ꤭ꤜꤢꤪ꤭": 4507,
      "ꤘꤢꤨ꤬ꤜꤣꤢꤨ꤭": 4508,
      "ꤋꤤꤛꤣ꤬": 4509,
      "ꤥ꤬ꤊꤢꤧ꤭ꤣꤧ꤭": 4510,
      "ꤥ꤬ꤊꤢꤧ꤭ꤔ꤫ꤤ꤬": 4511,
      "ꤖꤢꤦ꤬ꤞꤣꤧ꤭": 4512,
      "ꤖꤢꤦ꤬ꤟꤢꤧ꤭ꤟꤣꤧ": 4513,
      "ꤊꤢꤨꤋꤢꤨ꤬ꤜꤥ꤬": 4514,
      "ꤑꤢ꤭ꤟꤣꤧ": 4515,
      "ꤞꤥ꤭ꤞꤝꤢꤒꤣ꤬ꤗꤢꤨ꤬": 4516,
      "ꤕꤥ꤬ꤟꤣꤧ": 4517,
      "ꤒꤣꤧ꤬ꤠꤢ꤬ꤜꤢꤪ꤭": 4518,
      "ꤒꤣꤧ꤬ꤜꤝꤢꤙꤢꤩ": 4519,
      "ꤕ꤫ꤢꤩ꤬ꤊꤣꤧ꤭ꤕ꤫ꤥ꤬": 4520,
      "ꤜꤣꤧ꤬ꤟꤥ꤭ꤢꤩ꤬": 4521,
      "ꤒꤣꤧ꤬ꤕꤜꤢꤩ꤬ꤜꤢ꤭ꤒꤢꤩ꤬": 4522,
      "ꤏꤥ꤬ꤊꤜꤢꤩ꤭": 4523,
      "ꤢ꤬ꤞꤢꤩ꤭ꤣꤧ꤭": 4524,
      "ꤖꤢꤨꤖꤚꤢꤩ꤬ꤋꤢꤨ꤭ꤣꤧ꤭": 4525,
      "ꤕꤜꤝꤢ꤭ꤊꤢꤧ꤭ꤙꤢꤩ": 4526,
      "ꤢ꤬ꤟꤤ꤬ꤢ꤬ꤖꤢꤧ꤭": 4527,
      "ꤗꤢꤩ꤬ꤞꤢꤦꤟꤣꤧ": 4528,
      "ꤕꤣꤧ꤬ꤒꤤꤒꤣꤧ꤬ꤘꤢꤦ꤬": 4529,
      "ꤒꤢꤩ꤬ꤥ꤬ꤠꤤ꤭ꤥ꤬ꤊꤢꤪ꤭": 4530,
      "ꤕꤝꤢꤩ꤬ꤊꤢꤨ꤭": 4531,
      "ꤕꤝꤢꤩ꤬ꤘꤢꤨ꤬": 4532,
      "ꤢ꤬ꤜꤣꤧ꤬ꤢ꤬ꤜꤝ꤫ꤢ꤬": 4533,
      "ꤒꤣ꤬ꤊꤛꤢ꤭ꤔꤣꤧ꤬": 4534,
      "ꤊꤜꤢꤧ꤬ꤖꤚꤢꤧ꤭": 4535,
      "ꤡꤢꤪ꤭ꤡꤝꤢ": 4536,
      "ꤟꤤ꤬ꤓꤢꤦ꤬ꤊꤢꤧ꤭ꤘꤢꤩ꤭": 4537,
      "ꤡꤝꤢꤒ꤫ꤥ꤬ꤟꤣꤧ": 4538,
      "ꤊꤢꤦ꤭ꤓꤢꤧ꤬": 4539,
      "ꤡꤢꤨꤘꤢꤦ꤬": 4540,
      "ꤓꤢꤪꤔ꤫ꤤ꤬": 4541,
      "ꤓꤢꤪꤛꤢꤩ꤭": 4542,
      "ꤏꤛꤤꤛꤢ꤬": 4543,
      "ꤒꤢꤩ꤬ꤏꤢꤪ꤭ꤚꤤ꤬ꤏꤢꤪ꤭ꤙꤢꤨ꤭": 4544,
      "ꤥ꤬ꤕꤜꤢꤪꤜꤢꤪ꤭": 4545,
      "ꤜ꤫ꤢꤩ꤬ꤊꤜꤥ꤭ꤜꤣꤧ꤬": 4546,
      "ꤥ꤬ꤗꤣꤧ꤭ꤔ꤫ꤤ꤬": 4547,
      "ꤕꤜꤢꤨ꤬ꤖꤢꤩ꤬": 4548,
      "ꤗꤢꤦ꤬ꤊꤢꤧ꤭": 4549,
      "ꤔꤢꤪ꤭ꤡꤝꤢꤢꤩ": 4550,
      "ꤊꤢꤧꤜꤢ꤬ꤜꤤ꤬ꤊ꤫ꤢꤩ꤬ꤊꤢꤨ꤭": 4551,
      "ꤒꤢꤩ꤬ꤒꤣꤧ꤬ꤚꤣꤧ꤭ꤖꤚꤥ꤬ꤖꤚꤢꤧ꤬": 4552,
      "ꤞꤢꤨ꤭ꤡꤝꤢꤚꤣꤧ": 4553,
      "ꤞꤢꤪ꤬ꤊꤜꤣꤧ꤭ꤘꤢꤨ꤬ꤣꤧ꤭": 4554,
      "ꤞꤥ꤬ꤋꤚꤢꤩ꤭": 4555,
      "ꤏꤣꤧ꤭ꤜꤝꤤ꤭ꤞꤝꤢ": 4556,
      "ꤙꤢꤨ꤭ꤘꤢꤨ꤬": 4557,
      "ꤊꤢꤪ꤬ꤜꤢ꤬ꤊꤢꤪ꤬": 4558,
      "ꤍꤢꤧ꤭ꤖꤚꤢꤩ꤬": 4559,
      "ꤒꤣ꤬ꤗꤢꤨ꤬ꤘꤢꤨ꤬": 4560,
      "ꤢ꤬ꤊꤢꤨꤔꤢꤪ꤭": 4561,
      "ꤣꤧ꤭ꤒꤣ꤬ꤙꤢ꤬ꤔꤣꤧ꤬": 4562,
      "ꤡꤝꤢꤞꤢꤦꤡꤝꤢꤕꤜꤢ": 4563,
      "ꤢ꤬ꤋꤚꤝꤢ꤭": 4564,
      "ꤢꤩꤗꤥ꤬ꤏꤢꤦ꤬ꤚꤢꤧ": 4565,
      "ꤞꤤ꤭ꤑꤢꤩ꤭ꤔꤣꤧ꤬": 4566,
      "ꤡꤝꤤ꤬ꤓꤢꤧ꤬": 4567,
      "ꤡꤝꤤ꤬ꤡꤝꤢ": 4568,
      "ꤡꤝꤤ꤬ꤒꤣꤧ꤬ꤚ꤫ꤢꤨ꤬": 4569,
      "ꤒꤣ꤬ꤙꤢ꤬ꤔꤣꤧ꤬": 4570,
      "ꤒꤣ꤬ꤙꤢ꤬ꤜꤢꤪ꤭": 4571,
      "ꤢ꤬ꤜꤢꤩ꤭ꤔꤣꤧ꤬": 4572,
      "ꤎꤤ꤬ꤘꤤ": 4573,
      "ꤚ꤫ꤢꤩ꤬ꤋꤢꤨ꤬": 4574,
      "ꤞꤤꤕꤜꤢꤪ꤬ꤥ꤬ꤚꤣꤧ": 4575,
      "ꤟꤢꤩꤓꤥ꤭ꤟꤢꤩꤜꤢꤧ꤬": 4576,
      "ꤗꤢꤩ꤬ꤕ꤫ꤢꤩ꤬ꤒꤢꤩ꤬": 4577,
      "ꤟꤢꤩꤒꤢ꤭ꤒꤢ꤭": 4578,
      "ꤊꤢꤦ꤭ꤞꤢꤧꤔ꤫ꤤ꤬": 4579,
      "ꤛꤢꤧꤟꤢꤧ꤭ꤔ꤫ꤤ꤬": 4580,
      "ꤗꤢꤩ꤬ꤓꤥ꤭ꤜꤢꤪ꤭ꤟꤣꤧ": 4581,
      "ꤊꤢꤪꤊꤜꤢꤪ꤭ꤊꤢꤧ꤭": 4582,
      "ꤤ꤬ꤊꤢꤩ꤭ꤞꤢꤩ꤭": 4583,
      "ꤤ꤬ꤊꤢꤩ꤭ꤙꤢ꤬ꤘꤢꤨ꤬": 4584,
      "ꤓꤣꤧ꤭ꤛꤢꤧ꤭ꤞꤢꤩ꤭": 4585,
      "ꤚꤢ꤭ꤗꤢꤊꤢꤧ꤭": 4586,
      "ꤊꤣꤧ꤭ꤕ꤫ꤥ꤬ꤘꤢꤦ꤬": 4587,
      "ꤔꤣꤧ꤬ꤒꤣ꤬ꤗꤢꤩ꤭ꤔꤣꤧ꤬": 4588,
      "ꤗꤢ꤭ꤘꤥ꤬": 4589,
      "ꤗꤢꤧꤘꤢꤨ꤬ꤗꤢꤧꤕꤣꤧ꤬ꤒꤤ": 4590,
      "ꤥ꤬ꤒ꤫ꤣ꤬ꤥ꤬ꤕꤜꤢꤪ": 4591,
      "ꤥ꤬ꤚ꤫ꤥ꤬ꤓꤢꤧ꤬": 4592,
      "ꤞꤤꤖꤚꤢꤜꤣꤧ꤬ꤘꤢꤧ": 4593,
      "ꤒ꤫ꤢ꤬ꤞꤣꤧ꤭": 4594,
      "ꤒꤢꤩ꤬ꤞꤤꤛꤢꤪ꤬ꤚꤣꤧ": 4595,
      "ꤡꤢ꤬ꤡꤝꤢ꤬ꤓꤢꤨ꤭": 4596,
      "ꤕꤣꤧ꤬ꤏꤤ꤭ꤡꤝꤢ": 4597,
      "ꤢ꤬ꤔꤥ꤬ꤒꤣ꤬ꤚꤥ꤭": 4598,
      "ꤓꤝꤤꤜꤢꤧ꤬": 4599,
      "ꤋꤢꤨ꤭ꤢꤩꤎ": 4600,
      "ꤋꤢꤨ꤭ꤢꤩꤔꤢꤪ꤬": 4601,
      "ꤖꤚꤢꤩ꤬ꤥ꤬ꤕ꤫ꤢꤪ꤬ꤢ꤬ꤕꤥ꤬": 4602,
      "ꤔꤢꤪ꤭ꤏꤝꤢ꤬ꤔꤢꤪ꤭ꤏꤢꤪ꤭": 4603,
      "ꤏꤤ꤬ꤜꤥꤊꤢꤧ꤭": 4604,
      "ꤊꤣꤧ꤬ꤘꤝꤤꤞꤢꤩ꤬": 4605,
      "ꤊꤢꤨꤜꤢꤩ꤬ꤊꤥ꤬ꤘꤥ꤭": 4606,
      "ꤢ꤬ꤕꤜꤢꤪꤢ꤬ꤗꤢꤨ꤬ꤊꤢꤨ꤭": 4607,
      "ꤒꤢꤩ꤬ꤓꤝꤢ꤭ꤓꤢꤧ꤬ꤢ꤬ꤔ꤫ꤢꤩ꤬": 4608,
      "ꤓꤢꤦꤗꤢꤧ": 4609,
      "ꤗ꤫ꤢ꤬ꤟꤢꤧ꤭ꤢꤩ꤬": 4610,
      "ꤜꤣꤧ꤬ꤘꤢꤧꤢꤩ꤬ꤜꤣꤧ꤬ꤘꤢꤧꤥ꤭": 4611,
      "ꤏꤢꤩꤖꤢꤩ꤬": 4612,
      "ꤕꤤ꤭ꤜꤥ": 4613,
      "ꤒꤥ꤭ꤗꤢꤚꤣꤧ": 4614,
      "ꤊꤤꤊꤢꤨ": 4615,
      "ꤓꤢꤧ꤭ꤚꤢꤧ": 4616,
      "ꤜ꤫ꤢꤩ꤬ꤗꤣꤧ꤭ꤊꤢꤨ꤭": 4617,
      "ꤎꤢ꤬ꤕꤛꤤꤖꤢꤩ꤬ꤙꤢꤧ꤬ꤡꤢꤩ꤬": 4618,
      "ꤥ꤬ꤞꤥ꤬ꤥ꤬ꤋꤚꤢꤩ꤭": 4619,
      "ꤥ꤬ꤞꤥ꤬ꤒꤣꤧ꤬ꤋꤚꤢꤦ": 4620,
      "ꤙꤢ꤬ꤙꤢꤨ꤬ꤜꤥ꤬ꤊ꤫ꤢꤩ꤬": 4621,
      "ꤊꤜꤝꤢꤗꤢꤩ꤬": 4622,
      "ꤙꤢꤧꤕꤜꤤ꤭ꤓꤢꤨ꤭": 4623,
      "ꤤ꤬ꤔꤢꤨꤓꤣꤧ꤭": 4624,
      "ꤠꤤ꤭ꤢꤨ꤭ꤘꤢꤨ꤬": 4625,
      "ꤓꤢꤨ꤬ꤜꤢꤪ꤭ꤙꤤ": 4626,
      "ꤟꤣꤧ꤬ꤡꤢ꤬ꤜꤣꤧ꤬": 4627,
      "ꤠꤢꤦꤠ꤫ꤢꤧ꤬": 4628,
      "ꤊꤢꤨꤜ꤫ꤤ꤬ꤜꤢꤩ꤭": 4629,
      "ꤊꤢꤨꤜ꤫ꤤ꤬ꤊꤣꤧ꤬ꤢꤪ꤭": 4630,
      "ꤗꤢꤧ꤬ꤢꤪꤜ꤫ꤢꤧ꤬ꤖꤢꤨ": 4631,
      "ꤚ꤫ꤢꤧ꤬ꤓꤢꤧ꤬": 4632,
      "ꤡ꤫ꤢꤪ꤬ꤒꤢ꤭ꤒꤢꤦ꤭ꤙꤤ": 4633,
      "ꤒꤣꤧ꤬ꤖꤚꤢꤨ": 4634,
      "ꤞꤤ꤭ꤖꤢꤨꤞꤤ꤭ꤜꤣꤧ꤬": 4635,
      "ꤊꤜꤥ꤬ꤜ꤫ꤢꤩ꤬ꤗꤣꤧ꤭": 4636,
      "ꤢ꤬ꤛꤢꤨ꤭ꤜꤣ": 4637,
      "ꤒꤢꤩ꤬ꤊꤛꤢꤒꤢꤩ꤬ꤒꤣꤧ꤬ꤍꤢ꤭": 4638,
      "ꤔꤢꤧ꤬ꤗ꤫ꤥ꤬ꤔꤢꤧ꤬ꤖꤢꤩ꤭": 4639,
      "ꤗ꤫ꤥ꤬ꤘꤢꤪ꤭ꤓꤢꤧ꤬": 4640,
      "ꤗꤤ꤬ꤞꤢꤩ꤬ꤗ꤫ꤢꤪ꤬": 4641,
      "ꤏꤥ꤭ꤚꤢꤧ꤬ꤏꤥ꤭ꤖꤢꤖꤢꤨ": 4642,
      "ꤞꤢꤧ꤭ꤚꤢꤧ꤭ꤏꤢ꤭ꤖꤚ꤫ꤢꤩ꤬": 4643,
      "ꤘꤢꤩꤜꤢꤧ꤬": 4644,
      "ꤥ꤬ꤥꤥ꤬ꤙꤤ": 4645,
      "ꤒꤣꤧ꤬ꤜꤤ꤭ꤙꤢꤧ꤭": 4646,
      "ꤓꤣꤧ꤭ꤚꤥ꤬ꤊ꤫ꤢꤩ꤬ꤊꤜꤢꤪ꤭ꤖꤢꤨ": 4647,
      "ꤓꤣꤧ꤭ꤥ꤭ꤖꤢꤜꤣꤧ꤬": 4648,
      "ꤕꤤ꤬ꤎꤤ꤬ꤘꤤ": 4649,
      "ꤖꤚꤢꤩ꤬ꤕ꤫ꤢꤦ꤬ꤖꤢꤩ꤬ꤛꤢꤩꤕꤜꤢꤩꤢꤩ꤬": 4650,
      "ꤋꤢꤨ꤭ꤛꤥ꤬ꤎꤢꤩ": 4651,
      "ꤕꤜ꤫ꤢꤩ꤬ꤕꤜꤤ꤭ꤊꤢꤧ꤭": 4652,
      "ꤢ꤬ꤕꤝꤤ꤬": 4653,
      "ꤒꤢꤩ꤬ꤕꤣꤢ꤬ꤜꤢꤩ꤭": 4654,
      "ꤟꤢꤧ꤭ꤏꤝꤢ꤬ꤚꤢꤩ꤬": 4655,
      "ꤟꤢꤧ꤭ꤚ꤫ꤥ꤬ꤟꤢꤧ꤭ꤢꤩ": 4656,
      "ꤜ꤫ꤢꤪ꤬ꤞꤢꤩꤜ꤫ꤢꤪ꤬ꤖꤚꤥ꤬": 4657,
      "ꤒꤢꤩ꤬ꤥ꤬ꤜꤣꤥ꤬ꤊꤜꤢꤪ꤭": 4658,
      "ꤢ꤬ꤗꤤ꤭ꤗꤤ꤭": 4659,
      "ꤥ꤬ꤏꤝꤢ꤬ꤥ꤬ꤖꤚꤢꤧ꤭": 4660,
      "ꤒꤣꤧ꤬ꤢꤩ꤬ꤘꤢꤨ꤬": 4661,
      "ꤒꤢꤩ꤬ꤊ꤫ꤢꤨ꤬ꤒꤢꤩ꤬ꤊꤢꤧ꤭": 4662,
      "ꤔꤢꤪ꤭ꤗꤢꤧꤔꤢꤪ꤭": 4663,
      "ꤞꤢꤪ꤬ꤒꤢꤪ꤭ꤗ꤫ꤢꤪ꤬": 4664,
      "ꤢꤩ꤬ꤚ꤫ꤥ꤬ꤥ꤭ꤚ꤫ꤥ꤬ꤜꤢꤨ꤭": 4665,
      "ꤛ꤫ꤥ꤬ꤓꤢꤨ꤬": 4666,
      "ꤢ꤬ꤕ꤫ꤢꤧ꤬ꤢ꤬ꤏꤢꤩ꤭": 4667,
      "ꤖꤚꤢꤩ꤬ꤟꤢꤧ꤭ꤢꤩ꤬ꤊꤢꤨꤊꤜꤢꤩ꤭": 4668,
      "ꤊꤣꤧ꤬ꤜ꤫ꤣꤧ꤬": 4669,
      "ꤔꤢꤧ꤬ꤓꤣꤧ꤭ꤔꤢꤧ꤬ꤊ꤫ꤢꤩ꤬": 4670,
      "ꤡꤝꤢꤊꤢ꤬ꤡꤝꤢꤟꤢꤧ꤭": 4671,
      "ꤋꤢꤨ꤭ꤖꤤꤜꤢ꤬ꤗꤥ꤬": 4672,
      "ꤘꤣꤔꤢꤨ꤬ꤘꤣꤞꤢ꤬ꤋꤢꤩ꤭": 4673,
      "ꤠꤢꤧ꤭ꤕ꤫ꤥ꤬ꤠꤢꤧ꤭ꤗ꤫ꤢꤧ꤬": 4674,
      "ꤋꤢꤨ꤭ꤢ꤬ꤚꤤꤎꤢ꤬ꤒꤢ꤬ꤊꤢꤨ": 4675,
      "ꤡꤝꤤꤥ꤭": 4676,
      "ꤢꤩꤗꤤ꤭ꤢꤩꤡꤣ꤬": 4677,
      "ꤢꤩ꤬ꤒꤢꤦ꤭ꤥ꤭ꤒꤢꤦ꤭": 4678,
      "ꤢ꤬ꤡꤣ꤬ꤡꤣ꤬": 4679,
      "ꤢ꤬ꤕꤛꤢꤢ꤬ꤜ꤫ꤢꤨ꤬": 4680,
      "ꤢ꤬ꤔ꤫ꤥ꤬ꤢ꤬ꤏꤢꤨ꤬": 4681,
      "ꤥ꤬ꤚꤢꤪ꤬ꤥ꤬ꤚꤢꤩ꤭": 4682,
      "ꤢꤨ꤭ꤗ꤫ꤥ꤬ꤢꤨ꤭ꤖꤢꤩ꤭": 4683,
      "ꤒꤢꤩ꤬ꤏꤝꤢ꤬ꤒꤢꤩ꤬ꤏꤢꤪ꤭": 4684,
      "ꤞꤤ꤭ꤊꤛꤢꤞꤤ꤭": 4685,
      "ꤋꤢꤨ꤭ꤞꤢꤧꤋꤤꤛꤣ꤬": 4686,
      "ꤋꤢꤨ꤭ꤒꤢꤨꤊꤤꤊꤢꤨ": 4687,
      "ꤒꤥ꤭ꤏꤣꤧꤒꤥ꤭ꤋꤢꤩ꤭": 4688,
      "ꤠꤤ꤭ꤘꤢꤩ꤬ꤙꤢꤩ꤬": 4689,
      "ꤖꤢꤩ꤭ꤢ꤬ꤜꤢ꤬ꤖꤢꤧ": 4690,
      "ꤋꤢꤩ꤭ꤠꤢꤪ꤬ꤊꤢꤧ꤭": 4691,
      "ꤜꤢꤨ꤬ꤓꤥ꤭ꤜꤢꤨ꤬ꤜꤢꤧ꤬": 4692,
      "ꤋꤚꤝꤢ꤭ꤕꤜꤢꤨ꤬ꤋꤚꤝꤢ꤭ꤖꤢꤩ꤬": 4693,
      "ꤊꤢꤪ꤬ꤜꤢ꤬ꤊꤢꤪ꤬ꤞꤢ": 4694,
      "ꤋꤣꤧ꤬": 4695,
      "ꤋꤢ꤬": 4696,
      "ꤋꤢꤨ": 4697,
      "ꤋꤤ꤭": 4698,
      "ꤋꤢ꤬ꤔꤢ꤬": 4699,
      "ꤏꤛꤥ꤬": 4700,
      "ꤒꤢꤪ꤬": 4701,
      "ꤓꤢꤪ꤭": 4702,
      "ꤓꤢ꤬ꤓꤣꤧ꤭": 4703,
      "ꤙꤚꤤ꤬": 4704,
      "ꤝꤥ꤭": 4705,
      "ꤞꤝꤢ꤬": 4706,
      "ꤞꤢ꤬ꤚꤥ꤬": 4707,
      "ꤠꤢ꤭": 4708,
      "ꤠꤢꤩꤖꤢꤨ": 4709,
      "ꤡꤛꤥ꤬": 4710,
      "꤮’": 4711,
      "ꤢꤩꤊꤣꤧ꤭": 4712,
      "ꤢꤩꤜꤢꤩ": 4713,
      "ꤢꤩ꤬ꤗꤢ꤬": 4714,
      "ꤢꤩ꤬ꤊ꤫ꤢꤦ꤬": 4715,
      "ꤢꤩ꤬ꤘꤤ꤭": 4716,
      "ꤢ꤬ꤤ꤬": 4717,
      "ꤢ꤬ꤓꤥ꤭": 4718,
      "ꤢ꤬ꤒꤢ꤭": 4719,
      "ꤢ꤬ꤟꤥ꤭": 4720,
      "ꤢ꤬ꤞꤝꤢ": 4721,
      "ꤢ꤬ꤗꤢꤨꤗ꤫ꤢꤧ꤬": 4722,
      "ꤢ꤬ꤒꤢꤩ꤬ꤞꤝꤢꤒꤢꤩ꤬ꤞꤢꤧ꤬": 4723,
      "ꤢ꤬ꤏꤥ꤭": 4724,
      "ꤢ꤬ꤗꤢꤦ꤭": 4725,
      "ꤢ꤬ꤡꤢꤦ꤬": 4726,
      "ꤢ꤬ꤒꤢ꤭ꤒꤢꤩ꤬": 4727,
      "ꤢ꤬ꤖꤢꤦ꤬": 4728,
      "ꤢ꤬ꤊꤣꤧ꤬ꤘꤢ꤭": 4729,
      "ꤢ꤬ꤗꤤ꤭ꤡꤣ꤬": 4730,
      "ꤢ꤬ꤔꤢꤩ꤬": 4731,
      "ꤢ꤬ꤕꤜꤢꤦ": 4732,
      "ꤢ꤬ꤙꤢꤩ꤭ꤜ꤫ꤢꤪ꤬": 4733,
      "ꤢ꤬ꤒꤣ": 4734,
      "ꤢ꤬ꤘꤢꤪ꤭ꤊꤢꤨ꤭ꤖꤢꤨ": 4735,
      "ꤥ꤬ꤞꤢꤩ꤭": 4736,
      "ꤥ꤬ꤒꤢꤦ": 4737,
      "ꤥ꤬ꤒꤣꤧ꤬ꤖꤢ꤭ꤊꤢꤧ꤭": 4738,
      "ꤥ꤬ꤕꤣꤧ꤬ꤒꤤ": 4739,
      "ꤥ꤬ꤖꤢꤧꤒꤢꤦ": 4740,
      "ꤥ꤬ꤕꤢ꤬ꤖꤢꤧ": 4741,
      "ꤥ꤬ꤖꤚꤢꤩ꤭": 4742,
      "ꤥ꤬ꤊ꤫ꤢ꤬ꤊꤜꤥ꤬": 4743,
      "ꤥ꤬ꤛꤝꤢ꤭": 4744,
      "ꤞꤤꤟꤢꤩ": 4745,
      "ꤞꤤꤛꤣ꤬": 4746,
      "ꤔꤣꤧ꤬ꤔꤣꤧ꤬": 4747,
      "ꤔꤣꤧ꤬ꤒ꤫ꤢꤧ꤬ꤗꤢꤩ꤬": 4748,
      "ꤔꤣꤧ꤬ꤒꤣ꤬ꤖꤢꤩ꤬": 4749,
      "ꤣꤧ꤭ꤢ꤬ꤊꤢꤨ꤭ꤔꤣꤧ꤬": 4750,
      "ꤣꤧ꤭ꤜꤢꤩ": 4751,
      "ꤢꤨ꤭ꤊꤜꤢꤩ꤭": 4752,
      "ꤢꤨ꤭ꤜꤥ꤬": 4753,
      "ꤢꤨ꤭ꤊꤢꤨ꤬ꤋꤣꤧ꤭": 4754,
      "ꤒꤣꤧ꤬ꤔꤢꤧ": 4755,
      "ꤒꤣꤧ꤬ꤚꤢꤧ꤬": 4756,
      "ꤒꤣꤧ꤬ꤕ꤫ꤥ꤬": 4757,
      "ꤒꤣꤧ꤬ꤕ꤫ꤢꤪ꤬": 4758,
      "ꤒꤣꤧ꤬ꤖꤚꤢꤧ꤬": 4759,
      "ꤒꤣꤧ꤬ꤋꤝꤢ": 4760,
      "ꤒꤣꤧ꤬ꤏꤤ": 4761,
      "ꤒꤣꤧ꤬ꤋꤣꤧ꤬": 4762,
      "ꤘꤣꤘꤢꤪ꤭": 4763,
      "ꤘꤣꤏꤥ꤬": 4764,
      "ꤚꤣꤧ꤬ꤘꤢꤦ꤭": 4765,
      "ꤒꤢꤩ꤬ꤟꤢꤩ": 4766,
      "ꤒꤢꤩ꤬ꤡꤝꤢ": 4767,
      "ꤒꤢꤩ꤬ꤞꤢꤧ": 4768,
      "ꤒꤢꤩ꤬ꤏꤢ": 4769,
      "ꤒꤢꤩ꤬ꤟꤢꤨꤣꤧ꤭": 4770,
      "ꤒꤢꤩ꤬ꤣꤧ꤭ꤔꤣꤧ꤬ꤗꤢ꤬": 4771,
      "ꤒꤢꤩ꤬ꤜꤢ꤭ꤒꤢꤩ꤬": 4772,
      "ꤒꤢꤩ꤬ꤒꤣꤧ꤬ꤚꤤ꤬ꤒꤣꤧ꤬ꤚꤢꤧ꤭": 4773,
      "ꤒꤢꤩ꤬ꤏꤥ꤭ꤖꤢꤏꤥ꤭ꤚꤢꤧ꤬": 4774,
      "ꤒꤢꤩ꤬ꤤ꤬ꤚꤥ꤭": 4775,
      "ꤒꤢꤩ꤬ꤘꤢꤧ꤬ꤘꤢꤨ꤬ꤛ꤫ꤢꤦ꤬ꤔ꤫ꤢꤧ꤬": 4776,
      "ꤒꤢꤩ꤬ꤗꤢꤧꤘꤢꤨ꤬": 4777,
      "ꤒꤢꤩ꤬ꤢꤩ꤬ꤗꤢꤦ꤬ꤥ꤭ꤖꤚꤢꤧ": 4778,
      "ꤒꤢꤩ꤬ꤊ꤫ꤤ꤬": 4779,
      "ꤒꤢꤩ꤬ꤙꤢꤧꤞꤝꤢꤋꤢꤩꤋꤥ꤭": 4780,
      "ꤒꤢꤩ꤬ꤊꤢꤨꤠ꤫ꤢ꤬ꤊꤢꤨꤠꤢꤩ꤭": 4781,
      "ꤒꤢꤩ꤬ꤡ꤫ꤢꤪ꤬": 4782,
      "ꤒꤢꤩ꤬ꤕꤣꤧ꤬ꤒꤤꤟꤢꤨ": 4783,
      "ꤞꤤ꤭ꤞꤤ꤭": 4784,
      "ꤞꤤ꤭ꤕ꤫ꤥ꤬": 4785,
      "ꤞꤤ꤭ꤡ꤫ꤢꤦ꤬": 4786,
      "ꤣ꤬ꤚꤢ꤬": 4787,
      "ꤖꤚꤢꤩ꤬ꤡ꤫ꤢꤧ꤬": 4788,
      "ꤖꤚꤢꤩ꤬ꤚꤢ꤭": 4789,
      "ꤖꤚꤢꤩ꤬ꤘꤣꤧꤡꤢ꤭": 4790,
      "ꤖꤚꤢꤩ꤬ꤗꤢꤩ꤬ꤞꤣꤧ꤭": 4791,
      "ꤖꤚꤢꤩ꤬ꤕꤣ": 4792,
      "ꤒꤣꤧ꤬ꤟꤢꤩ꤬ꤖꤢꤧ": 4793,
      "ꤤ꤬ꤓꤢꤩ꤬": 4794,
      "ꤒꤣ꤬ꤕꤝꤢꤩ꤬": 4795,
      "ꤒꤣ꤬ꤏꤣꤧ꤭": 4796,
      "ꤒꤣ꤬ꤊꤝꤢ꤬": 4797,
      "ꤟꤢꤩꤡꤢꤪ": 4798,
      "ꤟꤢꤩꤡꤝꤢ": 4799,
      "ꤟꤢꤩꤔ꤫ꤤ꤬": 4800,
      "ꤟꤢꤩꤣꤧ꤭ꤔꤣꤧ꤬": 4801,
      "ꤟꤢꤩꤜꤤ꤭": 4802,
      "ꤟꤢꤩꤒꤢ꤭ꤊꤢꤧ꤭": 4803,
      "ꤗꤢꤩ꤬ꤚꤣꤧ": 4804,
      "ꤗꤢꤩ꤬ꤞꤢꤧ": 4805,
      "ꤗꤢꤩ꤬ꤒ꤫ꤥ꤬": 4806,
      "ꤗꤢꤩ꤬ꤏꤝꤢ꤬": 4807,
      "ꤗꤢꤩ꤬ꤕꤢꤩ꤭": 4808,
      "ꤗꤢꤩ꤬ꤋꤤ": 4809,
      "ꤗꤢꤩ꤬ꤚ꤫ꤥ꤬ꤜꤢꤨ꤭": 4810,
      "ꤗꤢꤩ꤬ꤜ꤫ꤢ꤬": 4811,
      "ꤗꤢꤩ꤬ꤖꤚꤥ": 4812,
      "ꤗꤢꤩ꤬ꤏꤢꤪ꤭ꤓꤢꤧ꤬": 4813,
      "ꤗꤢꤩ꤬ꤖꤥ꤬": 4814,
      "ꤗꤢꤩ꤬ꤒꤣꤧ꤬ꤗꤝꤤ꤭": 4815,
      "ꤗꤢꤩ꤬ꤞꤝꤢꤩ": 4816,
      "ꤗꤢꤩ꤬ꤗ꤫ꤢꤩ꤬": 4817,
      "ꤗꤢꤩ꤬ꤖꤝꤤ꤭": 4818,
      "ꤛꤢꤩ꤬ꤞꤥ꤭ꤞꤝꤢ": 4819,
      "ꤟꤣꤧꤚꤣꤧ꤬": 4820,
      "ꤠꤢꤧ꤭ꤚꤣꤧ꤬": 4821,
      "ꤠꤢꤧ꤭ꤟꤢꤧ꤭": 4822,
      "ꤠꤢꤧ꤭ꤚꤢꤦ꤭": 4823,
      "ꤠꤢꤧ꤭ꤚꤢꤩ꤬": 4824,
      "ꤜꤢꤪꤗꤢꤧ": 4825,
      "ꤢ꤬ꤋꤤ": 4826,
      "ꤢ꤬ꤋꤢꤧ꤬": 4827,
      "ꤊꤣꤧ꤬ꤒꤢꤨ": 4828,
      "ꤊꤣꤧ꤬ꤒꤢꤩ": 4829,
      "ꤟꤢꤨꤊꤥ꤬": 4830,
      "ꤊ꤫ꤢꤦ꤬ꤕꤢ꤭": 4831,
      "ꤊ꤫ꤢꤦ꤬ꤏꤢ": 4832,
      "ꤊ꤫ꤢꤦ꤬ꤏꤝꤢ꤬": 4833,
      "ꤊ꤫ꤢꤦ꤬ꤗꤢꤦ꤭": 4834,
      "ꤊ꤫ꤢꤦ꤬ꤢꤩ꤬ꤊ꤫ꤢꤦ꤬": 4835,
      "ꤙꤢꤩ꤬ꤞꤣꤧ꤭": 4836,
      "ꤙꤢꤩ꤬ꤜꤢ꤬": 4837,
      "ꤙꤢꤩ꤬ꤕ꤫ꤢꤧ꤬": 4838,
      "ꤛꤢꤩ꤬ꤞꤤ꤭ꤊꤢꤨ꤭": 4839,
      "ꤛꤢꤩ꤬ꤞꤤ꤭ꤋꤢꤨ꤬": 4840,
      "ꤛꤢꤩ꤬ꤞꤤ꤭ꤗꤝꤤ꤭": 4841,
      "ꤊꤣꤧ꤬ꤛꤢꤧ꤭ꤗꤢꤨꤗ꤫ꤢꤧ꤬ꤚꤤ꤬ꤡ꤫ꤢꤧ꤬": 4842,
      "ꤊꤣꤧ꤬ꤛꤢꤧ꤭ꤘꤢꤨ꤬ꤛ꤫ꤢꤧ꤬": 4843,
      "ꤜꤢꤨ꤭ꤜꤢꤨ꤭": 4844,
      "ꤜꤢꤨ꤭ꤋꤢꤨ꤬": 4845,
      "ꤜꤢꤨ꤭ꤔ꤫ꤢꤩ꤬": 4846,
      "ꤜꤢꤨ꤭ꤒꤣꤧ꤬ꤍꤢ꤭": 4847,
      "ꤖꤢꤨꤗꤢꤪ꤬": 4848,
      "ꤕꤢꤩ꤬ꤊ꤫ꤢꤩ꤬": 4849,
      "ꤕꤢꤩ꤬ꤜꤥ꤬": 4850,
      "ꤟꤢꤧ꤭ꤟꤢꤩꤏꤥ꤬": 4851,
      "ꤟꤢꤧ꤭ꤏꤢ": 4852,
      "ꤟꤢꤧ꤭ꤘꤢꤧ": 4853,
      "ꤟꤢꤧ꤭ꤘꤣꤧꤟꤣꤧ꤭": 4854,
      "ꤟꤢꤧ꤭ꤗꤢꤧꤗꤣꤧ꤭": 4855,
      "ꤟꤢꤧ꤭ꤘꤢꤪ꤬": 4856,
      "ꤔꤢꤧ꤬ꤣꤧ꤭": 4857,
      "ꤔꤢꤧ꤬ꤡꤢꤩ꤭": 4858,
      "ꤕꤢ꤭ꤟꤢꤧ꤭": 4859,
      "ꤕꤢ꤭ꤔꤤ": 4860,
      "ꤕꤢ꤭ꤕꤢꤩ꤭": 4861,
      "ꤕꤢ꤭ꤟꤢꤩꤔꤢꤨ꤬": 4862,
      "ꤜꤢꤪ꤭ꤕꤢ꤭": 4863,
      "ꤜꤢꤪ꤭ꤕꤢ꤬": 4864,
      "ꤜꤢꤪ꤭ꤋꤛꤢ꤭": 4865,
      "ꤜꤢꤪ꤭ꤖꤢꤩ꤬": 4866,
      "ꤓꤢꤧ꤬ꤒ꤫ꤣ꤬": 4867,
      "ꤡꤝꤢꤜꤢꤪ꤭": 4868,
      "ꤡꤝꤢꤔꤢꤪ꤭": 4869,
      "ꤡꤝꤢꤒ꤫ꤣ꤬": 4870,
      "ꤡꤝꤢꤊꤜꤢꤧ": 4871,
      "ꤡꤝꤢꤕ꤫ꤢꤦ꤬": 4872,
      "ꤡꤝꤢꤊꤝꤤ꤭ꤡꤢꤪꤙꤢꤩ꤭": 4873,
      "ꤡꤝꤢꤟꤢꤧ꤭ꤑꤢꤩ꤭": 4874,
      "ꤡꤝꤢꤗꤢꤩ꤬ꤞꤣꤧ꤭ꤊꤢꤧ꤭": 4875,
      "ꤡꤝꤢꤏꤢꤔꤢꤩꤜꤥ꤭": 4876,
      "ꤋꤢꤨ꤭ꤙꤢꤧ꤬": 4877,
      "ꤋꤢꤨ꤭ꤘꤤ": 4878,
      "ꤋꤢꤨ꤭ꤚꤢꤩ꤬": 4879,
      "ꤋꤢꤨ꤭ꤙꤢꤪ": 4880,
      "ꤋꤢꤨ꤭ꤢꤩꤜꤤ꤬": 4881,
      "ꤋꤢꤨ꤭ꤕꤢꤩ꤬ꤚꤢ꤬": 4882,
      "ꤋꤢꤨ꤭ꤒꤢꤩ": 4883,
      "ꤋꤢꤨ꤭ꤡꤛꤢꤪ꤬": 4884,
      "ꤋꤢꤨ꤭ꤢ꤬ꤙꤤ": 4885,
      "ꤋꤢꤨ꤭ꤏꤢꤪ꤬ꤜꤢ꤬ꤗꤥ꤬": 4886,
      "ꤋꤢꤨ꤭ꤙꤢꤩꤜꤢ꤬": 4887,
      "ꤡꤣꤧꤚꤣꤧ꤬": 4888,
      "ꤡꤣꤧꤡꤣꤧ": 4889,
      "ꤊꤜꤤ": 4890,
      "ꤕ꤫ꤢꤩ꤬ꤖꤢꤧ": 4891,
      "ꤕ꤫ꤢꤩ꤬ꤊꤣꤧ꤭ꤢꤨ꤭": 4892,
      "ꤓꤥ꤭ꤊꤢꤧ꤭": 4893,
      "ꤓꤥ꤭ꤥ꤬ꤓꤢꤧ꤬": 4894,
      "ꤘꤢꤦ꤬ꤘꤢꤦ꤬": 4895,
      "ꤘꤢꤦ꤬ꤖꤢꤧ": 4896,
      "ꤋꤚꤝꤥ꤭": 4897,
      "ꤕꤜꤢꤧ꤭": 4898,
      "ꤘꤣꤧꤓꤢꤧ꤬": 4899,
      "ꤘꤣꤧꤡꤝꤢ": 4900,
      "ꤘꤣꤧꤊꤢ꤬ꤋꤛꤢ꤭": 4901,
      "ꤘꤣꤧꤜꤣꤧ꤭": 4902,
      "ꤒꤢꤩ꤭ꤟꤢꤨꤣꤧ꤭": 4903,
      "ꤒꤢꤩ꤭ꤚꤣꤧ꤬ꤘꤢꤦ꤭": 4904,
      "ꤔ꤫ꤤ꤬ꤔ꤫ꤤ꤬": 4905,
      "ꤔ꤫ꤤ꤬ꤔꤢꤪ": 4906,
      "ꤔ꤫ꤤ꤬ꤕꤢ꤬ꤒꤥ꤬": 4907,
      "ꤗꤢꤧꤘꤢꤦ꤬": 4908,
      "ꤗꤢꤧꤚꤣꤧ": 4909,
      "ꤗꤢꤧꤏꤢꤦ꤬": 4910,
      "ꤗꤢꤧꤡꤝꤢꤒꤥ꤭": 4911,
      "ꤗꤢꤧꤒ꤫ꤢꤨ꤬": 4912,
      "ꤢ꤬ꤋꤛꤢ꤭ꤔꤣꤧ꤬": 4913,
      "ꤢ꤬ꤚꤢꤪ": 4914,
      "ꤞꤣꤧ꤭ꤋꤚꤢ꤭ꤊꤢꤧ꤭": 4915,
      "ꤊꤢꤩ꤬ꤟꤢꤩꤗꤢ꤬": 4916,
      "ꤜꤥ꤭ꤣꤧ꤭": 4917,
      "ꤜꤥ꤭ꤒꤣꤧ꤬ꤖꤚꤢꤧ꤬": 4918,
      "ꤒꤢꤩ꤬ꤞꤢꤨ": 4919,
      "ꤚꤣꤧꤘꤢꤦ꤬ꤔꤣꤧ꤬": 4920,
      "ꤚꤣꤧꤘꤢꤦ꤬ꤑꤢꤩ꤭": 4921,
      "ꤚꤣꤧꤘꤢꤦ꤬ꤡꤣꤧ": 4922,
      "ꤚꤣꤧꤘꤢꤦ꤬ꤜꤣ": 4923,
      "ꤔ꤫ꤢꤩ꤬ꤊ꤫ꤢꤨ꤬": 4924,
      "ꤔꤣꤧ꤬ꤒꤣꤧ꤬ꤟꤢꤩ꤬ꤚꤣꤧ꤬": 4925,
      "ꤟꤢꤩꤏꤢꤪ꤭": 4926,
      "ꤓꤝꤢ꤭ꤞꤢꤩ꤭": 4927,
      "ꤒꤣꤧ꤬ꤚꤢꤨ꤬": 4928,
      "ꤢ꤬ꤜꤢꤩ": 4929,
      "ꤢ꤬ꤜ꤫ꤥ꤬": 4930,
      "꤯”’": 4931,
      "ꤞꤤꤕꤜꤢꤪ꤬ꤣꤧ꤭": 4932,
      "ꤞꤤꤕꤜꤢꤪ꤬ꤡꤢꤪ": 4933,
      "ꤞꤤꤕꤜꤢꤪ꤬ꤏꤢꤪ꤭": 4934,
      "ꤞꤤꤕꤜꤢꤪ꤬ꤏꤢꤩ꤭": 4935,
      "ꤞꤤꤕꤜꤢꤪ꤬ꤚꤢ꤬ꤚꤢꤩ꤬": 4936,
      "ꤠꤤ꤭ꤊ꤫ꤢꤩ꤬": 4937,
      "ꤠꤤ꤭ꤓꤢꤨ꤭": 4938,
      "ꤠꤤ꤭ꤔꤤ꤬": 4939,
      "ꤠꤤ꤭ꤗꤤ": 4940,
      "ꤠꤤ꤭ꤢ꤬ꤚꤤ": 4941,
      "ꤠꤤ꤭ꤢ꤬ꤜꤢꤧꤎꤢ꤬ꤘ": 4942,
      "ꤠꤤ꤭ꤞꤤꤥ꤬": 4943,
      "ꤘꤢꤧ꤬ꤒꤢ꤭ꤊꤢꤧ꤭": 4944,
      "ꤥ꤬ꤔꤥ꤭": 4945,
      "ꤗꤢꤩ꤬ꤒꤢꤩ꤭ꤟꤢꤩꤔꤣꤧ꤬ꤗꤢ꤬": 4946,
      "ꤍ꤫ꤥ꤬ꤒꤣꤧ꤬ꤟꤢꤩ꤬": 4947,
      "ꤔꤢꤪ꤭ꤘꤢꤨ꤬": 4948,
      "ꤔꤢꤪ꤭ꤗꤢꤧꤓ꤫ꤣꤧ꤬": 4949,
      "ꤔꤢꤪ꤭ꤕ꤫ꤢꤦ꤬": 4950,
      "ꤔꤢꤪ꤭ꤗꤢꤩ꤬ꤡꤝ꤫ꤢ꤬": 4951,
      "ꤔꤢꤪ꤭ꤥ꤬ꤊꤢꤧ꤭": 4952,
      "ꤔꤢꤪ꤭ꤗꤢꤩ꤬ꤞꤢꤦ": 4953,
      "ꤔꤢꤪ꤭ꤓꤢꤩ꤬ꤡꤝꤢꤊꤢꤧ꤭": 4954,
      "ꤔꤢꤪ꤭ꤥ꤬ꤔꤢꤧ꤭ꤥ꤬": 4955,
      "ꤔꤢꤪ꤭ꤢꤩꤜꤢ꤬ꤢꤩꤕꤜꤢꤩ": 4956,
      "ꤊꤢꤨꤊ꤫ꤢ꤬": 4957,
      "ꤜꤣꤧ꤬ꤛꤢꤩ꤭": 4958,
      "ꤋꤛꤢ꤭ꤕ꤫ꤥ꤬": 4959,
      "ꤋꤛꤢ꤭ꤒꤣꤧ꤬ꤘꤢꤦ꤬": 4960,
      "ꤡ꤫ꤢꤧ꤬ꤓꤢꤧ꤬": 4961,
      "ꤡ꤫ꤢꤧ꤬ꤊꤣꤧ꤭": 4962,
      "ꤓꤢꤩ꤬ꤤ꤬ꤓꤢꤩ꤬": 4963,
      "ꤖꤢꤩ꤭ꤞꤤ꤭": 4964,
      "ꤖꤢꤩ꤭ꤛꤥ꤭ꤟꤢ꤬": 4965,
      "ꤖꤢꤩ꤭ꤎꤤ꤬": 4966,
      "ꤖꤢꤩ꤭ꤜꤢꤪꤒꤢ": 4967,
      "ꤔꤣꤧ꤭ꤔꤢ꤬": 4968,
      "ꤔꤣꤧ꤭ꤖꤥ꤬": 4969,
      "ꤔꤣꤧ꤭ꤕꤝꤢ꤭ꤞꤢꤩ꤭": 4970,
      "ꤜꤣꤜꤣꤙꤢ꤭": 4971,
      "ꤊꤢ꤬ꤒꤥ꤭": 4972,
      "ꤊꤢ꤬ꤗꤥ꤬ꤗꤥ꤬": 4973,
      "ꤗꤥ꤬ꤚꤢꤧ": 4974,
      "ꤒ꤫ꤥ꤬ꤜꤢꤪ꤭": 4975,
      "ꤜ꤫ꤢꤩ꤬ꤟꤢꤩ": 4976,
      "ꤜ꤫ꤢꤩ꤬ꤜꤥ": 4977,
      "ꤜ꤫ꤢꤩ꤬ꤛ꤫ꤢꤦ꤬ꤢꤩ꤬ꤚꤣꤧ": 4978,
      "ꤜ꤫ꤢꤩ꤬ꤖꤛꤢꤓꤢꤧ꤬ꤜꤥ꤭": 4979,
      "ꤜ꤫ꤢꤩ꤬ꤘꤢꤪꤥ꤬": 4980,
      "ꤜ꤫ꤢꤩ꤬ꤞꤤꤜꤢꤩ꤬ꤚꤣꤧ": 4981,
      "ꤊ꤫ꤢꤩ꤬ꤛꤢꤨꤘꤢ꤬": 4982,
      "ꤊ꤫ꤢꤩ꤬ꤊꤢꤦ꤭": 4983,
      "ꤊ꤫ꤢꤩ꤬ꤠꤤ꤭ꤊ꤫ꤢꤩ꤬": 4984,
      "ꤞꤣꤧ꤭ꤖꤚꤢꤩ꤬ꤖꤚꤢꤩ꤬": 4985,
      "ꤟꤥ꤭ꤊꤜꤢꤪ꤭": 4986,
      "ꤓꤣꤧ꤭ꤣꤧ꤭": 4987,
      "ꤓꤣꤧ꤭ꤊꤜꤢꤦ꤬": 4988,
      "ꤓꤣꤧ꤭ꤒꤣꤧ꤬ꤚꤢꤧ꤬": 4989,
      "ꤣꤧ꤭ꤒꤣ꤬ꤖꤚꤢꤩ꤬ꤖꤚꤢꤩ꤬": 4990,
      "ꤕ꤫ꤥ꤬ꤖꤚꤢꤩ꤬ꤗꤢꤪ꤬": 4991,
      "ꤞꤤꤛ꤫ꤢꤦ꤬ꤗꤢꤩ꤬": 4992,
      "ꤞꤤꤛ꤫ꤢꤦ꤬ꤡꤝꤢ": 4993,
      "ꤒꤣ꤬ꤡꤣ꤬ꤗꤢ꤬": 4994,
      "ꤒꤣ꤬ꤡꤣ꤬ꤒꤥ꤬": 4995,
      "ꤒꤣ꤬ꤡꤣ꤬ꤖꤢꤧ": 4996,
      "ꤕꤝꤢ꤭ꤡꤣ꤬": 4997,
      "ꤕꤝꤢ꤭ꤗꤤ꤭": 4998,
      "ꤕꤝꤢ꤭ꤒꤣ꤬ꤠꤤ꤭": 4999,
      "ꤕꤝꤢ꤭ꤔꤣꤧ꤭ꤕꤝꤢ꤭ꤞꤢꤩ꤭": 5000,
      "ꤋꤢꤩ꤭ꤛ꤫ꤤ꤬": 5001,
      "ꤗꤢꤪꤘꤢ": 5002,
      "ꤔꤥ꤭ꤢꤩ꤬": 5003,
      "ꤔꤥ꤭ꤥ꤬": 5004,
      "ꤔꤥ꤭ꤊꤣꤧ꤭": 5005,
      "ꤔꤥ꤭ꤒ꤫ꤣ꤬": 5006,
      "ꤔꤥ꤭ꤔꤢꤪ": 5007,
      "ꤟꤢꤩꤙꤢꤩ꤬ꤖꤢꤧ": 5008,
      "ꤟꤢꤩꤙꤢꤩ꤬ꤔ꤫ꤤ꤬": 5009,
      "ꤏꤢꤕꤢ꤭": 5010,
      "ꤗ꤫ꤢꤪ꤬ꤍꤢꤧ꤭ꤔꤣꤧ꤭": 5011,
      "ꤖꤢꤨꤡ꤫ꤢꤩ꤬ꤋꤢꤩ꤭": 5012,
      "ꤊꤢꤨ꤬ꤊꤜꤢꤪꤋꤚꤝꤤ": 5013,
      "ꤒꤢꤩ꤬ꤗꤢꤩ꤬ꤕ꤫ꤢꤩ꤬": 5014,
      "ꤒꤢꤩ꤬ꤗꤢꤩ꤬ꤕꤜꤤ꤭ꤖꤥ": 5015,
      "ꤖꤛꤢꤊꤢ꤬": 5016,
      "ꤋꤥ꤭ꤗꤢꤩ꤭": 5017,
      "ꤊꤢ꤬ꤋꤛꤢ꤭ꤟꤢꤧ꤭ꤑꤢꤩ꤭": 5018,
      "ꤙꤢꤩꤟꤣꤧ": 5019,
      "ꤙꤢꤩꤋꤢꤨ꤬": 5020,
      "ꤒꤢꤩ꤬ꤞꤢꤦꤥ꤬": 5021,
      "ꤏꤢꤪ꤭ꤊꤣꤧ꤬ꤘꤣ": 5022,
      "ꤓꤝꤢ꤭ꤓꤢꤧ꤬ꤜꤢꤨ": 5023,
      "ꤒꤣꤧ꤬ꤔꤢꤩ꤬ꤊ꤫ꤢꤨ꤬": 5024,
      "ꤜꤤ꤬ꤘꤢꤨ꤬": 5025,
      "ꤜꤤ꤬ꤓꤢꤨ꤬ꤞꤢꤩꤓꤢꤧ꤬": 5026,
      "ꤊꤝꤤ꤭ꤕ꤫ꤢꤩ꤬": 5027,
      "ꤊꤝꤤ꤭ꤔꤢꤪ": 5028,
      "ꤔ꤫ꤤ꤬ꤙꤢꤩ꤬ꤘꤢꤦ꤬": 5029,
      "ꤗꤢꤨ꤬ꤢꤩꤜꤢ꤬": 5030,
      "ꤘꤥ꤬ꤔꤢꤧ꤭ꤜꤥ꤭": 5031,
      "ꤜꤥ꤬ꤊꤣꤧ꤭": 5032,
      "ꤜꤥ꤬ꤊꤣꤧ꤬ꤚꤢꤩꤊꤢꤨ꤭": 5033,
      "ꤕꤣꤧꤔꤢꤨ꤬": 5034,
      "ꤤ꤬ꤞꤝꤢꤜꤢꤧ꤬": 5035,
      "ꤋꤛꤢ꤭ꤞꤢꤧꤕ꤫ꤥ꤬": 5036,
      "ꤞꤢꤪ꤬ꤞꤣꤧ꤭ꤖꤚꤢꤩ꤬": 5037,
      "ꤞꤢꤪ꤬ꤜꤢꤪꤗꤢꤧ": 5038,
      "ꤒꤣ꤬ꤖꤥꤔꤣꤧ꤬": 5039,
      "ꤕꤣꤧꤞꤢꤩ꤬ꤔꤣꤧ꤬": 5040,
      "ꤜꤢꤨ꤬ꤎꤤ": 5041,
      "ꤢ꤬ꤍ꤫ꤥ꤬ꤣꤧ꤭": 5042,
      "ꤋꤚꤝꤢ꤭ꤋꤚꤝꤥ꤭": 5043,
      "ꤗꤢꤪꤋꤢꤨ꤬ꤖꤢꤨ": 5044,
      "ꤜꤢ꤬ꤒꤤ꤬": 5045,
      "ꤖꤢꤙꤢꤦ꤭": 5046,
      "ꤗꤤ꤬ꤓꤣꤧ꤭": 5047,
      "ꤗꤤ꤬ꤋꤥ꤬": 5048,
      "ꤋꤝꤤꤣꤧ꤭": 5049,
      "ꤋꤝꤤꤟꤥ꤭": 5050,
      "ꤋꤝꤤꤊꤢꤧꤎꤢ꤬": 5051,
      "ꤔ꤫ꤤ꤬ꤟꤥ꤭ꤓꤥ꤭": 5052,
      "ꤢ꤬ꤙꤤ꤬": 5053,
      "ꤒꤢꤩ꤬ꤞꤤꤘꤥ꤭": 5054,
      "ꤣꤧ꤭ꤒꤣꤧ꤬ꤟꤢꤩ꤬ꤔꤣꤧ꤬ꤚꤣꤧ꤬": 5055,
      "ꤣꤧ꤭ꤒꤣ꤬ꤊꤢꤨ꤭": 5056,
      "ꤣꤧ꤭ꤒꤣ꤬ꤘꤢꤪ꤭": 5057,
      "ꤗꤣꤧ꤭ꤗ꤫ꤢꤧ꤬": 5058,
      "ꤓꤢꤩ꤬ꤡꤝꤢꤊꤜꤢꤧ": 5059,
      "ꤜꤢꤩ꤭ꤞꤥ꤭ꤞꤝꤢ": 5060,
      "ꤘꤢꤧꤙꤢꤩ꤬": 5061,
      "ꤘꤢꤧꤡꤝꤢ": 5062,
      "ꤘꤢꤧꤕ꤫ꤢꤩ꤬": 5063,
      "ꤘꤢꤧꤜꤥ꤭": 5064,
      "ꤘꤣꤧꤟꤣꤧ꤭ꤊꤣꤧ꤭": 5065,
      "ꤘꤣꤧꤟꤣꤧ꤭ꤙꤢꤦ꤬": 5066,
      "ꤙꤢꤧꤞꤢ꤬": 5067,
      "ꤓꤢꤨ꤬ꤖꤚꤢꤩ": 5068,
      "ꤋꤥꤜꤢꤪ꤭": 5069,
      "ꤋꤥꤜꤢ꤭ꤒꤢꤩ꤬": 5070,
      "ꤚꤢ꤭ꤜꤥ꤭": 5071,
      "ꤊꤜꤢꤧꤡꤢꤪ": 5072,
      "ꤘꤣꤧꤡꤢ꤭ꤒꤢꤩ꤬": 5073,
      "ꤘꤣꤧꤡꤢ꤭ꤡꤢꤦ꤬": 5074,
      "ꤢ꤬ꤒꤢꤩ꤬ꤤ꤬ꤞꤝꤢꤤ꤬ꤞꤢꤧ꤬": 5075,
      "ꤢ꤬ꤒꤢꤩ꤬ꤏꤝꤤ": 5076,
      "ꤙꤢ꤬ꤙꤢꤩ꤬ꤜꤢ꤬": 5077,
      "ꤏꤥ꤭ꤗꤢꤩ꤭": 5078,
      "ꤜ꤫ꤥ꤬ꤚꤢꤦ꤭": 5079,
      "ꤔꤣꤧ꤬ꤒꤣ꤬ꤒ꤫ꤥ꤬": 5080,
      "ꤘꤣꤧꤜꤥ꤭ꤕꤜꤥ꤭": 5081,
      "ꤕꤜꤝꤢ꤭ꤋꤢꤧ꤭ꤢꤩ꤬": 5082,
      "ꤒꤢ꤭ꤒꤢꤩ꤬ꤊꤢꤧ꤭": 5083,
      "ꤎꤢ꤬ꤖꤤ": 5084,
      "ꤎꤢ꤬ꤒꤢ꤬": 5085,
      "ꤎꤢ꤬ꤕꤢꤩ꤬ꤊ꤫ꤢꤩ꤬": 5086,
      "ꤒꤣꤧ꤬ꤘꤢꤦ꤬ꤕꤢ꤭": 5087,
      "ꤒꤣꤧ꤬ꤘꤢꤦ꤬ꤜꤢ꤭": 5088,
      "ꤔꤢꤧ꤭ꤒꤥ꤬": 5089,
      "ꤔꤢꤧ꤭ꤕꤢ꤭": 5090,
      "ꤟꤢꤩꤏꤥ꤬ꤘꤥ꤬ꤔꤢꤧ꤭ꤚꤣꤧ": 5091,
      "ꤘꤤ꤭ꤖꤢꤩ": 5092,
      "ꤚ꤫ꤥ꤬ꤒ꤫ꤣ꤬ꤊꤣꤧ꤭": 5093,
      "ꤟꤢꤩꤏꤥ꤬ꤜꤥ꤭ꤓꤢꤧ꤬": 5094,
      "ꤟꤢꤩꤏꤥ꤬ꤜꤥ꤭ꤚꤣꤧ": 5095,
      "ꤟꤢꤩꤏꤥ꤬ꤜꤥ꤭ꤕꤜꤥ꤭": 5096,
      "ꤕꤢ꤭ꤔꤣꤧ꤬ꤚꤣꤧ꤬": 5097,
      "ꤜ꤫ꤢꤪ꤬ꤞꤥ꤭ꤜꤢꤩ꤭": 5098,
      "ꤗꤢꤧꤕꤢꤨ꤭ꤞꤢꤦ": 5099,
      "ꤗꤢꤩ꤬ꤡꤝ꤫ꤢ꤬ꤚꤣꤧ": 5100,
      "ꤗꤢꤞꤢꤧ": 5101,
      "ꤗꤢꤙꤥ꤭": 5102,
      "ꤊꤝꤤ꤭ꤡꤢꤪꤙꤢꤩ꤭ꤓꤢꤨ꤭": 5103,
      "ꤜ꤫ꤢꤩ꤬ꤥ꤬ꤊꤢꤨ": 5104,
      "ꤜ꤫ꤢꤩ꤬ꤥ꤬ꤓꤢꤧ꤬ꤜꤥ꤭": 5105,
      "ꤞꤤꤛꤢꤪ꤬ꤊꤜꤢ꤬ꤙꤢꤩ꤬": 5106,
      "ꤒꤣꤧ꤬ꤕꤜꤥ": 5107,
      "ꤒꤣꤧ꤬ꤕꤜꤢꤦ": 5108,
      "ꤔꤢ꤬ꤘꤢ꤬": 5109,
      "ꤔꤢ꤬ꤠꤢꤩꤖꤢꤨ": 5110,
      "ꤟꤢꤧ꤭ꤒ꤫ꤥ꤬ꤖꤚꤢꤦ": 5111,
      "ꤙꤤꤔ꤫ꤤ꤬": 5112,
      "ꤞꤢꤚꤢꤚꤢꤧ": 5113,
      "ꤒꤣ꤬ꤗꤢꤩ꤭ꤊꤢꤨ꤭": 5114,
      "ꤞꤤꤔꤣꤧ꤭ꤣꤧ꤭": 5115,
      "ꤢꤪꤜꤢꤧ꤬ꤔꤢꤪ꤬ꤜꤢꤧ꤬": 5116,
      "ꤡꤛꤣ꤬ꤚꤢ꤬": 5117,
      "ꤘꤢꤪ꤭ꤒꤣ꤬ꤘꤢꤪ꤭": 5118,
      "ꤒꤢꤩ꤬ꤜꤢꤨ꤭ꤒꤢꤧ꤭ꤓꤢꤧ꤬": 5119,
      "ꤥ꤬ꤕ꤫ꤢꤪ꤬ꤏꤢꤦ꤬": 5120,
      "ꤊꤢꤧꤚꤢ꤬": 5121,
      "ꤊꤢꤨꤋꤢꤨ꤬ꤔꤣꤧ꤬": 5122,
      "ꤙꤢꤓꤢꤩ꤬": 5123,
      "ꤙꤢꤥ꤬ꤊꤥ": 5124,
      "ꤙꤢꤋꤚ꤫ꤤ꤬": 5125,
      "ꤑꤢ꤭ꤊꤢꤨ": 5126,
      "ꤒꤤꤠꤢ꤬": 5127,
      "ꤒꤤꤙꤢꤩ꤬ꤚꤤ": 5128,
      "ꤏꤢꤦ꤭ꤞꤣꤧ꤭": 5129,
      "ꤒꤣꤧ꤬ꤋꤢꤩ꤭ꤕꤜꤢꤧꤜꤤ꤬ꤏꤤ": 5130,
      "ꤞꤥ꤭ꤞꤝꤢꤒꤣ꤬ꤡꤣ꤬": 5131,
      "ꤞꤥ꤭ꤞꤝꤢꤒꤣ꤬ꤘꤥ꤭": 5132,
      "ꤞꤢꤪ꤬ꤊꤜꤣꤧ꤭ꤖꤢꤨ": 5133,
      "ꤠꤢꤩ꤬ꤙꤥ꤭": 5134,
      "ꤘꤣꤋꤛꤢ꤭ꤚꤣꤧ꤬": 5135,
      "ꤘꤣꤋꤛꤢ꤭ꤒꤣ꤬ꤔꤣꤧ꤭": 5136,
      "ꤚꤢꤦ꤭ꤣꤧ꤭": 5137,
      "ꤒꤣꤧ꤬ꤚꤤ꤬ꤒꤣꤧ꤬ꤚꤢꤧ꤭ꤚꤣꤧ": 5138,
      "ꤏꤢꤪ꤭ꤚꤤ꤬ꤘꤢꤦ꤬": 5139,
      "ꤗꤢꤩ꤬ꤒꤢꤩ꤬ꤣꤧ꤭": 5140,
      "ꤡꤢ꤬ꤗꤢꤩ꤬": 5141,
      "ꤡꤢ꤬ꤒ꤫ꤢꤪ꤬ꤓꤢꤩ": 5142,
      "ꤒꤣꤧ꤬ꤠꤢ꤬ꤖꤢꤩ꤬": 5143,
      "ꤒꤣꤧ꤬ꤠꤢ꤬ꤕꤜꤢꤨ꤬": 5144,
      "ꤜꤢꤩꤒꤢꤨ": 5145,
      "ꤔꤥ꤬ꤞꤢꤪ꤭": 5146,
      "ꤜꤣꤧ꤬ꤟꤥ꤭ꤜꤢꤧ꤬": 5147,
      "ꤒꤣꤧ꤬ꤕꤜꤢꤩ꤬ꤞꤢꤩ꤭": 5148,
      "ꤏꤥ꤬ꤣꤧ꤭ꤒꤣ꤬ꤗꤢꤩ꤭": 5149,
      "ꤏꤥ꤬ꤎꤤꤔꤢ": 5150,
      "ꤢ꤬ꤜꤤ꤬ꤕꤜꤢꤪ꤬": 5151,
      "ꤢ꤬ꤜꤤ꤬ꤤ꤬ꤚꤥ꤭": 5152,
      "ꤋꤢꤧꤙꤢꤩ꤬ꤔꤢꤪ": 5153,
      "ꤕꤜꤝꤢ꤭ꤊꤢꤧ꤭ꤊꤣꤧ꤭": 5154,
      "ꤊꤥ꤬ꤒꤣ꤬ꤊꤥ꤬": 5155,
      "ꤕꤣꤧ꤬ꤒꤤꤖꤢꤧ": 5156,
      "ꤒꤢꤦ꤭ꤊꤢꤧ꤭": 5157,
      "ꤒꤢꤩ꤬ꤥ꤬ꤗꤣꤧ꤭ꤗ꤫ꤢꤧ꤬": 5158,
      "ꤊꤣꤧ꤬ꤘꤢ꤭ꤖꤢꤨ": 5159,
      "ꤏꤢ꤭ꤗꤢꤧ꤬": 5160,
      "ꤏꤢ꤭ꤟꤢꤨꤊꤥ꤬": 5161,
      "ꤜꤥ꤭ꤔꤢꤩꤜꤥ꤭ꤔꤢ꤬ꤣꤧ꤭": 5162,
      "ꤥ꤬ꤜꤥ꤭ꤖꤚꤢꤦ": 5163,
      "ꤢ꤬ꤗ꤫ꤥ꤬ꤖꤢꤩ꤭": 5164,
      "ꤘꤢꤧ꤬ꤛ꤫ꤢꤦ꤬ꤔ꤫ꤢꤧ꤬": 5165,
      "ꤊꤜꤢꤧ꤬ꤓꤢꤩ꤬": 5166,
      "ꤊꤜꤢꤧ꤬ꤖꤚꤥ": 5167,
      "ꤊꤜꤢꤧ꤬ꤘꤤꤡꤢꤩ꤭": 5168,
      "ꤢ꤬ꤕꤥ꤬ꤊꤜꤢꤪ꤭": 5169,
      "ꤞꤤꤑꤢꤩ꤭ꤕꤜꤥ꤭ꤚꤢꤧ": 5170,
      "ꤋꤢꤪꤗꤢꤨ꤭ꤔꤣꤧ꤬": 5171,
      "ꤋꤢꤪꤗꤢꤨ꤭ꤗꤢ꤬ꤔꤢ": 5172,
      "ꤙꤢꤪꤙꤢꤩ": 5173,
      "ꤥ꤬ꤒ꤫ꤣ꤬ꤊꤣꤧ꤭ꤘꤢꤦ꤬": 5174,
      "ꤥ꤬ꤒ꤫ꤣ꤬ꤊꤣꤧ꤭ꤕꤢ꤬": 5175,
      "ꤋꤢꤨ꤭ꤡꤛꤢꤪ꤭": 5176,
      "ꤋꤢꤨ꤭ꤡꤛꤢꤩꤏꤛꤢꤧ": 5177,
      "ꤟꤥ꤬ꤗꤢꤩ꤬ꤞꤝꤢꤩ": 5178,
      "ꤓꤢꤪꤡꤝꤢ": 5179,
      "ꤓꤢꤪꤓꤢꤩ꤬": 5180,
      "ꤓꤢꤪꤟꤢꤧ꤭ꤓꤢꤪ": 5181,
      "ꤋꤢꤨ꤭ꤎꤢ꤬ꤜꤢ꤬": 5182,
      "ꤛ꤫ꤢꤨ꤬ꤥ꤭": 5183,
      "ꤠꤤ꤬ꤜꤣꤧ꤬ꤠꤢꤪ꤭": 5184,
      "ꤥ꤬ꤗꤣꤧ꤭ꤢꤩ꤭": 5185,
      "ꤊ꤫ꤢꤨ꤬ꤊꤢꤧ꤭": 5186,
      "ꤞꤢꤨ꤭ꤡꤝꤢꤟꤣꤧ": 5187,
      "ꤠꤤ꤭ꤊꤢꤨ꤭ꤣꤧ꤭": 5188,
      "ꤞꤤꤕꤜꤢꤪ꤬ꤊꤢꤨ꤭ꤔꤣꤧ꤬": 5189,
      "ꤍꤢꤧ꤭ꤜꤢꤩ꤭": 5190,
      "ꤒꤣ꤬ꤗꤢꤨ꤬ꤗꤢꤨ꤬": 5191,
      "ꤕꤢꤪ꤬ꤟꤢꤩ꤬": 5192,
      "ꤥ꤬ꤊꤜꤢꤪ꤬ꤥ꤬ꤗꤢ꤬": 5193,
      "ꤢ꤬ꤋꤚ꤫ꤢꤩ꤬": 5194,
      "ꤢ꤬ꤋꤚꤝꤢ": 5195,
      "ꤊꤣꤧ꤭ꤜꤢ꤭ꤒꤢꤩ꤬ꤚꤣꤧ꤬": 5196,
      "ꤜꤥꤊꤢꤧ꤭": 5197,
      "ꤚꤢꤨꤎꤣ꤬": 5198,
      "ꤚꤢꤨꤙꤢ꤬ꤙꤢꤩ꤬ꤜꤢ꤬": 5199,
      "ꤗꤢꤧꤗꤣꤧ꤭ꤜꤢꤩ": 5200,
      "ꤡꤝꤤ꤬ꤊꤢ꤬": 5201,
      "ꤡꤝꤤ꤬ꤊꤣꤧ꤬ꤓꤢꤪ꤬": 5202,
      "ꤡꤝꤤ꤬ꤓꤢꤨ꤭": 5203,
      "ꤋꤚꤝꤢ꤭ꤊꤣꤧ꤭ꤟꤣꤧ": 5204,
      "ꤢ꤬ꤏꤣꤧꤊꤣꤧ꤬ꤜ꤫ꤣꤧ꤬": 5205,
      "ꤒꤢꤩ꤬ꤗꤥ꤬ꤔꤣꤧ꤬": 5206,
      "ꤞꤢꤧꤊꤣꤧ꤭ꤟꤢꤨ": 5207,
      "ꤞꤢꤧꤊꤣꤧ꤭ꤜꤢꤪ꤭": 5208,
      "ꤎꤤ꤬ꤛꤢ꤬": 5209,
      "ꤟꤢꤩꤜꤥ꤭ꤓꤢꤧ꤬": 5210,
      "ꤙꤢꤧꤜꤢꤧ꤬ꤒꤢꤩ꤭ꤜꤢꤧ꤬": 5211,
      "ꤥ꤬ꤓꤢꤧ꤬ꤓꤥ꤭ꤥ꤬ꤓꤢꤧ꤬": 5212,
      "ꤚꤥꤗꤢꤩ꤬ꤖꤢꤨ": 5213,
      "ꤒꤣꤧ꤬ꤛꤝꤤ": 5214,
      "ꤡꤝꤢꤒꤣꤧ꤬ꤜꤝꤢꤋꤢꤩ꤭ꤒꤣꤧ꤬ꤕꤜꤢꤩ꤬": 5215,
      "ꤕꤜꤢꤦꤜꤢ꤭": 5216,
      "ꤢ꤬ꤞꤝꤤ꤬ꤓꤣꤧ꤭": 5217,
      "ꤗꤢꤩ꤬ꤙꤢꤩ꤬ꤏꤢꤩ꤭": 5218,
      "ꤋꤢꤨ꤭ꤙꤢ꤬ꤞꤢꤪ꤬ꤜꤢꤪꤗꤢꤧ": 5219,
      "ꤋꤢꤨ꤭ꤢ꤬ꤗꤤ": 5220,
      "ꤕꤣꤧꤞꤢꤩ꤬ꤋꤤꤔꤢꤪ": 5221,
      "ꤢꤩꤊꤢ꤬ꤔ꤫ꤤ꤬": 5222,
      "ꤗꤢꤩ꤬ꤜꤤ꤭ꤊꤢ꤬": 5223,
      "ꤘꤢꤧ꤭ꤗꤢꤩ꤬": 5224,
      "ꤕꤣꤧꤞꤢꤩ꤬ꤕꤜꤢꤪ꤬ꤜꤥ꤬": 5225,
      "ꤛꤢꤧꤓꤢꤧ꤬": 5226,
      "ꤢ꤬ꤘꤢꤨ꤬ꤜꤣꤢꤨ꤭": 5227,
      "ꤤ꤬ꤖꤚꤤ꤬ꤊꤢ꤬": 5228,
      "ꤓꤢꤩꤏꤢꤦ꤬ꤙꤤꤊꤢꤧ꤭": 5229,
      "ꤞꤤꤖꤚꤝꤢ꤭ꤏꤢꤦ꤬": 5230,
      "ꤥ꤬ꤋꤚꤢꤧꤊꤢꤧ꤭": 5231,
      "ꤤ꤬ꤊꤢꤩ꤭ꤘꤢꤨ꤬": 5232,
      "ꤓꤣꤧ꤭ꤛꤢꤧ꤭ꤏꤢ꤬": 5233,
      "ꤗ꤫ꤢꤪ꤬ꤋꤤꤢꤪ": 5234,
      "ꤗ꤫ꤢꤪ꤬ꤋꤤꤋꤢꤩ꤭": 5235,
      "ꤊꤜꤢꤦꤋꤢꤨ꤬": 5236,
      "ꤜꤝꤢꤊꤢꤧ꤭": 5237,
      "ꤜ꤫ꤢꤩ꤬ꤢꤩ꤬ꤘꤤ꤭ꤚ꤫ꤢꤩ꤬": 5238,
      "ꤔꤢꤎꤣ꤬": 5239,
      "ꤗꤤꤛꤣ꤬": 5240,
      "ꤢ꤬ꤋꤥ꤭ꤢ꤬ꤞꤝꤢ": 5241,
      "ꤒꤢꤩ꤬ꤗ꤫ꤢ꤬ꤊꤢꤧ꤭ꤍ꤫ꤥ꤬ꤣꤧ꤭": 5242,
      "ꤘꤢꤧ꤬ꤘꤢꤨ꤬ꤛ꤫ꤢꤦ꤬ꤔ꤫ꤢꤧ꤬ꤚꤣꤧ": 5243,
      "ꤥ꤬ꤖꤢꤦ꤬ꤥ꤬ꤠꤢ": 5244,
      "ꤒꤢꤩ꤬ꤋꤤꤊꤜꤢꤩ꤭": 5245,
      "ꤜꤣꤧ꤬ꤋꤢꤦꤊꤢꤧ꤭": 5246,
      "ꤢ꤬ꤚ꤫ꤣꤧ꤬ꤋꤢꤩ꤭ꤔꤣꤧ꤬": 5247,
      "ꤢꤩꤜꤣꤕ꤫ꤥ꤬": 5248,
      "ꤣꤧ꤭ꤒꤣ꤬ꤡꤣ꤬ꤔꤣꤧ꤬": 5249,
      "ꤞꤥ꤭ꤔꤣꤧ꤭ꤒꤣ꤬ꤔꤣꤧ꤭": 5250,
      "ꤞꤥ꤭ꤔꤣꤧ꤭ꤞꤥ꤭ꤞꤢꤩ꤭": 5251,
      "ꤑꤢ꤭ꤒꤢꤧ꤬ꤒꤥ꤬ꤔꤣꤧ꤬": 5252,
      "ꤊꤣꤧ꤬ꤓꤢꤧ꤬ꤊꤢꤧ꤭": 5253,
      "ꤖꤢꤨꤥ꤬ꤚꤣꤧ": 5254,
      "ꤋꤢꤨ꤭ꤗꤢ꤬ꤞꤢ꤬": 5255,
      "ꤋꤢꤨ꤭ꤗꤢ꤬ꤜꤢ꤬ꤋꤤ": 5256,
      "ꤕꤣꤧ꤬ꤜꤢ꤭ꤖꤢꤨ": 5257,
      "ꤜꤝꤤ꤭ꤞꤝꤢꤒꤣ꤬ꤗꤢꤦ꤭": 5258,
      "ꤜꤝꤤ꤭ꤞꤝꤢꤒꤣ꤬ꤏꤣꤧ꤭": 5259,
      "ꤏꤛꤢ꤬ꤗꤢꤨ꤬ꤢꤩꤜꤢ꤬": 5260,
      "ꤜꤢꤨ꤭ꤍ꤫ꤥ꤬ꤍ꤫ꤥ꤬": 5261,
      "ꤡꤢ꤬ꤡꤝꤢ꤬ꤙꤢꤨ꤭": 5262,
      "ꤎꤤꤜꤥ꤬": 5263,
      "ꤋꤢꤨ꤭ꤎꤢ꤬ꤒꤤꤠꤢ꤬": 5264,
      "ꤞꤢꤪ꤬ꤗ꤫ꤢꤪ꤬ꤠꤢꤩ꤬ꤙꤥ꤭": 5265,
      "ꤢ꤬ꤔꤥ꤬ꤜꤣ": 5266,
      "ꤗꤢ꤬ꤤ꤭ꤒꤢꤩ꤭ꤔꤣꤧ꤬": 5267,
      "ꤠꤤ꤭ꤊꤢ꤬ꤔꤢ": 5268,
      "ꤠꤤ꤭ꤊꤢ꤬ꤗꤥ": 5269,
      "ꤗꤤ꤬ꤊꤢꤪ꤭ꤓꤢꤩ꤭": 5270,
      "ꤗꤤ꤬ꤊꤢꤪ꤭ꤚ꤫ꤢꤩ꤬ꤋꤢꤨ꤬": 5271,
      "ꤊꤜꤝꤢ꤬ꤢ꤬ꤔ꤫ꤢꤩ꤬": 5272,
      "ꤊꤢꤩ꤬ꤟꤢꤩꤟꤢꤨꤔꤣꤧ꤬": 5273,
      "ꤒꤥ꤬ꤙꤢꤩ꤬ꤓꤥ꤭": 5274,
      "ꤤ꤬ꤏꤢꤪ꤭ꤟꤢ꤭": 5275,
      "ꤞꤢ꤬ꤞꤢꤩ꤭ꤏꤢꤦ꤬": 5276,
      "ꤢ꤫ꤢ꤬ꤚꤢꤧ꤭": 5277,
      "ꤞꤥ꤭ꤞꤝꤢꤒꤣ꤬ꤊꤥ꤬": 5278,
      "ꤊꤢ꤬ꤏꤥ꤭ꤘꤢꤧ꤬ꤏꤥ꤭ꤗꤢꤩ꤭": 5279,
      "ꤜꤢꤧꤜꤢꤧ꤬": 5280,
      "ꤘꤤ꤭ꤚ꤫ꤢꤩ꤬ꤓꤢꤧ꤬ꤜꤥ꤭": 5281,
      "ꤖꤢꤩ꤭ꤢ꤬ꤔꤢ": 5282,
      "ꤒꤢꤩ꤬ꤘꤢꤧ꤬ꤥꤘꤢꤧ꤬ꤙꤤ": 5283,
      "ꤜ꤫ꤢꤩ꤬ꤘꤢꤧ꤬ꤥ꤬ꤕꤜꤢꤪ": 5284,
      "ꤟꤢꤩ꤬ꤋꤢꤨ꤬ꤏꤤ꤭ꤙꤢ꤬ꤜꤢꤪ꤭": 5285,
      "ꤜꤤ꤭ꤒꤣꤧ꤬ꤋꤢꤩ꤭ꤓꤢꤧ꤬": 5286,
      "ꤏꤢ꤭ꤖꤚ꤫ꤢꤩ꤬ꤔꤢꤧ꤬ꤡꤢꤩ꤭": 5287,
      "ꤏꤢ꤭ꤖꤚ꤫ꤢꤩ꤬ꤏꤢ꤭ꤗꤢꤧ꤬": 5288,
      "ꤒꤣꤧ꤬ꤊꤢꤩ꤬ꤙꤤꤚꤣꤧ": 5289,
      "ꤒꤢꤩ꤬ꤜꤢꤨ꤭ꤚ꤫ꤢꤩ꤬ꤓꤢꤩ꤭": 5290,
      "ꤓꤝꤤ꤬ꤒꤣꤧ꤬ꤟꤢꤩ꤬": 5291,
      "ꤕꤢꤪꤒꤤ꤬": 5292,
      "ꤛ꤫ꤤ꤬ꤒꤣꤧ꤬ꤖꤚ": 5293,
      "ꤒꤣꤧ꤬ꤊꤤ꤬ꤟꤢꤨꤖꤢꤧ": 5294,
      "ꤥ꤬ꤕ꤫ꤢ꤬ꤒ꤫ꤣ꤬": 5295,
      "ꤥ꤬ꤕ꤫ꤢ꤬ꤒ꤫ꤣ꤬ꤊꤣꤧ꤭": 5296,
      "ꤥ꤬ꤕ꤫ꤢ꤬ꤓꤢꤧ꤬ꤒ꤫ꤣ꤬": 5297,
      "ꤒꤣꤧ꤬ꤔꤢꤩ꤬ꤓꤢꤧ꤬ꤙꤢꤩ꤬": 5298,
      "ꤎꤢ꤬ꤕꤛꤤꤖꤢꤩ꤬ꤋꤢꤨ꤬": 5299,
      "ꤗꤢꤩ꤬ꤜꤣꤙꤢ꤭ꤓꤢꤧ꤬": 5300,
      "ꤕ꤫ꤢꤦ꤬ꤖꤢꤩ꤬ꤛꤢꤩꤕꤜꤢꤩꤖꤢꤩ꤬": 5301,
      "ꤋꤢꤨ꤭ꤔꤢ꤬ꤏꤛꤥ꤬": 5302,
      "ꤠꤤ꤭ꤘꤢꤨ꤬ꤠꤤ꤭ꤓꤢꤨ꤭": 5303,
      "ꤖꤢꤩꤓꤢꤧ꤬ꤘꤢꤨ꤬ꤓꤢꤧ꤬": 5304,
      "ꤤ꤬ꤔꤢꤨꤕꤢ꤬": 5305,
      "ꤟꤢꤧ꤭ꤢꤩ꤬ꤟꤢꤧ꤭ꤥ꤭": 5306,
      "ꤟꤢꤧ꤭ꤖꤢꤦ꤬ꤟꤣꤧ": 5307,
      "꤮꤯’”": 5308,
      "ꤒꤣꤧ꤬ꤔꤢꤩ꤬ꤞꤢꤦꤙꤢꤪ꤭": 5309,
      "ꤊꤢꤨꤜ꤫ꤤ꤬ꤊꤢꤨ꤭": 5310,
      "ꤏꤢꤧ꤬ꤋꤚꤝꤢ꤭ꤚꤣꤧ": 5311,
      "ꤗꤢꤩ꤬ꤜꤢꤪ꤭ꤊꤢꤧ꤭ꤘꤢꤩ꤭": 5312,
      "ꤡꤝꤢꤊꤝꤤ꤭ꤗꤢꤧ": 5313,
      "ꤋꤢꤨ꤭ꤡꤛꤥ꤬": 5314,
      "ꤠꤤ꤭ꤓꤢꤛꤣ꤬ꤖꤢꤨ": 5315,
      "ꤢ꤬ꤡꤢ꤭ꤢ꤬ꤡꤢꤦ꤬": 5316,
      "ꤋꤢꤨ꤭ꤢꤪꤙꤢꤧ": 5317,
      "ꤕꤜꤥꤊꤢꤧ꤭": 5318,
      "ꤕꤜꤥꤒꤢ꤭ꤊꤢꤧ꤭": 5319,
      "ꤠꤤ꤭ꤜꤢꤨꤘꤢ꤬": 5320,
      "ꤊꤢ꤬ꤊꤣꤧ꤬ꤔꤥ꤭ꤙꤢꤩ": 5321,
      "ꤖꤛꤢꤘꤢꤨ꤬ꤖꤛꤢꤓꤢꤧ꤬ꤜꤥ꤭": 5322,
      "ꤜꤢꤨ꤬ꤗꤥ꤭ꤓꤢꤧ꤬": 5323,
      "ꤒꤢꤩ꤬ꤞꤤꤕꤜꤢꤩ꤭ꤞꤤꤛꤢꤪ꤬": 5324,
      "ꤒꤢꤩ꤬ꤞꤤꤕꤜꤢꤩ꤭ꤔꤢꤩ꤬ꤙꤢꤩ꤬": 5325,
      "ꤠꤤ꤭ꤎꤤꤘꤥ꤬ꤖꤢꤨ": 5326,
      "ꤘꤢꤩꤒꤢ꤭": 5327,
      "ꤢ꤬ꤔꤣꤧ꤭ꤜꤝꤤ꤭ꤏꤣꤧ꤭": 5328,
      "ꤢ꤬ꤏꤢꤨ꤬ꤥ꤬": 5329,
      "ꤥ꤬ꤠꤢꤥ꤬ꤥ": 5330,
      "ꤜ꤫ꤢꤩ꤬ꤟꤢꤧ꤭ꤊꤜꤢꤧ": 5331,
      "ꤘꤤ꤭ꤙꤢꤩ꤭ꤒꤣꤧ꤬ꤢꤩ꤬ꤘꤢꤨ꤬": 5332,
      "ꤢ꤬ꤟꤢꤪꤢ꤬ꤞꤢꤩ": 5333,
      "ꤖꤚꤢꤩ꤬ꤕ꤫ꤢꤦ꤬ꤖꤢꤩ꤬ꤛꤢꤩꤕꤜꤢꤩꤖꤢꤩ꤬": 5334,
      "ꤋꤢꤨ꤭ꤛꤥ꤬ꤏꤛꤢꤨ": 5335,
      "ꤜꤣꤢꤨ꤭ꤋꤥ꤭": 5336,
      "ꤛ꤫ꤢꤨ꤬ꤢꤩ꤬ꤛ꤫ꤢꤨ꤬ꤥ꤭": 5337,
      "ꤠꤥ꤬ꤔꤤꤊꤢꤩ꤬": 5338,
      "ꤢ꤬ꤒꤣꤧ꤬ꤜꤢ꤭": 5339,
      "ꤋꤢꤨ꤭ꤏꤛꤢꤩ꤬ꤜꤢ꤬ꤒꤤ꤬": 5340,
      "ꤡꤢ꤬ꤊꤜꤢꤪ꤭ꤘꤢꤨ꤬": 5341,
      "ꤓꤢꤪꤕꤢꤩ꤭ꤊꤢꤧ꤭ꤡ꤫ꤢꤧ꤬": 5342,
      "ꤢ꤬ꤞꤢꤪ꤭ꤢ꤬": 5343,
      "ꤒꤢꤩ꤬ꤖꤥ꤭ꤒꤢꤩ꤬ꤊ꤫ꤤ꤬": 5344,
      "ꤋꤢꤨ꤭ꤟꤢꤩ꤬ꤞꤢ꤬ꤚꤥ꤬": 5345,
      "ꤏꤢꤒꤢ꤭ꤛꤢꤧ꤭": 5346,
      "ꤢ꤬ꤋꤚꤝꤤꤢ꤬ꤋꤚꤝꤢ": 5347,
      "ꤠꤢꤧꤓꤣꤧ꤭": 5348,
      "ꤢ꤬ꤕꤜꤤ꤭ꤢ꤬ꤖꤥ": 5349,
      "ꤠꤢꤧ꤭ꤓꤣꤧ꤭ꤠꤢꤧ꤭": 5350,
      "ꤠꤤ꤭ꤙꤢꤩ꤬ꤞꤢ꤬ꤎꤢꤧꤘꤢ꤬": 5351,
      "ꤠꤤ꤭ꤊꤢꤨꤚꤢꤩ꤬ꤔꤢꤩ꤬ꤖꤢꤨ": 5352,
      "ꤏꤥ꤬ꤚ꤫ꤢ꤬ꤜꤥ꤬": 5353,
      "ꤋꤢꤨ꤭ꤎꤤ꤬ꤗꤤꤥ꤬": 5354,
      "ꤓꤢꤦꤞꤢꤨ꤭ꤊꤢꤧ꤭": 5355,
      "ꤋꤢꤨ꤭ꤗꤢꤒꤢ꤬ꤞꤤꤛꤣ꤬": 5356,
      "ꤛꤢꤪꤊ꤫ꤢꤩ꤬ꤊꤢꤧ꤭": 5357,
      "ꤥ꤬ꤋꤚꤥ꤭ꤥ꤬ꤊꤜꤢꤩ꤭": 5358,
      "ꤊꤢ꤬ꤚꤢꤧꤚꤢꤧ": 5359,
      "ꤢ꤬ꤢꤩ꤬ꤢ꤬": 5360,
      "ꤒꤢꤩ꤬ꤊꤢꤦ꤭ꤒꤢꤩ꤬ꤞꤢꤧ": 5361,
      "ꤞꤤ꤭ꤗ꤫ꤥ꤬ꤞꤤ꤭ꤖꤢꤩ꤭": 5362,
      "ꤕꤢꤩ꤬ꤗ꤫ꤥ꤬ꤕꤢꤩ꤬ꤖꤢꤩ꤭": 5363,
      "ꤋꤢꤨ꤭ꤞꤢꤩ꤬ꤚꤢꤨꤙꤢ꤬ꤙꤢꤩ꤬ꤜꤢ꤬": 5364,
      "ꤟꤤ꤬ꤔꤢꤧꤖꤚꤢꤩ": 5365,
      "ꤜ꤫ꤢꤪ꤬ꤞꤢꤨꤙꤢꤨ꤭": 5366,
      "ꤊꤢꤦ꤭ꤓꤢꤧ꤬ꤞꤢꤧꤓꤢꤧ꤬": 5367,
      "ꤗ꤫ꤢ꤬ꤟꤢꤧ꤭ꤢꤩ꤬ꤟꤢꤧ꤭ꤥ꤭": 5368,
      "ꤟꤢꤧ꤭ꤏꤝꤢ꤬ꤚꤢꤩ꤬ꤏꤢꤪ꤭": 5369,
      "ꤞꤤ꤭ꤊꤛꤢꤞꤤ꤭ꤒꤣꤧ꤬ꤍꤢ꤭": 5370,
      "ꤞꤝꤢ꤬ꤒꤤ": 5371,
      "ꤢ꤬ꤓꤥ꤭ꤢ꤬ꤕꤜꤢꤦ": 5372,
      "ꤢ꤬ꤒꤢ꤭ꤢ꤬ꤒꤢꤩ꤬": 5373,
      "ꤢ꤬ꤏꤥ꤭ꤚꤢꤧ": 5374,
      "ꤒꤣꤧ꤬ꤕ꤫ꤥ꤬ꤗ꤫ꤢꤪ꤬": 5375,
      "ꤒꤣꤧ꤬ꤋꤣꤧ꤬ꤒꤣꤧ꤬ꤋꤢꤩ꤭": 5376,
      "ꤘꤣꤘꤢꤪ꤭ꤘꤣꤏꤥ꤬": 5377,
      "ꤒꤢꤩ꤬ꤜꤢ꤭ꤒꤢꤩ꤬ꤍ꤫ꤥ꤬": 5378,
      "ꤞꤤ꤭ꤕ꤫ꤥ꤬ꤞꤤ꤭": 5379,
      "ꤠꤢꤧ꤭ꤟꤢꤧ꤭ꤠꤢꤧ꤭ꤚꤢꤩ꤬": 5380,
      "ꤊ꤫ꤢꤦ꤬ꤏꤢꤊ꤫ꤢꤦ꤬ꤕꤢ꤭": 5381,
      "ꤊ꤫ꤢꤦ꤬ꤏꤝꤢ꤬ꤊ꤫ꤢꤦ꤬": 5382,
      "ꤊ꤫ꤢꤦ꤬ꤗꤢꤦ꤭ꤊ꤫ꤢꤦ꤬ꤕꤢꤪ꤬": 5383,
      "ꤙꤢꤩ꤬ꤕ꤫ꤢꤧ꤬ꤙꤢꤩ꤬ꤏꤢꤩ꤭": 5384,
      "ꤜꤢꤨ꤭ꤒꤣꤧ꤬ꤍꤢ꤭ꤜꤢꤨ꤭": 5385,
      "ꤋꤢꤨ꤭ꤙꤢꤧ꤬ꤡꤢ꤬ꤗꤢꤩ꤬": 5386,
      "ꤋꤢꤨ꤭ꤙꤢꤪꤞꤢ": 5387,
      "ꤋꤢꤨ꤭ꤕꤢꤩ꤬ꤚꤢ꤬ꤞꤢ꤬": 5388,
      "ꤋꤢꤨ꤭ꤒꤢꤩꤚꤢ꤬": 5389,
      "ꤠꤤ꤭ꤗꤤꤜꤢꤩꤒꤢꤨ": 5390,
      "ꤠꤤ꤭ꤢ꤬ꤚꤤꤗꤢꤞꤢꤧ": 5391,
      "ꤠꤤ꤭ꤢ꤬ꤜꤢꤧꤎꤢ꤬ꤘꤚꤤꤛꤢ꤬": 5392,
      "ꤓꤢꤩ꤬ꤤ꤬ꤓꤢꤩ꤬ꤋꤚꤢꤩ": 5393,
      "ꤖꤢꤩ꤭ꤎꤤ꤬ꤗꤤꤥ꤬": 5394,
      "ꤜꤣꤜꤣꤙꤢ꤭ꤙꤢ꤭": 5395,
      "ꤊ꤫ꤢꤩ꤬ꤠꤤ꤭ꤊ꤫ꤢꤩ꤬ꤊꤢꤪ꤭": 5396,
      "ꤕꤝꤢ꤭ꤗꤤ꤭ꤕꤝꤢ꤭ꤡꤣ꤬": 5397,
      "ꤒꤢꤩ꤬ꤞꤤꤘꤥ꤭ꤞꤤꤍꤢ꤬": 5398,
      "ꤓꤢꤨ꤬ꤖꤚꤢꤩꤟꤢꤨ": 5399,
      "ꤎꤢ꤬ꤖꤤꤚꤢ": 5400,
      "ꤞꤤꤛꤢꤪ꤬ꤊꤜꤢ꤬ꤙꤢꤩ꤬ꤚꤣꤧ": 5401,
      "ꤡꤛꤣ꤬ꤚꤢ꤬ꤗꤤꤛꤣ꤬": 5402,
      "ꤙꤢꤋꤚ꤫ꤤ꤬ꤒꤢꤩ꤭": 5403,
      "ꤒꤣꤧ꤬ꤠꤢ꤬ꤕꤜꤢꤨ꤬ꤒꤣꤧ꤬ꤠꤢ꤬ꤖꤢꤩ꤬": 5404,
      "ꤓꤢꤪꤟꤢꤧ꤭ꤓꤢꤪꤚꤢꤩ꤬": 5405,
      "ꤋꤢꤨ꤭ꤎꤢ꤬ꤜꤢ꤬ꤗꤥ꤬": 5406,
      "ꤥ꤬ꤓꤢꤧ꤬ꤓꤥ꤭ꤥ꤬ꤓꤢꤧ꤬ꤜꤢꤧ꤬": 5407,
      "ꤋꤢꤨ꤭ꤢ꤬ꤗꤤꤔꤢ꤬ꤘꤢ꤬": 5408,
      "ꤋꤢꤨ꤭ꤎꤢ꤬ꤒꤤꤠꤢ꤬ꤔꤢꤎꤣ꤬": 5409,
      "ꤛ꤫ꤤ꤬ꤒꤣꤧ꤬ꤖꤚꤢꤪ": 5410,
      "ꤋꤢꤨ꤭ꤏꤛꤢꤩ꤬ꤜꤢ꤬ꤒꤤ꤬ꤜꤢ": 5411,
      "),": 5412,
      "ꤊꤢ꤭": 5413,
      "ꤊꤢꤩꤜꤢ꤬": 5414,
      "ꤏꤝꤢ꤭": 5415,
      "ꤒꤢꤨ꤬": 5416,
      "ꤒ꤫ꤣꤧ꤬": 5417,
      "ꤒꤢ꤬ꤚꤢꤪ": 5418,
      "ꤒꤢ꤬ꤙꤤ꤬": 5419,
      "ꤓꤥ": 5420,
      "ꤓꤢꤩꤜ": 5421,
      "ꤕꤢꤨ": 5422,
      "ꤖꤢ꤬ꤊꤢꤩ꤬": 5423,
      "ꤗꤥꤕꤢ꤬": 5424,
      "ꤘꤢꤩꤓꤢꤧ꤬": 5425,
      "ꤙꤢ꤬ꤜꤤ꤬": 5426,
      "ꤚꤢ꤬ꤋ": 5427,
      "ꤚꤢ꤬ꤚꤢꤪ꤭": 5428,
      "ꤛꤢꤩ": 5429,
      "ꤛꤝꤢ꤬": 5430,
      "ꤛꤢ꤬ꤖꤢꤨ": 5431,
      "ꤛꤢ꤬ꤚꤢꤧ": 5432,
      "ꤛꤢ꤬ꤜꤣ": 5433,
      "ꤞꤣ": 5434,
      "ꤞꤥ꤬ꤊꤢꤧ꤭": 5435,
      "ꤞꤢ꤬ꤋꤢ꤬": 5436,
      "ꤟꤝꤢ": 5437,
      "ꤟꤥ꤬ꤊꤢꤧ꤭": 5438,
      "ꤡꤢ꤬ꤊꤢꤧ꤭": 5439,
      "ꤢꤝꤤ꤭": 5440,
      "ꤤꤓꤢ꤬ꤊꤢ꤬": 5441,
      "ꤢꤩ꤬ꤊꤣꤧ꤭": 5442,
      "ꤢꤩ꤬ꤋꤚꤢꤦ꤭": 5443,
      "ꤢꤩ꤬ꤗꤣꤧ꤭": 5444,
      "ꤢꤩ꤬ꤋꤢꤪꤗꤢꤨ꤭": 5445,
      "ꤢꤩ꤬ꤒꤢꤩ꤭ꤟꤢꤨ": 5446,
      "ꤢ꤬ꤞꤤ꤭": 5447,
      "ꤢ꤬ꤟꤢꤩ꤬": 5448,
      "ꤢ꤬ꤗꤢ꤬": 5449,
      "ꤢ꤬ꤜꤢꤪ꤭": 5450,
      "ꤢ꤬ꤊꤜ": 5451,
      "ꤢ꤬ꤗꤢꤧ": 5452,
      "ꤢ꤬ꤓꤝꤢ꤭": 5453,
      "ꤢ꤬ꤘꤢꤧ꤬": 5454,
      "ꤢ꤬ꤙꤢꤩ꤭": 5455,
      "ꤢ꤬ꤏꤢꤦ꤬": 5456,
      "ꤢ꤬ꤓꤢꤩ꤭": 5457,
      "ꤢ꤬ꤗꤢꤨꤗ꤫ꤢꤧ꤬ꤚꤤ꤬ꤡ꤫ꤢꤧ꤬": 5458,
      "ꤢ꤬ꤏꤢꤦ꤭": 5459,
      "ꤢ꤬ꤞꤢꤪ꤬ꤊꤜꤣꤧ꤭": 5460,
      "ꤢ꤬ꤔꤝꤢꤓꤢꤧ꤬": 5461,
      "ꤢ꤬ꤡꤢꤧ꤬": 5462,
      "ꤢ꤬ꤟꤥ꤭ꤊꤢꤨ꤭": 5463,
      "ꤢ꤬ꤕꤝꤢꤩ꤬": 5464,
      "ꤢ꤬ꤗꤢꤪꤋꤢꤨ꤬ꤒꤣꤧ꤬ꤔꤢꤩꤖꤢꤨ": 5465,
      "ꤢ꤬ꤠꤤ꤭ꤊꤢꤨ꤭": 5466,
      "ꤢ꤬ꤍꤢꤨ꤬ꤘꤢꤨ꤬": 5467,
      "ꤢ꤬ꤒꤣꤧ꤬ꤠꤤ꤭": 5468,
      "ꤢ꤬ꤡꤢ꤬ꤡꤝꤢ꤬": 5469,
      "ꤢ꤬ꤕꤜꤢꤧ꤬": 5470,
      "ꤢ꤬ꤔꤥꤢ꤬": 5471,
      "ꤢ꤬ꤍ꤫ꤢꤧ꤬": 5472,
      "ꤢ꤬ꤒꤣꤧ꤬ꤡꤢꤩ꤭": 5473,
      "ꤢ꤬ꤓꤝꤢ꤬": 5474,
      "ꤢ꤬ꤡꤝꤢꤩ꤭": 5475,
      "ꤥ꤬ꤣꤧ꤭": 5476,
      "ꤥ꤬ꤕꤢ꤭": 5477,
      "ꤥ꤬ꤕ꤫ꤢꤩ꤬": 5478,
      "ꤥ꤬ꤡ꤫ꤢꤧ꤬": 5479,
      "ꤥ꤬ꤜꤣ": 5480,
      "ꤥ꤬ꤕ꤫ꤥ꤬": 5481,
      "ꤥ꤬ꤜꤢꤪ꤭ꤕꤜꤤ꤭": 5482,
      "ꤥ꤬ꤒꤣꤧ꤬ꤘꤢꤦ꤬": 5483,
      "ꤥ꤬ꤓꤢꤧ꤬ꤜꤥ꤭": 5484,
      "ꤥ꤬ꤘꤢꤦ꤭": 5485,
      "ꤥ꤬ꤕꤣꤧ꤬ꤜꤢ꤭": 5486,
      "ꤥ꤬ꤘꤝꤢ꤭": 5487,
      "ꤥ꤬ꤚ꤫ꤢꤧ꤬": 5488,
      "ꤥ꤬ꤞꤢꤧ꤬": 5489,
      "ꤥ꤬ꤊꤥ꤭": 5490,
      "ꤢꤪꤚ꤫ꤥ꤬": 5491,
      "ꤢꤪꤘꤤ": 5492,
      "ꤞꤤꤓꤢꤧ꤬": 5493,
      "ꤔꤣꤧ꤬ꤕꤢ꤬": 5494,
      "ꤔꤣꤧ꤬ꤞꤤꤔꤣꤧ꤭": 5495,
      "ꤣꤧ꤭ꤒꤣꤧ꤬": 5496,
      "ꤣꤧ꤭ꤚꤣꤧ꤬": 5497,
      "ꤣꤧ꤭ꤜꤢꤩ꤭": 5498,
      "ꤣꤧ꤭ꤒꤣ꤬ꤖꤢꤩ꤬": 5499,
      "ꤣꤧ꤭ꤒꤣ꤬ꤖꤥ꤬ꤔꤣꤧ꤬": 5500,
      "ꤣꤧ꤭ꤔꤣꤧ꤭ꤡꤣ꤬": 5501,
      "ꤣꤧ꤭ꤔꤣꤧ꤭ꤗꤢꤨ꤬": 5502,
      "ꤢꤨ꤭ꤔꤣꤧ꤬": 5503,
      "ꤢꤨ꤭ꤞꤤꤕꤜꤢꤪ꤬": 5504,
      "ꤢꤨ꤭ꤋꤥ꤭": 5505,
      "ꤢꤨ꤭ꤗꤢꤦ꤭": 5506,
      "ꤢꤨ꤭ꤕꤢꤪ꤬": 5507,
      "ꤒꤣꤧ꤬ꤢꤧ꤭": 5508,
      "ꤒꤣꤧ꤬ꤜꤢ꤭": 5509,
      "ꤒꤣꤧ꤬ꤗ꤫ꤢ꤬": 5510,
      "ꤒꤣꤧ꤬ꤍ꤫ꤥ꤬": 5511,
      "ꤒꤣꤧ꤬ꤊꤢ꤬": 5512,
      "ꤒꤣꤧ꤬ꤕ꤫ꤢꤦ꤬": 5513,
      "ꤒꤣꤧ꤬ꤊꤜꤥ꤭": 5514,
      "ꤒꤣꤧ꤬ꤓꤝꤢ": 5515,
      "ꤒꤣꤧ꤬ꤙꤢꤧ꤭": 5516,
      "ꤒꤣꤧ꤬ꤙꤛꤢ꤬": 5517,
      "ꤒꤣꤧ꤬ꤘꤢꤧ꤭": 5518,
      "ꤒꤣꤧ꤬ꤋꤚ꤫ꤢꤧ꤬": 5519,
      "ꤒꤣꤧ꤬ꤋꤚꤢꤦ꤬": 5520,
      "ꤒꤣꤧ꤬ꤙꤛ": 5521,
      "ꤒꤣꤧ꤬ꤢꤝꤤ꤭": 5522,
      "ꤘꤣꤣꤧ꤭": 5523,
      "ꤒꤢꤩ꤬ꤟꤢꤩ꤬": 5524,
      "ꤒꤢꤩ꤬ꤟꤣꤧ": 5525,
      "ꤒꤢꤩ꤬ꤚꤢꤧ꤬": 5526,
      "ꤒꤢꤩ꤬ꤗꤢꤧ": 5527,
      "ꤒꤢꤩ꤬ꤓꤢꤨ꤬ꤞꤢꤩ": 5528,
      "ꤒꤢꤩ꤬ꤜ꤫ꤢꤩ꤬ꤥ꤬": 5529,
      "ꤒꤢꤩ꤬ꤜꤣꤧ꤬ꤟꤥ꤭": 5530,
      "ꤒꤢꤩ꤬ꤊꤜꤢꤧ꤬": 5531,
      "ꤒꤢꤩ꤬ꤙꤢꤧꤜꤢꤧ꤬": 5532,
      "ꤒꤢꤩ꤬ꤛꤢꤧ꤬": 5533,
      "ꤒꤢꤩ꤬ꤘꤣꤧꤟꤢꤧ꤭ꤘꤣꤧꤚꤢꤩ꤬": 5534,
      "ꤒꤢꤩ꤬ꤖꤚꤢ꤬ꤓꤢꤧ꤬": 5535,
      "ꤒꤢꤩ꤬ꤕꤣꤒꤣꤧ꤬ꤚꤤ꤬": 5536,
      "ꤒꤢꤩ꤬ꤢ꤬ꤘꤢꤨ꤬ꤢ꤬ꤛꤢꤧ꤭": 5537,
      "ꤒꤢꤩ꤬ꤒꤣꤧ꤬ꤕꤜꤢꤪ꤬ꤜꤣꤧ꤬ꤛꤢꤪ꤬": 5538,
      "ꤒꤢꤩ꤬ꤋꤢꤧꤡꤢ꤭ꤋꤢꤧꤡꤢꤦ꤬": 5539,
      "ꤒꤢꤩ꤬ꤢ꤬ꤡ꤫ꤢꤪ꤬ꤢ꤬ꤛꤢꤧ꤭": 5540,
      "ꤒꤢꤩ꤬ꤖꤚꤢ꤬ꤚ꤫ꤢꤨ꤬ꤖꤚꤢ꤬ꤒꤢꤩ": 5541,
      "ꤒꤢꤩ꤬ꤙꤢꤧꤞꤝꤢꤙꤢꤧꤜꤢ꤬": 5542,
      "ꤒꤢꤩ꤬ꤋꤢꤧ꤭ꤙꤢꤩ": 5543,
      "ꤖꤚꤢꤪꤘꤤ": 5544,
      "ꤥ꤭ꤔ꤫ꤤ꤬": 5545,
      "ꤥ꤭ꤓꤣꤧ꤭": 5546,
      "ꤥ꤭ꤏꤢꤦ꤬": 5547,
      "ꤥ꤭ꤗꤢꤦ꤬": 5548,
      "ꤞꤤ꤭ꤗꤝꤤ꤭": 5549,
      "ꤞꤤ꤭ꤕꤣꤧꤞꤢꤩ꤬": 5550,
      "ꤞꤤ꤭ꤖꤢ": 5551,
      "ꤞꤤ꤭ꤊꤢꤨꤜꤢꤩ꤬ꤊꤥ꤬": 5552,
      "ꤟꤢꤩ꤬ꤞꤥ꤭": 5553,
      "ꤖꤚꤢꤩ꤬ꤥ": 5554,
      "ꤖꤚꤢꤩ꤬ꤒꤢꤩ꤬": 5555,
      "ꤖꤚꤢꤩ꤬ꤡꤢꤪ": 5556,
      "ꤖꤚꤢꤩ꤬ꤟꤢꤩꤏꤥ꤬": 5557,
      "ꤖꤚꤢꤩ꤬ꤏꤢꤩ꤭": 5558,
      "ꤖꤚꤢꤩ꤬ꤏꤝꤤ": 5559,
      "ꤖꤚꤢꤩ꤬ꤤ꤬ꤏꤢꤩ꤭ꤒꤢ꤭ꤊꤢꤧ꤭": 5560,
      "ꤖꤚꤢꤩ꤬ꤗꤢꤧꤡꤢꤧ꤬ꤚꤣꤧ": 5561,
      "ꤖꤚꤢꤩ꤬ꤙꤢꤧꤘꤤ꤭": 5562,
      "ꤒꤣꤧ꤬ꤟꤢꤩ꤬ꤡꤣꤧ": 5563,
      "ꤤ꤬ꤏ": 5564,
      "ꤤ꤬ꤢꤩ": 5565,
      "ꤤ꤬ꤋꤢꤨ꤬": 5566,
      "ꤤ꤬ꤜꤢꤨ꤬": 5567,
      "ꤤ꤬ꤏꤥ꤬": 5568,
      "ꤤ꤬ꤋꤚꤢꤩ": 5569,
      "ꤤ꤬ꤊꤤ꤭": 5570,
      "ꤤ꤬ꤕꤢꤧ꤬": 5571,
      "ꤒꤣ꤬ꤞꤤ꤭": 5572,
      "ꤒꤣ꤬ꤢꤪ꤬": 5573,
      "ꤒꤣ꤬ꤋꤢꤨ꤬": 5574,
      "ꤒꤣ꤬ꤙꤢꤦ꤬": 5575,
      "ꤒꤣ꤬ꤗꤢꤩ": 5576,
      "ꤒꤣ꤬ꤊꤜꤢꤨ꤭": 5577,
      "ꤟꤢꤩꤗꤢꤨꤗ꤫ꤢꤧ꤬": 5578,
      "ꤟꤢꤩꤟꤢꤨꤣꤧ꤭": 5579,
      "ꤟꤢꤩꤣꤧ꤭ꤒꤣ꤬ꤖꤚꤢꤩ꤬ꤔꤣꤧ꤬": 5580,
      "ꤟꤢꤩꤊꤜꤢꤪ꤭": 5581,
      "ꤟꤢꤩꤕꤛꤢ": 5582,
      "ꤟꤢꤩꤥ꤬ꤊꤢꤧ꤭": 5583,
      "ꤟꤢꤩꤒꤣꤧ꤬ꤊꤢꤩ꤬": 5584,
      "ꤟꤢꤩꤒꤢ꤭ꤒꤢꤦ꤭": 5585,
      "ꤟꤢꤩꤒꤣꤧ꤬ꤗꤥ꤭ꤒꤣꤧ꤬ꤊꤢꤩ꤬": 5586,
      "ꤟꤢꤩꤊꤜꤢꤧꤡꤢꤪ": 5587,
      "ꤗꤢꤩ꤬ꤊꤢꤧ꤭": 5588,
      "ꤗꤢꤩ꤬ꤔꤢꤧ꤬": 5589,
      "ꤗꤢꤩ꤬ꤒꤢ꤭": 5590,
      "ꤗꤢꤩ꤬ꤜꤤ꤬": 5591,
      "ꤗꤢꤩ꤬ꤗꤢꤨꤗ꤫ꤢꤧ꤬": 5592,
      "ꤗꤢꤩ꤬ꤞꤢꤩ꤭": 5593,
      "ꤗꤢꤩ꤬ꤗꤣꤧ꤭": 5594,
      "ꤗꤢꤩ꤬ꤚꤢꤩ꤭": 5595,
      "ꤗꤢꤩ꤬ꤔꤢꤧ꤭": 5596,
      "ꤗꤢꤩ꤬ꤚ꤫ꤥ꤬": 5597,
      "ꤗꤢꤩ꤬ꤡꤢꤦ꤭": 5598,
      "ꤗꤢꤩ꤬ꤗꤥ꤬ꤚꤣꤧ": 5599,
      "ꤗꤢꤩ꤬ꤒꤣꤧ꤬ꤕꤜꤢꤩ꤬": 5600,
      "ꤗꤢꤩ꤬ꤏꤝꤤ": 5601,
      "ꤗꤢꤩ꤬ꤖꤢꤧꤒꤢꤦ": 5602,
      "ꤗꤢꤩ꤬ꤊ꤫ꤢꤨ꤬": 5603,
      "ꤗꤢꤩ꤬ꤘꤢꤨ꤬ꤓꤢꤧ꤬": 5604,
      "ꤗꤢꤩ꤬ꤜꤢꤨ꤭ꤓꤢꤧ꤬": 5605,
      "ꤗꤢꤩ꤬ꤥꤗꤢꤩ꤬": 5606,
      "ꤗꤢꤩ꤬ꤥ꤬ꤓꤢꤧ꤬": 5607,
      "ꤗꤢꤩ꤬ꤙꤛꤢ꤬": 5608,
      "ꤗꤢꤩ꤬ꤜꤣꤧ꤬ꤋꤢꤦ": 5609,
      "ꤗꤢꤩ꤬ꤙꤢꤪ꤭": 5610,
      "ꤗꤢꤩ꤬ꤕꤤ꤭": 5611,
      "ꤗꤢꤩ꤬ꤕꤢꤩ": 5612,
      "ꤗꤢꤩ꤬ꤛꤢꤪ": 5613,
      "ꤗꤢꤩ꤬ꤛꤢꤪ꤭": 5614,
      "ꤗꤢꤩ꤬ꤥ꤭ꤏꤢꤦ꤬": 5615,
      "ꤠꤢꤧ꤭ꤒꤢꤩ꤬": 5616,
      "ꤠꤢꤧ꤭ꤠꤢꤧ꤭": 5617,
      "ꤠꤢꤧ꤭ꤋꤢꤨ꤬": 5618,
      "ꤠꤢꤧ꤭ꤜ꤫ꤢꤩ꤬": 5619,
      "ꤠꤢꤧ꤭ꤖꤢ": 5620,
      "ꤠꤢꤧ꤭ꤊꤜꤢꤧ": 5621,
      "ꤠꤢꤧ꤭ꤡ꤫ꤢꤦ꤬": 5622,
      "ꤠꤢꤧ꤭ꤜꤢꤨ꤬ꤜꤢꤩ": 5623,
      "ꤗꤢ꤬ꤗ꤫ꤢ꤬": 5624,
      "ꤢ꤬ꤋꤛꤢ": 5625,
      "ꤊꤣꤧ꤬ꤚ꤫ꤥ꤬": 5626,
      "ꤊꤣꤧ꤬ꤛꤤ꤬": 5627,
      "ꤟꤢꤨꤣꤧ꤭ꤒꤣꤧ꤬ꤟꤢꤩ꤬": 5628,
      "ꤊ꤫ꤢꤦ꤬ꤒꤢꤩ꤬": 5629,
      "ꤊ꤫ꤢꤦ꤬ꤏꤢꤩ꤭": 5630,
      "ꤒꤥ꤬ꤟꤢꤧ꤭": 5631,
      "ꤙꤢꤩ꤬ꤥ꤭": 5632,
      "ꤙꤢꤩ꤬ꤗꤢꤦ꤭": 5633,
      "ꤙꤢꤩ꤬ꤔꤤꤊꤢꤩ꤬": 5634,
      "ꤛꤢꤩ꤬ꤞꤤ꤭ꤥ꤬": 5635,
      "ꤛꤢꤩ꤬ꤞꤤ꤭ꤜꤥ꤬": 5636,
      "ꤤ꤭ꤒꤣꤧ꤬ꤡꤢ": 5637,
      "ꤊꤣꤧ꤬ꤛꤢꤧ꤭ꤟꤢ꤭": 5638,
      "ꤊꤣꤧ꤬ꤛꤢꤧ꤭ꤕꤜꤤ꤬": 5639,
      "ꤊꤣꤧ꤬ꤛꤢꤧ꤭ꤟꤢꤩ꤭": 5640,
      "ꤜꤢꤨ꤭ꤕꤣꤧꤞꤢꤩ꤬": 5641,
      "ꤜꤢꤨ꤭ꤊꤢꤧ꤭ꤏꤢ": 5642,
      "ꤒꤣ꤬ꤖꤚꤢꤩ꤬ꤚꤣꤧ꤬": 5643,
      "ꤒꤣ꤬ꤖꤚꤢꤩ꤬ꤡꤣꤧ": 5644,
      "ꤒꤣ꤬ꤖꤚꤢꤩ꤬ꤔꤣꤧ꤬ꤗꤢ꤬": 5645,
      "ꤖꤢꤨꤜꤣꤧ꤬": 5646,
      "ꤖꤢꤨꤗꤢꤩ꤭": 5647,
      "ꤚꤢꤧ꤬ꤒꤢꤩ꤬": 5648,
      "ꤕꤢꤩ꤬ꤟꤤ꤬": 5649,
      "ꤕꤢꤩ꤬ꤕꤣꤧꤞꤢꤩ꤬": 5650,
      "ꤊꤢꤧ꤭ꤓꤢꤧ꤬": 5651,
      "ꤟꤢꤧ꤭ꤚꤣꤧ": 5652,
      "ꤟꤢꤧ꤭ꤒꤢ꤭": 5653,
      "ꤟꤢꤧ꤭ꤋꤛꤢ꤭": 5654,
      "ꤟꤢꤧ꤭ꤜ꤫ꤢꤩ꤬": 5655,
      "ꤟꤢꤧ꤭ꤙꤢꤩ": 5656,
      "ꤟꤢꤧ꤭ꤋꤛꤢ꤭ꤞꤢꤧ": 5657,
      "ꤟꤢꤧ꤭ꤗꤢꤧꤕꤢꤨ꤭": 5658,
      "ꤟꤢꤧ꤭ꤖꤢꤩ꤬": 5659,
      "ꤟꤢꤧ꤭ꤘꤢꤧꤍꤢꤦ꤬ꤜꤢꤧ꤬": 5660,
      "ꤟꤢꤧ꤭ꤓꤥ꤬": 5661,
      "ꤟꤢꤧ꤭ꤒꤥ꤬ꤙꤢꤩ꤬": 5662,
      "ꤔꤢꤧ꤬ꤔꤢꤧ꤬": 5663,
      "ꤔꤢꤧ꤬ꤜꤢ꤭": 5664,
      "ꤔꤢꤧ꤬ꤋꤢꤨ꤬": 5665,
      "ꤔꤢꤧ꤬ꤞꤝꤢ": 5666,
      "ꤔꤢꤧ꤬ꤕ꤫ꤥ꤬": 5667,
      "ꤔꤢꤧ꤬ꤋꤥ꤭": 5668,
      "ꤔꤢꤧ꤬ꤖꤢꤨꤖꤚꤢꤩ꤬ꤋꤢꤨ꤭": 5669,
      "ꤔꤢꤧ꤬ꤏꤢꤨ꤬": 5670,
      "ꤔꤢꤧ꤬ꤕꤣꤧꤞꤢꤩ꤬ꤕꤜꤢꤪ꤬": 5671,
      "ꤔꤢꤧ꤬ꤜꤢꤨ꤬ꤜꤢꤩ": 5672,
      "ꤔꤢꤧ꤬ꤖꤢꤨꤖꤚꤢꤩ꤬ꤗꤢꤪ꤬": 5673,
      "ꤔꤢꤧ꤬ꤙꤢꤩꤑꤢꤩ꤭": 5674,
      "ꤕꤢ꤭ꤚꤣꤧ꤬": 5675,
      "ꤜꤢꤪ꤭ꤟꤢꤩ꤬": 5676,
      "ꤜꤢꤪ꤭ꤊꤣꤧ꤭": 5677,
      "ꤜꤢꤪ꤭ꤋꤢꤩ꤭": 5678,
      "ꤜꤢꤪ꤭ꤙꤢꤩ": 5679,
      "ꤜꤢꤪ꤭ꤋꤛꤢ꤭ꤞꤢꤧ": 5680,
      "ꤜꤢꤪ꤭ꤏꤣꤧ": 5681,
      "ꤜꤢꤪ꤭ꤋꤚꤢꤧ": 5682,
      "ꤜꤢꤪ꤭ꤊꤢꤧ꤭ꤘꤢꤩ꤭": 5683,
      "ꤓꤢꤧ꤬ꤓꤝꤢ꤭": 5684,
      "ꤓꤢꤧ꤬ꤋꤛꤢ꤭": 5685,
      "ꤓꤢꤧ꤬ꤥ꤬ꤔꤢꤧ꤭": 5686,
      "ꤓꤢꤧ꤬ꤘꤢꤧꤔ꤫ꤤ꤬": 5687,
      "ꤓꤢꤧ꤬ꤏꤢꤒꤢꤩ꤬": 5688,
      "ꤜꤢ꤭ꤋꤢꤨ꤬": 5689,
      "ꤜꤢ꤭ꤙꤢꤨ꤭ꤘꤢꤨ꤬": 5690,
      "ꤛꤢꤨꤜꤤ꤬ꤛꤢ꤬": 5691,
      "ꤑꤢꤩ꤭ꤔꤣꤧ꤬": 5692,
      "ꤡꤝꤢꤞꤣꤧ꤭": 5693,
      "ꤡꤝꤢꤥ꤬ꤔꤢꤧ꤭": 5694,
      "ꤡꤝꤢꤟꤢꤩꤙꤢꤩ꤬": 5695,
      "ꤡꤝꤢꤒꤣꤧ꤬ꤔꤢꤩ꤬": 5696,
      "ꤡꤝꤢꤤ꤬ꤞꤝꤢ": 5697,
      "ꤡꤝꤢꤔ꤫ꤤ꤬ꤟꤥ꤭": 5698,
      "ꤡꤝꤢꤕꤢꤩ꤭": 5699,
      "ꤡꤝꤢꤘꤣꤧꤟꤣꤧ꤭": 5700,
      "ꤡꤝꤢꤙꤣꤧꤒꤢꤩ꤭": 5701,
      "ꤡꤝꤢꤥ꤬ꤊꤥ": 5702,
      "ꤡꤝꤢꤖꤚꤢꤧ꤭": 5703,
      "ꤡꤝꤢꤜ꤫ꤢꤧ꤬": 5704,
      "ꤡꤝꤢꤏꤢꤨ꤬ꤔꤥ꤭": 5705,
      "ꤡꤝꤢꤚ꤫ꤥ꤬ꤊꤣꤧ꤭": 5706,
      "ꤡꤝꤢꤘꤢꤧ꤬ꤥ꤬": 5707,
      "ꤡꤝꤢꤕꤣꤧ꤬ꤏꤤ꤭": 5708,
      "ꤡꤝꤢꤏꤤ꤬ꤜꤥ": 5709,
      "ꤡꤝꤢꤕꤢꤩ꤭ꤊꤢꤧ꤭": 5710,
      "ꤋꤢꤨ꤭ꤢꤨ꤬": 5711,
      "ꤋꤢꤨ꤭ꤊꤢꤩ꤬": 5712,
      "ꤋꤢꤨ꤭ꤢ꤬ꤙꤚꤢ꤬ꤟꤢ꤬": 5713,
      "ꤋꤢꤨ꤭ꤚꤢꤨ": 5714,
      "ꤋꤢꤨ꤭ꤢ꤬ꤋꤢ꤬": 5715,
      "ꤋꤢꤨ꤭ꤜꤢꤨ꤬ꤎꤤ": 5716,
      "ꤋꤢꤨ꤭ꤒꤢ꤬ꤚꤢꤪ": 5717,
      "ꤡꤣꤧꤔꤢꤧ": 5718,
      "ꤡꤣꤧꤒꤢꤩ꤭": 5719,
      "ꤕ꤫ꤢꤩ꤬ꤜꤢ꤭ꤟꤤ": 5720,
      "ꤕ꤫ꤢꤩ꤬ꤊꤣꤧ꤭ꤘꤢꤦ꤬": 5721,
      "ꤕ꤫ꤢꤩ꤬ꤜꤢꤪ꤭ꤟꤣꤧ": 5722,
      "ꤓꤥ꤭ꤙꤢꤩ": 5723,
      "ꤓꤥ꤭ꤞꤢꤩ꤭": 5724,
      "ꤓꤥ꤭ꤕꤢ꤭ꤔꤣꤧ꤬": 5725,
      "ꤘꤢꤦ꤬ꤔꤤ": 5726,
      "ꤚꤣꤧꤜꤢꤨ꤭": 5727,
      "ꤚꤣꤧꤜꤢꤪ꤭": 5728,
      "ꤚꤣꤧꤡ꤫ꤢꤧ꤬": 5729,
      "ꤖꤢꤧꤣꤧ꤭": 5730,
      "ꤘꤣꤧꤜꤢꤪ꤭": 5731,
      "ꤘꤣꤧꤚꤣꤧ": 5732,
      "ꤘꤣꤧꤥ꤬ꤔꤢꤧ꤭": 5733,
      "ꤘꤣꤧꤗꤣꤧ꤭": 5734,
      "ꤘꤣꤧꤔꤥ꤬": 5735,
      "ꤘꤣꤧꤥ꤬ꤓꤝꤢ꤭ꤓꤢꤧ꤬": 5736,
      "ꤊꤢꤨ꤭ꤔꤥ꤭": 5737,
      "꤫ꤤ꤬ꤊꤢꤨ꤭ꤔꤣꤧ꤬": 5738,
      "ꤞꤢꤧꤟꤢꤧ꤭": 5739,
      "ꤞꤢꤧꤕꤢ꤬": 5740,
      "ꤞꤢꤧꤜꤢꤪ꤬": 5741,
      "ꤢꤪ꤭ꤕꤣꤧ꤬ꤛ꤫ꤢꤩ꤬": 5742,
      "ꤛ꤫ꤢꤦ꤬ꤊꤢ꤬": 5743,
      "ꤔ꤫ꤤ꤬ꤜꤢꤪ꤭": 5744,
      "ꤔ꤫ꤤ꤬ꤡ꤫ꤢꤧ꤬": 5745,
      "ꤔ꤫ꤤ꤬ꤡꤢꤦ꤭": 5746,
      "ꤔ꤫ꤤ꤬ꤊꤜꤢꤨ꤭": 5747,
      "ꤗꤢꤧꤓꤢꤧ꤬": 5748,
      "ꤗꤢꤧꤡ꤫ꤢꤧ꤬": 5749,
      "ꤗꤢꤧꤠ꤫ꤢꤧ꤬": 5750,
      "ꤗꤢꤧꤒꤥ꤭ꤗꤢ": 5751,
      "ꤗꤢꤧꤒꤥ꤭ꤘꤢꤩ꤭": 5752,
      "ꤗꤢꤧꤒꤢ꤭ꤒꤢ꤭": 5753,
      "ꤗꤢꤧꤙꤛꤢ꤬ꤖꤢꤧ": 5754,
      "ꤋꤢꤧ꤭ꤑꤢ꤭": 5755,
      "ꤣꤧ꤭ꤔꤣꤧ꤬ꤒꤣ꤬ꤖꤥ꤬": 5756,
      "ꤗ꤫ꤢ꤬ꤊꤣꤧ꤭": 5757,
      "ꤗ꤫ꤢ꤬ꤜꤢ꤭ꤟꤤꤒꤥ꤬": 5758,
      "ꤢ꤬ꤚꤢꤧ꤭": 5759,
      "ꤞꤣꤧ꤭ꤕꤢ꤬": 5760,
      "ꤞꤣꤧ꤭ꤔ꤫ꤤ꤬ꤘꤢ꤭": 5761,
      "ꤞꤣꤧ꤭ꤒꤣꤧ꤬ꤜꤤ": 5762,
      "ꤊꤢꤩ꤬ꤙꤛꤢ꤬": 5763,
      "ꤊꤢꤩ꤬ꤙꤢꤪ꤭": 5764,
      "ꤜꤥ꤭ꤡꤝꤢꤒ꤫ꤥ꤬": 5765,
      "ꤜꤥ꤭ꤜꤤ꤭ꤖꤥ": 5766,
      "ꤡꤢꤩ꤬ꤔꤢꤪ": 5767,
      "ꤒꤢ꤭ꤒ꤫ꤣ꤬ꤊꤣꤧ꤭": 5768,
      "ꤒꤢ꤭ꤔꤥ꤬": 5769,
      "ꤒꤢ꤭ꤊ꤫ꤥ꤬": 5770,
      "ꤒꤢ꤭ꤙꤤꤊꤢꤧ꤭": 5771,
      "ꤒꤢ꤭ꤠꤢꤩ꤭": 5772,
      "ꤘꤢꤨ꤬ꤗꤝꤤ꤭": 5773,
      "ꤘꤢꤨ꤬ꤓꤢꤨ꤭ꤜꤣ": 5774,
      "ꤔꤤꤎꤢ꤬": 5775,
      "ꤔꤤꤡꤢꤨ": 5776,
      "ꤒꤢꤩ꤬ꤞꤝꤤ꤬": 5777,
      "ꤚꤣꤧꤘꤢꤦ꤬ꤜꤢꤪ꤭": 5778,
      "ꤚꤣꤧꤘꤢꤦ꤬ꤔ꤫ꤢꤩ꤬": 5779,
      "ꤢ꤬ꤖꤢꤨꤕꤣꤧ꤬ꤒꤤ": 5780,
      "ꤒꤥ꤭ꤘꤢꤦ꤬": 5781,
      "ꤓꤝꤢ꤭ꤔ꤫ꤤ꤬": 5782,
      "ꤓꤝꤢ꤭ꤕꤢ꤬": 5783,
      "ꤓꤝꤢ꤭ꤊꤢ꤬": 5784,
      "ꤓꤝꤢ꤭ꤔꤢꤪ": 5785,
      "ꤓꤝꤢ꤭ꤜꤢꤪ꤭ꤟꤣꤧ": 5786,
      "ꤞꤤꤑꤢꤩ꤭ꤜꤢꤪ꤭": 5787,
      "ꤞꤤꤑꤢꤩ꤭ꤜꤢꤧ꤬": 5788,
      "ꤞꤤꤑꤢꤩ꤭ꤒꤢ꤭ꤒꤢꤩ꤬": 5789,
      "ꤞꤤꤑꤢꤩ꤭ꤔꤥ꤬": 5790,
      "ꤒꤣꤧ꤬ꤚꤢ꤭": 5791,
      "ꤒꤣꤧ꤬ꤚꤤ꤬ꤞ": 5792,
      "ꤞꤤꤕꤜꤢꤪ꤬ꤔꤣꤧ꤬": 5793,
      "ꤞꤤꤕꤜꤢꤪ꤬ꤒꤢꤩ꤬": 5794,
      "ꤠꤤ꤭ꤢ": 5795,
      "ꤠꤤ꤭ꤞꤢꤩ꤭": 5796,
      "ꤠꤤ꤭ꤕꤢꤩ꤬ꤚꤢ꤬": 5797,
      "ꤠꤤ꤭ꤜꤢꤪꤘꤤ꤬ꤊꤤ꤬": 5798,
      "ꤘꤢꤧ꤬ꤏꤣꤧ": 5799,
      "ꤘꤢꤧ꤬ꤖꤥ": 5800,
      "ꤘꤢꤧ꤬ꤒꤣꤧ꤬ꤖꤢ꤭ꤊꤢꤧ꤭": 5801,
      "ꤘꤢꤧ꤬ꤥ꤬ꤊꤥꤊꤢꤧ꤭": 5802,
      "ꤘꤢꤧ꤬ꤥ꤬ꤋꤚꤢꤧꤊꤢꤧ꤭": 5803,
      "ꤘꤢꤧ꤬ꤜꤝꤢꤊꤢꤧ꤭": 5804,
      "ꤕꤢ꤬ꤔꤣꤧ꤬": 5805,
      "ꤕꤢ꤬ꤕꤢ꤬": 5806,
      "ꤕꤢ꤬ꤊꤢꤨ": 5807,
      "ꤜꤢꤧ꤬ꤊ꤫ꤢꤩ꤬": 5808,
      "ꤍ꤫ꤥ꤬ꤚꤢꤧ꤬": 5809,
      "ꤔꤢꤪ꤭ꤓꤢꤩ꤬": 5810,
      "ꤔꤢꤪ꤭ꤊꤢ꤬ꤋꤛꤢ꤭": 5811,
      "ꤔꤢꤪ꤭ꤚꤢ꤭": 5812,
      "ꤔꤢꤪ꤭ꤗꤢꤦ꤭": 5813,
      "ꤔꤢꤪ꤭ꤟꤢꤩꤏꤥ꤬ꤘꤥ꤬ꤔꤢꤧ꤭": 5814,
      "ꤔꤢꤪ꤭ꤒꤣꤧ꤬ꤚꤤ꤬ꤒꤣꤧ꤬ꤚꤢꤧ꤭": 5815,
      "ꤔꤢꤪ꤭ꤞꤤꤑꤢꤩ꤭ꤕꤜꤥ꤭": 5816,
      "ꤔꤢꤪ꤭ꤥ꤬ꤊꤥ": 5817,
      "ꤔꤢꤪ꤭ꤢꤩꤟꤢꤧ꤭": 5818,
      "ꤔꤢꤪ꤭ꤊꤣꤧ꤬ꤓꤢꤪ꤬ꤥ꤬": 5819,
      "ꤔꤢꤪ꤭ꤘꤢꤦꤒꤣꤧ꤬ꤜꤤ": 5820,
      "ꤔꤢꤪ꤭ꤟꤢꤩꤜꤥ꤭": 5821,
      "ꤔꤢꤪ꤭ꤜꤢꤪ꤬": 5822,
      "ꤔꤢꤪ꤭ꤞꤢꤪ꤭": 5823,
      "ꤔꤢꤪ꤭ꤚꤢꤪ꤬ꤚꤣꤧ": 5824,
      "ꤔꤢꤪ꤭ꤞꤢꤨ꤭ꤟꤢꤧ꤭": 5825,
      "ꤔꤢꤪ꤭ꤕꤜꤝꤢ꤭ꤓꤢꤩ꤬": 5826,
      "ꤔꤢꤪ꤭ꤙꤢꤧꤒꤢ꤭": 5827,
      "ꤔꤢꤪ꤭ꤤ꤬ꤒꤢ꤭": 5828,
      "ꤔꤢꤪ꤭ꤞꤢꤨ꤭ꤊꤢ꤬ꤋꤛꤢ꤭": 5829,
      "ꤔꤢꤪ꤭ꤡꤢꤦ꤬ꤒꤢ꤭": 5830,
      "ꤊꤢꤨꤖꤢꤩ꤬": 5831,
      "ꤜꤣꤧ꤬ꤛ꤫ꤢꤦ꤬": 5832,
      "ꤜꤣꤧ꤬ꤘꤢ꤭": 5833,
      "ꤜꤣꤧ꤬ꤒꤢꤦ꤭": 5834,
      "ꤜꤣꤧ꤬ꤊ꤫ꤥ꤬": 5835,
      "ꤜꤣꤧ꤬ꤖꤚꤢꤪ꤬": 5836,
      "ꤜꤣꤧ꤬ꤠꤤ꤬ꤜꤣꤧ꤬ꤠꤢꤪ꤭": 5837,
      "ꤋꤛꤢ꤭ꤖꤢꤧ": 5838,
      "ꤋꤛꤢ꤭ꤒꤣꤧ꤬ꤘꤢꤦ꤬ꤜꤣ": 5839,
      "ꤛꤢꤖꤢꤨ": 5840,
      "ꤛꤢꤕꤤꤜꤢ": 5841,
      "ꤡ꤫ꤢꤧ꤬ꤟꤤ꤬": 5842,
      "ꤡ꤫ꤢꤧ꤬ꤕꤢ꤬ꤒꤥ꤬": 5843,
      "ꤖꤢꤩ꤭ꤥ꤬": 5844,
      "ꤖꤢꤩ꤭ꤢ꤬ꤚꤥ꤬": 5845,
      "ꤖꤢꤩ꤭ꤢ꤬ꤔꤢ꤬": 5846,
      "ꤔꤣꤧ꤭ꤗꤢꤩ꤭": 5847,
      "ꤔꤣꤧ꤭ꤙꤢ꤬": 5848,
      "ꤔꤣꤧ꤭ꤗꤢꤦ꤭": 5849,
      "ꤔꤣꤧ꤭ꤞꤥ꤭ꤞꤝꤢ": 5850,
      "ꤔꤣꤧ꤭ꤗꤢꤩ": 5851,
      "ꤔꤣꤧ꤭ꤒ꤫ꤥ꤬ꤒꤣ꤬ꤒ꤫ꤥ꤬": 5852,
      "ꤗꤢꤧꤓ꤫ꤣꤧ꤬ꤜꤥ꤭": 5853,
      "ꤗꤢꤧꤓ꤫ꤣꤧ꤬ꤞꤤꤑꤢꤩ꤭": 5854,
      "ꤗꤢꤧꤓ꤫ꤣꤧ꤬ꤡꤝꤢꤏꤢꤔꤢꤩꤜꤥ꤭": 5855,
      "ꤜꤣꤟꤣꤧ": 5856,
      "ꤜꤣꤡꤣꤧ": 5857,
      "ꤜꤣꤟꤢꤩꤊꤜꤢꤪ꤭": 5858,
      "ꤊꤢ꤬ꤗꤢꤩ꤬ꤓꤥ꤭": 5859,
      "ꤛ꤫ꤢꤦ꤬ꤢꤩ꤬ꤚꤣꤧꤘꤢꤦ꤬": 5860,
      "ꤛ꤫ꤢꤦ꤬ꤢꤩ꤬ꤞꤢꤦ": 5861,
      "ꤒ꤫ꤥ꤬ꤊꤢꤨꤔ꤫ꤢꤧ꤬ꤣꤧ꤭": 5862,
      "ꤜ꤫ꤢꤩ꤬ꤋꤢꤨ꤬": 5863,
      "ꤜ꤫ꤢꤩ꤬ꤠꤤ꤭": 5864,
      "ꤜ꤫ꤢꤩ꤬ꤊꤝꤤ꤭": 5865,
      "ꤜ꤫ꤢꤩ꤬ꤗꤢꤩ꤬ꤞꤣꤧ꤭": 5866,
      "ꤜ꤫ꤢꤩ꤬ꤘꤢꤩ꤭": 5867,
      "ꤜ꤫ꤢꤩ꤬ꤖꤚꤢꤧ꤭": 5868,
      "ꤜ꤫ꤢꤩ꤬ꤔꤢꤪ꤭ꤢꤩ꤬": 5869,
      "ꤜ꤫ꤢꤩ꤬ꤓꤢꤨ꤬ꤜꤢꤧ꤬": 5870,
      "ꤜ꤫ꤢꤩ꤬ꤘꤢꤪꤒꤢ꤭": 5871,
      "ꤜ꤫ꤢꤩ꤬ꤞꤤꤜꤢꤩ꤬": 5872,
      "ꤜ꤫ꤢꤩ꤬ꤔ꤫ꤤ꤬ꤙꤝꤤ": 5873,
      "ꤊ꤫ꤢꤩ꤬ꤛꤢ꤬": 5874,
      "ꤊ꤫ꤢꤩ꤬ꤢ꤬ꤚꤥ꤬": 5875,
      "ꤊ꤫ꤢꤩ꤬ꤚ꤫ꤢ꤬": 5876,
      "ꤊ꤫ꤢꤩ꤬ꤞꤤꤔꤥ꤭": 5877,
      "ꤓꤣꤧ꤭ꤜꤤ꤬ꤘꤢꤨ꤬": 5878,
      "ꤣꤧ꤭ꤒꤣ꤬ꤖꤚꤢꤩ꤬ꤗꤢ꤬": 5879,
      "ꤕ꤫ꤥ꤬ꤕ꤫ꤥ꤬": 5880,
      "ꤕ꤫ꤥ꤬ꤡꤝ꤫ꤢ꤬": 5881,
      "ꤢ꤬ꤊꤢꤨ꤭ꤣꤧ꤭ꤔꤣꤧ꤬": 5882,
      "ꤞꤤꤛ꤫ꤢꤦ꤬ꤔꤢꤪ꤭ꤗꤢꤩ꤬": 5883,
      "ꤥ꤬ꤔꤢꤧ꤭ꤖꤢꤦ꤬": 5884,
      "ꤕꤝꤢ꤭ꤒꤣ꤬ꤗꤢꤩ꤭": 5885,
      "ꤕꤝꤢ꤭ꤒꤣ꤬ꤘꤢꤪ꤭": 5886,
      "ꤕꤝꤢ꤭ꤒꤣꤧ꤬ꤍ꤫ꤥ꤬": 5887,
      "ꤟꤢꤩꤏꤥ꤬ꤊꤢꤧ꤭": 5888,
      "ꤕꤜꤤ꤭ꤔꤣꤧ꤬": 5889,
      "ꤓꤥ꤭ꤟꤣꤧꤟꤣꤧ": 5890,
      "ꤗꤢꤪꤍ꤫ꤥ꤬": 5891,
      "ꤔꤥ꤭ꤗꤢꤩ꤬": 5892,
      "ꤔꤥ꤭ꤔꤥ꤭": 5893,
      "ꤔꤥ꤭ꤙꤢꤩ": 5894,
      "ꤟꤢꤩꤙꤢꤩ꤬ꤊꤣꤧ꤭": 5895,
      "ꤟꤢꤩꤙꤢꤩ꤬ꤏꤢꤪ꤭": 5896,
      "ꤟꤢꤩꤙꤢꤩ꤬ꤏꤢꤦ꤬": 5897,
      "ꤟꤢꤩꤙꤢꤩ꤬ꤏꤝꤢ꤬": 5898,
      "ꤟꤢꤩꤙꤢꤩ꤬ꤔꤢꤪ": 5899,
      "ꤟꤢꤩꤙꤢꤩ꤬ꤟꤥ꤬": 5900,
      "ꤏꤢꤒꤣꤧ꤬ꤕ꤫ꤢꤪ꤬": 5901,
      "ꤛꤥ꤬ꤕꤢ꤬ꤊꤢꤨ": 5902,
      "ꤡꤢ꤭ꤡꤢꤦ꤬": 5903,
      "ꤊꤢꤨ꤬ꤊꤜꤢꤪꤥ꤬": 5904,
      "ꤊꤢꤨ꤬ꤊꤜꤢꤪꤣꤧ꤭": 5905,
      "ꤊꤢꤨ꤬ꤊꤜꤢꤪꤋꤢꤨ꤬": 5906,
      "ꤊꤢꤨ꤬ꤊꤜꤢꤪꤓꤢꤩ": 5907,
      "ꤒꤢꤩ꤬ꤗꤢꤩ꤬ꤗꤢꤧ": 5908,
      "ꤒꤢꤩ꤬ꤗꤢꤩ꤬ꤒꤣꤧ꤬ꤊꤜꤤ": 5909,
      "ꤖꤛꤢꤞꤢꤦ": 5910,
      "ꤖꤛꤢꤒꤣꤧ꤬ꤖꤢ꤭ꤊꤢꤧ꤭": 5911,
      "ꤖꤛꤢꤡꤝꤢꤊꤢꤧ꤭": 5912,
      "ꤖꤛꤢꤊꤢ꤬ꤔ꤫ꤤ꤬": 5913,
      "ꤙꤢꤩ꤭ꤢꤩ꤬": 5914,
      "ꤙꤢꤩ꤭ꤣꤧ꤭": 5915,
      "ꤋꤢꤧꤞꤣꤧ꤭ꤊꤢꤧ꤭": 5916,
      "ꤋꤢꤧꤚ꤫ꤥ꤬ꤊꤣꤧ꤭": 5917,
      "ꤗ꤫ꤢꤧ꤬ꤖꤚꤢꤩ꤬ꤗꤢꤪ꤬": 5918,
      "ꤗ꤫ꤥ꤬ꤟꤢ꤬": 5919,
      "ꤗ꤫ꤥ꤬ꤎꤢ꤬ꤖꤤꤚꤢ": 5920,
      "ꤚꤢꤧꤋꤢꤨ꤬": 5921,
      "ꤚꤢꤧꤙꤢ꤭": 5922,
      "ꤏꤢꤪ꤭ꤜꤣ": 5923,
      "ꤏꤢꤪ꤭ꤔꤢꤧ꤬ꤡꤣꤧ": 5924,
      "ꤓꤝꤢ꤭ꤓꤢꤧ꤬ꤡ꤫ꤢꤧ꤬": 5925,
      "ꤗꤢꤪ꤬ꤜꤢꤩ": 5926,
      "ꤗꤢꤪ꤬ꤘꤢꤪ꤬": 5927,
      "ꤗꤢꤪ꤬ꤚꤢꤪ꤭": 5928,
      "ꤗꤢꤪ꤬ꤒꤢ꤬ꤙꤤ꤬": 5929,
      "ꤗꤢꤪ꤬ꤙꤢꤩ꤬ꤔꤤꤊꤢꤩ꤬": 5930,
      "ꤒꤣꤧ꤬ꤔꤢꤩ꤬ꤚꤣꤧ": 5931,
      "ꤒꤣꤧ꤬ꤔꤢꤩ꤬ꤔ꤫ꤤ꤬": 5932,
      "ꤒꤣꤧ꤬ꤔꤢꤩ꤬ꤒ꤫ꤢꤧ꤬": 5933,
      "ꤒꤣꤧ꤬ꤔꤢꤩ꤬ꤖꤢꤩ": 5934,
      "ꤟꤤ꤬ꤜꤢꤩ꤭": 5935,
      "ꤟꤤ꤬ꤖꤢꤧ꤭": 5936,
      "ꤟꤤ꤬ꤒ꤫ꤣꤧ꤬": 5937,
      "ꤜꤤ꤬ꤊꤢꤨ꤭": 5938,
      "ꤜꤤ꤬ꤣꤧ꤭ꤔꤣꤧ꤬": 5939,
      "ꤜꤤ꤬ꤛꤥ꤬": 5940,
      "ꤜꤤ꤬ꤥ꤬ꤊꤢꤧ꤭": 5941,
      "ꤜꤤ꤬ꤙꤥ꤭": 5942,
      "ꤜꤤ꤬ꤞꤥ꤭ꤜꤢꤩ꤭": 5943,
      "ꤗꤝꤤ꤭ꤞꤢꤩ꤭": 5944,
      "ꤟꤢꤩ꤬ꤋꤢꤨ꤬ꤞꤢꤩ꤭": 5945,
      "ꤊꤝꤤ꤭ꤥ꤭": 5946,
      "ꤊꤝꤤ꤭ꤊꤣꤧ꤭": 5947,
      "ꤜꤥ꤬ꤡꤝꤢ": 5948,
      "ꤜꤥ꤬ꤊꤣꤧ꤬ꤘꤢ꤭ꤓꤢꤦ꤭": 5949,
      "ꤒ꤫ꤣ꤬ꤒꤢꤩ꤬": 5950,
      "ꤒ꤫ꤣ꤬ꤊꤢꤧ꤭": 5951,
      "ꤒ꤫ꤣ꤬ꤔꤢꤪ": 5952,
      "ꤒ꤫ꤣ꤬ꤕ꤫ꤢꤩ꤬ꤊꤣꤧ꤭": 5953,
      "ꤏꤢꤦ꤬ꤕ꤫ꤢꤩ꤬": 5954,
      "ꤏꤢꤦ꤬ꤋꤛꤢ꤭": 5955,
      "ꤏꤢꤦ꤬ꤙꤢꤩ": 5956,
      "ꤏꤢꤦ꤬ꤚꤢꤧ": 5957,
      "ꤤ꤬ꤞꤝꤢꤟꤣꤧ": 5958,
      "ꤤ꤬ꤞꤝꤢꤙꤢꤩ꤬": 5959,
      "ꤤ꤬ꤞꤝꤢꤕ꤫ꤢꤩ꤬": 5960,
      "ꤢ꤬ꤚꤤ꤬ꤛꤥ꤬ꤕꤢ꤬ꤊꤢꤨ": 5961,
      "ꤋꤛꤢ꤭ꤞꤢꤧꤗꤣꤧ꤭": 5962,
      "ꤞꤢꤪ꤬ꤤ꤬ꤕꤢꤧ꤬": 5963,
      "ꤒꤣ꤬ꤖꤥꤒꤣ꤬": 5964,
      "ꤒꤣ꤬ꤖꤥꤢ꤬ꤋꤢꤩ꤭ꤔꤣꤧ꤬": 5965,
      "ꤜꤢꤨ꤬ꤡꤝꤢ": 5966,
      "ꤢ꤬ꤍ꤫ꤥ꤬ꤔꤣꤧ꤬": 5967,
      "ꤢ꤬ꤍ꤫ꤥ꤬ꤢ꤬ꤟꤢꤩ꤬": 5968,
      "ꤋꤚꤝꤢ꤭ꤔꤥ꤭": 5969,
      "ꤖꤚꤢꤩ꤬ꤗꤢꤪ꤬ꤣꤧ꤭": 5970,
      "ꤖꤚꤢꤩ꤬ꤗꤢꤪ꤬ꤖꤢꤨꤞꤢꤩ꤬": 5971,
      "ꤗꤢꤪꤋꤢꤨ꤬ꤣꤧ꤭": 5972,
      "ꤗꤢꤪꤋꤢꤨ꤬ꤟꤢꤩ꤬ꤋꤢꤨ꤬": 5973,
      "ꤊꤢꤨꤔ꤫ꤢꤧ꤬ꤣꤧ꤭ꤒꤣ꤬ꤓꤢꤦ꤭": 5974,
      "ꤗꤤ꤬ꤊꤜꤝꤢ": 5975,
      "ꤗꤤ꤬ꤏꤥ꤬ꤊꤜꤢꤩ꤭": 5976,
      "ꤗꤤ꤬ꤊꤢꤩꤜꤢ꤬": 5977,
      "ꤋꤥ꤭ꤖꤢꤨꤡ꤫ꤢꤩ꤬ꤔꤣꤧ꤬": 5978,
      "꤮,’": 5979,
      "ꤋꤝꤤꤗ꤫ꤥ꤬": 5980,
      "ꤞꤥ꤭ꤘꤢꤨ꤬": 5981,
      "ꤞꤥ꤭ꤙꤢꤧ": 5982,
      "ꤔ꤫ꤤ꤬ꤟꤥ꤭ꤕꤜꤥ꤭": 5983,
      "ꤊꤣꤧ꤬ꤓꤢꤪ꤬ꤒꤣꤧ꤬ꤔꤢꤧ꤭": 5984,
      "ꤋꤚꤢꤦ꤭ꤢꤩ꤬ꤋꤚꤢꤦ꤭": 5985,
      "ꤢ꤬ꤙꤢ꤬": 5986,
      "ꤢ꤬ꤙꤢ꤬ꤏꤣꤧ": 5987,
      "ꤥ꤬ꤞꤣꤧ꤭ꤖꤚꤢꤩ꤬ꤕꤢ꤬": 5988,
      "ꤒꤢꤩ꤬ꤞꤤꤋꤢꤞꤤꤓꤢꤩ꤬": 5989,
      "ꤣꤧ꤭ꤒꤣ꤬ꤊꤥ꤬": 5990,
      "ꤣꤧ꤭ꤒꤣ꤬ꤗꤢ꤭": 5991,
      "ꤣꤧ꤭ꤒꤣ꤬ꤕꤢꤧ꤭": 5992,
      "ꤓꤢꤩ꤬ꤡꤝꤢꤟꤣꤧ": 5993,
      "ꤜꤢꤩ꤭ꤡꤝꤢ": 5994,
      "ꤘꤢꤧꤗꤢ": 5995,
      "ꤘꤢꤧꤒꤣꤧ꤬ꤊꤜ": 5996,
      "ꤕꤢꤩ꤭ꤔꤣꤧ꤬": 5997,
      "ꤘꤣꤧꤟꤣꤧ꤭ꤋꤥ꤬": 5998,
      "ꤜꤤ꤭ꤙꤢꤨ꤭": 5999,
      "ꤋꤥꤡ꤫ꤢꤧ꤬": 6000,
      "ꤚꤢ꤭ꤓꤢꤧ꤬": 6001,
      "ꤚꤢ꤭ꤒꤢ꤭": 6002,
      "ꤚꤢ꤭ꤔꤥ꤭": 6003,
      "ꤟꤢꤨꤒꤢꤩ꤭ꤟꤢꤨꤒꤢꤩ꤭": 6004,
      "ꤊꤜꤢꤧꤊꤢꤨ꤭": 6005,
      "ꤊꤜꤢꤧꤘꤢꤨ꤬ꤊꤢꤨ꤭": 6006,
      "ꤘꤣꤧꤡꤢ꤭ꤚꤣꤧ": 6007,
      "ꤜꤢꤪ꤭ꤕꤜꤤ꤭ꤟꤣꤧ": 6008,
      "ꤢ꤬ꤒꤢꤩ꤬ꤟꤣꤧ": 6009,
      "ꤢ꤬ꤒꤢꤩ꤬ꤟꤢꤧ꤭": 6010,
      "ꤢ꤬ꤒꤢꤩ꤬ꤘꤢꤧ꤬": 6011,
      "ꤢ꤬ꤒꤢꤩ꤬ꤘꤢꤧ": 6012,
      "ꤔ꤫ꤤ꤬ꤘꤢ꤭ꤞꤣꤧ꤭ꤔ꤫ꤤ꤬ꤘꤢ꤭": 6013,
      "ꤞꤢꤦꤟꤣꤧ": 6014,
      "ꤓꤢꤩ꤭ꤣꤧ꤭": 6015,
      "ꤙꤢ꤭ꤜꤢꤪ꤭": 6016,
      "ꤜꤣꤧ꤬ꤕꤜꤢꤩꤓꤢꤩ꤬ꤊꤢꤧ꤭": 6017,
      "ꤡꤝ꤫ꤢ꤬ꤊꤣꤧ꤭": 6018,
      "ꤋꤢꤨ꤭ꤕꤢꤨ": 6019,
      "ꤔꤤꤔꤢꤧ꤬ꤗꤢ꤬": 6020,
      "ꤋꤢꤨ꤭ꤕꤢꤪꤜꤢꤨꤣꤧ꤭": 6021,
      "ꤜꤢ꤭ꤟꤤꤢꤨ꤭": 6022,
      "ꤚꤢ꤬ꤎꤢ꤬ꤒꤢꤨ": 6023,
      "ꤚꤢ꤬ꤥ꤬ꤞꤢꤧ꤬": 6024,
      "ꤊꤜꤣꤧ꤭ꤥ꤬ꤕ꤫ꤢꤪ꤬": 6025,
      "ꤗꤢꤦ꤭ꤏꤢꤦ꤬": 6026,
      "ꤜ꤫ꤥ꤬ꤢꤩ꤬": 6027,
      "ꤔꤣꤧ꤬ꤒꤣ꤬ꤊꤥ꤬": 6028,
      "ꤔꤣꤧ꤬ꤒꤣ꤬ꤊꤜꤢꤦ": 6029,
      "ꤘꤣꤧꤜꤥ꤭ꤊꤢꤧ꤭": 6030,
      "ꤘꤣꤧꤜꤥ꤭ꤗꤢꤧ": 6031,
      "ꤊ꤫ꤢꤦ꤬ꤚꤢꤩ꤭ꤕꤛꤢ": 6032,
      "ꤓꤢꤨ꤭ꤘꤢꤦ꤬": 6033,
      "ꤕꤜꤝꤢ꤭ꤓꤢꤩ꤬ꤡꤝꤢꤊꤢꤧ꤭": 6034,
      "ꤊꤜ꤫ꤢꤪ꤬ꤒꤢꤩ꤭": 6035,
      "ꤎꤢ꤬ꤊ꤫ꤢꤩ꤬": 6036,
      "ꤎꤢ꤬ꤘꤤ": 6037,
      "ꤏꤢꤩ꤬ꤒ꤫ꤢꤪ꤬": 6038,
      "ꤤ꤬ꤏꤢꤩ꤭ꤔ꤫ꤤ꤬": 6039,
      "ꤢ꤬ꤜ꤫ꤢꤩ꤬ꤟꤢꤩ": 6040,
      "ꤢ꤬ꤜ꤫ꤢꤩ꤬ꤗꤣꤧ꤭": 6041,
      "ꤢ꤬ꤜ꤫ꤢꤩ꤬ꤞꤢꤦ꤬": 6042,
      "ꤕ꤫ꤢꤦ꤬ꤢꤩ꤬": 6043,
      "ꤕ꤫ꤢꤦ꤬ꤡꤝꤢ": 6044,
      "ꤕ꤫ꤢꤦ꤬ꤊꤜꤢꤪ꤬": 6045,
      "ꤕ꤫ꤢꤦ꤬ꤡꤝꤢꤊꤢꤧ꤭": 6046,
      "ꤒꤣꤧ꤬ꤡꤥ꤬": 6047,
      "ꤒꤣꤧ꤬ꤡꤤ꤭ꤒꤣꤧ꤬ꤡꤢ": 6048,
      "ꤒꤣꤧ꤬ꤘꤢꤦ꤬ꤔꤣꤧ꤬": 6049,
      "ꤒꤣꤧ꤬ꤘꤢꤦ꤬ꤕ꤫ꤥ꤬": 6050,
      "ꤗꤢꤩ꤬ꤞꤣꤧ꤭ꤗꤢꤩ꤬ꤗ꤫ꤢꤩ꤬": 6051,
      "ꤔꤢꤧ꤭ꤘꤢꤦ꤬": 6052,
      "ꤟꤢꤩꤏꤥ꤬ꤘꤥ꤬ꤔꤢꤧ꤭ꤜꤥ꤭": 6053,
      "ꤟꤢꤩꤏꤥ꤬ꤘꤥ꤬ꤔꤢꤧ꤭ꤕꤜꤥ꤭": 6054,
      "ꤘꤤ꤭ꤋꤛꤢ꤭": 6055,
      "ꤘꤤ꤭ꤗ꤫ꤢꤪ꤬ꤟꤢꤩ": 6056,
      "ꤘꤤ꤭ꤕꤢꤪ꤬ꤟꤢꤩ꤬": 6057,
      "ꤘꤤ꤭ꤓꤥ": 6058,
      "ꤚ꤫ꤥ꤬ꤢꤩꤜꤥ꤬": 6059,
      "ꤚ꤫ꤥ꤬ꤋꤛꤢ꤭ꤜꤢꤨ꤭": 6060,
      "ꤟꤢꤩꤏꤥ꤬ꤜꤥ꤭ꤔ꤫ꤤ꤬": 6061,
      "ꤒꤣ꤬ꤖꤥ꤬ꤒꤥ꤬": 6062,
      "ꤒꤣ꤬ꤖꤥ꤬ꤖꤥ꤬": 6063,
      "ꤜ꤫ꤢꤪ꤬ꤔꤣꤧ꤬": 6064,
      "ꤜ꤫ꤢꤪ꤬ꤣꤧ꤭": 6065,
      "ꤜ꤫ꤢꤪ꤬ꤣꤧ꤭ꤒꤣꤧ꤬ꤟꤢꤩ꤬": 6066,
      "ꤗꤢꤧꤕꤢꤨ꤭ꤗꤢꤧꤠ꤫ꤢꤧ꤬": 6067,
      "ꤕ꤫ꤥ꤬ꤠ꤫ꤢꤧ꤬ꤗ꤫ꤥ꤬ꤖꤢꤩ꤭": 6068,
      "ꤗꤢꤩ꤬ꤡꤝ꤫ꤢ꤬ꤟꤣꤧ": 6069,
      "ꤗꤢꤩ꤬ꤡꤝ꤫ꤢ꤬ꤊꤢꤩ꤬": 6070,
      "ꤗꤢꤩ꤬ꤡꤝ꤫ꤢ꤬ꤜꤣꤧ꤭": 6071,
      "ꤒꤣꤧ꤬ꤜꤝꤢ꤭": 6072,
      "ꤎꤢꤧꤔꤢ꤬": 6073,
      "ꤜ꤫ꤢꤩ꤬ꤥ꤬ꤣꤧ꤭": 6074,
      "ꤒꤢꤩ꤬ꤛ꤫ꤢꤦ꤬ꤏꤢꤪ꤭": 6075,
      "ꤒꤢꤩ꤬ꤛ꤫ꤢꤦ꤬ꤕꤣꤧ꤬ꤒꤤ": 6076,
      "ꤗ꤫ꤢꤪ꤬ꤔꤣꤧ꤭ꤘꤢꤨ꤬": 6077,
      "ꤢ꤬ꤊꤜꤢꤩ꤭ꤟꤣꤧ": 6078,
      "ꤚ꤫ꤣꤧ꤬ꤊꤢꤧ꤭": 6079,
      "ꤚ꤫ꤣꤧ꤬ꤜꤢꤪ꤭": 6080,
      "ꤗꤝꤤ꤭ꤜꤢ꤬ꤘꤢꤨ꤬": 6081,
      "ꤒꤣꤧ꤬ꤚꤤ꤬ꤓꤢꤧ꤬ꤚꤣꤧ": 6082,
      "ꤤ꤬ꤞꤝꤢꤤ꤬ꤞꤢꤧ꤬ꤚꤣꤧ": 6083,
      "ꤞꤢꤨ꤭ꤕ꤫ꤢꤩ꤬": 6084,
      "ꤞꤢꤨ꤭ꤊꤢ꤬": 6085,
      "ꤞꤢꤨ꤭ꤡꤝꤢꤒ꤫ꤥ꤬": 6086,
      "ꤕꤣꤟꤣꤧ": 6087,
      "ꤕꤣꤡ꤫ꤢꤧ꤬": 6088,
      "ꤓꤢꤧ꤬ꤜꤥ꤭ꤓꤢꤧ꤬ꤗꤢꤪ": 6089,
      "ꤟꤢꤧ꤭ꤒ꤫ꤥ꤬ꤖꤢꤦ꤬": 6090,
      "ꤙꤤꤒꤣꤧ꤬ꤕꤢ꤬": 6091,
      "ꤒꤣ꤬ꤗꤢꤩ꤭ꤜꤢꤪ꤭": 6092,
      "ꤒꤣ꤬ꤗꤢꤩ꤭ꤗꤢꤩ꤭": 6093,
      "ꤥ꤬ꤗ꤫ꤢꤩ꤬ꤟꤣꤧ": 6094,
      "ꤚꤥ꤬ꤖꤢꤨ": 6095,
      "ꤊꤜꤢꤪ꤭ꤕꤜꤢꤪ": 6096,
      "ꤡꤛꤥ꤬ꤔꤢ": 6097,
      "ꤕꤛꤢꤡ꤫ꤢꤧ꤬": 6098,
      "ꤕꤛꤢꤡ꤫ꤢꤧ꤬ꤒꤥ꤬": 6099,
      "ꤖꤚ꤫ꤢꤩ꤬ꤓꤢꤧ꤬": 6100,
      "ꤘꤢꤪ꤭ꤥ꤬": 6101,
      "ꤘꤢꤪ꤭ꤊꤜꤢꤪ꤭": 6102,
      "ꤘꤢꤪ꤭ꤙꤢꤧꤞꤢ꤬": 6103,
      "ꤒꤢꤩ꤬ꤜꤢꤨ꤭ꤒꤢꤧ꤭ꤚ꤫ꤢꤩ꤬": 6104,
      "ꤊꤥꤜꤢ": 6105,
      "ꤖꤢꤦ꤬ꤓꤢꤧ꤬": 6106,
      "ꤖꤢꤦ꤬ꤒꤣꤧ꤬ꤒ꤫ꤢꤪ꤬": 6107,
      "ꤖꤚꤢꤩ꤬ꤗꤢꤩ꤬ꤚ꤫ꤥ꤬ꤜꤢꤨ꤭": 6108,
      "ꤊꤢꤧꤔꤢ꤬ꤎꤢ꤬ꤚꤢꤧ": 6109,
      "ꤙꤢꤥ꤬": 6110,
      "ꤙꤢꤊꤜ꤫ꤢꤪ꤬ꤒꤢꤩ꤭": 6111,
      "ꤑꤢ꤭ꤕ꤫ꤢꤩ꤬ꤊꤣꤧ꤭": 6112,
      "ꤑꤢ꤭ꤟꤢ꤭": 6113,
      "ꤑꤢ꤭ꤟꤢꤧ꤭ꤟꤣꤧ": 6114,
      "ꤒꤣꤧ꤬ꤊꤜꤣ": 6115,
      "ꤒꤣꤧ꤬ꤊꤜꤝꤤ": 6116,
      "ꤒꤣꤧ꤬ꤊꤜꤥꤙꤤ": 6117,
      "ꤞꤥ꤭ꤞꤝꤢꤒꤣ꤬ꤖꤥ": 6118,
      "ꤞꤥ꤭ꤞꤝꤢꤒꤣ꤬ꤙꤢꤩ꤬": 6119,
      "ꤕꤥ꤬ꤊꤢꤨ꤭ꤔꤣꤧ꤬": 6120,
      "ꤚꤢꤦ꤭ꤕꤛꤢ꤭": 6121,
      "ꤚꤢꤦ꤭ꤒꤣ": 6122,
      "ꤗꤥ꤬ꤚꤣꤧꤊꤣꤧ꤭": 6123,
      "ꤢ꤬ꤥ꤬ꤔꤣꤧ꤬": 6124,
      "ꤏꤢꤪ꤭ꤚꤤ꤬ꤚꤣꤧ": 6125,
      "ꤢꤩꤓꤥ꤭ꤡꤝꤢ": 6126,
      "ꤜꤝꤤ꤭ꤛꤢꤩ꤬": 6127,
      "ꤜꤝꤤ꤭ꤗꤢꤩ꤭": 6128,
      "ꤜꤝꤤ꤭ꤞꤢꤪ": 6129,
      "ꤞꤤ꤭ꤔ꤫ꤢꤩ꤬ꤔꤣꤧ꤬": 6130,
      "ꤖꤥ꤭ꤊꤢꤨ꤭": 6131,
      "ꤗꤢꤧꤏꤢꤦ꤭ꤚꤣꤧ": 6132,
      "ꤜꤣꤙꤢ꤭ꤟꤣꤧ": 6133,
      "ꤜꤣꤙꤢ꤭ꤟꤢꤧ꤭": 6134,
      "ꤗꤤ꤭ꤟꤣꤧ": 6135,
      "ꤒꤣꤧ꤬ꤖꤢ꤭ꤊꤢꤧ꤭ꤟꤣꤧ": 6136,
      "ꤖꤢꤩꤊꤢꤧ꤭": 6137,
      "ꤏꤥ꤬ꤘꤢꤨ꤬": 6138,
      "ꤏꤥ꤬ꤓꤢꤧ꤬ꤜꤥ꤭": 6139,
      "ꤢ꤬ꤜꤤ꤬ꤊꤢꤨ꤭": 6140,
      "ꤡꤝꤢꤔꤥ꤭ꤡꤝꤢꤙꤢꤩ": 6141,
      "ꤡꤝꤢꤔꤥ꤭ꤖꤛꤢꤢꤩ꤬": 6142,
      "ꤢ꤬ꤞꤢꤩ꤭ꤊꤢꤨ꤭": 6143,
      "ꤢ꤬ꤞꤢꤩ꤭ꤜꤝꤤ꤭ꤏꤣꤧ꤭": 6144,
      "ꤓꤢꤨ꤬ꤞꤢꤩꤓꤢꤧ꤬ꤘꤢꤦ꤬": 6145,
      "ꤒꤢꤩ꤬ꤟꤢꤩꤙꤢꤩ꤬ꤡ꤫ꤢꤧ꤬": 6146,
      "ꤒꤢꤩ꤬ꤟꤢꤩꤙꤢꤩ꤬ꤘꤥ꤬ꤔꤢꤧ꤭": 6147,
      "ꤒꤢꤩ꤬ꤏꤢꤩ꤭ꤣꤧ꤭": 6148,
      "ꤒꤢꤩ꤬ꤏꤢꤩ꤭ꤟꤣꤧ": 6149,
      "ꤞꤢꤨꤒꤢꤨ": 6150,
      "ꤋꤢꤪꤎꤢ꤬": 6151,
      "ꤙꤣꤧꤒꤢꤩ꤭ꤟꤢꤧ꤭": 6152,
      "ꤙꤣꤧꤒꤢꤩ꤭ꤒꤢꤩ꤭": 6153,
      "ꤓꤢꤩꤊꤢꤧ꤭": 6154,
      "ꤓꤢꤩꤙꤤ": 6155,
      "ꤒꤢꤩ꤬ꤒꤣꤧ꤬ꤔꤢꤩ꤬ꤞꤢꤦ": 6156,
      "ꤕꤣꤧ꤬ꤒꤤꤕꤢ꤬": 6157,
      "ꤢ꤬ꤙꤝꤤꤥ꤬": 6158,
      "ꤒꤢꤩ꤬ꤥ꤬ꤖꤢꤨꤡ꤫ꤢꤩ꤬ꤜꤢꤧ꤬": 6159,
      "ꤊꤣꤧ꤬ꤘꤢ꤭ꤔꤣꤧ꤬": 6160,
      "ꤛꤢꤨꤘꤢ꤬ꤊ꤫ꤢꤩ꤬": 6161,
      "ꤕꤝꤢꤩ꤬ꤊꤢꤨ꤬ꤊꤜꤢꤪꤘꤢꤨ꤬": 6162,
      "ꤕꤝꤢꤩ꤬ꤊꤢ꤬ꤏꤥ꤭ꤘꤢꤧ꤬": 6163,
      "ꤕꤝꤢꤩ꤬ꤢꤩ꤬ꤋꤢꤪꤗꤢꤨ꤭": 6164,
      "ꤏꤢꤦꤊꤢꤧ꤭": 6165,
      "ꤢ꤬ꤗ꤫ꤥ꤬ꤚꤢ꤭": 6166,
      "ꤊꤜꤢꤧ꤬ꤡꤝꤢꤖꤛꤢ": 6167,
      "ꤒꤣ꤬ꤗꤢꤦ꤭ꤗꤢꤦ꤭": 6168,
      "ꤖꤚꤢ꤬ꤏꤝꤢ꤬": 6169,
      "ꤡꤢꤪ꤭ꤟꤢꤧ꤭": 6170,
      "ꤡꤢꤪ꤭ꤊꤢ꤬": 6171,
      "ꤞꤤ꤭ꤊꤜꤢꤩ꤭ꤣꤧ꤭": 6172,
      "ꤢ꤬ꤓꤣꤧ꤭ꤊꤜꤥ꤭": 6173,
      "ꤢꤩꤓꤢꤧ꤬ꤜꤣ": 6174,
      "ꤊꤢꤧ꤭ꤏꤢꤔꤣꤧ꤬": 6175,
      "ꤢꤩꤜꤥ꤬ꤊꤣꤧ꤭": 6176,
      "ꤢꤩꤜꤥ꤬ꤕꤢ꤬": 6177,
      "ꤟꤥ꤬ꤏꤛꤤꤛꤢ꤬": 6178,
      "ꤟꤥ꤬ꤎꤢꤧꤔꤢ꤬": 6179,
      "ꤓꤢꤪꤛꤢ꤭": 6180,
      "ꤋꤝꤤꤘꤢꤨ꤬ꤔꤣꤧ꤬": 6181,
      "ꤥ꤬ꤕꤜꤢꤪꤥ꤬ꤡꤢꤦ꤭": 6182,
      "ꤤ꤬ꤏꤢꤪꤕ꤫ꤢꤩ꤬": 6183,
      "ꤋꤢꤧꤘꤥ꤬ꤔꤣꤧ꤬": 6184,
      "ꤋꤢꤧꤘꤥ꤬ꤊꤢꤧ꤭ꤏꤢ": 6185,
      "ꤡꤢꤨ꤭ꤢꤩ꤬ꤙꤢꤩ": 6186,
      "ꤥ꤬ꤗꤣꤧ꤭ꤒꤢ꤭": 6187,
      "ꤥ꤬ꤗꤣꤧ꤭ꤒ꤫ꤢꤧ꤬": 6188,
      "ꤥ꤬ꤗꤣꤧ꤭ꤗ꤫ꤢꤧ꤬": 6189,
      "ꤟꤢꤧ꤭ꤔꤥ꤭ꤟꤥ꤬": 6190,
      "ꤖꤢꤧ꤭ꤏꤣꤧ": 6191,
      "ꤔꤢꤩꤛꤢ꤬": 6192,
      "ꤔꤢꤩꤊꤥ": 6193,
      "ꤔꤢꤪ꤭ꤡꤝꤢꤘꤣꤧꤟꤣꤧ꤭": 6194,
      "ꤔꤢꤪ꤭ꤡꤝꤢꤕ꤫ꤢꤦ꤬": 6195,
      "ꤢꤩꤟꤢꤧ꤭ꤕꤜꤢꤪ": 6196,
      "ꤒꤣ꤬ꤙꤢꤩ꤬ꤔꤣꤧ꤬": 6197,
      "ꤖꤚꤢꤧ꤭ꤗꤣꤧ꤭": 6198,
      "ꤟꤢ꤭ꤟꤢ꤭": 6199,
      "ꤞꤥ꤬ꤞꤝꤢ": 6200,
      "ꤒꤢꤨꤋꤢꤨ": 6201,
      "ꤙꤥ꤬ꤓꤢꤧ꤬": 6202,
      "ꤙꤥ꤬ꤘꤢꤨ꤬": 6203,
      "ꤙꤥ꤬ꤙꤢꤦ꤬": 6204,
      "ꤞꤣꤧ꤭ꤊꤢꤧ꤭ꤟꤣꤧ": 6205,
      "ꤛ꤫ꤢꤧ꤬ꤥ꤬ꤗ꤫ꤢꤩ꤬ꤡ꤫ꤢꤧ꤬": 6206,
      "ꤛ꤫ꤢꤧ꤬ꤥ꤬ꤗ꤫ꤢꤩ꤬ꤊꤢ꤬": 6207,
      "ꤛ꤫ꤢꤧ꤬ꤥ꤬ꤗ꤫ꤢꤩ꤬ꤙꤢꤩ": 6208,
      "ꤠ꤫ꤢꤩ꤬ꤓꤢꤩ꤬ꤡꤝꤢꤊꤢꤧ꤭": 6209,
      "ꤠ꤫ꤢꤩ꤬ꤓꤢꤩ꤬ꤙꤢꤩ": 6210,
      "ꤍꤢꤧ꤭ꤗꤢꤦ꤭": 6211,
      "ꤘꤣꤧꤜꤢꤧ꤬ꤘꤢꤦ꤬": 6212,
      "ꤍꤢꤨ꤬ꤏꤢꤪ꤭": 6213,
      "ꤕꤢꤪ꤬ꤒꤢꤨ": 6214,
      "ꤔꤢꤩ꤬ꤎꤢꤩ": 6215,
      "ꤙꤢꤧ꤭ꤜꤢꤩ꤬": 6216,
      "ꤙꤢꤧ꤭ꤜꤢꤧ꤬ꤚꤣꤧ": 6217,
      "ꤜꤥꤒꤢ꤭": 6218,
      "ꤖꤤꤗꤢꤨ": 6219,
      "ꤢ꤬ꤕ꤫ꤥ꤬ꤒꤣꤧ꤬ꤟꤢꤩ꤬": 6220,
      "ꤢ꤬ꤕ꤫ꤥ꤬ꤋꤢꤨ꤭ꤛꤥ꤭ꤟꤢ꤬": 6221,
      "ꤡꤝꤤ꤬ꤟꤢꤧ꤭": 6222,
      "ꤡꤝꤤ꤬ꤊꤢ꤬ꤔ꤫ꤤ꤬": 6223,
      "ꤊꤜꤢꤩꤡ꤫ꤢꤩ꤬ꤡꤢꤦ꤭ꤗꤢ꤬": 6224,
      "ꤘꤢꤨ꤬ꤓꤢꤧ꤬ꤖꤚ꤫ꤢꤩ꤬ꤓꤢꤧ꤬": 6225,
      "ꤢꤩꤓꤥ꤭ꤓꤢꤧ꤬ꤏꤢꤦ꤬": 6226,
      "ꤒꤢ꤭ꤒꤢꤦ꤭ꤊꤢꤧ꤭": 6227,
      "ꤏꤢꤧ꤬ꤒꤢ꤭": 6228,
      "ꤔꤤ꤬ꤛꤢ꤬": 6229,
      "ꤢ꤬ꤏꤣꤧꤢ꤬ꤋꤢꤩ꤭ꤔꤣꤧ꤬": 6230,
      "ꤞꤢꤧꤊꤣꤧ꤭ꤟꤣꤧ": 6231,
      "ꤊꤜꤢꤪ꤬ꤗꤢ꤬ꤚꤢꤧ": 6232,
      "ꤊ꤫ꤥ꤬ꤔ꤫ꤤ꤬": 6233,
      "ꤜ꤫ꤢ꤬ꤒꤣꤧ꤬ꤔꤢꤧ": 6234,
      "ꤜ꤫ꤢ꤬ꤗꤤ꤬ꤏꤥ꤬ꤊꤜꤢꤩ꤭": 6235,
      "ꤡꤝꤢꤥ꤬ꤊꤢꤨ": 6236,
      "ꤚꤥꤗꤢꤩ꤬ꤋꤝꤤ": 6237,
      "ꤗ꤫ꤢꤪ꤬ꤟꤢꤩꤗ꤫ꤢꤪ꤬ꤒꤢ꤭": 6238,
      "ꤕꤜꤤ꤬ꤣꤧ꤭": 6239,
      "ꤡꤝꤢꤒꤣꤧ꤬ꤜꤝꤢꤊꤢꤧ꤭": 6240,
      "ꤓꤣꤧ꤭ꤊ꤫ꤢꤩ꤬ꤖꤢꤨ": 6241,
      "ꤓꤣꤧ꤭ꤊ꤫ꤢꤩ꤬ꤚꤥ꤬ꤖꤢꤨ": 6242,
      "ꤙꤢ꤭ꤓꤢꤧ꤬ꤟꤣꤧ": 6243,
      "ꤘꤣꤧꤟꤢꤧ꤭ꤘꤣꤧꤚꤢꤩ꤬ꤚꤣꤧ": 6244,
      "ꤟꤢꤩꤒꤢ꤭ꤍ꤫ꤥ꤬": 6245,
      "ꤒꤢꤦꤘꤢꤦ꤬ꤖꤢꤧ": 6246,
      "ꤊꤢꤦ꤭ꤞꤢꤧꤓꤢꤧ꤬ꤚꤣꤧ": 6247,
      "ꤛꤢꤧꤡꤝꤢ": 6248,
      "ꤖꤚꤢꤩ꤭ꤘꤢꤦ꤭": 6249,
      "ꤒꤣꤧ꤬ꤚꤤꤒꤣꤧ꤬ꤠꤢ꤬": 6250,
      "ꤒꤣꤧ꤬ꤚꤤꤊꤢꤪꤊꤜꤢꤪ꤭ꤊꤢꤧ꤭": 6251,
      "ꤤ꤬ꤖꤚꤤ꤬ꤊꤣꤧ꤭": 6252,
      "ꤗꤢꤩ꤬ꤡ꤫ꤢꤧ꤬ꤒꤢꤩ꤬": 6253,
      "ꤗꤢꤩ꤬ꤡ꤫ꤢꤧ꤬ꤒꤥ꤬": 6254,
      "ꤢ꤬ꤊꤢꤧ꤭ꤏꤢꤔꤣꤧ꤬": 6255,
      "ꤢ꤬ꤊꤢꤧ꤭ꤏꤢꤋꤢꤩ꤭": 6256,
      "ꤘꤢꤧꤍꤢꤦ꤬ꤡꤢꤪꤙꤢꤩ꤭": 6257,
      "ꤋꤚ꤫ꤢꤧ꤬ꤏꤢꤦ꤬": 6258,
      "ꤊꤢꤪꤊꤢꤨ꤭": 6259,
      "ꤊꤢꤪꤜꤢ": 6260,
      "ꤡ꤫ꤢ꤬ꤒꤢ꤭": 6261,
      "ꤓꤣꤧ꤭ꤛꤢꤧ꤭ꤡꤢꤧ꤭": 6262,
      "ꤗꤢꤩ꤬ꤗꤥ꤬ꤓꤢꤧ꤬": 6263,
      "ꤗꤢꤩ꤬ꤗꤥ꤬ꤜꤢꤧ꤬": 6264,
      "ꤗꤢꤩ꤬ꤗꤥ꤬ꤗꤢꤩ꤬ꤖꤝꤤ꤭": 6265,
      "ꤤ꤬ꤏꤢꤪꤓꤢꤧ꤬ꤚꤣꤧ": 6266,
      "ꤒꤣꤧ꤬ꤛ꤫ꤢꤩ꤬ꤓꤢꤩ꤬": 6267,
      "ꤊꤢꤩꤟꤣꤧ": 6268,
      "ꤊꤢꤩꤊꤢꤧ꤭": 6269,
      "ꤊꤢꤩꤔ꤫ꤤ꤬ꤔꤢꤪ": 6270,
      "ꤟꤤ꤬ꤘꤢꤪꤊꤢꤪꤊꤢꤨ꤭": 6271,
      "ꤚꤢ꤭ꤗꤢꤥ꤬": 6272,
      "ꤞꤢꤪꤒꤣꤧ꤬ꤔ꤫ꤢ꤬": 6273,
      "ꤤ꤬ꤏꤢꤩ꤭ꤒꤢ꤭ꤊꤢꤧ꤭ꤚꤣꤧ": 6274,
      "ꤚꤢꤧ꤭ꤒꤢ꤭": 6275,
      "ꤛꤣ꤬ꤜꤢ": 6276,
      "ꤤ꤬ꤚꤥ꤭ꤓꤢꤧ꤬": 6277,
      "ꤘꤢꤪ꤬ꤖꤚꤢ꤬": 6278,
      "ꤢ꤬ꤔꤢ꤬ꤡ꤫ꤢꤩ꤬": 6279,
      "ꤢ꤬ꤔꤢ꤬ꤢ꤬ꤜꤢꤩ꤭": 6280,
      "ꤡꤝꤢꤗꤢꤩ꤬ꤒ꤫ꤥ꤬": 6281,
      "ꤡꤝꤢꤗꤢꤩ꤬ꤕꤜꤤ꤭ꤖꤥ": 6282,
      "ꤋꤚꤢꤦ꤬ꤒꤥ꤭": 6283,
      "ꤣꤧ꤭ꤒꤣ꤬ꤔꤣꤧ꤭ꤚꤣꤧ꤬": 6284,
      "ꤣꤧ꤭ꤒꤣ꤬ꤗꤢꤩ꤭ꤔꤣꤧ꤬": 6285,
      "ꤋꤥꤋꤛꤢ꤬ꤘꤢꤦ꤬": 6286,
      "ꤜ꤫ꤥ꤬ꤘꤢꤨ꤬ꤜꤣꤢꤨ꤭": 6287,
      "ꤙꤥ꤬ꤢꤩ꤬ꤜꤢꤧ꤬": 6288,
      "ꤢꤩꤡꤝꤢꤔ꤫ꤤ꤬": 6289,
      "ꤖꤚꤢꤩ꤬ꤥ꤬ꤚꤢ꤬ꤥ꤬ꤞꤢꤧ꤬": 6290,
      "ꤚꤢ꤭ꤥ꤬ꤚꤣꤧ": 6291,
      "ꤕ꤫ꤢ꤬ꤒ꤫ꤣ꤬": 6292,
      "ꤢ꤬ꤖꤚꤢꤩ꤬ꤏꤣꤧ": 6293,
      "ꤥ꤬ꤒ꤫ꤣ꤬ꤜꤥ꤬": 6294,
      "ꤥ꤬ꤚ꤫ꤥ꤬ꤥ꤬ꤢꤩꤓꤢꤧ꤬": 6295,
      "ꤊꤣꤧ꤬ꤓꤢꤧ꤬ꤊꤣꤧ꤬ꤜꤢꤧ꤬": 6296,
      "?’”": 6297,
      "ꤞꤤꤑꤢꤩ꤭ꤟꤢꤧ꤭ꤟꤣꤧ": 6298,
      "ꤥ꤬ꤕ꤫ꤢꤪ꤬ꤗꤢꤧꤏꤢꤦ꤭ꤕꤢ꤬": 6299,
      "ꤖꤚꤥ꤬ꤖꤚꤢꤧ꤬ꤏꤝꤢ꤬ꤏꤢꤪ꤭": 6300,
      "ꤏꤣꤧꤔꤣꤧ꤭ꤗꤢꤦ꤭": 6301,
      "ꤢ꤬ꤒꤢꤩ꤬ꤛ꤫ꤢꤦ꤬ꤒꤢꤩ꤬ꤔ꤫ꤢꤧ꤬": 6302,
      "ꤒ꤫ꤢꤪ꤬ꤓꤢꤩꤕꤜꤣꤧ꤬": 6303,
      "ꤤ꤬ꤛꤢꤨ꤭ꤙꤢꤩ": 6304,
      "ꤠꤢꤧ꤭ꤖꤢꤨꤋꤢꤨ꤭": 6305,
      "ꤊꤣꤧ꤬ꤘꤢ꤭ꤊꤢꤨ꤭ꤓꤢꤦ꤭": 6306,
      "ꤕ꤫ꤢꤨ꤬ꤊꤜꤥ": 6307,
      "ꤠꤢ꤬ꤞꤢ": 6308,
      "ꤚꤢꤦ꤭ꤛꤢ꤬ꤣꤧ꤭": 6309,
      "ꤋꤢꤦ꤭ꤋꤢꤦ꤭ꤟꤢ꤭": 6310,
      "ꤢꤪꤜ꤫ꤥ꤬ꤊꤜꤢꤩ꤭": 6311,
      "ꤓꤝꤤꤟꤢꤧ꤭": 6312,
      "ꤋꤢꤨ꤭ꤢꤩꤚꤢ꤬ꤎꤢ꤬ꤒꤢꤨ": 6313,
      "ꤊꤢꤩ꤬ꤟꤢꤩꤔꤤꤔꤢꤧ꤬ꤗꤢ꤬": 6314,
      "ꤙꤢꤩ꤭ꤜ꤫ꤢꤪ꤬ꤊꤢꤨ꤭": 6315,
      "ꤜꤢꤨ꤭ꤒꤢꤧ꤭ꤓꤢꤧ꤬ꤒꤢꤩ꤬": 6316,
      "ꤡꤤ꤬ꤞꤣꤧ꤭": 6317,
      "ꤊꤣꤧ꤬ꤛꤥ꤭ꤊꤜꤤ": 6318,
      "ꤍ꤫ꤥ꤬ꤖꤚꤢ꤬ꤓꤢꤧ꤬ꤏꤝꤢ꤬": 6319,
      "ꤢꤪꤜꤤꤠ": 6320,
      "ꤤ꤬ꤏꤢꤪ꤭ꤊꤢꤧ꤭": 6321,
      "ꤡꤝꤢꤖꤛꤢꤒꤢ꤭": 6322,
      "ꤞꤥ꤬ꤓꤣꤧ꤭ꤓꤢꤨ꤭": 6323,
      "ꤙꤥꤊꤢꤨ꤬ꤜꤢ꤭ꤊꤜꤝꤤ꤭": 6324,
      "ꤊꤢꤜꤤ꤬ꤛꤥ꤬": 6325,
      "ꤓꤢꤦꤕꤜꤤ꤭": 6326,
      "ꤓꤢꤦꤡꤢꤩ꤭ꤗꤢꤧ": 6327,
      "ꤟꤢꤩꤜꤢꤧ꤬ꤚꤣꤧ": 6328,
      "ꤜꤣꤧ꤬ꤘꤢꤧꤜꤣꤧ꤬ꤘꤢ꤭": 6329,
      "ꤒꤣꤧ꤬ꤕꤜꤢꤪ꤬ꤜꤣꤧ꤬ꤛꤢꤪ꤬ꤓꤢꤧ꤬": 6330,
      "ꤜꤢ꤬ꤋꤢꤧ꤭": 6331,
      "ꤢ꤬ꤊꤢ꤬ꤢ꤬ꤕꤜꤢꤧ꤬": 6332,
      "ꤖꤛꤢꤘꤝꤢꤋꤛꤢ꤭": 6333,
      "ꤜꤢꤨ꤬ꤖꤚꤥꤊꤢꤧ꤭": 6334,
      "ꤢ꤬ꤋꤢꤩ꤬ꤛꤢ꤬ꤊ꤫ꤢꤩ꤬": 6335,
      "ꤡꤝꤢꤥ꤬ꤜꤢꤩ꤭ꤥ꤬": 6336,
      "ꤤ꤬ꤛꤢꤨ꤭ꤜꤥ꤭ꤟꤣꤧ": 6337,
      "ꤤ꤬ꤛꤢꤨ꤭ꤜꤥ꤭ꤙꤢꤩ": 6338,
      "ꤢꤪꤜꤤꤠꤢ꤬ꤗ꤫ꤢꤪ꤬": 6339,
      "ꤢꤪꤜꤤꤠꤢ꤬ꤖꤢꤩ꤬": 6340,
      "ꤢꤪꤜꤤꤠꤢ꤬ꤏꤥ꤬": 6341,
      "ꤢꤪꤜꤤꤠꤢ꤬ꤖꤢꤧ꤭": 6342,
      "ꤘꤤ꤬ꤗꤢꤨ": 6343,
      "ꤘꤤ꤬ꤛꤣ꤬": 6344,
      "ꤛꤢꤦ꤬ꤓꤣꤧ꤭": 6345,
      "ꤢ꤬ꤑꤢ꤭ꤜꤥ꤬ꤟꤣꤧ": 6346,
      "ꤒꤢꤩ꤬ꤘꤢꤧ꤬ꤞꤤꤕꤜꤢꤪ꤬ꤞꤥ꤬ꤓꤣꤧ꤭": 6347,
      "ꤒꤢꤩ꤬ꤘꤢꤧ꤬ꤞꤢꤨ꤬ꤘꤢꤧ꤬ꤞꤢꤩ": 6348,
      "ꤜ꤫ꤢꤩ꤬ꤘꤢꤧ꤬ꤒꤢꤩ꤬ꤞꤢꤦ": 6349,
      "ꤎꤢ꤬ꤕꤛꤤꤓꤣꤧ꤭ꤣꤧ꤭": 6350,
      "ꤎꤢ꤬ꤕꤛꤤꤓꤣꤧ꤭ꤙꤢꤩ꤭": 6351,
      "ꤊꤤꤚꤢꤩ꤭": 6352,
      "ꤢꤩꤓꤢꤩ꤬ꤊꤢ꤬": 6353,
      "ꤢꤩꤓꤢꤩ꤬ꤊꤢ꤬ꤊꤢꤧ꤭": 6354,
      "ꤢ꤬ꤖꤢꤧ꤭ꤏꤣꤧ": 6355,
      "ꤞꤢꤪ꤬ꤞꤢꤩ꤬ꤠꤢꤩ꤬ꤖꤥ꤭": 6356,
      "ꤢꤩ꤬ꤗꤢꤦ꤬ꤥ꤭ꤗꤢꤦ꤬": 6357,
      "ꤡꤢꤪꤒꤢꤩ꤬ꤒꤥ꤬": 6358,
      "ꤊꤣꤧ꤬ꤜꤢꤨꤜꤣ": 6359,
      "ꤞꤣꤧ꤭ꤡ꤫ꤢꤧ꤬ꤣꤧ꤭": 6360,
      "ꤜ꤫ꤢꤩ꤬ꤗꤣꤧ꤭ꤋꤢꤨ꤬": 6361,
      "ꤕꤛꤢ꤭ꤕꤤ꤬": 6362,
      "ꤤ꤬ꤕꤜꤤꤓꤢꤩ꤭": 6363,
      "ꤒꤣ꤬ꤞꤢꤩ꤭ꤔꤣꤧ꤬": 6364,
      "ꤒꤥ꤭ꤘꤢꤩ꤭ꤡꤝꤢ": 6365,
      "ꤓꤣꤧ꤭ꤊꤜꤥ꤭ꤊꤢꤨ꤭": 6366,
      "ꤋꤢꤪ꤬ꤘꤢꤦ꤬": 6367,
      "ꤢ꤬ꤏꤣꤧꤋꤢꤩ꤭ꤔꤣꤧ꤬": 6368,
      "ꤒꤣꤧ꤬ꤞꤥ꤭ꤓꤢꤧ꤬": 6369,
      "ꤗꤢꤩ꤬ꤡꤢꤪꤗꤢꤩ꤬ꤕꤢꤩ꤭": 6370,
      "ꤗꤢꤩ꤬ꤜꤣꤧ꤬ꤕꤜꤢꤩꤡ꤫ꤢꤧ꤬": 6371,
      "ꤋꤢꤨ꤭ꤊꤢ꤬ꤛꤤ꤬": 6372,
      "ꤋꤢꤨ꤭ꤊꤢ꤬ꤗꤢꤩ꤬ꤜꤤ꤬": 6373,
      "ꤢ꤬ꤚꤝ꤫ꤤ꤬ꤢ꤬ꤓꤝꤢ꤬": 6374,
      "ꤒꤣꤧ꤬ꤔꤢꤩ꤬ꤞꤢꤦꤙꤛꤢ꤬": 6375,
      "ꤜꤤ꤬ꤒꤣꤧ꤬ꤜꤢꤨ꤭ꤣꤧ꤭": 6376,
      "ꤜꤤ꤬ꤒꤣꤧ꤬ꤜꤢꤨ꤭ꤟꤢꤨ": 6377,
      "ꤟꤤꤙꤚꤢꤨꤖꤢꤨ": 6378,
      "ꤘꤢꤪꤔꤥ꤭ꤊꤢꤧ꤭": 6379,
      "ꤗꤢꤩ꤬ꤜꤣꤧ꤭ꤏꤢꤦ꤬": 6380,
      "ꤊ꤫ꤢꤩ꤬ꤊꤜꤢꤪ꤭ꤖꤢꤨ": 6381,
      "ꤗꤤ꤬ꤊꤢꤧ꤭ꤓꤢꤧ꤬": 6382,
      "ꤓꤢꤨ꤬ꤚꤢꤧ꤭ꤓꤢꤧ꤬": 6383,
      "ꤓꤢꤨ꤬ꤚꤢꤧ꤭ꤊꤣꤧ꤬ꤓꤢꤪ꤬": 6384,
      "ꤥ꤬ꤕ꤫ꤢꤪ꤬ꤗꤢꤧꤚꤣꤧ": 6385,
      "ꤙꤥ꤬ꤢꤩ꤬ꤙꤥ꤬ꤥ꤭ꤚꤣꤧ": 6386,
      "ꤢꤩ꤬ꤔꤢꤪꤥ꤭ꤔꤢꤪ": 6387,
      "ꤡꤝꤢꤋꤥꤊꤢꤧ꤭ꤜꤢꤪ꤭": 6388,
      "ꤢ꤬ꤚꤢꤦ꤭ꤢ꤬ꤓꤢꤩ꤭": 6389,
      "ꤤ꤬ꤏꤢꤩ꤭ꤊꤢꤧ꤭ꤜꤢꤪ꤭": 6390,
      "ꤗ꤫ꤢꤪ꤬ꤜꤤ꤭ꤙꤢꤨ꤭ꤟꤣꤧ": 6391,
      "ꤤ꤬ꤜꤢꤪ꤭ꤤ꤬ꤜꤢꤨ꤬": 6392,
      "ꤋꤢꤨ꤭ꤡꤛꤢꤨꤜꤤ꤬ꤛꤢ꤬": 6393,
      "ꤔꤢꤪ꤭ꤥ꤬ꤞꤥ꤬ꤊꤢꤧ꤭": 6394,
      "ꤙꤢꤧꤙꤢꤦ꤭ꤗꤢꤧ": 6395,
      "ꤢ꤬ꤊꤢꤨꤊꤜꤢꤩ꤭ꤋꤢꤨ꤬": 6396,
      "ꤋꤢꤧ꤬ꤖꤢꤕꤜꤣꤧ꤬": 6397,
      "ꤟꤢꤧ꤭ꤚꤢꤩ꤬ꤏꤝꤢ꤬ꤏꤢꤪ꤭ꤜꤣ": 6398,
      "ꤢ꤬ꤔ꤫ꤢ꤬": 6399,
      "ꤒꤢꤩ꤬ꤊꤛꤢꤜꤢꤨ꤭ꤒꤣꤧ꤬ꤍꤢ꤭ꤜꤢꤨ꤭": 6400,
      "ꤒꤣ꤬ꤗ꤫ꤢꤪ꤬ꤔꤣꤧ꤬": 6401,
      "ꤟꤢꤧ꤭ꤥ꤬ꤕꤜꤢꤪꤥ꤬ꤕꤜꤢꤨ꤬": 6402,
      "ꤋꤢꤨ꤭ꤢꤪꤔꤤꤎꤢ꤬": 6403,
      "ꤋꤢꤨ꤭ꤢꤪꤔꤢꤩ꤬ꤎꤢꤩ": 6404,
      "ꤕꤣꤧ꤬ꤛꤢꤪ꤭ꤕꤣꤧ꤬ꤛ꤫ꤢꤩ꤬": 6405,
      "ꤥ꤬ꤡ꤫ꤢꤩ꤬ꤡꤢꤦ꤭ꤒ꤫ꤣ꤬": 6406,
      "ꤢ꤬ꤘꤢꤜꤢꤩ꤭": 6407,
      "ꤟꤢꤩꤙꤛꤢ꤬ꤔꤣꤧ꤭": 6408,
      "ꤕꤢꤩ꤬ꤒꤢꤩ꤬ꤋꤢꤪꤎꤢ꤬": 6409,
      "ꤘꤢꤧ꤬ꤊꤢꤩ꤬ꤢꤩ꤬": 6410,
      "ꤔꤣꤧ꤭ꤗꤢꤨ꤬ꤜꤢꤪ꤭": 6411,
      "ꤖꤛꤢꤖꤢꤩ꤬ꤊꤢꤧ꤭ꤖꤢꤩ꤬": 6412,
      "ꤒꤢꤩ꤬ꤖꤚꤥ꤬ꤖꤚꤢꤧ꤬ꤏꤝꤢ꤬ꤏꤢꤪ꤭": 6413,
      "ꤊꤚꤢꤩ꤬ꤒꤢꤩ꤬ꤊꤜꤢꤦꤖꤢꤨ": 6414,
      "ꤊꤢꤨꤕꤚꤢꤨꤊꤜꤢꤦꤋꤢꤨ꤬": 6415,
      "ꤢ꤬ꤊ꤫ꤢꤨ꤬ꤢ꤬ꤊꤢꤧ꤭": 6416,
      "ꤢ꤬ꤊ꤫ꤢꤨ꤬ꤜꤝꤢ": 6417,
      "ꤒꤣꤧ꤬ꤒꤢꤩ꤬ꤚꤢꤩ꤭": 6418,
      "ꤒꤢꤩ꤬ꤏꤢꤪ꤭ꤟꤢ꤭": 6419,
      "ꤒꤢꤩ꤬ꤘꤢꤧꤗꤢ": 6420,
      "ꤗꤢꤩ꤬ꤢꤩ꤬ꤗꤢꤩ꤬ꤥ꤭ꤏꤢꤦ꤬": 6421,
      "ꤗꤢꤩ꤬ꤗꤢꤗꤢꤩ꤬ꤒꤢꤩ꤭ꤊꤢꤧ꤭": 6422,
      "ꤢ꤬ꤖꤢꤨꤖꤚꤢꤩ꤬ꤗꤢꤪ꤬ꤖꤢꤨꤖꤚꤢꤩ꤬ꤋꤢꤨ꤭": 6423,
      "ꤞꤥ꤭ꤖꤚꤢꤩ꤬ꤒꤣ꤬ꤖꤚꤢꤩ꤬": 6424,
      "ꤒꤣꤧ꤬ꤊꤝꤢ꤬ꤚꤣꤧ꤬": 6425,
      "ꤘꤣꤋꤛꤢ꤭ꤒꤣꤧ꤬ꤘꤢꤦ꤬ꤔꤣꤧ꤬": 6426,
      "ꤒꤢꤩ꤬ꤥ꤬ꤜꤣꤥ꤬ꤙꤢ꤭": 6427,
      "ꤋꤢꤦ꤬ꤊꤢꤨ꤭ꤔꤥ꤭": 6428,
      "ꤢ꤬ꤖꤢꤢ꤬ꤛꤢ꤬": 6429,
      "ꤢ꤬ꤞꤢꤪ꤭ꤓꤤ꤬": 6430,
      "ꤞꤤꤏꤝꤤꤔ꤫ꤢꤩ꤬ꤊ꤫ꤢꤨ꤬": 6431,
      "ꤒꤣꤧ꤬ꤋꤚꤥ꤭ꤒꤣꤧ꤬ꤋꤚ꤫ꤢꤧ꤬": 6432,
      "ꤊꤣꤧ꤬ꤢꤨ꤭ꤓꤢꤩ꤬ꤊꤢꤧ꤭": 6433,
      "ꤢ꤬ꤚꤢꤩꤙꤤ": 6434,
      "ꤒꤢ꤭ꤡꤢꤦꤞꤣꤧ꤭": 6435,
      "ꤜ꤫ꤢꤩ꤬ꤗꤢꤩ꤬ꤥ꤬ꤊꤥ": 6436,
      "ꤜꤢꤨ꤬ꤋꤥꤋꤛꤢ꤭ꤜꤢꤨ꤭": 6437,
      "ꤏꤣꤧꤜꤝꤤ꤭ꤓꤢꤦ꤭": 6438,
      "ꤢꤩꤋꤚꤝꤢ꤭ꤔ꤫ꤤ꤬": 6439,
      "ꤢ꤬ꤗꤝꤤ꤭ꤜꤢ꤬ꤘꤢꤨ꤬": 6440,
      "ꤢ꤬ꤕꤜꤤ꤬ꤓꤣꤧ꤭": 6441,
      "ꤥ꤬ꤕꤝꤢ꤭ꤥ꤬ꤘꤝꤢ꤭": 6442,
      "ꤥ꤬ꤋꤢꤪ꤬ꤘꤢꤦ꤬": 6443,
      "ꤒꤣꤧ꤬ꤕꤢ꤬ꤋꤛꤢ": 6444,
      "ꤖꤚꤢꤨꤊꤤ": 6445,
      "ꤤ꤬ꤠꤤ꤭ꤓꤢꤩ꤬": 6446,
      "ꤋꤢꤨ꤭ꤢꤧꤔꤢꤩꤛꤢ꤬": 6447,
      "ꤋꤢꤨ꤭ꤘꤢꤩ꤬ꤗꤢꤩ꤬": 6448,
      "ꤋꤢꤨ꤭ꤘꤢꤩ꤬ꤗꤢ": 6449,
      "ꤗꤢꤪꤋꤚꤢꤪ꤭ꤗꤢꤪꤍ꤫ꤥ꤬": 6450,
      "ꤙꤢꤧꤘꤤ꤭ꤕꤢꤪ꤭": 6451,
      "ꤤ꤬ꤖꤚꤤ꤬ꤤ꤬ꤏꤢꤩ꤭ꤒꤢꤩ꤬": 6452,
      "ꤋꤢꤨ꤭ꤗꤢ꤬ꤔꤢꤏꤛꤢꤩ꤬": 6453,
      "ꤋꤢꤨ꤭ꤢꤩꤕꤢ꤬ꤖꤚꤢ": 6454,
      "ꤋꤢꤨ꤭ꤢꤩꤕꤢ꤬ꤖꤚꤢꤪꤘꤤ": 6455,
      "ꤖꤢ꤬ꤖꤢꤨꤜꤤ꤬": 6456,
      "ꤢꤩꤋꤚꤝꤢ꤭ꤡꤝꤢꤔ꤫ꤤ꤬": 6457,
      "ꤢ꤬ꤟꤢꤪꤊꤢꤨ꤭ꤏꤢꤩ꤬": 6458,
      "ꤒꤣꤧ꤬ꤖꤢꤧꤕꤛꤢ": 6459,
      "ꤒꤢꤩ꤬ꤍ꤫ꤥ꤬ꤒꤢꤩ꤬ꤟꤢꤩ꤬": 6460,
      "ꤒꤢꤩ꤬ꤒꤣꤧ꤬ꤚꤤ꤬ꤟꤥ꤬": 6461,
      "ꤟꤢꤩ꤬ꤛꤢ꤬ꤚꤤ꤬ꤛꤢ꤬ꤚꤢꤧ": 6462,
      "ꤤ꤬ꤒꤢ꤬ꤜꤤ꤬ꤊ꤫ꤢꤩ꤬": 6463,
      "ꤗꤢꤩ꤬ꤕꤜꤢꤦꤗꤢꤩ꤬ꤓꤥ꤭": 6464,
      "ꤊꤢꤧ꤭ꤙꤥ꤭ꤜꤥ꤬ꤔꤣꤧ꤬": 6465,
      "ꤟꤢꤧ꤭ꤕꤜꤢꤨ꤬ꤟꤢꤧ꤭ꤖꤢꤩ꤬": 6466,
      "ꤡꤝꤢꤡꤢꤩ꤬ꤔꤥ꤭": 6467,
      "ꤋꤢꤨ꤭ꤢꤨꤒꤢꤨꤋꤢꤨ": 6468,
      "ꤋꤢꤨ꤭ꤜꤢꤨꤊꤢ꤬": 6469,
      "ꤒꤢ꤭ꤞꤥ꤭ꤊꤢꤧ꤭": 6470,
      "ꤒꤢ꤭ꤕꤜꤢꤨꤒꤥ꤬": 6471,
      "ꤞꤤꤑꤢꤩ꤭ꤒꤢꤩ꤬ꤕꤜꤤ꤭": 6472,
      "ꤋꤛꤢ꤭ꤟꤣꤧꤜꤢꤨ꤭": 6473,
      "ꤜ꤫ꤢꤩ꤬ꤏꤢꤦꤢꤦ꤭ꤓꤢꤧ꤬": 6474,
      "ꤊ꤫ꤢꤩ꤬ꤊ꤫ꤢꤨ꤬ꤋꤢꤩ꤭": 6475,
      "ꤖꤛꤢꤖꤢꤨꤖꤛꤢꤗꤢꤩ꤭": 6476,
      "ꤜ꤫ꤢꤩ꤬ꤥ꤬ꤠꤢꤥ꤬": 6477,
      "ꤓꤢꤪꤔ꤫ꤤ꤬ꤡꤝꤤ꤬ꤔ꤫ꤤ꤬": 6478,
      "ꤋꤢꤨ꤭ꤢꤩꤎꤢꤪ": 6479,
      "ꤠꤢꤦꤠ꤫ꤢꤧ꤬ꤜꤥ꤭": 6480,
      "ꤓꤣꤧ꤭ꤥ꤭ꤖꤢꤜꤣꤧ꤬ꤊꤢꤨ꤭": 6481,
      "ꤕꤤ꤬ꤎꤤ꤬ꤘꤤꤛꤢ꤬ꤊ꤫ꤢꤩ꤬": 6482,
      "ꤔꤢꤪ꤭ꤗꤢꤧꤔꤢꤪ꤭ꤡꤢꤧ꤬": 6483,
      "ꤥ꤬ꤖꤚꤢꤩ꤭ꤥ꤬ꤘꤢꤦ꤭": 6484,
      "ꤒꤢꤩ꤬ꤡ꤫ꤢꤪ꤬ꤛꤢꤧ꤭": 6485,
      "ꤖꤚꤢꤩ꤬ꤡ꤫ꤢꤧ꤬ꤖꤢꤨ": 6486,
      "ꤗꤢꤩ꤬ꤖꤚꤥꤊꤢꤧ꤭": 6487,
      "ꤊ꤫ꤢꤦ꤬ꤢꤩ꤬ꤊ꤫ꤢꤦ꤬ꤥ꤭": 6488,
      "ꤋꤢꤨ꤭ꤘꤤꤘꤤ꤬ꤗꤢꤨ": 6489,
      "ꤗꤢꤧꤚꤣꤧꤡꤢꤧ꤬ꤚꤣꤧ": 6490,
      "ꤒꤢꤩ꤬ꤞꤢꤨꤞꤤ꤭ꤞꤢꤨꤞꤢ": 6491,
      "ꤠꤤ꤭ꤔꤤ꤬ꤔꤢ꤬ꤠꤢꤩꤖꤢꤨ": 6492,
      "ꤊꤢꤧꤚꤢ꤬ꤎꤢ꤬ꤊ꤫ꤢꤩ꤬": 6493,
      "ꤔꤥ꤬ꤞꤢꤪ꤭ꤔꤥ꤬": 6494,
      "ꤊꤜꤢꤧ꤬ꤖꤚꤥꤊꤜꤢꤧ꤬ꤖꤚꤢꤧ꤭": 6495,
      "ꤙꤢꤪꤙꤢꤩꤓꤢꤩ꤬": 6496,
      "ꤥ꤬ꤗꤣꤧ꤭ꤢꤩ꤭ꤥ꤬": 6497,
      "ꤡꤝꤤ꤬ꤓꤢꤨ꤭ꤟꤢꤧ꤭": 6498,
      "ꤗ꤫ꤢꤪ꤬ꤋꤤꤢꤪꤕꤢ꤬": 6499,
      "ꤠꤤ꤭ꤊꤢ꤬ꤗꤥꤚꤢ꤬": 6500,
      "ꤕꤢꤪꤒꤤ꤬ꤛꤢꤕꤤꤜꤢ": 6501,
      "ꤒꤣꤧ꤬ꤔꤢꤩ꤬ꤞꤢꤦꤙꤢꤪ꤭ꤒꤣꤧ꤬ꤔꤢꤩ꤬ꤞꤢꤦꤙꤛꤢ꤬": 6502,
      "ꤠꤥ꤬ꤔꤤꤊꤢꤩ꤬ꤊ꤫ꤢꤩ꤬": 6503,
      "ꤢ꤬ꤞꤢꤪ꤭ꤢ꤬ꤜꤢꤪ꤬": 6504,
      "ꤠꤢꤧ꤭ꤓꤣꤧ꤭ꤠꤢꤧ꤭ꤊ꤫ꤢꤩ꤬": 6505,
      "ꤢ꤬ꤢꤩ꤬ꤢ꤬ꤥ꤭": 6506,
      "ꤞꤝꤢ꤬ꤒꤤꤚꤢ꤬": 6507,
      "ꤓꤢꤩꤜ꤫ꤤ꤬ꤊꤢꤨ꤭ꤔꤣꤧ꤬": 6508,
      "ꤚꤢ꤬ꤋꤢ": 6509,
      "ꤚꤢ꤬ꤚꤢꤪ꤭ꤚꤢ꤬ꤚꤢꤩ꤬": 6510,
      "ꤢ꤬ꤊꤜꤤ꤭": 6511,
      "ꤢ꤬ꤗꤢꤧꤢ꤬ꤡꤢꤧ꤬": 6512,
      "ꤢ꤬ꤔꤥꤢ꤬ꤊꤢ꤭": 6513,
      "ꤢꤨ꤭ꤗꤢꤦ꤭ꤢꤨ꤭ꤕꤢꤪ꤬": 6514,
      "ꤒꤣꤧ꤬ꤓꤝꤢꤗꤢ꤬": 6515,
      "ꤒꤣꤧ꤬ꤋꤚꤢꤦ꤬ꤞꤢꤩ꤬": 6516,
      "ꤒꤣꤧ꤬ꤙꤛꤢ꤬ꤋꤢꤨ꤬": 6517,
      "ꤒꤢꤩ꤬ꤗꤢꤧꤒꤢꤩ꤬": 6518,
      "ꤟꤢꤩ꤬ꤞꤥ꤭ꤋꤢꤨ꤬": 6519,
      "ꤖꤚꤢꤩ꤬ꤡꤢꤪꤖꤚꤢꤩ꤬ꤒꤢꤩ꤬": 6520,
      "ꤤ꤬ꤋꤚꤢꤩꤏꤢꤩ": 6521,
      "ꤗꤢꤩ꤬ꤊ꤫ꤢꤨ꤬ꤗꤢꤩ꤬ꤊꤢꤧ꤭": 6522,
      "ꤗꤢꤩ꤬ꤙꤢꤪ꤭ꤗꤢꤩ꤬ꤙꤛꤢ꤬": 6523,
      "ꤗꤢꤩ꤬ꤛꤢꤪꤗꤢꤩ꤬ꤜꤢꤩ꤭": 6524,
      "ꤊꤣꤧ꤬ꤛꤤ꤬ꤊꤣꤧ꤬ꤛꤥ꤭": 6525,
      "ꤟꤢꤧ꤭ꤓꤥ꤬ꤢꤩ꤬ꤊꤢꤧ꤭": 6526,
      "ꤔꤢꤧ꤬ꤜꤢ꤭ꤔꤢꤧ꤬ꤍ꤫ꤥ꤬": 6527,
      "ꤔꤢꤧ꤬ꤋꤥ꤭ꤔꤢꤧ꤬ꤞꤝꤢ": 6528,
      "ꤜꤢꤪ꤭ꤏꤣꤧꤜꤢꤪ꤭ꤋꤢꤩ꤭": 6529,
      "ꤋꤢꤨ꤭ꤊꤢꤩ꤬ꤖꤢ": 6530,
      "ꤋꤢꤨ꤭ꤒꤢ꤬ꤚꤢꤪꤖꤤꤗꤢꤨ": 6531,
      "ꤊꤢꤩ꤬ꤙꤢꤪ꤭ꤊꤢꤩ꤬ꤙꤛꤢ꤬": 6532,
      "ꤒꤢ꤭ꤊ꤫ꤥ꤬ꤒꤢ꤭ꤠꤢꤩ꤭": 6533,
      "ꤘꤢꤨ꤬ꤗꤝꤤ꤭ꤓꤢꤨ꤭": 6534,
      "ꤔꤤꤡꤢꤨꤕꤢꤩ": 6535,
      "ꤒꤣꤧ꤬ꤚꤤ꤬ꤞꤝꤢꤩ": 6536,
      "ꤠꤤ꤭ꤕꤢꤩ꤬ꤚꤢ꤬ꤊꤢ꤬": 6537,
      "ꤘꤢꤧ꤬ꤖꤥꤘꤢꤧ꤬ꤏꤣꤧ": 6538,
      "ꤔꤢꤪ꤭ꤜꤢꤪ꤬ꤊꤢꤧ꤭": 6539,
      "ꤔꤢꤪ꤭ꤞꤢꤪ꤭ꤔꤢꤪ꤭ꤜꤢꤪ꤬ꤊꤢꤧ꤭": 6540,
      "ꤖꤢꤩ꤭ꤢ꤬ꤔꤢ꤬ꤔꤤ": 6541,
      "ꤗ꤫ꤥ꤬ꤟꤢ꤬ꤊꤢ꤬": 6542,
      "ꤗꤢꤪ꤬ꤜꤢꤩꤘꤤ꤬ꤛꤣ꤬": 6543,
      "ꤗꤢꤪ꤬ꤘꤢꤪ꤬ꤊꤢ": 6544,
      "ꤗꤢꤪ꤬ꤚꤢꤪ꤭ꤘꤢꤩ꤬": 6545,
      "ꤗꤢꤪ꤬ꤒꤢ꤬ꤙꤤ꤬ꤞꤢ": 6546,
      "ꤟꤤ꤬ꤒ꤫ꤣꤧ꤬ꤊꤜꤢꤪ꤭": 6547,
      "ꤋꤚꤢꤦ꤭ꤢꤩ꤬ꤋꤚꤢꤦ꤭ꤚꤢꤧ꤬": 6548,
      "ꤘꤢꤧꤒꤣꤧ꤬ꤊꤜꤝꤢ꤬": 6549,
      "ꤜꤤ꤭ꤙꤢꤨ꤭ꤟꤣꤧ": 6550,
      "ꤔ꤫ꤤ꤬ꤘꤢ꤭ꤞꤣꤧ꤭ꤔ꤫ꤤ꤬ꤘꤢ꤭ꤥ꤬": 6551,
      "ꤏꤢꤩ꤬ꤒ꤫ꤢꤪ꤬ꤚꤥ꤬": 6552,
      "ꤕ꤫ꤢꤦ꤬ꤊꤜꤢꤪ꤬ꤕ꤫ꤢꤦ꤬ꤗꤢ꤬": 6553,
      "ꤘꤤ꤭ꤓꤥꤔꤢꤩꤊꤥ": 6554,
      "ꤘꤢꤪ꤭ꤙꤢꤧꤞꤢ꤬ꤖꤢ꤬ꤊꤢꤩ꤬": 6555,
      "ꤖꤚꤢꤩ꤬ꤗꤢꤩ꤬ꤚ꤫ꤥ꤬ꤜꤢꤨ꤭ꤒꤢꤩ꤬": 6556,
      "ꤑꤢ꤭ꤕ꤫ꤢꤩ꤬ꤊꤣꤧ꤭ꤕꤢ꤬": 6557,
      "ꤖꤚꤢꤩ꤬ꤥ꤬ꤚꤢ꤬ꤥ꤬ꤞꤢꤧ꤬ꤖꤢꤨ": 6558,
      "ꤕ꤫ꤢꤨ꤬ꤊꤜꤥꤊꤢꤨ꤭": 6559,
      "ꤋꤢꤦ꤭ꤋꤢꤦ꤭ꤟꤢ꤭ꤟꤢ꤭": 6560,
      "ꤋꤢꤨ꤭ꤊꤢ꤬ꤗꤢꤩ꤬ꤜꤤ꤬ꤛꤣ꤬ꤜꤢ": 6561,
      "ꤋꤢꤨ꤭ꤡꤛꤢꤨꤜꤤ꤬ꤛꤢ꤬ꤎꤣ꤬": 6562,
      "ꤋꤢꤨ꤭ꤢꤪꤔꤤꤎꤢ꤬ꤖꤚꤢꤨ": 6563,
      "ꤋꤢꤨ꤭ꤢꤪꤔꤢꤩ꤬ꤎꤢꤩꤗꤢꤨ": 6564,
      "ꤒꤣꤧ꤬ꤕꤢ꤬ꤋꤛꤢꤛꤢꤦ": 6565,
      "ꤋꤢꤨ꤭ꤢꤩꤕꤢ꤬ꤖꤚꤢꤪꤘꤤꤒꤢꤨ": 6566,
      "ꤟꤢꤩ꤬ꤛꤢ꤬ꤚꤤ꤬ꤛꤢ꤬ꤚꤢꤧꤋꤢꤨ꤬": 6567,
      "(“": 6568,
      "’”": 6569,
      "ꤊꤢꤦ꤬": 6570,
      "ꤊ꤫ꤢꤪ꤬": 6571,
      "ꤊꤢ꤬ꤚꤢꤩ": 6572,
      "ꤋꤢ꤭": 6573,
      "ꤋꤢ꤬ꤕ": 6574,
      "ꤎꤥ": 6575,
      "ꤎꤥ꤬": 6576,
      "ꤎꤢ꤬ꤜꤥ꤬": 6577,
      "ꤎꤢ꤬ꤙꤢ": 6578,
      "ꤏꤢ꤬ꤜꤢ꤬": 6579,
      "ꤒ꤫ꤢꤩ꤬": 6580,
      "ꤒꤢ꤬ꤋ": 6581,
      "ꤒꤢ꤬ꤚꤢ": 6582,
      "ꤓꤤ": 6583,
      "ꤓꤢ꤬": 6584,
      "ꤓꤢ꤬ꤚꤢꤨ": 6585,
      "ꤔꤣ꤬": 6586,
      "ꤔꤢ꤬ꤋ": 6587,
      "ꤔꤢꤦ꤭": 6588,
      "ꤕꤢ꤬ꤚꤢ꤬": 6589,
      "ꤕꤜꤢ꤭ꤋꤢꤨ꤬": 6590,
      "ꤖꤢ꤭": 6591,
      "ꤖꤤ꤬": 6592,
      "ꤖꤢꤪꤜꤢꤨ": 6593,
      "ꤖꤥ꤬ꤊꤢꤧ꤭": 6594,
      "ꤗ꤫ꤤ꤬": 6595,
      "ꤗꤣꤧ꤭ꤔꤣꤧ꤬": 6596,
      "ꤗꤥ꤬ꤔ": 6597,
      "ꤘꤢꤨ꤭": 6598,
      "ꤘꤢ꤬ꤖꤢꤨ": 6599,
      "ꤘꤚꤥ꤬": 6600,
      "ꤘꤢꤩꤜꤢ꤬": 6601,
      "ꤘꤢ꤬ꤜꤢ꤬": 6602,
      "ꤙꤣ꤬": 6603,
      "ꤙꤤ꤬ꤞ": 6604,
      "ꤙꤢ꤬ꤜꤥ꤬": 6605,
      "ꤚꤥ": 6606,
      "ꤚꤢꤦ꤬": 6607,
      "ꤛꤥ": 6608,
      "ꤛꤢ꤬ꤜꤥ꤬": 6609,
      "ꤛꤢꤩꤜꤢ꤬": 6610,
      "ꤝꤢ꤬ꤋꤛꤢ꤭": 6611,
      "ꤞꤣꤧ꤭ꤔꤣꤧ꤬": 6612,
      "ꤞꤢ꤬ꤜꤤ꤬": 6613,
      "ꤞꤢ꤬ꤙꤢꤨ꤬ꤜꤥ꤬": 6614,
      "ꤟꤢꤨ꤬": 6615,
      "ꤟꤢꤪ꤬": 6616,
      "ꤟꤢ꤬ꤜ": 6617,
      "ꤟꤢ꤬ꤚꤢ꤬": 6618,
      "ꤠꤥ": 6619,
      "ꤠꤢꤨ": 6620,
      "ꤠꤢꤧ꤬": 6621,
      "ꤠꤢ꤬ꤚꤢꤩ": 6622,
      "ꤡꤥ꤬": 6623,
      "ꤡꤤ꤭": 6624,
      "ꤢꤞꤢ": 6625,
      "ꤤꤟꤢꤨ": 6626,
      "ꤤꤔꤢ꤬": 6627,
      "ꤥꤘꤢ꤬": 6628,
      "ꤥꤙꤤꤊꤢꤧ꤭": 6629,
      "ꤥꤥ꤬ꤙꤤ": 6630,
      "ꤢꤩꤢꤩ": 6631,
      "ꤢꤩꤒꤢ꤭": 6632,
      "ꤢꤩꤊꤢꤨ": 6633,
      "ꤢꤩꤒ꤫ꤥ꤬": 6634,
      "ꤢꤩꤖꤥ": 6635,
      "ꤢꤩꤓꤢꤩ꤬ꤊꤢꤧ꤭": 6636,
      "ꤢꤩꤒꤣꤧ꤬ꤊꤤ꤬": 6637,
      "ꤢꤩꤓꤢꤩ꤬ꤡꤝꤢꤊꤢꤧ꤭": 6638,
      "ꤢꤩꤠꤢ": 6639,
      "ꤢꤩꤞꤢ꤬": 6640,
      "ꤢꤩꤖꤥ꤬": 6641,
      "ꤢꤩꤗꤢꤩ": 6642,
      "ꤢꤩꤒꤣꤧ꤬ꤕꤜꤢꤩ꤬ꤞꤢꤩ꤭": 6643,
      "ꤢꤩ꤬ꤞꤤ꤭": 6644,
      "ꤢꤩ꤬ꤖꤢꤧ": 6645,
      "ꤢꤩ꤬ꤗꤢꤧ": 6646,
      "ꤢꤩ꤬ꤒ꤫ꤣ꤬ꤊꤣꤧ꤭": 6647,
      "ꤢꤩ꤬ꤒꤣꤧ꤬ꤜꤝꤢ": 6648,
      "ꤢꤩ꤬ꤜꤢꤩ": 6649,
      "ꤢꤩ꤬ꤔꤥ꤬": 6650,
      "ꤢꤩ꤬ꤒꤣꤧ꤬ꤋꤚꤥ꤭": 6651,
      "ꤢꤩ꤬ꤢꤨ꤭ꤛ꤫ꤢꤧ꤬ꤛꤥ꤬": 6652,
      "ꤢꤩ꤬ꤙꤢꤩ꤬ꤥ꤭": 6653,
      "ꤢꤧꤋꤥ꤬": 6654,
      "ꤢꤧꤋꤢ": 6655,
      "ꤢꤧꤒꤣꤧ꤬ꤛꤝꤤ": 6656,
      "ꤣꤧ꤬ꤤ꤬ꤊꤤ꤭": 6657,
      "ꤢ꤬ꤕꤢ꤭": 6658,
      "ꤢ꤬ꤛꤢ": 6659,
      "ꤢ꤬ꤗꤥ꤬": 6660,
      "ꤢ꤬ꤊ꤫ꤢꤩ꤬": 6661,
      "ꤢ꤬ꤡ꤫ꤢꤩ꤬": 6662,
      "ꤢ꤬ꤏꤢ": 6663,
      "ꤢ꤬ꤠ꤫ꤢꤧ꤬": 6664,
      "ꤢ꤬ꤊꤜꤢꤪ꤬": 6665,
      "ꤢ꤬ꤊꤥ꤬": 6666,
      "ꤢ꤬ꤖꤚꤤ꤬": 6667,
      "ꤢ꤬ꤊꤢꤦ꤭": 6668,
      "ꤢ꤬ꤠꤤ꤬": 6669,
      "ꤢ꤬ꤊꤢꤨꤛꤢ꤭ꤊꤢꤨ꤭": 6670,
      "ꤢ꤬ꤟꤢ꤭": 6671,
      "ꤢ꤬ꤕꤢꤪ꤬": 6672,
      "ꤢ꤬ꤊꤜꤢꤩ": 6673,
      "ꤢ꤬ꤖꤣꤧ꤭": 6674,
      "ꤢ꤬ꤞꤤꤖꤚ꤫ꤢꤩ꤬": 6675,
      "ꤢ꤬ꤏꤢꤩ꤬ꤢꤩ꤬ꤏꤢꤩ꤬ꤥ꤭": 6676,
      "ꤢ꤬ꤊꤛꤢ": 6677,
      "ꤢ꤬ꤖꤣꤧ꤭ꤖꤥ꤭": 6678,
      "ꤢ꤬ꤜꤥ꤭ꤋꤢꤨ꤬": 6679,
      "ꤢ꤬ꤗꤤ꤬ꤊꤢꤪ꤭": 6680,
      "ꤢ꤬ꤞꤤ꤭ꤊꤢꤨ꤭": 6681,
      "ꤢ꤬ꤊꤢ": 6682,
      "ꤢ꤬ꤙꤢꤩꤚꤢꤩ꤭": 6683,
      "ꤢ꤬ꤡꤝ꤫ꤢꤩ꤬": 6684,
      "ꤢ꤬ꤗꤝꤢ꤭": 6685,
      "ꤢ꤬ꤠ꤫ꤢꤧ꤬ꤖꤚ꤫ꤢꤩ꤬": 6686,
      "ꤢ꤬ꤖꤝꤤ꤭": 6687,
      "ꤢ꤬ꤓꤢꤩ꤭ꤙꤢ꤬": 6688,
      "ꤢ꤬ꤙꤢꤩ꤭ꤜ꤫ꤢꤪ꤬ꤘꤢꤨ꤬": 6689,
      "ꤢ꤬ꤟꤢꤩ꤬ꤊꤢꤨ꤭": 6690,
      "ꤢ꤬ꤟꤝꤢ": 6691,
      "ꤥ꤬ꤡꤢꤪ": 6692,
      "ꤥ꤬ꤟꤢꤨꤔꤣꤧ꤬": 6693,
      "ꤥ꤬ꤗꤢꤧ": 6694,
      "ꤥ꤬ꤠꤤ꤭": 6695,
      "ꤥ꤬ꤖꤢꤨꤡ꤫ꤢꤩ꤬": 6696,
      "ꤥ꤬ꤋꤛꤢ꤭ꤞꤢꤧ": 6697,
      "ꤥ꤬ꤘꤢ꤭": 6698,
      "ꤥ꤬ꤕꤢꤩ꤭": 6699,
      "ꤥ꤬ꤙꤣꤧꤣꤧ꤭": 6700,
      "ꤥ꤬ꤢ꤬ꤕꤥ꤬": 6701,
      "ꤥ꤬ꤢꤩꤟꤢꤧ꤭": 6702,
      "ꤥ꤬ꤘꤝꤢ": 6703,
      "ꤥ꤬ꤘꤢꤦ꤬ꤑꤢꤩ꤭": 6704,
      "ꤥ꤬ꤒꤣꤧ꤬ꤠꤤ꤭ꤒꤣꤧ꤬ꤠꤢ꤬": 6705,
      "ꤥ꤬ꤋꤥꤜꤢꤨ꤭": 6706,
      "ꤢꤧ꤬ꤔꤥ": 6707,
      "ꤢꤪꤊꤢ꤬": 6708,
      "ꤞꤤꤒꤣ꤬": 6709,
      "ꤞꤤꤓꤥ꤭": 6710,
      "ꤞꤤꤛꤢ꤬": 6711,
      "ꤞꤤꤜꤤ꤬": 6712,
      "ꤞꤤꤥ꤬ꤗꤣꤧ꤭": 6713,
      "ꤞꤤꤊꤣꤧ꤬ꤜꤢꤪ": 6714,
      "ꤔꤣꤧ꤬ꤒ꤫ꤢꤧ꤬": 6715,
      "ꤔꤣꤧ꤬ꤒꤣ꤬ꤖ": 6716,
      "ꤣꤧ꤭ꤕꤢ꤭ꤔꤣꤧ꤬": 6717,
      "ꤣꤧ꤭ꤢ꤬ꤑꤢꤩ꤭ꤔꤣꤧ꤬ꤚꤣꤧ꤬": 6718,
      "ꤣꤧ꤭ꤞꤤꤞꤥ꤭": 6719,
      "ꤣꤧ꤭ꤒꤥ꤬ꤔꤣꤧ꤬": 6720,
      "ꤣꤧ꤭ꤔꤣꤧ꤭ꤙꤢꤩ꤬": 6721,
      "ꤣꤧ꤭ꤞꤤꤜꤝꤤ꤭": 6722,
      "ꤣꤧ꤭ꤜꤝꤤ꤭ꤘꤥ꤭": 6723,
      "ꤣꤧ꤭ꤞꤤꤍꤢꤧ꤭": 6724,
      "ꤣꤧ꤭ꤞꤥ꤭ꤘꤥ꤭": 6725,
      "ꤢꤨ꤭ꤍ꤫ꤥ꤬": 6726,
      "ꤢꤨ꤭ꤊ꤫ꤢꤩ꤬": 6727,
      "ꤢꤨ꤭ꤓꤣꤧ꤭": 6728,
      "ꤢꤨ꤭ꤒꤣꤧ꤬ꤚꤣꤧ꤭": 6729,
      "ꤢꤨ꤭ꤟꤤ꤬": 6730,
      "ꤢꤨ꤭ꤙꤝꤤ": 6731,
      "ꤢꤨ꤭ꤠꤢꤩ꤬": 6732,
      "ꤢꤨ꤭ꤚꤢꤦ꤭": 6733,
      "ꤒꤣꤧ꤬ꤥ꤭": 6734,
      "ꤒꤣꤧ꤬ꤔꤢꤪ꤭": 6735,
      "ꤒꤣꤧ꤬ꤊꤜꤢꤪ": 6736,
      "ꤒꤣꤧ꤬ꤋꤥ꤭": 6737,
      "ꤒꤣꤧ꤬ꤕꤣꤧ꤬": 6738,
      "ꤒꤣꤧ꤬ꤟꤥ": 6739,
      "ꤒꤣꤧ꤬ꤋꤢꤪ꤭": 6740,
      "ꤒꤣꤧ꤬ꤊꤜꤢꤧ꤭ꤗꤢꤩ꤭": 6741,
      "ꤒꤣꤧ꤬ꤗꤢꤩ꤬ꤔꤢꤪ": 6742,
      "ꤢꤩ꤭ꤗꤢ꤬ꤎꤣ꤬": 6743,
      "ꤢꤦ꤬ꤙꤤꤊꤢꤧ꤭": 6744,
      "ꤔꤢꤧꤞꤤ꤭": 6745,
      "ꤔꤢꤧꤔꤥ꤭": 6746,
      "ꤔꤢꤧꤠꤢꤩ꤬": 6747,
      "ꤔꤢꤧꤟꤤ꤬ꤔꤢꤧꤖꤚꤢꤩ": 6748,
      "ꤒꤢꤩ꤬ꤘꤣꤧ": 6749,
      "ꤒꤢꤩ꤬ꤟꤢꤨꤔꤣꤧ꤬": 6750,
      "ꤒꤢꤩ꤬ꤊꤢ꤬": 6751,
      "ꤒꤢꤩ꤬ꤟꤢꤩꤏꤢꤦ꤬": 6752,
      "ꤒꤢꤩ꤬ꤘꤥ꤬": 6753,
      "ꤒꤢꤩ꤬ꤟꤢꤩꤏꤥ꤬ꤜꤥ꤭": 6754,
      "ꤒꤢꤩ꤬ꤗꤢꤧꤕꤢꤨ꤭": 6755,
      "ꤒꤢꤩ꤬ꤛ꤫ꤢꤦ꤬ꤢꤩ꤬ꤔ꤫ꤢꤧ꤬ꤢꤩ꤬": 6756,
      "ꤒꤢꤩ꤬ꤊꤝꤤ꤭ꤞꤤꤛꤢꤪ꤬": 6757,
      "ꤒꤢꤩ꤬ꤞꤤꤑꤢꤩ꤭ꤕꤜꤥ꤭": 6758,
      "ꤒꤢꤩ꤬ꤏꤣꤧꤋꤢꤩ꤭": 6759,
      "ꤒꤢꤩ꤬ꤜꤢꤦ꤬": 6760,
      "ꤒꤢꤩ꤬ꤣꤧ꤭ꤔꤣꤧ꤬ꤒꤣꤧ꤬ꤟꤢꤩ꤬": 6761,
      "ꤒꤢꤩ꤬ꤣꤧ꤭ꤗꤢ꤬": 6762,
      "ꤒꤢꤩ꤬ꤜꤢꤨ꤭ꤓꤢꤧ꤬": 6763,
      "ꤒꤢꤩ꤬ꤛ꤫ꤢꤦ꤬ꤢꤩ꤬ꤚꤣꤧ": 6764,
      "ꤒꤢꤩ꤬ꤢ꤬ꤊꤢꤧ꤭ꤏꤢ": 6765,
      "ꤒꤢꤩ꤬ꤘꤣꤧꤞꤤꤑꤢꤩ꤭": 6766,
      "ꤒꤢꤩ꤬ꤤ꤬ꤏꤢꤪꤓꤢꤧ꤬": 6767,
      "ꤒꤢꤩ꤬ꤚꤢ꤭ꤗꤢ": 6768,
      "ꤒꤢꤩ꤬ꤡꤢꤧ꤬ꤒꤥ꤭ꤙꤢꤩ꤬ꤒꤢꤩ꤬": 6769,
      "ꤒꤢꤩ꤬ꤟꤢꤩꤊꤢꤧ꤭": 6770,
      "ꤒꤢꤩ꤬ꤢꤧꤡꤢꤪꤢꤧꤒꤢꤩ꤬": 6771,
      "ꤒꤢꤩ꤬ꤓꤢꤧ꤭": 6772,
      "ꤒꤢꤩ꤬ꤜꤢꤨ꤬ꤖꤚꤥꤜꤢꤨ꤬ꤖꤚꤢꤧ꤭": 6773,
      "ꤒꤢꤩ꤬ꤡꤢꤨ꤬": 6774,
      "ꤒꤢꤩ꤬ꤚꤢ꤭ꤊꤢꤧ꤭": 6775,
      "ꤒꤢꤩ꤬ꤚꤢ꤭ꤥ꤬ꤔꤢꤩ꤬": 6776,
      "ꤒꤢꤩ꤬ꤘꤤꤡꤢꤩ꤭": 6777,
      "ꤒꤢꤩ꤬ꤘꤢꤨ꤬ꤓꤢꤧ꤬ꤓꤢꤨ꤭ꤓꤢꤧ꤬": 6778,
      "ꤒꤢꤩ꤬ꤙꤢꤩ꤬ꤛꤢꤪ꤬ꤙꤢꤩ꤬ꤞꤤ꤬": 6779,
      "ꤒꤢꤩ꤬ꤋꤢꤪ꤭ꤕ꤫ꤢꤩ꤬": 6780,
      "ꤒꤢꤩ꤬ꤋꤥ꤭ꤗꤢꤩ꤭": 6781,
      "ꤒꤢꤩ꤬ꤤ꤬ꤏꤢꤪ꤭ꤟꤢ꤭": 6782,
      "ꤒꤢꤩ꤬ꤊ꤫ꤢꤦ꤬ꤒꤢꤩ꤬": 6783,
      "ꤖꤚꤥꤗꤢꤩ꤬": 6784,
      "ꤥ꤭ꤓꤢꤧ꤬": 6785,
      "ꤥ꤭ꤕꤢ꤬": 6786,
      "ꤥ꤭ꤔꤥ꤭": 6787,
      "ꤥ꤭ꤒꤣꤧ꤬ꤜꤝꤢ": 6788,
      "ꤞꤤ꤭ꤚꤣꤧ꤬": 6789,
      "ꤞꤤ꤭ꤟꤢꤩ꤬": 6790,
      "ꤞꤤ꤭ꤟꤢꤧ꤭": 6791,
      "ꤞꤤ꤭ꤞꤤꤕꤜꤢꤪ꤬": 6792,
      "ꤞꤤ꤭ꤜ꤫ꤢꤩ꤬": 6793,
      "ꤞꤤ꤭ꤋꤝꤤ": 6794,
      "ꤞꤤ꤭ꤞꤢꤚꤢ": 6795,
      "ꤞꤤ꤭ꤊꤜꤝꤤ꤭": 6796,
      "ꤞꤤ꤭ꤚꤢꤦ꤭": 6797,
      "ꤞꤤ꤭ꤚꤢꤩ꤬": 6798,
      "ꤞꤤ꤭ꤋꤢꤪꤗꤢꤨ꤭": 6799,
      "ꤞꤤ꤭ꤊ꤫ꤢꤨ꤬": 6800,
      "ꤞꤤ꤭ꤒꤣꤧ꤬ꤠꤤ꤭": 6801,
      "ꤞꤤ꤭ꤜꤢꤧ꤭": 6802,
      "ꤞꤤ꤭ꤚꤢꤦ꤭ꤛꤢ꤬": 6803,
      "ꤞꤤ꤭ꤢꤩ꤬ꤞꤤ꤭": 6804,
      "ꤞꤤ꤭ꤔꤢꤧꤞꤤ꤭": 6805,
      "ꤣ꤬ꤖꤢ": 6806,
      "ꤖꤚꤢꤩ꤬ꤟꤢꤩꤙꤢꤩ꤬": 6807,
      "ꤖꤚꤢꤩ꤬ꤟꤢꤩꤏꤥ꤬ꤘꤥ꤬ꤔꤢꤧ꤭": 6808,
      "ꤖꤚꤢꤩ꤬ꤥ꤬ꤔꤢꤧ꤭ꤥ꤬": 6809,
      "ꤖꤚꤢꤩ꤬ꤠ꤫ꤢꤩ꤬": 6810,
      "ꤖꤚꤢꤩ꤬ꤤ꤬ꤏꤢꤪꤓꤢꤧ꤬": 6811,
      "ꤖꤚꤢꤩ꤬ꤊꤢꤩ": 6812,
      "ꤖꤚꤢꤩ꤬ꤡꤢꤧ꤬ꤒꤥ꤭ꤙꤢꤩ꤬": 6813,
      "ꤖꤚꤢꤩ꤬ꤗꤢꤧꤕꤢꤨ꤭ꤞꤤꤑꤢꤩ꤭": 6814,
      "ꤖꤚꤢꤩ꤬ꤊꤢ꤬ꤏꤥ꤭ꤗꤢꤩ꤭": 6815,
      "ꤖꤚꤢꤩ꤬ꤞꤣꤧ꤭ꤡꤤꤊꤛꤢ꤭": 6816,
      "ꤖꤚꤢꤩ꤬ꤤ꤬ꤜ꤫ꤥ꤬ꤒꤢ꤭": 6817,
      "ꤖꤚꤢꤩ꤬ꤍꤢꤧ꤭ꤏꤣꤧ꤭": 6818,
      "ꤖꤚꤢꤩ꤬ꤓꤢꤦꤗꤢꤧ": 6819,
      "ꤖꤚꤢꤩ꤬ꤋꤚꤝꤢ꤭ꤋꤚꤝꤥ꤭": 6820,
      "ꤖꤚꤢꤩ꤬ꤕꤣꤧ꤬ꤜꤢ꤭ꤖꤢꤨ": 6821,
      "ꤖꤚꤢꤩ꤬ꤛꤢꤦ꤬ꤓꤣꤧ꤭": 6822,
      "ꤒꤣꤧ꤬ꤟꤢꤩ꤬ꤚꤣꤧ꤬": 6823,
      "ꤒꤣꤧ꤬ꤟꤢꤩ꤬ꤒꤢꤩ꤭": 6824,
      "ꤒꤣꤧ꤬ꤟꤢꤩ꤬ꤡꤣꤧꤔꤣꤧ꤬": 6825,
      "ꤤ꤬ꤏꤢ": 6826,
      "ꤤ꤬ꤟꤤ": 6827,
      "ꤤ꤬ꤡꤢꤪ꤭": 6828,
      "ꤤ꤬ꤛꤢꤧ": 6829,
      "ꤤ꤬ꤞꤤ꤬": 6830,
      "ꤤ꤬ꤡ꤫ꤥ꤬": 6831,
      "ꤒꤣ꤬ꤔ": 6832,
      "ꤒꤣ꤬ꤕ꤫ꤥ꤬": 6833,
      "ꤒꤣ꤬ꤙꤢꤩ꤬ꤙꤢꤩ꤬": 6834,
      "ꤒꤣ꤬ꤛꤢ꤬": 6835,
      "ꤒꤣ꤬ꤟꤤ꤬": 6836,
      "ꤒꤣ꤬ꤊꤜꤥ꤭": 6837,
      "ꤒꤣ꤬ꤞꤝꤤ꤬": 6838,
      "ꤒꤣ꤬ꤊꤜꤢꤩ": 6839,
      "ꤒꤣ꤬ꤕꤢꤧ꤭": 6840,
      "ꤒꤣ꤬ꤟꤢꤦ꤬": 6841,
      "ꤒꤣ꤬ꤗꤤꤜꤢꤩ꤬": 6842,
      "ꤟꤢꤩꤒꤥ꤬": 6843,
      "ꤟꤢꤩꤓꤢꤧ꤬": 6844,
      "ꤟꤢꤩꤗꤢꤧ": 6845,
      "ꤟꤢꤩꤓꤥ꤭ꤚꤣꤧ꤬": 6846,
      "ꤟꤢꤩꤕꤝꤢ꤭": 6847,
      "ꤟꤢꤩꤊꤢ꤬ꤋꤛꤢ꤭": 6848,
      "ꤟꤢꤩꤟꤢꤨꤔꤣꤧ꤬ꤚꤣꤧ꤬": 6849,
      "ꤟꤢꤩꤜꤤ꤬": 6850,
      "ꤟꤢꤩꤋꤥ": 6851,
      "ꤟꤢꤩꤗꤢꤨꤗ꤫ꤢꤧ꤬ꤚꤤ꤬ꤡ꤫ꤢꤧ꤬": 6852,
      "ꤟꤢꤩꤔꤢꤧ꤭": 6853,
      "ꤟꤢꤩꤟꤢꤧ꤭ꤑꤢꤩ꤭": 6854,
      "ꤟꤢꤩꤊꤜꤢꤪ꤬": 6855,
      "ꤟꤢꤩꤊꤜꤢꤪ꤬ꤗꤢ꤬": 6856,
      "ꤟꤢꤩꤜ꤫ꤢ꤬": 6857,
      "ꤟꤢꤩꤋꤢꤋꤥ꤬": 6858,
      "ꤟꤢꤩꤙꤢꤦ꤬": 6859,
      "ꤟꤢꤩꤥ꤬ꤔꤣꤧ꤬": 6860,
      "ꤟꤢꤩꤡꤝꤢꤚꤣꤧ": 6861,
      "ꤟꤢꤩꤕ꤫ꤢꤩ꤬ꤗꤢꤧ": 6862,
      "ꤟꤢꤩꤔꤢꤪꤊꤣꤧ꤭": 6863,
      "ꤟꤢꤩꤜꤣꤟꤢꤩꤊꤜꤢꤪ꤭": 6864,
      "ꤗꤢꤩ꤬ꤢꤧ꤬": 6865,
      "ꤗꤢꤩ꤬ꤣꤧ꤭": 6866,
      "ꤗꤢꤩ꤬ꤖꤢꤨ": 6867,
      "ꤗꤢꤩ꤬ꤋꤢꤧ꤭": 6868,
      "ꤗꤢꤩ꤬ꤕꤜꤢꤪ": 6869,
      "ꤗꤢꤩ꤬ꤛꤢ": 6870,
      "ꤗꤢꤩ꤬ꤏꤢꤪ꤭": 6871,
      "ꤗꤢꤩ꤬ꤗꤝꤤ꤭": 6872,
      "ꤗꤢꤩ꤬ꤊꤜꤢꤩ꤭": 6873,
      "ꤗꤢꤩ꤬ꤒ꤫ꤣ꤬": 6874,
      "ꤗꤢꤩ꤬ꤔꤢꤧ꤬ꤡꤣꤧ": 6875,
      "ꤗꤢꤩ꤬ꤡꤝ": 6876,
      "ꤗꤢꤩ꤬ꤊꤣꤧ꤬ꤓꤢꤪ꤬": 6877,
      "ꤗꤢꤩ꤬ꤚ꤫ꤣꤧ꤬": 6878,
      "ꤗꤢꤩ꤬ꤕꤜꤥ꤭": 6879,
      "ꤗꤢꤩ꤬ꤡꤢ": 6880,
      "ꤗꤢꤩ꤬ꤗꤥ꤭": 6881,
      "ꤗꤢꤩ꤬ꤞꤢꤨ": 6882,
      "ꤗꤢꤩ꤬ꤙꤢꤨ꤭": 6883,
      "ꤗꤢꤩ꤬ꤒꤣꤧ꤬ꤊꤢꤩ꤬": 6884,
      "ꤗꤢꤩ꤬ꤞꤤꤕꤜꤢꤪ꤬ꤘꤢꤨ꤬": 6885,
      "ꤗꤢꤩ꤬ꤒꤝ꤫ꤢ꤬": 6886,
      "ꤗꤢꤩ꤬ꤒꤣꤧ꤬ꤚꤢꤩ꤭": 6887,
      "ꤗꤢꤩ꤬ꤚ꤫ꤣꤧ꤬ꤜꤣ": 6888,
      "ꤗꤢꤩ꤬ꤛꤢꤧ꤬": 6889,
      "ꤗꤢꤩ꤬ꤖꤚꤣꤧ꤭": 6890,
      "ꤗꤢꤩ꤬ꤙꤢꤦ꤬": 6891,
      "ꤗꤢꤩ꤬ꤋꤚꤥ꤭": 6892,
      "ꤗꤢꤩ꤬ꤢꤩꤜꤣ": 6893,
      "ꤗꤢꤩ꤬ꤓꤥ꤬": 6894,
      "ꤗꤢꤩ꤬ꤊꤣꤧ꤬ꤛꤥ꤭": 6895,
      "ꤗꤢꤩ꤬ꤋꤢꤪ꤭": 6896,
      "ꤗꤢꤩ꤬ꤓꤢꤧ꤭": 6897,
      "ꤗꤢꤩ꤬ꤥ꤬ꤓꤝꤢ꤭ꤓꤢꤧ꤬": 6898,
      "ꤗꤢꤩ꤬ꤋꤥꤜꤢꤨ꤭": 6899,
      "ꤗꤢꤩ꤬ꤡꤢꤨ꤬": 6900,
      "ꤗꤢꤩ꤬ꤓꤢꤩ꤬ꤜꤥ꤭": 6901,
      "ꤗꤢꤩ꤬ꤏꤥ꤭ꤏꤢꤦꤖꤢꤧ": 6902,
      "ꤗꤢꤩ꤬ꤘꤢꤨ꤬ꤓꤢꤧ꤬ꤓꤢꤨ꤭ꤓꤢꤧ꤬": 6903,
      "ꤗꤢꤩ꤬ꤒꤣꤧ꤬ꤖꤢꤨ꤭ꤊꤢꤧ꤭": 6904,
      "ꤗꤢꤩ꤬ꤖꤚꤢꤧ꤭ꤖꤚꤢꤧ꤭": 6905,
      "ꤗꤢꤩ꤬ꤏꤢꤦ꤭ꤟꤢꤩ꤭": 6906,
      "ꤗꤢꤩ꤬ꤜꤣꤧ꤬ꤊ꤫ꤢꤩ꤬": 6907,
      "ꤗꤢꤩ꤬ꤓꤢꤩ꤬ꤔ꤫ꤤ꤬": 6908,
      "ꤗꤢꤩ꤬ꤟꤥ꤬ꤗꤢꤩ꤬ꤞꤝꤢꤩ": 6909,
      "ꤗꤢꤩ꤬ꤥ꤬ꤕ꤫ꤢꤩ꤬": 6910,
      "ꤗꤢꤩ꤬ꤊꤣꤧ꤬ꤛꤤ꤬ꤊꤣꤧ꤬ꤛꤥ꤭": 6911,
      "ꤗꤢꤩ꤬ꤔꤢꤦ꤭": 6912,
      "ꤗꤢꤩ꤬ꤖꤚꤥꤗꤢꤩ꤬": 6913,
      "ꤢꤨ꤬ꤔꤤ": 6914,
      "ꤢꤨ꤬ꤓꤣꤧ꤭": 6915,
      "ꤛꤢꤩ꤬ꤋꤢꤪ": 6916,
      "ꤟꤣꤧꤟꤢꤧ꤭": 6917,
      "ꤠꤢꤧ꤭ꤟꤣꤧ": 6918,
      "ꤠꤢꤧ꤭ꤞꤤꤕꤜꤢꤪ꤬": 6919,
      "ꤠꤢꤧ꤭ꤏꤢꤩ꤭": 6920,
      "ꤠꤢꤧ꤭ꤗꤢꤩ꤭": 6921,
      "ꤠꤢꤧ꤭ꤜꤢꤩ꤭": 6922,
      "ꤠꤢꤧ꤭ꤓꤢꤩ꤭": 6923,
      "ꤠꤢꤧ꤭ꤗꤢꤦ꤭": 6924,
      "ꤠꤢꤧ꤭ꤠꤢꤩ꤬": 6925,
      "ꤠꤢꤧ꤭ꤡꤢ꤬": 6926,
      "ꤠꤢꤧ꤭ꤏꤝꤤ": 6927,
      "ꤠꤢꤧ꤭ꤏꤢꤨ꤬": 6928,
      "ꤠꤢꤧ꤭ꤗꤤ꤭ꤡꤣ꤬": 6929,
      "ꤠꤢꤧ꤭ꤕꤢꤪ꤬": 6930,
      "ꤠꤢꤧ꤭ꤔ꤫ꤥ꤬": 6931,
      "ꤠꤢꤧ꤭ꤟꤢꤪꤊꤢꤨ꤭": 6932,
      "ꤜꤢꤪꤜꤤ꤭ꤖꤥ": 6933,
      "ꤗꤢ꤬ꤟꤣꤧ": 6934,
      "ꤗꤢ꤬ꤊꤢꤨ": 6935,
      "ꤗꤢ꤬ꤗ꤫ꤢ꤬ꤟꤣꤧ": 6936,
      "ꤗꤢ꤬ꤔꤢ꤬": 6937,
      "ꤗꤢ꤬ꤘꤢ꤬": 6938,
      "ꤢ꤬ꤋꤣꤧ꤭": 6939,
      "ꤢ꤬ꤋꤤ꤬": 6940,
      "ꤢ꤬ꤋꤚꤢ꤭": 6941,
      "ꤢ꤬ꤋꤝꤢ꤬ꤋꤛꤢ꤭": 6942,
      "ꤡꤢꤪꤔꤢꤧ": 6943,
      "ꤊꤣꤧ꤬ꤢꤧ": 6944,
      "ꤊꤣꤧ꤬ꤜꤢꤪ꤭": 6945,
      "ꤊꤣꤧ꤬ꤜꤥ꤭": 6946,
      "ꤊꤣꤧ꤬ꤞꤢꤩ": 6947,
      "ꤊꤣꤧ꤬ꤛꤢꤪ꤬": 6948,
      "ꤊꤣꤧ꤬ꤒꤢꤧ꤬": 6949,
      "ꤊꤣꤧ꤬ꤔꤢꤨ": 6950,
      "ꤊꤣꤧ꤬ꤛ꤫ꤢꤪ꤬": 6951,
      "ꤊꤣꤧ꤬ꤒꤢꤪ꤬": 6952,
      "ꤊꤣꤧ꤬ꤔꤢꤪ꤭ꤘꤢꤨ꤬": 6953,
      "ꤟꤢꤨꤗꤢꤩ꤬ꤔꤢꤧ": 6954,
      "ꤊ꤫ꤢꤦ꤬ꤗꤢ꤬": 6955,
      "ꤊ꤫ꤢꤦ꤬ꤒꤥ꤭": 6956,
      "ꤊ꤫ꤢꤦ꤬ꤡꤢ꤭": 6957,
      "ꤊ꤫ꤢꤦ꤬ꤡꤢꤦ꤬": 6958,
      "ꤊ꤫ꤢꤦ꤬ꤕ꤫ꤢꤦ꤬": 6959,
      "ꤊ꤫ꤢꤦ꤬ꤊꤜꤢꤪ꤬": 6960,
      "ꤊ꤫ꤢꤦ꤬ꤡꤢꤪ꤭": 6961,
      "ꤊ꤫ꤢꤦ꤬ꤕ꤫ꤢꤧ꤬": 6962,
      "ꤊ꤫ꤢꤦ꤬ꤗꤢꤩ꤬ꤋꤢ": 6963,
      "ꤒꤥ꤬ꤗꤢ꤬": 6964,
      "ꤒꤥ꤬ꤋꤢꤩ꤭": 6965,
      "ꤒꤥ꤬ꤚꤢꤩ꤭": 6966,
      "ꤒꤥ꤬ꤚꤣꤧ꤬ꤗꤢ꤬": 6967,
      "ꤙꤢꤩ꤬ꤟꤢꤩ": 6968,
      "ꤙꤢꤩ꤬ꤔ꤫ꤤ꤬": 6969,
      "ꤙꤢꤩ꤬ꤋꤚꤝꤢ꤭": 6970,
      "ꤙꤢꤩ꤬ꤗꤢꤩ꤬ꤞꤣꤧ꤭": 6971,
      "ꤙꤢꤩ꤬ꤒꤢꤧ꤬": 6972,
      "ꤙꤢꤩ꤬ꤋꤢꤧꤞꤤꤕꤜꤢꤪ꤬ꤓꤢꤨ꤭": 6973,
      "ꤙꤢꤩ꤬ꤠꤤ": 6974,
      "ꤙꤢꤩ꤬ꤖꤛꤢꤘꤝꤢ": 6975,
      "ꤛꤢꤩ꤬ꤞꤤ꤭ꤣꤧ꤭": 6976,
      "ꤛꤢꤩ꤬ꤞꤤ꤭ꤒꤢꤩ꤬": 6977,
      "ꤛꤢꤩ꤬ꤞꤤ꤭ꤞꤤ꤭": 6978,
      "ꤛꤢꤧ꤭ꤛꤢꤧ꤭": 6979,
      "ꤊꤣꤧ꤬ꤛꤢꤧ꤭ꤔꤣꤧ꤬": 6980,
      "ꤊꤣꤧ꤬ꤛꤢꤧ꤭ꤣꤧ꤭": 6981,
      "ꤊꤣꤧ꤬ꤛꤢꤧ꤭ꤏꤢꤪ꤭": 6982,
      "ꤊꤣꤧ꤬ꤛꤢꤧ꤭ꤏꤝꤢ꤬": 6983,
      "ꤊꤣꤧ꤬ꤛꤢꤧ꤭ꤕꤥ꤬": 6984,
      "ꤊꤣꤧ꤬ꤛꤢꤧ꤭ꤜꤣꤧ꤬ꤟꤥ꤭": 6985,
      "ꤊꤣꤧ꤬ꤛꤢꤧ꤭ꤘꤢ": 6986,
      "ꤊꤣꤧ꤬ꤛꤢꤧ꤭ꤕꤢꤩ": 6987,
      "꤫ꤥ꤬ꤟꤢ꤭": 6988,
      "ꤜꤢꤨ꤭ꤓꤣꤧ꤭": 6989,
      "ꤜꤢꤨ꤭ꤊꤢꤨ꤬ꤊꤜꤢꤪ": 6990,
      "ꤜꤢꤨ꤭ꤛ꤫ꤢꤧ꤬ꤛꤥ꤬": 6991,
      "ꤜꤢꤨ꤭ꤖꤢ": 6992,
      "ꤜꤢꤨ꤭ꤒꤢ꤭ꤒꤢꤩ꤬": 6993,
      "ꤜꤢꤨ꤭ꤊ꤫ꤢꤩ꤬ꤊꤢꤨ꤭": 6994,
      "ꤜꤢꤨ꤭ꤏꤢꤨ꤬": 6995,
      "ꤜꤢꤨ꤭ꤜꤢꤨ꤬ꤜꤢꤩ": 6996,
      "ꤜꤢꤨ꤭ꤟꤤ꤬ꤊꤢꤨ꤭": 6997,
      "ꤢꤪ꤬ꤔꤣꤧ꤬": 6998,
      "ꤖꤢꤨꤋꤢꤨ꤭": 6999,
      "ꤖꤢꤨꤘꤤ": 7000,
      "ꤖꤢꤨꤠꤢꤩ꤬": 7001,
      "ꤚꤢꤧ꤬ꤕ꤫ꤢꤩ꤬": 7002,
      "ꤗꤣꤧ꤬ꤟꤢꤧ꤭": 7003,
      "ꤡꤢꤪꤗꤣꤧ꤬ꤚꤢꤧ꤬ꤘꤢꤨ꤬": 7004,
      "ꤕꤢꤩ꤬ꤔꤣꤧ꤬": 7005,
      "ꤕꤢꤩ꤬ꤖꤢꤨ": 7006,
      "ꤕꤢꤩ꤬ꤋꤢꤨ꤬": 7007,
      "ꤕꤢꤩ꤬ꤊꤢ꤬": 7008,
      "ꤕꤢꤩ꤬ꤋꤝꤤ": 7009,
      "ꤕꤢꤩ꤬ꤊꤜꤝꤤ꤭": 7010,
      "ꤕꤢꤩ꤬ꤜ꤫ꤢꤩ꤬ꤊꤜꤥ꤭": 7011,
      "ꤕꤢꤩ꤬ꤖꤢꤧ꤭": 7012,
      "ꤕꤢꤩ꤬ꤜꤢꤧ꤭": 7013,
      "ꤕꤢꤩ꤬ꤙꤢꤩꤑꤢꤩ꤭": 7014,
      "ꤊꤢꤧ꤭ꤗꤣꤧ꤭": 7015,
      "ꤊꤢꤧ꤭ꤏꤢꤩ꤬": 7016,
      "ꤊꤢꤧ꤭ꤓꤢꤦ꤭": 7017,
      "ꤊꤢꤧ꤭ꤜꤢꤪ꤭ꤟꤣꤧ": 7018,
      "ꤛꤢ꤭ꤚꤣ꤬": 7019,
      "ꤟꤢꤧ꤭ꤣꤧ꤭": 7020,
      "ꤟꤢꤧ꤭ꤊꤢꤩ꤬": 7021,
      "ꤟꤢꤧ꤭ꤓꤝꤢ꤭": 7022,
      "ꤟꤢꤧ꤭ꤏꤢꤪ꤭": 7023,
      "ꤟꤢꤧ꤭ꤒ꤫ꤣ꤬": 7024,
      "ꤟꤢꤧ꤭ꤏꤢꤦ꤬": 7025,
      "ꤟꤢꤧ꤭ꤔꤢꤪ": 7026,
      "ꤟꤢꤧ꤭ꤞꤢꤨ꤭": 7027,
      "ꤟꤢꤧ꤭ꤥ꤬ꤕ꤫ꤢꤪ꤬": 7028,
      "ꤟꤢꤧ꤭ꤔꤥ꤬": 7029,
      "ꤟꤢꤧ꤭ꤢꤩꤜꤥ꤬": 7030,
      "ꤟꤢꤧ꤭ꤟꤥ꤬": 7031,
      "ꤟꤢꤧ꤭ꤖꤚꤢꤧ꤭": 7032,
      "ꤟꤢꤧ꤭ꤘꤢꤧ꤬ꤓꤢꤧ꤬": 7033,
      "ꤟꤢꤧ꤭ꤗꤢꤧꤡꤢꤧ꤬": 7034,
      "ꤟꤢꤧ꤭ꤋꤢꤧꤞꤣꤧ꤭": 7035,
      "ꤟꤢꤧ꤭ꤘꤣꤧꤒꤢ꤭ꤊꤢꤧ꤭": 7036,
      "ꤟꤢꤧ꤭ꤠꤣꤒꤢ꤭": 7037,
      "ꤟꤢꤧ꤭ꤏꤝꤢ꤬ꤏꤝꤢ꤬": 7038,
      "ꤟꤢꤧ꤭ꤤ꤬ꤏꤢꤪꤥ꤬": 7039,
      "ꤟꤢꤧ꤭ꤒ꤫ꤣ꤬ꤟꤣꤧ": 7040,
      "ꤟꤢꤧ꤭ꤤꤓꤢ꤬ꤊꤢ꤬": 7041,
      "ꤟꤢꤧ꤭ꤕꤣꤟꤣꤧ": 7042,
      "ꤔꤢꤧ꤬ꤟꤣꤧ": 7043,
      "ꤔꤢꤧ꤬ꤖꤢꤨ": 7044,
      "ꤔꤢꤧ꤬ꤙꤢꤧ꤬ꤡꤢꤩ꤬": 7045,
      "ꤔꤢꤧ꤬ꤋꤛꤢ꤭": 7046,
      "ꤔꤢꤧ꤬ꤏꤢꤩ꤭": 7047,
      "ꤔꤢꤧ꤬ꤕꤣꤧꤞꤢꤩ꤬ꤑꤢꤩ꤭": 7048,
      "ꤔꤢꤧ꤬ꤟꤤ꤬ꤊꤢꤨ꤭": 7049,
      "ꤔꤢꤧ꤬ꤏꤢꤨ꤬ꤥ꤬": 7050,
      "ꤔꤢꤧ꤬ꤋꤛꤢ꤭ꤟꤣꤧ": 7051,
      "ꤕꤢ꤭ꤟꤣꤧ": 7052,
      "ꤕꤢ꤭ꤊꤢꤧ꤭": 7053,
      "ꤕꤢ꤭ꤖꤢꤧ": 7054,
      "ꤜꤢꤪ꤭ꤓꤥ꤭ꤟꤣꤧ": 7055,
      "ꤜꤢꤪ꤭ꤒꤣꤧ꤬ꤕꤜꤢꤩ꤬": 7056,
      "ꤓꤢꤧ꤬ꤣꤧ꤭": 7057,
      "ꤓꤢꤧ꤬ꤔ꤫ꤤ꤬": 7058,
      "ꤓꤢꤧ꤬ꤏꤝꤢ꤬": 7059,
      "ꤓꤢꤧ꤬ꤜꤢꤪ꤭ꤕꤜꤤ꤭": 7060,
      "ꤓꤢꤧ꤬ꤥ꤬ꤔꤢꤧ꤭ꤥ꤬": 7061,
      "ꤓꤢꤧ꤬ꤖꤚꤢꤦ": 7062,
      "ꤜꤢ꤭ꤍ꤫ꤥ꤬": 7063,
      "ꤑꤢꤩ꤭ꤟꤣꤧ": 7064,
      "ꤡꤝꤢꤢꤩ": 7065,
      "ꤡꤝꤢꤓꤥ꤭": 7066,
      "ꤡꤝꤢꤛꤢ꤬": 7067,
      "ꤡꤝꤢꤔ꤫ꤤ꤬ꤙꤢꤩ꤬": 7068,
      "ꤡꤝꤢꤘꤥ꤬ꤔꤢꤧ꤭": 7069,
      "ꤡꤝꤢꤋꤚꤝꤢ꤭": 7070,
      "ꤡꤝꤢꤒ꤫ꤣ꤬ꤊꤣꤧ꤭": 7071,
      "ꤡꤝꤢꤟꤢꤩꤏꤥ꤬ꤘꤥ꤬ꤔꤢꤧ꤭": 7072,
      "ꤡꤝꤢꤟꤢꤩꤏꤥ꤬ꤜꤥ꤭": 7073,
      "ꤡꤝꤢꤞꤢꤨ꤭": 7074,
      "ꤡꤝꤢꤒꤣꤧ꤬ꤖꤢ꤭": 7075,
      "ꤡꤝꤢꤥ꤬ꤕ꤫ꤢꤪ꤬": 7076,
      "ꤡꤝꤢꤖꤢꤦ꤬": 7077,
      "ꤡꤝꤢꤜꤢ꤭ꤒꤢꤩ꤬": 7078,
      "ꤡꤝꤢꤗꤢꤩ꤬ꤞꤢꤦ": 7079,
      "ꤡꤝꤢꤜꤢꤦ꤬": 7080,
      "ꤡꤝꤢꤢꤩꤟꤢꤧ꤭": 7081,
      "ꤡꤝꤢꤊꤣꤧ꤬ꤓꤢꤪ꤬ꤥ꤬": 7082,
      "ꤡꤝꤢꤕꤢꤪ꤬": 7083,
      "ꤡꤝꤢꤚ꤫ꤥ꤬ꤜꤢꤨ꤭": 7084,
      "ꤡꤝꤢꤕꤢ꤭ꤒꤢꤦ꤭": 7085,
      "ꤡꤝꤢꤢꤩꤕꤜꤢꤪ": 7086,
      "ꤡꤝꤢꤕ꤫ꤢꤦ꤬ꤖꤢꤩ꤬ꤛꤢꤩꤕꤜꤢꤩ": 7087,
      "ꤡꤝꤢꤙꤢ꤬ꤢꤩ꤬": 7088,
      "ꤡꤝꤢꤏꤢꤕ꤫ꤢꤩ꤬": 7089,
      "ꤡꤝꤢꤢꤩ꤬ꤒꤢꤦ꤭ꤥ꤭ꤒꤢꤦ꤭": 7090,
      "ꤝꤢ꤭ꤔꤢ꤬": 7091,
      "ꤊꤣꤧ꤭ꤜꤢꤨ꤭": 7092,
      "ꤊꤣꤧ꤭ꤜꤢ꤭": 7093,
      "ꤊꤣꤧ꤭ꤊꤣꤧ꤭": 7094,
      "ꤊꤣꤧ꤭ꤜꤢꤩ꤭": 7095,
      "ꤊꤣꤧ꤭ꤔꤥ꤬": 7096,
      "ꤋꤢꤨ꤭ꤊꤜ": 7097,
      "ꤋꤢꤨ꤭ꤕꤢ꤬": 7098,
      "ꤋꤢꤨ꤭ꤋꤚꤤ": 7099,
      "ꤋꤢꤨ꤭ꤏꤛ": 7100,
      "ꤋꤢꤨ꤭ꤟꤢ꤬": 7101,
      "ꤋꤢꤨ꤭ꤚꤢ꤬": 7102,
      "ꤋꤢꤨ꤭ꤞꤢ": 7103,
      "ꤋꤢꤨ꤭ꤊꤜꤢꤪ꤭": 7104,
      "ꤋꤢꤨ꤭ꤊꤥ": 7105,
      "ꤋꤢꤨ꤭ꤖꤢꤩ꤬": 7106,
      "ꤋꤢꤨ꤭ꤢꤩꤜ": 7107,
      "ꤋꤢꤨ꤭ꤊꤥ꤬": 7108,
      "ꤋꤢꤨ꤭ꤢꤩꤜꤢ꤬": 7109,
      "ꤋꤢꤨ꤭ꤗꤢꤧ꤬": 7110,
      "ꤋꤢꤨ꤭ꤞꤢ꤬": 7111,
      "ꤋꤢꤨ꤭ꤊꤢꤩ": 7112,
      "ꤋꤢꤨ꤭ꤢ꤬ꤚꤣ꤬": 7113,
      "ꤋꤢꤨ꤭ꤞꤣ꤬ꤋꤢ꤬ꤚꤣ꤬ꤛꤢ꤬": 7114,
      "ꤋꤢꤨ꤭ꤢ꤬ꤚꤢ꤬": 7115,
      "ꤋꤢꤨ꤭ꤔꤥꤢ꤬": 7116,
      "ꤋꤢꤨ꤭ꤗꤢꤩ": 7117,
      "ꤋꤢꤨ꤭ꤚꤢꤨ꤬": 7118,
      "ꤋꤢꤨ꤭ꤏꤛꤢ꤬ꤗꤢꤨ꤬ꤢꤩꤜꤢ꤬": 7119,
      "ꤋꤢꤨ꤭ꤔꤢ꤬ꤋ": 7120,
      "ꤋꤢꤨ꤭ꤟꤢꤩꤜꤤ꤬": 7121,
      "ꤋꤢꤨ꤭ꤛꤢꤩ꤬ꤋꤢꤪ": 7122,
      "ꤋꤢꤨ꤭ꤢ꤬ꤋꤤ꤬": 7123,
      "ꤋꤢꤨ꤭ꤟꤢꤨꤗꤢꤩ꤬ꤔꤢꤧ": 7124,
      "ꤡꤣꤧꤢꤨ꤭": 7125,
      "ꤡꤣꤧꤘꤣ": 7126,
      "ꤡꤣꤧꤕꤢ꤭": 7127,
      "ꤡꤣꤧꤊꤢꤪ꤭": 7128,
      "ꤊꤜꤥ꤬ꤊꤢꤧ꤭": 7129,
      "ꤕ꤫ꤢꤩ꤬ꤜꤢ꤭": 7130,
      "ꤕ꤫ꤢꤩ꤬ꤒꤢꤦ": 7131,
      "ꤕ꤫ꤢꤩ꤬ꤔꤢꤪ": 7132,
      "ꤕ꤫ꤢꤩ꤬ꤔꤢꤧ꤭": 7133,
      "ꤕ꤫ꤢꤩ꤬ꤜꤢ꤭ꤒꤢꤩ꤬": 7134,
      "ꤕ꤫ꤢꤩ꤬ꤕꤢ꤬ꤒꤥ꤬": 7135,
      "ꤓꤥ꤭ꤔꤢꤧ": 7136,
      "ꤓꤥ꤭ꤟꤢꤨꤔꤣꤧ꤬ꤚꤣꤧ꤬": 7137,
      "ꤓꤥ꤭ꤜꤢꤪ꤭ꤕꤜꤤ꤭": 7138,
      "ꤓꤥ꤭ꤜꤢ꤭ꤟꤤꤒꤥ꤬": 7139,
      "ꤓꤥ꤭ꤒꤣꤧ꤬ꤚꤤ": 7140,
      "ꤙꤣꤧꤜꤢꤨ꤭": 7141,
      "ꤙꤣꤧꤕꤝꤢꤩ꤬": 7142,
      "ꤚꤣꤧꤟꤣꤧ": 7143,
      "ꤚꤣꤧꤒꤢꤦꤘꤢꤦ꤬": 7144,
      "ꤚꤣꤧꤜꤢꤪ꤭ꤘꤢꤦ꤬": 7145,
      "ꤋꤚꤤ꤬": 7146,
      "ꤋꤚ꤫ꤢ꤬": 7147,
      "ꤋꤚ꤫ꤥ꤬ꤟꤢ꤭": 7148,
      "ꤖꤢꤧꤙꤣꤧ": 7149,
      "ꤖꤢꤧꤊꤢꤪ꤭": 7150,
      "ꤖꤢꤧꤠꤢ": 7151,
      "ꤖꤢꤧꤕꤜꤢꤦ꤭": 7152,
      "ꤕꤜꤢꤩ꤬": 7153,
      "ꤕꤜꤢꤦ꤬ꤙꤤꤊꤢꤧ꤭": 7154,
      "ꤘꤣꤧꤥ꤬": 7155,
      "ꤘꤣꤧꤜꤣ": 7156,
      "ꤘꤣꤧꤘꤢꤧ": 7157,
      "ꤘꤣꤧꤜ꤫ꤥ꤬": 7158,
      "ꤘꤣꤧꤗꤢ": 7159,
      "ꤘꤣꤧꤖꤢꤩ꤬": 7160,
      "ꤘꤣꤧꤕ꤫ꤢꤩ꤬ꤊꤣꤧ꤭": 7161,
      "ꤘꤣꤧꤥ꤬ꤔꤢꤧ꤭ꤥ꤬": 7162,
      "ꤘꤣꤧꤕꤜꤢꤨ꤬": 7163,
      "ꤘꤣꤧꤗꤢꤧꤓ꤫ꤣꤧ꤬ꤜꤝꤢ": 7164,
      "ꤘꤣꤧꤤ꤬ꤔꤢꤨ": 7165,
      "ꤘꤣꤧꤗ꤫ꤥ꤬ꤘꤢꤪ꤭ꤓꤢꤧ꤬": 7166,
      "ꤊꤢꤨ꤭ꤣꤧ꤭": 7167,
      "ꤞꤢꤧꤘꤢꤦ꤬": 7168,
      "ꤞꤢꤧꤙꤤ": 7169,
      "ꤔ꤫ꤤ꤬ꤢꤩ": 7170,
      "ꤔ꤫ꤤ꤬ꤕꤢ꤬": 7171,
      "ꤔ꤫ꤤ꤬ꤒ꤫ꤢꤧ꤬": 7172,
      "ꤔ꤫ꤤ꤬ꤞꤝꤢ": 7173,
      "ꤔ꤫ꤤ꤬ꤓꤥ꤭ꤟꤣꤧ": 7174,
      "ꤔ꤫ꤤ꤬ꤋꤥ꤭": 7175,
      "ꤔ꤫ꤤ꤬ꤙꤢ꤭": 7176,
      "ꤟꤢꤨꤔꤣꤧ꤬ꤟꤢꤩꤚꤣꤧ꤬": 7177,
      "ꤟꤢꤨꤔꤣꤧ꤬ꤔꤣꤧ꤬ꤟꤣꤧ": 7178,
      "ꤗꤢꤧꤊꤣꤧ꤭": 7179,
      "ꤗꤢꤧꤒꤢ꤭ꤒꤢꤩ꤬": 7180,
      "ꤗꤢꤧꤜꤢ꤭ꤒꤢꤩ꤬": 7181,
      "ꤗꤢꤧꤚ꤫ꤣꤧ꤬ꤜꤣ": 7182,
      "ꤗꤢꤧꤙꤢꤦ꤬": 7183,
      "ꤗꤢꤧꤥ꤬ꤒ꤫ꤢꤧ꤬": 7184,
      "ꤗꤢꤧꤓꤢꤩ꤬ꤙꤢꤩ": 7185,
      "ꤗꤢꤧꤊꤣꤧ꤬ꤜꤢꤪ꤭": 7186,
      "ꤢ꤬ꤋꤛꤢ꤭ꤟꤣꤧ": 7187,
      "ꤣꤧ꤭ꤔꤣꤧ꤬ꤔꤣꤧ꤬": 7188,
      "ꤣꤧ꤭ꤔꤣꤧ꤬ꤒꤣ꤬ꤡꤣ꤬": 7189,
      "ꤣꤧ꤭ꤔꤣꤧ꤬ꤒꤣ꤬ꤗꤢꤨ꤬": 7190,
      "ꤢꤦ꤭ꤕꤛꤢ": 7191,
      "ꤢꤦ꤭ꤊ꤫ꤢꤨ꤬": 7192,
      "ꤢꤦ꤭ꤞꤣꤧ꤭ꤊꤢꤧ꤭": 7193,
      "ꤗ꤫ꤢ꤬ꤔꤢꤧ꤭": 7194,
      "ꤗ꤫ꤢ꤬ꤕꤢ꤬ꤖꤢꤧ": 7195,
      "ꤗ꤫ꤢ꤬ꤔꤢꤧ꤭ꤟꤣꤧ": 7196,
      "ꤢ꤬ꤚꤢꤩ꤭": 7197,
      "ꤞꤣꤧ꤭ꤒꤥ꤬": 7198,
      "ꤞꤣꤧ꤭ꤕ꤫ꤢꤩ꤬": 7199,
      "ꤞꤣꤧ꤭ꤒ꤫ꤥ꤬": 7200,
      "ꤞꤣꤧ꤭ꤊꤣꤧ꤬ꤓꤢꤪ꤬": 7201,
      "ꤞꤣꤧ꤭ꤜꤢ꤭ꤟꤤꤒꤥ꤬": 7202,
      "ꤞꤣꤧ꤭ꤡꤣꤧꤟꤣꤧ": 7203,
      "ꤞꤣꤧ꤭ꤘꤝꤢ꤭": 7204,
      "ꤞꤣꤧ꤭ꤓꤥ꤭ꤕꤢ꤭": 7205,
      "ꤞꤣꤧ꤭ꤓꤥ꤭ꤔꤣꤧ꤬": 7206,
      "ꤞꤣꤧ꤭ꤡꤣꤧꤔꤣꤧ꤬": 7207,
      "ꤊꤢꤩ꤬ꤕꤢ꤭": 7208,
      "ꤊꤢꤩ꤬ꤏꤢ": 7209,
      "ꤊꤢꤩ꤬ꤏꤢꤪ": 7210,
      "ꤊꤢꤩ꤬ꤞꤢ꤬": 7211,
      "ꤊꤢꤩ꤬ꤜꤣꤧ꤬ꤟꤥ꤭ꤜꤣꤧ꤬ꤟꤢꤧ꤬": 7212,
      "ꤊꤢꤩ꤬ꤊꤛꤢ": 7213,
      "ꤊꤢꤩ꤬ꤒꤣꤧ꤬ꤍꤢ꤭": 7214,
      "ꤊꤢꤩ꤬ꤗ꤫ꤢ꤬ꤒꤥ꤬ꤗꤢ꤬": 7215,
      "ꤊꤢꤩ꤬ꤊꤢ꤬ꤚꤢꤩ": 7216,
      "ꤜꤥ꤭ꤜꤢꤪ꤭": 7217,
      "ꤜꤥ꤭ꤜꤤ꤭": 7218,
      "ꤡꤢꤩ꤬ꤎꤢ꤬": 7219,
      "ꤕꤜꤢꤪꤚꤣꤧ": 7220,
      "ꤕꤜꤢꤪꤙꤢꤩꤗꤢꤨ꤬": 7221,
      "ꤒꤢ꤭ꤥ꤬": 7222,
      "ꤒꤢ꤭ꤛꤢꤧ꤭": 7223,
      "ꤒꤢ꤭ꤕ꤫ꤢꤩ꤬": 7224,
      "ꤒꤢ꤭ꤕꤜꤢꤪ": 7225,
      "ꤒꤢ꤭ꤜꤢꤧ꤬": 7226,
      "ꤒꤢ꤭ꤒꤢ꤭ꤒꤢꤩ꤬": 7227,
      "ꤒꤢ꤭ꤋꤚꤢ꤭": 7228,
      "ꤒꤢ꤭ꤖꤥ꤬": 7229,
      "ꤒꤢ꤭ꤞꤤꤑꤢꤩ꤭ꤒꤢꤩ꤬": 7230,
      "ꤒꤢ꤭ꤖꤥ꤬ꤊꤢꤧ꤭": 7231,
      "ꤢ꤬ꤋꤢꤩ꤭ꤕꤢ꤭": 7232,
      "ꤘꤢꤨ꤬ꤟꤤ꤬": 7233,
      "ꤘꤢꤨ꤬ꤒꤢ꤭ꤞꤤꤑꤢꤩ꤭ꤒꤢꤩ꤬": 7234,
      "ꤔꤤꤛꤢ꤬": 7235,
      "ꤒꤢꤩ꤬ꤞꤢꤪ꤭": 7236,
      "ꤚꤣꤧꤘꤢꤦ꤬ꤕꤢ꤬": 7237,
      "ꤚꤣꤧꤘꤢꤦ꤬ꤗꤣꤧ꤭": 7238,
      "ꤔ꤫ꤢꤩ꤬ꤒꤣ꤬ꤖꤚꤢꤩ꤬": 7239,
      "ꤔ꤫ꤢꤩ꤬ꤓꤢꤧ꤬": 7240,
      "ꤔ꤫ꤢꤩ꤬ꤏꤢꤩ꤭": 7241,
      "ꤔꤣꤧ꤬ꤒꤣꤧ꤬ꤟꤢꤩ꤬ꤡꤣꤧ": 7242,
      "ꤔꤣꤧ꤬ꤒꤣꤧ꤬ꤟꤢꤩ꤬ꤜꤢꤩ": 7243,
      "ꤕꤜꤢꤪ꤬ꤘꤢꤨ꤬": 7244,
      "ꤢ꤬ꤖꤢꤨꤖꤢꤨ": 7245,
      "ꤢ꤬ꤖꤢꤨꤥ꤬ꤚꤣꤧ": 7246,
      "ꤒꤥ꤭ꤔꤢꤧ": 7247,
      "ꤒꤥ꤭ꤗꤢꤩ꤬": 7248,
      "ꤒꤥ꤭ꤜꤢꤪ꤭": 7249,
      "ꤒꤥ꤭ꤊꤣꤧ꤭": 7250,
      "ꤒꤥ꤭ꤙꤣꤧ": 7251,
      "ꤒꤥ꤭ꤘꤣꤧ": 7252,
      "ꤒꤥ꤭ꤜꤣ": 7253,
      "ꤒꤥ꤭ꤜꤢꤩ꤭": 7254,
      "ꤒꤥ꤭ꤙꤣꤧꤒꤢꤩ꤭": 7255,
      "ꤓꤝꤢ꤭ꤊꤢꤧ꤭": 7256,
      "ꤓꤝꤢ꤭ꤕ꤫ꤢꤩ꤬": 7257,
      "ꤓꤝꤢ꤭ꤖꤢꤧ": 7258,
      "ꤓꤝꤢ꤭ꤡ꤫ꤢꤦ꤬": 7259,
      "ꤞꤤꤑꤢꤩ꤭ꤜꤥ꤭": 7260,
      "ꤞꤤꤑꤢꤩ꤭ꤜꤢ꤭ꤟꤤ": 7261,
      "ꤞꤤꤑꤢꤩ꤭ꤙꤛꤢ꤬": 7262,
      "ꤒꤣꤧ꤬ꤚꤢꤩꤙꤥ꤭": 7263,
      "ꤞꤤꤕꤜꤢꤪ꤬ꤟꤢ꤭": 7264,
      "ꤞꤤꤕꤜꤢꤪ꤬ꤕꤛꤢꤊꤢꤧ꤭": 7265,
      "ꤞꤤꤕꤜꤢꤪ꤬ꤡ꤫ꤢꤩ꤬ꤡꤢꤦ꤭": 7266,
      "ꤞꤤꤕꤜꤢꤪ꤬ꤋꤢꤦ꤭": 7267,
      "ꤞꤤꤕꤜꤢꤪ꤬ꤋꤢꤦ꤭ꤟꤢ꤭": 7268,
      "ꤞꤤꤕꤜꤢꤪ꤬ꤒꤣꤧ꤬ꤊꤢ꤬": 7269,
      "ꤠꤤ꤭ꤕꤢ꤬": 7270,
      "ꤠꤤ꤭ꤏꤣꤧ": 7271,
      "ꤠꤤ꤭ꤋꤢꤪ": 7272,
      "ꤠꤤ꤭ꤓꤢꤩ꤬ꤊꤢꤧ꤭": 7273,
      "ꤠꤤ꤭ꤏꤛꤢ": 7274,
      "ꤠꤤ꤭ꤊꤣꤧ꤬ꤚꤢꤩꤊꤢꤨ꤭": 7275,
      "ꤠꤤ꤭ꤖꤢ꤬": 7276,
      "ꤠꤤ꤭ꤠꤥ꤬": 7277,
      "ꤠꤤ꤭ꤟꤢ꤬ꤚꤢ꤬": 7278,
      "ꤠꤤ꤭ꤊꤢꤩ꤬ꤊꤢ꤬ꤚꤢꤩ": 7279,
      "ꤘꤢꤧ꤬ꤥ": 7280,
      "ꤘꤢꤧ꤬ꤞꤢꤧ": 7281,
      "ꤘꤢꤧ꤬ꤔ꤫ꤤ꤬": 7282,
      "ꤘꤢꤧ꤬ꤟꤢ꤭": 7283,
      "ꤘꤢꤧ꤬ꤋꤢꤦ꤭": 7284,
      "ꤘꤢꤧ꤬ꤥꤘꤢꤧ꤬": 7285,
      "ꤘꤢꤧ꤬ꤥꤘꤢꤧ꤬ꤙꤤ": 7286,
      "ꤕꤢ꤬ꤜꤢꤨ꤭": 7287,
      "ꤕꤢ꤬ꤘꤢ꤬": 7288,
      "ꤜꤢꤧ꤬ꤓꤥ꤬": 7289,
      "ꤗꤢꤩ꤬ꤒꤢꤩ꤭ꤟꤢꤩꤔꤣꤧ꤬": 7290,
      "ꤍ꤫ꤥ꤬ꤔꤣꤧ꤬": 7291,
      "ꤍ꤫ꤥ꤬ꤘꤥ꤬ꤔꤢꤧ꤭": 7292,
      "ꤍ꤫ꤥ꤬ꤕꤜ꤫ꤢꤧ꤬": 7293,
      "ꤔꤢꤪ꤭ꤥ꤭": 7294,
      "ꤔꤢꤪ꤭ꤘꤣꤧ": 7295,
      "ꤔꤢꤪ꤭ꤘꤢꤧ꤬": 7296,
      "ꤔꤢꤪ꤭ꤥ꤬ꤔꤢꤧ꤭": 7297,
      "ꤔꤢꤪ꤭ꤖꤛꤢ": 7298,
      "ꤔꤢꤪ꤭ꤒꤣꤧ꤬ꤔꤢꤩ꤬": 7299,
      "ꤔꤢꤪ꤭ꤊꤝꤤ꤭": 7300,
      "ꤔꤢꤪ꤭ꤤ꤬ꤞꤝꤢ": 7301,
      "ꤔꤢꤪ꤭ꤊꤣꤧ꤬ꤓꤢꤪ꤬": 7302,
      "ꤔꤢꤪ꤭ꤘꤣꤧꤟꤣꤧ꤭": 7303,
      "ꤔꤢꤪ꤭ꤘꤣꤧꤜꤥ꤭": 7304,
      "ꤔꤢꤪ꤭ꤊꤝꤤ꤭ꤡꤢꤪꤙꤢꤩ꤭": 7305,
      "ꤔꤢꤪ꤭ꤥ꤬ꤕ꤫ꤢꤪ꤬": 7306,
      "ꤔꤢꤪ꤭ꤗꤢꤩ꤬ꤜꤣꤧ꤬ꤕꤜꤢꤩꤊꤢ꤬": 7307,
      "ꤔꤢꤪ꤭ꤓꤢꤨ꤬ꤞꤢꤩꤓꤢꤧ꤬": 7308,
      "ꤔꤢꤪ꤭ꤏꤝꤤ": 7309,
      "ꤔꤢꤪ꤭ꤓꤢꤩ꤬ꤊꤢꤧ꤭": 7310,
      "ꤔꤢꤪ꤭ꤊ꤫ꤢꤨ꤬": 7311,
      "ꤔꤢꤪ꤭ꤛ꤫ꤢꤧ꤬ꤥ꤬ꤗ꤫ꤢꤩ꤬": 7312,
      "ꤔꤢꤪ꤭ꤡꤢꤪꤙꤢꤩ꤭ꤓꤢꤧ꤬": 7313,
      "ꤔꤢꤪ꤭ꤘꤢꤧ꤬ꤓꤢꤧ꤬": 7314,
      "ꤔꤢꤪ꤭ꤜꤥ": 7315,
      "ꤔꤢꤪ꤭ꤘꤢꤨ꤬ꤓꤢꤧ꤬": 7316,
      "ꤔꤢꤪ꤭ꤙꤢꤧꤜꤢꤧ꤬": 7317,
      "ꤔꤢꤪ꤭ꤥ꤬ꤓꤢꤧ꤬": 7318,
      "ꤔꤢꤪ꤭ꤠꤤ": 7319,
      "ꤔꤢꤪ꤭ꤓꤝꤢ꤭ꤓꤢꤧ꤬ꤟꤣꤧ": 7320,
      "ꤔꤢꤪ꤭ꤟꤢꤩꤖꤚꤥ꤬": 7321,
      "ꤔꤢꤪ꤭ꤢꤩꤜꤢ꤬ꤜꤣꤧ꤬ꤟꤥ꤭": 7322,
      "ꤔꤢꤪ꤭ꤒꤥ꤬ꤙꤢꤩ꤬": 7323,
      "ꤔꤢꤪ꤭ꤕꤜ꤫ꤢꤧ꤬": 7324,
      "ꤔꤢꤪ꤭ꤒꤣꤧ꤬ꤊꤢꤩ꤬ꤙꤤ": 7325,
      "ꤔꤢꤪ꤭ꤛ꤫ꤤ꤬": 7326,
      "ꤔꤢꤪ꤭ꤥ꤬ꤓꤝꤢ꤭ꤓꤢꤧ꤬": 7327,
      "ꤔꤢꤪ꤭ꤥ꤬ꤞꤥ꤬": 7328,
      "ꤔꤢꤪ꤭ꤖꤛꤢꤡꤝꤢꤔ꤫ꤤ꤬": 7329,
      "ꤔꤢꤪ꤭ꤜꤢꤦ꤬ꤋꤚꤝꤢ꤭ꤗꤢꤩ꤬": 7330,
      "ꤔꤢꤪ꤭ꤕꤢ꤭ꤒꤢꤦ꤭ꤊꤢꤧ꤭": 7331,
      "ꤔꤢꤪ꤭ꤢꤩꤔꤥ꤭": 7332,
      "ꤔꤢꤪ꤭ꤥ꤬ꤔꤢꤧ꤭ꤒꤢ꤭": 7333,
      "ꤔꤢꤪ꤭ꤓꤢꤧ꤬ꤘꤢꤧ": 7334,
      "ꤔꤢꤪ꤭ꤞꤥ꤬ꤞꤥ꤬": 7335,
      "ꤔꤢꤪ꤭ꤘꤢꤪꤒꤢ꤭ꤊꤢꤧ꤭": 7336,
      "ꤔꤢꤪ꤭ꤡꤝꤤꤥ꤭": 7337,
      "ꤔꤢꤪ꤭ꤖꤢꤩꤓꤢꤧ꤬ꤘꤢꤨ꤬ꤓꤢꤧ꤬": 7338,
      "ꤊꤢꤨꤜꤢ꤭": 7339,
      "ꤊꤢꤨꤏꤢꤦ꤬": 7340,
      "ꤊꤢꤨꤗ꤫ꤤ꤬": 7341,
      "ꤜꤣꤧ꤬ꤊꤜꤢꤪ꤭": 7342,
      "ꤜꤣꤧ꤬ꤒꤢꤧ꤬": 7343,
      "ꤜꤣꤧ꤬ꤒꤢ꤭ꤊꤢꤧ꤭": 7344,
      "ꤜꤣꤧ꤬ꤡꤢꤦ": 7345,
      "ꤛꤢꤊ꤫ꤢꤩ꤬": 7346,
      "ꤡ꤫ꤢꤧ꤬ꤒꤢꤩ꤬": 7347,
      "ꤡ꤫ꤢꤧ꤬ꤟꤣꤧ": 7348,
      "ꤡ꤫ꤢꤧ꤬ꤡ꤫ꤢꤧ꤬": 7349,
      "ꤡ꤫ꤢꤧ꤬ꤜꤣ": 7350,
      "ꤡ꤫ꤢꤧ꤬ꤜꤤ꤬": 7351,
      "ꤡ꤫ꤢꤧ꤬ꤘꤢꤧ": 7352,
      "ꤋꤚꤤꤎꤢ꤬": 7353,
      "ꤓꤢꤩ꤬ꤟꤣꤧ": 7354,
      "ꤓꤢꤩ꤬ꤒꤥ꤭": 7355,
      "ꤓꤢꤩ꤬ꤡ꤫ꤢꤧ꤬": 7356,
      "ꤓꤢꤩ꤬ꤓꤢꤩ꤬": 7357,
      "ꤓꤢꤩ꤬ꤙꤤ": 7358,
      "ꤓꤢꤩ꤬ꤞꤤꤓꤢꤩ꤬": 7359,
      "ꤓꤢꤩ꤬ꤞꤤꤟꤢ꤭": 7360,
      "ꤖꤢꤩ꤭ꤣꤧ꤭": 7361,
      "ꤖꤢꤩ꤭ꤊꤢꤨ꤭": 7362,
      "ꤖꤢꤩ꤭ꤍ꤫ꤥ꤬": 7363,
      "ꤖꤢꤩ꤭ꤏꤛꤤꤗꤥ꤬": 7364,
      "ꤖꤢꤩ꤭ꤖꤤꤜꤤ꤬ꤕꤢꤨ꤬": 7365,
      "ꤔꤣꤧ꤭ꤜꤢꤩ꤭": 7366,
      "ꤔꤣꤧ꤭ꤙꤥ꤭": 7367,
      "ꤔꤣꤧ꤭ꤞꤢꤪ": 7368,
      "ꤔꤣꤧ꤭ꤜꤝꤤ꤭ꤞꤝꤢ": 7369,
      "ꤔꤣꤧ꤭ꤕꤢꤦ꤬": 7370,
      "ꤔꤣꤧ꤭ꤗꤤꤜꤢꤩ꤬": 7371,
      "ꤗꤢꤧꤓ꤫ꤣꤧ꤬ꤟꤢꤧ꤭": 7372,
      "ꤗꤢꤧꤓ꤫ꤣꤧ꤬ꤓꤥ꤭": 7373,
      "ꤗꤢꤧꤓ꤫ꤣꤧ꤬ꤕꤢ꤬": 7374,
      "ꤗꤢꤧꤓ꤫ꤣꤧ꤬ꤕ꤫ꤥ꤬": 7375,
      "ꤗꤢꤧꤓ꤫ꤣꤧ꤬ꤙꤢꤩ": 7376,
      "ꤗꤢꤧꤓ꤫ꤣꤧ꤬ꤜꤢ꤭ꤒꤢꤩ꤬": 7377,
      "ꤗꤢꤧꤓ꤫ꤣꤧ꤬ꤔꤥ꤬": 7378,
      "ꤗꤢꤧꤓ꤫ꤣꤧ꤬ꤡ꤫ꤢꤧ꤬ꤒꤥ꤬": 7379,
      "ꤗꤢꤧꤓ꤫ꤣꤧ꤬ꤜꤥ꤭ꤚꤢꤧ": 7380,
      "ꤜꤣꤔꤢꤧ": 7381,
      "ꤜꤣꤖꤛꤢꤡꤝꤢ": 7382,
      "ꤊꤢ꤬ꤥ꤭": 7383,
      "ꤊꤢ꤬ꤟꤢꤩ": 7384,
      "ꤊꤢ꤬ꤟꤣꤧ": 7385,
      "ꤊꤢ꤬ꤕꤜꤢꤪ": 7386,
      "ꤊꤢ꤬ꤟꤢꤩꤏꤥ꤬ꤜꤥ꤭": 7387,
      "ꤊꤢ꤬ꤥ꤬ꤕꤜꤢꤪ": 7388,
      "ꤊꤢ꤬ꤥ꤬ꤊꤣꤧ꤭": 7389,
      "ꤊꤢ꤬ꤙꤢꤨ꤬": 7390,
      "ꤊꤢ꤬ꤙꤚꤤ꤬": 7391,
      "ꤊꤢ꤬ꤕꤢ꤬ꤘꤢ꤬": 7392,
      "ꤛ꤫ꤢꤦ꤬ꤢꤩ꤬ꤒꤢꤩ꤬": 7393,
      "ꤛ꤫ꤢꤦ꤬ꤢꤩ꤬ꤟꤢꤧ꤭": 7394,
      "ꤗꤥ꤬ꤒꤣꤧ꤬ꤘꤢꤦ꤬": 7395,
      "ꤗꤥ꤬ꤎꤣ꤬": 7396,
      "ꤒ꤫ꤥ꤬ꤙꤢꤩ": 7397,
      "ꤒ꤫ꤥ꤬ꤊꤣꤧ꤭ꤢꤨ꤭": 7398,
      "ꤒ꤫ꤥ꤬ꤕ꤫ꤢꤩ꤬ꤊꤣꤧ꤭": 7399,
      "ꤒ꤫ꤥ꤬ꤊꤢꤨꤔ꤫ꤢꤧ꤬ꤚꤣꤧ꤬": 7400,
      "ꤒ꤫ꤥ꤬ꤓꤢꤧ꤬ꤟꤣꤧ": 7401,
      "ꤣꤧ꤭ꤒꤣꤧ꤬ꤟꤢꤩ꤬ꤟꤢꤩ꤬": 7402,
      "ꤣꤧ꤭ꤒꤣꤧ꤬ꤟꤢꤩ꤬ꤗꤢ꤬": 7403,
      "ꤜ꤫ꤢꤩ꤬ꤊꤢꤧ꤭": 7404,
      "ꤜ꤫ꤢꤩ꤬ꤒꤢꤩ꤭": 7405,
      "ꤜ꤫ꤢꤩ꤬ꤡꤢꤩ꤬": 7406,
      "ꤜ꤫ꤢꤩ꤬ꤊꤢ꤬": 7407,
      "ꤜ꤫ꤢꤩ꤬ꤛ꤫ꤢꤦ꤬ꤢꤩ꤬": 7408,
      "ꤜ꤫ꤢꤩ꤬ꤔꤥ꤭": 7409,
      "ꤜ꤫ꤢꤩ꤬ꤤ꤬ꤞꤝꤢ": 7410,
      "ꤜ꤫ꤢꤩ꤬ꤘꤣꤧꤡꤢ꤭": 7411,
      "ꤜ꤫ꤢꤩ꤬ꤕꤜꤝꤢ꤭": 7412,
      "ꤜ꤫ꤢꤩ꤬ꤓꤢꤨ꤬ꤞꤢꤩ": 7413,
      "ꤜ꤫ꤢꤩ꤬ꤘꤢꤪ": 7414,
      "ꤜ꤫ꤢꤩ꤬ꤞꤤꤒꤣꤧ꤬ꤚꤢꤩ꤭": 7415,
      "ꤜ꤫ꤢꤩ꤬ꤞꤢꤨꤕꤜꤤ꤭": 7416,
      "ꤜ꤫ꤢꤩ꤬ꤞꤤꤓꤢꤩ꤬ꤞꤤꤟꤢ꤭": 7417,
      "ꤜ꤫ꤢꤩ꤬ꤊꤢꤩꤙꤥ": 7418,
      "ꤜ꤫ꤢꤩ꤬ꤛ꤫ꤢꤦ꤬ꤢꤩ꤬ꤜꤢꤧ꤬": 7419,
      "ꤜ꤫ꤢꤩ꤬ꤒꤣꤧ꤬ꤘꤢꤧ꤭": 7420,
      "ꤜ꤫ꤢꤩ꤬ꤗꤣꤧ꤭ꤔꤣꤧ꤬": 7421,
      "ꤜ꤫ꤢꤩ꤬ꤊꤢꤩ꤬ꤜꤣꤧ꤬ꤟꤥ꤭ꤜꤣꤧ꤬ꤟꤢꤧ꤬": 7422,
      "ꤊ꤫ꤢꤩ꤬ꤔꤣꤧ꤬": 7423,
      "ꤊ꤫ꤢꤩ꤬ꤙꤣꤧꤔꤣꤧ꤬": 7424,
      "ꤊ꤫ꤢꤩ꤬ꤗ꤫ꤥ꤬": 7425,
      "ꤊ꤫ꤢꤩ꤬ꤡꤢꤦ꤭": 7426,
      "ꤊ꤫ꤢꤩ꤬ꤊꤛꤢ": 7427,
      "ꤊ꤫ꤢꤩ꤬ꤘꤝꤢ꤭": 7428,
      "ꤊ꤫ꤢꤩ꤬ꤕꤝꤢ꤭ꤒꤣ꤬ꤊ꤫ꤢꤩ꤬": 7429,
      "ꤞꤣꤧ꤭ꤖꤚꤢꤩ꤬ꤊꤢ꤬": 7430,
      "ꤓꤣꤧ꤭ꤥ꤬": 7431,
      "ꤓꤣꤧ꤭ꤣꤧ꤭ꤔꤣꤧ꤬": 7432,
      "ꤓꤣꤧ꤭ꤜ꤫ꤢꤪ꤬": 7433,
      "ꤓꤣꤧ꤭ꤒꤣꤧ꤬ꤡ꤫ꤢꤨ꤬": 7434,
      "ꤓꤣꤧ꤭ꤊꤣꤧ": 7435,
      "ꤓꤣꤧ꤭ꤜꤢꤧ꤭ꤗ꤫ꤥ꤬": 7436,
      "ꤓꤣꤧ꤭ꤋꤢꤩ꤬": 7437,
      "ꤒꤣꤧ꤬ꤔꤥ꤭": 7438,
      "ꤣꤧ꤭ꤒꤣ꤬ꤖꤚꤢꤩ꤬ꤣꤧ꤭": 7439,
      "ꤣꤧ꤭ꤒꤣ꤬ꤖꤚꤢꤩ꤬ꤜꤢꤩ": 7440,
      "ꤢ꤬ꤑꤢꤩ꤭ꤗꤢ꤬": 7441,
      "ꤢ꤬ꤑꤢꤩ꤭ꤙꤢꤩ꤬ꤙꤢꤩ꤬": 7442,
      "ꤢ꤬ꤊꤢꤨ꤭ꤡꤣꤧ": 7443,
      "ꤞꤤꤛ꤫ꤢꤦ꤬ꤊꤝꤤ꤭": 7444,
      "ꤞꤤꤛ꤫ꤢꤦ꤬ꤕ꤫ꤢꤦ꤬": 7445,
      "ꤒꤣ꤬ꤡꤣ꤬ꤟꤣꤧ": 7446,
      "ꤛ꤫ꤢꤧ꤬ꤊꤤ꤬": 7447,
      "ꤥ꤬ꤔꤢꤧ꤭ꤥ꤬ꤊꤢꤧ꤭": 7448,
      "ꤕꤝꤢ꤭ꤒꤣ꤬ꤖꤚꤢꤩ꤬": 7449,
      "ꤕꤝꤢ꤭ꤖꤥꤖꤥ": 7450,
      "ꤕꤝꤢ꤭ꤒꤣ꤬ꤗꤤ꤭": 7451,
      "ꤟꤢꤩꤏꤥ꤬ꤡꤢꤪ": 7452,
      "ꤟꤢꤩꤏꤥ꤬ꤚꤣꤧ": 7453,
      "ꤟꤢꤩꤏꤥ꤬ꤓꤢꤩ꤬": 7454,
      "ꤟꤢꤩꤏꤥ꤬ꤜꤥ꤭ꤔ": 7455,
      "ꤟꤢꤩꤏꤥ꤬ꤞꤤꤑꤢꤩ꤭ꤕꤜꤥ꤭": 7456,
      "ꤞꤢꤩ꤬ꤚꤢꤧ": 7457,
      "ꤋꤢꤩ꤭ꤒꤢ꤭": 7458,
      "ꤓꤥ꤭ꤟꤣꤧꤔꤣꤧ꤬ꤟꤣꤧ": 7459,
      "ꤔꤥ꤭ꤥ꤭": 7460,
      "ꤔꤥ꤭ꤟꤣꤧ": 7461,
      "ꤔꤥ꤭ꤜꤢꤪ꤭": 7462,
      "ꤔꤥ꤭ꤗꤢꤧ": 7463,
      "ꤔꤥ꤭ꤒꤥ꤭": 7464,
      "ꤔꤥ꤭ꤘꤢꤧ꤬": 7465,
      "ꤔꤥ꤭ꤓꤢꤨ꤬": 7466,
      "ꤔꤥ꤭ꤒ꤫ꤣ꤬ꤊꤣꤧ꤭": 7467,
      "ꤔꤥ꤭ꤗꤢꤧꤕꤢꤨ꤭": 7468,
      "ꤔꤥ꤭ꤖꤛꤢꤔ꤫ꤤ꤬": 7469,
      "ꤟꤢꤩꤙꤢꤩ꤬ꤊꤢꤧ꤭": 7470,
      "ꤟꤢꤩꤙꤢꤩ꤬ꤕꤢ꤬": 7471,
      "ꤟꤢꤩꤙꤢꤩ꤬ꤍ꤫ꤥ꤬": 7472,
      "ꤟꤢꤩꤙꤢꤩ꤬ꤚꤢꤧ": 7473,
      "ꤟꤢꤩꤙꤢꤩ꤬ꤕꤢ꤬ꤖꤢꤧ": 7474,
      "ꤟꤢꤩꤙꤢꤩ꤬ꤞꤝꤢꤩ": 7475,
      "ꤟꤢꤩꤙꤢꤩ꤬ꤋꤢꤦ꤭ꤟꤢ꤭": 7476,
      "ꤏꤢꤙꤢꤩ꤬": 7477,
      "ꤏꤢꤓꤥ꤭ꤟꤣꤧ": 7478,
      "ꤏꤢꤕ꤫ꤢꤩ꤬ꤊꤢꤧ꤭": 7479,
      "ꤗ꤫ꤢꤪ꤬ꤒꤢ꤭ꤟꤣꤧ": 7480,
      "ꤗ꤫ꤢꤪ꤬ꤕꤜꤢꤧ꤭": 7481,
      "ꤗ꤫ꤢꤪ꤬ꤊꤣꤧ꤬ꤒꤢꤪ꤬": 7482,
      "ꤛꤥ꤬ꤓꤢꤩ꤬": 7483,
      "ꤛꤢ꤬ꤡꤢꤩ꤭": 7484,
      "ꤛꤢ꤬ꤔꤢ": 7485,
      "ꤛꤢ꤬ꤊꤤ꤬": 7486,
      "ꤡꤢ꤭ꤒꤣꤧ꤬ꤜꤝꤢꤏꤢꤦꤜꤢꤦ꤭": 7487,
      "ꤒꤢꤩ꤬ꤗꤢꤩ꤬ꤞꤣꤧ꤭": 7488,
      "ꤒꤢꤩ꤬ꤗꤢꤩ꤬ꤒꤥ꤭": 7489,
      "ꤒꤢꤩ꤬ꤗꤢꤩ꤬ꤜꤤ꤭": 7490,
      "ꤒꤢꤩ꤬ꤗꤢꤩ꤬ꤕꤝꤢꤩ꤬": 7491,
      "ꤒꤢꤩ꤬ꤗꤢꤩ꤬ꤟꤥ꤬ꤗꤢꤩ꤬ꤞꤝꤢꤩ": 7492,
      "ꤢ꤬ꤔ꤫ꤢꤩ꤬ꤣꤧ꤭": 7493,
      "ꤢ꤬ꤔ꤫ꤢꤩ꤬ꤟꤣꤧ": 7494,
      "ꤖꤛꤢꤔꤥ꤭": 7495,
      "ꤖꤛꤢꤗꤢꤩ꤭": 7496,
      "ꤖꤛꤢꤟꤢꤧ꤭ꤔꤥ꤭": 7497,
      "ꤖꤛꤢꤔꤥ꤭ꤔ꤫ꤤ꤬": 7498,
      "ꤖꤛꤢꤓꤢꤩ꤬ꤜꤥ꤭": 7499,
      "ꤖꤛꤢꤓꤥ꤭ꤓꤥ꤭": 7500,
      "ꤋꤥ꤭ꤗꤥ꤬": 7501,
      "ꤋꤥ꤭ꤞꤤꤖꤚ꤫ꤢꤩ꤬": 7502,
      "ꤙꤢꤩ꤭ꤒꤢ꤭": 7503,
      "ꤙꤢꤩ꤭ꤖꤛꤢ": 7504,
      "ꤖꤚꤢꤩ꤬ꤋꤢꤨ꤭ꤋꤢꤨ꤭": 7505,
      "ꤋꤢꤧꤕꤜꤢꤦ꤬ꤙꤤꤊꤢꤧ꤭": 7506,
      "ꤊꤢ꤬ꤋꤛꤢ꤭ꤊꤣꤧ꤭": 7507,
      "ꤙꤣꤧꤔꤣꤧ꤬ꤔꤣꤧ꤬": 7508,
      "ꤙꤣꤧꤔꤣꤧ꤬ꤚꤣꤧ꤬": 7509,
      "ꤙꤣꤧꤔꤣꤧ꤬ꤢ꤬ꤋꤢꤩ꤭ꤔꤣꤧ꤬": 7510,
      "ꤙꤣꤧꤔꤣꤧ꤬ꤒꤣ꤬ꤔꤣꤧ꤭ꤔꤣꤧ꤬": 7511,
      "ꤙꤢꤩꤒꤥ꤬": 7512,
      "ꤙꤢꤩꤕꤢ꤬": 7513,
      "ꤙꤢꤩꤔꤢꤧ꤭": 7514,
      "ꤙꤢꤩꤕꤜꤢꤪꤙꤢꤩꤗꤢꤨ꤬": 7515,
      "ꤗ꤫ꤥ꤬ꤡꤛꤥ꤬": 7516,
      "ꤗ꤫ꤥ꤬ꤚꤢ꤬ꤋꤢ": 7517,
      "ꤗ꤫ꤥ꤬ꤢꤩꤠꤢ": 7518,
      "ꤚꤢꤧꤟꤢꤧ꤭": 7519,
      "ꤚꤢꤧꤜꤢꤪ꤭": 7520,
      "ꤚꤢꤧꤊꤣꤧ꤭": 7521,
      "ꤚꤢꤧꤋꤛꤢ꤭": 7522,
      "ꤓꤝꤢ꤭ꤓꤢꤧ꤬ꤔꤢꤪ": 7523,
      "ꤓꤝꤢ꤭ꤓꤢꤧ꤬ꤔꤢꤧ꤭": 7524,
      "ꤗꤢꤪ꤬ꤎꤢꤨ꤬": 7525,
      "ꤗꤢꤪ꤬ꤏꤛꤢꤩ꤬": 7526,
      "ꤗꤢꤪ꤬ꤎꤢ꤬ꤜꤥ꤬": 7527,
      "ꤗꤢꤪ꤬ꤓꤢ꤬ꤚꤢꤨ": 7528,
      "ꤒꤣꤧ꤬ꤔꤢꤩ꤬ꤊꤢꤧ꤭": 7529,
      "ꤒꤣꤧ꤬ꤔꤢꤩ꤬ꤖꤢꤧ": 7530,
      "ꤒꤣꤧ꤬ꤔꤢꤩ꤬ꤗꤥ꤬": 7531,
      "ꤒꤣꤧ꤬ꤔꤢꤩ꤬ꤘꤢꤨ꤬ꤜꤣ": 7532,
      "ꤟꤤ꤬ꤋꤢꤨ꤬": 7533,
      "ꤟꤤ꤬ꤓꤢꤧ꤬ꤜꤥ꤭": 7534,
      "ꤟꤤ꤬ꤜꤢ": 7535,
      "ꤟꤤ꤬ꤊꤢꤧ꤭ꤏꤢ": 7536,
      "ꤟꤤ꤬ꤘꤢꤨ꤬ꤟꤤ꤬": 7537,
      "ꤜꤤ꤬ꤒꤣꤧ꤬ꤟꤢꤩ꤬": 7538,
      "ꤜꤤ꤬ꤕꤣꤧ꤬": 7539,
      "ꤜꤤ꤬ꤚꤢ꤭ꤗꤢ": 7540,
      "ꤜꤤ꤬ꤤ꤬ꤚꤥ꤭": 7541,
      "ꤜꤤ꤬ꤚꤢ꤭ꤗꤢꤚꤢ꤭ꤒꤢꤩ꤭": 7542,
      "ꤜꤤ꤬ꤊꤢꤨ꤭ꤔꤣꤧ꤬": 7543,
      "ꤜꤤ꤬ꤘꤢꤧ꤬ꤒꤢꤩ꤬ꤞꤢꤦ": 7544,
      "ꤜꤤ꤬ꤜꤢꤪꤞꤢꤪ꤭": 7545,
      "ꤗꤢꤩ꤭ꤞꤤ꤭": 7546,
      "ꤗꤢꤩ꤭ꤔꤢꤧꤠꤢꤩ꤬": 7547,
      "ꤟꤢꤩ꤬ꤋꤢꤨ꤬ꤒꤥ꤬": 7548,
      "ꤟꤢꤩ꤬ꤋꤢꤨ꤬ꤜꤣꤧ꤬": 7549,
      "ꤟꤢꤩ꤬ꤋꤢꤨ꤬ꤓꤝꤢ꤭ꤜꤢꤨ": 7550,
      "ꤛ꤫ꤢꤧ꤬ꤛꤥ꤬ꤛ꤫ꤢꤧ꤬ꤊꤤ꤬": 7551,
      "ꤊꤝꤤ꤭ꤔꤣꤧ꤬": 7552,
      "ꤊꤝꤤ꤭ꤏꤝꤢ꤬": 7553,
      "ꤔ꤫ꤤ꤬ꤙꤢꤩ꤬ꤔꤢꤪ": 7554,
      "ꤘꤥ꤬ꤔꤢꤧ꤭ꤕ꤫ꤢꤩ꤬": 7555,
      "ꤘꤥ꤬ꤔꤢꤧ꤭ꤋꤚꤢꤩꤋꤚ꤫ꤢꤧ꤬": 7556,
      "ꤜꤥ꤬ꤡꤝꤢꤊꤢꤧ꤭": 7557,
      "ꤜꤥ꤬ꤊꤣꤧ꤬ꤘꤢ꤭ꤘꤢꤨ꤬": 7558,
      "ꤒ꤫ꤣ꤬ꤘꤢꤦ꤬": 7559,
      "ꤒ꤫ꤣ꤬ꤡ꤫ꤢꤧ꤬": 7560,
      "ꤒ꤫ꤣ꤬ꤋꤛꤢ꤭ꤜꤢꤨ꤭": 7561,
      "ꤒ꤫ꤣ꤬ꤚ꤫ꤥ꤬ꤊꤣꤧ꤭": 7562,
      "ꤏꤢꤦ꤬ꤊꤣꤧ꤭": 7563,
      "ꤏꤢꤦ꤬ꤓꤥ꤭": 7564,
      "ꤏꤢꤦ꤬ꤘꤢꤦ꤬": 7565,
      "ꤏꤢꤦ꤬ꤜꤢ꤭ꤒꤢꤩ꤬": 7566,
      "ꤤ꤬ꤞꤝꤢꤒꤥ꤭": 7567,
      "ꤤ꤬ꤞꤝꤢꤞꤤꤑꤢꤩ꤭": 7568,
      "ꤤ꤬ꤞꤝꤢꤡ꤫ꤢꤧ꤬": 7569,
      "ꤤ꤬ꤞꤝꤢꤔꤢꤪ": 7570,
      "ꤤ꤬ꤞꤝꤢꤜꤣꤧ꤬ꤟꤥ꤭": 7571,
      "ꤖꤚꤥ꤬ꤒꤢꤩ꤬ꤖꤚꤢꤧ꤬": 7572,
      "ꤏꤝꤢ꤬ꤟꤢꤧ꤭": 7573,
      "ꤞꤢꤪ꤬ꤚꤢꤧ": 7574,
      "ꤞꤢꤪ꤬ꤗꤢꤩ꤭": 7575,
      "ꤞꤢꤪ꤬ꤊꤢꤧ꤭ꤏꤢ": 7576,
      "ꤞꤢꤪ꤬ꤖꤤ": 7577,
      "ꤞꤢꤪ꤬ꤙꤛꤢ꤬": 7578,
      "ꤞꤢꤪ꤬ꤞꤝꤤ": 7579,
      "ꤒꤣ꤬ꤖꤥꤟꤢꤧ꤭": 7580,
      "ꤒꤣ꤬ꤖꤥꤞꤣꤧ꤭": 7581,
      "ꤕꤣꤧꤞꤢꤩ꤬ꤥ꤬": 7582,
      "ꤕꤣꤧꤞꤢꤩ꤬ꤜꤢꤩ꤭": 7583,
      "ꤕꤣꤧꤞꤢꤩ꤬ꤕꤛꤢ": 7584,
      "ꤘꤢ꤭ꤟꤢꤩꤟꤣꤧ": 7585,
      "ꤜꤢꤨ꤬ꤋꤥꤊꤢꤧ꤭": 7586,
      "ꤢ꤬ꤍ꤫ꤥ꤬ꤗ꤫ꤢ꤬ꤊꤢꤧ꤭": 7587,
      "ꤟꤢꤩꤏꤢꤦ꤬ꤋꤛꤢ꤭": 7588,
      "ꤟꤢꤩꤏꤢꤦ꤬ꤕꤜꤥ꤭": 7589,
      "ꤋꤚꤝꤢ꤭ꤟꤢꤩ": 7590,
      "ꤋꤚꤝꤢ꤭ꤊꤢ꤬": 7591,
      "ꤋꤚꤝꤢ꤭ꤞꤢꤦ": 7592,
      "ꤋꤚꤝꤢ꤭ꤙꤢꤧꤞꤝꤢ": 7593,
      "ꤋꤚꤝꤢ꤭ꤟꤢꤩꤊꤣꤧ꤭": 7594,
      "ꤗꤢꤨꤗ꤫ꤢꤧ꤬ꤜꤣ": 7595,
      "ꤖꤚꤢꤩ꤬ꤗꤢꤪ꤬ꤗꤢꤪ꤬": 7596,
      "ꤖꤚꤢꤩ꤬ꤗꤢꤪ꤬ꤖꤢꤨꤡ꤫ꤢꤩ꤬ꤟꤢꤨꤣꤧ꤭": 7597,
      "ꤖꤚꤢꤩ꤬ꤗꤢꤪ꤬ꤞꤢꤪ꤬ꤗꤢꤩ꤭": 7598,
      "ꤗꤢꤪꤋꤢꤨ꤬ꤞꤢꤩ꤭": 7599,
      "ꤗꤢꤪꤋꤢꤨ꤬ꤓꤝꤢ꤭ꤞꤢꤩ꤭": 7600,
      "ꤜꤢ꤬ꤗꤢ": 7601,
      "ꤜꤢ꤬ꤘꤢꤩꤜꤢ꤬": 7602,
      "ꤖꤢꤒꤥ꤬": 7603,
      "ꤜꤢꤨꤎꤣ꤬": 7604,
      "ꤜꤢꤨꤊꤢꤪ꤬": 7605,
      "ꤗꤤ꤬ꤔꤣꤧ꤬": 7606,
      "ꤗꤤ꤬ꤣꤧ꤭": 7607,
      "ꤗꤤ꤬ꤋꤥ꤬ꤓꤢꤧ꤬": 7608,
      "ꤋꤝꤤꤒꤣꤧ꤬ꤟꤢꤩ꤬": 7609,
      "ꤋꤝꤤꤟꤤ꤬": 7610,
      "ꤋꤝꤤꤕꤢꤪꤒꤤ꤬ꤛꤢꤕꤤꤜꤢ": 7611,
      "ꤞꤥ꤭ꤙꤢꤩ꤬": 7612,
      "ꤞꤥ꤭ꤚꤤ": 7613,
      "ꤞꤥ꤭ꤡꤝ꤫ꤢꤩ꤬": 7614,
      "ꤞꤥ꤭ꤒ꤫ꤥ꤬ꤒꤣ꤬ꤒ꤫ꤥ꤬": 7615,
      "ꤞꤥ꤭ꤜꤤ꤬ꤞꤥ꤭ꤜꤢꤩ꤭": 7616,
      "ꤔ꤫ꤤ꤬ꤟꤥ꤭ꤞꤤꤑꤢꤩ꤭": 7617,
      "ꤔ꤫ꤤ꤬ꤟꤥ꤭ꤜꤢ꤭ꤟꤤ": 7618,
      "ꤕꤣꤧ꤬ꤥ": 7619,
      "ꤊꤣꤧ꤬ꤓꤢꤪ꤬ꤜꤢꤪ꤭": 7620,
      "ꤊꤣꤧ꤬ꤓꤢꤪ꤬ꤡꤝꤢ": 7621,
      "ꤊꤣꤧ꤬ꤓꤢꤪ꤬ꤤ꤬ꤏꤝꤤ": 7622,
      "ꤋꤚꤢꤦ꤭ꤜꤢ꤭": 7623,
      "ꤏꤛꤢ꤬ꤚꤣ꤬": 7624,
      "ꤏꤛꤣ꤬ꤖꤢ": 7625,
      "ꤢ꤬ꤙꤥ": 7626,
      "ꤒꤢꤩ꤬ꤞꤤꤋꤢ": 7627,
      "ꤒꤢꤩ꤬ꤞꤤꤋꤝꤢꤩ": 7628,
      "ꤒꤢꤩ꤬ꤞꤤꤔ꤫ꤢꤩ꤬ꤓꤢꤧ꤬": 7629,
      "ꤒꤢꤩ꤬ꤞꤤꤓꤢꤩ꤬ꤞꤤꤟꤢ꤭": 7630,
      "ꤞꤢꤩ꤭ꤚꤢꤩ꤬": 7631,
      "ꤞꤢꤩ꤭ꤖꤢꤩꤊꤢꤧ꤭": 7632,
      "ꤣꤧ꤭ꤒꤣ꤬ꤊ꤫ꤢꤩ꤬": 7633,
      "ꤣꤧ꤭ꤒꤣ꤬ꤗꤤ꤭": 7634,
      "ꤣꤧ꤭ꤒꤣ꤬ꤊꤢꤨ꤭ꤔꤣꤧ꤬": 7635,
      "ꤓꤢꤩ꤬ꤡꤝꤢꤙꤢꤩ": 7636,
      "ꤓꤢꤩ꤬ꤡꤝꤢꤜꤢꤩ꤭": 7637,
      "ꤓꤢꤩ꤬ꤡꤝꤢꤒꤢ꤬": 7638,
      "ꤓꤢꤩ꤬ꤡꤝꤢꤓꤢꤧ꤬ꤊꤢꤧ꤭": 7639,
      "ꤜꤢꤩ꤭ꤊꤢꤨ꤭": 7640,
      "ꤜꤢꤩ꤭ꤊꤢꤩ꤬": 7641,
      "ꤜꤢꤩ꤭ꤜꤢꤧ꤬": 7642,
      "ꤜꤢꤩ꤭ꤜꤢꤩ꤭": 7643,
      "ꤜꤢꤩ꤭ꤋꤝꤢ": 7644,
      "ꤜꤢꤩ꤭ꤗꤢꤧ꤬": 7645,
      "ꤘꤢꤧꤔꤢꤧ꤬": 7646,
      "ꤘꤢꤧꤊꤣꤧ꤭": 7647,
      "ꤘꤢꤧꤚꤣꤧ": 7648,
      "ꤘꤢꤧꤟꤢꤧ꤭ꤔ꤫ꤤ꤬": 7649,
      "ꤘꤢꤧꤋꤢꤋꤥ꤬": 7650,
      "ꤘꤢꤧꤜꤢꤧ꤭": 7651,
      "ꤘꤢꤧꤡꤝꤢꤔ꤫ꤤ꤬": 7652,
      "ꤘꤢꤧꤏꤥ꤭ꤏꤢꤦꤖꤢꤧ": 7653,
      "ꤘꤣꤧꤟꤣꤧ꤭ꤔ꤫ꤤ꤬": 7654,
      "ꤘꤣꤧꤟꤣꤧ꤭ꤒ꤫ꤥ꤬": 7655,
      "ꤘꤣꤧꤟꤣꤧ꤭ꤕ꤫ꤥ꤬": 7656,
      "ꤘꤣꤧꤟꤣꤧ꤭ꤜꤢ꤭ꤒꤢꤩ꤬": 7657,
      "ꤘꤣꤧꤟꤣꤧ꤭ꤟꤥ꤬": 7658,
      "ꤙꤢꤧꤥ꤬": 7659,
      "ꤙꤢꤧꤗꤢ꤬": 7660,
      "ꤜꤤ꤭ꤟꤢꤧ꤭": 7661,
      "ꤜꤤ꤭ꤊꤢ꤬": 7662,
      "ꤜꤤ꤭ꤒꤣꤧ꤬ꤘꤢꤦ꤬": 7663,
      "ꤜꤤ꤭ꤏꤢꤩ": 7664,
      "ꤋꤥꤜꤣ": 7665,
      "ꤟꤤꤎꤥ": 7666,
      "ꤏꤣꤧꤍꤢꤧ꤭": 7667,
      "ꤚꤢ꤭ꤊꤣꤧ꤭": 7668,
      "ꤚꤢ꤭ꤚꤣꤧ": 7669,
      "ꤚꤢ꤭ꤥ꤬ꤒ꤫ꤣ꤬ꤊꤣꤧ꤭": 7670,
      "ꤟꤢꤨꤒꤢꤩ꤭ꤚꤣꤧ꤬": 7671,
      "ꤊꤜꤢꤧꤘꤢꤨ꤬": 7672,
      "ꤊꤜꤢꤧꤒꤥ꤭": 7673,
      "ꤊꤜꤢꤧꤒ꤫ꤢꤩ꤬": 7674,
      "ꤔꤢꤪꤔꤢꤧ": 7675,
      "ꤘꤣꤧꤡꤢ꤭ꤡꤢꤪ": 7676,
      "ꤘꤣꤧꤡꤢ꤭ꤙꤢꤩ꤬": 7677,
      "ꤘꤣꤧꤡꤢ꤭ꤖꤢꤧ": 7678,
      "ꤘꤣꤧꤡꤢ꤭ꤒꤥ꤭": 7679,
      "ꤢ꤬ꤒꤢꤩ꤬ꤢꤩ": 7680,
      "ꤢ꤬ꤒꤢꤩ꤬ꤜꤢꤨ꤭": 7681,
      "ꤢ꤬ꤒꤢꤩ꤬ꤚꤣꤧ": 7682,
      "ꤢ꤬ꤒꤢꤩ꤬ꤔꤢꤪ꤭": 7683,
      "ꤢ꤬ꤒꤢꤩ꤬ꤞꤤꤛ꤫ꤢꤦ꤬": 7684,
      "ꤢ꤬ꤒꤢꤩ꤬ꤟꤢꤩꤙꤢꤩ꤬": 7685,
      "ꤢ꤬ꤒꤢꤩ꤬ꤚꤢꤧ": 7686,
      "ꤢ꤬ꤒꤢꤩ꤬ꤚꤢ꤭": 7687,
      "ꤢ꤬ꤒꤢꤩ꤬ꤗꤢꤨꤗ꤫ꤢꤧ꤬ꤚꤤ꤬ꤡ꤫ꤢꤧ꤬": 7688,
      "ꤢ꤬ꤒꤢꤩ꤬ꤜ꤫ꤥ꤬": 7689,
      "ꤢ꤬ꤒꤢꤩ꤬ꤢꤪꤜꤢꤧ꤬": 7690,
      "ꤢ꤬ꤒꤢꤩ꤬ꤒꤣꤧ꤬ꤚꤣꤧ꤭ꤏꤝꤢ꤬ꤏꤢꤪ꤭": 7691,
      "ꤢ꤬ꤒꤢꤩ꤬ꤚꤢꤧ꤭": 7692,
      "ꤢ꤬ꤒꤢꤩ꤬ꤟꤢꤩꤙꤢꤩ꤬ꤟꤢꤩꤏꤥ꤭": 7693,
      "ꤢ꤬ꤒꤢꤩ꤬ꤖꤚꤥ꤬ꤒꤢꤩ꤬ꤖꤚꤢꤧ꤬": 7694,
      "ꤔ꤫ꤤ꤬ꤘꤢ꤭ꤟꤣꤧ": 7695,
      "ꤔ꤫ꤤ꤬ꤘꤢ꤭ꤘꤢꤦ꤬": 7696,
      "ꤔ꤫ꤤ꤬ꤘꤢ꤭ꤖꤢꤧ": 7697,
      "ꤔ꤫ꤤ꤬ꤘꤢ꤭ꤕꤢ꤬": 7698,
      "ꤔ꤫ꤤ꤬ꤘꤢ꤭ꤡꤢꤨ꤭ꤢꤩ꤬": 7699,
      "ꤟꤢꤨꤣꤧ꤭ꤟꤣꤧ": 7700,
      "ꤟꤢꤨꤣꤧ꤭ꤟꤢꤨꤔꤣꤧ꤬": 7701,
      "ꤢ꤬ꤛ꤫ꤢꤧ꤬ꤛꤥ꤬ꤞꤣꤧ꤭ꤖꤚꤢꤩ꤬": 7702,
      "ꤓꤢꤩ꤭ꤒꤣꤧ꤬ꤢꤩ꤬": 7703,
      "ꤙꤢ꤭ꤕꤢ꤬": 7704,
      "ꤜꤣꤧ꤬ꤕꤜꤢꤩꤚꤣꤧ": 7705,
      "ꤜꤣꤧ꤬ꤕꤜꤢꤩꤡ꤫ꤢꤧ꤬": 7706,
      "ꤡꤝ꤫ꤢ꤬ꤚꤣꤧꤘꤢꤦ꤬": 7707,
      "ꤗꤢꤨꤗ꤫ꤢꤧ꤬ꤚꤤ꤬ꤡ꤫ꤢꤧ꤬ꤜꤣ": 7708,
      "ꤢ꤬ꤚꤥ꤬ꤔꤣꤧ꤬": 7709,
      "ꤒ꤫ꤣ꤬ꤊꤣꤧ꤭ꤔꤢꤧ": 7710,
      "ꤒ꤫ꤣ꤬ꤊꤣꤧ꤭ꤒꤢꤩ꤬": 7711,
      "ꤒ꤫ꤣ꤬ꤊꤣꤧ꤭ꤟꤣꤧ": 7712,
      "ꤚꤢ꤬ꤞꤢꤩ꤬": 7713,
      "ꤚꤢ꤬ꤒꤣꤧ꤬ꤠꤢ꤬ꤙꤤ": 7714,
      "ꤚꤢ꤬ꤞꤣꤧ꤭ꤘꤝꤢ꤭": 7715,
      "ꤊꤜꤣꤧ꤭ꤊꤜꤥ꤭": 7716,
      "ꤗꤢꤦ꤭ꤕꤢꤪ꤬": 7717,
      "ꤜ꤫ꤥ꤬ꤥ꤭": 7718,
      "ꤜ꤫ꤥ꤬ꤗꤢꤩ꤬": 7719,
      "ꤜ꤫ꤥ꤬ꤔꤢꤪ": 7720,
      "ꤜ꤫ꤥ꤬ꤓꤢꤩ꤭": 7721,
      "ꤜ꤫ꤥ꤬ꤗꤢꤩ꤬ꤕꤢ꤬": 7722,
      "ꤜ꤫ꤥ꤬ꤟꤢꤩꤊꤣꤧ꤭": 7723,
      "ꤔꤣꤧ꤬ꤒꤣ꤬ꤋꤢꤨ꤬": 7724,
      "ꤔꤣꤧ꤬ꤒꤣ꤬ꤋꤥ": 7725,
      "ꤔꤣꤧ꤬ꤒꤣ꤬ꤘꤢꤪ꤭": 7726,
      "ꤔꤣꤧ꤬ꤒꤣ꤬ꤚꤥ꤭": 7727,
      "ꤔꤣꤧ꤬ꤒꤣ꤬ꤊꤜꤢꤨ꤭": 7728,
      "ꤗ꤫ꤢ꤬ꤔꤤꤔꤢꤧ꤬ꤟꤣꤧ": 7729,
      "ꤘꤣꤧꤜꤥ꤭ꤚꤣꤧ": 7730,
      "ꤘꤣꤧꤜꤥ꤭ꤓꤢꤧ꤬ꤟꤣꤧ": 7731,
      "ꤘꤣꤧꤜꤥ꤭ꤊꤢꤧ꤭ꤟꤣꤧ": 7732,
      "ꤜꤥ꤭ꤔꤢꤩꤒꤣꤧ꤬ꤟꤢꤩ꤬": 7733,
      "ꤊ꤫ꤢꤦ꤬ꤚꤢꤩ꤭ꤜ꤫ꤢꤨ꤬": 7734,
      "ꤥ꤬ꤗꤥ꤭ꤓꤢꤧ꤬": 7735,
      "ꤒꤢ꤭ꤒꤢꤩ꤬ꤔꤥ꤬": 7736,
      "ꤎꤢ꤬ꤗꤢ꤬": 7737,
      "ꤎꤢ꤬ꤗꤢꤨꤚꤢ꤬": 7738,
      "ꤏꤢꤩ꤬ꤣꤧ꤭": 7739,
      "ꤤ꤬ꤏꤢꤩ꤭ꤒꤢ꤭": 7740,
      "ꤢ꤬ꤜ꤫ꤢꤩ꤬ꤒꤢꤩ꤭": 7741,
      "ꤢ꤬ꤜ꤫ꤢꤩ꤬ꤜ꤫ꤢꤩ꤬": 7742,
      "ꤢ꤬ꤜ꤫ꤢꤩ꤬ꤗꤢꤧꤙꤢꤦ꤭": 7743,
      "ꤕ꤫ꤢꤦ꤬ꤗꤢꤩ꤬ꤞꤣꤧ꤭": 7744,
      "ꤕ꤫ꤢꤦ꤬ꤊꤜꤢꤪ꤬ꤗꤢ꤬": 7745,
      "ꤕ꤫ꤢꤦ꤬ꤘꤢꤪꤒꤢ꤭": 7746,
      "ꤕ꤫ꤢꤦ꤬ꤢꤩ꤬ꤊꤢꤧ꤭": 7747,
      "ꤕ꤫ꤢꤦ꤬ꤥ꤬ꤗꤢ꤬": 7748,
      "ꤕ꤫ꤢꤦ꤬ꤋꤚ꤫ꤢ꤬": 7749,
      "ꤒꤣꤧ꤬ꤘꤢꤦ꤬ꤟꤣꤧ": 7750,
      "ꤒꤣꤧ꤬ꤘꤢꤦ꤬ꤘꤢꤦ꤬": 7751,
      "ꤗꤢꤩ꤬ꤞꤣꤧ꤭ꤓꤥ꤭ꤟꤣꤧ": 7752,
      "ꤗꤢꤩ꤬ꤞꤣꤧ꤭ꤔꤢꤪ": 7753,
      "ꤔꤢꤧ꤭ꤘꤢꤦ꤬ꤟꤣꤧ": 7754,
      "ꤘꤤ꤭ꤘꤥ꤭": 7755,
      "ꤘꤤ꤭ꤕꤢꤪ꤭": 7756,
      "ꤚ꤫ꤥ꤬ꤟꤣꤧ": 7757,
      "ꤖꤚꤢꤩ꤬ꤖꤚꤥ꤬ꤔꤣꤧ꤬": 7758,
      "ꤟꤢꤩꤏꤥ꤬ꤜꤥ꤭ꤊꤢꤧ꤭": 7759,
      "ꤜ꤫ꤢꤪ꤬ꤋꤢꤨ꤬": 7760,
      "ꤜ꤫ꤢꤪ꤬ꤞꤣꤧ꤭ꤖꤚꤢꤩ꤬": 7761,
      "ꤜ꤫ꤢꤪ꤬ꤙꤢ꤬": 7762,
      "ꤜ꤫ꤢꤪ꤬ꤙꤢꤧ꤭": 7763,
      "ꤜ꤫ꤢꤪ꤬ꤒꤣꤧ꤬ꤖꤢꤩ꤬": 7764,
      "ꤜ꤫ꤢꤪ꤬ꤙꤢ꤬ꤜꤥ꤬": 7765,
      "ꤗꤢꤧꤕꤢꤨ꤭ꤗꤢꤩ꤬": 7766,
      "ꤗꤢꤧꤕꤢꤨ꤭ꤚꤢꤧ꤬": 7767,
      "ꤗꤢꤧꤕꤢꤨ꤭ꤘꤢꤧ꤬": 7768,
      "ꤗꤢꤧꤕꤢꤨ꤭ꤔꤥ꤭": 7769,
      "ꤛꤥ꤭ꤞꤢ꤬": 7770,
      "ꤗꤢꤩ꤬ꤡꤝ꤫ꤢ꤬ꤔꤢꤪ": 7771,
      "ꤒꤣꤧ꤬ꤜꤝꤢ꤬": 7772,
      "ꤊꤝꤤ꤭ꤡꤢꤪꤙꤢꤩ꤭ꤚꤣꤧ": 7773,
      "ꤜ꤫ꤢꤩ꤬ꤥ꤬ꤔꤣꤧ꤬": 7774,
      "ꤜ꤫ꤢꤩ꤬ꤥ꤬ꤕ꤫ꤢꤪ꤬": 7775,
      "ꤜ꤫ꤢꤩ꤬ꤥ꤬ꤋꤚꤢ꤭": 7776,
      "ꤜ꤫ꤢꤩ꤬ꤥ꤬ꤜ꤫ꤢꤧ꤬": 7777,
      "ꤜ꤫ꤢꤩ꤬ꤥ꤬ꤞꤥ꤬ꤋꤚꤢꤩ꤭": 7778,
      "ꤞꤤꤛꤢꤪ꤬ꤡ꤫ꤢꤧ꤬": 7779,
      "ꤒꤢꤩ꤬ꤛ꤫ꤢꤦ꤬ꤣꤧ꤭": 7780,
      "ꤚ꤫ꤣꤧ꤬ꤓꤥ꤭ꤟꤣꤧ": 7781,
      "ꤚ꤫ꤣꤧ꤬ꤘꤢꤦ꤬ꤟꤣꤧ": 7782,
      "ꤚ꤫ꤣꤧ꤬ꤜ꤫ꤢꤩ꤬ꤊꤢꤧ꤭": 7783,
      "ꤤ꤬ꤞꤣꤧ꤬ꤤ꤬ꤊꤤ꤭": 7784,
      "ꤡꤢꤦ꤭ꤖꤢꤧ": 7785,
      "ꤤ꤬ꤞꤝꤢꤤ꤬ꤞꤢꤧ꤬ꤟꤣꤧ": 7786,
      "ꤤ꤬ꤞꤝꤢꤤ꤬ꤞꤢꤧ꤬ꤊꤢꤧ꤭": 7787,
      "ꤤ꤬ꤞꤝꤢꤤ꤬ꤞꤢꤧ꤬ꤡ꤫ꤢꤧ꤬": 7788,
      "ꤒꤢꤩ꤬ꤊꤢꤧ꤭ꤏꤢ": 7789,
      "ꤞꤢꤨ꤭ꤓꤢꤧ꤬": 7790,
      "ꤞꤢꤨ꤭ꤚꤣꤧ": 7791,
      "ꤞꤢꤨ꤭ꤓꤢꤩ꤬": 7792,
      "ꤞꤢꤨ꤭ꤞꤢꤦ": 7793,
      "ꤔꤢ꤬ꤑꤢ꤭": 7794,
      "ꤔꤢ꤬ꤟꤢꤩꤔꤢꤨ꤬": 7795,
      "ꤔꤢ꤬ꤘꤢꤨ": 7796,
      "ꤔꤢ꤬ꤞꤢ꤬ꤜꤤ꤬": 7797,
      "ꤕꤣꤜꤢꤪ꤭": 7798,
      "ꤕꤣꤓꤣꤧ꤭ꤊ꤫ꤢꤩ꤬": 7799,
      "ꤓꤢꤧ꤬ꤜꤥ꤭ꤜꤣꤢꤨ꤭": 7800,
      "ꤟꤢꤧ꤭ꤒ꤫ꤥ꤬ꤕꤢ꤭": 7801,
      "ꤙꤤꤚꤣꤧ": 7802,
      "ꤙꤤꤡ꤫ꤢꤧ꤬": 7803,
      "ꤙꤤꤞꤢꤧꤙꤤ": 7804,
      "ꤢ꤬ꤖꤢꤩ꤭ꤥ꤬": 7805,
      "ꤘꤣꤧꤒꤢ꤭ꤊꤣꤧ꤭": 7806,
      "ꤘꤣꤧꤒꤢ꤭ꤕ꤫ꤢꤩ꤬": 7807,
      "ꤘꤣꤧꤒꤢ꤭ꤘꤢꤦ꤬": 7808,
      "ꤥ꤬ꤗ꤫ꤢꤩ꤬ꤖꤚꤢꤦ": 7809,
      "ꤞꤤꤔꤣꤧ꤭ꤖꤢꤧ": 7810,
      "ꤘꤤꤜꤥ": 7811,
      "ꤘꤤꤎꤢꤨ꤬": 7812,
      "ꤢꤪꤜꤢꤧ꤬ꤏꤢꤦ꤬": 7813,
      "ꤢ꤬ꤗꤝꤤ꤭ꤊꤢꤨ꤭": 7814,
      "ꤢ꤬ꤗꤝꤤ꤭ꤋꤛꤢ꤭": 7815,
      "ꤢ꤬ꤗꤝꤤ꤭ꤕꤢꤩ꤭": 7816,
      "ꤢ꤬ꤗꤝꤤ꤭ꤘꤢꤨ꤬ꤗꤝꤤ꤭ꤓꤢꤨ꤭": 7817,
      "ꤟꤢꤧ꤭ꤑꤢꤩ꤭ꤑꤢꤩ꤭": 7818,
      "ꤘꤢꤨ꤬ꤜꤣꤔꤢꤧ꤭": 7819,
      "ꤕꤛꤢꤔꤥ꤭": 7820,
      "ꤘꤢ꤬ꤗꤤ꤬": 7821,
      "ꤢ꤬ꤜꤢꤩ꤬ꤜꤢ": 7822,
      "ꤊꤜꤝꤤ꤭ꤘꤢꤧꤜꤢꤧ꤭": 7823,
      "ꤙꤢꤩꤗꤢꤨ꤬ꤣꤧ꤭": 7824,
      "ꤘꤢꤪ꤭ꤏꤥ꤬": 7825,
      "ꤒꤢꤩ꤬ꤜꤢꤨ꤭ꤒꤢꤧ꤭ꤟꤥ꤭ꤊꤢꤨ꤭": 7826,
      "ꤊꤥꤊꤣꤧ꤭": 7827,
      "ꤒꤣꤧ꤬ꤖꤢ꤭ꤖꤢꤩ꤬ꤊꤢꤧ꤭": 7828,
      "ꤒꤣꤧ꤬ꤖꤢ꤭ꤒꤣꤧ꤬ꤔ꤫ꤢ꤬": 7829,
      "ꤥ꤬ꤕ꤫ꤢꤪ꤬ꤚꤣꤧ": 7830,
      "ꤥ꤬ꤕ꤫ꤢꤪ꤬ꤒꤣꤧ꤬ꤘꤢꤦ꤬": 7831,
      "ꤛꤢ꤬ꤚꤢꤨꤏꤛꤢ꤬ꤜꤢꤩ꤬ꤖꤢꤨ": 7832,
      "ꤖꤢꤦ꤬ꤙꤢ꤭": 7833,
      "ꤖꤢꤦ꤬ꤙꤢꤩ꤬ꤟꤣꤧ": 7834,
      "ꤖꤚꤢꤩ꤬ꤗꤢꤩ꤬ꤞꤢꤦ": 7835,
      "ꤖꤚꤢꤩ꤬ꤗꤢꤩ꤬ꤢꤩ꤬ꤒꤢꤩ꤭ꤟꤢꤨ": 7836,
      "ꤖꤚꤢꤩ꤬ꤗꤢꤩ꤬ꤒ꤫ꤣ꤬ꤒꤢꤩ꤬": 7837,
      "ꤖꤚꤢꤩ꤬ꤗꤢꤩ꤬ꤊ꤫ꤢꤦ꤬ꤗꤢꤩ꤬ꤋꤢ": 7838,
      "ꤔꤢꤪ꤭ꤟꤢꤧ꤭ꤕ꤫ꤥ꤬": 7839,
      "ꤊꤢꤧꤊꤝꤢ꤬": 7840,
      "ꤊꤢꤨꤋꤢꤨ꤬ꤒꤢꤦ꤭": 7841,
      "ꤊꤢꤨꤋꤢꤨ꤬ꤊꤣꤧ꤬ꤘꤢ꤭": 7842,
      "ꤙꤢꤔꤣꤧ꤬": 7843,
      "ꤙꤢꤔꤣꤧ꤬ꤗꤢ꤬": 7844,
      "ꤛ꤫ꤢꤧ꤬ꤛꤥ꤬ꤞꤣꤧ꤭ꤖꤚꤢꤩ꤬ꤣꤧ꤭": 7845,
      "ꤑꤢ꤭ꤜꤥ꤬": 7846,
      "ꤑꤢ꤭ꤊꤣꤧ꤭ꤕꤢ꤬": 7847,
      "ꤑꤢ꤭ꤚꤢ꤬ꤚꤢꤩ꤬": 7848,
      "ꤞꤤꤋꤚꤢꤦ꤭ꤗꤣꤧ꤭": 7849,
      "ꤜꤢ꤭ꤒꤢꤩ꤬ꤚꤣꤧ꤬": 7850,
      "ꤔꤝꤢꤗꤢꤩ꤬": 7851,
      "ꤙꤢꤧꤞꤝꤢꤔ꤫ꤤ꤬": 7852,
      "ꤞꤢꤪ꤬ꤊꤜꤣꤧ꤭ꤣꤧ꤭": 7853,
      "ꤠꤢꤩ꤬ꤞꤤ꤭": 7854,
      "ꤠꤢꤩ꤬ꤋꤣꤧ꤭": 7855,
      "ꤜꤢꤢꤦ꤭": 7856,
      "ꤘꤣꤋꤛꤢ꤭ꤕꤢ꤭": 7857,
      "ꤘꤣꤋꤛꤢ꤭ꤕꤢ꤭ꤔꤣꤧ꤬": 7858,
      "ꤘꤤ꤭ꤒ꤫ꤢꤦ꤬ꤟꤣꤧ": 7859,
      "ꤘꤤ꤭ꤒ꤫ꤢꤦ꤬ꤘꤢꤦ꤬": 7860,
      "ꤕꤥ꤬ꤗꤢꤧ": 7861,
      "ꤕꤥ꤬ꤊꤢ": 7862,
      "ꤕꤥ꤬ꤒꤢꤩ": 7863,
      "ꤢ꤬ꤥ꤬ꤟꤢꤧ꤭": 7864,
      "ꤞꤤꤗꤤ꤬ꤘꤢꤨ꤬": 7865,
      "ꤞꤤꤗꤤ꤬ꤗꤢꤨ꤬": 7866,
      "ꤞꤤꤗꤤ꤬ꤏꤢꤦ꤬": 7867,
      "ꤞꤤꤗꤤ꤬ꤕꤥ꤬": 7868,
      "ꤗꤢꤩ꤬ꤒꤢꤩ꤬ꤒꤥ꤭": 7869,
      "ꤗꤢꤩ꤬ꤒꤢꤩ꤬ꤟꤢꤨꤣꤧ꤭": 7870,
      "ꤗꤢꤩ꤬ꤒꤢꤩ꤬ꤒꤥ꤭ꤒꤥ꤬": 7871,
      "ꤜꤢꤩ꤬ꤛꤢ꤬": 7872,
      "ꤜꤝꤤ꤭ꤖꤚꤢꤩ꤬": 7873,
      "ꤜꤝꤤ꤭ꤔꤣꤧ꤭": 7874,
      "ꤜꤝꤤ꤭ꤋꤥ": 7875,
      "ꤜꤝꤤ꤭ꤊꤛꤢ꤭": 7876,
      "ꤜꤝꤤ꤭ꤗꤤꤜꤢꤩ꤬": 7877,
      "ꤡꤢ꤬ꤞꤢꤩ꤭": 7878,
      "ꤡꤢ꤬ꤓꤢꤦ꤭": 7879,
      "ꤒꤣꤧ꤬ꤜꤝꤢꤒꤢ꤭ꤊꤢꤧ꤭": 7880,
      "ꤖꤥ꤭ꤋꤤ꤭": 7881,
      "ꤒꤣ꤬ꤔꤣꤧ꤭ꤟꤣꤧ": 7882,
      "ꤒꤣ꤬ꤔꤣꤧ꤭ꤕꤢ꤭": 7883,
      "ꤛ꤫ꤢꤦ꤬ꤢꤩ꤬ꤔ꤫ꤢꤧ꤬ꤢꤩ꤬ꤊꤢ꤬": 7884,
      "ꤗꤢꤧꤏꤢꤦ꤭ꤗꤢꤧꤒ꤫ꤢꤨ꤬": 7885,
      "ꤜꤣꤙꤢ꤭ꤜꤣ": 7886,
      "ꤜꤢꤩꤚꤣꤧ": 7887,
      "ꤜꤢꤩꤡꤤ꤬": 7888,
      "ꤔꤥ꤬ꤖꤢꤧ": 7889,
      "ꤔꤥ꤬ꤕꤢ꤭ꤗꤢ꤬": 7890,
      "ꤜꤢ꤭ꤟꤤꤒꤥ꤬ꤔꤣꤧ꤬": 7891,
      "ꤜꤢ꤭ꤟꤤꤒꤥ꤬ꤣꤧ꤭": 7892,
      "ꤖꤢꤩꤕꤛꤢꤊꤢꤧ꤭": 7893,
      "ꤜꤣꤧ꤬ꤟꤥ꤭ꤥ꤭": 7894,
      "ꤜꤣꤧ꤬ꤟꤥ꤭ꤚꤣꤧ": 7895,
      "ꤜꤣꤧ꤬ꤟꤥ꤭ꤡ꤫ꤢꤧ꤬": 7896,
      "ꤜꤣꤧ꤬ꤟꤥ꤭ꤔꤢꤪ": 7897,
      "ꤒꤣꤧ꤬ꤕꤜꤢꤩ꤬ꤋꤥ": 7898,
      "ꤒꤣꤧ꤬ꤕꤜꤢꤩ꤬ꤋꤥꤊꤢꤧ꤭": 7899,
      "ꤏꤥ꤬ꤣꤧ꤭": 7900,
      "ꤏꤥ꤬ꤊꤢꤨ꤭": 7901,
      "ꤏꤥ꤬ꤜꤢꤩ꤭": 7902,
      "ꤏꤥ꤬ꤓꤢꤨ꤭": 7903,
      "ꤏꤥ꤬ꤕꤥ꤬ꤒꤢꤩ": 7904,
      "ꤒꤢꤩ꤬ꤞꤣꤧ꤭ꤚꤢ꤬ꤞꤣꤧ꤭ꤘꤝꤢ꤭": 7905,
      "ꤢ꤬ꤜꤤ꤬ꤊꤣꤧ꤬ꤞꤝꤤ": 7906,
      "ꤡꤝꤢꤔꤥ꤭ꤚ꤫ꤣꤧ꤬": 7907,
      "ꤡꤝꤢꤔꤥ꤭ꤥ꤬ꤊꤢꤧ꤭": 7908,
      "ꤋꤢꤧꤙꤢꤩ꤬ꤟꤣꤧ": 7909,
      "ꤋꤢꤧꤙꤢꤩ꤬ꤜꤢꤪ꤭": 7910,
      "ꤋꤢꤧꤙꤢꤩ꤬ꤊꤣꤧ꤭": 7911,
      "ꤋꤢꤧꤙꤢꤩ꤬ꤔꤢꤧ꤭": 7912,
      "ꤋꤢꤧꤙꤢꤩ꤬ꤡꤢꤦ꤭": 7913,
      "ꤕꤜꤝꤢ꤭ꤊꤢꤧ꤭ꤚꤣꤧ": 7914,
      "ꤒꤢꤩ꤬ꤏꤢꤩ꤭ꤔ꤫ꤢꤩ꤬ꤏꤢꤩ꤭": 7915,
      "ꤞꤢꤨꤏꤛꤢꤩ꤬": 7916,
      "ꤞꤢꤨꤕꤜ꤫ꤢꤩ꤬": 7917,
      "ꤏꤝꤤꤏꤢꤩ꤭": 7918,
      "ꤙꤣꤧꤒꤢꤩ꤭ꤔꤣꤧ꤬": 7919,
      "ꤔꤢꤨ꤬ꤛꤣ꤬": 7920,
      "ꤗꤢꤩ꤬ꤞꤢꤦꤊꤣꤧ꤭": 7921,
      "ꤗꤢꤩ꤬ꤞꤢꤦꤔꤢꤪ": 7922,
      "ꤕꤣꤧ꤬ꤒꤤꤖꤚꤢꤩ꤬": 7923,
      "ꤕꤣꤧ꤬ꤒꤤꤔ꤫ꤤ꤬": 7924,
      "ꤏꤢꤩ꤬ꤢꤩ꤬ꤣꤧ꤭": 7925,
      "ꤒꤢꤦ꤭ꤏꤢꤦ꤬": 7926,
      "ꤒꤢꤩ꤬ꤥ꤬ꤜꤥ꤭": 7927,
      "ꤒꤢꤩ꤬ꤥ꤬ꤞꤥ꤬": 7928,
      "ꤒꤢꤩ꤬ꤥ꤬ꤞꤢꤧ꤭ꤚꤢꤧ꤭ꤏꤢ꤭ꤖꤚ꤫ꤢꤩ꤬": 7929,
      "ꤒꤢꤩ꤬ꤥ꤬ꤥꤥ꤬ꤙꤤ": 7930,
      "ꤊꤣꤧ꤬ꤘꤢ꤭ꤒꤝ꤫ꤢ꤬": 7931,
      "ꤏꤢ꤭ꤗ꤫ꤥ꤬": 7932,
      "ꤏꤢ꤭ꤘꤣꤧ꤬": 7933,
      "ꤕꤝꤢꤩ꤬ꤢꤩ꤬ꤥ꤭": 7934,
      "ꤙꤣꤧꤣꤧ꤭ꤒꤣ꤬ꤖꤥ꤬ꤗꤢ꤬": 7935,
      "ꤏꤢꤦꤢꤩ꤬": 7936,
      "ꤢ꤬ꤗ꤫ꤥ꤬ꤔꤣꤧ꤬": 7937,
      "ꤢ꤬ꤗ꤫ꤥ꤬ꤣꤧ꤭": 7938,
      "ꤢ꤬ꤗ꤫ꤥ꤬ꤗ꤫ꤥ꤬": 7939,
      "ꤓꤢꤩ꤬ꤡꤝꤢꤊꤢꤧ꤭ꤟꤣꤧ": 7940,
      "ꤑꤢꤒꤣ꤬ꤖꤚꤢꤩ꤬": 7941,
      "ꤊꤝꤤ꤭ꤞꤤꤛꤢꤪ꤬ꤓꤢꤧ꤬": 7942,
      "ꤊꤜꤢꤧ꤬ꤓꤢꤧ꤬": 7943,
      "ꤊꤜꤢꤧ꤬ꤒꤢ꤭": 7944,
      "ꤊꤜꤢꤧ꤬ꤔꤥ꤭": 7945,
      "ꤊꤜꤢꤧ꤬ꤟꤢꤧ꤭ꤒꤥ꤭": 7946,
      "ꤊꤜꤢꤧ꤬ꤊꤣꤧ꤬ꤔꤥ꤭": 7947,
      "ꤡꤢꤨ꤭ꤜꤢ꤭": 7948,
      "ꤡꤢꤨ꤭ꤊꤣꤧ꤭": 7949,
      "ꤡꤢꤨ꤭ꤏꤢꤦ꤬": 7950,
      "ꤞꤤꤑꤢꤩ꤭ꤕꤜꤥ꤭ꤒꤥ꤬": 7951,
      "ꤞꤤꤑꤢꤩ꤭ꤕꤜꤥ꤭ꤕꤜꤢꤦ": 7952,
      "ꤋꤢꤪꤗꤢꤨ꤭ꤣꤧ꤭": 7953,
      "ꤒꤣ꤬ꤗꤢꤦ꤭ꤖꤢꤧ": 7954,
      "ꤒꤤ꤬ꤗꤢꤧ": 7955,
      "ꤙꤢꤪꤔꤥ꤭ꤢꤩ꤬": 7956,
      "ꤖꤚꤢ꤬ꤒꤢ꤭": 7957,
      "ꤡꤢꤪ꤭ꤔꤥ꤭": 7958,
      "ꤡꤢꤪ꤭ꤙꤤ": 7959,
      "ꤟꤤ꤬ꤓꤢꤦ꤬ꤜꤥ꤬": 7960,
      "ꤜꤢꤦ꤬ꤗꤢꤩ꤬": 7961,
      "ꤜꤢꤦ꤬ꤕ꤫ꤢꤦ꤬": 7962,
      "ꤜꤢꤦ꤬ꤗꤢꤧꤕꤢꤨ꤭": 7963,
      "ꤜꤢꤦ꤬ꤋꤚꤝꤢ꤭ꤗꤢꤩ꤬ꤊꤣꤧ꤭": 7964,
      "ꤜꤢꤦ꤬ꤗꤢꤩ꤬ꤒꤥ꤭": 7965,
      "ꤡ꤫ꤢꤦ꤬ꤞꤤ꤭": 7966,
      "ꤡ꤫ꤢꤦ꤬ꤒꤣꤧ꤬ꤟꤢꤩ꤬": 7967,
      "ꤡ꤫ꤢꤦ꤬ꤖꤢꤨ": 7968,
      "ꤋꤢꤨ꤭ꤡꤛꤥꤘꤢ꤬": 7969,
      "ꤢ꤬ꤒꤣꤧ꤬ꤚꤣꤧ꤭ꤘꤢꤨ꤬": 7970,
      "ꤢꤩꤜꤢ꤬ꤡꤝꤢ": 7971,
      "ꤢ꤬ꤓꤣꤧ꤭ꤛꤢꤧ꤭": 7972,
      "ꤢ꤬ꤓꤣꤧ꤭ꤙꤢꤩ꤭": 7973,
      "ꤟꤢꤧ꤭ꤜꤢꤧ꤬ꤟꤣꤧ": 7974,
      "ꤡꤝꤢꤒ꤫ꤥ꤬ꤖꤢꤦ꤬ꤟꤣꤧ": 7975,
      "ꤞꤤꤔ꤫ꤢꤩ꤬ꤜꤢꤧ꤬": 7976,
      "ꤢꤩꤓꤢꤧ꤬ꤜꤣꤕ꤫ꤥ꤬": 7977,
      "ꤙꤣꤧꤔꤣꤧ꤬ꤢ꤬ꤋꤢꤩ꤭ꤕꤢ꤭": 7978,
      "ꤊꤢꤦ꤭ꤙꤤꤞꤢꤧꤙꤤ": 7979,
      "ꤟꤥ꤬ꤔ꤫ꤤ꤬": 7980,
      "ꤥ꤬ꤊꤥꤗꤢ꤬": 7981,
      "ꤥ꤬ꤊꤥꤚꤣꤧ": 7982,
      "ꤥ꤬ꤊꤥꤜꤢ": 7983,
      "ꤒꤢꤩ꤬ꤜꤤ꤭ꤖꤢꤨ": 7984,
      "ꤓꤢꤪꤓꤢꤩ꤬ꤊꤢꤧ꤭": 7985,
      "ꤓꤢꤪꤖꤚꤥ": 7986,
      "ꤓꤢꤪꤡꤝꤢꤊꤢꤧ꤭": 7987,
      "ꤓꤢꤪꤒꤣꤧ꤬ꤔꤥ": 7988,
      "ꤓꤢꤪꤗꤢꤦ꤬ꤊꤢꤧ꤭": 7989,
      "ꤓꤢꤪꤒꤣꤧ꤬ꤛꤝꤤ": 7990,
      "ꤓꤢꤪꤟꤢꤧ꤭ꤏꤢꤦ꤬": 7991,
      "ꤕꤤꤛꤢ": 7992,
      "ꤋꤢꤨ꤭ꤎꤥ꤬": 7993,
[...]
